{
  "version": "1.0",
  "truncation": null,
  "padding": null,
  "added_tokens": [
    {
      "id": 0,
      "content": "<|bos|>",
      "single_word": false,
      "lstrip": false,
      "rstrip": false,
      "normalized": false,
      "special": true
    },
    {
      "id": 1,
      "content": "<|user_start|>",
      "single_word": false,
      "lstrip": false,
      "rstrip": false,
      "normalized": false,
      "special": true
    },
    {
      "id": 2,
      "content": "<|user_end|>",
      "single_word": false,
      "lstrip": false,
      "rstrip": false,
      "normalized": false,
      "special": true
    },
    {
      "id": 3,
      "content": "<|assistant_start|>",
      "single_word": false,
      "lstrip": false,
      "rstrip": false,
      "normalized": false,
      "special": true
    },
    {
      "id": 4,
      "content": "<|assistant_end|>",
      "single_word": false,
      "lstrip": false,
      "rstrip": false,
      "normalized": false,
      "special": true
    },
    {
      "id": 5,
      "content": "<|python_start|>",
      "single_word": false,
      "lstrip": false,
      "rstrip": false,
      "normalized": false,
      "special": true
    },
    {
      "id": 6,
      "content": "<|python_end|>",
      "single_word": false,
      "lstrip": false,
      "rstrip": false,
      "normalized": false,
      "special": true
    },
    {
      "id": 7,
      "content": "<|output_start|>",
      "single_word": false,
      "lstrip": false,
      "rstrip": false,
      "normalized": false,
      "special": true
    },
    {
      "id": 8,
      "content": "<|output_end|>",
      "single_word": false,
      "lstrip": false,
      "rstrip": false,
      "normalized": false,
      "special": true
    },
    {
      "id": 9,
      "content": "<|unk|>",
      "single_word": false,
      "lstrip": false,
      "rstrip": false,
      "normalized": false,
      "special": true
    }
  ],
  "normalizer": null,
  "pre_tokenizer": {
    "type": "Sequence",
    "pretokenizers": [
      {
        "type": "Split",
        "pattern": {
          "Regex": "'(?i:[sdmt]|ll|ve|re)|[^\\r\\n\\p{L}\\p{N}]?+\\p{L}+|\\p{N}{1,2}| ?[^\\s\\p{L}\\p{N}]++[\\r\\n]*|\\s*[\\r\\n]|\\s+(?!\\S)|\\s+"
        },
        "behavior": "Isolated",
        "invert": false
      },
      {
        "type": "ByteLevel",
        "add_prefix_space": false,
        "trim_offsets": true,
        "use_regex": false
      }
    ]
  },
  "post_processor": {
    "type": "TemplateProcessing",
    "single": [
      {
        "Sequence": {
          "id": "A",
          "type_id": 0
        }
      }
    ],
    "pair": [
      {
        "Sequence": {
          "id": "A",
          "type_id": 0
        }
      },
      {
        "Sequence": {
          "id": "B",
          "type_id": 1
        }
      }
    ],
    "special_tokens": {}
  },
  "decoder": null,
  "model": {
    "type": "Unigram",
    "unk_id": 9,
    "vocab": [
      [
        "<|bos|>",
        0.0
      ],
      [
        "<|user_start|>",
        0.0
      ],
      [
        "<|user_end|>",
        0.0
      ],
      [
        "<|assistant_start|>",
        0.0
      ],
      [
        "<|assistant_end|>",
        0.0
      ],
      [
        "<|python_start|>",
        0.0
      ],
      [
        "<|python_end|>",
        0.0
      ],
      [
        "<|output_start|>",
        0.0
      ],
      [
        "<|output_end|>",
        0.0
      ],
      [
        "<|unk|>",
        0.0
      ],
      [
        "Ġ",
        -2.1844834130603026
      ],
      [
        "s",
        -3.0130603054738696
      ],
      [
        ",",
        -3.561310026385579
      ],
      [
        "Ġthe",
        -3.605573838052239
      ],
      [
        ".",
        -3.850210563510189
      ],
      [
        "a",
        -4.097050765843379
      ],
      [
        "Ġof",
        -4.264170194708152
      ],
      [
        "Ġto",
        -4.392538292903698
      ],
      [
        "d",
        -4.4524199303945355
      ],
      [
        "Ġand",
        -4.46033167749299
      ],
      [
        "ing",
        -4.554263736753141
      ],
      [
        "t",
        -4.565748509183678
      ],
      [
        "e",
        -4.585850377886006
      ],
      [
        "y",
        -4.763927004455896
      ],
      [
        "Ġin",
        -4.792713609152878
      ],
      [
        "o",
        -4.8750949950050995
      ],
      [
        "'",
        -5.049943104434808
      ],
      [
        "and",
        -5.104339285284556
      ],
      [
        "i",
        -5.157549779088596
      ],
      [
        "0",
        -5.169992446236799
      ],
      [
        "Ġthat",
        -5.21322638731672
      ],
      [
        "Ġfor",
        -5.216580254594804
      ],
      [
        "Ċ",
        -5.24147377076042
      ],
      [
        "1",
        -5.2556085199645945
      ],
      [
        "n",
        -5.341327057799495
      ],
      [
        ":",
        -5.381646122027577
      ],
      [
        "ly",
        -5.399454298895895
      ],
      [
        ".ĊĊ",
        -5.424387107057001
      ],
      [
        "Ġyou",
        -5.425456123219822
      ],
      [
        "2",
        -5.497803598156864
      ],
      [
        "Ġwith",
        -5.52568944337219
      ],
      [
        "is",
        -5.537663794920217
      ],
      [
        "Ġbe",
        -5.595087056842033
      ],
      [
        ".Ċ",
        -5.626834141968169
      ],
      [
        "r",
        -5.692260354923981
      ],
      [
        "Ġare",
        -5.718871598218902
      ],
      [
        "Ġcan",
        -5.722530278896663
      ],
      [
        "ed",
        -5.745145243955154
      ],
      [
        "Ġis",
        -5.766031394328021
      ],
      [
        "the",
        -5.7849474572471244
      ],
      [
        "-",
        -5.790572229379535
      ],
      [
        "ĊĊ",
        -5.79957385995621
      ],
      [
        "Ġyour",
        -5.859604286974795
      ],
      [
        "on",
        -5.868111074803117
      ],
      [
        "f",
        -6.01004216027002
      ],
      [
        "to",
        -6.039547363563038
      ],
      [
        "\"",
        -6.046076592453739
      ],
      [
        "Ġa",
        -6.062319544406536
      ],
      [
        "(",
        -6.062843086854745
      ],
      [
        "Ġhave",
        -6.07153447222476
      ],
      [
        "Ġfrom",
        -6.074832078244182
      ],
      [
        "ĠThe",
        -6.0920264698696265
      ],
      [
        "?",
        -6.119193008710294
      ],
      [
        "3",
        -6.143667676627468
      ],
      [
        ")",
        -6.170214411739449
      ],
      [
        "in",
        -6.176149951766384
      ],
      [
        "5",
        -6.195375364758613
      ],
      [
        "Ġby",
        -6.212605737152586
      ],
      [
        "l",
        -6.222975654122505
      ],
      [
        "it",
        -6.237244423469525
      ],
      [
        "of",
        -6.2526418713927665
      ],
      [
        "Ġthis",
        -6.265699570913229
      ],
      [
        "I",
        -6.282692353530171
      ],
      [
        "Ġor",
        -6.3165964834845205
      ],
      [
        "Ġnot",
        -6.337579251126757
      ],
      [
        "4",
        -6.3515371151271705
      ],
      [
        "Ġtheir",
        -6.3713973442406235
      ],
      [
        "The",
        -6.373016063355703
      ],
      [
        "Ġwill",
        -6.373913700352643
      ],
      [
        "9",
        -6.446090102030327
      ],
      [
        "Ġas",
        -6.454575650816896
      ],
      [
        "ĠI",
        -6.477546928892169
      ],
      [
        "Ġan",
        -6.4877705709029385
      ],
      [
        "are",
        -6.497413617240843
      ],
      [
        "Ġwas",
        -6.505213996773248
      ],
      [
        "h",
        -6.542546132140075
      ],
      [
        "or",
        -6.555090321381586
      ],
      [
        "Ġmore",
        -6.561601125799964
      ],
      [
        "Ġthey",
        -6.562684667324925
      ],
      [
        "6",
        -6.597569808953722
      ],
      [
        "Ġwhich",
        -6.667964220263707
      ],
      [
        "Ġbut",
        -6.679378856481042
      ],
      [
        "8",
        -6.6807067251630805
      ],
      [
        "m",
        -6.691389253849005
      ],
      [
        "Question",
        -6.717946093134582
      ],
      [
        "A",
        -6.723660715395068
      ],
      [
        "Ġalso",
        -6.754701447884809
      ],
      [
        "7",
        -6.772547074479574
      ],
      [
        "Ġwe",
        -6.793303818989406
      ],
      [
        "Ġhas",
        -6.794858712029974
      ],
      [
        "ĠAnswer",
        -6.812645091092319
      ],
      [
        "c",
        -6.8927690846671865
      ],
      [
        "Ġwhen",
        -6.913371998313263
      ],
      [
        "Ġabout",
        -6.92466775267207
      ],
      [
        "Ġit",
        -6.966837922451452
      ],
      [
        "Ġthem",
        -6.970902589897703
      ],
      [
        "Ġtime",
        -7.004171872919359
      ],
      [
        "Ġlike",
        -7.004369638512589
      ],
      [
        "Ġmay",
        -7.008463854471659
      ],
      [
        "Ġinto",
        -7.027067564140699
      ],
      [
        "Ġ(",
        -7.054082403974979
      ],
      [
        "Ġother",
        -7.0620815887665
      ],
      [
        "Ġsome",
        -7.080461424421502
      ],
      [
        "Ġall",
        -7.086787440359496
      ],
      [
        "an",
        -7.111760721841463
      ],
      [
        "Ġhelp",
        -7.124470331234891
      ],
      [
        "Ġneed",
        -7.146322595716088
      ],
      [
        "Ġout",
        -7.153029781304447
      ],
      [
        "Ġhow",
        -7.1677886141736025
      ],
      [
        "ĠThis",
        -7.175341740859672
      ],
      [
        "Ġwater",
        -7.179756521796406
      ],
      [
        "Ġup",
        -7.181864280058209
      ],
      [
        "Ġthan",
        -7.195404474683565
      ],
      [
        "ĠIt",
        -7.1956190283776
      ],
      [
        "Ġthere",
        -7.209438843986524
      ],
      [
        "ies",
        -7.211503663809136
      ],
      [
        "Ġwhat",
        -7.21427317292226
      ],
      [
        "Ġthese",
        -7.216678281326008
      ],
      [
        "g",
        -7.225969456738133
      ],
      [
        "at",
        -7.229293984950109
      ],
      [
        ";",
        -7.23054960188936
      ],
      [
        "Ġon",
        -7.246304675306826
      ],
      [
        "ĠA",
        -7.265618223365264
      ],
      [
        "Ġwere",
        -7.270501707077516
      ],
      [
        "ĠWhat",
        -7.278671397984855
      ],
      [
        "Ġmake",
        -7.290109940226277
      ],
      [
        "Ġuse",
        -7.290711500074478
      ],
      [
        "?Ċ",
        -7.292867811521088
      ],
      [
        "cause",
        -7.310963268111339
      ],
      [
        "Ġmost",
        -7.317068129722966
      ],
      [
        "Ġbeen",
        -7.348489709276231
      ],
      [
        "Ġdo",
        -7.349347927417439
      ],
      [
        "Ġsuch",
        -7.3539528117920145
      ],
      [
        "ĠIn",
        -7.354086369013425
      ],
      [
        "Ġwho",
        -7.361932098354734
      ],
      [
        "u",
        -7.386963857378879
      ],
      [
        "Ġpeople",
        -7.391621684751399
      ],
      [
        "Ġshould",
        -7.399676177097799
      ],
      [
        "Ġwould",
        -7.401633279954465
      ],
      [
        "Ġfirst",
        -7.402746244143266
      ],
      [
        "Ġthrough",
        -7.407039066476333
      ],
      [
        "as",
        -7.408420600467819
      ],
      [
        "Ġnew",
        -7.409916057117638
      ],
      [
        "/",
        -7.421026903436887
      ],
      [
        "one",
        -7.430872126036604
      ],
      [
        "b",
        -7.443523355613458
      ],
      [
        "Ġonly",
        -7.458152149000702
      ],
      [
        "Ġany",
        -7.478225058538458
      ],
      [
        "Ġover",
        -7.484966958824653
      ],
      [
        "our",
        -7.4877647609354465
      ],
      [
        "Ġdifferent",
        -7.519486848961176
      ],
      [
        "re",
        -7.520657850372384
      ],
      [
        "Ġget",
        -7.524435628720518
      ],
      [
        "Ġwork",
        -7.525908407991603
      ],
      [
        "Ġjust",
        -7.543689226988473
      ],
      [
        "using",
        -7.544116703058286
      ],
      [
        "Ġone",
        -7.546014908104334
      ],
      [
        "Ġmany",
        -7.548052251477555
      ],
      [
        "Ġused",
        -7.557698000507463
      ],
      [
        "al",
        -7.570712273955568
      ],
      [
        "S",
        -7.57137014674263
      ],
      [
        "w",
        -7.573098505937358
      ],
      [
        "Ġbetween",
        -7.577371670830281
      ],
      [
        "able",
        -7.585477384713871
      ],
      [
        "Ġwell",
        -7.597382967109429
      ],
      [
        "Ġwhere",
        -7.618446723027553
      ],
      [
        "What",
        -7.621132623122984
      ],
      [
        "Ġi",
        -7.624890169142926
      ],
      [
        "!",
        -7.636611629498979
      ],
      [
        "Ġtake",
        -7.638023500332608
      ],
      [
        "p",
        -7.644251537124301
      ],
      [
        "Ġhigh",
        -7.647051891576746
      ],
      [
        "Ġcould",
        -7.65174401283312
      ],
      [
        "Ġtwo",
        -7.663948979098205
      ],
      [
        "Ġpart",
        -7.677062442995517
      ],
      [
        "Ġsystem",
        -7.679879049281473
      ],
      [
        "Ġchange",
        -7.689986824544212
      ],
      [
        "This",
        -7.705852005626216
      ],
      [
        "Ġmy",
        -7.718196037358453
      ],
      [
        "Ġlook",
        -7.719003408497633
      ],
      [
        "Ġeven",
        -7.7314746576004065
      ],
      [
        "Ġknow",
        -7.745754320493814
      ],
      [
        "Ġcell",
        -7.748029548675434
      ],
      [
        "Ġwant",
        -7.748865319197702
      ],
      [
        "Ġgood",
        -7.754170739839466
      ],
      [
        ").",
        -7.759597267908823
      ],
      [
        "Ġmean",
        -7.771334131963184
      ],
      [
        "ever",
        -7.775947514550995
      ],
      [
        "Ġmuc",
        -7.781972942225846
      ],
      [
        "Ġway",
        -7.791168208416705
      ],
      [
        "D",
        -7.795932864077608
      ],
      [
        "for",
        -7.806599295514686
      ],
      [
        "Ġimportant",
        -7.808647435585347
      ],
      [
        "Ġprovide",
        -7.809998438260121
      ],
      [
        "Ġyears",
        -7.811682515466664
      ],
      [
        "Ġdoes",
        -7.81392297621707
      ],
      [
        "How",
        -7.8222805810751295
      ],
      [
        "Ġenergy",
        -7.829411718614469
      ],
      [
        "ve",
        -7.831110755357518
      ],
      [
        "Ġprocess",
        -7.834144369865835
      ],
      [
        "its",
        -7.841081759949741
      ],
      [
        "es",
        -7.845454480640834
      ],
      [
        "Ġwhile",
        -7.853455881845103
      ],
      [
        "Ġhealth",
        -7.855021060382676
      ],
      [
        "Ġlong",
        -7.856726662859962
      ],
      [
        "Ġafter",
        -7.858339303869388
      ],
      [
        "Ġsee",
        -7.865800916454057
      ],
      [
        "In",
        -7.881749585785883
      ],
      [
        "Ġfood",
        -7.882646804427895
      ],
      [
        "Ġbeing",
        -7.8880494154150576
      ],
      [
        "Ġbefore",
        -7.8890677749289235
      ],
      [
        "Ġlevel",
        -7.89321630312939
      ],
      [
        "ĠYou",
        -7.897447981641186
      ],
      [
        "made",
        -7.898361343150808
      ],
      [
        "Ġworld",
        -7.900275780796106
      ],
      [
        "ĠThey",
        -7.901255143774227
      ],
      [
        "Ġcreate",
        -7.914769933246954
      ],
      [
        "Ġat",
        -7.919804998224229
      ],
      [
        "be",
        -7.920789739845017
      ],
      [
        "%",
        -7.925275892869939
      ],
      [
        "Ġlife",
        -7.929938390156539
      ],
      [
        "Ġduring",
        -7.932269417713757
      ],
      [
        "Ġsmall",
        -7.932821700949988
      ],
      [
        "Ġdown",
        -7.93322173907359
      ],
      [
        "all",
        -7.945472857585559
      ],
      [
        "Ġaround",
        -7.955493370005
      ],
      [
        "Ġhis",
        -7.9623013677358525
      ],
      [
        "ally",
        -7.980925885259162
      ],
      [
        "Ġno",
        -7.981475521360961
      ],
      [
        "Ġbody",
        -7.983622033257944
      ],
      [
        "ity",
        -7.986994084082053
      ],
      [
        "Ġhuman",
        -7.987455997557623
      ],
      [
        "T",
        -7.988284567559597
      ],
      [
        "us",
        -7.9942578056992355
      ],
      [
        "x",
        -7.996960276857164
      ],
      [
        "ĠIf",
        -7.997626020876839
      ],
      [
        "Ġthose",
        -7.998465812958681
      ],
      [
        "),",
        -8.002435814281366
      ],
      [
        "âĢĵ",
        -8.005119916438641
      ],
      [
        "C",
        -8.005515175621085
      ],
      [
        "Ġyear",
        -8.011973549755474
      ],
      [
        "Ġstudent",
        -8.012750385139292
      ],
      [
        "Ġdata",
        -8.013145058940852
      ],
      [
        "Ġboth",
        -8.01364914294415
      ],
      [
        "Ġbest",
        -8.014202409045215
      ],
      [
        "he",
        -8.023909450613461
      ],
      [
        "Ġsame",
        -8.027588085310501
      ],
      [
        "Ġfound",
        -8.031409381674555
      ],
      [
        "Ġfind",
        -8.039758621718876
      ],
      [
        "Ġback",
        -8.041508710027404
      ],
      [
        "Ġstudy",
        -8.041953519374353
      ],
      [
        "Ġdon",
        -8.057211568602947
      ],
      [
        "if",
        -8.059983801604439
      ],
      [
        "Ġnumber",
        -8.063383092424065
      ],
      [
        "Ġexperience",
        -8.066484087699173
      ],
      [
        "Ġplace",
        -8.067472228071393
      ],
      [
        "Ġcolor",
        -8.070698285090636
      ],
      [
        "ability",
        -8.071710065276097
      ],
      [
        "Ġoften",
        -8.071981903681827
      ],
      [
        "Ġcommon",
        -8.075581974912833
      ],
      [
        "Ġexample",
        -8.07768394079277
      ],
      [
        "Ġrequire",
        -8.077788117440047
      ],
      [
        "Ġinformation",
        -8.07951685202092
      ],
      [
        "Ġmight",
        -8.080890632882856
      ],
      [
        "Ġthing",
        -8.088673625732975
      ],
      [
        "ĠWe",
        -8.08972396989325
      ],
      [
        "Ġcome",
        -8.09075585687092
      ],
      [
        "Ġthink",
        -8.093656157921021
      ],
      [
        "Ġinclude",
        -8.094807388469269
      ],
      [
        "Ġresearch",
        -8.10330091060543
      ],
      [
        "that",
        -8.104830241696854
      ],
      [
        "B",
        -8.106610452041217
      ],
      [
        "by",
        -8.106741405147151
      ],
      [
        "Ġshow",
        -8.108378935273384
      ],
      [
        "Ġpower",
        -8.112982887646133
      ],
      [
        "Ġkeep",
        -8.114654223620558
      ],
      [
        "Ġhome",
        -8.116012863471465
      ],
      [
        "Ġright",
        -8.11714786705615
      ],
      [
        "Ġallow",
        -8.125404996995993
      ],
      [
        "Ġdesign",
        -8.127438673518515
      ],
      [
        "ĠFor",
        -8.132315084316406
      ],
      [
        "ĠC",
        -8.133360076323708
      ],
      [
        "Ġbetter",
        -8.144039126564191
      ],
      [
        "Ġlarge",
        -8.158876002492265
      ],
      [
        "Ġso",
        -8.159300322888772
      ],
      [
        "Ġstart",
        -8.159834214294513
      ],
      [
        "ĠHow",
        -8.159884962505592
      ],
      [
        "Ġsaid",
        -8.1679993334973
      ],
      [
        "ĠB",
        -8.17096529380829
      ],
      [
        "Ġlight",
        -8.171801072425815
      ],
      [
        "ness",
        -8.174622484184143
      ],
      [
        "Ġday",
        -8.176020215835166
      ],
      [
        ":ĊĊ",
        -8.176461150207864
      ],
      [
        "less",
        -8.178095271778751
      ],
      [
        "Ġits",
        -8.1813388927428
      ],
      [
        "Ġbecome",
        -8.184271819619024
      ],
      [
        "Ġconsider",
        -8.185520194973407
      ],
      [
        "Ġwithout",
        -8.189570907029864
      ],
      [
        "other",
        -8.191368195910309
      ],
      [
        "Ġgrow",
        -8.195956918116593
      ],
      [
        "Ġvery",
        -8.204237686780157
      ],
      [
        "Ġevery",
        -8.205794504814003
      ],
      [
        "Ġinclud",
        -8.207795458950406
      ],
      [
        "Ġproduct",
        -8.21041541813282
      ],
      [
        "Ġunder",
        -8.215090565560612
      ],
      [
        "Ġform",
        -8.218736441604808
      ],
      [
        "Ġcar",
        -8.227558869718887
      ],
      [
        "Ġresult",
        -8.227640821949272
      ],
      [
        "Ġgreat",
        -8.23347249619421
      ],
      [
        "Ġlead",
        -8.235789432089465
      ],
      [
        "Ġincrease",
        -8.2375990052148
      ],
      [
        "ĠâĢĵ",
        -8.238563929496138
      ],
      [
        "Ġgo",
        -8.2388566999018
      ],
      [
        "Ġsupport",
        -8.24675034877803
      ],
      [
        "Ġsize",
        -8.251901583572142
      ],
      [
        "Ġtemperature",
        -8.255095009923892
      ],
      [
        "ĠThese",
        -8.257647783963144
      ],
      [
        "Ġthree",
        -8.271042213463613
      ],
      [
        "use",
        -8.271138716535965
      ],
      [
        "Ġair",
        -8.273154052665753
      ],
      [
        "Ġspecific",
        -8.275240210903759
      ],
      [
        "used",
        -8.277127934127822
      ],
      [
        "Ġagain",
        -8.284181066476105
      ],
      [
        "Ġstill",
        -8.285147682081744
      ],
      [
        "can",
        -8.287222207789146
      ],
      [
        "Ġbase",
        -8.28950646991433
      ],
      [
        "Ġoff",
        -8.294788047211073
      ],
      [
        "Ġmethod",
        -8.298662512634923
      ],
      [
        "Ġchildren",
        -8.301024677887519
      ],
      [
        "ĠTo",
        -8.302221006753381
      ],
      [
        "Ġdog",
        -8.302864760488859
      ],
      [
        "Ġcalled",
        -8.30400065435083
      ],
      [
        "Ġtype",
        -8.304122528192849
      ],
      [
        "Ġfew",
        -8.305245759877305
      ],
      [
        "...",
        -8.308929994531407
      ],
      [
        "Ġplant",
        -8.310821147805445
      ],
      [
        "Ġb",
        -8.311744299633913
      ],
      [
        "Ġeffect",
        -8.312239600424249
      ],
      [
        "Ġpotential",
        -8.31231354631434
      ],
      [
        "Ġpoint",
        -8.319153356595397
      ],
      [
        "Ġissue",
        -8.319722995164689
      ],
      [
        "known",
        -8.321374391176105
      ],
      [
        "Ġgive",
        -8.32154441804861
      ],
      [
        "Ġindividual",
        -8.325624471044565
      ],
      [
        "Ġwithin",
        -8.328087544181905
      ],
      [
        "th",
        -8.328145020454524
      ],
      [
        "Ġspecies",
        -8.334824153344798
      ],
      [
        "um",
        -8.335018901275527
      ],
      [
        "Ġgroup",
        -8.341187983444266
      ],
      [
        "ĠBut",
        -8.347721021636321
      ],
      [
        "Ġschool",
        -8.348164020641963
      ],
      [
        "Ġcase",
        -8.355314757838993
      ],
      [
        "Ġfish",
        -8.360302498491414
      ],
      [
        "each",
        -8.360789816265902
      ],
      [
        "Ġcontrol",
        -8.367920585107456
      ],
      [
        "Ġreduce",
        -8.371006668245197
      ],
      [
        "Ġcause",
        -8.372818174152243
      ],
      [
        "Ġplants",
        -8.37599278435178
      ],
      [
        "Ġplay",
        -8.37617258028244
      ],
      [
        "When",
        -8.376759569954237
      ],
      [
        "Ġcost",
        -8.377593263969548
      ],
      [
        "Ġhad",
        -8.380695842538499
      ],
      [
        ":Ċ",
        -8.385521071995624
      ],
      [
        "ll",
        -8.39199062382521
      ],
      [
        "Ġdevelop",
        -8.392936317601894
      ],
      [
        "Ġher",
        -8.393627180950347
      ],
      [
        "Ġmust",
        -8.395466542420552
      ],
      [
        "Ġnatural",
        -8.396231720762026
      ],
      [
        "Ġsomething",
        -8.40240183619737
      ],
      [
        "Ġquestion",
        -8.404676629134308
      ],
      [
        "more",
        -8.404733250831509
      ],
      [
        "Ġeach",
        -8.411768118726018
      ],
      [
        "Ġimpact",
        -8.411923752556053
      ],
      [
        "Ġwhy",
        -8.412523234682876
      ],
      [
        "Ġoffer",
        -8.413586363437297
      ],
      [
        "Ġheat",
        -8.415227507201827
      ],
      [
        "Ġproject",
        -8.421203218139617
      ],
      [
        "Ġensure",
        -8.422705033863142
      ],
      [
        "Ġrisk",
        -8.425431563843299
      ],
      [
        "k",
        -8.425587299366963
      ],
      [
        "Ġsignificant",
        -8.427255243227187
      ],
      [
        "ĠAnd",
        -8.427864847515934
      ],
      [
        "Ġour",
        -8.436423659057127
      ],
      [
        "Ġgoing",
        -8.437622090057321
      ],
      [
        "[",
        -8.443954694958233
      ],
      [
        "Ġbenefit",
        -8.444320763715819
      ],
      [
        "ation",
        -8.446560836034024
      ],
      [
        "Ġsecond",
        -8.448262784695137
      ],
      [
        "Ġfactor",
        -8.451012240199203
      ],
      [
        "very",
        -8.457967266558297
      ],
      [
        "Ġvarious",
        -8.460078665975736
      ],
      [
        "Ġmaking",
        -8.46017200485775
      ],
      [
        "Ġarea",
        -8.460453265146711
      ],
      [
        "Ġnow",
        -8.467836458289527
      ],
      [
        "Ġmain",
        -8.469184608871014
      ],
      [
        "Ġblood",
        -8.471668808398997
      ],
      [
        "You",
        -8.471814873790724
      ],
      [
        "Ġdevice",
        -8.477391593404242
      ],
      [
        "have",
        -8.47842013143563
      ],
      [
        "Ġamount",
        -8.48446334305498
      ],
      [
        "er",
        -8.485973357038208
      ],
      [
        "Ġmaterial",
        -8.4921789396744
      ],
      [
        "Ġfollowing",
        -8.495422485343246
      ],
      [
        "Ġpossible",
        -8.501648523901354
      ],
      [
        "Ġalway",
        -8.503633066205666
      ],
      [
        "Ġcurrent",
        -8.505333777147836
      ],
      [
        "Ġeffective",
        -8.505501292674317
      ],
      [
        "out",
        -8.508797393408523
      ],
      [
        "If",
        -8.509682043387578
      ],
      [
        "v",
        -8.51065145677053
      ],
      [
        "Ġanother",
        -8.514110870796175
      ],
      [
        "Ġlittle",
        -8.517396238604306
      ],
      [
        ".\"Ċ",
        -8.518715014461243
      ],
      [
        "Ġfeel",
        -8.522153073613115
      ],
      [
        "Ġidea",
        -8.522438081443909
      ],
      [
        "Ġreason",
        -8.529512394123913
      ],
      [
        "Ġtreatment",
        -8.53799311414339
      ],
      [
        "Ġgeneral",
        -8.541489388937245
      ],
      [
        "Ġspace",
        -8.541821209871063
      ],
      [
        "Ġdevelopment",
        -8.542559523637866
      ],
      [
        "Ġth",
        -8.544419712350297
      ],
      [
        "Ġend",
        -8.544962819862985
      ],
      [
        "]",
        -8.545541143542906
      ],
      [
        "Ġdisease",
        -8.546684723791465
      ],
      [
        "from",
        -8.547675566817151
      ],
      [
        "Ġdue",
        -8.549707166457173
      ],
      [
        "ĠM",
        -8.55343290620798
      ],
      [
        "Ġadd",
        -8.561590475235462
      ],
      [
        "Ġme",
        -8.56885938380474
      ],
      [
        "Ġseveral",
        -8.570398792588065
      ],
      [
        "Ġprevent",
        -8.5705272070099
      ],
      [
        "Ġpaper",
        -8.576818104458493
      ],
      [
        "There",
        -8.57756114301611
      ],
      [
        "Ġproblem",
        -8.57847096799668
      ],
      [
        "Ġqualit",
        -8.579342324359235
      ],
      [
        "P",
        -8.586106721843777
      ],
      [
        "Ġavailable",
        -8.586464442620215
      ],
      [
        "ĠS",
        -8.587016189423103
      ],
      [
        "Ġservice",
        -8.591056125157433
      ],
      [
        "M",
        -8.59564100881131
      ],
      [
        "Ġfull",
        -8.596240014709942
      ],
      [
        "!Ċ",
        -8.59627177130836
      ],
      [
        "Ġper",
        -8.596803603975674
      ],
      [
        "Ġlearn",
        -8.597636786407069
      ],
      [
        "Ġsoil",
        -8.600879890193852
      ],
      [
        "Ġimprove",
        -8.601058396524454
      ],
      [
        "ĠSo",
        -8.606433282610194
      ],
      [
        "Ġorder",
        -8.61101684474319
      ],
      [
        "Ġtypes",
        -8.611280997208716
      ],
      [
        "Ġcontain",
        -8.61314552804181
      ],
      [
        "ar",
        -8.616328768494645
      ],
      [
        "Ġcare",
        -8.618052940104686
      ],
      [
        "Ġsurface",
        -8.618578859826155
      ],
      [
        "Ġenough",
        -8.618951581411821
      ],
      [
        "Ġstate",
        -8.61910324082757
      ],
      [
        "Ġdamage",
        -8.620675705631005
      ],
      [
        "Ġweek",
        -8.620682423039131
      ],
      [
        "Ġtext",
        -8.622466664340548
      ],
      [
        "Ġlot",
        -8.623696646401132
      ],
      [
        "Ġenvironment",
        -8.624987608297088
      ],
      [
        "Ġmonth",
        -8.630144055587643
      ],
      [
        "higher",
        -8.63298680843226
      ],
      [
        "Ġfunction",
        -8.633127211212097
      ],
      [
        "Ġusually",
        -8.633985150817253
      ],
      [
        "Ġparticular",
        -8.634747598687307
      ],
      [
        "Ġt",
        -8.634929424707636
      ],
      [
        "you",
        -8.640811466837166
      ],
      [
        "ĠThere",
        -8.64165778594915
      ],
      [
        "Ġreal",
        -8.643199581638074
      ],
      [
        "ĠWhen",
        -8.643961244204977
      ],
      [
        "âĢĶ",
        -8.644589527513514
      ],
      [
        "age",
        -8.64653789842137
      ],
      [
        "Ġun",
        -8.648480849988065
      ],
      [
        "having",
        -8.649059085209382
      ],
      [
        "Ġhard",
        -8.649114405148808
      ],
      [
        "Ġareas",
        -8.651017119124695
      ],
      [
        "ĠAs",
        -8.653911039079496
      ],
      [
        "Ġactual",
        -8.65491125335487
      ],
      [
        "Ġlearning",
        -8.656646161547242
      ],
      [
        "Ġessential",
        -8.658177806432132
      ],
      [
        "Ġconditions",
        -8.658542177653649
      ],
      [
        "Ġunderstand",
        -8.664368589844427
      ],
      [
        "Ġanswer",
        -8.666744600520335
      ],
      [
        "Ġapplication",
        -8.66834353043026
      ],
      [
        "Ġfield",
        -8.668869949442282
      ],
      [
        "with",
        -8.674023881810868
      ],
      [
        "Ġdifference",
        -8.674448984465846
      ],
      [
        "Ġleave",
        -8.678224421199793
      ],
      [
        "Ġrange",
        -8.683941827387056
      ],
      [
        "E",
        -8.683963660597271
      ],
      [
        "Ġneeds",
        -8.68436861307229
      ],
      [
        "Ġinvolve",
        -8.6863232149274
      ],
      [
        "Ġcourse",
        -8.68775754001495
      ],
      [
        "had",
        -8.688543054992955
      ],
      [
        "Ġown",
        -8.689872840836301
      ],
      [
        "ĠWhich",
        -8.69010550657957
      ],
      [
        "like",
        -8.69038527498962
      ],
      [
        "Ġtechnology",
        -8.69070958267412
      ],
      [
        "Ġprotein",
        -8.692187059303446
      ],
      [
        "self",
        -8.692323711190689
      ],
      [
        "Ġcertain",
        -8.694020107803397
      ],
      [
        "Ġmodel",
        -8.694687482230972
      ],
      [
        "Ġdid",
        -8.700071908830367
      ],
      [
        "Ġresults",
        -8.70445314120894
      ],
      [
        "Ġfamily",
        -8.705741438330886
      ],
      [
        "ĠP",
        -8.707774133658244
      ],
      [
        "Ġvalue",
        -8.709120231822505
      ],
      [
        "Ġplan",
        -8.710967804745474
      ],
      [
        "up",
        -8.710971720361503
      ],
      [
        "Ġsince",
        -8.711811760097838
      ],
      [
        "Ġside",
        -8.712433136993361
      ],
      [
        "Ġmaterials",
        -8.71245018695243
      ],
      [
        "Ġalong",
        -8.715532242008205
      ],
      [
        "ĠD",
        -8.71597386184002
      ],
      [
        "Ġteam",
        -8.717926615970516
      ],
      [
        "H",
        -8.71812551985362
      ],
      [
        "Ġwide",
        -8.72057469974676
      ],
      [
        "Ġtest",
        -8.7209776826136
      ],
      [
        "Ġvariet",
        -8.721760848891774
      ],
      [
        "not",
        -8.723082303025883
      ],
      [
        "Ġperson",
        -8.725528445180677
      ],
      [
        "Ġstructure",
        -8.726047136394566
      ],
      [
        "Ġlow",
        -8.72819311643789
      ],
      [
        "Ġmaintain",
        -8.728345908635074
      ],
      [
        "Ġfree",
        -8.7295287052218
      ],
      [
        "Ġlive",
        -8.729697133570763
      ],
      [
        "ĠBy",
        -8.730236784986957
      ],
      [
        "Ġlocal",
        -8.731449112561904
      ],
      [
        "how",
        -8.731450955643307
      ],
      [
        "Ġmakes",
        -8.732062683155782
      ],
      [
        "Ġpressure",
        -8.732646321334638
      ],
      [
        "Ġpresent",
        -8.734409802469756
      ],
      [
        "ic",
        -8.735113875852399
      ],
      [
        "Ġset",
        -8.737581167218604
      ],
      [
        "Ġtechnique",
        -8.738911165211821
      ],
      [
        "has",
        -8.740858796772336
      ],
      [
        "Ġweight",
        -8.741806612166283
      ],
      [
        "Ġhour",
        -8.744962206408132
      ],
      [
        "Ġaccording",
        -8.74730490078423
      ],
      [
        "Ġmarket",
        -8.747661468450904
      ],
      [
        "ion",
        -8.748083044096967
      ],
      [
        "Ġopen",
        -8.749739095808735
      ],
      [
        "ĠUniversity",
        -8.749746912724648
      ],
      [
        "Ġnext",
        -8.753853419201018
      ],
      [
        "way",
        -8.757504528915865
      ],
      [
        "=",
        -8.761062933220387
      ],
      [
        "ĠHe",
        -8.763324805571868
      ],
      [
        "Ġnon",
        -8.765558510840762
      ],
      [
        "Ġproduce",
        -8.771110531195752
      ],
      [
        "Ġperiod",
        -8.771860620262068
      ],
      [
        "Ġproblems",
        -8.777113765608828
      ],
      [
        "Ġdirect",
        -8.777791775809053
      ],
      [
        "ver",
        -8.780385495744344
      ],
      [
        "Ġtogether",
        -8.780642413568806
      ],
      [
        "O",
        -8.781865498344168
      ],
      [
        "Ġanimal",
        -8.78386388040195
      ],
      [
        "For",
        -8.788983775496135
      ],
      [
        "Ġkind",
        -8.789136010114177
      ],
      [
        "Ġsimple",
        -8.790267133767834
      ],
      [
        "Ġprotect",
        -8.79254164778039
      ],
      [
        "Ġshe",
        -8.793987947729757
      ],
      [
        "Ġunique",
        -8.795189927032798
      ],
      [
        "Ġsafe",
        -8.79668020838885
      ],
      [
        "Ġgas",
        -8.801371526872355
      ],
      [
        "Ġeasy",
        -8.802350537791353
      ],
      [
        "Ġdiet",
        -8.806035592990348
      ],
      [
        "Ġtop",
        -8.806447077743318
      ],
      [
        "Ġdepend",
        -8.807553061539217
      ],
      [
        "Ġkey",
        -8.809482421689676
      ],
      [
        "Ġnear",
        -8.81048120782815
      ],
      [
        "Ġfuture",
        -8.81057663461938
      ],
      [
        "Ġavoid",
        -8.810966217268824
      ],
      [
        "Ġterm",
        -8.812586435936554
      ],
      [
        "Ġhealthy",
        -8.815636082291373
      ],
      [
        "Ġsource",
        -8.816929945443581
      ],
      [
        "Ġamong",
        -8.818277801830316
      ],
      [
        "Ġlast",
        -8.818913334547815
      ],
      [
        "Ġprogram",
        -8.819632745292239
      ],
      [
        "where",
        -8.820203293242127
      ],
      [
        "Ġhere",
        -8.82323887470464
      ],
      [
        "Ġmachine",
        -8.823847395863247
      ],
      [
        "Ġcommunit",
        -8.82445648481879
      ],
      [
        "Ġseem",
        -8.824676589832851
      ],
      [
        "animals",
        -8.824679141116853
      ],
      [
        "ready",
        -8.825351270642894
      ],
      [
        "Ġhand",
        -8.827740370611743
      ],
      [
        "Ġsingle",
        -8.82835254488737
      ],
      [
        "Ġsure",
        -8.828792733839276
      ],
      [
        "Ġgame",
        -8.830201691063795
      ],
      [
        ",\"",
        -8.834586482973592
      ],
      [
        "Ġbusiness",
        -8.835029562330703
      ],
      [
        "Ġflow",
        -8.835346141848408
      ],
      [
        "Ġrole",
        -8.836138245309467
      ],
      [
        "Ġcontinue",
        -8.839128162925647
      ],
      [
        "Ġstore",
        -8.839621607399376
      ],
      [
        "Ġeye",
        -8.840079144216192
      ],
      [
        "Ġaway",
        -8.84101348823095
      ],
      [
        "Ġcomputer",
        -8.841992890506802
      ],
      [
        "Ġname",
        -8.842034589851163
      ],
      [
        "*",
        -8.842288208873015
      ],
      [
        "Ġdifficult",
        -8.842821511792666
      ],
      [
        "Ġcat",
        -8.844725515512119
      ],
      [
        "Ġremove",
        -8.846708684232354
      ],
      [
        "Ġsuggest",
        -8.847568700930509
      ],
      [
        "Ġ\"",
        -8.84852335822297
      ],
      [
        "Ġunit",
        -8.849728056473278
      ],
      [
        "Ġmove",
        -8.850360774586356
      ],
      [
        "arly",
        -8.850938677464493
      ],
      [
        ")ĊĊ",
        -8.851029683930275
      ],
      [
        "Ġtimes",
        -8.851443232310132
      ],
      [
        "Ġprofessional",
        -8.851517133002089
      ],
      [
        "Ġskin",
        -8.852272895342228
      ],
      [
        "Ġgiven",
        -8.852982778234118
      ],
      [
        "Ġdoesn",
        -8.855674101379897
      ],
      [
        "Ġchild",
        -8.855843036254182
      ],
      [
        "Ġworking",
        -8.860622307526814
      ],
      [
        "Ġleast",
        -8.861411618041926
      ],
      [
        "We",
        -8.8629766028469
      ],
      [
        "Ġdays",
        -8.863107274433425
      ],
      [
        "Ġabove",
        -8.86333740887525
      ],
      [
        "Ġturn",
        -8.866725488122526
      ],
      [
        "Ġgrowth",
        -8.868427063865674
      ],
      [
        "W",
        -8.868522065716515
      ],
      [
        "Ġregion",
        -8.86928197167149
      ],
      [
        "Ġclean",
        -8.87731961044973
      ],
      [
        "Ġcheck",
        -8.878120607001271
      ],
      [
        "Ġgarden",
        -8.878143106842174
      ],
      [
        "Ġproduction",
        -8.87980000894602
      ],
      [
        "Ġwhite",
        -8.880012896931447
      ],
      [
        "Ġphysical",
        -8.88092239648097
      ],
      [
        "Ġsay",
        -8.881562462708416
      ],
      [
        "$",
        -8.881633427680507
      ],
      [
        "Ġresearcher",
        -8.882791106330398
      ],
      [
        "Ġdetermine",
        -8.882944803646247
      ],
      [
        "Ġshort",
        -8.883564339711846
      ],
      [
        "across",
        -8.883594614388443
      ],
      [
        "Ġnecessar",
        -8.887699833893894
      ],
      [
        "&",
        -8.887814148440425
      ],
      [
        "Ġclose",
        -8.88991355476983
      ],
      [
        "Ġsimilar",
        -8.890747012569854
      ],
      [
        "Ġaccess",
        -8.891851873267063
      ],
      [
        "Ġposition",
        -8.892592157459417
      ],
      [
        "own",
        -8.89498689291269
      ],
      [
        "Ġunti",
        -8.895151557405066
      ],
      [
        "Ġdogs",
        -8.897724011224865
      ],
      [
        "Ġstep",
        -8.898747079630752
      ],
      [
        "Ġtraining",
        -8.899688926888615
      ],
      [
        "Ġpopulation",
        -8.90341705833891
      ],
      [
        "ĠWith",
        -8.904573144554593
      ],
      [
        "F",
        -8.90536583888003
      ],
      [
        "Ġsocial",
        -8.905588742409844
      ],
      [
        "Ġless",
        -8.905741616146905
      ],
      [
        "ĠThat",
        -8.906642407123028
      ],
      [
        "Ġput",
        -8.906687453364846
      ],
      [
        "Ġstrong",
        -8.910461158337334
      ],
      [
        "either",
        -8.912107706017242
      ],
      [
        "Ġlower",
        -8.913921434275306
      ],
      [
        "this",
        -8.914692641055606
      ],
      [
        "Ġregular",
        -8.915787558785977
      ],
      [
        "get",
        -8.918347029525165
      ],
      [
        "Ġfocus",
        -8.918513913523675
      ],
      [
        "ce",
        -8.92008734728385
      ],
      [
        "about",
        -8.92058566882839
      ],
      [
        "Ġhe",
        -8.920999456499086
      ],
      [
        "Ġsignal",
        -8.922693116283984
      ],
      [
        "Ġtypical",
        -8.923220932224247
      ],
      [
        "Ġnever",
        -8.923548464472079
      ],
      [
        "Ġpattern",
        -8.924419004231517
      ],
      [
        "Ġbasic",
        -8.924686254596292
      ],
      [
        "Ġwarm",
        -8.925297553045542
      ],
      [
        "Ġtoday",
        -8.928952159450365
      ],
      [
        "Ġcontent",
        -8.92945000849226
      ],
      [
        "Ġpopular",
        -8.931322359001777
      ],
      [
        "Ġthen",
        -8.932269489881339
      ],
      [
        "Ġarticle",
        -8.93417187662612
      ],
      [
        "Ġsound",
        -8.934665708827746
      ],
      [
        "Ġmatter",
        -8.936585885368178
      ],
      [
        "Ġespecially",
        -8.936637092579947
      ],
      [
        "Ġtoward",
        -8.93758706241526
      ],
      [
        "Ġleft",
        -8.93953525106329
      ],
      [
        "Ġaddition",
        -8.944169167034426
      ],
      [
        "ĠNew",
        -8.94525896991301
      ],
      [
        "Ġfact",
        -8.945979147387892
      ],
      [
        "Ġline",
        -8.946436518120283
      ],
      [
        "N",
        -8.949745021644489
      ],
      [
        "Ġfour",
        -8.951293660391432
      ],
      [
        "Ġclass",
        -8.952626145389356
      ],
      [
        "Ġcountry",
        -8.95330073493336
      ],
      [
        "le",
        -8.953869714884625
      ],
      [
        "Ġbelow",
        -8.957481450023215
      ],
      [
        "Ġcomponent",
        -8.958088185983458
      ],
      [
        "Ġmajor",
        -8.95971690534211
      ],
      [
        "Ġchoice",
        -8.96181139943631
      ],
      [
        "Ġbring",
        -8.961916720416916
      ],
      [
        "Ġshape",
        -8.962727799996404
      ],
      [
        "Ġclimate",
        -8.96432631762771
      ],
      [
        "Ġpost",
        -8.965290509961793
      ],
      [
        "+",
        -8.96573227416298
      ],
      [
        "Ġrun",
        -8.967791808671652
      ],
      [
        "Ġcancer",
        -8.969195262276543
      ],
      [
        "Ġunderstanding",
        -8.970701764677212
      ],
      [
        "Ġaffect",
        -8.970979473039154
      ],
      [
        "Ġfeatures",
        -8.971312373019483
      ],
      [
        "Ġbuilding",
        -8.972015167873176
      ],
      [
        "Ġbook",
        -8.972525165123152
      ],
      [
        "Ġapproach",
        -8.976004692386741
      ],
      [
        "Ġclear",
        -8.976167742395965
      ],
      [
        "Ġinterest",
        -8.976533033679402
      ],
      [
        "Ġcomplete",
        -8.97654878209974
      ],
      [
        "Ġstudie",
        -8.978807940979625
      ],
      [
        "Ġshare",
        -8.97943875367107
      ],
      [
        "which",
        -8.982884687842258
      ],
      [
        "Ġimage",
        -8.984714099468958
      ],
      [
        "ĠSome",
        -8.985545852682549
      ],
      [
        "Ġheart",
        -8.987017933277816
      ],
      [
        "Ġpiece",
        -8.987852125860094
      ],
      [
        "once",
        -8.988382912979915
      ],
      [
        "most",
        -8.989328566920268
      ],
      [
        "Ġrecent",
        -8.990526504056565
      ],
      [
        "Ġbatter",
        -8.993332066122518
      ],
      [
        "Ġgoal",
        -8.99353538507198
      ],
      [
        "Ġinside",
        -8.994548830366714
      ],
      [
        "Ġground",
        -8.996225908333912
      ],
      [
        "than",
        -8.99753588787937
      ],
      [
        "ive",
        -8.998792027687394
      ],
      [
        "Ġbig",
        -9.000052380576209
      ],
      [
        "Ġdone",
        -9.000745254324126
      ],
      [
        "Ġfurther",
        -9.001552300164734
      ],
      [
        "Ġbelieve",
        -9.004640928706444
      ],
      [
        "Ġcompare",
        -9.009069288213746
      ],
      [
        "Ġperformance",
        -9.009615593922067
      ],
      [
        "Ġconcern",
        -9.010104461413473
      ],
      [
        "Ġcorrect",
        -9.010727280741888
      ],
      [
        "Ġtoo",
        -9.011153061783368
      ],
      [
        "Ġdream",
        -9.01154145620858
      ],
      [
        "Ġchallenge",
        -9.013138487271808
      ],
      [
        "Ġmillion",
        -9.013452939833602
      ],
      [
        "Ġhead",
        -9.01366364628834
      ],
      [
        "Ġbrain",
        -9.01385071953872
      ],
      [
        "ĠState",
        -9.015897032398344
      ],
      [
        "Ġskills",
        -9.0168800705678
      ],
      [
        "Ġface",
        -9.02580887531355
      ],
      [
        "Ġhistory",
        -9.026426856256643
      ],
      [
        "Ġseed",
        -9.026537040009956
      ],
      [
        "Ġsign",
        -9.027212944138522
      ],
      [
        "Ġmention",
        -9.028886371074808
      ],
      [
        "thing",
        -9.029284826592187
      ],
      [
        "ĠE",
        -9.0311227824836
      ],
      [
        "ng",
        -9.031731275564637
      ],
      [
        "Ġtotal",
        -9.03364359791437
      ],
      [
        "Ġengine",
        -9.03667336845088
      ],
      [
        "Ġassociate",
        -9.037550400093464
      ],
      [
        "ĠU",
        -9.03922848897846
      ],
      [
        "Ġlove",
        -9.040536221833523
      ],
      [
        "Ġenjoy",
        -9.04065795667266
      ],
      [
        "Ġdoing",
        -9.040979305182464
      ],
      [
        "Ġauthor",
        -9.046508055395575
      ],
      [
        "Ġcold",
        -9.04652685707038
      ],
      [
        "Ġreall",
        -9.047223306706446
      ],
      [
        "Ġsomeone",
        -9.048394470049644
      ],
      [
        "Ġsolar",
        -9.05010970806887
      ],
      [
        "Ġread",
        -9.050655551780672
      ],
      [
        "such",
        -9.051334357974344
      ],
      [
        "we",
        -9.052298118426286
      ],
      [
        "Ġmind",
        -9.0538284221175
      ],
      [
        "G",
        -9.054886151927764
      ],
      [
        "Ġtreat",
        -9.055246396902268
      ],
      [
        "Ġparent",
        -9.056350233170964
      ],
      [
        "Ġactivities",
        -9.056370466761852
      ],
      [
        "Ġreceive",
        -9.056393745719156
      ],
      [
        "Ġappear",
        -9.057370114286504
      ],
      [
        "âĢĻs",
        -9.058198326745098
      ],
      [
        "Ġremain",
        -9.05958397699311
      ],
      [
        "âĢĻ",
        -9.06203486143588
      ],
      [
        "Ġnormal",
        -9.06246398519184
      ],
      [
        "Ġhim",
        -9.063884405184073
      ],
      [
        "Ġcompany",
        -9.064842511782878
      ],
      [
        "Ġfollow",
        -9.065138542482106
      ],
      [
        "Ġvideo",
        -9.06683379754699
      ],
      [
        "Ġreport",
        -9.06812726780641
      ],
      [
        "ĠYour",
        -9.070641308288517
      ],
      [
        "Ġha",
        -9.072342704722477
      ],
      [
        "Why",
        -9.073636704435328
      ],
      [
        "Ġcondition",
        -9.074918617660646
      ],
      [
        "Ġpain",
        -9.075489137563284
      ],
      [
        "Ġcode",
        -9.076082871760413
      ],
      [
        "ĠBe",
        -9.078470701153538
      ],
      [
        ").Ċ",
        -9.080406003593708
      ],
      [
        "Ġcrucial",
        -9.082042769564222
      ],
      [
        "Ġchemical",
        -9.08211377155508
      ],
      [
        "Ġcarbon",
        -9.082610145388966
      ],
      [
        "ment",
        -9.083932839816828
      ],
      [
        "Ġtree",
        -9.084517251364598
      ],
      [
        "Ġindustry",
        -9.084880181330194
      ],
      [
        "ĠNo",
        -9.08490679656637
      ],
      [
        "ves",
        -9.087922581476771
      ],
      [
        "Ġgenetic",
        -9.087994217671742
      ],
      [
        "Ġrelationship",
        -9.08981227113319
      ],
      [
        "Ġif",
        -9.089917165762806
      ],
      [
        "taking",
        -9.090258188715024
      ],
      [
        "systems",
        -9.09052046361444
      ],
      [
        "Answer",
        -9.091054226384326
      ],
      [
        "Ġpurpose",
        -9.091109315791062
      ],
      [
        "Ġstandard",
        -9.091248678130787
      ],
      [
        "It",
        -9.092630459779906
      ],
      [
        "R",
        -9.09780590118088
      ],
      [
        "Ġperfect",
        -9.098732230623977
      ],
      [
        "some",
        -9.10008931628597
      ],
      [
        "Ġbehavior",
        -9.10024315052847
      ],
      [
        "Ġfar",
        -9.102627773283915
      ],
      [
        "ĠH",
        -9.103157154447144
      ],
      [
        "Ġtalk",
        -9.104656420324076
      ],
      [
        "ting",
        -9.110347689345
      ],
      [
        "Ġentire",
        -9.110870308518034
      ],
      [
        "Ġoverall",
        -9.11104214365196
      ],
      [
        "Ġyoung",
        -9.11120100019702
      ],
      [
        "Ġlonger",
        -9.11197072341846
      ],
      [
        "nstead",
        -9.113669671279894
      ],
      [
        "Ġdescribe",
        -9.113973908911827
      ],
      [
        "Ġmoney",
        -9.115004362435812
      ],
      [
        "Ġthought",
        -9.115262094958965
      ],
      [
        "online",
        -9.115264812778122
      ],
      [
        "Ġspeed",
        -9.117068445008886
      ],
      [
        "Ġdry",
        -9.117834492584771
      ],
      [
        "Ġpractice",
        -9.119460937847586
      ],
      [
        "Ġgreen",
        -9.122623298053824
      ],
      [
        "Ġmedical",
        -9.123137870125143
      ],
      [
        "Ġforce",
        -9.125982416775408
      ],
      [
        "Ġmeasure",
        -9.126056756003576
      ],
      [
        "Ġo",
        -9.129849947775266
      ],
      [
        "Ġlanguage",
        -9.130867547224431
      ],
      [
        "Ġscience",
        -9.133391235784512
      ],
      [
        "Ġdeep",
        -9.133590593784726
      ],
      [
        "ĠOn",
        -9.134960760380938
      ],
      [
        "Ġsolution",
        -9.135023029804806
      ],
      [
        "Ġsense",
        -9.1363967727306
      ],
      [
        "Ġblack",
        -9.137609030482505
      ],
      [
        "Ġuser",
        -9.138531016842276
      ],
      [
        "Ġbuild",
        -9.139726794602096
      ],
      [
        "Ġeffort",
        -9.140327081701107
      ],
      [
        "Ġtarget",
        -9.141446871361564
      ],
      [
        "Ġwhole",
        -9.142491625427592
      ],
      [
        "Ġflower",
        -9.14351512135752
      ],
      [
        "Ġsun",
        -9.146110312167677
      ],
      [
        "Ġhouse",
        -9.14614003335079
      ],
      [
        "his",
        -9.146787767746185
      ],
      [
        "Ġpersonal",
        -9.148180070887737
      ],
      [
        "Ġexercise",
        -9.150062362863682
      ],
      [
        "Ġcomplex",
        -9.152869116043204
      ],
      [
        "Ġpublic",
        -9.154873276822368
      ],
      [
        ")Ċ",
        -9.155530048868671
      ],
      [
        "Ġchoose",
        -9.155926600640727
      ],
      [
        "Ġwinter",
        -9.156216953387764
      ],
      [
        "Ġtraditional",
        -9.156623028798528
      ],
      [
        "any",
        -9.160271444811594
      ],
      [
        "Ġfall",
        -9.161737419564007
      ],
      [
        "Ġal",
        -9.16311558445231
      ],
      [
        "Ġeggs",
        -9.16606878292805
      ],
      [
        "Ġprimar",
        -9.166832820935404
      ],
      [
        "ĠAmerican",
        -9.167125149029935
      ],
      [
        "ather",
        -9.168222292692157
      ],
      [
        "says",
        -9.168475883169284
      ],
      [
        "afety",
        -9.16897366035092
      ],
      [
        "Ġselect",
        -9.170135060208032
      ],
      [
        "Ġoperation",
        -9.170757023034495
      ],
      [
        "ĠOne",
        -9.171562452428264
      ],
      [
        "Ġsleep",
        -9.17400720886052
      ],
      [
        "time",
        -9.17455305069454
      ],
      [
        "Ġloss",
        -9.174661894160408
      ],
      [
        "Ġthough",
        -9.175327652642878
      ],
      [
        "Ġglobal",
        -9.175617191104362
      ],
      [
        "Ġca",
        -9.17735764341423
      ],
      [
        "Ġoil",
        -9.177600017839424
      ],
      [
        "Ġbegin",
        -9.181333696465613
      ],
      [
        "Ġenvironmental",
        -9.183788644836186
      ],
      [
        "light",
        -9.184042405406784
      ],
      [
        "Ġwomen",
        -9.18718549255022
      ],
      [
        "These",
        -9.188096771392228
      ],
      [
        "ĠG",
        -9.188737567389254
      ],
      [
        "Ġvehicle",
        -9.189591753602244
      ],
      [
        "Ġpositive",
        -9.189871371677796
      ],
      [
        "well",
        -9.189943075848223
      ],
      [
        "Ġsymptoms",
        -9.19020435536842
      ],
      [
        "Ġmetal",
        -9.190458601984966
      ],
      [
        "Ġpast",
        -9.190512407582856
      ],
      [
        "Ġbit",
        -9.191325390244858
      ],
      [
        "Ġpatients",
        -9.192094125735526
      ],
      [
        "Ġcount",
        -9.1941071225664
      ],
      [
        "Ġothers",
        -9.194135557617187
      ],
      [
        "Ġlocation",
        -9.194241233627167
      ],
      [
        "Ġtravel",
        -9.195811117156492
      ],
      [
        "Ġknowledge",
        -9.204128293687011
      ],
      [
        "Ġstay",
        -9.204851280782162
      ],
      [
        "Ġfruit",
        -9.20534189262864
      ],
      [
        "ĠT",
        -9.20605990872576
      ],
      [
        "Ġsummer",
        -9.209658219702774
      ],
      [
        "Ġtask",
        -9.210124821846788
      ],
      [
        "Ġspecial",
        -9.210130047160591
      ],
      [
        "To",
        -9.211103817236758
      ],
      [
        "Ġexpert",
        -9.211297834042965
      ],
      [
        "Ġar",
        -9.214099144176693
      ],
      [
        "Ġpage",
        -9.21482804588187
      ],
      [
        "your",
        -9.215015840575765
      ],
      [
        "Ġ[",
        -9.215671605543536
      ],
      [
        "#",
        -9.217116420948404
      ],
      [
        "yourself",
        -9.220084054800171
      ],
      [
        "Many",
        -9.220376324581109
      ],
      [
        "Ġlarger",
        -9.22140940477344
      ],
      [
        "Ġscientist",
        -9.2214369958804
      ],
      [
        "Ġfresh",
        -9.222116091051143
      ],
      [
        "ĠAn",
        -9.224130279199274
      ],
      [
        "Ġlater",
        -9.224833507667649
      ],
      [
        "ĠAI",
        -9.226488109522398
      ],
      [
        "ĠScience",
        -9.22738049174292
      ],
      [
        "Ġfuel",
        -9.228496334410156
      ],
      [
        "Ġdesigne",
        -9.230004808146909
      ],
      [
        "Ġslow",
        -9.230057198312078
      ],
      [
        "-base",
        -9.231610853683277
      ],
      [
        "z",
        -9.23335423985066
      ],
      [
        "Ġminutes",
        -9.234760072975885
      ],
      [
        "Ġtry",
        -9.235455811964512
      ],
      [
        "Ġidentify",
        -9.23613011579724
      ],
      [
        "water",
        -9.236368535725816
      ],
      [
        "L",
        -9.238640072350394
      ],
      [
        "Ġopportunit",
        -9.23949028531372
      ],
      [
        "Ġlength",
        -9.240039755431756
      ],
      [
        "One",
        -9.240536747967456
      ],
      [
        "U",
        -9.241085114915316
      ],
      [
        "Ġfive",
        -9.24120533122157
      ],
      [
        "Ġbuy",
        -9.241764349078178
      ],
      [
        "Ġbalance",
        -9.243271307139972
      ],
      [
        "Ġtissue",
        -9.243500965311163
      ],
      [
        "Ġcall",
        -9.245231975821527
      ],
      [
        "Ġstage",
        -9.245258092174858
      ],
      [
        "âĢ¦",
        -9.246140331700843
      ],
      [
        "Ġresponse",
        -9.246645662623797
      ],
      [
        "Ġperform",
        -9.247394469706856
      ],
      [
        "but",
        -9.247692445634325
      ],
      [
        "Ġthemsel",
        -9.248635207939929
      ],
      [
        "Ġmodern",
        -9.248735573213024
      ],
      [
        "Ġwaste",
        -9.254475985197118
      ],
      [
        "Ġmanagement",
        -9.255112136018044
      ],
      [
        "Ġreach",
        -9.256008401724518
      ],
      [
        "Ġaverage",
        -9.256992022081
      ],
      [
        ".\"",
        -9.257314142543066
      ],
      [
        "Ġaccount",
        -9.257645659439088
      ],
      [
        "Ġprobabl",
        -9.258242356834703
      ],
      [
        "Ġtools",
        -9.258287089763767
      ],
      [
        "Ġlikel",
        -9.26029103022545
      ],
      [
        "Ġguide",
        -9.260938013707989
      ],
      [
        "Ġexplore",
        -9.260982194094623
      ],
      [
        "Ġnetwork",
        -9.261571474861784
      ],
      [
        "Ġregard",
        -9.261892818786782
      ],
      [
        "Ġnature",
        -9.262104778351103
      ],
      [
        "Ġlayer",
        -9.262978558864244
      ],
      [
        "Ġproperties",
        -9.264510914823855
      ],
      [
        "ĠNational",
        -9.26530845099784
      ],
      [
        "ĠN",
        -9.265996261592244
      ],
      [
        "Ġfront",
        -9.266301373116246
      ],
      [
        "Ġattention",
        -9.26676973536364
      ],
      [
        "Ġseason",
        -9.266887442626208
      ],
      [
        "Ġelectric",
        -9.267726472662591
      ],
      [
        "Ġmilk",
        -9.268360179006285
      ],
      [
        "Ġsuccessful",
        -9.268612385372776
      ],
      [
        "Ġcenter",
        -9.2686223656688
      ],
      [
        "Ġrelease",
        -9.26890436004078
      ],
      [
        "Ġsite",
        -9.270136205777586
      ],
      [
        "Ġways",
        -9.271509091959684
      ],
      [
        "etting",
        -9.271877101595503
      ],
      [
        "But",
        -9.272419069168413
      ],
      [
        "Ġoriginal",
        -9.273007777049642
      ],
      [
        "Ġactivity",
        -9.275223277987992
      ],
      [
        "Ġstress",
        -9.275687014312885
      ],
      [
        "ry",
        -9.276595988304368
      ],
      [
        "Ġsometime",
        -9.277787048919524
      ],
      [
        "Ġhalf",
        -9.278073682728095
      ],
      [
        "Ġmovement",
        -9.278815467724131
      ],
      [
        "Ġconcept",
        -9.278819247154107
      ],
      [
        "Ġdirection",
        -9.282073907997004
      ],
      [
        "Ġre",
        -9.28322587159611
      ],
      [
        "Ġeducation",
        -9.2855493547214
      ],
      [
        "Ġweather",
        -9.285721984649062
      ],
      [
        "ĠR",
        -9.28578078402484
      ],
      [
        "Ġachieve",
        -9.286545589781424
      ],
      [
        "Ġwall",
        -9.287913513117974
      ],
      [
        "Ġcontact",
        -9.288426933702002
      ],
      [
        "Ġ$",
        -9.288805540347358
      ],
      [
        "Ġquickl",
        -9.288828850822782
      ],
      [
        "Ġcreat",
        -9.28912026249188
      ],
      [
        "low",
        -9.29403473052416
      ],
      [
        "Ġplastic",
        -9.294593354100163
      ],
      [
        "Ġgenerate",
        -9.298148673690124
      ],
      [
        "Ġtank",
        -9.298606281721597
      ],
      [
        "Ġefficient",
        -9.298785075790423
      ],
      [
        "Ġmultiple",
        -9.299159890134698
      ],
      [
        "Ġsubject",
        -9.29971211733704
      ],
      [
        "Ġcover",
        -9.299750215337584
      ],
      [
        "Ġstorage",
        -9.300516087826283
      ],
      [
        "Ġsimpl",
        -9.303546692767124
      ],
      [
        "Ġpay",
        -9.303903599952132
      ],
      [
        "two",
        -9.304117927589484
      ],
      [
        "ities",
        -9.304471512045737
      ],
      [
        "Ġliquid",
        -9.304808232129956
      ],
      [
        "Ġalmost",
        -9.306018159481129
      ],
      [
        "Ġoutside",
        -9.30639605205548
      ],
      [
        "Ġincreasing",
        -9.306620660125487
      ],
      [
        "Ġenhance",
        -9.306712447151371
      ],
      [
        "Ġrepresent",
        -9.307946958502187
      ],
      [
        "Ġfun",
        -9.309786473048304
      ],
      [
        "Ġstarted",
        -9.31034943976772
      ],
      [
        "Ġadditional",
        -9.310490438746283
      ],
      [
        "Ġmodels",
        -9.312069872764289
      ],
      [
        "sure",
        -9.312413259055434
      ],
      [
        "Ġelements",
        -9.312827414731611
      ],
      [
        "body",
        -9.31386971673001
      ],
      [
        "Ġsugar",
        -9.314838885776506
      ],
      [
        "Ġcut",
        -9.31486447272017
      ],
      [
        "Ġoption",
        -9.314995035707032
      ],
      [
        "Ġdigital",
        -9.31560795757457
      ],
      [
        "will",
        -9.316880472158225
      ],
      [
        "Ġjob",
        -9.317747179684378
      ],
      [
        "ous",
        -9.318773876199671
      ],
      [
        "Ġdegree",
        -9.321154886586866
      ],
      [
        "Ġanalysis",
        -9.324642087902271
      ],
      [
        "Ġeyes",
        -9.325090664966345
      ],
      [
        "Ġprovid",
        -9.325243029683964
      ],
      [
        "V",
        -9.325755461439623
      ],
      [
        "Ġseparate",
        -9.326022570612189
      ],
      [
        "Ġfinding",
        -9.329083905696358
      ],
      [
        "daily",
        -9.330683760165266
      ],
      [
        "Ġrelated",
        -9.33116812093266
      ],
      [
        "Ġfee",
        -9.332509665679993
      ],
      [
        "resources",
        -9.333002164783696
      ],
      [
        "Ġvisit",
        -9.333510818018226
      ],
      [
        "Ġstop",
        -9.334221502353913
      ],
      [
        "Ġrule",
        -9.336752295061196
      ],
      [
        "Ġrecord",
        -9.33676017902754
      ],
      [
        "Ġaddress",
        -9.337609017155676
      ],
      [
        "While",
        -9.339362904061666
      ],
      [
        "making",
        -9.340111239472048
      ],
      [
        "Ġinfluence",
        -9.340856553189912
      ],
      [
        "ĠWhile",
        -9.34104579475213
      ],
      [
        "ĠDNA",
        -9.341063647591366
      ],
      [
        "Ġpre",
        -9.341708934150258
      ],
      [
        "Ġlist",
        -9.34261798943556
      ],
      [
        "Ġroom",
        -9.34274845575418
      ],
      [
        "Ġgovernment",
        -9.34316182659916
      ],
      [
        "Ġpercent",
        -9.34317719119737
      ],
      [
        "Ġcharacter",
        -9.343500133461724
      ],
      [
        "ĠEarth",
        -9.344253379990905
      ],
      [
        "Ġitem",
        -9.344528636308038
      ],
      [
        "Ġeasie",
        -9.34708361755044
      ],
      [
        "Ġquite",
        -9.347136080129768
      ],
      [
        "Ġdetail",
        -9.34728429372328
      ],
      [
        "Ġsample",
        -9.347884382577398
      ],
      [
        "Ġus",
        -9.349242885778663
      ],
      [
        "ful",
        -9.349423769192745
      ],
      [
        "Ġbehind",
        -9.351300481310684
      ],
      [
        "Ġdeliver",
        -9.352695088703816
      ],
      [
        "now",
        -9.3535535310742
      ],
      [
        "Ġtell",
        -9.353902129428867
      ],
      [
        "Ġhear",
        -9.354471242546309
      ],
      [
        "Ġprevious",
        -9.355568121579145
      ],
      [
        "Ġinstruction",
        -9.35700090243061
      ],
      [
        "Ġbreed",
        -9.357454336079757
      ],
      [
        "Ġfast",
        -9.35782298576454
      ],
      [
        "ĠHere",
        -9.357979549515516
      ],
      [
        "ĠDo",
        -9.362504491213452
      ],
      [
        "They",
        -9.36420028200546
      ],
      [
        "old",
        -9.364674045403422
      ],
      [
        "Ġtool",
        -9.365041514530272
      ],
      [
        "Ġmass",
        -9.365880564369023
      ],
      [
        "Ġorganization",
        -9.368577428672136
      ],
      [
        "Ġsalt",
        -9.368666058602336
      ],
      [
        "Ġadvance",
        -9.36877481330504
      ],
      [
        "Ġnegative",
        -9.368871738867814
      ],
      [
        "_",
        -9.369122846817994
      ],
      [
        "Ġvegetable",
        -9.369165103105798
      ],
      [
        "Ġlet",
        -9.370630386017698
      ],
      [
        "Ġfinal",
        -9.370895365251448
      ],
      [
        "Ġindicate",
        -9.371682749766872
      ],
      [
        "Ġcamera",
        -9.37399624164779
      ],
      [
        "Ġequipment",
        -9.37473746299938
      ],
      [
        "nd",
        -9.37677787089809
      ],
      [
        "iving",
        -9.376925757668062
      ],
      [
        "Ġtrees",
        -9.377688217902374
      ],
      [
        "Ġhold",
        -9.377938642960432
      ],
      [
        "Ġprotection",
        -9.379762965497804
      ],
      [
        "Ġself",
        -9.380718133821851
      ],
      [
        "Ġcycle",
        -9.38249552065535
      ],
      [
        "Ġblue",
        -9.383455718923582
      ],
      [
        "Ġlimit",
        -9.384104406257944
      ],
      [
        "Ġscientific",
        -9.385294250611228
      ],
      [
        "Ġexperiment",
        -9.385960150870588
      ],
      [
        "âĢ¢",
        -9.386213263692582
      ],
      [
        "Ġreview",
        -9.386342935782274
      ],
      [
        "Ġprice",
        -9.388623146203804
      ],
      [
        "Ġwords",
        -9.38955702184311
      ],
      [
        "were",
        -9.39177102949277
      ],
      [
        "Ġwood",
        -9.39197938318911
      ],
      [
        "Ġmix",
        -9.39238817529451
      ],
      [
        "Ġevidence",
        -9.39276527899867
      ],
      [
        "ĠUnited",
        -9.395691170342593
      ],
      [
        "Ġplayer",
        -9.39589566866528
      ],
      [
        "Ġreturn",
        -9.39758508505856
      ],
      [
        "Ġinsect",
        -9.397859744017264
      ],
      [
        "line",
        -9.400554151835651
      ],
      [
        "Ġview",
        -9.40231053675408
      ],
      [
        "Ġmeet",
        -9.403687811458202
      ],
      [
        "Ġstory",
        -9.404574679060865
      ],
      [
        "Ġwon",
        -9.40530471650004
      ],
      [
        "Ġcontribute",
        -9.406719299797196
      ],
      [
        "Ġsupply",
        -9.407788383458431
      ],
      [
        "ĠSouth",
        -9.408493826797764
      ],
      [
        "Ġdistance",
        -9.408522140498004
      ],
      [
        "Ġwebsite",
        -9.4093642322878
      ],
      [
        "\\",
        -9.410557424581402
      ],
      [
        "options",
        -9.411058832025784
      ],
      [
        "Ġspring",
        -9.41141274995399
      ],
      [
        "Ġkids",
        -9.41144090858052
      ],
      [
        "Ġsea",
        -9.412254372800168
      ],
      [
        "Ġbad",
        -9.4131907680904
      ],
      [
        "Ġsave",
        -9.413556902896149
      ],
      [
        "Ġeveryone",
        -9.413661109508269
      ],
      [
        "Ġsetting",
        -9.415468176586511
      ],
      [
        "ance",
        -9.416192141017454
      ],
      [
        "ility",
        -9.416601110492984
      ],
      [
        "ĠHowe",
        -9.417484004523851
      ],
      [
        "ĠAll",
        -9.418202358674922
      ],
      [
        "Ġextra",
        -9.419621202147368
      ],
      [
        "her",
        -9.420484822342694
      ],
      [
        "Ġblock",
        -9.421828785688604
      ],
      [
        "Ġdisorder",
        -9.421863973654704
      ],
      [
        "Ġeverything",
        -9.422019141884013
      ],
      [
        "ary",
        -9.422118520552482
      ],
      [
        "As",
        -9.423571638619697
      ],
      [
        "Ġdidn",
        -9.42653764326692
      ],
      [
        "Ġfilm",
        -9.429731522515842
      ],
      [
        "Ġproper",
        -9.43047811967691
      ],
      [
        "Ġteacher",
        -9.432091252667622
      ],
      [
        "Ġwild",
        -9.432468296568825
      ],
      [
        "Ġadvantage",
        -9.433041855740692
      ],
      [
        "ĠV",
        -9.433927765836986
      ],
      [
        "Ġefficienc",
        -9.43552178470715
      ],
      [
        "field",
        -9.43777022911052
      ],
      [
        "Ġglass",
        -9.437787410222969
      ],
      [
        "Ġsoftware",
        -9.441866076068983
      ],
      [
        "Ġcommunication",
        -9.442723201341671
      ],
      [
        "Ġbrand",
        -9.443288789257473
      ],
      [
        "Ġworks",
        -9.44372799185939
      ],
      [
        "Ġsteps",
        -9.4447711621168
      ],
      [
        "Ġaspect",
        -9.445096515867988
      ],
      [
        "ĠWorld",
        -9.445858865424576
      ],
      [
        "Ġwalk",
        -9.446031484268095
      ],
      [
        "Ġreading",
        -9.446101348386184
      ],
      [
        "Ġstrength",
        -9.44890881161787
      ],
      [
        "Ġexact",
        -9.449097934625586
      ],
      [
        "Ġportion",
        -9.450547445131972
      ],
      [
        "Ġfoods",
        -9.45183712677724
      ],
      [
        "Ġdiscover",
        -9.454727541896622
      ],
      [
        "Ġtrue",
        -9.455434172898006
      ],
      [
        "Ġnight",
        -9.455954388498611
      ],
      [
        "Ġjoint",
        -9.456551724899906
      ],
      [
        "Ġfeed",
        -9.460105023908447
      ],
      [
        "Ġconstant",
        -9.462464930635855
      ],
      [
        "Ġcollect",
        -9.462579486689474
      ],
      [
        "Ġdemand",
        -9.462736291555863
      ],
      [
        "formed",
        -9.464071228718549
      ],
      [
        "Ġtrying",
        -9.464078818043824
      ],
      [
        "lthough",
        -9.465673412260948
      ],
      [
        "Ġearth",
        -9.465841079750302
      ],
      [
        "Ġold",
        -9.466249699469696
      ],
      [
        "Ġgene",
        -9.46723680551152
      ],
      [
        "Ġcustomer",
        -9.469380918126046
      ],
      [
        "Ġetc",
        -9.469401310151664
      ],
      [
        "Ġc",
        -9.470550481116591
      ],
      [
        "Ġenter",
        -9.471751859803508
      ],
      [
        "while",
        -9.47180297527648
      ],
      [
        "over",
        -9.472012043756305
      ],
      [
        "Ġcauses",
        -9.472575782834074
      ],
      [
        "Ġharm",
        -9.472827006253755
      ],
      [
        "Ġelectrical",
        -9.47517169750409
      ],
      [
        "Ġdark",
        -9.47547958211197
      ],
      [
        "Ġdevelope",
        -9.476360276732905
      ],
      [
        "Ġswitch",
        -9.476378051860422
      ],
      [
        "Ġgreate",
        -9.476380195588906
      ],
      [
        "red",
        -9.47683382045162
      ],
      [
        "Ġremember",
        -9.4768752953389
      ],
      [
        "Ġdrive",
        -9.47810414366791
      ],
      [
        "Ġpet",
        -9.481049435641966
      ],
      [
        "Ġprocesses",
        -9.4831596802529
      ],
      [
        "Ġcanno",
        -9.485594038232986
      ],
      [
        "Ġfeature",
        -9.48757946721908
      ],
      [
        "With",
        -9.48778072558953
      ],
      [
        "Ġmath",
        -9.488163802844053
      ],
      [
        "Ġmeat",
        -9.488265181047204
      ],
      [
        "X",
        -9.489301065405346
      ],
      [
        "Ġprovided",
        -9.49092335676953
      ],
      [
        "properly",
        -9.49159047358814
      ],
      [
        "through",
        -9.492291825763845
      ],
      [
        "So",
        -9.49308046578344
      ],
      [
        "Ġbirds",
        -9.493361349860775
      ],
      [
        "Ġobtain",
        -9.49336772658464
      ],
      [
        "Ġcritical",
        -9.493386227097924
      ],
      [
        "Ġsmalle",
        -9.49409486050903
      ],
      [
        "Ġreplace",
        -9.495902979786308
      ],
      [
        "ĠSchool",
        -9.49658176163603
      ],
      [
        "Ġdesire",
        -9.496770397667202
      ],
      [
        "work",
        -9.49861555419024
      ],
      [
        "Ġcharge",
        -9.499942228493428
      ],
      [
        "Ġoutput",
        -9.502110603510111
      ],
      [
        "Ġsearch",
        -9.50361280910998
      ],
      [
        "Ġspread",
        -9.503850696446731
      ],
      [
        "Ġproduced",
        -9.504260462220332
      ],
      [
        "hether",
        -9.504505770057945
      ],
      [
        "Ġroot",
        -9.504814170404584
      ],
      [
        "easil",
        -9.505408601852109
      ],
      [
        "Can",
        -9.507487794557653
      ],
      [
        "life",
        -9.507872537884316
      ],
      [
        "Ġask",
        -9.509617766909464
      ],
      [
        "Ġcontainer",
        -9.510513389580566
      ],
      [
        "Ġtopic",
        -9.51103787343591
      ],
      [
        "Ġculture",
        -9.513526149413682
      ],
      [
        "Ġtend",
        -9.515330090070991
      ],
      [
        "fish",
        -9.515335091206524
      ],
      [
        "Ġw",
        -9.515343156106272
      ],
      [
        "Ġinitial",
        -9.515472333903803
      ],
      [
        "Ġbuilt",
        -9.516028347622203
      ],
      [
        "Ġfilter",
        -9.516763405676189
      ],
      [
        "Ġreduc",
        -9.517098122516884
      ],
      [
        "ĠDr",
        -9.517135313282893
      ],
      [
        "Ġdisplay",
        -9.518700107563536
      ],
      [
        "ium",
        -9.519024539868555
      ],
      [
        "Ġpublished",
        -9.520848588016174
      ],
      [
        "Ġrecommend",
        -9.521613298837591
      ],
      [
        "Ġlives",
        -9.524179746568157
      ],
      [
        "Ġrequirement",
        -9.524930469827016
      ],
      [
        "ĠShe",
        -9.52575531510872
      ],
      [
        "day",
        -9.527644529832612
      ],
      [
        "Ġapply",
        -9.52932562362799
      ],
      [
        "Ġhope",
        -9.529749785222483
      ],
      [
        "Ġdiseases",
        -9.53166948415575
      ],
      [
        "Ġfeeling",
        -9.53215667009098
      ],
      [
        "Ġmedia",
        -9.536628313025416
      ],
      [
        "K",
        -9.536807360105207
      ],
      [
        "Ġelse",
        -9.53683026142005
      ],
      [
        "Ġexplain",
        -9.53756966110127
      ],
      [
        "man",
        -9.538323775227422
      ],
      [
        "ĠAfter",
        -9.53924932713699
      ],
      [
        "Ġshows",
        -9.541125016043232
      ],
      [
        "Ġbacteria",
        -9.54431634055288
      ],
      [
        "ther",
        -9.546342613513453
      ],
      [
        "Using",
        -9.54678569138459
      ],
      [
        "Ġwrite",
        -9.548222237700315
      ],
      [
        "Ġchance",
        -9.548384976247082
      ],
      [
        "Ġnumbers",
        -9.549564587899166
      ],
      [
        "Ġoccur",
        -9.550077956963753
      ],
      [
        "Ġ=",
        -9.55028791059776
      ],
      [
        "--",
        -9.550494265361058
      ],
      [
        "Ġobserve",
        -9.55054668320428
      ],
      [
        "Ġinput",
        -9.550602014158711
      ],
      [
        "Ġevent",
        -9.550849991707722
      ],
      [
        "ĠUS",
        -9.55100496613858
      ],
      [
        "Ġmanage",
        -9.55173553136268
      ],
      [
        "Ġtaste",
        -9.552127796109184
      ],
      [
        "Ġbreak",
        -9.552888217550688
      ],
      [
        "ĠMay",
        -9.553766456961585
      ],
      [
        "ĠâĢĶ",
        -9.554739268153856
      ],
      [
        "Ġmemory",
        -9.554838159873626
      ],
      [
        "Now",
        -9.555985365467096
      ],
      [
        "Ġred",
        -9.55662137463712
      ],
      [
        "Ġgain",
        -9.557525496885052
      ],
      [
        "Ġsuccess",
        -9.557591975030949
      ],
      [
        "Ġcharacteristic",
        -9.557671343518653
      ],
      [
        "Ġimmediate",
        -9.557706347386391
      ],
      [
        "rate",
        -9.557873086642603
      ],
      [
        "Ġfire",
        -9.559064265735444
      ],
      [
        "sources",
        -9.559081223270116
      ],
      [
        "Ġserious",
        -9.559286250126195
      ],
      [
        "...ĊĊ",
        -9.55931276629289
      ],
      [
        "Ġhappen",
        -9.56112138359936
      ],
      [
        "Ġacid",
        -9.561612171528193
      ],
      [
        "Ġmaintenance",
        -9.561621885838086
      ],
      [
        "Ġfrequent",
        -9.561908405776435
      ],
      [
        "Ġsix",
        -9.562475787105274
      ],
      [
        "Ġpaint",
        -9.563649050263615
      ],
      [
        "Ġattack",
        -9.563752114644885
      ],
      [
        "Ġuseful",
        -9.566119264672718
      ],
      [
        "Ġenable",
        -9.566173154186476
      ],
      [
        "Ġpass",
        -9.566476709917495
      ],
      [
        "Ġdeath",
        -9.56683643371782
      ],
      [
        "Ġman",
        -9.5680109966077
      ],
      [
        "ember",
        -9.569180780465668
      ],
      [
        "Ġimportanc",
        -9.570194837807588
      ],
      [
        "Ġdecrease",
        -9.57059320677588
      ],
      [
        "Ġspot",
        -9.572144103080554
      ],
      [
        "side",
        -9.572447918660066
      ],
      [
        "Ġwind",
        -9.57259522803083
      ],
      [
        "Ġ&",
        -9.572829968500717
      ],
      [
        "Ġideal",
        -9.572888101011047
      ],
      [
        "ries",
        -9.574226342815358
      ],
      [
        "Ġpoor",
        -9.5744141762254
      ],
      [
        "Ġappropriate",
        -9.57636423839594
      ],
      [
        "ĠUse",
        -9.576556457262782
      ],
      [
        "ĠResearch",
        -9.576932291808076
      ],
      [
        "Ġrapid",
        -9.578958003014908
      ],
      [
        "Ġrecognize",
        -9.579272106715743
      ],
      [
        "Some",
        -9.579733410660085
      ],
      [
        "Ġdoctor",
        -9.580499275511425
      ],
      [
        "Ġmonitor",
        -9.58067429562822
      ],
      [
        "Ġyellow",
        -9.5810945140442
      ],
      [
        "Ġgot",
        -9.582052636027376
      ],
      [
        "me",
        -9.58232360837397
      ],
      [
        "Ġintroduce",
        -9.58281928844076
      ],
      [
        "right",
        -9.583188412096533
      ],
      [
        "Ġcombination",
        -9.58401989554672
      ],
      [
        "Ġbottom",
        -9.58520103634062
      ],
      [
        "Ġstyle",
        -9.585852235268849
      ],
      [
        "Ġconnection",
        -9.585883344973432
      ],
      [
        "Ġdraw",
        -9.586231626795342
      ],
      [
        "Ġsuitabl",
        -9.58649936359662
      ],
      [
        "Ġmembers",
        -9.587450425152058
      ],
      [
        "Ġsituation",
        -9.588514306911724
      ],
      [
        "Ġingredient",
        -9.589680131695989
      ],
      [
        "Ġrest",
        -9.589748615761362
      ],
      [
        "Ġcapacit",
        -9.590590514221478
      ],
      [
        "Ġusers",
        -9.591349792678333
      ],
      [
        "Ġpurchase",
        -9.591504224051771
      ],
      [
        "Ġnutrient",
        -9.594148080091244
      ],
      [
        "Ġresponsibl",
        -9.59588244314547
      ],
      [
        "Ġhot",
        -9.596206522316342
      ],
      [
        "Ġspend",
        -9.59629116163734
      ],
      [
        "these",
        -9.59653362475366
      ],
      [
        "Ġcircuit",
        -9.596865083374126
      ],
      [
        "By",
        -9.597459327903774
      ],
      [
        "Ġmineral",
        -9.59854522488811
      ],
      [
        "ĠO",
        -9.599374960416586
      ],
      [
        "And",
        -9.599616782516591
      ],
      [
        "Ġseries",
        -9.599693378303751
      ],
      [
        "when",
        -9.600259766714874
      ],
      [
        "Ġwhe",
        -9.601152164327148
      ],
      [
        "Ġnotice",
        -9.604005875086049
      ],
      [
        "Ġpoints",
        -9.604509334681866
      ],
      [
        "Ġfigure",
        -9.6049963899362
      ],
      [
        "Ġsequence",
        -9.60506054219358
      ],
      [
        "Ġage",
        -9.605315879158123
      ],
      [
        "Ġvolume",
        -9.607467076215045
      ],
      [
        "Ġfat",
        -9.6089617531031
      ],
      [
        "Ġdeal",
        -9.609809654914812
      ],
      [
        "Ġpretty",
        -9.609871994787907
      ],
      [
        "ything",
        -9.610419145295271
      ],
      [
        "eating",
        -9.61052783725784
      ],
      [
        "Ġcouple",
        -9.611351499393503
      ],
      [
        "Ġexist",
        -9.612394453611277
      ],
      [
        "Ġcombine",
        -9.613600413191758
      ],
      [
        "Ġtips",
        -9.61468867910122
      ],
      [
        "ĠAmerica",
        -9.614990066344271
      ],
      [
        "was",
        -9.615000236020393
      ],
      [
        "Ġm",
        -9.61728428724622
      ],
      [
        "wide",
        -9.617373604797518
      ],
      [
        "Ġco",
        -9.6175925921956
      ],
      [
        "Ġteeth",
        -9.618147860793847
      ],
      [
        "Ġrock",
        -9.618260942235398
      ],
      [
        "Ġword",
        -9.618303164110078
      ],
      [
        "Ġpatient",
        -9.618458512551506
      ],
      [
        "Y",
        -9.620042712983905
      ],
      [
        "Ġsustainabl",
        -9.62143171780582
      ],
      [
        "Ġgear",
        -9.62162143287718
      ],
      [
        "Ġcareful",
        -9.62186862885376
      ],
      [
        "Ġimages",
        -9.621887063517969
      ],
      [
        "ĠMore",
        -9.621909441520994
      ],
      [
        "Ġslight",
        -9.622108849231264
      ],
      [
        "make",
        -9.622975121203906
      ],
      [
        "Ġdecision",
        -9.625867752328798
      ],
      [
        "Ġnothing",
        -9.627120810788943
      ],
      [
        "Ġwatch",
        -9.627668874644854
      ],
      [
        "That",
        -9.628118268824617
      ],
      [
        "|",
        -9.628165787277965
      ],
      [
        "ĠCan",
        -9.629135432840194
      ],
      [
        "Ġprograms",
        -9.62916438014446
      ],
      [
        "ĠL",
        -9.629296999869512
      ],
      [
        "here",
        -9.629494433958936
      ],
      [
        "Ġsection",
        -9.62977082813109
      ],
      [
        "Ġwriting",
        -9.629808381285486
      ],
      [
        "Ġcleaning",
        -9.629990828076943
      ],
      [
        "Ġmoving",
        -9.630299560913723
      ],
      [
        "older",
        -9.630451230570245
      ],
      [
        "last",
        -9.632249517533332
      ],
      [
        "ĠHealth",
        -9.632256738246856
      ],
      [
        "Ġmeasurement",
        -9.63237959171152
      ],
      [
        "Ġrefer",
        -9.633391036911435
      ],
      [
        "Ġpump",
        -9.63385348493507
      ],
      [
        "Ġsoon",
        -9.634619502316902
      ],
      [
        "ĠMost",
        -9.63555062551821
      ],
      [
        "uch",
        -9.636011759762592
      ],
      [
        "ice",
        -9.636315869974872
      ],
      [
        "Ġplatform",
        -9.637578952810983
      ],
      [
        "Ġcarry",
        -9.637650766570586
      ],
      [
        "Ġbeautiful",
        -9.638306214030417
      ],
      [
        "upon",
        -9.638901829489331
      ],
      [
        "Ġmusic",
        -9.641278229275688
      ],
      [
        "Ġtouch",
        -9.642339855075974
      ],
      [
        "they",
        -9.643151471223998
      ],
      [
        "Ġfund",
        -9.643489814017684
      ],
      [
        "Ġdetect",
        -9.644094250185574
      ],
      [
        "Ġvitamin",
        -9.644402128104652
      ],
      [
        "Ġexcellen",
        -9.646337926800191
      ],
      [
        "Ġencourage",
        -9.64713334892804
      ],
      [
        "Ġapplie",
        -9.647667988510351
      ],
      [
        "Ġdocument",
        -9.648222383369768
      ],
      [
        "Ġwear",
        -9.6486491750406
      ],
      [
        "Ġevents",
        -9.651943422703624
      ],
      [
        "Ġvisual",
        -9.655104120009415
      ],
      [
        "also",
        -9.655503468302856
      ],
      [
        "Ġimmun",
        -9.659751162871776
      ],
      [
        "even",
        -9.65983823030182
      ],
      [
        "their",
        -9.6604949026131
      ],
      [
        "many",
        -9.661006130026225
      ],
      [
        "Ġmolecule",
        -9.661204679641576
      ],
      [
        "Ġobject",
        -9.662756418437011
      ],
      [
        "Ġclaim",
        -9.662844397331426
      ],
      [
        "bility",
        -9.66349985627951
      ],
      [
        "Ġfemale",
        -9.663791886279691
      ],
      [
        "Ġprocedure",
        -9.665833942067808
      ],
      [
        "Ġconnect",
        -9.665872931560251
      ],
      [
        "Ġscreen",
        -9.66590829630763
      ],
      [
        "Ġlate",
        -9.667233409813347
      ],
      [
        "Ġelectronic",
        -9.667469563550137
      ],
      [
        "ĠYes",
        -9.672572498243683
      ],
      [
        "Ġparticle",
        -9.67319250274705
      ],
      [
        "Ġscale",
        -9.675557974110257
      ],
      [
        "Ġbathroom",
        -9.676977543223185
      ],
      [
        "Ġdefine",
        -9.677262397988564
      ],
      [
        "-term",
        -9.677871106494274
      ],
      [
        "Ġland",
        -9.679075598274675
      ],
      [
        "Ġcool",
        -9.680711333733225
      ],
      [
        "there",
        -9.68117050091092
      ],
      [
        "Ġconstruction",
        -9.681598812335109
      ],
      [
        "Ġorganic",
        -9.685888302308214
      ],
      [
        "what",
        -9.687435656951358
      ],
      [
        "Ġwave",
        -9.687873223226855
      ],
      [
        "Ġbrown",
        -9.687903351644362
      ],
      [
        "Ġpromote",
        -9.690008447384844
      ],
      [
        "Ġprinciple",
        -9.690163089710566
      ],
      [
        "ĠNorth",
        -9.690744588193102
      ],
      [
        "Ġextract",
        -9.691112640690433
      ],
      [
        "Ġaccurate",
        -9.69116456665768
      ],
      [
        "ĠK",
        -9.69146963937644
      ],
      [
        "Ġbaby",
        -9.693899412503349
      ],
      [
        "Ġensur",
        -9.694206291523528
      ],
      [
        "Ġobjects",
        -9.69426366876249
      ],
      [
        "Ġlocate",
        -9.695745680477344
      ],
      [
        "uses",
        -9.695801786655467
      ],
      [
        "Ġmoment",
        -9.695987817003514
      ],
      [
        "Ġphotograph",
        -9.696057380699552
      ],
      [
        "ĠSaudi",
        -9.696248862349762
      ],
      [
        "Ġfabric",
        -9.696388940611566
      ],
      [
        "Ġalternative",
        -9.696399032372623
      ],
      [
        "Ġheavy",
        -9.696927641733254
      ],
      [
        "ritten",
        -9.69727878871663
      ],
      [
        "Ġhandle",
        -9.697468253537048
      ],
      [
        "Here",
        -9.697718504862127
      ],
      [
        "Step",
        -9.69818134042905
      ],
      [
        "Ġvary",
        -9.699916833416331
      ],
      [
        "Ġteaching",
        -9.703226664511044
      ],
      [
        "Ġbird",
        -9.703760154337258
      ],
      [
        "ways",
        -9.703945132539433
      ],
      [
        "Ġstar",
        -9.704211918445193
      ],
      [
        "head",
        -9.705710538160057
      ],
      [
        "Ġcity",
        -9.70707107186564
      ],
      [
        "Ġhappens",
        -9.70719630248033
      ],
      [
        "ers",
        -9.708273381670086
      ],
      [
        "Ġworth",
        -9.709439856987888
      ],
      [
        "being",
        -9.709642558805044
      ],
      [
        "ship",
        -9.710479570669872
      ],
      [
        "Ġsolid",
        -9.71161211269273
      ],
      [
        "unning",
        -9.712494448041742
      ],
      [
        "Ġfrequenc",
        -9.712623316995993
      ],
      [
        "Ġvalues",
        -9.713468791357696
      ],
      [
        "Ġsoft",
        -9.714065339662016
      ],
      [
        "Ġinteraction",
        -9.714715508934672
      ],
      [
        "expected",
        -9.714991210517995
      ],
      [
        "Ġopening",
        -9.714996494875145
      ],
      [
        "Ġstring",
        -9.715290537309816
      ],
      [
        "Ġactive",
        -9.717479644866565
      ],
      [
        "Ġthousand",
        -9.71985518735463
      ],
      [
        "Ġresistance",
        -9.720019583667185
      ],
      [
        "Ġpractices",
        -9.720259136475962
      ],
      [
        "Ġsevere",
        -9.720996948817785
      ],
      [
        "Ġtesting",
        -9.721487330082612
      ],
      [
        ".S",
        -9.723431316991205
      ],
      [
        "Ġpowerful",
        -9.723600215236871
      ],
      [
        "ĠWho",
        -9.72415594636978
      ],
      [
        "Ġlimite",
        -9.725557832961949
      ],
      [
        "Ġinsight",
        -9.728098026016015
      ],
      [
        "giving",
        -9.728221506626504
      ],
      [
        "Ġwrong",
        -9.728619373791233
      ],
      [
        "Ġbone",
        -9.728737764052042
      ],
      [
        "Our",
        -9.729730253727318
      ],
      [
        "Ġwire",
        -9.729951165683008
      ],
      [
        "Ġforward",
        -9.730552946823726
      ],
      [
        "Ġbike",
        -9.730866068090616
      ],
      [
        "Ġconsist",
        -9.731057433841482
      ],
      [
        "Ġpair",
        -9.731496927047656
      ],
      [
        "ish",
        -9.732239221617096
      ],
      [
        "Ġmechanism",
        -9.733932084043722
      ],
      [
        "Ġadding",
        -9.73417193266167
      ],
      [
        "Ġhair",
        -9.734714889689691
      ],
      [
        "Ġcolour",
        -9.735572436382991
      ],
      [
        "companie",
        -9.738504693661492
      ],
      [
        "ĠF",
        -9.738900375012292
      ],
      [
        "Ġcausing",
        -9.739102438733124
      ],
      [
        "Ġp",
        -9.73951859356036
      ],
      [
        "Ġinstance",
        -9.739819521195612
      ],
      [
        "Ġcompletel",
        -9.740999896717508
      ],
      [
        "Ġrecommende",
        -9.74112681415264
      ],
      [
        "On",
        -9.742222259165802
      ],
      [
        "Ġconnected",
        -9.742263140511408
      ],
      [
        "coming",
        -9.743331933947337
      ],
      [
        "Ġquick",
        -9.743905751735989
      ],
      [
        "-to",
        -9.744058981464814
      ],
      [
        "Ġfiber",
        -9.744080203487604
      ],
      [
        "ĠCenter",
        -9.74471004388738
      ],
      [
        "Ġfine",
        -9.745685632234922
      ],
      [
        "Ġanti",
        -9.745942146351574
      ],
      [
        "Ġnoise",
        -9.746162195030202
      ],
      [
        "Ġequal",
        -9.747871340043169
      ],
      [
        "Ġrepair",
        -9.748414874179934
      ],
      [
        "Q",
        -9.74867071390667
      ],
      [
        "Ġfeeding",
        -9.749096440901264
      ],
      [
        "Ġadult",
        -9.749823181369065
      ],
      [
        "Ġpicture",
        -9.751288624118724
      ],
      [
        "After",
        -9.75158643566283
      ],
      [
        "Ġleg",
        -9.751589802276609
      ],
      [
        "Ġsub",
        -9.753380917443767
      ],
      [
        "Ġcame",
        -9.755824865889291
      ],
      [
        "Ġinternational",
        -9.756152918956756
      ],
      [
        "ring",
        -9.75666874668686
      ],
      [
        "only",
        -9.757255432119184
      ],
      [
        "Ġago",
        -9.758530462676344
      ],
      [
        "-up",
        -9.759131439017938
      ],
      [
        "land",
        -9.759475946491609
      ],
      [
        "Ġcooking",
        -9.76107722468257
      ],
      [
        "ĠFrom",
        -9.761088214133732
      ],
      [
        "Ġeconomic",
        -9.762190772046097
      ],
      [
        "Ġthird",
        -9.762255276583694
      ],
      [
        "Ġreference",
        -9.764401208972744
      ],
      [
        "Ġgeneration",
        -9.764828434381217
      ],
      [
        ".com",
        -9.765574648747284
      ],
      [
        "Ġwonder",
        -9.765785150305764
      ],
      [
        "Ġestimate",
        -9.7662532882967
      ],
      [
        "Ġrecover",
        -9.766515180089543
      ],
      [
        "ĠOf",
        -9.767482600544533
      ],
      [
        "diabetes",
        -9.769964901692129
      ],
      [
        "Ġoccurs",
        -9.76998747532873
      ],
      [
        "Ġvaluable",
        -9.77102412460656
      ],
      [
        "Ġdi",
        -9.772570326729292
      ],
      [
        "aking",
        -9.772707569774644
      ],
      [
        "Ġmiddle",
        -9.773070758262136
      ],
      [
        "Ġmuscle",
        -9.773086776403296
      ],
      [
        "en",
        -9.77329811109311
      ],
      [
        "Ġbackground",
        -9.77462789354268
      ],
      [
        "Ġcommand",
        -9.775176929347236
      ],
      [
        "Ġeducational",
        -9.776705690470829
      ],
      [
        "Ġnote",
        -9.77839272563886
      ],
      [
        "ĠOur",
        -9.778738312546002
      ],
      [
        "inches",
        -9.779508522977036
      ],
      [
        "Ġflavor",
        -9.779638044414218
      ],
      [
        "Ġcompound",
        -9.781475388425308
      ],
      [
        "Ġlesson",
        -9.78237429672264
      ],
      [
        "includes",
        -9.784936142883076
      ],
      [
        "Ġrate",
        -9.784936225020951
      ],
      [
        "Ġwait",
        -9.785323321284189
      ],
      [
        "Ġsmooth",
        -9.786435479050112
      ],
      [
        "Ġfile",
        -9.786969730974407
      ],
      [
        "Ġextend",
        -9.787481364788649
      ],
      [
        "Ġmeaning",
        -9.78817359124352
      ],
      [
        "Ġserve",
        -9.788835577382638
      ],
      [
        "Ġoxygen",
        -9.789444502424251
      ],
      [
        "Ġgreenhouse",
        -9.78971675494282
      ],
      [
        "Ġaffected",
        -9.79190499733902
      ],
      [
        "cell",
        -9.793666991526608
      ],
      [
        "went",
        -9.796778156379233
      ],
      [
        "Ġreflect",
        -9.79765907922435
      ],
      [
        "Ġcollection",
        -9.798462845401136
      ],
      [
        "Ġinfection",
        -9.801084989334775
      ],
      [
        "Ġorganism",
        -9.801801993551797
      ],
      [
        "Ġdepth",
        -9.801967302396088
      ],
      [
        "Ġstick",
        -9.803145870177705
      ],
      [
        "Ġemission",
        -9.80354116295002
      ],
      [
        "Ġmessage",
        -9.80366225729156
      ],
      [
        "Ġcomfortabl",
        -9.806229621568422
      ],
      [
        "covered",
        -9.80638871799815
      ],
      [
        "took",
        -9.806768231077202
      ],
      [
        "Ġcoast",
        -9.807221820912751
      ],
      [
        "discovered",
        -9.80875706946089
      ],
      [
        "Ġroad",
        -9.809832833510615
      ],
      [
        "ĠInstitute",
        -9.812609013542804
      ],
      [
        "ĠAls",
        -9.813192542733804
      ],
      [
        "lot",
        -9.81540334880572
      ],
      [
        "Ġocean",
        -9.817146935707294
      ],
      [
        "Ġframe",
        -9.81722354953448
      ],
      [
        "anyone",
        -9.817358645692408
      ],
      [
        "Ġbasi",
        -9.81802706624824
      ],
      [
        "Whether",
        -9.818095052403724
      ],
      [
        "Ġconsumption",
        -9.818249288903294
      ],
      [
        "Ġbox",
        -9.81861658842489
      ],
      [
        "Ġcentury",
        -9.818659304115826
      ],
      [
        "st",
        -9.819020438944486
      ],
      [
        "Ġreaction",
        -9.81935924418779
      ],
      [
        "Ġflight",
        -9.819703903497008
      ],
      [
        "them",
        -9.819790504954408
      ],
      [
        "Ġletter",
        -9.820594026400808
      ],
      [
        "Ġalgorithm",
        -9.82105604319704
      ],
      [
        "Ġcutting",
        -9.821877961008198
      ],
      [
        "ĠW",
        -9.822733983064907
      ],
      [
        "Ġshift",
        -9.823470583986072
      ],
      [
        "Ġlack",
        -9.823642929111706
      ],
      [
        "ĠJ",
        -9.824555649338311
      ],
      [
        "Ġtexture",
        -9.825144115899016
      ],
      [
        "do",
        -9.825476005393872
      ],
      [
        "Ġrich",
        -9.826472137504346
      ],
      [
        "Ġmulti",
        -9.8273730668954
      ],
      [
        "Ġproperty",
        -9.828875492427636
      ],
      [
        "existing",
        -9.8289302936988
      ],
      [
        "Ġelement",
        -9.829073810475252
      ],
      [
        "Ġreported",
        -9.829644945531111
      ],
      [
        "ĠEach",
        -9.829666101313762
      ],
      [
        "Ġconsistent",
        -9.831183190216477
      ],
      [
        "Ġspeak",
        -9.831348882131918
      ],
      [
        "Ġmale",
        -9.831349819013376
      ],
      [
        "Ġcup",
        -9.831406889174987
      ],
      [
        "lines",
        -9.831500805491077
      ],
      [
        "Ġversion",
        -9.831510553567451
      ],
      [
        "Ġsnow",
        -9.831642905000418
      ],
      [
        "Ġgold",
        -9.834378435619568
      ],
      [
        "%)",
        -9.834612122197743
      ],
      [
        "Ġadde",
        -9.8356954735099
      ],
      [
        "Ġchang",
        -9.838458369569665
      ],
      [
        "Ġflat",
        -9.840258033889588
      ],
      [
        "take",
        -9.840321400959246
      ],
      [
        "Ġdiscuss",
        -9.840835492846152
      ],
      [
        "Ġsecurity",
        -9.84232748178382
      ],
      [
        "Ġinteresting",
        -9.842406645460704
      ],
      [
        "Ġdouble",
        -9.842551199935368
      ],
      [
        "ĠAdditional",
        -9.84306492842016
      ],
      [
        "Ġstone",
        -9.843098623046409
      ],
      [
        "Ġfavorite",
        -9.84345115551126
      ],
      [
        "Ġfarm",
        -9.845564481140809
      ],
      [
        "Ġfriends",
        -9.846627026535456
      ],
      [
        "Ġpull",
        -9.84696927722042
      ],
      [
        "Ġact",
        -9.847623512569273
      ],
      [
        "Ġvital",
        -9.8480903343747
      ],
      [
        "An",
        -9.849131188784233
      ],
      [
        "Ġvoltage",
        -9.85014796590249
      ],
      [
        "Ġadults",
        -9.850785296882488
      ],
      [
        "Ġhands",
        -9.85213527590695
      ],
      [
        "Ġphase",
        -9.852381291267402
      ],
      [
        "Ġtrack",
        -9.85264864363662
      ],
      [
        "don",
        -9.852867363957746
      ],
      [
        "Ġpreference",
        -9.8539310692102
      ],
      [
        "Ġexpression",
        -9.855204851497977
      ],
      [
        "Ġappearance",
        -9.856842327695553
      ],
      [
        "Ġhost",
        -9.857372986264757
      ],
      [
        "Ġfluid",
        -9.857379919867949
      ],
      [
        "Ġresource",
        -9.857959234125522
      ],
      [
        "Ġbeginning",
        -9.860084465467423
      ],
      [
        "Ġpath",
        -9.860409937510482
      ],
      [
        "Ġmouth",
        -9.86049047817709
      ],
      [
        "Ġphoto",
        -9.861099527224876
      ],
      [
        "Ġjournal",
        -9.862740252474538
      ],
      [
        "Ġconsume",
        -9.863129951768103
      ],
      [
        ">",
        -9.864028862460543
      ],
      [
        "Ġmedicine",
        -9.864244852154464
      ],
      [
        "Ġjourney",
        -9.86443503859756
      ],
      [
        "Ġnational",
        -9.864662633041313
      ],
      [
        "aught",
        -9.865692553569437
      ],
      [
        "Ġsort",
        -9.865935486310718
      ],
      [
        "Ġstrategi",
        -9.867032603793296
      ],
      [
        "Ġmatch",
        -9.867713735962578
      ],
      [
        "Ġdrawing",
        -9.870319692549506
      ],
      [
        "-like",
        -9.870355411305784
      ],
      [
        "Ġadjust",
        -9.870415149363495
      ],
      [
        "Ġphone",
        -9.87102802409968
      ],
      [
        "Ġtransition",
        -9.8733715876604
      ],
      [
        "ĠAfrica",
        -9.874294640591536
      ],
      [
        "Ġplate",
        -9.875398471400851
      ],
      [
        "Ġbag",
        -9.875657875211353
      ],
      [
        "board",
        -9.875713976653223
      ],
      [
        "ĠAl",
        -9.875870190775755
      ],
      [
        "Ġaim",
        -9.876590678237848
      ],
      [
        "ĠNot",
        -9.876950581364872
      ],
      [
        "Ġrelativel",
        -9.877932275939934
      ],
      [
        "related",
        -9.879554413747272
      ],
      [
        "Ġdemonstrate",
        -9.88066425125418
      ],
      [
        "Ġpick",
        -9.880924553832893
      ],
      [
        "Ġtechnologies",
        -9.880993731050072
      ],
      [
        "Ġflea",
        -9.882867531197371
      ],
      [
        "Ġsensor",
        -9.883085455837907
      ],
      [
        "Ġpush",
        -9.884080790003267
      ],
      [
        "Ġhearing",
        -9.88413515158686
      ],
      [
        "Ġcontext",
        -9.885243083226548
      ],
      [
        "About",
        -9.885897689075284
      ],
      [
        "Ġexpect",
        -9.886018864834693
      ],
      [
        "Ġliv",
        -9.886642153582985
      ],
      [
        "let",
        -9.887117123720625
      ],
      [
        "Ġdivide",
        -9.887262444290618
      ],
      [
        "came",
        -9.888507995148128
      ],
      [
        "Ġcountr",
        -9.888577846587843
      ],
      [
        "eat",
        -9.888724139105689
      ],
      [
        "Ġinvestment",
        -9.888810945982303
      ],
      [
        "Ġhuge",
        -9.889009194392637
      ],
      [
        "Ġsurrounding",
        -9.889094550591992
      ],
      [
        "Ġtherapy",
        -9.89189188603332
      ],
      [
        "Ġinstall",
        -9.892253333645456
      ],
      [
        "Ġoutcome",
        -9.89262026772655
      ],
      [
        "Ġclient",
        -9.893056321472166
      ],
      [
        "rates",
        -9.893401484003654
      ],
      [
        "ĠIndia",
        -9.893422818575887
      ],
      [
        "Ġedge",
        -9.894171668967012
      ],
      [
        "ĠWar",
        -9.895068748263428
      ],
      [
        "Ġconcentration",
        -9.895391076310425
      ],
      [
        "Ġbegan",
        -9.896280380781178
      ],
      [
        "ĠEnglish",
        -9.897403446821055
      ],
      [
        "Ġegg",
        -9.89840439567525
      ],
      [
        "Ġgenes",
        -9.898533131965417
      ],
      [
        "Ġextremely",
        -9.899065350019546
      ],
      [
        "Ġtrigger",
        -9.89918255376872
      ],
      [
        "ĠMy",
        -9.89934007240156
      ],
      [
        "Ġexpand",
        -9.899747623598238
      ],
      [
        "Ġrare",
        -9.900005144378738
      ],
      [
        "Ġbright",
        -9.900261638580115
      ],
      [
        "Ġpassage",
        -9.90122677315424
      ],
      [
        "Ġfamili",
        -9.901317952416552
      ],
      [
        "Ġse",
        -9.901872614035987
      ],
      [
        "Ġdistribution",
        -9.903211304345188
      ],
      [
        "Ġvision",
        -9.903902859602988
      ],
      [
        "ĠFirst",
        -9.90394113684786
      ],
      [
        "Ġdriv",
        -9.904298834187706
      ],
      [
        "Ġheight",
        -9.90430080974673
      ],
      [
        "Ġforest",
        -9.905281640357629
      ],
      [
        "Ġmother",
        -9.905329544886794
      ],
      [
        "Ġstates",
        -9.9061726743092
      ],
      [
        "Ġthermal",
        -9.906489167690324
      ],
      [
        "into",
        -9.907375940019094
      ],
      [
        "Ġiron",
        -9.909703843814702
      ],
      [
        "All",
        -9.909704028580292
      ],
      [
        "Ġmember",
        -9.910117378788904
      ],
      [
        "Ġdate",
        -9.910826503226229
      ],
      [
        "Ġrelative",
        -9.91136427122062
      ],
      [
        "Ġcapture",
        -9.912129481920868
      ],
      [
        "Ġchicken",
        -9.91309627436234
      ],
      [
        "Ġdiamond",
        -9.913718785893932
      ],
      [
        "place",
        -9.914273583272964
      ],
      [
        "Ġstand",
        -9.91502662329877
      ],
      [
        "Ġmental",
        -9.916750216661244
      ],
      [
        "Ġprivate",
        -9.917598829863516
      ],
      [
        "ĠAt",
        -9.918003877449046
      ],
      [
        "Ġcoat",
        -9.918663410619777
      ],
      [
        "Ġartist",
        -9.919048855684562
      ],
      [
        "Ġupdate",
        -9.919147099728352
      ],
      [
        "ty",
        -9.919279708870082
      ],
      [
        "According",
        -9.920623606029288
      ],
      [
        "Onc",
        -9.921638737543631
      ],
      [
        "end",
        -9.922382625226202
      ],
      [
        "Ġcompost",
        -9.922728417826566
      ],
      [
        "come",
        -9.92302898616872
      ],
      [
        "Ġcomment",
        -9.924282728383156
      ],
      [
        "ĠNOT",
        -9.92469216668875
      ],
      [
        "Ġmiles",
        -9.92552927621445
      ],
      [
        "Ġmotor",
        -9.92593572800738
      ],
      [
        "ĠGerman",
        -9.927011036454823
      ],
      [
        "Ġupper",
        -9.927538729310095
      ],
      [
        "Ġmoistur",
        -9.92821203043292
      ],
      [
        "Ġdirt",
        -9.929282157814177
      ],
      [
        "Ġbirth",
        -9.93097331857818
      ],
      [
        "Ġmanufacturer",
        -9.93340744530941
      ],
      [
        "lost",
        -9.934409830228578
      ],
      [
        "Ġaction",
        -9.935067813264451
      ],
      [
        "Ġengage",
        -9.93508682380445
      ],
      [
        "Ġart",
        -9.935767029672864
      ],
      [
        "Ġhighl",
        -9.935870606983904
      ],
      [
        "ĠWater",
        -9.936949806363618
      ],
      [
        "Ġsteel",
        -9.937120828431322
      ],
      [
        "Ġapp",
        -9.938129478985315
      ],
      [
        "Ġattempt",
        -9.938781352729686
      ],
      [
        "Ġsolutions",
        -9.939337495626592
      ],
      [
        "Ġfoot",
        -9.939983551354544
      ],
      [
        "just",
        -9.941448953927171
      ],
      [
        "Ġcross",
        -9.942045383325688
      ],
      [
        "Ġsecure",
        -9.943412055813464
      ],
      [
        "put",
        -9.943534142801148
      ],
      [
        "ĠNow",
        -9.944952519057434
      ],
      [
        "Ġfinancial",
        -9.94515129572314
      ],
      [
        "Ġstrateg",
        -9.946946401921869
      ],
      [
        "Ġweb",
        -9.947681548725434
      ],
      [
        "Ġfill",
        -9.94889229527348
      ],
      [
        "Ġplease",
        -9.94929166768352
      ],
      [
        "Ġorange",
        -9.949782129718114
      ],
      [
        "Ġhorse",
        -9.94980297763091
      ],
      [
        "Ġthread",
        -9.949864404967514
      ],
      [
        "ĠUK",
        -9.94995279329434
      ],
      [
        "ĠMake",
        -9.95043883622776
      ],
      [
        "ĠOr",
        -9.950517437387088
      ],
      [
        "Ġmedium",
        -9.9513584761603
      ],
      [
        "Ġadapt",
        -9.951637695601306
      ],
      [
        "Ġsurger",
        -9.952580125506843
      ],
      [
        "-year",
        -9.952775957331884
      ],
      [
        "Ġbudget",
        -9.95312910008261
      ],
      [
        "ĠOnc",
        -9.953164737951578
      ],
      [
        "Your",
        -9.9536976857625
      ],
      [
        "king",
        -9.955000272749594
      ],
      [
        "between",
        -9.955122341035825
      ],
      [
        "taken",
        -9.95550989252442
      ],
      [
        "Ġchain",
        -9.957149276260518
      ],
      [
        "Ġvirus",
        -9.957162982601371
      ],
      [
        "Ġprefer",
        -9.957899293293146
      ],
      [
        "Ġever",
        -9.959590991851714
      ],
      [
        "Ġsaw",
        -9.959885953939583
      ],
      [
        "Ġpractical",
        -9.96158524294988
      ],
      [
        "Ġformula",
        -9.962579815062204
      ],
      [
        "Ġs",
        -9.962794262309767
      ],
      [
        "no",
        -9.963681619424266
      ],
      [
        "Ġhapp",
        -9.963763183940465
      ],
      [
        "Most",
        -9.966056148448931
      ],
      [
        "Ġinternal",
        -9.966800316419368
      ],
      [
        "Ġdental",
        -9.966898730860132
      ],
      [
        "Are",
        -9.967258043984105
      ],
      [
        "Ġfaste",
        -9.9673277141355
      ],
      [
        "Ġexposure",
        -9.96749742709957
      ],
      [
        "Ġrecipe",
        -9.96858754236353
      ],
      [
        "held",
        -9.969877530262432
      ],
      [
        "Ġancient",
        -9.971356615210466
      ],
      [
        "âĢĿ",
        -9.972724655937794
      ],
      [
        "Ġchannel",
        -9.97384685037895
      ],
      [
        "Ġtoilet",
        -9.974087208847102
      ],
      [
        "ties",
        -9.9743996051889
      ],
      [
        "Ġfloor",
        -9.974860766334409
      ],
      [
        "Ġlink",
        -9.975599869686258
      ],
      [
        "Ġplanet",
        -9.97587273172032
      ],
      [
        "ĠAccording",
        -9.97629217529077
      ],
      [
        "ge",
        -9.97748029885148
      ],
      [
        "Ġconsumer",
        -9.977660303737473
      ],
      [
        "ble",
        -9.97787923479597
      ],
      [
        "Ġload",
        -9.97843883786312
      ],
      [
        "Ġburn",
        -9.97858871840566
      ],
      [
        "Ġcommercial",
        -9.979077222894476
      ],
      [
        "Ġcamp",
        -9.979237941177516
      ],
      [
        "Ġnumerous",
        -9.979673966866043
      ],
      [
        "Ġtransfer",
        -9.980033143394904
      ],
      [
        "Ġlaw",
        -9.98009846058885
      ],
      [
        "ĠâĢľ",
        -9.98093028883049
      ],
      [
        "Ġgadget",
        -9.982092324762563
      ],
      [
        "tion",
        -9.9831392771496
      ],
      [
        "Ġtube",
        -9.983754953608845
      ],
      [
        "Ġmarine",
        -9.986749067915085
      ],
      [
        "ĠEven",
        -9.987801018276336
      ],
      [
        "Ġdriver",
        -9.988573339923535
      ],
      [
        "Ġatmosphere",
        -9.989614256730691
      ],
      [
        "allow",
        -9.989740015734515
      ],
      [
        "No",
        -9.990366549446586
      ],
      [
        "Ġmedication",
        -9.990399807526584
      ],
      [
        "Ġbillion",
        -9.991467140004175
      ],
      [
        "Ġmanufactur",
        -9.992005177707163
      ],
      [
        "Ġyet",
        -9.992279018071798
      ],
      [
        "Ġreliabl",
        -9.993048549508725
      ],
      [
        "Ġtherefor",
        -9.993767596522396
      ],
      [
        "Ġidentified",
        -9.994044369994493
      ],
      [
        "Ġexamine",
        -9.995167101057628
      ],
      [
        "Ġmuscles",
        -9.995458922985003
      ],
      [
        "Ġsounds",
        -9.99715588469957
      ],
      [
        "nce",
        -9.998005226742055
      ],
      [
        "Ġprogress",
        -9.999241167104271
      ],
      [
        "change",
        -10.00010961623092
      ],
      [
        "Ġroots",
        -10.000409005976165
      ],
      [
        "Ġstuff",
        -10.002001920246732
      ],
      [
        "ĠEuropean",
        -10.005587072323625
      ],
      [
        "Ġalthough",
        -10.005831460348825
      ],
      [
        "Ġapproximate",
        -10.006159577036325
      ],
      [
        "Ġthus",
        -10.006366992562974
      ],
      [
        "Ġerror",
        -10.006368293589029
      ],
      [
        "Ġgrain",
        -10.007015623730512
      ],
      [
        "Ġearlier",
        -10.007090271236663
      ],
      [
        "Ġwa",
        -10.008352873708224
      ],
      [
        "Ġmaximum",
        -10.008418764754296
      ],
      [
        "Ġclimb",
        -10.010354642686885
      ],
      [
        "More",
        -10.010510714768614
      ],
      [
        "Ġpanels",
        -10.01061177973948
      ],
      [
        "long",
        -10.011266239804703
      ],
      [
        "Ġroof",
        -10.012367131595129
      ],
      [
        "form",
        -10.012458420260716
      ],
      [
        "Ġboat",
        -10.012870927024077
      ],
      [
        "Ġdivers",
        -10.013324226979968
      ],
      [
        "ĠIs",
        -10.01367910032386
      ],
      [
        "Ġdrain",
        -10.01410190265112
      ],
      [
        "{",
        -10.014381481100878
      ],
      [
        "Do",
        -10.015020977332457
      ],
      [
        "Ġsquare",
        -10.016025093959076
      ],
      [
        "Ġselection",
        -10.017593865030976
      ],
      [
        "Ġpresen",
        -10.01820417719328
      ],
      [
        "Ġriver",
        -10.018487531475015
      ],
      [
        "Ġlens",
        -10.019840064638885
      ],
      [
        "ĠTherefor",
        -10.020520907329342
      ],
      [
        "Ġfailure",
        -10.020805946169084
      ],
      [
        "ĠYork",
        -10.020883016685016
      ],
      [
        "ne",
        -10.02161824088768
      ],
      [
        "Ġgames",
        -10.02365640191766
      ],
      [
        "Ġclinical",
        -10.02396370222306
      ],
      [
        "Ġsymbol",
        -10.024134923359236
      ],
      [
        "Ġblog",
        -10.024752739110289
      ],
      [
        "Ġannual",
        -10.024866069966436
      ],
      [
        "Ġelectron",
        -10.024975396855227
      ],
      [
        "Ġdecisions",
        -10.02518418585949
      ],
      [
        "Ġpollution",
        -10.026351643755692
      ],
      [
        "Ġdetailed",
        -10.027613128637771
      ],
      [
        "people",
        -10.027948097841584
      ],
      [
        "Ġkill",
        -10.0283244604897
      ],
      [
        "Ġdrink",
        -10.02848812851542
      ],
      [
        "Ġclick",
        -10.02857083122101
      ],
      [
        "Ġmid",
        -10.028886609227314
      ],
      [
        "ĠWhy",
        -10.029733825561156
      ],
      [
        "Ġfight",
        -10.030543183935254
      ],
      [
        "Ġstatement",
        -10.03153466384269
      ],
      [
        "alone",
        -10.031944368498497
      ],
      [
        "Ġgrass",
        -10.033004871108986
      ],
      [
        "Ġobvious",
        -10.033328951637486
      ],
      [
        "care",
        -10.035675991264217
      ],
      [
        "ĠAre",
        -10.036833401727735
      ],
      [
        "ĠCalifornia",
        -10.03875668399874
      ],
      [
        "Ġstaff",
        -10.039229531893644
      ],
      [
        "Ġreferr",
        -10.0392775465081
      ],
      [
        "Ġcom",
        -10.039570228160922
      ],
      [
        "Ġhomes",
        -10.039869908507567
      ],
      [
        "Ġjoin",
        -10.040542246950457
      ],
      [
        "Ġbodie",
        -10.041569906207709
      ],
      [
        "ch",
        -10.04293511941932
      ],
      [
        "Ġemergenc",
        -10.043052692682728
      ],
      [
        "often",
        -10.043551227167054
      ],
      [
        "Yes",
        -10.04397841004847
      ],
      [
        "lower",
        -10.04526931893149
      ],
      [
        "ĠJust",
        -10.04661060735106
      ],
      [
        "Ġtable",
        -10.046674260584473
      ],
      [
        "Ġassist",
        -10.046729339689865
      ],
      [
        "se",
        -10.046805638651875
      ],
      [
        "ĠOther",
        -10.04788695709022
      ],
      [
        "Ġbottle",
        -10.048322033359185
      ],
      [
        "Ġgrade",
        -10.050330633792342
      ],
      [
        "size",
        -10.051405785523391
      ],
      [
        "Ġcreative",
        -10.051785095247578
      ],
      [
        "Ġsheet",
        -10.052095244394213
      ],
      [
        "my",
        -10.053353920483676
      ],
      [
        "Ġangle",
        -10.053712032320194
      ],
      [
        "Ġmechanical",
        -10.053918523872646
      ],
      [
        "ĠDepartment",
        -10.05527103638416
      ],
      [
        "Ġscene",
        -10.05755011657484
      ],
      [
        "Ġcoffee",
        -10.057650726797734
      ],
      [
        "Ġroutine",
        -10.058048260626254
      ],
      [
        "Ġincreases",
        -10.059284930033272
      ],
      [
        "Ġma",
        -10.061915623807426
      ],
      [
        "Ġrise",
        -10.063042156226553
      ],
      [
        "ĠFrench",
        -10.06551777596877
      ],
      [
        "Ġdrop",
        -10.065973632895409
      ],
      [
        "action",
        -10.0671070252118
      ],
      [
        "Ġcook",
        -10.067693601212016
      ],
      [
        "led",
        -10.06799519108895
      ],
      [
        "Ġhelpful",
        -10.068808517943252
      ],
      [
        "Ġcrack",
        -10.069923700974854
      ],
      [
        "friendly",
        -10.069929980183591
      ],
      [
        "Ġindependent",
        -10.07112845967964
      ],
      [
        "Ġaircraft",
        -10.071627988449633
      ],
      [
        "Ġcontrast",
        -10.071765528291047
      ],
      [
        "Ġsurvive",
        -10.071800775026908
      ],
      [
        "Ġrocks",
        -10.071964410020888
      ],
      [
        "Ġregulation",
        -10.071970027007303
      ],
      [
        "Ġwar",
        -10.072627896350395
      ],
      [
        "Ġschedule",
        -10.07500615522278
      ],
      [
        "Ġpuppy",
        -10.075845818415512
      ],
      [
        "Ġprepare",
        -10.07798239930759
      ],
      [
        "Ġexpens",
        -10.078322058120207
      ],
      [
        "Ġartificial",
        -10.079899055792511
      ],
      [
        "Ġinterface",
        -10.079907425364285
      ],
      [
        "Ġfit",
        -10.080735437276452
      ],
      [
        "Ġready",
        -10.080840561627571
      ],
      [
        "Ġconclusion",
        -10.08170599443836
      ],
      [
        "Ġfinish",
        -10.082135196488082
      ],
      [
        "Ġcomprehensive",
        -10.082148987668123
      ],
      [
        "ization",
        -10.082976888657246
      ],
      [
        "Ġconvert",
        -10.083460496538954
      ],
      [
        "Ġindoor",
        -10.083986807156672
      ],
      [
        "Ġoperate",
        -10.08523239164893
      ],
      [
        "Ġmembrane",
        -10.085642630637132
      ],
      [
        "Ġrace",
        -10.085724089911931
      ],
      [
        "mm",
        -10.086416658495695
      ],
      [
        "Ġoffering",
        -10.087219862773344
      ],
      [
        "Ġsweet",
        -10.087379440352578
      ],
      [
        "Ġengineering",
        -10.087408447159085
      ],
      [
        "city",
        -10.087917288932095
      ],
      [
        "Ġcentral",
        -10.088115526785286
      ],
      [
        "Ġbu",
        -10.088727786039886
      ],
      [
        "Ġproduc",
        -10.088760613762258
      ],
      [
        "Ġcloth",
        -10.089605238181214
      ],
      [
        "learned",
        -10.090060379183049
      ],
      [
        "From",
        -10.09056677688895
      ],
      [
        "Ġstock",
        -10.090753968320408
      ],
      [
        "ĠAustralia",
        -10.091004013556631
      ],
      [
        "Ġkitchen",
        -10.091788736213598
      ],
      [
        "Ġindustrial",
        -10.092267455056788
      ],
      [
        "Ġsurvey",
        -10.094584687536416
      ],
      [
        "Ġnest",
        -10.095129154454249
      ],
      [
        "Ġanxiet",
        -10.096606362949055
      ],
      [
        "Ġdrugs",
        -10.097169192271048
      ],
      [
        "Ġprint",
        -10.098009665415084
      ],
      [
        "||",
        -10.098355805528598
      ],
      [
        "Ġboard",
        -10.099896649960264
      ],
      [
        "ĠLet",
        -10.10024401180235
      ],
      [
        "Ġstories",
        -10.100615212181356
      ],
      [
        "Ġextensive",
        -10.100745538524876
      ],
      [
        "ted",
        -10.10091107364456
      ],
      [
        "Ġfunctions",
        -10.101947668550874
      ],
      [
        "ĠDesign",
        -10.103270930821216
      ],
      [
        "First",
        -10.103362275488724
      ],
      [
        "ĠSince",
        -10.103377242049271
      ],
      [
        "ĠEurope",
        -10.103576112588982
      ],
      [
        "Ġeventual",
        -10.104106786034832
      ],
      [
        "Ġmotion",
        -10.104761019175324
      ],
      [
        "Ġobjective",
        -10.105213190149758
      ],
      [
        "Ġbidet",
        -10.105288102292596
      ],
      [
        "Ġcore",
        -10.1053982589947
      ],
      [
        "Ġimprov",
        -10.105648315026016
      ],
      [
        "Ġdistribute",
        -10.105931760920384
      ],
      [
        "Ġdynamic",
        -10.106824752304275
      ],
      [
        "Ġaware",
        -10.106873636247755
      ],
      [
        "Ġshell",
        -10.107331613164517
      ],
      [
        "Ġonto",
        -10.107698341157873
      ],
      [
        "Ġconduct",
        -10.107950567287276
      ],
      [
        "keep",
        -10.107965778380397
      ],
      [
        "Ġultimate",
        -10.108442044689866
      ],
      [
        "Ġsend",
        -10.108864736252112
      ],
      [
        "Ġmeeting",
        -10.108959408328865
      ],
      [
        "Ġcontinuous",
        -10.110588724192215
      ],
      [
        "Ġsubstance",
        -10.110932384827272
      ],
      [
        "Ġsolve",
        -10.111705439176747
      ],
      [
        "Ġprecise",
        -10.11213555831502
      ],
      [
        "Ġcomfort",
        -10.112578229793638
      ],
      [
        "ĠAir",
        -10.112925699650956
      ],
      [
        "ĠX",
        -10.113324177231544
      ],
      [
        "Ġradiation",
        -10.113399302637497
      ],
      [
        "Ġchronic",
        -10.113593880049777
      ],
      [
        "Ġmaster",
        -10.11365482632397
      ],
      [
        "Ġreveal",
        -10.114164631319827
      ],
      [
        "Ġstraight",
        -10.114483939637182
      ],
      [
        "Ġfoundation",
        -10.115330711978416
      ],
      [
        "Ġoptimal",
        -10.115488690227377
      ],
      [
        "Ġmap",
        -10.115491498253952
      ],
      [
        "Ġsession",
        -10.115691408235584
      ],
      [
        "Ġhighlight",
        -10.115875061508538
      ],
      [
        "system",
        -10.116118701855374
      ],
      [
        "Ġint",
        -10.116185229561331
      ],
      [
        "Ġprepared",
        -10.116404231255952
      ],
      [
        "oil",
        -10.116552000430929
      ],
      [
        "ĠIsrael",
        -10.118218487634582
      ],
      [
        "Ġstem",
        -10.118746392217796
      ],
      [
        "-free",
        -10.118860673268609
      ],
      [
        "Ġlisten",
        -10.119012466376752
      ],
      [
        "Ġwalls",
        -10.1190595745083
      ],
      [
        "Ġexhibit",
        -10.11915003958008
      ],
      [
        "Ġaccident",
        -10.120741435190585
      ],
      [
        "ĠGreat",
        -10.121262039142366
      ],
      [
        "full",
        -10.121301699330957
      ],
      [
        "Ġsaying",
        -10.122012639789888
      ],
      [
        "kept",
        -10.122130946036432
      ],
      [
        "Ġyield",
        -10.1232329693667
      ],
      [
        "Ġhistorical",
        -10.123505209740564
      ],
      [
        "Ġpredict",
        -10.123894631383692
      ],
      [
        "Ġopinion",
        -10.123919582112896
      ],
      [
        "Ġoffice",
        -10.124442951325742
      ],
      [
        "Ġfarmer",
        -10.124719186673904
      ],
      [
        "Ġutilize",
        -10.12485846154031
      ],
      [
        "Ġvertical",
        -10.125062047472015
      ],
      [
        "Ġagree",
        -10.126706778079493
      ],
      [
        "men",
        -10.126804673969668
      ],
      [
        "].",
        -10.127417289830692
      ],
      [
        "ĠArabia",
        -10.128069188651494
      ],
      [
        "Ġextreme",
        -10.128270963080125
      ],
      [
        "Ġchoos",
        -10.129276795525698
      ],
      [
        "Ġplent",
        -10.12985456252822
      ],
      [
        "Ġexposed",
        -10.130082566605417
      ],
      [
        "Ġsmell",
        -10.130205515996366
      ],
      [
        "Ġstation",
        -10.13089457934866
      ],
      [
        "tiny",
        -10.131594318239255
      ],
      [
        "ically",
        -10.13175695291796
      ],
      [
        "Ġharvest",
        -10.132871646553273
      ],
      [
        "Ġhormone",
        -10.133185293089232
      ],
      [
        "Ġpossibilit",
        -10.133760538511218
      ],
      [
        "Ġcalculate",
        -10.13524495404628
      ],
      [
        "Ġweld",
        -10.13532475357546
      ],
      [
        "Ġanalyze",
        -10.135374433255151
      ],
      [
        "uring",
        -10.13559849450203
      ],
      [
        "Ġdangerous",
        -10.13667354219476
      ],
      [
        "Ġthreat",
        -10.136680110614588
      ],
      [
        "Ġrealize",
        -10.136720732991732
      ],
      [
        "Ġtransport",
        -10.136949272171432
      ],
      [
        "Ġexternal",
        -10.137140443929248
      ],
      [
        "efore",
        -10.137167548433029
      ],
      [
        "am",
        -10.137180872962968
      ],
      [
        "ĠHigh",
        -10.137262909870728
      ],
      [
        "Ġvirtual",
        -10.137474955435389
      ],
      [
        "Ġsupplie",
        -10.138105752963604
      ],
      [
        "Ġmelt",
        -10.13855198793098
      ],
      [
        "Ġteach",
        -10.138715829111472
      ],
      [
        "Ġformat",
        -10.138965583184204
      ],
      [
        "ĠWell",
        -10.139276296820832
      ],
      [
        "Ġcatch",
        -10.140283403833791
      ],
      [
        "Ġsupplement",
        -10.1419983561313
      ],
      [
        "Ġdrug",
        -10.142281507560336
      ],
      [
        "Ġimplement",
        -10.142397171771355
      ],
      [
        "Ġcareer",
        -10.14243385269886
      ],
      [
        "tic",
        -10.14245911305466
      ],
      [
        "@",
        -10.142543809057496
      ],
      [
        "first",
        -10.142628409871003
      ],
      [
        "Ġpipe",
        -10.142821426102326
      ],
      [
        "Ġemotional",
        -10.142978644570466
      ],
      [
        "Ġapparatus",
        -10.143718872508124
      ],
      [
        "Ġdetermin",
        -10.143826964945417
      ],
      [
        "Ġcreation",
        -10.144109372672988
      ],
      [
        "Which",
        -10.144495914103722
      ],
      [
        "Ġorigin",
        -10.144930180191036
      ],
      [
        "Ġnative",
        -10.1449521257269
      ],
      [
        "Ġdoor",
        -10.14505168709342
      ],
      [
        "ĠJuly",
        -10.145395013691347
      ],
      [
        "Ġbooks",
        -10.145686259151574
      ],
      [
        "Ġessay",
        -10.147329853576236
      ],
      [
        "Ġpainting",
        -10.147566057978404
      ],
      [
        "ĠDay",
        -10.147818615980668
      ],
      [
        "Ġprogramm",
        -10.150434410261775
      ],
      [
        "ha",
        -10.151432528153697
      ],
      [
        "range",
        -10.151703560883842
      ],
      [
        "rhaps",
        -10.153711236596587
      ],
      [
        "Ġsector",
        -10.154129453232656
      ],
      [
        "Ġradio",
        -10.154706184409628
      ],
      [
        "dium",
        -10.155017822168777
      ],
      [
        "Ġhighes",
        -10.155484258239085
      ],
      [
        "Ġcredit",
        -10.156124397885796
      ],
      [
        "Ġinvest",
        -10.15710916104521
      ],
      [
        "Use",
        -10.15750045385839
      ],
      [
        "Ġhousehold",
        -10.15761452047459
      ],
      [
        "Ġball",
        -10.159376710245944
      ],
      [
        "Ġengineer",
        -10.160468418996846
      ],
      [
        "Ġinjury",
        -10.16054667012788
      ],
      [
        "Ġrespect",
        -10.160895398582056
      ],
      [
        "Ġdensity",
        -10.162170553513196
      ],
      [
        "look",
        -10.164177883206332
      ],
      [
        "ĠLos",
        -10.165524949845246
      ],
      [
        "Ġargument",
        -10.165620909108236
      ],
      [
        "Ġgrown",
        -10.165814770513318
      ],
      [
        "ĠBlack",
        -10.166316644023311
      ],
      [
        "ĠHouse",
        -10.16699426758882
      ],
      [
        "Ġtechnical",
        -10.168109324243652
      ],
      [
        "Ġnamed",
        -10.168709252523785
      ],
      [
        "focused",
        -10.168923296221587
      ],
      [
        "ĠOver",
        -10.168961391599282
      ],
      [
        "Ġisland",
        -10.16920527113058
      ],
      [
        "Ġconservation",
        -10.170541701395791
      ],
      [
        "Ġbank",
        -10.170639224248834
      ],
      [
        "Ġpasse",
        -10.171647863917812
      ],
      [
        "facing",
        -10.171799375489469
      ],
      [
        "Ġdecades",
        -10.1721780654281
      ],
      [
        "Ġbeneficia",
        -10.172384352341853
      ],
      [
        "Ġoutdoor",
        -10.173206585174784
      ],
      [
        "Ġdiscussion",
        -10.17420509832391
      ],
      [
        "Ġcapabilit",
        -10.174247468714457
      ],
      [
        "Ġpest",
        -10.174310137635729
      ],
      [
        "Ġwindow",
        -10.174456711028704
      ],
      [
        "ĠEvery",
        -10.174978399515249
      ],
      [
        "Ġparticipant",
        -10.175354321717158
      ],
      [
        "Ġassess",
        -10.175385957463188
      ],
      [
        "Ġseat",
        -10.17783394018647
      ],
      [
        "Ġvia",
        -10.177841851957478
      ],
      [
        "ĠFood",
        -10.178084773293094
      ],
      [
        "Ġcheese",
        -10.178240698079149
      ],
      [
        "ĠHave",
        -10.178574240483028
      ],
      [
        "Ġlandscape",
        -10.179445876961928
      ],
      [
        "Ġmicrowave",
        -10.179675904549867
      ],
      [
        "Ġdomain",
        -10.1796783824329
      ],
      [
        "Ġvariation",
        -10.179726393592182
      ],
      [
        "Ġfashion",
        -10.180699260339848
      ],
      [
        "Ġfollowe",
        -10.18081522708404
      ],
      [
        "ĠService",
        -10.180977621875444
      ],
      [
        "point",
        -10.181926014350276
      ],
      [
        "}",
        -10.182181880872536
      ],
      [
        "ĠChina",
        -10.182320239101156
      ],
      [
        "Ġintelligence",
        -10.18245721247747
      ],
      [
        "Ġderive",
        -10.183459917068795
      ],
      [
        "mental",
        -10.184930954635842
      ],
      [
        "Ġtheor",
        -10.185122519152104
      ],
      [
        "Be",
        -10.188778433308876
      ],
      [
        "Ġchose",
        -10.18962992510567
      ],
      [
        "âĢ¦Ċ",
        -10.19008770110489
      ],
      [
        "Ġlifestyle",
        -10.190168695746872
      ],
      [
        "Ġpropose",
        -10.190554882071169
      ],
      [
        "Ġvoice",
        -10.190649622554556
      ],
      [
        "Ġtrial",
        -10.191000708715997
      ],
      [
        "-time",
        -10.191141277910548
      ],
      [
        "Ġsituations",
        -10.19215242229523
      ],
      [
        "Ġvessel",
        -10.192612125242338
      ],
      [
        "Ġtha",
        -10.193170371828028
      ],
      [
        "site",
        -10.193753151015382
      ],
      [
        "ur",
        -10.194247083612966
      ],
      [
        "ĠJohn",
        -10.19480956876131
      ],
      [
        "Ġcard",
        -10.19519664090666
      ],
      [
        "Ġchallenging",
        -10.196691517112589
      ],
      [
        "Ġhabitat",
        -10.197289778182023
      ],
      [
        "Ġconfirm",
        -10.197694242521631
      ],
      [
        "Ġbutton",
        -10.197718553498202
      ],
      [
        "Ġpound",
        -10.197825773660709
      ],
      [
        "j",
        -10.19835234846754
      ],
      [
        "ĠJune",
        -10.198543317945852
      ],
      [
        "wood",
        -10.198605547124282
      ],
      [
        "Ġestablishe",
        -10.199398724645658
      ],
      [
        "Ġnice",
        -10.199505620010871
      ],
      [
        "Ġaudio",
        -10.200674303180463
      ],
      [
        "Ġacademic",
        -10.200928284004986
      ],
      [
        "around",
        -10.202235115660208
      ],
      [
        "ĠRiver",
        -10.20311517847313
      ],
      [
        "Conclusion",
        -10.203142915948751
      ],
      [
        "Ġeating",
        -10.203450446632726
      ],
      [
        "Ġestablish",
        -10.204394430109383
      ],
      [
        "Ġfriend",
        -10.204441468229344
      ],
      [
        "Ġspeaker",
        -10.204492145550436
      ],
      [
        "know",
        -10.20489529702952
      ],
      [
        "Ġweigh",
        -10.204994745174536
      ],
      [
        "Ġevaluate",
        -10.20512594512593
      ],
      [
        "back",
        -10.206335069638705
      ],
      [
        "uary",
        -10.206893391722032
      ],
      [
        "ĠWest",
        -10.207056801338185
      ],
      [
        "Ġfossil",
        -10.20714244742132
      ],
      [
        "/or",
        -10.207535409994929
      ],
      [
        "ĠTime",
        -10.207557506595
      ],
      [
        "ĠInternational",
        -10.20757506530108
      ],
      [
        "ism",
        -10.20845716698609
      ],
      [
        "Ġplanting",
        -10.208884965101962
      ],
      [
        "Ġlarges",
        -10.20943422241417
      ],
      [
        "Ġpool",
        -10.210471886699082
      ],
      [
        "Ġstatus",
        -10.210535703206563
      ],
      [
        "Ġreache",
        -10.210544648579807
      ],
      [
        "Ġgenerator",
        -10.211554379051762
      ],
      [
        "Ġabsorb",
        -10.211936218357026
      ],
      [
        "Ġfear",
        -10.212029494201008
      ],
      [
        "ĠCanada",
        -10.212589059208923
      ],
      [
        "Ġinstallation",
        -10.212608352817934
      ],
      [
        "Ġsustain",
        -10.214091377319953
      ],
      [
        "children",
        -10.214200101178347
      ],
      [
        "J",
        -10.214496893795872
      ],
      [
        "Ġlose",
        -10.214645677838137
      ],
      [
        "Ġchamber",
        -10.214931852740364
      ],
      [
        "Ġbecom",
        -10.21506407921014
      ],
      [
        "Ġhospital",
        -10.215567386566544
      ],
      [
        "unti",
        -10.215785593724414
      ],
      [
        "Ġsaving",
        -10.216582297321086
      ],
      [
        "Ġbinocular",
        -10.216951607206177
      ],
      [
        "Ġpercentage",
        -10.217594807497688
      ],
      [
        "Ġconstruct",
        -10.218046438772244
      ],
      [
        "est",
        -10.21939469978333
      ],
      [
        "Ġequation",
        -10.21962594686267
      ],
      [
        "ĠRe",
        -10.21967071816599
      ],
      [
        "Ġevolution",
        -10.219879413497534
      ],
      [
        "aging",
        -10.221081144105677
      ],
      [
        "Ġsmart",
        -10.22108138618256
      ],
      [
        "Ġrain",
        -10.221250714768782
      ],
      [
        "ĠTh",
        -10.223641505671532
      ],
      [
        "wareness",
        -10.225157040515224
      ],
      [
        "Ġtold",
        -10.226026234053808
      ],
      [
        "ĠGod",
        -10.226338008703394
      ],
      [
        "Ġlabel",
        -10.227092364510648
      ],
      [
        "Ġport",
        -10.228262050501495
      ],
      [
        "space",
        -10.228487910098602
      ],
      [
        "Ġbreast",
        -10.228784564781282
      ],
      [
        "Ġthick",
        -10.229342243195982
      ],
      [
        "Ġbrough",
        -10.229626705693448
      ],
      [
        "Ġremote",
        -10.22973421011099
      ],
      [
        "example",
        -10.229774656421489
      ],
      [
        "Ġaudience",
        -10.23118534717664
      ],
      [
        "ried",
        -10.23132288714774
      ],
      [
        "Ġowners",
        -10.231546997744154
      ],
      [
        "then",
        -10.231803479833752
      ],
      [
        "Ġchocolate",
        -10.231880168643494
      ],
      [
        "Ġnerve",
        -10.231887570703227
      ],
      [
        "capabl",
        -10.234092883176093
      ],
      [
        "ĠProgram",
        -10.234472478643536
      ],
      [
        "Ġinnovation",
        -10.23503335738585
      ],
      [
        "Ġthorough",
        -10.235368342649704
      ],
      [
        "try",
        -10.235697075145977
      ],
      [
        "ized",
        -10.23687063929625
      ],
      [
        "Ġbutter",
        -10.238283930881863
      ],
      [
        "Ġgirl",
        -10.238524158321738
      ],
      [
        "nother",
        -10.238535799708998
      ],
      [
        "Ġdecide",
        -10.238581588961477
      ],
      [
        "Ġcomposition",
        -10.239116243419016
      ],
      [
        "new",
        -10.239304376176788
      ],
      [
        "Ġrelevan",
        -10.239814501410226
      ],
      [
        "Ġimprovement",
        -10.24027644690113
      ],
      [
        "weight",
        -10.240999332506924
      ],
      [
        "-quali",
        -10.241355883747564
      ],
      [
        "Ġcoming",
        -10.241561381858483
      ],
      [
        "Ġattract",
        -10.241777709313975
      ],
      [
        "ĠDog",
        -10.242940735099053
      ],
      [
        "Ġinfections",
        -10.243191717279773
      ],
      [
        "Ġeliminate",
        -10.243669061417773
      ],
      [
        "Ġseek",
        -10.243984033960782
      ],
      [
        "Ġmorning",
        -10.244212712168054
      ],
      [
        "Ġmajorit",
        -10.244276849494996
      ],
      [
        "Ġassessment",
        -10.244387978349994
      ],
      [
        "-in",
        -10.244475238033266
      ],
      [
        "ĠPark",
        -10.244602980199229
      ],
      [
        "ĠCount",
        -10.24534040303674
      ],
      [
        "Ġprices",
        -10.245930972400306
      ],
      [
        "Ġlenses",
        -10.247748157088866
      ],
      [
        "Ġfundamental",
        -10.24786496344731
      ],
      [
        "wise",
        -10.247883780928335
      ],
      [
        "late",
        -10.248672884560108
      ],
      [
        "Ġsex",
        -10.24950671644857
      ],
      [
        "Ġmeal",
        -10.2496184676305
      ],
      [
        "Ġshoes",
        -10.24977637821232
      ],
      [
        "Ġeconom",
        -10.250032110645645
      ],
      [
        "Ġminimize",
        -10.250471065825616
      ],
      [
        "Ġexpress",
        -10.2507873074776
      ],
      [
        "part",
        -10.250795290848783
      ],
      [
        "gets",
        -10.251394774395491
      ],
      [
        "Ġmixture",
        -10.25173995358336
      ],
      [
        "Ġdead",
        -10.252006951158284
      ],
      [
        "Ġamazing",
        -10.25241393272676
      ],
      [
        "Ġmold",
        -10.252859204500467
      ],
      [
        "Ġbrush",
        -10.253664787418868
      ],
      [
        "energy",
        -10.253886326962638
      ],
      [
        "Ġconsideration",
        -10.254735707530449
      ],
      [
        "Ġincorporate",
        -10.256153955612634
      ],
      [
        "ber",
        -10.256725996071136
      ],
      [
        "Ġconcrete",
        -10.256894779160016
      ],
      [
        "Ġrobot",
        -10.257100236618935
      ],
      [
        "ĠEducation",
        -10.258050787734565
      ],
      [
        "Ġice",
        -10.25837772404824
      ],
      [
        "Ġagent",
        -10.259746040291096
      ],
      [
        "Ġclassroom",
        -10.259857717613134
      ],
      [
        "Ġlinked",
        -10.260164055885468
      ],
      [
        "Ġinflammation",
        -10.260463251860024
      ],
      [
        "Ġleaving",
        -10.260602049757347
      ],
      [
        "ĠMarch",
        -10.260763475409732
      ],
      [
        "Ġrenewable",
        -10.261051620920536
      ],
      [
        "Ġmagnetic",
        -10.261946724494592
      ],
      [
        "air",
        -10.261954594364248
      ],
      [
        "Ġreduction",
        -10.26243978123946
      ],
      [
        "Ġdecided",
        -10.262538107016852
      ],
      [
        "ĠGuide",
        -10.262652945146
      ],
      [
        "table",
        -10.264187371695332
      ],
      [
        "Ġdish",
        -10.264438889018455
      ],
      [
        "Ġcommitment",
        -10.265606715074586
      ],
      [
        "ĠJanuary",
        -10.266710379538816
      ],
      [
        "Ġuniverse",
        -10.267481075440188
      ],
      [
        "Ġmin",
        -10.267590498233016
      ],
      [
        "Ġsociet",
        -10.267784044749874
      ],
      [
        "Ġpress",
        -10.267786125804438
      ],
      [
        "may",
        -10.26889070179202
      ],
      [
        "Ġseven",
        -10.270011903892422
      ],
      [
        "ou",
        -10.2700490802297
      ],
      [
        "Ġmovie",
        -10.270225402485003
      ],
      [
        "Ġemotion",
        -10.271539312603352
      ],
      [
        "ĠUn",
        -10.272387076845828
      ],
      [
        "Ġtight",
        -10.272424012546562
      ],
      [
        "Ġlegal",
        -10.272860960220177
      ],
      [
        "Ġcultural",
        -10.273090405090723
      ],
      [
        "Ġprimari",
        -10.273177666523864
      ],
      [
        "Ġquantit",
        -10.27338642684832
      ],
      [
        "Ġcommunicate",
        -10.27346298783139
      ],
      [
        "cy",
        -10.274205672120091
      ],
      [
        "science",
        -10.27441151530826
      ],
      [
        "Ġincredibl",
        -10.275165106994947
      ],
      [
        "Ġbear",
        -10.275283840851234
      ],
      [
        "temperature",
        -10.275598656076411
      ],
      [
        "active",
        -10.27597804227128
      ],
      [
        "Let",
        -10.276002324560924
      ],
      [
        "Ġguideline",
        -10.276158669318583
      ],
      [
        "Ġfertilizer",
        -10.27694471743581
      ],
      [
        "Ġstain",
        -10.277273345096448
      ],
      [
        "Ġdivision",
        -10.277510175470344
      ],
      [
        "Ġcable",
        -10.278087897601663
      ],
      [
        "Ġfirm",
        -10.279149006936349
      ],
      [
        "Ġarrive",
        -10.279562644896735
      ],
      [
        "Ġguy",
        -10.280459837487404
      ],
      [
        "Ġraise",
        -10.280888351576383
      ],
      [
        "Ġinteract",
        -10.280992420142894
      ],
      [
        "Ġam",
        -10.281025574136972
      ],
      [
        "ĠDon",
        -10.282613929073516
      ],
      [
        "Ġgut",
        -10.283770712146284
      ],
      [
        "Ġdefinition",
        -10.284238229544902
      ],
      [
        "Ġhabits",
        -10.28537093867833
      ],
      [
        "Thus",
        -10.285380495853628
      ],
      [
        "ĠIsland",
        -10.285496130740418
      ],
      [
        "Ġapart",
        -10.285869195125665
      ],
      [
        "Ġpolicy",
        -10.285957302010052
      ],
      [
        "so",
        -10.28624519622062
      ],
      [
        "Ġspecialize",
        -10.28739169739335
      ],
      [
        "Ġpowder",
        -10.288504984270642
      ],
      [
        "Ġcloser",
        -10.288662939418714
      ],
      [
        "Ġconducte",
        -10.288795291087066
      ],
      [
        "Ġinternet",
        -10.289079531962113
      ],
      [
        "ĠIndian",
        -10.289335882855102
      ],
      [
        "Over",
        -10.290042983004952
      ],
      [
        "world",
        -10.290401913094009
      ],
      [
        "Ġevolve",
        -10.29057479229997
      ],
      [
        "ĠKeep",
        -10.2906184167277
      ],
      [
        "Ġbar",
        -10.290794568623395
      ],
      [
        "Ġpets",
        -10.29131401427226
      ],
      [
        "Ġexcess",
        -10.291604968587723
      ],
      [
        "otherwise",
        -10.291678978396822
      ],
      [
        "^",
        -10.291850064994389
      ],
      [
        "-friendl",
        -10.293615709475665
      ],
      [
        "Ġassume",
        -10.29391767912824
      ],
      [
        "trained",
        -10.294004573340615
      ],
      [
        "Ġcreature",
        -10.29426326089132
      ],
      [
        "Ġsteam",
        -10.295047468467306
      ],
      [
        "Ġobservation",
        -10.295112416795032
      ],
      [
        "Ġemail",
        -10.295127574373645
      ],
      [
        "Ġallergi",
        -10.295916669392962
      ],
      [
        "Ġlab",
        -10.29706461773791
      ],
      [
        "Ġcompetition",
        -10.29725820367371
      ],
      [
        "Ġdie",
        -10.297401776222568
      ],
      [
        "ĠSea",
        -10.298158046310803
      ],
      [
        "Ġwash",
        -10.298428245107631
      ],
      [
        "Ġclasse",
        -10.298673480982137
      ],
      [
        "ĠApri",
        -10.299095730655626
      ],
      [
        "Ġshade",
        -10.299262024368453
      ],
      [
        "Ġvisibl",
        -10.300556087090662
      ],
      [
        "Ġthi",
        -10.30159215716452
      ],
      [
        "<",
        -10.302116022662757
      ],
      [
        "Ġaccept",
        -10.302332485101644
      ],
      [
        "Does",
        -10.302472557681028
      ],
      [
        "innovative",
        -10.303956185294949
      ],
      [
        "Ġones",
        -10.304317064097834
      ],
      [
        "Ġborn",
        -10.304672980276726
      ],
      [
        "Ġvaccine",
        -10.305328869893202
      ],
      [
        "Ġsurfaces",
        -10.30555171764198
      ],
      [
        "Ġprompt",
        -10.305908156998278
      ],
      [
        "ĠLook",
        -10.306459464256283
      ],
      [
        "Ġskill",
        -10.30649080656812
      ],
      [
        "Ġelectrici",
        -10.307301558790078
      ],
      [
        "Ġmountain",
        -10.307330939715005
      ],
      [
        "Ġprey",
        -10.30939405561626
      ],
      [
        "ĠStudent",
        -10.309458542757808
      ],
      [
        "Ġneuron",
        -10.309631755705404
      ],
      [
        "Ġappreciate",
        -10.310089722503989
      ],
      [
        "Ġdu",
        -10.310266044218393
      ],
      [
        "Ġpanel",
        -10.310283185415305
      ],
      [
        "Ġ\\(",
        -10.310327606858962
      ],
      [
        "Ġminimum",
        -10.310399439755948
      ],
      [
        "Ġbroken",
        -10.310623536232658
      ],
      [
        "Ġdigesti",
        -10.31131394199707
      ],
      [
        "away",
        -10.311750387896504
      ],
      [
        "ĠBrit",
        -10.311752518320484
      ],
      [
        "ĠArt",
        -10.311799484203496
      ],
      [
        "Ġloop",
        -10.31207055194934
      ],
      [
        "Ġrough",
        -10.312388657012178
      ],
      [
        "Ġchapter",
        -10.312828132404816
      ],
      [
        "Ġpure",
        -10.313471903779927
      ],
      [
        "Ġadvi",
        -10.313881732057853
      ],
      [
        "Ġperforme",
        -10.314188483702168
      ],
      [
        "ĠKing",
        -10.31469716896428
      ],
      [
        "Ġboil",
        -10.315407656757326
      ],
      [
        "Ġwheel",
        -10.31609505827729
      ],
      [
        "Ġstroke",
        -10.316153637943234
      ],
      [
        "actions",
        -10.316278282248138
      ],
      [
        "him",
        -10.316589896420195
      ],
      [
        "ĠDoes",
        -10.316734460653652
      ],
      [
        "Ġconsequence",
        -10.31674108401934
      ],
      [
        "Ġg",
        -10.316951126846536
      ],
      [
        "Ġbee",
        -10.318141813997183
      ],
      [
        "elling",
        -10.320332455667184
      ],
      [
        "Ġinvestigate",
        -10.320372146224075
      ],
      [
        "Ġpark",
        -10.320733875642397
      ],
      [
        "My",
        -10.32161511241637
      ],
      [
        "lying",
        -10.32253576147231
      ],
      [
        "create",
        -10.322965361881533
      ],
      [
        "Ġbill",
        -10.324454556939116
      ],
      [
        "Ġcream",
        -10.32487829525389
      ],
      [
        "lly",
        -10.325332872823603
      ],
      [
        "Ġeat",
        -10.325759974083192
      ],
      [
        "Ġexcessive",
        -10.326604250828025
      ],
      [
        "Ġprofessor",
        -10.3267131479408
      ],
      [
        "Ġassociation",
        -10.330033816728438
      ],
      [
        "type",
        -10.33029147020535
      ],
      [
        "Ġbiological",
        -10.330613094502516
      ],
      [
        "Ġmeasured",
        -10.331549762669033
      ],
      [
        "Ġsuper",
        -10.332014120104189
      ],
      [
        "case",
        -10.33227950202517
      ],
      [
        "Since",
        -10.332483348122778
      ],
      [
        "Â°C",
        -10.333112226036786
      ],
      [
        "Figure",
        -10.333499368818424
      ],
      [
        "Ġatom",
        -10.334169917188303
      ],
      [
        "Ġvector",
        -10.335238299750417
      ],
      [
        "Ġmen",
        -10.335701293817031
      ],
      [
        "Ġnutrition",
        -10.336204097726505
      ],
      [
        "Ġratio",
        -10.336321222170852
      ],
      [
        "seeing",
        -10.336848549443877
      ],
      [
        "Ġremov",
        -10.33720725844314
      ],
      [
        "Ġcoal",
        -10.338625757961726
      ],
      [
        "Ġdust",
        -10.33933931772117
      ],
      [
        "Ġleak",
        -10.339535096906786
      ],
      [
        "Ġexchange",
        -10.33988825449065
      ],
      [
        "Ġsports",
        -10.34030767065301
      ],
      [
        "Ġofficial",
        -10.343098605694053
      ],
      [
        "Ġattache",
        -10.343483095850498
      ],
      [
        "Ġzero",
        -10.345718867580334
      ],
      [
        "Ġsong",
        -10.345858335839129
      ],
      [
        "Ġbeauty",
        -10.34614870015189
      ],
      [
        "Ġaccurac",
        -10.346330053942845
      ],
      [
        "Ġpot",
        -10.346368540575057
      ],
      [
        "Ġdedicate",
        -10.34716393261205
      ],
      [
        "...Ċ",
        -10.34738351955993
      ],
      [
        "ĠCo",
        -10.34828209962344
      ],
      [
        "process",
        -10.349545839304673
      ],
      [
        "Ġroute",
        -10.349707629924517
      ],
      [
        "Ġsensitive",
        -10.350283718843665
      ],
      [
        "ball",
        -10.35172547456155
      ],
      [
        "Ġtooth",
        -10.351767334242153
      ],
      [
        "Ġsnail",
        -10.351959570221432
      ],
      [
        "ĠBlue",
        -10.351979261911833
      ],
      [
        "ĠTechnolog",
        -10.352242356106238
      ],
      [
        "Ġpresentation",
        -10.352613359210707
      ],
      [
        "Ġround",
        -10.353622761636906
      ],
      [
        "Ġresponsibilit",
        -10.353860792281994
      ],
      [
        "Ġstrain",
        -10.35414555134089
      ],
      [
        "Ġtrip",
        -10.354404552145148
      ],
      [
        "Ġfelt",
        -10.355559332317627
      ],
      [
        "Ġtrade",
        -10.355598249194076
      ],
      [
        "Ġenvironments",
        -10.356317349727068
      ],
      [
        "Ġdecline",
        -10.356815773762545
      ],
      [
        "Ġreplacement",
        -10.357083427765854
      ],
      [
        "Ġinterior",
        -10.357340458480458
      ],
      [
        "Ġcalci",
        -10.357499285716786
      ],
      [
        "Ġphotos",
        -10.35763283399388
      ],
      [
        "Ġprior",
        -10.357957881985826
      ],
      [
        "lates",
        -10.358005944016105
      ],
      [
        "Ġdepression",
        -10.358258639516109
      ],
      [
        "Ġboost",
        -10.359099433128929
      ],
      [
        "called",
        -10.359721344770689
      ],
      [
        "Ġpartner",
        -10.359858228528012
      ],
      [
        "Ġsnake",
        -10.359957504442768
      ],
      [
        "Ġsell",
        -10.360128120317096
      ],
      [
        "go",
        -10.36028652915614
      ],
      [
        "Ġspin",
        -10.360309875300969
      ],
      [
        "Ġplane",
        -10.36072849455844
      ],
      [
        "Ġpilot",
        -10.361396052260243
      ],
      [
        "structure",
        -10.361683838237637
      ],
      [
        "Ġtransform",
        -10.361891566390735
      ],
      [
        "ĠOcto",
        -10.363706563943834
      ],
      [
        "Ġinsurance",
        -10.363761377022772
      ],
      [
        "ĠCO",
        -10.363991088074382
      ],
      [
        "power",
        -10.364615775965897
      ],
      [
        "Ġunlike",
        -10.365027582344087
      ],
      [
        "Ġdatabase",
        -10.36594388746871
      ],
      [
        "carried",
        -10.366057436073657
      ],
      [
        "ĠCollege",
        -10.366538672350272
      ],
      [
        "Ġcollaboration",
        -10.366993718920074
      ],
      [
        "Ġcomput",
        -10.36713645722207
      ],
      [
        "Ġmiss",
        -10.367372952234838
      ],
      [
        "Not",
        -10.367485179035132
      ],
      [
        "Ġcalm",
        -10.36835124951573
      ],
      [
        "Ġleaf",
        -10.369157541295609
      ],
      [
        "Ġinstrument",
        -10.3692897469689
      ],
      [
        "Ġinspire",
        -10.36964100689505
      ],
      [
        "Ġemployee",
        -10.370605829199402
      ],
      [
        "Ġsold",
        -10.37108237817836
      ],
      [
        "Ġemploy",
        -10.371261317771156
      ],
      [
        "q",
        -10.371281169293496
      ],
      [
        "Ġdescription",
        -10.371652581846156
      ],
      [
        "ground",
        -10.371823172268265
      ],
      [
        "un",
        -10.372605655714707
      ],
      [
        "Ġlaser",
        -10.37284404630968
      ],
      [
        "position",
        -10.37451356117464
      ],
      [
        "Ġencounter",
        -10.375148217576877
      ],
      [
        "ĠDec",
        -10.375201187926042
      ],
      [
        "Ġbones",
        -10.37538638528445
      ],
      [
        "Ġspray",
        -10.376322160004118
      ],
      [
        "Ġfille",
        -10.37661671513144
      ],
      [
        "ĠPhoto",
        -10.377890019035586
      ],
      [
        "name",
        -10.37922704548377
      ],
      [
        "Ġphysic",
        -10.379909824155554
      ],
      [
        "Ġtrain",
        -10.380586010687985
      ],
      [
        "Ġbarrier",
        -10.380602959171668
      ],
      [
        "Ġmark",
        -10.380603146153952
      ],
      [
        "Share",
        -10.380986059558277
      ],
      [
        "Ġscore",
        -10.38122351733367
      ],
      [
        "Ġzone",
        -10.38147261126446
      ],
      [
        "live",
        -10.381817500844768
      ],
      [
        "ĠWork",
        -10.382593469547642
      ],
      [
        "Ġnews",
        -10.382863892402243
      ],
      [
        "Ġenzyme",
        -10.38318205056546
      ],
      [
        "ĠFurther",
        -10.384031140651754
      ],
      [
        "Ġge",
        -10.38434523310214
      ],
      [
        "]Ċ",
        -10.384527707165391
      ],
      [
        "ĠExcel",
        -10.384574479190722
      ],
      [
        "Ġsurvival",
        -10.384801212787444
      ],
      [
        "Ġthrow",
        -10.385368642243096
      ],
      [
        "New",
        -10.386000907533216
      ],
      [
        "ĠType",
        -10.386033065986384
      ],
      [
        "Ġinjurie",
        -10.386120672964664
      ],
      [
        "Ġperspective",
        -10.38653252382111
      ],
      [
        "Ġsufficient",
        -10.38684571659443
      ],
      [
        "Ġtrust",
        -10.387208096098089
      ],
      [
        "Ġprove",
        -10.388144693300344
      ],
      [
        "Ġexplor",
        -10.388702656088478
      ],
      [
        "Ġsouth",
        -10.388925641352452
      ],
      [
        "food",
        -10.389210177794016
      ],
      [
        "He",
        -10.3893356459989
      ],
      [
        "Ġmanner",
        -10.389576206184245
      ],
      [
        "Ġrandom",
        -10.389761818548374
      ],
      [
        "ma",
        -10.390080151652374
      ],
      [
        "\"The",
        -10.390966502316807
      ],
      [
        "Ġcontract",
        -10.391146755010933
      ],
      [
        "therapy",
        -10.392215874664288
      ],
      [
        "Ġbloom",
        -10.392219037058508
      ],
      [
        "help",
        -10.39224875528386
      ],
      [
        "Ġfixed",
        -10.392510399279017
      ],
      [
        "Ġdistinct",
        -10.39323943476904
      ],
      [
        "Ġfunctional",
        -10.393367572822974
      ],
      [
        "Ġloose",
        -10.394020093327256
      ],
      [
        "going",
        -10.395249403642286
      ],
      [
        "Ġsudden",
        -10.395328821144272
      ],
      [
        "Ġcomparison",
        -10.395332561815213
      ],
      [
        "ĠCamp",
        -10.395588620413722
      ],
      [
        "ĠMa",
        -10.395758109716343
      ],
      [
        "Ġstrengthen",
        -10.39619088326615
      ],
      [
        "Ġshowe",
        -10.39648715250837
      ],
      [
        "Ġtoxic",
        -10.397629261955988
      ],
      [
        "ĠSystem",
        -10.39763607184872
      ],
      [
        "Ġthin",
        -10.397926228939092
      ],
      [
        "Ġfly",
        -10.398130029966593
      ],
      [
        "Ġintervention",
        -10.398136228299023
      ],
      [
        "Ġvariable",
        -10.39944638655037
      ],
      [
        "AI",
        -10.399453348236822
      ],
      [
        "includ",
        -10.399720028650542
      ],
      [
        "Ġtrick",
        -10.399886158240015
      ],
      [
        "ating",
        -10.399930357152726
      ],
      [
        "ĠIts",
        -10.400093334957962
      ],
      [
        "Ġblend",
        -10.40101285759474
      ],
      [
        "Ġstable",
        -10.403522095981526
      ],
      [
        "Ġvast",
        -10.403658406212468
      ],
      [
        "Ġmixe",
        -10.40382025216602
      ],
      [
        "Ġnorth",
        -10.404193759955549
      ],
      [
        "ĠGreen",
        -10.40436478933086
      ],
      [
        "Ġstorm",
        -10.404810693779138
      ],
      [
        "ĠEnergy",
        -10.405195476244035
      ],
      [
        "Ġalter",
        -10.40607819624794
      ],
      [
        "ĠâĢ¦",
        -10.406354592446656
      ],
      [
        "ture",
        -10.406933423739616
      ],
      [
        "ages",
        -10.40712019827139
      ],
      [
        "Ġapproache",
        -10.408060365664529
      ],
      [
        "Ġtitle",
        -10.408061452863532
      ],
      [
        "Ġdimension",
        -10.408394492969167
      ],
      [
        "Ġmask",
        -10.409335685057451
      ],
      [
        "Ġrelie",
        -10.40938396807038
      ],
      [
        "Ġsides",
        -10.41049244820589
      ],
      [
        "Ġeasi",
        -10.410696446294834
      ],
      [
        "Ġrecording",
        -10.411235727278775
      ],
      [
        "during",
        -10.41131854282628
      ],
      [
        "Ġmanual",
        -10.412357332326168
      ],
      [
        "layers",
        -10.412747671188026
      ],
      [
        "Ġintake",
        -10.41283493000586
      ],
      [
        "ĠClass",
        -10.412927592851515
      ],
      [
        "ling",
        -10.412970022995944
      ],
      [
        "Ġshapes",
        -10.41307360315061
      ],
      [
        "Ġbond",
        -10.413109875410992
      ],
      [
        "Ġsharp",
        -10.413223189682856
      ],
      [
        "Ġpreserve",
        -10.415310014997146
      ],
      [
        "Ġtension",
        -10.415512220228416
      ],
      [
        "Ġstomach",
        -10.415937655220349
      ],
      [
        "Â·",
        -10.416235020278538
      ],
      [
        "Ġintegrate",
        -10.416624750918796
      ],
      [
        "Ġbowl",
        -10.41752451039508
      ],
      [
        "Ġpeer",
        -10.417761849054104
      ],
      [
        "Ġdiagnose",
        -10.41812776609024
      ],
      [
        "etc",
        -10.418667475078031
      ],
      [
        "Ġknee",
        -10.419351294889282
      ],
      [
        "Ġworry",
        -10.420996951767982
      ],
      [
        "Ġraw",
        -10.421381018879554
      ],
      [
        "Ġdiagnosi",
        -10.421391875216482
      ],
      [
        "Ġpreparation",
        -10.421399285579373
      ],
      [
        "Ġworker",
        -10.421650193219666
      ],
      [
        "Ġjump",
        -10.422516913308202
      ],
      [
        "Ġthrive",
        -10.422643972554532
      ],
      [
        "Ġillustrate",
        -10.42270722400947
      ],
      [
        "Ġtrend",
        -10.423312580036772
      ],
      [
        "Ġreactions",
        -10.42372330167208
      ],
      [
        "Ġplates",
        -10.4242779025254
      ],
      [
        "Ġcorresponding",
        -10.424483109543868
      ],
      [
        "stock",
        -10.424579811021706
      ],
      [
        "ĠEast",
        -10.42487339195422
      ],
      [
        "Ġgift",
        -10.425432835909842
      ],
      [
        "round",
        -10.426709449529334
      ],
      [
        "should",
        -10.427038250917366
      ],
      [
        "Ġwish",
        -10.427148066045152
      ],
      [
        "Ġmild",
        -10.428530115616432
      ],
      [
        "ĠFebr",
        -10.428798228193113
      ],
      [
        "Ġclosed",
        -10.430195080710757
      ],
      [
        "Ġmistake",
        -10.430284188170212
      ],
      [
        "Ġbreeding",
        -10.430699043620663
      ],
      [
        "ĠLike",
        -10.431315931212747
      ],
      [
        "Ġworse",
        -10.431657177117495
      ],
      [
        "Ġbigge",
        -10.432072380327662
      ],
      [
        "Ġhorizontal",
        -10.432925282112848
      ],
      [
        "Ġnovel",
        -10.43299378506823
      ],
      [
        "Ġconversation",
        -10.433503811983028
      ],
      [
        "Ġmolecular",
        -10.434691917735536
      ],
      [
        "crops",
        -10.43555716238486
      ],
      [
        "Ġworkshop",
        -10.436123280162768
      ],
      [
        "Ġlake",
        -10.436776671805012
      ],
      [
        "Ġhandling",
        -10.436801904153503
      ],
      [
        "Ġroll",
        -10.43744579451229
      ],
      [
        "stead",
        -10.437500074674404
      ],
      [
        "Ġmassive",
        -10.439569948979909
      ],
      [
        "Ġcollege",
        -10.440138670294331
      ],
      [
        "Ġcrop",
        -10.440322173820269
      ],
      [
        "Ġscenario",
        -10.440425233608655
      ],
      [
        "ending",
        -10.441407887803086
      ],
      [
        "Ġdirector",
        -10.44204711992674
      ],
      [
        "call",
        -10.442562951365172
      ],
      [
        "ĠAdd",
        -10.442977850793858
      ],
      [
        "ĠTake",
        -10.443728576969594
      ],
      [
        "ĠPeople",
        -10.44468056969993
      ],
      [
        "Ġdefinite",
        -10.445091772625611
      ],
      [
        "ĠJew",
        -10.445174087774962
      ],
      [
        "Ġframework",
        -10.44599426243031
      ],
      [
        "Ġtraffic",
        -10.446750334661584
      ],
      [
        "Other",
        -10.447070435483548
      ],
      [
        "ones",
        -10.447474821830356
      ],
      [
        "Ġdelicious",
        -10.447654719360058
      ],
      [
        "Ġfoster",
        -10.447817160040824
      ],
      [
        "Ġdiameter",
        -10.448438384885932
      ],
      [
        "Ġarray",
        -10.44851394589294
      ],
      [
        "Ġlinear",
        -10.449120564433464
      ],
      [
        "Ġhazard",
        -10.449165361874426
      ],
      [
        "ĠRed",
        -10.449327135053618
      ],
      [
        "Ġprofile",
        -10.449737690562246
      ],
      [
        "Only",
        -10.44975441543808
      ],
      [
        "Ġcustom",
        -10.450452059387969
      ],
      [
        "Ġgradual",
        -10.45078475103436
      ],
      [
        "Ġparallel",
        -10.451355805582953
      ],
      [
        "ĠTwo",
        -10.451584879093948
      ],
      [
        "Ġattend",
        -10.451787449490448
      ],
      [
        "Ġconflict",
        -10.451836268654432
      ],
      [
        "bacterial",
        -10.452035776271126
      ],
      [
        "cooling",
        -10.452077794470377
      ],
      [
        "Ġbiggest",
        -10.452282647989868
      ],
      [
        "Ġclay",
        -10.45323162780809
      ],
      [
        "same",
        -10.455037710973995
      ],
      [
        "Ġluck",
        -10.455419188954634
      ],
      [
        "Ġdeposit",
        -10.45543134639152
      ],
      [
        "Ġfather",
        -10.456042270298123
      ],
      [
        "COVI",
        -10.456051430372256
      ],
      [
        "ĠAssociation",
        -10.456914940887511
      ],
      [
        "Ġwindows",
        -10.457018308555728
      ],
      [
        "Ġpack",
        -10.457260823577226
      ],
      [
        "Ġdiscussed",
        -10.457496640452051
      ],
      [
        "Where",
        -10.458017302327878
      ],
      [
        "Ġleaders",
        -10.45853131941957
      ],
      [
        "Ġfiles",
        -10.458607778093
      ],
      [
        "Ġpolitical",
        -10.45901729205561
      ],
      [
        "per",
        -10.460202230303556
      ],
      [
        "Ġearl",
        -10.46084305374268
      ],
      [
        "Ġinitiative",
        -10.460961210406149
      ],
      [
        "Ġdownload",
        -10.461034438486646
      ],
      [
        "Ġuniversit",
        -10.461140134978049
      ],
      [
        "Ġfix",
        -10.461925872812364
      ],
      [
        "still",
        -10.461931027606084
      ],
      [
        "Ġtail",
        -10.462035338495042
      ],
      [
        "Ġrespond",
        -10.462110429382712
      ],
      [
        "Ġsilver",
        -10.462414788922928
      ],
      [
        "Ġinner",
        -10.463200649163962
      ],
      [
        "Ġclub",
        -10.46363805272918
      ],
      [
        "Ġhealthc",
        -10.463810226632152
      ],
      [
        "Ġabsolute",
        -10.464350954826092
      ],
      [
        "Ġorganize",
        -10.465479407563445
      ],
      [
        "Ġantibiotic",
        -10.465932891510343
      ],
      [
        "ĠPlant",
        -10.465943453536804
      ],
      [
        "ĠSept",
        -10.4660277131926
      ],
      [
        "Ġcontrolle",
        -10.466648942777548
      ],
      [
        "top",
        -10.46702172733248
      ],
      [
        "Ġheal",
        -10.467416259834671
      ],
      [
        "Ġcoach",
        -10.467724699510484
      ],
      [
        "ĠSt",
        -10.468502935013834
      ],
      [
        "Ġcurve",
        -10.468808970009164
      ],
      [
        "ĠWhere",
        -10.469235400788628
      ],
      [
        "Ġpresented",
        -10.470394979785716
      ],
      [
        "Ġsales",
        -10.471745221407494
      ],
      [
        "state",
        -10.47206630181407
      ],
      [
        "Ġsecret",
        -10.472186119908834
      ],
      [
        "Ġtru",
        -10.472502812529052
      ],
      [
        "Ġturns",
        -10.472572120486385
      ],
      [
        "Ġplann",
        -10.473121868062488
      ],
      [
        "Ġsubstances",
        -10.473210507500806
      ],
      [
        "Ġsmoke",
        -10.473295271722437
      ],
      [
        "hip",
        -10.47351177944326
      ],
      [
        "Ġimagine",
        -10.474425927658377
      ],
      [
        "Ġparticipate",
        -10.475010763764429
      ],
      [
        "group",
        -10.476130587205544
      ],
      [
        "Ġbelief",
        -10.476572450813617
      ],
      [
        "Ġperception",
        -10.476986634698909
      ],
      [
        "logical",
        -10.477181336182957
      ],
      [
        "ily",
        -10.477483642719331
      ],
      [
        "ĠGoogle",
        -10.477659987023271
      ],
      [
        "Ġvalve",
        -10.477748769574314
      ],
      [
        "Ġnation",
        -10.478285649724809
      ],
      [
        "lighting",
        -10.478738243597604
      ],
      [
        "Ġmirror",
        -10.479027473086322
      ],
      [
        "Ġurban",
        -10.479069180500044
      ],
      [
        "current",
        -10.479129604919008
      ],
      [
        "ĠData",
        -10.479137461034858
      ],
      [
        "Ġopposite",
        -10.479444669199626
      ],
      [
        "Ġsurprise",
        -10.479492761524998
      ],
      [
        "rich",
        -10.479601805316928
      ],
      [
        "Ġplus",
        -10.480504784619052
      ],
      [
        "number",
        -10.480948875333446
      ],
      [
        "Ġfamous",
        -10.48097004067383
      ],
      [
        "Ġshop",
        -10.48126702744086
      ],
      [
        "Ġvegan",
        -10.481593468464569
      ],
      [
        "Ġbreath",
        -10.482037639636168
      ],
      [
        "Ġrobust",
        -10.48234011849351
      ],
      [
        "Ġexplains",
        -10.482513491756505
      ],
      [
        "Ġemerge",
        -10.48267906473245
      ],
      [
        "Ġraised",
        -10.482685669622304
      ],
      [
        "Ġhidden",
        -10.482782084557556
      ],
      [
        "Ġrealit",
        -10.483651885064964
      ],
      [
        "Ġtradition",
        -10.48411976797641
      ],
      [
        "Ġmoderate",
        -10.484304095234378
      ],
      [
        "lack",
        -10.484406795016048
      ],
      [
        "Ġflying",
        -10.485128783913384
      ],
      [
        "Ġbroad",
        -10.486077127326649
      ],
      [
        "ĠAct",
        -10.486414951801422
      ],
      [
        "Ġdetection",
        -10.48666611825612
      ],
      [
        "see",
        -10.487487924343384
      ],
      [
        "Ġpermanent",
        -10.487717146550242
      ],
      [
        "Ġformation",
        -10.48789671391475
      ],
      [
        "Ġrear",
        -10.48800440743208
      ],
      [
        "Ġfair",
        -10.48834592290072
      ],
      [
        "Ġdanger",
        -10.48846755054348
      ],
      [
        "Ġprovider",
        -10.488733585174929
      ],
      [
        "Ġimplant",
        -10.489254296488234
      ],
      [
        "Ġsuffer",
        -10.489836932812157
      ],
      [
        "Ġdespi",
        -10.49017704953112
      ],
      [
        "**",
        -10.490645041937697
      ],
      [
        "Ġregulate",
        -10.491544951876527
      ],
      [
        "chemical",
        -10.492205808793123
      ],
      [
        "Ġspecialist",
        -10.492557552785868
      ],
      [
        "Ġpredators",
        -10.49285146784479
      ],
      [
        "Ġprinting",
        -10.493044678151662
      ],
      [
        "ĠPart",
        -10.494935304548932
      ],
      [
        "Ġinteractive",
        -10.495014498518856
      ],
      [
        "llowing",
        -10.495431834422792
      ],
      [
        "Ġmice",
        -10.495726133389766
      ],
      [
        "Ġwhatever",
        -10.495992553103452
      ],
      [
        "Additional",
        -10.49633867453045
      ],
      [
        "Ġexplanation",
        -10.49650531952678
      ],
      [
        "ĠHis",
        -10.497000101219552
      ],
      [
        "Ġecosystem",
        -10.49704291074977
      ],
      [
        "ĠToday",
        -10.49750328170063
      ],
      [
        "Ġcoil",
        -10.497731398304236
      ],
      [
        "lies",
        -10.497861784077038
      ],
      [
        "Ġtransistor",
        -10.498745314708488
      ],
      [
        "`",
        -10.498778750130295
      ],
      [
        "Ġterminal",
        -10.499767600519268
      ],
      [
        "Ġorgans",
        -10.50020170374195
      ],
      [
        "ĠCheck",
        -10.500583550293836
      ],
      [
        "species",
        -10.501124657914453
      ],
      [
        "Ġspeech",
        -10.50142639867613
      ],
      [
        "axis",
        -10.50153791636056
      ],
      [
        "Ġexam",
        -10.501612770425645
      ],
      [
        "Ġadequate",
        -10.501752942883552
      ],
      [
        "Ġfascinating",
        -10.502632272676076
      ],
      [
        "Ġagricultur",
        -10.502643359810076
      ],
      [
        "Ġrotation",
        -10.50327251415307
      ],
      [
        "Ġillness",
        -10.50382453221529
      ],
      [
        "Ġretain",
        -10.503864657394386
      ],
      [
        "need",
        -10.5039481643639
      ],
      [
        "Ġnitrogen",
        -10.504266390565292
      ],
      [
        "everyday",
        -10.504567401816518
      ],
      [
        "Ġaid",
        -10.50474689328412
      ],
      [
        "Ġinsert",
        -10.505379168137246
      ],
      [
        "Ġherb",
        -10.505683595048255
      ],
      [
        "Ġtrouble",
        -10.50609117847683
      ],
      [
        "Ġsexual",
        -10.506099291845803
      ],
      [
        "ca",
        -10.5063191940106
      ],
      [
        "Ġintended",
        -10.506348101758023
      ],
      [
        "Ġweak",
        -10.506825188580333
      ],
      [
        "Ġregister",
        -10.507403490400524
      ],
      [
        "ĠColor",
        -10.508176193107936
      ],
      [
        "Ġdiversity",
        -10.508311973087828
      ],
      [
        "Ġsenior",
        -10.508674040563012
      ],
      [
        "information",
        -10.50869870983649
      ],
      [
        "loved",
        -10.508750271066104
      ],
      [
        "room",
        -10.508802571304114
      ],
      [
        "Ġbrief",
        -10.50921793834324
      ],
      [
        "Ġconfiden",
        -10.509383346538936
      ],
      [
        "Ġgenome",
        -10.509521263250768
      ],
      [
        "Ġfeather",
        -10.509937843050036
      ],
      [
        "Ġpe",
        -10.510096076869994
      ],
      [
        "Ġremaining",
        -10.510736721218528
      ],
      [
        "Ġauthors",
        -10.5113109821905
      ],
      [
        "ĠGP",
        -10.51136427821689
      ],
      [
        "Ġbuffer",
        -10.511942952928312
      ],
      [
        "Ġseeking",
        -10.51219480265464
      ],
      [
        "Ġcleaner",
        -10.513641796687777
      ],
      [
        "Ġbi",
        -10.514273971903524
      ],
      [
        "off",
        -10.514902365723684
      ],
      [
        "Ġclassic",
        -10.515089757675618
      ],
      [
        "Ġpossibl",
        -10.51523067498545
      ],
      [
        "Â°",
        -10.515441662621566
      ],
      [
        "Ġrespectively",
        -10.515456523660598
      ],
      [
        "Ġdur",
        -10.516964052301722
      ],
      [
        "Ġscratch",
        -10.517572695966702
      ],
      [
        "een",
        -10.51784003263047
      ],
      [
        "Ġacids",
        -10.518056274537852
      ],
      [
        "Ġd",
        -10.518230887220986
      ],
      [
        "culture",
        -10.518707226615094
      ],
      [
        "Ġaren",
        -10.51888962788599
      ],
      [
        "Even",
        -10.5192250706922
      ],
      [
        "Ġpackage",
        -10.519450908097118
      ],
      [
        "Ġserving",
        -10.51963751661317
      ],
      [
        "ĠMedicine",
        -10.520007371967392
      ],
      [
        "\"I",
        -10.520503456705956
      ],
      [
        "ĠRussian",
        -10.52053272633231
      ],
      [
        "Ġorientation",
        -10.522042738396893
      ],
      [
        "Ġfamiliar",
        -10.5221399830215
      ],
      [
        "Ġbreathing",
        -10.522335319694747
      ],
      [
        "Ġspaces",
        -10.522802052645597
      ],
      [
        "Ġprinter",
        -10.52287637613895
      ],
      [
        "Ġaquarium",
        -10.523134187154447
      ],
      [
        "Ġconsult",
        -10.523423667424527
      ],
      [
        "Ġplug",
        -10.523879828329154
      ],
      [
        "ial",
        -10.523880003901327
      ],
      [
        "craft",
        -10.524023287958457
      ],
      [
        "Ġyeast",
        -10.52453400281254
      ],
      [
        "Ġjuice",
        -10.524677117187004
      ],
      [
        "Ġnarrow",
        -10.525079773263265
      ],
      [
        "Ġlibrary",
        -10.525407686166512
      ],
      [
        "Ġinstalle",
        -10.52592537004548
      ],
      [
        "ĠBot",
        -10.526020087034958
      ],
      [
        "Ġturning",
        -10.526174654364224
      ],
      [
        "ĠGreek",
        -10.52623413097504
      ],
      [
        "Understanding",
        -10.526634496802934
      ],
      [
        "Ġintroduction",
        -10.526683403691166
      ],
      [
        "ware",
        -10.526778434763122
      ],
      [
        "Ġmobile",
        -10.526932257346926
      ],
      [
        "Ġcrystal",
        -10.526933863632507
      ],
      [
        "Ġmoved",
        -10.527821997865036
      ],
      [
        "Note",
        -10.528643893166391
      ],
      [
        "Ġmicro",
        -10.529752417836573
      ],
      [
        "Ġglucos",
        -10.529972810026493
      ],
      [
        "Ġship",
        -10.530074194100912
      ],
      [
        "after",
        -10.530200400426088
      ],
      [
        "Ġoperat",
        -10.53058946433314
      ],
      [
        "spread",
        -10.530706361914945
      ],
      [
        "ĠConsider",
        -10.530813259185988
      ],
      [
        "ĠTree",
        -10.53135757961132
      ],
      [
        "Ġscrew",
        -10.531483522220086
      ],
      [
        "ĠPaul",
        -10.531487783237525
      ],
      [
        "Ġdairy",
        -10.531729323344628
      ],
      [
        "Ġholiday",
        -10.532630838742309
      ],
      [
        "Ġlaborator",
        -10.532983398296398
      ],
      [
        "Ġindex",
        -10.533370709999089
      ],
      [
        "Ġcopy",
        -10.53391281171976
      ],
      [
        "Ġfeedback",
        -10.535264394667724
      ],
      [
        "activity",
        -10.536149042415833
      ],
      [
        "Ġhardw",
        -10.536636497612168
      ],
      [
        "Ġdiffer",
        -10.536717759960627
      ],
      [
        "Ġsauce",
        -10.536892170563478
      ],
      [
        "Ġcoral",
        -10.536923858787304
      ],
      [
        "Ġpan",
        -10.537577365756222
      ],
      [
        "ĠDur",
        -10.537964395401202
      ],
      [
        "Ġsouthern",
        -10.538128079963162
      ],
      [
        "Ġinsulation",
        -10.538430009758784
      ],
      [
        "Ġfinishe",
        -10.539192792028803
      ],
      [
        "Ġtruck",
        -10.539230325101656
      ],
      [
        "ĠGood",
        -10.539437852249788
      ],
      [
        "ĠLight",
        -10.540138684959254
      ],
      [
        "ĠRead",
        -10.540414720954958
      ],
      [
        "Ġautomatic",
        -10.540757209910623
      ],
      [
        "Ġresident",
        -10.540846842649362
      ],
      [
        "Ġcluster",
        -10.542135461467485
      ],
      [
        "Ġwidth",
        -10.542588061734712
      ],
      [
        "Ġtumor",
        -10.542851587217823
      ],
      [
        "Ġcircle",
        -10.54290963428857
      ],
      [
        "ĠAugust",
        -10.54297230563137
      ],
      [
        "small",
        -10.543660457346853
      ],
      [
        "Ġwoman",
        -10.543669590122803
      ],
      [
        "ĠHome",
        -10.543779823368112
      ],
      [
        "ĠDevelopment",
        -10.543987285914271
      ],
      [
        "Ġblade",
        -10.54423358936454
      ],
      [
        "Ġsport",
        -10.54472427862153
      ],
      [
        "Ġcartridge",
        -10.545115283949416
      ],
      [
        "heat",
        -10.545214271056867
      ],
      [
        "Ġreward",
        -10.545239189235952
      ],
      [
        "Ġvolunteer",
        -10.545466520205878
      ],
      [
        "ĠLife",
        -10.546110159830064
      ],
      [
        "Ġgoe",
        -10.546359973088489
      ],
      [
        "ory",
        -10.546934205254292
      ],
      [
        "ĠâĢĵĊ",
        -10.547123576949453
      ],
      [
        "Ġlift",
        -10.547159231047694
      ],
      [
        "Ġbread",
        -10.547252235645251
      ],
      [
        "ivity",
        -10.547493791057628
      ],
      [
        "Ġpictures",
        -10.54788060445015
      ],
      [
        ".G",
        -10.548052831795378
      ],
      [
        "Ġforget",
        -10.548181297469217
      ],
      [
        "ical",
        -10.548802123580424
      ],
      [
        "Ġmode",
        -10.548906336990736
      ],
      [
        "Water",
        -10.549193566324032
      ],
      [
        "Ġfan",
        -10.550197367261866
      ],
      [
        "ĠChin",
        -10.550606440412206
      ],
      [
        "Ġtrends",
        -10.55108002845353
      ],
      [
        "Ġstronge",
        -10.551997947908667
      ],
      [
        "Ġfault",
        -10.55216282889988
      ],
      [
        "Ġdiagram",
        -10.55243200952647
      ],
      [
        "ding",
        -10.552681004891898
      ],
      [
        "days",
        -10.552803008201984
      ],
      [
        "Ġaccessib",
        -10.553277826678316
      ],
      [
        "People",
        -10.553512495530576
      ],
      [
        "Ġspina",
        -10.553910177362628
      ],
      [
        "Ġhydrogen",
        -10.554305101177167
      ],
      [
        "ence",
        -10.554972977281253
      ],
      [
        "Ġtransmission",
        -10.55505803701632
      ],
      [
        "Ġhousing",
        -10.555189462054392
      ],
      [
        "Ġdense",
        -10.555553540860156
      ],
      [
        "Ġguidance",
        -10.556138766747736
      ],
      [
        "Ġbug",
        -10.556151503663967
      ],
      [
        "Source",
        -10.556831114870196
      ],
      [
        "May",
        -10.557560827629809
      ],
      [
        "Don",
        -10.558309060845572
      ],
      [
        "ĠGarden",
        -10.558345203926145
      ],
      [
        "-old",
        -10.558625855308216
      ],
      [
        "Ġmilitar",
        -10.558717223181503
      ],
      [
        "Ġfurni",
        -10.558778424572164
      ],
      [
        "Just",
        -10.559615831882812
      ],
      [
        "]ĊĊ",
        -10.55962856608717
      ],
      [
        "Ġholding",
        -10.559725676648966
      ],
      [
        "high",
        -10.56055312097629
      ],
      [
        "Ġprotective",
        -10.560882443045813
      ],
      [
        "Ġlifespan",
        -10.561633089022209
      ],
      [
        "ĠEngland",
        -10.561728353459438
      ],
      [
        "ĠNovemb",
        -10.562838436912717
      ],
      [
        "Like",
        -10.563103968325386
      ],
      [
        "ite",
        -10.563105445723302
      ],
      [
        "Ġmutation",
        -10.563357064244272
      ],
      [
        "list",
        -10.563663856045238
      ],
      [
        "Further",
        -10.563896761890158
      ],
      [
        "Ġinfrastructure",
        -10.564120423444738
      ],
      [
        "Ġhappening",
        -10.564248478657824
      ],
      [
        "found",
        -10.56465495275808
      ],
      [
        "ooking",
        -10.564735699809235
      ],
      [
        "Ġneck",
        -10.564821513788592
      ],
      [
        "Als",
        -10.565403990881016
      ],
      [
        "ĠFish",
        -10.567207778311245
      ],
      [
        "Ġcolleague",
        -10.567377922153716
      ],
      [
        "Ġshar",
        -10.56756930163226
      ],
      [
        "think",
        -10.567641839821968
      ],
      [
        ");",
        -10.568058462341842
      ],
      [
        "ĠDavid",
        -10.568754015654784
      ],
      [
        "ĠOcean",
        -10.569133407406923
      ],
      [
        "ĠJapan",
        -10.569594676198191
      ],
      [
        "ural",
        -10.569917312103811
      ],
      [
        "twic",
        -10.570070873733709
      ],
      [
        "working",
        -10.570295244166
      ],
      [
        "Ġdistrict",
        -10.570340297834765
      ],
      [
        "house",
        -10.5706903763537
      ],
      [
        "Ġproven",
        -10.57157205142083
      ],
      [
        "Ġhunt",
        -10.57158492075613
      ],
      [
        "Ġcharacterize",
        -10.572313251795173
      ],
      [
        "Ġhurt",
        -10.572773063502028
      ],
      [
        "ĠSan",
        -10.573426234586456
      ],
      [
        "important",
        -10.57352291927744
      ],
      [
        "Ġleader",
        -10.573804681756336
      ],
      [
        "\",",
        -10.574402277386138
      ],
      [
        "Ġpersonalized",
        -10.57568917634022
      ],
      [
        "Introduction",
        -10.57585550002409
      ],
      [
        "Ġmeasur",
        -10.576705682711175
      ],
      [
        "Ġusage",
        -10.576794182986369
      ],
      [
        "itness",
        -10.57740228631183
      ],
      [
        "Ġexplaine",
        -10.577417769955122
      ],
      [
        "Ġstack",
        -10.57746837318599
      ],
      [
        "Ġcris",
        -10.577574134626744
      ],
      [
        "ĠGeneral",
        -10.578374542486126
      ],
      [
        "technology",
        -10.579023128107162
      ],
      [
        "Ġstream",
        -10.579465561291276
      ],
      [
        "order",
        -10.579658172766957
      ],
      [
        "Ġrequest",
        -10.579900165439753
      ],
      [
        "Ġimpossible",
        -10.580425090096009
      ],
      [
        "Ġspiritual",
        -10.5805537510144
      ],
      [
        "Ġcomplicate",
        -10.580645180591986
      ],
      [
        "Ġmature",
        -10.580667161090274
      ],
      [
        "\".",
        -10.581592650724406
      ],
      [
        "Ġcompose",
        -10.582034930230895
      ],
      [
        "Ġfin",
        -10.5826217686054
      ],
      [
        "Ġrid",
        -10.58364379826006
      ],
      [
        "Ġinstitution",
        -10.583982767452596
      ],
      [
        "ated",
        -10.584190959926058
      ],
      [
        "Ġpromot",
        -10.584282849978212
      ],
      [
        "Ġinter",
        -10.584413260922911
      ],
      [
        "Ġlisted",
        -10.584433962946388
      ],
      [
        "Ġmor",
        -10.584539078097958
      ],
      [
        "holes",
        -10.58545532276779
      ],
      [
        "Ġassign",
        -10.58552305873497
      ],
      [
        "Ġtire",
        -10.585853088129053
      ],
      [
        "health",
        -10.586028745696858
      ],
      [
        "Ġathlete",
        -10.587038338511125
      ],
      [
        "Ġsuit",
        -10.58962231249027
      ],
      [
        "act",
        -10.589622460165424
      ],
      [
        "Ġcopper",
        -10.59017042184052
      ],
      [
        "Keep",
        -10.59058587857537
      ],
      [
        "Ġcow",
        -10.590629720658503
      ],
      [
        "obesity",
        -10.59070905420997
      ],
      [
        "ĠDragon",
        -10.590744414388862
      ],
      [
        "Ġvulnerab",
        -10.591365780032945
      ],
      [
        "vity",
        -10.591370879361309
      ],
      [
        "ĠChildren",
        -10.591559476663232
      ],
      [
        "Ġengaging",
        -10.592771651215706
      ],
      [
        "ification",
        -10.594527290721608
      ],
      [
        "Ġassembl",
        -10.594573931053588
      ],
      [
        "ÂŃ",
        -10.59486417951786
      ],
      [
        "role",
        -10.59570117332763
      ],
      [
        "ĠAsia",
        -10.595775920955363
      ],
      [
        "ĠRemember",
        -10.59623536080679
      ],
      [
        "Ġinvention",
        -10.597950108393466
      ],
      [
        "Ġflood",
        -10.598894031292748
      ],
      [
        "Ġpro",
        -10.5990249053266
      ],
      [
        "Ġdesigner",
        -10.599447135674987
      ],
      [
        "Ġisn",
        -10.600322487178415
      ],
      [
        "Ġnorthern",
        -10.601044913874698
      ],
      [
        "Ġpackag",
        -10.601347383555842
      ],
      [
        "Ġowner",
        -10.602956686018343
      ],
      [
        "ĠWhite",
        -10.60315026176508
      ],
      [
        "Ġlarva",
        -10.603202357105069
      ],
      [
        "Ġcellular",
        -10.603281357735147
      ],
      [
        "Ġbulb",
        -10.603481206903089
      ],
      [
        "Ġstruggle",
        -10.60372945318358
      ],
      [
        "second",
        -10.603859501232131
      ],
      [
        "Ġminimal",
        -10.604261330339144
      ],
      [
        "-shape",
        -10.604366977480153
      ],
      [
        "Ġguess",
        -10.605261383252929
      ],
      [
        "ĠCar",
        -10.6054491070165
      ],
      [
        "Ġquiet",
        -10.606247170961923
      ],
      [
        "hipping",
        -10.606824870620128
      ],
      [
        "Ġknowing",
        -10.606901474966568
      ],
      [
        "Ġvelocity",
        -10.606995174600875
      ],
      [
        "Ġspen",
        -10.608382083264216
      ],
      [
[...]
