{
  "version": "1.0",
  "truncation": null,
  "padding": null,
  "added_tokens": [
    {
      "id": 0,
      "content": "<|bos|>",
      "single_word": false,
      "lstrip": false,
      "rstrip": false,
      "normalized": false,
      "special": true
    },
    {
      "id": 1,
      "content": "<|user_start|>",
      "single_word": false,
      "lstrip": false,
      "rstrip": false,
      "normalized": false,
      "special": true
    },
    {
      "id": 2,
      "content": "<|user_end|>",
      "single_word": false,
      "lstrip": false,
      "rstrip": false,
      "normalized": false,
      "special": true
    },
    {
      "id": 3,
      "content": "<|assistant_start|>",
      "single_word": false,
      "lstrip": false,
      "rstrip": false,
      "normalized": false,
      "special": true
    },
    {
      "id": 4,
      "content": "<|assistant_end|>",
      "single_word": false,
      "lstrip": false,
      "rstrip": false,
      "normalized": false,
      "special": true
    },
    {
      "id": 5,
      "content": "<|python_start|>",
      "single_word": false,
      "lstrip": false,
      "rstrip": false,
      "normalized": false,
      "special": true
    },
    {
      "id": 6,
      "content": "<|python_end|>",
      "single_word": false,
      "lstrip": false,
      "rstrip": false,
      "normalized": false,
      "special": true
    },
    {
      "id": 7,
      "content": "<|output_start|>",
      "single_word": false,
      "lstrip": false,
      "rstrip": false,
      "normalized": false,
      "special": true
    },
    {
      "id": 8,
      "content": "<|output_end|>",
      "single_word": false,
      "lstrip": false,
      "rstrip": false,
      "normalized": false,
      "special": true
    },
    {
      "id": 9,
      "content": "<|unk|>",
      "single_word": false,
      "lstrip": false,
      "rstrip": false,
      "normalized": false,
      "special": true
    }
  ],
  "normalizer": null,
  "pre_tokenizer": {
    "type": "Sequence",
    "pretokenizers": [
      {
        "type": "Split",
        "pattern": {
          "Regex": "'(?i:[sdmt]|ll|ve|re)|[^\\r\\n\\p{L}\\p{N}]?+\\p{L}+|\\p{N}{1,2}| ?[^\\s\\p{L}\\p{N}]++[\\r\\n]*|\\s*[\\r\\n]|\\s+(?!\\S)|\\s+"
        },
        "behavior": "Isolated",
        "invert": false
      },
      {
        "type": "ByteLevel",
        "add_prefix_space": false,
        "trim_offsets": true,
        "use_regex": false
      }
    ]
  },
  "post_processor": {
    "type": "TemplateProcessing",
    "single": [
      {
        "Sequence": {
          "id": "A",
          "type_id": 0
        }
      }
    ],
    "pair": [
      {
        "Sequence": {
          "id": "A",
          "type_id": 0
        }
      },
      {
        "Sequence": {
          "id": "B",
          "type_id": 1
        }
      }
    ],
    "special_tokens": {}
  },
  "decoder": null,
  "model": {
    "type": "Unigram",
    "unk_id": 9,
    "vocab": [
      [
        "<|bos|>",
        0.0
      ],
      [
        "<|user_start|>",
        0.0
      ],
      [
        "<|user_end|>",
        0.0
      ],
      [
        "<|assistant_start|>",
        0.0
      ],
      [
        "<|assistant_end|>",
        0.0
      ],
      [
        "<|python_start|>",
        0.0
      ],
      [
        "<|python_end|>",
        0.0
      ],
      [
        "<|output_start|>",
        0.0
      ],
      [
        "<|output_end|>",
        0.0
      ],
      [
        "<|unk|>",
        0.0
      ],
      [
        "s",
        -2.953724278916477
      ],
      [
        "Ġthe",
        -3.4045064915433567
      ],
      [
        ",",
        -3.4640945818051385
      ],
      [
        "Ġ",
        -3.5775005614951976
      ],
      [
        ".",
        -3.7368169689112367
      ],
      [
        "Ġand",
        -3.9381310237773857
      ],
      [
        "Ġof",
        -3.993228001815506
      ],
      [
        "Ġto",
        -3.993264189958662
      ],
      [
        "Ġa",
        -4.1163624704282
      ],
      [
        "ing",
        -4.289045281150893
      ],
      [
        "Ġin",
        -4.485375888204555
      ],
      [
        "Ġis",
        -4.615515520472988
      ],
      [
        "ed",
        -4.6852881871107215
      ],
      [
        "y",
        -4.896003763206393
      ],
      [
        "d",
        -4.920763090644071
      ],
      [
        "'",
        -4.937496564004739
      ],
      [
        "ly",
        -5.01755661827165
      ],
      [
        "0",
        -5.018127863339032
      ],
      [
        "Ġthat",
        -5.0403733222780165
      ],
      [
        "Ġfor",
        -5.053254362389241
      ],
      [
        "Ċ",
        -5.164567889925898
      ],
      [
        "e",
        -5.19220753596038
      ],
      [
        "1",
        -5.1929393457722774
      ],
      [
        ":",
        -5.226690622529592
      ],
      [
        "Ġare",
        -5.253943214764412
      ],
      [
        "Ġwith",
        -5.289426108475963
      ],
      [
        ".Ċ",
        -5.301534318862819
      ],
      [
        "Ġbe",
        -5.3160314840256895
      ],
      [
        "Ġit",
        -5.332612712435429
      ],
      [
        "Ġyou",
        -5.339047199844707
      ],
      [
        ".ĊĊ",
        -5.350050153404611
      ],
      [
        "2",
        -5.417251896285061
      ],
      [
        "Ġon",
        -5.4943817721260615
      ],
      [
        "t",
        -5.497853525019028
      ],
      [
        "Ġor",
        -5.511066649288253
      ],
      [
        "Ġcan",
        -5.519587405784511
      ],
      [
        "ĊĊ",
        -5.545353994469815
      ],
      [
        "-",
        -5.6050117795602254
      ],
      [
        "Ġyour",
        -5.669000862180784
      ],
      [
        "Ġ(",
        -5.754598143664822
      ],
      [
        "Ġas",
        -5.775565010104014
      ],
      [
        "\"",
        -5.837575580719037
      ],
      [
        "ĠThe",
        -5.871197388742258
      ],
      [
        "Ġfrom",
        -5.881872242668164
      ],
      [
        "Ġhave",
        -5.890330027077761
      ],
      [
        "?",
        -5.962660927049296
      ],
      [
        "Ġby",
        -5.968913801381399
      ],
      [
        ")",
        -6.00932403375926
      ],
      [
        "n",
        -6.017973808081948
      ],
      [
        "ĠI",
        -6.025510181006311
      ],
      [
        "Ġan",
        -6.03528980922686
      ],
      [
        "3",
        -6.076728600136056
      ],
      [
        "Ġthis",
        -6.0805658195359005
      ],
      [
        "5",
        -6.088372226256766
      ],
      [
        "Ġnot",
        -6.128322041284125
      ],
      [
        "Ġat",
        -6.168792367043027
      ],
      [
        "Ġwill",
        -6.207641992890418
      ],
      [
        "Ġtheir",
        -6.231937328369529
      ],
      [
        "a",
        -6.2356102040853205
      ],
      [
        "4",
        -6.2602923125415515
      ],
      [
        "9",
        -6.325023010214322
      ],
      [
        "Ġmore",
        -6.378747507506443
      ],
      [
        "Ġwas",
        -6.384974219309235
      ],
      [
        "Ġthey",
        -6.393484420044713
      ],
      [
        "ies",
        -6.413165836217685
      ],
      [
        "The",
        -6.434774565409901
      ],
      [
        "Ġbut",
        -6.472249908085093
      ],
      [
        "Ġhas",
        -6.4840497139404984
      ],
      [
        "Ġwhich",
        -6.496342536955037
      ],
      [
        "Ġwe",
        -6.526257324817244
      ],
      [
        "6",
        -6.537521512899229
      ],
      [
        "r",
        -6.548439761566341
      ],
      [
        "Question",
        -6.565707692114643
      ],
      [
        "Ġone",
        -6.5738671778232955
      ],
      [
        "on",
        -6.574173645658698
      ],
      [
        "Ġalso",
        -6.575784349811746
      ],
      [
        "8",
        -6.595941352953343
      ],
      [
        "ĠAnswer",
        -6.597347128951018
      ],
      [
        "7",
        -6.661124348291477
      ],
      [
        "about",
        -6.661182820279791
      ],
      [
        "Ġall",
        -6.692740595865777
      ],
      [
        "er",
        -6.707388748393658
      ],
      [
        "Ġother",
        -6.724337197745898
      ],
      [
        "ĠIt",
        -6.746103603517689
      ],
      [
        "Ġsome",
        -6.758937330237243
      ],
      [
        "Ġwhen",
        -6.7595947629568975
      ],
      [
        "i",
        -6.764746602234052
      ],
      [
        "o",
        -6.770588217458599
      ],
      [
        "ĠA",
        -6.77661262008837
      ],
      [
        "Ġif",
        -6.797343595700427
      ],
      [
        "Ġuse",
        -6.8176097838142145
      ],
      [
        "Ġthem",
        -6.82301531654843
      ],
      [
        "Ġtime",
        -6.823770295490707
      ],
      [
        "Ġup",
        -6.826694109084668
      ],
      [
        "Ġinto",
        -6.83570746606885
      ],
      [
        "Ġmay",
        -6.839511432994728
      ],
      [
        "Ġso",
        -6.844098919323049
      ],
      [
        "Ġdo",
        -6.846195505364912
      ],
      [
        "Ġlike",
        -6.852295635084985
      ],
      [
        "Ġhow",
        -6.855068253370742
      ],
      [
        "ĠThis",
        -6.88043228307694
      ],
      [
        "ĠWhat",
        -6.9166904493102805
      ],
      [
        "Ġthan",
        -6.926092532741855
      ],
      [
        "A",
        -6.932224058687437
      ],
      [
        "Ġthese",
        -6.948216837093296
      ],
      [
        "Ġout",
        -6.961697965349975
      ],
      [
        "able",
        -6.979961828340247
      ],
      [
        "Ġwhat",
        -6.988129179104664
      ],
      [
        "Ġthere",
        -7.001279633104351
      ],
      [
        "Ġwater",
        -7.011993932035574
      ],
      [
        "m",
        -7.01597394522031
      ],
      [
        "Ġused",
        -7.041816235246355
      ],
      [
        "Ġour",
        -7.0511643040670915
      ],
      [
        "ĠIn",
        -7.062678389490641
      ],
      [
        "re",
        -7.077438487361285
      ],
      [
        "Ġneed",
        -7.088746333506252
      ],
      [
        "Ġsuch",
        -7.092829115027973
      ],
      [
        "Ġmost",
        -7.096699022300818
      ],
      [
        "Ġmake",
        -7.102095479603957
      ],
      [
        "Ġany",
        -7.127921293094882
      ],
      [
        "Ġwere",
        -7.129779324137916
      ],
      [
        "Ġbeen",
        -7.145620062646232
      ],
      [
        "al",
        -7.1580837025564605
      ],
      [
        "Ġnew",
        -7.1678616487532825
      ],
      [
        "Ġpeople",
        -7.170038518187944
      ],
      [
        "Ġsystem",
        -7.18870993540016
      ],
      [
        "Ġget",
        -7.201051797610608
      ],
      [
        "Ġhelp",
        -7.220694502467767
      ],
      [
        "l",
        -7.230033591681909
      ],
      [
        "Ġshould",
        -7.23977483134737
      ],
      [
        "Ġjust",
        -7.259139949200501
      ],
      [
        "Ġonly",
        -7.259747441606084
      ],
      [
        ";",
        -7.261785484890094
      ],
      [
        "Ġwould",
        -7.263276116646134
      ],
      [
        "?Ċ",
        -7.267670923486756
      ],
      [
        "cause",
        -7.271604114235352
      ],
      [
        "Ġover",
        -7.275003874392505
      ],
      [
        "ity",
        -7.276377315357802
      ],
      [
        "Ġwho",
        -7.2827775223758415
      ],
      [
        "Ġmany",
        -7.290453150456548
      ],
      [
        "Ġits",
        -7.2911359643606115
      ],
      [
        "/",
        -7.305514370921202
      ],
      [
        "Ġhigh",
        -7.307430584010186
      ],
      [
        "Ġtwo",
        -7.318302115083395
      ],
      [
        "Ġwell",
        -7.339489610678616
      ],
      [
        "c",
        -7.351554875092225
      ],
      [
        "Ġfirst",
        -7.368296779627579
      ],
      [
        "Ġway",
        -7.376446805717396
      ],
      [
        "Ġlong",
        -7.384073843324556
      ],
      [
        "Ġbetween",
        -7.387465707058135
      ],
      [
        "I",
        -7.392720130758493
      ],
      [
        "Ġthrough",
        -7.402413447135487
      ],
      [
        "Ġno",
        -7.420284385337617
      ],
      [
        "ever",
        -7.423362498093253
      ],
      [
        "Ġtake",
        -7.431756146488507
      ],
      [
        "Ġmy",
        -7.440427994268013
      ],
      [
        "Ġsee",
        -7.44335878933191
      ],
      [
        "Ġprovide",
        -7.444334590630101
      ],
      [
        "Ġdifferent",
        -7.444606670809955
      ],
      [
        "Ġwhere",
        -7.444804079067177
      ],
      [
        "Ġwork",
        -7.446942488477143
      ],
      [
        "Ġevery",
        -7.460340547825231
      ],
      [
        "Ġcould",
        -7.477133542207563
      ],
      [
        "!",
        -7.478047029302816
      ],
      [
        "Ġusing",
        -7.480022458080791
      ],
      [
        "very",
        -7.48650887144986
      ],
      [
        "ĠIf",
        -7.494466447450813
      ],
      [
        "Ġgo",
        -7.496403461861528
      ],
      [
        "ĠHow",
        -7.503701491771213
      ],
      [
        "Ġhe",
        -7.513108941087792
      ],
      [
        "in",
        -7.518639118854157
      ],
      [
        "Ġeven",
        -7.5216520748023346
      ],
      [
        "ĠThey",
        -7.537123091065732
      ],
      [
        "ce",
        -7.561422574899492
      ],
      [
        "Ġmuch",
        -7.563568201011029
      ],
      [
        "ve",
        -7.5865022420506385
      ],
      [
        ").",
        -7.606663497182234
      ],
      [
        "Ġchange",
        -7.614520310304227
      ],
      [
        "while",
        -7.6161537786693
      ],
      [
        "Ġhealth",
        -7.618585214529059
      ],
      [
        "Ġwant",
        -7.620720274932632
      ],
      [
        "Ġimportant",
        -7.623199241794395
      ],
      [
        "Ġgood",
        -7.627277895893095
      ],
      [
        "Ġhad",
        -7.629991221499619
      ],
      [
        "In",
        -7.632958152464764
      ],
      [
        "ĠâĢĵ",
        -7.635352185523744
      ],
      [
        "Ġsmall",
        -7.635885162247465
      ],
      [
        "Ġcause",
        -7.636091944246082
      ],
      [
        "Ġdoes",
        -7.645310722992048
      ],
      [
        "Ġhis",
        -7.648325063479095
      ],
      [
        "Ġprocess",
        -7.651596918948398
      ],
      [
        "Ġknow",
        -7.651609347005905
      ],
      [
        "Ġyears",
        -7.653467905744219
      ],
      [
        "Ġfood",
        -7.65626486599058
      ],
      [
        "Ġeach",
        -7.656298199143883
      ],
      [
        "ĠC",
        -7.657152546599771
      ],
      [
        "ĠYou",
        -7.660199437932703
      ],
      [
        "Ġarea",
        -7.661226894999547
      ],
      [
        "Ġafter",
        -7.698987005545327
      ],
      [
        "um",
        -7.703791970584933
      ],
      [
        "Ġstart",
        -7.711302900496878
      ],
      [
        "Ġlevel",
        -7.713752047049197
      ],
      [
        "g",
        -7.719302162603221
      ],
      [
        "Ġdesign",
        -7.723978150065487
      ],
      [
        "Ġworld",
        -7.728254856636436
      ],
      [
        "around",
        -7.735522653402225
      ],
      [
        "Ġcreate",
        -7.737427007057042
      ],
      [
        "out",
        -7.738885583008241
      ],
      [
        "Ġlarge",
        -7.753059372006087
      ],
      [
        "Ġdata",
        -7.754973780646088
      ],
      [
        "Ġfound",
        -7.75851404605508
      ],
      [
        "made",
        -7.762554523620801
      ],
      [
        "Ġbefore",
        -7.771284884427242
      ],
      [
        "Ġlife",
        -7.772284228924872
      ],
      [
        "Ġsam",
        -7.777344768787216
      ],
      [
        "Ġoften",
        -7.779930212670417
      ],
      [
        "Ġproblem",
        -7.785964948878511
      ],
      [
        "Ġthose",
        -7.78623790211556
      ],
      [
        "Ġthing",
        -7.786661447917453
      ],
      [
        "Ġdon",
        -7.786709249041215
      ],
      [
        "ĠB",
        -7.792047444569444
      ],
      [
        "%",
        -7.797023700688034
      ],
      [
        "Ġboth",
        -7.802337550492399
      ],
      [
        "Ġmaterial",
        -7.814757996347476
      ],
      [
        "Ġhuman",
        -7.828255425302926
      ],
      [
        "Ġright",
        -7.828333463985813
      ],
      [
        "Ġallow",
        -7.837456573367752
      ],
      [
        "us",
        -7.838735137014408
      ],
      [
        "Ġenergy",
        -7.839682071865385
      ],
      [
        "Ġbody",
        -7.841564950988619
      ],
      [
        "Ġlight",
        -7.844090599455312
      ],
      [
        "Ġpart",
        -7.844677799053116
      ],
      [
        "Ġnumber",
        -7.845181025342815
      ],
      [
        "Ġlook",
        -7.850186697843152
      ],
      [
        "Ġplace",
        -7.8512013205256785
      ],
      [
        "is",
        -7.853316626628459
      ],
      [
        "ion",
        -7.861321625780452
      ],
      [
        "ness",
        -7.864266308996521
      ],
      [
        "Ġcommon",
        -7.864694272115063
      ],
      [
        "f",
        -7.865509216715891
      ],
      [
        "Ġanimal",
        -7.867423521336363
      ],
      [
        "Ġbeing",
        -7.868015242145122
      ],
      [
        "Ġback",
        -7.868364042052622
      ],
      [
        "Ġkeep",
        -7.872344174865858
      ],
      [
        "Ġinformation",
        -7.873346205300742
      ],
      [
        "Ġform",
        -7.873348675979057
      ],
      [
        "Ġdown",
        -7.877413728773298
      ],
      [
        "What",
        -7.878237266142396
      ],
      [
        "Ġexample",
        -7.8828203906231
      ],
      [
        "),",
        -7.884914991643319
      ],
      [
        "Ġyear",
        -7.898257070276384
      ],
      [
        "Ġbest",
        -7.899643293909086
      ],
      [
        "Ġincrease",
        -7.904172278972561
      ],
      [
        "Ġfind",
        -7.904363151194603
      ],
      [
        "during",
        -7.907613172837628
      ],
      [
        "ll",
        -7.912653863959561
      ],
      [
        "h",
        -7.913115511531812
      ],
      [
        "S",
        -7.920584579317421
      ],
      [
        "Ġinclude",
        -7.926982934213515
      ],
      [
        "Ġlead",
        -7.928001501680629
      ],
      [
        "ation",
        -7.933688927451767
      ],
      [
        "Ġshow",
        -7.937702465403153
      ],
      [
        "Ġadd",
        -7.939960725849471
      ],
      [
        ":Ċ",
        -7.943890095955048
      ],
      [
        "Ġday",
        -7.94614044085352
      ],
      [
        "Ġsay",
        -7.947570755020425
      ],
      [
        "and",
        -7.949178723167519
      ],
      [
        "ĠWe",
        -7.951802627732317
      ],
      [
        "Ġmain",
        -7.953259254539582
      ],
      [
        "ĠFor",
        -7.955638260536149
      ],
      [
        "D",
        -7.956471359940035
      ],
      [
        "Ġtest",
        -7.958884222803374
      ],
      [
        "ic",
        -7.962045616888773
      ],
      [
        "Ġresearch",
        -7.962327201473563
      ],
      [
        "C",
        -7.962526068137007
      ],
      [
        "Ġplant",
        -7.963021721153449
      ],
      [
        "Ġexperience",
        -7.9699066481085294
      ],
      [
        "Ġus",
        -7.9708703171747155
      ],
      [
        "Ġunder",
        -7.9761651571885
      ],
      [
        "Ġsaid",
        -7.98309359913787
      ],
      [
        "(",
        -7.98560773221792
      ],
      [
        "Ġal",
        -7.988246560097934
      ],
      [
        "Ġpower",
        -7.994021992340402
      ],
      [
        "How",
        -7.994389072512123
      ],
      [
        "Ġmight",
        -7.997247258017757
      ],
      [
        "Ġspecies",
        -7.998187412668949
      ],
      [
        "ĠThese",
        -8.002367713194012
      ],
      [
        "Ġstudy",
        -8.004065419286976
      ],
      [
        "Ġnow",
        -8.016343799619136
      ],
      [
        "Ġfew",
        -8.021810663492962
      ],
      [
        "Ġsupport",
        -8.021823786694268
      ],
      [
        "Ġown",
        -8.028500493607753
      ],
      [
        "ĠS",
        -8.028867793993056
      ],
      [
        "ĠTo",
        -8.03143449546171
      ],
      [
        "Ġbetter",
        -8.032093463384548
      ],
      [
        "le",
        -8.035104689202482
      ],
      [
        "Ġhome",
        -8.035588395004076
      ],
      [
        "Ġstill",
        -8.044102362046845
      ],
      [
        "Ġgreat",
        -8.044728807532959
      ],
      [
        "Ġme",
        -8.0494217694066
      ],
      [
        "Ġproduct",
        -8.05284775224083
      ],
      [
        "Ġgrow",
        -8.054082049179918
      ],
      [
        "Ġbase",
        -8.054889079464584
      ],
      [
        "Ġcase",
        -8.055396295787208
      ],
      [
        "self",
        -8.05598368175697
      ],
      [
        "Ġplants",
        -8.057229137924201
      ],
      [
        "Ġher",
        -8.057244211975176
      ],
      [
        "Ġun",
        -8.061093230937647
      ],
      [
        "Ġincluding",
        -8.06401984528642
      ],
      [
        "Ġoff",
        -8.069257893575813
      ],
      [
        "one",
        -8.075724358392199
      ],
      [
        "Ġnatural",
        -8.081755914767687
      ],
      [
        "Ġcontrol",
        -8.083748824403333
      ],
      [
        "This",
        -8.085152903841264
      ],
      [
        "Ġstudents",
        -8.089766137044354
      ],
      [
        "Ġset",
        -8.092085711674322
      ],
      [
        "Ġrisk",
        -8.098178720643428
      ],
      [
        "...",
        -8.099851868702434
      ],
      [
        "Ġthink",
        -8.102559107043218
      ],
      [
        "Ġend",
        -8.111712820098973
      ],
      [
        "or",
        -8.112624598198613
      ],
      [
        "Ġagain",
        -8.114156010654629
      ],
      [
        "Ġissue",
        -8.11436371183771
      ],
      [
        "Ġless",
        -8.11675508166908
      ],
      [
        "Ġtoo",
        -8.116944902158188
      ],
      [
        "Ġeffect",
        -8.117592669849163
      ],
      [
        "ĠP",
        -8.122156441579754
      ],
      [
        "Ġknown",
        -8.12345672640761
      ],
      [
        "Ġmethod",
        -8.12831146570917
      ],
      [
        "Ġtype",
        -8.129158762228943
      ],
      [
        "Ġoffer",
        -8.130465322466893
      ],
      [
        "If",
        -8.131269383152176
      ],
      [
        "Ġspecific",
        -8.131787121712641
      ],
      [
        "Ġmaking",
        -8.134190067337666
      ],
      [
        "Ġprevent",
        -8.134295524189497
      ],
      [
        "Ġtemperature",
        -8.135350512687232
      ],
      [
        "ĠBut",
        -8.140435082884206
      ],
      [
        "Ġdog",
        -8.141368567660031
      ],
      [
        "Ġcurrent",
        -8.141572653310678
      ],
      [
        "Ġchildren",
        -8.143691825491597
      ],
      [
        "Ġsize",
        -8.14631307115361
      ],
      [
        "Ġresult",
        -8.147655005306685
      ],
      [
        "Ġsoil",
        -8.153052498955505
      ],
      [
        "Ġper",
        -8.153973747079696
      ],
      [
        "Ġcar",
        -8.159905816501016
      ],
      [
        "Ġpotential",
        -8.160203752928112
      ],
      [
        "Ġindividual",
        -8.162350540392108
      ],
      [
        "It",
        -8.16425636642822
      ],
      [
        "ability",
        -8.167513850858825
      ],
      [
        "Ġair",
        -8.17073921312899
      ],
      [
        "Ġgive",
        -8.172329289596153
      ],
      [
        "Ġear",
        -8.173505827682721
      ],
      [
        "Ġgroup",
        -8.17463984780724
      ],
      [
        "th",
        -8.184537626717852
      ],
      [
        "Ġmodel",
        -8.187843350596118
      ],
      [
        "Ġmust",
        -8.188527958514491
      ],
      [
        "est",
        -8.191767237159523
      ],
      [
        "Ġheat",
        -8.194651407709912
      ],
      [
        "Ġthree",
        -8.19509964785119
      ],
      [
        "Ġsurface",
        -8.197525388279526
      ],
      [
        "Ġprogram",
        -8.20042431170246
      ],
      [
        "Ġvalue",
        -8.20203517650273
      ],
      [
        "Ġfish",
        -8.205850975073222
      ],
      [
        "ĠD",
        -8.212175940335399
      ],
      [
        "an",
        -8.215975919507844
      ],
      [
        "Ġlow",
        -8.217370457390704
      ],
      [
        "Ġpoint",
        -8.217997620171035
      ],
      [
        "Ġsure",
        -8.221012783376267
      ],
      [
        "Ġwithin",
        -8.23074014530797
      ],
      [
        ":ĊĊ",
        -8.231215077933182
      ],
      [
        "Ġdue",
        -8.233738162318744
      ],
      [
        "Ġcome",
        -8.235345005806737
      ],
      [
        "Ġdevelop",
        -8.23567537125805
      ],
      [
        "b",
        -8.237168487054277
      ],
      [
        "Ġblood",
        -8.238027512487085
      ],
      [
        "âĢĻ",
        -8.238678259335021
      ],
      [
        "Ġline",
        -8.241769172996104
      ],
      [
        "Ġproject",
        -8.244704941300395
      ],
      [
        "p",
        -8.246712060529788
      ],
      [
        "x",
        -8.246998843088932
      ],
      [
        "Ġreduce",
        -8.25436939055084
      ],
      [
        "the",
        -8.254864321804668
      ],
      [
        "ĠWhen",
        -8.258571184646938
      ],
      [
        "Ġlearn",
        -8.258834363833927
      ],
      [
        "Ġwhy",
        -8.259335854114
      ],
      [
        "Ġspace",
        -8.259604838891239
      ],
      [
        "Ġbecome",
        -8.26036367854055
      ],
      [
        "ĠE",
        -8.263184887817586
      ],
      [
        "ary",
        -8.269784802313602
      ],
      [
        "Ġweek",
        -8.26994183739108
      ],
      [
        "Ġclose",
        -8.27341881849945
      ],
      [
        "Ġensure",
        -8.273517763160314
      ],
      [
        "Ġvarious",
        -8.273573075931445
      ],
      [
        "ĠThere",
        -8.275417784533527
      ],
      [
        "Ġfunction",
        -8.279719176885852
      ],
      [
        "Ġfield",
        -8.281592483969233
      ],
      [
        "ĠAnd",
        -8.2817535635108
      ],
      [
        "Ġcost",
        -8.283944356385081
      ],
      [
        "Ġschool",
        -8.286572009351005
      ],
      [
        "Ġrange",
        -8.287614099551792
      ],
      [
        "Ġcalled",
        -8.289440144838924
      ],
      [
        "Ġdisease",
        -8.290026213975327
      ],
      [
        "Ġusual",
        -8.293763662569429
      ],
      [
        "Ġplay",
        -8.294035528417636
      ],
      [
        "Ġreally",
        -8.29794443233757
      ],
      [
        "Ġamount",
        -8.30745006285876
      ],
      [
        "Ġimpact",
        -8.307855642567223
      ],
      [
        "Ġbenefit",
        -8.310005708397977
      ],
      [
        "Ġname",
        -8.312279414441825
      ],
      [
        "B",
        -8.31734325204777
      ],
      [
        "Ġsource",
        -8.318307954086297
      ],
      [
        "Ġcolor",
        -8.325113027499096
      ],
      [
        "Ġstate",
        -8.325354183340549
      ],
      [
        "ĠSo",
        -8.32857300104112
      ],
      [
        "Ġenvironment",
        -8.33279992306561
      ],
      [
        "Ġfollowing",
        -8.33387193619242
      ],
      [
        "Ġpossible",
        -8.333915368344895
      ],
      [
        "Ġhere",
        -8.335091282689323
      ],
      [
        "Ġdevice",
        -8.337417849525977
      ],
      [
        "Ġtry",
        -8.339526082593114
      ],
      [
        "day",
        -8.342529536999422
      ],
      [
        "u",
        -8.343825578994549
      ],
      [
        "Ġcare",
        -8.344360644703993
      ],
      [
        "Ġlot",
        -8.347475428311911
      ],
      [
        "Ġmeans",
        -8.35392115365157
      ],
      [
        "Ġtreatment",
        -8.357005129792032
      ],
      [
        "ĠM",
        -8.362724354541951
      ],
      [
        "Ġactual",
        -8.362916576011607
      ],
      [
        "Ġcells",
        -8.368844188076821
      ],
      [
        "Ġsignificant",
        -8.373319287175121
      ],
      [
        "less",
        -8.374266565736702
      ],
      [
        "Ġ$",
        -8.374488415045402
      ],
      [
        "Ġrequire",
        -8.374930849067614
      ],
      [
        "Ġorder",
        -8.379155152460092
      ],
      [
        "Ġdid",
        -8.379755186430149
      ],
      [
        "Ġimage",
        -8.381995904036089
      ],
      [
        "Ġlearning",
        -8.383019447426644
      ],
      [
        "something",
        -8.384897846839046
      ],
      [
        "Ġhard",
        -8.389794541607216
      ],
      [
        "Ġlittle",
        -8.391593665194303
      ],
      [
        "Ġtree",
        -8.394056968273317
      ],
      [
        "Ġshe",
        -8.395505764183063
      ],
      [
        "Ġlast",
        -8.400610999704238
      ],
      [
        "alway",
        -8.400999178692238
      ],
      [
        "Ġcontain",
        -8.401006573083961
      ],
      [
        "Ġopen",
        -8.404744002823655
      ],
      [
        "Ġnear",
        -8.405817283761273
      ],
      [
        "Ġavailable",
        -8.407837675705425
      ],
      [
        "Ġoption",
        -8.412823837265929
      ],
      [
        "ally",
        -8.413098048039462
      ],
      [
        "technology",
        -8.415811619127862
      ],
      [
        "ĠWhich",
        -8.41772857215206
      ],
      [
        "Ġleave",
        -8.418045995467672
      ],
      [
        "ĠT",
        -8.419971373209172
      ],
      [
        "Ġoil",
        -8.420107051392636
      ],
      [
        ",\"",
        -8.422753216141498
      ],
      [
        "Ġimprove",
        -8.427966228367332
      ],
      [
        "Ġperson",
        -8.429355620423685
      ],
      [
        "Ġgeneral",
        -8.431132738674917
      ],
      [
        "Ġaffect",
        -8.435194858284959
      ],
      [
        "Ġdevelopment",
        -8.43553026792566
      ],
      [
        "Ġessential",
        -8.449683057310073
      ],
      [
        "Ġcomplete",
        -8.451854325403424
      ],
      [
        "Ġfeel",
        -8.45217639992046
      ],
      [
        "T",
        -8.452931071472339
      ],
      [
        "Ġcertain",
        -8.454248035098857
      ],
      [
        "Ġrate",
        -8.455044134914223
      ],
      [
        "Ġuntil",
        -8.456841273748946
      ],
      [
        "Ġquality",
        -8.460840222287771
      ],
      [
        "Ġseveral",
        -8.46091162030634
      ],
      [
        "Ġ=",
        -8.462465430531818
      ],
      [
        "Ġside",
        -8.464725399795729
      ],
      [
        "Ġeffective",
        -8.465161526436134
      ],
      [
        "ment",
        -8.466448400568119
      ],
      [
        "Ġlive",
        -8.470601611737385
      ],
      [
        "ĠUniversity",
        -8.472959536358271
      ],
      [
        "en",
        -8.474355149083586
      ],
      [
        "Ġcourse",
        -8.479444684432092
      ],
      [
        "Ġgarden",
        -8.484563868775545
      ],
      [
        "enough",
        -8.485808155630117
      ],
      [
        "ry",
        -8.486290603878999
      ],
      [
        "k",
        -8.486952713293771
      ],
      [
        "Ġconsider",
        -8.49139588201465
      ],
      [
        "Ġpressure",
        -8.491946656277172
      ],
      [
        "Ġcommunit",
        -8.492694793356039
      ],
      [
        "Ġparticular",
        -8.493042660106315
      ],
      [
        "Ġpatient",
        -8.497264082519308
      ],
      [
        "Ġunderstand",
        -8.499727409796318
      ],
      [
        "Ġturn",
        -8.501320549586971
      ],
      [
        "Ġfree",
        -8.501622820558303
      ],
      [
        "hether",
        -8.501706858046248
      ],
      [
        "Ġconditions",
        -8.506665266904534
      ],
      [
        "Ġdifference",
        -8.506989450935103
      ],
      [
        "Ġtext",
        -8.508436921326835
      ],
      [
        "Ġlocal",
        -8.509120990726725
      ],
      [
        "Ġgrowth",
        -8.513740065458244
      ],
      [
        "Ġpresent",
        -8.514873455572612
      ],
      [
        "Ġteam",
        -8.517506210289188
      ],
      [
        "Ġterm",
        -8.51826838678439
      ],
      [
        "ĠHe",
        -8.518779636427963
      ],
      [
        "Ġsolution",
        -8.519592459124492
      ],
      [
        "ĠF",
        -8.522350007118742
      ],
      [
        "ĠAs",
        -8.523186879815785
      ],
      [
        "Ġfamily",
        -8.526612236782974
      ],
      [
        "Ġwide",
        -8.528032438709552
      ],
      [
        "Ġneeds",
        -8.530310879237218
      ],
      [
        "Ġtypes",
        -8.532797409060482
      ],
      [
        "Ġchild",
        -8.537430511002327
      ],
      [
        "Ġfocus",
        -8.5387636502333
      ],
      [
        "Ġdiet",
        -8.539799550295614
      ],
      [
        "v",
        -8.545900982556624
      ],
      [
        "Ġnon",
        -8.546479315759482
      ],
      [
        "Ġput",
        -8.548870438967867
      ],
      [
        "Ġmeasure",
        -8.550967972864655
      ],
      [
        "When",
        -8.552342711759385
      ],
      [
        "Ġtop",
        -8.552827188073064
      ],
      [
        "Ġkey",
        -8.553724568253113
      ],
      [
        "Ġevent",
        -8.556524616629574
      ],
      [
        "ĠBy",
        -8.558576221597068
      ],
      [
        "Ġsince",
        -8.560506561940688
      ],
      [
        "Ġalong",
        -8.56086752809053
      ],
      [
        "Ġaccess",
        -8.56240594997658
      ],
      [
        "Ġhappen",
        -8.562529143865815
      ],
      [
        "Ġaway",
        -8.562853397794363
      ],
      [
        "ĠWith",
        -8.564768585300332
      ],
      [
        "Ġeye",
        -8.565852715275033
      ],
      [
        "Ġlower",
        -8.568390499618907
      ],
      [
        "Ġhand",
        -8.569979603590415
      ],
      [
        "*",
        -8.572401213605975
      ],
      [
        "Ġcheck",
        -8.574967555065962
      ],
      [
        "Ġstructure",
        -8.576799117711744
      ],
      [
        "Ġobject",
        -8.578435524545597
      ],
      [
        "Ġcover",
        -8.582941055686032
      ],
      [
        "Ġ&",
        -8.586515316483256
      ],
      [
        "Ġhigher",
        -8.58664124027978
      ],
      [
        "!Ċ",
        -8.587022759818229
      ],
      [
        "Ġshort",
        -8.587148063399342
      ],
      [
        "Ġvariet",
        -8.590332664983785
      ],
      [
        "Ġnature",
        -8.59186948532458
      ],
      [
        "Ġremain",
        -8.593297604584576
      ],
      [
        "Ġw",
        -8.593616992571018
      ],
      [
        "Ġproper",
        -8.593781357334471
      ],
      [
        "Ġrole",
        -8.594087867260328
      ],
      [
        "Ġprotect",
        -8.596934663961038
      ],
      [
        "ĠThat",
        -8.59877825162404
      ],
      [
        "Ġweight",
        -8.606960711574235
      ],
      [
        "Ġmarket",
        -8.608184985762495
      ],
      [
        "Ġcat",
        -8.608561309955135
      ],
      [
        "Ġpopulation",
        -8.609790777240125
      ],
      [
        "ous",
        -8.610057181013289
      ],
      [
        "You",
        -8.611850036233854
      ],
      [
        "Ġtogether",
        -8.611994251377808
      ],
      [
        "Ġunique",
        -8.613199925048473
      ],
      [
        "Ġclear",
        -8.613433036874785
      ],
      [
        "Ġsimple",
        -8.614812388883696
      ],
      [
        "Ġtypical",
        -8.619071715109168
      ],
      [
        "P",
        -8.619359455466867
      ],
      [
        "Ġrun",
        -8.620766800412525
      ],
      [
        "Ġmakes",
        -8.620798231885118
      ],
      [
        "Ġlet",
        -8.621299895883649
      ],
      [
        "Ġage",
        -8.621465906060754
      ],
      [
        "Ġnormal",
        -8.622622604638506
      ],
      [
        "Ġfuture",
        -8.62472178223082
      ],
      [
        "Ġdays",
        -8.628820084739402
      ],
      [
        "next",
        -8.629494783658203
      ],
      [
        "Ġground",
        -8.629532912196643
      ],
      [
        "Ġsimilar",
        -8.6320376410467
      ],
      [
        "Ġworking",
        -8.632724619839827
      ],
      [
        "Ġseem",
        -8.633196304747072
      ],
      [
        "especial",
        -8.63666330060865
      ],
      [
        "F",
        -8.637775704576617
      ],
      [
        "Ġcomes",
        -8.638345195320134
      ],
      [
        "Ġsecond",
        -8.63890233272993
      ],
      [
        "Ġsafe",
        -8.644888961926078
      ],
      [
        "Ġforce",
        -8.645408037640754
      ],
      [
        "Ġhim",
        -8.646551053162096
      ],
      [
        "though",
        -8.652091428759633
      ],
      [
        "Ġsuggest",
        -8.653667186729962
      ],
      [
        "ĠU",
        -8.655607514408095
      ],
      [
        "Ġreal",
        -8.656122142560019
      ],
      [
        "Ġdirect",
        -8.656465281391206
      ],
      [
        "Ġeasy",
        -8.657612880099574
      ],
      [
        "Ġperiod",
        -8.659122564529898
      ],
      [
        "Ġcancer",
        -8.660705895663353
      ],
      [
        "Ġhealthy",
        -8.66094080446221
      ],
      [
        "Ġresults",
        -8.661844385596694
      ],
      [
        "Ġbalance",
        -8.663130385154087
      ],
      [
        "Ġchemical",
        -8.66337239905344
      ],
      [
        "having",
        -8.66471056030303
      ],
      [
        "E",
        -8.665939045629738
      ],
      [
        "Ġdepend",
        -8.66706641580879
      ],
      [
        "Ġfull",
        -8.667473864501224
      ],
      [
        "Ġphysical",
        -8.668490624410719
      ],
      [
        "Ġlikely",
        -8.669466162908783
      ],
      [
        "Ġproduce",
        -8.67026824315675
      ],
      [
        "Ġcontinue",
        -8.670946973575266
      ],
      [
        "Ġfactors",
        -8.672713267504466
      ],
      [
        "Ġask",
        -8.673880513332033
      ],
      [
        "Ġmove",
        -8.675429303972212
      ],
      [
        "Ġfollow",
        -8.675472614848703
      ],
      [
        "ĠR",
        -8.676617530649253
      ],
      [
        "Ġold",
        -8.677519721449679
      ],
      [
        "Ġheart",
        -8.681308884939941
      ],
      [
        "We",
        -8.683712506524785
      ],
      [
        "Ġmillion",
        -8.687445154607879
      ],
      [
        "Ġdoesn",
        -8.689541405887578
      ],
      [
        "Ġbuilding",
        -8.689681211577469
      ],
      [
        "Ġgas",
        -8.690477423453618
      ],
      [
        "Ġdamage",
        -8.693785825800074
      ],
      [
        "ĠYour",
        -8.693905714722465
      ],
      [
        "Ġskin",
        -8.69463533410574
      ],
      [
        "There",
        -8.694990797021457
      ],
      [
        "thing",
        -8.70009785387905
      ],
      [
        "Ġfact",
        -8.701841298712255
      ],
      [
        "Ġnever",
        -8.705197945612914
      ],
      [
        "Ġpublic",
        -8.708487657909801
      ],
      [
        "Ġactivit",
        -8.708567830584052
      ],
      [
        "another",
        -8.710292073368212
      ],
      [
        "Ġpaper",
        -8.712619404555166
      ],
      [
        "Ġclimate",
        -8.712637017472632
      ],
      [
        "Ġlove",
        -8.713319387754586
      ],
      [
        "Ġdifficult",
        -8.71415101671154
      ],
      [
        "stead",
        -8.714701025747441
      ],
      [
        "it",
        -8.715627245239888
      ],
      [
        "Ġplan",
        -8.717757944766262
      ],
      [
        "ive",
        -8.71920973228465
      ],
      [
        "Ġabove",
        -8.721399330343502
      ],
      [
        "Ġscience",
        -8.726055891268341
      ],
      [
        "Ġclean",
        -8.726193573062138
      ],
      [
        "Ġinterest",
        -8.726273759028683
      ],
      [
        "Ġstep",
        -8.727171234859139
      ],
      [
        "Ġproduction",
        -8.727588602331174
      ],
      [
        "To",
        -8.730168610014752
      ],
      [
        "Ġnecessar",
        -8.730652184055565
      ],
      [
        "Ġloss",
        -8.732983354479321
      ],
      [
        "Ġanswer",
        -8.733988223081537
      ],
      [
        "Ġkind",
        -8.735143559471215
      ],
      [
        "Ġacross",
        -8.735324618943453
      ],
      [
        "Ġreason",
        -8.736099676798613
      ],
      [
        "Ġbatter",
        -8.73670770134202
      ],
      [
        "Ġarticle",
        -8.739747160031248
      ],
      [
        "Ġrecommend",
        -8.739924787240383
      ],
      [
        "Ġcreat",
        -8.740434573060272
      ],
      [
        "most",
        -8.741393540696905
      ],
      [
        "Ġstrong",
        -8.74399803801576
      ],
      [
        "ers",
        -8.745894967752157
      ],
      [
        "least",
        -8.750880720218822
      ],
      [
        "Ġdogs",
        -8.75098186541475
      ],
      [
        "Ġdry",
        -8.751181967806417
      ],
      [
        "Ġtimes",
        -8.751707681648895
      ],
      [
        "Ġcontent",
        -8.752638106097944
      ],
      [
        "not",
        -8.752899102833528
      ],
      [
        "Ġblack",
        -8.755988663243919
      ],
      [
        "Ġmatter",
        -8.75773354083385
      ],
      [
        "Ġgiven",
        -8.759014483419449
      ],
      [
        "ĠNew",
        -8.759719087179247
      ],
      [
        "Ġdiscover",
        -8.7616193207414
      ],
      [
        "Ġresource",
        -8.762360711541293
      ],
      [
        "Ġwhite",
        -8.762726913721295
      ],
      [
        "Ġremove",
        -8.76286863501048
      ],
      [
        "ĠNo",
        -8.763068800596333
      ],
      [
        "Ġlist",
        -8.765514359999075
      ],
      [
        "ĠH",
        -8.767511173953388
      ],
      [
        "Ġhead",
        -8.768755259171932
      ],
      [
        "either",
        -8.769109460435452
      ],
      [
        "Ġbring",
        -8.771301972762577
      ],
      [
        "Ġcell",
        -8.772430540817776
      ],
      [
        "nother",
        -8.773054560085473
      ],
      [
        "Ġsocial",
        -8.774992884457207
      ],
      [
        "ĠSome",
        -8.775570502085536
      ],
      [
        "Ġsea",
        -8.776521443833875
      ],
      [
        "Ġwarm",
        -8.77661766958515
      ],
      [
        "ance",
        -8.778846490250789
      ],
      [
        "Ġbook",
        -8.778946697707106
      ],
      [
        "Ġamong",
        -8.780522689913045
      ],
      [
        "Ġaddition",
        -8.78284962730398
      ],
      [
        "Ġsingle",
        -8.78465397107297
      ],
      [
        "Ġmean",
        -8.784727782086787
      ],
      [
        "Ġdone",
        -8.7857505458027
      ],
      [
        "Ġaccording",
        -8.785953721740142
      ],
      [
        "Ġrecent",
        -8.78840088602259
      ],
      [
        "Ġbit",
        -8.789617875712516
      ],
      [
        "ĠW",
        -8.789668232726582
      ],
      [
        "Ġread",
        -8.790779423227889
      ],
      [
        "Ġquestion",
        -8.794693294659588
      ],
      [
        "Ġposition",
        -8.794949302051236
      ],
      [
        "Ġfar",
        -8.796325773688128
      ],
      [
        "Ġstore",
        -8.796621806315073
      ],
      [
        "Ġcondition",
        -8.798079418473163
      ],
      [
        "to",
        -8.800108135008777
      ],
      [
        "Ġvideo",
        -8.801003734918623
      ],
      [
        "For",
        -8.80347662213198
      ],
      [
        "Ġprotein",
        -8.803826560297797
      ],
      [
        "ĠAmerican",
        -8.804031435104482
      ],
      [
        "Ġregion",
        -8.80502601386286
      ],
      [
        "Ġavoid",
        -8.805279605263593
      ],
      [
        "Ġeat",
        -8.806343743044609
      ],
      [
        "Ġyoung",
        -8.81455000523345
      ],
      [
        "Ġmajor",
        -8.816234834834209
      ],
      [
        "Ġroom",
        -8.816721953365136
      ],
      [
        "Ġenvironmental",
        -8.818214189415354
      ],
      [
        "Ġexist",
        -8.81862412753748
      ],
      [
        "coming",
        -8.819366123987317
      ],
      [
        "ĠL",
        -8.819825035668162
      ],
      [
        "Ġparent",
        -8.823439973208375
      ],
      [
        "Ġspeed",
        -8.826100604160178
      ],
      [
        "Ġwomen",
        -8.827045352743088
      ],
      [
        "ĠBe",
        -8.828067324618768
      ],
      [
        "Ġsugar",
        -8.829328506960685
      ],
      [
        "ĠâĢĶ",
        -8.829407843124114
      ],
      [
        "Ġleft",
        -8.830674944243157
      ],
      [
        "Ġappear",
        -8.831871530139905
      ],
      [
        "Ġstandard",
        -8.832478943174756
      ],
      [
        "Ġaction",
        -8.835843870394294
      ],
      [
        "Ġtraining",
        -8.835896483388641
      ],
      [
        "z",
        -8.836030102413723
      ],
      [
        "Ġfall",
        -8.836260162531886
      ],
      [
        "Ġreach",
        -8.836544584675982
      ],
      [
        "Ġunderstanding",
        -8.838612239147757
      ],
      [
        ")ĊĊ",
        -8.839815748098545
      ],
      [
        "Ġsignal",
        -8.840504067462248
      ],
      [
        "Ġmetal",
        -8.840504326392917
      ],
      [
        "Ġenjoy",
        -8.842221673432121
      ],
      [
        "_",
        -8.843601876625272
      ],
      [
        "âĢĶ",
        -8.844629319534805
      ],
      [
        "Ġminute",
        -8.844771736935193
      ],
      [
        "Ġpattern",
        -8.84855426277704
      ],
      [
        "Ġcomputer",
        -8.849135648552373
      ],
      [
        "Ġfit",
        -8.85134183471523
      ],
      [
        ")Ċ",
        -8.851845890758403
      ],
      [
        "Ġthought",
        -8.85426816351114
      ],
      [
        "Ġfour",
        -8.854324381792509
      ],
      [
        "Ġstress",
        -8.856250611981297
      ],
      [
        "Ġgame",
        -8.857666743455912
      ],
      [
        "Ġpet",
        -8.85802607279414
      ],
      [
        "Ġdeep",
        -8.858443280672653
      ],
      [
        "Ġpersonal",
        -8.861952800819132
      ],
      [
        "Ġmention",
        -8.862826621873673
      ],
      [
        "Ġflower",
        -8.864759432886228
      ],
      [
        "Ġskills",
        -8.86663812686666
      ],
      [
        "Ġfurther",
        -8.86688023430701
      ],
      [
        "Ġadult",
        -8.867004143701433
      ],
      [
        "Ġapproach",
        -8.867442365927738
      ],
      [
        "age",
        -8.869819974323281
      ],
      [
        "Ġrequired",
        -8.871573927337433
      ],
      [
        "Ġlooking",
        -8.871674810041831
      ],
      [
        "Ġmaintain",
        -8.872088801944159
      ],
      [
        "Ġresearcher",
        -8.87264139969762
      ],
      [
        "Ġbelieve",
        -8.873098158298095
      ],
      [
        "Ġreport",
        -8.87407108217981
      ],
      [
        "Ġmoney",
        -8.876997982804108
      ],
      [
        "ĠAl",
        -8.87959602296296
      ],
      [
        "Ġshare",
        -8.881936336364163
      ],
      [
        "online",
        -8.882054984583272
      ],
      [
        "Ġred",
        -8.88437282906714
      ],
      [
        "Ġbasic",
        -8.88506457357385
      ],
      [
        "Ġmachine",
        -8.88573432350718
      ],
      [
        "Ġreceive",
        -8.886836150285571
      ],
      [
        "Ġstudie",
        -8.887110236616582
      ],
      [
        "Ġunit",
        -8.8886557739689
      ],
      [
        "Ġtoward",
        -8.889734050713887
      ],
      [
        "Ġpositive",
        -8.890562382619034
      ],
      [
        "Ġbusiness",
        -8.89075138160238
      ],
      [
        "Ġpurpose",
        -8.892097773163632
      ],
      [
        "Ġde",
        -8.892710254208783
      ],
      [
        "Ġperform",
        -8.894058592958347
      ],
      [
        "Ġlayer",
        -8.894122094379401
      ],
      [
        "Ġtalk",
        -8.895317519343592
      ],
      [
        "Ġservice",
        -8.896016223702192
      ],
      [
        "Ġorganic",
        -8.896286327250714
      ],
      [
        "Ġaverage",
        -8.89643811540004
      ],
      [
        "Ġcold",
        -8.897437746041028
      ],
      [
        "Ġmonths",
        -8.898673873610148
      ],
      [
        "Ġgreen",
        -8.899482130313972
      ],
      [
        "Ġ[",
        -8.901892650746776
      ],
      [
        "Ġassociate",
        -8.902378208089598
      ],
      [
        "Ġbig",
        -8.902440281987953
      ],
      [
        "Ġinfection",
        -8.902569270070103
      ],
      [
        "Ġliving",
        -8.903509063093505
      ],
      [
        "Ġbrain",
        -8.905187825737073
      ],
      [
        "Ġindustr",
        -8.90544056753076
      ],
      [
        "Ġfruit",
        -8.905464256075568
      ],
      [
        "Ġrecord",
        -8.9070466581907
      ],
      [
        "Ġinput",
        -8.907242367393152
      ],
      [
        "Ġtreat",
        -8.907263302572101
      ],
      [
        "Ġsymptoms",
        -8.907529168931317
      ],
      [
        "Ġpost",
        -8.907799736452112
      ],
      [
        "Ġchallenge",
        -8.911119356652376
      ],
      [
        "Ġface",
        -8.91249047538188
      ],
      [
        "Ġelectric",
        -8.914709205754143
      ],
      [
        "Ġinside",
        -8.91526592812681
      ],
      [
        "Ġperformance",
        -8.91685203153854
      ],
      [
        "ves",
        -8.91810253727154
      ],
      [
        "Ġtell",
        -8.91962041918654
      ],
      [
        "Ġgetting",
        -8.920052653165648
      ],
      [
        "M",
        -8.925848374146206
      ],
      [
        "ory",
        -8.92764776554898
      ],
      [
        "Ġcontact",
        -8.929761879655064
      ],
      [
        "Ġscientist",
        -8.929874080489196
      ],
      [
        "Ġbuy",
        -8.929985231445896
      ],
      [
        "Ġsun",
        -8.930267736082143
      ],
      [
        "Ġhistor",
        -8.930888325076367
      ],
      [
        "Ġcool",
        -8.936855162986285
      ],
      [
        "Ġcarbon",
        -8.93931724173412
      ],
      [
        "Ġwild",
        -8.939546908364843
      ],
      [
        "ful",
        -8.939924186362127
      ],
      [
        "Ġknowledge",
        -8.940468607767288
      ],
      [
        "ĠOne",
        -8.94176536420667
      ],
      [
        "Ġbelow",
        -8.94350059083144
      ],
      [
        "Ġways",
        -8.944900420514852
      ],
      [
        "Ġflow",
        -8.948030089083172
      ],
      [
        "Ġpain",
        -8.948172980100033
      ],
      [
        "Ġmedical",
        -8.948298137325867
      ],
      [
        "taking",
        -8.948657192118581
      ],
      [
        "Ġsense",
        -8.949418316593277
      ],
      [
        "Ġplastic",
        -8.950155673117221
      ],
      [
        "w",
        -8.956561847102268
      ],
      [
        "]",
        -8.957861701221827
      ],
      [
        "ctivities",
        -8.958177657545612
      ],
      [
        "Ġperfect",
        -8.9604208997888
      ],
      [
        "Ġwalk",
        -8.961007295706956
      ],
      [
        "Ġidea",
        -8.962376194196207
      ],
      [
        "So",
        -8.962871802206054
      ],
      [
        "already",
        -8.966041891729432
      ],
      [
        "Ġshape",
        -8.969833864271223
      ],
      [
        "Ġtools",
        -8.971652432617358
      ],
      [
        "Ġprovid",
        -8.972440526147986
      ],
      [
        "Ġentire",
        -8.975321395536952
      ],
      [
        "Ġstage",
        -8.975727863846013
      ],
      [
        "Ġprofessional",
        -8.976321063462876
      ],
      [
        "Ġitem",
        -8.976897214626455
      ],
      [
        "Ġselect",
        -8.978178879440755
      ],
      [
        "Ġbehavior",
        -8.978550318030377
      ],
      [
        "Ġfeatures",
        -8.978591780962645
      ],
      [
        "Ġfuel",
        -8.97863395912124
      ],
      [
        "Ġparts",
        -8.980163188235956
      ],
      [
        "Ġland",
        -8.980579939882091
      ],
      [
        "Ġself",
        -8.981935349060379
      ],
      [
        "Ġmanagement",
        -8.982103959602473
      ],
      [
        "ish",
        -8.982978468474855
      ],
      [
        "ember",
        -8.983539558772032
      ],
      [
        "Ġcut",
        -8.985877798718278
      ],
      [
        "Ġconsidered",
        -8.986032433401796
      ],
      [
        "Ġbegin",
        -8.986794230570636
      ],
      [
        "Ġcompany",
        -8.987838819221846
      ],
      [
        "Ġhours",
        -8.989036177326449
      ],
      [
        "Ġmind",
        -8.989839454614387
      ],
      [
        "refore",
        -8.989850974427592
      ],
      [
        "Ġcrucial",
        -8.990641858503148
      ],
      [
        "Ġopportunit",
        -8.99082411721622
      ],
      [
        "Ġseason",
        -8.991398737447028
      ],
      [
        "Ġdetermine",
        -8.991583817605518
      ],
      [
        "Ġclass",
        -8.991655601750708
      ],
      [
        "Ġpercent",
        -8.99224989064484
      ],
      [
        "Ġbuild",
        -8.993021830006299
      ],
      [
        "Ġoverall",
        -8.993640513635604
      ],
      [
        "Ġdoing",
        -8.994045924785855
      ],
      [
        "Ġlanguage",
        -8.995694508572484
      ],
      [
        "Ġfarm",
        -8.996802028727286
      ],
      [
        "Ġprice",
        -8.996808647681268
      ],
      [
        "Ġreturn",
        -8.9991412983373
      ],
      [
        "Ġsound",
        -9.000843465807545
      ],
      [
        "Ġpopular",
        -9.002088071738232
      ],
      [
        "Ġuser",
        -9.002150920374987
      ],
      [
        "Ġglobal",
        -9.004134419350429
      ],
      [
        ".\"ĊĊ",
        -9.008019497037656
      ],
      [
        "Ġhouse",
        -9.010584366140296
      ],
      [
        ".\"Ċ",
        -9.01076711964598
      ],
      [
        "afety",
        -9.013950528370046
      ],
      [
        "Ġinvolve",
        -9.014244061689627
      ],
      [
        "Ġquickly",
        -9.018333434214476
      ],
      [
        "Ġcorrect",
        -9.018487214468829
      ],
      [
        "Ġpast",
        -9.019188042900762
      ],
      [
        "Ġcall",
        -9.021132678377793
      ],
      [
        "Ġresponse",
        -9.02248601673626
      ],
      [
        "Ġmovement",
        -9.0228658156338
      ],
      [
        "Ġauthor",
        -9.023758313489775
      ],
      [
        "Ġpay",
        -9.024337876870833
      ],
      [
        "Ġdescribe",
        -9.025227327441726
      ],
      [
        "Ġwhole",
        -9.025590941985923
      ],
      [
        "Ġview",
        -9.026969202263764
      ],
      [
        "Ġeducation",
        -9.02772662164953
      ],
      [
        "Ġprint",
        -9.030666834352326
      ],
      [
        "Ġp",
        -9.030740377655846
      ],
      [
        "+",
        -9.031565391481138
      ],
      [
        "Ġrelative",
        -9.031685965147576
      ],
      [
        "Ġtraditional",
        -9.032012167642431
      ],
      [
        "Ġchoose",
        -9.03331291875988
      ],
      [
        "âĢĵ",
        -9.033838164851398
      ],
      [
        "Ġnetwork",
        -9.034910641434008
      ],
      [
        "Ġsetting",
        -9.035038134374728
      ],
      [
        "Ġeasily",
        -9.036784786870127
      ],
      [
        "Ġthroughout",
        -9.039064930458668
      ],
      [
        ").Ċ",
        -9.040018339446458
      ],
      [
        "Ġstrateg",
        -9.040311761115134
      ],
      [
        "Ġcomplex",
        -9.04189790773299
      ],
      [
        "hind",
        -9.042981450345549
      ],
      [
        "Ġstay",
        -9.043401938963404
      ],
      [
        "Ġwinter",
        -9.046042486003095
      ],
      [
        "Ġothers",
        -9.050280891386205
      ],
      [
        "Ġtask",
        -9.052037581266696
      ],
      [
        "Ġglass",
        -9.05220476585454
      ],
      [
        "Ġrelated",
        -9.054332633103716
      ],
      [
        "Ġplayer",
        -9.054736245833274
      ],
      [
        "Ġmonitor",
        -9.054918426530875
      ],
      [
        "ĠDo",
        -9.055731648930692
      ],
      [
        "Ġgot",
        -9.055934394145469
      ],
      [
        "Ġthough",
        -9.056136764902472
      ],
      [
        "Ġcode",
        -9.05814161402261
      ],
      [
        "Ġbreak",
        -9.05896553973242
      ],
      [
        "ĠWhil",
        -9.059482171839534
      ],
      [
        "-base",
        -9.060747708182978
      ],
      [
        "R",
        -9.061645722926816
      ],
      [
        "Ġspecial",
        -9.062070778757604
      ],
      [
        "by",
        -9.062761597186586
      ],
      [
        "ĠG",
        -9.06364735073204
      ],
      [
        "Ġetc",
        -9.063909954309445
      ],
      [
        "Ġstop",
        -9.064213288510174
      ],
      [
        "Ġengine",
        -9.064237789191798
      ],
      [
        "Ġmodern",
        -9.06490185482462
      ],
      [
        "Ġaddress",
        -9.065264398732586
      ],
      [
        "Ġelements",
        -9.068362017320254
      ],
      [
        "Ġstatement",
        -9.07141849920435
      ],
      [
        "Ġactive",
        -9.072049623322062
      ],
      [
        "Ġoutside",
        -9.072109887820334
      ],
      [
        "Ġvisit",
        -9.072546751880212
      ],
      [
        "Ġmultiple",
        -9.0754284741182
      ],
      [
        "Ġrelationship",
        -9.07593595164492
      ],
      [
        "Ġrelease",
        -9.077634500197984
      ],
      [
        "Ġprobabl",
        -9.080792301549668
      ],
      [
        "Ġprimary",
        -9.083468959302593
      ],
      [
        "Ġsoftware",
        -9.085121836005218
      ],
      [
        "Ġever",
        -9.085311254175924
      ],
      [
        "Ġwaste",
        -9.085696231956046
      ],
      [
        "ĠAn",
        -9.087261625428274
      ],
      [
        "where",
        -9.08778356432626
      ],
      [
        "Ġwall",
        -9.088648336660892
      ],
      [
        "N",
        -9.089233465299584
      ],
      [
        "Ġtechniques",
        -9.090302732053033
      ],
      [
        "Ġwear",
        -9.090541356836932
      ],
      [
        "Ġlimit",
        -9.091252930051748
      ],
      [
        "Ġincreasing",
        -9.091685254470171
      ],
      [
        "Ġoriginal",
        -9.094291241279508
      ],
      [
        "Ġdaily",
        -9.095949398615913
      ],
      [
        "Ġsubject",
        -9.097435855442209
      ],
      [
        "Ġcamera",
        -9.097827556428808
      ],
      [
        "Ġpractice",
        -9.097990054414865
      ],
      [
        "Ġserve",
        -9.097997368531662
      ],
      [
        "Ġbirds",
        -9.09916605515
      ],
      [
        "Ġfeed",
        -9.101362873465746
      ],
      [
        "Ġregard",
        -9.102249894327548
      ],
      [
        "Ġwebsite",
        -9.103782388349655
      ],
      [
        "Ġexpert",
        -9.105168811690064
      ],
      [
        "Ġtotal",
        -9.105922518632886
      ],
      [
        "Ġequipment",
        -9.106612934193608
      ],
      [
        "ten",
        -9.106729939272771
      ],
      [
        "Ġexplain",
        -9.108894147426724
      ],
      [
        "ĠHere",
        -9.10898001763309
      ],
      [
        "Ġfeet",
        -9.109169630596355
      ],
      [
        "Ġcountry",
        -9.109386967686806
      ],
      [
        "Ġbad",
        -9.110069898633176
      ],
      [
        "Ġsensor",
        -9.110129900811174
      ],
      [
        "Ġattention",
        -9.110512049958077
      ],
      [
        "Ġextreme",
        -9.113205962279707
      ],
      [
        "Ġeyes",
        -9.115278608062852
      ],
      [
        "ĠEarth",
        -9.115394575057238
      ],
      [
        "Ġhelps",
        -9.11702685178037
      ],
      [
        "Ġlength",
        -9.117573776494508
      ],
      [
        "Ġquestions",
        -9.118120959349664
      ],
      [
        "Ġachieve",
        -9.118643197597493
      ],
      [
        "Ġbreed",
        -9.11892064494108
      ],
      [
        "simply",
        -9.119142027855318
      ],
      [
        "Ġsite",
        -9.12167412764976
      ],
      [
        "Ġexplore",
        -9.1240853662548
      ],
      [
        "Ġregular",
        -9.124520708664791
      ],
      [
        "Ġice",
        -9.129271295402926
      ],
      [
        "Ġspread",
        -9.129937343137655
      ],
      [
        "ĠNational",
        -9.13091444865
      ],
      [
        "Ġgenetic",
        -9.131201215531732
      ],
      [
        "Ġam",
        -9.132052225151549
      ],
      [
        "Ġdigital",
        -9.13205615963258
      ],
      [
        "Ġblue",
        -9.132344324222291
      ],
      [
        "Ġsleep",
        -9.134622523838138
      ],
      [
        "O",
        -9.135445382399851
      ],
      [
        "Ġrepresent",
        -9.135742245980223
      ],
      [
        "Ġacid",
        -9.136505116776146
      ],
      [
        "V",
        -9.137439416038058
      ],
      [
        "Ġweather",
        -9.137659098376176
      ],
      [
        "ĠCan",
        -9.139207498330933
      ],
      [
        "Ġmilk",
        -9.141436772796578
      ],
      [
        "ĠOn",
        -9.146450656728964
      ],
      [
        "ather",
        -9.149130063458816
      ],
      [
        "Ġanalysis",
        -9.149765516514549
      ],
      [
        "Why",
        -9.150011302364476
      ],
      [
        "Ġthemsel",
        -9.151259596719711
      ],
      [
        "Ġyet",
        -9.152628577509333
      ],
      [
        "Ġact",
        -9.15273548855714
      ],
      [
        "Ġexercise",
        -9.1527429702109
      ],
      [
        "Ġrock",
        -9.15336656473266
      ],
      [
        "Ġtissue",
        -9.155023063066515
      ],
      [
        "Ġreduc",
        -9.155269842870627
      ],
      [
        "Ġadditional",
        -9.156475475212734
      ],
      [
        "Ġidentify",
        -9.157081911854227
      ],
      [
        "Ġprevious",
        -9.157081922165483
      ],
      [
        "Ġgain",
        -9.15885035223119
      ],
      [
        "Ġhold",
        -9.161843703074204
      ],
      [
        "Ġbrand",
        -9.1625979575922
      ],
      [
        "Ġbaby",
        -9.163394777132222
      ],
      [
        "As",
        -9.164720302919465
      ],
      [
        "Ġanything",
        -9.165025918136177
      ],
      [
        "Ġhalf",
        -9.16701192028491
      ],
      [
        "Ġdrive",
        -9.16863589941584
      ],
      [
        "Ġorganization",
        -9.1691949941935
      ],
      [
        "quite",
        -9.17083905666284
      ],
      [
        "Ġsummer",
        -9.171415857038149
      ],
      [
        "Ġpre",
        -9.171510257231322
      ],
      [
        "Ġfive",
        -9.172137314493774
      ],
      [
        "Ġslow",
        -9.172229568594306
      ],
      [
        "ĠK",
        -9.172464675309794
      ],
      [
        "Ġteeth",
        -9.173566239559342
      ],
      [
        "Ġcustomer",
        -9.174537721867557
      ],
      [
        "Ġsometime",
        -9.17467405007285
      ],
      [
        "Ġdecision",
        -9.17697969191255
      ],
      [
        "Ġoutput",
        -9.179887520397468
      ],
      [
        "Ġlater",
        -9.182745582809144
      ],
      [
        "Ġcenter",
        -9.182838730403844
      ],
      [
        "Ġguide",
        -9.184595480171293
      ],
      [
        "Ġtool",
        -9.185844391102783
      ],
      [
        "Ġphase",
        -9.186054060163125
      ],
      [
        "Ġisn",
        -9.18620088119294
      ],
      [
        "âĢ¦",
        -9.187063036147528
      ],
      [
        "Ġreading",
        -9.18863255967143
      ],
      [
        "Ġstudent",
        -9.188662350478314
      ],
      [
        "ĠAt",
        -9.188769719044435
      ],
      [
        "Ġexact",
        -9.192732670347697
      ],
      [
        "ĠJ",
        -9.19510651072224
      ],
      [
        "H",
        -9.195962275274692
      ],
      [
        "Ġfactor",
        -9.196108343727197
      ],
      [
        ".S",
        -9.196796978163434
      ],
      [
        "Ġhot",
        -9.199380775617858
      ],
      [
        "Ġago",
        -9.199583815228948
      ],
      [
        "Ġchoice",
        -9.199658627585483
      ],
      [
        "Ġgenerate",
        -9.204490617821197
      ],
      [
        "Ġadvantage",
        -9.204730540620051
      ],
      [
        "ĠAll",
        -9.205889299120798
      ],
      [
        "Ġmass",
        -9.206349971123348
      ],
      [
        "Ġart",
        -9.208782749409334
      ],
      [
        "K",
        -9.208913095606386
      ],
      [
        "Ġfast",
        -9.209732881280438
      ],
      [
        "Ġconcept",
        -9.212797101903284
      ],
      [
        "Ġsuccessful",
        -9.21350805417839
      ],
      [
        "Ġnegative",
        -9.214611711237726
      ],
      [
        "ĠJapan",
        -9.214644007033684
      ],
      [
        "Ġhear",
        -9.216504275653389
      ],
      [
        "Ġfemale",
        -9.217054838269114
      ],
      [
        "at",
        -9.218466326747834
      ],
      [
        "man",
        -9.220418413092842
      ],
      [
        "Ġfresh",
        -9.220929317074798
      ],
      [
        "ar",
        -9.221032902123088
      ],
      [
        "Ġvehicle",
        -9.22105909213672
      ],
      [
        "ok",
        -9.222219979138934
      ],
      [
        "One",
        -9.22230473902692
      ],
      [
        "Ġfun",
        -9.223704467220262
      ],
      [
        "Ġmix",
        -9.224126461341076
      ],
      [
        "Ġfile",
        -9.226207972084374
      ],
      [
        "Ġtravel",
        -9.227531359612508
      ],
      [
        "Ġservices",
        -9.228583230206478
      ],
      [
        "Ġcaus",
        -9.231082893110086
      ],
      [
        "Ġspring",
        -9.231297608254742
      ],
      [
        "DNA",
        -9.231596795065954
      ],
      [
        "Ġocean",
        -9.232816410634271
      ],
      [
        "ĠN",
        -9.23284831520463
      ],
      [
        "Ġdistance",
        -9.233437505762126
      ],
      [
        "Ġappropriate",
        -9.237076671184193
      ],
      [
        "ĠHealth",
        -9.237278710506686
      ],
      [
        "Ġnight",
        -9.237327155785298
      ],
      [
        "Ġtarget",
        -9.23754441634562
      ],
      [
        "Ġboard",
        -9.23938965600994
      ],
      [
        "Ġwon",
        -9.240098155631966
      ],
      [
        "ĠStates",
        -9.241286531150315
      ],
      [
        "Ġconcern",
        -9.241575197880463
      ],
      [
        "Ġdidn",
        -9.2417288668776
      ],
      [
        "Ġdirection",
        -9.24185188406338
      ],
      [
        "Ġcountr",
        -9.24264761809784
      ],
      [
        "Ġbird",
        -9.243339382993309
      ],
      [
        "ĠDr",
        -9.243472587214637
      ],
      [
        "Ġcompare",
        -9.24738137086123
      ],
      [
        "Ġefficient",
        -9.248907589973625
      ],
      [
        "Ġapplications",
        -9.249729987288305
      ],
      [
        "ĠâĢľ",
        -9.251003633178543
      ],
      [
        "Ġapplication",
        -9.252177328654817
      ],
      [
        "Ġcommunication",
        -9.25280610810464
      ],
      [
        "Ġcircuit",
        -9.254981025696209
      ],
      [
        "Ġdisplay",
        -9.255143825563296
      ],
      [
        "Ġdrink",
        -9.255473432826532
      ],
      [
        "Ġfinal",
        -9.256758028690903
      ],
      [
        "ĠAfter",
        -9.259380647877274
      ],
      [
        "Ġfire",
        -9.259882149697091
      ],
      [
        "Ġconstant",
        -9.26363252348616
      ],
      [
        "Ġpass",
        -9.264891983229903
      ],
      [
        "Ġdur",
        -9.26677123657571
      ],
      [
        "Ġiron",
        -9.269145643171058
      ],
      [
        "Ġdoctor",
        -9.270634026567183
      ],
      [
        "Ġgovernment",
        -9.271775497292705
      ],
      [
        "Ġbank",
        -9.272062084963292
      ],
      [
        "Ġextra",
        -9.27422039538039
      ],
      [
        "Ġaccount",
        -9.275018948057298
      ],
      [
        "ĠV",
        -9.275747347412702
      ],
      [
        "Ġbacteria",
        -9.276914974372618
      ],
      [
        "Ġapplie",
        -9.278809214654718
      ],
      [
        "Ġtrue",
        -9.279079663980712
      ],
      [
        "Ġharm",
        -9.281052830010042
      ],
      [
        "land",
        -9.281302462638276
      ],
      [
        "Ġreaction",
        -9.282717378615413
      ],
      [
        "Ġwords",
        -9.28575189774931
      ],
      [
        "Ġconduct",
        -9.286310402042131
      ],
      [
        "Ġliquid",
        -9.28650308060192
      ],
      [
        "Ġfriend",
        -9.286594878106222
      ],
      [
        "Ġrice",
        -9.287388163108272
      ],
      [
        "Ġmeet",
        -9.287394211443496
      ],
      [
        "Ġcomponents",
        -9.287624060749051
      ],
      [
        "Ġ+",
        -9.28775891180627
      ],
      [
        "Ġteacher",
        -9.28777438086081
      ],
      [
        "Ġindicate",
        -9.290806329691447
      ],
      [
        "Ġprocesse",
        -9.2918105660508
      ],
      [
        "ĠAI",
        -9.292870446890516
      ],
      [
        "Ġequal",
        -9.294654098643214
      ],
      [
        "Ġeasie",
        -9.296983603424351
      ],
      [
        "ism",
        -9.29782921003956
      ],
      [
        "Ġnoise",
        -9.298309640195876
      ],
      [
        "Ġpage",
        -9.298653244869676
      ],
      [
        "Ġapply",
        -9.299037280799508
      ],
      [
        "L",
        -9.301521280780085
      ],
      [
        "Ġdiscuss",
        -9.303130531910869
      ],
      [
        "Ġbox",
        -9.303608333499502
      ],
      [
        "Ġkids",
        -9.304830987746096
      ],
      [
        "Ġcarry",
        -9.306175386626496
      ],
      [
        "Ġhole",
        -9.306365777812957
      ],
      [
        "Ġchance",
        -9.306566747964062
      ],
      [
        "Ġsolar",
        -9.306744370541193
      ],
      [
        "Ġcharge",
        -9.309734936776298
      ],
      [
        "Ġdiseases",
        -9.310127430664163
      ],
      [
        "Ġevidence",
        -9.310424405637544
      ],
      [
        "Ġload",
        -9.311773242330602
      ],
      [
        "Ġblock",
        -9.312314681059718
      ],
      [
        "Ġproduced",
        -9.313546075988944
      ],
      [
        "Ġinfluence",
        -9.314561382438551
      ],
      [
        "Ġlink",
        -9.314623659081754
      ],
      [
        "Ġfine",
        -9.314660816187091
      ],
      [
        "ĠMore",
        -9.31549753384472
      ],
      [
        "Ġoccur",
        -9.31584873454291
      ],
      [
        "ĠNorth",
        -9.31589659408833
      ],
      [
        "Ġmoment",
        -9.316898131506512
      ],
      [
        "Ġsustainabl",
        -9.31696821284751
      ],
      [
        "Ġserious",
        -9.31703091846902
      ],
      [
        "Ġreview",
        -9.318242797448908
      ],
      [
        "Ġmembers",
        -9.318556168828868
      ],
      [
        "Ġsave",
        -9.321573671765242
      ],
      [
        "fish",
        -9.321882495519098
      ],
      [
        "Ġwave",
        -9.324440871266283
      ],
      [
        "Ġlack",
        -9.325170491570413
      ],
      [
        "Ġmale",
        -9.325220389880052
      ],
      [
        "Ġnotice",
        -9.325394429203856
      ],
      [
        "Ġstand",
        -9.326815057250345
      ],
      [
        "Ġtable",
        -9.328323004397982
      ],
      [
        "Their",
        -9.329907444705883
      ],
      [
        "Ġsupply",
        -9.330521849873662
      ],
      [
        "âĢĿ",
        -9.330697936057083
      ],
      [
        "Ġfront",
        -9.331037721376497
      ],
      [
        "ĠO",
        -9.33181566208415
      ],
      [
        "Ġsuccess",
        -9.334452710565962
      ],
      [
        "Ġmonth",
        -9.334536744420332
      ],
      [
        "Ġrunning",
        -9.33476709122036
      ],
      [
        "Ġfeature",
        -9.334898465490197
      ],
      [
        "Ġfill",
        -9.335055512467232
      ],
      [
        "Ġpromote",
        -9.33513657362933
      ],
      [
        "Ġexperiment",
        -9.33644990248724
      ],
      [
        "But",
        -9.336471721801674
      ],
      [
        "Ġdark",
        -9.33673739061618
      ],
      [
        "Â°",
        -9.337843025124364
      ],
      [
        "Ġstyle",
        -9.337909248130368
      ],
      [
        "Ġmental",
        -9.33812186098728
      ],
      [
        "Ġlocation",
        -9.342879109509129
      ],
      [
        "Ġpest",
        -9.34347793480474
      ],
      [
        "ĠYes",
        -9.343907493584387
      ],
      [
        "G",
        -9.34408546014074
      ],
      [
        "Ġattack",
        -9.345555150509693
      ],
      [
        "Ġfilter",
        -9.346134126691688
      ],
      [
        "Ġalternative",
        -9.346203055475724
      ],
      [
        "Ġrest",
        -9.348088138480865
      ],
      [
        "Ġword",
        -9.34852622389974
      ],
      [
        "Ġelse",
        -9.3503065954427
      ],
      [
        "Ġaspect",
        -9.352045684593064
      ],
      [
        "ĠUS",
        -9.353531617343483
      ],
      [
        "Ġdeal",
        -9.354009337067044
      ],
      [
        "Ġpiece",
        -9.354503676795703
      ],
      [
        "Ġpoor",
        -9.355029336041769
      ],
      [
        "Ġculture",
        -9.355953981295446
      ],
      [
        "ĠShe",
        -9.356024436183503
      ],
      [
        "Ġextend",
        -9.35625412567276
      ],
      [
        "Ġfat",
        -9.356280876223082
      ],
      [
        "ĠUse",
        -9.358207006766335
      ],
      [
        "Ġcontribute",
        -9.358956533747524
      ],
      [
        "Ġdi",
        -9.359861394703106
      ],
      [
        "Ġpull",
        -9.360514294027702
      ],
      [
        "Ġbuilt",
        -9.361253694939515
      ],
      [
        "Ġaim",
        -9.36248489054612
      ],
      [
        "Ġoperation",
        -9.36257517921318
      ],
      [
        "Ġmuscle",
        -9.363476886170858
      ],
      [
        "Ġmanage",
        -9.364074217006896
      ],
      [
        "Ġeggs",
        -9.364354881752387
      ],
      [
        "cy",
        -9.365089957596965
      ],
      [
        "Ġlives",
        -9.36531930052738
      ],
      [
        "Ġvisual",
        -9.365412397056495
      ],
      [
        "ĠCenter",
        -9.365437176949122
      ],
      [
        "Ġpropert",
        -9.368116777099644
      ],
      [
        "Ġstrength",
        -9.36841775220687
      ],
      [
        "Ġmusic",
        -9.3688071999152
      ],
      [
        "Ġvision",
        -9.369780210444148
      ],
      [
        "Ġroot",
        -9.369839355496485
      ],
      [
        "Ġstem",
        -9.370116197491708
      ],
      [
        "Ġcombination",
        -9.370248553124348
      ],
      [
        "W",
        -9.370529689800616
      ],
      [
        "Ġsmooth",
        -9.371701302575286
      ],
      [
        "Ġestablish",
        -9.372720696434092
      ],
      [
        "more",
        -9.374403598661267
      ],
      [
        "ian",
        -9.376186035628471
      ],
      [
        "Ġideal",
        -9.378218297156112
      ],
      [
        "Ġfoot",
        -9.378854734334515
      ],
      [
        "Ġgoe",
        -9.38166765811234
      ],
      [
        "ĠResearch",
        -9.381750283530613
      ],
      [
        "Ġgreater",
        -9.383030714138958
      ],
      [
        "Ġraise",
        -9.383193699222875
      ],
      [
        "Ġscientific",
        -9.385885650273591
      ],
      [
        "\\",
        -9.387192610674576
      ],
      [
        "Ġvitamin",
        -9.38736975831224
      ],
      [
        "Ġtaste",
        -9.387648404394644
      ],
      [
        "ĠAmerica",
        -9.38899448033764
      ],
      [
        "Ġcount",
        -9.3890342701611
      ],
      [
        "Ġman",
        -9.389901391721963
      ],
      [
        "Whil",
        -9.390048841437038
      ],
      [
        "Ġworks",
        -9.390222437195472
      ],
      [
        "Ġeating",
        -9.390371679351873
      ],
      [
        "ĠSouth",
        -9.392034379021416
      ],
      [
        "Ġspot",
        -9.39241609751256
      ],
      [
        "life",
        -9.392916718519876
      ],
      [
        "Ġjob",
        -9.394014641220457
      ],
      [
        "Ġmedia",
        -9.394792724239256
      ],
      [
        "ma",
        -9.394942351133553
      ],
      [
        "Ġcompar",
        -9.395206953663056
      ],
      [
        "ĠX",
        -9.396368028958236
      ],
      [
        "Ġsoft",
        -9.397442271425891
      ],
      [
        "Ġleg",
        -9.397572491227413
      ],
      [
        "Ġlate",
        -9.398146442587102
      ],
      [
        "mm",
        -9.399470684752464
      ],
      [
        "Ġmechanism",
        -9.399556625036393
      ],
      [
        "Ġenter",
        -9.3997747048325
      ],
      [
        "Ġpick",
        -9.400415835915188
      ],
      [
        "Ġshows",
        -9.400679443929295
      ],
      [
        "Ġgoal",
        -9.401753497931017
      ],
      [
        "Ġtransport",
        -9.401782826694404
      ],
      [
        "Ġdeath",
        -9.403576201290704
      ],
      [
        "Ġemission",
        -9.40414759865072
      ],
      [
        "Ġplanet",
        -9.405100675483794
      ],
      [
        "Ġwind",
        -9.405351002679136
      ],
      [
        "Ġcompound",
        -9.40596361500054
      ],
      [
        "companie",
        -9.408093332659591
      ],
      [
        "ĠFrom",
        -9.408391591932546
      ],
      [
        "once",
        -9.40878682597716
      ],
      [
        "Ġscale",
        -9.409034158408232
      ],
      [
        "Ġdetect",
        -9.409600587400163
      ],
      [
        "Ġdecrease",
        -9.410267026216884
      ],
      [
        "Each",
        -9.41087665263654
      ],
      [
        ">",
        -9.412490014009231
      ],
      [
        "Ġcritical",
        -9.413061961228127
      ],
      [
        "Ġnumbers",
        -9.413497618077674
      ],
      [
        "Ġnote",
        -9.414512520205202
      ],
      [
        "[",
        -9.414953268141506
      ],
      [
        "Ġelement",
        -9.4166718287526
      ],
      [
        "Ġensur",
        -9.41676984491773
      ],
      [
        "Ġbag",
        -9.417969354499837
      ],
      [
        "tenance",
        -9.417978746479344
      ],
      [
        "Ġclaim",
        -9.418764405995091
      ],
      [
        "Ġuseful",
        -9.419103820317527
      ],
      [
        "Ġcharacteristic",
        -9.42122127852101
      ],
      [
        "Ġvegetables",
        -9.421322097360914
      ],
      [
        "Ġinstall",
        -9.422868594263864
      ],
      [
        "Ġsign",
        -9.42340922583694
      ],
      [
        "Ġparticle",
        -9.423418024691784
      ],
      [
        "Ġinvolved",
        -9.423863582582722
      ],
      [
        "Ġslight",
        -9.424149162284822
      ],
      [
        "Ġsix",
        -9.425055728322311
      ],
      [
        "Ġphone",
        -9.426720012297396
      ],
      [
        "Ġhost",
        -9.42763923288372
      ],
      [
        "Ġcontainer",
        -9.427781005396064
      ],
      [
        "ĠMost",
        -9.429080182077778
      ],
      [
        "Ġbottom",
        -9.42950382748407
      ],
      [
        "Ġimmediate",
        -9.42987925667753
      ],
      [
        "Ġelectrical",
        -9.430646627277726
      ],
      [
        "ĠScience",
        -9.430655584179297
      ],
      [
        "of",
        -9.433145628075266
      ],
      [
        "Ġdraw",
        -9.4331912248225
      ],
      [
        "Ġwatch",
        -9.433695737836011
      ],
      [
        "Ġstory",
        -9.43396076547091
      ],
      [
        "Ġrequirements",
        -9.434325802465224
      ],
      [
        "Ġgeneration",
        -9.435018015465442
      ],
      [
        ".\"",
        -9.43541670591587
      ],
      [
        "ĠMany",
        -9.438025243318432
      ],
      [
        "Ġdisorder",
        -9.438027436150072
      ],
      [
        "Ġhope",
        -9.43822747321602
      ],
      [
        "Ġscreen",
        -9.441170004716575
      ],
      [
        "Ġconsist",
        -9.442244011772829
      ],
      [
        "Ġcolors",
        -9.442874131236156
      ],
      [
        "Ġcycle",
        -9.444142325740463
      ],
      [
        "Ġversion",
        -9.444275909291774
      ],
      [
        "With",
        -9.444581550785474
      ],
      [
        "Ġaccurate",
        -9.4449245757527
      ],
      [
        "Can",
        -9.445015879453898
      ],
      [
        "Ġrich",
        -9.44770006700722
      ],
      [
        "Ġerror",
        -9.447735916143998
      ],
      [
        "Ġconsumpti",
        -9.448929338475688
      ],
      [
        "Ġvary",
        -9.449503672395796
      ],
      [
        "Ġsearch",
        -9.450415170940488
      ],
      [
        "be",
        -9.450461040613837
      ],
      [
        "-to",
        -9.450466859921324
      ],
      [
        "Ġseparate",
        -9.451095242597669
      ],
      [
        "Ġmoving",
        -9.451368585233135
      ],
      [
        "Ġadjust",
        -9.451472263684426
      ],
      [
        "Ġflavor",
        -9.453466230448306
      ],
      [
        "Ġexpect",
        -9.455875453420411
      ],
      [
        "Ġinitial",
        -9.456008407380809
      ],
      [
        "ĠAdditional",
        -9.456713976161511
      ],
      [
        "Ġcollect",
        -9.457622935028937
      ],
      [
        "ĠSchool",
        -9.458100661793187
      ],
      [
        "Ġwood",
        -9.459374416019482
      ],
      [
        "Ġsigns",
        -9.460547395384417
      ],
      [
        "Ġsteps",
        -9.460954184658172
      ],
      [
        "Ġestimate",
        -9.462040605954538
      ],
      [
        "Ġtips",
        -9.462781627979094
      ],
      [
        "Ġcats",
        -9.46389952664435
      ],
      [
        "Ġalcohol",
        -9.46484728873752
      ],
      [
        "Ġforest",
        -9.4713776591238
      ],
      [
        "Ġinstruction",
        -9.47164326016604
      ],
      [
        "Ġfeeling",
        -9.4716592208197
      ],
      [
        "Ġtank",
        -9.472092252434258
      ],
      [
        "Ġcrop",
        -9.472169360994064
      ],
      [
        "Ġresponsibl",
        -9.472264537926335
      ],
      [
        "ĠWorld",
        -9.472743106502431
      ],
      [
        "Ġoxygen",
        -9.472993824604266
      ],
      [
        "Ġlandscape",
        -9.473009651143675
      ],
      [
        "Ġvariable",
        -9.474672094119166
      ],
      [
        "Ġinteresting",
        -9.475506991234283
      ],
      [
        "Ġfrequent",
        -9.47622915289132
      ],
      [
        "Ġcharacter",
        -9.478220442384949
      ],
      [
        "Ġmeal",
        -9.478223570731572
      ],
      [
        "Ġfoods",
        -9.478273852618411
      ],
      [
        "Ġcity",
        -9.479907033233676
      ],
      [
        "Ġdate",
        -9.480800777898995
      ],
      [
        "Ġsevere",
        -9.480988810923527
      ],
      [
        "Ġfix",
        -9.481248021296924
      ],
      [
        "ible",
        -9.48131238985265
      ],
      [
        "Ġsection",
        -9.48319673150727
      ],
      [
        "ese",
        -9.483279313931256
      ],
      [
        "Ġencourage",
        -9.483293370287582
      ],
      [
        "light",
        -9.483736646705932
      ],
      [
        "Ġheavy",
        -9.484152820380658
      ],
      [
        "Ġresistance",
        -9.484523722057288
      ],
      [
        "Ġrise",
        -9.48457083504639
      ],
      [
        "Ġtend",
        -9.485737690830774
      ],
      [
        "Ġhair",
        -9.48611084581185
      ],
      [
        "Ġmeasurement",
        -9.48856374503615
      ],
      [
        "Ġcareful",
        -9.488830143513953
      ],
      [
        "Ġprett",
        -9.49009659833184
      ],
      [
        "Ġprotection",
        -9.49080597393819
      ],
      [
        "Ġpair",
        -9.49115718340309
      ],
      [
        "ĠWho",
        -9.491943755930066
      ],
      [
        "Ġmeat",
        -9.49237121691792
      ],
      [
        "An",
        -9.492525920477984
      ],
      [
        "Ġburn",
        -9.492906060008805
      ],
      [
        "Ġefficienc",
        -9.493610171975757
      ],
      [
        "Ġwire",
        -9.495022170303564
      ],
      [
        "Ġtouch",
        -9.495341629843836
      ],
      [
        "side",
        -9.496936732118089
      ],
      [
        "Ġrepair",
        -9.499651247706511
      ],
      [
        "Ġpoints",
        -9.500268166868771
      ],
      [
        "Ġfigure",
        -9.501516052733129
      ],
      [
        "Ġimmun",
        -9.502183010758444
      ],
      [
        "Ġpublished",
        -9.505525310796733
      ],
      [
        "Ġvolume",
        -9.505535348348594
      ],
      [
        "Ġhandle",
        -9.50700132207795
      ],
      [
        "go",
        -9.510085646606449
      ],
      [
        "Ġenable",
        -9.510778277520956
      ],
      [
        "ĠOr",
        -9.510957399019
      ],
      [
        "Ġstick",
        -9.511497567810904
      ],
      [
        "Ġlaw",
        -9.512028403389266
      ],
      [
        "ĠWhy",
        -9.51332427244192
      ],
      [
        "Ġrefer",
        -9.51413250671951
      ],
      [
        "Ġwait",
        -9.514322957450254
      ],
      [
        "=",
        -9.514847436052303
      ],
      [
        "Ġaccept",
        -9.515042900360688
      ],
      [
        "-term",
        -9.5157702301546
      ],
      [
        "Ġconstruction",
        -9.515804976134245
      ],
      [
        "Ġnutrients",
        -9.51677873234788
      ],
      [
        "Ġimplement",
        -9.517792324029244
      ],
      [
        "Ġstorage",
        -9.518209393887442
      ],
      [
        "Ġsituation",
        -9.520747337152628
      ],
      [
        "Ġball",
        -9.522282578618366
      ],
      [
        "Ġmessage",
        -9.523514223124335
      ],
      [
        "ĠOf",
        -9.524534667800516
      ],
      [
        "Ġdeveloping",
        -9.524696743150342
      ],
      [
        "Ġingredients",
        -9.525677810347831
      ],
      [
        "Ġseek",
        -9.52594374832124
      ],
      [
        "Ġmotor",
        -9.52636234455063
      ],
      [
        "Ġnothing",
        -9.52719587994974
      ],
      [
        "Ġsteel",
        -9.527536049439965
      ],
      [
        "Ġanti",
        -9.5276724477615
      ],
      [
        "Ġideas",
        -9.528066127115036
      ],
      [
        "Ġseeds",
        -9.528585282140403
      ],
      [
        "Ġyellow",
        -9.52868052542009
      ],
      [
        "Ġinstance",
        -9.530119846776904
      ],
      [
        "Ġremember",
        -9.530668264601816
      ],
      [
        "Ġpractices",
        -9.531852455351238
      ],
      [
        "Ġenhance",
        -9.532756976625496
      ],
      [
        "ĠNow",
        -9.532810107346863
      ],
      [
        "Ġ--",
        -9.53281014955312
      ],
      [
        "Ġexcellent",
        -9.5333890031082
      ],
      [
        "Ġready",
        -9.533639303796877
      ],
      [
        "Ġtechnique",
        -9.533804035140763
      ],
      [
        "ĠUnit",
        -9.534542454956709
      ],
      [
        "ĠOur",
        -9.5364157733377
      ],
      [
        "Ġdefine",
        -9.536591546715776
      ],
      [
        "Ġmedication",
        -9.5371976774843
      ],
      [
        "Ġphoto",
        -9.538285783229265
      ],
      [
        "These",
        -9.538476589246136
      ],
      [
        "Y",
        -9.53876526057243
      ],
      [
        "Ġwriting",
        -9.53918883486194
      ],
      [
        "Ġdemand",
        -9.539552851963332
      ],
      [
        "Ġjourney",
        -9.539719324159275
      ],
      [
        "Ġtrain",
        -9.539869687642494
      ],
      [
        "Ġusers",
        -9.540466309201992
      ],
      [
        "Ġserie",
        -9.54055162494031
      ],
      [
        "Ġfund",
        -9.541343192674535
      ],
      [
        "Ġwonder",
        -9.54423117444485
      ],
      [
        "Ġrare",
        -9.544517250522734
      ],
      [
        "Ġbigge",
        -9.544561062399026
      ],
      [
        "Ġcame",
        -9.545672756634216
      ],
      [
        "$",
        -9.549476632749675
      ],
      [
        "gan",
        -9.551519946645955
      ],
      [
        "And",
        -9.551634149005558
      ],
      [
        "Ġhearing",
        -9.552056774682688
      ],
      [
        "By",
        -9.552377099035962
      ],
      [
        "Ġseed",
        -9.554256712086024
      ],
      [
        "Ġobtain",
        -9.554552031660602
      ],
      [
        "Ġmen",
        -9.556395843624522
      ],
      [
        "Ġimportan",
        -9.556629403902416
      ],
      [
        "ization",
        -9.557558517753357
      ],
      [
        "therapy",
        -9.55818391282274
      ],
      [
        "Ġpath",
        -9.55935422143633
      ],
      [
        "Ġexposure",
        -9.560142029502838
      ],
      [
        "ĠGo",
        -9.560918253359784
      ],
      [
        "Ġbeautiful",
        -9.5617293039649
      ],
      [
        "Ġchicken",
        -9.5626260123813
      ],
      [
        "Ġfilm",
        -9.564961751889504
      ],
      [
        "Ġprinciple",
        -9.564989627414096
      ],
      [
        "Ġfloor",
        -9.566972728677989
      ],
      [
        "ĠInstitute",
        -9.569210965612228
      ],
      [
        "lost",
        -9.569323247962888
      ],
      [
        "Ġforward",
        -9.569324134327712
      ],
      [
        "Ġwrong",
        -9.57225726496912
      ],
      [
        "On",
        -9.572350687833971
      ],
      [
        "ĠMy",
        -9.572521156123427
      ],
      [
        "care",
        -9.572625355810708
      ],
      [
        "Ġadopt",
        -9.573238650184411
      ],
      [
        "Ġoutdoor",
        -9.57464869462687
      ],
      [
        "Ġgiv",
        -9.57531327264365
      ],
      [
        "Ġfriends",
        -9.575578597850743
      ],
      [
        "Ġmeaning",
        -9.575610235341216
      ],
      [
        "Ġmagnetic",
        -9.577311428099923
      ],
      [
        "Ġanyone",
        -9.577996199475669
      ],
      [
        "Ġpicture",
        -9.581292251872345
      ],
      [
        "Ġco",
        -9.581399286202409
      ],
      [
        "Ġpredict",
        -9.581664071688936
      ],
      [
        "Ġconvert",
        -9.583393044598497
      ],
      [
        "Ġcapacit",
        -9.584773520878668
      ],
      [
        "Ġadapt",
        -9.585686953921714
      ],
      [
        "Ġsend",
        -9.586498111587773
      ],
      [
        "Ġcap",
        -9.586519375120536
      ],
      [
        "Ġreasons",
        -9.5865993541087
      ],
      [
        "Ġpurchase",
        -9.587260661036328
      ],
      [
        "Ġsubstance",
        -9.587657165593455
      ],
      [
        "Ġangle",
        -9.58765749572792
      ],
      [
        "itis",
        -9.5882197759297
      ],
      [
        "ĠNot",
        -9.589345126459625
      ],
      [
        "Ġheight",
        -9.589857304644932
      ],
      [
        "Ġbrown",
        -9.589937888878698
      ],
      [
        "Ġframe",
        -9.591464392802026
      ],
      [
        "Ġswitch",
        -9.592278957563847
      ],
      [
        "Ġcoast",
        -9.593053993282
      ],
      [
        "Ġkill",
        -9.593843068489454
      ],
      [
        "Ġsample",
        -9.594489767835928
      ],
      [
        "Ġconsumer",
        -9.598110245011844
      ],
      [
        "Ġhands",
        -9.598129912316857
      ],
      [
        "Ġflight",
        -9.59932179084836
      ],
      [
        "-up",
        -9.600150150897116
      ],
      [
        "Ġsolid",
        -9.60120632236433
      ],
      [
        "Ġmulti",
        -9.601779554052944
      ],
      [
        "iabetes",
        -9.602298216518816
      ],
      [
        "Some",
        -9.602355504631026
      ],
      [
        "Ġaid",
        -9.603031788559722
      ],
      [
        "Ġbone",
        -9.603554243199998
      ],
      [
        "Ġclick",
        -9.604496282411528
      ],
      [
        "Ġthousand",
        -9.605433753457348
      ],
      [
        "Ġinteraction",
        -9.605657958693843
      ],
      [
        "Ġled",
        -9.606182461107078
      ],
      [
        "Ġcooking",
        -9.606238993236737
      ],
      [
        "expensive",
        -9.6064902766418
      ],
      [
        "Ġpaint",
        -9.606551702715867
      ],
      [
        "up",
        -9.606777277720422
      ],
      [
        "Ġarm",
        -9.606821905667909
      ],
      [
        "Ġsort",
        -9.607401007364942
      ],
      [
        "time",
        -9.60791947466343
      ],
      [
        "Ġoccurs",
        -9.609701155260986
      ],
      [
        "Ġmaximum",
        -9.610082152082825
      ],
      [
        "Ġdegrees",
        -9.610402468172936
      ],
      [
        "tic",
        -9.610592782147982
      ],
      [
        "Ġreflect",
        -9.610712349121378
      ],
      [
        "Ġpowerful",
        -9.61088752429349
      ],
      [
        "Ġcloth",
        -9.611252466729646
      ],
      [
        "ĠSystem",
        -9.61131592894073
      ],
      [
        "Ġcoat",
        -9.612245583057692
      ],
      [
        "Ġthird",
        -9.613110067761587
      ],
      [
        "Ġelectronic",
        -9.613192470937584
      ],
      [
        "Ġmeter",
        -9.613203323207522
      ],
      [
        "Ġfully",
        -9.613342229773965
      ],
      [
        "Ġfaster",
        -9.614534182665173
      ],
      [
        "Ġlegal",
        -9.615175962004468
      ],
      [
        "Ġpush",
        -9.615812078881865
      ],
      [
        "spite",
        -9.617495860825723
      ],
      [
        "Ġvia",
        -9.618233352283646
      ],
      [
        "Ġcentury",
        -9.61838004470092
      ],
      [
        "Ġconnection",
        -9.61865306194156
      ],
      [
        "ch",
        -9.618957127505825
      ],
      [
        "ĠRe",
        -9.620346420954856
      ],
      [
        "Ġmemor",
        -9.620420345341998
      ],
      [
        "Ġcolour",
        -9.621414701811531
      ],
      [
        "Ġwrite",
        -9.622112178151152
      ],
      [
        "thus",
        -9.622346297250337
      ],
      [
        "Ġconnect",
        -9.622588338909855
      ],
      [
        "Ġearth",
        -9.626009589103512
      ],
      [
        "Ġeconomic",
        -9.626330800751674
      ],
      [
        "Be",
        -9.627745549530978
      ],
      [
        "Ġfamilies",
        -9.629018536477613
      ],
      [
        "ier",
        -9.630176533467496
      ],
      [
        "Ġsalt",
        -9.63114466763671
      ],
      [
        "Ġlocated",
        -9.63122949228157
      ],
      [
        "Ġsustain",
        -9.63145670771415
      ],
      [
        "Ġmotion",
        -9.632808865413748
      ],
      [
        "Ġcleaning",
        -9.633175727295306
      ],
      [
        "ĠOther",
        -9.6345227599622
      ],
      [
        "Ġsell",
        -9.635184707003752
      ],
      [
        "Ġplatform",
        -9.636503730959706
      ],
      [
        "Ġstone",
        -9.63659796515833
      ],
      [
        "ĠNOT",
        -9.636953949776656
      ],
      [
        "Ġdeliver",
        -9.637389771689922
      ],
      [
        "J",
        -9.637463049430758
      ],
      [
        "Do",
        -9.638810729025462
      ],
      [
        "Ġmatch",
        -9.640373615888493
      ],
      [
        "Ġpractical",
        -9.640452545230044
      ],
      [
        "Ġfrequenc",
        -9.641447450653448
      ],
      [
        "Ġspend",
        -9.642218827752364
      ],
      [
        "Ġb",
        -9.642259256347446
      ],
      [
        "Ġquick",
        -9.643759306030582
      ],
      [
        "Ġsaw",
        -9.643950416553214
      ],
      [
        "Ġpieces",
        -9.644255188004896
      ],
      [
        "ĠBlack",
        -9.64477866135326
      ],
      [
        "Ġhuge",
        -9.644965267144908
      ],
      [
        "body",
        -9.64587073470039
      ],
      [
        "Ġreported",
        -9.646282508373188
      ],
      [
        "Ġpark",
        -9.648471419733497
      ],
      [
        "Ġbeyond",
        -9.652979741366924
      ],
      [
        "Ġmarine",
        -9.653384470452876
      ],
      [
        "Ġtrack",
        -9.653551928381606
      ],
      [
        "over",
        -9.65366411843613
      ],
      [
        "Ġcutting",
        -9.654069278040266
      ],
      [
        "Ġ#",
        -9.654486799718535
      ],
      [
        "Ġgenes",
        -9.655390137880032
      ],
      [
        "ĠIndia",
        -9.655700521525556
      ],
      [
        "inches",
        -9.656935331607407
      ],
      [
        "Ġfarmer",
        -9.65793460168056
      ],
      [
        "Ġreveal",
        -9.65851298849801
      ],
      [
        "ï¿½",
        -9.658730227522955
      ],
      [
        "ence",
        -9.65877807522831
      ],
      [
        "About",
        -9.658946479012576
      ],
      [
        "Ġreplace",
        -9.66030985321754
      ],
      [
        "Ġworth",
        -9.661642213627232
      ],
      [
        "Ġtexture",
        -9.662426418572416
      ],
      [
        "Ġmouth",
        -9.662873287017367
      ],
      [
        "Ġpool",
        -9.664441930336109
      ],
      [
        "Ġshoe",
        -9.666397241532906
      ],
      [
        "ĠState",
        -9.667195373071554
      ],
      [
        "Ġgold",
        -9.667759864712082
      ],
      [
        "Ġinternational",
        -9.669760730798806
      ],
      [
        "Ġstates",
        -9.669841001079256
      ],
      [
        "ĠAls",
        -9.67144926515665
      ],
      [
        "Ġleaf",
        -9.671595871893516
      ],
      [
        "Ġcouple",
        -9.672572417773386
      ],
      [
        "Ġcombine",
        -9.673033908638574
      ],
      [
        "Ġsweet",
        -9.673092359914705
      ],
      [
        "Ġsuit",
        -9.67321875104795
      ],
      [
        "Ġhit",
        -9.673230162632198
      ],
      [
        "Ġ|",
        -9.67365783989499
      ],
      [
        "Ġidentifie",
        -9.674063044630586
      ],
      [
        "ĠAre",
        -9.675001265588543
      ],
      [
        "Ġgenome",
        -9.67530742846514
      ],
      [
        "Step",
        -9.677256624821595
      ],
      [
        "Ġstation",
        -9.677705358978653
      ],
      [
        "Ġdetails",
        -9.677872563899276
      ],
      [
        "Ġsecurit",
        -9.677917549964654
      ],
      [
        "Ġdegree",
        -9.68172453045448
      ],
      [
        "Ġround",
        -9.683516389491956
      ],
      [
        "Now",
        -9.683732590558536
      ],
      [
        "Ġadvanced",
        -9.684097414670555
      ],
      [
        "Ġexpand",
        -9.684348601924375
      ],
      [
        "Ġrecognize",
        -9.684573500244936
      ],
      [
        "haps",
        -9.685800564739557
      ],
      [
        "Ġfinish",
        -9.686100684010428
      ],
      [
        "Ġcontext",
        -9.68616411126101
      ],
      [
        "Ġplanning",
        -9.686269047832086
      ],
      [
        "Ġfashion",
        -9.68667032170217
      ],
      [
        "Ġgrass",
        -9.68745386930872
      ],
      [
        "Ġdecade",
        -9.68899989974268
      ],
      [
        "Ġfluid",
        -9.68941661098492
      ],
      [
        "Ġincluded",
        -9.689911306811664
      ],
      [
        "#",
        -9.689965386741171
      ],
      [
        "Ġinsects",
        -9.690512499298244
      ],
      [
        "Al",
        -9.691949474418967
      ],
      [
        "for",
        -9.693857867475849
      ],
      [
        "Ġnational",
        -9.6951896787812
      ],
      [
        "Ġfair",
        -9.696807060964233
      ],
      [
        "Ġpump",
        -9.696905799720565
      ],
      [
        "Ġfavorite",
        -9.697993956298443
      ],
      [
        "ĠUs",
        -9.698124197343711
      ],
      [
        "Ġspeak",
        -9.698271175287603
      ],
      [
        "Ġsquare",
        -9.70138376523785
      ],
      [
        "society",
        -9.702340863657971
      ],
      [
        "Ġcommercial",
        -9.702945731242853
      ],
      [
        "Ġvoltage",
        -9.703582979227416
      ],
      [
        "Ġobserve",
        -9.703774191777102
      ],
      [
        "line",
        -9.703967831141696
      ],
      [
        "Ġpresen",
        -9.704159771099356
      ],
      [
        "Ġgene",
        -9.70439423667902
      ],
      [
        "ĠEurope",
        -9.706295438125286
      ],
      [
        "Ġbutton",
        -9.707207383623247
      ],
      [
        "pril",
        -9.707254820875184
      ],
      [
        "Ġdocument",
        -9.707936885158311
      ],
      [
        "Ġoutcome",
        -9.708786505475238
      ],
      [
        "Ġradio",
        -9.708798333012378
      ],
      [
        "Ġbecomes",
        -9.708897606701854
      ],
      [
        "aught",
        -9.70935179694333
      ],
      [
        "Ġalone",
        -9.709715878077375
      ],
      [
        "Ġchang",
        -9.710306314358814
      ],
      [
        "Ġcollection",
        -9.710640849087818
      ],
      [
        "Ġdivers",
        -9.710753185117593
      ],
      [
        "ber",
        -9.711637638230345
      ],
      [
        "-free",
        -9.711799419861975
      ],
      [
        "Ġshift",
        -9.713933448270083
      ],
      [
        "Ġdrawing",
        -9.715288655293673
      ],
      [
        "Ġï¿½",
        -9.716084234242706
      ],
      [
        "Ġsurger",
        -9.717389596661617
      ],
      [
        "Ġmap",
        -9.71791315941772
      ],
      [
        "Ġsoon",
        -9.71791412383787
      ],
      [
        "Our",
        -9.718434368916164
      ],
      [
        "Ġevolution",
        -9.718583995223812
      ],
      [
        "Ġlesson",
        -9.718708280431208
      ],
      [
        "Ġtechnologie",
        -9.720529206059489
      ],
      [
        ".com",
        -9.720808269657168
      ],
      [
        "Ġplease",
        -9.72158305888702
      ],
      [
        "Ġsurrounding",
        -9.722087446972296
      ],
      [
        "Ġbreath",
        -9.722189871211835
      ],
      [
        "Ġannual",
        -9.723783090760572
      ],
      [
        "Ġthinking",
        -9.72629858284778
      ],
      [
        "Ġstaff",
        -9.726951374115064
      ],
      [
        "ĠLet",
        -9.727094888629004
      ],
      [
        "ant",
        -9.72900149862623
      ],
      [
        "ĠAccording",
        -9.729872971714144
      ],
      [
        "Ġlargest",
        -9.731356007032812
      ],
      [
        "Ġschedule",
        -9.731368859604467
      ],
      [
        "Ġhabitat",
        -9.732092573782026
      ],
      [
        "Ġroad",
        -9.732305877346237
      ],
      [
        "bility",
        -9.732921712103106
      ],
      [
        "went",
        -9.734149858197084
      ],
      [
        "uch",
        -9.73524076514571
      ],
      [
        "Ġengage",
        -9.737646187537386
      ],
      [
        "Ġvital",
        -9.737858873152462
      ],
      [
        "Ġmiddle",
        -9.738670491879986
      ],
      [
        "Ġorganism",
        -9.73904716393978
      ],
      [
        "Ġmolecule",
        -9.741467209936031
      ],
      [
        "Ġemploy",
        -9.741537976918025
      ],
      [
        "Ġdriv",
        -9.74245514289082
      ],
      [
        "ĠLearn",
        -9.744118501139422
      ],
      [
        "Ġpound",
        -9.744754552774364
      ],
      [
        "Ġstuff",
        -9.744789632167414
      ],
      [
        "Ġvaluable",
        -9.744818427074836
      ],
      [
        "Ġvoice",
        -9.744888058733668
      ],
      [
        "Ġsub",
        -9.745146151934492
      ],
      [
        "Ġcomfort",
        -9.746408701623965
      ],
      [
        "efore",
        -9.746610848434097
      ],
      [
        "Ġletter",
        -9.746927700895156
      ],
      [
        "-like",
        -9.747153120346574
      ],
      [
        "Ġapproximate",
        -9.747854311451738
      ],
      [
        "Ġtiny",
        -9.748416851665784
      ],
      [
        "Ġteaching",
        -9.748639714926458
      ],
      [
        "Ġconnected",
        -9.74949434686911
      ],
      [
        "Ġbar",
        -9.749852242512151
      ],
      [
        "taken",
        -9.75030998470433
      ],
      [
        "Ġfabric",
        -9.750603967978716
      ],
      [
        "Ġcomment",
        -9.750800623202933
      ],
      [
        "came",
        -9.751851211520254
      ],
      [
        "Ġbright",
        -9.75258838314846
      ],
      [
        "Ġmoistur",
        -9.754032567040692
      ],
      [
        "held",
        -9.754526060685004
      ],
      [
        "Ġformat",
        -9.757910647833924
      ],
      [
        "ĠCalifornia",
        -9.76043231971464
      ],
      [
        "ĠWater",
        -9.760452818784174
      ],
      [
        "Ġfight",
        -9.760557182890278
      ],
      [
        "Ġflat",
        -9.761051457223118
      ],
      [
        "Ġhabit",
        -9.761164989866192
      ],
      [
        "Ġcheckbook",
        -9.761900758520364
      ],
      [
        "Ġsecure",
        -9.76354244125706
      ],
      [
        "ĠMay",
        -9.764892210953008
      ],
      [
        "Ġproperty",
        -9.766015180743077
      ],
      [
        "Ġmold",
        -9.766830712935494
      ],
      [
        "ĠJust",
        -9.767133303779058
      ],
      [
        "Ġeffort",
        -9.767726970992546
      ],
      [
        "Ġrace",
        -9.7689415848549
      ],
      [
        "U",
        -9.769607339699832
      ],
      [
        "Ġinternal",
        -9.770029039216135
      ],
      [
        "no",
        -9.770989584947934
      ],
      [
        "Ġaren",
        -9.771565883193905
      ],
      [
        "Ġsites",
        -9.773422782015656
      ],
      [
        "Ġintroduce",
        -9.773603937347918
      ],
      [
        "Ġcomponent",
        -9.774155482585392
      ],
      [
        "Ġbackground",
        -9.774720638940448
      ],
      [
        "Ġvirus",
        -9.77517847564384
      ],
      [
        "Ġcream",
        -9.77534732994754
      ],
      [
        "Ġtrip",
        -9.776178123655969
      ],
      [
        "if",
        -9.77624905226408
      ],
      [
        "ge",
        -9.776907618299274
      ],
      [
        "Ġsuitabl",
        -9.77946710216478
      ],
      [
        "Q",
        -9.77955602760995
      ],
      [
        "Ġrat",
        -9.781172750321474
      ],
      [
        "Ġpress",
        -9.78233479966267
      ],
      [
        "Ġhour",
        -9.782559329910375
      ],
      [
        "Ġexternal",
        -9.783978817069048
      ],
      [
        "Ġfeeding",
        -9.784299878093153
      ],
      [
        "Ġcup",
        -9.78493632614552
      ],
      [
        "Ġfinding",
        -9.785542831209796
      ],
      [
        "Ġoptimal",
        -9.786918156654677
      ],
      [
        "Ġseal",
        -9.787045462137993
      ],
      [
        "Ġfertilizer",
        -9.787369324918863
      ],
      [
        "Ġquant",
        -9.787405140676904
      ],
      [
        "Ġfacilit",
        -9.788141674727315
      ],
      [
        "Ġbasi",
        -9.78952893192039
      ],
      [
        "Answer",
        -9.789618071944044
      ],
      [
        "Ġinjur",
        -9.789808332469748
      ],
      [
        "Ġhapp",
        -9.79185836959213
      ],
      [
        "Ġskate",
        -9.79215169763977
      ],
      [
        "Ġdie",
        -9.792447609002751
      ],
      [
        "Ġregularly",
        -9.793099485565218
      ],
      [
        "Ġcross",
        -9.793467740437482
      ],
      [
        "Ġimprov",
        -9.794556910626206
      ],
      [
        "Ġshot",
        -9.794754043800868
      ],
      [
        "Ġhorse",
        -9.794794705886051
      ],
      [
        "Ġdriver",
        -9.795788722521902
      ],
      [
        "Ġthin",
        -9.79593775697798
      ],
      [
        "Ġpanel",
        -9.79681692697785
      ],
      [
        "Ġcable",
        -9.799490375720186
      ],
      [
        "ĠAustralia",
        -9.800525407483365
      ],
      [
        "ĠAfrica",
        -9.80053138238709
      ],
      [
        "Ġbond",
        -9.800790859904414
      ],
      [
        "Ġconsistent",
        -9.801583640491694
      ],
      [
        "Ġdesire",
        -9.802405668713952
      ],
      [
        "ĠDe",
        -9.802506642405069
      ],
      [
        "water",
        -9.802999142445962
      ],
      [
        "Ġboat",
        -9.804916733729138
      ],
      [
        "Ġassess",
        -9.804952164256608
      ],
      [
        "Ġmedium",
        -9.805918978845288
      ],
      [
        "Ġtube",
        -9.806404111844168
      ],
      [
        "No",
        -9.808310248421735
      ],
      [
        "Ġblade",
        -9.809132569651982
      ],
      [
        "Ġloop",
        -9.809580876274412
      ],
      [
        "Ġcapture",
        -9.809945268128043
      ],
      [
        "Ġcentral",
        -9.81078775300967
      ],
      [
        "Ġedge",
        -9.812362014417312
      ],
      [
        "Ġstock",
        -9.812420025846468
      ],
      [
        "They",
        -9.813284515267728
      ],
      [
        "Ġcareer",
        -9.813525304974664
      ],
      [
        "Ġdangerous",
        -9.814939438953
      ],
      [
        "Ġfinancial",
        -9.815052298065517
      ],
      [
        "Ġlose",
        -9.815264822834626
      ],
      [
        "ized",
        -9.816889569296784
      ],
      [
        "Ġdental",
        -9.818773216406154
      ],
      [
        "ĠDepartment",
        -9.81890273661159
      ],
      [
        "Ġcreative",
        -9.819236542377922
      ],
      [
        "Ġatmosphere",
        -9.819980177656753
      ],
      [
        "older",
        -9.819995390812371
      ],
      [
        "Ġmember",
        -9.820623173725863
      ],
      [
        "Ġtransfer",
        -9.820889347386997
      ],
      [
        "Ġefforts",
        -9.821534870845127
      ],
      [
        "ĠâĢ¢",
        -9.821878661942163
      ],
      [
        "ĠPark",
        -9.822913195773245
      ],
      [
        "Ġapp",
        -9.824227482176532
      ],
      [
        "Ġbeginning",
        -9.8250540215947
      ],
      [
        "Ġartist",
        -9.825470311268823
      ],
      [
        "ĠMake",
        -9.825719984880791
      ],
      [
        "Here",
        -9.827056391125485
      ],
      [
        "Ġratio",
        -9.82708240572239
      ],
      [
        "Ġbeauty",
        -9.82818716732353
      ],
      [
        "ification",
        -9.82828020117272
      ],
      [
        "Ġyield",
        -9.82840445037105
      ],
      [
        "ĠGerman",
        -9.829195328023664
      ],
      [
        "Ġhighlight",
        -9.829255786103795
      ],
      [
        "ĠOnc",
        -9.829307653451355
      ],
      [
        "Ġsmart",
        -9.829428798600574
      ],
      [
        "Ġcomfortable",
        -9.829503720893776
      ],
      [
        "Ġcomprehensive",
        -9.831068499592629
      ],
      [
        "Ġalgorithm",
        -9.832827579474216
      ],
      [
        "ĠFirst",
        -9.833850314865806
      ],
      [
        "Ġtransform",
        -9.834782700924077
      ],
      [
        "ĠEnglish",
        -9.835323954109224
      ],
      [
        "ĠUnite",
        -9.837075049529528
      ],
      [
        "Ġbeneficial",
        -9.837897433205692
      ],
      [
        "Ġconservation",
        -9.838072109068197
      ],
      [
        "ĠSince",
        -9.838190167958482
      ],
      [
        "like",
        -9.838405654879978
      ],
      [
        "Ġselection",
        -9.83843900715921
      ],
      [
        "Ġonto",
        -9.838753023561674
      ],
      [
        "Ġvalve",
        -9.840756582802342
      ],
      [
        "Ġdepth",
        -9.84076899949938
      ],
      [
        "ĠFood",
        -9.84113570899721
      ],
      [
        "Ġcore",
        -9.84196037272033
      ],
      [
        "Ġheal",
        -9.84196467837988
      ],
      [
        "Ġsurvey",
        -9.842151744962589
      ],
      [
        "Ġgames",
        -9.842409546687216
      ],
      [
        "Ġappearance",
        -9.844467725013024
      ],
      [
        "âĢ¢",
        -9.84457692783339
      ],
      [
        "Ġdouble",
        -9.844589978567754
      ],
      [
        "Ġmedicine",
        -9.846621234976093
      ],
      [
        "Ġplate",
        -9.84668782028817
      ],
      [
        "ĠDon",
        -9.846954771571385
      ],
      [
        "ley",
        -9.848664208810607
      ],
      [
        "Ġgrain",
        -9.85236835078859
      ],
      [
        "ĠEvery",
        -9.85306949901356
      ],
      [
        "Ġcorn",
        -9.854014888030076
      ],
      [
        "Ġreference",
        -9.854081896342064
      ],
      [
        "ĠChina",
        -9.856045128457954
      ],
      [
        "Ġcrops",
        -9.857244003403816
      ],
      [
        "Ġcoffee",
        -9.857306766072304
      ],
      [
        "ĠEven",
        -9.85766360603936
      ],
      [
        "Ġthreat",
        -9.857699055372368
      ],
      [
        "Ġpollution",
        -9.857965957742456
      ],
      [
        "Ġnative",
        -9.859321729287492
      ],
      [
        "Ġrain",
        -9.85947969255621
      ],
      [
        "Ġfail",
        -9.8601836216668
      ],
      [
        "Ġweigh",
        -9.860342502638217
      ],
      [
        "Ġdistribution",
        -9.860980400175633
      ],
      [
        "Ġlabel",
        -9.861504686992475
      ],
      [
        "Ġparameter",
        -9.861572332150066
      ],
      [
        "Ġchannel",
        -9.861671727756171
      ],
      [
        "Ġcarrie",
        -9.861800132925527
      ],
      [
        "Ġemail",
        -9.861860209145814
      ],
      [
        "ĠNature",
        -9.862050141936376
      ],
      [
        "Ġattempt",
        -9.862321773645697
      ],
      [
        "ĠâĢ¦",
        -9.86274160711068
      ],
      [
        "ĠHigh",
        -9.864052241455482
      ],
      [
        "Ġdemonstrate",
        -9.86445092121669
      ],
      [
        "Ġconcentration",
        -9.86446667448451
      ],
      [
        "Ġmuscles",
        -9.866078408728164
      ],
      [
        "ĠUK",
        -9.866377209498268
      ],
      [
        "Ġaware",
        -9.866520625982847
      ],
      [
        "Ġstatus",
        -9.866956607056776
      ],
      [
        "Ġrespond",
        -9.866987155979205
      ],
      [
        "Ġroutine",
        -9.867716121945172
      ],
      [
        "Ġharvest",
        -9.868205321114331
      ],
      [
        "Ġremov",
        -9.870121365700436
      ],
      [
        "ur",
        -9.870286969602535
      ],
      [
        "ĠSt",
        -9.870351492958704
      ],
      [
        "Ġinsight",
        -9.870446471929515
      ],
      [
        "ng",
        -9.87276672274264
      ],
      [
        "Ġhelpful",
        -9.872845403129556
      ],
      [
        "Ġindependent",
        -9.87475600615593
      ],
      [
        "Ġdead",
        -9.874928446865251
      ],
      [
        "limited",
        -9.875025444058744
      ],
      [
        "Ġdoor",
        -9.875782397299206
      ],
      [
        "Ġroll",
        -9.876250567440833
      ],
      [
        "Ġpack",
        -9.876859369155424
      ],
      [
        "Ġminerals",
        -9.876925559558671
      ],
      [
        "-year",
        -9.878312035494943
      ],
      [
        "Ġmark",
        -9.87950630013118
      ],
      [
        "ture",
        -9.879747800376052
      ],
      [
        "Ġmiles",
        -9.8805834677841
      ],
      [
        "Ġmaintaining",
        -9.881035614489306
      ],
      [
        "Ġperspective",
        -9.881401475865186
      ],
      [
        "Ġnitrogen",
        -9.882394717712064
      ],
      [
        "Ġdrop",
        -9.88304554083207
      ],
      [
        "Ġlisten",
        -9.883102713915264
      ],
      [
        "Ġagricultur",
        -9.883652150710931
      ],
      [
        "ship",
        -9.885112579189968
      ],
      [
        "Ġfiber",
        -9.886087393980588
      ],
      [
        "Ġpipe",
        -9.88663494931771
      ],
      [
        "Ġspeaker",
        -9.886649739321737
      ],
      [
        "Ġprogress",
        -9.88694476446458
      ],
      [
        "Ġjoin",
        -9.887251674914015
      ],
      [
        "Ġpot",
        -9.887793458784165
      ],
      [
        "Ġpossibilit",
        -9.887838228910857
      ],
      [
        "}",
        -9.889147834823984
      ],
      [
        "Ġpolicy",
        -9.889362198230794
      ],
      [
        "Ġexpress",
        -9.890269402724266
      ],
      [
        "That",
        -9.890955915146945
      ],
      [
        "Ġcurve",
        -9.891372162516348
      ],
      [
        "Ġtrigger",
        -9.89172782953253
      ],
      [
        "Ġclient",
        -9.891915961705068
      ],
      [
        "Ġgrade",
        -9.892312946439016
      ],
      [
        "ĠAir",
        -9.892412741825698
      ],
      [
        "Ġprepared",
        -9.89286269571414
      ],
      [
        "Ġfunctional",
        -9.894204414782957
      ],
      [
        "Ġatom",
        -9.894529722849306
      ],
      [
        "Ġnerve",
        -9.894743601704452
      ],
      [
        "-in",
        -9.896714541103552
      ],
      [
        "Ġengineering",
        -9.896885626814331
      ],
      [
        "Ġadvice",
        -9.89897910309234
      ],
      [
        "Ġnutrient",
        -9.899128410500625
      ],
      [
        "Ġmid",
        -9.89973125305307
      ],
      [
        "Ġeconom",
        -9.901034243102576
      ],
      [
        "Ġdrain",
        -9.901580611754696
      ],
      [
        "Ġprefer",
        -9.902305145273615
      ],
      [
        "Ġprivate",
        -9.902544497932716
      ],
      [
        "Ġstain",
        -9.905370033748166
      ],
      [
        "Ġtitle",
        -9.905567904252797
      ],
      [
        "Ġagree",
        -9.905862816060235
      ],
      [
        "Ġtrust",
        -9.907309969787082
      ],
      [
        "Ġeducational",
        -9.907319142586516
      ],
      [
        "Ġdecline",
        -9.907536975658868
      ],
      [
        "Ġwash",
        -9.90897883696884
      ],
      [
        "Ġbodie",
        -9.90933749935595
      ],
      [
        "Ġtechnical",
        -9.909449961210273
      ],
      [
        "Ġlay",
        -9.909658063173122
      ],
      [
        "Ġtopic",
        -9.910280568871425
      ],
      [
        "X",
        -9.9110207775825
      ],
      [
        "Ġgoals",
        -9.911456876475238
      ],
      [
        "ĠEuropean",
        -9.911617037737695
      ],
      [
        "Ġcultural",
        -9.91240003682471
      ],
      [
        "Ġlaunch",
        -9.913092806652546
      ],
      [
        "Ġroots",
        -9.914018170950332
      ],
      [
        "Ġthick",
        -9.915836532177853
      ],
      [
        "After",
        -9.91603970750328
      ],
      [
        "ĠInternational",
        -9.916648281218912
      ],
      [
        "Ġgear",
        -9.916901664482417
      ],
      [
        "Ġgrown",
        -9.917022854156382
      ],
      [
        "ĠWar",
        -9.918181786050692
      ],
      [
        "Ġupper",
        -9.91894869974114
      ],
      [
        "Ġmode",
        -9.920139014415524
      ],
      [
        "Ġbirth",
        -9.92028847965761
      ],
      [
        "Ġbear",
        -9.92041876864312
      ],
      [
        "Ġwindow",
        -9.921302519125868
      ],
      [
        "Ġbiological",
        -9.92147612249776
      ],
      [
        "My",
        -9.921477877009384
      ],
      [
        "ĠEducation",
        -9.922522640033907
      ],
      [
        "ĠGreen",
        -9.922667787066434
      ],
      [
        "Ġparticipant",
        -9.922847393153344
      ],
      [
        "Ġmixture",
        -9.923412748480288
      ],
      [
        "ĠIsland",
        -9.923549004421478
      ],
      [
        "Ġdiscussion",
        -9.923866950152746
      ],
      [
        "Ġsession",
        -9.92412939195066
      ],
      [
        "Ġoperate",
        -9.924149566045656
      ],
      [
        "Ġship",
        -9.924430920177675
      ],
      [
        "ĠDuring",
        -9.925599694875771
      ],
      [
        "Ġjoint",
        -9.925867329698685
      ],
      [
        "Ġfundamental",
        -9.92709091230392
      ],
      [
        "Ġprimari",
        -9.927427403237964
      ],
      [
        "Ġstorm",
        -9.928560549064551
      ],
      [
        "Ġoven",
        -9.928904271251277
      ],
      [
        "Ġwrit",
        -9.931666365265102
      ],
      [
        "Ġpets",
        -9.931763535968557
      ],
      [
        "Ġabsorb",
        -9.932007007156908
      ],
      [
        "Ġreferr",
        -9.932369399482866
      ],
      [
        "related",
        -9.93297583002098
      ],
      [
        "Ġbillion",
        -9.933316794675235
      ],
      [
        "Ġstraight",
        -9.933372452064203
      ],
      [
        "ities",
        -9.933601397351325
      ],
      [
        "Ġimprovement",
        -9.935227858808997
      ],
      [
        "Ġportion",
        -9.935702671152583
      ],
      [
        "Ġrules",
        -9.935740397284995
      ],
      [
        "Ġblend",
        -9.93624019448578
      ],
      [
        "Ġartificial",
        -9.93768106685372
      ],
      [
        "Ġcollege",
        -9.937813228467531
      ],
      [
        "ĠMarch",
        -9.938734116747607
      ],
      [
        "Ġsequence",
        -9.9397721875428
      ],
      [
        "ĠDay",
        -9.94143857125708
      ],
      [
        "Ġancient",
        -9.941515610129873
      ],
      [
        "Ġsuffer",
        -9.94179865644394
      ],
      [
        "Ġpilot",
        -9.942354827861744
      ],
      [
        "Ġpregnancy",
        -9.942369716172928
      ],
      [
        "Ġcommand",
        -9.943479401822396
      ],
      [
        "Ġdrug",
        -9.944301552166923
      ],
      [
        "Ġcm",
        -9.944395445218031
      ],
      [
        "-friendl",
        -9.944924471590928
      ],
      [
        "Ġradiation",
        -9.944985099499052
      ],
      [
        "Ġtransition",
        -9.94519300506784
      ],
      [
        "Ġstrain",
        -9.945520565152188
      ],
      [
        "Ġbill",
        -9.946431940718828
      ],
      [
        "Ġprovider",
        -9.947653302572046
      ],
      [
        "Ġskill",
        -9.94767886009918
      ],
      [
        "field",
        -9.947757792788265
      ],
      [
        "Ġaudio",
        -9.948101743400528
      ],
      [
        "Ġrequest",
        -9.94870082317406
      ],
      [
        "Ġdefinition",
        -9.949627701974228
      ],
      [
        "am",
        -9.94967308675562
      ],
      [
        "Ġcompost",
        -9.950112253814227
      ],
      [
        "ĠSea",
        -9.950292404238642
      ],
      [
        "ĠY",
        -9.95054153974214
      ],
      [
        "Ġsurvive",
        -9.950845955502114
      ],
      [
        "Ġspin",
        -9.951137043899468
      ],
      [
        "Ġconclusion",
        -9.9520498846545
      ],
      [
        "ne",
        -9.95355219119602
      ],
      [
        "Ġbooks",
        -9.953741861873644
      ],
      [
        "/or",
        -9.954303544620158
      ],
      [
        "Ġprocedure",
        -9.954748239680375
      ],
      [
        "Ġborn",
        -9.954957956249745
      ],
      [
        "Ġbreeding",
        -9.95587924452939
      ],
      [
        "Ġknee",
        -9.956063804506575
      ],
      [
        "her",
        -9.95691147407199
      ],
      [
        "Ġdetail",
        -9.956912937369836
      ],
      [
        "wide",
        -9.957045727429849
      ],
      [
        "Ġsuper",
        -9.957888751705976
      ],
      [
        "ill",
        -9.958229805302672
      ],
      [
        "Ġattract",
        -9.958651712144553
      ],
      [
        "Ġemployee",
        -9.959187666368232
      ],
      [
        "Ġbones",
        -9.959542727036956
      ],
      [
        "Ġenzyme",
        -9.960660798665366
      ],
      [
        "Ġblog",
        -9.962421736715314
      ],
      [
        "that",
        -9.963173213658903
      ],
      [
        "Ġconfirm",
        -9.963335769929673
      ],
      [
        "Ġlung",
        -9.963568841495572
      ],
      [
        "Ġeventually",
        -9.96392897921296
      ],
      [
        "Ġfindings",
        -9.963973559880412
      ],
      [
        "ĠCO",
        -9.964249722334952
      ],
      [
        "Ġbroad",
        -9.964502987557308
      ],
      [
        "what",
        -9.964633084526096
      ],
      [
        "Ġrelax",
        -9.96467248367848
      ],
      [
        "Ġelectron",
        -9.965478577116588
      ],
      [
        "Ġsounds",
        -9.966088644264616
      ],
      [
        "Ġrespect",
        -9.966214069775283
      ],
      [
        "Ġvariation",
        -9.966570193848444
      ],
      [
        "Ġzone",
        -9.966599797849156
      ],
      [
        "Ġoffice",
        -9.966940117304866
      ],
      [
        "Ġthrow",
        -9.967948223953414
      ],
      [
        "Ġcalculate",
        -9.970583748619877
      ],
      [
        "Ġrelevan",
        -9.9705963728817
      ],
      [
        "Ġindoor",
        -9.97069810743066
      ],
      [
        "Ġowners",
        -9.9708668640179
      ],
      [
        "Ġvirtual",
        -9.970895948901436
      ],
      [
        "Ġfinger",
        -9.97112575657695
      ],
      [
        "Ġport",
        -9.971827966333326
      ],
      [
        "ĠRiver",
        -9.97220629294738
      ],
      [
        "Ġextract",
        -9.97391661753032
      ],
      [
        "Ġprepare",
        -9.974106737548292
      ],
      [
        "Ġpercentage",
        -9.974805858531084
      ],
      [
        "Ġsports",
        -9.97509966906156
      ],
      [
        "Ġraw",
        -9.975924988369751
      ],
      [
        "Ġcontinuous",
        -9.977903016847192
      ],
      [
        "Ġexcessive",
        -9.97793880604436
      ],
      [
        "-quality",
        -9.97803554634494
      ],
      [
        "Ġnice",
        -9.97846366926002
      ],
      [
        "Ġinsulati",
        -9.97847832900752
      ],
      [
        "Ġmin",
        -9.979106367189058
      ],
      [
        "Ġrid",
        -9.9793667950577
      ],
      [
        "Ġsnake",
        -9.981581685836607
      ],
      [
        "Ġnest",
        -9.983291540341687
      ],
      [
        "ver",
        -9.984491730263516
      ],
      [
        "un",
        -9.985153839039352
      ],
      [
        "Ġcreature",
        -9.985435051202275
      ],
      [
        "Ġleak",
        -9.98573337624429
      ],
      [
        "ĠProgram",
        -9.98585900022436
      ],
      [
        "Ġbusinesses",
        -9.986237903017406
      ],
      [
        "Ġemergenc",
        -9.988265909670073
      ],
      [
        "Ġweb",
        -9.988763389733782
      ],
      [
        "ĠSept",
        -9.989175195735308
      ],
      [
        "Ġnumerou",
        -9.989178023622774
      ],
      [
        "Ġphotograph",
        -9.99017857626379
      ],
      [
        "Ġoperat",
        -9.990941847663647
      ],
      [
        "Ġengineer",
        -9.992066419639992
      ],
      [
        "Ġformation",
        -9.992692710353229
      ],
      [
        "Ġtooth",
        -9.993195014266874
      ],
      [
        "Ġcredit",
        -9.993645660376751
      ],
      [
        "Ġbread",
        -9.993763777849416
      ],
      [
        "ate",
        -9.994008858836894
      ],
      [
        "ĠYork",
        -9.99682122777594
      ],
      [
        "Ġfoundation",
        -9.996823908019424
      ],
      [
        "work",
        -9.996845391840878
      ],
      [
        "{",
        -9.996972094527326
      ],
      [
        "ĠHave",
        -9.99708018213262
      ],
      [
        "Ġafford",
        -9.997310134812032
      ],
      [
        "Ġmorning",
        -9.99754319488957
      ],
      [
        "brough",
        -9.997860205003306
      ],
      [
        "Ġreduction",
        -9.998391582925432
      ],
      [
        "Ġroof",
        -10.000663838895496
      ],
      [
        "Ġcomposition",
        -10.000689899089837
      ],
      [
        "Ġsit",
        -10.000996927716816
      ],
      [
        "Ġsupplement",
        -10.001388333451278
      ],
      [
        "Ġlens",
        -10.00305728328681
      ],
      [
        "Ġsheet",
        -10.003459278088314
      ],
      [
        "Ġmechanical",
        -10.0040307548314
      ],
      [
        "Ġclasse",
        -10.004665680533115
      ],
      [
        "Ġassessment",
        -10.004781269341922
      ],
      [
        "Ġlatest",
        -10.004927960355712
      ],
      [
        "way",
        -10.005236738363765
      ],
      [
        "ĠDec",
        -10.008645545731794
      ],
      [
        "Ġoffering",
        -10.009222615280766
      ],
      [
        "ĠQ",
        -10.010022389111114
      ],
      [
        "Ġexpression",
        -10.010584052842455
      ],
      [
        "Ġsport",
        -10.011052754823597
      ],
      [
        "Ġjournal",
        -10.01190367281355
      ],
      [
        "Ġobvious",
        -10.012298050757073
      ],
      [
        "Ġworry",
        -10.012462664504335
      ],
      [
        "Ġtwi",
        -10.012901505885
      ],
      [
        "Ġawarenes",
        -10.013124778786992
      ],
      [
        "Ġcatch",
        -10.015257215318703
      ],
      [
        "Ġcook",
        -10.01548397116106
      ],
      [
        "Ġexhibit",
        -10.015585131245976
      ],
      [
        "||",
        -10.015826564249144
      ],
      [
        "Ġwet",
        -10.016125188148642
      ],
      [
        "Ġillness",
        -10.016210137666112
      ],
      [
        "ĠChine",
        -10.016657246409824
      ],
      [
        "Ġchanged",
        -10.017011375419274
      ],
      [
        "Ġmission",
        -10.017110587434216
      ],
      [
        "ĠGreat",
        -10.018343564707983
      ],
      [
        "<",
        -10.01911785624253
      ],
      [
        "aging",
        -10.01975258324103
      ],
      [
        "ical",
        -10.019910178460435
      ],
      [
        "Ġhormone",
        -10.020293222216504
      ],
      [
        "Ġshar",
        -10.020534525243216
      ],
      [
        "Ġweed",
        -10.02071714569689
      ],
      [
        "Ġchalleng",
        -10.020752519353884
      ],
      [
        "Ġmanufactur",
        -10.02091277914792
      ],
      [
        "Ġtraffic",
        -10.021192727291275
      ],
      [
        "Ġwhose",
        -10.021516312072336
      ],
      [
        "with",
        -10.021764526885974
      ],
      [
        "ĠService",
        -10.022334695412514
      ],
      [
        "Ġnation",
        -10.022799965823747
      ],
      [
        "ĠWell",
        -10.022917791585073
      ],
      [
        "Ġwar",
        -10.023122445160006
      ],
      [
        "Pro",
        -10.023622015847396
      ],
      [
        "kept",
        -10.024048410829092
      ],
      [
        "Conclusion",
        -10.024062951938998
      ],
      [
        "Januar",
        -10.024113412675478
      ],
      [
        "diversity",
        -10.025173168556009
      ],
      [
        "Ġrule",
        -10.026084513200118
      ],
      [
        "Ġorigin",
        -10.02653711095142
      ],
      [
        "Ġassist",
        -10.026563083735857
      ],
      [
        "Ġprofessionals",
        -10.026880355967004
      ],
      [
        "**",
        -10.027867255013124
      ],
      [
        "expected",
        -10.027905339913657
      ],
      [
        "Ġencounter",
        -10.028010109618046
      ],
      [
        "Ġexamine",
        -10.028756174285911
      ],
      [
        "Ġmeeting",
        -10.029114925624906
      ],
      [
        "ĠAsia",
        -10.029560391004782
      ],
      [
        "Ġworked",
        -10.02962571069276
      ],
      [
        "Ġegg",
        -10.029721100572552
      ],
      [
        "Ġregulation",
        -10.030159236135944
      ],
      [
        "Ġnutrition",
        -10.030619048548363
      ],
      [
        "Ġsentence",
        -10.0320286849772
      ],
      [
        "Ġinnovation",
        -10.032610519188427
      ],
      [
        "Ġremote",
        -10.032696689608152
      ],
      [
        "Ġowner",
        -10.033043689005885
      ],
      [
        "Ġstorie",
        -10.033827146963912
      ],
      [
        "ĠCanada",
        -10.033874109525287
      ],
      [
        "Ġtight",
        -10.034083230065734
      ],
      [
        "ĠKeep",
        -10.03429650645874
      ],
      [
        "Ġtru",
        -10.035799764371998
      ],
      [
        "Ġimplant",
        -10.0359803424153
      ],
      [
        "Ġteach",
        -10.037829295621483
      ],
      [
        "ĠDog",
        -10.04028964000897
      ],
      [
        "Ġconsume",
        -10.040407216922649
      ],
      [
        "Ġearlier",
        -10.040651645040906
      ],
      [
        "ĠType",
        -10.04107282426448
      ],
      [
        "Ġcreation",
        -10.042421901394016
      ],
      [
        "ĠDoes",
        -10.0425507831271
      ],
      [
        "Ġreliabl",
        -10.042728394614894
      ],
      [
        "Ġzero",
        -10.043621659851926
      ],
      [
        "Ġinvestment",
        -10.04462195029046
      ],
      [
        "Ġreplacement",
        -10.044697806504296
      ],
      [
        "osis",
        -10.046548193147691
      ],
      [
        "All",
        -10.047733745772636
      ],
      [
        "Ġmanual",
        -10.04803125338432
      ],
      [
        "Ġdepression",
        -10.048095202684394
      ],
      [
        "Ġisland",
        -10.0489202782177
      ],
      [
        "Ġcard",
        -10.049066075803564
      ],
      [
        "ĠLife",
        -10.051974009990513
      ],
      [
        "Ġinternet",
        -10.052079631049214
      ],
      [
        "Ġhundred",
        -10.05270670266352
      ],
      [
        "Ġdigesti",
        -10.053296992988187
      ],
      [
        "Ġtrend",
        -10.053418015115575
      ],
      [
        "Ġchoos",
        -10.053553898391254
      ],
      [
        "Your",
        -10.054849808492635
      ],
      [
        "Ġnode",
        -10.05601220854576
      ],
      [
        "Ġclassroom",
        -10.056172291481776
      ],
      [
        "Ġpreference",
        -10.05620748515215
      ],
      [
        "Ġinteract",
        -10.056376191167182
      ],
      [
        "Ġultimate",
        -10.056654383869091
      ],
      [
        "Ġemotional",
        -10.056705958182947
      ],
      [
        "Ġlibrar",
        -10.0568024255997
      ],
      [
        "Ġobservation",
        -10.05708887498065
      ],
      [
        "Ġmineral",
        -10.057196261002993
      ],
      [
        "ĠFurther",
        -10.05881665787199
      ],
      [
        "Ġlift",
        -10.059039435901065
      ],
      [
        "Ġstable",
        -10.059897792295075
      ],
      [
        "Ġfirm",
        -10.06023491209156
      ],
      [
        "Ġtumor",
        -10.061092303372316
      ],
      [
        "ĠStart",
        -10.06141630844927
      ],
      [
        "Many",
        -10.06207846279614
      ],
      [
        "@",
        -10.06272724260537
      ],
      [
        "He",
        -10.062753786125398
      ],
      [
        "ĠOver",
        -10.063014057698354
      ],
      [
        "Ġagent",
        -10.063688546732054
      ],
      [
        "ca",
        -10.064215909798808
      ],
      [
        "ĠCity",
        -10.06460638046457
      ],
      [
        "Ġchronic",
        -10.064966833479666
      ],
      [
        "Ġsensitive",
        -10.065056062069615
      ],
      [
        "which",
        -10.065069217039223
      ],
      [
        "Ġaircraft",
        -10.065422374033906
      ],
      [
        "Ġadvance",
        -10.065481097973873
      ],
      [
        "j",
        -10.066551566203591
      ],
      [
        "Ġdetermined",
        -10.067470220186202
      ],
      [
        "Ġdensity",
        -10.068505040126343
      ],
      [
        "Ġcheap",
        -10.068959515921666
      ],
      [
        "Ġboost",
        -10.071568714148633
      ],
      [
        "Are",
        -10.071575851962796
      ],
      [
        "Ġdeposit",
        -10.072537755612396
      ],
      [
        "Ġmelt",
        -10.072898972198676
      ],
      [
        "Most",
        -10.073582960564451
      ],
      [
        "Ġconsideration",
        -10.07428753367371
      ],
      [
        "Ġdetailed",
        -10.07451974377542
      ],
      [
        "Ġdivide",
        -10.075347913190786
      ],
      [
        "ING",
        -10.076062562938292
      ],
      [
        "are",
        -10.076341158445942
      ],
      [
        "Ġcheese",
        -10.076875486624925
      ],
      [
        "|",
        -10.077273997541424
      ],
      [
        "Ġincredibl",
        -10.077509627010684
      ],
      [
        "Ġsaying",
        -10.079741771283512
      ],
      [
        "Ġopinion",
        -10.08086848045586
      ],
      [
        "Ġminimum",
        -10.081531789341142
      ],
      [
        "resistant",
        -10.081547136583763
      ],
      [
        "Ġdrugs",
        -10.082303097391788
      ],
      [
        "Ġregister",
        -10.082375989320802
      ],
      [
        "Ġmother",
        -10.083142997052324
      ],
      [
        "Ġpeak",
        -10.083561591736393
      ],
      [
        "Ġfear",
        -10.084008463702968
      ],
      [
        "accurac",
        -10.0850516155883
      ],
      [
        "Ġplent",
        -10.085074434404383
      ],
      [
        "Ġrubber",
        -10.085238458196716
      ],
      [
        "Ġcalm",
        -10.08525944971067
      ],
      [
        "Ġsurvival",
        -10.085295872545146
      ],
      [
        "Ġinterface",
        -10.086155707191274
      ],
      [
        "Ġtreated",
        -10.086438557524176
      ],
      [
        "Ġcontrolle",
        -10.086939626596717
      ],
      [
        "oxide",
        -10.08699797018615
      ],
      [
        "Ġapart",
        -10.08751569467783
      ],
      [
        "Ġexplor",
        -10.088677557536364
      ],
      [
        "Ġlie",
        -10.08872260911857
      ],
      [
        "Ġvaccine",
        -10.08968024150371
      ],
      [
        "Ġcapabilit",
        -10.089979139463493
      ],
      [
        "Ġlarva",
        -10.09348841069589
      ],
      [
        "Ġequation",
        -10.09349244402702
      ],
      [
        "Ġcalci",
        -10.094378049274136
      ],
      [
        "Ġvertical",
        -10.09455255569619
      ],
      [
        "ĠJul",
        -10.094727313253886
      ],
      [
        "Ġaccident",
        -10.09484468672537
      ],
      [
        "Ġdish",
        -10.095018186577716
      ],
      [
        "Ġfiles",
        -10.095268386394515
      ],
      [
        "-be",
        -10.096740122692191
      ],
      [
        "ĠPeople",
        -10.097338468975922
      ],
      [
        "Ġdamaged",
        -10.097354668652205
      ],
      [
        "per",
        -10.098231349856484
      ],
      [
        "Ġbottle",
        -10.098256377515844
      ],
      [
        "Ġurban",
        -10.098257515339416
      ],
      [
        "Ġlifestyle",
        -10.098457692310228
      ],
      [
        "Ġhousehold",
        -10.09856481305204
      ],
      [
        "ĠLED",
        -10.100082955628311
      ],
      [
        "Ġpropose",
        -10.10150341179111
      ],
      [
        "acific",
        -10.10209248781584
      ],
      [
        "Ġgraph",
        -10.102277599021996
      ],
      [
        "Ġkitchen",
        -10.102399519926175
      ],
      [
        "Ġattach",
        -10.10242015643481
      ],
      [
        "âĢĻt",
        -10.10282896701533
      ],
      [
        "Ġdirt",
        -10.103394191502389
      ],
      [
        "Ġeliminate",
        -10.103826047845397
      ],
      [
        "Ġband",
        -10.104354208278975
      ],
      [
        "Ġforests",
        -10.104365442101331
      ],
      [
        "Ġjump",
        -10.10527590643062
      ],
      [
        "Ġseat",
        -10.105719286157129
      ],
      [
        "Ġpowder",
        -10.106672843294952
      ],
      [
        "Ġguideline",
        -10.106995962690618
      ],
      [
        "Ġargument",
        -10.107436432848909
      ],
      [
        "Yes",
        -10.108660862870826
      ],
      [
        "Ġhospital",
        -10.108956295460722
      ],
      [
        "Ġcit",
        -10.109797954291068
      ],
      [
        "Ġminimize",
        -10.110256132922183
      ],
      [
        "Ġmaster",
        -10.11038139506838
      ],
      [
        "Ġconsequence",
        -10.11053065321108
      ],
      [
        "Ġamazing",
        -10.11053073118681
      ],
      [
        "Ġextensive",
        -10.1105370455587
      ],
      [
        "Ġchose",
        -10.110898519770624
      ],
      [
        "Ġphotos",
        -10.111416605097542
      ],
      [
        "ural",
        -10.11180625531135
      ],
      [
        "Ġpainting",
        -10.111957312310777
      ],
      [
        "Ġcontrast",
        -10.112099315608788
      ],
      [
        "Ġprogramming",
        -10.112305387749398
      ],
      [
        "Ġbees",
        -10.112312568757083
      ],
      [
        "ĠSan",
        -10.112465742957092
      ],
      [
        "Ġsolve",
        -10.112716048733525
      ],
      [
        "Ġvehicles",
        -10.112809477211645
      ],
      [
        "Ġbug",
        -10.113385487205129
      ],
      [
        "Ġenvironments",
        -10.11350164502959
      ],
      [
        "ĠTexas",
        -10.114115049687712
      ],
      [
        "ling",
        -10.11516052639328
      ],
      [
        "Ġbudget",
        -10.11528411686592
      ],
      [
        "Ġuniversit",
        -10.115397514313326
      ],
      [
        "Ġprompt",
        -10.11552819551698
      ],
      [
        "ĠEl",
        -10.11609483743849
      ],
      [
        "Ġpesticide",
        -10.116783447890557
      ],
      [
        "Ġconventional",
        -10.116877424710996
      ],
      [
        "Ġsufficient",
        -10.11700014306318
      ],
      [
        "Ġleaving",
        -10.119170002198365
      ],
      [
        "Ġguy",
        -10.120356361617628
      ],
      [
        "Ġsamples",
        -10.120650240330791
      ],
      [
        "exposed",
        -10.121018032724155
      ],
      [
        "Ġgum",
        -10.122275086430577
      ],
      [
        "Ġpin",
        -10.122384840657622
      ],
      [
        "Ġspray",
        -10.123016717850124
      ],
      [
        "ĠTE",
        -10.12328943252502
      ],
      [
        "Ġstomach",
        -10.123578472282938
      ],
      [
        "Ġkg",
        -10.12527017928016
      ],
      [
        "ĠFlorida",
        -10.125848374707829
      ],
      [
        "ĠGod",
        -10.126621271702032
      ],
      [
        "Ġgravit",
        -10.127500962909988
      ],
      [
        "Ġtri",
        -10.127687754247392
      ],
      [
        "ard",
        -10.127706477221915
      ],
      [
        "Ġsaving",
        -10.127884830891173
      ],
      [
        "Ġsmell",
        -10.127895581339931
      ],
      [
        "Ġrough",
        -10.128219616203422
      ],
      [
        "Ġabsolute",
        -10.128663503992296
      ],
      [
        "ĠAdd",
        -10.12867039667772
      ],
      [
        "Ġgirl",
        -10.129090401355976
      ],
      [
        "how",
        -10.1304314802467
      ],
      [
        "Ġindustrial",
        -10.130535136261445
      ],
      [
        "Ġcloud",
        -10.131532163990052
      ],
      [
        "Ġsituations",
        -10.131762615375845
      ],
      [
        "Ġflour",
        -10.132234320125509
      ],
      [
        "Ġeight",
        -10.132260498333292
      ],
      [
        "Ġfailure",
        -10.132742122495715
      ],
      [
        "Ġ...Ċ",
        -10.133012574959206
      ],
      [
        "Ġassembl",
        -10.13426092971284
      ],
      [
        "Ġshade",
        -10.13481367626938
      ],
      [
        "Ġintake",
        -10.135502566020548
      ],
      [
        "Ġrealize",
        -10.136599901800889
      ],
      [
        "Ġcompetition",
        -10.136678323355962
      ],
      [
        "Ġprofessor",
        -10.136680577272696
      ],
      [
        "Ġlayers",
        -10.136721969759856
      ],
      [
        "Ġdownload",
        -10.137399654833622
      ],
      [
        "ways",
        -10.138012992039776
      ],
      [
        "Ġcomparison",
        -10.141807371379969
      ],
      [
        "Ġgreenhouse",
        -10.14223601960668
      ],
      [
        "Ġthorough",
        -10.142656374083344
      ],
      [
        "Ġchain",
        -10.142766270195942
      ],
      [
        "Ġplanting",
        -10.142932630488232
      ],
      [
        "Ġquantit",
        -10.143173393117092
      ],
      [
        "Ġshowing",
        -10.14585462395577
      ],
      [
        "hildren",
        -10.14595552571308
      ],
      [
        "Ġproduc",
        -10.146022464747574
      ],
      [
        "Ġfeather",
        -10.146032846409875
      ],
      [
        "Ġoral",
        -10.14628097830292
      ],
      [
        "wise",
        -10.146796119851349
      ],
      [
        "ĠBoth",
        -10.146850607273866
      ],
      [
        "Ġcomputers",
        -10.14943253459989
      ],
      [
        "Ġahead",
        -10.149467371285482
      ],
      [
        "Ġthread",
        -10.150013654392009
      ],
      [
        "Ġinitiative",
        -10.150285319863508
      ],
      [
        "Ġedit",
        -10.15038954611446
      ],
      [
        "Ġprecise",
        -10.15086488239942
      ],
      [
        "Ġallerg",
        -10.15305539576792
      ],
      [
        "ware",
        -10.15403691833869
      ],
      [
        "ĠNov",
        -10.15488547085788
      ],
      [
        "Ġbean",
        -10.154960514203635
      ],
      [
        "ĠGarden",
        -10.155143908155049
      ],
      [
        "-time",
        -10.1564933575378
      ],
      [
        "Ġclimb",
        -10.157575368742314
      ],
      [
        "According",
        -10.15801300487339
      ],
      [
        "Use",
        -10.158160439514614
      ],
      [
        "Ġten",
        -10.158488766322478
      ],
      [
        "More",
        -10.160232507581911
      ],
      [
        "Ġappreciate",
        -10.160599688387975
      ],
      [
        "Ġvarie",
        -10.161502908749505
      ],
      [
        "Ġshop",
        -10.161998952366645
      ],
      [
        "&",
        -10.16219375763377
      ],
      [
        "Ġcreativ",
        -10.16258321960564
      ],
      [
        "ĠCar",
        -10.16266307941537
      ],
      [
        "Ġlock",
        -10.163394253478812
      ],
      [
        "Ġdistinct",
        -10.163588040033687
      ],
      [
        "Ġflood",
        -10.164428876919448
      ],
      [
        "Ġmanag",
        -10.164468998674195
      ],
      [
        "round",
        -10.166093292455418
      ],
      [
        "tely",
        -10.166634396849668
      ],
      [
        "ĠGood",
        -10.166821856334636
      ],
      [
        "Ġofficial",
        -10.166985373427789
      ],
      [
        "il",
        -10.167355010348055
      ],
      [
        "from",
        -10.167461729898577
      ],
      [
        "Ġsymbol",
        -10.16844849349956
      ],
      [
        "Ġreward",
        -10.168924923951252
      ],
      [
        "Ġbite",
        -10.169436405389373
      ],
      [
        "pH",
        -10.169495981196444
      ],
      [
        "end",
        -10.172382935195042
      ],
      [
        "ĠSociet",
        -10.173363373689437
      ],
      [
        "Ġvisibl",
        -10.17599301802479
      ],
      [
        "ĠJune",
        -10.177543120841417
      ],
      [
        "Ġstream",
        -10.179616008788692
      ],
      [
        "Ġstroke",
        -10.180880448819444
      ],
      [
        "Ġorange",
        -10.181844848155784
      ],
      [
        "Ġstructural",
        -10.181864974112225
      ],
      [
        "Ġupdate",
        -10.181964617824992
      ],
      [
        "Ġcalories",
        -10.18205438553684
      ],
      [
        "Ġspen",
        -10.182110778774176
      ],
      [
        "Ġbreast",
        -10.18284416573758
      ],
      [
        "Ġtear",
        -10.18315751062934
      ],
      [
        "Ġexchange",
        -10.1832141483685
      ],
      [
        "Ġtrial",
        -10.184204552507502
      ],
      [
        "Ġmolecular",
        -10.18443492098017
      ],
      [
        "Ġlots",
        -10.184873303418229
      ],
      [
        "ĠThu",
        -10.186040152245738
      ],
      [
        "Ġhistorical",
        -10.186222185206375
      ],
      [
        "definitely",
        -10.186302113187509
      ],
      [
        "Ġboil",
        -10.18632279220503
      ],
      [
        "Ġspecialize",
        -10.186358110593098
      ],
      [
        "Ġacademic",
        -10.18656258486305
      ],
      [
        "Ġga",
        -10.186638472248855
      ],
      [
        "Ġhi",
        -10.188634665411453
      ],
      [
        "Ġplus",
        -10.191081229864809
      ],
      [
        "Ġformula",
        -10.191608542892592
      ],
      [
        "Ġcopy",
        -10.191988945630245
      ],
      [
        "Ġplane",
        -10.192596223110831
      ],
      [
        "ĠBritish",
        -10.192930599910664
      ],
      [
        "Ġbelt",
        -10.193466053652706
      ],
      [
        "Ġhydrogen",
        -10.194051243415418
      ],
      [
        "ĠTake",
        -10.194563498658372
      ],
      [
        "ĠAugust",
        -10.195929060694176
      ],
      [
        "Ġlawn",
        -10.19594491532478
      ],
      [
        "-of",
        -10.19638798979407
      ],
      [
        "ĠSun",
        -10.197154898744502
      ],
      [
        "Ġmayb",
        -10.197427307495891
      ],
      [
        "Ġtire",
        -10.197653881415128
      ],
      [
        "Ġsong",
        -10.197876161535358
      ],
      [
        "ĠFrench",
        -10.19856100638925
      ],
      [
        "Ġfamiliar",
        -10.19913010554787
      ],
      [
        "ĠGet",
        -10.19983304730965
      ],
      [
        "ĠEnergy",
        -10.199922575833735
      ],
      [
        "Ġimagine",
        -10.200512905938364
      ],
      [
        "Ġbike",
        -10.200737351419225
      ],
      [
        "co",
        -10.200746749619036
      ],
      [
        "ĠAny",
        -10.200966434578676
      ],
      [
        "Ġprior",
        -10.201138259326228
      ],
      [
        "Ġherb",
        -10.201457867017854
      ],
      [
        "Ġmistake",
        -10.202738367200748
      ],
      [
        "Ġintroduc",
        -10.20279053071526
      ],
      [
        "Ġtrace",
        -10.203675728493964
      ],
      [
        "ĠPro",
        -10.204299956576197
      ],
      [
        "iness",
        -10.205141109290723
      ],
      [
        "Ġsediment",
        -10.205195805246358
      ],
      [
        "Ġmobile",
        -10.20519765321527
      ],
      [
        "Ġinnovative",
        -10.205198710312573
      ],
      [
        "Ġmammal",
        -10.20558482581948
      ],
      [
        "Ġoxidati",
        -10.206015230492788
      ],
      [
        "Ġguid",
        -10.207725277712182
      ],
      [
        "Ġbroken",
        -10.207933961801317
      ],
      [
        "Ġpictures",
        -10.20814053181796
      ],
      [
        "Ġwouldn",
        -10.2088491020459
      ],
      [
        "ĠIndian",
        -10.20903067525794
      ],
      [
        "Ġfly",
        -10.209700864589127
      ],
      [
        "Ġkidney",
        -10.210423392910226
      ],
      [
        "Ġconstruct",
        -10.210730379525575
      ],
      [
        "Ġvelocit",
        -10.211102683093191
      ],
      [
        "Ġrecovery",
        -10.211624681893996
      ],
      [
        "Ġclinical",
        -10.21303977803001
      ],
      [
        "Ġattribute",
        -10.213063500470096
      ],
      [
        "Ġcontract",
        -10.213290594120888
      ],
      [
        "biology",
        -10.21398039904222
      ],
      [
        "Ġidentit",
        -10.215181258907185
      ],
      [
        "Ġscene",
        -10.21552432674267
      ],
      [
        "Ġequivalent",
        -10.21573221752922
      ],
      [
        "ĠZ",
        -10.21678396443029
      ],
      [
        "Ġcooked",
        -10.21689773994238
      ],
      [
        "Ġdecide",
        -10.218073504838989
      ],
      [
        "nxiety",
        -10.219306797925327
      ],
      [
        "ĠWhere",
        -10.219676305590465
      ],
      [
        "Ġrecipe",
        -10.219997212842472
      ],
      [
        "Ġchocolate",
        -10.220009285485158
      ],
      [
        "Ġdecided",
        -10.22014326566867
      ],
      [
        "Ġnorth",
        -10.22064699221544
      ],
      [
        "Ġhelping",
        -10.221653938246028
      ],
      [
        "Ġteams",
        -10.222401983875642
      ],
      [
        "Ġinstrument",
        -10.223306580550702
      ],
      [
        "Ġsurprise",
        -10.224289340377403
      ],
      [
        "Ġpredator",
        -10.22505852996577
      ],
      [
        "ership",
        -10.225300558754114
      ],
      [
        "Ġfossil",
        -10.225867319422068
      ],
      [
        "Ġprotective",
        -10.226577711116544
      ],
      [
        "Ġincorporate",
        -10.227521234390457
      ],
      [
        "Ġbath",
        -10.22810662925954
      ],
      [
        "Ġattend",
        -10.229060583273323
      ],
      [
        "Ġintervention",
        -10.229472903270274
      ],
      [
        "Ġinvest",
        -10.229504700374548
      ],
      [
        "Ġbowl",
        -10.229985404780928
      ],
      [
        "Ġimport",
        -10.230154429635974
      ],
      [
        "Ġbutter",
        -10.230206114231873
      ],
      [
        "low",
        -10.230449322939894
      ],
      [
        "Ġpink",
        -10.230530837524462
      ],
      [
        "Ġtrade",
        -10.230825768341983
      ],
      [
        "Z",
        -10.231036923984394
      ],
      [
        "Ġmicro",
        -10.23142080935938
      ],
      [
        "ibility",
        -10.231839647108306
      ],
      [
        "Ġriver",
        -10.232344400742871
      ],
      [
        "Ġfurni",
        -10.233546697390732
      ],
      [
        "Ġbarrier",
        -10.23397479926506
      ],
      [
        "Ġpackage",
        -10.234111006795043
      ],
      [
        "Ġphysics",
        -10.234900578301568
      ],
      [
        "Ġmodule",
        -10.234989958231534
      ],
      [
        "Ġshell",
        -10.235009861401906
      ],
      [
        "Ġtrouble",
        -10.236499677304952
      ],
      [
        "Ġcraft",
        -10.237273467898609
      ],
      [
        "Ġliver",
        -10.237695523614269
      ],
      [
        "Ġsudden",
        -10.238859143907591
      ],
      [
        "Ġtoxic",
        -10.239800285984073
      ],
      [
        "ĠGuide",
        -10.240743139301337
      ],
      [
        "Ġuniverse",
        -10.241168448035635
      ],
      [
        "ĠTechnology",
        -10.242744421050272
      ],
      [
        "Ġwheel",
        -10.243775636681953
      ],
      [
        "History",
        -10.24400265714211
      ],
      [
        "Ġlab",
        -10.244465250841628
      ],
      [
        "Ġhazard",
        -10.245087175835508
      ],
      [
        "Ġfault",
        -10.245104403195462
      ],
      [
        "Ġvast",
        -10.245287243310026
      ],
      [
        "ĠCheck",
        -10.245828535674114
      ],
      [
        "ĠOcto",
        -10.246864906996102
      ],
      [
        "Ġconsult",
        -10.246883374860424
      ],
      [
        "-on",
        -10.247024876486543
      ],
      [
        "Ġcrack",
        -10.247114369910737
      ],
      [
        "Ġecosystem",
        -10.247197145012352
      ],
      [
        "Ġstretch",
        -10.24811609575912
      ],
      [
        "ĠPower",
        -10.248683244698944
      ],
      [
        "Ġinner",
        -10.248833498258833
      ],
      [
        "Ġsnow",
        -10.24906562389758
      ],
      [
        "Ġseven",
        -10.249212385850122
      ],
      [
        "ĠEast",
        -10.249382014525878
      ],
      [
        "Onc",
        -10.249616046508573
      ],
      [
        "Ġwish",
        -10.250071597890702
      ],
      [
        "Ġthreaten",
        -10.252731480598474
      ],
      [
        "Ġsupplie",
        -10.253531062978116
      ],
      [
        "Ġspirit",
        -10.25362229917215
      ],
      [
        "Ġsent",
        -10.253845668923828
      ],
      [
        "ble",
        -10.253908044660133
      ],
      [
        "ha",
        -10.254049908006092
      ],
      [
        "ĠCollege",
        -10.255283224284703
      ],
      [
        "Ġlaser",
        -10.255439465791785
      ],
      [
        "Ġtall",
        -10.25654682269024
      ],
      [
        "ĠHome",
        -10.256829291576128
      ],
      [
        "Ġsecret",
        -10.257560348379672
      ],
      [
        "Ġinter",
        -10.257824384417086
      ],
      [
        "Ġfan",
        -10.2582948736212
      ],
      [
        "ĠWild",
        -10.25856232452128
      ],
      [
        "Ġturtle",
        -10.258606561984871
      ],
      [
        "Ġspaces",
        -10.258990324648504
      ],
      [
        "Ġstar",
        -10.2590765055944
      ],
      [
        "Ġfeedback",
        -10.259631733575544
      ],
      [
        "Ġdesir",
        -10.260038396851565
      ],
      [
        "Ġpolitical",
        -10.260143580317362
      ],
      [
        "Ġroute",
        -10.260801480047563
      ],
      [
        "Ġgase",
        -10.261937677208302
      ],
      [
        "Ġdust",
        -10.26225457149669
      ],
      [
        "Ġchoices",
        -10.262611839015742
      ],
      [
        "Ġgradual",
        -10.26360801838095
      ],
      [
        "Ġintelligence",
        -10.263827254993345
      ],
      [
        "ĠAfrican",
        -10.264135656938612
      ],
      [
        "Ġusage",
        -10.265059018278862
      ],
      [
        "otherwise",
        -10.265621075419716
      ],
      [
        "Ġtrail",
        -10.266626210747637
      ],
      [
        "Ġloose",
        -10.267008019589628
      ],
      [
        "Ġexcit",
        -10.268746394993515
      ],
      [
        "Ġminimal",
        -10.268754616924488
      ],
      [
        "Ġdiagnosis",
        -10.268965888784711
      ],
      [
        "Ġplug",
        -10.268989009183269
      ],
      [
        "ĠPlant",
        -10.269100747678593
      ],
      [
        "Ġlaws",
        -10.269254400608284
      ],
      [
        "Ġhardware",
        -10.269395404522252
      ],
      [
        "].",
        -10.269602991989498
      ],
      [
        "ĠWashington",
        -10.270746743943093
      ],
      [
        "ĠRed",
        -10.271179145558357
      ],
      [
        "Ġalter",
        -10.272061303444207
      ],
      [
        "Ġpond",
        -10.272462349263767
      ],
      [
        "Ġrapid",
        -10.273335012921486
      ],
      [
        "Ġtransmission",
        -10.273697757328684
      ],
      [
        "Ġmild",
        -10.274177218238805
      ],
      [
        "Ġgrant",
        -10.274421252636635
      ],
      [
        "Ġdirector",
        -10.27452413219083
      ],
      [
        "Ġvegetable",
        -10.274546116918817
      ],
      [
        "ĠLook",
        -10.27457194890027
      ],
      [
        "ĠTime",
        -10.275002911508375
      ],
      [
        "Ġpermanent",
        -10.275166805046606
      ],
      [
        "Ġbulb",
        -10.275364243144791
      ],
      [
        "Ġgap",
        -10.275390794356555
      ],
      [
        "Ġwasn",
        -10.27616831421164
      ],
      [
        "ter",
        -10.277460594678807
      ],
      [
        "Researchers",
        -10.277684842040191
      ],
      [
        "wood",
        -10.278537016460486
      ],
      [
        "Ġtrait",
        -10.278760798896656
      ],
      [
        "Ġdelicious",
        -10.278771134191087
      ],
      [
        "ĠSpace",
        -10.278777895465224
      ],
      [
        "Ġdiffer",
        -10.2788389117852
      ],
      [
        "dom",
        -10.278882292890144
      ],
      [
        "Ġswimming",
        -10.279284756528734
      ],
      [
        "Ġinstallation",
        -10.279600670496553
      ],
      [
        "Ġcolumn",
        -10.28030056590288
      ],
      [
        "Ġedges",
        -10.280632175926224
      ],
      [
        "Ġyouth",
        -10.280903195569898
      ],
      [
        "Ġplays",
        -10.281137551956553
      ],
      [
        "ĠCare",
        -10.281487288213851
      ],
      [
        "Ġopening",
        -10.281867131015536
      ],
      [
        "Ġadequate",
        -10.282147263065625
      ],
      [
        "ĠGoogle",
        -10.282319595112227
      ],
      [
        "Ġlinked",
        -10.282473927382108
      ],
      [
        "Ġincorporat",
        -10.283029916225615
      ],
      [
        "ium",
        -10.28316121601884
      ],
      [
        "Ġcommunicate",
        -10.283280713849376
      ],
      [
        "Ġtopics",
        -10.28349821316107
      ],
      [
        "Ġincome",
        -10.283550625174248
      ],
      [
        "Ġfoster",
        -10.283864266893351
      ],
      [
        "Ġheavi",
        -10.283868963356156
      ],
      [
        "Ġsouth",
        -10.283978620376692
      ],
      [
        "Ġbab",
        -10.284257573165675
      ],
      [
        "rising",
        -10.28435344160441
      ],
      [
        "ĠRemember",
        -10.284554003630332
      ],
      [
        "Ġguess",
        -10.28571245096169
      ],
      [
        "Ġnutritional",
        -10.285795135871314
      ],
      [
        "Ġmiss",
        -10.286419422186729
      ],
      [
        "ĠStudent",
        -10.28671088816083
      ],
      [
        "he",
        -10.286979391684408
      ],
      [
        "ĠHuman",
        -10.287604199791875
      ],
      [
        "Ġsharp",
        -10.287858299523222
      ],
      [
        "?\"",
        -10.288093337913956
      ],
      [
        "Ġaudience",
        -10.289510009712531
      ],
      [
        "ĠAssociation",
        -10.2896984938157
      ],
      [
        "Ġpreparation",
        -10.29012044817576
      ],
      [
        "Ġ{",
        -10.290354136472429
      ],
      [
        "Ġrapidly",
        -10.290605198567206
      ],
      [
        "Ġparticipate",
        -10.292839636767615
      ],
      [
        "Let",
        -10.29289341003823
      ],
      [
        "Ġdiagram",
        -10.294143087364851
      ],
      [
        "Ġbathroom",
        -10.294160840140815
      ],
      [
        "Ġadventure",
        -10.29431573469815
      ],
      [
        "Ġbleed",
        -10.294422981237776
      ],
      [
        "Ġinflammation",
        -10.294815412985514
      ],
      [
        "ĠThrough",
        -10.294930854460503
      ],
      [
        "ĠWest",
        -10.29562252338114
      ],
      [
        "Ġworse",
        -10.29567073249256
      ],
      [
        "Ġpose",
        -10.297318461326467
      ],
      [
        "Ġcustom",
        -10.297522430558477
      ],
      [
        "Ġscore",
        -10.297951581644895
      ],
      [
        "Ġbrush",
        -10.298547083676482
      ],
      [
        "ĠBlue",
        -10.29892103321943
      ],
      [
        "ĠLike",
        -10.299355338772386
      ],
      [
        "Ġmountain",
        -10.299578007141676
      ],
      [
        "Ġmeasuring",
        -10.299701972134496
      ],
      [
        "Ġdesigner",
        -10.300893464446036
      ],
      [
        "Ġboundar",
        -10.301910570557736
      ],
      [
        "Ġthermal",
        -10.302083227180592
      ],
      [
        "Ġthrive",
        -10.302239580144484
      ],
      [
        "ĠCo",
        -10.30239731011563
      ],
      [
        "ebru",
        -10.302902276905392
      ],
      [
        "Ġagricultural",
        -10.302941264214928
      ],
      [
        "Ġmanner",
        -10.304691415930703
      ],
      [
        "ought",
        -10.3053223078757
      ],
      [
        "Ġassume",
        -10.305541876993557
      ],
      [
        "...Ċ",
        -10.305607802615835
      ],
      [
        "ĠPhotoshop",
        -10.306271709862006
      ],
      [
        "ent",
        -10.306370680528255
      ],
      [
        "Ġtropical",
        -10.306773298193551
      ],
      [
        "ĠJohn",
        -10.307694388748278
      ],
      [
        "Re",
        -10.307748382318971
      ],
      [
        "Ġgift",
        -10.309768717758988
      ],
      [
        "Ġdiameter",
        -10.30977867565991
      ],
      [
        "Ġcrystal",
        -10.310196339481784
      ],
      [
        "Ġsauce",
        -10.3102943126023
      ],
      [
        "Ġkm",
        -10.31068006769559
      ],
      [
        "Ġcavit",
        -10.310777776404835
      ],
      [
        "Ġgenerat",
        -10.31078269967389
      ],
      [
        "Ġprofit",
        -10.311065933080156
      ],
      [
        "Ġbat",
        -10.312125974222637
      ],
      [
        "Ġprey",
        -10.312266700132412
      ],
      [
        "Ġmassive",
        -10.312307325681711
      ],
      [
        ".[",
        -10.31259068242322
      ],
      [
        "Ġdose",
        -10.312822899312437
      ],
      [
        "Ġinstitution",
        -10.31360793220712
      ],
      [
        "oid",
        -10.314007641816684
      ],
      [
        "Ġspider",
        -10.315033926643984
      ],
      [
        "Ġworkshop",
        -10.31511474337335
      ],
      [
        "Ġengaging",
        -10.315415053579583
      ],
      [
        "ĠHis",
        -10.316675152869092
      ],
      [
        "Ġquote",
        -10.31718108543128
      ],
      [
        "Ġinjuries",
        -10.31782013224607
      ],
      [
        "Ġparasite",
        -10.318445365327827
      ],
      [
        "ene",
        -10.318647902521942
      ],
      [
        "intended",
        -10.31871131402564
      ],
      [
        "some",
        -10.319084372604683
      ],
      [
        "Ġrely",
        -10.3198174354049
      ],
      [
        "Â",
        -10.320239423152016
      ],
      [
        "PS",
        -10.320419326892008
      ],
      [
        "hi",
        -10.320557022619523
      ],
      [
        "Ġpotato",
        -10.32070874438903
      ],
      [
        "Ġanimation",
        -10.320708899219571
      ],
      [
        "Ġpossibl",
        -10.320747192188534
      ],
      [
        "ĠDisease",
        -10.321321741779272
      ],
      [
        "Ġbelief",
        -10.321474259642422
      ],
      [
        "Ġcoal",
        -10.322007100987175
      ],
      [
        "AND",
        -10.32201012278641
      ],
      [
        "Ġweak",
        -10.32243029639195
      ],
      [
        "From",
        -10.324287188269976
      ],
      [
        "Ġdynamic",
        -10.324467590997902
      ],
      [
        "Ġputt",
        -10.32458540217912
      ],
      [
        "Ġderive",
        -10.32466708248296
      ],
      [
        "ĠCommon",
        -10.325367755900215
      ],
      [
        "Ġexcess",
        -10.325480692870755
      ],
      [
        "Ġinterior",
        -10.325659482850806
      ],
      [
        "Ġrestaurant",
        -10.326029312148034
      ],
      [
        "Ġindustrie",
        -10.327656443700173
      ],
      [
        "Ġevaluate",
        -10.328521318649592
      ],
      [
        "ĠSee",
        -10.329492370895696
      ],
      [
        "Ġdiagnose",
        -10.33003082257028
      ],
      [
        "dministration",
        -10.330842314689836
      ],
      [
        "group",
        -10.331220540306507
      ],
      [
        "ĠOcean",
        -10.331247476424185
      ],
      [
        "Ġfelt",
        -10.331437718923842
      ],
      [
        "Ġcollaboration",
        -10.331459914152344
      ],
      [
        "ke",
        -10.332176020134812
      ],
      [
        "Ġlitter",
        -10.332216365140958
      ],
      [
        "ĠLondon",
        -10.33230754700258
      ],
      [
        "ĠEngl",
        -10.332467784296288
      ],
      [
        "Ġforget",
        -10.333392327250415
      ],
      [
        "Ġabilit",
        -10.33367414174535
      ],
      [
        "Ġachiev",
        -10.333924033653629
      ],
      [
        "Ġha",
        -10.33406397972593
      ],
      [
        "Ġbio",
        -10.334192122220776
      ],
      [
        "Since",
        -10.335243725433422
      ],
      [
        "all",
        -10.335463693116903
      ],
      [
        "Ġcord",
        -10.336432753110117
      ],
      [
        "Ġreli",
        -10.336597471082552
      ],
      [
        "Ġopposite",
        -10.33686713948415
      ],
      [
        "Ġsector",
        -10.337108259086923
      ],
      [
        "Ġadjustment",
        -10.337421041182882
      ],
      [
        "Ġdelay",
        -10.337719628870303
      ],
      [
        "gone",
        -10.338342721125263
      ],
      [
        "Ġsmok",
        -10.339233225524747
      ],
      [
        "Ġnervous",
        -10.341770960974692
      ],
      [
        "ĠNatural",
        -10.34193048624968
      ],
      [
        "Ġrepeat",
        -10.342832786590469
      ],
      [
        "Ġstring",
        -10.342882477289187
      ],
      [
        "ĠEar",
        -10.34424472726596
      ],
      [
        "\"The",
        -10.34424694888598
      ],
      [
        "Ġaward",
        -10.344676461993236
      ],
      [
        "Ġsmoke",
        -10.345440971201793
      ],
      [
        "ĠGeneral",
        -10.346756936428667
      ],
      [
        "Ġdanger",
        -10.34702081669511
      ],
      [
        "Ġnarrow",
        -10.347214263679414
      ],
      [
        "Ġorgans",
        -10.347294519908296
      ],
      [
        "Ġalert",
        -10.34732768409152
      ],
      [
        "Ġvibrant",
        -10.34748685734673
      ],
      [
        "Ġgender",
        -10.34825736761147
      ],
      [
        "Ġperception",
        -10.349200816563425
      ],
      [
        "Ġlake",
        -10.349337235933978
      ],
      [
        "Ġpresentation",
        -10.349441943327934
      ],
      [
        "Ġwoman",
        -10.350299892202802
      ],
      [
        "Ġrealit",
        -10.35075647874914
      ],
      [
        "Ġalign",
        -10.352239735508636
      ],
      [
        "Ġfacing",
        -10.352671773704648
      ],
      [
        "Ġneck",
        -10.352937371876374
      ],
      [
        "ĠDesign",
        -10.35302894945238
      ],
      [
        "ĠConsider",
        -10.353049648947223
      ],
      [
        "Ġserver",
        -10.353147172989448
      ],
      [
        "Ġformer",
        -10.353825002907158
      ],
      [
        "Ġmanufacturers",
        -10.35419428709526
      ],
      [
        "ĠGreek",
        -10.354452322902452
      ],
      [
        "ĠAnimal",
        -10.35534984022452
      ],
      [
        "Ġmovie",
        -10.35605796017407
      ],
      [
        "Ġsteam",
        -10.356681212806931
      ],
      [
        "ions",
        -10.356689637963346
      ],
      [
        "Ġsex",
        -10.356729797635769
      ],
      [
        "Ġauthors",
        -10.356843583976982
      ],
      [
        "ĠControl",
        -10.357092957872451
      ],
      [
        "Ġfence",
        -10.357641868570632
      ],
      [
        "Ġlimitation",
        -10.359399625883212
      ],
      [
        "Ġconsum",
        -10.359533125544775
      ],
      [
        "ĠEngineer",
        -10.359947478533371
      ],
      [
        "Ġreverse",
        -10.35999965880218
      ],
      [
        "Ġarrive",
        -10.360221782729967
      ],
      [
        "Ġcomput",
        -10.360253278386727
      ],
      [
        "Ġexperienc",
        -10.360509561142742
      ],
      [
        "Ġrandom",
        -10.3622753280152
      ],
      [
        "ative",
        -10.362788396255915
      ],
      [
        "Ġmissing",
        -10.363667646300616
      ],
      [
        "Ġwings",
        -10.36378145014492
      ],
      [
        "Ġferment",
        -10.36391574149564
      ],
      [
        "Ġpathway",
        -10.36458956254512
      ],
      [
        "ĠAM",
        -10.364930685688122
      ],
      [
        "we",
        -10.365279552290689
      ],
      [
        "but",
        -10.36581183748368
      ],
      [
        "Ġcircle",
        -10.366378787464342
      ],
      [
        "Ġrecover",
        -10.367332739236538
      ],
      [
        "Ġsales",
        -10.368419881031524
      ],
      [
        "Ġcoral",
        -10.369254521496364
      ],
      [
        "Ġdishe",
        -10.369607054582897
      ],
      [
        "Ġbridge",
        -10.369737184052632
      ],
      [
        "Ġunlike",
        -10.370830882228024
      ],
      [
        "Ġprove",
        -10.371396900676032
      ],
      [
        "Ġlense",
        -10.371736539542386
      ],
      [
        "ĠInterne",
        -10.372559992466684
      ],
      [
        "Ġecosystems",
        -10.372638003715124
      ],
      [
        "Ġsexual",
        -10.372984575697725
      ],
      [
        "ĠWork",
        -10.373237933302434
      ],
      [
        "Ġhunting",
        -10.373459750532591
      ],
      [
        "ĠStep",
        -10.373876986912476
      ],
      [
        "Ġauto",
        -10.37494292819856
      ],
      [
        "Ġconfidence",
        -10.378805659663858
      ],
      [
        "Ġvet",
        -10.380319080080849
      ],
      [
        "Ġpolic",
        -10.380362058940085
      ],
      [
        "Ġborder",
        -10.380463432535963
      ],
      [
        "you",
        -10.380529627831304
      ],
      [
        "Ġconversation",
        -10.38069807013744
      ],
      [
        "Ġfascinat",
        -10.380893264221678
      ],
      [
        "Ġantibiotic",
        -10.381032070120908
      ],
      [
        "Ġprogramme",
        -10.381406644224194
      ],
      [
        "Ġmutation",
        -10.382870402408416
      ],
      [
        "Ġcontribut",
        -10.382915666306545
      ],
      [
        "Not",
        -10.38301087818416
      ],
      [
        "Ġgather",
        -10.383665827552369
      ],
      [
        "Ġnet",
        -10.383809256173638
      ],
      [
        "Ġdetermin",
        -10.384861243263003
      ],
      [
        "Ġinsect",
        -10.385098590406049
      ],
      [
        "Ġmajorit",
        -10.385314705350552
      ],
      [
        "ĠUn",
        -10.385491262576146
      ],
      [
        "Ġdescription",
        -10.38610038985522
      ],
      [
        "Â·",
        -10.38623185471597
      ],
      [
        "Ġchapter",
        -10.38634919846846
      ],
      [
        "Ġshapes",
        -10.386390425568544
      ],
      [
        "ĠII",
        -10.386620223169082
      ],
      [
        "Ġguarantee",
        -10.386839614141005
      ],
      [
        "ĠMedica",
        -10.38727799839614
      ],
      [
        "Ġaggressive",
        -10.38732176031046
      ],
      [
        "Ġecological",
        -10.387596556026509
      ],
      [
        "Ġemotion",
        -10.38768130579728
      ],
      [
        "-size",
        -10.387835476757829
      ],
      [
        "Ġcow",
        -10.388991260435088
      ],
      [
        "Ġmath",
        -10.389161985203607
      ],
      [
        "Ġtrie",
        -10.389810707559924
      ],
      [
        "ĠProject",
        -10.390590749271636
      ],
      [
        "ï¿½ï¿½",
        -10.390949802000904
      ],
      [
        "Ġsatellite",
        -10.392852993222128
      ],
      [
        "stone",
        -10.39292903453137
      ],
      [
        "izing",
        -10.392943405821494
      ],
      [
        "ring",
        -10.393319122707055
      ],
      [
        "Ġnose",
        -10.39357331908993
      ],
      [
        "Ġtie",
        -10.393586331530814
      ],
      [
        "Ġkilogram",
        -10.394008573202871
      ],
      [
        "Ġreache",
        -10.394520231193198
      ],
      [
        "Ġlifespan",
        -10.39780153284536
      ],
      [
        "Ġvolunteer",
        -10.39791220617746
      ],
      [
        "First",
        -10.398116352187412
      ],
      [
        "board",
        -10.39903769808786
      ],
      [
        "ĠTHE",
        -10.399124185641853
      ],
      [
        "Ġrecommendation",
        -10.39937121732623
      ],
      [
        "ial",
        -10.400144733330736
      ],
      [
        "Ġapproache",
        -10.400798447100913
      ],
      [
        "Ġhandl",
        -10.40136732871386
      ],
      [
        "Ġeco",
        -10.402252195866527
      ],
      [
        "Ġcouldn",
        -10.402633120631643
      ],
      [
        "Central",
        -10.403242684229305
      ],
      [
        "Ġdrill",
        -10.40324341251884
      ],
      [
        "Ġpure",
        -10.403580750766393
      ],
      [
        "Ġcharg",
        -10.403642944777308
      ],
      [
        "Ġconvenient",
        -10.40400311333757
      ],
      [
        "Ġvessels",
        -10.404761535942669
      ],
      [
        "ĠChrist",
        -10.404820537278658
      ],
      [
        "Ġtough",
        -10.405230364994646
      ],
      [
        "Ġpromoting",
        -10.405328946420063
      ],
      [
        "Ġtea",
        -10.405524222100585
      ],
      [
        "Ġbak",
        -10.405757502415598
      ],
      [
        "Ġeffectiveness",
        -10.405925104602163
      ],
      [
        "ĠKing",
        -10.406180882009863
      ],
      [
        "ĠLaw",
        -10.40756281720081
      ],
      [
        "Ġavailabil",
        -10.4082053782031
      ],
      [
        "Ġexam",
        -10.408493750680917
      ],
      [
        "Ġsink",
        -10.409411542209522
      ],
      [
        "Ġbiodiversity",
        -10.409852726899617
      ],
      [
        "Ġcoating",
        -10.410670822715108
      ],
      [
        "Us",
        -10.411050316715857
      ],
      [
        "Ġanalyze",
        -10.4125596238958
      ],
      [
        "Ġparty",
        -10.413873982561558
      ],
      [
        "Ġcategori",
        -10.414481276559105
      ],
      [
        "dden",
        -10.414550461226284
      ],
      [
        "Ġsold",
        -10.414629494874628
      ],
      [
        "ler",
        -10.414725124661858
      ],
      [
        "Ġextent",
        -10.414837531083116
      ],
      [
        "âĢĺ",
        -10.414847283430364
      ],
      [
        "Ġcalls",
        -10.41490207511416
      ],
      [
        "Ġneutral",
        -10.414965650109846
      ],
      [
        "Ġexplanation",
        -10.415114638908552
      ],
      [
        "Ġstrengthen",
        -10.415479258623863
      ],
      [
        "Ġattitude",
        -10.416714089145792
      ],
      [
        "Ġfamous",
        -10.417124399030572
      ],
      [
        "Ġstability",
        -10.417359224675073
      ],
      [
        "im",
        -10.417439601615362
      ],
      [
        "Ġshoot",
        -10.41840777049772
      ],
      [
        "ĠYear",
        -10.41884816335245
      ],
      [
        "Ġtheme",
        -10.420247227548032
      ],
      [
        "Ġtip",
        -10.420660274587052
      ],
      [
        "Ġconcrete",
        -10.42068588470572
      ],
      [
        "Ġconcerned",
        -10.421068649928912
      ],
      [
        "Ġchromosome",
        -10.42128021331035
      ],
      [
        "Ġantenna",
        -10.421518699042313
      ],
      [
        "Ġfather",
        -10.422714585033436
      ],
      [
        "ĠCon",
        -10.423627156531314
      ],
      [
        "Ġblind",
        -10.424139531085151
      ],
      [
        "Ġtax",
        -10.424743465734863
      ],
      [
        "Ġdied",
        -10.425584170489564
      ],
      [
        "Ġgel",
        -10.425736730626646
      ],
      [
        "Ġminor",
        -10.425797361246516
      ],
      [
        "Dr",
        -10.426174949825674
      ],
      [
        "Ġlights",
        -10.426376797715037
      ],
      [
        "ists",
        -10.427386375990611
      ],
      [
        "ĠMexic",
        -10.427518195374454
      ],
      [
        "Ġsky",
        -10.428323042814355
      ],
      [
        "Ġstreet",
        -10.43250391869093
      ],
      [
        "Ġabuse",
        -10.433141076491966
      ],
      [
        "Ġintense",
        -10.433143452077376
      ],
      [
        "Ġneuron",
        -10.434728294152862
      ],
      [
        "making",
        -10.435021010507732
      ],
      [
        "Ġdebri",
        -10.436357395929434
      ],
      [
        "Ġwor",
        -10.43682763804587
      ],
      [
        "Ġcombin",
        -10.43690775431162
      ],
      [
        "ĠFarming",
        -10.437166904118174
      ],
      [
        "/a",
        -10.43841185304905
      ],
      [
        "Ġsyndrome",
        -10.438439328710396
      ],
      [
        "een",
        -10.438461822597478
      ],
      [
        "ĠWindows",
        -10.438553063810089
      ],
      [
        "Ġshoulder",
        -10.438787705821904
      ],
      [
        "ĠRegular",
        -10.439526436817191
      ],
      [
        "Ġheater",
        -10.439795554537902
      ],
      [
        "Ġknowing",
        -10.440745884283016
      ],
      [
        "Ġbranche",
        -10.441560201131711
      ],
      [
        "Ġrose",
        -10.4429594113538
      ],
      [
        "Ġsnack",
        -10.444425560937646
      ],
      [
        "Ġendanger",
        -10.444466106114149
      ],
      [
        "Ġwrote",
        -10.445392687386558
      ],
      [
        "Ġdepartment",
        -10.445404499588152
      ],
      [
        "Ġspeech",
        -10.445558595553894
      ],
      [
        "Ġwin",
        -10.44640659221102
      ],
      [
        "Ġbutterfly",
        -10.44681430927869
      ],
      [
        "Ġworkers",
        -10.446991609941024
      ],
      [
        "\"We",
        -10.44706385298744
      ],
      [
        "Ġequipp",
        -10.44736162737243
      ],
      [
        "back",
        -10.447687689875885
      ],
      [
        "Ġrobot",
        -10.448485413721745
      ],
      [
        "ĠPython",
        -10.448860953773876
      ],
      [
        "Ġjobs",
        -10.449044141097342
      ],
      [
        "ĠPlease",
        -10.4498725537143
      ],
      [
        "ĠImage",
        -10.450076303132304
      ],
      [
        "Ġphotography",
        -10.450283330697054
      ],
      [
        "Ġdistinctive",
        -10.450664852898647
      ],
      [
        "Ġpepper",
        -10.451060120488622
      ],
      [
        "Ġindicator",
        -10.45111907824704
      ],
      [
        "pm",
        -10.45179222002796
      ],
      [
        "Ġvector",
        -10.451934511710364
      ],
      [
        "Ġsick",
        -10.451987326879872
      ],
      [
        "Ġversatile",
        -10.452846594091527
      ],
      [
        "ĠLight",
        -10.45316885632241
      ],
      [
        "ĠRead",
        -10.45337586159545
      ],
      [
        "eath",
        -10.45411889714903
      ],
      [
        "Ġhabitats",
        -10.454935074091438
      ],
      [
        "Ġresolution",
        -10.455613856876845
      ],
      [
        "Ġtone",
        -10.45697135463046
      ],
      [
        "ĠPer",
        -10.457198159215718
      ],
      [
        "%)",
        -10.45727342483461
      ],
      [
        "Ġembryo",
        -10.457301947675973
      ],
      [
        "Ġfederal",
        -10.457654313625996
      ],
      [
        "Ġunusual",
        -10.457733218308007
      ],
      [
        "Ġsides",
        -10.458137945204436
      ],
      [
        "ĠCat",
        -10.459118459453812
      ],
      [
        "see",
        -10.45943082031322
      ],
      [
        "Ġprofile",
        -10.459525072770646
      ],
      [
        "Ġprinter",
        -10.460496373506247
      ],
      [
        "Ġpaid",
        -10.460938618744317
      ],
      [
        "Ġtrick",
        -10.46128038292601
      ],
      [
        "Ġjuice",
        -10.462011452068566
      ],
      [
        "Ġswim",
        -10.462578793160018
      ],
      [
        "ĠLa",
        -10.46259645573747
      ],
      [
        "Ġsuspect",
        -10.462607103878431
      ],
      [
        "Ġfloat",
        -10.46300227121186
      ],
      [
        "Ġresident",
        -10.463029372829345
      ],
      [
        "Ġdentist",
        -10.463065223475802
      ],
      [
        "Ġmirror",
        -10.46322796849294
      ],
      [
        "Ġstands",
        -10.46348800945927
      ],
      [
        "Ġcategory",
        -10.463582416001913
      ],
      [
        "Ġpriorit",
        -10.463885500964352
      ],
      [
        "urine",
        -10.464381845634726
      ],
      [
        "ĠAct",
        -10.464423768834465
      ],
      [
        "Source",
        -10.465095356445822
      ],
      [
        "Keep",
        -10.46518482056734
      ],
      [
        "Ġrecording",
        -10.466647044761578
      ],
      [
        "Ġdense",
        -10.467634113862264
      ],
      [
        "Ġreaders",
        -10.46807476699506
      ],
      [
        "Ġgraduate",
        -10.468148301538765
      ],
      [
        "mas",
        -10.46848214723655
      ],
      [
        "Ġtransaction",
        -10.468745048850622
      ],
      [
        "Ġstronger",
        -10.469479364860293
      ],
      [
        "Ġwonderful",
        -10.46974341709207
      ],
      [
        "Ġmanager",
        -10.46975165872689
      ],
      [
        "Ġrotation",
        -10.470491373776229
      ],
      [
        "Ġthanks",
        -10.47104328932254
      ],
      [
        "Ġexcept",
        -10.472211825605552
      ],
      [
        "):",
        -10.472534992476888
      ],
      [
        "Ġdigest",
        -10.472615926670304
      ],
      [
        "Ġouter",
        -10.473153730158916
      ],
      [
        "Ġvulnerab",
        -10.47399550354254
      ],
      [
        "Ġpurchas",
        -10.4741740973057
      ],
      [
        "Ġreef",
        -10.474916722039248
      ],
      [
        "Ġkelp",
        -10.474916829768624
      ],
      [
        "Ġchemist",
        -10.475036184810616
      ],
      [
        "Ġsight",
        -10.475111121363822
      ],
      [
        "Ġremarkabl",
        -10.47519031879672
      ],
      [
        "Ġhorizontal",
        -10.475205885372162
      ],
      [
        "Ġexploration",
        -10.475439014497466
      ],
      [
        "Ġclothes",
        -10.475608649295069
      ],
      [
        "-level",
        -10.475609935909656
      ],
      [
        "Ġrestore",
        -10.476004657182642
      ],
      [
        "Ġgentle",
        -10.476183227289775
      ],
      [
        "ĠTV",
        -10.476322086334108
      ],
      [
        "ĠBird",
        -10.476577488568877
      ],
      [
        "ĠTwo",
        -10.477106624390526
      ],
      [
        "Ġhoney",
        -10.477125506952856
      ],
      [
        "ka",
        -10.477585333263034
      ],
      [
        "Ġpartial",
        -10.477715403133526
      ],
      [
        "Ġpartner",
        -10.478795883534993
      ],
      [
        "Ġautomatical",
        -10.479143364111074
      ],
      [
        "Ġphotographer",
        -10.479221075174303
      ],
      [
        "Ġregulator",
        -10.479413843512273
      ],
      [
        "our",
        -10.48041580231484
      ],
      [
        "Ġbranch",
        -10.480860167681406
      ],
      [
        "Ġwound",
        -10.481168336991136
      ],
      [
        "Ġinterview",
        -10.481551644726428
      ],
      [
        "-shape",
        -10.48163582656208
      ],
      [
        "Ġorbit",
        -10.481697478160871
      ],
      [
        "Ġdistrict",
        -10.481942076251483
      ],
      [
        "Ġaesthetic",
        -10.482256637453952
      ],
      [
        "Ġacids",
        -10.482320601356555
      ],
      [
        "ĠGrow",
        -10.48408708864234
      ],
      [
        "men",
        -10.484340085717168
      ],
      [
        "Ġcure",
        -10.485038390550727
      ],
      [
        "Ġdelivery",
        -10.486179452270823
      ],
      [
        "Ġdimension",
        -10.486244656950364
      ],
      [
        "Ġseconds",
        -10.486369853035534
      ],
      [
        "ĠWeb",
        -10.486856674016275
      ],
      [
        "Ġyes",
        -10.48686585991866
      ],
      [
        "Ġmask",
        -10.487030789962455
      ],
      [
        "Ġsubstantial",
        -10.487495945107028
      ],
      [
        "Ġbeginner",
        -10.48751127661642
      ],
      [
        "ĠFoundation",
        -10.488246549448393
      ],
      [
        "Ġfroze",
        -10.488376489877773
      ],
      [
        "Ġdollar",
        -10.488416372123446
      ],
      [
        "ster",
        -10.488616261530709
      ],
      [
        "Ġtruth",
        -10.48888671999546
      ],
      [
        "Every",
        -10.48897863866436
      ],
      [
        "Ġplac",
        -10.48914415719028
      ],
      [
        "Ġremoval",
        -10.48925534967668
      ],
      [
        "Ġindex",
        -10.489452396392242
      ],
      [
        "`",
        -10.4907792073316
      ],
      [
        "Ġtail",
        -10.491851027225318
      ],
      [
        "Ġpad",
        -10.492402987927544
      ],
      [
        "Ġveterinarian",
        -10.493665395824712
      ],
      [
        "Ġcampaign",
        -10.49366569022792
      ],
      [
        "Ġthreshold",
        -10.49366575151986
      ],
      [
        "Ġpartnership",
        -10.494180422390835
      ],
      [
        "Ġsouthern",
        -10.49430966181874
      ],
      [
        "Ġdischarge",
        -10.494477269718022
      ],
      [
        "Ġhumid",
        -10.494667608768449
      ],
      [
        "Ġvisitor",
        -10.494918842457512
      ],
      [
        "Ġmood",
        -10.494977472771176
      ],
      [
        "ĠMedicine",
        -10.495218039626462
      ],
      [
        "Safety",
        -10.495373998774824
      ],
      [
        "pp",
        -10.496712518881203
      ],
      [
        "can",
        -10.49837754492982
      ],
      [
        "Ġingredient",
        -10.498561991981106
      ],
      [
        "Ġstrip",
        -10.498728009851174
      ],
      [
        "Ġ@",
        -10.498927406763784
      ],
      [
        "Ġmere",
        -10.499508374436022
      ],
      [
        "Â¬ÃĿ",
        -10.49999450974261
      ],
      [
        "Ġdiamond",
        -10.499994575121647
      ],
      [
        "right",
        -10.500187226719705
      ],
      [
        "Ġcentre",
        -10.500892109945946
      ],
      [
        "Ġregulate",
        -10.500969484718176
      ],
      [
        "Ġmanufacturer",
        -10.501124918974318
      ],
      [
        "Ġrod",
        -10.501460476160563
      ],
      [
        "Ġbough",
        -10.501471190066871
      ],
      [
        "Ġinch",
        -10.501556560907742
      ],
      [
        "Ġcompetitive",
        -10.501556777919076
      ],
      [
        "Ġimplementation",
        -10.501593826385005
      ],
      [
        "surance",
        -10.50199050230096
      ],
      [
        "Ġpar",
        -10.502638072270322
      ],
      [
        "Ġrenewable",
        -10.502880327122488
      ],
      [
        "ĠHer",
        -10.503393576753815
      ],
      [
        "Ġcarrier",
        -10.503773577011778
      ],
      [
        "Ġwindows",
        -10.504311970896252
      ],
      [
        "Ġarray",
        -10.504476227717277
      ],
      [
        "ĠClean",
        -10.504528465937792
      ],
      [
        "rich",
        -10.505155979740236
      ],
      [
        "Make",
        -10.505510975226745
      ],
      [
        "Ġclub",
        -10.506363943606594
      ],
      [
        "Ġhomes",
        -10.506421424633771
      ],
      [
        "Ġtown",
        -10.506671887087595
      ],
      [
        "Ġcompact",
        -10.50735759218599
      ],
      [
        "Ġchew",
        -10.50784929791083
      ],
      [
        "Ġimpossib",
        -10.508343234364784
      ],
      [
        "Ġphilosoph",
        -10.508639000409891
      ],
      [
        "ĠCounty",
        -10.508796984121014
      ],
      [
        "ĠEnvironmental",
        -10.50918565301422
      ],
      [
        "Ġresponsibility",
        -10.509630166558196
      ],
      [
        "ĠDevelopment",
        -10.509871543925684
      ],
      [
        "Ġproven",
        -10.510645935350354
      ],
      [
        ";Ċ",
        -10.51093541879925
      ],
      [
        "live",
        -10.511001477805628
      ],
      [
        "ĠðŁ¤įĊ",
        -10.511081703850246
      ],
      [
        "ĠGroup",
        -10.511647738915158
      ],
      [
        "Ġdealing",
        -10.511680212999163
      ],
      [
        "Ġcourt",
        -10.511760829218748
      ],
      [
        "Ġtrends",
        -10.511942613214496
      ],
      [
        "Ġpreserve",
[...]
