{
  "version": "1.0",
  "truncation": null,
  "padding": null,
  "added_tokens": [
    {
      "id": 0,
      "content": "<|bos|>",
      "single_word": false,
      "lstrip": false,
      "rstrip": false,
      "normalized": false,
      "special": true
    },
    {
      "id": 1,
      "content": "<|user_start|>",
      "single_word": false,
      "lstrip": false,
      "rstrip": false,
      "normalized": false,
      "special": true
    },
    {
      "id": 2,
      "content": "<|user_end|>",
      "single_word": false,
      "lstrip": false,
      "rstrip": false,
      "normalized": false,
      "special": true
    },
    {
      "id": 3,
      "content": "<|assistant_start|>",
      "single_word": false,
      "lstrip": false,
      "rstrip": false,
      "normalized": false,
      "special": true
    },
    {
      "id": 4,
      "content": "<|assistant_end|>",
      "single_word": false,
      "lstrip": false,
      "rstrip": false,
      "normalized": false,
      "special": true
    },
    {
      "id": 5,
      "content": "<|python_start|>",
      "single_word": false,
      "lstrip": false,
      "rstrip": false,
      "normalized": false,
      "special": true
    },
    {
      "id": 6,
      "content": "<|python_end|>",
      "single_word": false,
      "lstrip": false,
      "rstrip": false,
      "normalized": false,
      "special": true
    },
    {
      "id": 7,
      "content": "<|output_start|>",
      "single_word": false,
      "lstrip": false,
      "rstrip": false,
      "normalized": false,
      "special": true
    },
    {
      "id": 8,
      "content": "<|output_end|>",
      "single_word": false,
      "lstrip": false,
      "rstrip": false,
      "normalized": false,
      "special": true
    },
    {
      "id": 9,
      "content": "<|unk|>",
      "single_word": false,
      "lstrip": false,
      "rstrip": false,
      "normalized": false,
      "special": true
    }
  ],
  "normalizer": null,
  "pre_tokenizer": {
    "type": "Sequence",
    "pretokenizers": [
      {
        "type": "Split",
        "pattern": {
          "Regex": "'(?i:[sdmt]|ll|ve|re)|[^\\r\\n\\p{L}\\p{N}]?+\\p{L}+|\\p{N}{1,2}| ?[^\\s\\p{L}\\p{N}]++[\\r\\n]*|\\s*[\\r\\n]|\\s+(?!\\S)|\\s+"
        },
        "behavior": "Isolated",
        "invert": false
      },
      {
        "type": "ByteLevel",
        "add_prefix_space": false,
        "trim_offsets": true,
        "use_regex": false
      }
    ]
  },
  "post_processor": {
    "type": "TemplateProcessing",
    "single": [
      {
        "Sequence": {
          "id": "A",
          "type_id": 0
        }
      }
    ],
    "pair": [
      {
        "Sequence": {
          "id": "A",
          "type_id": 0
        }
      },
      {
        "Sequence": {
          "id": "B",
          "type_id": 1
        }
      }
    ],
    "special_tokens": {}
  },
  "decoder": null,
  "model": {
    "type": "BPE",
    "dropout": null,
    "unk_token": "<|unk|>",
    "continuing_subword_prefix": null,
    "end_of_word_suffix": null,
    "fuse_unk": false,
    "byte_fallback": false,
    "ignore_merges": false,
    "vocab": {
      "<|bos|>": 0,
      "<|user_start|>": 1,
      "<|user_end|>": 2,
      "<|assistant_start|>": 3,
      "<|assistant_end|>": 4,
      "<|python_start|>": 5,
      "<|python_end|>": 6,
      "<|output_start|>": 7,
      "<|output_end|>": 8,
      "<|unk|>": 9,
      "!": 10,
      "\"": 11,
      "#": 12,
      "$": 13,
      "%": 14,
      "&": 15,
      "'": 16,
      "(": 17,
      ")": 18,
      "*": 19,
      "+": 20,
      ",": 21,
      "-": 22,
      ".": 23,
      "/": 24,
      "0": 25,
      "1": 26,
      "2": 27,
      "3": 28,
      "4": 29,
      "5": 30,
      "6": 31,
      "7": 32,
      "8": 33,
      "9": 34,
      ":": 35,
      ";": 36,
      "<": 37,
      "=": 38,
      ">": 39,
      "?": 40,
      "@": 41,
      "A": 42,
      "B": 43,
      "C": 44,
      "D": 45,
      "E": 46,
      "F": 47,
      "G": 48,
      "H": 49,
      "I": 50,
      "J": 51,
      "K": 52,
      "L": 53,
      "M": 54,
      "N": 55,
      "O": 56,
      "P": 57,
      "Q": 58,
      "R": 59,
      "S": 60,
      "T": 61,
      "U": 62,
      "V": 63,
      "W": 64,
      "X": 65,
      "Y": 66,
      "Z": 67,
      "[": 68,
      "\\": 69,
      "]": 70,
      "^": 71,
      "_": 72,
      "`": 73,
      "a": 74,
      "b": 75,
      "c": 76,
      "d": 77,
      "e": 78,
      "f": 79,
      "g": 80,
      "h": 81,
      "i": 82,
      "j": 83,
      "k": 84,
      "l": 85,
      "m": 86,
      "n": 87,
      "o": 88,
      "p": 89,
      "q": 90,
      "r": 91,
      "s": 92,
      "t": 93,
      "u": 94,
      "v": 95,
      "w": 96,
      "x": 97,
      "y": 98,
      "z": 99,
      "{": 100,
      "|": 101,
      "}": 102,
      "~": 103,
      "¡": 104,
      "¢": 105,
      "£": 106,
      "¤": 107,
      "¥": 108,
      "¦": 109,
      "§": 110,
      "¨": 111,
      "©": 112,
      "ª": 113,
      "«": 114,
      "¬": 115,
      "®": 116,
      "¯": 117,
      "°": 118,
      "±": 119,
      "²": 120,
      "³": 121,
      "´": 122,
      "µ": 123,
      "¶": 124,
      "·": 125,
      "¸": 126,
      "¹": 127,
      "º": 128,
      "»": 129,
      "¼": 130,
      "½": 131,
      "¾": 132,
      "¿": 133,
      "À": 134,
      "Á": 135,
      "Â": 136,
      "Ã": 137,
      "Ä": 138,
      "Å": 139,
      "Æ": 140,
      "Ç": 141,
      "È": 142,
      "É": 143,
      "Ê": 144,
      "Ë": 145,
      "Ì": 146,
      "Í": 147,
      "Î": 148,
      "Ï": 149,
      "Ð": 150,
      "Ñ": 151,
      "Ò": 152,
      "Ó": 153,
      "Ô": 154,
      "Õ": 155,
      "Ö": 156,
      "×": 157,
      "Ø": 158,
      "Ù": 159,
      "Ú": 160,
      "Û": 161,
      "Ü": 162,
      "Ý": 163,
      "Þ": 164,
      "ß": 165,
      "à": 166,
      "á": 167,
      "â": 168,
      "ã": 169,
      "ä": 170,
      "å": 171,
      "æ": 172,
      "ç": 173,
      "è": 174,
      "é": 175,
      "ê": 176,
      "ë": 177,
      "ì": 178,
      "í": 179,
      "î": 180,
      "ï": 181,
      "ð": 182,
      "ñ": 183,
      "ò": 184,
      "ó": 185,
      "ô": 186,
      "õ": 187,
      "ö": 188,
      "÷": 189,
      "ø": 190,
      "ù": 191,
      "ú": 192,
      "û": 193,
      "ü": 194,
      "ý": 195,
      "þ": 196,
      "ÿ": 197,
      "Ā": 198,
      "ā": 199,
      "Ă": 200,
      "ă": 201,
      "Ą": 202,
      "ą": 203,
      "Ć": 204,
      "ć": 205,
      "Ĉ": 206,
      "ĉ": 207,
      "Ċ": 208,
      "ċ": 209,
      "Č": 210,
      "č": 211,
      "Ď": 212,
      "ď": 213,
      "Đ": 214,
      "đ": 215,
      "Ē": 216,
      "ē": 217,
      "Ĕ": 218,
      "ĕ": 219,
      "Ė": 220,
      "ė": 221,
      "Ę": 222,
      "ę": 223,
      "Ě": 224,
      "ě": 225,
      "Ĝ": 226,
      "ĝ": 227,
      "Ğ": 228,
      "ğ": 229,
      "Ġ": 230,
      "ġ": 231,
      "Ģ": 232,
      "ģ": 233,
      "Ĥ": 234,
      "ĥ": 235,
      "Ħ": 236,
      "ħ": 237,
      "Ĩ": 238,
      "ĩ": 239,
      "Ī": 240,
      "ī": 241,
      "Ĭ": 242,
      "ĭ": 243,
      "Į": 244,
      "į": 245,
      "İ": 246,
      "ı": 247,
      "Ĳ": 248,
      "ĳ": 249,
      "Ĵ": 250,
      "ĵ": 251,
      "Ķ": 252,
      "ķ": 253,
      "ĸ": 254,
      "Ĺ": 255,
      "ĺ": 256,
      "Ļ": 257,
      "ļ": 258,
      "Ľ": 259,
      "ľ": 260,
      "Ŀ": 261,
      "ŀ": 262,
      "Ł": 263,
      "ł": 264,
      "Ń": 265,
      "Ġt": 266,
      "Ġa": 267,
      "in": 268,
      "he": 269,
      "re": 270,
      "on": 271,
      "Ġthe": 272,
      "er": 273,
      "Ġs": 274,
      "at": 275,
      "Ġc": 276,
      "Ġo": 277,
      "es": 278,
      "en": 279,
      "Ġw": 280,
      "nd": 281,
      "it": 282,
      "ing": 283,
      "is": 284,
      "Ġp": 285,
      "Ġb": 286,
      "or": 287,
      "Ġf": 288,
      "ou": 289,
      "al": 290,
      "an": 291,
      "Ġm": 292,
      "ed": 293,
      "Ġto": 294,
      "Ġin": 295,
      "Ġof": 296,
      "Ġand": 297,
      "ar": 298,
      "Ġd": 299,
      "ion": 300,
      "ic": 301,
      "le": 302,
      "ro": 303,
      "as": 304,
      "Ġth": 305,
      "Ġh": 306,
      "ent": 307,
      "ct": 308,
      "Ġe": 309,
      "Ġl": 310,
      "ve": 311,
      "il": 312,
      "Ġre": 313,
      "om": 314,
      "us": 315,
      "Ġis": 316,
      ".Ċ": 317,
      "Ġn": 318,
      "Ġy": 319,
      "et": 320,
      "ly": 321,
      "Ġg": 322,
      "Ġyou": 323,
      "ow": 324,
      "Ġbe": 325,
      "ut": 326,
      "ot": 327,
      "im": 328,
      "ĠT": 329,
      "id": 330,
      "st": 331,
      "ol": 332,
      "ce": 333,
      "ig": 334,
      "ra": 335,
      "Ġfor": 336,
      "ur": 337,
      "ch": 338,
      "ĠA": 339,
      "ation": 340,
      "Ġst": 341,
      "Ġon": 342,
      "ĠI": 343,
      "Ġthat": 344,
      "ir": 345,
      "el": 346,
      "ver": 347,
      "ul": 348,
      "Ġare": 349,
      "ay": 350,
      "ith": 351,
      "Ġit": 352,
      "Ġpro": 353,
      "se": 354,
      "if": 355,
      "Ġwith": 356,
      "Ġan": 357,
      ".ĊĊ": 358,
      "ĠS": 359,
      "am": 360,
      "Ġor": 361,
      "est": 362,
      "Ġcon": 363,
      "Ġas": 364,
      "od": 365,
      "Ġal": 366,
      "ad": 367,
      "ĊĊ": 368,
      "her": 369,
      "ĠC": 370,
      "ter": 371,
      "Ġcan": 372,
      "un": 373,
      "Ġwh": 374,
      "ke": 375,
      "ge": 376,
      "ure": 377,
      "ate": 378,
      "ess": 379,
      "ĠThe": 380,
      "ab": 381,
      "ill": 382,
      "Ġcom": 383,
      "Ġha": 384,
      "ers": 385,
      "um": 386,
      "ant": 387,
      "ĠW": 388,
      "Ġhe": 389,
      "Ġex": 390,
      "pe": 391,
      "ore": 392,
      "qu": 393,
      "th": 394,
      "igh": 395,
      "ive": 396,
      "'s": 397,
      "ment": 398,
      "Ġus": 399,
      "ies": 400,
      "Ġde": 401,
      "Ġyour": 402,
      "op": 403,
      "Ġv": 404,
      "Ġwe": 405,
      "ac": 406,
      "ain": 407,
      "ity": 408,
      "os": 409,
      "rom": 410,
      "em": 411,
      "ld": 412,
      "ist": 413,
      "ĠP": 414,
      "ĠM": 415,
      "Ġ(": 416,
      "ĠB": 417,
      "ect": 418,
      "Ġne": 419,
      "Ġr": 420,
      "pp": 421,
      "Ġen": 422,
      "Ġsu": 423,
      "Ġch": 424,
      "Ġat": 425,
      "Ġse": 426,
      "iv": 427,
      "ial": 428,
      "Ġfrom": 429,
      "Ġsh": 430,
      "ort": 431,
      "Ġhave": 432,
      "Ġle": 433,
      "ight": 434,
      "Ġdo": 435,
      "ĠD": 436,
      "nt": 437,
      "res": 438,
      "Ġpl": 439,
      "Ġby": 440,
      "and": 441,
      "ĠH": 442,
      "Ġnot": 443,
      "art": 444,
      "oc": 445,
      "ud": 446,
      "ust": 447,
      "ĠF": 448,
      "all": 449,
      "per": 450,
      "ical": 451,
      "ome": 452,
      "ri": 453,
      "Ġthis": 454,
      "ide": 455,
      "rou": 456,
      "Ġab": 457,
      "Ġu": 458,
      "ould": 459,
      "ns": 460,
      "out": 461,
      "pt": 462,
      "Ġim": 463,
      "ĠE": 464,
      "ine": 465,
      "act": 466,
      "Ġma": 467,
      "ard": 468,
      "ost": 469,
      "ell": 470,
      "du": 471,
      "og": 472,
      "Ġwhe": 473,
      "red": 474,
      "ions": 475,
      "ich": 476,
      "ff": 477,
      "ast": 478,
      "ĠR": 479,
      "Ġtheir": 480,
      "Ġwill": 481,
      "Ġcomp": 482,
      "Ġk": 483,
      "Ġthey": 484,
      "Ġwor": 485,
      "gh": 486,
      "ood": 487,
      "Ġint": 488,
      "iz": 489,
      "âĢ": 490,
      "our": 491,
      "The": 492,
      "ĠN": 493,
      "age": 494,
      "ther": 495,
      "Ġad": 496,
      "ater": 497,
      "king": 498,
      "pl": 499,
      "ag": 500,
      "ĠL": 501,
      "able": 502,
      "Ġwas": 503,
      "ated": 504,
      "Ġall": 505,
      "Ġmore": 506,
      "end": 507,
      "Ġcont": 508,
      "hat": 509,
      "ĠG": 510,
      "ere": 511,
      "Ġbut": 512,
      "Ġso": 513,
      "ally": 514,
      "ks": 515,
      "oo": 516,
      "ult": 517,
      "ans": 518,
      "ous": 519,
      "wer": 520,
      "Ġinc": 521,
      "so": 522,
      "ip": 523,
      "Ġme": 524,
      "estion": 525,
      "are": 526,
      "Ġte": 527,
      "ib": 528,
      "ep": 529,
      "Ġcl": 530,
      "orm": 531,
      "ĠO": 532,
      "Qu": 533,
      "cc": 534,
      "Ġj": 535,
      "ong": 536,
      "ind": 537,
      "Ġres": 538,
      "ru": 539,
      "ry": 540,
      "Ġhas": 541,
      "ance": 542,
      "Ġdis": 543,
      "ike": 544,
      "Ġwhich": 545,
      "Ġsp": 546,
      "Ġout": 547,
      "vel": 548,
      "Ġ\"": 549,
      "Ġimp": 550,
      "ear": 551,
      "Ġun": 552,
      "ations": 553,
      "nswer": 554,
      "ie": 555,
      "Question": 556,
      "20": 557,
      "Ġother": 558,
      "Ġalso": 559,
      "Ġman": 560,
      "his": 561,
      "one": 562,
      "reat": 563,
      "ĠAnswer": 564,
      "ents": 565,
      "very": 566,
      "'t": 567,
      "ign": 568,
      "aus": 569,
      "av": 570,
      "Ġone": 571,
      "ction": 572,
      "ace": 573,
      "ice": 574,
      "Ġfe": 575,
      "Ġtim": 576,
      "ens": 577,
      "ack": 578,
      "ase": 579,
      "ach": 580,
      "Ġspe": 581,
      "ition": 582,
      "ass": 583,
      "ap": 584,
      "Ġabout": 585,
      "Ġthem": 586,
      "Ġper": 587,
      "ĠIn": 588,
      "ence": 589,
      "ors": 590,
      "ĠU": 591,
      "ary": 592,
      "Ġpre": 593,
      "ĠIt": 594,
      "Ġup": 595,
      "low": 596,
      "ress": 597,
      "Ġlike": 598,
      "Ġqu": 599,
      "Ġro": 600,
      "ire": 601,
      "ild": 602,
      "iff": 603,
      "Ġsc": 604,
      "Ġwhen": 605,
      "Ġev": 606,
      "ue": 607,
      "ite": 608,
      "now": 609,
      "Ġsome": 610,
      "ile": 611,
      "ia": 612,
      "Ġsy": 613,
      "Ġif": 614,
      "ound": 615,
      "Ġpart": 616,
      "Ġmay": 617,
      "Ġinto": 618,
      "ber": 619,
      "ose": 620,
      "form": 621,
      "ces": 622,
      "Ġuse": 623,
      "Ġneed": 624,
      "Ġdiff": 625,
      "row": 626,
      "Ġhow": 627,
      "Ġpe": 628,
      "Ġcol": 629,
      "ak": 630,
      "ĠY": 631,
      "ays": 632,
      "Ġtime": 633,
      "ame": 634,
      "ĠThis": 635,
      "Ġapp": 636,
      "Ġthere": 637,
      "Ġthan": 638,
      "Ġbl": 639,
      "ric": 640,
      "Ġtra": 641,
      "Ġits": 642,
      "Ġhel": 643,
      "Ġbec": 644,
      "ail": 645,
      "ree": 646,
      "Ġover": 647,
      "Ġany": 648,
      "ĠWhat": 649,
      "ll": 650,
      "ings": 651,
      "Ġrec": 652,
      "ause": 653,
      "ang": 654,
      "Ġar": 655,
      "ific": 656,
      "Ġbet": 657,
      "ish": 658,
      "cess": 659,
      "Ġhelp": 660,
      "Ġcomm": 661,
      "Ġthese": 662,
      "..": 663,
      "Ġcons": 664,
      "we": 665,
      "als": 666,
      "nder": 667,
      "Ġco": 668,
      "Ġknow": 669,
      "lect": 670,
      "ating": 671,
      "Ġspec": 672,
      "Ġtr": 673,
      "Ġstud": 674,
      "ough": 675,
      "les": 676,
      "Ġgo": 677,
      "int": 678,
      "Ġour": 679,
      "Ġdes": 680,
      "Ġget": 681,
      "ord": 682,
      "stem": 683,
      "te": 684,
      "Ġwater": 685,
      "Ġind": 686,
      "ons": 687,
      "ake": 688,
      "rough": 689,
      "ature": 690,
      "Ġwhat": 691,
      "hy": 692,
      "ove": 693,
      "ople": 694,
      "ount": 695,
      "Ġused": 696,
      "ub": 697,
      "ari": 698,
      "Ġra": 699,
      "Ġsa": 700,
      "olog": 701,
      "ĠâĢ": 702,
      "ffect": 703,
      "ond": 704,
      "Ġact": 705,
      "ook": 706,
      "Ġprodu": 707,
      "ory": 708,
      "ning": 709,
      "alth": 710,
      "Ġfl": 711,
      "Ġprov": 712,
      "Ġyear": 713,
      "round": 714,
      "Ġdiffere": 715,
      "ick": 716,
      "ms": 717,
      "ular": 718,
      "ĠJ": 719,
      "vers": 720,
      "Ġmost": 721,
      "lud": 722,
      "Ġgen": 723,
      "ting": 724,
      "Ġoff": 725,
      "Ġacc": 726,
      "ck": 727,
      "Ġsuch": 728,
      "Ġwho": 729,
      "Ġpeople": 730,
      "Ġwere": 731,
      "ne": 732,
      "Ġunder": 733,
      "erv": 734,
      "Ġam": 735,
      "Ġag": 736,
      "Ġmake": 737,
      "Ġnew": 738,
      "Ġsm": 739,
      "ates": 740,
      "ple": 741,
      "ient": 742,
      "Ġadd": 743,
      "ments": 744,
      "ĠSt": 745,
      "Ġshould": 746,
      "oth": 747,
      "Ġtw": 748,
      "Ġbeen": 749,
      "ject": 750,
      "ful": 751,
      "uring": 752,
      "eth": 753,
      "xt": 754,
      "Ġdi": 755,
      "ility": 756,
      "ange": 757,
      "10": 758,
      "Ġem": 759,
      "Ġthrough": 760,
      "Ġwould": 761,
      "Ġcar": 762,
      "ph": 763,
      "Ġsystem": 764,
      "Ġjust": 765,
      "irst": 766,
      "Ġinclud": 767,
      "Ġonly": 768,
      "Ġno": 769,
      "oss": 770,
      "erg": 771,
      "hes": 772,
      "ise": 773,
      "ble": 774,
      "its": 775,
      "Ġplant": 776,
      "Ġty": 777,
      "ower": 778,
      "Ġwork": 779,
      "Ġpr": 780,
      "ities": 781,
      "ten": 782,
      "Ġsur": 783,
      "own": 784,
      "ĠK": 785,
      "ark": 786,
      "ced": 787,
      "ative": 788,
      "Ġinter": 789,
      "Ġmany": 790,
      "ics": 791,
      "Ġke": 792,
      "ov": 793,
      "Ġhigh": 794,
      "ual": 795,
      "Ġhealth": 796,
      "19": 797,
      "Ġreg": 798,
      "Ġrel": 799,
      "Ġpo": 800,
      "Ġmy": 801,
      "Ġbu": 802,
      "hen": 803,
      "ob": 804,
      "velop": 805,
      "ĠV": 806,
      "Ġdoes": 807,
      "Ġtwo": 808,
      "tain": 809,
      "Ġrem": 810,
      "ible": 811,
      "Ġwell": 812,
      "fter": 813,
      "old": 814,
      "ract": 815,
      "ef": 816,
      "Ġche": 817,
      "ren": 818,
      "ram": 819,
      "chn": 820,
      "ink": 821,
      "ween": 822,
      "arm": 823,
      "Ġdifferent": 824,
      "Ġac": 825,
      "ased": 826,
      "lic": 827,
      "Ġwhere": 828,
      "ft": 829,
      "Ġfirst": 830,
      "Ġexper": 831,
      "Ġtrans": 832,
      "Ġmod": 833,
      "ife": 834,
      "ize": 835,
      "Ġlong": 836,
      "Ġob": 837,
      "ience": 838,
      "Ġ-": 839,
      "Ġprocess": 840,
      "get": 841,
      "Ġbetween": 842,
      "cy": 843,
      "Ġdevelop": 844,
      "Ġimport": 845,
      "uch": 846,
      "Ġrep": 847,
      "Ġway": 848,
      "ually": 849,
      "?Ċ": 850,
      "hed": 851,
      "Ġcould": 852,
      "Ġvari": 853,
      "Ġdec": 854,
      "Ġph": 855,
      "Ġsupp": 856,
      "ade": 857,
      "ts": 858,
      "Ġfood": 859,
      "Ġevery": 860,
      "Ġsim": 861,
      "ential": 862,
      "Ġgrow": 863,
      "ĠCh": 864,
      "In": 865,
      "fore": 866,
      "iron": 867,
      "iss": 868,
      "Ġinv": 869,
      "Ġpat": 870,
      "Ġcre": 871,
      "Ġass": 872,
      "Ġbecause": 873,
      "ĠIf": 874,
      "rit": 875,
      "Ġthen": 876,
      "ious": 877,
      "Ġusing": 878,
      "gan": 879,
      "Ġdet": 880,
      "Ġeven": 881,
      "ĠThey": 882,
      "ĠHow": 883,
      "Ġmain": 884,
      "ically": 885,
      "rib": 886,
      "ural": 887,
      "Ġatt": 888,
      "Ġform": 889,
      "Ġeffect": 890,
      "wn": 891,
      "ever": 892,
      "erm": 893,
      "ool": 894,
      "li": 895,
      "Ġvery": 896,
      "Ġinf": 897,
      "Ġtechn": 898,
      "Ġinst": 899,
      "Ġrequ": 900,
      "'re": 901,
      "pect": 902,
      "Ġsee": 903,
      "ily": 904,
      "arch": 905,
      "Ġlear": 906,
      ").": 907,
      "gg": 908,
      "ins": 909,
      "Ġsub": 910,
      "Ġsk": 911,
      "Ġlar": 912,
      "Ġins": 913,
      "Ġmuch": 914,
      "ody": 915,
      "ĠYou": 916,
      "Ġgra": 917,
      "iqu": 918,
      "rop": 919,
      "ures": 920,
      "ines": 921,
      "oy": 922,
      "ution": 923,
      "Ġchild": 924,
      "vent": 925,
      "Ġlight": 926,
      "Ġnum": 927,
      "Ġrese": 928,
      "00": 929,
      "Ġext": 930,
      "Ġsign": 931,
      "Ġmin": 932,
      "Ġeach": 933,
      "Ġwant": 934,
      "cial": 935,
      "Ġexam": 936,
      "viron": 937,
      "Ġyears": 938,
      "Ġimportant": 939,
      "Ġback": 940,
      "Ġgood": 941,
      "?ĊĊ": 942,
      "ness": 943,
      "Ġhis": 944,
      "mer": 945,
      "Ġpers": 946,
      "Ġgl": 947,
      "Ġfind": 948,
      "ality": 949,
      "ĠâĢĵ": 950,
      "ata": 951,
      "Ġexp": 952,
      "Ġfol": 953,
      "ron": 954,
      "Ġhad": 955,
      "uc": 956,
      "ety": 957,
      "Ġgener": 958,
      "stand": 959,
      "Ġincre": 960,
      "Ġset": 961,
      "Ġdisc": 962,
      "ds": 963,
      "elf": 964,
      "Ġdog": 965,
      "ian": 966,
      "Ġfun": 967,
      "Ġfound": 968,
      "Ġdon": 969,
      "ĠWh": 970,
      "ues": 971,
      "Ġsmall": 972,
      "Ġafter": 973,
      "Ġmed": 974,
      "Ġher": 975,
      "Ġwhile": 976,
      "Ġstart": 977,
      "Ġpres": 978,
      "ss": 979,
      "Ġear": 980,
      "Ġloc": 981,
      "Ġhum": 982,
      "ology": 983,
      "ational": 984,
      "Ġav": 985,
      "Ġdesign": 986,
      "ruct": 987,
      "Ġve": 988,
      "ergy": 989,
      "Ġcle": 990,
      "Ġbre": 991,
      "ec": 992,
      "Ġlevel": 993,
      "Ġcur": 994,
      "Ġsol": 995,
      "aterial": 996,
      "Ġresult": 997,
      "nce": 998,
      "urn": 999,
      "Ġtake": 1000,
      "ices": 1001,
      "ĠWe": 1002,
      "ption": 1003,
      "),": 1004,
      "Ġdep": 1005,
      "formation": 1006,
      "Ġfact": 1007,
      "ives": 1008,
      "Ġval": 1009,
      "Ġref": 1010,
      "Ġaround": 1011,
      "Ġworld": 1012,
      "ages": 1013,
      "ases": 1014,
      "Ġbeing": 1015,
      "ĠUn": 1016,
      "Ġcell": 1017,
      "other": 1018,
      "Ġcor": 1019,
      "Ġprog": 1020,
      "vironment": 1021,
      "ps": 1022,
      "Ġdist": 1023,
      "ix": 1024,
      "cer": 1025,
      "Ġsame": 1026,
      "els": 1027,
      "ists": 1028,
      "Ġshe": 1029,
      "Ġfollow": 1030,
      "chool": 1031,
      "Ġdown": 1032,
      "Ġlife": 1033,
      "Ġair": 1034,
      "Ġbefore": 1035,
      "Ġcall": 1036,
      "ized": 1037,
      "tle": 1038,
      "Ġcomple": 1039,
      "Ġart": 1040,
      "Ġbr": 1041,
      "Ġhand": 1042,
      "Ġmon": 1043,
      "Ġproble": 1044,
      "Ġbo": 1045,
      "Ġduring": 1046,
      "Ġpot": 1047,
      "Ġpartic": 1048,
      "Ġredu": 1049,
      "dition": 1050,
      "ward": 1051,
      "Ġmaterial": 1052,
      "Ġeas": 1053,
      "eg": 1054,
      "Ġelect": 1055,
      "Ġstr": 1056,
      "Ġsec": 1057,
      "Ġcontro": 1058,
      "Ġthose": 1059,
      "ider": 1060,
      "Ġown": 1061,
      "omm": 1062,
      "Ġaut": 1063,
      "Ġlead": 1064,
      "Ġexpl": 1065,
      "Ġoften": 1066,
      "Ġent": 1067,
      "Ġallow": 1068,
      "Ġanim": 1069,
      "ock": 1070,
      "Ġboth": 1071,
      "aw": 1072,
      "ng": 1073,
      "ys": 1074,
      "cl": 1075,
      "Ġtem": 1076,
      "Ġbody": 1077,
      "Ġshow": 1078,
      "Ġtyp": 1079,
      "Ġright": 1080,
      "ides": 1081,
      "ident": 1082,
      ".\"": 1083,
      "Ġpower": 1084,
      "tern": 1085,
      "ĠFor": 1086,
      "ather": 1087,
      "iel": 1088,
      "ew": 1089,
      "Ġvis": 1090,
      "Ġdata": 1091,
      "ets": 1092,
      "io": 1093,
      "air": 1094,
      "Ġkeep": 1095,
      "ale": 1096,
      "Ġread": 1097,
      "Ġbest": 1098,
      "Ġtoo": 1099,
      "Ġenergy": 1100,
      "Ġed": 1101,
      "Ġperson": 1102,
      "ict": 1103,
      "><": 1104,
      ":Ċ": 1105,
      "Ġtest": 1106,
      "atter": 1107,
      "ien": 1108,
      "Ġmade": 1109,
      "Ġcommon": 1110,
      "ull": 1111,
      "Ġgu": 1112,
      "Ġless": 1113,
      "eng": 1114,
      "iving": 1115,
      "Ġ'": 1116,
      "Ġcare": 1117,
      "Ġend": 1118,
      "What": 1119,
      "iew": 1120,
      "ivers": 1121,
      "Ġinformation": 1122,
      "Ġenvironment": 1123,
      "Ġpop": 1124,
      "reen": 1125,
      "Ġplay": 1126,
      "ty": 1127,
      "read": 1128,
      "ining": 1129,
      "Ġproduct": 1130,
      "Ġprot": 1131,
      "ath": 1132,
      "ection": 1133,
      "Ġday": 1134,
      "Ġorgan": 1135,
      "Ġunderstand": 1136,
      "ium": 1137,
      "rent": 1138,
      "Ġequ": 1139,
      "Ġsom": 1140,
      "Ġdr": 1141,
      "ving": 1142,
      "ĠHe": 1143,
      "Ġposs": 1144,
      "Ġmet": 1145,
      "ves": 1146,
      "ars": 1147,
      "ffic": 1148,
      "ivid": 1149,
      "ied": 1150,
      "aking": 1151,
      "imate": 1152,
      "ats": 1153,
      "ĠPro": 1154,
      "Ġens": 1155,
      "ave": 1156,
      "ited": 1157,
      "Ġeng": 1158,
      "Ġlit": 1159,
      "Ġcommun": 1160,
      "hys": 1161,
      "Ġplan": 1162,
      "Ġresp": 1163,
      "Ġtreat": 1164,
      "ĠAs": 1165,
      "ands": 1166,
      "ute": 1167,
      "-b": 1168,
      "ted": 1169,
      "way": 1170,
      "12": 1171,
      "rap": 1172,
      "cing": 1173,
      "Ġdef": 1174,
      "oci": 1175,
      "Ġchar": 1176,
      "Ġadv": 1177,
      "Ġpoint": 1178,
      "up": 1179,
      "Ġben": 1180,
      "Ġprovide": 1181,
      "Ġhome": 1182,
      "--": 1183,
      "ants": 1184,
      "Ġspecies": 1185,
      "ason": 1186,
      "cept": 1187,
      "Ġsaid": 1188,
      "Ġstudy": 1189,
      "Ġfam": 1190,
      "led": 1191,
      "Ġnumber": 1192,
      "ash": 1193,
      "Ġactiv": 1194,
      "ional": 1195,
      "ven": 1196,
      "Ġserv": 1197,
      "ĠAl": 1198,
      "Ġnow": 1199,
      "Ġap": 1200,
      "ved": 1201,
      "ulation": 1202,
      "-s": 1203,
      "Ġimpro": 1204,
      "ont": 1205,
      "Ġclass": 1206,
      "hip": 1207,
      "How": 1208,
      "ĠThese": 1209,
      "Ġproper": 1210,
      "acter": 1211,
      "Ġbetter": 1212,
      "ined": 1213,
      "Ġlook": 1214,
      "Ġcent": 1215,
      "Ġmight": 1216,
      "Ġsaf": 1217,
      "Ġdise": 1218,
      "any": 1219,
      "der": 1220,
      "ethod": 1221,
      "Ġris": 1222,
      "Ġpol": 1223,
      "Ġresearch": 1224,
      "Ġey": 1225,
      "the": 1226,
      "Ġsupport": 1227,
      "Ġplants": 1228,
      "Ġop": 1229,
      "Ġstudents": 1230,
      "cent": 1231,
      "Ġdid": 1232,
      "Ġlarge": 1233,
      "Ġgreat": 1234,
      "perature": 1235,
      "ger": 1236,
      "atural": 1237,
      "ork": 1238,
      "ĠAn": 1239,
      "Ġbeh": 1240,
      "Ġwithout": 1241,
      "Ġstill": 1242,
      "ots": 1243,
      "ert": 1244,
      "itions": 1245,
      "less": 1246,
      "This": 1247,
      "Ġdire": 1248,
      "ior": 1249,
      "Ġpur": 1250,
      "ways": 1251,
      "Ġcreat": 1252,
      "inal": 1253,
      "ĠTh": 1254,
      "kes": 1255,
      "ince": 1256,
      "itive": 1257,
      "Ġincluding": 1258,
      "ids": 1259,
      "day": 1260,
      "Ġbra": 1261,
      "und": 1262,
      "Ġhapp": 1263,
      "Ġchange": 1264,
      "Ġcontrol": 1265,
      "-f": 1266,
      "ĠBut": 1267,
      "atch": 1268,
      "Ġprof": 1269,
      ",\"": 1270,
      "âĢĻ": 1271,
      "Ġopt": 1272,
      "ired": 1273,
      "Ġdra": 1274,
      "ĠTo": 1275,
      "Ġbuild": 1276,
      "Ġcreate": 1277,
      "Ġmaking": 1278,
      "It": 1279,
      "ware": 1280,
      "Ġpos": 1281,
      "ĠThere": 1282,
      "Ġocc": 1283,
      "ability": 1284,
      "Ġchang": 1285,
      "Ġexample": 1286,
      "Ġmethod": 1287,
      "Ġgrou": 1288,
      "Ġbenef": 1289,
      "ital": 1290,
      "Ġbir": 1291,
      "Ġcontain": 1292,
      "bs": 1293,
      "ead": 1294,
      "Ġbel": 1295,
      "Ġmem": 1296,
      "If": 1297,
      "Ġflow": 1298,
      "Ġchildren": 1299,
      "ner": 1300,
      "Ġfew": 1301,
      ":ĊĊ": 1302,
      "Ġcaus": 1303,
      "Ġagain": 1304,
      "Ġtemperature": 1305,
      "Ġtext": 1306,
      "15": 1307,
      "...": 1308,
      "ared": 1309,
      "Ġtop": 1310,
      "Ġthink": 1311,
      "ention": 1312,
      "ier": 1313,
      "ross": 1314,
      "Ġindivid": 1315,
      "Ġiss": 1316,
      "Ġmeas": 1317,
      "Ġide": 1318,
      "Ġcal": 1319,
      "Ġpract": 1320,
      "Ġpain": 1321,
      "ering": 1322,
      "Ġrun": 1323,
      "ify": 1324,
      "hers": 1325,
      "ield": 1326,
      "Ġtype": 1327,
      "Ġser": 1328,
      "Ġsw": 1329,
      "Ġknown": 1330,
      "co": 1331,
      "Ġperform": 1332,
      "Ġplace": 1333,
      "Ġschool": 1334,
      "Ġcount": 1335,
      "ĠAnd": 1336,
      "br": 1337,
      "Ġsurf": 1338,
      "Ġproject": 1339,
      "Ġfeel": 1340,
      "Ġhard": 1341,
      "line": 1342,
      "oms": 1343,
      "oid": 1344,
      "ism": 1345,
      "Ġcause": 1346,
      "Ġsl": 1347,
      "Ġmust": 1348,
      "Ġdam": 1349,
      "ording": 1350,
      "ank": 1351,
      "30": 1352,
      "Ġhy": 1353,
      "Ġthough": 1354,
      "ĠAd": 1355,
      "Ġmus": 1356,
      "iness": 1357,
      "ouse": 1358,
      "Ġcurrent": 1359,
      "Ġpotential": 1360,
      "gen": 1361,
      "Ġlow": 1362,
      "Ġstate": 1363,
      "Ġcontin": 1364,
      "Ġthree": 1365,
      "ĠHowever": 1366,
      "ator": 1367,
      "ex": 1368,
      "'ll": 1369,
      "Ġsure": 1370,
      "Ġhuman": 1371,
      "iven": 1372,
      "18": 1373,
      "Ġdev": 1374,
      "Ġpress": 1375,
      "Ġele": 1376,
      "Ġconf": 1377,
      "Ġprevent": 1378,
      "Ġarea": 1379,
      "Ġphys": 1380,
      "ters": 1381,
      "here": 1382,
      "rodu": 1383,
      "Ġret": 1384,
      "Ġtre": 1385,
      "iod": 1386,
      "Ġess": 1387,
      "ax": 1388,
      "put": 1389,
      "Ġthings": 1390,
      "Ġdel": 1391,
      "Ġwhy": 1392,
      "Ġsoil": 1393,
      "ĠWhen": 1394,
      "ique": 1395,
      "to": 1396,
      "Ġlearn": 1397,
      "ĠSo": 1398,
      "Ġappro": 1399,
      "iversity": 1400,
      "Ġconst": 1401,
      "Ġsit": 1402,
      "ug": 1403,
      "Ġnatural": 1404,
      "-c": 1405,
      "apt": 1406,
      "Ġreal": 1407,
      "ination": 1408,
      "Ġphot": 1409,
      "ooking": 1410,
      "ern": 1411,
      "Ġet": 1412,
      "Ġpub": 1413,
      "ered": 1414,
      "Ġcost": 1415,
      "Ġlay": 1416,
      "Ġfunction": 1417,
      "irc": 1418,
      "ental": 1419,
      "50": 1420,
      "ething": 1421,
      "port": 1422,
      "oad": 1423,
      "Ġgr": 1424,
      "icle": 1425,
      "Ġwithin": 1426,
      "pr": 1427,
      "Ġrest": 1428,
      "ral": 1429,
      "erest": 1430,
      "ĠSc": 1431,
      "Ġwee": 1432,
      "Ġcalled": 1433,
      "'ve": 1434,
      "Ġsour": 1435,
      "Ġprogram": 1436,
      "Ġsignific": 1437,
      "me": 1438,
      "ills": 1439,
      "Ġbas": 1440,
      "Ġmark": 1441,
      "Ġtry": 1442,
      "Ġnut": 1443,
      "ense": 1444,
      "meric": 1445,
      "11": 1446,
      "ole": 1447,
      "Ġvarious": 1448,
      "Ġspecific": 1449,
      "Ġmove": 1450,
      "Ġaffect": 1451,
      "uss": 1452,
      "ape": 1453,
      "Ġreally": 1454,
      "Ġaddition": 1455,
      "Ġcells": 1456,
      "Ġdue": 1457,
      "Ġinclude": 1458,
      "Ġblood": 1459,
      "ane": 1460,
      "Ġneeds": 1461,
      "Ġclean": 1462,
      "Ġcap": 1463,
      "Ġec": 1464,
      "Ġbus": 1465,
      "ĠPl": 1466,
      "Ġcome": 1467,
      "Ġsomething": 1468,
      "Ġident": 1469,
      "Ġavail": 1470,
      "Ġexperience": 1471,
      "Ġopen": 1472,
      "Ġamount": 1473,
      "Ġconn": 1474,
      "Ġfollowing": 1475,
      "Ġable": 1476,
      "Ġfish": 1477,
      "Ġstep": 1478,
      "ccess": 1479,
      "ocus": 1480,
      "ries": 1481,
      "Ġconsider": 1482,
      "Ġbecome": 1483,
      "Ġcond": 1484,
      "akes": 1485,
      "land": 1486,
      "ling": 1487,
      "osed": 1488,
      "Ġstand": 1489,
      "oot": 1490,
      "Ġold": 1491,
      "ently": 1492,
      "aring": 1493,
      "etic": 1494,
      "eds": 1495,
      "ients": 1496,
      "Ġlot": 1497,
      "ertain": 1498,
      "thing": 1499,
      "Ġhere": 1500,
      "Ġanother": 1501,
      "Ġappe": 1502,
      "Ġoper": 1503,
      "Ġmeans": 1504,
      "Ġtool": 1505,
      "Ġput": 1506,
      "Ġfree": 1507,
      "Ġgoing": 1508,
      "Ġlim": 1509,
      "Ġsay": 1510,
      "Ġpar": 1511,
      "St": 1512,
      "riend": 1513,
      "Ġhead": 1514,
      "Ġspace": 1515,
      "Ġimpact": 1516,
      "Ġteam": 1517,
      "Ġpossible": 1518,
      "iver": 1519,
      "ration": 1520,
      "Ġcolor": 1521,
      "Ġdirect": 1522,
      "gn": 1523,
      "Ġcr": 1524,
      "Ġhig": 1525,
      "Ġcour": 1526,
      "ee": 1527,
      "ization": 1528,
      "Ġlearning": 1529,
      "Ġlittle": 1530,
      "Ġrequire": 1531,
      "over": 1532,
      "ode": 1533,
      "Ġest": 1534,
      "Ġcomput": 1535,
      "of": 1536,
      "Ġprovid": 1537,
      "Ġimm": 1538,
      "com": 1539,
      "ĠAmeric": 1540,
      "arent": 1541,
      "Ġprom": 1542,
      "Ġsignificant": 1543,
      "Ġsever": 1544,
      "orn": 1545,
      "Ġfil": 1546,
      "Ġlast": 1547,
      "Ġinvol": 1548,
      "Ġrisk": 1549,
      "ĠAr": 1550,
      "Ġalways": 1551,
      "Ġsize": 1552,
      "ished": 1553,
      "Ġmult": 1554,
      "Ġsym": 1555,
      "icro": 1556,
      "Ġanal": 1557,
      "aces": 1558,
      "ieve": 1559,
      "ush": 1560,
      "aves": 1561,
      "Ġsecond": 1562,
      "Ġel": 1563,
      "Ġmean": 1564,
      "Ġensure": 1565,
      "cle": 1566,
      "ime": 1567,
      "Ġcomb": 1568,
      "Ġfeature": 1569,
      "Ġunt": 1570,
      "Ġdevelopment": 1571,
      "Ġcam": 1572,
      "Ġes": 1573,
      "ances": 1574,
      "bers": 1575,
      "ending": 1576,
      "Ġinterest": 1577,
      "-d": 1578,
      "Ġusually": 1579,
      "Ġbeg": 1580,
      "Ġareas": 1581,
      "ĠIs": 1582,
      "aste": 1583,
      "Ġdisease": 1584,
      "Ġ=": 1585,
      "Ġstruct": 1586,
      "alk": 1587,
      "Ġlet": 1588,
      "ĠWhich": 1589,
      "ified": 1590,
      "ateg": 1591,
      "Ġcat": 1592,
      "Ġheat": 1593,
      "pecial": 1594,
      "Ġcy": 1595,
      "Ġprotect": 1596,
      "Ġpresent": 1597,
      "Ġmaterials": 1598,
      "ones": 1599,
      "Ġobject": 1600,
      "We": 1601,
      "Ġmot": 1602,
      "Ġproblem": 1603,
      "Ġsens": 1604,
      "arden": 1605,
      "Ġsystems": 1606,
      "Ġfocus": 1607,
      "âĢĶ": 1608,
      "Ġtimes": 1609,
      "Ġavailable": 1610,
      "Ġant": 1611,
      "Ġvol": 1612,
      "Ġlevels": 1613,
      "outh": 1614,
      "oes": 1615,
      "ĠSh": 1616,
      "Ġprofess": 1617,
      "ories": 1618,
      "Ġbased": 1619,
      "Ġkey": 1620,
      "Ġquality": 1621,
      "Ġmakes": 1622,
      "ox": 1623,
      "ote": 1624,
      "Ġtypes": 1625,
      "Ġcirc": 1626,
      "ĠEx": 1627,
      "ards": 1628,
      "16": 1629,
      "ems": 1630,
      "ton": 1631,
      "Ġsurface": 1632,
      "-p": 1633,
      "omen": 1634,
      "Ġconsum": 1635,
      "Ġapplic": 1636,
      "Ġessential": 1637,
      "Ġ$": 1638,
      "aper": 1639,
      "Ġpass": 1640,
      "Ġdem": 1641,
      "Ġfeed": 1642,
      "Ġseveral": 1643,
      "az": 1644,
      "Ġrange": 1645,
      "Ġindust": 1646,
      "ably": 1647,
      "ended": 1648,
      "ĠRe": 1649,
      "__": 1650,
      "ocial": 1651,
      "Ġcut": 1652,
      "ilar": 1653,
      "Ġgive": 1654,
      "Ġaccess": 1655,
      "14": 1656,
      "Ġdig": 1657,
      "Ġmill": 1658,
      "Ġlist": 1659,
      "par": 1660,
      "Ġoccur": 1661,
      "Ġmonth": 1662,
      "Ġbig": 1663,
      "Ġconditions": 1664,
      "Ġenough": 1665,
      "fort": 1666,
      "Ġbi": 1667,
      "atic": 1668,
      "Ġpost": 1669,
      "Ġchem": 1670,
      "de": 1671,
      "Ġeffective": 1672,
      "Ġspecial": 1673,
      "oose": 1674,
      "ables": 1675,
      "Ġreport": 1676,
      "ĠCl": 1677,
      "au": 1678,
      "Ġfin": 1679,
      "Ġscient": 1680,
      "13": 1681,
      "Ġanimals": 1682,
      "Ġimprove": 1683,
      "Ġpressure": 1684,
      "ples": 1685,
      "'m": 1686,
      "Ġcertain": 1687,
      "Ġdeterm": 1688,
      "af": 1689,
      "Ġnon": 1690,
      "ours": 1691,
      "oor": 1692,
      "Ġoil": 1693,
      "ains": 1694,
      "Ġuntil": 1695,
      "ĠWith": 1696,
      "Ġside": 1697,
      "Ġcho": 1698,
      "ĠNew": 1699,
      "Ġline": 1700,
      "Ġgroup": 1701,
      "ological": 1702,
      "Ġsuccess": 1703,
      "ury": 1704,
      "view": 1705,
      "aut": 1706,
      "Ġrad": 1707,
      "Ġorder": 1708,
      "Ġweight": 1709,
      "ication": 1710,
      "be": 1711,
      "ision": 1712,
      "Ġaway": 1713,
      "ring": 1714,
      "Ġproblems": 1715,
      "crib": 1716,
      "arc": 1717,
      "urther": 1718,
      "Ġgrowth": 1719,
      "Ġengine": 1720,
      "Ġopp": 1721,
      "Ġnear": 1722,
      "light": 1723,
      "Ġmar": 1724,
      "Ġparticular": 1725,
      "Ġmil": 1726,
      "ency": 1727,
      "Ġcheck": 1728,
      "inc": 1729,
      "Ġdays": 1730,
      "Ġeduc": 1731,
      "Ġbehav": 1732,
      "Ġfore": 1733,
      "ips": 1734,
      "Ġtechnology": 1735,
      "Ġfamily": 1736,
      "iting": 1737,
      "requ": 1738,
      "Ġresults": 1739,
      "ires": 1740,
      "ĠInd": 1741,
      "ately": 1742,
      "Ġeffic": 1743,
      "Ġname": 1744,
      "let": 1745,
      "aster": 1746,
      "olution": 1747,
      "Ġmaintain": 1748,
      "Ġsal": 1749,
      "ogn": 1750,
      "Ġtoget": 1751,
      "asing": 1752,
      "ĠBy": 1753,
      "Ġtogether": 1754,
      "hor": 1755,
      "ann": 1756,
      "ump": 1757,
      "Ġrecomm": 1758,
      "ember": 1759,
      "Ġsugg": 1760,
      "Ġter": 1761,
      "When": 1762,
      "uture": 1763,
      "Ġsince": 1764,
      "onom": 1765,
      "Ġhist": 1766,
      "Ġworking": 1767,
      "Ġearly": 1768,
      "self": 1769,
      "Ġz": 1770,
      "Ġleg": 1771,
      "ĠUniversity": 1772,
      "You": 1773,
      "NA": 1774,
      "Ġmeasure": 1775,
      "Ġalong": 1776,
      "Ġinfl": 1777,
      ")Ċ": 1778,
      "Ġdiet": 1779,
      "Ġsoft": 1780,
      "ah": 1781,
      "Ġsun": 1782,
      "ĠBl": 1783,
      "17": 1784,
      "utes": 1785,
      "Ġcomes": 1786,
      "ustom": 1787,
      "Ġworks": 1788,
      "ĠThat": 1789,
      "Ġrece": 1790,
      "ĠRes": 1791,
      "work": 1792,
      "Ġchall": 1793,
      "ĠCan": 1794,
      "Ġnecess": 1795,
      "Ġchanges": 1796,
      "pecially": 1797,
      "Ġ&": 1798,
      "Ġsuggest": 1799,
      "Ġprim": 1800,
      "Ġstrong": 1801,
      "Ġcomplete": 1802,
      "jor": 1803,
      "Ġquick": 1804,
      "Ġmanage": 1805,
      "ither": 1806,
      "ĠSe": 1807,
      "Ġrele": 1808,
      "omes": 1809,
      "Ġperiod": 1810,
      "As": 1811,
      "ret": 1812,
      "Ġmov": 1813,
      "Ġincrease": 1814,
      "Ġconnect": 1815,
      "atory": 1816,
      "Ġpast": 1817,
      "Ġhigher": 1818,
      "Ġhealthy": 1819,
      "Ġlocal": 1820,
      "por": 1821,
      "oint": 1822,
      "icult": 1823,
      "bon": 1824,
      "Ġhim": 1825,
      "oney": 1826,
      "-m": 1827,
      "ored": 1828,
      "Ġshort": 1829,
      "Ġproducts": 1830,
      "Ġcult": 1831,
      "âĢĻs": 1832,
      "ches": 1833,
      "Ġwind": 1834,
      "fer": 1835,
      "Ġactually": 1836,
      "Ġturn": 1837,
      "aging": 1838,
      "ĠAt": 1839,
      "ooks": 1840,
      "Ġgarden": 1841,
      "Ġkind": 1842,
      "Ġothers": 1843,
      "Ġnext": 1844,
      "Ġlikely": 1845,
      "Ġorig": 1846,
      "Ġste": 1847,
      "oring": 1848,
      "Ġbusiness": 1849,
      "Ġcase": 1850,
      "Ġrepl": 1851,
      "une": 1852,
      "fact": 1853,
      "Ġreduce": 1854,
      "Ġpred": 1855,
      "There": 1856,
      "Ġinvest": 1857,
      "inter": 1858,
      "Ġground": 1859,
      "Ġbro": 1860,
      "ler": 1861,
      ",Ċ": 1862,
      "Ġ[": 1863,
      "Ġdogs": 1864,
      "Ġenc": 1865,
      "Ġcou": 1866,
      "Ġfull": 1867,
      "ustain": 1868,
      "Ġage": 1869,
      "imes": 1870,
      "Ġsing": 1871,
      "Ġhaving": 1872,
      "ised": 1873,
      "25": 1874,
      "Ġresour": 1875,
      "Ġvalue": 1876,
      "Ġtreatment": 1877,
      "Ġnorm": 1878,
      "cul": 1879,
      "Ġlower": 1880,
      "Ġfriend": 1881,
      "Ġcourse": 1882,
      "uro": 1883,
      "Ġsocial": 1884,
      "astic": 1885,
      "Ġeasy": 1886,
      "ission": 1887,
      "Ġmodel": 1888,
      "chan": 1889,
      "Ġans": 1890,
      "Ġi": 1891,
      "resh": 1892,
      "Ġrole": 1893,
      "Ġfuture": 1894,
      "Ġeye": 1895,
      "Ġfac": 1896,
      "Ġassoci": 1897,
      "Ġsound": 1898,
      "Ġdry": 1899,
      "Ġlab": 1900,
      "Ġdoesn": 1901,
      "Ġleast": 1902,
      "Ġunique": 1903,
      "Ġmajor": 1904,
      "verage": 1905,
      "Ġstra": 1906,
      "-l": 1907,
      "Ġpie": 1908,
      "Ġacross": 1909,
      "Ġissues": 1910,
      "Ġlive": 1911,
      "Ġprote": 1912,
      "fect": 1913,
      "not": 1914,
      "osp": 1915,
      "orth": 1916,
      "¿½": 1917,
      "ï¿½": 1918,
      "Ġheart": 1919,
      "Ġmach": 1920,
      "An": 1921,
      "izing": 1922,
      "agn": 1923,
      "Ġsimilar": 1924,
      "Ġsum": 1925,
      "Ġespecially": 1926,
      "Ġmind": 1927,
      "ĠDe": 1928,
      "Ġwarm": 1929,
      "Ġfield": 1930,
      "pos": 1931,
      "Ġways": 1932,
      "Ġbegin": 1933,
      "lish": 1934,
      "ĠCom": 1935,
      "Ġtru": 1936,
      "ators": 1937,
      "Ġeat": 1938,
      ".,": 1939,
      "ream": 1940,
      "Ġthing": 1941,
      "Ġbal": 1942,
      "rect": 1943,
      "anced": 1944,
      "ived": 1945,
      "40": 1946,
      "Ġnever": 1947,
      "angu": 1948,
      "Ġsimple": 1949,
      "Ġdamage": 1950,
      "erc": 1951,
      "Ġfarm": 1952,
      "Ġvide": 1953,
      "idence": 1954,
      "Ġfactors": 1955,
      "ĠTe": 1956,
      "Ġreason": 1957,
      "Ġsays": 1958,
      "Ġfour": 1959,
      "Ġprob": 1960,
      "Ġeffects": 1961,
      "by": 1962,
      "ivity": 1963,
      "duct": 1964,
      "Ġmarket": 1965,
      "ym": 1966,
      "Ġach": 1967,
      "Ġfar": 1968,
      "Ġabove": 1969,
      "Ġclear": 1970,
      "ilities": 1971,
      "Ġgiven": 1972,
      "Ġregular": 1973,
      "Ġcra": 1974,
      "Ġdifficult": 1975,
      "Ġpublic": 1976,
      "Ġgreen": 1977,
      "Ġobs": 1978,
      "Ġvir": 1979,
      "Ġintern": 1980,
      "Ġcharacter": 1981,
      "Ġloss": 1982,
      "ames": 1983,
      "Ġclose": 1984,
      "most": 1985,
      "Ġavoid": 1986,
      "vious": 1987,
      "Ġsafe": 1988,
      "Ġagainst": 1989,
      "Ġer": 1990,
      "usion": 1991,
      "though": 1992,
      "Ġproduction": 1993,
      "!ĊĊ": 1994,
      "ask": 1995,
      "Ġgre": 1996,
      "Ġmicro": 1997,
      "Ġyoung": 1998,
      "ĠSp": 1999,
      "joy": 2000,
      "Ġpet": 2001,
      "Ġrespons": 2002,
      "Ġdone": 2003,
      "Ġcustom": 2004,
      "ĠBe": 2005,
      "-t": 2006,
      "ystem": 2007,
      "igns": 2008,
      "ott": 2009,
      "Ġreact": 2010,
      "Ġcool": 2011,
      "ledge": 2012,
      "ER": 2013,
      "uals": 2014,
      "Ġsmo": 2015,
      "ĠYour": 2016,
      "Ġbit": 2017,
      "amm": 2018,
      "ification": 2019,
      "Ġred": 2020,
      "ression": 2021,
      "Ġchemical": 2022,
      "yle": 2023,
      "Ġdiscuss": 2024,
      "Ġhab": 2025,
      "iple": 2026,
      "Ġhouse": 2027,
      "Ġaccording": 2028,
      "Ġdetail": 2029,
      "Ġblack": 2030,
      "ĠCol": 2031,
      "Ġcontrib": 2032,
      ")ĊĊ": 2033,
      "ĠZ": 2034,
      "hem": 2035,
      "Ġwrit": 2036,
      "estions": 2037,
      "Ġanimal": 2038,
      "ensive": 2039,
      "omet": 2040,
      "Ġwr": 2041,
      "Ġwhite": 2042,
      "Ġphysical": 2043,
      "Ġfrequ": 2044,
      "lement": 2045,
      "Ġsubst": 2046,
      "Ġcompon": 2047,
      "ĠCon": 2048,
      "ibility": 2049,
      "Ġgas": 2050,
      "Ġparts": 2051,
      "Ġprovides": 2052,
      "Ch": 2053,
      "Ġquestion": 2054,
      "ptoms": 2055,
      "Ġstress": 2056,
      "side": 2057,
      "Ġwide": 2058,
      "avor": 2059,
      "Ġleft": 2060,
      "ĠSome": 2061,
      "ĠEn": 2062,
      "Ġland": 2063,
      "ipp": 2064,
      "Ġcru": 2065,
      "Ġbatter": 2066,
      "Ġfall": 2067,
      "Ġlooking": 2068,
      "Ġcondition": 2069,
      "Ġview": 2070,
      "Ġtraining": 2071,
      "Ġbenefits": 2072,
      "wards": 2073,
      "Ġrepres": 2074,
      "Ġindividual": 2075,
      "Ġamong": 2076,
      "Ġdifference": 2077,
      "ried": 2078,
      "Ġeither": 2079,
      "rate": 2080,
      "Ġtur": 2081,
      "Ġexce": 2082,
      "Ġbook": 2083,
      "Ġcomplex": 2084,
      "Ġpopular": 2085,
      "Ġsource": 2086,
      "Ġflu": 2087,
      "Ġsingle": 2088,
      "Ġtoday": 2089,
      "Ġpaper": 2090,
      "Ġstop": 2091,
      "Ġpercent": 2092,
      "erence": 2093,
      "Ġclimate": 2094,
      "Ġweek": 2095,
      "Ġparent": 2096,
      "âĢ¦": 2097,
      "Ġevent": 2098,
      "Ġhelps": 2099,
      "Ġdesigned": 2100,
      "Ġnature": 2101,
      "Ġimage": 2102,
      "Ġveget": 2103,
      "></": 2104,
      "hing": 2105,
      "lection": 2106,
      "ray": 2107,
      "Ġox": 2108,
      "Ġvers": 2109,
      "Ġnet": 2110,
      "Ġbuy": 2111,
      "Ġunderstanding": 2112,
      "mit": 2113,
      "Ġ<": 2114,
      "Ġresearc": 2115,
      "for": 2116,
      "Ġability": 2117,
      "rown": 2118,
      "Ġenjoy": 2119,
      "Ġsustain": 2120,
      "Ġdeg": 2121,
      "ufact": 2122,
      "ina": 2123,
      "Ġegg": 2124,
      "ends": 2125,
      "ĠPh": 2126,
      "cri": 2127,
      "Ġwild": 2128,
      "Ġskin": 2129,
      "Ġfit": 2130,
      "Ġmechan": 2131,
      "Ġcoll": 2132,
      "Ġfat": 2133,
      "ĠâĢĶ": 2134,
      "alf": 2135,
      "ploy": 2136,
      "24": 2137,
      "For": 2138,
      "To": 2139,
      "Ġnecessary": 2140,
      "orts": 2141,
      "Ġoffer": 2142,
      "Ġhappen": 2143,
      "21": 2144,
      "rel": 2145,
      "Ġmatter": 2146,
      "Ġthin": 2147,
      "Ġcancer": 2148,
      "Ġskills": 2149,
      "Ġterm": 2150,
      "aken": 2151,
      "gar": 2152,
      "idd": 2153,
      "Ġveh": 2154,
      "aling": 2155,
      "Ġactivity": 2156,
      "Ġexpect": 2157,
      "Ġabs": 2158,
      "Ġindic": 2159,
      "ising": 2160,
      "ĠInst": 2161,
      "Ġinteract": 2162,
      "Ġonce": 2163,
      "raph": 2164,
      "ery": 2165,
      "Ġvariety": 2166,
      "Ġwood": 2167,
      "Wh": 2168,
      "Ġglob": 2169,
      "Ġfu": 2170,
      "!Ċ": 2171,
      "Ġmagn": 2172,
      "ength": 2173,
      "Ġfurther": 2174,
      "ĠUS": 2175,
      "Ġperformance": 2176,
      "Ġsn": 2177,
      "Ġpersonal": 2178,
      "ĠEng": 2179,
      "Ġtell": 2180,
      "lished": 2181,
      "Ġminim": 2182,
      "ortun": 2183,
      "ĠOn": 2184,
      "Ġrecord": 2185,
      "22": 2186,
      "Ġselect": 2187,
      "ruction": 2188,
      "ready": 2189,
      "Ġinit": 2190,
      "Ġmass": 2191,
      "Ġcomputer": 2192,
      "Ġscience": 2193,
      "Ġenh": 2194,
      "Ġlangu": 2195,
      "ales": 2196,
      "ured": 2197,
      "ming": 2198,
      "ope": 2199,
      "Ġsle": 2200,
      "Ġsuper": 2201,
      "eral": 2202,
      "Ġinside": 2203,
      "Ġauthor": 2204,
      "bo": 2205,
      "Ġlif": 2206,
      "Ġgetting": 2207,
      "Ġwomen": 2208,
      "use": 2209,
      "ĠIm": 2210,
      "Ġcarbon": 2211,
      "Ġcontent": 2212,
      "ibr": 2213,
      "just": 2214,
      "Ġfeatures": 2215,
      "Ġfru": 2216,
      "Ġask": 2217,
      "Ġpath": 2218,
      "elves": 2219,
      "istic": 2220,
      "Ġwhether": 2221,
      "Ġever": 2222,
      "ĠNo": 2223,
      "Ġill": 2224,
      "Ġallows": 2225,
      "ores": 2226,
      "Ġcontact": 2227,
      "ae": 2228,
      "----": 2229,
      "Ġrate": 2230,
      "Ġroom": 2231,
      "Ġgame": 2232,
      "Ġdoing": 2233,
      "ĠOr": 2234,
      "Ġsymptoms": 2235,
      "ging": 2236,
      "Ġdraw": 2237,
      "Ġcommunity": 2238,
      "Ġindustry": 2239,
      "Ġdescrib": 2240,
      "Ġproduce": 2241,
      "Ġexperien": 2242,
      "Ġcrit": 2243,
      "Ġneeded": 2244,
      "Ġelectric": 2245,
      "app": 2246,
      "ilt": 2247,
      "Ġtradition": 2248,
      "selves": 2249,
      "Ġrequired": 2250,
      "Ġalready": 2251,
      "Ġneg": 2252,
      "ney": 2253,
      "Ġemb": 2254,
      "aching": 2255,
      "IN": 2256,
      "Ġhours": 2257,
      "vert": 2258,
      "Ġconcer": 2259,
      "aps": 2260,
      "lex": 2261,
      "Ġseen": 2262,
      "ges": 2263,
      "Ġactivities": 2264,
      "Ġself": 2265,
      "Ġtools": 2266,
      "Ġbreak": 2267,
      "Ġsitu": 2268,
      "ding": 2269,
      "Ġknowledge": 2270,
      "Ġ.": 2271,
      "Ġmoney": 2272,
      "Ġlove": 2273,
      "Ġmanufact": 2274,
      "Ġindividuals": 2275,
      "ĠOne": 2276,
      "Ġspeed": 2277,
      "ĠCent": 2278,
      "ĠEar": 2279,
      "Ġaddress": 2280,
      "Ġchalleng": 2281,
      "Ġliving": 2282,
      "lying": 2283,
      "Ġbuilding": 2284,
      "Ġresist": 2285,
      "ument": 2286,
      "Ġbar": 2287,
      "Ġmix": 2288,
      "ura": 2289,
      "Ġprint": 2290,
      "ysis": 2291,
      "Ġleaves": 2292,
      "So": 2293,
      "edi": 2294,
      "iques": 2295,
      "ĠAll": 2296,
      "Ġencou": 2297,
      "ows": 2298,
      "aily": 2299,
      "illed": 2300,
      "Ġexist": 2301,
      "Ġsafety": 2302,
      "Ġlayer": 2303,
      "Ġtot": 2304,
      "Ġbrain": 2305,
      "60": 2306,
      "itch": 2307,
      "Ġbelow": 2308,
      "Ġbacter": 2309,
      "ik": 2310,
      "man": 2311,
      "Ġstrateg": 2312,
      "ites": 2313,
      "Ġparticip": 2314,
      "ird": 2315,
      "80": 2316,
      "ĠAI": 2317,
      "Ġonline": 2318,
      "Ġarticle": 2319,
      "nam": 2320,
      "pose": 2321,
      "sect": 2322,
      "ĠĠ": 2323,
      "het": 2324,
      "ese": 2325,
      "Ġmonths": 2326,
      "aged": 2327,
      "fully": 2328,
      "Ġbirds": 2329,
      "Ġappear": 2330,
      "iment": 2331,
      "Ġbab": 2332,
      "ply": 2333,
      "Ġhold": 2334,
      "ront": 2335,
      "Ġservice": 2336,
      "room": 2337,
      "Ġhot": 2338,
      "Ġresources": 2339,
      "urs": 2340,
      "Ġslow": 2341,
      "Ġdeep": 2342,
      "utions": 2343,
      "Ġtaking": 2344,
      "Ġpay": 2345,
      "aving": 2346,
      "Ġoverall": 2347,
      "Ġmention": 2348,
      "uff": 2349,
      "Ġmillion": 2350,
      "Ġresearchers": 2351,
      "onst": 2352,
      "Ġperfect": 2353,
      "gs": 2354,
      "ival": 2355,
      "Ġquestions": 2356,
      "Ġtravel": 2357,
      "âĢĵ": 2358,
      "aced": 2359,
      "Ġcorrect": 2360,
      "Ġeyes": 2361,
      "Ġapproach": 2362,
      "reng": 2363,
      "Ġmethods": 2364,
      "Ġcompany": 2365,
      "Ġlonger": 2366,
      "Ġentire": 2367,
      "Ġwhole": 2368,
      "Ġtypically": 2369,
      "Ġopportun": 2370,
      "Ġsam": 2371,
      "Ġisn": 2372,
      "Ġjour": 2373,
      "ĠQu": 2374,
      "Ġremov": 2375,
      "Ġhistory": 2376,
      "Ġidea": 2377,
      "Ġeconom": 2378,
      "amin": 2379,
      "Ġrelations": 2380,
      "Ġseason": 2381,
      "Ġut": 2382,
      "Ġmo": 2383,
      "Ġuser": 2384,
      "upp": 2385,
      "Ġpopulation": 2386,
      "ume": 2387,
      "Ġbehavior": 2388,
      "Ġsomeone": 2389,
      "Ġpack": 2390,
      "Ġcrucial": 2391,
      "Ġeasily": 2392,
      "Ġprep": 2393,
      "Ġpositive": 2394,
      "Ġanswer": 2395,
      "Ġmedical": 2396,
      "Ġcases": 2397,
      "lor": 2398,
      "Ġposition": 2399,
      "Ġhyd": 2400,
      "Ġprec": 2401,
      "ervation": 2402,
      "Ġmanagement": 2403,
      "Ġlater": 2404,
      "rams": 2405,
      "Ġcollect": 2406,
      "Ġassociated": 2407,
      "ipment": 2408,
      "Ġrecogn": 2409,
      "Ġoptim": 2410,
      "inary": 2411,
      "ON": 2412,
      "ctor": 2413,
      "Ġgot": 2414,
      ".\"ĊĊ": 2415,
      "Ġcreating": 2416,
      "Al": 2417,
      "erve": 2418,
      "verse": 2419,
      "Ġetc": 2420,
      "Ġtree": 2421,
      "eding": 2422,
      "ule": 2423,
      "Ġsqu": 2424,
      "idered": 2425,
      "ĠX": 2426,
      "Ġharm": 2427,
      "Ġbring": 2428,
      "eter": 2429,
      "load": 2430,
      "Ġwall": 2431,
      "Ġeff": 2432,
      "osing": 2433,
      "erous": 2434,
      "Th": 2435,
      "pro": 2436,
      "Ġstay": 2437,
      "Ġlaw": 2438,
      "aches": 2439,
      "osis": 2440,
      "Ġsolution": 2441,
      "amp": 2442,
      "iency": 2443,
      "Ġbeaut": 2444,
      ".\"Ċ": 2445,
      "Ġla": 2446,
      ").Ċ": 2447,
      "Ġport": 2448,
      "igure": 2449,
      "Ġing": 2450,
      "ĠShe": 2451,
      "Ġtechniques": 2452,
      "ĠAmerican": 2453,
      "Ġpest": 2454,
      "ĠTr": 2455,
      "Ġadult": 2456,
      "Ġgeneral": 2457,
      "Ġenvironmental": 2458,
      "Ġoptions": 2459,
      "Ġfoot": 2460,
      "Ġmeet": 2461,
      "Ġcold": 2462,
      "Ġthought": 2463,
      "Ġquickly": 2464,
      "Ġgrowing": 2465,
      "rict": 2466,
      "ises": 2467,
      "Ġintrodu": 2468,
      "Ġvideo": 2469,
      "Ġaverage": 2470,
      "-based": 2471,
      "**": 2472,
      "Ġthroughout": 2473,
      "Ġminutes": 2474,
      "ĠCar": 2475,
      "Ġsepar": 2476,
      "Ġpoll": 2477,
      "Ġconsidered": 2478,
      "iation": 2479,
      "Ġstreng": 2480,
      "cks": 2481,
      "Ġwar": 2482,
      "Ġtrees": 2483,
      "Ġcompan": 2484,
      "Ġchoose": 2485,
      "Ġextra": 2486,
      "ils": 2487,
      "Ġexerc": 2488,
      "ograp": 2489,
      "Ġcover": 2490,
      "Ġnormal": 2491,
      "val": 2492,
      "Ġacid": 2493,
      "reme": 2494,
      "ES": 2495,
      "ounds": 2496,
      "Ġnutri": 2497,
      "ĠWhile": 2498,
      "Ġbox": 2499,
      "Ġexc": 2500,
      "Ġrather": 2501,
      "Ġur": 2502,
      "Ġmen": 2503,
      "Ġinflu": 2504,
      "arget": 2505,
      "Ġfram": 2506,
      "ĠWor": 2507,
      "play": 2508,
      "Ġhumans": 2509,
      "Ġcountry": 2510,
      "Ġtend": 2511,
      "Ġfund": 2512,
      "Ġfresh": 2513,
      "Ġrelationship": 2514,
      "Ġinstall": 2515,
      "oll": 2516,
      "ĠLe": 2517,
      "Ġjob": 2518,
      "cies": 2519,
      "Ġpan": 2520,
      "Ġyourself": 2521,
      "ged": 2522,
      "Ġhor": 2523,
      "Ġwebs": 2524,
      "Ġcamer": 2525,
      "Ġmat": 2526,
      "Ġprofessional": 2527,
      "Ġgover": 2528,
      "Ġbad": 2529,
      "ĠDo": 2530,
      "Ġlanguage": 2531,
      "rated": 2532,
      "Ġcop": 2533,
      "Ġincreased": 2534,
      "Ġstructure": 2535,
      "nces": 2536,
      "Ġprimary": 2537,
      "aff": 2538,
      "uck": 2539,
      "Ġtakes": 2540,
      "ulations": 2541,
      "Ġsleep": 2542,
      "Ġsense": 2543,
      "Ġactive": 2544,
      "Ġglass": 2545,
      "ext": 2546,
      "Ġrepresent": 2547,
      "Ġcomfort": 2548,
      "Ġhabit": 2549,
      "mb": 2550,
      "ĠMed": 2551,
      "Ġpractice": 2552,
      "oration": 2553,
      "Ġcook": 2554,
      "augh": 2555,
      "Ġmultiple": 2556,
      "ĠDr": 2557,
      "Ġcannot": 2558,
      "Ġrelated": 2559,
      "Ġmonit": 2560,
      "Ġidentify": 2561,
      "Ġconsist": 2562,
      "Ġpatients": 2563,
      "itud": 2564,
      "Ġinj": 2565,
      "Ġann": 2566,
      "rapy": 2567,
      "Ġinteg": 2568,
      "min": 2569,
      "ĠComm": 2570,
      "Ġsoftware": 2571,
      "ze": 2572,
      "ropri": 2573,
      "Ġglobal": 2574,
      "ellow": 2575,
      "Ġsil": 2576,
      "Ġbur": 2577,
      "lease": 2578,
      "Ġprotein": 2579,
      "Ġpict": 2580,
      "acks": 2581,
      "elling": 2582,
      "Ġuses": 2583,
      "Ġstudies": 2584,
      "ison": 2585,
      "-w": 2586,
      "Ġoutside": 2587,
      "Ġrelative": 2588,
      "Ġmodern": 2589,
      "Ġdevice": 2590,
      "Ġconduct": 2591,
      "Ġelements": 2592,
      "ians": 2593,
      "cean": 2594,
      "Ġattention": 2595,
      "Ġtraditional": 2596,
      "Ġsubject": 2597,
      "ners": 2598,
      "Ġdevices": 2599,
      "urope": 2600,
      "Ġequipment": 2601,
      "Ġproviding": 2602,
      "rition": 2603,
      "Ġwinter": 2604,
      "Ġbase": 2605,
      "asons": 2606,
      ").ĊĊ": 2607,
      "23": 2608,
      "Ġlength": 2609,
      "ties": 2610,
      "Ġremain": 2611,
      "Ġcauses": 2612,
      "Ġemploy": 2613,
      "Ġeverything": 2614,
      "ned": 2615,
      "Ġelectr": 2616,
      "Ġsat": 2617,
      "Ġfem": 2618,
      "Ġnight": 2619,
      "Ġsugar": 2620,
      "ograph": 2621,
      "earch": 2622,
      "Ġfeet": 2623,
      "Ġwords": 2624,
      "Pro": 2625,
      "Ġhowever": 2626,
      "Ġwa": 2627,
      "Ġheav": 2628,
      "Ġprobably": 2629,
      "AT": 2630,
      "Ġfast": 2631,
      "Ġalmost": 2632,
      "ĠUnited": 2633,
      "Ġcontinu": 2634,
      "Ġcreated": 2635,
      "nov": 2636,
      "xim": 2637,
      "Ġautom": 2638,
      "uit": 2639,
      "Ġdeveloped": 2640,
      "Ġeducation": 2641,
      "ED": 2642,
      "Ġaltern": 2643,
      "Ġteac": 2644,
      ".S": 2645,
      "Ġadjust": 2646,
      "AR": 2647,
      "Ġcompet": 2648,
      "Ġcapt": 2649,
      "Ġhalf": 2650,
      "Ġweather": 2651,
      "rior": 2652,
      "OT": 2653,
      "ĠCons": 2654,
      "ĠUs": 2655,
      "Ġissue": 2656,
      "aim": 2657,
      "Ġthemselves": 2658,
      "ched": 2659,
      "Ġsite": 2660,
      "Ġfoods": 2661,
      "Ġtable": 2662,
      "Ġincludes": 2663,
      "rogen": 2664,
      "icles": 2665,
      "Ġtaken": 2666,
      "ĠNational": 2667,
      "Ġspread": 2668,
      "Ġdaily": 2669,
      "Ġsuit": 2670,
      "ricult": 2671,
      "Ġsimply": 2672,
      "Ġmom": 2673,
      "Ġrob": 2674,
      "Ġface": 2675,
      "Ġshown": 2676,
      "izes": 2677,
      "Ġservices": 2678,
      "Ġcaused": 2679,
      "Ġswe": 2680,
      "umb": 2681,
      "Ġanything": 2682,
      "Ġincreasing": 2683,
      "Ġquant": 2684,
      "Ġshows": 2685,
      "Ġassess": 2686,
      "urity": 2687,
      "Ġweeks": 2688,
      "icial": 2689,
      "Ġwaste": 2690,
      "Ġinput": 2691,
      "Ġsomet": 2692,
      "ĠCont": 2693,
      "ĠHere": 2694,
      "Ġfive": 2695,
      "Ġforce": 2696,
      "Ġtotal": 2697,
      "AS": 2698,
      "rip": 2699,
      "Ġsea": 2700,
      "sc": 2701,
      "ĠCO": 2702,
      "Ġremove": 2703,
      "90": 2704,
      "ene": 2705,
      "Ġprop": 2706,
      "nment": 2707,
      "Ġang": 2708,
      "hol": 2709,
      "Ġaud": 2710,
      "ino": 2711,
      "Ġinsect": 2712,
      "Ġinstead": 2713,
      "Ġshape": 2714,
      "Ġfuel": 2715,
      "Ġsurv": 2716,
      "Ġlarger": 2717,
      "-in": 2718,
      "Ad": 2719,
      "ancy": 2720,
      "Ġcompared": 2721,
      "Ġvac": 2722,
      "Ġbalance": 2723,
      "Ġyet": 2724,
      "Ġfamil": 2725,
      "icy": 2726,
      "Ġextreme": 2727,
      "Ġcrop": 2728,
      "Ġoffers": 2729,
      "Ġexplain": 2730,
      "Ġchoice": 2731,
      "Ġfib": 2732,
      "Ġregard": 2733,
      "ĠEurope": 2734,
      "Ġestab": 2735,
      "Ġachieve": 2736,
      "Ġbattery": 2737,
      "ĠDes": 2738,
      "âĢĿ": 2739,
      "Ġaccount": 2740,
      "Ġoption": 2741,
      "isc": 2742,
      "mon": 2743,
      "Ġquite": 2744,
      "Ġdigital": 2745,
      "Ġcomponents": 2746,
      "Ġtarget": 2747,
      "onse": 2748,
      "Ġseem": 2749,
      "Ġapplications": 2750,
      "Ġce": 2751,
      "rig": 2752,
      "ift": 2753,
      "ronic": 2754,
      "ĠEarth": 2755,
      "Ġ</": 2756,
      "sy": 2757,
      "Ġblue": 2758,
      "Ġitself": 2759,
      "Ġarr": 2760,
      "Ġmole": 2761,
      "Why": 2762,
      "Ġshare": 2763,
      "Ġgenerally": 2764,
      "Ġtrying": 2765,
      "Ġanalysis": 2766,
      "ley": 2767,
      "Ġconcept": 2768,
      "Ġdetermine": 2769,
      "Ġfire": 2770,
      "Ġefficient": 2771,
      "Ġmachine": 2772,
      "Ġfail": 2773,
      "ouch": 2774,
      "Ġorganic": 2775,
      "Ġbehind": 2776,
      "ĠDNA": 2777,
      "ecause": 2778,
      "Ġsometimes": 2779,
      "rist": 2780,
      "imately": 2781,
      "Ġscientists": 2782,
      "Ġdom": 2783,
      "Ġparents": 2784,
      "Ġbelieve": 2785,
      "70": 2786,
      "Ġball": 2787,
      "yl": 2788,
      "Ġmetal": 2789,
      "Ġmilk": 2790,
      "Ġsummer": 2791,
      "go": 2792,
      "inct": 2793,
      "Ġprevious": 2794,
      "Ġencoura": 2795,
      "ertil": 2796,
      "Ġprovided": 2797,
      "Ġexact": 2798,
      "Ġkids": 2799,
      "ĠAfter": 2800,
      "Ġplastic": 2801,
      "Ġrot": 2802,
      "Ġstandard": 2803,
      "where": 2804,
      "ening": 2805,
      "One": 2806,
      "Ġlands": 2807,
      "rad": 2808,
      "Ex": 2809,
      "Ġwond": 2810,
      "Ġdiseases": 2811,
      "oon": 2812,
      "Ġbrand": 2813,
      "ai": 2814,
      "ules": 2815,
      "Ġtrue": 2816,
      "Ġadvant": 2817,
      "Ġtiss": 2818,
      "ĠNorth": 2819,
      "Ġaction": 2820,
      "Ġdark": 2821,
      "Ġlo": 2822,
      "Ġdetect": 2823,
      "gest": 2824,
      "iot": 2825,
      "Ġice": 2826,
      "tenance": 2827,
      "Ġmentioned": 2828,
      "Ġdest": 2829,
      "Ġlink": 2830,
      "ĠHealth": 2831,
      "Ġwon": 2832,
      "Ġago": 2833,
      "Ġstarted": 2834,
      "Ġforest": 2835,
      "Ġleading": 2836,
      "fl": 2837,
      "Ġstat": 2838,
      "Ġstory": 2839,
      "ping": 2840,
      "ung": 2841,
      "Ġmedia": 2842,
      "Ġvit": 2843,
      "istics": 2844,
      "Ġrequires": 2845,
      "Ġir": 2846,
      "Ġreading": 2847,
      "ropriate": 2848,
      "But": 2849,
      "Ġmess": 2850,
      "ĠMan": 2851,
      "Ġadapt": 2852,
      "Ġadditional": 2853,
      "Ġvisit": 2854,
      "Ġingred": 2855,
      "water": 2856,
      "Ġones": 2857,
      "Ġgain": 2858,
      "Ġcolors": 2859,
      "Ġhighly": 2860,
      "Ġvehicle": 2861,
      "Ġbacteria": 2862,
      "Ġappli": 2863,
      "Ġregion": 2864,
      "oh": 2865,
      "oles": 2866,
      "ĠAf": 2867,
      "Ġfront": 2868,
      "Ġnegative": 2869,
      "ades": 2870,
      "Ġeggs": 2871,
      "ground": 2872,
      "-h": 2873,
      "Ġbott": 2874,
      "ctions": 2875,
      "Ġload": 2876,
      "Ġaspect": 2877,
      "Ġobserv": 2878,
      "Ġaware": 2879,
      "ccording": 2880,
      "Ġscreen": 2881,
      "Ġlives": 2882,
      "Ġge": 2883,
      "oph": 2884,
      "'d": 2885,
      "Ġlog": 2886,
      "Ġgroups": 2887,
      "Ġdru": 2888,
      "AN": 2889,
      "Ġcode": 2890,
      "Ġrout": 2891,
      "Ġstudent": 2892,
      "Ġterms": 2893,
      "rec": 2894,
      "alking": 2895,
      "Ġreach": 2896,
      "aries": 2897,
      "Ġmodels": 2898,
      "Ġsmaller": 2899,
      "book": 2900,
      "wh": 2901,
      "asc": 2902,
      "artment": 2903,
      "Ġbird": 2904,
      "Ġmembers": 2905,
      "ipe": 2906,
      "Ġprocesses": 2907,
      "ĠApp": 2908,
      "ĠNe": 2909,
      "hib": 2910,
      "EN": 2911,
      "Ġbreat": 2912,
      "hern": 2913,
      "pan": 2914,
      "iring": 2915,
      "ences": 2916,
      "ension": 2917,
      "ĠStates": 2918,
      "ditionally": 2919,
      "Ġmaxim": 2920,
      "Ġexplore": 2921,
      "ĠCal": 2922,
      "Ġinfect": 2923,
      "Ġrecommended": 2924,
      "ID": 2925,
      "Ġresponse": 2926,
      "Ġcontinue": 2927,
      "pid": 2928,
      "Ġx": 2929,
      "arily": 2930,
      "Ġpurpose": 2931,
      "abet": 2932,
      "Ġdecre": 2933,
      "isms": 2934,
      "Ġsources": 2935,
      "Ġearth": 2936,
      "Ġeating": 2937,
      "Ġdoc": 2938,
      "Ġadded": 2939,
      "vere": 2940,
      "Ġapplication": 2941,
      "Ġimplement": 2942,
      "ociety": 2943,
      "ĠAust": 2944,
      "Ġkit": 2945,
      "Ġdy": 2946,
      "orpor": 2947,
      "Ġreview": 2948,
      "Ġseed": 2949,
      "Ġimages": 2950,
      "new": 2951,
      "Ġbaby": 2952,
      "Ġtowards": 2953,
      "Ġpurch": 2954,
      "Ġparticularly": 2955,
      "Ġmedic": 2956,
      "come": 2957,
      "ror": 2958,
      "Ġconcent": 2959,
      "Ġemerg": 2960,
      "Sh": 2961,
      "atives": 2962,
      "Ġdefin": 2963,
      "Ġbasic": 2964,
      "cription": 2965,
      "Ġsteps": 2966,
      "like": 2967,
      "osure": 2968,
      "Ġcard": 2969,
      "Ġdang": 2970,
      "Ġlines": 2971,
      "Ġpret": 2972,
      "cre": 2973,
      "acy": 2974,
      "ights": 2975,
      "ops": 2976,
      "Ġteeth": 2977,
      "____": 2978,
      "illing": 2979,
      "Ġevents": 2980,
      "Ġdiagn": 2981,
      "Ġdistrib": 2982,
      "Ġvalues": 2983,
      "terns": 2984,
      "Ġcountries": 2985,
      "Ġdou": 2986,
      "Ġproduced": 2987,
      "Ġrunning": 2988,
      "ief": 2989,
      "Ġevidence": 2990,
      "clusion": 2991,
      "ĠAfric": 2992,
      "Ġprior": 2993,
      "Ġnumbers": 2994,
      "Ġpoints": 2995,
      "ĠFrom": 2996,
      "Ġhar": 2997,
      "Ġitems": 2998,
      "Ġeveryone": 2999,
      "iddle": 3000,
      "Ġthreat": 3001,
      "Ġful": 3002,
      "sequ": 3003,
      "Ġroad": 3004,
      "AC": 3005,
      "ĠCo": 3006,
      "ively": 3007,
      "Ġ+": 3008,
      "ĠMay": 3009,
      "Ġdidn": 3010,
      "Ġelse": 3011,
      "ĠTra": 3012,
      "ulate": 3013,
      "Ġflowers": 3014,
      "Ġaim": 3015,
      "Can": 3016,
      "enn": 3017,
      "ĠNot": 3018,
      "rehe": 3019,
      "emic": 3020,
      "overed": 3021,
      "ĠYes": 3022,
      "nter": 3023,
      "elt": 3024,
      "Ġreplace": 3025,
      "sh": 3026,
      "Ġsent": 3027,
      "cient": 3028,
      "ĠMe": 3029,
      "Ġcontroll": 3030,
      "eration": 3031,
      "unch": 3032,
      "ĠGu": 3033,
      "ĠOf": 3034,
      "Ġpatient": 3035,
      "anks": 3036,
      "Ġguid": 3037,
      "Ġmoist": 3038,
      "Ġbed": 3039,
      "ĠAss": 3040,
      "Ġserious": 3041,
      "ĠMore": 3042,
      "raft": 3043,
      "ĠDep": 3044,
      "issions": 3045,
      "Ġbul": 3046,
      "Ġsustainable": 3047,
      "Ġwebsite": 3048,
      "ĠKe": 3049,
      "Ġrespect": 3050,
      "Ġrecent": 3051,
      "Ġlocation": 3052,
      "ields": 3053,
      "ygen": 3054,
      "Ġmeat": 3055,
      "Ġoutput": 3056,
      "Ġunit": 3057,
      "iny": 3058,
      "Is": 3059,
      "ĠStud": 3060,
      "Ġbuilt": 3061,
      "aks": 3062,
      "vest": 3063,
      "alu": 3064,
      "oming": 3065,
      "term": 3066,
      "ĠâĢľ": 3067,
      "Ġemot": 3068,
      "pper": 3069,
      "...ĊĊ": 3070,
      "Ġassist": 3071,
      "Ġcompletely": 3072,
      "Ġstrength": 3073,
      "ĠFe": 3074,
      "Ġcompanies": 3075,
      "ĠGen": 3076,
      "Ġproperly": 3077,
      "ĠSouth": 3078,
      "Ġnews": 3079,
      "ĠAm": 3080,
      "Ġtemperatures": 3081,
      "rs": 3082,
      "Ġtalk": 3083,
      "Ġprice": 3084,
      "iate": 3085,
      "Ġpatterns": 3086,
      "Ġinvolved": 3087,
      "ĠAre": 3088,
      "ĠPr": 3089,
      "Ġgoal": 3090,
      "Ġwear": 3091,
      "Ġleave": 3092,
      "Ġreflect": 3093,
      "Ġprograms": 3094,
      "Ġseries": 3095,
      "Ġseeds": 3096,
      "Ġbenefit": 3097,
      "Ġfruit": 3098,
      "Ġword": 3099,
      "Ġguide": 3100,
      "Ġproperties": 3101,
      "Ġdirectly": 3102,
      "Ġcarry": 3103,
      "Ġdeal": 3104,
      "ocks": 3105,
      "Ġprefer": 3106,
      "itude": 3107,
      "apan": 3108,
      "ightly": 3109,
      "ellig": 3110,
      "Ġuseful": 3111,
      "Ġgreater": 3112,
      "aur": 3113,
      "cles": 3114,
      "Ġcontains": 3115,
      "imin": 3116,
      "Ġpredict": 3117,
      "Ġsand": 3118,
      "Ġreasons": 3119,
      "Ġdeath": 3120,
      "Ġcapac": 3121,
      "back": 3122,
      "Ġconstant": 3123,
      "Ġbag": 3124,
      "Ġdistance": 3125,
      "35": 3126,
      "Ġclaim": 3127,
      "Ġgrass": 3128,
      "Ġstyle": 3129,
      "Ġfriends": 3130,
      "And": 3131,
      "nal": 3132,
      "orage": 3133,
      "Ġsuff": 3134,
      "Ġeasier": 3135,
      "Ġcenter": 3136,
      "Ġmusic": 3137,
      "ĠMy": 3138,
      "mission": 3139,
      "Ġgoes": 3140,
      "Ġhappens": 3141,
      "Ġreturn": 3142,
      "head": 3143,
      "ls": 3144,
      "ĠPre": 3145,
      "Ġinitial": 3146,
      "Ġfertil": 3147,
      "Ġdepending": 3148,
      "Ġdemonst": 3149,
      "uge": 3150,
      "vant": 3151,
      "Ġtransport": 3152,
      "Ġrecommend": 3153,
      "ĠPe": 3154,
      "Ġinnov": 3155,
      "Ġthick": 3156,
      "Ġstore": 3157,
      "Ġimportance": 3158,
      "Ġvision": 3159,
      "cohol": 3160,
      "rast": 3161,
      "itation": 3162,
      "irm": 3163,
      "Ġsurround": 3164,
      "ography": 3165,
      "Ġchick": 3166,
      "-to": 3167,
      "OR": 3168,
      "uted": 3169,
      "Ġsupply": 3170,
      "zy": 3171,
      "Ġmor": 3172,
      "Ġblock": 3173,
      "Ġprinc": 3174,
      "Ġpiece": 3175,
      "Ġliqu": 3176,
      "Ġfix": 3177,
      "iful": 3178,
      "Ġappropriate": 3179,
      "Ġmovement": 3180,
      "ma": 3181,
      "Ġsus": 3182,
      "Ġfavor": 3183,
      "Ġmeaning": 3184,
      "Ġcamera": 3185,
      "-st": 3186,
      "Ġsix": 3187,
      "Ġseems": 3188,
      "Ġhost": 3189,
      "oe": 3190,
      "Ġrat": 3191,
      "Ġgenetic": 3192,
      "Ġvisual": 3193,
      "-g": 3194,
      "reg": 3195,
      "ĠInt": 3196,
      "epend": 3197,
      "ube": 3198,
      "Ġmotor": 3199,
      "Cl": 3200,
      "Ġexercise": 3201,
      "IS": 3202,
      "Con": 3203,
      "\",": 3204,
      "With": 3205,
      "Ġcats": 3206,
      "fficient": 3207,
      "Ġanaly": 3208,
      "Ġgovernment": 3209,
      "iding": 3210,
      "ĠGo": 3211,
      "Ġtips": 3212,
      "Ġspeak": 3213,
      "ster": 3214,
      "Ġoriginal": 3215,
      "Ġchallenges": 3216,
      "Â°": 3217,
      "Ġimpl": 3218,
      "ologies": 3219,
      "Ġwalk": 3220,
      "icate": 3221,
      "Ġspring": 3222,
      "Ġtesting": 3223,
      "Ġsmooth": 3224,
      "Ġcritical": 3225,
      "Ġnutrition": 3226,
      "Ġnetwork": 3227,
      "set": 3228,
      "Ġcommunication": 3229,
      "Ġrequirements": 3230,
      "Ġcross": 3231,
      "Ġlandsc": 3232,
      "-e": 3233,
      "overy": 3234,
      "yp": 3235,
      "Ġensuring": 3236,
      "Ġgets": 3237,
      "ĠAmerica": 3238,
      "iet": 3239,
      "rees": 3240,
      "na": 3241,
      "ĠSchool": 3242,
      "order": 3243,
      "Ġmount": 3244,
      "ros": 3245,
      "Ġalg": 3246,
      "ached": 3247,
      "cking": 3248,
      "mber": 3249,
      "atur": 3250,
      "Ġgives": 3251,
      "vey": 3252,
      "Ġaccur": 3253,
      "airs": 3254,
      "ĠWorld": 3255,
      "Ġpretty": 3256,
      "Ġcalcul": 3257,
      "Ġsearch": 3258,
      "Ġdisplay": 3259,
      "sych": 3260,
      "ĠAustral": 3261,
      "Ġtouch": 3262,
      "Ġforms": 3263,
      "Ġimmedi": 3264,
      "Ġenhance": 3265,
      "itute": 3266,
      "ĠWhy": 3267,
      "Ġmental": 3268,
      "ĠMost": 3269,
      "Ġhands": 3270,
      "Ġpull": 3271,
      "ada": 3272,
      "Ġsolar": 3273,
      "Ġpractices": 3274,
      "Ġorigin": 3275,
      "Ġsignal": 3276,
      "Ġproced": 3277,
      "osystem": 3278,
      "ĠPer": 3279,
      "Ġefficiency": 3280,
      "abetes": 3281,
      "Ġallowing": 3282,
      "Ġaff": 3283,
      "ensity": 3284,
      "They": 3285,
      "Ġcommonly": 3286,
      "Ġdrive": 3287,
      "Ġcosts": 3288,
      "ĠFr": 3289,
      "ulated": 3290,
      "âĢ¢": 3291,
      "Ġmoving": 3292,
      "ony": 3293,
      "Ġsigns": 3294,
      "ĠScience": 3295,
      "Ġlimited": 3296,
      "ĠThen": 3297,
      "Ġhair": 3298,
      "Ġusers": 3299,
      "Ġhun": 3300,
      "Ġevolution": 3301,
      "Ġ/": 3302,
      "Ġarch": 3303,
      "Ġ,": 3304,
      "ĠIntern": 3305,
      "Ġlens": 3306,
      "ĠMany": 3307,
      "rial": 3308,
      "While": 3309,
      "more": 3310,
      "rag": 3311,
      "ĠResearch": 3312,
      "Ġocean": 3313,
      "Ġsignificantly": 3314,
      "Ġpoor": 3315,
      "Ġmaintenance": 3316,
      "45": 3317,
      "inking": 3318,
      "Ġdeveloping": 3319,
      "ky": 3320,
      "Ġwatch": 3321,
      "Ġvirus": 3322,
      "rol": 3323,
      "yond": 3324,
      "Ġprotection": 3325,
      "Ġideal": 3326,
      "abric": 3327,
      "Ġvary": 3328,
      "ously": 3329,
      "oud": 3330,
      "Ġiron": 3331,
      "Ġreducing": 3332,
      "-term": 3333,
      "Ġinvolves": 3334,
      "life": 3335,
      "Ġcry": 3336,
      "Ġbecomes": 3337,
      "ĠSm": 3338,
      "Ġrain": 3339,
      "Ġrefer": 3340,
      "Ġroot": 3341,
      "Ġinfection": 3342,
      "itis": 3343,
      "Ġinstruct": 3344,
      "Ġideas": 3345,
      "Ġnit": 3346,
      "Ġsuitable": 3347,
      "aly": 3348,
      "ĠJapan": 3349,
      "Ġexcell": 3350,
      "Ġoxygen": 3351,
      "Ġremember": 3352,
      "ixt": 3353,
      "Ġcame": 3354,
      "Ġreli": 3355,
      "Ġlack": 3356,
      "Ġgar": 3357,
      "Ġpromot": 3358,
      "Ġscientific": 3359,
      "Ġther": 3360,
      "Ġcity": 3361,
      "Ġsave": 3362,
      "Ġprojects": 3363,
      "ĠUse": 3364,
      "Ġstates": 3365,
      "ĠTheir": 3366,
      "Ġfactor": 3367,
      "Ġnutrients": 3368,
      "Ġpick": 3369,
      "Ġdepend": 3370,
      "01": 3371,
      "ĠAb": 3372,
      "Ġaccept": 3373,
      "Ġmuscle": 3374,
      "09": 3375,
      "Ġrock": 3376,
      "abor": 3377,
      "ĠReg": 3378,
      "rehens": 3379,
      "Ġobtain": 3380,
      "Ġpublished": 3381,
      "He": 3382,
      "Ġlate": 3383,
      "Ġstage": 3384,
      "hetic": 3385,
      "ened": 3386,
      "Ġver": 3387,
      "By": 3388,
      "Ġbottom": 3389,
      "Ġfine": 3390,
      "Ġfinal": 3391,
      "ĠGl": 3392,
      "Ġsituation": 3393,
      "Ġexcess": 3394,
      "Ġsevere": 3395,
      "Ġsteel": 3396,
      "Ġvegetables": 3397,
      "zz": 3398,
      "Ġsequ": 3399,
      "Ġbreed": 3400,
      "Ġdirection": 3401,
      "bit": 3402,
      "ula": 3403,
      "Ġtransform": 3404,
      "Ġobjects": 3405,
      "Ġgold": 3406,
      "ĠOur": 3407,
      "Ġagricult": 3408,
      "At": 3409,
      "hood": 3410,
      "Ġattract": 3411,
      "26": 3412,
      "On": 3413,
      "ĠFl": 3414,
      "Ġoutd": 3415,
      "Ġingredients": 3416,
      "tings": 3417,
      "odies": 3418,
      "Ġprocessing": 3419,
      "fish": 3420,
      "Ġult": 3421,
      "Ġplat": 3422,
      "Ġsetting": 3423,
      "ĠAlso": 3424,
      "Ġinvestig": 3425,
      "Ġolder": 3426,
      "Ġutil": 3427,
      "Ġshar": 3428,
      "Ġstarting": 3429,
      "Ġinteresting": 3430,
      "Ġfile": 3431,
      "Ġupon": 3432,
      "Ġtheory": 3433,
      "att": 3434,
      "lege": 3435,
      "ĠLet": 3436,
      "Ġvalu": 3437,
      "Ġpregn": 3438,
      "Ġsolutions": 3439,
      "odes": 3440,
      "Ġpieces": 3441,
      "Ġresponsible": 3442,
      "Ġapply": 3443,
      "Ġcausing": 3444,
      "Ġconsumption": 3445,
      "Ġwrong": 3446,
      "Ġabsor": 3447,
      "Ġnothing": 3448,
      "ĠNow": 3449,
      "Ġevalu": 3450,
      "ucle": 3451,
      "iles": 3452,
      "Ġrich": 3453,
      "rought": 3454,
      "Ġmemory": 3455,
      "inks": 3456,
      "Ġbrown": 3457,
      "Ġtherapy": 3458,
      "pping": 3459,
      "arian": 3460,
      "Ġ--": 3461,
      "TI": 3462,
      "ĠGe": 3463,
      "ressive": 3464,
      "ok": 3465,
      "wise": 3466,
      "Ġpriv": 3467,
      "Ġecosystem": 3468,
      "Ġelectrical": 3469,
      "right": 3470,
      "Re": 3471,
      "Ġimag": 3472,
      "Ġwriting": 3473,
      "con": 3474,
      "mosp": 3475,
      "Ġbill": 3476,
      "Ġhope": 3477,
      "Ġspot": 3478,
      "Ġexamples": 3479,
      "rew": 3480,
      "ï¿½ï¿½": 3481,
      "Ġmoment": 3482,
      "Ġinform": 3483,
      "asks": 3484,
      "idge": 3485,
      "ĠChe": 3486,
      "onal": 3487,
      "Ġarg": 3488,
      "Ġtook": 3489,
      "Ġbeautiful": 3490,
      "Ġyellow": 3491,
      "Ġstorage": 3492,
      "These": 3493,
      "istry": 3494,
      "Ġreceive": 3495,
      "Ġflex": 3496,
      "Ġep": 3497,
      "ĠAdditionally": 3498,
      "Ġlimit": 3499,
      "board": 3500,
      "ĠMar": 3501,
      "Ġrare": 3502,
      "Ġstrategies": 3503,
      "Ġapplied": 3504,
      "Im": 3505,
      "Ġvolt": 3506,
      "Ġresistance": 3507,
      "Ġtaste": 3508,
      "irt": 3509,
      "Ġready": 3510,
      "Ġbroad": 3511,
      "Ġwel": 3512,
      "Ġincorpor": 3513,
      "Ġgraph": 3514,
      "Ġmanufacture": 3515,
      "Ġfro": 3516,
      "standing": 3517,
      "\".": 3518,
      "pite": 3519,
      "Ġnoise": 3520,
      "rum": 3521,
      "Ġweb": 3522,
      "ĠWho": 3523,
      "Ġreaction": 3524,
      "Ġsoon": 3525,
      "Ġimmune": 3526,
      "Ġheavy": 3527,
      "ĠAir": 3528,
      "Ġstatement": 3529,
      "Ġroll": 3530,
      "Ġstraight": 3531,
      "ĠCenter": 3532,
      "mat": 3533,
      "Ġphase": 3534,
      "Ġconstruction": 3535,
      "ĠNOT": 3536,
      "ĠOver": 3537,
      "Ġjourney": 3538,
      "hold": 3539,
      "rier": 3540,
      "Ġvacc": 3541,
      "Ġpow": 3542,
      "Ġaren": 3543,
      "Ġtransfer": 3544,
      "Ġpowerful": 3545,
      "08": 3546,
      "Ġpage": 3547,
      "Ġrev": 3548,
      "Ġjo": 3549,
      "Ġgradu": 3550,
      "hel": 3551,
      "Ġadop": 3552,
      "Ġjoint": 3553,
      "Com": 3554,
      "Ġfaster": 3555,
      "Ġalcohol": 3556,
      "Ġreduced": 3557,
      "Ġtissue": 3558,
      "wor": 3559,
      "Ġthr": 3560,
      "Ġled": 3561,
      "Ġrice": 3562,
      "ogen": 3563,
      "ffee": 3564,
      "Ġkn": 3565,
      "Ġaffected": 3566,
      "Ġsuccessful": 3567,
      "ĠSw": 3568,
      "Ġoccurs": 3569,
      "ux": 3570,
      "Ġmiss": 3571,
      "Ġvia": 3572,
      "ressed": 3573,
      "ycl": 3574,
      "ĠBrit": 3575,
      "ibly": 3576,
      "Ġboard": 3577,
      "Ġliter": 3578,
      "Ġculture": 3579,
      "28": 3580,
      "ĠAc": 3581,
      "Ġcentury": 3582,
      ".com": 3583,
      "RE": 3584,
      "oun": 3585,
      "Ġanx": 3586,
      "Ġplaces": 3587,
      "Ġfloor": 3588,
      "Ġbud": 3589,
      "Ġhuge": 3590,
      "duc": 3591,
      "Ġtrig": 3592,
      "Ġrapid": 3593,
      "ifically": 3594,
      "Ġintellig": 3595,
      "Ġestim": 3596,
      "Ġanyone": 3597,
      "acing": 3598,
      "Ġcoast": 3599,
      "ĠâĢ¦": 3600,
      "Ġbirth": 3601,
      "roll": 3602,
      "apes": 3603,
      "iar": 3604,
      "ana": 3605,
      "ĠRem": 3606,
      "Ġexposure": 3607,
      "Ġelement": 3608,
      "Ġbehavi": 3609,
      "Ġinsects": 3610,
      "Ġsex": 3611,
      "Pl": 3612,
      "Ġcoming": 3613,
      "Ġinches": 3614,
      "ificial": 3615,
      "Ġplanet": 3616,
      "Ġswim": 3617,
      "Ġlat": 3618,
      "ender": 3619,
      "Ġinterf": 3620,
      "Ġsection": 3621,
      "Ġeth": 3622,
      "othing": 3623,
      "Ġinsp": 3624,
      "isions": 3625,
      "Ġpen": 3626,
      "Ġfabric": 3627,
      "Ġmotion": 3628,
      "05": 3629,
      "27": 3630,
      "Ġtask": 3631,
      "Ġlooks": 3632,
      "ĠOther": 3633,
      "Ġexcellent": 3634,
      "dd": 3635,
      "Ġtechnique": 3636,
      "Un": 3637,
      "Ġforward": 3638,
      "Ġliquid": 3639,
      "hest": 3640,
      "Ġcooking": 3641,
      "Ġsaw": 3642,
      "Ġmeasures": 3643,
      "Ġcurrently": 3644,
      "year": 3645,
      "oman": 3646,
      "osition": 3647,
      "ĠBecause": 3648,
      "Ġbutter": 3649,
      "iety": 3650,
      "celer": 3651,
      "ieved": 3652,
      "Ġlost": 3653,
      "Ġexperiment": 3654,
      "Ġcamp": 3655,
      "Ġthinking": 3656,
      "ype": 3657,
      "Ġtank": 3658,
      "Ġtox": 3659,
      "Ġgiving": 3660,
      "Ġatmosp": 3661,
      "Ġcleaning": 3662,
      "tes": 3663,
      "Ġfully": 3664,
      "ĠWest": 3665,
      "onds": 3666,
      "ashion": 3667,
      "Ġwet": 3668,
      "Ġreve": 3669,
      "izations": 3670,
      "Ġcombination": 3671,
      "Ġeffectively": 3672,
      "oice": 3673,
      "ĠLear": 3674,
      "Ġresid": 3675,
      "Ġadding": 3676,
      "Ġremains": 3677,
      "Ġdocument": 3678,
      "ero": 3679,
      "raw": 3680,
      "ails": 3681,
      "craft": 3682,
      "AL": 3683,
      "ĠTechn": 3684,
      "Ġwire": 3685,
      "urt": 3686,
      "pped": 3687,
      "Ġworth": 3688,
      "Ġbran": 3689,
      "Ġslightly": 3690,
      "Ġreported": 3691,
      "lands": 3692,
      "Ġ...": 3693,
      "Ġfa": 3694,
      "Ġgames": 3695,
      "Ġdetails": 3696,
      "ocol": 3697,
      "Ġ#": 3698,
      "hether": 3699,
      "Ġdemand": 3700,
      "Ġbone": 3701,
      "ĠAut": 3702,
      "amed": 3703,
      "Ġdoctor": 3704,
      "anging": 3705,
      "Ġplatform": 3706,
      "ha": 3707,
      "Ġcomprehens": 3708,
      "Ġcycle": 3709,
      "Ġrelatively": 3710,
      "Ġwin": 3711,
      "Ġdrop": 3712,
      "Ġthous": 3713,
      "que": 3714,
      "Ġcontext": 3715,
      "Ġagg": 3716,
      "Ġpad": 3717,
      "Ġcapacity": 3718,
      "Ġmouth": 3719,
      "Ġexpert": 3720,
      "Ġparticles": 3721,
      "Ġcommunities": 3722,
      "lebr": 3723,
      "07": 3724,
      "Ġcommer": 3725,
      "Ġdiam": 3726,
      "PS": 3727,
      "enge": 3728,
      "Ġwat": 3729,
      "ĠAg": 3730,
      "Ġcommit": 3731,
      "Ġpump": 3732,
      "ĠAct": 3733,
      "empt": 3734,
      "Ġspir": 3735,
      "Ġsolid": 3736,
      "Ġcontribute": 3737,
      "Ġexactly": 3738,
      "ister": 3739,
      "arge": 3740,
      "Ġund": 3741,
      ".g": 3742,
      "Ġplanning": 3743,
      "za": 3744,
      "Ġdri": 3745,
      "key": 3746,
      "efore": 3747,
      "Ġrub": 3748,
      "Ġsecurity": 3749,
      "olar": 3750,
      "Ġadvanced": 3751,
      "Ġowners": 3752,
      "Ġkeeping": 3753,
      "Ġswitch": 3754,
      "Ġpicture": 3755,
      "32": 3756,
      "EM": 3757,
      "Ġexpensive": 3758,
      "Ġsweet": 3759,
      "Do": 3760,
      "Now": 3761,
      "ests": 3762,
      "Ġscale": 3763,
      "Ġdiabetes": 3764,
      "Ġincreases": 3765,
      "Ġlocated": 3766,
      "Ġexpected": 3767,
      "Ġopportunity": 3768,
      "Ġtit": 3769,
      "Ġsmart": 3770,
      "Ġmaximum": 3771,
      "minist": 3772,
      "AM": 3773,
      "ball": 3774,
      "ĠSystem": 3775,
      "Ġdead": 3776,
      "ĠMin": 3777,
      "ĠOnce": 3778,
      "Ġupd": 3779,
      "Ġincluded": 3780,
      "Ġdecision": 3781,
      "Ġeffort": 3782,
      "cast": 3783,
      "ĠEach": 3784,
      "Ġdistinct": 3785,
      "ris": 3786,
      "Ġbooks": 3787,
      "Ġthird": 3788,
      "Ġemissions": 3789,
      "Ġcateg": 3790,
      "icks": 3791,
      "ĠSim": 3792,
      "amb": 3793,
      "Ġchance": 3794,
      "Ġadults": 3795,
      "Ġstream": 3796,
      "ĠDown": 3797,
      "Ġfunctions": 3798,
      "Ġpresence": 3799,
      "Ġast": 3800,
      "onic": 3801,
      "Ġprofession": 3802,
      "Ġder": 3803,
      "Ġbeyond": 3804,
      "Ġtherefore": 3805,
      "Ġflat": 3806,
      "Ġtrend": 3807,
      "Ġstem": 3808,
      "Ġtrack": 3809,
      "Ġsites": 3810,
      "Ġcircuit": 3811,
      "gram": 3812,
      "Ġfamilies": 3813,
      "ocal": 3814,
      "Ġalternative": 3815,
      "Ġnotice": 3816,
      "Ġclos": 3817,
      "Ġformed": 3818,
      "Ġfrequency": 3819,
      "imens": 3820,
      "Ġalthough": 3821,
      "Ġattack": 3822,
      "ĠRec": 3823,
      "Ġpool": 3824,
      "ĠComp": 3825,
      "Ġdescribed": 3826,
      "ying": 3827,
      "Ġtrou": 3828,
      "Ġstuff": 3829,
      "Ġmiddle": 3830,
      "Ġstim": 3831,
      "Ġpref": 3832,
      "Ġnote": 3833,
      "Ġpaint": 3834,
      "AD": 3835,
      "ĠJust": 3836,
      "Ġlayers": 3837,
      "-up": 3838,
      "Ġtiny": 3839,
      "Ġdiscovered": 3840,
      "Ġstructures": 3841,
      "Ġmob": 3842,
      "Ġstaff": 3843,
      "Ġplaced": 3844,
      "Ġgenes": 3845,
      "haps": 3846,
      "oma": 3847,
      "Ġchann": 3848,
      "Ġtechnologies": 3849,
      "IT": 3850,
      "Ġ|": 3851,
      "Ġfair": 3852,
      "ester": 3853,
      "unk": 3854,
      "Ġschools": 3855,
      "Ġwrite": 3856,
      "Ġfemale": 3857,
      "vity": 3858,
      "ancing": 3859,
      "Ġfoss": 3860,
      "Ġfurn": 3861,
      "Ġcars": 3862,
      "03": 3863,
      "Ġmag": 3864,
      "Ġign": 3865,
      "Ġsect": 3866,
      "Ġrelease": 3867,
      "zing": 3868,
      "Ġmother": 3869,
      "Ġthus": 3870,
      "place": 3871,
      "Ġcutting": 3872,
      "ĠMod": 3873,
      "ĠEm": 3874,
      "Ġrecently": 3875,
      "Ġsalt": 3876,
      "Ġexperiences": 3877,
      "Ġopportunities": 3878,
      "Ġbath": 3879,
      "uries": 3880,
      "ĠWater": 3881,
      "ĠState": 3882,
      "Ġhandle": 3883,
      "Ġtests": 3884,
      "Ġhorse": 3885,
      "cular": 3886,
      "semb": 3887,
      "Ġpattern": 3888,
      "Ġcommercial": 3889,
      "Some": 3890,
      "ĠÂ": 3891,
      "Ġhit": 3892,
      "ĠGerm": 3893,
      "Ġchanging": 3894,
      "Ġdegrees": 3895,
      "lier": 3896,
      "Ġvirt": 3897,
      "--------": 3898,
      "Ġmoisture": 3899,
      "36": 3900,
      "Ġpsych": 3901,
      "Ġindepend": 3902,
      "Ġconnected": 3903,
      "Ġframe": 3904,
      "75": 3905,
      "hop": 3906,
      "Ġtasks": 3907,
      "Ġextremely": 3908,
      "ban": 3909,
      "iments": 3910,
      "ĠEnglish": 3911,
      "Ġsold": 3912,
      "Ġvi": 3913,
      "Ġacceler": 3914,
      "Ġpric": 3915,
      "Ġonto": 3916,
      "ĠChrist": 3917,
      "Ġproperty": 3918,
      "roduction": 3919,
      "ided": 3920,
      "Ġheight": 3921,
      "Ġfight": 3922,
      "Ġalone": 3923,
      "Ġvaluable": 3924,
      "bol": 3925,
      "Ġju": 3926,
      "...Ċ": 3927,
      "off": 3928,
      "ĠTw": 3929,
      "umin": 3930,
      "ĠDis": 3931,
      "Ġprogress": 3932,
      "des": 3933,
      "ancial": 3934,
      "Ġclin": 3935,
      "Ġconnection": 3936,
      "lies": 3937,
      "Ġfields": 3938,
      "ament": 3939,
      "ĠDi": 3940,
      "Ġscen": 3941,
      "Ġcalc": 3942,
      "othes": 3943,
      "uration": 3944,
      "ager": 3945,
      "Ġcharge": 3946,
      "eters": 3947,
      "Ġhearing": 3948,
      "ĠUK": 3949,
      "ST": 3950,
      "bing": 3951,
      "Ġapprec": 3952,
      "aught": 3953,
      "29": 3954,
      "ober": 3955,
      "Ġstri": 3956,
      "ĠDon": 3957,
      "ĠFirst": 3958,
      "Ġinstance": 3959,
      "Ġphotos": 3960,
      "Ġtherm": 3961,
      "PL": 3962,
      "Ġdate": 3963,
      "ida": 3964,
      "Ġsynt": 3965,
      "Ġresulting": 3966,
      "02": 3967,
      "wers": 3968,
      "orith": 3969,
      "iforn": 3970,
      "Ġflight": 3971,
      "Ġstar": 3972,
      "Ġconvers": 3973,
      "Ġconservation": 3974,
      "Ġversion": 3975,
      "ĠIts": 3976,
      "eing": 3977,
      "Ġpoly": 3978,
      "Ġphoto": 3979,
      "Ġfilter": 3980,
      "Ġteachers": 3981,
      "Ġvoltage": 3982,
      "IC": 3983,
      "Step": 3984,
      "Ġstick": 3985,
      "Ġphone": 3986,
      "Ġradio": 3987,
      "Ġcharacteristics": 3988,
      "can": 3989,
      "Ġroots": 3990,
      "....": 3991,
      "Ġengage": 3992,
      "gery": 3993,
      "ĠIndia": 3994,
      "Ġrepe": 3995,
      "Ġnucle": 3996,
      "inding": 3997,
      "Ġvolume": 3998,
      "Ġasked": 3999,
      "Ġwent": 4000,
      "ica": 4001,
      "erences": 4002,
      "avig": 4003,
      "Ġcollection": 4004,
      "Ġfinding": 4005,
      "Ġbright": 4006,
      "Ġmaintaining": 4007,
      "uary": 4008,
      "Ġmut": 4009,
      "ĠAlthough": 4010,
      "cil": 4011,
      "chen": 4012,
      "know": 4013,
      "reed": 4014,
      "inger": 4015,
      "Ġteaching": 4016,
      "Ġlights": 4017,
      "vironments": 4018,
      "Ġmedium": 4019,
      "Ġbasis": 4020,
      "Ġfeeding": 4021,
      "ĠInstitute": 4022,
      "Ġcelebr": 4023,
      "Ph": 4024,
      "abilities": 4025,
      "arts": 4026,
      "Ġparam": 4027,
      "Ġregularly": 4028,
      "ĠRed": 4029,
      "ĠEven": 4030,
      "rupt": 4031,
      "azing": 4032,
      "care": 4033,
      "Ġpets": 4034,
      "Ġclim": 4035,
      "uce": 4036,
      "Ġsociety": 4037,
      "ĠArt": 4038,
      "Ġsample": 4039,
      "Ġtooth": 4040,
      "used": 4041,
      "Ġfavorite": 4042,
      "iter": 4043,
      "Ġbank": 4044,
      "Ġmatch": 4045,
      "raction": 4046,
      "Ġleaf": 4047,
      "ius": 4048,
      "aled": 4049,
      "ams": 4050,
      "Ġallowed": 4051,
      "ĠPhot": 4052,
      "Ġanxiety": 4053,
      "Ġnational": 4054,
      "Ġbecame": 4055,
      "Ġexpand": 4056,
      "Ġfeeling": 4057,
      "pril": 4058,
      "bor": 4059,
      "bed": 4060,
      "unction": 4061,
      "Ġrecycl": 4062,
      "enty": 4063,
      "ĠRep": 4064,
      "Ġbackground": 4065,
      "Ġfarming": 4066,
      "-qu": 4067,
      "04": 4068,
      "ximately": 4069,
      "Ġpush": 4070,
      "izer": 4071,
      "uild": 4072,
      "ĠMake": 4073,
      "mm": 4074,
      "asp": 4075,
      "rain": 4076,
      "However": 4077,
      "ifornia": 4078,
      "Ġround": 4079,
      "Ġrise": 4080,
      "ogs": 4081,
      "Ġtri": 4082,
      "ĠAccording": 4083,
      "Ġcompar": 4084,
      "vention": 4085,
      "Ġdepends": 4086,
      "Ġhabitat": 4087,
      "Ġimmediately": 4088,
      "Ġplease": 4089,
      "Ġgoals": 4090,
      "Ġsubs": 4091,
      "arr": 4092,
      "Ġpractical": 4093,
      "Ġmarine": 4094,
      "Ġaccurate": 4095,
      "ET": 4096,
      "oors": 4097,
      "Ġcove": 4098,
      "Ġattempt": 4099,
      "Ġlargest": 4100,
      "Ġdangerous": 4101,
      "-year": 4102,
      "Ġelectricity": 4103,
      "ira": 4104,
      "oom": 4105,
      "Ġtail": 4106,
      "urance": 4107,
      "-free": 4108,
      "SA": 4109,
      "fess": 4110,
      "ĠBi": 4111,
      "Ġrates": 4112,
      "Ġarm": 4113,
      "Ġpromote": 4114,
      "Ġwonder": 4115,
      "yn": 4116,
      "Ġmis": 4117,
      "Ġmig": 4118,
      "ĠSpe": 4119,
      "Ġtrust": 4120,
      "Ġdiscover": 4121,
      "ashing": 4122,
      "Ġbeginning": 4123,
      "Ġappearance": 4124,
      "Ġfashion": 4125,
      "icated": 4126,
      "Ġaccom": 4127,
      "Ġgenerate": 4128,
      "ĠBlack": 4129,
      "Ġ:": 4130,
      "ille": 4131,
      "Ġwheel": 4132,
      "ken": 4133,
      "iling": 4134,
      "Ġstru": 4135,
      "ĠPC": 4136,
      "Ġdifferences": 4137,
      "Ġaspects": 4138,
      "ups": 4139,
      "Ġrules": 4140,
      "Ġgene": 4141,
      "Ġdriving": 4142,
      "Ġrespond": 4143,
      "ĠAfrica": 4144,
      "ixture": 4145,
      "Ġbecoming": 4146,
      "ternal": 4147,
      "Ġaqu": 4148,
      "Ġdie": 4149,
      "icious": 4150,
      "Ġevol": 4151,
      "phas": 4152,
      "Ġhyp": 4153,
      "Ġregarding": 4154,
      "Ġalgorith": 4155,
      "Ġenvironments": 4156,
      "Ġdynam": 4157,
      "orial": 4158,
      "Ġmale": 4159,
      "Ġhomes": 4160,
      "Ġserve": 4161,
      "Ġsurfaces": 4162,
      "ĠTrans": 4163,
      "Ġseparate": 4164,
      "Ġcomfortable": 4165,
      "Ġinjury": 4166,
      "Des": 4167,
      "encies": 4168,
      "Ġfly": 4169,
      "Ġcoffee": 4170,
      "ĠChina": 4171,
      "ipped": 4172,
      "Ġvital": 4173,
      "osph": 4174,
      "roup": 4175,
      "Ġactual": 4176,
      "Ġdepth": 4177,
      "Ġoperation": 4178,
      "Ġnearly": 4179,
      "Ġmagnetic": 4180,
      "Ġobserved": 4181,
      "Here": 4182,
      "Our": 4183,
      "Ġsurpr": 4184,
      "Ġbodies": 4185,
      "Ġflavor": 4186,
      "iction": 4187,
      "Ġidentified": 4188,
      "Ġchallenge": 4189,
      "Res": 4190,
      "che": 4191,
      "Ġcred": 4192,
      "Ġnative": 4193,
      "ĠGra": 4194,
      "Ġhistor": 4195,
      "That": 4196,
      "iders": 4197,
      "ĠMon": 4198,
      "Ġkill": 4199,
      "ought": 4200,
      "Ġhighlight": 4201,
      "Ġeconomic": 4202,
      "Ã©": 4203,
      "ĠHigh": 4204,
      "Ġimproved": 4205,
      "Ġanti": 4206,
      "Ġproteins": 4207,
      "rates": 4208,
      "ĠPar": 4209,
      "apter": 4210,
      "Ġamounts": 4211,
      "Ġsuggests": 4212,
      "Ġchemicals": 4213,
      "ING": 4214,
      "99": 4215,
      "Ġmid": 4216,
      "Ġspecifically": 4217,
      "Ġequal": 4218,
      "ĠDepartment": 4219,
      "eline": 4220,
      "Ġdoor": 4221,
      "Ġdivers": 4222,
      "Ġcouple": 4223,
      "ipl": 4224,
      "pre": 4225,
      "lean": 4226,
      "Ġsche": 4227,
      "Ġrisks": 4228,
      "Ġdegree": 4229,
      "Ġcomprehensive": 4230,
      "eed": 4231,
      "ĠSince": 4232,
      "acking": 4233,
      "ifying": 4234,
      "Ġfluid": 4235,
      "Ġcovered": 4236,
      "Ġlose": 4237,
      "Ġpopulations": 4238,
      "Ġcentral": 4239,
      "Ġefforts": 4240,
      "Ġinfluence": 4241,
      "Ġsort": 4242,
      "ilit": 4243,
      "31": 4244,
      "pen": 4245,
      "organ": 4246,
      "ications": 4247,
      "Ġhear": 4248,
      "Ġantib": 4249,
      "Ġagree": 4250,
      "Ġsports": 4251,
      "rick": 4252,
      "ĠCalifornia": 4253,
      "Ġdura": 4254,
      "related": 4255,
      "ĠSec": 4256,
      "hyd": 4257,
      "Ġwanted": 4258,
      "Ġgeneration": 4259,
      "bl": 4260,
      "Ġbegan": 4261,
      "Ġinternational": 4262,
      "Ġbow": 4263,
      "Ġdiv": 4264,
      "Ġclick": 4265,
      "Ġhighest": 4266,
      "Ġinternal": 4267,
      "alt": 4268,
      "Ġmaybe": 4269,
      "rench": 4270,
      "Ġdrain": 4271,
      "Ġfinancial": 4272,
      "ipes": 4273,
      "Ġtrain": 4274,
      "Ġcreative": 4275,
      "Ġadvantage": 4276,
      "Ġchicken": 4277,
      "After": 4278,
      "Ġdental": 4279,
      "rans": 4280,
      "Ġspect": 4281,
      "ishing": 4282,
      "06": 4283,
      "My": 4284,
      "Ġhour": 4285,
      "abol": 4286,
      "allow": 4287,
      "Ġbreast": 4288,
      "Ġelimin": 4289,
      "ĠUsing": 4290,
      "erate": 4291,
      "ollow": 4292,
      "atever": 4293,
      "rows": 4294,
      "Ġconsult": 4295,
      "Ġpotentially": 4296,
      "Ġcomponent": 4297,
      "Ġencourage": 4298,
      "Ġmist": 4299,
      "ĠSu": 4300,
      "asses": 4301,
      "Ġmold": 4302,
      "ĠTH": 4303,
      "Ġartificial": 4304,
      "Ab": 4305,
      "Ġphen": 4306,
      "Ġfilm": 4307,
      "ek": 4308,
      "Ġroof": 4309,
      "ĠJoh": 4310,
      "undred": 4311,
      "Ġcustomers": 4312,
      "Ġdeb": 4313,
      "ĠPark": 4314,
      "Ġshel": 4315,
      "oxide": 4316,
      "Ġengineering": 4317,
      "Ġlabor": 4318,
      "ran": 4319,
      "Ġded": 4320,
      "Ġplayers": 4321,
      "Ġspl": 4322,
      "Ġtold": 4323,
      "umber": 4324,
      "Ġ*": 4325,
      "rome": 4326,
      "cules": 4327,
      "Ġharmful": 4328,
      "ĠAustralia": 4329,
      "Ġatmosphere": 4330,
      "ĠEvery": 4331,
      "Ġqual": 4332,
      "iences": 4333,
      "All": 4334,
      "Ġhelping": 4335,
      "Ġbeneficial": 4336,
      "dom": 4337,
      "Ġfigure": 4338,
      "imal": 4339,
      "ĠDuring": 4340,
      "orders": 4341,
      "Ġexisting": 4342,
      "aturally": 4343,
      "ares": 4344,
      "erals": 4345,
      "ĠEduc": 4346,
      "Ġsimpl": 4347,
      "Ġmember": 4348,
      "Ġancient": 4349,
      "ĠFood": 4350,
      "nderstanding": 4351,
      "Ġregions": 4352,
      "Ġtopic": 4353,
      "Ġestablish": 4354,
      "pers": 4355,
      "itect": 4356,
      "55": 4357,
      "Ke": 4358,
      "Ġdiverse": 4359,
      "Us": 4360,
      "hab": 4361,
      "inally": 4362,
      "Ġpig": 4363,
      "Ġhorm": 4364,
      "olute": 4365,
      "ĠDay": 4366,
      "ource": 4367,
      "-like": 4368,
      "Ġsatis": 4369,
      "met": 4370,
      "org": 4371,
      "Ġcomplic": 4372,
      "Ġplayer": 4373,
      "Ġplaying": 4374,
      "-sh": 4375,
      "Ġsounds": 4376,
      "Ġfarmers": 4377,
      "ishes": 4378,
      "Ġreality": 4379,
      "Ġteach": 4380,
      "Ġexperts": 4381,
      "Ġrepair": 4382,
      "OS": 4383,
      "Ġvibr": 4384,
      "Ġdro": 4385,
      "Ġlots": 4386,
      "Ġweak": 4387,
      "Ġcontract": 4388,
      "Ġdesigns": 4389,
      "Ġedge": 4390,
      "ĠTherefore": 4391,
      "icip": 4392,
      "ĠWar": 4393,
      "Ġselection": 4394,
      "Ġworked": 4395,
      "Ġshowed": 4396,
      "Ġhappy": 4397,
      "Ġten": 4398,
      "Ġpair": 4399,
      "Ġmiles": 4400,
      "resp": 4401,
      "Ġdish": 4402,
      "Ġemp": 4403,
      "Ġchanged": 4404,
      "Ġinterested": 4405,
      "Ġsess": 4406,
      "ĠAnt": 4407,
      "Ġwritten": 4408,
      "ĠServ": 4409,
      "cript": 4410,
      "Ġdouble": 4411,
      "Ġlandscape": 4412,
      "atically": 4413,
      "Ġnan": 4414,
      "oses": 4415,
      "Ġkil": 4416,
      "Ġreference": 4417,
      "Ġreceived": 4418,
      "Ġrobot": 4419,
      "ĠII": 4420,
      "ublic": 4421,
      "Ġcheese": 4422,
      "ropical": 4423,
      "Ġsecure": 4424,
      "Ġstandards": 4425,
      "Ġinflamm": 4426,
      "Ġinstructions": 4427,
      "Ġtax": 4428,
      "Ġexhib": 4429,
      "Ġkid": 4430,
      "Ġenter": 4431,
      "Ġpollution": 4432,
      "!!": 4433,
      "Answer": 4434,
      "poses": 4435,
      "nect": 4436,
      "elines": 4437,
      "Ġheld": 4438,
      "Ġsaying": 4439,
      "Ġexperienced": 4440,
      "Ġconver": 4441,
      "Ġconven": 4442,
      "Ġtransmission": 4443,
      "Ġremoved": 4444,
      "Ġoptimal": 4445,
      "flow": 4446,
      "uth": 4447,
      "Ġplays": 4448,
      "ĠHar": 4449,
      "Ġpul": 4450,
      "Ġcustomer": 4451,
      "ny": 4452,
      "Ġconsequ": 4453,
      "ĠChild": 4454,
      "Ġfrequently": 4455,
      "Ġteacher": 4456,
      "Ġpal": 4457,
      "ĠPart": 4458,
      "ĠEl": 4459,
      "Ġprofessionals": 4460,
      "house": 4461,
      "kin": 4462,
      "lev": 4463,
      "Ġgear": 4464,
      "Ġdecor": 4465,
      "ios": 4466,
      "ĠOut": 4467,
      "Ġflav": 4468,
      "Ġnumerous": 4469,
      "ĠQ": 4470,
      "Ġbat": 4471,
      "ĠBar": 4472,
      "Ġchrom": 4473,
      "Ġhelpful": 4474,
      "Ġrelax": 4475,
      "riendly": 4476,
      "Ġparticipants": 4477,
      "Ġestablished": 4478,
      "oday": 4479,
      "Ġmeal": 4480,
      "Ġdecisions": 4481,
      "Ġcrops": 4482,
      "EC": 4483,
      "ĠGreen": 4484,
      "Ġwidely": 4485,
      "itor": 4486,
      "change": 4487,
      "ĠHum": 4488,
      "Ġperspect": 4489,
      "Ġstarts": 4490,
      "Ġdrug": 4491,
      "dy": 4492,
      "Ġsurgery": 4493,
      "ĠDownload": 4494,
      "-quality": 4495,
      "].": 4496,
      "Ġcatch": 4497,
      "Ġvoice": 4498,
      "agram": 4499,
      "Ġcoat": 4500,
      "iverse": 4501,
      "Ġcounter": 4502,
      "eties": 4503,
      "ĠApril": 4504,
      "orms": 4505,
      "Ġapart": 4506,
      "iveness": 4507,
      "Ġlegs": 4508,
      "Ġprinting": 4509,
      "Ġharvest": 4510,
      "equ": 4511,
      "Ġprepared": 4512,
      "ped": 4513,
      "Ġshoes": 4514,
      "ĠHer": 4515,
      "Ġadvent": 4516,
      "Ġleaders": 4517,
      "Ġtreatments": 4518,
      "ibrary": 4519,
      "-S": 4520,
      "95": 4521,
      "Ġsem": 4522,
      "Ġfed": 4523,
      "ulating": 4524,
      "Ġpolicy": 4525,
      "ĠDesign": 4526,
      "ses": 4527,
      "Ġsav": 4528,
      "Ġpupp": 4529,
      "ĠEd": 4530,
      "Ġfindings": 4531,
      "Ġcontainer": 4532,
      "Ġmuscles": 4533,
      "Ġindicate": 4534,
      "Ġdistribution": 4535,
      "48": 4536,
      "Ġthor": 4537,
      "Ġhosp": 4538,
      "Ġlearned": 4539,
      "Ġconstruct": 4540,
      "Ġvehicles": 4541,
      "-n": 4542,
      "aped": 4543,
      "bal": 4544,
      "Ġboost": 4545,
      "Ġadvice": 4546,
      "Ġreleased": 4547,
      "Ġbeauty": 4548,
      "Ġbound": 4549,
      "ĠFlor": 4550,
      "Ġleads": 4551,
      "Ġsymbol": 4552,
      "-re": 4553,
      "lt": 4554,
      "time": 4555,
      "wide": 4556,
      "Ġborn": 4557,
      "umm": 4558,
      "Ġperce": 4559,
      "tered": 4560,
      "Ġgrown": 4561,
      "Ġshop": 4562,
      "Ġassign": 4563,
      "Ġangle": 4564,
      ".e": 4565,
      "MS": 4566,
      "iture": 4567,
      "Ġmixture": 4568,
      "Ġhundred": 4569,
      "Ġheating": 4570,
      "Ġelectron": 4571,
      "Ġfruits": 4572,
      "Ar": 4573,
      "Ġsunlight": 4574,
      "ees": 4575,
      "ado": 4576,
      "Ġspend": 4577,
      "Ġofficial": 4578,
      "Ġorganization": 4579,
      "No": 4580,
      "Ġneigh": 4581,
      "orthern": 4582,
      "Ġspaces": 4583,
      "Ġcorn": 4584,
      "Ġillust": 4585,
      "Ġdrawing": 4586,
      "Ġmonitoring": 4587,
      "Ġpil": 4588,
      "Ġstories": 4589,
      "Ġneut": 4590,
      "Ġveter": 4591,
      "Ġbreeding": 4592,
      "Ġpolit": 4593,
      "ognitive": 4594,
      "Ġlegal": 4595,
      "Ġwindow": 4596,
      "Ġresource": 4597,
      "body": 4598,
      "Ġsell": 4599,
      "Ġnavig": 4600,
      "ĠMarch": 4601,
      "Ġorganizations": 4602,
      "roduct": 4603,
      "Ġconcerns": 4604,
      "Ġrelationships": 4605,
      "Ġax": 4606,
      "ĠBo": 4607,
      "irect": 4608,
      "Ġemphas": 4609,
      "Ġexposed": 4610,
      "PT": 4611,
      "Ġath": 4612,
      "Ġvent": 4613,
      "Ġraw": 4614,
      "Ġlighting": 4615,
      "Ġoperations": 4616,
      "Ġdigest": 4617,
      "icking": 4618,
      "ĠRead": 4619,
      "Ġpartners": 4620,
      "ĠProgram": 4621,
      "Ġmechanism": 4622,
      "Ġiniti": 4623,
      "Ġstatus": 4624,
      "uk": 4625,
      "ĠCount": 4626,
      "Ġextract": 4627,
      "Ġapproximately": 4628,
      "known": 4629,
      "iant": 4630,
      "Ġcore": 4631,
      "Ġadvance": 4632,
      "Ġthousands": 4633,
      "Ġstain": 4634,
      "Ġadminist": 4635,
      "ĠLED": 4636,
      "Ġunits": 4637,
      "Ġmonitor": 4638,
      "ech": 4639,
      "iples": 4640,
      "nes": 4641,
      "Ġfill": 4642,
      "Ġnaturally": 4643,
      "ĠAv": 4644,
      "Ġupper": 4645,
      "ĠJan": 4646,
      "Ġdefined": 4647,
      "Ġsituations": 4648,
      "Bl": 4649,
      "alse": 4650,
      "ĠWhether": 4651,
      "ĠChar": 4652,
      "Ġcream": 4653,
      "Ġappears": 4654,
      "Ġpregnancy": 4655,
      "wood": 4656,
      "ĠDoes": 4657,
      "Ġoccas": 4658,
      "Ġwildlife": 4659,
      "Ġsamples": 4660,
      "Ġmolecules": 4661,
      "ums": 4662,
      "Ġple": 4663,
      "Ġsty": 4664,
      "ĠYork": 4665,
      "Ġdesired": 4666,
      "ĠJu": 4667,
      "Ġtypical": 4668,
      "Another": 4669,
      "Ġdat": 4670,
      "lets": 4671,
      "ĠWill": 4672,
      "ptember": 4673,
      "Ġperformed": 4674,
      "Ġtalking": 4675,
      "Ġcand": 4676,
      "ĠBra": 4677,
      "force": 4678,
      "Ġmessage": 4679,
      "Ġtoxic": 4680,
      "elp": 4681,
      "Ġtransmit": 4682,
      "Ġmode": 4683,
      "Ġmachines": 4684,
      "Ġversat": 4685,
      "Ġwalls": 4686,
      "Ġadvantages": 4687,
      "iced": 4688,
      "Ġstone": 4689,
      "Ġshoot": 4690,
      "outhern": 4691,
      "Ġsensor": 4692,
      "which": 4693,
      "Ġlatest": 4694,
      "RO": 4695,
      "aser": 4696,
      "Ġmostly": 4697,
      "Ġmanufacturing": 4698,
      "ĠĠĠĠ": 4699,
      "Ġratio": 4700,
      "Ġfear": 4701,
      "Ġmel": 4702,
      "Ġchoices": 4703,
      "Ġeventually": 4704,
      "ĠInternational": 4705,
      "Ġstrugg": 4706,
      "Ġhole": 4707,
      "Ġwhose": 4708,
      "ĠOct": 4709,
      "aping": 4710,
      "Ġearlier": 4711,
      "Ġprimarily": 4712,
      "/or": 4713,
      "Ġdin": 4714,
      "Ġexternal": 4715,
      "Ġactions": 4716,
      "Ġcopy": 4717,
      "Ġroutine": 4718,
      "-le": 4719,
      "chers": 4720,
      "Ġsnow": 4721,
      "Ġfle": 4722,
      "omy": 4723,
      "Ġworry": 4724,
      "Ġoffice": 4725,
      "Ġimpacts": 4726,
      "Ġillness": 4727,
      "Ġkitchen": 4728,
      "cious": 4729,
      "Ġmal": 4730,
      "ĠWell": 4731,
      "dule": 4732,
      "Ġbutton": 4733,
      "Ġassum": 4734,
      "Ġelectro": 4735,
      "Ġsquare": 4736,
      "ĠKeep": 4737,
      "oly": 4738,
      "Ġsizes": 4739,
      "Ġmamm": 4740,
      "ĠAC": 4741,
      "Ġplans": 4742,
      "Ġcolour": 4743,
      "Ġmetabol": 4744,
      "Ġquantum": 4745,
      "Ġsurrounding": 4746,
      "Ġcert": 4747,
      "oves": 4748,
      "Ġbusinesses": 4749,
      "Ġcontrolled": 4750,
      "itting": 4751,
      "Ġcontrast": 4752,
      "Ġspin": 4753,
      "Ġcoord": 4754,
      "Ġvitamin": 4755,
      "Ġafford": 4756,
      "VID": 4757,
      "clud": 4758,
      "rot": 4759,
      "Ġhom": 4760,
      "âĢĻt": 4761,
      "ĠEuropean": 4762,
      "Ġoutdoor": 4763,
      "Be": 4764,
      "och": 4765,
      "Ġfilled": 4766,
      "Ġplate": 4767,
      "ometimes": 4768,
      "Ġreliable": 4769,
      "EL": 4770,
      "Ġâ": 4771,
      "Ġwaves": 4772,
      "Ġble": 4773,
      "ĠSte": 4774,
      "umn": 4775,
      "inder": 4776,
      "weight": 4777,
      "Ġtransl": 4778,
      "ĠEnvironment": 4779,
      "42": 4780,
      "Ġtire": 4781,
      "icides": 4782,
      "Ġheard": 4783,
      "Ġchain": 4784,
      "ogle": 4785,
      "Ġclasses": 4786,
      "Ġtall": 4787,
      "Ġexec": 4788,
      "inese": 4789,
      "Ġchallenging": 4790,
      "Ġdrugs": 4791,
      "aid": 4792,
      "ded": 4793,
      "rim": 4794,
      "Ġnice": 4795,
      "Ġincred": 4796,
      "print": 4797,
      "Ġcycl": 4798,
      ".)": 4799,
      "?\"": 4800,
      "inating": 4801,
      "Ġcm": 4802,
      "comes": 4803,
      "Are": 4804,
      "what": 4805,
      "Ġnamed": 4806,
      "Ġgir": 4807,
      "Ġkne": 4808,
      "Ġuns": 4809,
      "Ġkept": 4810,
      "Ġsignals": 4811,
      "Ġlifest": 4812,
      "Ġpurchase": 4813,
      "Ġstre": 4814,
      "Ġallerg": 4815,
      "oughly": 4816,
      "ventional": 4817,
      "CH": 4818,
      "cell": 4819,
      "Ġaircraft": 4820,
      "Ġcomputers": 4821,
      "Ġwave": 4822,
      "Ġtoward": 4823,
      "roid": 4824,
      "ste": 4825,
      "ĠSan": 4826,
      "clus": 4827,
      "Ġcarefully": 4828,
      "ugust": 4829,
      "Ġphotograph": 4830,
      "Ġinternet": 4831,
      "ĠAssoci": 4832,
      "65": 4833,
      "Ġrenew": 4834,
      "Ġnest": 4835,
      "ching": 4836,
      "Ġassemb": 4837,
      "Ġrule": 4838,
      "Ġtraffic": 4839,
      "Ġremote": 4840,
      "Ġminerals": 4841,
      "crete": 4842,
      "ĠPeople": 4843,
      "Ġcryst": 4844,
      "Ġbot": 4845,
      "Ġformat": 4846,
      "Ġflower": 4847,
      "Ġconcentration": 4848,
      "Ġtum": 4849,
      "Ġbrought": 4850,
      "Ġcontinues": 4851,
      "ĠPlan": 4852,
      "gra": 4853,
      "Ġtried": 4854,
      "Ġwest": 4855,
      "rote": 4856,
      "itely": 4857,
      "iotics": 4858,
      "CO": 4859,
      "hors": 4860,
      "with": 4861,
      "Ġmit": 4862,
      "Ġexpress": 4863,
      "Ġshowing": 4864,
      "Ġeducational": 4865,
      "Ġcultural": 4866,
      "Ġmorning": 4867,
      "ĠBritish": 4868,
      "Ġintelligence": 4869,
      "Ġspirit": 4870,
      "Ġholes": 4871,
      "sec": 4872,
      "ĠGreat": 4873,
      "Ġobvious": 4874,
      "Ġformation": 4875,
      "Ġwarming": 4876,
      "Ġemotional": 4877,
      "Once": 4878,
      "med": 4879,
      "Ġhon": 4880,
      "Ġplug": 4881,
      "Ġensures": 4882,
      "Ġmechanical": 4883,
      "mar": 4884,
      "Ġbiod": 4885,
      "uting": 4886,
      "erent": 4887,
      "Ġsyn": 4888,
      "Ġamazing": 4889,
      "ĠVal": 4890,
      "Ġimproving": 4891,
      "Ġprocedure": 4892,
      "ctors": 4893,
      "Ġdescribe": 4894,
      "Ġvel": 4895,
      "Ġcab": 4896,
      "Ġstro": 4897,
      "ĠPres": 4898,
      "Ġdrinking": 4899,
      "Ġtexture": 4900,
      "Ġfocused": 4901,
      "Ġintroduced": 4902,
      "Ġbillion": 4903,
      "37": 4904,
      "IG": 4905,
      "inated": 4906,
      "ette": 4907,
      "ĠSur": 4908,
      "Ġconclusion": 4909,
      "Ġclothing": 4910,
      "Ġfollowed": 4911,
      "Ġdamaged": 4912,
      "Ġvideos": 4913,
      "DA": 4914,
      "Many": 4915,
      "Ġvert": 4916,
      "opy": 4917,
      "Ġplane": 4918,
      "Ġtreated": 4919,
      "Ġaffects": 4920,
      "Ġdetailed": 4921,
      "Ġprepare": 4922,
      "Ġpictures": 4923,
      "33": 4924,
      "rest": 4925,
      "Ġsong": 4926,
      "Ġwhatever": 4927,
      "Ġsets": 4928,
      "Ġbread": 4929,
      "Ġdetermined": 4930,
      "Se": 4931,
      "cers": 4932,
      "Ġbrush": 4933,
      "ĠIndian": 4934,
      "uracy": 4935,
      "Ġfiber": 4936,
      "ĠFlorida": 4937,
      "Int": 4938,
      "inn": 4939,
      "isher": 4940,
      "Ġblog": 4941,
      "Ġgrade": 4942,
      "Ġelectronic": 4943,
      "Ġpurposes": 4944,
      "Ġcapable": 4945,
      "Ġradiation": 4946,
      "Ġmeasured": 4947,
      "ingu": 4948,
      "Ġdeliver": 4949,
      "fortun": 4950,
      "Ġestimated": 4951,
      "44": 4952,
      "Ġbond": 4953,
      "Ġrein": 4954,
      "ĠGet": 4955,
      "Ġstored": 4956,
      "ĠBet": 4957,
      "Ġdepos": 4958,
      "Ġdrink": 4959,
      "Ġnutrient": 4960,
      "going": 4961,
      "Ġprivate": 4962,
      "Ġtow": 4963,
      "urrent": 4964,
      "ĠBr": 4965,
      "Ġmainly": 4966,
      "hemical": 4967,
      "Ġarchitect": 4968,
      "works": 4969,
      "lines": 4970,
      "ued": 4971,
      "Ġbones": 4972,
      "ormal": 4973,
      "Ġnormally": 4974,
      "Ġawareness": 4975,
      "Most": 4976,
      "bre": 4977,
      "rich": 4978,
      "Ġburn": 4979,
      "Ġvariable": 4980,
      "Ġtechnical": 4981,
      "Ġelev": 4982,
      "Ġdestro": 4983,
      "arant": 4984,
      "ĠST": 4985,
      "ĠInter": 4986,
      "Ġrecovery": 4987,
      "Ġsettings": 4988,
      "Ġrefers": 4989,
      "brid": 4990,
      "ĠPlant": 4991,
      "Ġannual": 4992,
      "Ġsurvival": 4993,
      "ye": 4994,
      "Ġsend": 4995,
      "Ġfr": 4996,
      "Ġgut": 4997,
      "Ġord": 4998,
      "Ġvul": 4999,
      "ructure": 5000,
      "Ġcreates": 5001,
      "Ġconsistent": 5002,
      "Ġfishing": 5003,
      "Ġrelevant": 5004,
      "Ġperiods": 5005,
      "Ġcup": 5006,
      "Ġstret": 5007,
      "ĠIns": 5008,
      "osa": 5009,
      "osite": 5010,
      "Ġperhaps": 5011,
      "Ġhealthcare": 5012,
      "Ġseeing": 5013,
      "Ġwants": 5014,
      "Ġminimum": 5015,
      "itary": 5016,
      "Ġvess": 5017,
      "ĠCanada": 5018,
      "En": 5019,
      "zen": 5020,
      "||": 5021,
      "Ġmaster": 5022,
      "Ġstages": 5023,
      "ivation": 5024,
      "Ġcompost": 5025,
      "Ġproducing": 5026,
      "Ġoffering": 5027,
      "Ġinvolve": 5028,
      "Ġlabel": 5029,
      "ĠDevelop": 5030,
      "Ġmicrob": 5031,
      "Ġcooling": 5032,
      "Ġbatteries": 5033,
      "US": 5034,
      "irds": 5035,
      "anges": 5036,
      "ĠAny": 5037,
      "Ġinfections": 5038,
      "aming": 5039,
      "emy": 5040,
      "aked": 5041,
      "ologist": 5042,
      "-friendly": 5043,
      "-C": 5044,
      "ndom": 5045,
      "anes": 5046,
      "Ġopin": 5047,
      "Ġmembr": 5048,
      "ĠAdd": 5049,
      "Ġdecrease": 5050,
      "ypes": 5051,
      "Ġfossil": 5052,
      "rating": 5053,
      "Ġweigh": 5054,
      "Ġsharp": 5055,
      "mp": 5056,
      "mark": 5057,
      "Ġtrip": 5058,
      "Ġchoosing": 5059,
      "Ġtruly": 5060,
      "-M": 5061,
      "PA": 5062,
      "Yes": 5063,
      "Ġfasc": 5064,
      "ĠElect": 5065,
      "Ġemail": 5066,
      "Ġplanting": 5067,
      "oved": 5068,
      "Ġtransition": 5069,
      "Ġclassroom": 5070,
      "Ġbegins": 5071,
      "Ġcalcium": 5072,
      "Ġmild": 5073,
      "Ġchronic": 5074,
      "ĠNature": 5075,
      "Ġdiss": 5076,
      "Ġextensive": 5077,
      "Ġrestaur": 5078,
      "ĠExpl": 5079,
      "Ġinfluen": 5080,
      "lings": 5081,
      "rations": 5082,
      "ĠâĢ¢": 5083,
      "Ġindustrial": 5084,
      "Ġmobile": 5085,
      "Ġscenari": 5086,
      "ĠSk": 5087,
      "Ġsurvey": 5088,
      "34": 5089,
      "inate": 5090,
      "Ġsouth": 5091,
      "atin": 5092,
      "Ġtomat": 5093,
      "Ġdivid": 5094,
      "Ġnorth": 5095,
      "see": 5096,
      "Ġmap": 5097,
      "asting": 5098,
      "Ġflood": 5099,
      "Ġfunctional": 5100,
      "Ġfiles": 5101,
      "Ġerror": 5102,
      "Ġnitrogen": 5103,
      "Over": 5104,
      "Ġfer": 5105,
      "Ġnerv": 5106,
      "ĠJune": 5107,
      "-being": 5108,
      "Ġmajority": 5109,
      "Ġselected": 5110,
      "RI": 5111,
      "Ġaw": 5112,
      "Ġfo": 5113,
      "Ġgall": 5114,
      "Ġstom": 5115,
      "Ġcreation": 5116,
      "iers": 5117,
      "alle": 5118,
      "ĠCare": 5119,
      "ĠMicro": 5120,
      "Ġleaving": 5121,
      "Ġdepression": 5122,
      "Ġkinds": 5123,
      "Ġvirtual": 5124,
      "amins": 5125,
      "that": 5126,
      "ĠGod": 5127,
      "rowing": 5128,
      "Ġphosph": 5129,
      "Ġdiversity": 5130,
      "-related": 5131,
      "ND": 5132,
      "fall": 5133,
      "oli": 5134,
      "ulf": 5135,
      "ighter": 5136,
      "active": 5137,
      "ĠProfess": 5138,
      "Ġabsolute": 5139,
      "41": 5140,
      "Ġmic": 5141,
      "icon": 5142,
      "otic": 5143,
      "soft": 5144,
      "Ġaccuracy": 5145,
      "Ġsmell": 5146,
      "Ġfung": 5147,
      "Ġsensitive": 5148,
      "):": 5149,
      "ugg": 5150,
      "Ġshared": 5151,
      "ovember": 5152,
      "Ġacad": 5153,
      "Ġreduction": 5154,
      "Ġhabits": 5155,
      "Ġprinciples": 5156,
      "Ġenable": 5157,
      "Ġcomposition": 5158,
      "Ġjump": 5159,
      "Ġsport": 5160,
      "rence": 5161,
      "Ġteams": 5162,
      "Ġesc": 5163,
      "Ġbiological": 5164,
      "Ġhappened": 5165,
      "Ġwait": 5166,
      "Ġbreathing": 5167,
      "ĠFurther": 5168,
      "Ġowner": 5169,
      "exic": 5170,
      "Ġcertainly": 5171,
      "Ġhydro": 5172,
      "yd": 5173,
      "Ġbees": 5174,
      "olid": 5175,
      "ĠGood": 5176,
      "ords": 5177,
      "Ġvisible": 5178,
      "Ġcombined": 5179,
      "porary": 5180,
      "Ġslowly": 5181,
      "Ġaudio": 5182,
      "ara": 5183,
      "Ġdress": 5184,
      "ĠTex": 5185,
      "Ġstock": 5186,
      "izza": 5187,
      "idents": 5188,
      "stract": 5189,
      "Ġstable": 5190,
      "plant": 5191,
      "Ġcorresp": 5192,
      "ĠSeptember": 5193,
      "Ġturned": 5194,
      "Ġhousehold": 5195,
      "Ġstrategy": 5196,
      "LE": 5197,
      "Ġfrag": 5198,
      "umps": 5199,
      "osen": 5200,
      "asts": 5201,
      "Ġshell": 5202,
      "Ġprecise": 5203,
      "Ġurban": 5204,
      "ĠCommun": 5205,
      "Ġpreviously": 5206,
      "Ġbudget": 5207,
      "Ġspray": 5208,
      "apor": 5209,
      "Ġbelong": 5210,
      "ĠInstead": 5211,
      "Ġjournal": 5212,
      "Ġfamiliar": 5213,
      "Ġwaters": 5214,
      "ĠEducation": 5215,
      "38": 5216,
      "uments": 5217,
      "ologists": 5218,
      "ĠChinese": 5219,
      "Ġreduces": 5220,
      "Ġdefic": 5221,
      "Ġconcern": 5222,
      "Ġsurvive": 5223,
      "Ġahead": 5224,
      "isp": 5225,
      "Ġprem": 5226,
      "Ġconducted": 5227,
      "64": 5228,
      "Ġtub": 5229,
      "Ġfig": 5230,
      "Ġhous": 5231,
      "ĠTake": 5232,
      "idity": 5233,
      "Ġalign": 5234,
      "ĠStep": 5235,
      "Ġmeasurement": 5236,
      "Ġclosely": 5237,
      "Ġeconomy": 5238,
      "Ġagriculture": 5239,
      "According": 5240,
      "ĠLife": 5241,
      "Ġexception": 5242,
      "Ġpests": 5243,
      "ĠConsider": 5244,
      "Ġassessment": 5245,
      "inations": 5246,
      "Ġnames": 5247,
      "Ġvs": 5248,
      "ials": 5249,
      "pert": 5250,
      "ĠRiver": 5251,
      "Ġacqu": 5252,
      "dden": 5253,
      "Your": 5254,
      "Ġsides": 5255,
      "ache": 5256,
      "ĠMc": 5257,
      "Ġship": 5258,
      "Ġplenty": 5259,
      "Ġinsulation": 5260,
      "Ġbalanced": 5261,
      "Ġlaws": 5262,
      "ta": 5263,
      "west": 5264,
      "yth": 5265,
      "Ġtun": 5266,
      "Ġsed": 5267,
      "Ġisol": 5268,
      "Ġsudden": 5269,
      "ivil": 5270,
      "ibilities": 5271,
      "Ġbigger": 5272,
      "hemat": 5273,
      "Ġpercentage": 5274,
      "Ġemergency": 5275,
      "fly": 5276,
      "omic": 5277,
      "ĠMS": 5278,
      "Ġdisorder": 5279,
      "Ġbuildings": 5280,
      "Ġcraft": 5281,
      "85": 5282,
      "Ġtag": 5283,
      "Ġpounds": 5284,
      "ĠGr": 5285,
      "Ġrandom": 5286,
      "Ġrelig": 5287,
      "Ġguess": 5288,
      "ait": 5289,
      "alks": 5290,
      "ulum": 5291,
      "Ġsufficient": 5292,
      "Ġclearly": 5293,
      "fortunately": 5294,
      "tion": 5295,
      "cember": 5296,
      "ague": 5297,
      "Ġfacilit": 5298,
      "Ġspeaker": 5299,
      "Ġtight": 5300,
      "Ġpin": 5301,
      "ether": 5302,
      "Ġoutcomes": 5303,
      "Ġcareer": 5304,
      "Ġorganisms": 5305,
      "Ġseconds": 5306,
      "Ġprices": 5307,
      "More": 5308,
      "Ġaest": 5309,
      "Ġneuro": 5310,
      "Ġgenerated": 5311,
      "Ġpossess": 5312,
      "Ġfriendly": 5313,
      "Ġfurniture": 5314,
      "Ġ)": 5315,
      "Ġband": 5316,
      "acific": 5317,
      "rie": 5318,
      "Ġpresented": 5319,
      "-time": 5320,
      "ĠEnergy": 5321,
      "Ġlifestyle": 5322,
      "ðŁ": 5323,
      "Ġdust": 5324,
      "antic": 5325,
      "ĠLa": 5326,
      "Ġwasn": 5327,
      "Ġjud": 5328,
      "Ġunless": 5329,
      "Ġoperating": 5330,
      "Ġsensors": 5331,
      "Ġconsumers": 5332,
      "ĠAbout": 5333,
      "rors": 5334,
      "Ġeight": 5335,
      "omb": 5336,
      "ĠWhere": 5337,
      "ĠUp": 5338,
      "Ġcarried": 5339,
      "hips": 5340,
      "idden": 5341,
      "eper": 5342,
      "ras": 5343,
      "Ġaid": 5344,
      "Ġproport": 5345,
      "ĠBoth": 5346,
      "ĠGree": 5347,
      "Ġwouldn": 5348,
      "Ġdecided": 5349,
      "Ġseek": 5350,
      "AI": 5351,
      "Ġcognitive": 5352,
      "Ġrace": 5353,
      "Ġturns": 5354,
      "Ġfixed": 5355,
      "ĠCheck": 5356,
      "Ġviol": 5357,
      "Ġphenomen": 5358,
      "Get": 5359,
      "ivery": 5360,
      "Ġye": 5361,
      "Ġitem": 5362,
      "Ġdioxide": 5363,
      "Ġdecades": 5364,
      "Ġboat": 5365,
      "Ġinteractions": 5366,
      "Ġloop": 5367,
      "Ġaer": 5368,
      "Ġsou": 5369,
      "Ġdensity": 5370,
      "Ġnotes": 5371,
      "Ġzero": 5372,
      "Ġlinked": 5373,
      "Ġforests": 5374,
      "ocolate": 5375,
      "Dr": 5376,
      "Ġban": 5377,
      "Ġshot": 5378,
      "Ġincl": 5379,
      "berries": 5380,
      "pected": 5381,
      "Ġrepresents": 5382,
      "Ġconcepts": 5383,
      "Ġschedule": 5384,
      "idth": 5385,
      "ĠPhys": 5386,
      "ĠMain": 5387,
      "ĠHist": 5388,
      "Ġconsidering": 5389,
      "Ġcollabor": 5390,
      "Ġbreath": 5391,
      "Ġinflammation": 5392,
      "een": 5393,
      "Ġcere": 5394,
      "anc": 5395,
      "Ġforget": 5396,
      "unte": 5397,
      "ĠMexic": 5398,
      "rief": 5399,
      "Ġauthors": 5400,
      "aws": 5401,
      "Ġcontaining": 5402,
      "Ġreports": 5403,
      "43": 5404,
      "TS": 5405,
      "orses": 5406,
      "Ġflour": 5407,
      "Ġmulti": 5408,
      "Ġanswers": 5409,
      "Ġinteraction": 5410,
      "Ġdoub": 5411,
      "Ġdu": 5412,
      "ctic": 5413,
      "ĠPers": 5414,
      "Ġtested": 5415,
      "Ġparas": 5416,
      "Ġmedicine": 5417,
      "Conclusion": 5418,
      "Ġrubber": 5419,
      "olf": 5420,
      "ially": 5421,
      "Ġcollege": 5422,
      "Ġconsists": 5423,
      "Ġsuggested": 5424,
      "Ġcapture": 5425,
      "iated": 5426,
      "Ġpure": 5427,
      "arming": 5428,
      "Ġattrib": 5429,
      "Ġconfirm": 5430,
      "rite": 5431,
      "Ġtour": 5432,
      "Ġwalking": 5433,
      "iration": 5434,
      "Ġoral": 5435,
      "Ġintake": 5436,
      "Ġmineral": 5437,
      "Ġbuying": 5438,
      "ĠLearning": 5439,
      "Ġstomach": 5440,
      "gers": 5441,
      "ĠPower": 5442,
      "Ġshapes": 5443,
      "ossible": 5444,
      "Ġvalve": 5445,
      "Ġboil": 5446,
      "Ġfeedback": 5447,
      "Ġportion": 5448,
      "dent": 5449,
      "gy": 5450,
      "Ġsod": 5451,
      "Ġsick": 5452,
      "Ġriver": 5453,
      "ĠHis": 5454,
      "Ġdishes": 5455,
      "Ġoccup": 5456,
      "Ġmarketing": 5457,
      "Ġperspective": 5458,
      "AP": 5459,
      "wing": 5460,
      "arter": 5461,
      "Ġhaz": 5462,
      "Ġcompound": 5463,
      "Ġotherwise": 5464,
      "Ġacids": 5465,
      "Ġskill": 5466,
      "ipping": 5467,
      "Ġhoriz": 5468,
      "Ġthread": 5469,
      "Ġbear": 5470,
      "izers": 5471,
      "ĠLike": 5472,
      "Ġdelicious": 5473,
      "Ġprompt": 5474,
      "ĠEngine": 5475,
      "ĠCOVID": 5476,
      "-th": 5477,
      "Ġden": 5478,
      "Ġyield": 5479,
      "Ġlocations": 5480,
      "Ġreactions": 5481,
      "Ġfold": 5482,
      "ĠCity": 5483,
      "Ġknows": 5484,
      "Ġbelief": 5485,
      "Ġpassed": 5486,
      "Ġcloser": 5487,
      "Pe": 5488,
      "gin": 5489,
      "Ġmort": 5490,
      "Ġtoler": 5491,
      "ĠAugust": 5492,
      "ifier": 5493,
      "ĠSaf": 5494,
      "Ġconcrete": 5495,
      "Ġcompounds": 5496,
      "paration": 5497,
      "ĠTexas": 5498,
      "col": 5499,
      "Ġgather": 5500,
      "Ġarray": 5501,
      "Ġhelped": 5502,
      "Ġaccum": 5503,
      "Ġcalories": 5504,
      "Ġbroken": 5505,
      ");": 5506,
      "Pre": 5507,
      "Ġconventional": 5508,
      "ardens": 5509,
      "Ġuniverse": 5510,
      "Ġraised": 5511,
      "pring": 5512,
      "Ġchannel": 5513,
      "Ġindependent": 5514,
      "Use": 5515,
      "Ġunc": 5516,
      "Ġrecorded": 5517,
      "Ġinnovative": 5518,
      "Ġvulner": 5519,
      "Ġdispos": 5520,
      "Ġcommand": 5521,
      "Ġdownload": 5522,
      "Ġequival": 5523,
      "Ġhydrogen": 5524,
      "ĠJuly": 5525,
      "Ġtube": 5526,
      "Ġcit": 5527,
      "ĠAng": 5528,
      "Ġpeace": 5529,
      "ĠTechnology": 5530,
      "-on": 5531,
      "Ġmir": 5532,
      "Ġmath": 5533,
      "ĠIN": 5534,
      "pec": 5535,
      "Ġseg": 5536,
      "Ġspent": 5537,
      "Ġcolon": 5538,
      "Ġexpression": 5539,
      "Ġdiscussion": 5540,
      "Ġoxid": 5541,
      "Ġhabitats": 5542,
      "ker": 5543,
      "Ġwings": 5544,
      "Ġwoman": 5545,
      "orous": 5546,
      "Ġliver": 5547,
      "Ġcomment": 5548,
      "ĠAsia": 5549,
      "ĠThrough": 5550,
      "Ġputting": 5551,
      "Ġmixed": 5552,
      "Ġinjuries": 5553,
      "Ġfailure": 5554,
      "Ġinformed": 5555,
      "Let": 5556,
      "ĠMark": 5557,
      "Ġshut": 5558,
      "Ġtwice": 5559,
      "airy": 5560,
      "Ġsubstances": 5561,
      "Ġminimal": 5562,
      "UR": 5563,
      "ĠSet": 5564,
      "Ġrid": 5565,
      "riers": 5566,
      "ifferent": 5567,
      "ĠYear": 5568,
      "Ġgrades": 5569,
      "ĠThus": 5570,
      "Ġpainting": 5571,
      "Ġvitamins": 5572,
      "top": 5573,
      "Ġindu": 5574,
      "Ġinner": 5575,
      "Ġvast": 5576,
      "Ġspots": 5577,
      "Ġinstit": 5578,
      "Ġcollected": 5579,
      "Ġguidelines": 5580,
      "Ġecosystems": 5581,
      "Ġchromos": 5582,
      "39": 5583,
      "ĠSch": 5584,
      "Ġdisorders": 5585,
      "Ġadds": 5586,
      "Ġmovements": 5587,
      "Ġinvestment": 5588,
      "Ġsequence": 5589,
      "72": 5590,
      "pret": 5591,
      "isation": 5592,
      "Ġbio": 5593,
      "Ġfur": 5594,
      "Ġhop": 5595,
      "ĠPat": 5596,
      "ĠFrench": 5597,
      "Ġmeals": 5598,
      "earchers": 5599,
      "Ġtrained": 5600,
      "Ġcovers": 5601,
      "phone": 5602,
      "Ġprotected": 5603,
      "Ġsubstance": 5604,
      "Ġrecognize": 5605,
      "Ġmedications": 5606,
      "Cons": 5607,
      "ault": 5608,
      "aboration": 5609,
      "aint": 5610,
      "Ġvarieties": 5611,
      "46": 5612,
      "56": 5613,
      "Cont": 5614,
      "Ġdream": 5615,
      "Ġnurs": 5616,
      "ĠWood": 5617,
      "ĠRuss": 5618,
      "ĠKing": 5619,
      "Ġregul": 5620,
      "Ġfollows": 5621,
      "Ġdrag": 5622,
      "Ġsustainability": 5623,
      "From": 5624,
      "Ġtherap": 5625,
      "amil": 5626,
      "ĠHome": 5627,
      "ocy": 5628,
      "Ġabund": 5629,
      "Ġaccident": 5630,
      "ĠStart": 5631,
      "ĠIsland": 5632,
      "Ġexcessive": 5633,
      "ĠJohn": 5634,
      "lements": 5635,
      "ented": 5636,
      "Ġstation": 5637,
      "Ġenab": 5638,
      "arium": 5639,
      "hesis": 5640,
      "Ġinsights": 5641,
      "Ġlessons": 5642,
      "Ġindustries": 5643,
      "Ġcorrectly": 5644,
      "-of": 5645,
      "AB": 5646,
      "De": 5647,
      "New": 5648,
      "lim": 5649,
      "Ġrequest": 5650,
      "Ġbrands": 5651,
      "Ġreferred": 5652,
      "51": 5653,
      "98": 5654,
      "Not": 5655,
      "ii": 5656,
      "ĠÎ": 5657,
      "ĠAM": 5658,
      "Ġcolle": 5659,
      "Ġdecl": 5660,
      "Ġenth": 5661,
      "Ġedges": 5662,
      "Ġtopics": 5663,
      "Ġathlet": 5664,
      "\"The": 5665,
      "ĠGold": 5666,
      "Ġoverl": 5667,
      "Ġengaging": 5668,
      "Ġreplacement": 5669,
      "91": 5670,
      "Sp": 5671,
      "ndrome": 5672,
      "Ġfost": 5673,
      "Ġinject": 5674,
      "iform": 5675,
      "ĠSun": 5676,
      "Ġring": 5677,
      "aker": 5678,
      "Ġgenome": 5679,
      "ĠClass": 5680,
      "47": 5681,
      "vents": 5682,
      "Ġmission": 5683,
      "ĠIS": 5684,
      "Ġdespite": 5685,
      "Ġexplan": 5686,
      "Ġdiagnosis": 5687,
      "ĠRemember": 5688,
      "Ġfelt": 5689,
      "Ġment": 5690,
      "ads": 5691,
      "Ġproduces": 5692,
      "Ġinstalled": 5693,
      "how": 5694,
      "Ġbike": 5695,
      "ceed": 5696,
      "ĠCor": 5697,
      "Ġrig": 5698,
      "ĠFore": 5699,
      "ĠEast": 5700,
      "Ġcalls": 5701,
      "Ġjobs": 5702,
      "Ġbehaviors": 5703,
      "rem": 5704,
      "eria": 5705,
      "Ġdoll": 5706,
      "sts": 5707,
      "urch": 5708,
      "ĠWild": 5709,
      "Ġneck": 5710,
      "ĠOff": 5711,
      "Ġamb": 5712,
      "Ġmedication": 5713,
      "Ġagricultural": 5714,
      "reate": 5715,
      "anol": 5716,
      "stone": 5717,
      "urg": 5718,
      "Ġscr": 5719,
      "Ġlooked": 5720,
      "Ġlawn": 5721,
      "Ġcompetition": 5722,
      "Ġdefinitely": 5723,
      "53": 5724,
      "gans": 5725,
      "acters": 5726,
      "Ġworse": 5727,
      "Ġattached": 5728,
      "Ġpolic": 5729,
      "ĠColor": 5730,
      "Ġturning": 5731,
      "Ġrapidly": 5732,
      "Ġclinical": 5733,
      "ĠTest": 5734,
      "ocity": 5735,
      "Ġinsurance": 5736,
      "Ġbreeds": 5737,
      "Ġconfig": 5738,
      "Ġprogramming": 5739,
      "Ġmoves": 5740,
      "Ġcopper": 5741,
      "49": 5742,
      "Fe": 5743,
      "sp": 5744,
      "Ġthy": 5745,
      "Ġlic": 5746,
      "agement": 5747,
      "Ġcloud": 5748,
      "Ġsolve": 5749,
      "Ġworldwide": 5750,
      "Ġembra": 5751,
      "Ġexciting": 5752,
      "Ġcooked": 5753,
      "ĠJanuary": 5754,
      "rus": 5755,
      "Ġnose": 5756,
      "amental": 5757,
      "Ġdecide": 5758,
      "Ġconfidence": 5759,
      "ĠAtl": 5760,
      "52": 5761,
      "Figure": 5762,
      "II": 5763,
      "bru": 5764,
      "Ġdefinition": 5765,
      "Ġobtained": 5766,
      "Ġhospital": 5767,
      "ĠOctober": 5768,
      "ikes": 5769,
      "Ġpark": 5770,
      "Ġnar": 5771,
      "Ġyog": 5772,
      "anted": 5773,
      "Ġvict": 5774,
      "Ġclosed": 5775,
      "Ġraise": 5776,
      "Ġampl": 5777,
      "Ġcreativity": 5778,
      "Ġbasically": 5779,
      "-old": 5780,
      "IM": 5781,
      "OL": 5782,
      "ked": 5783,
      "vis": 5784,
      "Ġcart": 5785,
      "Ġfirm": 5786,
      "iratory": 5787,
      "Ġadequ": 5788,
      "Ġrocks": 5789,
      "Ġgrows": 5790,
      "Ġstructural": 5791,
      "Ġprofessor": 5792,
      "ĠSociety": 5793,
      "Ġsharing": 5794,
      "Ġgravity": 5795,
      "Ġruns": 5796,
      "Ġpreventing": 5797,
      "Ġremoving": 5798,
      "Ġconstantly": 5799,
      "Reg": 5800,
      "point": 5801,
      "athy": 5802,
      "Ġpup": 5803,
      "Ġgun": 5804,
      "Ġforces": 5805,
      "ĠSupp": 5806,
      "apers": 5807,
      "Ġperman": 5808,
      "Ġtrail": 5809,
      "Ġages": 5810,
      "Ġprotective": 5811,
      "Ġfinish": 5812,
      "Ġdiscussed": 5813,
      "ĠEngland": 5814,
      "Ġcontinued": 5815,
      "Ġunivers": 5816,
      "ĠDecember": 5817,
      "66": 5818,
      "oding": 5819,
      "oper": 5820,
      "Ġwearing": 5821,
      "ĠMet": 5822,
      "Ġexploring": 5823,
      "Ġproposed": 5824,
      "Ġprocedures": 5825,
      "pet": 5826,
      "Ġloose": 5827,
      "estic": 5828,
      "Ġseven": 5829,
      "Ġcompare": 5830,
      "Ġexperiments": 5831,
      "Ġplayed": 5832,
      "Ġhardware": 5833,
      "Ġphysic": 5834,
      "Ġhunting": 5835,
      "ĠJapanese": 5836,
      "Ġmissing": 5837,
      "Rec": 5838,
      "aul": 5839,
      "but": 5840,
      "Ġboy": 5841,
      "asure": 5842,
      "othe": 5843,
      "Ġstores": 5844,
      "unning": 5845,
      "Ġphysics": 5846,
      "Ġlisten": 5847,
      "Ġimagine": 5848,
      "vit": 5849,
      "Ġrecept": 5850,
      "usi": 5851,
      "Ġeveryday": 5852,
      "Ġcareful": 5853,
      "ĠAnother": 5854,
      "Ġachieved": 5855,
      "ĠMedic": 5856,
      "ĠAfrican": 5857,
      "54": 5858,
      "my": 5859,
      "ĠpH": 5860,
      "eling": 5861,
      "ĠSee": 5862,
      "Ġusage": 5863,
      "ĠPol": 5864,
      "ĠPacific": 5865,
      "Ġrights": 5866,
      "cope": 5867,
      "97": 5868,
      "TH": 5869,
      "ynt": 5870,
      "espan": 5871,
      "Ġstands": 5872,
      "ĠSil": 5873,
      "ĠWind": 5874,
      "ĠDav": 5875,
      "Ġknowing": 5876,
      "Ġcreatures": 5877,
      "Ġthoughts": 5878,
      "Ġcameras": 5879,
      "ĠGoogle": 5880,
      "Ġsatisf": 5881,
      "ĠAssociation": 5882,
      "Rem": 5883,
      "Ġion": 5884,
      "Ġtropical": 5885,
      "Ġod": 5886,
      "enef": 5887,
      "ĠMus": 5888,
      "Ġmanual": 5889,
      "Ġmanner": 5890,
      "ifications": 5891,
      "Ġopening": 5892,
      "Ġaccessible": 5893,
      "ĠGerman": 5894,
      "Ġthermal": 5895,
      "ashington": 5896,
      "Ġhaven": 5897,
      "Ġexcept": 5898,
      "ĠHave": 5899,
      "Ġsupplement": 5900,
      "Ġexplains": 5901,
      "Ġreaders": 5902,
      "ĠProt": 5903,
      "Ġsuccessfully": 5904,
      "ĠCollege": 5905,
      "Ġcorrespond": 5906,
      "bruary": 5907,
      "ĠSub": 5908,
      "Ġprey": 5909,
      "Ġvegetable": 5910,
      "________": 5911,
      "la": 5912,
      "Ġintended": 5913,
      "Ġcoal": 5914,
      "oyal": 5915,
      "bris": 5916,
      "Ġbiggest": 5917,
      "ĠControl": 5918,
      "Ġguidance": 5919,
      "Ġpreferences": 5920,
      "Me": 5921,
      "from": 5922,
      "uits": 5923,
      "ocking": 5924,
      "ĠLight": 5925,
      "Ġtransp": 5926,
      "Ġattacks": 5927,
      "Ġdiscovery": 5928,
      "Ġrefrig": 5929,
      "Ġmillions": 5930,
      "Ġreplaced": 5931,
      "\"Ċ": 5932,
      "Te": 5933,
      "Ġ{": 5934,
      "erior": 5935,
      "Ġfather": 5936,
      "charge": 5937,
      "Ġunlike": 5938,
      "Ġstronger": 5939,
      "Ġarrange": 5940,
      "Ġbags": 5941,
      "Ġrenewable": 5942,
      "uzz": 5943,
      "Ġpizza": 5944,
      "arn": 5945,
      "Ġdial": 5946,
      "Ġlinks": 5947,
      "ĠTV": 5948,
      "ĠToday": 5949,
      "Ġchocolate": 5950,
      "Ġshad": 5951,
      "ĠDec": 5952,
      "Ġpossibly": 5953,
      "Ġgreatly": 5954,
      "Ġgreenhouse": 5955,
      "Ġconsequences": 5956,
      "==": 5957,
      "PC": 5958,
      "Tra": 5959,
      "Ġsen": 5960,
      "Ġhorses": 5961,
      "igital": 5962,
      "antly": 5963,
      "Ġtraum": 5964,
      "Ġlesson": 5965,
      "Ġapproaches": 5966,
      "Although": 5967,
      "Ġexplained": 5968,
      "Ġmountain": 5969,
      "Ġswimming": 5970,
      "uilding": 5971,
      "iest": 5972,
      "Ġ\\": 5973,
      "Ġtrade": 5974,
      "Ġobst": 5975,
      "Ġhandling": 5976,
      "Ġconflic": 5977,
      "Ġtitle": 5978,
      "Ġlibrary": 5979,
      "Ġnation": 5980,
      "urric": 5981,
      "Ġasking": 5982,
      "Ġunw": 5983,
      "Ġrab": 5984,
      "Ġcommunicate": 5985,
      "Ġdestroy": 5986,
      "92": 5987,
      "First": 5988,
      "itches": 5989,
      "ĠRet": 5990,
      "Ġclothes": 5991,
      "ava": 5992,
      "Ġnovel": 5993,
      "taining": 5994,
      "Ġremark": 5995,
      "ĠProject": 5996,
      "Ġsupports": 5997,
      "Ġsupported": 5998,
      "Ġrestrict": 5999,
      "Ġcircum": 6000,
      "Ġfitness": 6001,
      "Ġremaining": 6002,
      "Ġmolecular": 6003,
      "osion": 6004,
      "ĠNovember": 6005,
      "ĠKnow": 6006,
      "Ġphotography": 6007,
      "ĠOrgan": 6008,
      "]ĊĊ": 6009,
      "Ġham": 6010,
      "Ġyouth": 6011,
      "ĠCat": 6012,
      "ophy": 6013,
      "ĠHaw": 6014,
      "Ġworkers": 6015,
      "Ġsecret": 6016,
      "iotic": 6017,
      "Ġbranches": 6018,
      "orter": 6019,
      "Ġshift": 6020,
      "alled": 6021,
      "ĠLab": 6022,
      "Ġrecipe": 6023,
      "Ġmeters": 6024,
      "Ġretur": 6025,
      "Ġfemales": 6026,
      "Ġaccompl": 6027,
      "ython": 6028,
      "-D": 6029,
      "LL": 6030,
      "bility": 6031,
      "Ġ...ĊĊ": 6032,
      "ama": 6033,
      "Ġtea": 6034,
      "Ġclar": 6035,
      "Ġreserv": 6036,
      "berry": 6037,
      "ĠVol": 6038,
      "Ġherb": 6039,
      "Ġcharacters": 6040,
      "Ġdelivery": 6041,
      "Ġmoved": 6042,
      "Ġincreasingly": 6043,
      "esity": 6044,
      "unt": 6045,
      "Ġfewer": 6046,
      "Ġpoison": 6047,
      "Ġcrus": 6048,
      "ĠSea": 6049,
      "Ġsubstant": 6050,
      "Ġaudience": 6051,
      "Ġbiodiversity": 6052,
      "cest": 6053,
      "Ġtut": 6054,
      "Ġreward": 6055,
      "ĠCy": 6056,
      "Ġdeeper": 6057,
      "Ġscrew": 6058,
      "ĠExam": 6059,
      "ĠAcad": 6060,
      "Ġtrigger": 6061,
      "allel": 6062,
      "Ġequivalent": 6063,
      "BC": 6064,
      "Ġcities": 6065,
      "Ġoven": 6066,
      "agues": 6067,
      "Ġinstruction": 6068,
      "Ġsky": 6069,
      "Ġkeeps": 6070,
      "-sc": 6071,
      "ĠSpace": 6072,
      "Ġhappening": 6073,
      "Ġentirely": 6074,
      "ĠStudents": 6075,
      "Ġcredit": 6076,
      "Ġstroke": 6077,
      "ÂŃ": 6078,
      "Ġ>": 6079,
      "Ġdram": 6080,
      "etics": 6081,
      "Ġindex": 6082,
      "Ġregulations": 6083,
      "Ġessay": 6084,
      "Ġsitting": 6085,
      "Ġsales": 6086,
      "ographic": 6087,
      "Ġflexibility": 6088,
      "-A": 6089,
      "SS": 6090,
      "you": 6091,
      "Ġwish": 6092,
      "Ġgro": 6093,
      "ĠRel": 6094,
      "Ġmanaged": 6095,
      "ondon": 6096,
      "Ġinterior": 6097,
      "Ġbelt": 6098,
      "Ġopposite": 6099,
      "ymph": 6100,
      "Ġinnovation": 6101,
      "Ġvibrant": 6102,
      "bles": 6103,
      "ford": 6104,
      "vol": 6105,
      "Ġï¿½": 6106,
      "Ġske": 6107,
      "Ġpand": 6108,
      "Ġblow": 6109,
      "ĠMount": 6110,
      "Ġends": 6111,
      "ĠGarden": 6112,
      "Ġsauce": 6113,
      "Ġfundamental": 6114,
      "Ġpowder": 6115,
      "Ġtrouble": 6116,
      "Ġdedicated": 6117,
      "FA": 6118,
      "mic": 6119,
      "Ġnerve": 6120,
      "Ġstability": 6121,
      "ĠEc": 6122,
      "ĠLong": 6123,
      "Ġfacts": 6124,
      "Ġbrings": 6125,
      "Ġcardi": 6126,
      "Ġsuffer": 6127,
      "Ġvelocity": 6128,
      "\"We": 6129,
      "Before": 6130,
      "Ġanten": 6131,
      "Ġfoundation": 6132,
      "Ġoperate": 6133,
      "Ġinfected": 6134,
      "bage": 6135,
      "gl": 6136,
      "Ġcul": 6137,
      "Ġdent": 6138,
      "uses": 6139,
      "using": 6140,
      "ĠBay": 6141,
      "rue": 6142,
      "Ġvalid": 6143,
      "Ġcompleted": 6144,
      "Ġpurs": 6145,
      "Ġsumm": 6146,
      "Ġvertical": 6147,
      "Ġenthusi": 6148,
      "-the": 6149,
      "57": 6150,
      "Ind": 6151,
      "volution": 6152,
      "Ġtor": 6153,
      "Ġtick": 6154,
      "Ġlun": 6155,
      "ĠNet": 6156,
      "Ġresil": 6157,
      "Ġoffered": 6158,
      "ĠWeb": 6159,
      "Ġfamous": 6160,
      "Ġfeelings": 6161,
      "Ġpanel": 6162,
      "uous": 6163,
      "Ġcards": 6164,
      "Ġmac": 6165,
      "icing": 6166,
      "Ġalt": 6167,
      "Ġstudied": 6168,
      "Ġunderlying": 6169,
      "Stud": 6170,
      "Ġminimize": 6171,
      "Ġmeeting": 6172,
      "Ġdiameter": 6173,
      "Ġparameters": 6174,
      "Ġcomparison": 6175,
      "Gen": 6176,
      "field": 6177,
      "oving": 6178,
      "Ġformer": 6179,
      "Ġformula": 6180,
      "Ġextended": 6181,
      "Ġminor": 6182,
      "Ġdietary": 6183,
      "Ġsmoke": 6184,
      "Ġcollaboration": 6185,
      "Ġresistant": 6186,
      "aughter": 6187,
      "rastructure": 6188,
      "ws": 6189,
      "ĠCD": 6190,
      "Ġdecline": 6191,
      "Ġimprovement": 6192,
      "xid": 6193,
      "Ġcav": 6194,
      "Ġmask": 6195,
      "Ġgardens": 6196,
      "Ġblend": 6197,
      "Ġtruth": 6198,
      "Ġserves": 6199,
      "Ġvolunte": 6200,
      "Ġnetworks": 6201,
      "Ġrecords": 6202,
      "Ġepis": 6203,
      "Ġmanufacturers": 6204,
      "Ġrevolution": 6205,
      "Ġversatile": 6206,
      "Le": 6207,
      "Sc": 6208,
      "cont": 6209,
      "icide": 6210,
      "Ġhoney": 6211,
      "Ġstorm": 6212,
      "ĠWashington": 6213,
      "Ġhealing": 6214,
      "ĠOpen": 6215,
      "Ġpotat": 6216,
      "Ġserved": 6217,
      "Ġbabies": 6218,
      "zyme": 6219,
      "Ġpuppy": 6220,
      "Ġacademic": 6221,
      "Since": 6222,
      "otes": 6223,
      "stream": 6224,
      "ander": 6225,
      "ĠFound": 6226,
      "Ġcompr": 6227,
      "Ġcheap": 6228,
      "Ġconsume": 6229,
      "Ġmassive": 6230,
      "ĠCounty": 6231,
      "-B": 6232,
      "Ġwrote": 6233,
      "Ġbaking": 6234,
      "Ġinch": 6235,
      "ifies": 6236,
      "Ġorange": 6237,
      "Ġdebris": 6238,
      "ieving": 6239,
      "Ġscene": 6240,
      "Ġflo": 6241,
      "Ġstudying": 6242,
      "96": 6243,
      "oke": 6244,
      "Ġfinger": 6245,
      "asive": 6246,
      "Ġorgans": 6247,
      "ĠMich": 6248,
      "ĠBel": 6249,
      "ĠDise": 6250,
      "acts": 6251,
      "Ġfertilizer": 6252,
      "ĠChildren": 6253,
      "Ġcable": 6254,
      "itter": 6255,
      "char": 6256,
      "Ġpros": 6257,
      "Ġdealing": 6258,
      "Ġshade": 6259,
      "Ġpreparation": 6260,
      "Ġseeking": 6261,
      "Ġinsul": 6262,
      "Ġcontainers": 6263,
      "Ġmeasuring": 6264,
      "Ġlisted": 6265,
      "Ġalgorithms": 6266,
      "ĠTur": 6267,
      "ĠBas": 6268,
      "Ġshif": 6269,
      "Ġwash": 6270,
      "Ġouter": 6271,
      "ĠStand": 6272,
      "Ġdied": 6273,
      "Ġbelieved": 6274,
      "Ġnearby": 6275,
      "agnetic": 6276,
      "Ġresponses": 6277,
      "Ġselecting": 6278,
      "then": 6279,
      "uing": 6280,
      "ĠRob": 6281,
      "Ġkg": 6282,
      "Ġtrim": 6283,
      "angered": 6284,
      "Ġmeasurements": 6285,
      "Ġcampa": 6286,
      "Ġdynamic": 6287,
      "Ġpolitical": 6288,
      "',": 6289,
      "ION": 6290,
      "iam": 6291,
      "iology": 6292,
      "Ġov": 6293,
      "Ġmm": 6294,
      "ilos": 6295,
      "otton": 6296,
      "Ġenables": 6297,
      "Ġresolution": 6298,
      "Ġinterpret": 6299,
      "Ġexpans": 6300,
      "Ġcourses": 6301,
      "Ġbiology": 6302,
      "Ġconcerned": 6303,
      "Ġcontinuous": 6304,
      "Ġthrive": 6305,
      "Ġappreciate": 6306,
      "herent": 6307,
      "Ġbite": 6308,
      "Ġflying": 6309,
      "Ġreached": 6310,
      "acc": 6311,
      "Ġplus": 6312,
      "Ġpersist": 6313,
      "Ġdistingu": 6314,
      "Ġworkshe": 6315,
      "Ġemployees": 6316,
      "BS": 6317,
      "Or": 6318,
      "fra": 6319,
      "normal": 6320,
      "ĠTime": 6321,
      "Ġabilities": 6322,
      "ella": 6323,
      "ournal": 6324,
      "aret": 6325,
      "tebr": 6326,
      "ffective": 6327,
      "Ġcouldn": 6328,
      "Ġvariables": 6329,
      "Ġguarant": 6330,
      "Ġhybrid": 6331,
      "Ġconnections": 6332,
      "Ġexercises": 6333,
      "ĠGuide": 6334,
      "Ġultimately": 6335,
      "Ġinterface": 6336,
      "ĠTHE": 6337,
      "eries": 6338,
      "Ġsight": 6339,
      "Ġlies": 6340,
      "Ġgave": 6341,
      "Ġexchange": 6342,
      "ĠExt": 6343,
      "astics": 6344,
      "ĠOcean": 6345,
      "Ġimpossible": 6346,
      "Ġindoor": 6347,
      "Ġjoin": 6348,
      "ĠPhotos": 6349,
      "Ġdivided": 6350,
      "Ġdim": 6351,
      "Ġprol": 6352,
      "ĠClean": 6353,
      "Ġchlor": 6354,
      "ĠLondon": 6355,
      "Ġcontamin": 6356,
      "Ġmeant": 6357,
      "Ġunf": 6358,
      "Ġthanks": 6359,
      "Ġequation": 6360,
      "Ġrespiratory": 6361,
      "Ġnutritional": 6362,
      "Ġcoastal": 6363,
      "Ġexpertise": 6364,
      "ĠService": 6365,
      "-F": 6366,
      "band": 6367,
      "rant": 6368,
      "Ġconvert": 6369,
      "ĠDet": 6370,
      "alls": 6371,
      "ĠOpt": 6372,
      "Ġsupporting": 6373,
      "Ġimmun": 6374,
      "Ġterrit": 6375,
      "Ġpesticides": 6376,
      "Ġrecycling": 6377,
      "cher": 6378,
      "uis": 6379,
      "zed": 6380,
      "Ġtast": 6381,
      "Ġcas": 6382,
      "Ġmes": 6383,
      "Ġdive": 6384,
      "Ġlaser": 6385,
      "Ġnoted": 6386,
      "ocation": 6387,
      "Ġspeech": 6388,
      "Ġgrand": 6389,
      "Ġmining": 6390,
      "coming": 6391,
      "Ġfacing": 6392,
      "Ġpromoting": 6393,
      "Ġfault": 6394,
      "Ġaggressive": 6395,
      "Ġdriver": 6396,
      "rooms": 6397,
      "ĠRef": 6398,
      "iber": 6399,
      "arsh": 6400,
      "Ġcapabilities": 6401,
      "Ġmechanisms": 6402,
      "Ġtissues": 6403,
      "Ġtrends": 6404,
      "ĠTwo": 6405,
      "ĠOb": 6406,
      "Ġblur": 6407,
      "hyl": 6408,
      "Ġinspect": 6409,
      "Ġsheet": 6410,
      "Ġpossibility": 6411,
      "Ġhistorical": 6412,
      "Using": 6413,
      "Ġpilot": 6414,
      "93": 6415,
      "Ġped": 6416,
      "Ġbits": 6417,
      "ĠBro": 6418,
      "Ġtele": 6419,
      "Ġcalm": 6420,
      "Ġsatell": 6421,
      "88": 6422,
      "Ġtaught": 6423,
      "onge": 6424,
      "Ġbought": 6425,
      "ĠType": 6426,
      "appe": 6427,
      "Ġgrain": 6428,
      "Ġears": 6429,
      "Ġarticles": 6430,
      "Ġpredators": 6431,
      "PR": 6432,
      "edia": 6433,
      "ĠWork": 6434,
      "ĠDel": 6435,
      "ĠNatural": 6436,
      "Ġincome": 6437,
      "Ġresol": 6438,
      "Ġlarv": 6439,
      "atching": 6440,
      "Ġfunctionality": 6441,
      "Ġfinally": 6442,
      "Ġopinion": 6443,
      ",ĊĊ": 6444,
      "well": 6445,
      "zer": 6446,
      "era": 6447,
      "Ġcater": 6448,
      "roph": 6449,
      "terior": 6450,
      "ĠPlease": 6451,
      "Ġhealthier": 6452,
      "Ġeffectiveness": 6453,
      "Ġpreserv": 6454,
      "Ġwindows": 6455,
      "Ġinstallation": 6456,
      "Ġglasses": 6457,
      "ĠInternet": 6458,
      "Ġveterin": 6459,
      "tt": 6460,
      "Ġton": 6461,
      "Ġpages": 6462,
      "Ġbrief": 6463,
      "Ġlip": 6464,
      "Ġreef": 6465,
      "ĠTer": 6466,
      "Ġancest": 6467,
      "Ġintense": 6468,
      "Ġmanip": 6469,
      "Ġparty": 6470,
      "Ġcheckbook": 6471,
      "Ġmembrane": 6472,
      "Ġpolicies": 6473,
      "men": 6474,
      "itors": 6475,
      "ĠSal": 6476,
      "Ġoverw": 6477,
      "Ġprevention": 6478,
      "Ġresponsibility": 6479,
      "Ġdigestive": 6480,
      "vin": 6481,
      "ĠAP": 6482,
      "ĠPort": 6483,
      "ĠMac": 6484,
      "ĠDist": 6485,
      "Ġanywhere": 6486,
      "Ġspecialized": 6487,
      "Ġpackaging": 6488,
      "Â°C": 6489,
      "Ġlenses": 6490,
      "haust": 6491,
      "/s": 6492,
      "Ġtip": 6493,
      "Ġpink": 6494,
      "Ġmand": 6495,
      "otype": 6496,
      "ĠSometimes": 6497,
      "rix": 6498,
      "avy": 6499,
      "Ġscan": 6500,
      "Ġcurric": 6501,
      "Ġsecondary": 6502,
      "Ġindicates": 6503,
      "ĠFurthermore": 6504,
      "-H": 6505,
      "aired": 6506,
      "gal": 6507,
      "Ġtables": 6508,
      "agle": 6509,
      "ommod": 6510,
      "Ġphotograp": 6511,
      "Ġderived": 6512,
      "Ġhundreds": 6513,
      "auc": 6514,
      "iking": 6515,
      "Ġtack": 6516,
      "uls": 6517,
      "ĠMach": 6518,
      "Ġran": 6519,
      "udd": 6520,
      "Ġwheels": 6521,
      "Ġbreaking": 6522,
      "Ġequipped": 6523,
      "Ġidentity": 6524,
      "ometer": 6525,
      "while": 6526,
      "Ġmanufacturer": 6527,
      "Ġstyles": 6528,
      "Ġrely": 6529,
      "cel": 6530,
      "illa": 6531,
      "ĠPost": 6532,
      "Ġproven": 6533,
      "Ġsupplies": 6534,
      "Ġdistur": 6535,
      "Ġcontrols": 6536,
      "Ġprotecting": 6537,
      "Ġfacilities": 6538,
      "Ġtransportation": 6539,
      "TION": 6540,
      "Ġcategory": 6541,
      "Ġknee": 6542,
      ";Ċ": 6543,
      "App": 6544,
      "part": 6545,
      "hent": 6546,
      "usiness": 6547,
      "ading": 6548,
      "ĠHouse": 6549,
      "Ġclients": 6550,
      "ĠInc": 6551,
      "Ġappoint": 6552,
      "ĠNews": 6553,
      "Ġhimself": 6554,
      "Ġsuscept": 6555,
      "Ġjuice": 6556,
      "Ġconvenient": 6557,
      "inction": 6558,
      "Ġyes": 6559,
      "Ġgone": 6560,
      "igen": 6561,
      "ĠAD": 6562,
      "Ġchosen": 6563,
      "Ġparallel": 6564,
      "Ġvaccine": 6565,
      "Ġnervous": 6566,
      "HO": 6567,
      "Ġhidden": 6568,
      "Ġrect": 6569,
      "Ġgases": 6570,
      "Ġalter": 6571,
      "ĠMal": 6572,
      "ivated": 6573,
      "Ġartists": 6574,
      "ounced": 6575,
      "Read": 6576,
      "box": 6577,
      "down": 6578,
      "Ġlux": 6579,
      "ods": 6580,
      "Ġseal": 6581,
      "ĠFigure": 6582,
      "Ġintric": 6583,
      "agine": 6584,
      "ĠLook": 6585,
      "eping": 6586,
      "Ġfeels": 6587,
      "Ġcorner": 6588,
      "ocket": 6589,
      "puter": 6590,
      "Ġletter": 6591,
      "Ġprinciple": 6592,
      "Ġgradually": 6593,
      "under": 6594,
      "Ġpipe": 6595,
      "ĠTop": 6596,
      "ĠAR": 6597,
      "eless": 6598,
      "amic": 6599,
      "action": 6600,
      "Ġplanted": 6601,
      "Ġtreats": 6602,
      "Ġfunctioning": 6603,
      "Ġfrequent": 6604,
      "Ġparticipate": 6605,
      "Ġelectrons": 6606,
      "Ġdurable": 6607,
      "irty": 6608,
      "elly": 6609,
      "umes": 6610,
      "ĠBefore": 6611,
      "ĠOF": 6612,
      "Ġmyself": 6613,
      "ports": 6614,
      "Ġmilitary": 6615,
      "Ġsafely": 6616,
      "Ġautomatically": 6617,
      "Ġbehaviour": 6618,
      "58": 6619,
      "EO": 6620,
      "Every": 6621,
      "bra": 6622,
      "pat": 6623,
      "Ġcivil": 6624,
      "oura": 6625,
      "opl": 6626,
      "ĠDef": 6627,
      "Ġrod": 6628,
      "cover": 6629,
      "mitted": 6630,
      "Ġmathemat": 6631,
      "Ġflavors": 6632,
      "Ġfascinating": 6633,
      "AA": 6634,
      "MP": 6635,
      "oto": 6636,
      "ĠBre": 6637,
      "pling": 6638,
      "obal": 6639,
      "Ġgardening": 6640,
      "Which": 6641,
      "Ġflexible": 6642,
      "Ġvessels": 6643,
      "eal": 6644,
      "log": 6645,
      "tic": 6646,
      "Ġtires": 6647,
      "atric": 6648,
      "itivity": 6649,
      "Ġmales": 6650,
      "Ġacts": 6651,
      "Ġflash": 6652,
      "Ġrealize": 6653,
      "ĠDevelopment": 6654,
      "59": 6655,
      "NS": 6656,
      "Ð¾": 6657,
      "Ġson": 6658,
      "ilation": 6659,
      "otal": 6660,
      "Ġongoing": 6661,
      "eles": 6662,
      "Ġsched": 6663,
      "Ġwhereas": 6664,
      "Ġassume": 6665,
      "Ġdetection": 6666,
      "ĠWhite": 6667,
      "ĠAmericans": 6668,
      "Ġlifespan": 6669,
      "Ġperfectly": 6670,
      "Ġprecision": 6671,
      "Ġirrit": 6672,
      "Ġemotions": 6673,
      "Ġcommitment": 6674,
      "Ġneutral": 6675,
      "ĠMexico": 6676,
      "aj": 6677,
      "lin": 6678,
      "astern": 6679,
      "Ġgent": 6680,
      "ĠBC": 6681,
      "Ġseat": 6682,
      "Ġadvert": 6683,
      "Ġentertain": 6684,
      "ioxid": 6685,
      "Ġstanding": 6686,
      "ĠCommon": 6687,
      "ascular": 6688,
      "Ġsexual": 6689,
      "Ġbranch": 6690,
      "Rel": 6691,
      "]Ċ": 6692,
      "oons": 6693,
      "Ġease": 6694,
      "igue": 6695,
      "Ġwilling": 6696,
      "Ġpreval": 6697,
      "Ġattend": 6698,
      "Ġattach": 6699,
      "ĠExper": 6700,
      "Ġrecognized": 6701,
      "Ġwaiting": 6702,
      "78": 6703,
      "OC": 6704,
      "stood": 6705,
      "Ġalumin": 6706,
      "Ġseam": 6707,
      "ĠFind": 6708,
      "ulture": 6709,
      "Ġunus": 6710,
      "ontal": 6711,
      "Ġharder": 6712,
      "Ġtells": 6713,
      "Ġintroduction": 6714,
      "Ġpit": 6715,
      "Ġdys": 6716,
      "Ġdense": 6717,
      "Ġconclud": 6718,
      "Ġatoms": 6719,
      "âĢĭ": 6720,
      "Ġremoval": 6721,
      "Ġboxes": 6722,
      "Ġfunding": 6723,
      "-res": 6724,
      ".[": 6725,
      "Ġtric": 6726,
      "Ġinhib": 6727,
      "Ġdairy": 6728,
      "Ġmanaging": 6729,
      "enses": 6730,
      "Ġapplying": 6731,
      "Ġextend": 6732,
      "Ġproductivity": 6733,
      "Ġclassic": 6734,
      "ĠOnly": 6735,
      "bohyd": 6736,
      "ĠRegular": 6737,
      "86": 6738,
      "Don": 6739,
      "Other": 6740,
      "Ġmul": 6741,
      "ionally": 6742,
      "imental": 6743,
      "ĠSpecial": 6744,
      "ĠFace": 6745,
      "ources": 6746,
      "Ġfeather": 6747,
      "Ġblind": 6748,
      "Ġstrain": 6749,
      "Ġefficiently": 6750,
      "Ġbowl": 6751,
      "Ġneighb": 6752,
      "cal": 6753,
      "illage": 6754,
      "Ġket": 6755,
      "Ġkilled": 6756,
      "Ġreput": 6757,
      "Ġerrors": 6758,
      "Ġargument": 6759,
      "Ġdrivers": 6760,
      "During": 6761,
      "rink": 6762,
      "Ġtons": 6763,
      "Ġcow": 6764,
      "itness": 6765,
      "anish": 6766,
      "Ġmood": 6767,
      "Ġmice": 6768,
      "Ġride": 6769,
      "Ġchances": 6770,
      "Ġspeaking": 6771,
      "Ġinterview": 6772,
      "Ġavailability": 6773,
      "Ġconsumer": 6774,
      "Ġdetermining": 6775,
      "Ġcrack": 6776,
      "Ġrecognition": 6777,
      "Share": 6778,
      "Ġwatching": 6779,
      "Ġsector": 6780,
      "Ġcomplicated": 6781,
      "94": 6782,
      "Ġshed": 6783,
      "earing": 6784,
      "Ġconscious": 6785,
      "Ġregist": 6786,
      "Ġbuff": 6787,
      "Ġmetals": 6788,
      "Ġsusp": 6789,
      "Ġincorporating": 6790,
      "-day": 6791,
      "87": 6792,
      "Of": 6793,
      "Ðµ": 6794,
      "Ġsan": 6795,
      "ora": 6796,
      "Ġreb": 6797,
      "Ġisland": 6798,
      "Ġkm": 6799,
      "ourse": 6800,
      "Ġspark": 6801,
      "Ġunex": 6802,
      "Ġourselves": 6803,
      "ĠPlants": 6804,
      "Ġlimits": 6805,
      "ĠBlue": 6806,
      "ĠUSA": 6807,
      "Ġholds": 6808,
      "ĠAgricult": 6809,
      "win": 6810,
      "zym": 6811,
      "Ġdimens": 6812,
      "Ġluck": 6813,
      "uts": 6814,
      "ĠTry": 6815,
      "Ġstated": 6816,
      "Ġstring": 6817,
      "Ġlitter": 6818,
      "Ġfinished": 6819,
      "Ġbringing": 6820,
      "Ġpanels": 6821,
      "Ġcolleagues": 6822,
      "enefits": 6823,
      "74": 6824,
      "CS": 6825,
      "Ġtough": 6826,
      "ania": 6827,
      "ppers": 6828,
      "reatment": 6829,
      "Ġchest": 6830,
      "Ġinfrastructure": 6831,
      "Ġecological": 6832,
      "ĠArch": 6833,
      "ĠShould": 6834,
      "Ġzone": 6835,
      "Ġdifficulty": 6836,
      "Ġsuperior": 6837,
      "Ġexperiencing": 6838,
      "Ġevolved": 6839,
      "Ġrefriger": 6840,
      "-E": 6841,
      "Ġsouthern": 6842,
      "Ġok": 6843,
      "Ġore": 6844,
      "Ġmer": 6845,
      "igaret": 6846,
      "ogether": 6847,
      "ĠRh": 6848,
      "Ġblocks": 6849,
      "Ġwatering": 6850,
      "Ġaccommod": 6851,
      "Ġshouldn": 6852,
      "Ġvet": 6853,
      "Ġyounger": 6854,
      "Ġfibers": 6855,
      "-ch": 6856,
      "Ġ`": 6857,
      "orrect": 6858,
      "Ġtoys": 6859,
      "owered": 6860,
      "ĠMot": 6861,
      "Ġintensity": 6862,
      "eren": 6863,
      "Ġobesity": 6864,
      "Ġsubsequ": 6865,
      "Ġexamine": 6866,
      "Ġauto": 6867,
      "Ġdirector": 6868,
      "comp": 6869,
      "Ġsteam": 6870,
      "Ġaims": 6871,
      "ĠMoreover": 6872,
      "ĠLearn": 6873,
      "Ġeliminate": 6874,
      "ĠHuman": 6875,
      "IF": 6876,
      "Where": 6877,
      "cm": 6878,
      "Ġid": 6879,
      "reens": 6880,
      "Ġcos": 6881,
      "Ġnorthern": 6882,
      "Ġcomposed": 6883,
      "Ġclient": 6884,
      "Ġpartner": 6885,
      "Ġgluc": 6886,
      "ommon": 6887,
      "Ġoccurred": 6888,
      "Ġdemonstrate": 6889,
      "Ġsynthetic": 6890,
      "Ġlaboratory": 6891,
      "-P": 6892,
      "62": 6893,
      "Che": 6894,
      "ham": 6895,
      "Ġselling": 6896,
      "Ġpun": 6897,
      "ivate": 6898,
      "Ġdoctors": 6899,
      "Ġpeak": 6900,
      "Ġpassion": 6901,
      "Ġsnake": 6902,
      "Ġfrozen": 6903,
      "Ġvulnerable": 6904,
      "Because": 6905,
      "rid": 6906,
      "Ġpaid": 6907,
      "Ġduration": 6908,
      "Ġthrow": 6909,
      "iled": 6910,
      "Ġexhaust": 6911,
      "ĠForm": 6912,
      "Ġunable": 6913,
      "Ġsyndrome": 6914,
      "Ġprocessed": 6915,
      "Ġprescrib": 6916,
      "Ġfalls": 6917,
      "Ġsleeping": 6918,
      "Ġsubjects": 6919,
      "Ġadventure": 6920,
      "Ġleadership": 6921,
      "Ġyeast": 6922,
      "Ġnarrow": 6923,
      "such": 6924,
      "Ġsch": 6925,
      "Ġcrow": 6926,
      "orld": 6927,
      "Ġtown": 6928,
      "Ġyard": 6929,
      "mentation": 6930,
      "Ġjew": 6931,
      "ĠUV": 6932,
      "Ġdiets": 6933,
      "Ġengines": 6934,
      "-pro": 6935,
      "Ġlinear": 6936,
      "anned": 6937,
      "Ġintegrated": 6938,
      "Ġcarrying": 6939,
      "Ġdurability": 6940,
      "Ġmammals": 6941,
      "Mar": 6942,
      "no": 6943,
      "Ġcoc": 6944,
      "Ġcast": 6945,
      "Ġcaught": 6946,
      "omfort": 6947,
      "ĠCell": 6948,
      "ĠPract": 6949,
      "Ġchapter": 6950,
      "ĠData": 6951,
      "Ġsoap": 6952,
      "Ġcoverage": 6953,
      "Ġextent": 6954,
      "Ġserving": 6955,
      "Ġserver": 6956,
      "Ġmagnet": 6957,
      "ĠFebruary": 6958,
      "rosion": 6959,
      "ĠSuper": 6960,
      "Ġsession": 6961,
      "ĠHistory": 6962,
      "-cl": 6963,
      "67": 6964,
      "Ġcomments": 6965,
      "Ġcomprom": 6966,
      "Ġclub": 6967,
      "reating": 6968,
      "Ġaccidents": 6969,
      "Ġartist": 6970,
      "Ġorganized": 6971,
      "ĠFrance": 6972,
      "Ġviruses": 6973,
      "Ġliterature": 6974,
      "About": 6975,
      "Ġstainless": 6976,
      "Ġadequate": 6977,
      "ĠPhotoshop": 6978,
      "77": 6979,
      "Just": 6980,
      "bow": 6981,
      "rian": 6982,
      "Ġtraits": 6983,
      "Ġdescription": 6984,
      "Ġleader": 6985,
      "Ġnuts": 6986,
      "ĠWestern": 6987,
      ".C": 6988,
      "63": 6989,
      "fit": 6990,
      "lers": 6991,
      "Ġtheore": 6992,
      "Ġfan": 6993,
      "Ġfisher": 6994,
      "Ġmol": 6995,
      "utrition": 6996,
      "rape": 6997,
      "rade": 6998,
      "Ġnoticed": 6999,
      "Ġuniform": 7000,
      "Ġquiet": 7001,
      "Ġapparent": 7002,
      "ucks": 7003,
      "Ġdiscomfort": 7004,
      "aterials": 7005,
      "ĠScient": 7006,
      "Ġinvolving": 7007,
      "position": 7008,
      "Ġrobots": 7009,
      "Ġmessages": 7010,
      "ĠManagement": 7011,
      "Ġincorporate": 7012,
      "-level": 7013,
      "Ġfreed": 7014,
      "asm": 7015,
      "Ġstrip": 7016,
      "Ġenzyme": 7017,
      "ĠDraw": 7018,
      "Ġworn": 7019,
      "Ġminute": 7020,
      "Ġcapital": 7021,
      "Ġheads": 7022,
      "Ġcomputing": 7023,
      "apping": 7024,
      "pecific": 7025,
      "-se": 7026,
      "Lear": 7027,
      "cue": 7028,
      "ĠðŁ": 7029,
      "Ġsac": 7030,
      "Ġfant": 7031,
      "alysis": 7032,
      "mented": 7033,
      "ĠPen": 7034,
      "ĠPublic": 7035,
      "Ġcompl": 7036,
      "anged": 7037,
      "ĠVe": 7038,
      "Ġgenerations": 7039,
      "Ġviews": 7040,
      "Ġrotation": 7041,
      "Ġdemonstrated": 7042,
      "Ġchannels": 7043,
      "Ġfairly": 7044,
      "Ġrepeated": 7045,
      "forcement": 7046,
      "ĠEnvironmental": 7047,
      "Ġmirror": 7048,
      "ĠMedicine": 7049,
      "Even": 7050,
      "ona": 7051,
      "Ġwidth": 7052,
      "amps": 7053,
      "thrit": 7054,
      "outs": 7055,
      "Ġknew": 7056,
      "agers": 7057,
      "Ġoutcome": 7058,
      "Ġblade": 7059,
      "Ġsupposed": 7060,
      "ools": 7061,
      "ĠProper": 7062,
      "Ġholding": 7063,
      "Ġwonderful": 7064,
      "],": 7065,
      "adder": 7066,
      "ĠMat": 7067,
      "ago": 7068,
      "Ġclock": 7069,
      "Ġpersonality": 7070,
      "Ġpresentation": 7071,
      "Ġembry": 7072,
      "Ġbarrier": 7073,
      "Ġburning": 7074,
      "Ġassistance": 7075,
      "Ġthickness": 7076,
      "Ġbathroom": 7077,
      "ĠHawai": 7078,
      "'.": 7079,
      "UT": 7080,
      "ka": 7081,
      "tical": 7082,
      "Ġtap": 7083,
      "Ġmere": 7084,
      "ĠNAS": 7085,
      "Ġjoy": 7086,
      "Ġsignificance": 7087,
      "Ġaffecting": 7088,
      "Ġlaunch": 7089,
      "Ġidentifying": 7090,
      "Ġrecommendations": 7091,
      ".m": 7092,
      "inity": 7093,
      "itan": 7094,
      "uled": 7095,
      "ivating": 7096,
      "ultane": 7097,
      "Ġroles": 7098,
      "akers": 7099,
      "angle": 7100,
      "Ġcorpor": 7101,
      "Ġentry": 7102,
      "Ġconsideration": 7103,
      "Ġstrongly": 7104,
      "ĠCentral": 7105,
      "ĠCarol": 7106,
      "Ġrobust": 7107,
      "Ġassembly": 7108,
      "ĠProfessor": 7109,
      "Ġcurriculum": 7110,
      "Make": 7111,
      "ini": 7112,
      "ĠSing": 7113,
      "pled": 7114,
      "ĠStr": 7115,
      "Ġchecking": 7116,
      "Ġphr": 7117,
      "Ġmovie": 7118,
      "Ġcharacterized": 7119,
      "riction": 7120,
      "Ġpriorit": 7121,
      "Ġpreferred": 7122,
      "Ġcitiz": 7123,
      "Ġpermanent": 7124,
      "sm": 7125,
      "tles": 7126,
      "onia": 7127,
      "ĠIP": 7128,
      "aying": 7129,
      "ĠCoun": 7130,
      "Ġshru": 7131,
      "Ġdoors": 7132,
      "ĠDI": 7133,
      "ĠEqu": 7134,
      "ĠGover": 7135,
      "Ġdisrupt": 7136,
      "Ġmeter": 7137,
      "lessly": 7138,
      "Ġnecessarily": 7139,
      "Ġlanguages": 7140,
      "Ġbacterial": 7141,
      "Ġframew": 7142,
      "Ġrespectively": 7143,
      "Ġsuffering": 7144,
      "Col": 7145,
      "hav": 7146,
      "uel": 7147,
      "Ġcotton": 7148,
      "Ġfing": 7149,
      "icular": 7150,
      "utch": 7151,
      "Ġchol": 7152,
      "duction": 7153,
      "althy": 7154,
      "Ġmini": 7155,
      "Ġobserve": 7156,
      "Ġsmoking": 7157,
      "Ġexistence": 7158,
      "ĠConservation": 7159,
      "Ġregardless": 7160,
      "Ġresidents": 7161,
      "Ġsessions": 7162,
      "People": 7163,
      "CC": 7164,
      "iance": 7165,
      "esides": 7166,
      "Ġdirt": 7167,
      "Ġreaching": 7168,
      "opic": 7169,
      "Ġbugs": 7170,
      "ĠThose": 7171,
      "Ġappeal": 7172,
      "ĠAtt": 7173,
      "Ġpropag": 7174,
      "Ġplatforms": 7175,
      "Ġexplanation": 7176,
      "\"ĊĊ": 7177,
      "fast": 7178,
      "Ġlik": 7179,
      "ĠAlex": 7180,
      "ĠMary": 7181,
      "ĠInformation": 7182,
      "onomic": 7183,
      "Ġremarkable": 7184,
      "fe": 7185,
      "alian": 7186,
      "Ġdow": 7187,
      "Ġdrought": 7188,
      "asy": 7189,
      "stances": 7190,
      "ĠCam": 7191,
      "thur": 7192,
      "ĠDB": 7193,
      "rium": 7194,
      "ĠUnder": 7195,
      "ĠUnderstanding": 7196,
      "Ġsomewhat": 7197,
      "Ġphilos": 7198,
      "Ġcontinuously": 7199,
      "Ġdetected": 7200,
      "Ġpregnant": 7201,
      "Ġfrost": 7202,
      "ĠSimilar": 7203,
      "Ġastron": 7204,
      "Ġdatab": 7205,
      "Ġvictim": 7206,
      "Ġ...Ċ": 7207,
      "Ġca": 7208,
      "lder": 7209,
      "ĠPet": 7210,
      "arded": 7211,
      "Ġwashing": 7212,
      "aph": 7213,
      "Ġcoral": 7214,
      "ĠProv": 7215,
      "Ġcircular": 7216,
      "Ġaccurately": 7217,
      "-shaped": 7218,
      "zymes": 7219,
      ".The": 7220,
      "IP": 7221,
      "lo": 7222,
      "inent": 7223,
      "esium": 7224,
      "Ġholid": 7225,
      "Ġlived": 7226,
      "Ġgal": 7227,
      "emperature": 7228,
      "Ġshorter": 7229,
      "Ġleak": 7230,
      "Ġwheat": 7231,
      "ĠRich": 7232,
      "Ġtheme": 7233,
      "Ġempt": 7234,
      "Ġdefine": 7235,
      "ĠDev": 7236,
      "Ġpackage": 7237,
      "Ġdecreased": 7238,
      "Ġearthqu": 7239,
      "Ġalgorithm": 7240,
      "Ġrestaurant": 7241,
      "73": 7242,
      "cule": 7243,
      "Ġgast": 7244,
      "rays": 7245,
      "ĠPot": 7246,
      "ria": 7247,
      "Ġrecover": 7248,
      "Ġarms": 7249,
      "Ġflag": 7250,
      "Ġshowc": 7251,
      "Ġadvoc": 7252,
      "Ġantioxid": 7253,
      "ĠPhil": 7254,
      "Ġquantity": 7255,
      "Ġimplementation": 7256,
      "Ġdistinctive": 7257,
      "Ġadministration": 7258,
      "Ġaffordable": 7259,
      "Ġbottle": 7260,
      "thritis": 7261,
      "-and": 7262,
      "??": 7263,
      "oz": 7264,
      "icity": 7265,
      "Ġgum": 7266,
      "ĠSol": 7267,
      "Ġusual": 7268,
      "ĠMuse": 7269,
      "Ġriding": 7270,
      "Ġsug": 7271,
      "Ġshall": 7272,
      "Ġdisappe": 7273,
      "Ġtwist": 7274,
      "Ġinfest": 7275,
      "Ġexploration": 7276,
      "Ġcontributing": 7277,
      "ĠWorks": 7278,
      "Ġclaims": 7279,
      "Ġrevealed": 7280,
      "AG": 7281,
      "CD": 7282,
      "Well": 7283,
      "Water": 7284,
      "eah": 7285,
      "face": 7286,
      "âĪ": 7287,
      "rab": 7288,
      "irus": 7289,
      "amily": 7290,
      "abil": 7291,
      "Ġrust": 7292,
      "ivest": 7293,
      "ĠFalse": 7294,
      "ĠLaw": 7295,
      "Ġdispl": 7296,
      "Ġaging": 7297,
      "certain": 7298,
      "Ġboards": 7299,
      "ugs": 7300,
      "Ġchemistry": 7301,
      "Ġoils": 7302,
      "Also": 7303,
      "ĠAvoid": 7304,
      "Ġtutorial": 7305,
      "sor": 7306,
      "uum": 7307,
      "Ġgender": 7308,
      "Ġbee": 7309,
      "ota": 7310,
      "Ġstems": 7311,
      "quit": 7312,
      "Ġabnormal": 7313,
      "ĠGroup": 7314,
      "Ġblo": 7315,
      "Ġovercome": 7316,
      "Ġforming": 7317,
      "Ġphysically": 7318,
      "Ġmarked": 7319,
      "Ġforeign": 7320,
      "Ġlaun": 7321,
      "Ġjoints": 7322,
      "Ġcategories": 7323,
      "ĠSecond": 7324,
      "##": 7325,
      "81": 7326,
      "82": 7327,
      "bits": 7328,
      "gien": 7329,
      "Â·": 7330,
      "Ġmine": 7331,
      "Ġdough": 7332,
      "Ġgel": 7333,
      "adian": 7334,
      "Ġrh": 7335,
      "Ġrural": 7336,
      "Ġintest": 7337,
      "ĠOk": 7338,
      "Ġtrad": 7339,
      "Ġcarbohyd": 7340,
      "Ġvariations": 7341,
      "Ġengineers": 7342,
      "Ġreceiving": 7343,
      "Ġwooden": 7344,
      "Ġwebsites": 7345,
      "ĠMedical": 7346,
      "Ġcalculate": 7347,
      "ĠAustralian": 7348,
      "Ġdependent": 7349,
      "Ġcabin": 7350,
      "ĠFoundation": 7351,
      "71": 7352,
      "83": 7353,
      "mas": 7354,
      "nel": 7355,
      "rical": 7356,
      "son": 7357,
      "Ġmouse": 7358,
      "Ġretain": 7359,
      "Ġreaches": 7360,
      "ĠAND": 7361,
      "Ġlect": 7362,
      "ĠDogs": 7363,
      "ĠFree": 7364,
      "assium": 7365,
      "rowth": 7366,
      "Ġrecording": 7367,
      "ĠChoose": 7368,
      "ega": 7369,
      "Ġclassification": 7370,
      "Ġrising": 7371,
      "exp": 7372,
      "Ġcrust": 7373,
      "Ġintroduce": 7374,
      "Ġstimul": 7375,
      ".âĢĿ": 7376,
      "erts": 7377,
      "ĠTO": 7378,
      "ception": 7379,
      "sem": 7380,
      "ĠSum": 7381,
      "advant": 7382,
      "ĠBook": 7383,
      "ĠDog": 7384,
      "Ġcompens": 7385,
      "Ġrecipes": 7386,
      "ĠâĢĺ": 7387,
      "ooked": 7388,
      "Ġflies": 7389,
      "Ġgray": 7390,
      "Ġhumidity": 7391,
      "ushing": 7392,
      "âĢĶâĢĶ": 7393,
      "Ġlistening": 7394,
      "Ġsalmon": 7395,
      "Ġsilver": 7396,
      "Ġanalyze": 7397,
      "ĠAcademy": 7398,
      "Ġlungs": 7399,
      "ĠCouncil": 7400,
      "amination": 7401,
      "ĠBR": 7402,
      "ĠFinally": 7403,
      "ieves": 7404,
      "cknow": 7405,
      "Ġanimation": 7406,
      "Ġfocusing": 7407,
      "anguage": 7408,
      "proof": 7409,
      "Ġcompetitive": 7410,
      "Ġimmediate": 7411,
      "Ġnuclear": 7412,
      "Ġspectrum": 7413,
      "ivestock": 7414,
      "-T": 7415,
      "car": 7416,
      "Ġ@": 7417,
      "Ġsad": 7418,
      "orge": 7419,
      "asters": 7420,
      "ĠMill": 7421,
      "ĠEM": 7422,
      "Ġkin": 7423,
      "ĠLow": 7424,
      "Ġblank": 7425,
      "ĠJournal": 7426,
      "plete": 7427,
      "Ġexpressed": 7428,
      "Ġparticle": 7429,
      "Ġgreatest": 7430,
      "ĠAdv": 7431,
      "Ġencounter": 7432,
      "Ġgovern": 7433,
      "Ġevaluate": 7434,
      "Ġfederal": 7435,
      "Ġcorresponding": 7436,
      "Ġveterinarian": 7437,
      "|Ċ": 7438,
      "ittle": 7439,
      "Ġpale": 7440,
      "Ġbare": 7441,
      "Ġbeet": 7442,
      "Ġalk": 7443,
      "ĠDire": 7444,
      "Ġjack": 7445,
      "Ġdiagram": 7446,
      "Ġbreaks": 7447,
      "Ġscientist": 7448,
      "ĠConf": 7449,
      "Ġoutdoors": 7450,
      "Ġgentle": 7451,
      "(s": 7452,
      ",âĢĿ": 7453,
      "89": 7454,
      "Understanding": 7455,
      "bur": 7456,
      "lig": 7457,
      "wo": 7458,
      "Ġille": 7459,
      "Ġbrows": 7460,
      "ĠSuch": 7461,
      "ĠMem": 7462,
      "ĠBu": 7463,
      "Ġprevents": 7464,
      "Ġtransformation": 7465,
      "Ġauthent": 7466,
      "ĠArctic": 7467,
      "Ġfocuses": 7468,
      "Ġfatty": 7469,
      "Ġaddressing": 7470,
      "Ġkidney": 7471,
      "Ġabsolutely": 7472,
      "Ġphenomenon": 7473,
      "Ġtal": 7474,
      "erally": 7475,
      "Ġpou": 7476,
      "Ġreverse": 7477,
      "Ġgerm": 7478,
      "utive": 7479,
      "Ġproof": 7480,
      "ĠPal": 7481,
      "ĠRad": 7482,
      "Ġmodule": 7483,
      "Ġcrew": 7484,
      "Ġprofit": 7485,
      "Ġpasseng": 7486,
      "Ġfatigue": 7487,
      "Ġintegr": 7488,
      "ENT": 7489,
      "Ġabsorb": 7490,
      "Ġshooting": 7491,
      "ĠSafety": 7492,
      "Ġexpansion": 7493,
      "pread": 7494,
      "Ġsale": 7495,
      "itage": 7496,
      "ĠAS": 7497,
      "Ġconvey": 7498,
      "Ġweeds": 7499,
      "osc": 7500,
      "Ġabuse": 7501,
      "Ġcompact": 7502,
      "ĠNor": 7503,
      "rying": 7504,
      "cycl": 7505,
      "Ġchildhood": 7506,
      "ditional": 7507,
      "Ġendangered": 7508,
      "Ġpolar": 7509,
      "Ġlargely": 7510,
      "Ġpositions": 7511,
      "azon": 7512,
      "Ġcalculated": 7513,
      "Ġhypothes": 7514,
      "Ġtumor": 7515,
      "\"I": 7516,
      "HD": 7517,
      "den": 7518,
      "gent": 7519,
      "ias": 7520,
      "hered": 7521,
      "Ġsoph": 7522,
      "orph": 7523,
      "Ġmeth": 7524,
      "Ġnic": 7525,
      "Ġbeef": 7526,
      "ĠAT": 7527,
      "ĠAqu": 7528,
      "osquit": 7529,
      "Ġrays": 7530,
      "Ġpossibilities": 7531,
      "ĠSciences": 7532,
      "Ġestimate": 7533,
      "Ġalternatives": 7534,
      "Ġdistributed": 7535,
      "Ġintelligent": 7536,
      "Ġsections": 7537,
      "ĠGermany": 7538,
      "Ġacceleration": 7539,
      "roductive": 7540,
      "Ġincredible": 7541,
      "69": 7542,
      "Have": 7543,
      "night": 7544,
      "ĠBack": 7545,
      "ĠHel": 7546,
      "Ġdisp": 7547,
      "Ġspat": 7548,
      "berg": 7549,
      "Ġdriven": 7550,
      "ĠAnim": 7551,
      "Ġretail": 7552,
      "flamm": 7553,
      "Ġhormone": 7554,
      "61": 7555,
      "Ġow": 7556,
      "ano": 7557,
      "Ġeco": 7558,
      "ĠCode": 7559,
      "ogy": 7560,
      "Ġworms": 7561,
      "Ġsole": 7562,
      "ĠInf": 7563,
      "ĠVis": 7564,
      "Ġcyl": 7565,
      "ĠQuestions": 7566,
      "Ġexhibit": 7567,
      "ĠAtlantic": 7568,
      "ĠNASA": 7569,
      "GB": 7570,
      "gu": 7571,
      "reated": 7572,
      "Ġweed": 7573,
      "emporary": 7574,
      "ĠMiss": 7575,
      "ĠBest": 7576,
      "Ġneur": 7577,
      "ĠEnd": 7578,
      "anger": 7579,
      "Ġdesire": 7580,
      "Ġinvent": 7581,
      "Ġproviders": 7582,
      "hemistry": 7583,
      "Ġpopularity": 7584,
      "Ġdegrad": 7585,
      "Ġingredient": 7586,
      "Ġstreet": 7587,
      "79": 7588,
      "OD": 7589,
      "Ġaward": 7590,
      "atal": 7591,
      "ocr": 7592,
      "Ġspeeds": 7593,
      "neys": 7594,
      "Ġunderstood": 7595,
      "Ġskates": 7596,
      "-by": 7597,
      "Ġdelay": 7598,
      "Ġcombine": 7599,
      "Ġcomplexity": 7600,
      "----------------": 7601,
      "Ġgirls": 7602,
      "IL": 7603,
      "Ġfav": 7604,
      "icians": 7605,
      "ctu": 7606,
      "Ġloved": 7607,
      "etal": 7608,
      "Ġvaries": 7609,
      "Ġrelief": 7610,
      "Ġsimultane": 7611,
      "Ġhyper": 7612,
      "ĠScott": 7613,
      "Ġfilters": 7614,
      "Ġsentence": 7615,
      "-scale": 7616,
      "Ġcampaign": 7617,
      "Aut": 7618,
      "ael": 7619,
      "ĠdB": 7620,
      "uning": 7621,
      "istant": 7622,
      "ĠBig": 7623,
      "ĠRub": 7624,
      "ĠNote": 7625,
      "Ġguy": 7626,
      "Ġpassing": 7627,
      "Ġcultures": 7628,
      "Ġfarms": 7629,
      "Ġactively": 7630,
      "Ġwestern": 7631,
      "Ġglucose": 7632,
      "68": 7633,
      "dle": 7634,
      "ingly": 7635,
      "Ġprove": 7636,
      "Ġvapor": 7637,
      "acent": 7638,
      "istor": 7639,
      "Ġcham": 7640,
      "Ġconserv": 7641,
      "atures": 7642,
      "Ġopened": 7643,
      "Ġdrying": 7644,
      "Ġinteractive": 7645,
      "Ġmixing": 7646,
      "Ġframes": 7647,
      "Ġdomin": 7648,
      "Ġevaluation": 7649,
      "Ġnavigate": 7650,
      "Ġenabling": 7651,
      "Ġlarvae": 7652,
      "Ġintricate": 7653,
      "Per": 7654,
      "atus": 7655,
      "itus": 7656,
      "Ġgate": 7657,
      "ĠTE": 7658,
      "opes": 7659,
      "Ġweap": 7660,
      "Ġrivers": 7661,
      "ĠLabor": 7662,
      "Ġgrains": 7663,
      "Ġcurve": 7664,
      "Ġvolcan": 7665,
      "Any": 7666,
      "Ġsubstrate": 7667,
      "Ġexcited": 7668,
      "Ġdomestic": 7669,
      "Ġballs": 7670,
      "Ġdrainage": 7671,
      "Ġpandemic": 7672,
      "ongevity": 7673,
      ">The": 7674,
      "Each": 7675,
      "Sm": 7676,
      "rane": 7677,
      "ville": 7678,
      "omin": 7679,
      "ceans": 7680,
      "ĠSl": 7681,
      "anta": 7682,
      "ĠRight": 7683,
      "Ġreson": 7684,
      "Ġspiders": 7685,
      "ints": 7686,
      "Ġgrams": 7687,
      "Ġdelicate": 7688,
      "Ġpasta": 7689,
      "Ġdescribes": 7690,
      "Ġseparation": 7691,
      "Ġdomain": 7692,
      "Ġallergies": 7693,
      "Ġarchitecture": 7694,
      "Ġsusceptible": 7695,
      "pie": 7696,
      "Ġtape": 7697,
      "Ġnor": 7698,
      "olph": 7699,
      "ĠCap": 7700,
      "nsure": 7701,
      "Ġdepartment": 7702,
      "Ġsheep": 7703,
      "Ġdrawn": 7704,
      "Ġconfident": 7705,
      "Ġcircle": 7706,
      "Ġpaying": 7707,
      "itudes": 7708,
      "scill": 7709,
      "Ġlimitations": 7710,
      "Ġunusual": 7711,
      ".'": 7712,
      ".org": 7713,
      "Does": 7714,
      "ĠÃ": 7715,
      "Ġcord": 7716,
      "ounce": 7717,
      "ĠTrue": 7718,
      "Ġenerg": 7719,
      "Ġcolumn": 7720,
      "obe": 7721,
      "Ġsupplements": 7722,
      "ĠChange": 7723,
      "idespread": 7724,
      "includ": 7725,
      "Ġmoments": 7726,
      "Ġoriginally": 7727,
      "Ġattractive": 7728,
      "Ġrarely": 7729,
      "Ġsenior": 7730,
      "ĠMuseum": 7731,
      "76": 7732,
      "kers": 7733,
      "Ġpix": 7734,
      "ili": 7735,
      "Ġgiant": 7736,
      "Ġstrict": 7737,
      "ĠIll": 7738,
      "ĠSocial": 7739,
      "Ġdeer": 7740,
      "Ġessentially": 7741,
      "Ġkilog": 7742,
      "Ġathletes": 7743,
      "OW": 7744,
      "Sim": 7745,
      "awn": 7746,
      "math": 7747,
      "ïĤ": 7748,
      "Ġpairs": 7749,
      "Ġinver": 7750,
      "Ġlapt": 7751,
      "Ġbeans": 7752,
      "ĠID": 7753,
      "ĠSqu": 7754,
      "Ġorient": 7755,
      "Ġexclus": 7756,
      "ĠMil": 7757,
      "ults": 7758,
      "Ġintervention": 7759,
      "-con": 7760,
      "arents": 7761,
      "reshold": 7762,
      "Ġobservations": 7763,
      "Ġroute": 7764,
      "Ġinitially": 7765,
      "Ġthoroughly": 7766,
      "Ġsummary": 7767,
      "Source": 7768,
      "lete": 7769,
      "Ġbeam": 7770,
      "Ġbeach": 7771,
      "ĠName": 7772,
      "Ġcloth": 7773,
      "ĠOh": 7774,
      "Ġpepper": 7775,
      "Ġsurge": 7776,
      "Ġrepairs": 7777,
      "Ġsuppli": 7778,
      "ĠAnimal": 7779,
      "Ġeaten": 7780,
      "Ġwarning": 7781,
      "flies": 7782,
      "Ġalgae": 7783,
      "Ġwelding": 7784,
      "Ġethanol": 7785,
      "Ġengagement": 7786,
      "ĠMicrosoft": 7787,
      "Hz": 7788,
      "IR": 7789,
      "LA": 7790,
      "Ġwidespread": 7791,
      "Ġpel": 7792,
      "ĠCN": 7793,
      "Ġexists": 7794,
      "ude": 7795,
      "ĠThanks": 7796,
      "Ġsoils": 7797,
      "ĠConst": 7798,
      "Ġenhancing": 7799,
      "Ġreturned": 7800,
      "PLD": 7801,
      "Ġperception": 7802,
      "Ġdoubt": 7803,
      "Ġoxidation": 7804,
      "ĠWindows": 7805,
      "Main": 7806,
      "Pr": 7807,
      "Red": 7808,
      "fill": 7809,
      "orus": 7810,
      "Ġdies": 7811,
      "Ġrender": 7812,
      "Ġgently": 7813,
      "uten": 7814,
      "pection": 7815,
      "ĠVit": 7816,
      "Ġguard": 7817,
      "Ġflows": 7818,
      "ĠPlay": 7819,
      "ĠPlace": 7820,
      "Ġinterests": 7821,
      "ĠLevel": 7822,
      "Ġdanger": 7823,
      "Ġaccepted": 7824,
      "ĠWildlife": 7825,
      "EP": 7826,
      "lock": 7827,
      "py": 7828,
      "press": 7829,
      "itution": 7830,
      "orrow": 7831,
      "edge": 7832,
      "Ġlact": 7833,
      "ĠAud": 7834,
      "Ġstars": 7835,
      "eli": 7836,
      "ogens": 7837,
      "ĠLeg": 7838,
      "Ġbuck": 7839,
      "Ġherbs": 7840,
      "ĠClub": 7841,
      "Ġindicated": 7842,
      "ĠKey": 7843,
      "Ġimplications": 7844,
      "Ġshopping": 7845,
      "Ġbleeding": 7846,
      "Ġincredibly": 7847,
      "Ġtone": 7848,
      "ĠSam": 7849,
      "tery": 7850,
      "erson": 7851,
      "Ġvine": 7852,
      "Ġru": 7853,
      "rous": 7854,
      "Ġteen": 7855,
      "Ġprovider": 7856,
      "Ġmoderate": 7857,
      "Ġphones": 7858,
      "Ġdefect": 7859,
      "rels": 7860,
      "Ġenhanced": 7861,
      "Ġemployed": 7862,
      "Ġgained": 7863,
      "Ġbulb": 7864,
      "ĠGeneral": 7865,
      "Ġvarying": 7866,
      "Ġbutterfly": 7867,
      "Ġdissol": 7868,
      "ĠGreek": 7869,
      "ĠDisease": 7870,
      "Ġoverwhel": 7871,
      "Ġunexpected": 7872,
      "Med": 7873,
      "Ġions": 7874,
      "Ġcub": 7875,
      "Ġdried": 7876,
      "Ġrear": 7877,
      "ĠAge": 7878,
      "Ġants": 7879,
      "Ġven": 7880,
      "ĠLou": 7881,
      "Ġdiffer": 7882,
      "Ġpharm": 7883,
      "Ġexamination": 7884,
      "Ġcorrosion": 7885,
      "Ġcomplement": 7886,
      "azine": 7887,
      "rigation": 7888,
      "Ġconversion": 7889,
      "Ġrepeat": 7890,
      "Ġscenario": 7891,
      "Ġaesthetic": 7892,
      "Ġcircumstances": 7893,
      "ĠFacebook": 7894,
      "kins": 7895,
      "pm": 7896,
      "Ġom": 7897,
      "Ġpod": 7898,
      "Ġfilling": 7899,
      "ouds": 7900,
      "Ġlymph": 7901,
      "Ġshock": 7902,
      "Ġcompress": 7903,
      "velength": 7904,
      "Ġdesigning": 7905,
      "ĠProcess": 7906,
      "Ġcenturies": 7907,
      "Ġhygien": 7908,
      "Ġeleph": 7909,
      "âĢ¦ĊĊ": 7910,
      "Ġversions": 7911,
      "Ġsnakes": 7912,
      "Ġstrengthen": 7913,
      "Ġmenu": 7914,
      "Ġroads": 7915,
      "Ġantibiotics": 7916,
      "Ġtomatoes": 7917,
      "live": 7918,
      "ĠÐ": 7919,
      "hea": 7920,
      "Ġgift": 7921,
      "ĠTips": 7922,
      "ĠBal": 7923,
      "Ġunknown": 7924,
      "Ġfever": 7925,
      "Ġregional": 7926,
      "Ġdirections": 7927,
      "ĠColl": 7928,
      "Ġvegetation": 7929,
      "Ġfootprint": 7930,
      "Ġmitig": 7931,
      "LC": 7932,
      "SP": 7933,
      "Ġsail": 7934,
      "Ġwax": 7935,
      "Ġwiring": 7936,
      "Ġber": 7937,
      "Ġfocal": 7938,
      "Ġranges": 7939,
      "ibration": 7940,
      "Ġscore": 7941,
      "Ġagent": 7942,
      "Ġrelation": 7943,
      "Ġdesigners": 7944,
      "ommun": 7945,
      "Ġeleg": 7946,
      "Expl": 7947,
      "Ġvisitors": 7948,
      "Ġpurchasing": 7949,
      "Ġfertilizers": 7950,
      "Ġgarlic": 7951,
      "list": 7952,
      "Ġwast": 7953,
      "Ġhang": 7954,
      "ĠMr": 7955,
      "ĠMont": 7956,
      "Ġplacing": 7957,
      "aren": 7958,
      "Ġspac": 7959,
      "Ġblades": 7960,
      "lectric": 7961,
      "Ġprone": 7962,
      "Ġbridge": 7963,
      "Ġcentre": 7964,
      "Ġpreparing": 7965,
      "Ġtrauma": 7966,
      "Ġaccomplish": 7967,
      ";ĊĊ": 7968,
      "Dis": 7969,
      "IV": 7970,
      "Ġbicy": 7971,
      "Ġmature": 7972,
      "leep": 7973,
      "roat": 7974,
      "ĠMa": 7975,
      "Ġranging": 7976,
      "Ġenzymes": 7977,
      "Ġdose": 7978,
      "ĠHol": 7979,
      "ĠEss": 7980,
      "obile": 7981,
      "ĠVir": 7982,
      "Ġvector": 7983,
      "Ġsensitivity": 7984,
      "Ġbiom": 7985,
      "Ġposts": 7986,
      "Ġmaintained": 7987,
      "Ġdocuments": 7988,
      "ĠSmith": 7989,
      "Ġneighbor": 7990,
      "Ġsediment": 7991,
      "Ġdisposal": 7992,
      ".D": 7993,
      "Part": 7994,
      "UC": 7995,
      "zil": 7996,
      "Ġeast": 7997,
      "Ġlongevity": 7998,
      "ĠSand": 7999,
      "ĠMax": 8000,
      "ĠFin": 8001,
      "weet": 8002,
      "necess": 8003,
      "Ġexperimental": 8004,
      "Ġdecade": 8005,
      "Ġpresents": 8006,
      "Ġoptical": 8007,
      "Ġcontributes": 8008,
      "Ġfuels": 8009,
      "Ġtotally": 8010,
      "ĠCoast": 8011,
      "Ġsuspect": 8012,
      "esterol": 8013,
      "Ġboundaries": 8014,
      "Ġfacilitate": 8015,
      "Ġreturns": 8016,
      "aucoma": 8017,
      "Ġintegrity": 8018,
      "Car": 8019,
      "Ref": 8020,
      "Up": 8021,
      "do": 8022,
      "paper": 8023,
      "rument": 8024,
      "ya": 8025,
      "Â®": 8026,
      "oning": 8027,
      "Ġpond": 8028,
      "Ġpipes": 8029,
      "Ġbin": 8030,
      "Ġtoile": 8031,
      "Ġthreshold": 8032,
      "rained": 8033,
      "Ġstead": 8034,
      "ĠIdent": 8035,
      "sey": 8036,
      "Ġchop": 8037,
      "Ġcompat": 8038,
      "Ġformal": 8039,
      "Ġdiscipl": 8040,
      "Ġpreserve": 8041,
      "Ġcataly": 8042,
      "ĠReview": 8043,
      "ĠIndust": 8044,
      "ĠZeal": 8045,
      "ĠEngineering": 8046,
      "Ġinsulin": 8047,
      "Ġsatellite": 8048,
      "oir": 8049,
      "âŁ": 8050,
      "ĠAccess": 8051,
      "Ġstones": 8052,
      "ami": 8053,
      "ĠMor": 8054,
      "Ġchair": 8055,
      "Ġimper": 8056,
      "Ġscar": 8057,
      "ĠVict": 8058,
      "Ġprotocol": 8059,
      "Ġtreating": 8060,
      "Ġerosion": 8061,
      "Ġoptimize": 8062,
      "Ġthreats": 8063,
      "Ġethical": 8064,
      "Ġelectronics": 8065,
      "Ġgirl": 8066,
      "gypt": 8067,
      "otherapy": 8068,
      "medi": 8069,
      "Ġ%": 8070,
      "Ġborder": 8071,
      "Ġfract": 8072,
      "Ġine": 8073,
      "Ġlung": 8074,
      "this": 8075,
      "ĠList": 8076,
      "Ġagents": 8077,
      "Ġcorrel": 8078,
      "Ġentering": 8079,
      "Ġprofile": 8080,
      "Ġcyber": 8081,
      "Ġconsuming": 8082,
      "afe": 8083,
      "Ġmarking": 8084,
      "Ġwarmer": 8085,
      "aska": 8086,
      "ĠImport": 8087,
      "ATION": 8088,
      "Ġimplementing": 8089,
      "ogenic": 8090,
      "Ġsplit": 8091,
      "ĠPresident": 8092,
      "Ġsubstantial": 8093,
      "84": 8094,
      "Scient": 8095,
      "pill": 8096,
      "Ġic": 8097,
      "Ġfaces": 8098,
      "rots": 8099,
      "Ġstations": 8100,
      "Ġstuck": 8101,
      "Ġstunning": 8102,
      "Ġalive": 8103,
      "izz": 8104,
      "ruit": 8105,
      "Ġtransplant": 8106,
      "Inst": 8107,
      "Ġcellular": 8108,
      "egin": 8109,
      "ĠClimate": 8110,
      "Ġstraw": 8111,
      "ometry": 8112,
      "Ġrecycled": 8113,
      "Ġsuddenly": 8114,
      "Ġthyroid": 8115,
      "Ġsoci": 8116,
      "aters": 8117,
      "Ġbub": 8118,
      "Ġbull": 8119,
      "Ġlivestock": 8120,
      "oted": 8121,
      "Ġchip": 8122,
      "riz": 8123,
      "ĠRNA": 8124,
      "Ġtear": 8125,
      "Ġtracking": 8126,
      "atively": 8127,
      "Ġclassified": 8128,
      "ĠThough": 8129,
      "Ġcris": 8130,
      "Ġletters": 8131,
      "Ġaccessories": 8132,
      "Ġinvesting": 8133,
      "Ġpersonalized": 8134,
      "Ġvacuum": 8135,
      "Ġlogic": 8136,
      "Ġdiagnosed": 8137,
      "ĠTraining": 8138,
      "Comp": 8139,
      "Ġliterally": 8140,
      "Ġhouses": 8141,
      "Ġaluminum": 8142,
      "Ġillegal": 8143,
      "ki": 8144,
      "Ġsaving": 8145,
      "Ġcro": 8146,
      "ita": 8147,
      "Ġinhab": 8148,
      "uster": 8149,
      "ĠCamp": 8150,
      "ĠPan": 8151,
      "Ġneural": 8152,
      "Ġrooms": 8153,
      "Ġswelling": 8154,
      "Ġconsumed": 8155,
      "Ġfacility": 8156,
      "Ġthreatened": 8157,
      "Ġevolutionary": 8158,
      "Ġreveal": 8159,
      "Ġsurprising": 8160,
      "Keep": 8161,
      "orgia": 8162,
      "Ġhonest": 8163,
      "Ġresilience": 8164,
      "Ġlaunched": 8165,
      "TM": 8166,
      "encing": 8167,
      "istan": 8168,
      "ĠPython": 8169,
      "ĠDifferent": 8170,
      "ĠFil": 8171,
      "ĠJe": 8172,
      "Ġtechnological": 8173,
      "Ġgoods": 8174,
      "Ġengaged": 8175,
      "ĠThree": 8176,
      "ĠWithout": 8177,
      "Ġfalling": 8178,
      "Ġurine": 8179,
      "Ġscreening": 8180,
      "Ġimplemented": 8181,
      "Ġseedlings": 8182,
      "ĠAmazon": 8183,
      "Ġchickens": 8184,
      "ĠBritain": 8185,
      "ĠSystems": 8186,
      "Ġhazard": 8187,
      "Remember": 8188,
      "Ġfreedom": 8189,
      "-a": 8190,
      "/m": 8191,
      "TR": 8192,
      "Trans": 8193,
      "Ġtension": 8194,
      "Ġacknow": 8195,
      "Ġfalse": 8196,
      "Ġfriction": 8197,
      "Ġloud": 8198,
      "omas": 8199,
      "utter": 8200,
      "ĠAp": 8201,
      "ĠPress": 8202,
      "Ġroughly": 8203,
      "ĠDen": 8204,
      "ĠNumber": 8205,
      "Ġdesk": 8206,
      "ĠVen": 8207,
      "Ġremed": 8208,
      "Ġinstrum": 8209,
      "Ġequally": 8210,
      "Ġdelight": 8211,
      "Ġreviews": 8212,
      "stein": 8213,
      "Ġreligious": 8214,
      "Ġmortality": 8215,
      "Ġdimensions": 8216,
      "ĠZealand": 8217,
      "Vs": 8218,
      "mers": 8219,
      "rin": 8220,
      "Ġpra": 8221,
      "Ġbears": 8222,
      "Ġrib": 8223,
      "Ġapps": 8224,
      "cycle": 8225,
      "Ġsimulation": 8226,
      "everal": 8227,
      "-sized": 8228,
      "Ġcuts": 8229,
      "auge": 8230,
      "Ġforecast": 8231,
      "Ġoxide": 8232,
      "Ġprinted": 8233,
      "Ġcovering": 8234,
      "Ġheavily": 8235,
      "Ġmolecule": 8236,
      "Ġgolden": 8237,
      "Ġdiamond": 8238,
      "ĠPCB": 8239,
      "Ġbattle": 8240,
      "Ġfrust": 8241,
      "Ġscenarios": 8242,
      "Ġinstitutions": 8243,
      "Ġconflict": 8244,
      "Related": 8245,
      "ju": 8246,
      "look": 8247,
      "heat": 8248,
      "Ġcash": 8249,
      "Ġwires": 8250,
      "Ġhal": 8251,
      "ĠIce": 8252,
      "irts": 8253,
      "empl": 8254,
      "ockey": 8255,
      "ideo": 8256,
      "Ġclay": 8257,
      "chnology": 8258,
      "Ġmodified": 8259,
      "Ġgenerator": 8260,
      "Ġsetup": 8261,
      "Ġidentification": 8262,
      "Ġobjective": 8263,
      "Ġmarks": 8264,
      "-making": 8265,
      "Ġgrey": 8266,
      "ometers": 8267,
      "****": 8268,
      "Ġmatrix": 8269,
      "-out": 8270,
      "hma": 8271,
      "oil": 8272,
      "Ġsink": 8273,
      "Ġcer": 8274,
      "Ġpose": 8275,
      "Ġbills": 8276,
      "asant": 8277,
      "Ġfort": 8278,
      "Ġstir": 8279,
      "ĠMag": 8280,
      "ĠDan": 8281,
      "ĠEffect": 8282,
      "Ġtrial": 8283,
      "pha": 8284,
      "Ġpotassium": 8285,
      "ĠSoft": 8286,
      "Ġworkshop": 8287,
      "Ġera": 8288,
      "Ġcontrolling": 8289,
      "Ġadopted": 8290,
      "Ġdynamics": 8291,
      "Ġcomplications": 8292,
      "Ġcandid": 8293,
      "Ġtubes": 8294,
      "rapeut": 8295,
      "ĠCarolina": 8296,
      "Ġframework": 8297,
      "Go": 8298,
      "lation": 8299,
      "Ġpus": 8300,
      "Ġpitch": 8301,
      "Ġgram": 8302,
      "estone": 8303,
      "ĠHyd": 8304,
      "Ġsoy": 8305,
      "Ġspecified": 8306,
      "Ġguys": 8307,
      "Ġrealistic": 8308,
      "Ġmindful": 8309,
      "Ġlift": 8310,
      "Ġautomatic": 8311,
      "Ġpromotes": 8312,
      "Ġsharks": 8313,
      "Ġconvenience": 8314,
      "ĠDavid": 8315,
      "Ġantenna": 8316,
      "-L": 8317,
      "Fl": 8318,
      "She": 8319,
      "yard": 8320,
      "heast": 8321,
      "rey": 8322,
      "Ġoceans": 8323,
      "Ġdiving": 8324,
      "usive": 8325,
      "Ġheater": 8326,
      "Ġdeploy": 8327,
      "acles": 8328,
      "ĠMass": 8329,
      "ĠNorthern": 8330,
      "ĠLead": 8331,
      "Ġspider": 8332,
      "Ġuniversity": 8333,
      "bert": 8334,
      "ĠYet": 8335,
      "ubric": 8336,
      "Ġnewly": 8337,
      "Ġdevelopers": 8338,
      "Ġediting": 8339,
      "Ġbasics": 8340,
      "Ġcirculation": 8341,
      "ĠEarly": 8342,
      "Ġspreading": 8343,
      "ĠNeed": 8344,
      "Ġtailored": 8345,
      "Ġconverted": 8346,
      "Ġphotographs": 8347,
      "ĠDirector": 8348,
      "-known": 8349,
      "Ear": 8350,
      "cos": 8351,
      "ui": 8352,
      "icit": 8353,
      "Ġlake": 8354,
      "Ġlikes": 8355,
      "oline": 8356,
      "ĠMo": 8357,
      "ĠFlow": 8358,
      "Ġspending": 8359,
      "Ġtrace": 8360,
      "tee": 8361,
      "ĠKore": 8362,
      "Ġvegan": 8363,
      "Ġautonom": 8364,
      "ĠThink": 8365,
      "Ġcurrents": 8366,
      "Ġrestore": 8367,
      "Ġspecialist": 8368,
      "cribe": 8369,
      "Ġchecked": 8370,
      "Ġrepresentation": 8371,
      "umbing": 8372,
      "Ġwondering": 8373,
      "Ġstatist": 8374,
      "Ġthorough": 8375,
      "Ġstruggle": 8376,
      "osaurs": 8377,
      "Ġtomato": 8378,
      "PE": 8379,
      "Table": 8380,
      "iological": 8381,
      "power": 8382,
      "Ġcock": 8383,
      "Ġoz": 8384,
      "aria": 8385,
      "ilib": 8386,
      "ĠIde": 8387,
      "ĠMiddle": 8388,
      "Ġencl": 8389,
      "ĠDisc": 8390,
      "Ġmanager": 8391,
      "ĠIncre": 8392,
      "Ġremind": 8393,
      "Ġdecom": 8394,
      "Ġgloves": 8395,
      "Ġpreschool": 8396,
      "Ġlock": 8397,
      "Ġpainful": 8398,
      "Ġdemands": 8399,
      "Ġimprovements": 8400,
      "appy": 8401,
      "ĠDespite": 8402,
      "Ġcrystal": 8403,
      "Ġfingers": 8404,
      "Ne": 8405,
      "Post": 8406,
      "Ġtheories": 8407,
      "Ġslic": 8408,
      "Ġwra": 8409,
      "Ġwider": 8410,
      "Ġpip": 8411,
      "Ġbol": 8412,
      "Ġmg": 8413,
      "Ġreven": 8414,
      "Ġnine": 8415,
      "ady": 8416,
      "ĠCurrent": 8417,
      "ĠPD": 8418,
      "ĠPaul": 8419,
      "Ġrough": 8420,
      "ĠFed": 8421,
      "Ġperm": 8422,
      "Ġcharging": 8423,
      "Ġadvis": 8424,
      "Ġapproved": 8425,
      "Ġcombat": 8426,
      "Ġoccurring": 8427,
      "Ġradi": 8428,
      "Ġwinds": 8429,
      "Ġbrother": 8430,
      "Ġhearts": 8431,
      "Ġutilize": 8432,
      "ummary": 8433,
      "Ġdollars": 8434,
      "(a": 8435,
      "VAC": 8436,
      "green": 8437,
      "uke": 8438,
      "Ġcure": 8439,
      "Ġoscill": 8440,
      "oral": 8441,
      "Ġmosquit": 8442,
      "eting": 8443,
      "aby": 8444,
      "Ġheal": 8445,
      "âĢľ": 8446,
      "ovascular": 8447,
      "Ġcurious": 8448,
      "Ġanalys": 8449,
      "Ġwavelength": 8450,
      "ĠBrazil": 8451,
      "Ġescape": 8452,
      "Ġcholesterol": 8453,
      "Ġforced": 8454,
      "heric": 8455,
      "ĠHelp": 8456,
      "ptom": 8457,
      "ĠEgypt": 8458,
      "ogue": 8459,
      "redit": 8460,
      "apse": 8461,
      "aryn": 8462,
      "Ġsomewhere": 8463,
      "Ġparties": 8464,
      "Ġtract": 8465,
      "Ġregulation": 8466,
      "Ġcheaper": 8467,
      "Ġfinds": 8468,
      "Ġearn": 8469,
      "ĠUnfortunately": 8470,
      "Ġorganism": 8471,
      "Ġimproves": 8472,
      "Ġsensory": 8473,
      "Ġobservation": 8474,
      "ĠMean": 8475,
      "ĠStudies": 8476,
      "Ġmeaningful": 8477,
      "Ġreliability": 8478,
      "Ġpenet": 8479,
      "Ġupdates": 8480,
      "Ġconversation": 8481,
      "ĠForest": 8482,
      "ĠNetwork": 8483,
      "Ġempty": 8484,
      "Ac": 8485,
      "Act": 8486,
      "PD": 8487,
      "oids": 8488,
      "Ġbunch": 8489,
      "Ġfraction": 8490,
      "Ġinn": 8491,
      "ione": 8492,
      "lear": 8493,
      "Ġlosing": 8494,
      "Ġnone": 8495,
      "ithium": 8496,
      "ĠUN": 8497,
      "Ġsheets": 8498,
      "Ġcharged": 8499,
      "gency": 8500,
      "Add": 8501,
      "ĠGlobal": 8502,
      "Ġpushing": 8503,
      "Ġspiritual": 8504,
      "Ġstretch": 8505,
      "Ġfeathers": 8506,
      "Ġcitizens": 8507,
      "High": 8508,
      "Like": 8509,
      "Ġtou": 8510,
      "Ġwine": 8511,
      "omal": 8512,
      "uty": 8513,
      "ĠTable": 8514,
      "Ġster": 8515,
      "ĠMult": 8516,
      "Ġplastics": 8517,
      "Ġbutt": 8518,
      "ĠItaly": 8519,
      "phones": 8520,
      "owners": 8521,
      "Ġdifferently": 8522,
      "Ġconsistency": 8523,
      "Ġsilicon": 8524,
      "Ġcommitted": 8525,
      "ĠModel": 8526,
      "ĠChristmas": 8527,
      "Art": 8528,
      "Ġfoam": 8529,
      "Ġproportion": 8530,
      "ĠAgriculture": 8531,
      "Ġfantastic": 8532,
      "$\\": 8533,
      "-off": 8534,
      "Am": 8535,
      "Last": 8536,
      "Take": 8537,
      "eness": 8538,
      "etime": 8539,
      "ĠIr": 8540,
      "ĠSign": 8541,
      "ĠFollow": 8542,
      "Ġarts": 8543,
      "Ġunderwater": 8544,
      "Ġextension": 8545,
      "Ġcontained": 8546,
      "Ġgran": 8547,
      "Ġobjectives": 8548,
      "ĠCentre": 8549,
      "Ġcookies": 8550,
      "Ġintegration": 8551,
      "Ġquantities": 8552,
      "Ġdeaths": 8553,
      "Ġrainfall": 8554,
      "Ġupdate": 8555,
      "Ġupdated": 8556,
      "Researchers": 8557,
      "Ġmetabolism": 8558,
      "MA": 8559,
      "born": 8560,
      "Ġarom": 8561,
      "Ġwing": 8562,
      "nds": 8563,
      "ĠSn": 8564,
      "Ġrating": 8565,
      "Ġatom": 8566,
      "Ġplates": 8567,
      "Ġworst": 8568,
      "endar": 8569,
      "Ġjaw": 8570,
      "Ġspan": 8571,
      "Ġpeppers": 8572,
      "Ġpron": 8573,
      "Ġreprodu": 8574,
      "Ġinsight": 8575,
      "Ġreflection": 8576,
      "Ġenvironmentally": 8577,
      "Ġdefault": 8578,
      "Ġcircuits": 8579,
      "Ġassociation": 8580,
      "Ġlabels": 8581,
      "Ġconditioning": 8582,
      "Ġenjoyed": 8583,
      "Ġexpectations": 8584,
      "Ġrepresented": 8585,
      "Ġpriority": 8586,
      "Ġmistakes": 8587,
      "levision": 8588,
      "Ġpartnership": 8589,
      "Introduction": 8590,
      "%,": 8591,
      "%.": 8592,
      "hand": 8593,
      "Ġtrick": 8594,
      "Ġsulf": 8595,
      "Ġpaste": 8596,
      "Ġdil": 8597,
      "Ġlin": 8598,
      "lymp": 8599,
      "Ġstiff": 8600,
      "ĠSolar": 8601,
      "Ġrhy": 8602,
      "Ġdrinks": 8603,
      "Ġperforming": 8604,
      "ercury": 8605,
      "Ġprobability": 8606,
      "ĠImp": 8607,
      "ĠSmall": 8608,
      "Ġsavings": 8609,
      "-r": 8610,
      "Hi": 8611,
      "han": 8612,
      "à¤": 8613,
      "Ġcough": 8614,
      "icul": 8615,
      "road": 8616,
      "ashes": 8617,
      "asma": 8618,
      "Ġstains": 8619,
      "Ġraising": 8620,
      "Ġsurve": 8621,
      "Ġcenters": 8622,
      "Ġcondens": 8623,
      "Ġadapted": 8624,
      "Ġthousand": 8625,
      "Ġfighting": 8626,
      "Ġaquatic": 8627,
      "See": 8628,
      "ket": 8629,
      "vas": 8630,
      "Ġcigaret": 8631,
      "Ġharsh": 8632,
      "Ġepid": 8633,
      "ĠCong": 8634,
      "pecies": 8635,
      "ĠDid": 8636,
      "ĠHon": 8637,
      "ĠFact": 8638,
      "ĠEU": 8639,
      "ĠLand": 8640,
      "Ġtech": 8641,
      "Ġdischarge": 8642,
      "Ġquarter": 8643,
      "rowave": 8644,
      "Ġbusy": 8645,
      "Ġimmers": 8646,
      "Ġturb": 8647,
      "Additionally": 8648,
      "Ġseriously": 8649,
      "Ġhunt": 8650,
      "Ġabsorption": 8651,
      "amboo": 8652,
      "Ġinfluenced": 8653,
      "Ġcrisis": 8654,
      "SL": 8655,
      "aque": 8656,
      "hi": 8657,
      "Ġ**": 8658,
      "rets": 8659,
      "Ġwrap": 8660,
      "Ġpour": 8661,
      "alm": 8662,
      "Ġhat": 8663,
      "Ġlighter": 8664,
      "Ġgap": 8665,
      "ĠSym": 8666,
      "Ġorbit": 8667,
      "ivered": 8668,
      "Ġvan": 8669,
      "arten": 8670,
      "Ġimaging": 8671,
      "actions": 8672,
      "Ġmeets": 8673,
      "rug": 8674,
      "Ġcoating": 8675,
      "riting": 8676,
      "Ġachieving": 8677,
      "Ġirrigation": 8678,
      "Ġinspired": 8679,
      "Abstract": 8680,
      "ĠSupport": 8681,
      "\".Ċ": 8682,
      "rd": 8683,
      "Ġfif": 8684,
      "Ġhus": 8685,
      "Ġrent": 8686,
      "ĠBur": 8687,
      "ĠRen": 8688,
      "ĠNO": 8689,
      "Ġscreens": 8690,
      "Ġeverywhere": 8691,
      "Ġinstrument": 8692,
      "Ġexamined": 8693,
      "Ġglaucoma": 8694,
      "Ġtempl": 8695,
      "Ġstatements": 8696,
      "Ġgrounds": 8697,
      "Ġwelcome": 8698,
      "Ġhighlights": 8699,
      "ltry": 8700,
      "Ġmetabolic": 8701,
      "Ġuniversities": 8702,
      "Check": 8703,
      "Ġhygiene": 8704,
      "necessary": 8705,
      "-rich": 8706,
      ">ĊĊ": 8707,
      "Co": 8708,
      "hire": 8709,
      "oa": 8710,
      "Ġtorn": 8711,
      "omer": 8712,
      "etite": 8713,
      "Ġbeat": 8714,
      "ston": 8715,
      "olves": 8716,
      "ested": 8717,
      "Ġchart": 8718,
      "Ġcomparing": 8719,
      "ĠNever": 8720,
      "Ġadverse": 8721,
      "ĠOld": 8722,
      "Ġrose": 8723,
      "Ġthank": 8724,
      "Ġindeed": 8725,
      "Ġdecay": 8726,
      "ventions": 8727,
      "Ġglue": 8728,
      "-cont": 8729,
      "Ġfreezing": 8730,
      "Ġviral": 8731,
      "Ġbulbs": 8732,
      "Ġsurroundings": 8733,
      "ĠServices": 8734,
      "ĠCommunity": 8735,
      "Ġhorizontal": 8736,
      "Ġpotatoes": 8737,
      "Ġsimultaneously": 8738,
      "AF": 8739,
      "Av": 8740,
      "BM": 8741,
      "MO": 8742,
      "iable": 8743,
      "ener": 8744,
      "Ġbon": 8745,
      "una": 8746,
      "Ġseasons": 8747,
      "ĠHaving": 8748,
      "ĠNext": 8749,
      "Ġscales": 8750,
      "Ġoffic": 8751,
      "Ġvariation": 8752,
      "Ġgrab": 8753,
      "Ġautism": 8754,
      "Ġsafer": 8755,
      "Ġcombinations": 8756,
      "being": 8757,
      "Ġstops": 8758,
      "Ġlandscapes": 8759,
      "ĠChristian": 8760,
      "Ġsatisfact": 8761,
      "Ġdatabase": 8762,
      "cat": 8763,
      "was": 8764,
      "Ġsne": 8765,
      "Ġpy": 8766,
      "Ġlig": 8767,
      "elcome": 8768,
      "ĠCut": 8769,
      "perm": 8770,
      "Ġthereby": 8771,
      "Ġtracks": 8772,
      "Ġregulate": 8773,
      "Ġmyth": 8774,
      "Ġacute": 8775,
      "ĠHead": 8776,
      "Ġzones": 8777,
      "ĠSelect": 8778,
      "Ġmoon": 8779,
      "Ġdrops": 8780,
      "ĠBetween": 8781,
      "Ġguarantee": 8782,
      "ilibrium": 8783,
      "Please": 8784,
      "best": 8785,
      "dit": 8786,
      "Ġcuis": 8787,
      "esis": 8788,
      "Ġwife": 8789,
      "Ġwitness": 8790,
      "Ġpor": 8791,
      "Ġlie": 8792,
      "Ġgaming": 8793,
      "Ġsuc": 8794,
      "Ġatomic": 8795,
      "ript": 8796,
      "agen": 8797,
      "Ġcontamination": 8798,
      "text": 8799,
      "rame": 8800,
      "Ġproductive": 8801,
      "Ġgrid": 8802,
      "ĠPlus": 8803,
      "Start": 8804,
      "Ġfourth": 8805,
      "ĠSpanish": 8806,
      "Ġtraveling": 8807,
      "ĠMaybe": 8808,
      "Ġpredicted": 8809,
      "Ġinvestigation": 8810,
      "Ġfigures": 8811,
      "Ġculinary": 8812,
      "tebrates": 8813,
      "Ġprescribed": 8814,
      "Ġjewel": 8815,
      "oop": 8816,
      "Ġtab": 8817,
      "owing": 8818,
      "Ġstabil": 8819,
      "ĠMethod": 8820,
      "ĠHy": 8821,
      "occ": 8822,
      "ĠFish": 8823,
      "Ġmaps": 8824,
      "arding": 8825,
      "ĠRoman": 8826,
      "Ġking": 8827,
      "Ġindirect": 8828,
      "Ġextinction": 8829,
      "Ġslight": 8830,
      "Ġdelivered": 8831,
      "Ġlayout": 8832,
      "Ġrequirement": 8833,
      "ĠArthur": 8834,
      "Ġtelling": 8835,
      "Ġembed": 8836,
      "Ġqualities": 8837,
      "Ġexceptional": 8838,
      "Ġisolated": 8839,
      "Ġrestrictions": 8840,
      "Ġluxury": 8841,
      "ĠGovernment": 8842,
      "including": 8843,
      "\"?": 8844,
      "Eng": 8845,
      "Man": 8846,
      "Ġaids": 8847,
      "Ġsoc": 8848,
      "Ġfence": 8849,
      "Ġmud": 8850,
      "Ġmuc": 8851,
      "utri": 8852,
      "Ġwithstand": 8853,
      "Ġasp": 8854,
      "Ġalert": 8855,
      "ĠCra": 8856,
      "Ġhem": 8857,
      "ĠBul": 8858,
      "ĠBrown": 8859,
      "ustion": 8860,
      "Ġcontemporary": 8861,
      "Ġdisadvant": 8862,
      "ĠUlt": 8863,
      "Ġoverview": 8864,
      "Ġrecre": 8865,
      "Ġcalling": 8866,
      "Ġsuggestions": 8867,
      "Ġcharacteristic": 8868,
      "Ġparticipation": 8869,
      "Ġutility": 8870,
      "ĠTrust": 8871,
      "Ġaccounts": 8872,
      "Ġtargets": 8873,
      "Ġemerging": 8874,
      "-step": 8875,
      "ĠAutom": 8876,
      "Ġfossils": 8877,
      "Ġcycling": 8878,
      "ĠColorado": 8879,
      "uzzle": 8880,
      "ĠDIY": 8881,
      "UN": 8882,
      "pher": 8883,
      "Ġafra": 8884,
      "isk": 8885,
      "imp": 8886,
      "sters": 8887,
      "ĠAcc": 8888,
      "ayer": 8889,
      "ĠRF": 8890,
      "Ġtiming": 8891,
      "ĠUt": 8892,
      "Ġwhenever": 8893,
      "Ġregister": 8894,
      "ĠVer": 8895,
      "Ġreproductive": 8896,
      "Ġprescription": 8897,
      "Ġdistances": 8898,
      "Ġvisually": 8899,
      "Ġcourt": 8900,
      "Ġanticip": 8901,
      "Ġradical": 8902,
      "Ġreplacing": 8903,
      "Ġviewed": 8904,
      "Ġcriteria": 8905,
      "Ġembod": 8906,
      "ĠApple": 8907,
      "Ġaimed": 8908,
      "Ġadoption": 8909,
      "rolled": 8910,
      "imensional": 8911,
      "Ġinitiative": 8912,
      "Consider": 8913,
      "Ġcardiovascular": 8914,
      "Ġappointment": 8915,
      "ĠVictor": 8916,
      "Ġafraid": 8917,
      "OM": 8918,
      "oned": 8919,
      "Ġgem": 8920,
      "romagnetic": 8921,
      "ĠBuilding": 8922,
      "ĠHand": 8923,
      "alling": 8924,
      "Ġsof": 8925,
      "Ġimpressive": 8926,
      "ifference": 8927,
      "Ġschem": 8928,
      "formance": 8929,
      "ĠKen": 8930,
      "Ġstrange": 8931,
      "Ġmush": 8932,
      "Ġappeared": 8933,
      "ĠContact": 8934,
      "Ġencourages": 8935,
      "Ġanalyzed": 8936,
      "Ġpowered": 8937,
      "Ġaxis": 8938,
      "CR": 8939,
      "net": 8940,
      "oosing": 8941,
      "Ġtens": 8942,
      "erted": 8943,
      "Ġwound": 8944,
      "itory": 8945,
      "Ġpill": 8946,
      "Ġpine": 8947,
      "Ġbinding": 8948,
      "Ġlatter": 8949,
      "Ġnarr": 8950,
      "otypes": 8951,
      "Ġstake": 8952,
      "Ġash": 8953,
      "Ġlean": 8954,
      "ĠLake": 8955,
      "Ġunp": 8956,
      "Ġrope": 8957,
      "Ġtrunk": 8958,
      "ĠJew": 8959,
      "ĠWeek": 8960,
      "Ġdefense": 8961,
      "Ġdelve": 8962,
      "ustainable": 8963,
      "Who": 8964,
      "Ġmagnesium": 8965,
      "Ġcaptured": 8966,
      "Ġconcentrations": 8967,
      "ï¿½ï¿½ï¿½ï¿½": 8968,
      "Ġadopt": 8969,
      "working": 8970,
      "Ġwireless": 8971,
      "Ġsemi": 8972,
      "Ġconstructed": 8973,
      "Ġtransparent": 8974,
      "Ġtackle": 8975,
      "Ġmulch": 8976,
      "df": 8977,
      "Ġtrib": 8978,
      "reet": 8979,
      "erver": 8980,
      "Ġinh": 8981,
      "ĠSen": 8982,
      "Ġshallow": 8983,
      "ags": 8984,
      "ĠGal": 8985,
      "Ġuncertain": 8986,
      "Ġagencies": 8987,
      "Ġtemporary": 8988,
      "Ġultimate": 8989,
      "Ġhormones": 8990,
      "Ġdatas": 8991,
      "Ġdeficiency": 8992,
      "Ġdisplays": 8993,
      "Ġmethane": 8994,
      "//": 8995,
      "birds": 8996,
      "Ð¸": 8997,
      "Ġsending": 8998,
      "ednes": 8999,
      "Ġhatch": 9000,
      "Ġrehab": 9001,
      "Ġgly": 9002,
      "ĠRE": 9003,
      "Then": 9004,
      "ĠLess": 9005,
      "ĠStar": 9006,
      "Ġprocessor": 9007,
      "Ġeastern": 9008,
      "Ġedit": 9009,
      "-dr": 9010,
      "ĠImpro": 9011,
      "Ġutilized": 9012,
      "innitus": 9013,
      "Ġtorque": 9014,
      "Ġcasual": 9015,
      "Ġsubsequent": 9016,
      "ranean": 9017,
      "CE": 9018,
      "PU": 9019,
      "Sub": 9020,
      "VER": 9021,
      "sen": 9022,
      "trans": 9023,
      "heel": 9024,
      "Ġdating": 9025,
      "leg": 9026,
      "cho": 9027,
      "ĠSouthern": 9028,
      "ĠPM": 9029,
      "Ġchains": 9030,
      "Ġseaf": 9031,
      "ĠDigital": 9032,
      "ĠHor": 9033,
      "ĠOx": 9034,
      "ĠOlymp": 9035,
      "Ġapple": 9036,
      "arians": 9037,
      "ĠKit": 9038,
      "Ġpots": 9039,
      "ĠResp": 9040,
      "Ġminds": 9041,
      "Ġfluctu": 9042,
      "Ġmagnitude": 9043,
      "Ġbreakfast": 9044,
      "Ġfreshwater": 9045,
      "Ġadjustments": 9046,
      "Ġappliances": 9047,
      "Ġdebate": 9048,
      "Ġtoilet": 9049,
      ".)Ċ": 9050,
      "Follow": 9051,
      "rons": 9052,
      "worm": 9053,
      "Ġtact": 9054,
      "Ġlists": 9055,
      "Ġlubric": 9056,
      "imeter": 9057,
      "Ġforg": 9058,
      "ĠSy": 9059,
      "ĠFig": 9060,
      "ptions": 9061,
      "ĠRober": 9062,
      "Ġdisability": 9063,
      "ĠJo": 9064,
      "Ġamino": 9065,
      "Ġdiarr": 9066,
      "blem": 9067,
      "inson": 9068,
      "Ġreadily": 9069,
      "Ġcleaner": 9070,
      "Ġcattle": 9071,
      "Ġposted": 9072,
      "Ġenhances": 9073,
      "Ġseparated": 9074,
      "Ġannounced": 9075,
      "Ġtargeted": 9076,
      "Ġfailed": 9077,
      "Ġpulling": 9078,
      "Ġdrople": 9079,
      "Ġdinner": 9080,
      "ĠVirgin": 9081,
      "\")": 9082,
      "Phys": 9083,
      "SM": 9084,
      "isco": 9085,
      "Ġdaughter": 9086,
      "Ġstere": 9087,
      "Ġaside": 9088,
      "abul": 9089,
      "ĠWin": 9090,
      "opia": 9091,
      "osaur": 9092,
      "ĠFire": 9093,
      "Ġupl": 9094,
      "elled": 9095,
      "eps": 9096,
      "ĠYeah": 9097,
      "Ġarise": 9098,
      "Ġindoors": 9099,
      "Ġcaring": 9100,
      "ĠUnion": 9101,
      "Ġdistrict": 9102,
      "Ġcostly": 9103,
      "Ġidentical": 9104,
      "Ġcycles": 9105,
      "-powered": 9106,
      "Ġpasses": 9107,
      "Ġfacial": 9108,
      "Ġstopped": 9109,
      "Ġmatters": 9110,
      "Ġfunds": 9111,
      "Ġinjured": 9112,
      "ependent": 9113,
      "ĠÂ·": 9114,
      "ĠGrand": 9115,
      "Ġenthusiasts": 9116,
      "Ġprolong": 9117,
      "iage": 9118,
      "Ġtent": 9119,
      "erge": 9120,
      "Ġsin": 9121,
      "Ġoct": 9122,
      "isters": 9123,
      "Ġfats": 9124,
      "Ġthroat": 9125,
      "raul": 9126,
      "ĠIT": 9127,
      "Ġcann": 9128,
      "acon": 9129,
      "ĠPur": 9130,
      "Ġ(\"": 9131,
      "Ġrats": 9132,
      "Ġchips": 9133,
      "ĠDO": 9134,
      "agus": 9135,
      "oof": 9136,
      "Ġspinal": 9137,
      "Ġpartial": 9138,
      "Ġagency": 9139,
      "ĠVari": 9140,
      "Ġtempor": 9141,
      "Ġrealized": 9142,
      "Ġfatal": 9143,
[...]
