{
  "version": "1.0",
  "truncation": null,
  "padding": null,
  "added_tokens": [
    {
      "id": 0,
      "content": "<|bos|>",
      "single_word": false,
      "lstrip": false,
      "rstrip": false,
      "normalized": false,
      "special": true
    },
    {
      "id": 1,
      "content": "<|user_start|>",
      "single_word": false,
      "lstrip": false,
      "rstrip": false,
      "normalized": false,
      "special": true
    },
    {
      "id": 2,
      "content": "<|user_end|>",
      "single_word": false,
      "lstrip": false,
      "rstrip": false,
      "normalized": false,
      "special": true
    },
    {
      "id": 3,
      "content": "<|assistant_start|>",
      "single_word": false,
      "lstrip": false,
      "rstrip": false,
      "normalized": false,
      "special": true
    },
    {
      "id": 4,
      "content": "<|assistant_end|>",
      "single_word": false,
      "lstrip": false,
      "rstrip": false,
      "normalized": false,
      "special": true
    },
    {
      "id": 5,
      "content": "<|python_start|>",
      "single_word": false,
      "lstrip": false,
      "rstrip": false,
      "normalized": false,
      "special": true
    },
    {
      "id": 6,
      "content": "<|python_end|>",
      "single_word": false,
      "lstrip": false,
      "rstrip": false,
      "normalized": false,
      "special": true
    },
    {
      "id": 7,
      "content": "<|output_start|>",
      "single_word": false,
      "lstrip": false,
      "rstrip": false,
      "normalized": false,
      "special": true
    },
    {
      "id": 8,
      "content": "<|output_end|>",
      "single_word": false,
      "lstrip": false,
      "rstrip": false,
      "normalized": false,
      "special": true
    },
    {
      "id": 9,
      "content": "<|unk|>",
      "single_word": false,
      "lstrip": false,
      "rstrip": false,
      "normalized": false,
      "special": true
    }
  ],
  "normalizer": null,
  "pre_tokenizer": {
    "type": "Sequence",
    "pretokenizers": [
      {
        "type": "Split",
        "pattern": {
          "Regex": "'(?i:[sdmt]|ll|ve|re)|[^\\r\\n\\p{L}\\p{N}]?+\\p{L}+|\\p{N}{1,2}| ?[^\\s\\p{L}\\p{N}]++[\\r\\n]*|\\s*[\\r\\n]|\\s+(?!\\S)|\\s+"
        },
        "behavior": "Isolated",
        "invert": false
      },
      {
        "type": "ByteLevel",
        "add_prefix_space": false,
        "trim_offsets": true,
        "use_regex": false
      }
    ]
  },
  "post_processor": {
    "type": "TemplateProcessing",
    "single": [
      {
        "Sequence": {
          "id": "A",
          "type_id": 0
        }
      }
    ],
    "pair": [
      {
        "Sequence": {
          "id": "A",
          "type_id": 0
        }
      },
      {
        "Sequence": {
          "id": "B",
          "type_id": 1
        }
      }
    ],
    "special_tokens": {}
  },
  "decoder": null,
  "model": {
    "type": "Unigram",
    "unk_id": 9,
    "vocab": [
      [
        "<|bos|>",
        0.0
      ],
      [
        "<|user_start|>",
        0.0
      ],
      [
        "<|user_end|>",
        0.0
      ],
      [
        "<|assistant_start|>",
        0.0
      ],
      [
        "<|assistant_end|>",
        0.0
      ],
      [
        "<|python_start|>",
        0.0
      ],
      [
        "<|python_end|>",
        0.0
      ],
      [
        "<|output_start|>",
        0.0
      ],
      [
        "<|output_end|>",
        0.0
      ],
      [
        "<|unk|>",
        0.0
      ],
      [
        "Ġ",
        -2.071516500932841
      ],
      [
        "s",
        -3.118222318004255
      ],
      [
        ",",
        -3.564284106160452
      ],
      [
        "Ġthe",
        -3.605418405632891
      ],
      [
        ".",
        -3.829390751073485
      ],
      [
        "a",
        -3.99982709034467
      ],
      [
        "Ġof",
        -4.299518803290891
      ],
      [
        "t",
        -4.344297813148989
      ],
      [
        "Ġand",
        -4.492076793676162
      ],
      [
        "d",
        -4.511965266313775
      ],
      [
        "Ġto",
        -4.528225900574114
      ],
      [
        "o",
        -4.534138763789331
      ],
      [
        "e",
        -4.579488162217254
      ],
      [
        "ing",
        -4.719030003289781
      ],
      [
        "y",
        -4.886773199830772
      ],
      [
        "Ġin",
        -4.891349348559853
      ],
      [
        "i",
        -4.8986942001222715
      ],
      [
        "'",
        -5.025387501300795
      ],
      [
        "and",
        -5.065749800582873
      ],
      [
        "Ċ",
        -5.156598789867234
      ],
      [
        "Ġthat",
        -5.184846835018661
      ],
      [
        "0",
        -5.186288811787399
      ],
      [
        "n",
        -5.211386704875386
      ],
      [
        "Ġfor",
        -5.22853900103609
      ],
      [
        "1",
        -5.321160235819514
      ],
      [
        ":",
        -5.350587797260092
      ],
      [
        ".ĊĊ",
        -5.426327366506516
      ],
      [
        "Ġyou",
        -5.427744364078624
      ],
      [
        "Ġwith",
        -5.4672971769998995
      ],
      [
        "2",
        -5.542408823350266
      ],
      [
        "is",
        -5.570220878079004
      ],
      [
        "ly",
        -5.594713173126658
      ],
      [
        ".Ċ",
        -5.648154890440052
      ],
      [
        "r",
        -5.649718829623428
      ],
      [
        "Ġcan",
        -5.697071651261176
      ],
      [
        "Ġbe",
        -5.748531315340271
      ],
      [
        "Ġare",
        -5.772681864834846
      ],
      [
        "Ġyour",
        -5.813137325154761
      ],
      [
        "Ġis",
        -5.819943292665746
      ],
      [
        "-",
        -5.834375260371363
      ],
      [
        "the",
        -5.83789849594989
      ],
      [
        "f",
        -5.841514977468595
      ],
      [
        "ĊĊ",
        -5.931520764055524
      ],
      [
        "(",
        -5.943196712203935
      ],
      [
        "to",
        -5.944740233153665
      ],
      [
        "on",
        -5.998385768187548
      ],
      [
        "I",
        -6.031069120663224
      ],
      [
        "\"",
        -6.051964409343089
      ],
      [
        "Ġfrom",
        -6.068172580788181
      ],
      [
        "Ġhave",
        -6.093689706285128
      ],
      [
        ")",
        -6.097642934392939
      ],
      [
        "in",
        -6.098039054077068
      ],
      [
        "3",
        -6.171577889811838
      ],
      [
        "ĠThe",
        -6.1805294795907955
      ],
      [
        "?",
        -6.2127618882825235
      ],
      [
        "Ġthis",
        -6.232943695868753
      ],
      [
        "ed",
        -6.252034876607993
      ],
      [
        "5",
        -6.258590889734595
      ],
      [
        "Ġby",
        -6.3296724555029
      ],
      [
        "Ġnot",
        -6.33307335682775
      ],
      [
        "l",
        -6.338961813150577
      ],
      [
        "Ġwill",
        -6.3530954036802445
      ],
      [
        "The",
        -6.372970985316519
      ],
      [
        "Ġtheir",
        -6.376699117406734
      ],
      [
        "of",
        -6.413072358733578
      ],
      [
        "4",
        -6.4226679135578415
      ],
      [
        "it",
        -6.425855218825443
      ],
      [
        "are",
        -6.454734971134004
      ],
      [
        "Ġa",
        -6.4703062190015075
      ],
      [
        "m",
        -6.506742859243857
      ],
      [
        "Ġor",
        -6.521449179553487
      ],
      [
        "or",
        -6.523931611171289
      ],
      [
        "9",
        -6.534738928009688
      ],
      [
        "ĠI",
        -6.54156314652959
      ],
      [
        "Ġmore",
        -6.547819498892631
      ],
      [
        "Ġthey",
        -6.5612884173507275
      ],
      [
        "Ġwas",
        -6.58731723391085
      ],
      [
        "Ġan",
        -6.60318824199339
      ],
      [
        "Ġbut",
        -6.67187636237399
      ],
      [
        "6",
        -6.685741519144932
      ],
      [
        "Ġwhich",
        -6.688504314784799
      ],
      [
        "Question",
        -6.715486657057008
      ],
      [
        "8",
        -6.722284982231406
      ],
      [
        "A",
        -6.7607160475725365
      ],
      [
        "Ġhas",
        -6.782539010785364
      ],
      [
        "Ġalso",
        -6.792372730429607
      ],
      [
        "ĠAnswer",
        -6.799161218876501
      ],
      [
        "Ġas",
        -6.830753346935927
      ],
      [
        "h",
        -6.8425206064073265
      ],
      [
        "Ġabout",
        -6.847478502408009
      ],
      [
        "7",
        -6.854441609704589
      ],
      [
        "Ġwhen",
        -6.895136055131282
      ],
      [
        "Ġwe",
        -6.92988689883596
      ],
      [
        "Ġneed",
        -6.959092279291038
      ],
      [
        "c",
        -6.973490228346851
      ],
      [
        "Ġlike",
        -6.988064338536802
      ],
      [
        "Ġthem",
        -7.001941760774324
      ],
      [
        "Ġmay",
        -7.006614778903872
      ],
      [
        "Ġtime",
        -7.019546152383002
      ],
      [
        "Ġinto",
        -7.046854639488654
      ],
      [
        "g",
        -7.059644294535579
      ],
      [
        "Ġsome",
        -7.078359511301899
      ],
      [
        "Ġall",
        -7.085278246962021
      ],
      [
        "an",
        -7.126957101281642
      ],
      [
        "Ġup",
        -7.147034373894762
      ],
      [
        "Ġthere",
        -7.154183396765182
      ],
      [
        "Ġout",
        -7.160197171510847
      ],
      [
        "u",
        -7.172845856525441
      ],
      [
        "Ġthan",
        -7.182028833287527
      ],
      [
        "b",
        -7.186150854985227
      ],
      [
        "Ġthese",
        -7.20916781262358
      ],
      [
        "Ġother",
        -7.212220302484264
      ],
      [
        "Ġwater",
        -7.221368641934387
      ],
      [
        "ĠThis",
        -7.228523164786084
      ],
      [
        "one",
        -7.232785857608144
      ],
      [
        "Ġwhat",
        -7.235956176583825
      ],
      [
        "Ġhow",
        -7.260521939924905
      ],
      [
        "Ġmake",
        -7.267106085456435
      ],
      [
        "Ġit",
        -7.305605874382724
      ],
      [
        "Ġmost",
        -7.312198537395442
      ],
      [
        "Ġbeen",
        -7.330230689613892
      ],
      [
        "ies",
        -7.33490372480188
      ],
      [
        "Ġhelp",
        -7.335509788609848
      ],
      [
        "Ġuse",
        -7.35175852103589
      ],
      [
        "ĠIt",
        -7.3576112025673055
      ],
      [
        "Ġwould",
        -7.362276239495044
      ],
      [
        "Ġpeople",
        -7.374994114481222
      ],
      [
        "Ġshould",
        -7.37630585966701
      ],
      [
        ";",
        -7.377124008842904
      ],
      [
        "Ġwere",
        -7.385180229984
      ],
      [
        "Ġwho",
        -7.386488049358441
      ],
      [
        "ĠIn",
        -7.392136211896091
      ],
      [
        "ĠWhat",
        -7.397847895353559
      ],
      [
        "Ġthrough",
        -7.407360993946993
      ],
      [
        "Ġany",
        -7.407411648945283
      ],
      [
        "Ġsuch",
        -7.4116967973308014
      ],
      [
        "at",
        -7.413060912384122
      ],
      [
        "What",
        -7.434981689796285
      ],
      [
        "ĠA",
        -7.436580658518977
      ],
      [
        "/",
        -7.440910809093914
      ],
      [
        "Ġnew",
        -7.443245594754307
      ],
      [
        "w",
        -7.44941254530435
      ],
      [
        "Ġdo",
        -7.453426240400505
      ],
      [
        "as",
        -7.456701115748151
      ],
      [
        "our",
        -7.461112252544204
      ],
      [
        "Ġjust",
        -7.462481544612856
      ],
      [
        "Ġget",
        -7.485863379814841
      ],
      [
        "Ġonly",
        -7.503209075431334
      ],
      [
        "Ġused",
        -7.508357678599166
      ],
      [
        "Ġfirst",
        -7.514406851552208
      ],
      [
        "Ġwork",
        -7.552001888448849
      ],
      [
        "Ġover",
        -7.560592828032707
      ],
      [
        "Ġmany",
        -7.567193804822034
      ],
      [
        "Ġdifferent",
        -7.568327700251071
      ],
      [
        "Ġwell",
        -7.573583003154244
      ],
      [
        "able",
        -7.578982523768808
      ],
      [
        "out",
        -7.582716812355018
      ],
      [
        "Ġmy",
        -7.584202573065538
      ],
      [
        "Ġon",
        -7.593237380504247
      ],
      [
        "Ġprovide",
        -7.6015855377479955
      ],
      [
        "re",
        -7.608441599046605
      ],
      [
        "?Ċ",
        -7.609618401337974
      ],
      [
        "Ġ(",
        -7.613397747136457
      ],
      [
        "Ġcould",
        -7.613718716292105
      ],
      [
        "This",
        -7.617238797453487
      ],
      [
        "Ġwhere",
        -7.62848863244936
      ],
      [
        "Ġhigh",
        -7.646843769256533
      ],
      [
        "Ġtake",
        -7.662841305447557
      ],
      [
        "Ġbecause",
        -7.676273732635863
      ],
      [
        "Ġbetween",
        -7.679437009024635
      ],
      [
        "p",
        -7.688692023898042
      ],
      [
        "Ġeven",
        -7.6969289689356835
      ],
      [
        "for",
        -7.700424017684838
      ],
      [
        "S",
        -7.720202258138318
      ],
      [
        "Ġsystem",
        -7.721315950837228
      ],
      [
        "!",
        -7.7282235750874175
      ],
      [
        "Ġtwo",
        -7.728746929188281
      ],
      [
        "?ĊĊ",
        -7.738206236483812
      ],
      [
        "other",
        -7.741204678666051
      ],
      [
        "Ġmuch",
        -7.750352495519483
      ],
      [
        "Ġgood",
        -7.75769195871688
      ],
      [
        "Ġknow",
        -7.75857635398836
      ],
      [
        "Ġimportant",
        -7.759365213736007
      ],
      [
        "Ġhealth",
        -7.780183206676476
      ],
      [
        "Ġwant",
        -7.785153569089331
      ],
      [
        "Ġfood",
        -7.799184445071271
      ],
      [
        "Ġdoes",
        -7.8106083181417745
      ],
      [
        "Ġlook",
        -7.815270464260223
      ],
      [
        "ĠYou",
        -7.819358005639561
      ],
      [
        "Ġi",
        -7.82466488728733
      ],
      [
        "Ġyears",
        -7.832990719891214
      ],
      [
        "Ġlong",
        -7.837900549010834
      ],
      [
        "Ġpart",
        -7.844824913254161
      ],
      [
        "around",
        -7.848430525410249
      ],
      [
        "Ġafter",
        -7.848436996385486
      ],
      [
        "Ġcause",
        -7.85504491874933
      ],
      [
        "Ġevery",
        -7.859456390710905
      ],
      [
        "ĠThey",
        -7.868944461675481
      ],
      [
        "Ġone",
        -7.8748195615652445
      ],
      [
        "Ġbeing",
        -7.884783332425259
      ],
      [
        "Ġnumber",
        -7.889479770979891
      ],
      [
        "Ġbefore",
        -7.89600384446017
      ],
      [
        "D",
        -7.900692185352209
      ],
      [
        "Ġwhile",
        -7.905080554630423
      ],
      [
        "Ġway",
        -7.907062291692741
      ],
      [
        "ĠIf",
        -7.907985696606104
      ],
      [
        "Ġduring",
        -7.91939149696684
      ],
      [
        "those",
        -7.921742121778843
      ],
      [
        "Ġsame",
        -7.930441924196321
      ],
      [
        "all",
        -7.932015592845568
      ],
      [
        "Ġlevel",
        -7.93378422009587
      ],
      [
        "Ġvery",
        -7.935625226253482
      ],
      [
        ").",
        -7.947959154856163
      ],
      [
        "by",
        -7.949329223621907
      ],
      [
        "Ġfollow",
        -7.952803893963477
      ],
      [
        "Ġbody",
        -7.961728736413173
      ],
      [
        "Ġbest",
        -7.965963016397008
      ],
      [
        "Ġback",
        -7.966618244665453
      ],
      [
        "In",
        -7.9673652840308975
      ],
      [
        "Ġprocess",
        -7.970746223457034
      ],
      [
        "T",
        -7.974743996730456
      ],
      [
        "that",
        -7.9800140565713615
      ],
      [
        "ve",
        -7.981196591852999
      ],
      [
        "Ġworld",
        -7.991880828288119
      ],
      [
        "Ġlife",
        -7.997381137899541
      ],
      [
        "C",
        -8.004075512959401
      ],
      [
        "Ġoften",
        -8.014852694036879
      ],
      [
        "Ġcommon",
        -8.020834741490974
      ],
      [
        "its",
        -8.020957751957845
      ],
      [
        "Ġhad",
        -8.021757082108348
      ],
      [
        "Ġyear",
        -8.02190761718364
      ],
      [
        "Ġexperience",
        -8.022594773439225
      ],
      [
        "Ġfound",
        -8.026346877338757
      ],
      [
        "How",
        -8.02832467077211
      ],
      [
        "Ġdata",
        -8.03265032921354
      ],
      [
        "be",
        -8.037142591333367
      ],
      [
        "Ġdown",
        -8.04395527023527
      ],
      [
        "Ġsmall",
        -8.044244560426915
      ],
      [
        "Ġboth",
        -8.045420362581607
      ],
      [
        "es",
        -8.058504043930627
      ],
      [
        "%",
        -8.063238099492526
      ],
      [
        "us",
        -8.064028516634284
      ],
      [
        "Ġdon",
        -8.066416453465083
      ],
      [
        "Ġpower",
        -8.066629651517948
      ],
      [
        "he",
        -8.069423354411292
      ],
      [
        "ally",
        -8.071209075175085
      ],
      [
        "Ġsaid",
        -8.078937261338027
      ],
      [
        "Ġexample",
        -8.08846071409702
      ],
      [
        "Ġfind",
        -8.088973582597434
      ],
      [
        "Ġinformation",
        -8.09035270441751
      ],
      [
        "Ġincrease",
        -8.09041492053328
      ],
      [
        "Ġsee",
        -8.095466184272231
      ],
      [
        "Ġmade",
        -8.103312362665102
      ],
      [
        "Ġenergy",
        -8.104424945809763
      ],
      [
        "Ġdog",
        -8.107503113320922
      ],
      [
        "use",
        -8.109075093191331
      ],
      [
        "ĠFor",
        -8.11423419879742
      ],
      [
        "Ġchange",
        -8.114536424364676
      ],
      [
        "âĢĵ",
        -8.116586282743352
      ],
      [
        "Ġkeep",
        -8.116590973358457
      ],
      [
        "Ġright",
        -8.127845585098768
      ],
      [
        "Ġits",
        -8.130981922391356
      ],
      [
        "ability",
        -8.141431121755117
      ],
      [
        "Ġday",
        -8.143262990285542
      ],
      [
        "Ġno",
        -8.144519580547717
      ],
      [
        "Ġmight",
        -8.150437896756014
      ],
      [
        "Ġhome",
        -8.152255253640257
      ],
      [
        "Ġusing",
        -8.152806831565602
      ],
      [
        "Ġhis",
        -8.153478393016515
      ],
      [
        "less",
        -8.161131722302239
      ],
      [
        "Ġbetter",
        -8.16251235992839
      ],
      [
        "ĠC",
        -8.165891946285353
      ],
      [
        "Ġplant",
        -8.172018099708868
      ],
      [
        "Ġstudents",
        -8.172442071252473
      ],
      [
        "),",
        -8.179579186943812
      ],
      [
        "Ġresearch",
        -8.19073432328272
      ],
      [
        "using",
        -8.192919985495804
      ],
      [
        "âĢĻ",
        -8.195420002581567
      ],
      [
        ":ĊĊ",
        -8.196010088432223
      ],
      [
        "Ġthink",
        -8.196260980253328
      ],
      [
        "Ġgreat",
        -8.197365586748365
      ],
      [
        "ness",
        -8.205155501442626
      ],
      [
        "Ġstudy",
        -8.207357608262948
      ],
      [
        "Ġplace",
        -8.210961339256885
      ],
      [
        "Ġstart",
        -8.212611595080332
      ],
      [
        "Ġspecies",
        -8.213317305250534
      ],
      [
        "ĠWe",
        -8.217996705973986
      ],
      [
        "if",
        -8.219735720594402
      ],
      [
        "al",
        -8.222101587267165
      ],
      [
        "each",
        -8.236995332012313
      ],
      [
        "can",
        -8.23862650591482
      ],
      [
        "Ġstill",
        -8.26034079431863
      ],
      [
        "Ġlight",
        -8.262172492668174
      ],
      [
        "Ġcontrol",
        -8.266477202333695
      ],
      [
        "ĠThese",
        -8.267067702597952
      ],
      [
        "ĠTo",
        -8.273622442712155
      ],
      [
        "Ġincluding",
        -8.278499404360057
      ],
      [
        "Ġair",
        -8.279565843785175
      ],
      [
        "used",
        -8.28137186576294
      ],
      [
        "Ġlarge",
        -8.281700987929844
      ],
      [
        "Ġfew",
        -8.282594576129497
      ],
      [
        "Ġunder",
        -8.283195399190086
      ],
      [
        "Ġoff",
        -8.285304095465136
      ],
      [
        "Ġgive",
        -8.293907901619447
      ],
      [
        "Ġhuman",
        -8.300349735445504
      ],
      [
        "Ġsupport",
        -8.30048486161618
      ],
      [
        "Ġthree",
        -8.302841933297856
      ],
      [
        "Ġplants",
        -8.309087213460018
      ],
      [
        "Ġblood",
        -8.311381866169713
      ],
      [
        "Ġpressure",
        -8.312068560108008
      ],
      [
        "Ġdesign",
        -8.315125372247671
      ],
      [
        "Ġb",
        -8.316067073448204
      ],
      [
        "Ġcase",
        -8.316943426541958
      ],
      [
        "When",
        -8.318587592152726
      ],
      [
        "Ġdisease",
        -8.319999096000505
      ],
      [
        "Ġgo",
        -8.325518019901043
      ],
      [
        "Ġcreate",
        -8.325782011400552
      ],
      [
        "ĠâĢĵ",
        -8.32691441991242
      ],
      [
        "um",
        -8.332966325899893
      ],
      [
        "Ġtype",
        -8.339411080077545
      ],
      [
        "Ġmust",
        -8.350133607285574
      ],
      [
        "Ġvalue",
        -8.351382453968087
      ],
      [
        "Ġcar",
        -8.35707885688832
      ],
      [
        "have",
        -8.357206185049064
      ],
      [
        "Ġchildren",
        -8.35907134771663
      ],
      [
        "Ġthings",
        -8.359621761183629
      ],
      [
        "Ġinclude",
        -8.360390309597745
      ],
      [
        "ĠBut",
        -8.366893483748521
      ],
      [
        "...",
        -8.36999714434833
      ],
      [
        "Ġcurrent",
        -8.37896226731139
      ],
      [
        "Ġoffer",
        -8.379021033258304
      ],
      [
        "Ġher",
        -8.382753653611164
      ],
      [
        "Ġensure",
        -8.382941095597012
      ],
      [
        "Ġmodel",
        -8.384194171020535
      ],
      [
        "Ġprevent",
        -8.385663321494393
      ],
      [
        "Ġmaking",
        -8.387156624122676
      ],
      [
        "Ġknown",
        -8.389297939992062
      ],
      [
        "ll",
        -8.391938375683013
      ],
      [
        "you",
        -8.393371718963117
      ],
      [
        "ĠAnd",
        -8.394076114959638
      ],
      [
        "Ġnatural",
        -8.398912020377798
      ],
      [
        "x",
        -8.398977073456088
      ],
      [
        "Ġrisk",
        -8.400976779986038
      ],
      [
        "Ġenvironment",
        -8.40488351550187
      ],
      [
        "Ġindividual",
        -8.412316249238565
      ],
      [
        "Ġsomething",
        -8.413110456481125
      ],
      [
        "ity",
        -8.417571817438414
      ],
      [
        "Ġbecome",
        -8.421655280400929
      ],
      [
        "Ġwithin",
        -8.422608847550013
      ],
      [
        "ation",
        -8.424356433125883
      ],
      [
        "k",
        -8.430113169146892
      ],
      [
        "Ġat",
        -8.430602798219377
      ],
      [
        "Ġcalled",
        -8.43889367859323
      ],
      [
        "ĠHowever",
        -8.443362883388737
      ],
      [
        "Ġlead",
        -8.445039968189318
      ],
      [
        "with",
        -8.446558276901868
      ],
      [
        "âĢĶ",
        -8.448457084728023
      ],
      [
        "Ġcome",
        -8.457262834260497
      ],
      [
        "Ġanother",
        -8.4574044495469
      ],
      [
        "Ġt",
        -8.469343945234787
      ],
      [
        "B",
        -8.469647190977042
      ],
      [
        "Ġfactor",
        -8.47081823375212
      ],
      [
        "You",
        -8.472879834239919
      ],
      [
        ":Ċ",
        -8.473120178964475
      ],
      [
        "Ġeach",
        -8.473381309628866
      ],
      [
        "Ġperson",
        -8.475581115237738
      ],
      [
        "v",
        -8.476284762154446
      ],
      [
        "Ġalway",
        -8.47662227903228
      ],
      [
        "Ġamount",
        -8.480611822983128
      ],
      [
        "Ġlittle",
        -8.481613183182157
      ],
      [
        "Ġpotential",
        -8.482825733397467
      ],
      [
        "Ġvarious",
        -8.483332686732954
      ],
      [
        "Ġdevelop",
        -8.486786834673238
      ],
      [
        "way",
        -8.490821817846319
      ],
      [
        "Ġform",
        -8.492217268073643
      ],
      [
        "Ġimpact",
        -8.49302780428425
      ],
      [
        "Ġlearn",
        -8.499407555811104
      ],
      [
        "Ġarea",
        -8.500379113403465
      ],
      [
        "not",
        -8.50173579639408
      ],
      [
        "Ġtreatment",
        -8.503281437153383
      ],
      [
        "Ġtest",
        -8.507076613896
      ],
      [
        "Ġtemperature",
        -8.509698370702239
      ],
      [
        "Ġrequire",
        -8.511332009261597
      ],
      [
        "Ġspecific",
        -8.519373132012566
      ],
      [
        "Ġplay",
        -8.519446796884278
      ],
      [
        "Ġreason",
        -8.521322218844327
      ],
      [
        "Ġclose",
        -8.523765608292665
      ],
      [
        "Ġdue",
        -8.523872698566983
      ],
      [
        "Ġheat",
        -8.524105014343009
      ],
      [
        "Ġsoil",
        -8.525370241173345
      ],
      [
        "Ġimprove",
        -8.530193494297368
      ],
      [
        "Ġsurface",
        -8.531890460461991
      ],
      [
        "If",
        -8.5348309324273
      ],
      [
        "more",
        -8.536414062321038
      ],
      [
        "ĠB",
        -8.53658316011521
      ],
      [
        "Ġproblem",
        -8.537930613797055
      ],
      [
        "There",
        -8.539338994910697
      ],
      [
        "Ġpossible",
        -8.539379531902025
      ],
      [
        "Ġreduce",
        -8.539499174025055
      ],
      [
        "Ġspace",
        -8.539761248577523
      ],
      [
        "Ġlearning",
        -8.544437052400529
      ],
      [
        "th",
        -8.546296979066272
      ],
      [
        "Ġcare",
        -8.546782401191706
      ],
      [
        "Ġcolor",
        -8.55019124830795
      ],
      [
        "Ġgoing",
        -8.554826518616741
      ],
      [
        "based",
        -8.561001795784623
      ],
      [
        "Ġstate",
        -8.562787546367009
      ],
      [
        "Ġper",
        -8.565356054390662
      ],
      [
        "Ġcells",
        -8.575614776729381
      ],
      [
        "Ġavailable",
        -8.579186316188173
      ],
      [
        "Ġname",
        -8.582216659344338
      ],
      [
        "Ġmeans",
        -8.582681354306544
      ],
      [
        "Ġresult",
        -8.58577041088331
      ],
      [
        "Ġth",
        -8.588845320525838
      ],
      [
        "Ġpoint",
        -8.593389427584414
      ],
      [
        "Ġour",
        -8.59467079507022
      ],
      [
        "Ġschool",
        -8.595888326388923
      ],
      [
        "[",
        -8.598238862016661
      ],
      [
        "Ġseveral",
        -8.599153085199006
      ],
      [
        "Ġusually",
        -8.605504841612444
      ],
      [
        "Ġnow",
        -8.605593416175074
      ],
      [
        "Ġso",
        -8.606365334614122
      ],
      [
        "Ġfunction",
        -8.608371239802763
      ],
      [
        "Ġfeel",
        -8.611154104918555
      ],
      [
        "Ġenough",
        -8.611345706597973
      ],
      [
        "Ġareas",
        -8.613233178925558
      ],
      [
        "Ġallow",
        -8.616934077157119
      ],
      [
        "Ġsecond",
        -8.623800542601732
      ],
      [
        "Ġorder",
        -8.624106950884254
      ],
      [
        "Ġquality",
        -8.630174995291679
      ],
      [
        "Ġdamage",
        -8.630242185445168
      ],
      [
        "having",
        -8.630708442714091
      ],
      [
        "Ġleave",
        -8.63269819722441
      ],
      [
        "Ġcourse",
        -8.635818730425964
      ],
      [
        "Ġessential",
        -8.638251954948425
      ],
      [
        "Ġrange",
        -8.640382569035328
      ],
      [
        "Ġmain",
        -8.6413037475699
      ],
      [
        "why",
        -8.642482597875794
      ],
      [
        "Ġparticular",
        -8.645079604272716
      ],
      [
        "Ġshow",
        -8.645264641290941
      ],
      [
        "Ġme",
        -8.646280451207614
      ],
      [
        "ĠWhen",
        -8.647206501008181
      ],
      [
        "ĠThere",
        -8.64972018815814
      ],
      [
        "Ġconsider",
        -8.650720968532255
      ],
      [
        "Ġsignificant",
        -8.653826879017828
      ],
      [
        "Ġfish",
        -8.654167611351005
      ],
      [
        "Ġlive",
        -8.654260468553101
      ],
      [
        "self",
        -8.656998916237088
      ],
      [
        "Ġplan",
        -8.65915459565526
      ],
      [
        "Ġproper",
        -8.6603192931935
      ],
      [
        "Ġchild",
        -8.66034546090817
      ],
      [
        "Ġweight",
        -8.660749563346313
      ],
      [
        "ĠSo",
        -8.661009002114056
      ],
      [
        "Ġactuall",
        -8.66443784676229
      ],
      [
        "Ġmethod",
        -8.664439337105293
      ],
      [
        "=",
        -8.664723803975775
      ],
      [
        "While",
        -8.66609378100635
      ],
      [
        "age",
        -8.6687919660226
      ],
      [
        "$",
        -8.670038976969273
      ],
      [
        "Ġmaterial",
        -8.67004196516665
      ],
      [
        "Ġdevelopment",
        -8.670973674957118
      ],
      [
        "&",
        -8.671161414448427
      ],
      [
        "Ġuser",
        -8.673042123837677
      ],
      [
        "Ġunderstand",
        -8.675240827611393
      ],
      [
        "Ġreal",
        -8.676527584129358
      ],
      [
        "Ġconditions",
        -8.680651947794901
      ],
      [
        "Ġfamily",
        -8.68299407443557
      ],
      [
        "Ġsize",
        -8.683569321955897
      ],
      [
        "ĠHow",
        -8.684918159003313
      ],
      [
        "Ġnext",
        -8.686332594290624
      ],
      [
        "how",
        -8.69572251102985
      ],
      [
        "Ġdid",
        -8.697620634500485
      ],
      [
        "Ġanimals",
        -8.7015760234037
      ],
      [
        "*",
        -8.703129456448696
      ],
      [
        "Ġdiet",
        -8.703330460104628
      ],
      [
        "Ġproject",
        -8.711153847429047
      ],
      [
        "P",
        -8.711698930267884
      ],
      [
        "Ġadd",
        -8.71183296758731
      ],
      [
        "Ġgame",
        -8.712184173238281
      ],
      [
        "ĠWhich",
        -8.713533419048296
      ],
      [
        "Ġsince",
        -8.716391772296708
      ],
      [
        "Ġside",
        -8.718663702455
      ],
      [
        "Ġend",
        -8.718931558523206
      ],
      [
        "Ġuntil",
        -8.720287865326585
      ],
      [
        "Ġhard",
        -8.720451662740166
      ],
      [
        "Ġoption",
        -8.7215325574643
      ],
      [
        "Ġfree",
        -8.724785414924717
      ],
      [
        "Ġaffect",
        -8.728384558842878
      ],
      [
        "Ġeffective",
        -8.728846869806874
      ],
      [
        "Ġlocal",
        -8.729039037096602
      ],
      [
        "Ġtogether",
        -8.731177871726814
      ],
      [
        "time",
        -8.733854995357476
      ],
      [
        "Ġgas",
        -8.73510893952258
      ],
      [
        "M",
        -8.735208463898559
      ],
      [
        "Ġgarden",
        -8.740563659292945
      ],
      [
        "Ġvideo",
        -8.740833267978283
      ],
      [
        "Ġtypes",
        -8.746123447487667
      ],
      [
        "Ġseem",
        -8.74636894346321
      ],
      [
        "ĠAs",
        -8.746528844650612
      ],
      [
        "]",
        -8.746787672306056
      ],
      [
        "For",
        -8.748134799560502
      ],
      [
        "Ġshe",
        -8.75138386891944
      ],
      [
        "Ġwide",
        -8.758327804544923
      ],
      [
        "Ġsimple",
        -8.758470840737274
      ],
      [
        "Ġtext",
        -8.759796909752744
      ],
      [
        "ĠS",
        -8.76070544746491
      ],
      [
        "Ġmaintain",
        -8.761223279599935
      ],
      [
        "Ġapplication",
        -8.762538757466839
      ],
      [
        "Ġalong",
        -8.762876129151035
      ],
      [
        "ar",
        -8.76308580838775
      ],
      [
        "Ġhigher",
        -8.765210429919051
      ],
      [
        "up",
        -8.765289647241072
      ],
      [
        "from",
        -8.765410143452243
      ],
      [
        "Ġmeasure",
        -8.765795443842192
      ],
      [
        "Ġteam",
        -8.768053649066665
      ],
      [
        "Ġput",
        -8.768642342120675
      ],
      [
        "Ġterm",
        -8.769352992620508
      ],
      [
        "Ġsure",
        -8.770027621599516
      ],
      [
        "Ġgrow",
        -8.771604886123793
      ],
      [
        "Ġstep",
        -8.776372414118319
      ],
      [
        "Ġgroup",
        -8.777051012808098
      ],
      [
        ".\"Ċ",
        -8.781435367148676
      ],
      [
        "Ġkey",
        -8.783135304850045
      ],
      [
        "Ġeasy",
        -8.783709637358063
      ],
      [
        "Ġprogram",
        -8.784164119068883
      ],
      [
        "own",
        -8.78426040648976
      ],
      [
        "Ġsocial",
        -8.78811499987102
      ],
      [
        "Ġleast",
        -8.789072790501521
      ],
      [
        "Ġresults",
        -8.790537515712392
      ],
      [
        "Ġfuture",
        -8.792624490136852
      ],
      [
        "Ġpaper",
        -8.793769524368464
      ],
      [
        "Ġsystems",
        -8.796895079035998
      ],
      [
        "Ġtechnique",
        -8.797031124419606
      ],
      [
        "Ġmakes",
        -8.79771689234098
      ],
      [
        "Ġtimes",
        -8.800928370570972
      ],
      [
        "Ġfull",
        -8.805377557604364
      ],
      [
        "has",
        -8.809800046430542
      ],
      [
        "Ġpresent",
        -8.809870109641423
      ],
      [
        "Ġcost",
        -8.81043051857787
      ],
      [
        "Ġvariet",
        -8.810829090574376
      ],
      [
        "Ġavoid",
        -8.81145054420799
      ],
      [
        "Ġremove",
        -8.814916263493686
      ],
      [
        "Ġdoesn",
        -8.814952542434328
      ],
      [
        "Ġopen",
        -8.816164649687845
      ],
      [
        "Ġnever",
        -8.816581281626632
      ],
      [
        "land",
        -8.817374917203875
      ],
      [
        "this",
        -8.817594036342024
      ],
      [
        "Ġcontain",
        -8.817747913744645
      ],
      [
        "Ġspeed",
        -8.820297528812148
      ],
      [
        ")ĊĊ",
        -8.82153804604793
      ],
      [
        "Ġprotect",
        -8.822603888568448
      ],
      [
        "Ġproblems",
        -8.822883382890215
      ],
      [
        "like",
        -8.824993245835056
      ],
      [
        "Ġlow",
        -8.825234194540482
      ],
      [
        "O",
        -8.826906968010677
      ],
      [
        "Ġcell",
        -8.828397869926333
      ],
      [
        "Ġabove",
        -8.828640613740077
      ],
      [
        "Ġsimilar",
        -8.830204736506145
      ],
      [
        "ĠHe",
        -8.83094782843189
      ],
      [
        "where",
        -8.831597046816231
      ],
      [
        "Ġproducts",
        -8.835836913733075
      ],
      [
        "Ġmachine",
        -8.835849949020888
      ],
      [
        "across",
        -8.836162138767735
      ],
      [
        "Ġhealthy",
        -8.836221439687332
      ],
      [
        "Ġmaterials",
        -8.837051403205487
      ],
      [
        "Ġtechnology",
        -8.837455641533518
      ],
      [
        "Ġtop",
        -8.841740199882484
      ],
      [
        "thing",
        -8.841814357621104
      ],
      [
        "Ġshort",
        -8.841868406234573
      ],
      [
        "Ġunique",
        -8.842295156063269
      ],
      [
        "Ġeye",
        -8.844958040988132
      ],
      [
        "ĠThat",
        -8.845013129632994
      ],
      [
        "F",
        -8.846006135488231
      ],
      [
        "!ĊĊ",
        -8.848311936930372
      ],
      [
        "ĠUniversity",
        -8.848485948355382
      ],
      [
        "Ġaccording",
        -8.849976477116286
      ],
      [
        "against",
        -8.851123239010533
      ],
      [
        "Ġgiven",
        -8.85185185571477
      ],
      [
        "H",
        -8.851952517476395
      ],
      [
        "Ġsafe",
        -8.852425589903746
      ],
      [
        "Ġdogs",
        -8.853018361810967
      ],
      [
        "Ġdifference",
        -8.853243906256143
      ],
      [
        "Ġdays",
        -8.853384781022362
      ],
      [
        "Ġhand",
        -8.858719137483835
      ],
      [
        "Ġphysical",
        -8.859608063406748
      ],
      [
        "most",
        -8.864457820483565
      ],
      [
        "W",
        -8.868358156729295
      ],
      [
        "Ġmove",
        -8.873064307530743
      ],
      [
        "Ġelement",
        -8.875276324798353
      ],
      [
        "Ġearly",
        -8.875768265704199
      ],
      [
        "Ġcomponent",
        -8.877013450827281
      ],
      [
        "Ġlast",
        -8.877013589911343
      ],
      [
        "Ġreall",
        -8.87716087666901
      ],
      [
        "Ġissues",
        -8.877164747052571
      ],
      [
        "Ġwhite",
        -8.877308052999615
      ],
      [
        "very",
        -8.878094083217107
      ],
      [
        "Ġnon",
        -8.879135238124803
      ],
      [
        "Ġlove",
        -8.880028690155847
      ],
      [
        "Ġclean",
        -8.881335516975993
      ],
      [
        "Ġstore",
        -8.883717316253755
      ],
      [
        "Ġsingle",
        -8.88377155712388
      ],
      [
        "ĠBy",
        -8.884188004299485
      ],
      [
        "Ġcertain",
        -8.88684704390349
      ],
      [
        "Ġoccur",
        -8.887452133333477
      ],
      [
        "Ġcat",
        -8.888824388487182
      ],
      [
        "Ġdifficult",
        -8.892136207699746
      ],
      [
        "Ġown",
        -8.894849996689363
      ],
      [
        "Ġaccess",
        -8.899098423915827
      ],
      [
        "Ġchanges",
        -8.900308669524573
      ],
      [
        "ĠWith",
        -8.90701801759554
      ],
      [
        "Ġcheck",
        -8.908361132129745
      ],
      [
        "Ġaddition",
        -8.908846598263377
      ],
      [
        "Ġproduction",
        -8.90953556546162
      ],
      [
        "E",
        -8.914122934569713
      ],
      [
        "Ġrun",
        -8.914718889254297
      ],
      [
        "Ġbook",
        -8.91713132713965
      ],
      [
        "Ġbelieve",
        -8.917664336031642
      ],
      [
        "Ġregular",
        -8.920263323346898
      ],
      [
        "Ġanimal",
        -8.920563363258509
      ],
      [
        "once",
        -8.921502125356543
      ],
      [
        "Ġskin",
        -8.925572231976417
      ],
      [
        "Ġless",
        -8.92625921260018
      ],
      [
        "Ġtypical",
        -8.926402298500353
      ],
      [
        "comes",
        -8.927142723975518
      ],
      [
        "old",
        -8.927947183888389
      ],
      [
        "such",
        -8.932091838587802
      ],
      [
        "Ġgrowth",
        -8.93339288591704
      ],
      [
        "Ġremain",
        -8.9351771797939
      ],
      [
        "Ġfocus",
        -8.93824469366643
      ],
      [
        "Ġbasic",
        -8.938524268018575
      ],
      [
        "Ġpain",
        -8.938587708138556
      ],
      [
        "Ġespecial",
        -8.93862789473765
      ],
      [
        "Ġheart",
        -8.93868805092401
      ],
      [
        "ĠSome",
        -8.940359574687317
      ],
      [
        "Ġcontinue",
        -8.942359951601976
      ],
      [
        "Ġstructure",
        -8.942652952430674
      ],
      [
        "Ġtraining",
        -8.94313110471759
      ],
      [
        "ĠNew",
        -8.943600382406078
      ],
      [
        "Ġmarket",
        -8.949099064913053
      ],
      [
        "Ġfar",
        -8.949615909474577
      ],
      [
        "Ġeffects",
        -8.952182666072922
      ],
      [
        "Ġcontent",
        -8.953644195822203
      ],
      [
        "below",
        -8.954279496879579
      ],
      [
        "Ġtoo",
        -8.954809964049911
      ],
      [
        "Ġsay",
        -8.955479725387132
      ],
      [
        "Ġweek",
        -8.95653103528454
      ],
      [
        "Ġclimate",
        -8.958711829259638
      ],
      [
        "Ġpatient",
        -8.958957303347118
      ],
      [
        "Ġtoday",
        -8.959565891073836
      ],
      [
        "Ġproduce",
        -8.961074283726106
      ],
      [
        "Ġleft",
        -8.961971654631066
      ],
      [
        "Ġmatter",
        -8.963410366506988
      ],
      [
        "Ġbuilding",
        -8.964308158158246
      ],
      [
        "your",
        -8.964428746068812
      ],
      [
        "Ġmedical",
        -8.965151592759351
      ],
      [
        "Ġstrong",
        -8.965337815509768
      ],
      [
        "Ġfurther",
        -8.965701098847001
      ],
      [
        "Ġdesigned",
        -8.969877266672762
      ],
      [
        "Ġpopulation",
        -8.970626763670353
      ],
      [
        "Ġlot",
        -8.971172734617934
      ],
      [
        "Why",
        -8.97483006644697
      ],
      [
        "Ġrole",
        -8.975681718358699
      ],
      [
        "nstead",
        -8.977051672274897
      ],
      [
        "Ġsafety",
        -8.977732048639695
      ],
      [
        "Ġworking",
        -8.97806879107878
      ],
      [
        "Ġloss",
        -8.978318668686335
      ],
      [
        "Ġperformance",
        -8.978777320928922
      ],
      [
        "Ġnecessary",
        -8.980908214183064
      ],
      [
        "Ġskills",
        -8.98125050272789
      ],
      [
        "already",
        -8.982302878942335
      ],
      [
        "ĠD",
        -8.982942605596538
      ],
      [
        "Ġpopular",
        -8.986164560560837
      ],
      [
        "Ġscience",
        -8.986790000239168
      ],
      [
        "Ġbenefits",
        -8.98935496472697
      ],
      [
        "Ġchoice",
        -8.990959955024131
      ],
      [
        "ĠNo",
        -8.991242398672565
      ],
      [
        "Ġenjoy",
        -8.991784066190348
      ],
      [
        "Ġbusiness",
        -8.992452626407536
      ],
      [
        "N",
        -8.993000007894171
      ],
      [
        "Ġmean",
        -8.993030590574687
      ],
      [
        "Ġfact",
        -8.994508280420177
      ],
      [
        "Ġbrain",
        -8.99607977665595
      ],
      [
        "Ġfour",
        -8.996356990621393
      ],
      [
        "Ġkind",
        -8.996877985967823
      ],
      [
        "Ġstandard",
        -8.997126976690234
      ],
      [
        "which",
        -8.998090840625196
      ],
      [
        "Ġeffect",
        -9.001151024294677
      ],
      [
        "Ġhead",
        -9.001503176368496
      ],
      [
        "+",
        -9.001610263267729
      ],
      [
        ",\"",
        -9.002597260287622
      ],
      [
        "Ġcomputer",
        -9.00387628218581
      ],
      [
        "also",
        -9.004062454053745
      ],
      [
        "Ġread",
        -9.004312425031568
      ],
      [
        "Ġset",
        -9.00746952700178
      ],
      [
        "ĠM",
        -9.00779211940721
      ],
      [
        "two",
        -9.00852365028272
      ],
      [
        "Ġassociate",
        -9.00857511734812
      ],
      [
        "We",
        -9.008623761077503
      ],
      [
        "Ġwhole",
        -9.012061603335056
      ],
      [
        "Ġdone",
        -9.012712451171463
      ],
      [
        "ĠYour",
        -9.01498324007613
      ],
      [
        "Ġblack",
        -9.018107961744011
      ],
      [
        "Ġsound",
        -9.018538959932616
      ],
      [
        "Ġdry",
        -9.02005635366544
      ],
      [
        "R",
        -9.02061768321807
      ],
      [
        "Ġcomplete",
        -9.022306948142807
      ],
      [
        "Ġsource",
        -9.02231123624497
      ],
      [
        "Ġpropert",
        -9.022793281278314
      ],
      [
        "Ġpublic",
        -9.022836479189936
      ],
      [
        "Ġsymptom",
        -9.024259292558284
      ],
      [
        "Ġdepend",
        -9.02432394697709
      ],
      [
        "Ġvehicle",
        -9.024388369277805
      ],
      [
        "Ġmillion",
        -9.025971519138832
      ],
      [
        "Ġca",
        -9.029039145447006
      ],
      [
        "Ġbehavior",
        -9.03024734153118
      ],
      [
        "Ġlonger",
        -9.031602012679596
      ],
      [
        "Ġagain",
        -9.031606383665991
      ],
      [
        "Ġregion",
        -9.032163042925507
      ],
      [
        "Ġshare",
        -9.034113748192446
      ],
      [
        "Ġanswer",
        -9.035579148895906
      ],
      [
        "Ġinside",
        -9.037760063189545
      ],
      [
        "Ġcondition",
        -9.038341486250198
      ],
      [
        "ither",
        -9.038843707649956
      ],
      [
        "Ġprice",
        -9.040089197429772
      ],
      [
        "Ġquestion",
        -9.041078552361643
      ],
      [
        "Ġhelps",
        -9.04137732269514
      ],
      [
        "Ġhere",
        -9.04234076851742
      ],
      [
        "we",
        -9.043193950372752
      ],
      [
        ").Ċ",
        -9.045717791990704
      ],
      [
        "his",
        -9.048224997039869
      ],
      [
        "Ġproduct",
        -9.048366839197108
      ],
      [
        "Ġlower",
        -9.051047575179538
      ],
      [
        "Ġimage",
        -9.05321189973343
      ],
      [
        "Ġstay",
        -9.053876396386528
      ],
      [
        "Ġcommunity",
        -9.054263942440908
      ],
      [
        "Ġperiod",
        -9.057481840638069
      ],
      [
        "Ġforce",
        -9.05951779764174
      ],
      [
        "Ġexist",
        -9.059840085147933
      ],
      [
        "Ġapproach",
        -9.062767387740449
      ],
      [
        "Ġinfection",
        -9.062850132833873
      ],
      [
        "Ġcompany",
        -9.063783006848178
      ],
      [
        "Ġbig",
        -9.064380450288157
      ],
      [
        "Ġarticle",
        -9.064803528542637
      ],
      [
        "Ġrequired",
        -9.065399436651546
      ],
      [
        "Ġaway",
        -9.066896875275347
      ],
      [
        "Ġun",
        -9.069813774630216
      ],
      [
        "Ġhouse",
        -9.070302032581704
      ],
      [
        "L",
        -9.070430469740046
      ],
      [
        "Ġcompare",
        -9.07047674953752
      ],
      [
        "Ġallows",
        -9.071650502647826
      ],
      [
        "Ġeasily",
        -9.072025452054454
      ],
      [
        "Ġthough",
        -9.07330801103766
      ],
      [
        "Ġbattery",
        -9.073340163395567
      ],
      [
        "Ġturn",
        -9.0733719631458
      ],
      [
        "Ġtry",
        -9.073578100229064
      ],
      [
        "Ġground",
        -9.077737978544455
      ],
      [
        "Ġline",
        -9.078813354683689
      ],
      [
        "Ġmonths",
        -9.079004579550356
      ],
      [
        "Ġamong",
        -9.079130384817615
      ],
      [
        "ion",
        -9.080158870866171
      ],
      [
        "Ġthing",
        -9.081394175933262
      ],
      [
        "Ġmention",
        -9.082690161876656
      ],
      [
        "Ġknowledge",
        -9.083026310720973
      ],
      [
        "Ġidea",
        -9.08335794961578
      ],
      [
        "Ġtoward",
        -9.083836802571495
      ],
      [
        "Ġpost",
        -9.084410118256766
      ],
      [
        "Ġsignal",
        -9.085230390251272
      ],
      [
        "Ġminutes",
        -9.087458251911627
      ],
      [
        "Ġoil",
        -9.088402750121286
      ],
      [
        "Ġunderstanding",
        -9.089082142157244
      ],
      [
        "Ġfruit",
        -9.089270677175303
      ],
      [
        "Ġhistory",
        -9.08927765082882
      ],
      [
        "Ġcontact",
        -9.090203022666316
      ],
      [
        "but",
        -9.091626204049703
      ],
      [
        "Ġindustry",
        -9.092347136139646
      ],
      [
        "any",
        -9.092550525485835
      ],
      [
        "hours",
        -9.092605894018227
      ],
      [
        "Ġinvolve",
        -9.092672748149075
      ],
      [
        "Ġsolution",
        -9.092883154298166
      ],
      [
        "Ġpurpose",
        -9.097466330238046
      ],
      [
        "Ġcomplex",
        -9.098581856297889
      ],
      [
        "Ġflow",
        -9.100193027185483
      ],
      [
        "Ġsays",
        -9.10136873170261
      ],
      [
        "Ġcancer",
        -9.1016594260089
      ],
      [
        "-based",
        -9.103965548250816
      ],
      [
        "Ġresearcher",
        -9.104916090993587
      ],
      [
        "Ġpractice",
        -9.105098163600456
      ],
      [
        "er",
        -9.106861210773957
      ],
      [
        "Ġissue",
        -9.107239654400836
      ],
      [
        "Ġcorrect",
        -9.109602652409468
      ],
      [
        "her",
        -9.11425629092296
      ],
      [
        "Ġbuild",
        -9.115327958890452
      ],
      [
        "Ġperfect",
        -9.117163123951864
      ],
      [
        "Ġeducation",
        -9.11733484685166
      ],
      [
        "than",
        -9.117781088964586
      ],
      [
        "Ġsomeone",
        -9.119699030618154
      ],
      [
        "Ġdoing",
        -9.122730436737625
      ],
      [
        "ĠScot",
        -9.123744880005248
      ],
      [
        "Ġmajor",
        -9.12438767056862
      ],
      [
        "Ġgreen",
        -9.125447944795823
      ],
      [
        "Ġactiviti",
        -9.125495189082669
      ],
      [
        "Answer",
        -9.125958965903738
      ],
      [
        "Ġtask",
        -9.125984684079436
      ],
      [
        "rather",
        -9.127710471551891
      ],
      [
        "Ġonline",
        -9.128168051220223
      ],
      [
        "some",
        -9.128735845519898
      ],
      [
        "Ġdetail",
        -9.128784810760436
      ],
      [
        "Ġquickly",
        -9.132195267737655
      ],
      [
        "!Ċ",
        -9.137136646061712
      ],
      [
        "Ġreceive",
        -9.13725276099362
      ],
      [
        "Ġenvironmental",
        -9.13938441445544
      ],
      [
        "Ġitem",
        -9.139616829631477
      ],
      [
        "Ġmoney",
        -9.139637621679675
      ],
      [
        "Ġfield",
        -9.140001629571188
      ],
      [
        "Ġbring",
        -9.140888409963512
      ],
      [
        "ĠOne",
        -9.141275128021602
      ],
      [
        "Ġbit",
        -9.141506167433384
      ],
      [
        "Ġlikel",
        -9.14173208008092
      ],
      [
        "Ġlanguage",
        -9.142320962819934
      ],
      [
        "now",
        -9.143619342888345
      ],
      [
        "ic",
        -9.14365963128555
      ],
      [
        "Ġdescribe",
        -9.14405372724358
      ],
      [
        "Ġrelease",
        -9.144288458269624
      ],
      [
        "One",
        -9.144430622398971
      ],
      [
        "Ġtravel",
        -9.14461476790686
      ],
      [
        "Ġcold",
        -9.145728577447525
      ],
      [
        "_",
        -9.14862163211328
      ],
      [
        "Ġopportunit",
        -9.150455482586649
      ],
      [
        "They",
        -9.152049163738363
      ],
      [
        "Ġpast",
        -9.15377808192333
      ],
      [
        "Ġcrucial",
        -9.155128327489606
      ],
      [
        "Ġhalf",
        -9.155253957435225
      ],
      [
        "Ġmethods",
        -9.15562104103742
      ],
      [
        "Ġtree",
        -9.15897442564127
      ],
      [
        "These",
        -9.160390065678266
      ],
      [
        "sure",
        -9.160580900379689
      ],
      [
        "Ġauthor",
        -9.16092729216604
      ],
      [
        "Ġprofessional",
        -9.164811192291184
      ],
      [
        "Ġdetermine",
        -9.164854596370084
      ],
      [
        "Ġdevice",
        -9.16640306062057
      ],
      [
        "Ġnetwork",
        -9.167097078585138
      ],
      [
        "It",
        -9.168882910421951
      ],
      [
        "Ġbalance",
        -9.170586823074752
      ],
      [
        "ment",
        -9.171918921610231
      ],
      [
        "Ġfeatures",
        -9.172047227847717
      ],
      [
        "Ġpositive",
        -9.173290495755989
      ],
      [
        "Ġattention",
        -9.174242369325128
      ],
      [
        "Ġengine",
        -9.17500504833307
      ],
      [
        "Ġsugar",
        -9.175522422603024
      ],
      [
        "well",
        -9.175694409319108
      ],
      [
        "Ġtalk",
        -9.176118739989692
      ],
      [
        "Ġfuel",
        -9.176239020400736
      ],
      [
        "Ġservice",
        -9.17655390380905
      ],
      [
        "Ġoverall",
        -9.17693565841846
      ],
      [
        "eating",
        -9.178142831408367
      ],
      [
        "Ġtreat",
        -9.178902684608346
      ],
      [
        "Ġgeneral",
        -9.18038370200889
      ],
      [
        "Ġhowever",
        -9.181700029114154
      ],
      [
        "From",
        -9.182166771114533
      ],
      [
        "Ġnear",
        -9.182645501791026
      ],
      [
        "Ġguide",
        -9.183003628914864
      ],
      [
        "Ġprotein",
        -9.183624341765666
      ],
      [
        "Ġblock",
        -9.183659452154195
      ],
      [
        "Ġpersonal",
        -9.184213350165678
      ],
      [
        "Ġspecial",
        -9.185092683043512
      ],
      [
        "ng",
        -9.187572756604908
      ],
      [
        "Ġprobabl",
        -9.18821528154363
      ],
      [
        "Ġyourself",
        -9.189407007976316
      ],
      [
        "Ġwomen",
        -9.189952263351763
      ],
      [
        "Ġchemical",
        -9.190122277962324
      ],
      [
        "get",
        -9.190393019257396
      ],
      [
        "Ġchoose",
        -9.192502303840898
      ],
      [
        "Ġsuggest",
        -9.19927509663164
      ],
      [
        "Ġlayer",
        -9.20011428439552
      ],
      [
        "Ġpet",
        -9.201133926027287
      ],
      [
        "Ġconsidered",
        -9.201899165681713
      ],
      [
        "Ġwinter",
        -9.203883361199413
      ],
      [
        "Ġprimar",
        -9.203973370208727
      ],
      [
        "Ġmind",
        -9.204293239461729
      ],
      [
        "Ġyoung",
        -9.20440721693993
      ],
      [
        "ĠP",
        -9.205462651086616
      ],
      [
        "Ġface",
        -9.205505322871277
      ],
      [
        "Ġdecision",
        -9.20585115707527
      ],
      [
        "Ġsituation",
        -9.20602931551161
      ],
      [
        "Ġactivity",
        -9.20747984897791
      ],
      [
        "Ġprovid",
        -9.208641721301634
      ],
      [
        "anagement",
        -9.209990045746268
      ],
      [
        "rying",
        -9.21349107981126
      ],
      [
        "Ġtools",
        -9.213587043117414
      ],
      [
        "Ġclear",
        -9.21370605017635
      ],
      [
        "Ġappear",
        -9.215552292653378
      ],
      [
        "Ġtool",
        -9.215686052364797
      ],
      [
        "Ġresponse",
        -9.216886274076458
      ],
      [
        "Ġaverage",
        -9.217186511813775
      ],
      [
        "Ġseason",
        -9.21798225202372
      ],
      [
        "Ġwaste",
        -9.218162958236054
      ],
      [
        "ways",
        -9.21816336610954
      ],
      [
        "Ġar",
        -9.2183456641808
      ],
      [
        "Ġbuy",
        -9.219174409213018
      ],
      [
        "Ġeyes",
        -9.22097751249536
      ],
      [
        "Ġclass",
        -9.22181470046396
      ],
      [
        "Ġenhance",
        -9.222112968840786
      ],
      [
        "Ġliving",
        -9.22243509320658
      ],
      [
        "Ġcreating",
        -9.223267743021117
      ],
      [
        ")Ċ",
        -9.223548926099507
      ],
      [
        "Ġeffort",
        -9.223961894892248
      ],
      [
        "ĠAmerican",
        -9.224360961439697
      ],
      [
        "Ġtraditional",
        -9.226998216373069
      ],
      [
        "Ġweather",
        -9.227859973193542
      ],
      [
        "Ġthought",
        -9.229463680438723
      ],
      [
        "Ġdeep",
        -9.229882366409589
      ],
      [
        "Ġquestions",
        -9.23180195940917
      ],
      [
        "Ġlarger",
        -9.232924804840833
      ],
      [
        "But",
        -9.233139069472744
      ],
      [
        "Ġsimply",
        -9.234673527556636
      ],
      [
        "Ġadult",
        -9.234937246956296
      ],
      [
        "ever",
        -9.23659533943093
      ],
      [
        "Ġsense",
        -9.237395551441944
      ],
      [
        "Ġcarbon",
        -9.238510608413891
      ],
      [
        "Ġgrowing",
        -9.239203806052132
      ],
      [
        "United",
        -9.240975604534594
      ],
      [
        "Ġhumans",
        -9.24265073417007
      ],
      [
        "Ġcut",
        -9.242997458928006
      ],
      [
        "Ġtotal",
        -9.244427161329714
      ],
      [
        "Ġbegin",
        -9.245382505767946
      ],
      [
        "Ġconcern",
        -9.246981096756649
      ],
      [
        "Ġstress",
        -9.247059543957196
      ],
      [
        "Ġfeet",
        -9.24813342230322
      ],
      [
        "Ġwarm",
        -9.249012511103622
      ],
      [
        "Ġmetal",
        -9.249025167134334
      ],
      [
        "Ġtarget",
        -9.250537355508332
      ],
      [
        "Ġcount",
        -9.25058573137452
      ],
      [
        "Ġshape",
        -9.251415123051862
      ],
      [
        "Ġcool",
        -9.255772743178364
      ],
      [
        "Ġadditional",
        -9.256811322269822
      ],
      [
        "only",
        -9.257486608207818
      ],
      [
        "Ġglobal",
        -9.25801750029616
      ],
      [
        "Ġobject",
        -9.258232436092449
      ],
      [
        "Ġfall",
        -9.25826029706542
      ],
      [
        "Ġoutside",
        -9.260207923032873
      ],
      [
        "Ġpatients",
        -9.26052754980694
      ],
      [
        "Ġnature",
        -9.260771023065692
      ],
      [
        "ting",
        -9.261123269714172
      ],
      [
        "|",
        -9.263089354595198
      ],
      [
        "Ġresources",
        -9.265189780531156
      ],
      [
        "Ġwall",
        -9.26917205385578
      ],
      [
        "Ġnormal",
        -9.269696794917117
      ],
      [
        "Ġexpert",
        -9.270789916382654
      ],
      [
        "Ġseen",
        -9.2727911974708
      ],
      [
        "âĢ¦",
        -9.27426235159692
      ],
      [
        "Ġsummer",
        -9.274722170895222
      ],
      [
        "Ġwood",
        -9.276374032817897
      ],
      [
        "Ġidentify",
        -9.280034733458429
      ],
      [
        "Ġtaking",
        -9.281128649819951
      ],
      [
        "Ġsetting",
        -9.282448146459718
      ],
      [
        "ves",
        -9.282522083414264
      ],
      [
        "Ġteeth",
        -9.284445430615405
      ],
      [
        "Ġo",
        -9.286824470984453
      ],
      [
        "G",
        -9.28782868157158
      ],
      [
        "hether",
        -9.2882784393366
      ],
      [
        "Ġlet",
        -9.28916803328242
      ],
      [
        "Ġsubject",
        -9.290758851060064
      ],
      [
        "Ġincreasing",
        -9.292490764311967
      ],
      [
        "will",
        -9.2930432630662
      ],
      [
        "cannot",
        -9.293577473335423
      ],
      [
        "Ġexplore",
        -9.295239945678656
      ],
      [
        "Ġaccount",
        -9.297642168574797
      ],
      [
        "Ġexact",
        -9.298198130710675
      ],
      [
        "Ġpercent",
        -9.29961816802717
      ],
      [
        "Ġwon",
        -9.299722852135169
      ],
      [
        "Ġgenerate",
        -9.301245170458142
      ],
      [
        "Ġbreak",
        -9.30189876448279
      ],
      [
        "Ġstudent",
        -9.302033428129889
      ],
      [
        "Ġthen",
        -9.302946365832383
      ],
      [
        "many",
        -9.303988033877133
      ],
      [
        "ĠT",
        -9.305080967684212
      ],
      [
        "Ġrelationship",
        -9.307916249023563
      ],
      [
        "Ġprevious",
        -9.308562916582265
      ],
      [
        "ĠNational",
        -9.308891457782316
      ],
      [
        "Ġcountry",
        -9.309387611672706
      ],
      [
        "Ġreading",
        -9.312112540473857
      ],
      [
        "With",
        -9.312177530691688
      ],
      [
        "Ġunit",
        -9.31293672609878
      ],
      [
        "Ġextreme",
        -9.31510523828366
      ],
      [
        "Ġregard",
        -9.315584532263994
      ],
      [
        "here",
        -9.315869013012891
      ],
      [
        "Ġstudies",
        -9.315880566657416
      ],
      [
        "Ġanything",
        -9.316311432974024
      ],
      [
        "Ġrepresent",
        -9.31694169239836
      ],
      [
        "To",
        -9.318086894800246
      ],
      [
        "Ġmass",
        -9.32059084216359
      ],
      [
        "Ġreturn",
        -9.320818812120594
      ],
      [
        "le",
        -9.321608316051543
      ],
      [
        "Ġrelative",
        -9.32218652563261
      ],
      [
        "Ġcustomer",
        -9.322395202023134
      ],
      [
        "Ġcreated",
        -9.324036735151186
      ],
      [
        "Ġmovement",
        -9.32566618959358
      ],
      [
        "z",
        -9.3261500362012
      ],
      [
        "Ġsoftware",
        -9.32619535260477
      ],
      [
        "Ġplastic",
        -9.32624232330273
      ],
      [
        "Ġwebsite",
        -9.326903320039632
      ],
      [
        "Ġgenerally",
        -9.327402112672974
      ],
      [
        "Ġbehind",
        -9.32815717187965
      ],
      [
        "Ġwalk",
        -9.329368639115664
      ],
      [
        "last",
        -9.32984247866043
      ],
      [
        "Ġstarted",
        -9.331763062140602
      ],
      [
        "Ġquite",
        -9.33268233729904
      ],
      [
        "Ġstop",
        -9.33396518570401
      ],
      [
        "Ġlocation",
        -9.335132519972696
      ],
      [
        "ĠOn",
        -9.33537179473889
      ],
      [
        "Ġfive",
        -9.33542649385135
      ],
      [
        "Ġachieve",
        -9.336652652839836
      ],
      [
        "Ġcharge",
        -9.338895413533812
      ],
      [
        "Ġplayer",
        -9.338937086412916
      ],
      [
        "Ġrecent",
        -9.340721026375736
      ],
      [
        "Ġmultiple",
        -9.342781644265076
      ],
      [
        "Ġmodern",
        -9.344040274603284
      ],
      [
        "Ġhold",
        -9.344264670665368
      ],
      [
        "Ġdevices",
        -9.34630040309242
      ],
      [
        "make",
        -9.347409480607244
      ],
      [
        "Ġaddress",
        -9.348785637730051
      ],
      [
        "Ġalmost",
        -9.35152170950137
      ],
      [
        "Ġpay",
        -9.352779805600616
      ],
      [
        "Ġtissue",
        -9.353387230185266
      ],
      [
        "Ġincludes",
        -9.354148519391853
      ],
      [
        "light",
        -9.355057623711923
      ],
      [
        "Ġhear",
        -9.355506530874312
      ],
      [
        "Ġif",
        -9.3558765898458
      ],
      [
        "Ġtrees",
        -9.357294967946066
      ],
      [
        "Ġview",
        -9.357674668576578
      ],
      [
        "Ġeasie",
        -9.357678265864791
      ],
      [
        "ĠAll",
        -9.358757293220007
      ],
      [
        "Ġlength",
        -9.359039393036102
      ],
      [
        "Ġposition",
        -9.359443557188058
      ],
      [
        "low",
        -9.359893328121686
      ],
      [
        "Ġapply",
        -9.361636711332482
      ],
      [
        "others",
        -9.361775499389768
      ],
      [
        "Ġjob",
        -9.364312912895096
      ],
      [
        "However",
        -9.364974714361392
      ],
      [
        "Ġself",
        -9.372292043991369
      ],
      [
        "Ġtell",
        -9.372933794370688
      ],
      [
        "Ġequipment",
        -9.373175686775191
      ],
      [
        "Ġsun",
        -9.375125076007937
      ],
      [
        "Ġconcept",
        -9.375514709986255
      ],
      [
        "Ġreaction",
        -9.37551857809478
      ],
      [
        "Ġexperiment",
        -9.376244783773902
      ],
      [
        "\"ĊĊ",
        -9.376277113204694
      ],
      [
        "Ġsleep",
        -9.377312896568236
      ],
      [
        "Ġreach",
        -9.378719746303702
      ],
      [
        "over",
        -9.379030789334422
      ],
      [
        "Ġoriginal",
        -9.383417128828386
      ],
      [
        "care",
        -9.38361949027039
      ],
      [
        "Ġvegetable",
        -9.384215223517202
      ],
      [
        "ities",
        -9.384426647182094
      ],
      [
        "Ġelectric",
        -9.386412080508796
      ],
      [
        "Ġentire",
        -9.386676122132569
      ],
      [
        "Ġsupply",
        -9.387416773215827
      ],
      [
        "Ġbird",
        -9.387893542969053
      ],
      [
        "Ġsensor",
        -9.387914385176677
      ],
      [
        "was",
        -9.388678081606605
      ],
      [
        "Ġhe",
        -9.389213727104398
      ],
      [
        "Ġlater",
        -9.389422153415264
      ],
      [
        "Ġbad",
        -9.391547484945416
      ],
      [
        "kids",
        -9.392080428738424
      ],
      [
        "Ġbenefit",
        -9.392148470374432
      ],
      [
        "Ġfast",
        -9.392467970847342
      ],
      [
        "moving",
        -9.392599847601282
      ],
      [
        "Ġmanage",
        -9.393112475655713
      ],
      [
        "ance",
        -9.393119029826774
      ],
      [
        "Ġfinal",
        -9.393359783798612
      ],
      [
        "Ġdaily",
        -9.39381348506202
      ],
      [
        "Ġsection",
        -9.394777124125577
      ],
      [
        "Ġetc",
        -9.395112951313315
      ],
      [
        "ĠF",
        -9.397981603344515
      ],
      [
        "day",
        -9.39848616010824
      ],
      [
        "they",
        -9.399061779645224
      ],
      [
        "#",
        -9.399186810248386
      ],
      [
        "work",
        -9.39929026215212
      ],
      [
        "Ġwh",
        -9.39966501280984
      ],
      [
        "had",
        -9.400793804400276
      ],
      [
        "Ġcall",
        -9.402682070538532
      ],
      [
        "Ġstage",
        -9.402972329152355
      ],
      [
        "Ġtrue",
        -9.403535902673188
      ],
      [
        "Ġsolar",
        -9.403761607897795
      ],
      [
        "Ġdirectly",
        -9.404528797525522
      ],
      [
        "Ġdigital",
        -9.404658491118475
      ],
      [
        "Ġfun",
        -9.404837621658736
      ],
      [
        "Ġconstant",
        -9.406078936238275
      ],
      [
        "Ġthemsel",
        -9.406480347631325
      ],
      [
        "Ġflavor",
        -9.407261711105456
      ],
      [
        "Ġroom",
        -9.40851949091244
      ],
      [
        "ĠU",
        -9.408825123403393
      ],
      [
        "Ġdrive",
        -9.40973595954932
      ],
      [
        "ĠMan",
        -9.41061372550832
      ],
      [
        "ĠHere",
        -9.412224780463092
      ],
      [
        "ĠE",
        -9.412336263682224
      ],
      [
        "Ġbirds",
        -9.413068602985438
      ],
      [
        "Ġdark",
        -9.413147371133608
      ],
      [
        "Ġvisit",
        -9.4140832367793
      ],
      [
        "Ġfront",
        -9.415516779284715
      ],
      [
        "Ġservices",
        -9.4156794940308
      ],
      [
        "Ġfinding",
        -9.416041843449564
      ],
      [
        "line",
        -9.417103246101677
      ],
      [
        "Ġextra",
        -9.41740288097242
      ],
      [
        "Ġsite",
        -9.41895660689392
      ],
      [
        "Step",
        -9.42154149798073
      ],
      [
        "body",
        -9.422138334140907
      ],
      [
        "Ġrelated",
        -9.423825558604111
      ],
      [
        "Can",
        -9.42518669284281
      ],
      [
        "Ġscientists",
        -9.425774685117766
      ],
      [
        "Ġbacteria",
        -9.42671333171494
      ],
      [
        "Ġfemale",
        -9.428520906558264
      ],
      [
        "Ġappropriate",
        -9.43009497082778
      ],
      [
        "Ġingredient",
        -9.430485120660546
      ],
      [
        "Ġexercise",
        -9.431374321977325
      ],
      [
        "Ġeggs",
        -9.431388807220488
      ],
      [
        "Ġuseful",
        -9.432107682259714
      ],
      [
        "Ġelectrical",
        -9.43250726661103
      ],
      [
        "Some",
        -9.432642352984356
      ],
      [
        ">",
        -9.43599965239656
      ],
      [
        "ĠH",
        -9.436510117134873
      ],
      [
        "Ġeveryone",
        -9.437421700288988
      ],
      [
        "ĠStates",
        -9.438196232820186
      ],
      [
        "Ġanalysis",
        -9.438684208602336
      ],
      [
        "while",
        -9.440049523403893
      ],
      [
        "Ġhim",
        -9.44022798902244
      ],
      [
        "Ġcommunication",
        -9.440940912349024
      ],
      [
        "Ġchance",
        -9.440965749576684
      ],
      [
        "Ġnight",
        -9.44154671715637
      ],
      [
        "Ġsample",
        -9.441790931846834
      ],
      [
        "Ġwords",
        -9.44179362642284
      ],
      [
        "Ġshows",
        -9.442289194912124
      ],
      [
        "Ġevent",
        -9.444098948580194
      ],
      [
        "Ġha",
        -9.444367579321304
      ],
      [
        "Ġsometime",
        -9.445094850526022
      ],
      [
        "Ġaspect",
        -9.44629350317055
      ],
      [
        "Ġsteps",
        -9.44652099299038
      ],
      [
        "Ġrequirement",
        -9.448188514856083
      ],
      [
        "Ġfoods",
        -9.448197412136054
      ],
      [
        "Ġnegative",
        -9.448826653855882
      ],
      [
        "ĠDo",
        -9.448994159123394
      ],
      [
        "Ġadded",
        -9.44994329542044
      ],
      [
        "ĠEarth",
        -9.450041948876173
      ],
      [
        "Ġfeeling",
        -9.45180694598509
      ],
      [
        "ĠAn",
        -9.45214267996108
      ],
      [
        "Ġcode",
        -9.456783769481138
      ],
      [
        "Ġgroups",
        -9.459322871393873
      ],
      [
        "Ġshown",
        -9.460011391913596
      ],
      [
        "Ġinterest",
        -9.460173971372548
      ],
      [
        "unning",
        -9.460209656305947
      ],
      [
        "Ġindicate",
        -9.465041554781209
      ],
      [
        "Another",
        -9.465486360759892
      ],
      [
        "ĠAI",
        -9.466866535923318
      ],
      [
        "Ġgenetic",
        -9.467096839691523
      ],
      [
        ".\"",
        -9.472535867221628
      ],
      [
        "Ġcenter",
        -9.472662867733884
      ],
      [
        "U",
        -9.473283237685838
      ],
      [
        "Ġtopic",
        -9.475420784117652
      ],
      [
        "people",
        -9.476215737039336
      ],
      [
        "what",
        -9.476273406308326
      ],
      [
        "Ġdidn",
        -9.4765047011653
      ],
      [
        "making",
        -9.477955766140424
      ],
      [
        "V",
        -9.478384608874457
      ],
      [
        "Ġmonth",
        -9.478512517119135
      ],
      [
        "Ġdevelope",
        -9.479242052751877
      ],
      [
        "Ġreport",
        -9.480446757893924
      ],
      [
        "Ġevents",
        -9.480468076189236
      ],
      [
        "Ġlist",
        -9.480746289872595
      ],
      [
        "Ġ\"",
        -9.48108403366913
      ],
      [
        "Ġtips",
        -9.481266926999556
      ],
      [
        "ĠUse",
        -9.481725140610784
      ],
      [
        "Ġseeds",
        -9.482980723070172
      ],
      [
        "Ġred",
        -9.483771180675156
      ],
      [
        "Ġcontribute",
        -9.483867829696631
      ],
      [
        "Ġinfluence",
        -9.486193183403394
      ],
      [
        "Ġfresh",
        -9.486229319309118
      ],
      [
        "Ġdirection",
        -9.486476659255716
      ],
      [
        "Ġspread",
        -9.487294867559951
      ],
      [
        "Ġmeat",
        -9.490367363525014
      ],
      [
        "Ġspring",
        -9.491410118182294
      ],
      [
        "Ġcamera",
        -9.492435750144818
      ],
      [
        "side",
        -9.492605672537996
      ],
      [
        "âĢ¢",
        -9.493954806274743
      ],
      [
        "Ġreplace",
        -9.494302985600612
      ],
      [
        "Ġgoal",
        -9.49500767165886
      ],
      [
        "Ġmeet",
        -9.495967190184665
      ],
      [
        "Ġtaken",
        -9.496467944958596
      ],
      [
        "Ġreview",
        -9.4964686265402
      ],
      [
        "ĠAfter",
        -9.496860166097418
      ],
      [
        "ĠShe",
        -9.496943796426402
      ],
      [
        "Ġweeks",
        -9.496957794422194
      ],
      [
        "Ġbase",
        -9.497231720529516
      ],
      [
        "Ġsave",
        -9.498960991515371
      ],
      [
        "were",
        -9.499943400754203
      ],
      [
        "Ġworks",
        -9.50096165922364
      ],
      [
        "Ġre",
        -9.501917809605253
      ],
      [
        "Ġefficient",
        -9.50201660446741
      ],
      [
        "Ġpiece",
        -9.502514564943674
      ],
      [
        "Ġorganization",
        -9.50372208170175
      ],
      [
        "Ġinstruction",
        -9.50411607711218
      ],
      [
        "etting",
        -9.504376174811986
      ],
      [
        "Ġmoment",
        -9.505280998668066
      ],
      [
        "So",
        -9.505981931635477
      ],
      [
        "Ġproduced",
        -9.506091301044206
      ],
      [
        "Ġdiscover",
        -9.506497945847304
      ],
      [
        "pretty",
        -9.506997853307835
      ],
      [
        "Ġever",
        -9.507586094699816
      ],
      [
        "Ġlink",
        -9.507963184981191
      ],
      [
        "Ġnotice",
        -9.5082828943603
      ],
      [
        "ĠHealth",
        -9.512457583584904
      ],
      [
        "even",
        -9.514572917649373
      ],
      [
        "nd",
        -9.514725806922762
      ],
      [
        "Ġpre",
        -9.5157657617829
      ],
      [
        "Ġmeal",
        -9.516532458563898
      ],
      [
        "Ġstory",
        -9.521614299182804
      ],
      [
        "Ġsmalle",
        -9.52268907532781
      ],
      [
        "Ġprotection",
        -9.52484409434452
      ],
      [
        "Ġoutput",
        -9.527596614000515
      ],
      [
        "Ġfrequent",
        -9.528591165880515
      ],
      [
        "ĠNorth",
        -9.529056098105157
      ],
      [
        "about",
        -9.529224643063191
      ],
      [
        "Ġorganic",
        -9.531461672861608
      ],
      [
        "Using",
        -9.531490875514816
      ],
      [
        "Ġrecommende",
        -9.532072038132329
      ],
      [
        "Ġseparate",
        -9.533374602356073
      ],
      [
        "Ġacid",
        -9.534370145093192
      ],
      [
        "Ġglass",
        -9.534476741381212
      ],
      [
        "Ġcompletely",
        -9.534855489574904
      ],
      [
        "Ġleg",
        -9.53503113667399
      ],
      [
        "Ġhappen",
        -9.535599722724807
      ],
      [
        "Ġstrength",
        -9.536548028323974
      ],
      [
        "Ġdoctor",
        -9.538636100283416
      ],
      [
        "Ġus",
        -9.540398928271465
      ],
      [
        "Ġstyle",
        -9.541414228869783
      ],
      [
        "Ġremember",
        -9.541800987408614
      ],
      [
        "Ġevidence",
        -9.541908042757242
      ],
      [
        "Ġrecommend",
        -9.542832462031043
      ],
      [
        "Ġword",
        -9.543390273936591
      ],
      [
        "Ġelse",
        -9.543819205278243
      ],
      [
        "Ġsuitable",
        -9.544923412619404
      ],
      [
        "don",
        -9.545266912727769
      ],
      [
        "Ġgames",
        -9.5460906289553
      ],
      [
        "Ġmilk",
        -9.546914322089147
      ],
      [
        "Each",
        -9.548781973998697
      ],
      [
        "Ġresistance",
        -9.550497900233482
      ],
      [
        "take",
        -9.550799337655471
      ],
      [
        "Ġready",
        -9.551220469104804
      ],
      [
        "Ġconnection",
        -9.551298596007811
      ],
      [
        "Ġmix",
        -9.553248357016416
      ],
      [
        "Ġparents",
        -9.554033711561267
      ],
      [
        "Ġcover",
        -9.554744740015977
      ],
      [
        "right",
        -9.555704615722746
      ],
      [
        "Ġgreater",
        -9.556455394629474
      ],
      [
        "Ġefficiency",
        -9.55851401543465
      ],
      [
        "Ġmemory",
        -9.561485367668876
      ],
      [
        "Ġcritical",
        -9.562349939819018
      ],
      [
        "Ġsalt",
        -9.5630721497331
      ],
      [
        "Ġtesting",
        -9.563163355869143
      ],
      [
        "Ġideal",
        -9.564026934994915
      ],
      [
        "Ġmedia",
        -9.564935527472764
      ],
      [
        "Ġalternative",
        -9.564945071875217
      ],
      [
        "Ġtrack",
        -9.5674676680628
      ],
      [
        "ous",
        -9.568411402423148
      ],
      [
        "Ġdirect",
        -9.568474528659344
      ],
      [
        "Ġgovernment",
        -9.569273069891192
      ],
      [
        "rate",
        -9.56983956673374
      ],
      [
        "Ġfiber",
        -9.570005681648382
      ],
      [
        "Q",
        -9.571970026883596
      ],
      [
        "Ġdeath",
        -9.572152423313009
      ],
      [
        "Ġliquid",
        -9.572538932619391
      ],
      [
        "And",
        -9.573602791481068
      ],
      [
        "Ġinput",
        -9.574177151449524
      ],
      [
        "Ġsix",
        -9.574865119225972
      ],
      [
        "Ġtouch",
        -9.575703797935216
      ],
      [
        "Ġgain",
        -9.575847622362732
      ],
      [
        "Ġdemand",
        -9.576393215365538
      ],
      [
        "Ġcircuit",
        -9.57689446764392
      ],
      [
        "ive",
        -9.579611747244629
      ],
      [
        "Ġvisual",
        -9.579772182661069
      ],
      [
        "Ġdrink",
        -9.581290551103423
      ],
      [
        "Ġtaste",
        -9.582646506693974
      ],
      [
        "Ġobtain",
        -9.5830358639326
      ],
      [
        "lower",
        -9.584299581107976
      ],
      [
        "Ġball",
        -9.585507349897576
      ],
      [
        "Ġfeature",
        -9.58683637675447
      ],
      [
        "--",
        -9.587712139166836
      ],
      [
        "Ġdetect",
        -9.587989437623332
      ],
      [
        "their",
        -9.589461770442377
      ],
      [
        "Ġrest",
        -9.58959760902024
      ],
      [
        "maintenance",
        -9.589849817145936
      ],
      [
        "ĠDr",
        -9.59013287011614
      ],
      [
        "Ġwear",
        -9.590168458574947
      ],
      [
        "Ġdistance",
        -9.59260290293088
      ],
      [
        "Ġhearing",
        -9.593075736926934
      ],
      [
        "Ġlives",
        -9.593971510462405
      ],
      [
        "Ġmusic",
        -9.59591781564373
      ],
      [
        "Ġfire",
        -9.596002306073252
      ],
      [
        "me",
        -9.596769641667631
      ],
      [
        "man",
        -9.598291818600243
      ],
      [
        "ĠScience",
        -9.598614609173016
      ],
      [
        "Ġpage",
        -9.598801942856596
      ],
      [
        "Ġattack",
        -9.599409098029938
      ],
      [
        "Ġwind",
        -9.599815436317218
      ],
      [
        "Ġrepair",
        -9.60133482785033
      ],
      [
        "...ĊĊ",
        -9.601401457965387
      ],
      [
        "ĠSchool",
        -9.601822088948191
      ],
      [
        "Ġcosts",
        -9.602547505124754
      ],
      [
        "companie",
        -9.602591616927944
      ],
      [
        "Ġpromote",
        -9.60357203980528
      ],
      [
        "Ġhope",
        -9.604596430467952
      ],
      [
        "Ġcook",
        -9.604852154775529
      ],
      [
        "Ġmuscle",
        -9.605798592440957
      ],
      [
        "ĠCan",
        -9.606396295310413
      ],
      [
        "Ġprocesses",
        -9.606769104854433
      ],
      [
        "Ġbaby",
        -9.60722926042624
      ],
      [
        "Y",
        -9.61005588404856
      ],
      [
        "when",
        -9.61007643798979
      ],
      [
        "Ġfeed",
        -9.610171832558803
      ],
      [
        "Ġbag",
        -9.610787147007953
      ],
      [
        "Ġperform",
        -9.610957685225788
      ],
      [
        "Ġpattern",
        -9.611485207601053
      ],
      [
        "water",
        -9.611541240952482
      ],
      [
        "Ġdefine",
        -9.61223088467973
      ],
      [
        "ĠAmerica",
        -9.613039106535007
      ],
      [
        "Ġcapacit",
        -9.614350779869929
      ],
      [
        "By",
        -9.614377548962548
      ],
      [
        "K",
        -9.614717207882489
      ],
      [
        "Now",
        -9.614718923687851
      ],
      [
        "ooking",
        -9.616348391489922
      ],
      [
        "Ġsuccess",
        -9.617048624269149
      ],
      [
        "Ġscientific",
        -9.618045134301829
      ],
      [
        "ĠR",
        -9.620410695883606
      ],
      [
        "Ġcleaning",
        -9.620710181887198
      ],
      [
        "Ġblue",
        -9.621862223728384
      ],
      [
        "Ġparticle",
        -9.624164566070508
      ],
      [
        "X",
        -9.624574529123484
      ],
      [
        "Ġimportance",
        -9.62629642018134
      ],
      [
        "ĠMore",
        -9.62774984105048
      ],
      [
        "Ġexplain",
        -9.628026361222837
      ],
      [
        "them",
        -9.628279668939369
      ],
      [
        "Ġwave",
        -9.628929461321295
      ],
      [
        "Ġcarry",
        -9.62980515784777
      ],
      [
        "Ġmembers",
        -9.629869174056338
      ],
      [
        "fish",
        -9.630087903902185
      ],
      [
        "Ġconnect",
        -9.630118752753036
      ],
      [
        "-to",
        -9.632200244372807
      ],
      [
        "Ġhabitat",
        -9.633906718903534
      ],
      [
        "Ġworth",
        -9.634050788491272
      ],
      [
        "ĠWorld",
        -9.634641210206786
      ],
      [
        "Ġslow",
        -9.636078226928015
      ],
      [
        "ĠYes",
        -9.636703088145278
      ],
      [
        "Ġjourney",
        -9.637579901046683
      ],
      [
        "Ġcareful",
        -9.63883318912773
      ],
      [
        "Ġdecrease",
        -9.639001114680152
      ],
      [
        "-up",
        -9.63931184331888
      ],
      [
        "Ġclaim",
        -9.640656743192782
      ],
      [
        "Ġgene",
        -9.640759211389192
      ],
      [
        "giving",
        -9.64128741564189
      ],
      [
        "That",
        -9.641895939215097
      ],
      [
        "As",
        -9.642309268133786
      ],
      [
        "ries",
        -9.642512479806324
      ],
      [
        "Ġtemperatures",
        -9.64367025943045
      ],
      [
        "Ġactive",
        -9.644264146638218
      ],
      [
        "ility",
        -9.644478061905886
      ],
      [
        "Ġconstruction",
        -9.64835428450085
      ],
      [
        "Ġpatterns",
        -9.650168518913134
      ],
      [
        "Ġforest",
        -9.65136856158459
      ],
      [
        "Ġgot",
        -9.65181199452594
      ],
      [
        "Ġenter",
        -9.65272752300813
      ],
      [
        "Ġcombination",
        -9.653864076141568
      ],
      [
        "Ġinstance",
        -9.655371641755888
      ],
      [
        "Ġdraw",
        -9.655963006159109
      ],
      [
        "Ġtank",
        -9.65603782237574
      ],
      [
        "bility",
        -9.657169619169364
      ],
      [
        "Ġmale",
        -9.657250593839104
      ],
      [
        "Ġcouple",
        -9.657732080529266
      ],
      [
        "Ġoxygen",
        -9.658592711968076
      ],
      [
        "Ġman",
        -9.661117762083164
      ],
      [
        "adding",
        -9.661761367431447
      ],
      [
        "Ġcycle",
        -9.662428089858771
      ],
      [
        "into",
        -9.662821462770635
      ],
      [
        "Ġbottom",
        -9.664171907275728
      ],
      [
        "Ġvoltage",
        -9.664988504615048
      ],
      [
        "Ġflight",
        -9.665731230179826
      ],
      [
        "Ġfluid",
        -9.667993606056344
      ],
      [
        "Ġthird",
        -9.668405478803066
      ],
      [
        "uses",
        -9.669926019475788
      ],
      [
        "Ġlocate",
        -9.670305589222478
      ],
      [
        "lot",
        -9.670803377234815
      ],
      [
        "ĠâĢľ",
        -9.670846657833147
      ],
      [
        "Ġpurchase",
        -9.670974110067752
      ],
      [
        "Ġsevere",
        -9.672307632064872
      ],
      [
        "Ġbone",
        -9.673680782638725
      ],
      [
        "do",
        -9.67402641969663
      ],
      [
        "Ġwire",
        -9.674207952961943
      ],
      [
        "older",
        -9.674723022694044
      ],
      [
        "therapy",
        -9.675040092287997
      ],
      [
        "Ġchallenges",
        -9.675448447816144
      ],
      [
        "Ġcutting",
        -9.67839928167639
      ],
      [
        "Ġserve",
        -9.680675468176164
      ],
      [
        "Ġfile",
        -9.681303604171772
      ],
      [
        "aking",
        -9.682621571594147
      ],
      [
        "quality",
        -9.682969616742138
      ],
      [
        "Ġapplied",
        -9.68388515906728
      ],
      [
        "Ġpowerful",
        -9.684577818686613
      ],
      [
        "Ġdeal",
        -9.684892777764915
      ],
      [
        "Ġresponsibl",
        -9.685771330632544
      ],
      [
        "Ġrecord",
        -9.68702494148041
      ],
      [
        "Here",
        -9.687574544055096
      ],
      [
        "ĠSouth",
        -9.687673716380097
      ],
      [
        ".com",
        -9.687936618189138
      ],
      [
        "Ġbuilt",
        -9.688783334789576
      ],
      [
        "Ġselect",
        -9.690049417934954
      ],
      [
        "Ġnothing",
        -9.690075789354395
      ],
      [
        "away",
        -9.690832536002471
      ],
      [
        "Ġrefer",
        -9.690967819991233
      ],
      [
        "ĠOf",
        -9.691211974126276
      ],
      [
        "Ġflowers",
        -9.694677607782085
      ],
      [
        "Ġfriends",
        -9.69557145408114
      ],
      [
        "ĠMy",
        -9.696127250387082
      ],
      [
        "Ġscale",
        -9.69730284423823
      ],
      [
        "Ġobserve",
        -9.698397478443756
      ],
      [
        "Ġpublished",
        -9.699886770478814
      ],
      [
        "Ġyellow",
        -9.701786778050472
      ],
      [
        "Ġtend",
        -9.701935794678514
      ],
      [
        "Ġinvolves",
        -9.702154144574427
      ],
      [
        "Ġhair",
        -9.702197601883045
      ],
      [
        "ther",
        -9.704188775343304
      ],
      [
        "parts",
        -9.704974065462896
      ],
      [
        "Ġforward",
        -9.706002521740093
      ],
      [
        "Ġmedication",
        -9.70633681969934
      ],
      [
        "ĠDNA",
        -9.706350515834462
      ],
      [
        "going",
        -9.708356084326793
      ],
      [
        "Ġlesson",
        -9.70837918065411
      ],
      [
        "Ġcolors",
        -9.709034190852869
      ],
      [
        "Ġdiscuss",
        -9.70920594527087
      ],
      [
        "Ġco",
        -9.710012354520272
      ],
      [
        "Ġsuccessful",
        -9.71183843291585
      ],
      [
        "Ġcame",
        -9.71188816733937
      ],
      [
        "Ġslight",
        -9.712498016390004
      ],
      [
        "Ġmeaning",
        -9.713129748148114
      ],
      [
        "Ġimages",
        -9.713831879303836
      ],
      [
        "Ġsea",
        -9.713834694316551
      ],
      [
        "ĠUS",
        -9.71395699896126
      ],
      [
        "Ġconsist",
        -9.713978446170298
      ],
      [
        "Your",
        -9.714600534671398
      ],
      [
        "just",
        -9.715304099077892
      ],
      [
        "After",
        -9.71538483891528
      ],
      [
        "Ġlimite",
        -9.715892164047272
      ],
      [
        "Ġmotor",
        -9.715991287689445
      ],
      [
        "Ġinteraction",
        -9.717737126263494
      ],
      [
        "><",
        -9.717958456407423
      ],
      [
        "red",
        -9.71860573655249
      ],
      [
        "Ġteaching",
        -9.718913423928392
      ],
      [
        "ĠMost",
        -9.719220201835878
      ],
      [
        "Ġhands",
        -9.719614373224992
      ],
      [
        "Ġcentur",
        -9.719638310577416
      ],
      [
        "Ġm",
        -9.719925109246384
      ],
      [
        "made",
        -9.720324039137909
      ],
      [
        "ook",
        -9.721001757056786
      ],
      [
        "Ġago",
        -9.721464918476885
      ],
      [
        "Ġrapid",
        -9.721720946133992
      ],
      [
        "-term",
        -9.722221032666106
      ],
      [
        "Ġlimit",
        -9.722653729142102
      ],
      [
        "Ġenable",
        -9.722826021292134
      ],
      [
        "Ġraise",
        -9.723330107697327
      ],
      [
        "Ġwatch",
        -9.723611606312614
      ],
      [
        "Ġplatform",
        -9.72476308792027
      ],
      [
        "Ġapp",
        -9.725677695150296
      ],
      [
        "Ġhandle",
        -9.726884345452476
      ],
      [
        "there",
        -9.727592473401234
      ],
      [
        "Ġprograms",
        -9.728765983986024
      ],
      [
        "Ġdeliver",
        -9.728856535960748
      ],
      [
        "head",
        -9.730093599867178
      ],
      [
        "ĠN",
        -9.73073596635814
      ],
      [
        "Ġvary",
        -9.731687977495389
      ],
      [
        "ĠX",
        -9.734206786056902
      ],
      [
        "Ġanyone",
        -9.73474538852223
      ],
      [
        "ĠBe",
        -9.73632722750645
      ],
      [
        "Ġwrong",
        -9.736639883840052
      ],
      [
        "Ġpicture",
        -9.73845783074103
      ],
      [
        "Ġsoft",
        -9.738614817803327
      ],
      [
        "Ġserious",
        -9.738776798113118
      ],
      [
        "therefore",
        -9.73966950569876
      ],
      [
        "Ġmanufacturer",
        -9.740815412053642
      ],
      [
        "Ġfaster",
        -9.74206945683126
      ],
      [
        "ĠResearch",
        -9.74418612839559
      ],
      [
        "Ġroot",
        -9.74419377227546
      ],
      [
        "Ġfloor",
        -9.745245691143412
      ],
      [
        "Ġexcellent",
        -9.747531935441224
      ],
      [
        "Ġrecover",
        -9.74960400111721
      ],
      [
        "ĠG",
        -9.75028199591683
      ],
      [
        "through",
        -9.753331994041158
      ],
      [
        "Ġthinking",
        -9.753439827467275
      ],
      [
        "Ġdegrees",
        -9.753500791039674
      ],
      [
        "Ġwild",
        -9.753596866191517
      ],
      [
        "Ġintroduce",
        -9.753682271441535
      ],
      [
        "Ġbrand",
        -9.754050061680363
      ],
      [
        "Ġprojects",
        -9.754221749770942
      ],
      [
        "Ġpractices",
        -9.755061298337424
      ],
      [
        "Ġaccurate",
        -9.756090863012414
      ],
      [
        "ĠL",
        -9.759671760895548
      ],
      [
        "Ġhappens",
        -9.760123280010252
      ],
      [
        "Ġask",
        -9.76013768095504
      ],
      [
        "Ġinteresting",
        -9.76043942827553
      ],
      [
        "Ġsmooth",
        -9.760736918629222
      ],
      [
        "Ġsearch",
        -9.761771920107378
      ],
      [
        "Ġsustainabl",
        -9.763370535924064
      ],
      [
        "Ġearth",
        -9.763725481619234
      ],
      [
        "Ġensur",
        -9.763910796192288
      ],
      [
        "ĠCalifornia",
        -9.76431767596597
      ],
      [
        "Ġhorse",
        -9.764529475317186
      ],
      [
        "Ġequal",
        -9.765651871761944
      ],
      [
        "Ġteachers",
        -9.765703338861272
      ],
      [
        "Ġheavy",
        -9.765987811953115
      ],
      [
        "Ġadvanced",
        -9.766824642221682
      ],
      [
        "Ġmessage",
        -9.767937191522693
      ],
      [
        "Ġphotograph",
        -9.768200677309864
      ],
      [
        "Ġbeautiful",
        -9.768246253253324
      ],
      [
        "ĠK",
        -9.770615996789168
      ],
      [
        "Ġcontainer",
        -9.770779675743851
      ],
      [
        "Ġocean",
        -9.771241051473986
      ],
      [
        "Ġencourage",
        -9.774350609666222
      ],
      [
        "cause",
        -9.774600185348673
      ],
      [
        "Ġincluded",
        -9.775285421994276
      ],
      [
        "Ġhour",
        -9.775602468319647
      ],
      [
        "Ġideas",
        -9.775935707412089
      ],
      [
        "Ġnote",
        -9.77621356461887
      ],
      [
        "Ġmulti",
        -9.776923015312448
      ],
      [
        "Ġmouth",
        -9.77701069197478
      ],
      [
        "Ġfat",
        -9.777034057690951
      ],
      [
        "Ġpoor",
        -9.778858949887756
      ],
      [
        "Ġinitial",
        -9.7806059717889
      ],
      [
        "Ġrare",
        -9.780682623226353
      ],
      [
        "Ġc",
        -9.781390578543748
      ],
      [
        "Ġsolutions",
        -9.781965284033884
      ],
      [
        "lthough",
        -9.783825609183108
      ],
      [
        "Ġvolume",
        -9.784701249690569
      ],
      [
        "Ġadvantage",
        -9.784862121822163
      ],
      [
        "Ġactual",
        -9.785271318466048
      ],
      [
        "Ġways",
        -9.785854397431583
      ],
      [
        "Ġspend",
        -9.786208112435885
      ],
      [
        "ĠO",
        -9.788811470048405
      ],
      [
        "Ġexposure",
        -9.789060805076666
      ],
      [
        "Ġculture",
        -9.78937970387054
      ],
      [
        "Ġcompound",
        -9.7897180911928
      ],
      [
        "Ġdriv",
        -9.7909512622035
      ],
      [
        "Ġbrown",
        -9.790995493128232
      ],
      [
        "Ġpanel",
        -9.791357640043309
      ],
      [
        "Ġsubstance",
        -9.7913955528486
      ],
      [
        "Ġmiddle",
        -9.79210778305258
      ],
      [
        "Ġsources",
        -9.792136179413202
      ],
      [
        "Ġpieces",
        -9.792750678956583
      ],
      [
        "Ġsigns",
        -9.792812820332063
      ],
      [
        "Ġfine",
        -9.792886061193355
      ],
      [
        "Ġphoto",
        -9.793433825718836
      ],
      [
        "ĠCenter",
        -9.793567475107722
      ],
      [
        "between",
        -9.793947911540204
      ],
      [
        "Ġchicken",
        -9.794328524398423
      ],
      [
        "Ġupon",
        -9.795003331410085
      ],
      [
        "Ġ=",
        -9.79626627113319
      ],
      [
        "Ġsolid",
        -9.797673805695196
      ],
      [
        "Ġpoints",
        -9.798454598537468
      ],
      [
        "Ġadjust",
        -9.799913673603212
      ],
      [
        "Ġtheory",
        -9.80000600548949
      ],
      [
        "ĠOur",
        -9.801250096614968
      ],
      [
        "ĠWho",
        -9.801420486928205
      ],
      [
        "may",
        -9.802187202295846
      ],
      [
        "Ġchallenge",
        -9.805635511018211
      ],
      [
        "Ġexpensive",
        -9.805846472272147
      ],
      [
        "Ġphone",
        -9.80588962740116
      ],
      [
        "these",
        -9.806635343653864
      ],
      [
        "him",
        -9.808088768903668
      ],
      [
        "Most",
        -9.808130354712002
      ],
      [
        "Ġpair",
        -9.80923454738562
      ],
      [
        "Ġclick",
        -9.809496860847457
      ],
      [
        "ĠNot",
        -9.809667344895418
      ],
      [
        "Ġflower",
        -9.80985612159203
      ],
      [
        "ice",
        -9.809970395785305
      ],
      [
        "ĠV",
        -9.810835804079964
      ],
      [
        "Ġvaccine",
        -9.810990594344709
      ],
      [
        "Ġtrip",
        -9.811540714203582
      ],
      [
        "Ġspeak",
        -9.812397888577904
      ],
      [
        "Ġdocument",
        -9.813767030069847
      ],
      [
        "Ġmonitor",
        -9.815126192836845
      ],
      [
        "Ġcomfortable",
        -9.81524136801778
      ],
      [
        "Ġdisplay",
        -9.81624856720201
      ],
      [
        "Ġattempt",
        -9.81632817677798
      ],
      [
        "Ġseed",
        -9.816488223579244
      ],
      [
        "Ġbeginning",
        -9.818009836517746
      ],
      [
        "Ġfly",
        -9.82027311256022
      ],
      [
        "Ġbecomes",
        -9.821021589708277
      ],
      [
        "Ġstates",
        -9.822533861110395
      ],
      [
        "Ġframe",
        -9.825362645875073
      ],
      [
        "ring",
        -9.82659240162861
      ],
      [
        "Ġ$",
        -9.831642281258716
      ],
      [
        "Ġnoise",
        -9.83181383089162
      ],
      [
        "Ġphase",
        -9.8318592443496
      ],
      [
        "All",
        -9.83264441186751
      ],
      [
        "ful",
        -9.832793807996822
      ],
      [
        "ĠEnglish",
        -9.833354652811051
      ],
      [
        "Ġtransfer",
        -9.833573895648565
      ],
      [
        "Ġsecurity",
        -9.833674373640944
      ],
      [
        "Ġnutrients",
        -9.83434935535885
      ],
      [
        "Ġswitch",
        -9.834913446620096
      ],
      [
        "Ġseek",
        -9.834979421299126
      ],
      [
        "ĠOnc",
        -9.836445222977195
      ],
      [
        "Ġbox",
        -9.836792513900818
      ],
      [
        "Ġthousand",
        -9.838477102608856
      ],
      [
        "Ġmaximu",
        -9.83912814989596
      ],
      [
        "Ġimmune",
        -9.839612349737564
      ],
      [
        "Ġvaluable",
        -9.83981871800027
      ],
      [
        "Ġpresence",
        -9.840040741353038
      ],
      [
        "Ġsoon",
        -9.840390271570593
      ],
      [
        "ĠTheir",
        -9.840431328010816
      ],
      [
        "Ġpath",
        -9.841626509331425
      ],
      [
        "Ġdriver",
        -9.841733405056267
      ],
      [
        "Ġcontext",
        -9.843216824394307
      ],
      [
        "Ġconsistent",
        -9.84386063716594
      ],
      [
        "ĠAre",
        -9.844388505286194
      ],
      [
        "eyond",
        -9.844661058677792
      ],
      [
        "ĠUK",
        -9.845924264679445
      ],
      [
        "Ġplanet",
        -9.84702090865235
      ],
      [
        "Which",
        -9.847371141422515
      ],
      [
        "Ġteacher",
        -9.84806752508706
      ],
      [
        "Ġiron",
        -9.848558641158114
      ],
      [
        "ĠAdditional",
        -9.849526097863109
      ],
      [
        "Ġsurrounding",
        -9.850403753851785
      ],
      [
        "Ġ[",
        -9.851056857971882
      ],
      [
        "electricity",
        -9.851618454646
      ],
      [
        "Ġrock",
        -9.852080994696736
      ],
      [
        "Ġhuge",
        -9.85250478811252
      ],
      [
        "Ġreflect",
        -9.8533607724643
      ],
      [
        "Ġscreen",
        -9.855303978808898
      ],
      [
        "Ġmechanism",
        -9.855422940210977
      ],
      [
        "wise",
        -9.855762548608787
      ],
      [
        "ĠState",
        -9.855944420202366
      ],
      [
        "oil",
        -9.856208793241532
      ],
      [
        "Ġdepth",
        -9.856284863199136
      ],
      [
        "Ġplease",
        -9.85700349912182
      ],
      [
        "Ġmatch",
        -9.85720494815084
      ],
      [
        "Ġbackground",
        -9.85740323352909
      ],
      [
        "Ġfriend",
        -9.857938355830704
      ],
      [
        "Ġvision",
        -9.859736189524853
      ],
      [
        "ĠMake",
        -9.860001428097616
      ],
      [
        "Ġhot",
        -9.86016240620993
      ],
      [
        "Ġrate",
        -9.863316193160191
      ],
      [
        "Ġsign",
        -9.863403451540352
      ],
      [
        "Ġact",
        -9.863419992552382
      ],
      [
        "Ġcomment",
        -9.864441496804105
      ],
      [
        "Ġinternal",
        -9.864912122610631
      ],
      [
        "Ġw",
        -9.865537077154093
      ],
      [
        "Ġmoisture",
        -9.86586058020224
      ],
      [
        "Ġinjur",
        -9.86639271456496
      ],
      [
        "Ġreveal",
        -9.866629682695422
      ],
      [
        "Ġfilter",
        -9.867123758966066
      ],
      [
        "Ġcommuniti",
        -9.86837189272283
      ],
      [
        "ĠNOT",
        -9.869751543200604
      ],
      [
        "Ġpull",
        -9.870087965196904
      ],
      [
        ".S",
        -9.871883518978027
      ],
      [
        "Ġfoot",
        -9.872029951420815
      ],
      [
        "Ġheight",
        -9.87280173223136
      ],
      [
        "end",
        -9.873436827237006
      ],
      [
        "Ġbreed",
        -9.873689647067732
      ],
      [
        "Ġcapture",
        -9.873691672155305
      ],
      [
        "Ġimmediatel",
        -9.873815760193883
      ],
      [
        "Ġfabric",
        -9.875587610401489
      ],
      [
        "Ġsquare",
        -9.8758690700225
      ],
      [
        "Ġquick",
        -9.876391331810566
      ],
      [
        "Ġmedium",
        -9.877990230689
      ],
      [
        "Ġprefer",
        -9.878333954621857
      ],
      [
        "Ġhost",
        -9.880426607198956
      ],
      [
        "Ġstrategies",
        -9.881023482185396
      ],
      [
        "Ġestimate",
        -9.88123206464939
      ],
      [
        "Ġconsume",
        -9.8813007162991
      ],
      [
        "size",
        -9.881832801478891
      ],
      [
        "Ġroad",
        -9.882043468152707
      ],
      [
        "Ġrecipe",
        -9.884857054164208
      ],
      [
        "Ġvital",
        -9.884983052671632
      ],
      [
        "Ġbreath",
        -9.886552591986716
      ],
      [
        "Ġresulting",
        -9.887152537294384
      ],
      [
        "Our",
        -9.891314402215324
      ],
      [
        "ĠInstitute",
        -9.8913818195574
      ],
      [
        "ĠMay",
        -9.891585642970444
      ],
      [
        "Ġload",
        -9.89231521255365
      ],
      [
        "ties",
        -9.893244008453406
      ],
      [
        "Ġbond",
        -9.893776404014933
      ],
      [
        "Ġtechnologies",
        -9.894381045170904
      ],
      [
        "Ġlandscape",
        -9.894548897161323
      ],
      [
        "Ġma",
        -9.89464141875549
      ],
      [
        "No",
        -9.894687680383656
      ],
      [
        "Ġcolour",
        -9.896652060917296
      ],
      [
        "Ġsort",
        -9.897634122739763
      ],
      [
        "Ġlaw",
        -9.898099395591204
      ],
      [
        "Ġstand",
        -9.898156953205582
      ],
      [
        "Ġfinancial",
        -9.898704253093689
      ],
      [
        "Ġhighl",
        -9.89943262212782
      ],
      [
        "Ġemission",
        -9.900861725335764
      ],
      [
        "Ġold",
        -9.90129549973782
      ],
      [
        "Ġdouble",
        -9.901298312292983
      ],
      [
        "Ġprocessing",
        -9.901601665507892
      ],
      [
        "Ġpick",
        -9.901723034734967
      ],
      [
        "Ġland",
        -9.902358719232266
      ],
      [
        "Ġprogress",
        -9.903059427872764
      ],
      [
        "Ġsecure",
        -9.90553915759024
      ],
      [
        "Ġtexture",
        -9.906925525307692
      ],
      [
        "Ġplanning",
        -9.90704227437011
      ],
      [
        "Ġgrain",
        -9.907318799659512
      ],
      [
        "Ġstick",
        -9.907709332456356
      ],
      [
        "happy",
        -9.90787472656186
      ],
      [
        "structure",
        -9.90902979846869
      ],
      [
        "Ġbar",
        -9.909564299475798
      ],
      [
        "Ġdrain",
        -9.91018977345297
      ],
      [
        "-like",
        -9.911219724911398
      ],
      [
        "Ġdemonstrate",
        -9.913995648240869
      ],
      [
        "Ġinches",
        -9.91503698130716
      ],
      [
        "field",
        -9.917291087902008
      ],
      [
        "because",
        -9.917475726335176
      ],
      [
        "Ġprinciple",
        -9.917520225064273
      ],
      [
        "Ġassessment",
        -9.918953568511478
      ],
      [
        "Ġoutcome",
        -9.91908605116294
      ],
      [
        "Ġwriting",
        -9.920314042288856
      ],
      [
        "Ġnative",
        -9.920500575820885
      ],
      [
        "Ġdiscovered",
        -9.920575361992302
      ],
      [
        "Ġpipe",
        -9.921034755887831
      ],
      [
        "Ġdiabetes",
        -9.921214696345553
      ],
      [
        "Ġpound",
        -9.92247449310154
      ],
      [
        "Ġbright",
        -9.9226317698461
      ],
      [
        "Ġeffectivel",
        -9.925595291635966
      ],
      [
        "Ġlack",
        -9.925948358922572
      ],
      [
        "Ġattract",
        -9.926382600664418
      ],
      [
        "Yes",
        -9.926629601183391
      ],
      [
        "Ġoperation",
        -9.928118244585807
      ],
      [
        "Ġcoast",
        -9.928662572185043
      ],
      [
        "Ġfrequency",
        -9.9286710559576
      ],
      [
        "Man",
        -9.929329955128289
      ],
      [
        "ĠAl",
        -9.930078838874158
      ],
      [
        "Ġexpected",
        -9.93061720897132
      ],
      [
        "Ġbutton",
        -9.930845281797628
      ],
      [
        "Ġcentral",
        -9.931275091309708
      ],
      [
        "Ġnational",
        -9.931393936600855
      ],
      [
        "Ġrich",
        -9.931858592153915
      ],
      [
        "Ġoffice",
        -9.93191650748899
      ],
      [
        "Ġtha",
        -9.93205818992545
      ],
      [
        "Ġgoals",
        -9.932108541425205
      ],
      [
        "Ġwritten",
        -9.932559783468603
      ],
      [
        "ou",
        -9.933251430358505
      ],
      [
        "Ġwrite",
        -9.936378037226962
      ],
      [
        "action",
        -9.936876955856937
      ],
      [
        "Ġengage",
        -9.938050665979617
      ],
      [
        "eat",
        -9.93828693016506
      ],
      [
        "Ġconsumption",
        -9.939112553521523
      ],
      [
        "Ġfair",
        -9.93924101389123
      ],
      [
        "Ġmother",
        -9.939737821283218
      ],
      [
        "On",
        -9.939829727265348
      ],
      [
        "Ġelectronic",
        -9.940659549927949
      ],
      [
        "Ġtable",
        -9.94115301918977
      ],
      [
        "-year",
        -9.942416246858745
      ],
      [
        "ĠRiver",
        -9.945055322048676
      ],
      [
        "Ġsounds",
        -9.945317294258356
      ],
      [
        "Ġedge",
        -9.946860861568918
      ],
      [
        "Ġsaw",
        -9.948789642669151
      ],
      [
        "Ġpest",
        -9.949569573797811
      ],
      [
        "ĠWater",
        -9.950262604699384
      ],
      [
        "Ġdecade",
        -9.951490299076662
      ],
      [
        "Ġdangerous",
        -9.952137430676643
      ],
      [
        "Ġmedicine",
        -9.952326199486532
      ],
      [
        "keep",
        -9.952756911846288
      ],
      [
        "Ġexpect",
        -9.95438951856424
      ],
      [
        "Ġwhe",
        -9.954488882309152
      ],
      [
        "Ġdoor",
        -9.955037853157036
      ],
      [
        "ĠAfrica",
        -9.955409610064034
      ],
      [
        "Ġinternational",
        -9.956272565031966
      ],
      [
        "Ġkill",
        -9.956440979077442
      ],
      [
        "Ġtransport",
        -9.957406409605465
      ],
      [
        "Ġfailure",
        -9.95751333260348
      ],
      [
        "my",
        -9.96018880227561
      ],
      [
        "ĠIndia",
        -9.961378100480848
      ],
      [
        "Ġse",
        -9.961383981313022
      ],
      [
        "ĠOther",
        -9.963607933819802
      ],
      [
        "Ġgets",
        -9.9642395663677
      ],
      [
        "Ġbasi",
        -9.964481066752406
      ],
      [
        "Ġowners",
        -9.964901455473496
      ],
      [
        "Ġcommercial",
        -9.965479218000604
      ],
      [
        "ĠBecause",
        -9.966270257855513
      ],
      [
        "ĠEven",
        -9.96785025831605
      ],
      [
        "Ġrule",
        -9.968040908164394
      ],
      [
        "Ġpush",
        -9.968754980232733
      ],
      [
        "working",
        -9.968998452058822
      ],
      [
        "Ġstraight",
        -9.970462125357194
      ],
      [
        "Ġinsight",
        -9.971745608306176
      ],
      [
        "Ġfavorite",
        -9.97184269712849
      ],
      [
        "Ġbusinesses",
        -9.972458452126489
      ],
      [
        "Ġchanging",
        -9.972600658912084
      ],
      [
        "went",
        -9.972782379870628
      ],
      [
        "Ġweb",
        -9.972786096662954
      ],
      [
        "Ġcollection",
        -9.972993396266991
      ],
      [
        "Ġcoming",
        -9.973152822492132
      ],
      [
        "Ġonto",
        -9.973385172812112
      ],
      [
        "Ġcareer",
        -9.974261978764735
      ],
      [
        "Ġfoundation",
        -9.974769507049391
      ],
      [
        "ĠW",
        -9.975496261113689
      ],
      [
        "Ġblog",
        -9.975511551349337
      ],
      [
        "According",
        -9.975924069889391
      ],
      [
        "Ġgrass",
        -9.97595963983023
      ],
      [
        "Ġreality",
        -9.97608346893173
      ],
      [
        "Ġorganism",
        -9.977832064033771
      ],
      [
        "Ġspot",
        -9.97783900337803
      ],
      [
        "Ġdegree",
        -9.978018730648303
      ],
      [
        "need",
        -9.979158027753092
      ],
      [
        "Ġroutine",
        -9.979266406595716
      ],
      [
        "Ġfilm",
        -9.979582845725409
      ],
      [
        "Ġselection",
        -9.979662624637896
      ],
      [
        "new",
        -9.98048749958039
      ],
      [
        "lost",
        -9.98057909990142
      ],
      [
        "Ġmode",
        -9.981634748057475
      ],
      [
        "ĠNow",
        -9.984147219250865
      ],
      [
        "Ġstaff",
        -9.985392680708102
      ],
      [
        "Ġbega",
        -9.98592334767678
      ],
      [
        "Ġadvice",
        -9.985958294570906
      ],
      [
        "Ġreported",
        -9.987153278224106
      ],
      [
        "energy",
        -9.987234047626725
      ],
      [
        "reduced",
        -9.98732054050089
      ],
      [
        "Ġeconomic",
        -9.987440956489383
      ],
      [
        "Ġconnected",
        -9.987700235582132
      ],
      [
        "Ġhelpful",
        -9.987773820327982
      ],
      [
        "Ġexpand",
        -9.989271785105792
      ],
      [
        "ĠLet",
        -9.989706400794844
      ],
      [
        "Ġupper",
        -9.989800405226497
      ],
      [
        "Ġvariable",
        -9.989876250514154
      ],
      [
        "/or",
        -9.991246162962485
      ],
      [
        "Ġexpression",
        -9.99238465870626
      ],
      [
        "fully",
        -9.993362402809272
      ],
      [
        "Ġboard",
        -9.994307965595592
      ],
      [
        "Ġrules",
        -9.994462873364292
      ],
      [
        "Ġwa",
        -9.994482625067912
      ],
      [
        "Ġartist",
        -9.9945093121676
      ],
      [
        "Ġannual",
        -9.99507710713544
      ],
      [
        "Ġage",
        -9.996085709796295
      ],
      [
        "Ġpaint",
        -9.997485018587492
      ],
      [
        "range",
        -9.99760857123876
      ],
      [
        "Ġfigure",
        -9.99919407271666
      ],
      [
        "Ġconcrete",
        -9.999740235115564
      ],
      [
        "ĠAustralia",
        -10.000416409201964
      ],
      [
        "Ġappearance",
        -10.002518194956766
      ],
      [
        "Ġpump",
        -10.003022023388692
      ],
      [
        "Ġreference",
        -10.003366724081456
      ],
      [
        "ĠFirst",
        -10.004063491297496
      ],
      [
        "Ġallowed",
        -10.005171808687646
      ],
      [
        "Ġwindow",
        -10.005399925490686
      ],
      [
        "Ġvirtual",
        -10.005950078781837
      ],
      [
        "Ġmolecules",
        -10.006134657792206
      ],
      [
        "Ġerror",
        -10.006742122463482
      ],
      [
        "Ġroots",
        -10.007192047991891
      ],
      [
        "Ġexpose",
        -10.00849238471158
      ],
      [
        "Ġpractical",
        -10.00894201842248
      ],
      [
        "Ġspecifically",
        -10.008992724884369
      ],
      [
        "Use",
        -10.010368988112145
      ],
      [
        "lines",
        -10.010661427960876
      ],
      [
        "Ġpark",
        -10.011040856022689
      ],
      [
        "Ġinsects",
        -10.012363974672372
      ],
      [
        "Ġcharacteristics",
        -10.012430355993532
      ],
      [
        "Ġsustain",
        -10.014155436571652
      ],
      [
        "ization",
        -10.014724433558497
      ],
      [
        "Ġshift",
        -10.015871419705883
      ],
      [
        "Ġpollution",
        -10.016124391801036
      ],
      [
        "being",
        -10.016547287909198
      ],
      [
        "king",
        -10.016589654877055
      ],
      [
        "Ġtrigger",
        -10.017799029593268
      ],
      [
        "should",
        -10.01801783552265
      ],
      [
        "-free",
        -10.01855139740281
      ],
      [
        "Ġstuff",
        -10.018917602570898
      ],
      [
        "ĠJust",
        -10.018945298269514
      ],
      [
        "Ġcharacter",
        -10.019591556921617
      ],
      [
        "Ġconclusion",
        -10.020681301668343
      ],
      [
        "Ġsociety",
        -10.021500441211597
      ],
      [
        "wildlife",
        -10.021809968690537
      ],
      [
        "Ġaccept",
        -10.02196284073159
      ],
      [
        "Ġnearly",
        -10.02217176142788
      ],
      [
        "Ġfossil",
        -10.022391479479293
      ],
      [
        "Are",
        -10.022550825344556
      ],
      [
        "ship",
        -10.02313444333639
      ],
      [
        "Ġsequence",
        -10.023645833887898
      ],
      [
        "Ġevolution",
        -10.0243006680994
      ],
      [
        "Ġcountr",
        -10.024958082834456
      ],
      [
        "Ġsweet",
        -10.025009407114082
      ],
      [
        "often",
        -10.025141684627386
      ],
      [
        "Onc",
        -10.025537561821
      ],
      [
        "Ġisland",
        -10.026254891103385
      ],
      [
        "Ġbutter",
        -10.02666626375034
      ],
      [
        "Ġdrawing",
        -10.02685540665377
      ],
      [
        "Ġindoor",
        -10.027078850965047
      ],
      [
        "Ġpreference",
        -10.02869599251945
      ],
      [
        "Do",
        -10.028791313043406
      ],
      [
        "First",
        -10.029393593541506
      ],
      [
        "Ġangle",
        -10.029498349919397
      ],
      [
        "âĢĿ",
        -10.031643126046738
      ],
      [
        "ĠDepartment",
        -10.03232749361204
      ],
      [
        "Ġmorning",
        -10.032855025949722
      ],
      [
        "desired",
        -10.033871595239988
      ],
      [
        "Ġharmful",
        -10.033900408545822
      ],
      [
        "Ġcalculate",
        -10.03464221655758
      ],
      [
        "Ġaction",
        -10.034789814483636
      ],
      [
        "Ġhundred",
        -10.035249391042314
      ],
      [
        "no",
        -10.035457533751076
      ],
      [
        "Ġoptimal",
        -10.03599501743577
      ],
      [
        "Ġadapt",
        -10.037177093159505
      ],
      [
        "ers",
        -10.037699081793267
      ],
      [
        "Ġcaus",
        -10.037736430412217
      ],
      [
        "ĠTherefor",
        -10.038681487061492
      ],
      [
        "Ġfashion",
        -10.038794454299577
      ],
      [
        "Ġdistribution",
        -10.038859361071214
      ],
      [
        "Ġgettin",
        -10.038995387731966
      ],
      [
        "ĠOr",
        -10.040477893494426
      ],
      [
        "try",
        -10.040861707310391
      ],
      [
        "Ġreduc",
        -10.044354393197407
      ],
      [
        "Ġbeneficial",
        -10.044430671951456
      ],
      [
        "table",
        -10.04454734338144
      ],
      [
        "Ġinstall",
        -10.044695897624162
      ],
      [
        "Ġvoice",
        -10.0447123169796
      ],
      [
        "Ġperformed",
        -10.045636054840951
      ],
      [
        "Ġschools",
        -10.04576363946902
      ],
      [
        "long",
        -10.047708859165237
      ],
      [
        "Ġfarm",
        -10.047737959255585
      ],
      [
        "Ġapproximately",
        -10.04795990350056
      ],
      [
        "Ġdivers",
        -10.04852142744568
      ],
      [
        "Ġdi",
        -10.048604948021184
      ],
      [
        "Ġsteel",
        -10.04881668116942
      ],
      [
        "More",
        -10.048834257603415
      ],
      [
        "Ġgift",
        -10.049856534888423
      ],
      [
        "Ġrealize",
        -10.050811544953548
      ],
      [
        "Ġthread",
        -10.05147180676102
      ],
      [
        "Ġcomfort",
        -10.05164807182091
      ],
      [
        "Ġlaser",
        -10.051843057521962
      ],
      [
        "Ġsports",
        -10.052232667487033
      ],
      [
        "Ġproduc",
        -10.05262904657232
      ],
      [
        "Ġbodie",
        -10.05337300169123
      ],
      [
        "Although",
        -10.053632874729251
      ],
      [
        "Ġcreative",
        -10.05366845473736
      ],
      [
        "Ġpass",
        -10.054290848415086
      ],
      [
        "Ġanxiet",
        -10.05441263006938
      ],
      [
        "Ġcomprehensive",
        -10.054683134545186
      ],
      [
        "Ġcoffee",
        -10.05577148652043
      ],
      [
        "Ġart",
        -10.056911412889
      ],
      [
        "Ġstrain",
        -10.059534493156686
      ],
      [
        "est",
        -10.060253336271614
      ],
      [
        "Ġmeeting",
        -10.06117091746686
      ],
      [
        "Ġoperate",
        -10.061358013733596
      ],
      [
        "ĠEurope",
        -10.06145659945675
      ],
      [
        "Ġearlie",
        -10.061541113890488
      ],
      [
        "Ġgear",
        -10.06170424296828
      ],
      [
        "Ġmental",
        -10.062467644493902
      ],
      [
        "power",
        -10.06295476531538
      ],
      [
        "ĠJ",
        -10.063292554379906
      ],
      [
        "ĠDay",
        -10.064851688541411
      ],
      [
        "Ġskill",
        -10.065672924297292
      ],
      [
        "Ġbu",
        -10.06619520957772
      ],
      [
        "Ġrobot",
        -10.066380817689106
      ],
      [
        "Ġfamilies",
        -10.066381752979288
      ],
      [
        "Ġanti",
        -10.06659999182727
      ],
      [
        "ce",
        -10.066987889251024
      ],
      [
        "Ġversion",
        -10.067318353586376
      ],
      [
        "ĠIs",
        -10.068359056263468
      ],
      [
        "ne",
        -10.069927504624888
      ],
      [
        "Ġclassroom",
        -10.070373667363684
      ],
      [
        "Ġcarrie",
        -10.070631624179418
      ],
      [
        "\\",
        -10.07120499180328
      ],
      [
        "Ġhelping",
        -10.071434583259215
      ],
      [
        "Ġsuggests",
        -10.071746769647874
      ],
      [
        "ĠAt",
        -10.071917141637032
      ],
      [
        "Ġmaybe",
        -10.073917224601509
      ],
      [
        "Ġschedule",
        -10.074391778418905
      ],
      [
        "Ġdrop",
        -10.076168896861272
      ],
      [
        "Ġformula",
        -10.076388361940534
      ],
      [
        "Ġchannel",
        -10.076907599947416
      ],
      [
        "Ġaware",
        -10.077055399896071
      ],
      [
        "Ġrise",
        -10.077257935942708
      ],
      [
        "Ġtransmission",
        -10.078257395773598
      ],
      [
        "Ġprocedure",
        -10.078910602552495
      ],
      [
        "ary",
        -10.078947134786596
      ],
      [
        "Ġthus",
        -10.079247497328776
      ],
      [
        "Ġdefinition",
        -10.079456725779902
      ],
      [
        "Ġnumerous",
        -10.079879377125442
      ],
      [
        "Ġmotion",
        -10.079891400196932
      ],
      [
        "se",
        -10.081440641408731
      ],
      [
        "Ġcable",
        -10.083282273246144
      ],
      [
        "Ġplaced",
        -10.08333566098451
      ],
      [
        "orage",
        -10.083595333354747
      ],
      [
        "Ġcatch",
        -10.084263057597038
      ],
      [
        "Ġsurvey",
        -10.084710685093796
      ],
      [
        "Ġmid",
        -10.085117232403055
      ],
      [
        "Ġsurvive",
        -10.085216494702802
      ],
      [
        "Ġagree",
        -10.085470869767562
      ],
      [
        "Ġoffering",
        -10.085492090261296
      ],
      [
        "Ġdiagram",
        -10.086841028746797
      ],
      [
        "Ġestablished",
        -10.086936894796542
      ],
      [
        "Ġhydrogen",
        -10.088225687578609
      ],
      [
        "Ġdirt",
        -10.088798475600909
      ],
      [
        "Ġal",
        -10.088798481598364
      ],
      [
        "Ġasked",
        -10.08880003772752
      ],
      [
        "Ġboat",
        -10.088995322298068
      ],
      [
        "Ġutilize",
        -10.089476471219914
      ],
      [
        "Ġbirth",
        -10.089859000146708
      ],
      [
        "held",
        -10.090721809771384
      ],
      [
        "Ġburn",
        -10.09205428944842
      ],
      [
        "Ġproteins",
        -10.092254025253492
      ],
      [
        "identified",
        -10.092787219677469
      ],
      [
        "Ġassess",
        -10.092884121130894
      ],
      [
        "Ġsaying",
        -10.093178736848564
      ],
      [
        "Ġregulation",
        -10.093773498071474
      ],
      [
        "Ġlatest",
        -10.094831331798046
      ],
      [
        "Ġlarges",
        -10.095492613331626
      ],
      [
        "Ġhospital",
        -10.095512690989445
      ],
      [
        "Ġbear",
        -10.096005658750569
      ],
      [
        "Ġneck",
        -10.096532995062155
      ],
      [
        "{",
        -10.098584035738654
      ],
      [
        "Ġoutdoor",
        -10.099670402374652
      ],
      [
        "Ġplane",
        -10.100241495442376
      ],
      [
        "Ġalone",
        -10.100594863908151
      ],
      [
        "Ġtransition",
        -10.100807135718764
      ],
      [
        "Ġvia",
        -10.101622803742949
      ],
      [
        "ĠAls",
        -10.101982320611905
      ],
      [
        "chemical",
        -10.102452868768252
      ],
      [
        "tion",
        -10.103264482588388
      ],
      [
        "Ġsites",
        -10.103724826027143
      ],
      [
        "rates",
        -10.105488286492038
      ],
      [
        "âĢĻt",
        -10.105592370843883
      ],
      [
        "-being",
        -10.10618608814762
      ],
      [
        "Ġstrateg",
        -10.106507700710363
      ],
      [
        "Ġteach",
        -10.106535236489556
      ],
      [
        "Ġemail",
        -10.107065719335042
      ],
      [
        "Ġresource",
        -10.107416318834044
      ],
      [
        "Ġdish",
        -10.108028028282728
      ],
      [
        "Ġindustrial",
        -10.108134260303434
      ],
      [
        "Ġdiscussion",
        -10.108246242827722
      ],
      [
        "number",
        -10.109701138981306
      ],
      [
        "Ġpossibilit",
        -10.11072385340598
      ],
      [
        "Ġprovider",
        -10.112195831027115
      ],
      [
        "Ġsmell",
        -10.112567713516384
      ],
      [
        "Ġmember",
        -10.113227009878113
      ],
      [
        "Ġmixture",
        -10.11430650870384
      ],
      [
        "Ġcollect",
        -10.115327418607134
      ],
      [
        "Ġprivate",
        -10.115483048129938
      ],
      [
        "Ġconservation",
        -10.116559665679056
      ],
      [
        "Ġlate",
        -10.116628896458682
      ],
      [
        "uring",
        -10.117122475018853
      ],
      [
        "let",
        -10.11719359528896
      ],
      [
        "Ġemployee",
        -10.117891397829998
      ],
      [
        "Ġmanufactur",
        -10.118103710078174
      ],
      [
        "Ġcovered",
        -10.118557640770712
      ],
      [
        "ĠGod",
        -10.119006618126356
      ],
      [
        "Ġalgorithm",
        -10.11921745268719
      ],
      [
        "Ġstatement",
        -10.119349896840404
      ],
      [
        "]Ċ",
        -10.119390471584977
      ],
      [
        "Ġeventual",
        -10.119435153674129
      ],
      [
        "weight",
        -10.119500529547256
      ],
      [
        "Ġprepared",
        -10.120645938255375
      ],
      [
        "Ġinterested",
        -10.120779565557276
      ],
      [
        "wareness",
        -10.121678620678612
      ],
      [
        "Ġsurgery",
        -10.121940236957414
      ],
      [
        "Ġprepare",
        -10.122237659537834
      ],
      [
        "Ġcertainly",
        -10.122487477515094
      ],
      [
        "-friendl",
        -10.122698008860857
      ],
      [
        "Ġemotional",
        -10.123280516714122
      ],
      [
        "type",
        -10.123464870854844
      ],
      [
        "Ġdynamic",
        -10.123579746285744
      ],
      [
        "Ġmap",
        -10.12410087811238
      ],
      [
        "Ġbrush",
        -10.12447085698792
      ],
      [
        "Ġdate",
        -10.125336434310494
      ],
      [
        "Ġartificial",
        -10.125377761766272
      ],
      [
        "Ġoperations",
        -10.125565594653745
      ],
      [
        "Ġchain",
        -10.126051241676048
      ],
      [
        "Ġminimum",
        -10.12680490700342
      ],
      [
        "Ġequation",
        -10.127213611191747
      ],
      [
        "Ġflat",
        -10.127300045151404
      ],
      [
        "Ġmuscles",
        -10.127345107754984
      ],
      [
        "Ġatmosphere",
        -10.127514243848754
      ],
      [
        "Ġlegal",
        -10.128202612684738
      ],
      [
        "Ġboost",
        -10.12824176240906
      ],
      [
        "Ġsend",
        -10.128963469608252
      ],
      [
        "Ġdrug",
        -10.129283402367111
      ],
      [
        "ĠCO",
        -10.129421331533756
      ],
      [
        "Ġtechnical",
        -10.12997565929087
      ],
      [
        "Ġreduction",
        -10.130868185596956
      ],
      [
        "ĠEducation",
        -10.132099198316071
      ],
      [
        "Ġassist",
        -10.132456673576865
      ],
      [
        "Ġparameter",
        -10.133845083195652
      ],
      [
        "Ġperspective",
        -10.133994536684662
      ],
      [
        "technology",
        -10.136114144966593
      ],
      [
        "Ġprint",
        -10.136296678124232
      ],
      [
        "Ġpredict",
        -10.136635748212388
      ],
      [
        "Ġshower",
        -10.136704085307496
      ],
      [
        "Ġimprov",
        -10.137489528290144
      ],
      [
        "name",
        -10.138144579765546
      ],
      [
        "Ġgeneration",
        -10.138269147166586
      ],
      [
        "Ġantibiotic",
        -10.139302048979694
      ],
      [
        "eries",
        -10.139839301203232
      ],
      [
        "Ġmonitoring",
        -10.139931932339277
      ],
      [
        "emergency",
        -10.140581191640496
      ],
      [
        "Ġtiny",
        -10.141308061670422
      ],
      [
        "case",
        -10.141458138822776
      ],
      [
        "Ġchoos",
        -10.14206566882823
      ],
      [
        "Ġbowl",
        -10.14404726782224
      ],
      [
        "Ġbooks",
        -10.144335337461154
      ],
      [
        "Ġguideline",
        -10.145556377805825
      ],
      [
        "Ġleaf",
        -10.146316392762165
      ],
      [
        "rhaps",
        -10.148660754138092
      ],
      [
        "Ġemotion",
        -10.148661675607835
      ],
      [
        "Ġincredibl",
        -10.149332763986042
      ],
      [
        "am",
        -10.14962174086191
      ],
      [
        "Ġprimari",
        -10.150183887158752
      ],
      [
        "Ġwait",
        -10.150769032634486
      ],
      [
        "Ġmainly",
        -10.150908633157057
      ],
      [
        "Ġclasses",
        -10.151503839597488
      ],
      [
        "Ġlifestyle",
        -10.15150989628694
      ],
      [
        "Ġs",
        -10.151584048582995
      ],
      [
        "ĠAlthough",
        -10.152861452469232
      ],
      [
        "place",
        -10.153290484813311
      ],
      [
        "ĠJapan",
        -10.153442926882873
      ],
      [
        "Ġfinish",
        -10.153568498464612
      ],
      [
        "Ġnerve",
        -10.154536981155909
      ],
      [
        "ically",
        -10.15519346152475
      ],
      [
        "Ġcore",
        -10.155556501735402
      ],
      [
        "**",
        -10.156510295437052
      ],
      [
        "Ġexternal",
        -10.1565982802152
      ],
      [
        "Ġcalci",
        -10.157118184714337
      ],
      [
        "Ġancient",
        -10.157677222157014
      ],
      [
        "then",
        -10.160174547503228
      ],
      [
        "Ġdead",
        -10.160401896759744
      ],
      [
        "ĠSince",
        -10.161993413278957
      ],
      [
        "ĠEuropean",
        -10.16216057397469
      ],
      [
        "ĠDon",
        -10.162300347437396
      ],
      [
        "point",
        -10.16242632051991
      ],
      [
        "September",
        -10.162803098451958
      ],
      [
        "Ġhighlight",
        -10.163535003979865
      ],
      [
        "Ġriver",
        -10.164662142824694
      ],
      [
        "Ġfit",
        -10.165637907297846
      ],
      [
        "Ġpool",
        -10.166589100428196
      ],
      [
        "Ġformed",
        -10.167553901011186
      ],
      [
        "led",
        -10.16812049052411
      ],
      [
        "Ġtransform",
        -10.168704129008358
      ],
      [
        "Ġrelevant",
        -10.169307646645931
      ],
      [
        "Ġphotos",
        -10.169745470554794
      ],
      [
        "ĠDoes",
        -10.169849680707888
      ],
      [
        "Ġopinion",
        -10.17009594413187
      ],
      [
        "Ġrandom",
        -10.170896714065067
      ],
      [
        "ĠSystem",
        -10.170912189613638
      ],
      [
        "Ġeliminate",
        -10.171566497173686
      ],
      [
        "Ġprecise",
        -10.171643192951535
      ],
      [
        "My",
        -10.173009423256367
      ],
      [
        "Ġstomach",
        -10.173186989990947
      ],
      [
        "Ġshade",
        -10.1734680889399
      ],
      [
        "Ġmarine",
        -10.173675953714064
      ],
      [
        "Ġcreature",
        -10.173814968345011
      ],
      [
        "Ġfeeding",
        -10.174339756629836
      ],
      [
        "first",
        -10.176926869837317
      ],
      [
        "Ġcream",
        -10.177125353781722
      ],
      [
        "||",
        -10.17719783633287
      ],
      [
        "ĠModel",
        -10.177360055606272
      ],
      [
        "Ġbike",
        -10.178340519293874
      ],
      [
        "does",
        -10.1792274817643
      ],
      [
        "Ġmiles",
        -10.180128021903457
      ],
      [
        "Ġinternet",
        -10.181036009778929
      ],
      [
        "ĠApri",
        -10.181146951895322
      ],
      [
        "Ġrespond",
        -10.18211535955572
      ],
      [
        "Ġlawn",
        -10.18224926056985
      ],
      [
        "Ġincorporate",
        -10.18394536196728
      ],
      [
        "Ġgold",
        -10.184806901596207
      ],
      [
        "Ġorigin",
        -10.184911630090989
      ],
      [
        "Ġmanual",
        -10.185458914853143
      ],
      [
        "Ġinstrument",
        -10.186061162066462
      ],
      [
        "Conclusion",
        -10.186116726817868
      ],
      [
        "Ġparticipant",
        -10.186169076050026
      ],
      [
        "Ġcross",
        -10.186265062844246
      ],
      [
        "Ġstatus",
        -10.186353943481189
      ],
      [
        "Ġoperat",
        -10.186905315193354
      ],
      [
        "lying",
        -10.187086456312583
      ],
      [
        "Ġjoin",
        -10.187405127548097
      ],
      [
        "mental",
        -10.187438647437032
      ],
      [
        "Ġaudio",
        -10.188403948533235
      ],
      [
        "Ġbillion",
        -10.188514510006735
      ],
      [
        "Ġsuper",
        -10.188597593890249
      ],
      [
        "ĠAccording",
        -10.18919974110038
      ],
      [
        "Ġclient",
        -10.189491831175818
      ],
      [
        "Ġlose",
        -10.18964483690448
      ],
      [
        "Ġaim",
        -10.190828401588895
      ],
      [
        "Ġamazing",
        -10.190861032192426
      ],
      [
        "ĠGoogle",
        -10.191008455638023
      ],
      [
        "Ġplent",
        -10.191249667768782
      ],
      [
        "Ġremote",
        -10.191410313101397
      ],
      [
        "Ġshoes",
        -10.191645495634262
      ],
      [
        "Ġobvious",
        -10.191867475580697
      ],
      [
        "Ġkidney",
        -10.192131536196833
      ],
      [
        "ĠYork",
        -10.192273584147443
      ],
      [
        "Ġvariation",
        -10.192411485562804
      ],
      [
        "Ġthorough",
        -10.193314059156345
      ],
      [
        "Ġsymbol",
        -10.194486163350003
      ],
      [
        "Ġpropose",
        -10.195132149679534
      ],
      [
        "Ġbiological",
        -10.196315663157968
      ],
      [
        "back",
        -10.196465836970363
      ],
      [
        "Ġexamine",
        -10.197190919558365
      ],
      [
        "Ġconvert",
        -10.197247654884617
      ],
      [
        "put",
        -10.197558206973085
      ],
      [
        "objects",
        -10.199135284904813
      ],
      [
        "ones",
        -10.200059836990562
      ],
      [
        "Since",
        -10.200244928453536
      ],
      [
        "ry",
        -10.200262348121312
      ],
      [
        "ĠWhether",
        -10.200962677095028
      ],
      [
        "ĠMarch",
        -10.20252516046925
      ],
      [
        "form",
        -10.203167269846825
      ],
      [
        "Ġrequest",
        -10.203231554969404
      ],
      [
        "ium",
        -10.20356861914814
      ],
      [
        "Ġfurniture",
        -10.20419258526532
      ],
      [
        "Ġcontinuous",
        -10.20506791430518
      ],
      [
        "ĠWhy",
        -10.205597014152865
      ],
      [
        "Ġhormone",
        -10.206308189201202
      ],
      [
        "ĠKeep",
        -10.207384771427432
      ],
      [
        "Ġcapabilit",
        -10.20803796618219
      ],
      [
        "Ġsupplie",
        -10.208174046437854
      ],
      [
        "Ġfill",
        -10.20918072950187
      ],
      [
        "Ġpowder",
        -10.209247509046278
      ],
      [
        "ĠChina",
        -10.209250618759778
      ],
      [
        "Ġfracture",
        -10.209955985985026
      ],
      [
        "-time",
        -10.210182356753618
      ],
      [
        "Ġdefinite",
        -10.21067977516713
      ],
      [
        "Ġpolicy",
        -10.211438225310395
      ],
      [
        "Ġint",
        -10.212598275932905
      ],
      [
        "Ġscenario",
        -10.213409707354046
      ],
      [
        "forms",
        -10.21360060863026
      ],
      [
        "Ġinnovation",
        -10.21459167165676
      ],
      [
        "Ġportion",
        -10.215553801716275
      ],
      [
        "ĠJul",
        -10.215777925879893
      ],
      [
        "OVID",
        -10.216852390420662
      ],
      [
        "Ġreplacement",
        -10.216905256060423
      ],
      [
        "Ġmembrane",
        -10.2170711130269
      ],
      [
        "Ġsub",
        -10.218108309923585
      ],
      [
        "Ġassume",
        -10.21813681042131
      ],
      [
        "ĠAir",
        -10.21919377131216
      ],
      [
        "Ġbudget",
        -10.219974154449378
      ],
      [
        "Ġargument",
        -10.2210239954298
      ],
      [
        "Ġcalorie",
        -10.22129407025837
      ],
      [
        "Ġcup",
        -10.221516759961444
      ],
      [
        "Ġshowing",
        -10.221662128920732
      ],
      [
        "Ġvarie",
        -10.222218464295258
      ],
      [
        "ending",
        -10.222741513340669
      ],
      [
        "Ġextend",
        -10.222958019590951
      ],
      [
        "Ġkept",
        -10.223060451565935
      ],
      [
        "Ġegg",
        -10.224563750163217
      ],
      [
        "Ġrelax",
        -10.22483257989338
      ],
      [
        "Ġinteract",
        -10.225090932145072
      ],
      [
        "Ġpercentage",
        -10.225552855710902
      ],
      [
        "Ġbottle",
        -10.227351295795511
      ],
      [
        "Ġcollege",
        -10.22789152471914
      ],
      [
        "Ġapart",
        -10.228370232405496
      ],
      [
        "Ġnice",
        -10.228905131104517
      ],
      [
        "Ġsnow",
        -10.229480319823455
      ],
      [
        "Ġcoat",
        -10.230524168333504
      ],
      [
        "Ġkitchen",
        -10.230808873441894
      ],
      [
        "late",
        -10.230982281147888
      ],
      [
        "Ġmovie",
        -10.231056141864975
      ],
      [
        "ĠFood",
        -10.2311787737964
      ],
      [
        "building",
        -10.23187902830848
      ],
      [
        "ĠHigh",
        -10.23223799258354
      ],
      [
        "Ġvirus",
        -10.233291486459102
      ],
      [
        "Does",
        -10.23406121491814
      ],
      [
        "Ġstar",
        -10.234309334059857
      ],
      [
        "Ġnews",
        -10.234870471789767
      ],
      [
        "Ġsmart",
        -10.235682567799046
      ],
      [
        "Ġalcohol",
        -10.237887720108988
      ],
      [
        "Ġreliable",
        -10.238047325603894
      ],
      [
        "Ġstroke",
        -10.238455416839685
      ],
      [
        "Ġzone",
        -10.23897157075739
      ],
      [
        "Ġvalve",
        -10.23920545362662
      ],
      [
        "early",
        -10.23933489202937
      ],
      [
        "Ġillustrate",
        -10.239536616742932
      ],
      [
        "Ġchalleng",
        -10.2399055200268
      ],
      [
        "Before",
        -10.239994359348785
      ],
      [
        "Ġcard",
        -10.240137034056245
      ],
      [
        "Ġintake",
        -10.240339275938616
      ],
      [
        "Ġwheel",
        -10.241097014762548
      ],
      [
        "Ġeducational",
        -10.242884602473271
      ],
      [
        "part",
        -10.244116076106875
      ],
      [
        "Ġdensit",
        -10.244161980109148
      ],
      [
        "Ġadvance",
        -10.244345238349904
      ],
      [
        "Ġrespect",
        -10.24465787748873
      ],
      [
        "Ġdie",
        -10.245241659894262
      ],
      [
        "Ġpasse",
        -10.245580895666404
      ],
      [
        "Ġaircraft",
        -10.246281607925225
      ],
      [
        "Ġcity",
        -10.246366271835154
      ],
      [
        "Ġcrack",
        -10.247038138327778
      ],
      [
        "Ġcheese",
        -10.24782040854384
      ],
      [
        "Ġpets",
        -10.248841167979734
      ],
      [
        "Ġharvest",
        -10.249685037290083
      ],
      [
        "Ġrain",
        -10.250536980379916
      ],
      [
        "nce",
        -10.251036592033032
      ],
      [
        "ngineering",
        -10.25205412942993
      ],
      [
        "Ġtail",
        -10.252671854907293
      ],
      [
        "Let",
        -10.253633276597323
      ],
      [
        "ĠBritish",
        -10.25376842771625
      ],
      [
        "Ġconcentration",
        -10.25450290551866
      ],
      [
        "Ġmiss",
        -10.25464374470831
      ],
      [
        "Ġp",
        -10.25495241254904
      ],
      [
        "Florida",
        -10.255067545302188
      ],
      [
        "Ġprogramm",
        -10.255948134059452
      ],
      [
        "Ġcoal",
        -10.256763632351408
      ],
      [
        "Ġhoney",
        -10.25788641592597
      ],
      [
        "brough",
        -10.257941280843074
      ],
      [
        "Ġunits",
        -10.258282235321447
      ],
      [
        "Ġparent",
        -10.25868313766226
      ],
      [
        "Ġstone",
        -10.259460191499228
      ],
      [
        "Ġchose",
        -10.259794245237742
      ],
      [
        "ĠFrench",
        -10.25985370398066
      ],
      [
        "ĠGreat",
        -10.260081049807235
      ],
      [
        "Ġfundamental",
        -10.26009405835447
      ],
      [
        "Ġlens",
        -10.260440186656588
      ],
      [
        "ĠWest",
        -10.261319603662535
      ],
      [
        "Ġhighes",
        -10.261353210551349
      ],
      [
        "Ġopening",
        -10.262285421131882
      ],
      [
        "Ġwaiting",
        -10.262743685774945
      ],
      [
        "ĠCanada",
        -10.262755735535675
      ],
      [
        "Ġdecide",
        -10.262846565709928
      ],
      [
        "-related",
        -10.26309617270052
      ],
      [
        "system",
        -10.263152855964446
      ],
      [
        "Ġintelligence",
        -10.263674680822565
      ],
      [
        "Ġdrugs",
        -10.263826049572788
      ],
      [
        "Ġfirm",
        -10.264884890574123
      ],
      [
        "Ġexcessive",
        -10.265128001577608
      ],
      [
        "Ġroof",
        -10.266095639252844
      ],
      [
        "Ġsensitive",
        -10.266218317787953
      ],
      [
        "Ġdetermined",
        -10.266789479184624
      ],
      [
        "coming",
        -10.267354831861418
      ],
      [
        "Ġblend",
        -10.267951893596134
      ],
      [
        "Ġconfirm",
        -10.267981409694125
      ],
      [
        "Ġtrust",
        -10.268802318412678
      ],
      [
        "Ġselected",
        -10.268837283947878
      ],
      [
        "Ġfear",
        -10.268945325109208
      ],
      [
        "Ġdescription",
        -10.269305632980014
      ],
      [
        "Ġplanting",
        -10.269863719548985
      ],
      [
        "ĠJune",
        -10.270232767970777
      ],
      [
        "Ġestablish",
        -10.270487024949457
      ],
      [
        "Ġserie",
        -10.271773996711698
      ],
      [
        "Ġbulb",
        -10.27430482032608
      ],
      [
        "-in",
        -10.274927289847222
      ],
      [
        "ried",
        -10.275010091710628
      ],
      [
        "ecently",
        -10.275131809516948
      ],
      [
        "Ġjoint",
        -10.275271227060053
      ],
      [
        "Ġfunctional",
        -10.27544551622904
      ],
      [
        "board",
        -10.27620215368713
      ],
      [
        "Ġinvestment",
        -10.276514397635626
      ],
      [
        "...Ċ",
        -10.277167147563834
      ],
      [
        "value",
        -10.277943140198335
      ],
      [
        "Ġsudden",
        -10.278095098406007
      ],
      [
        "Ġhardware",
        -10.279067746498376
      ],
      [
        "ling",
        -10.27958034033068
      ],
      [
        "Ġbreeding",
        -10.281341274480386
      ],
      [
        "looked",
        -10.28234857693698
      ],
      [
        "Ġmixe",
        -10.28278473799596
      ],
      [
        "Because",
        -10.282874651600304
      ],
      [
        "Ġdental",
        -10.28288157035674
      ],
      [
        "ĠDur",
        -10.2830179624936
      ],
      [
        "Ġprofessionals",
        -10.284168838885268
      ],
      [
        "Ġshapes",
        -10.285635349242664
      ],
      [
        "ĠInternational",
        -10.28778885523626
      ],
      [
        "Ġcommand",
        -10.287974072283106
      ],
      [
        "Ġpainting",
        -10.289010014754473
      ],
      [
        "bacterial",
        -10.289202311538896
      ],
      [
        "current",
        -10.289797635960284
      ],
      [
        "New",
        -10.290500713597533
      ],
      [
        "Ġfarmers",
        -10.29061500135486
      ],
      [
        "Ġmaster",
        -10.29064820995627
      ],
      [
        "Ġaudience",
        -10.291325520812686
      ],
      [
        "per",
        -10.291382775122356
      ],
      [
        "Ġclinical",
        -10.291414507339466
      ],
      [
        "Ġ&",
        -10.291729839374373
      ],
      [
        "Ġtrade",
        -10.29218515220026
      ],
      [
        "days",
        -10.293401108472882
      ],
      [
        "Ġice",
        -10.294107937567658
      ],
      [
        "Ġcreation",
        -10.294276756562857
      ],
      [
        "Ġowner",
        -10.29448955514436
      ],
      [
        "Ġcompost",
        -10.294519841617255
      ],
      [
        "Ġharm",
        -10.294539140191102
      ],
      [
        "Ġcompetition",
        -10.294646883254124
      ],
      [
        "Ġcontrolle",
        -10.295151941174396
      ],
      [
        "create",
        -10.29589394182901
      ],
      [
        "know",
        -10.29674138882793
      ],
      [
        "round",
        -10.297993190891864
      ],
      [
        "look",
        -10.298010400062044
      ],
      [
        "hunting",
        -10.298332442365169
      ],
      [
        "Ġdistinct",
        -10.299731783640066
      ],
      [
        "Ġplate",
        -10.300699503275734
      ],
      [
        "find",
        -10.301175039523228
      ],
      [
        "Ġthi",
        -10.302200021582973
      ],
      [
        "Ġexpress",
        -10.302632203666937
      ],
      [
        "Ġradio",
        -10.303120633405452
      ],
      [
        "Ġzero",
        -10.30319734125363
      ],
      [
        "Ġfeedback",
        -10.303323144758208
      ],
      [
        "Ġintervention",
        -10.304059320072138
      ],
      [
        "Ġbee",
        -10.304661984811432
      ],
      [
        "Ġvitamin",
        -10.304736466639245
      ],
      [
        "Ġnormally",
        -10.30535580780035
      ],
      [
        "ca",
        -10.305548255698756
      ],
      [
        "Ġappeal",
        -10.30562277442345
      ],
      [
        "Ġaccident",
        -10.306356546423771
      ],
      [
        "Ġwhatever",
        -10.307211396045108
      ],
      [
        "differences",
        -10.308163855011989
      ],
      [
        "Ġinvest",
        -10.308561305197475
      ],
      [
        "Not",
        -10.308917805236105
      ],
      [
        "Ġautomatic",
        -10.30988634909507
      ],
      [
        "Ġdirector",
        -10.30990459598263
      ],
      [
        "Ġminimize",
        -10.309960623475218
      ],
      [
        "Ġconduct",
        -10.310240272145428
      ],
      [
        "Ġthick",
        -10.310435139531606
      ],
      [
        "order",
        -10.311125239044024
      ],
      [
        "loss",
        -10.311518544616565
      ],
      [
        "Ġrecognize",
        -10.311913502568936
      ],
      [
        "ĠHis",
        -10.311951913484863
      ],
      [
        "Ġdelicious",
        -10.312356317272195
      ],
      [
        "Ġguy",
        -10.31236917469584
      ],
      [
        "crops",
        -10.313344587157694
      ],
      [
        "Ġcommunicate",
        -10.31400030439199
      ],
      [
        "ĠAct",
        -10.31439270484584
      ],
      [
        "air",
        -10.314865414713864
      ],
      [
        "Ġspecialize",
        -10.31496662871778
      ],
      [
        "Ġyield",
        -10.315820261389566
      ],
      [
        "Ġsilver",
        -10.315993289864672
      ],
      [
        "Ġillness",
        -10.316598781753015
      ],
      [
        "ĠTh",
        -10.31681882300784
      ],
      [
        "Ġprofile",
        -10.317222742122302
      ],
      [
        "ĠJohn",
        -10.317995485735349
      ],
      [
        "en",
        -10.318219491765724
      ],
      [
        "Ġmajorit",
        -10.318359340158684
      ],
      [
        "Ġreward",
        -10.318872388195429
      ],
      [
        "Ġregister",
        -10.320007021080915
      ],
      [
        "Ġguid",
        -10.320793667499933
      ],
      [
        "Ġconsideration",
        -10.320866954639342
      ],
      [
        "Ġsharp",
        -10.321072714884584
      ],
      [
        "Ġtight",
        -10.322377368319367
      ],
      [
        "Ġgrown",
        -10.322571139920491
      ],
      [
        "Ġdisorder",
        -10.322826943502438
      ],
      [
        "Ġam",
        -10.32341423175036
      ],
      [
        "go",
        -10.323966586885623
      ],
      [
        "Ġcredit",
        -10.323993278504744
      ],
      [
        "top",
        -10.32509246797418
      ],
      [
        "Ġshoulder",
        -10.325114329270336
      ],
      [
        "wide",
        -10.325318641177034
      ],
      [
        "Ġlighting",
        -10.325583517509514
      ],
      [
        "Ġdecided",
        -10.32561411969979
      ],
      [
        "Ġcurve",
        -10.32627489014179
      ],
      [
        "Ġreferr",
        -10.326386630130228
      ],
      [
        "Ġfix",
        -10.32658337245658
      ],
      [
        "would",
        -10.326796934729671
      ],
      [
        "Ġprior",
        -10.328034206566333
      ],
      [
        "Ġbill",
        -10.329932228656116
      ],
      [
        "Ġprocessor",
        -10.331194822410634
      ],
      [
        "Other",
        -10.332083818240768
      ],
      [
        "Ġanalyze",
        -10.33341053836256
      ],
      [
        "Ġpregnanc",
        -10.334409021843069
      ],
      [
        "process",
        -10.334484179014687
      ],
      [
        "Ġgap",
        -10.334759196832218
      ],
      [
        "ĠService",
        -10.33507453444512
      ],
      [
        "Ġlift",
        -10.335487141453182
      ],
      [
        "Ġheater",
        -10.335594577035929
      ],
      [
        "Ġdesigner",
        -10.33661272030296
      ],
      [
        "Ġexcess",
        -10.33671228125396
      ],
      [
        "ating",
        -10.336958619180276
      ],
      [
        "Ġcalm",
        -10.33712610616779
      ],
      [
        "Ġhomes",
        -10.337416163492836
      ],
      [
        "Ġsmoke",
        -10.337494719113142
      ],
      [
        "Ġfight",
        -10.337680865362003
      ],
      [
        "Ġbeauty",
        -10.337727011093031
      ],
      [
        "Ġthrow",
        -10.338014566177096
      ],
      [
        "ĠAugust",
        -10.338200228929688
      ],
      [
        "Ġattache",
        -10.338318850733897
      ],
      [
        "Ġencounter",
        -10.338820798811234
      ],
      [
        "Ġcap",
        -10.339231241065187
      ],
      [
        "so",
        -10.339795836529891
      ],
      [
        "men",
        -10.339935096607782
      ],
      [
        "Ġprompt",
        -10.34000379162251
      ],
      [
        "Ġinstallation",
        -10.340330807171169
      ],
      [
        "actions",
        -10.34054683193151
      ],
      [
        "Ġexhibit",
        -10.341647510105496
      ],
      [
        "change",
        -10.342100778557716
      ],
      [
        "Ġcolumn",
        -10.34210570786707
      ],
      [
        "Ġconstruct",
        -10.342444510573156
      ],
      [
        "Ġobjective",
        -10.342748505032578
      ],
      [
        "j",
        -10.342802910908112
      ],
      [
        "ĠRed",
        -10.34377798653806
      ],
      [
        "Ġstation",
        -10.34413490892771
      ],
      [
        "An",
        -10.344138334892094
      ],
      [
        "Ġworry",
        -10.34435008383947
      ],
      [
        "Ġdiscusse",
        -10.344923659272906
      ],
      [
        "ĠFebruary",
        -10.344940515639728
      ],
      [
        "Ġversatil",
        -10.344986884355745
      ],
      [
        "Â°",
        -10.345724033029072
      ],
      [
        "Ġchair",
        -10.34589160400259
      ],
      [
        "called",
        -10.347021465992508
      ],
      [
        "Ġgreenhouse",
        -10.34710744645812
      ],
      [
        "good",
        -10.3480277972878
      ],
      [
        "ĠPeople",
        -10.348409679029803
      ],
      [
        "Ġclothing",
        -10.348871623399196
      ],
      [
        "Where",
        -10.348924555577591
      ],
      [
        "Ġcontrast",
        -10.349506798303786
      ],
      [
        "diversity",
        -10.35034359968272
      ],
      [
        "Ġmold",
        -10.351195266270008
      ],
      [
        "Ġsell",
        -10.35166118545665
      ],
      [
        "room",
        -10.35186622168321
      ],
      [
        "st",
        -10.35205419624994
      ],
      [
        "Ġjournal",
        -10.352087825875197
      ],
      [
        "ear",
        -10.352746411328669
      ],
      [
        "ĠGreen",
        -10.352806156506272
      ],
      [
        "Ġcrop",
        -10.353075594303462
      ],
      [
        "Ġones",
        -10.353185336110844
      ],
      [
        "Ġsurprise",
        -10.35322647945983
      ],
      [
        "lots",
        -10.35341054677163
      ],
      [
        "Ġenzyme",
        -10.35405735418319
      ],
      [
        "Ġlearne",
        -10.354094325425072
      ],
      [
        "ĠWell",
        -10.354843244790246
      ],
      [
        "Ġrestaurant",
        -10.355592056378352
      ],
      [
        "Ġlayers",
        -10.355974175224002
      ],
      [
        "Ġworker",
        -10.356443467583052
      ],
      [
        "Ġhistorical",
        -10.35698862765022
      ],
      [
        "lowly",
        -10.35831701060582
      ],
      [
        "Children",
        -10.358657202031512
      ],
      [
        "Ġsizes",
        -10.358757380027129
      ],
      [
        "ĠPark",
        -10.35926700025018
      ],
      [
        "possible",
        -10.359727898439242
      ],
      [
        "she",
        -10.36167071483877
      ],
      [
        "Ġherb",
        -10.362760085698891
      ],
      [
        "Ġsufficient",
        -10.363925160361475
      ],
      [
        "Ġextensive",
        -10.365365403781295
      ],
      [
        "Ġpilot",
        -10.365409769188933
      ],
      [
        "Ġpictures",
        -10.365826867984442
      ],
      [
        "Ġappreciate",
        -10.36598627935706
      ],
      [
        "Ġattribute",
        -10.366017381272489
      ],
      [
        "ur",
        -10.366392844035529
      ],
      [
        "Ġofficial",
        -10.366425257169263
      ],
      [
        "Ġminute",
        -10.366898061865498
      ],
      [
        "ĠOver",
        -10.36747274989423
      ],
      [
        "Ġnovel",
        -10.36747581829233
      ],
      [
        "Ġconducted",
        -10.36763123873519
      ],
      [
        "Ġseven",
        -10.36768419783635
      ],
      [
        "help",
        -10.368816829892005
      ],
      [
        "could",
        -10.369106595344164
      ],
      [
        "Ġimagine",
        -10.370791394690128
      ],
      [
        "Ġscene",
        -10.370957739637277
      ],
      [
        "Ġminerals",
        -10.371387016620478
      ],
      [
        "Ġdigesti",
        -10.37142565570209
      ],
      [
        "Ġvisibl",
        -10.372117479373596
      ],
      [
        "Ġsaving",
        -10.372370585739583
      ],
      [
        "Ġbarrier",
        -10.372873613614058
      ],
      [
        "Ġaccessib",
        -10.372887437239768
      ],
      [
        "Ġinnovative",
        -10.37288913079564
      ],
      [
        "ĠWar",
        -10.373452070324984
      ],
      [
        "Ġcombined",
        -10.374409505608718
      ],
      [
        "Ġpredator",
        -10.374562923161594
      ],
      [
        "Ġpreparation",
        -10.37498740306281
      ],
      [
        "Ġstock",
        -10.375012731011651
      ],
      [
        "Ġremov",
        -10.375375975184642
      ],
      [
        "want",
        -10.375685803113512
      ],
      [
        "advantages",
        -10.37583916629846
      ],
      [
        "ĠTest",
        -10.376190959272872
      ],
      [
        "city",
        -10.376679227420492
      ],
      [
        "ruly",
        -10.377069572598128
      ],
      [
        "Ġresponsibilit",
        -10.377508055067148
      ],
      [
        "Ġrecommendation",
        -10.377675218035316
      ],
      [
        "ĠCollege",
        -10.379402901686792
      ],
      [
        "Ġstretch",
        -10.379693858494292
      ],
      [
        "ha",
        -10.380381800815996
      ],
      [
        "Ġaccurac",
        -10.380779429735448
      ],
      [
        "example",
        -10.380895807061536
      ],
      [
        "ĠSea",
        -10.381475065506006
      ],
      [
        "Ġstructural",
        -10.382200059494366
      ],
      [
        "Ġevaluate",
        -10.383196455580936
      ],
      [
        "Ġloose",
        -10.38331239723205
      ],
      [
        "Ġdelay",
        -10.383601194533313
      ],
      [
        "types",
        -10.384621527271127
      ],
      [
        "Ġdimension",
        -10.385256108728289
      ],
      [
        "ĠIsland",
        -10.38570448146692
      ],
      [
        "ĠStudent",
        -10.386396637181567
      ],
      [
        "Ġjump",
        -10.386637078361488
      ],
      [
        "ought",
        -10.387040252024372
      ],
      [
        "rich",
        -10.387056730740982
      ],
      [
        "ĠEnergy",
        -10.388041392455683
      ],
      [
        "Ġchart",
        -10.388130311118829
      ],
      [
        "Ġinterior",
        -10.38920301976344
      ],
      [
        "ĠBoth",
        -10.389515908655872
      ],
      [
        "Ġcomposition",
        -10.39006848739952
      ],
      [
        "ge",
        -10.39021648060168
      ],
      [
        "Ġconversation",
        -10.390297662782087
      ],
      [
        "Share",
        -10.39110677194629
      ],
      [
        "Ġfinger",
        -10.391882322610153
      ],
      [
        "Ġsector",
        -10.391964110461092
      ],
      [
        "come",
        -10.392321359942947
      ],
      [
        "Ġclearly",
        -10.393594982070644
      ],
      [
        "Ġresident",
        -10.393705140545972
      ],
      [
        "Despite",
        -10.394754058640768
      ],
      [
        "Ġloop",
        -10.395291733518707
      ],
      [
        "Ġaquarium",
        -10.395408152768116
      ],
      [
        "plants",
        -10.395506535657514
      ],
      [
        "Ġprinting",
        -10.396416254274952
      ],
      [
        "Ġuniverse",
        -10.396470010929225
      ],
      [
        "Ġsolve",
        -10.396915213689748
      ],
      [
        "Ġsport",
        -10.397390292566214
      ],
      [
        "Ġatoms",
        -10.39752460852096
      ],
      [
        "confidence",
        -10.397667135607644
      ],
      [
        "Ġsitting",
        -10.398056988684434
      ],
      [
        "âĢ¦ĊĊ",
        -10.398590129600212
      ],
      [
        "Ġchronic",
        -10.398681766611247
      ],
      [
        "@",
        -10.400097030582035
      ],
      [
        "ĠLike",
        -10.400568127125462
      ],
      [
        "Ġplays",
        -10.400794246817002
      ],
      [
        "Ġbroken",
        -10.401103918465417
      ],
      [
        "Ġfoster",
        -10.401859059301303
      ],
      [
        "\"The",
        -10.401907793682849
      ],
      [
        "Ġinspire",
        -10.401950845751507
      ],
      [
        "Ġdedicate",
        -10.40258335403572
      ],
      [
        "ĠIndian",
        -10.40343042258398
      ],
      [
        "ĠDesign",
        -10.403502662402502
      ],
      [
        "Ġeithe",
        -10.403610597308589
      ],
      [
        "Ġpriorit",
        -10.404931395037778
      ],
      [
        "Ġfelt",
        -10.405042399283996
      ],
      [
        "Ġacademic",
        -10.405401117901771
      ],
      [
        "bones",
        -10.405650860377232
      ],
      [
        "Ġcircle",
        -10.40619146649644
      ],
      [
        "<",
        -10.406446210088951
      ],
      [
        "Ġwonder",
        -10.407140482341278
      ],
      [
        "Ġdisorders",
        -10.407164064688416
      ],
      [
        "Ġstem",
        -10.407180050204015
      ],
      [
        "Ġhousehold",
        -10.407257975395751
      ],
      [
        "Ġprofessor",
        -10.407659579558723
      ],
      [
        "ical",
        -10.407707008585252
      ],
      [
        "including",
        -10.407799443136636
      ],
      [
        "Ġwish",
        -10.408098852127775
      ],
      [
        "gave",
        -10.409063015657717
      ],
      [
        "Ġthrive",
        -10.409127000449477
      ],
      [
        "Ġconsult",
        -10.409733137466574
      ],
      [
        "Ġdatabase",
        -10.410164962247231
      ],
      [
        "Ġcharacters",
        -10.410356645485823
      ],
      [
        "Ġdivided",
        -10.410647640767916
      ],
      [
        "Ġbite",
        -10.410823616815222
      ],
      [
        "Ġtooth",
        -10.412543761890875
      ],
      [
        "Ġtube",
        -10.412805294306516
      ],
      [
        "forming",
        -10.41311775052612
      ],
      [
        "Ġcontaining",
        -10.413799478574736
      ],
      [
        "call",
        -10.414384528150848
      ],
      [
        "ĠAbout",
        -10.4147748925789
      ],
      [
        "Ġsurvival",
        -10.41483049455247
      ],
      [
        "ask",
        -10.415155436376876
      ],
      [
        "Ġpot",
        -10.415166109942415
      ],
      [
        "Make",
        -10.415294153925876
      ],
      [
        "Ġdebri",
        -10.415746649795391
      ],
      [
        "Ġindependent",
        -10.416259854246704
      ],
      [
        "Ġleads",
        -10.416264621043032
      ],
      [
        "Ġleav",
        -10.416409401349387
      ],
      [
        "Figure",
        -10.417116052294968
      ],
      [
        "Ġlung",
        -10.417325464000502
      ],
      [
        "Ġveterinarian",
        -10.41806579023794
      ],
      [
        "active",
        -10.4181886853741
      ],
      [
        "Ġboil",
        -10.418359760994935
      ],
      [
        "Ġgoe",
        -10.418582698275436
      ],
      [
        "Ġreache",
        -10.41935671976841
      ],
      [
        "Ġremoval",
        -10.419424760907926
      ],
      [
        "ecame",
        -10.41965227894966
      ],
      [
        "Ġcombine",
        -10.419744117247518
      ],
      [
        "Ġengineer",
        -10.41978298533324
      ],
      [
        "Ġintegrate",
        -10.419787774726242
      ],
      [
        "Don",
        -10.420089100888427
      ],
      [
        "Ġdust",
        -10.420416749237424
      ],
      [
        "Ġtitle",
        -10.42092174709254
      ],
      [
        "Ġgradual",
        -10.421607511475408
      ],
      [
        "Ġnutrition",
        -10.42217856134041
      ],
      [
        "Ġdetaile",
        -10.422938633161063
      ],
      [
        "Ġmatrix",
        -10.424897571976532
      ],
      [
        "Ġpackage",
        -10.425091063616968
      ],
      [
        "Ġroute",
        -10.425986130228154
      ],
      [
        "Ġwar",
        -10.42683462846379
      ],
      [
        "Ġletter",
        -10.427194104316422
      ],
      [
        "Understanding",
        -10.427867916593694
      ],
      [
        "Ġabsorb",
        -10.42801496169219
      ],
      [
        "Ġvacuum",
        -10.428227487005802
      ],
      [
        "Even",
        -10.428673266544404
      ],
      [
        "Ġcorn",
        -10.429051283656417
      ],
      [
        "Ġgirl",
        -10.429690690382838
      ],
      [
        "ying",
        -10.43126709306692
      ],
      [
        "Ġfields",
        -10.431505070765818
      ],
      [
        "Just",
        -10.43194806435332
      ],
      [
        "Ġfloat",
        -10.432275843522348
      ],
      [
        "Ġderive",
        -10.43272798108033
      ],
      [
        "Ġparticipate",
        -10.43355725823606
      ],
      [
        "Ġpotentiall",
        -10.433922125142562
      ],
      [
        "Ġessay",
        -10.434024547328704
      ],
      [
        "Ġmanner",
        -10.434104434003348
      ],
      [
        "Ġformat",
        -10.434132579517694
      ],
      [
        "Ġfertilizer",
        -10.434669934671383
      ],
      [
        "Ġcorner",
        -10.434853797380992
      ],
      [
        "lies",
        -10.435010160694397
      ],
      [
        "Ġnitrogen",
        -10.435027738676556
      ],
      [
        "Ġinner",
        -10.435110984032598
      ],
      [
        "Ġflood",
        -10.43696646204393
      ],
      [
        "ĠInternet",
        -10.437389368240236
      ],
      [
        "ĠâĢ¦",
        -10.438064190318087
      ],
      [
        "ĠJanuary",
        -10.438605275535169
      ],
      [
        "].",
        -10.439315843954423
      ],
      [
        "Introduction",
        -10.439375604122493
      ],
      [
        "Ġspeaker",
        -10.439397402185111
      ],
      [
        "Ġsupplement",
        -10.439877857371464
      ],
      [
        "Ġmeasurements",
        -10.439886947736312
      ],
      [
        "Ġworse",
        -10.440551511912854
      ],
      [
        "Ġshop",
        -10.440637888008157
      ],
      [
        "Ġmanag",
        -10.440960759673988
      ],
      [
        "Ġgenes",
        -10.441067630908345
      ],
      [
        "Ġbrief",
        -10.44159914528299
      ],
      [
        "twic",
        -10.44164388849121
      ],
      [
        "J",
        -10.442154428410715
      ],
      [
        "Ġlab",
        -10.442188777588512
      ],
      [
        "Ġobservation",
        -10.442375495847095
      ],
      [
        "Ġvegan",
        -10.44246151567516
      ],
      [
        "Ġbank",
        -10.4427215010493
      ],
      [
        "Ġaffects",
        -10.442896565621512
      ],
      [
        "Ġblade",
        -10.443012618921587
      ],
      [
        "Ġexciting",
        -10.443056166209374
      ],
      [
        "Ġweed",
        -10.443406314231204
      ],
      [
        "Ġentirely",
        -10.443555561393026
      ],
      [
        "functions",
        -10.443693985069732
      ],
      [
        "ĠPlant",
        -10.443755077409154
      ],
      [
        "Ġtraffic",
        -10.443814050886363
      ],
      [
        "Ġkinds",
        -10.445474591607416
      ],
      [
        "Ġfilled",
        -10.445894452020193
      ],
      [
        "Ġmechanical",
        -10.445917856921678
      ],
      [
        "Ġsenior",
        -10.446383431824948
      ],
      [
        "Ġprocedures",
        -10.446989891610354
      ],
      [
        "Ġwoman",
        -10.44766930073475
      ],
      [
        "Ġlabel",
        -10.447823846012296
      ],
      [
        "Ġratio",
        -10.448450045758868
      ],
      [
        "ill",
        -10.448659470238065
      ],
      [
        "Ġsecret",
        -10.449647414469794
      ],
      [
        "Ġprove",
        -10.449779591088022
      ],
      [
        "Ġfacilit",
        -10.449800643847574
      ],
      [
        "un",
        -10.450242325093903
      ],
      [
        "ĠRead",
        -10.45033415136895
      ],
      [
        "Ġchocolate",
        -10.452192032252672
      ],
      [
        "ĠGet",
        -10.452474850849155
      ],
      [
        "Ġdiagnose",
        -10.452777964760514
      ],
      [
        "Ġstable",
        -10.454056592894869
      ],
      [
        "off",
        -10.455111039805786
      ],
      [
        "Ġfamous",
        -10.45520720338175
      ],
      [
        "Ġplug",
        -10.455341490529662
      ],
      [
        "wood",
        -10.45571978411863
      ],
      [
        "Ġfacility",
        -10.455982697856602
      ],
      [
        "Ġfixed",
        -10.457027181092254
      ],
      [
        "Ġrocks",
        -10.457114603618203
      ],
      [
        "list",
        -10.457890393690349
      ],
      [
        "Ġdishe",
        -10.457946339116148
      ],
      [
        "edge",
        -10.458610913318246
      ],
      [
        "Ġweigh",
        -10.459321610965116
      ],
      [
        "ĠTake",
        -10.459581759832428
      ],
      [
        "plant",
        -10.459892078722646
      ],
      [
        "Ġsauce",
        -10.459977687687608
      ],
      [
        "ĠHuman",
        -10.460056794411017
      ],
      [
        "Ġspin",
        -10.46091959341409
      ],
      [
        "Ġwarming",
        -10.461392676452585
      ],
      [
        "Ġcookie",
        -10.46142319998814
      ],
      [
        "training",
        -10.461583897901724
      ],
      [
        "Ġcake",
        -10.462574521946664
      ],
      [
        "think",
        -10.46296258405814
      ],
      [
        "Ġclothes",
        -10.462980250251077
      ],
      [
        "Ġdinosaur",
        -10.463428987098382
      ],
      [
        "Ġgrade",
        -10.46374546600488
      ],
      [
        "Ġmeasurement",
        -10.463838860661696
      ],
      [
        "Ġindex",
        -10.464214762517049
      ],
      [
        "Ġexplor",
        -10.464637039905291
      ],
      [
        "species",
        -10.464741825445886
      ],
      [
        "Ġquantum",
        -10.46554070424346
      ],
      [
        "ĠWhere",
        -10.466548503542333
      ],
      [
        "ĠHome",
        -10.466606210608248
      ],
      [
        "Ġlicense",
        -10.466645406071216
      ],
      [
        "Ġbug",
        -10.46725567648068
      ],
      [
        "Ġcopper",
        -10.46835027296568
      ],
      [
        "Ġnames",
        -10.469253051597036
      ],
      [
        "high",
        -10.47048364007947
      ],
      [
        "Ġtrain",
        -10.470777046763692
      ],
      [
        "Ġmenu",
        -10.471120152796315
      ],
      [
        "ĠAny",
        -10.47134243845192
      ],
      [
        "Ġminimal",
        -10.471350246596714
      ],
      [
        "Ġarray",
        -10.471389664034753
      ],
      [
        "Ġbread",
        -10.471720124558225
      ],
      [
        "Ġwonderful",
        -10.47174201549634
      ],
      [
        "taking",
        -10.471895336967378
      ],
      [
        "Ġinflammation",
        -10.47238821194589
      ],
      [
        "ĠAfrican",
        -10.473443748923549
      ],
      [
        "Ġcampaign",
        -10.474467866261406
      ],
      [
        "Ġmild",
        -10.475482166103353
      ],
      [
        "Ġvast",
        -10.475550968355716
      ],
      [
        "still",
        -10.47660858885816
      ],
      [
        "Ġcloud",
        -10.477267844752753
      ],
      [
        "Ġnose",
        -10.477478398987849
      ],
      [
        "ĠPower",
        -10.477738989548076
      ],
      [
        "Ġexplanation",
        -10.477759902546044
      ],
      [
        "Ġagriculture",
        -10.478504296975714
      ],
      [
        "Ġpure",
        -10.478678970403076
      ],
      [
        "Ġexcept",
        -10.479147464562113
      ],
      [
        "Ġthoughts",
        -10.47920575988972
      ],
      [
        "role",
        -10.479247279901012
      ],
      [
        "Ġpepper",
        -10.479967761110094
      ],
      [
        "Ġspray",
        -10.480805733696211
      ],
      [
        "Ġcreates",
        -10.481115447314254
      ],
      [
        "Ġborder",
        -10.481661526520972
      ],
      [
        "Ġsuccessfully",
        -10.482656797248543
      ],
      [
        "Ġcalculation",
        -10.482667361227284
      ],
      [
        "Ġthermal",
        -10.482916261275676
      ],
      [
        "Ġgrill",
        -10.482949098262305
      ],
      [
        "Ġmeasuring",
        -10.48394180622137
      ],
      [
        "Ġacids",
        -10.484152988510942
      ],
      [
        "Ġpreserve",
        -10.48433430851623
      ],
      [
        "Ġgenerator",
        -10.48483255673068
      ],
      [
        "ĠRe",
        -10.485919580692862
      ],
      [
        "Ġmen",
        -10.486727740125604
      ],
      [
        "Ġproduces",
        -10.486731074683115
      ],
      [
        "Ġship",
        -10.486841017655596
      ],
      [
        "Ġmineral",
        -10.48767311721257
      ],
      [
        "Ġimmediate",
        -10.48776614091986
      ],
      [
        "ĠCity",
        -10.488299908676792
      ],
      [
        "Ġinitiative",
        -10.49004692616197
      ],
      [
        "Water",
        -10.490280917264968
      ],
      [
        "Ġagricultural",
        -10.49033423763806
      ],
      [
        "Ġmath",
        -10.490462278067778
      ],
      [
        "Ġmassive",
        -10.490543097584386
      ],
      [
        "Ġassistance",
        -10.49063136355582
      ],
      [
        "Ġinfect",
        -10.491293428156418
      ],
      [
        "Ġguess",
        -10.491777186681984
      ],
      [
        "who",
        -10.491838235538268
      ],
      [
        "Ġinsert",
        -10.492053562427492
      ],
      [
        "ĠEngland",
        -10.492551870255342
      ],
      [
        "Ġdiagnosi",
        -10.492740125368377
      ],
      [
        "ĠLearn",
        -10.49349195053201
      ],
      [
        "ĠGuide",
        -10.493684705331027
      ],
      [
        "Ġauto",
        -10.493865893227769
      ],
      [
        "Ġbehaviour",
        -10.494663805888276
      ],
      [
        "Ġforget",
        -10.494711133027382
      ],
      [
        "ĠCheck",
        -10.495081072882122
      ],
      [
        "Ġpossibly",
        -10.495255672184136
      ],
      [
        "much",
        -10.495966258886009
      ],
      [
        "Ġswimming",
        -10.496851941806536
      ],
      [
        "Ġnorthern",
        -10.497078996658573
      ],
      [
        "Ġjuice",
        -10.49730024521389
      ],
      [
        "Ġfocuse",
        -10.497457963428126
      ],
      [
        "Ġwindows",
        -10.497465869869576
      ],
      [
        "Ġrace",
        -10.497591570629446
      ],
      [
        "Ġmammal",
        -10.498823813579442
      ],
      [
        "Ġinterface",
        -10.498854558602249
      ],
      [
        "Ġchapter",
        -10.499019455560884
      ],
      [
        ";Ċ",
        -10.499027329338425
      ],
      [
        "Ġthanks",
        -10.499347016969445
      ],
      [
        "Ġsouthern",
        -10.499796628652527
      ],
      [
        "Ġturns",
        -10.500332272252995
      ],
      [
        "Ġattend",
        -10.500451971967676
      ],
      [
        "Additional",
        -10.500472321956174
      ],
      [
        "Ġapproache",
        -10.50064185131496
      ],
      [
        "Ġradiation",
        -10.50090486405341
      ],
      [
        "Ġtruth",
        -10.501120311344732
      ],
      [
        "Ġadequate",
        -10.501154045129343
      ],
      [
        "Ġembodiment",
        -10.501366776225794
      ],
      [
        "Ġsheet",
        -10.501711413120468
      ],
      [
        "Ġfamiliar",
        -10.50179790443903
      ],
      [
        "Ġpassenger",
        -10.501808700980389
      ],
      [
        "Ġsuffer",
        -10.502075303314763
      ],
      [
        "different",
        -10.502244858730474
      ],
      [
        "Ġapprove",
        -10.50312003520744
      ],
      [
        "important",
        -10.503168903052288
      ],
      [
        "Ġstorm",
        -10.503695597309289
      ],
      [
        "Ġnorth",
        -10.503852339805787
      ],
      [
        "ĠData",
        -10.503922002403952
      ],
      [
        "hat",
        -10.505551739354257
      ],
      [
        "Ġmobile",
        -10.505583712503206
      ],
      [
        "Ġunlike",
        -10.506035781496264
      ],
      [
        "Ġstrengthen",
        -10.507946296759805
      ],
      [
        "Ġdepression",
        -10.508239625882627
      ],
      [
        "ĠEast",
        -10.508281036637282
      ],
      [
        "Ġopposite",
        -10.508291283400869
      ],
      [
        "Keep",
        -10.508844353890725
      ],
      [
        "Ġroll",
        -10.508943608707446
      ],
      [
        "aging",
        -10.50899718096746
      ],
      [
        "Ġbigge",
        -10.509372822489052
      ],
      [
        "He",
        -10.509703420209224
      ],
      [
        "Ġvector",
        -10.510326253003246
      ],
      [
        "after",
        -10.51039147879287
      ],
      [
        "Ġrecognition",
        -10.510580135197772
      ],
      [
        "Ġrecords",
        -10.510682234709474
      ],
      [
        "Ġcharging",
        -10.511046162253418
      ],
      [
        "Ġcollected",
        -10.511186298899132
      ],
      [
        "Ġedit",
        -10.51182927847288
      ],
      [
        "ĠIts",
        -10.512295569904596
      ],
      [
        "Ġshowe",
        -10.512296744335696
      ],
      [
        "tability",
        -10.513193473243014
      ],
      [
        "Ġthreat",
        -10.513295576769284
      ],
      [
        "Ġrough",
        -10.513304866947
      ],
      [
        "Ġprofit",
        -10.513342818585986
      ],
      [
        "Ġstring",
        -10.514579006441856
      ],
      [
        "cat",
        -10.514637976018276
      ],
      [
        "Ġmolecule",
        -10.515099917824696
      ],
      [
        "Ġbigger",
        -10.51632317877357
      ],
      [
        "Ġrural",
        -10.516669923499292
      ],
      [
        "Ġexchange",
        -10.516829757626027
      ],
      [
        "Ġprotective",
        -10.51707525038564
      ],
      [
        "Ġorange",
        -10.517720678387636
      ],
      [
        "ĠAC",
        -10.518066125393918
      ],
      [
        "Ġmistake",
        -10.518692821578618
      ],
      [
        "idden",
        -10.519014598689044
      ],
      [
        "Ġpuppy",
        -10.519454537700412
      ],
      [
        "Ġorganize",
        -10.519823628272109
      ],
      [
        "Ġleak",
        -10.520247475255433
      ],
      [
        "Ġcolleague",
        -10.520275480513174
      ],
      [
        "Ġinfrastructure",
        -10.520641518352289
      ],
      [
        "see",
        -10.520949193769129
      ],
      [
        "full",
        -10.52120788814068
      ],
      [
        "Ġdomain",
        -10.52174866948802
      ],
      [
        "Final",
        -10.522323138976478
      ],
      [
        "Ġlines",
        -10.522606272857042
      ],
      [
        "been",
        -10.523302390239788
      ],
      [
        "Ġexplains",
        -10.52416975425912
      ],
      [
        "ver",
        -10.524396116833548
      ],
      [
        "Ġaesthetic",
        -10.526371768367335
      ],
      [
        "Ġde",
        -10.527233470300764
      ],
      [
        "Ġcars",
        -10.527560233073586
      ],
      [
        "Ġeconom",
        -10.528227978580585
      ],
      [
        "Ġscore",
        -10.52847557182892
      ],
      [
        "ĠThrough",
        -10.528511297174724
      ],
      [
        "spread",
        -10.529048412891951
      ],
      [
        "Ġclub",
        -10.529327117842406
      ],
      [
        "ĠLearning",
        -10.529524002257151
      ],
      [
        "Ġguarantee",
        -10.53005521274532
      ],
      [
        "Ġregulate",
        -10.530119321823776
      ],
      [
        "Ġwearing",
        -10.53042694640674
      ],
      [
        "allow",
        -10.530658257067447
      ],
      [
        "Ġstream",
        -10.531421555373504
      ],
      [
        "Ġperiods",
        -10.531422791304
      ],
      [
        "Ġcovers",
        -10.531631764281393
      ],
      [
        "Ġbelief",
        -10.531690157307525
      ],
      [
        "Ġtrouble",
        -10.53281485461601
      ],
      [
        "Ġear",
        -10.533466597922835
      ],
      [
        "Ġalumin",
        -10.534324708258737
      ],
      [
        "Ġd",
        -10.534474795963623
      ],
      [
        "Ġpolitical",
        -10.535624839807298
      ],
      [
        "Ġplayed",
        -10.5369982402227
      ],
      [
        "Ġalter",
        -10.537642906325647
      ],
      [
        "frozen",
        -10.53770225027666
      ],
      [
        "Ġwouldn",
        -10.538089313936595
      ],
      [
        "children",
        -10.538229849527044
      ],
      [
        "Ġseal",
        -10.538801526352458
      ],
      [
        "ĠConsider",
        -10.53922157493164
      ],
      [
        "Ġelectrons",
        -10.5396187170482
      ],
      [
        "Have",
        -10.540093632141922
      ],
      [
        "Ġcomputers",
        -10.54193743182612
      ],
      [
        "during",
        -10.542875492918688
      ],
      [
        "Ġeight",
        -10.542901433711322
      ],
      [
        "Ġreasonabl",
        -10.543243207561098
      ],
      [
        "ĠSociety",
        -10.543522331542349
      ],
      [
        "Ġtoxic",
        -10.543646731954397
      ],
      [
        "Ġsales",
        -10.543945093616356
      ],
      [
        "Ġattractive",
        -10.544094708892272
      ],
      [
        "Ġturning",
        -10.544476739793756
      ],
      [
        "Ġtire",
        -10.544591425512094
      ],
      [
        "state",
        -10.544698021852408
      ],
      [
        "Ġreact",
        -10.544978806603869
      ],
      [
        "ĠBlack",
        -10.545213116451343
      ],
      [
        "Ġvertical",
        -10.545410590859294
      ],
      [
        "Ġinteractive",
        -10.545571174624506
      ],
      [
        "ĠWindow",
        -10.54562350553318
      ],
      [
        "Ġfiles",
        -10.54579903652553
      ],
      [
        "Ġextended",
        -10.545862677621832
      ],
      [
        "Ġoutline",
        -10.545864708024451
      ],
      [
        "-day",
        -10.54613148860729
      ],
      [
        "Ġcooked",
        -10.546488310535905
      ],
      [
        "Ġsoap",
        -10.546981063504166
      ],
      [
        "Ġarrive",
        -10.54789982161213
      ],
      [
        "Ġconflict",
        -10.548163486798778
      ],
      [
        "materials",
        -10.548466163126012
      ],
      [
        "ĠOctober",
        -10.548491516781668
      ],
      [
        "Ġaren",
        -10.548529615543732
      ],
      [
        "ĠGood",
        -10.549292650388814
      ],
      [
        "ĠpH",
        -10.549371781324355
      ],
      [
        "Ġrecorded",
        -10.549958116753112
      ],
      [
        "ĠProgram",
        -10.550041525242316
      ],
      [
        "ĠFoundation",
        -10.551023658389742
      ],
      [
        "Ġworkshop",
        -10.551139878424246
      ],
      [
        "Ġstor",
        -10.55227801071281
      ],
      [
        "Ġthin",
        -10.55239124779322
      ],
      [
        "Ġcom",
        -10.552402478144352
      ],
      [
        "found",
        -10.552590498678782
      ],
      [
        "Ġecosystem",
        -10.552665473421378
      ],
      [
        "q",
        -10.552765791416087
      ],
      [
        "Ġpop",
        -10.55280329433237
      ],
      [
        "Ġlisted",
        -10.553741565881406
      ],
      [
        "Ġseat",
        -10.553811265661023
      ],
      [
        "Ġcleaner",
        -10.554369112545608
      ],
      [
        "About",
        -10.554563652169062
      ],
      [
        "Unfortunatel",
        -10.555092626165573
      ],
      [
        "level",
        -10.55553082382756
      ],
      [
        "before",
        -10.55560086761039
      ],
      [
        "ions",
        -10.555709264386996
      ],
      [
        "Ġexercises",
        -10.556926804192546
      ],
      [
        "Ġdioxide",
        -10.557009609374084
      ],
      [
        "ĠDC",
        -10.557038890663613
      ],
      [
        "Ġconsumers",
        -10.557226929741386
      ],
      [
        "Ġ-->",
        -10.557281887298917
      ],
      [
        "Ġsessions",
        -10.55865111076751
      ],
      [
        "ĠPC",
        -10.558958606087414
      ],
      [
        "Ġmining",
        -10.559646067257592
      ],
      [
        "Ġrenewable",
        -10.56010422429292
      ],
      [
        "Ġdistribute",
        -10.560776216735558
      ],
      [
        "test",
        -10.562329885200189
      ],
      [
        "ĠControl",
        -10.562578792476504
      ],
      [
        "ĠLook",
        -10.562947187739743
      ],
      [
        "Ġmodule",
        -10.563194205031134
      ],
      [
        "vity",
        -10.563908943847832
      ],
      [
        "ĠWhite",
        -10.564145644294102
      ],
      [
        "Ġinstitution",
        -10.56477335221149
      ],
      [
        "Ġplus",
        -10.565156665865292
      ],
      [
        "Ġbreast",
        -10.565455127175984
      ],
      [
        "Ġbean",
        -10.565457692911744
      ],
      [
        "âĪĴ",
        -10.566007611068386
      ],
      [
        "Ġvariant",
        -10.566803707757291
      ],
      [
        "Ġpack",
        -10.56687754825744
      ],
      [
        "Ġpartner",
        -10.567510665797474
      ],
      [
        "Ġdairy",
        -10.568001466760064
      ],
      [
        "Ġprey",
        -10.56847357992369
      ],
      [
        "ĠLake",
        -10.568565124008876
      ],
      [
        "Ġdownload",
        -10.569107429655029
      ],
      [
        "ĠCo",
        -10.569202122713966
      ],
      [
        "Ġsold",
        -10.569226464374337
      ],
      [
        "world",
        -10.569620949546136
      ],
      [
        "Ġtutorial",
        -10.570087933736556
      ],
      [
        "ĠArt",
        -10.57029579335127
      ],
      [
        "typical",
        -10.570661409909178
      ],
      [
        "ĠEvery",
        -10.570963448395435
      ],
      [
        "Ġbloom",
        -10.5718697629843
      ],
      [
        "Ġblind",
        -10.572532617090296
      ],
      [
        "Ġnation",
        -10.572570534257904
      ],
      [
        "space",
        -10.572958345141274
      ],
      [
        "ĠFish",
        -10.573819683089225
      ],
      [
        "Ġconsequences",
        -10.574114252399074
      ],
      [
        "Ġweak",
        -10.57535305410016
      ],
      [
        "Ġphysics",
        -10.575803115485485
      ],
      [
        "Ġfunctionalit",
        -10.57582324347241
      ],
      [
        "Ġcomparison",
        -10.576421302785278
      ],
      [
        "Ġcollaboration",
        -10.576575203643568
      ],
      [
        "ĠAsia",
        -10.576726694215315
      ],
      [
        "Ġgenome",
        -10.577353408762871
      ],
      [
        "ĠTwo",
        -10.57902459812848
      ],
      [
        "Ġturne",
        -10.579240826127128
      ],
      [
        "ĠTechnology",
        -10.580648906743107
      ],
      [
        "Ġcommitment",
        -10.580964205586229
      ],
      [
        "Ġpe",
        -10.581796091726972
      ],
      [
        "Ġtransportation",
        -10.582418496136944
      ],
      [
        "Ġdepartment",
        -10.58266562448248
      ],
      [
        "fitness",
        -10.583048770473404
      ],
      [
        "Ġdiffer",
        -10.583172607532104
      ],
      [
        "Ġhabits",
        -10.58385439060821
      ],
      [
        "spent",
        -10.585064121824932
      ],
      [
        "Ġgauge",
        -10.585544962067871
      ],
      [
        "Ġsnake",
        -10.585884463857331
      ],
      [
        "Ġstain",
        -10.586034942874807
      ],
      [
        "Ġmanager",
        -10.58629450916944
      ],
      [
        "Ġcategor",
        -10.587203041937656
      ],
      [
        "force",
        -10.587292573370688
      ],
      [
        "Ġmolecular",
        -10.587663814350414
      ],
      [
        "Ġshot",
        -10.5877581280216
      ],
      [
        "Ġanswers",
        -10.587950421951938
      ],
      [
        "Ġinter",
        -10.587997732283611
      ],
      [
        "Ġfund",
        -10.588036360752511
      ],
      [
        "Ġimplement",
        -10.588326040925937
      ],
      [
        "Ġspeech",
        -10.58857507328953
      ],
      [
        "Ġmilitary",
        -10.588745937177377
      ],
      [
        "Ġdetermin",
        -10.588818569777626
      ],
      [
        "Ġinsulin",
        -10.589083484478731
      ],
      [
        "coding",
        -10.59005182569165
      ],
      [
        "Ġmountain",
        -10.590170927982047
      ],
      [
        "ĠLED",
        -10.590694716608215
      ],
      [
        "Ġmark",
        -10.590795366944224
      ],
      [
        "ĠTexa",
        -10.59135608560362
      ],
      [
        "Ġshark",
        -10.59228254562019
      ],
      [
        "Ġsouth",
        -10.59278144129114
      ],
      [
        "Â°C",
        -10.593674101418106
      ],
      [
        "Ġtradition",
        -10.594057400286214
      ],
      [
        "term",
        -10.59537733954245
      ],
      [
        "ĠFree",
        -10.595543477082153
      ],
      [
        "Ġcopy",
        -10.59588216768704
      ],
      [
        "Ġcustom",
        -10.59602213698095
      ],
      [
        "Ġdetection",
        -10.59635349199776
      ],
      [
        "Als",
        -10.596889627822607
      ],
      [
        "Ġcultural",
        -10.597173813287874
      ],
      [
        "ĠNovember",
        -10.598170143785127
      ],
      [
        "Ġtrends",
        -10.598206893875226
      ],
      [
        "</",
        -10.599482241957176
      ],
      [
        "Â·",
        -10.599680501257357
      ],
      [
        "ĠAssociation",
        -10.600390259667318
      ],
      [
        "ĠProject",
        -10.6023515937584
      ],
      [
        "eadership",
        -10.602452785512495
      ],
      [
        "âĢĺ",
        -10.602721430796148
      ],
      [
        "life",
        -10.602832316515457
      ],
      [
        "Ġvolunteer",
        -10.603537371720307
      ],
      [
        "Ġunusual",
        -10.603937682534244
      ],
      [
        "activity",
        -10.604031687745438
      ],
      [
        "Ġdisaster",
        -10.604733548693993
      ],
      [
        "Ġshelter",
        -10.60539402549178
      ],
      [
        "Ġresistan",
        -10.605568579122542
      ],
      [
        "Ġfriendl",
        -10.60613078043598
      ],
      [
        "ĠUV",
        -10.607051698996711
      ],
      [
        "Ġjobs",
        -10.60745177023884
      ],
      [
        "Read",
        -10.60756583511052
      ],
      [
        "ĠLondon",
        -10.607637384494277
      ],
      [
        "Ġknowing",
        -10.608101592672767
      ],
      [
        "Ġimpossibl",
        -10.608146878081536
      ],
      [
        "Ġstruggle",
        -10.608735177844697
      ],
      [
        "Ġpress",
        -10.609753547881096
      ],
      [
        "Ġdentist",
        -10.610112411035928
      ],
      [
        "Ġdeepe",
        -10.610315042240408
      ],
      [
        "Ġlense",
        -10.610437473468425
      ],
      [
        "Ġnarrow",
        -10.610499183640693
      ],
      [
        "Ġhappening",
        -10.610509306825676
      ],
      [
        "ĠTime",
        -10.61086004908602
      ],
      [
        "Ġwarning",
        -10.610869870652174
      ],
      [
        "Ġquilt",
        -10.611459190125135
      ],
      [
        "Ġimprovement",
        -10.611653223924336
      ],
      [
        "Ġborn",
        -10.611871584126945
      ],
      [
        "Ġtransformation",
        -10.61254788136272
      ],
      [
        "Well",
        -10.612735716479786
      ],
      [
        "ĠRemember",
        -10.61277706203117
      ],
      [
        "Ġbroad",
        -10.61328733556699
      ],
      [
        "Ġpink",
        -10.613947985699667
      ],
      [
        "ĠMexic",
        -10.614643731509316
      ],
      [
        "stock",
        -10.614905684333422
      ],
      [
        "ĠKnow",
        -10.615210854301612
      ],
      [
        "Ġsnack",
        -10.615474877753496
      ],
      [
        "Ġtrace",
        -10.617140281962769
      ],
      [
        "evolved",
        -10.61826014491734
      ],
      [
        "\"We",
        -10.618996327216474
      ],
      [
        "Ġdelivery",
        -10.61905095954883
      ],
      [
        "Ġmagnetic",
        -10.61941975869834
      ],
      [
        "health",
        -10.61958090368552
      ],
      [
        "both",
        -10.620288194441429
      ],
      [
        "ĠPM",
        -10.620448741965076
      ],
      [
        "Ġindustri",
        -10.621439407735611
      ],
      [
        "Ġgravity",
        -10.621528837009096
      ],
      [
        "ĠStep",
[...]
