{
  "version": "1.0",
  "truncation": null,
  "padding": null,
  "added_tokens": [
    {
      "id": 0,
      "content": "<|bos|>",
      "single_word": false,
      "lstrip": false,
      "rstrip": false,
      "normalized": false,
      "special": true
    },
    {
      "id": 1,
      "content": "<|user_start|>",
      "single_word": false,
      "lstrip": false,
      "rstrip": false,
      "normalized": false,
      "special": true
    },
    {
      "id": 2,
      "content": "<|user_end|>",
      "single_word": false,
      "lstrip": false,
      "rstrip": false,
      "normalized": false,
      "special": true
    },
    {
      "id": 3,
      "content": "<|assistant_start|>",
      "single_word": false,
      "lstrip": false,
      "rstrip": false,
      "normalized": false,
      "special": true
    },
    {
      "id": 4,
      "content": "<|assistant_end|>",
      "single_word": false,
      "lstrip": false,
      "rstrip": false,
      "normalized": false,
      "special": true
    },
    {
      "id": 5,
      "content": "<|python_start|>",
      "single_word": false,
      "lstrip": false,
      "rstrip": false,
      "normalized": false,
      "special": true
    },
    {
      "id": 6,
      "content": "<|python_end|>",
      "single_word": false,
      "lstrip": false,
      "rstrip": false,
      "normalized": false,
      "special": true
    },
    {
      "id": 7,
      "content": "<|output_start|>",
      "single_word": false,
      "lstrip": false,
      "rstrip": false,
      "normalized": false,
      "special": true
    },
    {
      "id": 8,
      "content": "<|output_end|>",
      "single_word": false,
      "lstrip": false,
      "rstrip": false,
      "normalized": false,
      "special": true
    },
    {
      "id": 9,
      "content": "<|unk|>",
      "single_word": false,
      "lstrip": false,
      "rstrip": false,
      "normalized": false,
      "special": true
    }
  ],
  "normalizer": null,
  "pre_tokenizer": {
    "type": "Sequence",
    "pretokenizers": [
      {
        "type": "Split",
        "pattern": {
          "Regex": "'(?i:[sdmt]|ll|ve|re)|[^\\r\\n\\p{L}\\p{N}]?+\\p{L}+|\\p{N}{1,2}| ?[^\\s\\p{L}\\p{N}]++[\\r\\n]*|\\s*[\\r\\n]|\\s+(?!\\S)|\\s+"
        },
        "behavior": "Isolated",
        "invert": false
      },
      {
        "type": "ByteLevel",
        "add_prefix_space": false,
        "trim_offsets": true,
        "use_regex": false
      }
    ]
  },
  "post_processor": {
    "type": "TemplateProcessing",
    "single": [
      {
        "Sequence": {
          "id": "A",
          "type_id": 0
        }
      }
    ],
    "pair": [
      {
        "Sequence": {
          "id": "A",
          "type_id": 0
        }
      },
      {
        "Sequence": {
          "id": "B",
          "type_id": 1
        }
      }
    ],
    "special_tokens": {}
  },
  "decoder": null,
  "model": {
    "type": "Unigram",
    "unk_id": 9,
    "vocab": [
      [
        "<|bos|>",
        0.0
      ],
      [
        "<|user_start|>",
        0.0
      ],
      [
        "<|user_end|>",
        0.0
      ],
      [
        "<|assistant_start|>",
        0.0
      ],
      [
        "<|assistant_end|>",
        0.0
      ],
      [
        "<|python_start|>",
        0.0
      ],
      [
        "<|python_end|>",
        0.0
      ],
      [
        "<|output_start|>",
        0.0
      ],
      [
        "<|output_end|>",
        0.0
      ],
      [
        "<|unk|>",
        0.0
      ],
      [
        "Ġ",
        -3.022180371589698
      ],
      [
        "s",
        -3.0307358278408216
      ],
      [
        "Ġthe",
        -3.5012575519571687
      ],
      [
        ",",
        -3.559157598874279
      ],
      [
        ".",
        -3.826941716036501
      ],
      [
        "a",
        -3.854635450680776
      ],
      [
        "Ġand",
        -4.061541378225861
      ],
      [
        "Ġof",
        -4.096026289392295
      ],
      [
        "Ġto",
        -4.099396156641635
      ],
      [
        "ing",
        -4.4387824437567325
      ],
      [
        "Ġin",
        -4.5801445556902465
      ],
      [
        "Ġis",
        -4.732871186750458
      ],
      [
        "d",
        -4.748273597238541
      ],
      [
        "e",
        -4.750999509192042
      ],
      [
        "ed",
        -4.790509544788115
      ],
      [
        "t",
        -4.8108964681670905
      ],
      [
        "y",
        -5.028850354390817
      ],
      [
        "'",
        -5.03797679147563
      ],
      [
        "0",
        -5.123670918589582
      ],
      [
        "Ġfor",
        -5.141092541783157
      ],
      [
        "Ġthat",
        -5.150796789357043
      ],
      [
        "ly",
        -5.2509846373671
      ],
      [
        "1",
        -5.252407452684363
      ],
      [
        "-",
        -5.28241740865942
      ],
      [
        ":",
        -5.322511291113241
      ],
      [
        "Ġare",
        -5.358445975109419
      ],
      [
        "Ċ",
        -5.417709375575834
      ],
      [
        "Ġyou",
        -5.423894833667752
      ],
      [
        "Ġwith",
        -5.425204732014732
      ],
      [
        "Ġit",
        -5.42535324827902
      ],
      [
        ".Ċ",
        -5.442195424316518
      ],
      [
        "n",
        -5.463674951427192
      ],
      [
        "2",
        -5.466317737337397
      ],
      [
        ".ĊĊ",
        -5.479007866551621
      ],
      [
        "Ġbe",
        -5.535699420416165
      ],
      [
        "Ġcan",
        -5.589148194661087
      ],
      [
        "Ġon",
        -5.592956388110807
      ],
      [
        "Ġas",
        -5.621069624036558
      ],
      [
        "Ġor",
        -5.626772971403632
      ],
      [
        "ĊĊ",
        -5.694866973786775
      ],
      [
        "i",
        -5.707003629662912
      ],
      [
        "o",
        -5.73130991671284
      ],
      [
        "er",
        -5.7825767604351
      ],
      [
        "r",
        -5.810051053994789
      ],
      [
        "Ġyour",
        -5.838395398932107
      ],
      [
        "Ġ(",
        -5.88556409249389
      ],
      [
        "\"",
        -5.889613857609174
      ],
      [
        "ĠI",
        -5.959135916640609
      ],
      [
        "ĠThe",
        -5.9735723658443725
      ],
      [
        "Ġhave",
        -5.999921821230675
      ],
      [
        "Ġfrom",
        -6.011939526128684
      ],
      [
        "?",
        -6.058010651763972
      ],
      [
        "Ġby",
        -6.0620150549624885
      ],
      [
        ")",
        -6.087562940237236
      ],
      [
        "Ġan",
        -6.095868248813021
      ],
      [
        "3",
        -6.107622078520443
      ],
      [
        "m",
        -6.124844447150846
      ],
      [
        "5",
        -6.156506591657427
      ],
      [
        "l",
        -6.168706062430012
      ],
      [
        "Ġthis",
        -6.1720178673145
      ],
      [
        "re",
        -6.218438720654925
      ],
      [
        "Ġnot",
        -6.218489381146618
      ],
      [
        "Ġat",
        -6.221007943724432
      ],
      [
        "c",
        -6.25251713568354
      ],
      [
        "al",
        -6.274919833653092
      ],
      [
        "Ġwill",
        -6.330971355613679
      ],
      [
        "Ġtheir",
        -6.347003028522121
      ],
      [
        "4",
        -6.353186062477233
      ],
      [
        "Ġwas",
        -6.416047962452772
      ],
      [
        "in",
        -6.444251810025213
      ],
      [
        "Ġmore",
        -6.444599498246236
      ],
      [
        "9",
        -6.455382185541689
      ],
      [
        "Ġthey",
        -6.473330149900372
      ],
      [
        "g",
        -6.490163221779429
      ],
      [
        "p",
        -6.49538556063357
      ],
      [
        "The",
        -6.518055100272534
      ],
      [
        "on",
        -6.535236570773652
      ],
      [
        "or",
        -6.560729776417963
      ],
      [
        "6",
        -6.572855825180513
      ],
      [
        "ĠA",
        -6.5805138188950405
      ],
      [
        "8",
        -6.600468456167391
      ],
      [
        "Ġhas",
        -6.60067607069125
      ],
      [
        "Ġbut",
        -6.606060895765728
      ],
      [
        "Ġwhich",
        -6.606466892227434
      ],
      [
        "Ġwe",
        -6.619527260930367
      ],
      [
        "b",
        -6.642135508749142
      ],
      [
        "Ġone",
        -6.655783206459523
      ],
      [
        "Question",
        -6.67090153896153
      ],
      [
        "Ġalso",
        -6.698741356675347
      ],
      [
        "ĠAnswer",
        -6.707915021319142
      ],
      [
        "u",
        -6.724913032073847
      ],
      [
        "ies",
        -6.725073070217951
      ],
      [
        "7",
        -6.7338986487209365
      ],
      [
        "Ġall",
        -6.753703563067347
      ],
      [
        "Ġother",
        -6.760593023177551
      ],
      [
        "f",
        -6.76839178015142
      ],
      [
        "Ġabout",
        -6.782780742306334
      ],
      [
        "A",
        -6.808947351509232
      ],
      [
        "h",
        -6.82364548507598
      ],
      [
        "ĠIt",
        -6.845806121072657
      ],
      [
        "Ġdo",
        -6.859827555670693
      ],
      [
        "Ġwhen",
        -6.879517429923405
      ],
      [
        "Ġso",
        -6.883667916599352
      ],
      [
        "Ġtime",
        -6.889924770660491
      ],
      [
        "Ġif",
        -6.92892705590457
      ],
      [
        "Ġinto",
        -6.9369280161215485
      ],
      [
        "ĠS",
        -6.939846178074099
      ],
      [
        "is",
        -6.941455661347451
      ],
      [
        "Ġthem",
        -6.942837294956982
      ],
      [
        "Ġsome",
        -6.949430981326747
      ],
      [
        "Ġup",
        -6.950750715814074
      ],
      [
        "Ġlike",
        -6.951171586209675
      ],
      [
        "Ġhow",
        -6.954685381874885
      ],
      [
        "ĠIn",
        -6.960753204867656
      ],
      [
        "ation",
        -6.9649978165948525
      ],
      [
        "Ġout",
        -6.974764195784147
      ],
      [
        "ĠThis",
        -6.994824143011407
      ],
      [
        "Ġuse",
        -6.995492100997547
      ],
      [
        "Ġthan",
        -7.005723120886239
      ],
      [
        "le",
        -7.022335249990787
      ],
      [
        "ic",
        -7.028822916064204
      ],
      [
        "ĠWhat",
        -7.034185991023092
      ],
      [
        "able",
        -7.038363747847004
      ],
      [
        "k",
        -7.03849213988601
      ],
      [
        "Ġmay",
        -7.040191504742641
      ],
      [
        "/",
        -7.050312124491411
      ],
      [
        "Ġthese",
        -7.066360974918895
      ],
      [
        "I",
        -7.06658223490982
      ],
      [
        "ion",
        -7.076310620220205
      ],
      [
        "it",
        -7.077440080575263
      ],
      [
        "Ġwater",
        -7.0823161811281725
      ],
      [
        "ĠC",
        -7.085058767796047
      ],
      [
        "th",
        -7.11411938272415
      ],
      [
        "S",
        -7.123958070434352
      ],
      [
        "Ġthere",
        -7.144972176872468
      ],
      [
        "Ġused",
        -7.168619493574157
      ],
      [
        "Ġneed",
        -7.173570598356832
      ],
      [
        "Ġwhat",
        -7.17733212411826
      ],
      [
        "Ġmake",
        -7.19220133120305
      ],
      [
        "an",
        -7.195280814617977
      ],
      [
        "Ġwere",
        -7.201047437653129
      ],
      [
        "Ġmost",
        -7.20220908395509
      ],
      [
        "ers",
        -7.218697741975591
      ],
      [
        "Ġsuch",
        -7.219775206959739
      ],
      [
        "Ġour",
        -7.225019140169675
      ],
      [
        "w",
        -7.225160079683414
      ],
      [
        "Ġnew",
        -7.244907914485301
      ],
      [
        "Ġover",
        -7.26465130752149
      ],
      [
        "ĠB",
        -7.264802362467396
      ],
      [
        "Ġany",
        -7.266757038322037
      ],
      [
        "Ġget",
        -7.286973781959695
      ],
      [
        "Ġpeople",
        -7.290042060647647
      ],
      [
        "Ġbeen",
        -7.295008733158944
      ],
      [
        "Ġshould",
        -7.299374330356779
      ],
      [
        "Ġhelp",
        -7.307269393969584
      ],
      [
        "v",
        -7.315028730534388
      ],
      [
        "Ġwould",
        -7.332558630102778
      ],
      [
        "ity",
        -7.340896755927893
      ],
      [
        "Ġjust",
        -7.343656025676243
      ],
      [
        "D",
        -7.357332368346627
      ],
      [
        "Ġwho",
        -7.372394275399607
      ],
      [
        "Ġwork",
        -7.377807468548141
      ],
      [
        "Ġits",
        -7.390531694933971
      ],
      [
        "Ġonly",
        -7.397673139425974
      ],
      [
        "Ġno",
        -7.418185774060385
      ],
      [
        "?Ċ",
        -7.423168510307519
      ],
      [
        "Ġmany",
        -7.425513050361616
      ],
      [
        "P",
        -7.437697110734177
      ],
      [
        ";",
        -7.441738991428876
      ],
      [
        "Ġtwo",
        -7.444655688957262
      ],
      [
        "Ġmy",
        -7.4510783367501965
      ],
      [
        "B",
        -7.453881127427144
      ],
      [
        "Ġhigh",
        -7.458993816370775
      ],
      [
        "ce",
        -7.460018305994247
      ],
      [
        "C",
        -7.462568715544194
      ],
      [
        "ve",
        -7.462898048122877
      ],
      [
        "ĠF",
        -7.463561827421479
      ],
      [
        "Ġwell",
        -7.47039951218956
      ],
      [
        "Ġdifferent",
        -7.477771430328387
      ],
      [
        "um",
        -7.491203983698906
      ],
      [
        "Ġlong",
        -7.493902616411644
      ],
      [
        "F",
        -7.494312366704799
      ],
      [
        "Ġthrough",
        -7.499314195458661
      ],
      [
        "Ġfirst",
        -7.501636027406198
      ],
      [
        "ll",
        -7.503376880645549
      ],
      [
        "ur",
        -7.508434875554391
      ],
      [
        "Ġway",
        -7.5258417487112705
      ],
      [
        "us",
        -7.527123891977034
      ],
      [
        "x",
        -7.53065343985682
      ],
      [
        "Ġbetween",
        -7.5311286040474865
      ],
      [
        "T",
        -7.534435151474861
      ],
      [
        "Ġbecause",
        -7.551740970904403
      ],
      [
        "Ġhe",
        -7.55233670998102
      ],
      [
        "Ġsystem",
        -7.559839421814454
      ],
      [
        "Ġvery",
        -7.560260357113291
      ],
      [
        "ive",
        -7.56306173959168
      ],
      [
        "In",
        -7.569183426249547
      ],
      [
        "Ġeven",
        -7.572670497706234
      ],
      [
        "Ġwhere",
        -7.578087193560913
      ],
      [
        "Ġun",
        -7.578334779225109
      ],
      [
        "ĠP",
        -7.579451770000729
      ],
      [
        "out",
        -7.590152515425414
      ],
      [
        "Ġtake",
        -7.59240752085217
      ],
      [
        "ment",
        -7.595275023760685
      ],
      [
        "age",
        -7.598090953294625
      ],
      [
        "Ġpart",
        -7.601940763724103
      ],
      [
        "Ġcould",
        -7.604989452365372
      ],
      [
        "ĠIf",
        -7.616614050511711
      ],
      [
        "ar",
        -7.626627128062628
      ],
      [
        "ĠD",
        -7.627515891721373
      ],
      [
        "!",
        -7.652110328221074
      ],
      [
        "Ġchange",
        -7.653567150468016
      ],
      [
        "Ġhis",
        -7.666550816103467
      ],
      [
        "ĠThey",
        -7.666733055015364
      ],
      [
        "Ġmuch",
        -7.667881764131
      ],
      [
        "Ġhad",
        -7.68267024664598
      ],
      [
        "Ġde",
        -7.687221127695947
      ],
      [
        "Ġknow",
        -7.6913947953596224
      ],
      [
        "ent",
        -7.696006229850411
      ],
      [
        "ĠE",
        -7.701950950095661
      ],
      [
        "Ġgood",
        -7.709191060469426
      ],
      [
        "using",
        -7.712583427579835
      ],
      [
        "Ġsmall",
        -7.715366682045289
      ],
      [
        "Ġeach",
        -7.71681811832601
      ],
      [
        "Ġimportant",
        -7.73104062965861
      ],
      [
        "ĠYou",
        -7.731556770332434
      ],
      [
        "ch",
        -7.737621920995876
      ],
      [
        "ĠG",
        -7.741115260009176
      ],
      [
        "est",
        -7.746523827398587
      ],
      [
        "Ġdon",
        -7.748779139066876
      ],
      [
        "Ġdoes",
        -7.749102346704296
      ],
      [
        "Ġfood",
        -7.752123843012075
      ],
      [
        "ĠT",
        -7.75884449090829
      ],
      [
        "Ġwant",
        -7.761223806069335
      ],
      [
        "Ġdesign",
        -7.764285755740389
      ],
      [
        ").",
        -7.767481226716866
      ],
      [
        "Ġwhile",
        -7.769874686562311
      ],
      [
        "Ġyears",
        -7.771315623154191
      ],
      [
        "ĠâĢĵ",
        -7.776524409100105
      ],
      [
        "Ġenergy",
        -7.778170677357174
      ],
      [
        "Ġresult",
        -7.782181923656745
      ],
      [
        "Ġafter",
        -7.787628161685706
      ],
      [
        "Ġsee",
        -7.788468306783432
      ],
      [
        "Ġhealth",
        -7.793548486266571
      ],
      [
        "Ġnumber",
        -7.798292467453791
      ],
      [
        "(",
        -7.8006248535127
      ],
      [
        "ĠH",
        -7.809038902199569
      ],
      [
        "and",
        -7.810169405287009
      ],
      [
        "M",
        -7.831338057844057
      ],
      [
        "ry",
        -7.838828317622669
      ],
      [
        "R",
        -7.838867115609139
      ],
      [
        "Ġhuman",
        -7.843353488666352
      ],
      [
        "Ġlight",
        -7.847799781463754
      ],
      [
        "Ġus",
        -7.84812565126802
      ],
      [
        "ul",
        -7.856369217381449
      ],
      [
        "Ġsame",
        -7.857803754192089
      ],
      [
        "Ġworld",
        -7.8617737802312
      ],
      [
        "Ġbefore",
        -7.864973866516815
      ],
      [
        "during",
        -7.867865469590187
      ],
      [
        "Ġprovide",
        -7.869554002688778
      ],
      [
        "E",
        -7.869579771929191
      ],
      [
        "Ġaround",
        -7.873142451179525
      ],
      [
        "ĠM",
        -7.87329358650025
      ],
      [
        "Ġinclude",
        -7.880129188910347
      ],
      [
        "Ġback",
        -7.8823898104525085
      ],
      [
        "Ġboth",
        -7.883227004416959
      ],
      [
        "those",
        -7.887321080523192
      ],
      [
        "N",
        -7.889364817683688
      ],
      [
        "Ġfound",
        -7.889504890224508
      ],
      [
        "ate",
        -7.889886903431677
      ],
      [
        "Ġgreat",
        -7.892721310989085
      ],
      [
        "Ġme",
        -7.894708162401667
      ],
      [
        "Ġlife",
        -7.897438803258563
      ],
      [
        "H",
        -7.898863313442773
      ],
      [
        "G",
        -7.905087239688784
      ],
      [
        "ĠTo",
        -7.912549634380314
      ],
      [
        "Ġbeing",
        -7.913871052182479
      ],
      [
        "Ġunder",
        -7.91950066475532
      ],
      [
        "ter",
        -7.921117949897544
      ],
      [
        "Ġbest",
        -7.933467879173033
      ],
      [
        "Ġhome",
        -7.934152315037572
      ],
      [
        "ĠFor",
        -7.938295912731046
      ],
      [
        "Ġdata",
        -7.939176241426823
      ],
      [
        "Ġprocess",
        -7.942330824224595
      ],
      [
        "ary",
        -7.943987847366333
      ],
      [
        "Ġdown",
        -7.944030949043642
      ],
      [
        "Ġcause",
        -7.944219284411298
      ],
      [
        "),",
        -7.9481200519058195
      ],
      [
        "Ġplace",
        -7.948467792211009
      ],
      [
        "Ġright",
        -7.954280624175155
      ],
      [
        "Ġfind",
        -7.954475960294516
      ],
      [
        "ĠWe",
        -7.962046885428544
      ],
      [
        "Ġmade",
        -7.970898490538795
      ],
      [
        "Ġoften",
        -7.9748599011147885
      ],
      [
        "Ġthink",
        -7.981990364913241
      ],
      [
        "Ġexample",
        -7.984196659459855
      ],
      [
        "Ġher",
        -7.985600518288587
      ],
      [
        "Ġday",
        -7.992235155119863
      ],
      [
        "Ġadd",
        -7.9927152432071935
      ],
      [
        "Ġform",
        -7.995799296279255
      ],
      [
        "un",
        -7.99589316597612
      ],
      [
        "to",
        -8.002390015468878
      ],
      [
        "Ġoff",
        -8.004402759262328
      ],
      [
        "Ġstart",
        -8.004787519237963
      ],
      [
        "Ġgo",
        -8.006240895390562
      ],
      [
        "W",
        -8.008568339697005
      ],
      [
        "ness",
        -8.012109531987033
      ],
      [
        "ĠRe",
        -8.01265700483819
      ],
      [
        "Ġincrease",
        -8.01730160134662
      ],
      [
        "Ġbody",
        -8.024094496643617
      ],
      [
        "ally",
        -8.03489299409446
      ],
      [
        "%",
        -8.036109037965078
      ],
      [
        "Ġlook",
        -8.03671606268234
      ],
      [
        "Ġdevelop",
        -8.040280204616149
      ],
      [
        "What",
        -8.043820862745656
      ],
      [
        "Ġpoint",
        -8.051958938109879
      ],
      [
        "Ġsaid",
        -8.053167219021544
      ],
      [
        "Ġinformation",
        -8.05359613508512
      ],
      [
        "Ġplant",
        -8.05867049335141
      ],
      [
        "Ġpower",
        -8.060938764667043
      ],
      [
        ":Ċ",
        -8.061097750405935
      ],
      [
        "Ġevery",
        -8.061274433937282
      ],
      [
        "Ġyear",
        -8.064600115495208
      ],
      [
        "ous",
        -8.066744441512746
      ],
      [
        "Ġheat",
        -8.068668301760756
      ],
      [
        "Ġcreate",
        -8.073177696367154
      ],
      [
        "ĠR",
        -8.08484759228822
      ],
      [
        "Ġair",
        -8.086267513595747
      ],
      [
        "Ġgrow",
        -8.086726043885326
      ],
      [
        "Ġcar",
        -8.089558117730656
      ],
      [
        "Ġsupport",
        -8.093765317410977
      ],
      [
        "Ġresearch",
        -8.097705527418144
      ],
      [
        "Ġspecies",
        -8.101247689092167
      ],
      [
        "ĠW",
        -8.105277348509532
      ],
      [
        "ĠThese",
        -8.10625596989443
      ],
      [
        "tic",
        -8.109272833892039
      ],
      [
        "z",
        -8.110587585025954
      ],
      [
        "Ġbetter",
        -8.116004703454363
      ],
      [
        "Ġend",
        -8.118265389450631
      ],
      [
        "This",
        -8.120705843500662
      ],
      [
        "ant",
        -8.12128676186949
      ],
      [
        "Ġkeep",
        -8.121457271887712
      ],
      [
        "Ġnow",
        -8.121847499704973
      ],
      [
        "However",
        -8.123180363776505
      ],
      [
        "V",
        -8.124051261472065
      ],
      [
        "Ġmight",
        -8.126373761265532
      ],
      [
        "Ġown",
        -8.128544462534844
      ],
      [
        "Ġstudy",
        -8.129464838095911
      ],
      [
        "the",
        -8.129822106760047
      ],
      [
        "Ġper",
        -8.13163193496043
      ],
      [
        "li",
        -8.138089757984302
      ],
      [
        "Ġdog",
        -8.139723128741657
      ],
      [
        "ability",
        -8.142418221012756
      ],
      [
        "Ġfew",
        -8.152641736113196
      ],
      [
        "Ġbecome",
        -8.152897707322442
      ],
      [
        "ĠN",
        -8.157049551511271
      ],
      [
        "Ġlarge",
        -8.161481939899549
      ],
      [
        "Ġtemperature",
        -8.168373403818503
      ],
      [
        "Ġstill",
        -8.168677414047206
      ],
      [
        "ĠBut",
        -8.169115671526074
      ],
      [
        "L",
        -8.170563045504219
      ],
      [
        "...",
        -8.178397968631614
      ],
      [
        "Ġexperience",
        -8.178534975841732
      ],
      [
        "If",
        -8.17923866773148
      ],
      [
        "ten",
        -8.191977484151291
      ],
      [
        "ian",
        -8.199019157821295
      ],
      [
        "ĠL",
        -8.20041826801037
      ],
      [
        "O",
        -8.203549938887738
      ],
      [
        "Ġstudents",
        -8.209096638964501
      ],
      [
        "Ġincluding",
        -8.214352898807128
      ],
      [
        "ance",
        -8.21597065237686
      ],
      [
        "less",
        -8.21615532208195
      ],
      [
        "It",
        -8.217357194496916
      ],
      [
        "Ġcase",
        -8.223408531018068
      ],
      [
        "Ġissue",
        -8.226743075072001
      ],
      [
        "Ġtype",
        -8.227013517984334
      ],
      [
        "Ġcurrent",
        -8.231298262208593
      ],
      [
        "Ġthree",
        -8.238480706627612
      ],
      [
        "Ġspecific",
        -8.239770257500755
      ],
      [
        "Ġplants",
        -8.239880314596697
      ],
      [
        "Ġmaking",
        -8.24374219674834
      ],
      [
        "op",
        -8.248507077247515
      ],
      [
        "Ġcontrol",
        -8.248720879234762
      ],
      [
        "if",
        -8.248778563288917
      ],
      [
        "Ġless",
        -8.2509232192728
      ],
      [
        "am",
        -8.251013793922354
      ],
      [
        "Ġlot",
        -8.26077911183365
      ],
      [
        "Ġcolor",
        -8.267135132605109
      ],
      [
        "Ġlearn",
        -8.267373610010527
      ],
      [
        "ĠAnd",
        -8.267752669619169
      ],
      [
        "Ġallow",
        -8.268228374472018
      ],
      [
        "Ġspace",
        -8.272115891007253
      ],
      [
        "Ġmust",
        -8.276657237093705
      ],
      [
        "Ġcommon",
        -8.27778271301614
      ],
      [
        "Ġschool",
        -8.282304596934843
      ],
      [
        "K",
        -8.285647869810752
      ],
      [
        "Ġproduce",
        -8.2860463101185
      ],
      [
        "Ġknown",
        -8.287675469546452
      ],
      [
        ":ĊĊ",
        -8.291785051415124
      ],
      [
        "ill",
        -8.292496165138958
      ],
      [
        "Ġwithin",
        -8.29319823014436
      ],
      [
        "Ġthings",
        -8.294065868274643
      ],
      [
        "How",
        -8.29832963765024
      ],
      [
        "co",
        -8.306324735890234
      ],
      [
        "be",
        -8.308126161957748
      ],
      [
        "ver",
        -8.309339224113383
      ],
      [
        "Ġindividual",
        -8.309775078282946
      ],
      [
        "Ġreduce",
        -8.312307245629091
      ],
      [
        "Ġchildren",
        -8.314488402256535
      ],
      [
        "Ġenvironment",
        -8.315958090897407
      ],
      [
        "Ġoffer",
        -8.318256867441105
      ],
      [
        "ial",
        -8.318567768785472
      ],
      [
        "Ġcalled",
        -8.318960601805415
      ],
      [
        "ĠSo",
        -8.320846051417707
      ],
      [
        "Ġset",
        -8.321216226024141
      ],
      [
        "Ġline",
        -8.330245012552206
      ],
      [
        "Ġtoo",
        -8.331056252269951
      ],
      [
        "ĠSt",
        -8.332857116626325
      ],
      [
        "Ġshow",
        -8.336454373932101
      ],
      [
        "Ġlow",
        -8.337305315322167
      ],
      [
        "Ġpotential",
        -8.339651809351375
      ],
      [
        "Ġsure",
        -8.340028681165679
      ],
      [
        "Ġsize",
        -8.341448931793948
      ],
      [
        "Ġanother",
        -8.344773268003447
      ],
      [
        "Ġturn",
        -8.348797602607654
      ],
      [
        "ĠK",
        -8.34980128116077
      ],
      [
        "Ġwhy",
        -8.350048505472708
      ],
      [
        "]",
        -8.353052549237525
      ],
      [
        "ĠWhen",
        -8.353943578910448
      ],
      [
        ",\"",
        -8.356193411564856
      ],
      [
        "ever",
        -8.358503663673151
      ],
      [
        "Ġprevent",
        -8.359655701435138
      ],
      [
        "ĠHe",
        -8.361567964351186
      ],
      [
        "line",
        -8.364256162351655
      ],
      [
        "ĠJ",
        -8.36967828798008
      ],
      [
        "Ġsource",
        -8.373436788979859
      ],
      [
        "ĠO",
        -8.373844668704036
      ],
      [
        "Ġreally",
        -8.374195274254946
      ],
      [
        "Ġdue",
        -8.375671138323924
      ],
      [
        "Ġfollowing",
        -8.381481207826738
      ],
      [
        "Ġplay",
        -8.38382706818081
      ],
      [
        "Ġshe",
        -8.383827667199421
      ],
      [
        "Ġhand",
        -8.384803972669642
      ],
      [
        "Ġvalue",
        -8.3851199128211
      ],
      [
        "Ġgame",
        -8.387081766896397
      ],
      [
        "ĠHow",
        -8.389578510602735
      ],
      [
        "Ġb",
        -8.390325518573627
      ],
      [
        "Ġlead",
        -8.392639898834185
      ],
      [
        "Ġhere",
        -8.398531342721721
      ],
      [
        "Ġensure",
        -8.403220802913085
      ],
      [
        "Ġvarious",
        -8.404287724940648
      ],
      [
        "ther",
        -8.40717588786064
      ],
      [
        "Ġsurface",
        -8.40766621932777
      ],
      [
        "Ġlevel",
        -8.409699471496364
      ],
      [
        "min",
        -8.410857293796543
      ],
      [
        "Ġsomething",
        -8.412623581106292
      ],
      [
        "Ġnatural",
        -8.413029876714315
      ],
      [
        "Ġdid",
        -8.413774096212137
      ],
      [
        "Ġcome",
        -8.421031510590229
      ],
      [
        "Ġrange",
        -8.424549414304378
      ],
      [
        "Ġtest",
        -8.426026293942297
      ],
      [
        "Ġlittle",
        -8.426224233178434
      ],
      [
        "up",
        -8.426281903921403
      ],
      [
        "Ġdevelopment",
        -8.432250507879598
      ],
      [
        "possible",
        -8.432711466960969
      ],
      [
        "Ġname",
        -8.43338734303845
      ],
      [
        "ful",
        -8.434070797975195
      ],
      [
        "Ġuser",
        -8.437810730308595
      ],
      [
        "Ġeffective",
        -8.43926784526603
      ],
      [
        "vi",
        -8.448342643301586
      ],
      [
        "Ġgeneral",
        -8.449385172149608
      ],
      [
        "Ġ=",
        -8.45068180027964
      ],
      [
        "ĠThere",
        -8.450909914347058
      ],
      [
        "Ġeat",
        -8.452474637677696
      ],
      [
        "ĠAs",
        -8.455510708078089
      ],
      [
        "Ġamount",
        -8.456675371058584
      ],
      [
        "Ġlast",
        -8.460176308847176
      ],
      [
        "Ġimpact",
        -8.463903923881638
      ],
      [
        "Ġrequire",
        -8.467833276994218
      ],
      [
        "ge",
        -8.468468110708844
      ],
      [
        "Ġdis",
        -8.470653979778012
      ],
      [
        "Ġsoil",
        -8.470799571913332
      ],
      [
        "man",
        -8.471094634875547
      ],
      [
        "ated",
        -8.471459066164641
      ],
      [
        "Ġalway",
        -8.472991381485947
      ],
      [
        "Ġbenefit",
        -8.473759452977045
      ],
      [
        "ish",
        -8.47533412025457
      ],
      [
        "Ġprogram",
        -8.477950517494321
      ],
      [
        "Ġcells",
        -8.479654360360914
      ],
      [
        "Ġmain",
        -8.484434185302455
      ],
      [
        "per",
        -8.48689338841574
      ],
      [
        "Ġreason",
        -8.490370195034414
      ],
      [
        "Ġavailable",
        -8.491335640316121
      ],
      [
        "Ġco",
        -8.492846196620674
      ],
      [
        "Ġcare",
        -8.494701640929268
      ],
      [
        "Ġbased",
        -8.494907241486414
      ],
      [
        "Ġseveral",
        -8.497659965670783
      ],
      [
        "Ġcomplete",
        -8.498959072837296
      ],
      [
        "Ġcon",
        -8.50040188000553
      ],
      [
        "Ġpresent",
        -8.500763329918664
      ],
      [
        "Ġgive",
        -8.503567690381914
      ],
      [
        "U",
        -8.505331807793944
      ],
      [
        "Ġsignificant",
        -8.505556713875848
      ],
      [
        "Ġal",
        -8.506593314927386
      ],
      [
        "Ġstate",
        -8.506788457984744
      ],
      [
        "Ġorder",
        -8.514832854945682
      ],
      [
        "Ġmeans",
        -8.516484840435101
      ],
      [
        "Ġproblem",
        -8.518123238039934
      ],
      [
        "Ġdevice",
        -8.520974777854894
      ],
      [
        "Ġpre",
        -8.521248075931727
      ],
      [
        "Ġfeel",
        -8.522487631671517
      ],
      [
        "Ġgoing",
        -8.525029703265833
      ],
      [
        "Ġgroup",
        -8.52622923551451
      ],
      [
        "me",
        -8.529585591680885
      ],
      [
        "Ġnear",
        -8.532397743628596
      ],
      [
        "Ġrisk",
        -8.53279784432854
      ],
      [
        "Ġtext",
        -8.535043486641147
      ],
      [
        "ĠWhich",
        -8.536845587619736
      ],
      [
        "Ġdisease",
        -8.537524049301298
      ],
      [
        "one",
        -8.5384314022966
      ],
      [
        "Ġareas",
        -8.538812369407857
      ],
      [
        "_",
        -8.540528256151962
      ],
      [
        "Ġlocal",
        -8.540611875115175
      ],
      [
        "ĠCo",
        -8.543647759498299
      ],
      [
        "ĠU",
        -8.545315633009613
      ],
      [
        "ĠV",
        -8.546271325864609
      ],
      [
        "Ġblood",
        -8.546436021235085
      ],
      [
        "Ġleave",
        -8.549618033880371
      ],
      [
        "Ġ[",
        -8.54971892013485
      ],
      [
        "Ġcertain",
        -8.552803456455376
      ],
      [
        "Ġsecond",
        -8.556272437827396
      ],
      [
        "Ġusually",
        -8.556545753937062
      ],
      [
        "Ġtreatment",
        -8.562023992533591
      ],
      [
        "Ġteam",
        -8.562815457973489
      ],
      [
        "ĠDe",
        -8.563213648232129
      ],
      [
        "Ġinvolve",
        -8.564820819029148
      ],
      [
        "Ġmaterials",
        -8.567232996893452
      ],
      [
        "Ġessential",
        -8.567687077845704
      ],
      [
        "Ġcourse",
        -8.572288225261152
      ],
      [
        "ĠAn",
        -8.577998808688239
      ],
      [
        "Ġnon",
        -8.580418798049354
      ],
      [
        "Ġhard",
        -8.581745399114025
      ],
      [
        "ow",
        -8.58219075181723
      ],
      [
        "Ġunderstand",
        -8.585816335986838
      ],
      [
        "Ġsay",
        -8.587173453540673
      ],
      [
        "You",
        -8.587984414061642
      ],
      [
        "Ġopen",
        -8.589281057582188
      ],
      [
        "Ġperson",
        -8.589694390090438
      ],
      [
        "Ġclose",
        -8.595524267892523
      ],
      [
        "Ġmaterial",
        -8.59637877135065
      ],
      [
        "Ġquality",
        -8.599244283112554
      ],
      [
        "Ġproject",
        -8.600201452333987
      ],
      [
        "Ġshort",
        -8.600830270431352
      ],
      [
        "When",
        -8.600859112682722
      ],
      [
        "Ġside",
        -8.601717097468384
      ],
      [
        "Ġconsider",
        -8.602622104703215
      ],
      [
        "Ġtechnology",
        -8.602823966088113
      ],
      [
        "Ġenough",
        -8.609480991925768
      ],
      [
        "\\",
        -8.611770401753077
      ],
      [
        "Ġhead",
        -8.612439044379535
      ],
      [
        "Ġconditions",
        -8.612736952393654
      ],
      [
        "Ġtypes",
        -8.616028935449298
      ],
      [
        "ĠBe",
        -8.618122313105877
      ],
      [
        "Ġimprove",
        -8.618409727665398
      ],
      [
        "der",
        -8.618622409020771
      ],
      [
        "ence",
        -8.619650221565347
      ],
      [
        "not",
        -8.621945521509112
      ],
      [
        "Ġmethod",
        -8.624053025352222
      ],
      [
        "Ġput",
        -8.625989495468025
      ],
      [
        "We",
        -8.626144889303173
      ],
      [
        "Ġdifference",
        -8.628276217503897
      ],
      [
        "Ġcheck",
        -8.629115902921146
      ],
      [
        "land",
        -8.629368213397331
      ],
      [
        "Ġanimals",
        -8.629824443887854
      ],
      [
        "âĢĶ",
        -8.631148224679919
      ],
      [
        "Ġread",
        -8.632770113720607
      ],
      [
        "Ġfree",
        -8.633865387723649
      ],
      [
        "Ġsystems",
        -8.634379471389227
      ],
      [
        "Ġpost",
        -8.634879546762635
      ],
      [
        "Ġlearning",
        -8.637089404876997
      ],
      [
        "Y",
        -8.641373114902967
      ],
      [
        "Ġtop",
        -8.644540738515005
      ],
      [
        "Ġoil",
        -8.646272402558184
      ],
      [
        "ling",
        -8.647821857507138
      ],
      [
        "Ġfact",
        -8.649621336995718
      ],
      [
        "Ġkey",
        -8.651493409956533
      ],
      [
        "Ġfamily",
        -8.65167189438041
      ],
      [
        "ard",
        -8.654050250276281
      ],
      [
        "Ġfunction",
        -8.659772876999003
      ],
      [
        "Ġcost",
        -8.662150918219325
      ],
      [
        "Ġlevels",
        -8.665248364253557
      ],
      [
        "Ġweight",
        -8.666155766574935
      ],
      [
        "Ġage",
        -8.666240170140313
      ],
      [
        "Ġsimple",
        -8.66642921914346
      ],
      [
        "Ġtogether",
        -8.666543771106216
      ],
      [
        "Ġhappen",
        -8.66710965490917
      ],
      [
        "Ġmachine",
        -8.667498609023617
      ],
      [
        "Ġrole",
        -8.667880523237116
      ],
      [
        "Ġ&",
        -8.667913163110308
      ],
      [
        "having",
        -8.668695337363609
      ],
      [
        "Ġneeds",
        -8.66932834112367
      ],
      [
        "Ġam",
        -8.670609212197963
      ],
      [
        "ĠThat",
        -8.671182902089914
      ],
      [
        "*",
        -8.672350660635015
      ],
      [
        "Ġskin",
        -8.674986779547638
      ],
      [
        "next",
        -8.678051521183665
      ],
      [
        "Ġmove",
        -8.678240976062767
      ],
      [
        "Ġeye",
        -8.678544751823093
      ],
      [
        "Ġrun",
        -8.678833770232856
      ],
      [
        "Ġmaintain",
        -8.680393680002336
      ],
      [
        "While",
        -8.68085180061093
      ],
      [
        "ory",
        -8.681725869519795
      ],
      [
        "Ġarea",
        -8.683983795628038
      ],
      [
        "Ġsolution",
        -8.684028183129989
      ],
      [
        "Ġlet",
        -8.684874343600836
      ],
      [
        "Ġcomputer",
        -8.685221868225522
      ],
      [
        "Ġleast",
        -8.685884625304539
      ],
      [
        "Ġlive",
        -8.686362511684411
      ],
      [
        "Ġsince",
        -8.687232406859719
      ],
      [
        "ĠWith",
        -8.689406152612154
      ],
      [
        ")Ċ",
        -8.692083267115997
      ],
      [
        "Ġfull",
        -8.692734565615464
      ],
      [
        "Ġhigher",
        -8.692817142747597
      ],
      [
        "Ġgarden",
        -8.693177362777998
      ],
      [
        "ph",
        -8.693432787878917
      ],
      [
        "Ġseem",
        -8.694908627247937
      ],
      [
        "Ġaway",
        -8.697393194598895
      ],
      [
        "Ġhour",
        -8.698468971468468
      ],
      [
        "Ġfish",
        -8.699357675645572
      ],
      [
        "Ġdirect",
        -8.701188054644707
      ],
      [
        "Ġproblems",
        -8.702892335164771
      ],
      [
        "ĠCon",
        -8.702899385825699
      ],
      [
        "Ġold",
        -8.704112266122198
      ],
      [
        "Ġ$",
        -8.704958350474048
      ],
      [
        "Ġfocus",
        -8.706566986788353
      ],
      [
        "Ġunti",
        -8.708480115362015
      ],
      [
        "Ġkind",
        -8.708649781026633
      ],
      [
        "ĠUniversity",
        -8.709864234401628
      ],
      [
        "Ġpressure",
        -8.710377705452958
      ],
      [
        "Ġword",
        -8.712175486236134
      ],
      [
        "qu",
        -8.713882684038843
      ],
      [
        "Ġground",
        -8.715191560033094
      ],
      [
        "ure",
        -8.718298459630358
      ],
      [
        "Ġsafe",
        -8.718321592533787
      ],
      [
        "Ġdi",
        -8.718867913414112
      ],
      [
        "ical",
        -8.719095376167024
      ],
      [
        "Ġdiet",
        -8.719572637502974
      ],
      [
        "Ġearly",
        -8.723094761163779
      ],
      [
        "Ġlower",
        -8.723492746684686
      ],
      [
        "To",
        -8.724511365985197
      ],
      [
        "Ġactually",
        -8.724531945128671
      ],
      [
        "end",
        -8.726816469141045
      ],
      [
        "ĠBy",
        -8.726961659976238
      ],
      [
        "Ġfield",
        -8.728277869288956
      ],
      [
        "ide",
        -8.729477654312412
      ],
      [
        "Ġclear",
        -8.729758402260718
      ],
      [
        "Ġworking",
        -8.729968648477339
      ],
      [
        "Ġmodel",
        -8.731364090185519
      ],
      [
        "ha",
        -8.73139767751788
      ],
      [
        "Ġeasy",
        -8.733506671921818
      ],
      [
        "Ġlove",
        -8.734273106371347
      ],
      [
        "Ġgrowth",
        -8.734575372149635
      ],
      [
        "ĠMa",
        -8.734760927316042
      ],
      [
        "Ġforce",
        -8.737922512749227
      ],
      [
        "Ġdepend",
        -8.738127037062249
      ],
      [
        "ke",
        -8.738536023932413
      ],
      [
        "ating",
        -8.738611831279961
      ],
      [
        "Ġquick",
        -8.74118214991718
      ],
      [
        "ĠNew",
        -8.74160676728048
      ],
      [
        "Ġthing",
        -8.741629799126796
      ],
      [
        "Ġmeasure",
        -8.745016157035298
      ],
      [
        "Ġdigital",
        -8.745707155588251
      ],
      [
        "Ġimage",
        -8.746112814133518
      ],
      [
        "Ġfuture",
        -8.746503103369953
      ],
      [
        "Ġpaper",
        -8.746795174750691
      ],
      [
        "Ġalong",
        -8.746844631101485
      ],
      [
        "Ġphysical",
        -8.750061578156235
      ],
      [
        "Ġreal",
        -8.75014953270212
      ],
      [
        "Ġdry",
        -8.75291327608707
      ],
      [
        "ions",
        -8.753034766665529
      ],
      [
        "Ġsimilar",
        -8.754273057095245
      ],
      [
        "Ġprotect",
        -8.758161002208848
      ],
      [
        "lic",
        -8.758690904406187
      ],
      [
        "Ġsign",
        -8.75914600949632
      ],
      [
        "Ġcell",
        -8.761113300842059
      ],
      [
        "Ġhim",
        -8.761245571398257
      ],
      [
        "Ġnever",
        -8.76193862128493
      ],
      [
        "Ġpro",
        -8.764594794201088
      ],
      [
        "J",
        -8.765605290059902
      ],
      [
        "Ġsocial",
        -8.76708465461532
      ],
      [
        "Ġtypical",
        -8.768042774910551
      ],
      [
        "way",
        -8.7683156726028
      ],
      [
        "he",
        -8.768747604580534
      ],
      [
        "Ġtraining",
        -8.770655589430184
      ],
      [
        "âĢĻs",
        -8.77269407561824
      ],
      [
        "Ġexist",
        -8.775613502766724
      ],
      [
        "ized",
        -8.776332474886603
      ],
      [
        "Ġbook",
        -8.777408537376573
      ],
      [
        "ather",
        -8.777503333323244
      ],
      [
        "Ġaffect",
        -8.779596355839962
      ],
      [
        "den",
        -8.781747031505027
      ],
      [
        "Ġindustr",
        -8.78183304408871
      ],
      [
        "Ġclean",
        -8.781948433601539
      ],
      [
        ")ĊĊ",
        -8.783765159693417
      ],
      [
        "Ġmakes",
        -8.78515754690942
      ],
      [
        "Ġstep",
        -8.78518630976905
      ],
      [
        "j",
        -8.787041717865787
      ],
      [
        "Ġpopulation",
        -8.78705427160759
      ],
      [
        "Ġperiod",
        -8.78726730475002
      ],
      [
        "Ġunique",
        -8.788154005673427
      ],
      [
        "Ġdoesn",
        -8.789409322619539
      ],
      [
        "Ġarticle",
        -8.790868241260164
      ],
      [
        "ĠNo",
        -8.79111986068484
      ],
      [
        "Ġcat",
        -8.791680167642927
      ],
      [
        "Ġcomes",
        -8.793026970822348
      ],
      [
        "ell",
        -8.793488513388354
      ],
      [
        "Ġlikely",
        -8.794076800034908
      ],
      [
        "Ġespecial",
        -8.79412893702995
      ],
      [
        "act",
        -8.796832574988212
      ],
      [
        "Ġscience",
        -8.796834397836022
      ],
      [
        "Ġmajor",
        -8.798713961044086
      ],
      [
        "gen",
        -8.798888596000538
      ],
      [
        "hi",
        -8.799314806354559
      ],
      [
        "Ġdamage",
        -8.799333711374505
      ],
      [
        "Ġmarket",
        -8.80070739989663
      ],
      [
        "Ġsub",
        -8.80113214380781
      ],
      [
        "Ġsingle",
        -8.801481085097972
      ],
      [
        "Ġacross",
        -8.805374127030252
      ],
      [
        "our",
        -8.805900060217528
      ],
      [
        "ice",
        -8.806323154399266
      ],
      [
        "There",
        -8.80853150379053
      ],
      [
        "ism",
        -8.810949156405616
      ],
      [
        "Ġdays",
        -8.811678813198341
      ],
      [
        "mon",
        -8.811735485525501
      ],
      [
        "ization",
        -8.812026822521604
      ],
      [
        "Ġtreat",
        -8.813297336900657
      ],
      [
        "self",
        -8.813849288162643
      ],
      [
        "Ġchild",
        -8.815434433834572
      ],
      [
        "Ġproducts",
        -8.815598268610815
      ],
      [
        "Ġcall",
        -8.816840930306874
      ],
      [
        "fer",
        -8.819278526216937
      ],
      [
        "Ġcomponent",
        -8.819349154018296
      ],
      [
        "Ġbusiness",
        -8.820923739888311
      ],
      [
        "Ġhealthy",
        -8.820986023223025
      ],
      [
        "ĠSome",
        -8.82442167804656
      ],
      [
        "Ġtry",
        -8.82535731535549
      ],
      [
        "ĠDr",
        -8.825701991299457
      ],
      [
        "Ġunderstanding",
        -8.826588129307224
      ],
      [
        "Ġdeep",
        -8.829564736378046
      ],
      [
        "Ġvideo",
        -8.830372320366045
      ],
      [
        "Ġfour",
        -8.831078459604253
      ],
      [
        "Ġavoid",
        -8.832466273990658
      ],
      [
        "Ġabove",
        -8.832993875702815
      ],
      [
        "Ġoccur",
        -8.833688762360978
      ],
      [
        "Ġclimate",
        -8.834053318614785
      ],
      [
        "Ġcr",
        -8.835734826996088
      ],
      [
        "âĢ¦",
        -8.836460647892626
      ],
      [
        "ex",
        -8.837672516366968
      ],
      [
        "Ġpropert",
        -8.838202804562506
      ],
      [
        "Ġcut",
        -8.839577110604564
      ],
      [
        "Ġdone",
        -8.840788969887653
      ],
      [
        "gu",
        -8.842822687390663
      ],
      [
        "Ġtimes",
        -8.843171622585661
      ],
      [
        "Ġleft",
        -8.845340771630589
      ],
      [
        "#",
        -8.852199459117136
      ],
      [
        "Ġperformance",
        -8.852322226858625
      ],
      [
        "Ġart",
        -8.852851757127912
      ],
      [
        "Ġred",
        -8.853530279027527
      ],
      [
        "ok",
        -8.853861633261932
      ],
      [
        "ier",
        -8.854047701875134
      ],
      [
        "Ġaccess",
        -8.85416401275183
      ],
      [
        "Ġwhite",
        -8.85431667747212
      ],
      [
        "Ġface",
        -8.854501149029865
      ],
      [
        "For",
        -8.856203328553871
      ],
      [
        "Ġaccording",
        -8.856307346575854
      ],
      [
        "Ġnetwork",
        -8.857620819697537
      ],
      [
        "Ġcontinue",
        -8.857709582815902
      ],
      [
        "Ġblack",
        -8.857907192342406
      ],
      [
        "go",
        -8.858197544743494
      ],
      [
        "Ġproduction",
        -8.85900266113727
      ],
      [
        "tra",
        -8.859674482086639
      ],
      [
        "Ġcool",
        -8.859870535615132
      ],
      [
        "ĠDi",
        -8.859946672241573
      ],
      [
        "Ġvehicle",
        -8.860855293086999
      ],
      [
        "Ġwarm",
        -8.862061359106695
      ],
      [
        "Ġnormal",
        -8.863788816362149
      ],
      [
        "Ġfactors",
        -8.863862688126858
      ],
      [
        "Ġask",
        -8.863935140386806
      ],
      [
        "Ġdogs",
        -8.866339878255094
      ],
      [
        "ĠAmerican",
        -8.867764253247879
      ],
      [
        "!ĊĊ",
        -8.869347595357809
      ],
      [
        "we",
        -8.871516087377833
      ],
      [
        "Ġpopular",
        -8.872350388737605
      ],
      [
        "Ġbelieve",
        -8.874548756548549
      ],
      [
        "Ġplan",
        -8.876033613742052
      ],
      [
        "necessary",
        -8.876185456088214
      ],
      [
        "gan",
        -8.877523887451996
      ],
      [
        "Ġfar",
        -8.878701269797018
      ],
      [
        "Ġpast",
        -8.880357455623098
      ],
      [
        "Ġdetermine",
        -8.880835772312565
      ],
      [
        "over",
        -8.881865767484044
      ],
      [
        "ready",
        -8.882913866857637
      ],
      [
        "Ġbasic",
        -8.885095930685114
      ],
      [
        "ize",
        -8.885275028282054
      ],
      [
        "Ġregion",
        -8.88581565231399
      ],
      [
        "Ġbit",
        -8.886094719649666
      ],
      [
        "Ġbase",
        -8.886389220688649
      ],
      [
        "ĠMo",
        -8.886443720302264
      ],
      [
        "Ġamong",
        -8.88735676884981
      ],
      [
        "Ġpattern",
        -8.887840137496191
      ],
      [
        "Ġgas",
        -8.888405863882372
      ],
      [
        "Ġquestion",
        -8.889959102653291
      ],
      [
        "Ġresearcher",
        -8.890305808946508
      ],
      [
        "Ġmean",
        -8.890325516196855
      ],
      [
        "ium",
        -8.893188632255477
      ],
      [
        "ĠBa",
        -8.893938941351994
      ],
      [
        "Ġspeed",
        -8.89472937852948
      ],
      [
        "Q",
        -8.897075207325958
      ],
      [
        "As",
        -8.898303097991773
      ],
      [
        "ction",
        -8.899537288030377
      ],
      [
        "Ġagains",
        -8.90021031866639
      ],
      [
        "Ġsea",
        -8.900617575812774
      ],
      [
        "Ġauthor",
        -8.900881268734903
      ],
      [
        "Ġland",
        -8.901472238455069
      ],
      [
        "Ġloss",
        -8.901487271967973
      ],
      [
        "Ġbuilding",
        -8.90188081913668
      ],
      [
        "com",
        -8.90238877648934
      ],
      [
        "Ġgiven",
        -8.903112016191916
      ],
      [
        "Ġview",
        -8.903650132363433
      ],
      [
        "Ġwhe",
        -8.903853575125778
      ],
      [
        "Ġfast",
        -8.904759160958207
      ],
      [
        "Ġremove",
        -8.905734071699877
      ],
      [
        "Ġfurther",
        -8.90592085417125
      ],
      [
        "for",
        -8.907817065563481
      ],
      [
        "Ġregular",
        -8.908138924812693
      ],
      [
        "Ġpiece",
        -8.909646799383458
      ],
      [
        "Ġmatter",
        -8.91105695023753
      ],
      [
        "ring",
        -8.912369309428811
      ],
      [
        "Ġbrain",
        -8.913386343544062
      ],
      [
        "Ġpain",
        -8.914341964920794
      ],
      [
        "mm",
        -8.915216565592974
      ],
      [
        "Ġthought",
        -8.917965418323142
      ],
      [
        "âĢĵ",
        -8.918277143604136
      ],
      [
        "ĠâĢĶ",
        -8.9185822135615
      ],
      [
        "Ġbring",
        -8.924013587615843
      ],
      [
        "Ġeither",
        -8.924376619609887
      ],
      [
        "Ġheart",
        -8.925046545704728
      ],
      [
        "Ġlist",
        -8.925927246689117
      ],
      [
        "Ġenjoy",
        -8.925955412982493
      ],
      [
        "Ġbreak",
        -8.92601499541156
      ],
      [
        "ack",
        -8.926864174398549
      ],
      [
        "Ġaddition",
        -8.926927119699076
      ],
      [
        "ĠYour",
        -8.928501589865816
      ],
      [
        "Ġcontent",
        -8.929458146876659
      ],
      [
        "ear",
        -8.929984118718524
      ],
      [
        "Ġproduct",
        -8.93018548000078
      ],
      [
        "Ġcreat",
        -8.932101874957475
      ],
      [
        "Ġrecent",
        -8.932159238829215
      ],
      [
        "Ġstress",
        -8.93217408452881
      ],
      [
        "Ġtalk",
        -8.932381002635623
      ],
      [
        "Ġwide",
        -8.933290786315764
      ],
      [
        "ĠDo",
        -8.933802818757774
      ],
      [
        "Ġmo",
        -8.935220402474501
      ],
      [
        "Ġcondition",
        -8.935455876787232
      ],
      [
        "ail",
        -8.935593439977065
      ],
      [
        "Ġgetting",
        -8.935782280995692
      ],
      [
        "Ġassociate",
        -8.937045335783605
      ],
      [
        "Ġmind",
        -8.937894420976157
      ],
      [
        "Ġlooking",
        -8.938752286554053
      ],
      [
        "Ġeffects",
        -8.938826947999464
      ],
      [
        "by",
        -8.940162559154658
      ],
      [
        "Ġtoday",
        -8.942544142199681
      ],
      [
        "So",
        -8.947206346698588
      ],
      [
        "Ġyoung",
        -8.948269078775539
      ],
      [
        "Ġsignal",
        -8.949580756692026
      ],
      [
        "Ġhouse",
        -8.949969322583629
      ],
      [
        "Ġperform",
        -8.950769979380523
      ],
      [
        "Ġweek",
        -8.951072285323658
      ],
      [
        "Ġeffect",
        -8.95184052757434
      ],
      [
        "Ġobject",
        -8.954733872045885
      ],
      [
        "Ġbehavior",
        -8.955377949952776
      ],
      [
        "Ġstructure",
        -8.955923469128361
      ],
      [
        "ĠLe",
        -8.955964706159886
      ],
      [
        "Ġanimal",
        -8.956779712707869
      ],
      [
        "port",
        -8.95879121900289
      ],
      [
        "Ġsays",
        -8.960718147976479
      ],
      [
        "ub",
        -8.961072825311412
      ],
      [
        "Ġmillion",
        -8.961401342649216
      ],
      [
        "Ġshare",
        -8.962907961415207
      ],
      [
        "Ġspecial",
        -8.964100861368113
      ],
      [
        "iv",
        -8.96610038505601
      ],
      [
        "Ġsp",
        -8.968439502730826
      ],
      [
        "Ġexplain",
        -8.969814905015339
      ],
      [
        "Ġfee",
        -8.970886922711864
      ],
      [
        "Ġpurpose",
        -8.971027105711027
      ],
      [
        "Ġroom",
        -8.971259199262963
      ],
      [
        "ĠLa",
        -8.972248653426032
      ],
      [
        "ĠOn",
        -8.973118024138145
      ],
      [
        "Ġengine",
        -8.973279722499086
      ],
      [
        "Ġselect",
        -8.974320917209749
      ],
      [
        "Ġsound",
        -8.974688969948623
      ],
      [
        "Ġdifficult",
        -8.97589854619759
      ],
      [
        "Ġstrong",
        -8.976475343124283
      ],
      [
        "taking",
        -8.978961391801892
      ],
      [
        "Ġmetal",
        -8.979528560184729
      ],
      [
        "Ġunit",
        -8.979675083510745
      ],
      [
        "king",
        -8.979766439273657
      ],
      [
        "Ġparent",
        -8.980119693390012
      ],
      [
        "Ġbig",
        -8.980493144523859
      ],
      [
        "Ġwhole",
        -8.981031782774421
      ],
      [
        "Ġfeatures",
        -8.983380895255877
      ],
      [
        "Ġvariety",
        -8.983567264706739
      ],
      [
        "Ġgreen",
        -8.98356875510096
      ],
      [
        "Ġflower",
        -8.983924776350307
      ],
      [
        "=",
        -8.984019113921097
      ],
      [
        "Ġidea",
        -8.9842884483363
      ],
      [
        "Ġcold",
        -8.985262523235281
      ],
      [
        "Ġapproach",
        -8.98589267368347
      ],
      [
        "Ġanswer",
        -8.986806925219032
      ],
      [
        "Ġcorrect",
        -8.98877648918585
      ],
      [
        "Ġthough",
        -8.989938536843347
      ],
      [
        "air",
        -8.990785299507165
      ],
      [
        "Ġreach",
        -8.99235892326358
      ],
      [
        "Ġhistory",
        -8.993733240279823
      ],
      [
        "Ġrate",
        -8.994894835658918
      ],
      [
        "Ġactivity",
        -8.9950422643325
      ],
      [
        "afety",
        -8.997693286405681
      ],
      [
        "Ġskills",
        -8.9984275380471
      ],
      [
        "Ġshape",
        -8.999878667689941
      ],
      [
        "Ġcontain",
        -9.000260973332567
      ],
      [
        "Ġbuild",
        -9.000330468596687
      ],
      [
        "Ġclass",
        -9.00179739303612
      ],
      [
        "ug",
        -9.001915992578592
      ],
      [
        "Ġfall",
        -9.002699148242947
      ],
      [
        "ster",
        -9.002956963911881
      ],
      [
        "all",
        -9.003487008236961
      ],
      [
        "+",
        -9.003500545946267
      ],
      [
        "Ġtell",
        -9.003862436522422
      ],
      [
        "Re",
        -9.005240507601028
      ],
      [
        "cor",
        -9.006311632908446
      ],
      [
        "ĠCan",
        -9.007057044617515
      ],
      [
        "Ġtarget",
        -9.007367315185292
      ],
      [
        ".\"Ċ",
        -9.007910533733066
      ],
      [
        "ick",
        -9.007922148718562
      ],
      [
        ">",
        -9.008479357100263
      ],
      [
        "Ġbelow",
        -9.00862429281549
      ],
      [
        "Ġflow",
        -9.008675015478218
      ],
      [
        "Ġinside",
        -9.008773517149674
      ],
      [
        "Ġpositive",
        -9.009362269642432
      ],
      [
        "Ġseason",
        -9.009441528134008
      ],
      [
        "Ġposition",
        -9.010930082092
      ],
      [
        "Ġstay",
        -9.011276681565388
      ],
      [
        "ĠUnit",
        -9.012189810716492
      ],
      [
        "Ġways",
        -9.013297944162392
      ],
      [
        "ship",
        -9.01429552477829
      ],
      [
        "ĠAll",
        -9.01481265732641
      ],
      [
        "ĠRa",
        -9.014871830741074
      ],
      [
        "!Ċ",
        -9.015912169911129
      ],
      [
        "Ġpet",
        -9.01664092192524
      ],
      [
        "mp",
        -9.016661795603635
      ],
      [
        "ative",
        -9.01685490623036
      ],
      [
        "Ġpass",
        -9.018291528167532
      ],
      [
        "ens",
        -9.018377840445952
      ],
      [
        "Ġpersonal",
        -9.01850095781612
      ],
      [
        "Ġcommunity",
        -9.01973627010482
      ],
      [
        "Ġacid",
        -9.020233333157424
      ],
      [
        ".\"",
        -9.021862092439434
      ],
      [
        "ĠAt",
        -9.024737704960646
      ],
      [
        "Ġenvironmental",
        -9.024961401000404
      ],
      [
        "Ġlayer",
        -9.02810852954054
      ],
      [
        "Ġallows",
        -9.02822542931003
      ],
      [
        "Ġcomplex",
        -9.02843770028444
      ],
      [
        "Ġex",
        -9.028490497369798
      ],
      [
        "Ġopportunit",
        -9.029095522217585
      ],
      [
        "Ġknowledge",
        -9.0310261085528
      ],
      [
        "Ġperfect",
        -9.032449591893217
      ],
      [
        "Ġslow",
        -9.032486880019071
      ],
      [
        "Ġrequired",
        -9.035130096196417
      ],
      [
        "Ġtree",
        -9.03591150170302
      ],
      [
        "ang",
        -9.036798365780175
      ],
      [
        "pl",
        -9.038383880493791
      ],
      [
        "Ġprovid",
        -9.038780160062997
      ],
      [
        "Ġpublic",
        -9.042038937986732
      ],
      [
        "Ġagain",
        -9.04267136471796
      ],
      [
        "ĠLo",
        -9.044994066703694
      ],
      [
        "ĠOne",
        -9.04667309288458
      ],
      [
        "Ġbuy",
        -9.04680800943683
      ],
      [
        "Ġfire",
        -9.049004959975434
      ],
      [
        "Ġmix",
        -9.049306770481584
      ],
      [
        "ight",
        -9.0502153211961
      ],
      [
        "Ġact",
        -9.053936265531922
      ],
      [
        "con",
        -9.054361306748673
      ],
      [
        "Ġfollow",
        -9.054727684781223
      ],
      [
        "Ġreceive",
        -9.05830141499183
      ],
      [
        "ng",
        -9.05852076252578
      ],
      [
        "ze",
        -9.058578056456868
      ],
      [
        "Ġblock",
        -9.05927226394364
      ],
      [
        "Ġaddress",
        -9.059790562783023
      ],
      [
        "ĠAI",
        -9.061007960528482
      ],
      [
        "Ġdrive",
        -9.062111346824285
      ],
      [
        "Ġma",
        -9.063187757162492
      ],
      [
        "Ġstor",
        -9.063397448751257
      ],
      [
        "Ġactivities",
        -9.068501203457124
      ],
      [
        "Ġsymptom",
        -9.07049996583618
      ],
      [
        "Ġliving",
        -9.071788308730309
      ],
      [
        "Ġcancer",
        -9.073459039635456
      ],
      [
        "Ġgot",
        -9.075419186169867
      ],
      [
        "Ġresponse",
        -9.07648839716938
      ],
      [
        "Ġhelps",
        -9.077731519423638
      ],
      [
        "Ġsun",
        -9.077990494946048
      ],
      [
        "Ġprotein",
        -9.07808056227855
      ],
      [
        "Ġbacteria",
        -9.078252106181557
      ],
      [
        "pe",
        -9.078359669926773
      ],
      [
        "Ġpo",
        -9.079839917611167
      ],
      [
        "Ġexercise",
        -9.081036263662178
      ],
      [
        "Ġdoing",
        -9.081940322442192
      ],
      [
        "Ġpractice",
        -9.082049402931542
      ],
      [
        "Ġseen",
        -9.08336698785522
      ],
      [
        "ven",
        -9.08744080662997
      ],
      [
        "log",
        -9.087503336419264
      ],
      [
        "Ġtotal",
        -9.08797666667818
      ],
      [
        "Ġwaste",
        -9.08808915285436
      ],
      [
        "Ġcontact",
        -9.0893838938215
      ],
      [
        "Ġmethods",
        -9.089624965641494
      ],
      [
        "Ġgenetic",
        -9.089730358758278
      ],
      [
        "Ġservice",
        -9.090984488893618
      ],
      [
        "ĠRo",
        -9.09298945006125
      ],
      [
        "Ġprovides",
        -9.093978702812484
      ],
      [
        "Ġhot",
        -9.09490485536598
      ],
      [
        "Ġtraditional",
        -9.095560439231452
      ],
      [
        "Ġprofessional",
        -9.095859693014772
      ],
      [
        "Ġtools",
        -9.096234480251466
      ],
      [
        "X",
        -9.098045541512244
      ],
      [
        "lin",
        -9.098258389298865
      ],
      [
        "Ġidentify",
        -9.098295090127378
      ],
      [
        "Ġmone",
        -9.098319620866416
      ],
      [
        "ember",
        -9.098908444127217
      ],
      [
        "Ġparticular",
        -9.099296217032006
      ],
      [
        "Ġlocation",
        -9.09982055912607
      ],
      [
        "Ġcompany",
        -9.10036640293077
      ],
      [
        "ĠUS",
        -9.102703330559578
      ],
      [
        "Ġoverall",
        -9.103317372364415
      ],
      [
        "Ġnature",
        -9.103826227156029
      ],
      [
        "Ġcode",
        -9.103840438970073
      ],
      [
        "Ġmultiple",
        -9.103897561851957
      ],
      [
        "ĠShe",
        -9.10466511990185
      ],
      [
        "Ġmonths",
        -9.104925471979854
      ],
      [
        "Ġtechniques",
        -9.10673990678576
      ],
      [
        "Ġresources",
        -9.10703922923274
      ],
      [
        "ĠAl",
        -9.108068104713976
      ],
      [
        "Ġdescribe",
        -9.108604309962368
      ],
      [
        "Ġprimar",
        -9.109518136401135
      ],
      [
        "Ġman",
        -9.110612639170997
      ],
      [
        "Ġvi",
        -9.110779298540276
      ],
      [
        "Ġbalance",
        -9.111783774346245
      ],
      [
        "Ġcarbon",
        -9.112361019345943
      ],
      [
        "Ġsense",
        -9.112367986548325
      ],
      [
        "Ġtravel",
        -9.11286889542205
      ],
      [
        "Ġfruit",
        -9.113570448193084
      ],
      [
        "Ġetc",
        -9.114800583062138
      ],
      [
        "ture",
        -9.11704262351763
      ],
      [
        "Ġentire",
        -9.117073009062256
      ],
      [
        "side",
        -9.11771211151325
      ],
      [
        "Ġinfection",
        -9.12074499232543
      ],
      [
        "Ġsite",
        -9.122333281414743
      ],
      [
        "ose",
        -9.12256788169329
      ],
      [
        "ect",
        -9.12364890944455
      ],
      [
        "Ġwall",
        -9.123716700712516
      ],
      [
        "Ġeasily",
        -9.124116512003155
      ],
      [
        "tion",
        -9.124879086933465
      ],
      [
        "Ġaverage",
        -9.126949458902391
      ],
      [
        "und",
        -9.127049275653617
      ],
      [
        "Ġcrucial",
        -9.12765755800822
      ],
      [
        "Ġterm",
        -9.128685022902545
      ],
      [
        "Ġsolar",
        -9.129108115918326
      ],
      [
        "ĠMi",
        -9.129922742713989
      ],
      [
        "Ġmuscle",
        -9.13121346357407
      ],
      [
        "ca",
        -9.134167571504406
      ],
      [
        "Ġinter",
        -9.135133341576186
      ],
      [
        "Ġfun",
        -9.13524055848682
      ],
      [
        "An",
        -9.137434479429997
      ],
      [
        "Ġfuel",
        -9.13770581703054
      ],
      [
        "Ġwood",
        -9.138119024388407
      ],
      [
        "qui",
        -9.139439020751787
      ],
      [
        "Ġbo",
        -9.13973664145983
      ],
      [
        "Ġthroughout",
        -9.140250470829738
      ],
      [
        "cu",
        -9.141207890733632
      ],
      [
        "Ġever",
        -9.141952392774728
      ],
      [
        "ade",
        -9.142116928483768
      ],
      [
        "ĠLi",
        -9.143053161841213
      ],
      [
        "ene",
        -9.14448117629018
      ],
      [
        "ĠY",
        -9.14461853416396
      ],
      [
        "Ġglobal",
        -9.144831624485366
      ],
      [
        "Ġsomeone",
        -9.145994209538983
      ],
      [
        "Ġhold",
        -9.146986672920344
      ],
      [
        "Ġnight",
        -9.147090577349225
      ],
      [
        "Ġminutes",
        -9.14716592218372
      ],
      [
        "ĠDNA",
        -9.147952618577932
      ],
      [
        "Ġlate",
        -9.149165281916844
      ],
      [
        "Ġrelease",
        -9.149206922934706
      ],
      [
        "Ġdegree",
        -9.149898741545766
      ],
      [
        "Ġbreed",
        -9.150092061874796
      ],
      [
        "set",
        -9.150284935666509
      ],
      [
        "Ġsuggest",
        -9.150887375040666
      ],
      [
        "Ġmodern",
        -9.152083712235626
      ],
      [
        "ka",
        -9.152260759956237
      ],
      [
        "Ġcycle",
        -9.153640682651194
      ],
      [
        "Ġmass",
        -9.154103854302116
      ],
      [
        "Ġconsidered",
        -9.154301805601223
      ],
      [
        "Ġcreated",
        -9.155140110559374
      ],
      [
        "ĠNational",
        -9.155724260547842
      ],
      [
        "lan",
        -9.155880166773397
      ],
      [
        "mer",
        -9.157132694268526
      ],
      [
        "Ġsugar",
        -9.157187121012162
      ],
      [
        "ping",
        -9.15777956144396
      ],
      [
        "Ġplastic",
        -9.157908540949675
      ],
      [
        "Ġbad",
        -9.15913576682535
      ],
      [
        "Ġchoice",
        -9.161816414622528
      ],
      [
        "Ġadvantage",
        -9.164511403949408
      ],
      [
        "Ġquestions",
        -9.164675676144077
      ],
      [
        "Ġoperation",
        -9.164757413667775
      ],
      [
        "Ġchoose",
        -9.165378732178784
      ],
      [
        "ĠOf",
        -9.16681102638198
      ],
      [
        "ĠZ",
        -9.169341544404215
      ],
      [
        "Ġmanagement",
        -9.172262110669546
      ],
      [
        "where",
        -9.172661000415534
      ],
      [
        "Ġcharge",
        -9.174272321301345
      ],
      [
        "Ġprobably",
        -9.174870446114651
      ],
      [
        "Ġsimply",
        -9.174874967863156
      ],
      [
        "let",
        -9.175570690367202
      ],
      [
        "online",
        -9.175595023954342
      ],
      [
        "amp",
        -9.176632756249788
      ],
      [
        "pro",
        -9.179364655090511
      ],
      [
        "Ġreport",
        -9.17963428963865
      ],
      [
        "ile",
        -9.17999060884724
      ],
      [
        "of",
        -9.18062224913222
      ],
      [
        "Ġjob",
        -9.180866388786937
      ],
      [
        "Ġlarger",
        -9.18162452539639
      ],
      [
        "Ġsleep",
        -9.182036132776082
      ],
      [
        "Ġstore",
        -9.182550467651332
      ],
      [
        "ĠScience",
        -9.182575590621123
      ],
      [
        "Ġself",
        -9.183580647882271
      ],
      [
        "Ġinterest",
        -9.183697895150145
      ],
      [
        "Ġyourself",
        -9.184324223370677
      ],
      [
        "Ġextreme",
        -9.185337746320943
      ],
      [
        "Ġeffort",
        -9.185337746661038
      ],
      [
        "Ġsubject",
        -9.185337766822547
      ],
      [
        "Ġtool",
        -9.186683208585448
      ],
      [
        "ĠPo",
        -9.188211541590883
      ],
      [
        "Ġmedia",
        -9.18901406989373
      ],
      [
        "Ġreturn",
        -9.190613198746997
      ],
      [
        "Ġincreasing",
        -9.191399365398231
      ],
      [
        "Ġlanguage",
        -9.191703859023832
      ],
      [
        "Ġstop",
        -9.192300301000536
      ],
      [
        "ious",
        -9.192569291452052
      ],
      [
        "Ġwind",
        -9.19294233118026
      ],
      [
        "Ġlater",
        -9.194499523032366
      ],
      [
        "ĠX",
        -9.195492634371954
      ],
      [
        "ner",
        -9.196190411647445
      ],
      [
        "Ġwebsite",
        -9.19745869927337
      ],
      [
        "cy",
        -9.198225262974002
      ],
      [
        "Ġrepresent",
        -9.199433356019444
      ],
      [
        "Ġstyle",
        -9.200168774725412
      ],
      [
        "|",
        -9.200277627350976
      ],
      [
        "once",
        -9.20232255147586
      ],
      [
        "Ġoptions",
        -9.202382676988275
      ],
      [
        "Ġadult",
        -9.202775926299129
      ],
      [
        "Ġsearch",
        -9.202846383334634
      ],
      [
        "\"ĊĊ",
        -9.202861831806198
      ],
      [
        "Ġlimit",
        -9.203625783255577
      ],
      [
        "Ġdiscuss",
        -9.204121818565156
      ],
      [
        "Ġstory",
        -9.205191953008548
      ],
      [
        "Ġmovement",
        -9.205224513854468
      ],
      [
        "Ġscientists",
        -9.205273436921203
      ],
      [
        "Ġsituation",
        -9.206607653455588
      ],
      [
        "Ġreaction",
        -9.20845985042531
      ],
      [
        "Ġpatients",
        -9.209028647952412
      ],
      [
        "Ġothers",
        -9.211139364136912
      ],
      [
        "Ġdecision",
        -9.211224247648476
      ],
      [
        "ber",
        -9.212583146185338
      ],
      [
        "Ġalmost",
        -9.212885244202454
      ],
      [
        "Ġoption",
        -9.213499328373771
      ],
      [
        "Ġwomen",
        -9.213541014718242
      ],
      [
        "form",
        -9.213572657933527
      ],
      [
        "Ġrelated",
        -9.213577301481823
      ],
      [
        "[",
        -9.2136004103663
      ],
      [
        "ĠMe",
        -9.2141228851789
      ],
      [
        "Ġsometime",
        -9.214375512225905
      ],
      [
        "ĠNe",
        -9.214960896935091
      ],
      [
        "Ġpercent",
        -9.215609836422864
      ],
      [
        "Ġexpert",
        -9.21586545444108
      ],
      [
        "**",
        -9.21617213765885
      ],
      [
        "Ġwinter",
        -9.216836914025665
      ],
      [
        "Ġrelative",
        -9.218967498999454
      ],
      [
        "Ġwalk",
        -9.221045549866556
      ],
      [
        "Ġcommunication",
        -9.22142084492936
      ],
      [
        "Ġeducation",
        -9.223157046273151
      ],
      [
        "ĠOr",
        -9.224107071883832
      ],
      [
        "Ġbattery",
        -9.22442327663476
      ],
      [
        "Ġoutside",
        -9.224808231457054
      ],
      [
        "uc",
        -9.225692369687694
      ],
      [
        "Ġregard",
        -9.22677138591602
      ],
      [
        "cal",
        -9.226927943789107
      ],
      [
        "Ġexact",
        -9.228551115628548
      ],
      [
        "Ġexplore",
        -9.228903338960384
      ],
      [
        "ĠHo",
        -9.229194118271929
      ],
      [
        "Ġrest",
        -9.230291874023196
      ],
      [
        "Ġfl",
        -9.231497972154044
      ],
      [
        "ble",
        -9.231709668846625
      ],
      [
        "ward",
        -9.232490036563943
      ],
      [
        "Ġpay",
        -9.234160478973084
      ],
      [
        "Ġfeed",
        -9.235017404058006
      ],
      [
        "Ġrec",
        -9.236391600414985
      ],
      [
        "-based",
        -9.237025419471305
      ],
      [
        "Ġcharacter",
        -9.238100738513287
      ],
      [
        "Ġspring",
        -9.238639771383712
      ],
      [
        "Ġapplication",
        -9.238710536795114
      ],
      [
        "Ġfive",
        -9.23997992200456
      ],
      [
        "Ġdistance",
        -9.240182672765144
      ],
      [
        "Ġear",
        -9.241662783165738
      ],
      [
        "Ġefficient",
        -9.242213094795648
      ],
      [
        "Ġeverything",
        -9.2433903468653
      ],
      [
        "ck",
        -9.244602255716597
      ],
      [
        "Ġgain",
        -9.245777125320672
      ],
      [
        "Ġapplications",
        -9.247228713556026
      ],
      [
        "Ġshown",
        -9.2483598200145
      ],
      [
        "\\n",
        -9.249969155567651
      ],
      [
        "Ġstandard",
        -9.25022677516162
      ],
      [
        "Ġcustomer",
        -9.250263919276504
      ],
      [
        "Ġyet",
        -9.250784737316147
      ],
      [
        "Ġcountry",
        -9.250851017236926
      ],
      [
        "Ġelements",
        -9.251184429102818
      ],
      [
        "Ġinstead",
        -9.252158773361856
      ],
      [
        "Ġpaint",
        -9.252506367433542
      ],
      [
        "Ġpage",
        -9.25439305819238
      ],
      [
        "Ġwon",
        -9.255699712806008
      ],
      [
        "Ġstarted",
        -9.255854472989109
      ],
      [
        "Ġfactor",
        -9.256527287644833
      ],
      [
        "Ġfinal",
        -9.257419596272126
      ],
      [
        "One",
        -9.257684179465908
      ],
      [
        "Ġanalysis",
        -9.259416963063456
      ],
      [
        "ĠCom",
        -9.260127687755002
      ],
      [
        "Ġkids",
        -9.260155238081444
      ],
      [
        "Ġgene",
        -9.26033768959816
      ],
      [
        "Ġgenerate",
        -9.260358503408508
      ],
      [
        "Ġchemical",
        -9.26259271300604
      ],
      [
        "Ġkill",
        -9.26490408013285
      ],
      [
        "Ġlength",
        -9.26530138658708
      ],
      [
        "Ġstation",
        -9.266126240239306
      ],
      [
        "Ġtable",
        -9.267656203797085
      ],
      [
        "water",
        -9.269394606288012
      ],
      [
        "ĠStates",
        -9.271842075674892
      ],
      [
        "Ġstudies",
        -9.27245161220468
      ],
      [
        "ake",
        -9.272647183752042
      ],
      [
        "Ġspread",
        -9.274006863618654
      ],
      [
        "ĠEarth",
        -9.274369234625954
      ],
      [
        "Ġfresh",
        -9.27492116584106
      ],
      [
        "Ġhalf",
        -9.277506880788248
      ],
      [
        "Ġtend",
        -9.277762171334276
      ],
      [
        "Ġactive",
        -9.277914696130116
      ],
      [
        "Ġfront",
        -9.278262541158425
      ],
      [
        "Ġguide",
        -9.281062947558414
      ],
      [
        "ual",
        -9.281482880624496
      ],
      [
        "Ġattention",
        -9.281513414808408
      ],
      [
        "Ġstrateg",
        -9.281572614645482
      ],
      [
        "Ġevidence",
        -9.282340442880932
      ],
      [
        "Ġoriginal",
        -9.282893878661875
      ],
      [
        "Ġthemselves",
        -9.283428082514654
      ],
      [
        "own",
        -9.283863153856544
      ],
      [
        "Ġmonitor",
        -9.283998233916162
      ],
      [
        "Ġmedical",
        -9.284011961342191
      ],
      [
        "tri",
        -9.284140479039891
      ],
      [
        "Ġweather",
        -9.284608955404424
      ],
      [
        "Ġvisual",
        -9.284834859308816
      ],
      [
        "Ġlink",
        -9.285086900366355
      ],
      [
        "Ġapp",
        -9.28510434608867
      ],
      [
        "Ġanything",
        -9.28989666693607
      ],
      [
        "Ġappear",
        -9.290736258983872
      ],
      [
        "head",
        -9.29165365842158
      ],
      [
        "ĠHere",
        -9.29206648993037
      ],
      [
        "Ġprevious",
        -9.292328335700518
      ],
      [
        "lat",
        -9.292479980257047
      ],
      [
        "ĠBo",
        -9.293573669440931
      ],
      [
        "use",
        -9.294414847999166
      ],
      [
        "ran",
        -9.296370177740664
      ],
      [
        "Ġfinding",
        -9.29649204112876
      ],
      [
        "Ġmentioned",
        -9.29788070547512
      ],
      [
        "Ġago",
        -9.297970619241497
      ],
      [
        "Ġenhance",
        -9.298484900176303
      ],
      [
        "Ġdrink",
        -9.299043147792988
      ],
      [
        "Ġscreen",
        -9.299112608369704
      ],
      [
        "Ġanti",
        -9.299499032314024
      ],
      [
        "ash",
        -9.30059940822153
      ],
      [
        "Ġtrees",
        -9.301169004774463
      ],
      [
        "Ġlo",
        -9.303002668831574
      ],
      [
        "AN",
        -9.303499683928418
      ],
      [
        "Ġcenter",
        -9.304684969248688
      ],
      [
        "Ġequipment",
        -9.305801926953006
      ],
      [
        "quite",
        -9.3058998898939
      ],
      [
        "ĠSp",
        -9.306172457392393
      ],
      [
        "work",
        -9.30648992576835
      ],
      [
        "Ġmulti",
        -9.306550431456806
      ],
      [
        "Step",
        -9.30709620351763
      ],
      [
        ").Ċ",
        -9.307287235241692
      ],
      [
        "Ġfat",
        -9.308434853088986
      ],
      [
        "Ġreading",
        -9.308636385899907
      ],
      [
        "Ġadditional",
        -9.308959616282614
      ],
      [
        "Ġmeat",
        -9.30912623921418
      ],
      [
        "Ġdisplay",
        -9.31012511636035
      ],
      [
        "Ġserve",
        -9.310186115991302
      ],
      [
        "Ġvisit",
        -9.31041058236768
      ],
      [
        "Ġtaken",
        -9.310774628007096
      ],
      [
        "Ġspot",
        -9.31109372538895
      ],
      [
        "$",
        -9.31173351897402
      ],
      [
        "Ġdark",
        -9.312915673246572
      ],
      [
        "Ġadvance",
        -9.313340909730831
      ],
      [
        "Ġeyes",
        -9.314754933115571
      ],
      [
        "Ġtrying",
        -9.315676586599707
      ],
      [
        "Ġservices",
        -9.31583940732592
      ],
      [
        "Ġsh",
        -9.315914655654735
      ],
      [
        "ĠPro",
        -9.316680937470066
      ],
      [
        "Ġestablish",
        -9.3169329193779
      ],
      [
        "ler",
        -9.318196675930944
      ],
      [
        "tur",
        -9.318395980724482
      ],
      [
        "ible",
        -9.318825292482543
      ],
      [
        "row",
        -9.320131036469052
      ],
      [
        "Ġextra",
        -9.320399687963668
      ],
      [
        "Ġtrue",
        -9.32330927070878
      ],
      [
        "Ġconnect",
        -9.324588406121704
      ],
      [
        "ple",
        -9.326293905716607
      ],
      [
        "Ġstage",
        -9.32646749459098
      ],
      [
        "Ġstudent",
        -9.326583220911855
      ],
      [
        "ĠHa",
        -9.327880209041329
      ],
      [
        "Ġculture",
        -9.32863487123256
      ],
      [
        "Ġindicate",
        -9.329178391366495
      ],
      [
        "ĠMy",
        -9.329188340669443
      ],
      [
        "ĠNorth",
        -9.329227121157302
      ],
      [
        "ĠCar",
        -9.329460338128587
      ],
      [
        "Ġdeal",
        -9.329753075981849
      ],
      [
        "day",
        -9.330621430466213
      ],
      [
        "ki",
        -9.330898589301036
      ],
      [
        "Ġpick",
        -9.332126720530564
      ],
      [
        "Ġsave",
        -9.333080545573768
      ],
      [
        "Ġdeliver",
        -9.334179651309183
      ],
      [
        "Ġcl",
        -9.33423180186844
      ],
      [
        "Ġstrength",
        -9.334246988371866
      ],
      [
        "Ġbio",
        -9.334984956332644
      ],
      [
        "Ġcamera",
        -9.335113396275151
      ],
      [
        "Ġproper",
        -9.33550144873291
      ],
      [
        "ition",
        -9.335583993314309
      ],
      [
        "Ġelectric",
        -9.335843771128609
      ],
      [
        "Ġcover",
        -9.335846712211463
      ],
      [
        "Ġrecord",
        -9.338439348087872
      ],
      [
        "ecause",
        -9.339273837378071
      ],
      [
        "uck",
        -9.3411623179793
      ],
      [
        "Ġsection",
        -9.34121693617312
      ],
      [
        "Ġapply",
        -9.342608114777397
      ],
      [
        "Ġsuccessful",
        -9.342633601813525
      ],
      [
        "Ġroad",
        -9.343470205118436
      ],
      [
        "Ġshows",
        -9.343944699253916
      ],
      [
        "Ġfarm",
        -9.344789791100126
      ],
      [
        "Ġinput",
        -9.346348510251255
      ],
      [
        "ants",
        -9.346357032317515
      ],
      [
        "que",
        -9.348114170570684
      ],
      [
        "Ġblue",
        -9.348221302870224
      ],
      [
        "Ġnegative",
        -9.34823522063165
      ],
      [
        "Ġphoto",
        -9.348867042636268
      ],
      [
        "Ġnotice",
        -9.35013348858856
      ],
      [
        "ology",
        -9.352183944657176
      ],
      [
        "like",
        -9.352579081280036
      ],
      [
        "Ġdetail",
        -9.352626581706122
      ],
      [
        "ĠVi",
        -9.353470188261811
      ],
      [
        "Ġaccount",
        -9.353554866041716
      ],
      [
        "Do",
        -9.353758587865062
      ],
      [
        "Ġinfluence",
        -9.353795737566315
      ],
      [
        "Ġgroups",
        -9.354205448002656
      ],
      [
        "Ġbehind",
        -9.354444664830744
      ],
      [
        "Ġsix",
        -9.35560547844224
      ],
      [
        "time",
        -9.357941560153613
      ],
      [
        "Ġbirds",
        -9.35799441575347
      ],
      [
        "Ġleg",
        -9.3580153770271
      ],
      [
        "oid",
        -9.360962029865403
      ],
      [
        "ja",
        -9.361322316393998
      ],
      [
        "Ġmov",
        -9.362198018763388
      ],
      [
        "Ġtank",
        -9.363390132021047
      ],
      [
        "Ġattack",
        -9.363409862957068
      ],
      [
        "ĠSu",
        -9.363894429864576
      ],
      [
        "cid",
        -9.364180691852958
      ],
      [
        "Ġconstant",
        -9.365184765964855
      ],
      [
        "Â°",
        -9.365200234191498
      ],
      [
        "Ġselection",
        -9.365711923880871
      ],
      [
        "rie",
        -9.366287020480948
      ],
      [
        "Ġpublish",
        -9.36748069760352
      ],
      [
        "Ġparticularly",
        -9.367559458077109
      ],
      [
        "ric",
        -9.36908248854884
      ],
      [
        "Ġhear",
        -9.370349880561644
      ],
      [
        "Ġscientific",
        -9.370594822645517
      ],
      [
        "Ġwar",
        -9.371917411536277
      ],
      [
        "Ġworks",
        -9.37195453440969
      ],
      [
        "Ġhair",
        -9.372498005605818
      ],
      [
        "ities",
        -9.372852041921467
      ],
      [
        "ists",
        -9.373178976017016
      ],
      [
        "ĠEx",
        -9.373184230252091
      ],
      [
        "Ġorganization",
        -9.376355887194372
      ],
      [
        "Ġdirection",
        -9.376550470902565
      ],
      [
        "ĠSouth",
        -9.376943503437433
      ],
      [
        "Ġsuper",
        -9.377719133224115
      ],
      [
        "fully",
        -9.377891575587824
      ],
      [
        "Ġtrain",
        -9.378939565036234
      ],
      [
        "Ġconnection",
        -9.3790850213809
      ],
      [
        "âĢĿ",
        -9.379153913366933
      ],
      [
        "ĠHealth",
        -9.380182659897525
      ],
      [
        "ĠAfter",
        -9.380589545660287
      ],
      [
        "Ġ+",
        -9.38180794360374
      ],
      [
        "âĢ¢",
        -9.382425679842278
      ],
      [
        "Ġinjur",
        -9.384473319490205
      ],
      [
        "Ġice",
        -9.38738138131453
      ],
      [
        "Ġca",
        -9.387601999434516
      ],
      [
        "light",
        -9.388561694342489
      ],
      [
        "Ġfit",
        -9.388952223124088
      ],
      [
        "Ġleading",
        -9.390073633134389
      ],
      [
        "Ġaction",
        -9.390464473767029
      ],
      [
        "cle",
        -9.390483591728854
      ],
      [
        "Ġocean",
        -9.390696972265683
      ],
      [
        "wise",
        -9.390772782014302
      ],
      [
        "che",
        -9.391127395059952
      ],
      [
        "Ġarm",
        -9.39163143407294
      ],
      [
        "ĠYes",
        -9.392027916649978
      ],
      [
        "len",
        -9.392405909735796
      ],
      [
        "Ġrock",
        -9.392611263757882
      ],
      [
        "Why",
        -9.393127169510876
      ],
      [
        "Ġequal",
        -9.394193016942248
      ],
      [
        "Ġvegetable",
        -9.394394585999468
      ],
      [
        "Ġinitial",
        -9.394426642749307
      ],
      [
        "har",
        -9.396023720985465
      ],
      [
        "Ġmental",
        -9.396384126475148
      ],
      [
        "Can",
        -9.397533289297655
      ],
      [
        "Ġdail",
        -9.39998576564516
      ],
      [
        "mat",
        -9.40018809600375
      ],
      [
        "Ġprocesses",
        -9.400825988953995
      ],
      [
        "Ġgovernment",
        -9.401486037678064
      ],
      [
        "Ġsummer",
        -9.402517743388048
      ],
      [
        "Ġsoftware",
        -9.404679804841455
      ],
      [
        "more",
        -9.404871599586896
      ],
      [
        "Ġcompare",
        -9.404990570600685
      ],
      [
        "ĠâĢľ",
        -9.405297372126856
      ],
      [
        "ĠUse",
        -9.406487819170405
      ],
      [
        "âĢĻ",
        -9.407431188466331
      ],
      [
        "cent",
        -9.408080589684165
      ],
      [
        "ER",
        -9.408939370489104
      ],
      [
        "ĠMar",
        -9.409841634338669
      ],
      [
        "But",
        -9.41132531936132
      ],
      [
        "Ġprint",
        -9.4117193086876
      ],
      [
        "Ġharm",
        -9.412471443262977
      ],
      [
        "Ġmale",
        -9.414013940578212
      ],
      [
        "Ġrefer",
        -9.414155528903908
      ],
      [
        "ĠSchool",
        -9.414372712811868
      ],
      [
        "rus",
        -9.415473394429863
      ],
      [
        "Ġelse",
        -9.416112988148242
      ],
      [
        "Ġdrop",
        -9.41885655197764
      ],
      [
        "Ġmicro",
        -9.419810291533643
      ],
      [
        "Ġtopic",
        -9.41986548118027
      ],
      [
        "Ġhorse",
        -9.41998519801891
      ],
      [
        "Ġfill",
        -9.420101035537437
      ],
      [
        "pp",
        -9.4205694833585
      ],
      [
        "board",
        -9.420678053302185
      ],
      [
        "Ġeggs",
        -9.42091162844303
      ],
      [
        "Ġcolors",
        -9.421409941812614
      ],
      [
        "Ġcritical",
        -9.421575836356478
      ],
      [
        "Ġpot",
        -9.424040994157387
      ],
      [
        "Ġcontribute",
        -9.425297996808872
      ],
      [
        "ĠAmerica",
        -9.425986403539389
      ],
      [
        "Ġbuilt",
        -9.42745634260686
      ],
      [
        "Ġlack",
        -9.427676425340966
      ],
      [
        "Ġsuccess",
        -9.427686839775609
      ],
      [
        "Ġtissue",
        -9.428352452677618
      ],
      [
        "Ġcountries",
        -9.428372579832011
      ],
      [
        "ified",
        -9.428508446263637
      ],
      [
        "Ġdraw",
        -9.429006675328552
      ],
      [
        "Ġevents",
        -9.429195923315415
      ],
      [
        "Ġelectrical",
        -9.429832658631824
      ],
      [
        "-to",
        -9.430109040551017
      ],
      [
        "Ġfeature",
        -9.430998233038522
      ],
      [
        "Ġseparate",
        -9.432555733908911
      ],
      [
        "Ġterms",
        -9.432726663844893
      ],
      [
        "Ġcauses",
        -9.432746339693251
      ],
      [
        "Ġadapt",
        -9.433137239928593
      ],
      [
        "Ġwatch",
        -9.434151991684114
      ],
      [
        "Ġrunning",
        -9.434187014512666
      ],
      [
        "Ġcombination",
        -9.434422886910902
      ],
      [
        "-in",
        -9.437014561755008
      ],
      [
        "Ġwear",
        -9.437058501529629
      ],
      [
        "Ġfine",
        -9.438551077092065
      ],
      [
        "Ġweeks",
        -9.439007102141517
      ],
      [
        "Ġsalt",
        -9.43937513310386
      ],
      [
        "ÂŃ",
        -9.439880022507928
      ],
      [
        "Ġreview",
        -9.439911948958528
      ],
      [
        "Ġeasier",
        -9.440386520065728
      ],
      [
        "Ġrequirement",
        -9.442199492434485
      ],
      [
        "Ġhole",
        -9.442413940342004
      ],
      [
        "Ġdetect",
        -9.442461214825956
      ],
      [
        "Ġload",
        -9.443885859279243
      ],
      [
        "ĠAre",
        -9.44497177041465
      ],
      [
        "ped",
        -9.445376507946218
      ],
      [
        "Ġgoal",
        -9.445807764415154
      ],
      [
        "Ġdeath",
        -9.44699874788547
      ],
      [
        "Ġrecommended",
        -9.448297011270988
      ],
      [
        "Ġremain",
        -9.45028936349192
      ],
      [
        "Ġhabitat",
        -9.452771556992404
      ],
      [
        "Ġlocate",
        -9.453173242797746
      ],
      [
        "Ġalternative",
        -9.45354415190396
      ],
      [
        "Ġliquid",
        -9.453544926527323
      ],
      [
        "Ġcolour",
        -9.453548748031682
      ],
      [
        "Ġuseful",
        -9.454925605524265
      ],
      [
        "Ġdidn",
        -9.456790951312035
      ],
      [
        "Ġcity",
        -9.457278006816882
      ],
      [
        "Ġclaim",
        -9.458514670924018
      ],
      [
        "Ġcompar",
        -9.458656167884268
      ],
      [
        "ĠPa",
        -9.458762559612271
      ],
      [
        "Ġingredient",
        -9.459458159377762
      ],
      [
        "Ġimages",
        -9.463306099304642
      ],
      [
        "Ġflavor",
        -9.46342066022729
      ],
      [
        "Ġmonth",
        -9.463909047255829
      ],
      [
        "Ġinsect",
        -9.464107268854615
      ],
      [
        "Ġchance",
        -9.465489548057452
      ],
      [
        "Ġmeet",
        -9.465847672394736
      ],
      [
        "ese",
        -9.465915400783093
      ],
      [
        "Ġscale",
        -9.467391663559445
      ],
      [
        "Ġcame",
        -9.468220191525493
      ],
      [
        "ĠMost",
        -9.470453699275764
      ],
      [
        "Ġmusic",
        -9.470838112856914
      ],
      [
        "rate",
        -9.47152466399061
      ],
      [
        "atch",
        -9.471666590617282
      ],
      [
        "AR",
        -9.472414979835689
      ],
      [
        "Ġbar",
        -9.47538225402717
      ],
      [
        "Ġefficienc",
        -9.475808742110358
      ],
      [
        "Ġoutput",
        -9.476043202993884
      ],
      [
        "ix",
        -9.476654719097684
      ],
      [
        "Ġfilter",
        -9.477424191582802
      ],
      [
        "Ġtaste",
        -9.47774007278892
      ],
      [
        "Ġpair",
        -9.478123243865976
      ],
      [
        "cho",
        -9.478533524193743
      ],
      [
        "Ġprice",
        -9.47890749388992
      ],
      [
        "Ġitems",
        -9.47971231080876
      ],
      [
        "ĠMore",
        -9.48009064151938
      ],
      [
        "Ġla",
        -9.480203671645672
      ],
      [
        "Ġdemand",
        -9.480454192447784
      ],
      [
        "Ġaim",
        -9.480536284408192
      ],
      [
        "Ġhope",
        -9.48184386255016
      ],
      [
        "Ġappropriate",
        -9.482143572055037
      ],
      [
        "Ġroot",
        -9.484410076786666
      ],
      [
        "Ġcollect",
        -9.48771361140901
      ],
      [
        "gra",
        -9.488338465615993
      ],
      [
        "Ġtrack",
        -9.489105328053045
      ],
      [
        "Ġeveryone",
        -9.489421430570117
      ],
      [
        "Ġconcept",
        -9.489708629178155
      ],
      [
        "Ġenter",
        -9.490077698105187
      ],
      [
        "chi",
        -9.490638053247087
      ],
      [
        "Ġboard",
        -9.490656178082048
      ],
      [
        "Ġtowards",
        -9.49068090702314
      ],
      [
        "ĠNot",
        -9.490930734707572
      ],
      [
        "Ġmilk",
        -9.491631272703357
      ],
      [
        "Ġwild",
        -9.491710462543429
      ],
      [
        "Ġsupply",
        -9.492579740914485
      ],
      [
        "Ġcharacteristic",
        -9.492710587704089
      ],
      [
        "Ġconcern",
        -9.49455812165499
      ],
      [
        "Ġencourage",
        -9.494673061361924
      ],
      [
        "Ġtips",
        -9.494844384416544
      ],
      [
        "ches",
        -9.494875588027323
      ],
      [
        "Ġplanet",
        -9.495440245737498
      ],
      [
        "led",
        -9.495487982289015
      ],
      [
        "Ġswitch",
        -9.496289184888
      ],
      [
        "Ġachieve",
        -9.49873305076696
      ],
      [
        "Ġextend",
        -9.498784102572536
      ],
      [
        "Ġsensor",
        -9.498798320521503
      ],
      [
        "Ġhandle",
        -9.498926554544571
      ],
      [
        "Ã",
        -9.499721187878883
      ],
      [
        "Ġgl",
        -9.501001174151192
      ],
      [
        "app",
        -9.501994189743144
      ],
      [
        "hu",
        -9.504651101549063
      ],
      [
        "Ġbegin",
        -9.504837387301183
      ],
      [
        "Ġprotection",
        -9.504959697339384
      ],
      [
        "Ġmap",
        -9.505546071676
      ],
      [
        "ĠSe",
        -9.507547418552395
      ],
      [
        "Ġcarry",
        -9.507684034186234
      ],
      [
        "her",
        -9.50794435807951
      ],
      [
        "Ġversion",
        -9.508664537517738
      ],
      [
        "Ġoxygen",
        -9.509116456826632
      ],
      [
        "Ġreflect",
        -9.510774890568122
      ],
      [
        "Ġpromote",
        -9.512235727620372
      ],
      [
        "Ġwriting",
        -9.512501987529838
      ],
      [
        "ivity",
        -9.512652549663914
      ],
      [
        "Ġpe",
        -9.513038143854496
      ],
      [
        "...ĊĊ",
        -9.513438461477524
      ],
      [
        "Ġbond",
        -9.51442418488439
      ],
      [
        "Ġli",
        -9.515482381746736
      ],
      [
        "ach",
        -9.51552404334626
      ],
      [
        "han",
        -9.515537245831284
      ],
      [
        "Ġdu",
        -9.51570031482698
      ],
      [
        "Ġsteps",
        -9.516075915995518
      ],
      [
        "Ġevent",
        -9.517039096747313
      ],
      [
        "Ġmemory",
        -9.517234608894572
      ],
      [
        "Ġmodels",
        -9.517546038279631
      ],
      [
        "companie",
        -9.517736153079474
      ],
      [
        "men",
        -9.518218269416746
      ],
      [
        "Ġfeeling",
        -9.518404106916066
      ],
      [
        "Ġdoor",
        -9.518677368856451
      ],
      [
        "ĠResearch",
        -9.518723555829002
      ],
      [
        "Ġupon",
        -9.51990930765157
      ],
      [
        "Ġideal",
        -9.520483524485892
      ],
      [
        "Ġspend",
        -9.520500461052192
      ],
      [
        "uff",
        -9.520556490530444
      ],
      [
        "Ġorganic",
        -9.521313640224506
      ],
      [
        "Ġbrand",
        -9.52198570744133
      ],
      [
        "On",
        -9.522485334502717
      ],
      [
        "Ġgeneration",
        -9.52272008165676
      ],
      [
        "ĠMany",
        -9.523062476846224
      ],
      [
        "Ġedge",
        -9.523315166813331
      ],
      [
        "Ġobtain",
        -9.523766020444716
      ],
      [
        "lar",
        -9.523849568356198
      ],
      [
        "Ġimportance",
        -9.524840872807491
      ],
      [
        "Ġstick",
        -9.525066099129816
      ],
      [
        "Ġserious",
        -9.525887123969584
      ],
      [
        "kin",
        -9.52611402649958
      ],
      [
        "low",
        -9.526720587105292
      ],
      [
        "Ġfoods",
        -9.528363965230042
      ],
      [
        "ign",
        -9.528929482653645
      ],
      [
        "Ġdate",
        -9.529397050502949
      ],
      [
        "Ġfigure",
        -9.530116482839066
      ],
      [
        "Ġmoment",
        -9.531001320684275
      ],
      [
        "care",
        -9.532427331938424
      ],
      [
        "Ġfinish",
        -9.5376526356229
      ],
      [
        "Ġsoft",
        -9.53795135143882
      ],
      [
        "Ġpatient",
        -9.53876138975732
      ],
      [
        "press",
        -9.539004775232108
      ],
      [
        "ĠFrom",
        -9.539538911609911
      ],
      [
        "oma",
        -9.53997610430998
      ],
      [
        "can",
        -9.540257881031422
      ],
      [
        "Ġfluid",
        -9.54079203504323
      ],
      [
        "Ġslight",
        -9.542428812194585
      ],
      [
        "oli",
        -9.542838512299337
      ],
      [
        "Ġbox",
        -9.54295403278196
      ],
      [
        "Ġideas",
        -9.543612679936684
      ],
      [
        "ement",
        -9.543831115053408
      ],
      [
        "Ġpa",
        -9.544019890674504
      ],
      [
        "Ã©",
        -9.546162151318423
      ],
      [
        "ĠGo",
        -9.546294749579385
      ],
      [
        "Ġenable",
        -9.546660682330328
      ],
      [
        "Ġinstance",
        -9.54725231918486
      ],
      [
        "Ġtouch",
        -9.547855153070916
      ],
      [
        "ification",
        -9.54797901815801
      ],
      [
        "Ġmen",
        -9.548852161637877
      ],
      [
        "Ġball",
        -9.549993821302769
      ],
      [
        "Ġfoot",
        -9.550774051859776
      ],
      [
        "Ġremember",
        -9.551560768543515
      ],
      [
        "Ġmaintenance",
        -9.551581752148522
      ],
      [
        "red",
        -9.551938294661635
      ],
      [
        "ĠWater",
        -9.552022710900925
      ],
      [
        "Ġfr",
        -9.552240642386923
      ],
      [
        "Ġframe",
        -9.552642875563478
      ],
      [
        "uch",
        -9.554190939425824
      ],
      [
        "Ġfight",
        -9.554910879380058
      ],
      [
        "ĠPi",
        -9.55517550160261
      ],
      [
        "Ġimmediate",
        -9.555905903216075
      ],
      [
        "Ġbird",
        -9.556831354343416
      ],
      [
        "ore",
        -9.55707647902575
      ],
      [
        "ger",
        -9.55709213166637
      ],
      [
        "Ġseries",
        -9.558228789245817
      ],
      [
        "Ġteeth",
        -9.559177780792892
      ],
      [
        "Ġbaby",
        -9.559189445547602
      ],
      [
        "Z",
        -9.560362888776282
      ],
      [
        "Ġnothing",
        -9.560715986893882
      ],
      [
        ".S",
        -9.561000554240987
      ],
      [
        "Ġseeds",
        -9.561268846535924
      ],
      [
        "Ġcross",
        -9.561437841215987
      ],
      [
        "Ġcommonly",
        -9.561780344572409
      ],
      [
        "ĠAir",
        -9.561864176520356
      ],
      [
        "Ġproperly",
        -9.56249428134753
      ],
      [
        "Ġdoctor",
        -9.56355681954136
      ],
      [
        "Ġbi",
        -9.564259805184692
      ],
      [
        "With",
        -9.564480687219628
      ],
      [
        "No",
        -9.56468085190407
      ],
      [
        "Ġidentifie",
        -9.5657536888004
      ],
      [
        "Ġrepair",
        -9.565851414592023
      ],
      [
        "Ġmanage",
        -9.566418870642485
      ],
      [
        "Ġcircuit",
        -9.566853095217708
      ],
      [
        "Ġevolution",
        -9.56865672843444
      ],
      [
        "ST",
        -9.569969030021316
      ],
      [
        "ĠWar",
        -9.570836392571673
      ],
      [
        "Ma",
        -9.57111298146078
      ],
      [
        "Ġdocument",
        -9.571266347584112
      ],
      [
        "izing",
        -9.572208991999572
      ],
      [
        "Ġaccurate",
        -9.572371695169611
      ],
      [
        "Ġstand",
        -9.57240036851304
      ],
      [
        "rat",
        -9.572971540301252
      ],
      [
        "Ġsort",
        -9.57321497958942
      ],
      [
        "Ġeconomic",
        -9.573318148263969
      ],
      [
        "Ġpoor",
        -9.573550203278254
      ],
      [
        "Ġrich",
        -9.5758200490375
      ],
      [
        "came",
        -9.57618198345973
      ],
      [
        "Ġfrequent",
        -9.576281375025424
      ],
      [
        "pos",
        -9.578096158832242
      ],
      [
        "Ġvision",
        -9.57833208241126
      ],
      [
        "Ġimp",
        -9.579059954416532
      ],
      [
        "Ġearth",
        -9.579355764764838
      ],
      [
        "Ġdiseases",
        -9.579660800017937
      ],
      [
        "Ġpretty",
        -9.580150780396028
      ],
      [
        "Ġobjects",
        -9.582305501225932
      ],
      [
        "ES",
        -9.583162740175904
      ],
      [
        "Ġrelationship",
        -9.583438945994708
      ],
      [
        "Ġsmooth",
        -9.584621479960312
      ],
      [
        "til",
        -9.584827381934748
      ],
      [
        "mark",
        -9.58759012673612
      ],
      [
        "ome",
        -9.587764607697926
      ],
      [
        ".com",
        -9.58914150378142
      ],
      [
        "Ġhearing",
        -9.59049327334606
      ],
      [
        "These",
        -9.591395580866733
      ],
      [
        "Ġcount",
        -9.591720457078964
      ],
      [
        "Ġproteins",
        -9.592196285366573
      ],
      [
        "ĠCh",
        -9.593599444550556
      ],
      [
        "Ġha",
        -9.59472852235924
      ],
      [
        "Ġsolid",
        -9.59481782511277
      ],
      [
        "Ġfile",
        -9.5948454213117
      ],
      [
        "Ġseek",
        -9.596923813253124
      ],
      [
        "Ġfloor",
        -9.597059539070331
      ],
      [
        "Ġtask",
        -9.59758676955645
      ],
      [
        "Ġcentury",
        -9.5981599175552
      ],
      [
        "ĠCor",
        -9.59823771644093
      ],
      [
        "Ġbasi",
        -9.59851706303462
      ],
      [
        "Ġhost",
        -9.598634777159814
      ],
      [
        "ĠMin",
        -9.600996082539876
      ],
      [
        "q",
        -9.601292832289356
      ],
      [
        "ĠWho",
        -9.601351336412666
      ],
      [
        "ĠKi",
        -9.601478112688948
      ],
      [
        "Ġweb",
        -9.601665018022103
      ],
      [
        "-p",
        -9.601890801185611
      ],
      [
        "Ġmotor",
        -9.60270883767279
      ],
      [
        "Ġdecrease",
        -9.602711105025456
      ],
      [
        "Ġphone",
        -9.603357077839348
      ],
      [
        "Ġtechnique",
        -9.604759866382024
      ],
      [
        "mic",
        -9.605064244616834
      ],
      [
        "ries",
        -9.605232989172
      ],
      [
        "Ġlives",
        -9.605680154865489
      ],
      [
        "Ġwire",
        -9.607585391294684
      ],
      [
        "ĠWorld",
        -9.607677064163507
      ],
      [
        "Ġpull",
        -9.607785775355197
      ],
      [
        "Ġcouple",
        -9.60843444223947
      ],
      [
        "Ġcompound",
        -9.609581561315096
      ],
      [
        "Ġinteresting",
        -9.610574076709096
      ],
      [
        "RE",
        -9.610673567663214
      ],
      [
        "IN",
        -9.611038893022275
      ],
      [
        "Ġcats",
        -9.61134704872236
      ],
      [
        "Co",
        -9.611490895725552
      ],
      [
        "Ġnoise",
        -9.611636184873705
      ],
      [
        "Ġchallenges",
        -9.611818931580352
      ],
      [
        "Ġintroduce",
        -9.612210178979424
      ],
      [
        "Ġcup",
        -9.614685533852091
      ],
      [
        "Ġcontains",
        -9.615498263152052
      ],
      [
        "Ġdesire",
        -9.617663607868554
      ],
      [
        "fish",
        -9.617785656568431
      ],
      [
        "ĠAdditional",
        -9.618262652526088
      ],
      [
        "Ġresponsible",
        -9.61831163772926
      ],
      [
        "Ġcloth",
        -9.618401073654873
      ],
      [
        "Ġaccept",
        -9.6188126611335
      ],
      [
        "Ġplann",
        -9.619533261356388
      ],
      [
        "Ġmatch",
        -9.62121829423686
      ],
      [
        "ĠWhy",
        -9.621630535470354
      ],
      [
        "Ġcooking",
        -9.621686026529172
      ],
      [
        "Di",
        -9.622320123932385
      ],
      [
        "Ġcleaning",
        -9.622949921709523
      ],
      [
        "bu",
        -9.62337681308582
      ],
      [
        "Ġbag",
        -9.623603052905196
      ],
      [
        "Ġwait",
        -9.62388203115191
      ],
      [
        "ĠQu",
        -9.625250196040271
      ],
      [
        "And",
        -9.626100307961575
      ],
      [
        "Ġtri",
        -9.626924836105664
      ],
      [
        "Ġvolume",
        -9.626975996908302
      ],
      [
        "By",
        -9.62748646332878
      ],
      [
        "Ġrise",
        -9.629886898246555
      ],
      [
        "lie",
        -9.630177598825256
      ],
      [
        "Ġphase",
        -9.631651981583584
      ],
      [
        "Ġlaw",
        -9.632766789255378
      ],
      [
        "Ġmolecules",
        -9.634996979737046
      ],
      [
        "lock",
        -9.635269213762856
      ],
      [
        "Ġbeautiful",
        -9.636361569876254
      ],
      [
        "Ġbottom",
        -9.63753762974888
      ],
      [
        "Ġmother",
        -9.638036691333664
      ],
      [
        "Ġmembers",
        -9.638455625003225
      ],
      [
        "Ġelement",
        -9.638975550443131
      ],
      [
        "Ġheavy",
        -9.639903815482556
      ],
      [
        "Ġfe",
        -9.640606977492713
      ],
      [
        "Ġsetting",
        -9.641843232296877
      ],
      [
        "Ġplate",
        -9.642423617168358
      ],
      [
        "ular",
        -9.643718357474503
      ],
      [
        "Ġmaximum",
        -9.645841319820343
      ],
      [
        "Ġmechanism",
        -9.6494220313281
      ],
      [
        "lthough",
        -9.649488109061709
      ],
      [
        "Ġforest",
        -9.649588099510863
      ],
      [
        "Ġconstruction",
        -9.649947589051784
      ],
      [
        "Ġsustainable",
        -9.65019539310746
      ],
      [
        "Ġgoe",
        -9.650423241448737
      ],
      [
        "Con",
        -9.651223548429687
      ],
      [
        "Some",
        -9.651475944379015
      ],
      [
        "Ġflight",
        -9.652061642574555
      ],
      [
        "istic",
        -9.652751701304297
      ],
      [
        "cha",
        -9.654752831760431
      ],
      [
        "Ġpath",
        -9.654878857100096
      ],
      [
        "Ġexpand",
        -9.65543082186404
      ],
      [
        "Ġensur",
        -9.656803017829487
      ],
      [
        "Ġpanel",
        -9.657142277927992
      ],
      [
        "ĠDec",
        -9.65773322616117
      ],
      [
        "Ġsoon",
        -9.657796722469095
      ],
      [
        "ĠCenter",
        -9.657850924344466
      ],
      [
        "bin",
        -9.6579264772737
      ],
      [
        "ĠTe",
        -9.658302594613144
      ],
      [
        "Ġprogress",
        -9.658506314816847
      ],
      [
        "Ġwrite",
        -9.65966977346305
      ],
      [
        "Ġadjust",
        -9.65973703265471
      ],
      [
        "Ġpark",
        -9.66161423965174
      ],
      [
        "Ġelectronic",
        -9.662005878330312
      ],
      [
        "Ġcausing",
        -9.662087365800364
      ],
      [
        "nic",
        -9.662115470043569
      ],
      [
        "Ġmoisture",
        -9.662722901795616
      ],
      [
        "Ġreplace",
        -9.664522443128316
      ],
      [
        "Ġ--",
        -9.66502013561447
      ],
      [
        "}",
        -9.666934386020756
      ],
      [
        "Ġburn",
        -9.666988824580203
      ],
      [
        "Ġwrong",
        -9.667515946597424
      ],
      [
        "Ġround",
        -9.667825084212264
      ],
      [
        "mas",
        -9.668203498833677
      ],
      [
        "Ġdiscover",
        -9.668236707090918
      ],
      [
        "Ġshift",
        -9.668738283177188
      ],
      [
        "oil",
        -9.668893477280797
      ],
      [
        "OR",
        -9.6690982070258
      ],
      [
        "-term",
        -9.670138552689826
      ],
      [
        "late",
        -9.670700856781576
      ],
      [
        "-up",
        -9.67070351547784
      ],
      [
        "Ġhit",
        -9.670838311335627
      ],
      [
        "hen",
        -9.671904911545116
      ],
      [
        "Ġexperiment",
        -9.672651176878713
      ],
      [
        "ari",
        -9.673390004927558
      ],
      [
        "ĠUn",
        -9.674400300440976
      ],
      [
        "Ġimplement",
        -9.675132841557565
      ],
      [
        "Ġvia",
        -9.675366733930344
      ],
      [
        "Ġstem",
        -9.676066817240564
      ],
      [
        "Ġcutting",
        -9.676303620396451
      ],
      [
        "ĠAlso",
        -9.677608320824724
      ],
      [
        "Ġrare",
        -9.678827819332142
      ],
      [
        "Ġgrade",
        -9.67905834194806
      ],
      [
        "ĠEl",
        -9.679793260375671
      ],
      [
        "Ġapplied",
        -9.680215153070868
      ],
      [
        "Ġmar",
        -9.680539389889624
      ],
      [
        "ĠMay",
        -9.680642410379525
      ],
      [
        "ĠGod",
        -9.681573089323098
      ],
      [
        "Ġcosts",
        -9.68177454589125
      ],
      [
        "Ġdie",
        -9.681788176863405
      ],
      [
        "ĠGa",
        -9.682746797395556
      ],
      [
        "old",
        -9.682829639013914
      ],
      [
        "Ġpest",
        -9.68303818872079
      ],
      [
        "art",
        -9.683163529295436
      ],
      [
        "Ġpipe",
        -9.683290604119708
      ],
      [
        "ĠInstitute",
        -9.683471365426286
      ],
      [
        "meter",
        -9.683806846187831
      ],
      [
        "limited",
        -9.68430089953934
      ],
      [
        "top",
        -9.687587447665578
      ],
      [
        "Ġcontainer",
        -9.68765085749288
      ],
      [
        "Ġprojects",
        -9.689747603736814
      ],
      [
        "Ġresistance",
        -9.68976691814586
      ],
      [
        "Ġbrown",
        -9.690769772497436
      ],
      [
        "ami",
        -9.691246312303557
      ],
      [
        "Ġtherap",
        -9.693363306539272
      ],
      [
        "Ġfriends",
        -9.693602811987148
      ],
      [
        "Ġreducing",
        -9.694664167115038
      ],
      [
        "Ġfrequency",
        -9.694706084264595
      ],
      [
        "bat",
        -9.6947075304617
      ],
      [
        "Ġbright",
        -9.694985365139582
      ],
      [
        "Ġdiscovered",
        -9.69583227469392
      ],
      [
        "Now",
        -9.698263646914311
      ],
      [
        "Ġlu",
        -9.6994449475067
      ],
      [
        "Ġdisorder",
        -9.699678278209785
      ],
      [
        "how",
        -9.699763297196078
      ],
      [
        "Be",
        -9.700756112934132
      ],
      [
        "Ġcapacity",
        -9.701184676509072
      ],
      [
        "Ġblog",
        -9.70150214675798
      ],
      [
        "Ġplatform",
        -9.702211501541315
      ],
      [
        "ham",
        -9.703439494187194
      ],
      [
        "older",
        -9.703487386837269
      ],
      [
        "bra",
        -9.703871826055115
      ],
      [
        "Ġvoltage",
        -9.705984554466305
      ],
      [
        "Ġrecommend",
        -9.706753282709055
      ],
      [
        "Ġpound",
        -9.706910206551292
      ],
      [
        "He",
        -9.707365019857011
      ],
      [
        "val",
        -9.707643153702383
      ],
      [
        "Ġrule",
        -9.708187254986498
      ],
      [
        "ĠEach",
        -9.709180006547108
      ],
      [
        "Ġmeaning",
        -9.710159536891698
      ],
      [
        "Ġglass",
        -9.71089596545713
      ],
      [
        "Ġlab",
        -9.711051154588016
      ],
      [
        "ĠOur",
        -9.711120868019677
      ],
      [
        "Ġpowerful",
        -9.711909870965997
      ],
      [
        "Ġconvert",
        -9.712342326475884
      ],
      [
        "Ġmessage",
        -9.712526277661638
      ],
      [
        "Ġsuitabl",
        -9.714126518790664
      ],
      [
        "Ġradio",
        -9.716156678451773
      ],
      [
        "ĠLet",
        -9.716571213929225
      ],
      [
        "ock",
        -9.717243503061988
      ],
      [
        "Ġtrans",
        -9.717341539676127
      ],
      [
        "Ġcommercial",
        -9.717434012506647
      ],
      [
        "Ġpractices",
        -9.717686035256367
      ],
      [
        "ĠCl",
        -9.717766482656446
      ],
      [
        "Ġheight",
        -9.718521382681825
      ],
      [
        "Ġready",
        -9.718682015584292
      ],
      [
        "Ġim",
        -9.719392455637124
      ],
      [
        "Ġthird",
        -9.719996996603596
      ],
      [
        "ung",
        -9.721153524467162
      ],
      [
        "vin",
        -9.72150285907218
      ],
      [
        "Ġbear",
        -9.72160400709534
      ],
      [
        "Ġmouth",
        -9.721995226790703
      ],
      [
        "onic",
        -9.72200917802387
      ],
      [
        "Ġsend",
        -9.72250456933431
      ],
      [
        "Ġangle",
        -9.722962236429002
      ],
      [
        "gar",
        -9.723617880402928
      ],
      [
        "ole",
        -9.723642753763729
      ],
      [
        "Ġraise",
        -9.724683456496264
      ],
      [
        "Ġphotograph",
        -9.724991758145606
      ],
      [
        "ĠNa",
        -9.72535435468119
      ],
      [
        "Ġrapid",
        -9.726431791145462
      ],
      [
        "ĠEven",
        -9.727856780757929
      ],
      [
        "Ġmiss",
        -9.728300999059734
      ],
      [
        "ogen",
        -9.728809315079024
      ],
      [
        "||",
        -9.729206596478402
      ],
      [
        "Ġgiving",
        -9.729445463183971
      ],
      [
        "Ġanyone",
        -9.73152485190506
      ],
      [
        "Ġpush",
        -9.731613110273305
      ],
      [
        "Ġroll",
        -9.732428172084838
      ],
      [
        "ĠNow",
        -9.732689971389863
      ],
      [
        "spec",
        -9.73390902180664
      ],
      [
        "Ġconsist",
        -9.734048109942991
      ],
      [
        "Ġjoint",
        -9.734402399296204
      ],
      [
        "Ġdriver",
        -9.734846603350952
      ],
      [
        "Ġmode",
        -9.735090565112964
      ],
      [
        "met",
        -9.73547269048615
      ],
      [
        "Ġworth",
        -9.735665466133083
      ],
      [
        "ĠState",
        -9.736728943745856
      ],
      [
        "Ġsell",
        -9.737333184359493
      ],
      [
        "ĠTh",
        -9.737657028192515
      ],
      [
        "Ġship",
        -9.738811089125656
      ],
      [
        "Ġquant",
        -9.738956944558469
      ],
      [
        "Ġpump",
        -9.7393562985319
      ],
      [
        "Ġdead",
        -9.739771069012171
      ],
      [
        "ĠMan",
        -9.739977014222385
      ],
      [
        "Ġsuit",
        -9.740263838747603
      ],
      [
        "Ġenzyme",
        -9.742045300579145
      ],
      [
        "Ġcollection",
        -9.742449015305834
      ],
      [
        "ĠPer",
        -9.74304607079635
      ],
      [
        "Ġconcentration",
        -9.743357612018492
      ],
      [
        "Ġpicture",
        -9.74511405433821
      ],
      [
        "Ġgenes",
        -9.746042151542191
      ],
      [
        "Ġsevere",
        -9.746153561650075
      ],
      [
        "cut",
        -9.746749646033466
      ],
      [
        "Ġflat",
        -9.746934529241765
      ],
      [
        "rap",
        -9.747165250093785
      ],
      [
        "Ġchang",
        -9.747181976021118
      ],
      [
        "Ġnutrients",
        -9.747880107627177
      ],
      [
        "spite",
        -9.748503944350352
      ],
      [
        "Ġhands",
        -9.750161569511612
      ],
      [
        "Ġfund",
        -9.75030529955691
      ],
      [
        "ĠEn",
        -9.7504400553627
      ],
      [
        "Ġtransport",
        -9.750460289597136
      ],
      [
        "Ġattempt",
        -9.751272281104209
      ],
      [
        "Ġcontext",
        -9.75132965111747
      ],
      [
        "ĠWork",
        -9.751678345001332
      ],
      [
        "Br",
        -9.752777147144457
      ],
      [
        "ĠHigh",
        -9.753887452793505
      ],
      [
        "Ġabsorb",
        -9.75391876714599
      ],
      [
        "Ġpredict",
        -9.754147517542462
      ],
      [
        "cur",
        -9.754433303894068
      ],
      [
        "Ġtherefore",
        -9.755265498421682
      ],
      [
        "Ġchicken",
        -9.755376193041856
      ],
      [
        "Ġdivers",
        -9.756782256547467
      ],
      [
        "Ġthus",
        -9.758347466431742
      ],
      [
        "Ġstructures",
        -9.759520725897918
      ],
      [
        "Ġexpensive",
        -9.760576582016622
      ],
      [
        "Ġyellow",
        -9.760576729022894
      ],
      [
        "Ġexcellent",
        -9.76057701034016
      ],
      [
        "Ġuses",
        -9.760681095043736
      ],
      [
        "Ġappearance",
        -9.761012970775344
      ],
      [
        "Ġstates",
        -9.76210476324122
      ],
      [
        "Ġcombine",
        -9.762545210682166
      ],
      [
        "Ġskill",
        -9.762572886384008
      ],
      [
        "Ġexpected",
        -9.762948641115232
      ],
      [
        "Ġalgorithm",
        -9.763252163620496
      ],
      [
        "Ġemploy",
        -9.764130928004356
      ],
      [
        "lip",
        -9.764586764902154
      ],
      [
        "Ġgives",
        -9.765588660764966
      ],
      [
        "Ġchain",
        -9.766034364660335
      ],
      [
        "Ġthin",
        -9.766341677279026
      ],
      [
        "Ġsquare",
        -9.767279803508472
      ],
      [
        "Ġforward",
        -9.767779380518366
      ],
      [
        "par",
        -9.768653864772851
      ],
      [
        "tru",
        -9.768717424948065
      ],
      [
        "Ġwheel",
        -9.769507112298964
      ],
      [
        "lot",
        -9.769776428312015
      ],
      [
        "ĠâĢ¦",
        -9.769930390675556
      ],
      [
        "Ġplease",
        -9.76998268973994
      ],
      [
        "Ġoutdoor",
        -9.770219159447365
      ],
      [
        "Ġfemale",
        -9.770281014435344
      ],
      [
        "win",
        -9.770803269681783
      ],
      [
        "AT",
        -9.771217154833463
      ],
      [
        "Ġparticles",
        -9.77237246445803
      ],
      [
        "Ġconsistent",
        -9.773141441002451
      ],
      [
        "osis",
        -9.773616406783212
      ],
      [
        "ĠPe",
        -9.77397486651865
      ],
      [
        "Ġgrass",
        -9.773978863901991
      ],
      [
        "Ġrespond",
        -9.77402669800214
      ],
      [
        "Ġexposure",
        -9.774251125324898
      ],
      [
        "Ġfabric",
        -9.77507232443212
      ],
      [
        "ĠPark",
        -9.776098620279624
      ],
      [
        "Ġsequence",
        -9.77660392362094
      ],
      [
        "Creat",
        -9.776818284947758
      ],
      [
        "phy",
        -9.776851595464828
      ],
      [
        "ulation",
        -9.77751511886094
      ],
      [
        "ĠNOT",
        -9.778351949542518
      ],
      [
        "Ġsustain",
        -9.778577750042423
      ],
      [
        "-b",
        -9.778851554524636
      ],
      [
        "tter",
        -9.77926822996823
      ],
      [
        "Ġfilm",
        -9.779531404888225
      ],
      [
        "ray",
        -9.7822350775741
      ],
      [
        "bal",
        -9.782747475162791
      ],
      [
        "ĠSea",
        -9.78291147909733
      ],
      [
        "aff",
        -9.783100343550984
      ],
      [
        "zz",
        -9.783595137869373
      ],
      [
        "ley",
        -9.783724696857895
      ],
      [
        "Ġreported",
        -9.783906950992694
      ],
      [
        "Ġexpos",
        -9.78397159483582
      ],
      [
        "Ġpractical",
        -9.7842313607168
      ],
      [
        "mod",
        -9.786142394206305
      ],
      [
        "Ġjourney",
        -9.786288411069826
      ],
      [
        "Ġsaw",
        -9.78743554450843
      ],
      [
        "Ġfossil",
        -9.787660189188092
      ],
      [
        "Ġsymbol",
        -9.789062783819888
      ],
      [
        "ĠBlack",
        -9.789094882162402
      ],
      [
        "Ġrep",
        -9.789249763450638
      ],
      [
        "Ġmu",
        -9.78940370310751
      ],
      [
        "Ġtransition",
        -9.790507934670856
      ],
      [
        "ĠSh",
        -9.790551143066011
      ],
      [
        "ĠIndia",
        -9.79063273101799
      ],
      [
        "mar",
        -9.791346078772971
      ],
      [
        "Ġbirth",
        -9.791699665705927
      ],
      [
        "Ġcoming",
        -9.791958061799352
      ],
      [
        "Ġres",
        -9.79305034979418
      ],
      [
        "ink",
        -9.794161912361574
      ],
      [
        "Ġexpression",
        -9.79467043353418
      ],
      [
        "Ġcur",
        -9.796486369154517
      ],
      [
        "Ġmagnetic",
        -9.79652912961786
      ],
      [
        "Ġmid",
        -9.796533653412508
      ],
      [
        "Ġtexture",
        -9.796618644039576
      ],
      [
        "ON",
        -9.796723086121554
      ],
      [
        "Ġten",
        -9.798645652618884
      ],
      [
        "Ġpan",
        -9.799152469362358
      ],
      [
        "Ġtrip",
        -9.799522041926952
      ],
      [
        "Ġled",
        -9.799844222876825
      ],
      [
        "Ġstone",
        -9.800767127908724
      ],
      [
        "ĠMake",
        -9.80232288682908
      ],
      [
        "nel",
        -9.802672946706778
      ],
      [
        "Ġstock",
        -9.802850448704236
      ],
      [
        "Ġtesting",
        -9.802960243888563
      ],
      [
        "Ġpr",
        -9.80326966626184
      ],
      [
        "cop",
        -9.803996526573954
      ],
      [
        "Ġclick",
        -9.804468203732611
      ],
      [
        "Ġmedium",
        -9.80567681228697
      ],
      [
        "Ġexpress",
        -9.805704164604176
      ],
      [
        "Therefore",
        -9.805757250902154
      ],
      [
        "Ġcook",
        -9.806475331009027
      ],
      [
        "...Ċ",
        -9.80734198946694
      ],
      [
        "Ġnative",
        -9.807522755996777
      ],
      [
        "ĠJohn",
        -9.807818969473391
      ],
      [
        "Ġmotion",
        -9.808262884099513
      ],
      [
        "Ġfacilit",
        -9.808698807021372
      ],
      [
        "Ġsecurit",
        -9.808793742884252
      ],
      [
        "CH",
        -9.80917515849635
      ],
      [
        "Ġjournal",
        -9.81008935230991
      ],
      [
        "ĠArt",
        -9.810307571435567
      ],
      [
        "Ġpi",
        -9.810591789101236
      ],
      [
        "Ġaffected",
        -9.81100355935835
      ],
      [
        "Ġdecade",
        -9.811277901527244
      ],
      [
        "Ġmeasurement",
        -9.811332768699002
      ],
      [
        "Ġlesson",
        -9.811567886336473
      ],
      [
        "ĠOther",
        -9.811979005364254
      ],
      [
        "ĠFe",
        -9.812605609894426
      ],
      [
        "IS",
        -9.81273643394541
      ],
      [
        "Ġfiber",
        -9.81343799669654
      ],
      [
        "Ġerror",
        -9.81409876750122
      ],
      [
        "ĠOver",
        -9.814221172980517
      ],
      [
        "Ġjoin",
        -9.814284764333518
      ],
      [
        "Ġwor",
        -9.814853251600551
      ],
      [
        "hop",
        -9.815459973928178
      ],
      [
        "Ġvital",
        -9.815560686208409
      ],
      [
        "load",
        -9.815598536839005
      ],
      [
        "ĠAlthough",
        -9.818816825096622
      ],
      [
        "ĠSc",
        -9.819553176990937
      ],
      [
        "Ġbeyond",
        -9.81974702654964
      ],
      [
        "Ġhuge",
        -9.819757613236902
      ],
      [
        "Ġpresence",
        -9.81977349539363
      ],
      [
        "Ġemission",
        -9.819983755454352
      ],
      [
        "east",
        -9.81999229386096
      ],
      [
        "Ġho",
        -9.820943993181777
      ],
      [
        "Ġsample",
        -9.821173685365476
      ],
      [
        "aught",
        -9.821631150270957
      ],
      [
        "Ġwent",
        -9.822303684065824
      ],
      [
        "ĠJust",
        -9.823833534900412
      ],
      [
        "car",
        -9.823910743126987
      ],
      [
        "Ġtasks",
        -9.824725474559523
      ],
      [
        "Ġplayers",
        -9.824767928945512
      ],
      [
        "Ġstuff",
        -9.825452784284714
      ],
      [
        "Ġdriving",
        -9.826853440903491
      ],
      [
        "Ġfashion",
        -9.826853542551287
      ],
      [
        "ĠCO",
        -9.827478060859727
      ],
      [
        "ute",
        -9.82784334336982
      ],
      [
        "ĠDu",
        -9.828519919479534
      ],
      [
        "ĠAr",
        -9.828867290258556
      ],
      [
        "Ġimmune",
        -9.829295108942528
      ],
      [
        "Ġconnected",
        -9.829521006193016
      ],
      [
        "Ġmis",
        -9.829849951010956
      ],
      [
        "bility",
        -9.829851712714053
      ],
      [
        "nes",
        -9.83133825319467
      ],
      [
        "Ġbr",
        -9.83194615258748
      ],
      [
        "por",
        -9.832668160722845
      ],
      [
        "Ġsheet",
        -9.832735792761104
      ],
      [
        "Ġrobot",
        -9.832790655630172
      ],
      [
        "Ġlose",
        -9.83362754608663
      ],
      [
        "Ġprocessing",
        -9.833674034817667
      ],
      [
        "Ġrules",
        -9.83374797711641
      ],
      [
        "itting",
        -9.834255916858226
      ],
      [
        "Ġteaching",
        -9.83467244919914
      ],
      [
        "Ġdistribution",
        -9.835752675415034
      ],
      [
        "ĠRi",
        -9.83581040641787
      ],
      [
        "Ġbodie",
        -9.83733093416008
      ],
      [
        "Ġteachers",
        -9.837397494116964
      ],
      [
        "Ġspeaker",
        -9.837855782446866
      ],
      [
        "stone",
        -9.837892855299618
      ],
      [
        "Ġtechnologies",
        -9.838339530422576
      ],
      [
        "Ġrecipe",
        -9.838340298794328
      ],
      [
        "ĠThei",
        -9.83908749884248
      ],
      [
        "gon",
        -9.839388243983608
      ],
      [
        "ĠRu",
        -9.839528014177182
      ],
      [
        "lam",
        -9.839656216510113
      ],
      [
        "Ġhid",
        -9.841975098967657
      ],
      [
        "Ġoffice",
        -9.84222990329875
      ],
      [
        "Ġonto",
        -9.842792974953252
      ],
      [
        "Ġbackground",
        -9.84294669228291
      ],
      [
        "Ġmiddle",
        -9.84415462952701
      ],
      [
        "Ġsociety",
        -9.844833568176206
      ],
      [
        "Ġinsight",
        -9.846694934514684
      ],
      [
        "Ġband",
        -9.846708881004709
      ],
      [
        "Ġmark",
        -9.84696134871838
      ],
      [
        "ates",
        -9.84747538168681
      ],
      [
        "Ġexpect",
        -9.847892927221915
      ],
      [
        "Ġfunctions",
        -9.848253458444043
      ],
      [
        "Ġartist",
        -9.84840769484066
      ],
      [
        "Ġmanufacturer",
        -9.848475356173104
      ],
      [
        "quality",
        -9.848553338585692
      ],
      [
        "Ġcomput",
        -9.84904897033947
      ],
      [
        "pol",
        -9.849126626823148
      ],
      [
        "Ġwrit",
        -9.849428889655998
      ],
      [
        "ĠEnglish",
        -9.851026164498633
      ],
      [
        "Ġmember",
        -9.851976445375898
      ],
      [
        "lost",
        -9.852384902352105
      ],
      [
        "Ġbike",
        -9.852537223027088
      ],
      [
        "pan",
        -9.852603355808906
      ],
      [
        "Ġvariation",
        -9.85288535730475
      ],
      [
        "matic",
        -9.85351369439569
      ],
      [
        "Ġapproximate",
        -9.85435151541526
      ],
      [
        "Ġlabel",
        -9.855609103294745
      ],
      [
        "Ġcommand",
        -9.856048697848784
      ],
      [
        "ĠEuropean",
        -9.85696344334405
      ],
      [
        "Ġpen",
        -9.857532843059408
      ],
      [
        "Ġdetails",
        -9.857744338185148
      ],
      [
        "They",
        -9.857837401082056
      ],
      [
        "Ġchallenge",
        -9.857931305264009
      ],
      [
        "last",
        -9.858230400808738
      ],
      [
        "mu",
        -9.859472264812576
      ],
      [
        "get",
        -9.860056015925975
      ],
      [
        "Ġfamilie",
        -9.860239152446209
      ],
      [
        "Ġlandscape",
        -9.860275308962429
      ],
      [
        "IT",
        -9.860284841473428
      ],
      [
        "Ġsites",
        -9.860942787762076
      ],
      [
        "ĠPre",
        -9.861525582853504
      ],
      [
        "ĠYork",
        -9.861719286713438
      ],
      [
        "Ġreference",
        -9.86199890739621
      ],
      [
        "Ġlisten",
        -9.862001845140531
      ],
      [
        "ĠMu",
        -9.863057017123271
      ],
      [
        "ĠAfrica",
        -9.863392807076954
      ],
      [
        "ĠCalifornia",
        -9.864094349656522
      ],
      [
        "duct",
        -9.86430336486865
      ],
      [
        "ĠSystem",
        -9.864676371686905
      ],
      [
        "Ġecosystem",
        -9.864686887691198
      ],
      [
        "fect",
        -9.86546454178081
      ],
      [
        "comfortable",
        -9.86610050510436
      ],
      [
        "Ġconsumption",
        -9.866159851021967
      ],
      [
        "ept",
        -9.867592209555694
      ],
      [
        "inches",
        -9.86778242522431
      ],
      [
        "Ġbone",
        -9.86917530570439
      ],
      [
        "ĠUK",
        -9.870144014622875
      ],
      [
        "spir",
        -9.870281443905585
      ],
      [
        "ĠKa",
        -9.871624333128032
      ],
      [
        "lac",
        -9.871732679857878
      ],
      [
        "Ġrecognize",
        -9.872181441862692
      ],
      [
        "ĠEurope",
        -9.872196966311414
      ],
      [
        "ĠDur",
        -9.872934524561828
      ],
      [
        "Ġpur",
        -9.873489767266928
      ],
      [
        "ĠOnc",
        -9.873578311303891
      ],
      [
        "Ġcore",
        -9.874038734204213
      ],
      [
        "Ġpoly",
        -9.874120655855116
      ],
      [
        "Ġsit",
        -9.874549177663734
      ],
      [
        "Ġroots",
        -9.875014462343884
      ],
      [
        "MS",
        -9.875057787432224
      ],
      [
        "Ġaid",
        -9.875655115116356
      ],
      [
        "Ġreact",
        -9.87576216560325
      ],
      [
        "Ġcommunit",
        -9.876282861532944
      ],
      [
        "Ġpurchase",
        -9.876371704432742
      ],
      [
        "Ġgra",
        -9.877237344138289
      ],
      [
        "Ġtransfer",
        -9.877588273207378
      ],
      [
        "Ġcentral",
        -9.878114417706216
      ],
      [
        "Ġsnow",
        -9.878145747920284
      ],
      [
        "put",
        -9.878515187272754
      ],
      [
        "ĠGra",
        -9.879027510579194
      ],
      [
        "Ġfriend",
        -9.879630490802406
      ],
      [
        "Ġsweet",
        -9.87963157330098
      ],
      [
        "Ġfa",
        -9.87983854749517
      ],
      [
        "Ġbroad",
        -9.879988210068683
      ],
      [
        "Ġobserved",
        -9.880304376538705
      ],
      [
        "Ġrice",
        -9.88050512127004
      ],
      [
        "IC",
        -9.881239970767153
      ],
      [
        "AD",
        -9.88140867344976
      ],
      [
        "Ġwash",
        -9.881483050699837
      ],
      [
        "Ġdynamic",
        -9.882525230902498
      ],
      [
        "Ġiron",
        -9.88266027640346
      ],
      [
        "Ġdrawing",
        -9.883150213589154
      ],
      [
        "laugh",
        -9.883645981525808
      ],
      [
        "bit",
        -9.88403211653258
      ],
      [
        "ĠService",
        -9.884137791785
      ],
      [
        "ker",
        -9.884322342990432
      ],
      [
        "aging",
        -9.884412516450071
      ],
      [
        "but",
        -9.885627598504694
      ],
      [
        "ĠLu",
        -9.885971628299997
      ],
      [
        "Ġcomment",
        -9.88597554691323
      ],
      [
        "Ġorgan",
        -9.886003253975256
      ],
      [
        "Ġvary",
        -9.886319717427131
      ],
      [
        "Ġinstructions",
        -9.88670268627728
      ],
      [
        "Ġleader",
        -9.888410539562148
      ],
      [
        "Ġpainting",
        -9.888562299466027
      ],
      [
        "Ġdemonstrate",
        -9.888683238330405
      ],
      [
        "Ġchannel",
        -9.88868442032739
      ],
      [
        "Ġstraight",
        -9.888686330612549
      ],
      [
        "ĠFirst",
        -9.88892227765033
      ],
      [
        "net",
        -9.890138341507472
      ],
      [
        "Ġdiabetes",
        -9.890202994994436
      ],
      [
        "Ġsupplie",
        -9.890203050579808
      ],
      [
        "ĠJapan",
        -9.890208494230889
      ],
      [
        "Ġbrush",
        -9.890211470251622
      ],
      [
        "Ġbeginning",
        -9.890277176412084
      ],
      [
        "Ġlighting",
        -9.890788303772336
      ],
      [
        "held",
        -9.891754081963942
      ],
      [
        "Ġcraft",
        -9.891854572574392
      ],
      [
        "Ġcultural",
        -9.891863628913748
      ],
      [
        "Ġmill",
        -9.892303070049865
      ],
      [
        "Ġlargest",
        -9.892418509353092
      ],
      [
        "ong",
        -9.892494323811436
      ],
      [
        "Ġfavorite",
        -9.89327617712044
      ],
      [
        "read",
        -9.893748631695615
      ],
      [
        "ĠGu",
        -9.89388229440594
      ],
      [
        "Ġtransform",
        -9.894130194891048
      ],
      [
        "Un",
        -9.894672202361884
      ],
      [
        "ĠPr",
        -9.895285479464476
      ],
      [
        "arch",
        -9.895925989698
      ],
      [
        "Ġaspects",
        -9.89611462518419
      ],
      [
        "Ġfinger",
        -9.896488949628894
      ],
      [
        "Ġdetermin",
        -9.897596653023903
      ],
      [
        "Ġannual",
        -9.899392379603706
      ],
      [
        "Ġremains",
        -9.899754238589171
      ],
      [
        "ark",
        -9.900387446974252
      ],
      [
        "Ġtrade",
        -9.900492270333457
      ],
      [
        "SE",
        -9.900884627700648
      ],
      [
        "Ġconservation",
        -9.90091446997594
      ],
      [
        "gre",
        -9.902327778691667
      ],
      [
        "Ġthick",
        -9.902875007721804
      ],
      [
        "emi",
        -9.903983017332727
      ],
      [
        "Ġnational",
        -9.90401852790263
      ],
      [
        "part",
        -9.905185020401508
      ],
      [
        "Ġcard",
        -9.905337677694064
      ],
      [
        "Ġtrigger",
        -9.905554180816113
      ],
      [
        "cus",
        -9.905948089847897
      ],
      [
        "Ġdepth",
        -9.905953795014272
      ],
      [
        "ĠAdd",
        -9.90605266101646
      ],
      [
        "pen",
        -9.906757773444944
      ],
      [
        "Ġpress",
        -9.907578582832766
      ],
      [
        "verse",
        -9.907782266487004
      ],
      [
        "ĠAccording",
        -9.9078886994549
      ],
      [
        "Ġ{",
        -9.909770141954311
      ],
      [
        "Ġcomfort",
        -9.90990082601964
      ],
      [
        "Ġboost",
        -9.91053030138108
      ],
      [
        "Pro",
        -9.910632005040323
      ],
      [
        "Ġsurrounding",
        -9.911559695019337
      ],
      [
        "Ġutilize",
        -9.91186269148498
      ],
      [
        "OS",
        -9.912657678982072
      ],
      [
        "Ġbatteries",
        -9.91328097521899
      ],
      [
        "ĠGerman",
        -9.913287299081482
      ],
      [
        "Ġdouble",
        -9.913288092653016
      ],
      [
        "Ġkeeping",
        -9.914582243688049
      ],
      [
        "Ġcreative",
        -9.915211376953316
      ],
      [
        "coming",
        -9.915390292115976
      ],
      [
        "Ġdrug",
        -9.915990782010631
      ],
      [
        "lies",
        -9.916018533088652
      ],
      [
        "Ġgun",
        -9.916130566668462
      ],
      [
        "Ġcapture",
        -9.916192923134648
      ],
      [
        "ken",
        -9.916261608466446
      ],
      [
        "electricity",
        -9.916364552625936
      ],
      [
        "Ġfail",
        -9.916435551464993
      ],
      [
        "Ġgrain",
        -9.91665483989981
      ],
      [
        "ĠHar",
        -9.917101319324937
      ],
      [
        "AL",
        -9.917738061835731
      ],
      [
        "Ġclient",
        -9.919528966336522
      ],
      [
        "Ġbooks",
        -9.920411754190734
      ],
      [
        "TH",
        -9.92103947213358
      ],
      [
        "tel",
        -9.921195147413718
      ],
      [
        "ĠDis",
        -9.921373812131622
      ],
      [
        "some",
        -9.921742046983477
      ],
      [
        "Ġmaster",
        -9.922651811022678
      ],
      [
        "Ġletter",
        -9.922698730028024
      ],
      [
        "Ġwonder",
        -9.92283069368003
      ],
      [
        "Ġcovered",
        -9.92366265643834
      ],
      [
        "Ġapart",
        -9.923742308508436
      ],
      [
        "Ġaircraft",
        -9.924378519408728
      ],
      [
        "well",
        -9.925009183338862
      ],
      [
        "Ġdiamond",
        -9.92581056777968
      ],
      [
        "Ġcomp",
        -9.926090125336197
      ],
      [
        "Ġregulation",
        -9.92631443504345
      ],
      [
        "All",
        -9.926899329966538
      ],
      [
        "Ġthreat",
        -9.927084284884138
      ],
      [
        "Ġstaff",
        -9.92740981345554
      ],
      [
        "Ġcolon",
        -9.928023031133511
      ],
      [
        "Ġcreation",
        -9.928024280650616
      ],
      [
        "Ġpack",
        -9.9281086565705
      ],
      [
        "ĠDon",
        -9.92826476472306
      ],
      [
        "ories",
        -9.928283296144262
      ],
      [
        "Ġsession",
        -9.928969793374987
      ],
      [
        "Ġsteam",
        -9.92897156486454
      ],
      [
        "bri",
        -9.929284678947653
      ],
      [
        "back",
        -9.929963192637818
      ],
      [
        "Ġemerg",
        -9.930067887317009
      ],
      [
        "Ġstretch",
        -9.930551859189926
      ],
      [
        "Ġpotato",
        -9.930562805594953
      ],
      [
        "PS",
        -9.931031747869088
      ],
      [
        "Ġnote",
        -9.93133702242919
      ],
      [
        "ĠPlant",
        -9.931538054945968
      ],
      [
        "Ġbreath",
        -9.931576951075044
      ],
      [
        "Ġseed",
        -9.931763829806696
      ],
      [
        "Ġmiles",
        -9.93207701202338
      ],
      [
        "Ġtiny",
        -9.933806849027109
      ],
      [
        "pet",
        -9.934389385100827
      ],
      [
        "AM",
        -9.93484263335531
      ],
      [
        "Ġpin",
        -9.934875590454531
      ],
      [
        "Ġshot",
        -9.935232031447365
      ],
      [
        "@",
        -9.935311721857616
      ],
      [
        "Ġhappy",
        -9.935313136425052
      ],
      [
        "Ġteach",
        -9.935770952056686
      ],
      [
        "Ġwave",
        -9.936191035561148
      ],
      [
        "ough",
        -9.936360654612972
      ],
      [
        "Ġfinancial",
        -9.937006859605004
      ],
      [
        "mor",
        -9.937689457690205
      ],
      [
        "Ġegg",
        -9.93846568278395
      ],
      [
        "Ġprefer",
        -9.938706382410636
      ],
      [
        "Ġindicator",
        -9.939101292140148
      ],
      [
        "Ġdistinct",
        -9.939573455225563
      ],
      [
        "Ġprop",
        -9.939774762971492
      ],
      [
        "ED",
        -9.939899079685228
      ],
      [
        "Ġrandom",
        -9.940100873359352
      ],
      [
        "Ġvaluable",
        -9.940546052887468
      ],
      [
        "Ġatmosphere",
        -9.940833159984749
      ],
      [
        "ically",
        -9.941275428571526
      ],
      [
        "Ġessay",
        -9.941699229472675
      ],
      [
        "Ġju",
        -9.942193672815833
      ],
      [
        "ware",
        -9.94314501594532
      ],
      [
        "Ġgrown",
        -9.94321397400482
      ],
      [
        "Ġfear",
        -9.944203062532033
      ],
      [
        "ĠBu",
        -9.94429148532653
      ],
      [
        "Ġmedicine",
        -9.94490413136775
      ],
      [
        "iness",
        -9.945320980798336
      ],
      [
        "Ġrespect",
        -9.945988587601128
      ],
      [
        "Ġinform",
        -9.947869077188248
      ],
      [
        "Ġaccident",
        -9.948122438568165
      ],
      [
        "Ġseat",
        -9.948227860110697
      ],
      [
        "wide",
        -9.948887801106212
      ],
      [
        "Ġimprov",
        -9.949350710310355
      ],
      [
        "Ġrain",
        -9.949867976984075
      ],
      [
        "Ġcap",
        -9.949932230804876
      ],
      [
        "ney",
        -9.949946938473978
      ],
      [
        "Ġseal",
        -9.95044083073611
      ],
      [
        "ĠUsing",
        -9.951179079638033
      ],
      [
        "Ġinstall",
        -9.952175538950137
      ],
      [
        "Ġattach",
        -9.952687777809397
      ],
      [
        "Ġsurvive",
        -9.952968691917356
      ],
      [
        "Ġaudio",
        -9.953128924143694
      ],
      [
        "Ġrates",
        -9.953176908834646
      ],
      [
        "right",
        -9.953298861527395
      ],
      [
        "Ġhundred",
        -9.954589437161944
      ],
      [
        "Ġblend",
        -9.954605898299988
      ],
      [
        "ĠTi",
        -9.955661018746694
      ],
      [
        "Ġsupplement",
        -9.956212800368515
      ],
      [
        "Ġeventual",
        -9.956488526240047
      ],
      [
        "pot",
        -9.956675014248288
      ],
      [
        "Ġpartner",
        -9.957632843783832
      ],
      [
        "Ġcontrast",
        -9.957839079109434
      ],
      [
        "Ġresource",
        -9.958456273431022
      ],
      [
        "That",
        -9.958689419053762
      ],
      [
        "Ġroutine",
        -9.95946762688013
      ],
      [
        "Ġratio",
        -9.960154682774936
      ],
      [
        "Ġcontroll",
        -9.960617281890912
      ],
      [
        "â",
        -9.961057189101876
      ],
      [
        "Ġsunspot",
        -9.961104509603684
      ],
      [
        "Ġinternal",
        -9.961579630471132
      ],
      [
        "ĠRead",
        -9.961706111269958
      ],
      [
        "-like",
        -9.961980779566645
      ],
      [
        "]ĊĊ",
        -9.96276035051012
      ],
      [
        "rim",
        -9.963011400962545
      ],
      [
        "Ġagree",
        -9.96419076811479
      ],
      [
        "Ġremov",
        -9.964493636692906
      ],
      [
        "Ġmarine",
        -9.964551423387665
      ],
      [
        "ĠHu",
        -9.965067624273937
      ],
      [
        "Ġalone",
        -9.965723220547316
      ],
      [
        "Ġpool",
        -9.966096902178649
      ],
      [
        "uk",
        -9.967451983151694
      ],
      [
        "Î",
        -9.967629082146662
      ],
      [
        "rig",
        -9.967980701924194
      ],
      [
        "Ġtube",
        -9.967983147300924
      ],
      [
        "ĠWi",
        -9.969123222844768
      ],
      [
        "`",
        -9.96929556064532
      ],
      [
        "Ġanxiet",
        -9.96929557381772
      ],
      [
        "LE",
        -9.969546245669008
      ],
      [
        "ĠCol",
        -9.970388180401669
      ],
      [
        "Ġfan",
        -9.970794406864767
      ],
      [
        "ĠMarch",
        -9.971045161292007
      ],
      [
        "Ġbutton",
        -9.971365905683832
      ],
      [
        "Ġcontract",
        -9.97202677418043
      ],
      [
        "Ġactual",
        -9.97254186887399
      ],
      [
        "Ġsecure",
        -9.972596956569635
      ],
      [
        "Ġmeal",
        -9.97262200289783
      ],
      [
        "ought",
        -9.973484842203804
      ],
      [
        "Here",
        -9.975252851606731
      ],
      [
        "Ġpara",
        -9.976329641703671
      ],
      [
        "del",
        -9.976972970367612
      ],
      [
        "Another",
        -9.977240364719483
      ],
      [
        "Ġfeeding",
        -9.97783374321986
      ],
      [
        "ban",
        -9.978529893229393
      ],
      [
        "Ġhighlight",
        -9.978597673395036
      ],
      [
        "Ġmorning",
        -9.979224423328318
      ],
      [
        "dom",
        -9.979955757487977
      ],
      [
        "are",
        -9.9804020477528
      ],
      [
        "Ġcable",
        -9.981178177490596
      ],
      [
        "SI",
        -9.982417320344869
      ],
      [
        "Ġindependent",
        -9.982909168655564
      ],
      [
        "Ġminimum",
        -9.984222409490156
      ],
      [
        "Ġoffering",
        -9.9845393804335
      ],
      [
        "Ġgear",
        -9.984585588342073
      ],
      [
        "Ġupdate",
        -9.985785232690866
      ],
      [
        "Ġconsult",
        -9.98589730481371
      ],
      [
        "After",
        -9.985928797616314
      ],
      [
        "test",
        -9.986535544825582
      ],
      [
        "âĢĻt",
        -9.986982007151344
      ],
      [
        "Ġwildlife",
        -9.987609670278164
      ],
      [
        "DA",
        -9.987679449059476
      ],
      [
        "Ġteacher",
        -9.98768114439718
      ],
      [
        "ĠDay",
        -9.98913687506775
      ],
      [
        "Ġmobile",
        -9.989246736806091
      ],
      [
        "Ġbra",
        -9.989395917188851
      ],
      [
        "Ġaren",
        -9.99038419382957
      ],
      [
        "Ġoperate",
        -9.99090950943332
      ],
      [
        "<",
        -9.990913082498942
      ],
      [
        "Ġconclusion",
        -9.990927032308264
      ],
      [
        "ĠSince",
        -9.99093025182216
      ],
      [
        "maybe",
        -9.991396443939012
      ],
      [
        "Ġwing",
        -9.991657602502402
      ],
      [
        "Com",
        -9.992085557344208
      ],
      [
        "ĠChe",
        -9.99276979176053
      ],
      [
        "tract",
        -9.993295729658154
      ],
      [
        "Ġaware",
        -9.993418586825385
      ],
      [
        "ĠGreat",
        -9.993527588013146
      ],
      [
        "ID",
        -9.994261144709796
      ],
      [
        "Ġmanufacturing",
        -9.994296863671176
      ],
      [
        "Ġroof",
        -9.994297982033013
      ],
      [
        "lay",
        -9.994888516851937
      ],
      [
        "Ġschedule",
        -9.995867900242736
      ],
      [
        "Ġexhibit",
        -9.995986083859234
      ],
      [
        "Ġattend",
        -9.996151618255738
      ],
      [
        "Ġnest",
        -9.996670600641568
      ],
      [
        "Ġclasses",
        -9.997119491892091
      ],
      [
        "ological",
        -9.997397639025776
      ],
      [
        "ĠAm",
        -9.99743244154568
      ],
      [
        "Ġwaves",
        -9.997530373973714
      ],
      [
        "Ġdust",
        -9.998142039447853
      ],
      [
        "Ġsurger",
        -9.998317599133143
      ],
      [
        "Ġchip",
        -9.998322677739896
      ],
      [
        "cular",
        -9.998584225541745
      ],
      [
        "Ġconduct",
        -10.00035002653907
      ],
      [
        "Ġcoat",
        -10.000533737793631
      ],
      [
        "print",
        -10.0008189309922
      ],
      [
        "Ġvirus",
        -10.002139538123233
      ],
      [
        "Ġrid",
        -10.002282283234688
      ],
      [
        "Ġreliabl",
        -10.002834395456018
      ],
      [
        "ĠChina",
        -10.002916104063807
      ],
      [
        "Ġalcohol",
        -10.004475127866352
      ],
      [
        "Ġwidely",
        -10.00481299374322
      ],
      [
        "MA",
        -10.005725662274322
      ],
      [
        "ĠNi",
        -10.007512306775595
      ],
      [
        "ĠDepartment",
        -10.007891062230124
      ],
      [
        "Our",
        -10.0088027514121
      ],
      [
        "Ġdensit",
        -10.00898345002119
      ],
      [
        "body",
        -10.009123565681891
      ],
      [
        "\\u",
        -10.00923949333529
      ],
      [
        "loo",
        -10.009547721221184
      ],
      [
        "Ġfundamental",
        -10.009603423441272
      ],
      [
        "rop",
        -10.010547291624064
      ],
      [
        "round",
        -10.011112259696173
      ],
      [
        "Ġconsume",
        -10.011232571610158
      ],
      [
        "Ġindoor",
        -10.011263141607463
      ],
      [
        "Ġvirtual",
        -10.011318554521525
      ],
      [
        "ĠCount",
        -10.013058297336148
      ],
      [
        "worm",
        -10.013073615175973
      ],
      [
        "Ġbreast",
        -10.013100480801764
      ],
      [
        "Ġcapabilit",
        -10.013128123307569
      ],
      [
        "Ġgold",
        -10.013239789521569
      ],
      [
        "Ġsounds",
        -10.0133836429507
      ],
      [
        "Ġfi",
        -10.013652271095932
      ],
      [
        "Ġfix",
        -10.01372750254586
      ],
      [
        "Ġcars",
        -10.013892106666535
      ],
      [
        "My",
        -10.014497164240408
      ],
      [
        "Ġformed",
        -10.014515216028324
      ],
      [
        "Ġstatement",
        -10.015336267834918
      ],
      [
        "defined",
        -10.01695175977973
      ],
      [
        "Ġinteract",
        -10.017056328329948
      ],
      [
        "iz",
        -10.017914212427698
      ],
      [
        "Ġinfect",
        -10.01792293509632
      ],
      [
        "Ġbug",
        -10.018381243981468
      ],
      [
        "Ġstr",
        -10.018466005373025
      ],
      [
        "ria",
        -10.018550492424367
      ],
      [
        "ably",
        -10.019094323036496
      ],
      [
        "book",
        -10.01949655315138
      ],
      [
        "LA",
        -10.01961524860505
      ],
      [
        "ĠKeep",
        -10.019652528564086
      ],
      [
        "Ġphysic",
        -10.01978542530333
      ],
      [
        "Ġinternational",
        -10.019939422252722
      ],
      [
        "Ġrequest",
        -10.01999646998142
      ],
      [
        "Ġchemicals",
        -10.020102602583163
      ],
      [
        "Ġoperat",
        -10.020163088429983
      ],
      [
        "Par",
        -10.020174220156196
      ],
      [
        "je",
        -10.020220760860582
      ],
      [
        "Ġfarmers",
        -10.021695385083053
      ],
      [
        "Ġmixture",
        -10.021968411949572
      ],
      [
        "Ġinstrument",
        -10.023408841582116
      ],
      [
        "Ġsmart",
        -10.023476688544774
      ],
      [
        "ING",
        -10.024150024412194
      ],
      [
        "Dr",
        -10.024536519042467
      ],
      [
        "ĠJo",
        -10.025139665556466
      ],
      [
        "Ġsecret",
        -10.025147671529822
      ],
      [
        "Ġpreference",
        -10.025345113320904
      ],
      [
        "pat",
        -10.02643904259356
      ],
      [
        "jo",
        -10.026705660798044
      ],
      [
        "ĠFood",
        -10.02756243914843
      ],
      [
        "cont",
        -10.028103436339885
      ],
      [
        "Ġadvice",
        -10.030383291085183
      ],
      [
        "za",
        -10.030397838781608
      ],
      [
        "Ġpilot",
        -10.030454039126598
      ],
      [
        "Ġsports",
        -10.030551931043544
      ],
      [
        "Ġmanual",
        -10.030696939647513
      ],
      [
        "tech",
        -10.031815335679692
      ],
      [
        "ĠAfrican",
        -10.031900010726346
      ],
      [
        "Â",
        -10.031914420898875
      ],
      [
        "Ġcatch",
        -10.031949901006987
      ],
      [
        "ĠGreen",
        -10.032141819682106
      ],
      [
        "Ġwin",
        -10.032274109273777
      ],
      [
        "aving",
        -10.033103415564058
      ],
      [
        "Ġbillion",
        -10.033331316195891
      ],
      [
        "Ġshoes",
        -10.033926714366656
      ],
      [
        "rain",
        -10.034382962902608
      ],
      [
        "off",
        -10.035432807498252
      ],
      [
        "Ġkitchen",
        -10.035646852307336
      ],
      [
        "Ġthread",
        -10.03569332341216
      ],
      [
        ".[",
        -10.036808178498497
      ],
      [
        "ou",
        -10.037667637854693
      ],
      [
        "Ġowners",
        -10.037790501050042
      ],
      [
        "which",
        -10.038271584849031
      ],
      [
        "kept",
        -10.038691877452742
      ],
      [
        "Ġcalorie",
        -10.038941622168757
      ],
      [
        "Ġthrow",
        -10.039261685146478
      ],
      [
        "Ġemotional",
        -10.039816020415774
      ],
      [
        "Ġmold",
        -10.039891153244705
      ],
      [
        "eel",
        -10.04005616530891
      ],
      [
        "Sp",
        -10.0404176437327
      ],
      [
        "Ġgraph",
        -10.040468513239045
      ],
      [
        "Ġlegal",
        -10.04072313493162
      ],
      [
        "Ġcheese",
        -10.040945390457647
      ],
      [
        "ball",
        -10.041141180816874
      ],
      [
        "Ġcrack",
        -10.041462806874456
      ],
      [
        "los",
        -10.042096820162993
      ],
      [
        "/or",
        -10.042353669100278
      ],
      [
        "ood",
        -10.042364406250458
      ],
      [
        "Ġmechanical",
        -10.042442694907106
      ],
      [
        "Ġgoals",
        -10.042559227669807
      ],
      [
        "Ġarray",
        -10.04273931822302
      ],
      [
        "Ġdirt",
        -10.04280064587986
      ],
      [
        "itis",
        -10.043097903126544
      ],
      [
        "ental",
        -10.04360196869892
      ],
      [
        "AS",
        -10.043941079055363
      ],
      [
        "ram",
        -10.044030000862172
      ],
      [
        "Ġkg",
        -10.044194567671733
      ],
      [
        "Ġdiscussion",
        -10.044941035403188
      ],
      [
        "Ġpixel",
        -10.046256959731556
      ],
      [
        "Ġtail",
        -10.046318050873616
      ],
      [
        "Ġbiological",
        -10.046391302931012
      ],
      [
        "Ġjump",
        -10.04641373555411
      ],
      [
        "Ġhabit",
        -10.047749504459324
      ],
      [
        "numerous",
        -10.048036007606571
      ],
      [
        "ĠProgram",
        -10.048121965501029
      ],
      [
        "Ġbrake",
        -10.048352665472247
      ],
      [
        "Ġsuggests",
        -10.04871040762988
      ],
      [
        "Thank",
        -10.049266292243376
      ],
      [
        "eat",
        -10.049366645558097
      ],
      [
        "pul",
        -10.050566511307512
      ],
      [
        "Ġassess",
        -10.051181625796293
      ],
      [
        "Ġprimaril",
        -10.05125633036002
      ],
      [
        "Ġdefinite",
        -10.051604298849554
      ],
      [
        "Ġstar",
        -10.05185338612456
      ],
      [
        "Ġhighest",
        -10.052005757100998
      ],
      [
        "Ġexamine",
        -10.052317148985992
      ],
      [
        "EN",
        -10.052360766944684
      ],
      [
        "Ġzone",
        -10.0534681898577
      ],
      [
        "Ġdangerous",
        -10.053605185937464
      ],
      [
        "ĠJu",
        -10.053943933718411
      ],
      [
        "tail",
        -10.05407216440498
      ],
      [
        "Ġwi",
        -10.054519128525392
      ],
      [
        "Ġbeaut",
        -10.054563752130417
      ],
      [
        "ĠWhether",
        -10.054865045367166
      ],
      [
        "tric",
        -10.054993860254772
      ],
      [
        "Ġinternet",
        -10.055323989143506
      ],
      [
        "Ġscan",
        -10.0560696246865
      ],
      [
        "loc",
        -10.057278038703531
      ],
      [
        "CE",
        -10.057774736992435
      ],
      [
        "stro",
        -10.058066368834098
      ],
      [
        "Ġroute",
        -10.058200482585292
      ],
      [
        "Ġprivate",
        -10.058779175148
      ],
      [
        "ĠHi",
        -10.060044950627177
      ],
      [
        "duction",
        -10.0601915611688
      ],
      [
        "Ġnerve",
        -10.060659019620315
      ],
      [
        "ĠPeople",
        -10.060663334911712
      ],
      [
        "ĠBar",
        -10.061060505124006
      ],
      [
        "Ġattract",
        -10.06210530078011
      ],
      [
        "col",
        -10.06229713905173
      ],
      [
        "producing",
        -10.062348644598671
      ],
      [
        "Ġsamples",
        -10.062380960971048
      ],
      [
        "Ġhydro",
        -10.064036846639894
      ],
      [
        "Ġpowder",
        -10.06419476295894
      ],
      [
        "Ġsteel",
        -10.06421426740637
      ],
      [
        "Ġcrystal",
        -10.064998213696848
      ],
      [
        "ĠApp",
        -10.065919012222594
      ],
      [
        "Ġcomprehensive",
        -10.066117262777295
      ],
      [
        "gg",
        -10.06632215343028
      ],
      [
        "{",
        -10.066476799058588
      ],
      [
        "ĠLight",
        -10.066820438275611
      ],
      [
        "ĠEducation",
        -10.067275751931591
      ],
      [
        "Ġcrop",
        -10.067517444364618
      ],
      [
        "ette",
        -10.068039845535212
      ],
      [
        "Ġplane",
        -10.069528948019126
      ],
      [
        "Ġlaunch",
        -10.069645147634748
      ],
      [
        "Ġtitle",
        -10.0696575129106
      ],
      [
        "Ġtransmission",
        -10.069684571086974
      ],
      [
        "ĠClass",
        -10.07049639198473
      ],
      [
        "Ġformation",
        -10.071098062811789
      ],
      [
        "Ġharvest",
        -10.071460524849734
      ],
      [
        "Ġclassroom",
        -10.071574747683831
      ],
      [
        "Ġvisibl",
        -10.071799245443447
      ],
      [
        "reality",
        -10.072153603801112
      ],
      [
        "ĠHis",
        -10.073234907598652
      ],
      [
        "Figure",
        -10.073407588818212
      ],
      [
        "Answer",
        -10.074123069814249
      ],
      [
        "Ġtests",
        -10.075083888610031
      ],
      [
        "Ġofficial",
        -10.07511556986456
      ],
      [
        "Ġtrust",
        -10.0751454886603
      ],
      [
        "Ġriver",
        -10.075168952530095
      ],
      [
        "><",
        -10.075426651472837
      ],
      [
        "Ġplaying",
        -10.075691395927732
      ],
      [
        "Ġoptimal",
        -10.076945058810134
      ],
      [
        "Ġgather",
        -10.077218102506205
      ],
      [
        "Ġnice",
        -10.077900390116536
      ],
      [
        "ĠSun",
        -10.078369588000555
      ],
      [
        "Ġlock",
        -10.078638126301236
      ],
      [
        "Ġmini",
        -10.078714765727188
      ],
      [
        "Ġwindow",
        -10.078795816649832
      ],
      [
        "Mo",
        -10.079262443475208
      ],
      [
        "Ġrealize",
        -10.07927843164732
      ],
      [
        "rote",
        -10.079335841877516
      ],
      [
        "Exp",
        -10.079827166440111
      ],
      [
        "place",
        -10.080200985974392
      ],
      [
        "Ġincredibl",
        -10.08061827486231
      ],
      [
        "-free",
        -10.080621466318654
      ],
      [
        "Ġextract",
        -10.081655371240863
      ],
      [
        "ĠCat",
        -10.081681987566082
      ],
      [
        "Ġobservation",
        -10.082459628379926
      ],
      [
        "Ġshade",
        -10.083177249262732
      ],
      [
        "Ġpop",
        -10.084113619285407
      ],
      [
        "Ġparticipant",
        -10.084304646945425
      ],
      [
        "Ġtraffic",
        -10.084304653336735
      ],
      [
        "Ġleak",
        -10.08435236167882
      ],
      [
        "Ġparameter",
        -10.08437622429158
      ],
      [
        "Ġeconom",
        -10.084402391396988
      ],
      [
        "Ġstream",
        -10.08582523501611
      ],
      [
        "Ġtechnical",
        -10.086153515980424
      ],
      [
        "script",
        -10.086212474650488
      ],
      [
        "my",
        -10.086456842211929
      ],
      [
        "Ġpolicy",
        -10.086870226787712
      ],
      [
        "Ġsolve",
        -10.08714500602764
      ],
      [
        "Ġsettings",
        -10.087421194274295
      ],
      [
        "AC",
        -10.087521620528054
      ],
      [
        "ĠPlan",
        -10.087799321448728
      ],
      [
        "ĠHer",
        -10.0878312773773
      ],
      [
        "Ġsouth",
        -10.088077247342468
      ],
      [
        "stor",
        -10.089471141366287
      ],
      [
        "Ġemail",
        -10.091721803044177
      ],
      [
        "pel",
        -10.092327914969632
      ],
      [
        "Ġfly",
        -10.092335545256557
      ],
      [
        "graph",
        -10.092913647753427
      ],
      [
        "Ġlooks",
        -10.0933734557132
      ],
      [
        "point",
        -10.093972856949676
      ],
      [
        "Ġtoward",
        -10.09484373789208
      ],
      [
        "Ġzero",
        -10.095451666703994
      ],
      [
        "Ġprocedure",
        -10.095740573988262
      ],
      [
        "oxide",
        -10.096601538767288
      ],
      [
        "glasses",
        -10.096833898350136
      ],
      [
        "Ġfollowed",
        -10.09693525497045
      ],
      [
        "Ġportion",
        -10.096993432366771
      ],
      [
        "ĠPl",
        -10.097310162141827
      ],
      [
        "Ġultimate",
        -10.097315984799124
      ],
      [
        "Ġhelping",
        -10.097509743540254
      ],
      [
        "Ġmeta",
        -10.097544981901358
      ],
      [
        "rew",
        -10.097703104737985
      ],
      [
        "Ġindustrial",
        -10.098257939132488
      ],
      [
        "Ġfoundation",
        -10.09838954058198
      ],
      [
        "Ġshell",
        -10.098398424065442
      ],
      [
        "ool",
        -10.098898477196638
      ],
      [
        "Ġcontinuous",
        -10.099430852686018
      ],
      [
        "Ġdental",
        -10.099654411754424
      ],
      [
        "Ch",
        -10.09977829594212
      ],
      [
        "Ġstring",
        -10.100045238850672
      ],
      [
        "Ġmeeting",
        -10.100888254366565
      ],
      [
        "Ġmelt",
        -10.10162210389323
      ],
      [
        "Ġboundar",
        -10.10214504307979
      ],
      [
        "Ġdigest",
        -10.102443957324128
      ],
      [
        "Ġcollege",
        -10.102944541731476
      ],
      [
        "October",
        -10.10294463106706
      ],
      [
        "Ġstreet",
        -10.102945192851918
      ],
      [
        "ĠApril",
        -10.103184120183627
      ],
      [
        "ĠIndian",
        -10.10320050179104
      ],
      [
        "Ġthousands",
        -10.103556116219345
      ],
      [
        "Ġprogramm",
        -10.103565437609207
      ],
      [
        "Ġcoal",
        -10.103829569615236
      ],
      [
        "Ġsuffer",
        -10.10429870282675
      ],
      [
        "ĠEd",
        -10.104325489539429
      ],
      [
        "Ġancient",
        -10.104336763383916
      ],
      [
        "OL",
        -10.104343967421428
      ],
      [
        "Ġclinical",
        -10.104460934892716
      ],
      [
        "Ġassist",
        -10.104694586554714
      ],
      [
        "ĠVe",
        -10.104699285776457
      ],
      [
        "van",
        -10.104780162980944
      ],
      [
        "Ġautomatic",
        -10.104875970815725
      ],
      [
        "Ġworry",
        -10.105369067955872
      ],
      [
        "een",
        -10.106151504884792
      ],
      [
        "Ġscar",
        -10.106265144511768
      ],
      [
        "Ġdish",
        -10.106483117575362
      ],
      [
        "Ġformula",
        -10.107281737511643
      ],
      [
        "Ġeducational",
        -10.108048297174234
      ],
      [
        "Ġintelligence",
        -10.108538792484769
      ],
      [
        "Conclusion",
        -10.108604936467188
      ],
      [
        "Ġuniverse",
        -10.10860704817076
      ],
      [
        "Ġraw",
        -10.108733105298452
      ],
      [
        "Ġfailure",
        -10.108810606325152
      ],
      [
        "heat",
        -10.109498547513102
      ],
      [
        "ĠTime",
        -10.109622633101289
      ],
      [
        "Ġorganisms",
        -10.11011268816305
      ],
      [
        "Ġstories",
        -10.110263809762634
      ],
      [
        "bot",
        -10.110349196768688
      ],
      [
        "Ġprecise",
        -10.110498931786651
      ],
      [
        "Ġbloom",
        -10.110499706343036
      ],
      [
        "Ġequation",
        -10.110501065894024
      ],
      [
        "Ġcharg",
        -10.110710615546385
      ],
      [
        "ĠMac",
        -10.110877459691997
      ],
      [
        "cat",
        -10.11215803433115
      ],
      [
        "Ġorigin",
        -10.112255820590688
      ],
      [
        "Ġgirl",
        -10.112396410824498
      ],
      [
        "Ġnorth",
        -10.11246256310784
      ],
      [
        "Ġinteraction",
        -10.112509830271447
      ],
      [
        "diversity",
        -10.112583878888376
      ],
      [
        "Ġradiation",
        -10.112717756508657
      ],
      [
        "ĠWell",
        -10.113578646165571
      ],
      [
        "pre",
        -10.113584939082823
      ],
      [
        "oke",
        -10.11429288669541
      ],
      [
        "Ġpollution",
        -10.114622986185022
      ],
      [
        "Ġrisks",
        -10.116823775103846
      ],
      [
        "ĠEnergy",
        -10.11792777381294
      ],
      [
        "Ġengage",
        -10.118004702510223
      ],
      [
        "Ġstain",
        -10.118043411037808
      ],
      [
        "Ġlaser",
        -10.11858911110372
      ],
      [
        "Your",
        -10.118688595810248
      ],
      [
        "Ġwhose",
        -10.118911976036877
      ],
      [
        "ĠMon",
        -10.119141160699034
      ],
      [
        "sol",
        -10.119511343951077
      ],
      [
        "Most",
        -10.119758028426885
      ],
      [
        "ĠChi",
        -10.119992143628
      ],
      [
        "told",
        -10.120021053963155
      ],
      [
        "Ġheal",
        -10.120649190830967
      ],
      [
        "Ġcrops",
        -10.121188411741365
      ],
      [
        "Ġsaying",
        -10.121348453581296
      ],
      [
        "lig",
        -10.12142046594234
      ],
      [
        "Ġperspective",
        -10.121938448033456
      ],
      [
        "Ġeight",
        -10.123188123731197
      ],
      [
        "Ġsurvey",
        -10.123857936037858
      ],
      [
        "nut",
        -10.124524619157915
      ],
      [
        "Ġprepare",
        -10.124738382553383
      ],
      [
        "zi",
        -10.12515417671314
      ],
      [
        "Ġhelpful",
        -10.125584873204524
      ],
      [
        "Ġartificial",
        -10.125780890669931
      ],
      [
        "Ġcoffee",
        -10.12578101091838
      ],
      [
        "Ġcareer",
        -10.125838506380015
      ],
      [
        "ĠBi",
        -10.12594842778056
      ],
      [
        "Ġpolic",
        -10.127939806860516
      ],
      [
        "Me",
        -10.127944222532658
      ],
      [
        "Ġfields",
        -10.128076983787206
      ],
      [
        "ĠUp",
        -10.128414691198463
      ],
      [
        "Ġowner",
        -10.128693764209068
      ],
      [
        "Use",
        -10.128970540690824
      ],
      [
        "even",
        -10.129149147778651
      ],
      [
        "Ġyield",
        -10.1296404540536
      ],
      [
        "Ġvitamin",
        -10.12966952162606
      ],
      [
        "with",
        -10.131516536407156
      ],
      [
        "Instead",
        -10.131572672716612
      ],
      [
        "Ġsmell",
        -10.131701803465958
      ],
      [
        "ĠDesign",
        -10.132076087205425
      ],
      [
        "ĠpH",
        -10.132275548568902
      ],
      [
        "Ġcarefully",
        -10.132327376167666
      ],
      [
        "Ġstandards",
        -10.132672882817287
      ],
      [
        "mate",
        -10.132769565017306
      ],
      [
        "Ġearlier",
        -10.133514187001929
      ],
      [
        "-year",
        -10.133626019911013
      ],
      [
        "Ġaspect",
        -10.133779418795786
      ],
      [
        "Ġobvious",
        -10.1354521433855
      ],
      [
        "Ġmolecular",
        -10.13545229809921
      ],
      [
        "bar",
        -10.135808841536464
      ],
      [
        "ounce",
        -10.13589921731061
      ],
      [
        "|Ċ",
        -10.137349839946207
      ],
      [
        "Ġdestroy",
        -10.137400994146684
      ],
      [
        "Ġcompost",
        -10.137402719092147
      ],
      [
        "Ġguideline",
        -10.137939705895356
      ],
      [
        "phi",
        -10.138892941243846
      ],
      [
        "ĠAustralia",
        -10.13900152954949
      ],
      [
        "Ġadvis",
        -10.139349427614746
      ],
      [
        "ington",
        -10.139483665844876
      ],
      [
        "Ġloose",
        -10.139737678613724
      ],
      [
        "Ġdrugs",
        -10.140170234585757
      ],
      [
        "Ġpar",
        -10.140558058840158
      ],
      [
        "Ġphotos",
        -10.140716333208552
      ],
      [
        "Ġplent",
        -10.14137003143334
      ],
      [
        "Ġbottle",
        -10.14141027358432
      ],
      [
        "Ġlifestyle",
        -10.14153371039177
      ],
      [
        "Ġtight",
        -10.14222404724896
      ],
      [
        "run",
        -10.142285905633573
      ],
      [
        "solv",
        -10.143875149102875
      ],
      [
        "ense",
        -10.143913729933828
      ],
      [
        "ĠDoes",
        -10.144036329814096
      ],
      [
        "room",
        -10.14452879405859
      ],
      [
        "Ġcream",
        -10.145232596937204
      ],
      [
        "Ġappeal",
        -10.145260751814847
      ],
      [
        "Ġprove",
        -10.146248573160047
      ],
      [
        "Ġexternal",
        -10.147260565473186
      ],
      [
        "Ġfair",
        -10.147811314743455
      ],
      [
        "Ġtooth",
        -10.14826220887788
      ],
      [
        "ĠPart",
        -10.148386858914767
      ],
      [
        "Ġupper",
        -10.148438846768848
      ],
      [
        "ache",
        -10.148627841507777
      ],
      [
        "ttle",
        -10.148788203818494
      ],
      [
        "Ġchar",
        -10.14904091612853
      ],
      [
        "eath",
        -10.149843216780198
      ],
      [
        "Ġintend",
        -10.150142726733309
      ],
      [
        "ĠSch",
        -10.150335083079565
      ],
      [
        "Ġtrul",
        -10.150343243047573
      ],
      [
        "Ġplanting",
        -10.15119935005412
      ],
      [
        "Ġneck",
        -10.15129275808466
      ],
      [
        "Ġexperiences",
        -10.151301951856327
      ],
      [
        "gram",
        -10.15191870711056
      ],
      [
        "cellular",
        -10.152088400875506
      ],
      [
        "ister",
        -10.152604909483385
      ],
      [
        "Ġdefine",
        -10.153044146474272
      ],
      [
        "Ġhospital",
        -10.15309965401839
      ],
      [
        "Ġvoice",
        -10.153100110589364
      ],
      [
        "Ġwish",
        -10.15348196552975
      ],
      [
        "Ġscore",
        -10.153917552440864
      ],
      [
        "wood",
        -10.154587342295931
      ],
      [
        "Ġcomposition",
        -10.155085471375486
      ],
      [
        "most",
        -10.15657668784093
      ],
      [
        "Ġconfirm",
        -10.157064320857188
      ],
      [
        "Ġdescription",
        -10.157064826923186
      ],
      [
        "Ġpets",
        -10.157472491401675
      ],
      [
        "long",
        -10.157648838355051
      ],
      [
        "Ġillness",
        -10.15915760869701
      ],
      [
        "Ġchalleng",
        -10.160282577291005
      ],
      [
        "Ġcreatures",
        -10.160762008441717
      ],
      [
        "Ġassessment",
        -10.163605013526812
      ],
      [
        "Ġvessel",
        -10.165042040306766
      ],
      [
        "Ġbeneficial",
        -10.165223849699355
      ],
      [
        "ĠRiver",
        -10.16542759015136
      ],
      [
        "Ġassume",
        -10.165817576067392
      ],
      [
        "ĠAct",
        -10.166103703332382
      ],
      [
        "rib",
        -10.166312240091706
      ],
      [
        "Ġtax",
        -10.166753279520956
      ],
      [
        "Ġembodiment",
        -10.167044098300412
      ],
      [
        "Ġthermal",
        -10.167063396695925
      ],
      [
        "Ġscene",
        -10.167073985126269
      ],
      [
        "Ġlb",
        -10.168492713813844
      ],
      [
        "Ġimprovement",
        -10.169510456872327
      ],
      [
        "Ġlay",
        -10.169708824519294
      ],
      [
        "Many",
        -10.17022255204616
      ],
      [
        "Ġreward",
        -10.171322147420971
      ],
      [
        "Ġeliminate",
        -10.171399871946443
      ],
      [
        "Ġnation",
        -10.17205457004964
      ],
      [
        "ET",
        -10.172721764712891
      ],
      [
        "US",
        -10.17273777524667
      ],
      [
        "Ġcoordinat",
        -10.172856522643338
      ],
      [
        "Ġthorough",
        -10.173080402403462
      ],
      [
        "Ġplayer",
        -10.17485960179619
      ],
      [
        "ĠGroup",
        -10.174966347320725
      ],
      [
        "Ġvaccine",
        -10.17510053782426
      ],
      [
        "tting",
        -10.175142324882607
      ],
      [
        "Ġreduction",
        -10.175210778368584
      ],
      [
        "Ġspray",
        -10.175271778756231
      ],
      [
        "lia",
        -10.175290191723857
      ],
      [
        "ĠLife",
        -10.17597522385891
      ],
      [
        "ĠBoth",
        -10.17671190738175
      ],
      [
        "vol",
        -10.176756369094754
      ],
      [
        "rod",
        -10.177800139543285
      ],
      [
        "train",
        -10.177857969394683
      ],
      [
        "MP",
        -10.178003830010477
      ],
      [
        "?\"",
        -10.178816609300714
      ],
      [
        "Ġreveal",
        -10.178855523063946
      ],
      [
        "ĠBritish",
        -10.179153253737944
      ],
      [
        "Ġfault",
        -10.17915734136634
      ],
      [
        "Ġcircle",
        -10.179461302529702
      ],
      [
        "Ġlift",
        -10.179484430485326
      ],
      [
        "Ġstrain",
        -10.179560939849605
      ],
      [
        "UN",
        -10.1807620267856
      ],
      [
        "Ġ<",
        -10.180854416907469
      ],
      [
        "Ġstatus",
        -10.180899334550125
      ],
      [
        "Ġdimension",
        -10.181185782364828
      ],
      [
        "Ġopinion",
        -10.18118676706001
      ],
      [
        "Ġvs",
        -10.181237875383232
      ],
      [
        "ĠConsider",
        -10.181512029185436
      ],
      [
        "Ġmainly",
        -10.181611304931106
      ],
      [
        "rite",
        -10.182615989791984
      ],
      [
        "Ġbill",
        -10.182817643967876
      ],
      [
        "Ġchoos",
        -10.182886646014635
      ],
      [
        "mag",
        -10.182918737106435
      ],
      [
        "Ġleaf",
        -10.183250509884964
      ],
      [
        "ĠWhere",
        -10.183387709327992
      ],
      [
        "Ġrough",
        -10.18341023090186
      ],
      [
        "Ġawareness",
        -10.183628452575672
      ],
      [
        "exp",
        -10.18380504741144
      ],
      [
        "Ġdress",
        -10.185315659531168
      ],
      [
        "CO",
        -10.185965764376917
      ],
      [
        "ĠBl",
        -10.186315429959194
      ],
      [
        "Yes",
        -10.186540212362647
      ],
      [
        "Finally",
        -10.186653540634818
      ],
      [
        "ĠSha",
        -10.18733332633368
      ],
      [
        "Ġmountain",
        -10.18733574042448
      ],
      [
        "take",
        -10.187659186612407
      ],
      [
        "ĠInter",
        -10.187864480783976
      ],
      [
        "ĠCity",
        -10.188038438395568
      ],
      [
        "epi",
        -10.188050319003546
      ],
      [
        "hol",
        -10.18823215638398
      ],
      [
        "Ġversatil",
        -10.189357468415746
      ],
      [
        "Ġchronic",
        -10.189357509820084
      ],
      [
        "Ġstrip",
        -10.190067160618188
      ],
      [
        "what",
        -10.190194588362049
      ],
      [
        "direct",
        -10.190320103127767
      ],
      [
        "Ġengineering",
        -10.190336852390011
      ],
      [
        "Ġcoast",
        -10.190466983618345
      ],
      [
        "Ġborn",
        -10.190474620044036
      ],
      [
        "ologist",
        -10.19079059163627
      ],
      [
        "Ġpeak",
        -10.19083801942501
      ],
      [
        "Lo",
        -10.19091144156396
      ],
      [
        "see",
        -10.191410506636991
      ],
      [
        "ĠInternational",
        -10.19141078795439
      ],
      [
        "ĠFurther",
        -10.191507864981272
      ],
      [
        "Ġpad",
        -10.191586253113472
      ],
      [
        "ĠGoogle",
        -10.19159163720369
      ],
      [
        "fil",
        -10.191988344089996
      ],
      [
        "ME",
        -10.192536450410156
      ],
      [
        "Ġoccurr",
        -10.192662469390472
      ],
      [
        "Ġrace",
        -10.193375400057874
      ],
      [
        "Ġhazard",
        -10.193468502119837
      ],
      [
        "Ġseven",
        -10.193914261602934
      ],
      [
        "Ġprior",
        -10.194053556922594
      ],
      [
        "Ġtemp",
        -10.19476128299384
      ],
      [
        "lain",
        -10.1955942478291
      ],
      [
        "cro",
        -10.195782464321764
      ],
      [
        "imp",
        -10.196740651351544
      ],
      [
        "Ġallerg",
        -10.19794141771673
      ],
      [
        "Ġrelevant",
        -10.19803213500862
      ],
      [
        "Ġcalci",
        -10.198390222470774
      ],
      [
        "Ġtrial",
        -10.199151336166455
      ],
      [
        "Ġcalculate",
        -10.199464751906618
      ],
      [
        "eek",
        -10.199491411774265
      ],
      [
        "Ġregister",
        -10.19966690982902
      ],
      [
        "ĠWorksheet",
        -10.199681582981016
      ],
      [
        "Ġrecovery",
        -10.200418356904215
      ],
      [
        "ule",
        -10.20074451965348
      ],
      [
        "Ġprepared",
        -10.201071716848404
      ],
      [
        "Ġengag",
        -10.201240766161602
      ],
      [
        "itch",
        -10.20151058495752
      ],
      [
        "Ġlens",
        -10.201682388647452
      ],
      [
        "referred",
        -10.20238843044758
      ],
      [
        "ground",
        -10.202443803097273
      ],
      [
        "graphic",
        -10.202703812062886
      ],
      [
        "Ġpercentage",
        -10.203095166677787
      ],
      [
        "bert",
        -10.203314750132082
      ],
      [
        "Ġmagic",
        -10.203579955907433
      ],
      [
        "()",
        -10.20367866504974
      ],
      [
        "Ġneural",
        -10.20382206826
      ],
      [
        "Ġdream",
        -10.203828158795233
      ],
      [
        "AP",
        -10.204404567824646
      ],
      [
        "Ġfold",
        -10.204668473026889
      ],
      [
        "ĠHome",
        -10.204707248649346
      ],
      [
        "Ġexplor",
        -10.205544775846946
      ],
      [
        "Ġfunctional",
        -10.20576647725886
      ],
      [
        "Ġprinciples",
        -10.205869264909012
      ],
      [
        "Ġcredit",
        -10.20593242563115
      ],
      [
        "Ġlake",
        -10.206693641984
      ],
      [
        "Ġshar",
        -10.206997200752731
      ],
      [
        "Ġcast",
        -10.207132160453536
      ],
      [
        "ĠEast",
        -10.207390694166063
      ],
      [
        "Are",
        -10.207570679296134
      ],
      [
        "Ġboil",
        -10.207771308487835
      ],
      [
        "Ġrelation",
        -10.207876969558056
      ],
      [
        "Ġaudience",
        -10.20799148730756
      ],
      [
        "Ġsunlight",
        -10.208251902065829
      ],
      [
        "Ġevolve",
        -10.208353151346683
      ],
      [
        "Ġadopt",
        -10.208946290772245
      ],
      [
        "Ġpose",
        -10.2094272228452
      ],
      [
        "--",
        -10.20971920434323
      ],
      [
        "Ġobjective",
        -10.209830218667117
      ],
      [
        "struct",
        -10.210070382710484
      ],
      [
        "Ġdeposit",
        -10.210104649102092
      ],
      [
        "Ġnaturally",
        -10.210565515816024
      ],
      [
        "Ġprinting",
        -10.211973462572642
      ],
      [
        "Ġlibrar",
        -10.212192072037364
      ],
      [
        "Ġconstruct",
        -10.21356187805122
      ],
      [
        "Ġcorner",
        -10.213689457134189
      ],
      [
        "Ġdiagnosi",
        -10.216386054029078
      ],
      [
        "ĠCanada",
        -10.216433105100132
      ],
      [
        "Ġinvolv",
        -10.21657320039731
      ],
      [
        "Ġfo",
        -10.217013308738387
      ],
      [
        "ima",
        -10.218393790507823
      ],
      [
        "Ġconversation",
        -10.218495821217306
      ],
      [
        "-friendl",
        -10.21931020530742
      ],
      [
        "Ġamazing",
        -10.220610306984604
      ],
      [
        "âĢĭ",
        -10.220614556347089
      ],
      [
        "Ġpredator",
        -10.220655668306737
      ],
      [
        "Ġfirm",
        -10.220730953700487
      ],
      [
        "hom",
        -10.22074354235527
      ],
      [
        "occ",
        -10.220922203645824
      ],
      [
        "ĠCal",
        -10.220959725628193
      ],
      [
        "ĠSal",
        -10.221488016506122
      ],
      [
        "Ġemotion",
        -10.222056934505622
      ],
      [
        "Ġexcess",
        -10.222208957950029
      ],
      [
        "rom",
        -10.222304324777364
      ],
      [
        "type",
        -10.2225202035118
      ],
      [
        "Ġconcrete",
        -10.22272856739898
      ],
      [
        "Ġextensive",
        -10.222728592271023
      ],
      [
        "Ġleaving",
        -10.222778011944992
      ],
      [
        "power",
        -10.223281968425772
      ],
      [
        "Ġgravit",
        -10.223443209508332
      ],
      [
        "Ġprovider",
        -10.223700346538422
      ],
      [
        "Ġboat",
        -10.223853220093302
      ],
      [
        "count",
        -10.22394061897698
      ],
      [
        "RO",
        -10.224189142423864
      ],
      [
        "Ġscratch",
        -10.224852017982982
      ],
      [
        "Ġtall",
        -10.225295299000877
      ],
      [
        "ĠOut",
        -10.22556160998099
      ],
      [
        "Ġnode",
        -10.226082809507096
      ],
      [
        "Ġkn",
        -10.226672266284224
      ],
      [
        "Ġsurvival",
        -10.226979368171978
      ],
      [
        "Ġmembrane",
        -10.22704928640552
      ],
      [
        "ĠFrench",
        -10.227197435858866
      ],
      [
        "ich",
        -10.227460865451867
      ],
      [
        "Ġdownload",
        -10.227512832450348
      ],
      [
        "ĠAsia",
        -10.22755547786899
      ],
      [
        "Ġbowl",
        -10.227726727739478
      ],
      [
        "ola",
        -10.227992099847883
      ],
      [
        "eration",
        -10.228056722808628
      ],
      [
        "Ġguy",
        -10.228278802369214
      ],
      [
        "ĠTrans",
        -10.228877652938705
      ],
      [
        "ula",
        -10.229083671019426
      ],
      [
        "Ġpregnancy",
        -10.22919237428795
      ],
      [
        "Ġinvestment",
        -10.229549166059854
      ],
      [
        "Ġsold",
        -10.229601119350027
      ],
      [
        "Ġconsequence",
        -10.231248760040792
      ],
      [
        "ĠLED",
        -10.231725235354748
      ],
      [
        "Ġconsideration",
        -10.231763785075614
      ],
      [
        "ĠGuide",
        -10.231911213494657
      ],
      [
        "ĠWash",
        -10.232067503394806
      ],
      [
        "ĠAbout",
        -10.232215311668178
      ],
      [
        "RA",
        -10.23324986101343
      ],
      [
        "Ġworse",
        -10.233643321635864
      ],
      [
        "rine",
        -10.234471317311058
      ],
      [
        "Ġdecline",
        -10.235919987045722
      ],
      [
        "than",
        -10.23648637690568
      ],
      [
        "Ġalter",
        -10.236506108332073
      ],
      [
        "Ġsector",
        -10.236977241678492
      ],
      [
        "standing",
        -10.23714788009943
      ],
      [
        "brough",
        -10.23736425298504
      ],
      [
        "Ġexchange",
        -10.23775404473745
      ],
      [
        "Ġtrait",
        -10.237853817067084
      ],
      [
        "CA",
        -10.237863029736964
      ],
      [
        "clu",
        -10.239905259678755
      ],
      [
        "ĠWest",
        -10.240282026060823
      ],
      [
        "ĠControl",
        -10.241253722335555
      ],
      [
        "Ġnutrition",
        -10.24138713224398
      ],
      [
        "-S",
        -10.24164017130945
      ],
      [
        "Ġabsolute",
        -10.242001103708231
      ],
      [
        "Ġencounter",
        -10.242001112889096
      ],
      [
        "Ġchair",
        -10.242075334236633
      ],
      [
        "metric",
        -10.242597791436832
      ],
      [
        "Ġnovel",
        -10.242751088253566
      ],
      [
        "July",
        -10.243280121962169
      ],
      [
        "&",
        -10.243475927999766
      ],
      [
        "Ġtap",
        -10.244395034011069
      ],
      [
        "oz",
        -10.246478751320268
      ],
      [
        "More",
        -10.246626432488458
      ],
      [
        "Ġmission",
        -10.246770929179718
      ],
      [
        "Ġdelay",
        -10.246925277502536
      ],
      [
        "mil",
        -10.248242232263156
      ],
      [
        "Ġherb",
        -10.248265494563348
      ],
      [
        "Let",
        -10.248691128911808
      ],
      [
        "ĠCD",
        -10.249044592447696
      ],
      [
        "ĠSan",
        -10.249173074287258
      ],
      [
        "Ġsent",
        -10.24981570589633
      ],
      [
        "Ġresolution",
        -10.250079315556013
      ],
      [
        "Ġprofessor",
        -10.2506873656219
      ],
      [
        "Ġrestaurant",
        -10.250687403402267
      ],
      [
        "Last",
        -10.251186393851548
      ],
      [
        "Ġinstallation",
        -10.25195645051976
      ],
      [
        "Over",
        -10.25200922653021
      ],
      [
        "Ġsensitive",
        -10.252309956809912
      ],
      [
        "lov",
        -10.252555225920563
      ],
      [
        "bur",
        -10.252559567068747
      ],
      [
        "ĠPh",
        -10.252734287145437
      ],
      [
        "Ġlaws",
        -10.25285491821502
      ],
      [
        "Ġresident",
        -10.252880534975317
      ],
      [
        "ĠKe",
        -10.254277123316058
      ],
      [
        "NO",
        -10.25446043174252
      ],
      [
        "First",
        -10.254715781421098
      ],
      [
        "Ġestimated",
        -10.254771632567287
      ],
      [
        "\"The",
        -10.255548352626544
      ],
      [
        "Ġengineer",
        -10.25654773527155
      ],
      [
        "Ġcounter",
        -10.256692512368076
      ],
      [
        "-time",
        -10.256855559220556
      ],
      [
        "Ġcm",
        -10.25687713409635
      ],
      [
        "£",
        -10.25725193784766
      ],
      [
        "Ġprofile",
        -10.25726193583205
      ],
      [
        "have",
        -10.2573003530932
      ],
      [
        "ĠJune",
        -10.257316911744915
      ],
      [
        "rot",
        -10.257831283831369
      ],
      [
        "Ġactions",
        -10.25881574146142
      ],
      [
        "ĠEvery",
        -10.258902909534836
      ],
      [
        "Car",
        -10.259048459027486
      ],
      [
        "NC",
        -10.25916670152906
      ],
      [
        "ĠMil",
        -10.259261216142018
      ],
      [
        "Ġpure",
        -10.259435102683687
      ],
      [
        "cognition",
        -10.259449790841728
      ],
      [
        "Ġdatabase",
        -10.259741640227803
      ],
      [
        "Ġloop",
        -10.260297148669329
      ],
      [
        "ĠHave",
        -10.260573041405111
      ],
      [
        "Ġfertilizer",
        -10.260811233327228
      ],
      [
        "Ġargument",
        -10.261652439196112
      ],
      [
[...]
