{
  "version": "1.0",
  "truncation": null,
  "padding": null,
  "added_tokens": [
    {
      "id": 0,
      "content": "<|bos|>",
      "single_word": false,
      "lstrip": false,
      "rstrip": false,
      "normalized": false,
      "special": true
    },
    {
      "id": 1,
      "content": "<|user_start|>",
      "single_word": false,
      "lstrip": false,
      "rstrip": false,
      "normalized": false,
      "special": true
    },
    {
      "id": 2,
      "content": "<|user_end|>",
      "single_word": false,
      "lstrip": false,
      "rstrip": false,
      "normalized": false,
      "special": true
    },
    {
      "id": 3,
      "content": "<|assistant_start|>",
      "single_word": false,
      "lstrip": false,
      "rstrip": false,
      "normalized": false,
      "special": true
    },
    {
      "id": 4,
      "content": "<|assistant_end|>",
      "single_word": false,
      "lstrip": false,
      "rstrip": false,
      "normalized": false,
      "special": true
    },
    {
      "id": 5,
      "content": "<|python_start|>",
      "single_word": false,
      "lstrip": false,
      "rstrip": false,
      "normalized": false,
      "special": true
    },
    {
      "id": 6,
      "content": "<|python_end|>",
      "single_word": false,
      "lstrip": false,
      "rstrip": false,
      "normalized": false,
      "special": true
    },
    {
      "id": 7,
      "content": "<|output_start|>",
      "single_word": false,
      "lstrip": false,
      "rstrip": false,
      "normalized": false,
      "special": true
    },
    {
      "id": 8,
      "content": "<|output_end|>",
      "single_word": false,
      "lstrip": false,
      "rstrip": false,
      "normalized": false,
      "special": true
    },
    {
      "id": 9,
      "content": "<|unk|>",
      "single_word": false,
      "lstrip": false,
      "rstrip": false,
      "normalized": false,
      "special": true
    }
  ],
  "normalizer": null,
  "pre_tokenizer": {
    "type": "Sequence",
    "pretokenizers": [
      {
        "type": "Split",
        "pattern": {
          "Regex": "'(?i:[sdmt]|ll|ve|re)|[^\\r\\n\\p{L}\\p{N}]?+\\p{L}+|\\p{N}{1,2}| ?[^\\s\\p{L}\\p{N}]++[\\r\\n]*|\\s*[\\r\\n]|\\s+(?!\\S)|\\s+"
        },
        "behavior": "Isolated",
        "invert": false
      },
      {
        "type": "ByteLevel",
        "add_prefix_space": false,
        "trim_offsets": true,
        "use_regex": false
      }
    ]
  },
  "post_processor": {
    "type": "TemplateProcessing",
    "single": [
      {
        "Sequence": {
          "id": "A",
          "type_id": 0
        }
      }
    ],
    "pair": [
      {
        "Sequence": {
          "id": "A",
          "type_id": 0
        }
      },
      {
        "Sequence": {
          "id": "B",
          "type_id": 1
        }
      }
    ],
    "special_tokens": {}
  },
  "decoder": {
    "type": "ByteLevel",
    "add_prefix_space": true,
    "trim_offsets": true,
    "use_regex": true
  },
  "model": {
    "type": "Unigram",
    "unk_id": 9,
    "vocab": [
      [
        "<|bos|>",
        0.0
      ],
      [
        "<|user_start|>",
        0.0
      ],
      [
        "<|user_end|>",
        0.0
      ],
      [
        "<|assistant_start|>",
        0.0
      ],
      [
        "<|assistant_end|>",
        0.0
      ],
      [
        "<|python_start|>",
        0.0
      ],
      [
        "<|python_end|>",
        0.0
      ],
      [
        "<|output_start|>",
        0.0
      ],
      [
        "<|output_end|>",
        0.0
      ],
      [
        "<|unk|>",
        0.0
      ],
      [
        "Ġ",
        -2.607850395520032
      ],
      [
        "Ġthe",
        -3.3555245418720645
      ],
      [
        ",",
        -3.3998080986965036
      ],
      [
        ".",
        -3.686346339525723
      ],
      [
        "s",
        -3.8363794501705257
      ],
      [
        "a",
        -3.87918557595458
      ],
      [
        "Ġand",
        -3.89568622604544
      ],
      [
        "Ġto",
        -3.935540417132884
      ],
      [
        "Ġof",
        -3.938424310494204
      ],
      [
        "Ġin",
        -4.456348041513397
      ],
      [
        "Ġis",
        -4.558313692360429
      ],
      [
        "'",
        -4.862620451751839
      ],
      [
        "Ġthat",
        -4.978213642040361
      ],
      [
        "0",
        -4.985392493409227
      ],
      [
        "Ġfor",
        -5.006387242368579
      ],
      [
        "1",
        -5.11550577561075
      ],
      [
        "t",
        -5.1256706755427
      ],
      [
        "Ġare",
        -5.16952370303286
      ],
      [
        ":",
        -5.199155223449319
      ],
      [
        "Ġyou",
        -5.256228924526409
      ],
      [
        "Ċ",
        -5.283343159542142
      ],
      [
        ".Ċ",
        -5.285937472593721
      ],
      [
        "Ġit",
        -5.303104654642599
      ],
      [
        ".ĊĊ",
        -5.316519319792299
      ],
      [
        "2",
        -5.324464382570341
      ],
      [
        "Ġwith",
        -5.332828570460187
      ],
      [
        "-",
        -5.394042827598318
      ],
      [
        "Ġon",
        -5.459012406975001
      ],
      [
        "Ġor",
        -5.470886991313629
      ],
      [
        "Ġcan",
        -5.478217060247555
      ],
      [
        "Ġbe",
        -5.478559665224081
      ],
      [
        "Ġas",
        -5.486457403536454
      ],
      [
        "(",
        -5.590387335495246
      ],
      [
        "Ġyour",
        -5.648258337890299
      ],
      [
        "I",
        -5.651557152551568
      ],
      [
        "ĊĊ",
        -5.669876883335286
      ],
      [
        "\"",
        -5.700995950203918
      ],
      [
        "Ġhave",
        -5.826415345647739
      ],
      [
        "Ġfrom",
        -5.8480746597724576
      ],
      [
        "ĠThe",
        -5.874352955554706
      ],
      [
        "ing",
        -5.892935436898165
      ],
      [
        "i",
        -5.9145036271894185
      ],
      [
        "Ġby",
        -5.925095327594066
      ],
      [
        "o",
        -5.934979202566103
      ],
      [
        "3",
        -5.964108614476302
      ],
      [
        "Ġan",
        -5.98313384001912
      ],
      [
        ")",
        -5.9879311167038
      ],
      [
        "Ġthis",
        -6.008598163276888
      ],
      [
        "5",
        -6.026723280935608
      ],
      [
        "?",
        -6.049024000586968
      ],
      [
        "Ġnot",
        -6.086373725266229
      ],
      [
        "e",
        -6.107274800786083
      ],
      [
        "Ġwill",
        -6.168586634180951
      ],
      [
        "4",
        -6.175164225073342
      ],
      [
        "d",
        -6.1774577059323725
      ],
      [
        "Ġtheir",
        -6.177503589094945
      ],
      [
        "n",
        -6.195482946725072
      ],
      [
        "Ġthey",
        -6.200190626196726
      ],
      [
        "ed",
        -6.209643544556863
      ],
      [
        "A",
        -6.269774172595099
      ],
      [
        "9",
        -6.2760720920759745
      ],
      [
        "Ġmore",
        -6.295487967326141
      ],
      [
        "Ġwas",
        -6.323011864068709
      ],
      [
        "The",
        -6.366125451107646
      ],
      [
        "f",
        -6.382680606028789
      ],
      [
        "6",
        -6.435713788258285
      ],
      [
        "Ġbut",
        -6.438522553785823
      ],
      [
        "Ġwe",
        -6.440666228199019
      ],
      [
        "Ġwhich",
        -6.449906151659025
      ],
      [
        "Ġhas",
        -6.452883734015002
      ],
      [
        "8",
        -6.46845151408338
      ],
      [
        "y",
        -6.524991265887323
      ],
      [
        "Ġone",
        -6.537328691331293
      ],
      [
        "Ġalso",
        -6.541085422100142
      ],
      [
        "Question",
        -6.543705017870563
      ],
      [
        "ĠAnswer",
        -6.567018417340277
      ],
      [
        "7",
        -6.57704745130666
      ],
      [
        "Ġabout",
        -6.6179399485759305
      ],
      [
        "Ġall",
        -6.61918963265458
      ],
      [
        "Ġother",
        -6.673680814176123
      ],
      [
        "Ġwhen",
        -6.707033278069636
      ],
      [
        "ĠIt",
        -6.707690561291583
      ],
      [
        "Ġthem",
        -6.746975932406865
      ],
      [
        "Ġdo",
        -6.758203754913877
      ],
      [
        "m",
        -6.759734964679261
      ],
      [
        "Ġtime",
        -6.76597386489853
      ],
      [
        "ly",
        -6.778790653880531
      ],
      [
        "Ġinto",
        -6.784988808203536
      ],
      [
        "Ġlike",
        -6.786103051539133
      ],
      [
        "ĠThis",
        -6.822506713826661
      ],
      [
        "Ġmay",
        -6.848488150827384
      ],
      [
        "Ġuse",
        -6.852419995415065
      ],
      [
        "Ġup",
        -6.855265292999139
      ],
      [
        "Ġsome",
        -6.864866009184121
      ],
      [
        "Ġthan",
        -6.876204725115281
      ],
      [
        "Ġout",
        -6.881575796920716
      ],
      [
        "ĠWhat",
        -6.898862637094533
      ],
      [
        "Ġthese",
        -6.908124192538477
      ],
      [
        "Ġhow",
        -6.918003827097284
      ],
      [
        "Ġthere",
        -6.957283295792278
      ],
      [
        "Ġused",
        -6.981571174931652
      ],
      [
        "Ġwater",
        -6.986286437052984
      ],
      [
        "re",
        -6.987029653012572
      ],
      [
        "Ġwhat",
        -6.9903754495585275
      ],
      [
        "Ġour",
        -7.012061970339676
      ],
      [
        "Ġits",
        -7.055925847269121
      ],
      [
        "Ġmake",
        -7.056740542601654
      ],
      [
        "Ġsuch",
        -7.058952991191971
      ],
      [
        "Ġwere",
        -7.076660408725193
      ],
      [
        "Ġmost",
        -7.086084558573599
      ],
      [
        "r",
        -7.097741974939726
      ],
      [
        "ĠIn",
        -7.114966543350832
      ],
      [
        "/",
        -7.118023439057854
      ],
      [
        "Ġpeople",
        -7.119793781279283
      ],
      [
        "Ġbeen",
        -7.123022337835721
      ],
      [
        "Ġany",
        -7.140173661537368
      ],
      [
        "Ġhelp",
        -7.159362627253696
      ],
      [
        "Ġshould",
        -7.173867281812974
      ],
      [
        "Ġwould",
        -7.184747636577809
      ],
      [
        "Ġget",
        -7.19706003180522
      ],
      [
        "Ġonly",
        -7.1983601018765295
      ],
      [
        "Ġneed",
        -7.199700054319747
      ],
      [
        "Ġjust",
        -7.212305708879496
      ],
      [
        "Ġmany",
        -7.229736576008607
      ],
      [
        "Ġwho",
        -7.237396258441374
      ],
      [
        "Ġnew",
        -7.239460687879575
      ],
      [
        ";",
        -7.265453478151503
      ],
      [
        "Ġtwo",
        -7.274906503223738
      ],
      [
        "Ġwell",
        -7.2907929687213056
      ],
      [
        "Ġover",
        -7.292431543240639
      ],
      [
        "Ġfirst",
        -7.301092379294278
      ],
      [
        "Ġthrough",
        -7.329532286384033
      ],
      [
        "Ġway",
        -7.341336691983633
      ],
      [
        "Ġmy",
        -7.364556990324806
      ],
      [
        "Ġdifferent",
        -7.366918483981651
      ],
      [
        "Ġbetween",
        -7.369635895955167
      ],
      [
        "Ġwork",
        -7.391530422688106
      ],
      [
        "Ġusing",
        -7.398390045702049
      ],
      [
        "Ġwhere",
        -7.39880104637362
      ],
      [
        "Ġno",
        -7.407843504935245
      ],
      [
        "Ġbecause",
        -7.418673335226787
      ],
      [
        "?Ċ",
        -7.4305498234985485
      ],
      [
        "ĠIf",
        -7.443188723176238
      ],
      [
        "c",
        -7.449430526787275
      ],
      [
        "Ġcould",
        -7.454435936388295
      ],
      [
        "Ġvery",
        -7.469546181545153
      ],
      [
        "he",
        -7.470365842346446
      ],
      [
        "Ġeven",
        -7.48664853313238
      ],
      [
        "ĠThey",
        -7.491365637231425
      ],
      [
        "Ġhigh",
        -7.504864113019371
      ],
      [
        "Ġsystem",
        -7.509838202425593
      ],
      [
        "Ġmuch",
        -7.524501029728169
      ],
      [
        "Ġeach",
        -7.525632994142297
      ],
      [
        "Ġimportant",
        -7.554062358812404
      ],
      [
        "!",
        -7.556833188509426
      ],
      [
        "Ġknow",
        -7.560720066114657
      ],
      [
        "Ġgood",
        -7.563224909689538
      ],
      [
        "In",
        -7.565628091613169
      ],
      [
        "?ĊĊ",
        -7.570131328865745
      ],
      [
        "Ġhad",
        -7.576556014421053
      ],
      [
        "Ġyears",
        -7.591454932506988
      ],
      [
        "Ġdoes",
        -7.593623258864362
      ],
      [
        "ĠâĢĵ",
        -7.593674814966903
      ],
      [
        "ĠYou",
        -7.603485351465462
      ],
      [
        "Ġwhile",
        -7.6085774837871
      ],
      [
        "Ġhis",
        -7.608708512295323
      ],
      [
        "Ġfood",
        -7.613966744851574
      ],
      [
        "Ġtake",
        -7.621624532461222
      ],
      [
        "Ġdon",
        -7.632819239266567
      ],
      [
        "Ġlong",
        -7.63296966497842
      ],
      [
        "p",
        -7.637472440591969
      ],
      [
        ").",
        -7.643174926783567
      ],
      [
        "Ġbeing",
        -7.648475861037291
      ],
      [
        "Ġwant",
        -7.671682688807913
      ],
      [
        "Ġafter",
        -7.6775277084698335
      ],
      [
        "D",
        -7.684355684169702
      ],
      [
        "Ġsee",
        -7.692985744616792
      ],
      [
        "able",
        -7.693619577207167
      ],
      [
        "Ġduring",
        -7.696842264160402
      ],
      [
        "Ġaround",
        -7.698960449483819
      ],
      [
        "Ġbefore",
        -7.7066022634549345
      ],
      [
        "Ġsame",
        -7.708370824360992
      ],
      [
        "b",
        -7.727132120708006
      ],
      [
        "l",
        -7.728273079293189
      ],
      [
        "Ġthose",
        -7.739991005415607
      ],
      [
        "Ġhealth",
        -7.74454543747105
      ],
      [
        "S",
        -7.751168798623024
      ],
      [
        "g",
        -7.759904960795483
      ],
      [
        "Ġoften",
        -7.764583284034343
      ],
      [
        "Ġworld",
        -7.765927886515668
      ],
      [
        "Ġboth",
        -7.768827851167893
      ],
      [
        "Ġlife",
        -7.771322724026833
      ],
      [
        "Ġenergy",
        -7.774181928923948
      ],
      [
        "%",
        -7.778674764679657
      ],
      [
        "Ġdata",
        -7.779480943825156
      ],
      [
        "What",
        -7.779603414799256
      ],
      [
        "Ġbest",
        -7.78984483061603
      ],
      [
        "h",
        -7.795902086281579
      ],
      [
        "Ġprocess",
        -7.796434366460225
      ],
      [
        "Ġfound",
        -7.802117599795983
      ],
      [
        "Ġbody",
        -7.807190505446552
      ],
      [
        "Ġmade",
        -7.812425173975081
      ],
      [
        "Ġback",
        -7.81324495146148
      ],
      [
        "Ġpart",
        -7.832679524778355
      ],
      [
        "),",
        -7.845943681005435
      ],
      [
        "Ġright",
        -7.85428365077979
      ],
      [
        "Ġdown",
        -7.855680617832883
      ],
      [
        "Ġfind",
        -7.85734181082867
      ],
      [
        "Ġlight",
        -7.861541925109192
      ],
      [
        "Ġsmall",
        -7.865393939585397
      ],
      [
        "Ġyear",
        -7.887862059920103
      ],
      [
        "Ġinformation",
        -7.889108621529969
      ],
      [
        "Ġday",
        -7.89145679864896
      ],
      [
        "Ġnumber",
        -7.8975941276619395
      ],
      [
        "Ġsaid",
        -7.901052441072363
      ],
      [
        "ĠWe",
        -7.905752808014197
      ],
      [
        "Ġspecies",
        -7.906541096269956
      ],
      [
        "in",
        -7.907259340124748
      ],
      [
        "ll",
        -7.907520673937984
      ],
      [
        "ĠFor",
        -7.909407201422987
      ],
      [
        "This",
        -7.918197058827623
      ],
      [
        "ĠC",
        -7.918257670735791
      ],
      [
        "Ġprovide",
        -7.927705139656355
      ],
      [
        ":Ċ",
        -7.937804880105361
      ],
      [
        "Ġus",
        -7.938997423173344
      ],
      [
        "Ġmight",
        -7.941624038325006
      ],
      [
        "ve",
        -7.954972776085919
      ],
      [
        "Ġgo",
        -7.966488473176938
      ],
      [
        "ĠThese",
        -7.970225698909685
      ],
      [
        "Ġpower",
        -7.972611801760639
      ],
      [
        "Ġnow",
        -7.974555093179429
      ],
      [
        "Ġhome",
        -7.975904297108146
      ],
      [
        "Ġbetter",
        -7.977721723319153
      ],
      [
        "Ġresearch",
        -7.984016386621766
      ],
      [
        "Ġwithout",
        -7.993340072857141
      ],
      [
        "Ġme",
        -7.998494740606647
      ],
      [
        "Ġchange",
        -8.000479037276225
      ],
      [
        "Ġstudents",
        -8.009564099753167
      ],
      [
        "Ġstill",
        -8.009705608657992
      ],
      [
        "If",
        -8.01210920263226
      ],
      [
        "Ġthink",
        -8.012243190824039
      ],
      [
        "Ġexample",
        -8.012696286271472
      ],
      [
        "Ġher",
        -8.01280941143509
      ],
      [
        "Ġown",
        -8.016385749409157
      ],
      [
        "Ġair",
        -8.01654528098105
      ],
      [
        "Ġplant",
        -8.020195648352885
      ],
      [
        "Ġkeep",
        -8.027858446522835
      ],
      [
        "ĠTo",
        -8.031163475537642
      ],
      [
        "Ġincluding",
        -8.03317501792246
      ],
      [
        "Ġlook",
        -8.034546439139437
      ],
      [
        "Ġevery",
        -8.03731616555265
      ],
      [
        "Ġplants",
        -8.037680195652216
      ],
      [
        "Ġtype",
        -8.03909886882586
      ],
      [
        "Ġmaking",
        -8.04121754243636
      ],
      [
        "How",
        -8.048259443234304
      ],
      [
        "=",
        -8.049271389844638
      ],
      [
        "...",
        -8.057470781410053
      ],
      [
        "Ġcreate",
        -8.060628834561305
      ],
      [
        "Ġstudy",
        -8.061901518177702
      ],
      [
        "Ġfew",
        -8.06494978494011
      ],
      [
        "Ġoff",
        -8.07017936626461
      ],
      [
        "Ġcommon",
        -8.071628720476648
      ],
      [
        "Ġdog",
        -8.075649769595518
      ],
      [
        "Ġless",
        -8.085618191876854
      ],
      [
        "Ġknown",
        -8.087875799811547
      ],
      [
        "Ġthree",
        -8.097086163758432
      ],
      [
        "Ġlarge",
        -8.100567620986205
      ],
      [
        "Ġcause",
        -8.104164237970283
      ],
      [
        ":ĊĊ",
        -8.104652325856721
      ],
      [
        "ĠB",
        -8.108576844728661
      ],
      [
        "ĠBut",
        -8.12046871641633
      ],
      [
        "Ġlot",
        -8.125185097753608
      ],
      [
        "âĢĶ",
        -8.128146876168483
      ],
      [
        "[",
        -8.13101364702128
      ],
      [
        "Ġchildren",
        -8.137003140862547
      ],
      [
        "Ġhuman",
        -8.137250444800822
      ],
      [
        "Ġthings",
        -8.139647866455666
      ],
      [
        "Ġcontrol",
        -8.149429815949206
      ],
      [
        "Ġplace",
        -8.152314327065268
      ],
      [
        "Ġsure",
        -8.154706802587185
      ],
      [
        "Ġset",
        -8.15490489551827
      ],
      [
        "Ġmust",
        -8.15491084273483
      ],
      [
        "ĠAnd",
        -8.158044076380715
      ],
      [
        "Ġgreat",
        -8.158717566956968
      ],
      [
        "x",
        -8.159595471647604
      ],
      [
        "ĠHowever",
        -8.16197132245008
      ],
      [
        "Ġcalled",
        -8.165471723129823
      ],
      [
        "Ġwithin",
        -8.167392507710028
      ],
      [
        "and",
        -8.173885382594625
      ],
      [
        "Ġexperience",
        -8.185493128316491
      ],
      [
        "Ġinclude",
        -8.187548012025363
      ],
      [
        "Ġunder",
        -8.188724228012006
      ],
      [
        "on",
        -8.191091863084754
      ],
      [
        "u",
        -8.19928271671145
      ],
      [
        "k",
        -8.200598625043185
      ],
      [
        "Ġwhy",
        -8.201709419922889
      ],
      [
        "ĠAs",
        -8.20333741142322
      ],
      [
        "Ġreally",
        -8.210604702565115
      ],
      [
        "T",
        -8.211528593340095
      ],
      [
        "Ġsomething",
        -8.212562618110288
      ],
      [
        "$",
        -8.217380363676474
      ],
      [
        "Ġpoint",
        -8.225875474929623
      ],
      [
        "ĠWhen",
        -8.231935061467494
      ],
      [
        "Ġdue",
        -8.232627858361203
      ],
      [
        "Ġfollowing",
        -8.232676289780988
      ],
      [
        "Ġpossible",
        -8.23612639650376
      ],
      [
        "Ġcar",
        -8.237535488013693
      ],
      [
        "Ġanother",
        -8.238609208337046
      ],
      [
        "Ġform",
        -8.240848268222704
      ],
      [
        "Ġbecome",
        -8.247240893652977
      ],
      [
        "Ġcome",
        -8.248353485774683
      ],
      [
        "Ġlow",
        -8.248435051089983
      ],
      [
        "Ġgoing",
        -8.248695353047895
      ],
      [
        "Ġend",
        -8.253182498638273
      ],
      [
        "Ġlevel",
        -8.257854963599875
      ],
      [
        "Ġnatural",
        -8.259838213221029
      ],
      [
        "ĠSo",
        -8.2598391315596
      ],
      [
        "Ġrange",
        -8.267616075623994
      ],
      [
        "Ġhere",
        -8.270361731550897
      ],
      [
        "ĠHow",
        -8.274960511083654
      ],
      [
        "Ġvarious",
        -8.27706754221318
      ],
      [
        "Ġcells",
        -8.2802346443028
      ],
      [
        "Ġstart",
        -8.283641321918838
      ],
      [
        "Ġcare",
        -8.283747941791024
      ],
      [
        "Ġlittle",
        -8.285714679765915
      ],
      [
        "ĠThere",
        -8.28666836158099
      ],
      [
        "Ġalways",
        -8.287891727154008
      ],
      [
        "Ġspecific",
        -8.30263467671195
      ],
      [
        "Ġmeans",
        -8.30348861056954
      ],
      [
        "Ġsize",
        -8.310291636626383
      ],
      [
        "Ġtemperature",
        -8.311329038135204
      ],
      [
        "Ġspace",
        -8.313885307222815
      ],
      [
        "C",
        -8.316175296571169
      ],
      [
        "Ġblood",
        -8.316466219708007
      ],
      [
        "Ġdid",
        -8.318432430875362
      ],
      [
        "or",
        -8.31870052380722
      ],
      [
        "v",
        -8.319651645451891
      ],
      [
        "Ġsupport",
        -8.324615387303835
      ],
      [
        "is",
        -8.32691883825044
      ],
      [
        "Ġdesign",
        -8.327681444134342
      ],
      [
        "the",
        -8.331117101923232
      ],
      [
        "Ġpotential",
        -8.33918690922845
      ],
      [
        "Ġsoil",
        -8.341102041383836
      ],
      [
        "Ġshe",
        -8.347024912127413
      ],
      [
        "Ġavailable",
        -8.347199882577332
      ],
      [
        "Ġenvironment",
        -8.350071103511038
      ],
      [
        "Ġdisease",
        -8.352461971926203
      ],
      [
        "Ġproblem",
        -8.354883599822811
      ],
      [
        "Ġensure",
        -8.356270003212845
      ],
      [
        "&",
        -8.358113242213909
      ],
      [
        "Ġlearn",
        -8.361091564851055
      ],
      [
        "Ġper",
        -8.361404278012113
      ],
      [
        "Ġfeel",
        -8.362850947737037
      ],
      [
        "th",
        -8.365785379181881
      ],
      [
        "Ġseveral",
        -8.366869490341376
      ],
      [
        "Ġmain",
        -8.36764279429791
      ],
      [
        "Ġheat",
        -8.36898565765018
      ],
      [
        "Ġlearning",
        -8.372483166708276
      ],
      [
        "Ġneeds",
        -8.374332665234428
      ],
      [
        "Ġtypes",
        -8.377061492698035
      ],
      [
        "Ġgive",
        -8.378628809091564
      ],
      [
        "Ġbased",
        -8.378918620942118
      ],
      [
        "Ġrisk",
        -8.381361751175717
      ],
      [
        "Ġareas",
        -8.3871765939977
      ],
      [
        "Ġschool",
        -8.387849684610057
      ],
      [
        "Ġsurface",
        -8.388527871871789
      ],
      [
        "Ġdevelopment",
        -8.391588481679008
      ],
      [
        "Ġenough",
        -8.3995076308202
      ],
      [
        "Ġusually",
        -8.406301424627678
      ],
      [
        "Ġquality",
        -8.408140638634872
      ],
      [
        "ĠWhich",
        -8.410119445519907
      ],
      [
        "Ġlast",
        -8.412271762446448
      ],
      [
        "Ġtext",
        -8.412706303155609
      ],
      [
        "Ġanimals",
        -8.421732555257025
      ],
      [
        "Ġconditions",
        -8.424362756277976
      ],
      [
        "Ġcolor",
        -8.426059462147105
      ],
      [
        "When",
        -8.428219619761489
      ],
      [
        "Ġorder",
        -8.439887105632181
      ],
      [
        "Ġside",
        -8.44009216135683
      ],
      [
        "Ġgroup",
        -8.441017527307695
      ],
      [
        "Ġtechnology",
        -8.444415858850029
      ],
      [
        "Ġunderstand",
        -8.4456528651128
      ],
      [
        "Ġsystems",
        -8.452453275305151
      ],
      [
        "Ġpressure",
        -8.459764312759333
      ],
      [
        "Ġmaterials",
        -8.46335852673276
      ],
      [
        "Ġperson",
        -8.474509781549347
      ],
      [
        "Ġsince",
        -8.47885220798664
      ],
      [
        "Ġamount",
        -8.482303438206275
      ],
      [
        "Ġstate",
        -8.482505016877125
      ],
      [
        "Ġtogether",
        -8.483246532982822
      ],
      [
        "Ġuntil",
        -8.48516824324187
      ],
      [
        "Ġimpact",
        -8.4882204993427
      ],
      [
        "Ġcase",
        -8.490519725758594
      ],
      [
        "Ġfish",
        -8.491093083860136
      ],
      [
        "Ġmakes",
        -8.494931419019366
      ],
      [
        "Ġcurrent",
        -8.496604833721298
      ],
      [
        "Ġoil",
        -8.497420344868805
      ],
      [
        "Ġsay",
        -8.49915700102976
      ],
      [
        "+",
        -8.499739067287377
      ],
      [
        "Ġresult",
        -8.500989451752146
      ],
      [
        "Ġincrease",
        -8.504072260935775
      ],
      [
        "Ġfamily",
        -8.505707964261726
      ],
      [
        "Ġlead",
        -8.505948606871803
      ],
      [
        "Ġage",
        -8.506566261650418
      ],
      [
        "Ġmaterial",
        -8.50898746366343
      ],
      [
        "Ġlevels",
        -8.511539602783186
      ],
      [
        "Ġtop",
        -8.511539828668722
      ],
      [
        "Ġessential",
        -8.512030531346385
      ],
      [
        "You",
        -8.512520511495229
      ],
      [
        "Ġaway",
        -8.513217999749472
      ],
      [
        "an",
        -8.51550996865968
      ],
      [
        "Ġproblems",
        -8.516330877044359
      ],
      [
        "Ġtimes",
        -8.516940330494288
      ],
      [
        "Ġhaving",
        -8.525653631934173
      ],
      [
        "Ġnon",
        -8.526095010534931
      ],
      [
        "Ġput",
        -8.526695249253288
      ],
      [
        "Ġsecond",
        -8.528447076007344
      ],
      [
        "Ġnext",
        -8.529838501233687
      ],
      [
        "Ġworking",
        -8.532375713518789
      ],
      [
        "Ġkey",
        -8.533423754388402
      ],
      [
        "]",
        -8.534695357162489
      ],
      [
        "Ġprevent",
        -8.537542163078502
      ],
      [
        "Ġresults",
        -8.539323804560585
      ],
      [
        "Ġhand",
        -8.541063075200219
      ],
      [
        "ĠBy",
        -8.543030782949375
      ],
      [
        "Ġname",
        -8.543366322130634
      ],
      [
        "Ġreduce",
        -8.544762777180772
      ],
      [
        "Ġweight",
        -8.545554948773463
      ],
      [
        "Ġfree",
        -8.546631283515822
      ],
      [
        "Ġproducts",
        -8.551375530997431
      ],
      [
        "Ġtreatment",
        -8.553106004649049
      ],
      [
        "Ġcourse",
        -8.553277813854152
      ],
      [
        "Ġvalue",
        -8.557232273799944
      ],
      [
        "ĠThat",
        -8.558127020133437
      ],
      [
        "Ġhigher",
        -8.558472076262083
      ],
      [
        "Ġearly",
        -8.559433719168883
      ],
      [
        "ĠHe",
        -8.560276161126835
      ],
      [
        "Ġeasy",
        -8.56139608257679
      ],
      [
        "Ġgrowth",
        -8.563610153804971
      ],
      [
        "Ġlikely",
        -8.571008288645562
      ],
      [
        "Ġcomes",
        -8.57553416811542
      ],
      [
        "There",
        -8.575967482303415
      ],
      [
        "Ġteam",
        -8.57758531456635
      ],
      [
        "We",
        -8.577866861377542
      ],
      [
        "Ġmethod",
        -8.578307518574075
      ],
      [
        "Ġlocal",
        -8.578834615092038
      ],
      [
        "Ġdays",
        -8.580279684602496
      ],
      [
        "Ġactually",
        -8.5825331525329
      ],
      [
        "Ġleast",
        -8.585647488961703
      ],
      [
        "âĢĻs",
        -8.585954916858947
      ],
      [
        "Ġline",
        -8.588683497132243
      ],
      [
        "Ġdoesn",
        -8.589393081532755
      ],
      [
        "Ġchild",
        -8.589447997842045
      ],
      [
        "Ġrole",
        -8.589473020724245
      ],
      [
        "ĠUniversity",
        -8.589757018071513
      ],
      [
        "Ġopen",
        -8.590941175968606
      ],
      [
        "Ġlower",
        -8.590990580652447
      ],
      [
        "Ġhealthy",
        -8.592583117337874
      ],
      [
        "Ġshow",
        -8.593599467521292
      ],
      [
        "Ġprogram",
        -8.599925823413596
      ],
      [
        "Ġproject",
        -8.60231478182838
      ],
      [
        "Ġfull",
        -8.602647274152988
      ],
      [
        "Ġtest",
        -8.604001640043423
      ],
      [
        "Ġchanges",
        -8.606552932426926
      ],
      [
        "Ġsimple",
        -8.60705642759087
      ],
      [
        "_",
        -8.609869438229968
      ],
      [
        "Ġplay",
        -8.612444960900671
      ],
      [
        "Ġfuture",
        -8.616193099019808
      ],
      [
        "Ġcost",
        -8.61895742260255
      ],
      [
        "Ġissues",
        -8.62084768009685
      ],
      [
        "Ġthing",
        -8.623863701549842
      ],
      [
        "Ġpresent",
        -8.624389223788826
      ],
      [
        "Ġarea",
        -8.62502387477313
      ],
      [
        "Ġunique",
        -8.634306022544697
      ],
      [
        "Ġproduction",
        -8.635279246575594
      ],
      [
        "Ġespecially",
        -8.635758091220211
      ],
      [
        "Ġmodel",
        -8.635869536131214
      ],
      [
        "Ġalong",
        -8.6359510683403
      ],
      [
        "Ġlive",
        -8.63871737988097
      ],
      [
        "al",
        -8.64028167838037
      ],
      [
        "Ġfield",
        -8.642355077806819
      ],
      [
        "Ġfunction",
        -8.643599811341891
      ],
      [
        "Ġcell",
        -8.644125902640662
      ],
      [
        "Ġabove",
        -8.645868786855152
      ],
      [
        "Ġacross",
        -8.647247646869813
      ],
      [
        "B",
        -8.647683332925055
      ],
      [
        "*",
        -8.649060088153066
      ],
      [
        "Ġdogs",
        -8.656563390251401
      ],
      [
        "Ġdone",
        -8.657646936126094
      ],
      [
        "Ġdamage",
        -8.659115496750257
      ],
      [
        "Ġgrow",
        -8.660104888948453
      ],
      [
        "Ġcertain",
        -8.661541368065544
      ],
      [
        "Ġagainst",
        -8.66172103786045
      ],
      [
        "Ġadd",
        -8.662909665995597
      ],
      [
        "Ġhard",
        -8.665957655130445
      ],
      [
        "Ġgiven",
        -8.667800456569866
      ],
      [
        "ĠWith",
        -8.671135384451862
      ],
      [
        "Ġwhite",
        -8.67181999476978
      ],
      [
        "Ġskin",
        -8.676110275861452
      ],
      [
        "Ġeye",
        -8.677056066323189
      ],
      [
        "To",
        -8.678005390429062
      ],
      [
        "Ġsingle",
        -8.68122971317597
      ],
      [
        "Ġlet",
        -8.681490661857277
      ],
      [
        "Ġnever",
        -8.682759576096387
      ],
      [
        "Ġsocial",
        -8.683118331536761
      ],
      [
        "âĢĵ",
        -8.684202656868946
      ],
      [
        "Ġsource",
        -8.68492753324562
      ],
      [
        "Ġpaper",
        -8.69268859021171
      ],
      [
        "Ġdiet",
        -8.698902746809084
      ],
      [
        "Ġold",
        -8.701853540980919
      ],
      [
        "Ġstep",
        -8.703609063398252
      ],
      [
        "Ġtry",
        -8.709270191145071
      ],
      [
        "Ġphysical",
        -8.71030583434446
      ],
      [
        "Ġeffects",
        -8.711194373571026
      ],
      [
        "ĠM",
        -8.71205062555205
      ],
      [
        "Ġothers",
        -8.714442632815455
      ],
      [
        "Ġbook",
        -8.71476135811333
      ],
      [
        "w",
        -8.715393722074335
      ],
      [
        "us",
        -8.715553236450944
      ],
      [
        "Ġimprove",
        -8.715775945609751
      ],
      [
        "Ġunderstanding",
        -8.717839697105893
      ],
      [
        "Ġbenefits",
        -8.718552112665229
      ],
      [
        ")Ċ",
        -8.721859214164247
      ],
      [
        "Ġsimilar",
        -8.722317763788903
      ],
      [
        "Ġlooking",
        -8.724009324478256
      ],
      [
        "Ġconsider",
        -8.724851984608652
      ],
      [
        "Ġsays",
        -8.726193152051922
      ],
      [
        "Ġsignificant",
        -8.726218190755528
      ],
      [
        "Ġclimate",
        -8.728313289629838
      ],
      [
        "Ġfar",
        -8.729669766646895
      ],
      [
        "Ġfactors",
        -8.730017747138257
      ],
      [
        "eat",
        -8.730300022343242
      ],
      [
        "O",
        -8.73075680281748
      ],
      [
        "Ġways",
        -8.733411452122294
      ],
      [
        "ĠYour",
        -8.735596449460134
      ],
      [
        "Ġfact",
        -8.736574679199226
      ],
      [
        "Ġtraining",
        -8.737030893488866
      ],
      [
        "Ġproduce",
        -8.737302537154218
      ],
      [
        "For",
        -8.73766851212376
      ],
      [
        "Ġreal",
        -8.740759119909551
      ],
      [
        "ĠSome",
        -8.741891388756805
      ],
      [
        "Ġeither",
        -8.748078054518587
      ],
      [
        "Ġdesigned",
        -8.748179272869793
      ],
      [
        "ĠNew",
        -8.751762016627612
      ],
      [
        "Ġmillion",
        -8.752043096315957
      ],
      [
        "!ĊĊ",
        -8.752251838106897
      ],
      [
        "Ġanimal",
        -8.755662519216928
      ],
      [
        "ers",
        -8.75630635579493
      ],
      [
        "Ġonce",
        -8.760581627193705
      ],
      [
        "Ġcomputer",
        -8.761254247245414
      ],
      [
        "Ġfurther",
        -8.762147087179835
      ],
      [
        "Ġparts",
        -8.762281957068216
      ],
      [
        "Ġaccording",
        -8.764361806279675
      ],
      [
        "Ġaddition",
        -8.764813559494865
      ],
      [
        "Ġtoday",
        -8.765332758255829
      ],
      [
        "Ġfour",
        -8.76566080699615
      ],
      [
        "Ġshort",
        -8.766539061564067
      ],
      [
        "Ġscience",
        -8.768015556150152
      ],
      [
        "Ġspeed",
        -8.768780590748335
      ],
      [
        "Ġperformance",
        -8.77015053816201
      ],
      [
        "Ġleft",
        -8.772391638592937
      ],
      [
        "Ġhead",
        -8.77461112171914
      ],
      [
        "Ġheart",
        -8.776547381356684
      ],
      [
        "Ġwhether",
        -8.776821210763543
      ],
      [
        "Ġoffer",
        -8.7781655720733
      ],
      [
        "Ġeffective",
        -8.77919236293615
      ],
      [
        "Ġground",
        -8.780122298026308
      ],
      [
        "Ġread",
        -8.780402965185854
      ],
      [
        "Ġmove",
        -8.781082565153447
      ],
      [
        "Ġgetting",
        -8.782199182998507
      ],
      [
        "Ġdifference",
        -8.782670577686677
      ],
      [
        "Ġgame",
        -8.783585039485912
      ],
      [
        "Ġhim",
        -8.783908645546607
      ],
      [
        "Ġallows",
        -8.787947339173982
      ],
      [
        "Ġeffect",
        -8.788030270930287
      ],
      [
        "Ġproduct",
        -8.788783099681563
      ],
      [
        "ĠP",
        -8.789495638068841
      ],
      [
        "ness",
        -8.793164734041646
      ],
      [
        "Ġnecessary",
        -8.793410754800703
      ],
      [
        "Ġgas",
        -8.795431546658731
      ],
      [
        "Ġskills",
        -8.797343346693243
      ],
      [
        "Ġbelow",
        -8.797549850220003
      ],
      [
        "Ġvariety",
        -8.798056690365227
      ],
      [
        "Ġability",
        -8.800854902064192
      ],
      [
        "Ġindividual",
        -8.802841199627677
      ],
      [
        "Ġapproach",
        -8.80288519633225
      ],
      [
        "ĠE",
        -8.805127031909478
      ],
      [
        "Ġclean",
        -8.80583549750577
      ],
      [
        "Ġaccess",
        -8.806826174739218
      ],
      [
        "Ġimage",
        -8.807317247959368
      ],
      [
        "Ġquestion",
        -8.808311600695411
      ],
      [
        "Ġloss",
        -8.809606646672087
      ],
      [
        "ĠU",
        -8.810605078381531
      ],
      [
        "Ġhelps",
        -8.811331139798137
      ],
      [
        "Ġtree",
        -8.811429553156483
      ],
      [
        "Ġrate",
        -8.813940201629014
      ],
      [
        "Ġcat",
        -8.815714339888084
      ],
      [
        "Ġavoid",
        -8.81715179955798
      ],
      [
        "Ġprovides",
        -8.820200348800944
      ],
      [
        ")ĊĊ",
        -8.820841056353643
      ],
      [
        "Ġbig",
        -8.82213353695965
      ],
      [
        "Ġalready",
        -8.822852376339
      ],
      [
        "Ġfocus",
        -8.82381525824946
      ],
      [
        "Ġallow",
        -8.826079229529542
      ],
      [
        "Ġhours",
        -8.826947143075776
      ],
      [
        "Ġturn",
        -8.82729737268822
      ],
      [
        "Ġun",
        -8.828505674944507
      ],
      [
        "Ġcontent",
        -8.829584301324214
      ],
      [
        "Ġcommunity",
        -8.829713655371762
      ],
      [
        "Ġdry",
        -8.829807337731541
      ],
      [
        "to",
        -8.83150750120853
      ],
      [
        "Ġlove",
        -8.832098937839337
      ],
      [
        "Ġsafe",
        -8.832532038525992
      ],
      [
        "Ġamong",
        -8.833785165874167
      ],
      [
        "Ġsafety",
        -8.834854755087779
      ],
      [
        "Ġbrain",
        -8.835171448300965
      ],
      [
        "Ġrun",
        -8.835570304038534
      ],
      [
        "Ġhistory",
        -8.836012947910655
      ],
      [
        "Ġneeded",
        -8.836462582098072
      ],
      [
        "Ġreason",
        -8.83952339920775
      ],
      [
        "ĠIs",
        -8.840068424545342
      ],
      [
        "Ġblack",
        -8.84148687177988
      ],
      [
        "Ġdevelop",
        -8.842423357565814
      ],
      [
        "Ġfeatures",
        -8.84369992086648
      ],
      [
        "Ġrequire",
        -8.84414184313293
      ],
      [
        "Ġdoing",
        -8.845677886619185
      ],
      [
        "Ġindustry",
        -8.848550755807906
      ],
      [
        "Ġthough",
        -8.848880419043937
      ],
      [
        "Ġkind",
        -8.854674496735822
      ],
      [
        "Ġinside",
        -8.855091503593101
      ],
      [
        "Ġpublic",
        -8.85717728005621
      ],
      [
        "Ġpain",
        -8.858088994480319
      ],
      [
        "Ġcheck",
        -8.859625979607744
      ],
      [
        "Ġarticle",
        -8.859720011400526
      ],
      [
        "ĠOne",
        -8.859927880539216
      ],
      [
        "Ġcarbon",
        -8.860266789520978
      ],
      [
        "Ġstructure",
        -8.861196425962333
      ],
      [
        "Ġuser",
        -8.862963407434382
      ],
      [
        "Ġcontinue",
        -8.864080824854932
      ],
      [
        "Ġsymptoms",
        -8.86512256976532
      ],
      [
        "Ġseen",
        -8.866026001368457
      ],
      [
        "Ġrequired",
        -8.867385609000642
      ],
      [
        "Ġknowledge",
        -8.868300491953276
      ],
      [
        "Ġpopular",
        -8.868493387616224
      ],
      [
        "Ġmajor",
        -8.869352273547047
      ],
      [
        "Ġonline",
        -8.870045528741139
      ],
      [
        "Ġmean",
        -8.870152710057393
      ],
      [
        "Ġleaves",
        -8.871959469820151
      ],
      [
        "Ġactivities",
        -8.872723680498629
      ],
      [
        "Ġbit",
        -8.874610790836563
      ],
      [
        "Ġgarden",
        -8.875988107237072
      ],
      [
        "Ġsound",
        -8.87729134184931
      ],
      [
        "Ġbuilding",
        -8.877990089720674
      ],
      [
        "Ġidea",
        -8.878252486213905
      ],
      [
        "Ġlonger",
        -8.881297218057231
      ],
      [
        "ies",
        -8.883835442596403
      ],
      [
        "ĠAmerican",
        -8.887266449240641
      ],
      [
        "!Ċ",
        -8.888174063853148
      ],
      [
        "ĠAI",
        -8.888952562337428
      ],
      [
        "M",
        -8.889347030843624
      ],
      [
        "Ġagain",
        -8.889392513351838
      ],
      [
        "Ġred",
        -8.890207661579149
      ],
      [
        "Ġbusiness",
        -8.893847434361694
      ],
      [
        "Ġtools",
        -8.895124121643747
      ],
      [
        "Ġresearchers",
        -8.896900639661423
      ],
      [
        "P",
        -8.8987394281544
      ],
      [
        "Ġquestions",
        -8.89952306515436
      ],
      [
        "Ġactivity",
        -8.901022586444032
      ],
      [
        "Ġgreen",
        -8.903353310265594
      ],
      [
        "Ġcompany",
        -8.903425383754437
      ],
      [
        "Ġwhole",
        -8.90624121478452
      ],
      [
        "Ġmatter",
        -8.909722639092177
      ],
      [
        "ĠNo",
        -8.910367217135585
      ],
      [
        "Ġtaking",
        -8.912467437247926
      ],
      [
        "Ġliving",
        -8.913467478825527
      ],
      [
        "Ġsomeone",
        -8.916466906323311
      ],
      [
        "Ġmethods",
        -8.917816555485254
      ],
      [
        "Ġnature",
        -8.918010730359935
      ],
      [
        "Ġenvironmental",
        -8.919299905687822
      ],
      [
        "Ġclose",
        -8.923481855901352
      ],
      [
        "Ġclass",
        -8.923933396444838
      ],
      [
        "Ġtypically",
        -8.925536519787245
      ],
      [
        "Ġmind",
        -8.92622634047169
      ],
      [
        "Ġeasily",
        -8.928435594896182
      ],
      [
        "Ġvideo",
        -8.933741917868954
      ],
      [
        "Ġmonths",
        -8.934349194080962
      ],
      [
        "Ġperiod",
        -8.934871693991573
      ],
      [
        "Ġself",
        -8.935318402921407
      ],
      [
        "Ġever",
        -8.936776758422091
      ],
      [
        "Ġtell",
        -8.94058790263239
      ],
      [
        "Ġindividuals",
        -8.9411668658138
      ],
      [
        "Ġhumans",
        -8.941309747762293
      ],
      [
        "Ġroom",
        -8.941663361063963
      ],
      [
        "Ġclear",
        -8.945042619537048
      ],
      [
        "Ġsolution",
        -8.945138716531412
      ],
      [
        "Ġtrees",
        -8.946535720907338
      ],
      [
        "Ġassociated",
        -8.946673545143716
      ],
      [
        "Ġgrowing",
        -8.947155484676065
      ],
      [
        "Ġanswer",
        -8.949579622993506
      ],
      [
        "Ġaverage",
        -8.949818359657133
      ],
      [
        "Ġdevice",
        -8.950657076353108
      ],
      [
        ".\"ĊĊ",
        -8.95149731124875
      ],
      [
        "Ġgeneral",
        -8.952583105546374
      ],
      [
        "Ġcancer",
        -8.952618819490194
      ],
      [
        "Ġmoney",
        -8.95287511658465
      ],
      [
        "Ġmedical",
        -8.953211841239265
      ],
      [
        "Ġmanagement",
        -8.955192691174357
      ],
      [
        "Ġconsidered",
        -8.958570200188305
      ],
      [
        "ĠR",
        -8.961127323647105
      ],
      [
        "Ġoverall",
        -8.961387967060592
      ],
      [
        "Ġcold",
        -8.961595745424583
      ],
      [
        "Ġmarket",
        -8.962158807083041
      ],
      [
        "Ġcrucial",
        -8.96311216255213
      ],
      [
        "Ġstrong",
        -8.964057089495514
      ],
      [
        "Ġservice",
        -8.96439100089017
      ],
      [
        "Ġchoose",
        -8.964725322806748
      ],
      [
        "Ġminutes",
        -8.96525391731826
      ],
      [
        "Ġetc",
        -8.966549236107838
      ],
      [
        "Ġtechniques",
        -8.96691391850033
      ],
      [
        "Ġrather",
        -8.967195709322226
      ],
      [
        "Ġcases",
        -8.967438445864717
      ],
      [
        "Ġsense",
        -8.967596847320678
      ],
      [
        "Ġweek",
        -8.968551628694453
      ],
      [
        "Ġdifficult",
        -8.969976931328365
      ],
      [
        "Ġpositive",
        -8.971119510278596
      ],
      [
        "Ġpast",
        -8.972286821294295
      ],
      [
        "Ġresources",
        -8.972660063041458
      ],
      [
        "Ġpopulation",
        -8.973106153533182
      ],
      [
        "Ġpractice",
        -8.973248759827708
      ],
      [
        "Ġhouse",
        -8.974302272368647
      ],
      [
        "Ġpost",
        -8.978091239097882
      ],
      [
        "Ġbuild",
        -8.978754419359683
      ],
      [
        "Ġcreating",
        -8.981520598397914
      ],
      [
        "Ġprimary",
        -8.985077881815
      ],
      [
        "Ġpatients",
        -8.985470329989901
      ],
      [
        "So",
        -8.98692048000284
      ],
      [
        "Ġcomplex",
        -8.987517685078085
      ],
      [
        "Ġengine",
        -8.988719688397811
      ],
      [
        "Ġcondition",
        -8.988882493836295
      ],
      [
        "Ġplan",
        -8.989477630151297
      ],
      [
        "Ġbelieve",
        -8.989853148737707
      ],
      [
        "Ġprotein",
        -8.99000260542032
      ],
      [
        "Ġissue",
        -8.990993339358745
      ],
      [
        "Ġhowever",
        -8.991480938462772
      ],
      [
        "-based",
        -8.992637837750332
      ],
      [
        "Ġwomen",
        -8.993562831905
      ],
      [
        "|",
        -8.993762181374242
      ],
      [
        "Ġhot",
        -8.994261507635667
      ],
      [
        "Ġtraditional",
        -8.995168181448783
      ],
      [
        "Ġquickly",
        -8.99622674707092
      ],
      [
        "Ġthroughout",
        -8.997592863444332
      ],
      [
        "Ġyourself",
        -8.999342737168353
      ],
      [
        "Ġcut",
        -8.999665596394626
      ],
      [
        "ĠF",
        -9.006569687965236
      ],
      [
        "Ġcontact",
        -9.007089527757847
      ],
      [
        "Ġremove",
        -9.007675458470972
      ],
      [
        "Ġprofessional",
        -9.00968475179306
      ],
      [
        "Ġyoung",
        -9.010369238210131
      ],
      [
        "Ġlayer",
        -9.010688692666784
      ],
      [
        "z",
        -9.014672721267614
      ],
      [
        "ĠAn",
        -9.015681056554907
      ],
      [
        "Ġnear",
        -9.017433929172045
      ],
      [
        "Ġstress",
        -9.017875455177329
      ],
      [
        "Ġoutside",
        -9.019477484632226
      ],
      [
        "Ġmachine",
        -9.02040416512114
      ],
      [
        "Ġmultiple",
        -9.021379563109567
      ],
      [
        "âĢ¢",
        -9.023631932631538
      ],
      [
        "Ġincreased",
        -9.02569927027308
      ],
      [
        "Ġsimply",
        -9.026060943036336
      ],
      [
        "Ġprobably",
        -9.028899864502495
      ],
      [
        "E",
        -9.029792819281926
      ],
      [
        "Ġshape",
        -9.030054399401136
      ],
      [
        "ĠWhile",
        -9.030555527249527
      ],
      [
        "W",
        -9.030922829800314
      ],
      [
        "Ġdeveloped",
        -9.03283099572048
      ],
      [
        "Ġlist",
        -9.034096921071562
      ],
      [
        "Ġpet",
        -9.035905303217971
      ],
      [
        "Ġrelated",
        -9.038737986196198
      ],
      [
        "Ġoptions",
        -9.039069410364643
      ],
      [
        "Ġart",
        -9.039332767222309
      ],
      [
        "Ġflow",
        -9.039683841959413
      ],
      [
        "Ġcannot",
        -9.040268869268482
      ],
      [
        "Ġspecial",
        -9.040977892192323
      ],
      [
        "Ġcreated",
        -9.042103826816495
      ],
      [
        "Ġfeet",
        -9.043490170348202
      ],
      [
        ".\"Ċ",
        -9.043504884641628
      ],
      [
        "Ġstudies",
        -9.044145740747474
      ],
      [
        "Ġbirds",
        -9.044673290049802
      ],
      [
        "Ġworks",
        -9.047997328731087
      ],
      [
        "Ġhold",
        -9.048799317908374
      ],
      [
        "Ġwide",
        -9.05053166263909
      ],
      [
        "Ġparticular",
        -9.054080090624716
      ],
      [
        "Ġbehavior",
        -9.054466514437674
      ],
      [
        "Ġwaste",
        -9.05579415913198
      ],
      [
        "Ġalmost",
        -9.056410579244584
      ],
      [
        "ĠAt",
        -9.057058302199843
      ],
      [
        "Ġeducation",
        -9.057086772864846
      ],
      [
        "Ġland",
        -9.059112333715987
      ],
      [
        "Ġwinter",
        -9.059149060858092
      ],
      [
        "One",
        -9.061206879393309
      ],
      [
        "Ġincludes",
        -9.06214653240087
      ],
      [
        "Ġtool",
        -9.062791891763338
      ],
      [
        "Ġdetermine",
        -9.063301974012376
      ],
      [
        "Ġfuel",
        -9.063726121597288
      ],
      [
        "Ġnormal",
        -9.064381656029644
      ],
      [
        "ĠUnited",
        -9.065285020056624
      ],
      [
        "Ġposition",
        -9.066646460962517
      ],
      [
        "Ġgot",
        -9.067015962414578
      ],
      [
        "Ġthought",
        -9.06707623937829
      ],
      [
        "Ġtotal",
        -9.067416628489402
      ],
      [
        "Ġprotect",
        -9.067779341560492
      ],
      [
        "Ġinstead",
        -9.068333263279069
      ],
      [
        ">",
        -9.06846848394324
      ],
      [
        "Ġcall",
        -9.069706177472922
      ],
      [
        "Ġsite",
        -9.07125952020484
      ],
      [
        "Ġattention",
        -9.07198601458523
      ],
      [
        "ity",
        -9.072184222953668
      ],
      [
        "Ġfive",
        -9.073667002104868
      ],
      [
        "Ġelements",
        -9.073852174124411
      ],
      [
        "Ġlarger",
        -9.074079910960918
      ],
      [
        "Ġservices",
        -9.074837758744229
      ],
      [
        "Ġhalf",
        -9.07591621033914
      ],
      [
        "Ġmodern",
        -9.07630095507263
      ],
      [
        "Ġauthor",
        -9.07705558525582
      ],
      [
        "Ġdeep",
        -9.07766413719809
      ],
      [
        "Ġbasic",
        -9.08378665238826
      ],
      [
        "Ġwon",
        -9.085415083888718
      ],
      [
        "Ġlater",
        -9.087423247122072
      ],
      [
        "Ġchoice",
        -9.08867843303806
      ],
      [
        "Ġglobal",
        -9.089981987631552
      ],
      [
        "ĠH",
        -9.090881099936542
      ],
      [
        "Ġpersonal",
        -9.092537565822475
      ],
      [
        "ĠNational",
        -9.094701954397449
      ],
      [
        "Ġchemical",
        -9.096207743468526
      ],
      [
        "Ġmaintain",
        -9.096405231598023
      ],
      [
        "Ġcompared",
        -9.096543112134736
      ],
      [
        "Ġscientists",
        -9.098734401071736
      ],
      [
        "F",
        -9.10099786786397
      ],
      [
        "Ġshown",
        -9.104058857510571
      ],
      [
        "Ġsometimes",
        -9.10583174269736
      ],
      [
        "Ġface",
        -9.105912252388933
      ],
      [
        ").Ċ",
        -9.107022409973531
      ],
      [
        "Ġapplications",
        -9.107521934008746
      ],
      [
        "Ġproviding",
        -9.107734597531712
      ],
      [
        "Ġcauses",
        -9.109113282624158
      ],
      [
        "#",
        -9.109380324171566
      ],
      [
        "Ġanything",
        -9.1096302347185
      ],
      [
        "Ġyet",
        -9.109699205864716
      ],
      [
        "Ġeverything",
        -9.110828395987584
      ],
      [
        "Q",
        -9.112127518367148
      ],
      [
        "Ġcomplete",
        -9.11357522273785
      ],
      [
        "Ġtrue",
        -9.113652713993302
      ],
      [
        "ĠAll",
        -9.114421781202775
      ],
      [
        "Ġbattery",
        -9.115301988537537
      ],
      [
        "Ġeyes",
        -9.115527181116526
      ],
      [
        "Ġpercent",
        -9.116687458808574
      ],
      [
        "Ġtakes",
        -9.117000694319248
      ],
      [
        "Ġmetal",
        -9.117276142181792
      ],
      [
        "ĠDo",
        -9.117958820407893
      ],
      [
        "Ġstay",
        -9.119222883560742
      ],
      [
        "Ġcountry",
        -9.122362780418548
      ],
      [
        "Ġregular",
        -9.123649181930851
      ],
      [
        "Ġshows",
        -9.12368335414148
      ],
      [
        "Ġadditional",
        -9.125330365873957
      ],
      [
        "Ġcaused",
        -9.12564556731254
      ],
      [
        "Ġshare",
        -9.126006739371912
      ],
      [
        "Ġcode",
        -9.12673490730294
      ],
      [
        "Ġquite",
        -9.126834035079703
      ],
      [
        "Ġweather",
        -9.127207270160694
      ],
      [
        "Ġgenerally",
        -9.128040723739671
      ],
      [
        "Ġlanguage",
        -9.129407533382146
      ],
      [
        "Ġaffect",
        -9.12991157470922
      ],
      [
        "Ġtaken",
        -9.13359607386412
      ],
      [
        "Ġequipment",
        -9.134651994703422
      ],
      [
        "Ġbacteria",
        -9.134815232696418
      ],
      [
        "Ġcomponents",
        -9.136225058401518
      ],
      [
        "Ġsoftware",
        -9.138977326518836
      ],
      [
        "Ġanalysis",
        -9.139716865357816
      ],
      [
        "ĠHere",
        -9.140234833108922
      ],
      [
        "Ġdevices",
        -9.141084457532957
      ],
      [
        "Ġsummer",
        -9.14189255604135
      ],
      [
        "ĠG",
        -9.142146939208317
      ],
      [
        "Ġdigital",
        -9.142910211945589
      ],
      [
        "Ġbad",
        -9.143773502430554
      ],
      [
        "Ġoffers",
        -9.146821236724763
      ],
      [
        "Ġstarted",
        -9.147129228058276
      ],
      [
        "Ġsea",
        -9.149330829690268
      ],
      [
        "âĢ¦",
        -9.15146059987518
      ],
      [
        "Ġterm",
        -9.153427866118246
      ],
      [
        "Ġago",
        -9.153568282529122
      ],
      [
        "Why",
        -9.154524760700404
      ],
      [
        "Ġperfect",
        -9.155250340931696
      ],
      [
        "Ġterms",
        -9.15697843822534
      ],
      [
        "Ġbring",
        -9.15778630068593
      ],
      [
        "Ġenjoy",
        -9.158480994325007
      ],
      [
        "Ġreading",
        -9.158667834480584
      ],
      [
        "it",
        -9.159024599149122
      ],
      [
        "Ġtrying",
        -9.160936337154268
      ],
      [
        "Ġitself",
        -9.162029043363328
      ],
      [
        "ĠEarth",
        -9.162245134101084
      ],
      [
        "Ġfoods",
        -9.163199926609838
      ],
      [
        "R",
        -9.16324234681614
      ],
      [
        "Ġthemselves",
        -9.166165039907307
      ],
      [
        "Ġforce",
        -9.16900046410717
      ],
      [
        "Ġpurpose",
        -9.169207827279054
      ],
      [
        "Ġresponse",
        -9.171091074332423
      ],
      [
        "Ġwarm",
        -9.171143026121335
      ],
      [
        "Ġprovided",
        -9.171862260237216
      ],
      [
        "Ġtreat",
        -9.172526735921904
      ],
      [
        "Ġstop",
        -9.173923057610075
      ],
      [
        "Ġproperties",
        -9.174842668975066
      ],
      [
        "Ġaction",
        -9.176995373400093
      ],
      [
        "Ġkids",
        -9.178674391136015
      ],
      [
        "Ġsignal",
        -9.181761516608727
      ],
      [
        "Ġfollow",
        -9.182747091287736
      ],
      [
        "ĠOn",
        -9.182905100656718
      ],
      [
        "Ġplastic",
        -9.183124416428416
      ],
      [
        "Ġmentioned",
        -9.184101938102089
      ],
      [
        "Ġdaily",
        -9.184793083074029
      ],
      [
        "ĠDNA",
        -9.185121372835182
      ],
      [
        "Ġwords",
        -9.185779785672135
      ],
      [
        "Ġlength",
        -9.1878614885106
      ],
      [
        "Ġmass",
        -9.189660072370868
      ],
      [
        "Ġgroups",
        -9.190071836792454
      ],
      [
        "Ġcover",
        -9.190910678549866
      ],
      [
        "Ġproper",
        -9.191571544302652
      ],
      [
        "Ġuses",
        -9.193218040588116
      ],
      [
        "Ġmeat",
        -9.19459331033533
      ],
      [
        "Ġregion",
        -9.195847085517952
      ],
      [
        "ĠDr",
        -9.197669716273058
      ],
      [
        "Ġsmaller",
        -9.197696974027089
      ],
      [
        "Ġevidence",
        -9.198075602662048
      ],
      [
        "Ġseason",
        -9.198210899930572
      ],
      [
        "Ġadded",
        -9.200189140496532
      ],
      [
        "Ġbehind",
        -9.200620502622192
      ],
      [
        "Ġoption",
        -9.20156452391896
      ],
      [
        "Ġparticularly",
        -9.20307389475172
      ],
      [
        "Ġeating",
        -9.203100377491548
      ],
      [
        "ĠCan",
        -9.205091524603285
      ],
      [
        "Ġstandard",
        -9.205841087534212
      ],
      [
        "Ġsugar",
        -9.20639913251572
      ],
      [
        "Ġjob",
        -9.20660748911848
      ],
      [
        "Ġfun",
        -9.206698461611316
      ],
      [
        "Ġnight",
        -9.207070553671771
      ],
      [
        "ĠStates",
        -9.207585332609112
      ],
      [
        "ĠK",
        -9.207839439956697
      ],
      [
        "Ġreach",
        -9.209824238819964
      ],
      [
        "Ġsteps",
        -9.210437869922888
      ],
      [
        "Ġrequires",
        -9.211942881389888
      ],
      [
        "Ġice",
        -9.212143782212896
      ],
      [
        "Ġwood",
        -9.213920231008624
      ],
      [
        "Ġstudent",
        -9.2148952353521
      ],
      [
        "Ġvehicle",
        -9.21518233958076
      ],
      [
        "Ġfront",
        -9.215264494314104
      ],
      [
        "Ġacid",
        -9.218407101092431
      ],
      [
        "ĠN",
        -9.219051577950214
      ],
      [
        "V",
        -9.220451266163447
      ],
      [
        "Ġdirectly",
        -9.22064199320577
      ],
      [
        "--",
        -9.22320708411601
      ],
      [
        "Ġmilk",
        -9.226087074851437
      ],
      [
        "Ġal",
        -9.227131177014934
      ],
      [
        "ĠAfter",
        -9.229704019745904
      ],
      [
        "Ġapplication",
        -9.230092913256035
      ],
      [
        "Ġparents",
        -9.230860613415643
      ],
      [
        "Ġtowards",
        -9.231705474137312
      ],
      [
        "Ġleading",
        -9.23173906232927
      ],
      [
        "But",
        -9.23361754120559
      ],
      [
        "Ġinvolved",
        -9.233866990289693
      ],
      [
        "Ġhighly",
        -9.234318480480066
      ],
      [
        "Ġexplore",
        -9.235995230324017
      ],
      [
        "ĠL",
        -9.240034301895928
      ],
      [
        "Ġchance",
        -9.240274755011097
      ],
      [
        "N",
        -9.24070683590918
      ],
      [
        "Ġentire",
        -9.240727192538076
      ],
      [
        "Ġfall",
        -9.242912797617484
      ],
      [
        "Ġexercise",
        -9.243035689273412
      ],
      [
        "Ġstory",
        -9.24318396807433
      ],
      [
        "Ġenhance",
        -9.24538556702502
      ],
      [
        "Ġmeet",
        -9.245811722768044
      ],
      [
        "Ġgenetic",
        -9.246243617025923
      ],
      [
        "Ġguide",
        -9.246248359092975
      ],
      [
        "Ġobject",
        -9.248712418311234
      ],
      [
        "Ġeveryone",
        -9.248768124331548
      ],
      [
        "Ġbase",
        -9.248777390682108
      ],
      [
        "Ġproduced",
        -9.250314267024695
      ],
      [
        ").ĊĊ",
        -9.25126720523484
      ],
      [
        "K",
        -9.251782083334811
      ],
      [
        "Ġfast",
        -9.25293487774648
      ],
      [
        "Ġteeth",
        -9.253086364707364
      ],
      [
        "Ġrest",
        -9.253627118625085
      ],
      [
        "Ġidentify",
        -9.25385815511897
      ],
      [
        "ĠâĢľ",
        -9.254855776809608
      ],
      [
        "Ġsleep",
        -9.255978419973967
      ],
      [
        "Ġdiseases",
        -9.258535900167972
      ],
      [
        "Ġview",
        -9.26153265468158
      ],
      [
        "Ġword",
        -9.263062113730207
      ],
      [
        "Ġsolar",
        -9.26566572110819
      ],
      [
        "Ġstore",
        -9.26606537837539
      ],
      [
        "Ġfit",
        -9.268769625871617
      ],
      [
        "Ġcats",
        -9.270426143563368
      ],
      [
        "Ġweeks",
        -9.270806691212824
      ],
      [
        "Ġbalance",
        -9.271002821184132
      ],
      [
        "Ġelectric",
        -9.271880991002504
      ],
      [
        "Ġdidn",
        -9.271940137444169
      ],
      [
        "Ġact",
        -9.272268792384004
      ],
      [
        "Ġgoal",
        -9.27306086650101
      ],
      [
        "Ġwebsite",
        -9.273230421557924
      ],
      [
        "Ġrecommended",
        -9.273895293999152
      ],
      [
        "Ġfresh",
        -9.27390512620305
      ],
      [
        "Ġeasier",
        -9.274107062253655
      ],
      [
        "Ġbenefit",
        -9.274327372824237
      ],
      [
        "Ġunit",
        -9.275815438665404
      ],
      [
        "ĠShe",
        -9.276627669839138
      ],
      [
        "Ġrecent",
        -9.27667858829975
      ],
      [
        ".S",
        -9.27932206679344
      ],
      [
        "Ġcolors",
        -9.28014589025558
      ],
      [
        "Ġeggs",
        -9.280614454233342
      ],
      [
        "Ġask",
        -9.280936290770082
      ],
      [
        "Ġmodels",
        -9.281168282346052
      ],
      [
        "Ġpoints",
        -9.282057468167938
      ],
      [
        "Ġreport",
        -9.283283749353602
      ],
      [
        "Ġblue",
        -9.284263327803584
      ],
      [
        "Ġtend",
        -9.284356444747592
      ],
      [
        "Ġextra",
        -9.28521830467458
      ],
      [
        "H",
        -9.28805840306608
      ],
      [
        "Ġsun",
        -9.288073244337266
      ],
      [
        "Ġsources",
        -9.290063093496688
      ],
      [
        "Ġcountries",
        -9.290929720882128
      ],
      [
        "Ġbuy",
        -9.291039295821443
      ],
      [
        "Ġoccur",
        -9.293864902298695
      ],
      [
        "Ġitems",
        -9.29423816426904
      ],
      [
        "Ġmovement",
        -9.294489029538994
      ],
      [
        "Ġevent",
        -9.297125547284717
      ],
      [
        "Ġprocesses",
        -9.297689219094195
      ],
      [
        "Ġimages",
        -9.298051284602504
      ],
      [
        "Ġtips",
        -9.298075532370428
      ],
      [
        "Ġwear",
        -9.300102816358748
      ],
      [
        "Ġsave",
        -9.300171687090373
      ],
      [
        "Ġrunning",
        -9.301601593787076
      ],
      [
        "Y",
        -9.301685386281116
      ],
      [
        "Ġevents",
        -9.301710777517552
      ],
      [
        "Ġlives",
        -9.30329594544619
      ],
      [
        "Ġpatient",
        -9.303828915253224
      ],
      [
        "Ġstyle",
        -9.304435264151827
      ],
      [
        "Ġcompletely",
        -9.30458623193304
      ],
      [
        "ĠScience",
        -9.304685914146749
      ],
      [
        "Ġcontribute",
        -9.305149625749417
      ],
      [
        "Ġgreater",
        -9.308772455498362
      ],
      [
        "âĢĻ",
        -9.309498500367798
      ],
      [
        "Ġserve",
        -9.30977720051553
      ],
      [
        "Ġuseful",
        -9.30990842665914
      ],
      [
        "Ġmedia",
        -9.311433226702349
      ],
      [
        "Ġpiece",
        -9.313493568033374
      ],
      [
        "ĠAmerica",
        -9.316397764317673
      ],
      [
        "Ġsupply",
        -9.316927561771402
      ],
      [
        "Ġactive",
        -9.318859267059882
      ],
      [
        "Ġcontain",
        -9.319447629091677
      ],
      [
        "Ġcamera",
        -9.319579848143356
      ],
      [
        "Ġseeds",
        -9.319580417339408
      ],
      [
        "Ġfruit",
        -9.319687118959491
      ],
      [
        "Ġcommunication",
        -9.321393571767048
      ],
      [
        "Ġflowers",
        -9.32192076097765
      ],
      [
        "ĠYes",
        -9.322321384689198
      ],
      [
        "Ġprice",
        -9.32246022273471
      ],
      [
        "Ġproperly",
        -9.325588293988991
      ],
      [
        "L",
        -9.326825173933464
      ],
      [
        "Ġlocation",
        -9.32928332239985
      ],
      [
        "Ġcorrect",
        -9.329591718369342
      ],
      [
        "Ġcool",
        -9.330869222570689
      ],
      [
        "Ġseries",
        -9.332182494868963
      ],
      [
        "ĠV",
        -9.333590691363996
      ],
      [
        "Ġorganic",
        -9.33794066957758
      ],
      [
        "Ġaddress",
        -9.344141998178475
      ],
      [
        "Ġlines",
        -9.344586494055156
      ],
      [
        "depending",
        -9.344828922481929
      ],
      [
        "Ġefficiency",
        -9.345361032605204
      ],
      [
        "Ġleave",
        -9.34633786929164
      ],
      [
        "Ġnegative",
        -9.346930688084734
      ],
      [
        "-to",
        -9.347708388930236
      ],
      [
        "Ġscientific",
        -9.347900554135355
      ],
      [
        "Ġgoes",
        -9.34850011108633
      ],
      [
        "Ġoutput",
        -9.348772624132147
      ],
      [
        "Ġmoving",
        -9.349426718661046
      ],
      [
        "Ġcritical",
        -9.349832090607787
      ],
      [
        "Ġprotection",
        -9.34986890054454
      ],
      [
        "Ġtalk",
        -9.351550880651958
      ],
      [
        "Ġmembers",
        -9.352002620686903
      ],
      [
        "While",
        -9.352108941859653
      ],
      [
        "Ġchallenges",
        -9.3538117701718
      ],
      [
        "Ġspring",
        -9.35516365337418
      ],
      [
        "G",
        -9.355235880371094
      ],
      [
        "Ġachieve",
        -9.355776325843603
      ],
      [
        "Ġfeed",
        -9.35618350562553
      ],
      [
        "...ĊĊ",
        -9.356583637353133
      ],
      [
        "Ġtravel",
        -9.356860989876164
      ],
      [
        "ĠMost",
        -9.358394362672886
      ],
      [
        "ĠNorth",
        -9.360753449142196
      ],
      [
        "Ġbuilt",
        -9.36090073753069
      ],
      [
        "Ġtemperatures",
        -9.36105468638478
      ],
      [
        "Ġcompanies",
        -9.361370637564436
      ],
      [
        "Ġgovernment",
        -9.361764486245889
      ],
      [
        "Ġappropriate",
        -9.365313304975192
      ],
      [
        "Ġmemory",
        -9.36546652798279
      ],
      [
        "Ġtheory",
        -9.366199255222536
      ],
      [
        "Ġcontains",
        -9.36659663998864
      ],
      [
        "ĠUS",
        -9.369948912775554
      ],
      [
        "Ġdistance",
        -9.37162743774772
      ],
      [
        "Ġbird",
        -9.37476453427996
      ],
      [
        "Ġpatterns",
        -9.375561804195064
      ],
      [
        "ĠFrom",
        -9.37557109809301
      ],
      [
        "Ġdeveloping",
        -9.377085527909845
      ],
      [
        "Ġnetwork",
        -9.377986281421364
      ],
      [
        "Ġtable",
        -9.378305987679669
      ],
      [
        "Ġpre",
        -9.37850347404645
      ],
      [
        "By",
        -9.379037749896384
      ],
      [
        "Ġremember",
        -9.379341521654638
      ],
      [
        "Ġallowing",
        -9.379750043134663
      ],
      [
        "Ġpay",
        -9.380655517217894
      ],
      [
        "Ġpage",
        -9.381065493289826
      ],
      [
        "Can",
        -9.381992271979728
      ],
      [
        "Ġmental",
        -9.38527402796418
      ],
      [
        "Ġvalues",
        -9.38584015673031
      ],
      [
        "Ġnumbers",
        -9.386028404589869
      ],
      [
        "Ġlimited",
        -9.386420764497185
      ],
      [
        "Ġusers",
        -9.38706439618551
      ],
      [
        "Ġlack",
        -9.388142930701028
      ],
      [
        "Ġresistance",
        -9.38887306269844
      ],
      [
        "Ġcommonly",
        -9.389851696194931
      ],
      [
        "Ġtaste",
        -9.390021622799154
      ],
      [
        "Ġseem",
        -9.391130477435752
      ],
      [
        "Ġwind",
        -9.391316664321389
      ],
      [
        "Ġbreak",
        -9.392735069939794
      ],
      [
        "Ġbottom",
        -9.393446954645222
      ],
      [
        "Ġspread",
        -9.39455613375296
      ],
      [
        "Ġsearch",
        -9.394609435195482
      ],
      [
        "These",
        -9.394820513554594
      ],
      [
        "Ġmaintenance",
        -9.395211903377794
      ],
      [
        "Ġprograms",
        -9.395760966458235
      ],
      [
        "Ġoriginal",
        -9.396354268932898
      ],
      [
        "Ġprojects",
        -9.397267547147724
      ],
      [
        "Ġimportance",
        -9.397608330486898
      ],
      [
        "Ġinfection",
        -9.397970926045817
      ],
      [
        "Ġhappens",
        -9.399265272871506
      ],
      [
        "Ġseems",
        -9.39993655952694
      ],
      [
        "Ġinterest",
        -9.401606609875124
      ],
      [
        "Ġhair",
        -9.401712483661678
      ],
      [
        "Step",
        -9.40307139761903
      ],
      [
        "ĠSchool",
        -9.404446966030012
      ],
      [
        "ĠHealth",
        -9.4045045412564
      ],
      [
        "Ġcosts",
        -9.404562286525998
      ],
      [
        "Ġbegin",
        -9.40474206892879
      ],
      [
        "Ġreasons",
        -9.40583896726761
      ],
      [
        "Ġcame",
        -9.40644192400416
      ],
      [
        "Ġpretty",
        -9.406768990459357
      ],
      [
        "Ġvision",
        -9.406839975527774
      ],
      [
        "Ġstrength",
        -9.406902870573292
      ],
      [
        "ĠUse",
        -9.409070137902608
      ],
      [
        "Ġfire",
        -9.41050256399225
      ],
      [
        "Ġsubject",
        -9.411347435659303
      ],
      [
        "Ġpublished",
        -9.411995233784202
      ],
      [
        "Ġfile",
        -9.412020320758172
      ],
      [
        "Ġcenter",
        -9.412688228384562
      ],
      [
        "Ġwriting",
        -9.412775152213117
      ],
      [
        "Ġdirect",
        -9.413809617592598
      ],
      [
        "Ġsuccess",
        -9.414149718776986
      ],
      [
        "ĠResearch",
        -9.414658971507311
      ],
      [
        "Ġdeal",
        -9.414670335765642
      ],
      [
        "Ġbaby",
        -9.414824018894704
      ],
      [
        "Ġcooking",
        -9.414981545570075
      ],
      [
        "Ġupon",
        -9.415657358096034
      ],
      [
        "ĠMany",
        -9.41757865846243
      ],
      [
        "ĠWorld",
        -9.419136242148568
      ],
      [
        "Ġfine",
        -9.419482623191785
      ],
      [
        "Ġsigns",
        -9.420775541543932
      ],
      [
        "Ġslow",
        -9.421082693281043
      ],
      [
        "Ġdirection",
        -9.421463242542586
      ],
      [
        "Ġforms",
        -9.423571310208612
      ],
      [
        "Ġdrive",
        -9.424500480146907
      ],
      [
        "Ġideal",
        -9.42501494990106
      ],
      [
        "Ġelectrical",
        -9.425420037155227
      ],
      [
        "Ġcycle",
        -9.425454657764844
      ],
      [
        "Ġhands",
        -9.4254579358809
      ],
      [
        "Ġefficient",
        -9.427131009980627
      ],
      [
        "ĠOf",
        -9.427511399327798
      ],
      [
        "Ġdark",
        -9.429413959020218
      ],
      [
        "Ġfat",
        -9.429841005537156
      ],
      [
        "mm",
        -9.431052483553083
      ],
      [
        "ĠJ",
        -9.434142346318628
      ],
      [
        "Ġman",
        -9.436523317462967
      ],
      [
        "Ġmeasure",
        -9.438085794043108
      ],
      [
        "Ġwild",
        -9.43888530921038
      ],
      [
        "Ġobjects",
        -9.438920448468105
      ],
      [
        "Ġstem",
        -9.441494998025266
      ],
      [
        "Ġelse",
        -9.441642306405416
      ],
      [
        "Ġstage",
        -9.443778492823103
      ],
      [
        "Ġlate",
        -9.446845474091372
      ],
      [
        "Ġsustainable",
        -9.446968373711378
      ],
      [
        "Ġready",
        -9.44770453286766
      ],
      [
        "Ġcity",
        -9.44803563584643
      ],
      [
        "Ġsection",
        -9.44962168347787
      ],
      [
        "Ġsix",
        -9.450118747262598
      ],
      [
        "Ġincreasing",
        -9.451336976950037
      ],
      [
        "Ġideas",
        -9.451915233998797
      ],
      [
        "Ġbox",
        -9.451957438096484
      ],
      [
        "Ġreducing",
        -9.453112630776465
      ],
      [
        "ĠX",
        -9.453425366771777
      ],
      [
        "Ġhappen",
        -9.453967142090992
      ],
      [
        "Ġhope",
        -9.454571275048204
      ],
      [
        "Ġimmune",
        -9.45543705422086
      ],
      [
        "man",
        -9.455463938985778
      ],
      [
        "Ġhearing",
        -9.455798112416062
      ],
      [
        "Ġcleaning",
        -9.456086276740884
      ],
      [
        "Ġpractices",
        -9.45614264505307
      ],
      [
        "ĠSouth",
        -9.457046212882332
      ],
      [
        "Ġinput",
        -9.457903378930496
      ],
      [
        "Ġinvolves",
        -9.459650581015648
      ],
      [
        "Ġmusic",
        -9.46040041775646
      ],
      [
        "Ġcircuit",
        -9.46130103922796
      ],
      [
        "Ġstates",
        -9.4625133089925
      ],
      [
        "Ġresponsible",
        -9.464777883240094
      ],
      [
        "Ġpromote",
        -9.466120969752046
      ],
      [
        "Ġfactor",
        -9.468401898480952
      ],
      [
        "Ġtarget",
        -9.470184372082665
      ],
      [
        "Ġsuitable",
        -9.47065110499527
      ],
      [
        "Ġtesting",
        -9.470965402434931
      ],
      [
        "Ġmoment",
        -9.47107339928454
      ],
      [
        "Ġfinal",
        -9.471641106930727
      ],
      [
        "Ġbecomes",
        -9.472714497231346
      ],
      [
        "Ġoxygen",
        -9.473172015237946
      ],
      [
        "Ġconstruction",
        -9.473850312412974
      ],
      [
        "ĠMy",
        -9.474893793598753
      ],
      [
        "Ġfeature",
        -9.475810499922275
      ],
      [
        "ensuring",
        -9.47588881523302
      ],
      [
        "Ġrequirements",
        -9.47601779395258
      ],
      [
        "Ġphase",
        -9.47660896480335
      ],
      [
        "Ġstorage",
        -9.476957676082115
      ],
      [
        "Ġthinking",
        -9.477854476191435
      ],
      [
        "ĠWhy",
        -9.478511472876011
      ],
      [
        "Ġsignificantly",
        -9.481993294385434
      ],
      [
        "Ġfriends",
        -9.483808014875594
      ],
      [
        "Ġnoise",
        -9.48428203534272
      ],
      [
        "Ġthird",
        -9.484543236090676
      ],
      [
        "Ġappear",
        -9.485745392642816
      ],
      [
        "Ġtechnique",
        -9.486235189728443
      ],
      [
        "They",
        -9.487304915313343
      ],
      [
        "Ġglass",
        -9.48966731138193
      ],
      [
        "Ġrelationship",
        -9.491413850051345
      ],
      [
        "ion",
        -9.49150888278952
      ],
      [
        "Ġnothing",
        -9.491700069943512
      ],
      [
        "Ġreaction",
        -9.493249481646751
      ],
      [
        "ĠNot",
        -9.49474722220214
      ],
      [
        "Ġsolutions",
        -9.497673423891229
      ],
      [
        "Ġroot",
        -9.497768615407844
      ],
      [
        "Ġpattern",
        -9.498380546956216
      ],
      [
        "Ġaccount",
        -9.49928805603112
      ],
      [
        "Ġexist",
        -9.500561009843278
      ],
      [
        "Ġstarting",
        -9.501393716150158
      ],
      [
        "Ġgives",
        -9.50279542395538
      ],
      [
        "Ġpowerful",
        -9.504267566820092
      ],
      [
        "Ġtook",
        -9.50521306394366
      ],
      [
        "Ġnutrients",
        -9.505341095339745
      ],
      [
        "Ġsetting",
        -9.506066207892015
      ],
      [
        "ĠAlso",
        -9.506141643077187
      ],
      [
        "And",
        -9.506394758779194
      ],
      [
        "Ġwall",
        -9.50842396001944
      ],
      [
        "Ġfilm",
        -9.509440612780704
      ],
      [
        "Ġliquid",
        -9.50980068955681
      ],
      [
        "Ġapplied",
        -9.511030371487186
      ],
      [
        ".com",
        -9.511058962779204
      ],
      [
        "Ġsituation",
        -9.515282537483271
      ],
      [
        "of",
        -9.5154674444942
      ],
      [
        "Ġadding",
        -9.515491702672277
      ],
      [
        "Ġspot",
        -9.515929081318824
      ],
      [
        "Ġvia",
        -9.518394701431856
      ],
      [
        "Ġscale",
        -9.518821639198247
      ],
      [
        "Ġingredients",
        -9.519150145644362
      ],
      [
        "Ġsalt",
        -9.521468029797544
      ],
      [
        "With",
        -9.521490406976492
      ],
      [
        "Ġiron",
        -9.522337240322114
      ],
      [
        "Ġdescribe",
        -9.52300229511566
      ],
      [
        "Ġmonth",
        -9.524214402963512
      ],
      [
        "Ġmuscle",
        -9.52492571137397
      ],
      [
        "Ġlaw",
        -9.528219487695562
      ],
      [
        "Ġjourney",
        -9.528702334875517
      ],
      [
        "Ġcentury",
        -9.530552316010084
      ],
      [
        "Ġgene",
        -9.531639871390553
      ],
      [
        "An",
        -9.532121018062307
      ],
      [
        "Ġvisual",
        -9.532704682345903
      ],
      [
        "Ġsoon",
        -9.532955396736217
      ],
      [
        "Ġdeath",
        -9.533756621848507
      ],
      [
        "Ġheavy",
        -9.534688787566605
      ],
      [
        "Ġinteresting",
        -9.534925889403462
      ],
      [
        "Ġapply",
        -9.535688392018336
      ],
      [
        "ĠAre",
        -9.535753601531718
      ],
      [
        "Ġdecision",
        -9.536533097291109
      ],
      [
        "ĠOur",
        -9.536672776607432
      ],
      [
        "Ġculture",
        -9.536796599543448
      ],
      [
        "Ġcurrently",
        -9.536949172637806
      ],
      [
        "Ġexposure",
        -9.537949494395455
      ],
      [
        "Ġsuccessful",
        -9.540505447177072
      ],
      [
        "Do",
        -9.540560267671944
      ],
      [
        "Ġfully",
        -9.540631729437644
      ],
      [
        "Ġcharge",
        -9.540683954961612
      ],
      [
        "Ġcausing",
        -9.54313265257124
      ],
      [
        "Ġlocated",
        -9.543537706014648
      ],
      [
        "Ġfaster",
        -9.545242099220191
      ],
      [
        "ĠTheir",
        -9.546402279454767
      ],
      [
        "j",
        -9.546545224947394
      ],
      [
        "Ġreceive",
        -9.549505206146756
      ],
      [
        "Ġconnected",
        -9.5495863703809
      ],
      [
        "Ġsecurity",
        -9.550080277960882
      ],
      [
        "Ġvegetables",
        -9.551126615903776
      ],
      [
        "Ġwrong",
        -9.551290790483725
      ],
      [
        "<",
        -9.551554403098976
      ],
      [
        "Ġcombination",
        -9.552376173036356
      ],
      [
        "Ġgames",
        -9.552631607334057
      ],
      [
        "Ġrich",
        -9.553248755267926
      ],
      [
        "Ġones",
        -9.553618261670962
      ],
      [
        "Ġboard",
        -9.553682603147992
      ],
      [
        "Ġexactly",
        -9.55385541617136
      ],
      [
        "Ġtissue",
        -9.554903241985851
      ],
      [
        "Ġanyone",
        -9.555343594242943
      ],
      [
        "Ġfrequency",
        -9.556009273336803
      ],
      [
        "Ġmen",
        -9.55684631809731
      ],
      [
        "Ġgain",
        -9.557017846269028
      ],
      [
        "\\",
        -9.558721410611684
      ],
      [
        "Ġopportunity",
        -9.559534554061504
      ],
      [
        "Ġforward",
        -9.559555755834106
      ],
      [
        "Ġserious",
        -9.55962712260674
      ],
      [
        "Ġheight",
        -9.561407420460435
      ],
      [
        "Ġpieces",
        -9.561904196933009
      ],
      [
        "Ġexcellent",
        -9.563247938444364
      ],
      [
        "Ġyellow",
        -9.56336843464935
      ],
      [
        "Ġcapacity",
        -9.56605690352368
      ],
      [
        "Ġearth",
        -9.56615892270935
      ],
      [
        "Ġdescribed",
        -9.566225112675973
      ],
      [
        "Ġvoltage",
        -9.566640747769537
      ],
      [
        "Ġsoft",
        -9.566872247721976
      ],
      [
        "Ġeffectively",
        -9.568066483427474
      ],
      [
        "ĠWho",
        -9.568302715664853
      ],
      [
        "Ġtask",
        -9.569169496200663
      ],
      [
        "Now",
        -9.56989414122198
      ],
      [
        "Ġstrategies",
        -9.570647135951996
      ],
      [
        "Ġmoisture",
        -9.57096990217705
      ],
      [
        "Ġmeaning",
        -9.57339170008182
      ],
      [
        "Ġtherefore",
        -9.577553018311566
      ],
      [
        "-term",
        -9.579256040802289
      ],
      [
        "Ġcoming",
        -9.58015131549689
      ],
      [
        "Ġdisplay",
        -9.58053844414268
      ],
      [
        "Ġwrite",
        -9.58118847457806
      ],
      [
        "Ġproperty",
        -9.583070861997053
      ],
      [
        "ĠAdditionally",
        -9.58405235767782
      ],
      [
        "Ġreturn",
        -9.584175001968433
      ],
      [
        "Ġaim",
        -9.584203868587586
      ],
      [
        "Ġrecord",
        -9.584807992478234
      ],
      [
        "for",
        -9.58694114995655
      ],
      [
        "Ġbecame",
        -9.58724113084218
      ],
      [
        "Ġincluded",
        -9.58743379060656
      ],
      [
        "Ġoccurs",
        -9.58744262176224
      ],
      [
        "Ġreduced",
        -9.589522563580555
      ],
      [
        "Ġprocessing",
        -9.5902336095073
      ],
      [
        "Ġled",
        -9.59089813727635
      ],
      [
        "Ġgets",
        -9.591443369234089
      ],
      [
        "Ġinches",
        -9.59150521801758
      ],
      [
        "Ġbeautiful",
        -9.592071579834425
      ],
      [
        "Ġtherapy",
        -9.592547668256431
      ],
      [
        "Ġtrack",
        -9.592574996791928
      ],
      [
        "Ġnative",
        -9.592807897854138
      ],
      [
        "Ġperform",
        -9.593746985145112
      ],
      [
        "Ġmanage",
        -9.594272592774931
      ],
      [
        "ĠOnce",
        -9.595062571589237
      ],
      [
        "Ġbrown",
        -9.595457076572824
      ],
      [
        "Ġthus",
        -9.59624954089691
      ],
      [
        "Ġball",
        -9.598897855754611
      ],
      [
        "Ġfunctions",
        -9.599470637667885
      ],
      [
        "ally",
        -9.60007827065491
      ],
      [
        "Ġscreen",
        -9.60319279073711
      ],
      [
        "Ġsevere",
        -9.60347629106993
      ],
      [
        "Ġconcept",
        -9.603859448004991
      ],
      [
        "Ġtank",
        -9.604067320557158
      ],
      [
        "Ġbeyond",
        -9.604904113942466
      ],
      [
        "Ġvisit",
        -9.605274131790036
      ],
      [
        "Ġchallenge",
        -9.606351229607151
      ],
      [
        "Some",
        -9.607273256885875
      ],
      [
        "Ġpresence",
        -9.609764666610133
      ],
      [
        "Ġgiving",
        -9.609865155793187
      ],
      [
        "Ġmix",
        -9.611144784162228
      ],
      [
        "Ġadvanced",
        -9.611285710794345
      ],
      [
        "Ġmotor",
        -9.611881714412906
      ],
      [
        "ĠBecause",
        -9.611990916860314
      ],
      [
        "ĠBe",
        -9.612396090145358
      ],
      [
        "ĠNow",
        -9.612511791096328
      ],
      [
        "Ġextremely",
        -9.6165284454476
      ],
      [
        "Ġplaces",
        -9.617731559937877
      ],
      [
        "ĠMake",
        -9.618036545965282
      ],
      [
        "Ġdetails",
        -9.61839047589557
      ],
      [
        "Ġcouple",
        -9.618667755019969
      ],
      [
        "Ġelement",
        -9.61962809078708
      ],
      [
        "Ġco",
        -9.620447594890134
      ],
      [
        "ĠEach",
        -9.621749759273245
      ],
      [
        "Ġocean",
        -9.622231569854476
      ],
      [
        "Ġexpensive",
        -9.622914052973458
      ],
      [
        "Ġmaximum",
        -9.62324636305236
      ],
      [
        "Ġexpected",
        -9.623482566033667
      ],
      [
        "ĠCenter",
        -9.62385770415871
      ],
      [
        "Ġrelease",
        -9.624277051123553
      ],
      [
        "Ġrecently",
        -9.624710461004424
      ],
      [
        "Ġworth",
        -9.624986715745516
      ],
      [
        "Ġpicture",
        -9.625275994751838
      ],
      [
        "Ġpoor",
        -9.625699431078148
      ],
      [
        "Ġsteel",
        -9.626470047280357
      ],
      [
        "Ġsign",
        -9.626738369757174
      ],
      [
        "Ġelectricity",
        -9.627690098107148
      ],
      [
        "Ġteaching",
        -9.627788918597911
      ],
      [
        "Ġmiddle",
        -9.627903317740737
      ],
      [
        "Ġalternative",
        -9.629302439925125
      ],
      [
        "Ġkeeping",
        -9.629456199390113
      ],
      [
        "Ġhuge",
        -9.630079994565367
      ],
      [
        "Ġprevious",
        -9.631795033987691
      ],
      [
        "Ġconsumption",
        -9.63192376542896
      ],
      [
        "Ġexplain",
        -9.632253896430209
      ],
      [
        "Ġhandle",
        -9.632402346700884
      ],
      [
        "Ġequal",
        -9.635245610577345
      ],
      [
        "Ġhorse",
        -9.636490609228996
      ],
      [
        "Ġparticles",
        -9.636715159759234
      ],
      [
        "Ġtouch",
        -9.63681919684596
      ],
      [
        "Ġalthough",
        -9.637401072098235
      ],
      [
        "Ġsolid",
        -9.638404510047623
      ],
      [
        "Ġolder",
        -9.638689080272972
      ],
      [
        "Ġlost",
        -9.642250631979092
      ],
      [
        "Ġmotion",
        -9.64256582378747
      ],
      [
        "ĠOther",
        -9.64266877860662
      ],
      [
        "Ġvolume",
        -9.643225913425267
      ],
      [
        "Ġversion",
        -9.643634565736852
      ],
      [
        "Ġonto",
        -9.644417093741652
      ],
      [
        "Ġfemale",
        -9.646791350386517
      ],
      [
        "Ġslightly",
        -9.64740547021172
      ],
      [
        "Ġdoctor",
        -9.648113959463783
      ],
      [
        "Ġcutting",
        -9.649319145550416
      ],
      [
        "{",
        -9.650100874558069
      ],
      [
        "Ġaffected",
        -9.651346330200854
      ],
      [
        "Ġpaint",
        -9.651608093034692
      ],
      [
        "Ġear",
        -9.651932421720614
      ],
      [
        "um",
        -9.653496021893936
      ],
      [
        "ĠEnglish",
        -9.653627200476036
      ],
      [
        "Ġtexture",
        -9.653661187031082
      ],
      [
        "Ġroad",
        -9.654057251097724
      ],
      [
        "Ġcommunities",
        -9.65410221293429
      ],
      [
        "ĠâĢ¦",
        -9.655194152297794
      ],
      [
        "Ġlargest",
        -9.65636621954264
      ],
      [
        "ĠMay",
        -9.657169936960551
      ],
      [
        "Ġphone",
        -9.65827752402918
      ],
      [
        "ĠLet",
        -9.658317010926474
      ],
      [
        "Here",
        -9.658375296633096
      ],
      [
        "Ġinstance",
        -9.658772738501671
      ],
      [
        "Ġrelatively",
        -9.66017972170463
      ],
      [
        "Ġbone",
        -9.660239103122326
      ],
      [
        "Ġexperiment",
        -9.66105950097071
      ],
      [
        "Ġremain",
        -9.66141425988272
      ],
      [
        "ĠInstitute",
        -9.661876432185668
      ],
      [
        "Ġgenes",
        -9.662184890221008
      ],
      [
        "Ġinfluence",
        -9.664160603908265
      ],
      [
        "Ġopportunities",
        -9.665622899069444
      ],
      [
        "Ġcars",
        -9.665627061849952
      ],
      [
        "Ġvaluable",
        -9.665909600450828
      ],
      [
        "Ġconnection",
        -9.665965950412946
      ],
      [
        "Ġtasks",
        -9.66630931373167
      ],
      [
        "ĠNOT",
        -9.667098335067172
      ],
      [
        "Ġchanging",
        -9.668179015774468
      ],
      [
        "Ġsites",
        -9.668399485999386
      ],
      [
        "ĠWater",
        -9.668663769235655
      ],
      [
        "Ġcharacteristics",
        -9.6696950948665
      ],
      [
        "Ġcarry",
        -9.670375543641244
      ],
      [
        "Ġdegrees",
        -9.670404453651535
      ],
      [
        "Ġplaced",
        -9.670993085254862
      ],
      [
        "Ġdiscovered",
        -9.670997164605923
      ],
      [
        "Ġfluid",
        -9.671499594004766
      ],
      [
        "Ġcomfortable",
        -9.671921978932666
      ],
      [
        "Ġsuggest",
        -9.672189758798156
      ],
      [
        "est",
        -9.672995790410424
      ],
      [
        "Ġdemand",
        -9.674163948783734
      ],
      [
        "Ġemissions",
        -9.675442873388526
      ],
      [
        "Ġstructures",
        -9.676652734769888
      ],
      [
        "Ġspend",
        -9.676761138576708
      ],
      [
        "Ġdriving",
        -9.678327119817787
      ],
      [
        "Ġdepth",
        -9.678461217959622
      ],
      [
        "Ġdraw",
        -9.678721160445576
      ],
      [
        "Ġremains",
        -9.679088405870685
      ],
      [
        "less",
        -9.679222323200408
      ],
      [
        "Ġschools",
        -9.679517164841416
      ],
      [
        "Ġevolution",
        -9.679630816684734
      ],
      [
        "Ġsort",
        -9.680136045296289
      ],
      [
        "Ġproteins",
        -9.680967082692495
      ],
      [
        "Ġgoals",
        -9.68139111690138
      ],
      [
        "ĠEven",
        -9.68189745132714
      ],
      [
        "However",
        -9.68229921709371
      ],
      [
        "Ġbrand",
        -9.682556835941986
      ],
      [
        "Ġteachers",
        -9.684057235983394
      ],
      [
        "Ġmedium",
        -9.685125755378456
      ],
      [
        "Ġdepends",
        -9.685548498185891
      ],
      [
        "Ġadults",
        -9.68612523775562
      ],
      [
        "Ġbeginning",
        -9.687088107292144
      ],
      [
        "Ġtechnologies",
        -9.688588320006
      ],
      [
        "Ġlose",
        -9.688932946786036
      ],
      [
        "Ġsaw",
        -9.689593359282108
      ],
      [
        "Ġexamples",
        -9.691536830601432
      ],
      [
        "ĠOr",
        -9.692440536259507
      ],
      [
        "Ġdistribution",
        -9.693086463763144
      ],
      [
        "Ġalone",
        -9.694758064141409
      ],
      [
        "Ġdate",
        -9.694948809497312
      ],
      [
        "Ġexperiences",
        -9.695092878690522
      ],
      [
        "Ġrise",
        -9.695185398544396
      ],
      [
        "Ġconservation",
        -9.695710440418026
      ],
      [
        "ĠState",
        -9.69602727450732
      ],
      [
        "On",
        -9.697229224639374
      ],
      [
        "Ġanti",
        -9.698478640375669
      ],
      [
        "Ġlooks",
        -9.698668789332226
      ],
      [
        "Ġdifferences",
        -9.700040869049747
      ],
      [
        "Ġinitial",
        -9.700757609870449
      ],
      [
        "ĠIndia",
        -9.701015066700252
      ],
      [
        "Ġflight",
        -9.701558570059818
      ],
      [
        "Ġblock",
        -9.702232803570466
      ],
      [
        "Ġmeasures",
        -9.70246195279074
      ],
      [
        "Ġphoto",
        -9.7026643491506
      ],
      [
        "Ġrecommend",
        -9.703200683333502
      ],
      [
        "Ġresulting",
        -9.703524291257915
      ],
      [
        "Ġbooks",
        -9.7040613683728
      ],
      [
        "Ġcommercial",
        -9.704388479742343
      ],
      [
        "Ġcomponent",
        -9.704695249421468
      ],
      [
        "Ġflavor",
        -9.70513557734952
      ],
      [
        "Ġreported",
        -9.70552067186132
      ],
      [
        "ĠMore",
        -9.706699081932006
      ],
      [
        "Ġsample",
        -9.707672813024429
      ],
      [
        "Ġincreases",
        -9.708736325840984
      ],
      [
        "Ġfigure",
        -9.709376507831267
      ],
      [
        "Ġfeeling",
        -9.709744116663998
      ],
      [
        "Ġtests",
        -9.709981005475736
      ],
      [
        "ĠCalifornia",
        -9.710560471714295
      ],
      [
        "Ġstand",
        -9.710621528775048
      ],
      [
        "-up",
        -9.710955861150348
      ],
      [
        "Ġnote",
        -9.71397733581304
      ],
      [
        "Ġselection",
        -9.715142972803946
      ],
      [
        "Ġwent",
        -9.715545696293452
      ],
      [
        "Ġrepresent",
        -9.71600954357477
      ],
      [
        "Ġmale",
        -9.716824294405829
      ],
      [
        "Ġseed",
        -9.717839419858604
      ],
      [
        "Ġbegan",
        -9.71876874705193
      ],
      [
        "Ġhear",
        -9.719055041818391
      ],
      [
        "Ġcross",
        -9.719221878319
      ],
      [
        "Ġdiabetes",
        -9.720106285993964
      ],
      [
        "Ġfinancial",
        -9.720425683245493
      ],
      [
        "Ġinsects",
        -9.721746858490736
      ],
      [
        "Ġappearance",
        -9.72204899550481
      ],
      [
        "Ġweb",
        -9.72241750628893
      ],
      [
        "Ġconstant",
        -9.72356473418023
      ],
      [
        "Ġefforts",
        -9.724089006652246
      ],
      [
        "Ġconnect",
        -9.725410868726485
      ],
      [
        "Ġaspects",
        -9.727317727677573
      ],
      [
        "Ġseparate",
        -9.727986257509816
      ],
      [
        "Ġvary",
        -9.727996868227754
      ],
      [
        "Ġsounds",
        -9.728937958185025
      ],
      [
        "Ġcollection",
        -9.729294586110385
      ],
      [
        "Ġeffort",
        -9.729909123715844
      ],
      [
        "Ġcore",
        -9.72991778701457
      ],
      [
        "Ġdegree",
        -9.730901212834429
      ],
      [
        "Ġexisting",
        -9.731061648153926
      ],
      [
        "Ġfoot",
        -9.731464442786384
      ],
      [
        "Ġwalk",
        -9.733344044901427
      ],
      [
        "Ġrules",
        -9.733712009455914
      ],
      [
        "Ġhabitat",
        -9.73486721924867
      ],
      [
        "Ġplanning",
        -9.736366546650688
      ],
      [
        "X",
        -9.736774422247422
      ],
      [
        "ĠFirst",
        -9.73707929307967
      ],
      [
        "ar",
        -9.73748454350806
      ],
      [
        "Ġrare",
        -9.737622466325169
      ],
      [
        "Ġadvantage",
        -9.738764936625754
      ],
      [
        "Ġstuff",
        -9.738956298040296
      ],
      [
        "Ġfloor",
        -9.741540250243602
      ],
      [
        "Ġroots",
        -9.741905035352495
      ],
      [
        "ĠAlthough",
        -9.743336823451155
      ],
      [
        "ĠGod",
        -9.743373904990968
      ],
      [
        "Ġwritten",
        -9.74447146804548
      ],
      [
        "Ġreview",
        -9.745570432334816
      ],
      [
        "Ġfinding",
        -9.746081668058451
      ],
      [
        "Ġlink",
        -9.746903832261951
      ],
      [
        "Ġvital",
        -9.747320105602356
      ],
      [
        "Ġmaintaining",
        -9.747498756677086
      ],
      [
        "Ġplanet",
        -9.74798417414988
      ],
      [
        "Ġoperation",
        -9.747984698075363
      ],
      [
        "ability",
        -9.748059026121355
      ],
      [
        "Ġchicken",
        -9.750547180784023
      ],
      [
        "Ġcontext",
        -9.751956570052688
      ],
      [
        "ation",
        -9.752037491134246
      ],
      [
        "Ġimmediately",
        -9.752443302692113
      ],
      [
        "Ġadult",
        -9.752781773818898
      ],
      [
        "Ġvirus",
        -9.753152341400376
      ],
      [
        "Ġbreed",
        -9.753210637912556
      ],
      [
        "Ġpick",
        -9.753554296821823
      ],
      [
        "Ġspecifically",
        -9.753800268023117
      ],
      [
        "Ġformed",
        -9.754326147345605
      ],
      [
        "Ġpopulations",
        -9.754805666408831
      ],
      [
        "Ġprefer",
        -9.755454416533327
      ],
      [
        "Ġactual",
        -9.755683754582444
      ],
      [
        "Ġrock",
        -9.755808902800515
      ],
      [
        "Ġswitch",
        -9.755949761399302
      ],
      [
        "ĠAccording",
        -9.756987357869438
      ],
      [
        "Ġframe",
        -9.757327233652791
      ],
      [
        "Ġload",
        -9.757638414599032
      ],
      [
        "Ġallowed",
        -9.75821971241479
      ],
      [
        "Ġplease",
        -9.759913994156792
      ],
      [
        "Ġnational",
        -9.759930526579796
      ],
      [
        "That",
        -9.761316174014746
      ],
      [
        "Ġaccurate",
        -9.762890888561415
      ],
      [
        "ĠJust",
        -9.763393978925466
      ],
      [
        "Ġreplace",
        -9.763766371273768
      ],
      [
        "Ġquick",
        -9.764195580255391
      ],
      [
        "Ġregularly",
        -9.7649661973356
      ],
      [
        "Ġmulti",
        -9.765073060003898
      ],
      [
        "Ġinstructions",
        -9.76639292806456
      ],
      [
        "Ġmouth",
        -9.766758102094684
      ],
      [
        "-like",
        -9.76932621861147
      ],
      [
        "Ġasked",
        -9.76954177921079
      ],
      [
        "Ġcovered",
        -9.77060893182455
      ],
      [
        "Ġfamilies",
        -9.771720452282162
      ],
      [
        "Our",
        -9.771895627379196
      ],
      [
        "Ġprogress",
        -9.772715178883365
      ],
      [
        "Ġatmosphere",
        -9.773730329811942
      ],
      [
        "Ġcentral",
        -9.774245090486934
      ],
      [
        "Ġnotice",
        -9.774544072076688
      ],
      [
        "Ġinternal",
        -9.776467760525549
      ],
      [
        "Ġgeneration",
        -9.77672729772116
      ],
      [
        "Ġsub",
        -9.777555557701504
      ],
      [
        "Ġfilter",
        -9.777750328414596
      ],
      [
        "Ġtopic",
        -9.777921331008592
      ],
      [
        "Ġnearly",
        -9.779653181365637
      ],
      [
        "Ġbasis",
        -9.780909176797229
      ],
      [
        "ĠEurope",
        -9.78130983691829
      ],
      [
        "Ġrates",
        -9.781442515423716
      ],
      [
        "Ġcustomers",
        -9.781505993481792
      ],
      [
        "Ġratio",
        -9.781610788012834
      ],
      [
        "Ġrepair",
        -9.78176606180293
      ],
      [
        "Ġfeeding",
        -9.782998015351218
      ],
      [
        "Ġmember",
        -9.78320462717958
      ],
      [
        "Ġregions",
        -9.785630634704736
      ],
      [
        "ĠTherefore",
        -9.785924815407148
      ],
      [
        "Ġeconomic",
        -9.785927748689556
      ],
      [
        "Ġgenerate",
        -9.78847054636532
      ],
      [
        "Ġdrawing",
        -9.789926883807585
      ],
      [
        "ĠSince",
        -9.789972928463117
      ],
      [
        "Ġpath",
        -9.790601844887709
      ],
      [
        "Ġcustomer",
        -9.790943245357791
      ],
      [
        "Ġexpect",
        -9.791292117203136
      ],
      [
        "Ġmolecules",
        -9.791763869422056
      ],
      [
        "Ġowners",
        -9.791854573145514
      ],
      [
        "by",
        -9.792621106977446
      ],
      [
        "No",
        -9.793591281203994
      ],
      [
        "Ġgrass",
        -9.793959914073254
      ],
      [
        "Ġemotional",
        -9.797464859249668
      ],
      [
        "After",
        -9.797521350911168
      ],
      [
        "Ġtiny",
        -9.797600054448711
      ],
      [
        "Ġfavorite",
        -9.799119718267624
      ],
      [
        "Ġstaff",
        -9.799139631001864
      ],
      [
        "Ġfrequently",
        -9.800991852484
      ],
      [
        "Ġmiles",
        -9.802895531663122
      ],
      [
        "le",
        -9.8033872904076
      ],
      [
        "ĠAfrica",
        -9.80408814730517
      ],
      [
        "Ġdoor",
        -9.80445764909276
      ],
      [
        "Ġmarine",
        -9.80591883143608
      ],
      [
        "Ġfriend",
        -9.806503516699433
      ],
      [
        "Ġbecoming",
        -9.80820600201126
      ],
      [
        "Ġhappy",
        -9.808791022785435
      ],
      [
        "Ġapp",
        -9.809439921958369
      ],
      [
        "Ġadvice",
        -9.810614553741075
      ],
      [
        "**",
        -9.811041957224573
      ],
      [
        "Ġlearned",
        -9.81178778983114
      ],
      [
        "Ġobserved",
        -9.811884373234658
      ],
      [
        "Ġwindow",
        -9.812112667067325
      ],
      [
        "Ġrelative",
        -9.81230262761859
      ],
      [
        "ĠDepartment",
        -9.812338266686062
      ],
      [
        "Ġbodies",
        -9.813127139725708
      ],
      [
        "Ġhelping",
        -9.813596264398395
      ],
      [
        "Ġdouble",
        -9.814375608329575
      ],
      [
        "Another",
        -9.816003663843825
      ],
      [
        "Ġsuggests",
        -9.817124227626309
      ],
      [
        "Ġinternational",
        -9.817468531188384
      ],
      [
        "Ġdrug",
        -9.817649571420736
      ],
      [
        "Ġbirth",
        -9.817840392749662
      ],
      [
        "âĢĿ",
        -9.817860328117662
      ],
      [
        "Ġhour",
        -9.81835897098082
      ],
      [
        "Ġidentified",
        -9.818890057650645
      ],
      [
        "Ġselect",
        -9.820406805013407
      ],
      [
        "@",
        -9.821115325294071
      ],
      [
        "Ġregarding",
        -9.82172307576234
      ],
      [
        "Ġlandscape",
        -9.822204269025002
      ],
      [
        "Ġaudio",
        -9.82222835021412
      ],
      [
        "Ġimproved",
        -9.82233597815876
      ],
      [
        "Ġwire",
        -9.822498908589528
      ],
      [
        "Ġplaying",
        -9.822778059704229
      ],
      [
        "Ġwildlife",
        -9.822849850699198
      ],
      [
        "Ġsmooth",
        -9.82308424777295
      ],
      [
        "Ġtransfer",
        -9.823197803286906
      ],
      [
        "Ġpets",
        -9.82322366985619
      ],
      [
        "Ġwanted",
        -9.823532190319527
      ],
      [
        "Ġinterested",
        -9.824321782945248
      ],
      [
        "Ġflat",
        -9.82478645596241
      ],
      [
        "Ġedge",
        -9.824966517336753
      ],
      [
        "Ġreference",
        -9.825204786643257
      ],
      [
        "Ġsociety",
        -9.82597149042908
      ],
      [
        "Ġstandards",
        -9.826181326140782
      ],
      [
        "Ġplayers",
        -9.82650266367178
      ],
      [
        "Ġstraight",
        -9.82763554422301
      ],
      [
        "ĠUK",
        -9.828513926858664
      ],
      [
        "Ġcharacter",
        -9.8292411878624
      ],
      [
        "Ġorganization",
        -9.82937640026393
      ],
      [
        "Ġdiscuss",
        -9.8301743647767
      ],
      [
        "Ġfashion",
        -9.8312236294869
      ],
      [
        "Ġdangerous",
        -9.83178455294647
      ],
      [
        "Ġwatch",
        -9.833543306264938
      ],
      [
        "Ġcreative",
        -9.83355533236651
      ],
      [
        "Ġbed",
        -9.83388193762941
      ],
      [
        "Ġforest",
        -9.834661698117095
      ],
      [
        "âĢĻt",
        -9.834817132399763
      ],
      [
        "Ġlimit",
        -9.835520425108934
      ],
      [
        "ĠUsing",
        -9.837402239898458
      ],
      [
        "Ġexperienced",
        -9.838390216711748
      ],
      [
        "Ġpractical",
        -9.839253857470226
      ],
      [
        "Ġdiverse",
        -9.839342636612985
      ],
      [
        "Ġhelpful",
        -9.839465951300262
      ],
      [
        "-in",
        -9.840962414313587
      ],
      [
        "Ġchain",
        -9.84402643073609
      ],
      [
        "Ġbackground",
        -9.844459080031893
      ],
      [
        "Answer",
        -9.84522938547538
      ],
      [
        "Ġnumerous",
        -9.846160105083412
      ],
      [
        "Ġkitchen",
        -9.846314578814091
      ],
      [
        "Ġinfections",
        -9.846679143726028
      ],
      [
        "Ġcomprehensive",
        -9.847791329616866
      ],
      [
        "Ġpass",
        -9.847974993162946
      ],
      [
        "Ġchanged",
        -9.849857425200712
      ],
      [
        "Ġaware",
        -9.852833041420556
      ],
      [
        "...Ċ",
        -9.85306163903515
      ],
      [
        "Ġlighting",
        -9.853226100390868
      ],
      [
        "Ġremoved",
        -9.85425843523535
      ],
      [
        "ĠAustralia",
        -9.854619171625773
      ],
      [
        "Ġsurvive",
        -9.854993441468997
      ],
      [
        "-free",
        -9.855075105272286
      ],
      [
        "Ġsquare",
        -9.856170997947764
      ],
      [
        "Ġsend",
        -9.856603557061506
      ],
      [
        "Ġbillion",
        -9.856785091505692
      ],
      [
        "Ġteacher",
        -9.85767944995317
      ],
      [
        "Ġchemicals",
        -9.85785851498012
      ],
      [
        "Ġhealthcare",
        -9.859491349420948
      ],
      [
        "Ġreality",
        -9.86019721571479
      ],
      [
        "Ġmuscles",
        -9.861272281055903
      ],
      [
        "Ġmaybe",
        -9.861562177442668
      ],
      [
        "Ġanxiety",
        -9.862948297021104
      ],
      [
        "Ġfly",
        -9.864364629628025
      ],
      [
        "be",
        -9.864758586905529
      ],
      [
        "Ġworked",
        -9.865451814885056
      ],
      [
        "Ġestablished",
        -9.865788460651205
      ],
      [
        "Ġhit",
        -9.866749119698632
      ],
      [
        "Ġfruits",
        -9.867437493659814
      ],
      [
        "Ġdiscussion",
        -9.868141188541491
      ],
      [
        "Ġstrain",
        -9.869148005802504
      ],
      [
        "Ġsurgery",
        -9.87027395451036
      ],
      [
        "Ġrisks",
        -9.871346008692043
      ],
      [
        "Ġpollution",
        -9.871424532732242
      ],
      [
        "which",
        -9.871687459326004
      ],
      [
        "ĠAir",
        -9.873711480367438
      ],
      [
        "aid",
        -9.873722820805604
      ],
      [
        "Ġheld",
        -9.87398828427913
      ],
      [
        "Ġalcohol",
        -9.87481150233475
      ],
      [
        "Ġdesired",
        -9.87524002408906
      ],
      [
        "Ġtrip",
        -9.875264029037565
      ],
      [
        "Ġapproximately",
        -9.875826368869053
      ],
      [
        "Ġresource",
        -9.875923677406988
      ],
      [
        "Ġdrop",
        -9.87762051778075
      ],
      [
        "Ġreduction",
        -9.878302664515678
      ],
      [
        "Ġegg",
        -9.879916144197026
      ],
      [
        "All",
        -9.88002025945199
      ],
      [
        "Ġdefined",
        -9.880155150108711
      ],
      [
        "ĠYork",
        -9.88125481714196
      ],
      [
        "Ġhost",
        -9.881313370561244
      ],
      [
        "Ġbusinesses",
        -9.881684489712942
      ],
      [
        "Ġdie",
        -9.882098383005475
      ],
      [
        "Ġclick",
        -9.882110539240104
      ],
      [
        "Ġangle",
        -9.88305147060458
      ],
      [
        "Ġreceived",
        -9.883730251495193
      ],
      [
        "Ġfabric",
        -9.884090009357774
      ],
      [
        "Ġconcerns",
        -9.88411850945957
      ],
      [
        "Ġmorning",
        -9.884694278074576
      ],
      [
        "ĠDay",
        -9.884765516248212
      ],
      [
        "Ġcomfort",
        -9.88594096697896
      ],
      [
        "Ġmid",
        -9.886678227569163
      ],
      [
        "Ġfailure",
        -9.88780010319146
      ],
      [
        "potentially",
        -9.888107710948168
      ],
      [
        "/or",
        -9.888925446957357
      ],
      [
        "Ġtold",
        -9.889790566882697
      ],
      [
        "Ġclassroom",
        -9.890559752472091
      ],
      [
        "ĠChina",
        -9.89141418405092
      ],
      [
        "Ġgrown",
        -9.8915738769627
      ],
      [
        "Ġkill",
        -9.891707430218611
      ],
      [
        "Ġshowed",
        -9.892282655694956
      ],
      [
        "Ġthin",
        -9.893166254195007
      ],
      [
        "Ġvehicles",
        -9.8931853197765
      ],
      [
        "Ġupper",
        -9.894094276687492
      ],
      [
        "Ġshade",
        -9.894216429191031
      ],
      [
        "Ġancient",
        -9.894696489756956
      ],
      [
        "Ġflower",
        -9.89486836935105
      ],
      [
        "Ġsensor",
        -9.89604839782186
      ],
      [
        "Ġlayers",
        -9.896216914765604
      ],
      [
        "Ġconcrete",
        -9.896353619947323
      ],
      [
        "Ġbeneficial",
        -9.896378547490302
      ],
      [
        "Ġwave",
        -9.898271948038008
      ],
      [
        "Ġrule",
        -9.899039834735518
      ],
      [
        "Ġhighest",
        -9.899378304609376
      ],
      [
        "Ġengineering",
        -9.899609641354738
      ],
      [
        "Ġencourage",
        -9.901670490490948
      ],
      [
        "Ġindustrial",
        -9.901872296427534
      ],
      [
        "Ġaircraft",
        -9.901962527167552
      ],
      [
        "Ġperspective",
        -9.902701986683038
      ],
      [
        "ĠWhether",
        -9.902742666746793
      ],
      [
        "Ġraw",
        -9.90391569511706
      ],
      [
        "Ġoperations",
        -9.904175164741789
      ],
      [
        "Ġheating",
        -9.90430017397385
      ],
      [
        "Ġprepare",
        -9.904809189776325
      ],
      [
        "Ġmostly",
        -9.904854814783604
      ],
      [
        "ized",
        -9.905861043734609
      ],
      [
        "Ġdental",
        -9.906551674078756
      ],
      [
        "Ġcareer",
        -9.906784891940903
      ],
      [
        "Ġsports",
        -9.907183818172037
      ],
      [
        "Ġpair",
        -9.907344012238129
      ],
      [
        "Ġwidely",
        -9.907941367788238
      ],
      [
        "-year",
        -9.908031927573637
      ],
      [
        "Ġearlier",
        -9.908273712277678
      ],
      [
        "Ġleaf",
        -9.908616396307552
      ],
      [
        "Ġgold",
        -9.90926789117395
      ],
      [
        "Ġinjury",
        -9.91032698227034
      ],
      [
        "Ġtypical",
        -9.91033350970718
      ],
      [
        "Ġheard",
        -9.91040928190633
      ],
      [
        "ring",
        -9.910850338677276
      ],
      [
        "Ġfields",
        -9.911095481878478
      ],
      [
        "ĠDon",
        -9.911131654456575
      ],
      [
        "Ġpurchase",
        -9.911312451960406
      ],
      [
        "Your",
        -9.911431696842223
      ],
      [
        "Ġtalking",
        -9.91162921020427
      ],
      [
        "Ġmeal",
        -9.911874377096206
      ],
      [
        "Ġlegal",
        -9.912195544290125
      ],
      [
        "Ġtransition",
        -9.914015482259376
      ],
      [
        "Ġprimarily",
        -9.914533070795882
      ],
      [
        "Ġlab",
        -9.91461156149439
      ],
      [
        "Ġround",
        -9.915079959707692
      ],
      [
        "Ġsaying",
        -9.91525408679528
      ],
      [
        "Ġdecisions",
        -9.915307373304092
      ],
      [
        "Ġclaim",
        -9.91547787726886
      ],
      [
        "Ġattack",
        -9.915843709716372
      ],
      [
        "Ġharmful",
        -9.916421555042128
      ],
      [
        "Ġteach",
        -9.916885456303888
      ],
      [
        "ĠRe",
        -9.91713489814592
      ],
      [
        "Ġsignals",
        -9.917284976020166
      ],
      [
        "Ġsmell",
        -9.918341618327409
      ],
      [
        "Most",
        -9.918795474065314
      ],
      [
        "Ġpool",
        -9.918887007033016
      ],
      [
        "Ġcultural",
        -9.92040690778312
      ],
      [
        "ĠHigh",
        -9.920454328351108
      ],
      [
        "Ġreleased",
        -9.922000759610633
      ],
      [
        "Ġexposed",
        -9.92260876327937
      ],
      [
        "Ġclasses",
        -9.922851230729757
      ],
      [
        "Ġrespect",
        -9.92298631847343
      ],
      [
        "Ġelectronic",
        -9.923073049528798
      ],
      [
        "Ġnice",
        -9.923284981638384
      ],
      [
        "Ġexperts",
        -9.923588949440264
      ],
      [
        "Ġroof",
        -9.924666013754322
      ],
      [
        "ĠDuring",
        -9.92479790424362
      ],
      [
        "Ġbiological",
        -9.924979585535802
      ],
      [
        "Yes",
        -9.9269326534805
      ],
      [
        "Ġsettings",
        -9.92715502900512
      ],
      [
        "Ġtransmission",
        -9.927678463971269
      ],
      [
        "Ġtransport",
        -9.927849197143702
      ],
      [
        "Ġfill",
        -9.927850819922348
      ],
      [
        "Ġplatform",
        -9.928109053142364
      ],
      [
        "Ġmother",
        -9.928844511909906
      ],
      [
        "Ġpump",
        -9.929336079269634
      ],
      [
        "Ġprivate",
        -9.92942010337248
      ],
      [
        "Ġamounts",
        -9.929436628664885
      ],
      [
        "Ġartificial",
        -9.929607884411483
      ],
      [
        "Ġtoward",
        -9.929818341094537
      ],
      [
        "Ġcapture",
        -9.931090194432697
      ],
      [
        "Ġoffice",
        -9.931215909021322
      ],
      [
        "ĠCO",
        -9.93152386768417
      ],
      [
        "Ġrice",
        -9.931884821870392
      ],
      [
        "Ġdead",
        -9.933148381357306
      ],
      [
        "ĠEuropean",
        -9.933375320395632
      ],
      [
        "Ġnaturally",
        -9.933420802847383
      ],
      [
        "Ġeventually",
        -9.933579006377055
      ],
      [
        "Ġbike",
        -9.934337753363083
      ],
      [
        "Ġnamed",
        -9.934797627780384
      ],
      [
        "My",
        -9.934928483011744
      ],
      [
        "Ġlights",
        -9.935353539497468
      ],
      [
        "q",
        -9.937521147025738
      ],
      [
        "Are",
        -9.938874018890589
      ],
      [
        "Ġexternal",
        -9.93972081711474
      ],
      [
        "Ġindicate",
        -9.940398001744546
      ],
      [
        "Ġunits",
        -9.940565159850644
      ],
      [
        "Ġwait",
        -9.940651843310656
      ],
      [
        "Ġstrategy",
        -9.94142152580591
      ],
      [
        "Ġpolicy",
        -9.942202472405429
      ],
      [
        "Ġmixture",
        -9.942260009267462
      ],
      [
        "Ġrelevant",
        -9.942802397028474
      ],
      [
        "Ġlatest",
        -9.943102849852362
      ],
      [
        "Ġorganisms",
        -9.94494266481404
      ],
      [
        "Ġcheese",
        -9.947002870109332
      ],
      [
        "Ġdetailed",
        -9.947186105129976
      ],
      [
        "Ġquantum",
        -9.948558806883346
      ],
      [
        "Ġdetect",
        -9.94962458041648
      ],
      [
        "Ġrelationships",
        -9.950758325472874
      ],
      [
        "Ġdrugs",
        -9.950782305334576
      ],
      [
        "Ġmold",
        -9.95084169344554
      ],
      [
        "Ġfollowed",
        -9.951762095693136
      ],
      [
        "Ġplans",
        -9.95318969661576
      ],
      [
        "Ġseek",
        -9.95511313015475
      ],
      [
        "Ġbright",
        -9.955487978911542
      ],
      [
        "Once",
        -9.955515673714723
      ],
      [
        "Ġmedicine",
        -9.95629449975659
      ],
      [
        "Ġmode",
        -9.956642918025736
      ],
      [
        "Ġtreated",
        -9.956896338912737
      ],
      [
        "Ġextreme",
        -9.95714120099131
      ],
      [
        "Ġvoice",
        -9.957282052148985
      ],
      [
        "Ġcarefully",
        -9.957380662430396
      ],
      [
        "Ġoperating",
        -9.957722847894283
      ],
      [
        "capable",
        -9.958039571334288
      ],
      [
        "Ġcomposition",
        -9.959658614769692
      ],
      [
        "Ġexpression",
        -9.960975275902925
      ],
      [
        "Ġlifestyle",
        -9.96145639986756
      ],
      [
        "Ġfindings",
        -9.962078820753424
      ],
      [
        "Ġmagnetic",
        -9.962494175159472
      ],
      [
        "Ġpull",
        -9.962651587209864
      ],
      [
        "Ġprint",
        -9.963689147812111
      ],
      [
        "Ġmessage",
        -9.963742203405888
      ],
      [
        "Ġgrade",
        -9.964180446031374
      ],
      [
        "Ġlens",
        -9.96494627576504
      ],
      [
        "Ġbag",
        -9.965471158194552
      ],
      [
        "Ġwaves",
        -9.9659563755734
      ],
      [
        "Ġstories",
        -9.96798942048213
      ],
      [
        "Ġemail",
        -9.96832681461869
      ],
      [
        "Ġbeauty",
        -9.9690605039036
      ],
      [
        "Ġstored",
        -9.969080333405582
      ],
      [
        "-quality",
        -9.969661729642311
      ],
      [
        "ĠCanada",
        -9.969904498150967
      ],
      [
        "Ġintroduced",
        -9.969954064474996
      ],
      [
        "Ġstone",
        -9.97001090709603
      ],
      [
        "Ġreliable",
        -9.97004130199142
      ],
      [
        "J",
        -9.970375167065129
      ],
      [
        "Ġradio",
        -9.970382596483388
      ],
      [
        "Ġthousands",
        -9.970469248247754
      ],
      [
        "Ġadvantages",
        -9.971139599638429
      ],
      [
        "U",
        -9.971245001378934
      ],
      [
        "Ġwalls",
        -9.972253891612072
      ],
      [
        "Ġsunlight",
        -9.972415191250496
      ],
      [
        "Ġconsistent",
        -9.972489010199611
      ],
      [
        "Ġfishing",
        -9.97254856506702
      ],
      [
        "ĠRiver",
        -9.97369108955422
      ],
      [
        "Ġdetail",
        -9.97393024298671
      ],
      [
        "Ġoptimal",
        -9.973999802173246
      ],
      [
        "Ġmachines",
        -9.974252293866504
      ],
      [
        "Ġmanufacturing",
        -9.974891881531496
      ],
      [
        "Ġcoat",
        -9.974953537372864
      ],
      [
        "Ġchoosing",
        -9.976080343876337
      ],
      [
        "Ġadjust",
        -9.976418960301528
      ],
      [
        "Ġroutine",
        -9.976602941971466
      ],
      [
        "Ġcredit",
        -9.977038573033372
      ],
      [
        "Ġplanting",
        -9.977047427462225
      ],
      [
        "Ġmatch",
        -9.977091689950358
      ],
      [
        "Ġsamples",
        -9.977386212657406
      ],
      [
        "Ġoutdoor",
        -9.97837735994698
      ],
      [
        "Ġnerve",
        -9.978460865093927
      ],
      [
        "Ġbrought",
        -9.97961935256962
      ],
      [
        "Ġenvironments",
        -9.980255581359042
      ],
      [
        "Ġvitamin",
        -9.98071603906956
      ],
      [
        "Ġfarmers",
        -9.980855095872457
      ],
      [
        "Ġcard",
        -9.982061428137987
      ],
      [
        "Ġformation",
        -9.982365657417356
      ],
      [
        "Ġbatteries",
        -9.982502399788734
      ],
      [
        "ĠDoes",
        -9.983588919782264
      ],
      [
        "Ġhole",
        -9.983857168117906
      ],
      [
        "Ġsweet",
        -9.98428735090967
      ],
      [
        "Ġdetermined",
        -9.98521537622944
      ],
      [
        "Ġcoffee",
        -9.985521055512391
      ],
      [
        "Ġconcentration",
        -9.98571420458361
      ],
      [
        "Ġraise",
        -9.985849002442643
      ],
      [
        "Ġsecure",
        -9.98611648257888
      ],
      [
        "Ġdish",
        -9.986397321989296
      ],
      [
        "Ġsurfaces",
        -9.986654448701035
      ],
      [
        "ĠFood",
        -9.988033770472857
      ],
      [
        "Ġzero",
        -9.988270067643745
      ],
      [
        "Ġblog",
        -9.988692296477932
      ],
      [
        "Ġjoint",
        -9.989276222318706
      ],
      [
        "Ġcount",
        -9.989526012577604
      ],
      [
        "Ġmonitoring",
        -9.989664202812088
      ],
      [
        "Ġcontainer",
        -9.989740214195542
      ],
      [
        "Ġfiber",
        -9.990838889912297
      ],
      [
        "Ġcolour",
        -9.99098700761023
      ],
      [
        "ĠFrench",
        -9.99099266411526
      ],
      [
        "Ġclinical",
        -9.99109851568322
      ],
      [
        "Ġprepared",
        -9.992280804110434
      ],
      [
        "Ġoffering",
        -9.992720437546216
      ],
      [
        "Ġrespond",
        -9.993082121794805
      ],
      [
        "Ġaudience",
        -9.99351738289668
      ],
      [
        "we",
        -9.994084085642193
      ],
      [
        "-being",
        -9.994842412705925
      ],
      [
        "Finally",
        -9.995153582955837
      ],
      [
        "Ġorganizations",
        -9.99551504066199
      ],
      [
        "Ġnews",
        -9.995702007493708
      ],
      [
        "Ġsituations",
        -9.99615265014123
      ],
      [
        "Ġperformed",
        -9.996163275415467
      ],
      [
        "Ġtooth",
        -9.996244799933498
      ],
      [
        "Ġlegs",
        -9.996491612421709
      ],
      [
        "Ġkept",
        -9.99688500498709
      ],
      [
        "ĠSt",
        -9.996958280035631
      ],
      [
        "Ġrain",
        -9.996975390508975
      ],
      [
        "Conclusion",
        -9.997211398379038
      ],
      [
        "Ġassist",
        -9.997304391657408
      ],
      [
        "Many",
        -9.998058737974876
      ],
      [
        "that",
        -9.998141630916264
      ],
      [
        "ĠGoogle",
        -9.998221298611767
      ],
      [
        "Ġcombined",
        -9.9986423469934
      ],
      [
        "Ġprocedure",
        -9.998735330150202
      ],
      [
        "Ġbreeding",
        -9.999101467922996
      ],
      [
        "-time",
        -9.999186921158527
      ],
      [
        "Ġbutton",
        -9.999719219821571
      ],
      [
        "Ġintelligence",
        -10.000261325386864
      ],
      [
        "Ġhydrogen",
        -10.001293172245356
      ],
      [
        "ĠBritish",
        -10.001928654636073
      ],
      [
        "Ġmainly",
        -10.00259928775255
      ],
      [
        "Ġappears",
        -10.002739316342
      ],
      [
        "ĠJune",
        -10.003073461478522
      ],
      [
        "Ġdensity",
        -10.00401075237986
      ],
      [
        "||",
        -10.004870084481446
      ],
      [
        "Ġstatus",
        -10.004980673827118
      ],
      [
        "Ġcrop",
        -10.005361913436165
      ],
      [
        "Ġminimum",
        -10.00572189314786
      ],
      [
        "Ġvalve",
        -10.00677809351084
      ],
      [
        "Ġprofessionals",
        -10.006831999830244
      ],
      [
        "Ġmonitor",
        -10.007598887869625
      ],
      [
        "Ġactions",
        -10.009517338151518
      ],
      [
        "Ġconclusion",
        -10.009735481705093
      ],
      [
        "Ġdrink",
        -10.010713854191632
      ],
      [
        "Ġsnow",
        -10.010818561478091
      ],
      [
        "ĠMarch",
        -10.010852720478876
      ],
      [
        "Ġcontrast",
        -10.010944953590284
      ],
      [
        "Ġeducational",
        -10.011274862104866
      ],
      [
        "Ġplayer",
        -10.011706696092968
      ],
      [
        "ÂŃ",
        -10.011802773939916
      ],
      [
        "Ġaspect",
        -10.01199090316654
      ],
      [
        "Ġfight",
        -10.012539164994145
      ],
      [
        "Ġawareness",
        -10.013401445140111
      ],
      [
        "Ġamazing",
        -10.014337416537543
      ],
      [
        "Ġannual",
        -10.014571915694903
      ],
      [
        "-friendly",
        -10.015441966611128
      ],
      [
        "Ġfarm",
        -10.016003619447291
      ],
      [
        "ĠOver",
        -10.016019312190728
      ],
      [
        "Ġchallenging",
        -10.017379749795854
      ],
      [
        "Ġfear",
        -10.017469579392786
      ],
      [
        "Ġplays",
        -10.017555881906226
      ],
      [
        "Ġuniverse",
        -10.018753625961626
      ],
      [
        "Ġattempt",
        -10.01928257788811
      ],
      [
        "Ġmeasured",
        -10.019802582087213
      ],
      [
        "Ġapart",
        -10.020118725745606
      ],
      [
        "Ġwar",
        -10.02039896995917
      ],
      [
        "Ġimproving",
        -10.02096262587455
      ],
      [
        "Ġsurrounding",
        -10.021226125085288
      ],
      [
        "Â·",
        -10.02274749534055
      ],
      [
        "focused",
        -10.023172626019376
      ],
      [
        "Ġcook",
        -10.023564966786846
      ],
      [
        "ĠApril",
        -10.024271747487916
      ],
      [
        "Ġdesigns",
        -10.024938942184503
      ],
      [
        "Ġmobile",
        -10.025036367705496
      ],
      [
        "Ġcrops",
        -10.025364237637303
      ],
      [
        "Ġenter",
        -10.026069580879671
      ],
      [
        "Ġextend",
        -10.027436016544886
      ],
      [
        "Ġstarts",
        -10.027794388666663
      ],
      [
        "truly",
        -10.027925390634444
      ],
      [
        "Ġleads",
        -10.02860660321996
      ],
      [
        "Ġsell",
        -10.029241446866015
      ],
      [
        "Ġplane",
        -10.029250089183792
      ],
      [
        "ĠPeople",
        -10.030813806224549
      ],
      [
        "Ġshowing",
        -10.034777782734082
      ],
      [
        "plenty",
        -10.03501695139546
      ],
      [
        "Ġpowder",
        -10.036672763958183
      ],
      [
        "Ġstock",
        -10.037323246368024
      ],
      [
        "ĠWar",
        -10.03810359520086
      ],
      [
        "Ġbite",
        -10.038169659971116
      ],
      [
        "turned",
        -10.038967348480265
      ],
      [
        "Ġdecide",
        -10.039178447544517
      ],
      [
        "Ġsensitive",
        -10.03922290014815
      ],
      [
        "Ġchoices",
        -10.039308106630832
      ],
      [
        "ĠInternational",
        -10.04118634674156
      ],
      [
        "Ġphotos",
        -10.041780844062725
      ],
      [
        "Ġgear",
        -10.042116034833438
      ],
      [
        "ĠSystem",
        -10.04229412411254
      ],
      [
        "Ġerror",
        -10.042347317474103
      ],
      [
        "Ġmechanical",
        -10.043958745594994
      ],
      [
        "referred",
        -10.044498716084108
      ],
      [
        "Ġconcern",
        -10.044760181276876
      ],
      [
        "Ġperhaps",
        -10.045244690948977
      ],
      [
        "Ġdecrease",
        -10.046468623330318
      ],
      [
        "Ġlaser",
        -10.048978924749054
      ],
      [
        "Ġbottle",
        -10.049315460836825
      ],
      [
        "Ġplate",
        -10.049575582342069
      ],
      [
        "Ġwhose",
        -10.051183551466332
      ],
      [
        "Ġfundamental",
        -10.051933625309818
      ],
      [
        "Ġmajority",
        -10.052016801400136
      ],
      [
        "Ġcup",
        -10.05289677463606
      ],
      [
        "Ġleaving",
        -10.054456964560458
      ],
      [
        "Ġsuper",
        -10.055023563855537
      ],
      [
        "Ġprinting",
        -10.055493108744916
      ],
      [
        "Ġtreatments",
        -10.055610989601233
      ],
      [
        "Ġsequence",
        -10.055693341903975
      ],
      [
        "shared",
        -10.056256457836332
      ],
      [
        "Ġmechanism",
        -10.056900414025703
      ],
      [
        "Ġstatement",
        -10.05730132243877
      ],
      [
        "Ġpush",
        -10.057447193740632
      ],
      [
        "Ġforces",
        -10.05797713590168
      ],
      [
        "Ġdust",
        -10.060278077513091
      ],
      [
        "Ġopening",
        -10.061481418418133
      ],
      [
        "Ġowner",
        -10.06159213641916
      ],
      [
        "ĠWell",
        -10.062264880872146
      ],
      [
        "Ġpreviously",
        -10.06262215688115
      ],
      [
        "Ġestimated",
        -10.063477194155045
      ],
      [
        "Ġdrain",
        -10.065308985923972
      ],
      [
        "ĠBlack",
        -10.066000462536827
      ],
      [
        "up",
        -10.066922611855748
      ],
      [
        "Ġexhibit",
        -10.067773047888783
      ],
      [
        "Ġchronic",
        -10.068092049859944
      ],
      [
        "Ġfilled",
        -10.06890991122332
      ],
      [
        "Ġmission",
        -10.069027555838243
      ],
      [
        "Ġportion",
        -10.069072991501638
      ],
      [
        "Ġradiation",
        -10.069667644695327
      ],
      [
        "ĠGreat",
        -10.069802983865117
      ],
      [
        "Ġsmart",
        -10.069879994209654
      ],
      [
        "ĠBoth",
        -10.07057650053762
      ],
      [
        "Ġshapes",
        -10.071356882169226
      ],
      [
        "Ġspeaker",
        -10.071773491689838
      ],
      [
        "Ġcatch",
        -10.074576681632022
      ],
      [
        "Ġvisible",
        -10.0749723134649
      ],
      [
        "Ġgenerated",
        -10.07529770092986
      ],
      [
        "Ġborn",
        -10.076213982381043
      ],
      [
        "Ġselected",
        -10.076348326325425
      ],
      [
        "Ġtechnical",
        -10.07686591092481
      ],
      [
        "Ġrefers",
        -10.07734743764319
      ],
      [
        "Ġpot",
        -10.077489347041574
      ],
      [
        "Ġhomes",
        -10.0780850140909
      ],
      [
        "Ġbones",
        -10.078178260785906
      ],
      [
        "ĠJohn",
        -10.078232083715084
      ],
      [
        "Ġtrust",
        -10.078681397747314
      ],
      [
        "Ġminerals",
        -10.078998957476385
      ],
      [
        "ĠAfrican",
        -10.079313072498284
      ],
      [
        "ch",
        -10.080083925625935
      ],
      [
        "Ġtried",
        -10.080114110266049
      ],
      [
        "one",
        -10.080222003454637
      ],
      [
        "ĠEnergy",
        -10.08056310994626
      ],
      [
        "Ġclothing",
        -10.080681523428652
      ],
      [
        "Ġgap",
        -10.081133702129634
      ],
      [
        "Ġconducted",
        -10.082499019017208
      ],
      [
        "Z",
        -10.082974693420434
      ],
      [
        "ĠEducation",
        -10.084156476678569
      ],
      [
        "Ġessay",
        -10.08461005471446
      ],
      [
        "Ġfeedback",
        -10.085396532863518
      ],
      [
        "Ġenable",
        -10.08583151503896
      ],
      [
        "].",
        -10.085856081607613
      ],
      [
        "Ġcm",
        -10.086086737319576
      ],
      [
        "Ġpainting",
        -10.08717214838919
      ],
      [
        "ul",
        -10.088375729956942
      ],
      [
        "Ġreactions",
        -10.08881999190506
      ],
      [
        "Ġcertainly",
        -10.089012828552448
      ],
      [
        "Ġstable",
        -10.08918166525825
      ],
      [
        "Ġattract",
        -10.08931037823983
      ],
      [
        "Ġinstallation",
        -10.08950702918736
      ],
      [
        "ate",
        -10.091316823721924
      ],
      [
        "Ġkinds",
        -10.092311328145309
      ],
      [
        "Ġsets",
        -10.092811519131551
      ],
      [
        "Ġconsidering",
        -10.092947463579582
      ],
      [
        "Ġsolve",
        -10.092948224103354
      ],
      [
        "old",
        -10.094917101345832
      ],
      [
        "-related",
        -10.095132110222062
      ],
      [
        "Ġtube",
        -10.095161869388788
      ],
      [
        "Ġchocolate",
        -10.095560243432026
      ],
      [
        "Ġparticipants",
        -10.095695763023151
      ],
      [
        "Ġintake",
        -10.096062851848863
      ],
      [
        "Ġscene",
        -10.096288196866212
      ],
      [
        "Ġproducing",
        -10.096486677212097
      ],
      [
        "Ġbudget",
        -10.097623290547467
      ],
      [
        "Ġriver",
        -10.09786604674629
      ],
      [
        "Ġtail",
        -10.09800824285876
      ],
      [
        "`",
        -10.09823734731817
      ],
      [
        "Ġphotography",
        -10.098431422418535
      ],
      [
        "Ġthick",
        -10.09869331260839
      ],
      [
        "ĠPark",
        -10.09987164840144
      ],
      [
        "Ġpresented",
        -10.099924063550205
      ],
      [
        "Ġotherwise",
        -10.100058874145432
      ],
      [
        "ĠHis",
        -10.100488282079866
      ],
      [
        "Ġtrade",
        -10.100548188030364
      ],
      [
        "Ġmap",
        -10.10107187276501
      ],
      [
        "Ġcompounds",
        -10.10107967096985
      ],
      [
        "Ġdisorders",
        -10.10112389854126
      ],
      [
        "Ġwheel",
        -10.103215819401449
      ],
      [
        "Ġrecovery",
        -10.103682376491436
      ],
      [
        "Ġatoms",
        -10.104010655797822
      ],
      [
        "Ġpurposes",
        -10.10437349226754
      ],
      [
        "Ġimpacts",
        -10.104650915804754
      ],
      [
        "Ġsit",
        -10.105087507503274
      ],
      [
        "Ġlabel",
        -10.106030791362777
      ],
      [
        "Ġharm",
        -10.10604184384343
      ],
      [
        "Ġexcessive",
        -10.106224196678165
      ],
      [
        "First",
        -10.108700947812586
      ],
      [
        "Ġbees",
        -10.109883493162693
      ],
      [
        "Ġelectrons",
        -10.11036416470587
      ],
      [
        "Ġagree",
        -10.1104685908936
      ],
      [
        "Ġconcepts",
        -10.110549338531412
      ],
      [
        "ĠRed",
        -10.11075313870226
      ],
      [
        "Ġinternet",
        -10.111007549834698
      ],
      [
        "Ġskill",
        -10.111463378070114
      ],
      [
        "Ġcontrolled",
        -10.112674842451725
      ],
      [
        "Ġemergency",
        -10.112730743811154
      ],
      [
        "Ġinflammation",
        -10.11296276806521
      ],
      [
        "me",
        -10.113114540318245
      ],
      [
        "Ġpictures",
        -10.113406411655692
      ],
      [
        "Ġaffects",
        -10.113617756255524
      ],
      [
        "Ġcooling",
        -10.113839675380342
      ],
      [
        "Ġvarieties",
        -10.11502832443344
      ],
      [
        "Ġwouldn",
        -10.116154886356624
      ],
      [
        "Ġconsists",
        -10.116387926281176
      ],
      [
        "ĠJuly",
        -10.117011605048576
      ],
      [
        "Ġengage",
        -10.117587535384375
      ],
      [
        "Ġdescription",
        -10.11769501753886
      ],
      [
        "Ġformula",
        -10.118666031291342
      ],
      [
        "Ġpure",
        -10.120558386193286
      ],
      [
        "Ġnormally",
        -10.1206058753414
      ],
      [
        "Ġdefinition",
        -10.121064995910324
      ],
      [
        "Ġensures",
        -10.121361704559334
      ],
      [
        "Ġwalking",
        -10.121413911344105
      ],
      [
        "ĠCity",
        -10.121452356949677
      ],
      [
        "Ġwhatever",
        -10.1223639455708
      ],
      [
        "Ġdiversity",
        -10.122477659456743
      ],
      [
        "Ġsurvival",
        -10.122549364393064
      ],
      [
        "Ġfoundation",
        -10.122906626440356
      ],
      [
        "slowly",
        -10.123457723388531
      ],
      [
        "Ġprinciples",
        -10.12348193183198
      ],
      [
        "Ġsuit",
        -10.124955260251784
      ],
      [
        "Ġeight",
        -10.12562256656776
      ],
      [
        "Ġcreation",
        -10.12777183746772
      ],
      [
        "Ġassessment",
        -10.12792431387671
      ],
      [
        "Ġdisorder",
        -10.128583074309017
      ],
      [
        "Ġvirtual",
        -10.129009615837138
      ],
      [
        "Ġclosely",
        -10.129419949112815
      ],
      [
        "Ġexpert",
        -10.13032506059384
      ],
      [
        "Ġdamaged",
        -10.13067735990317
      ],
      [
        "Ġnutrition",
        -10.130889484626111
      ],
      [
        "According",
        -10.130903830924892
      ],
      [
        "Ġwarming",
        -10.131716758987938
      ],
      [
        "Use",
        -10.131830042141171
      ],
      [
        "Ġinstall",
        -10.133279009931016
      ],
      [
        "Ġten",
        -10.136098252370145
      ],
      [
        "Ġcompare",
        -10.136382155846524
      ],
      [
        "Ġcarried",
        -10.13643527476158
      ],
      [
        "Ġdecades",
        -10.136585250715989
      ],
      [
        "Ġinner",
        -10.136651250760597
      ],
      [
        "Ġdecided",
        -10.136657242390088
      ],
      [
        "Ġmixed",
        -10.136862894191204
      ],
      [
        "not",
        -10.137645989861664
      ],
      [
        "Ġseeing",
        -10.137810995265944
      ],
      [
        "Ġinsights",
        -10.137859390524218
      ],
      [
        "Let",
        -10.13856907538304
      ],
      [
        "Ġunless",
        -10.138856502073445
      ],
      [
        "ĠKeep",
        -10.13998378477042
      ],
      [
        "He",
        -10.14003194394321
      ],
      [
        "Ġchapter",
        -10.140953229485506
      ],
      [
        "ĠSeptember",
        -10.141143105355331
      ],
      [
        "Ġsizes",
        -10.141241670901382
      ],
      [
        "Ġexpand",
        -10.141293472173963
      ],
      [
        "Ġprior",
        -10.141678186637092
      ],
      [
        "Ġpercentage",
        -10.142357690914622
      ],
      [
        "Ġdishes",
        -10.14242386147741
      ],
      [
        "Ġboost",
        -10.14258110485731
      ],
      [
        "Ġexcess",
        -10.14265101378638
      ],
      [
        "Ġdepend",
        -10.143132295069178
      ],
      [
        "Ġholes",
        -10.143467346691573
      ],
      [
        "Ġtopics",
        -10.1446737333562
      ],
      [
        "Ġspent",
        -10.1450881366187
      ],
      [
        "Ġbowl",
        -10.145160749480034
      ],
      [
        "Ġlinked",
        -10.146218341454857
      ],
      [
        "Ġcollege",
        -10.146233335801192
      ],
      [
        "Ġacids",
        -10.148998844144987
      ],
      [
        "Ġdocument",
        -10.149425450659846
      ],
      [
        "Ġdemonstrate",
        -10.14954102349122
      ],
      [
        "Ġshift",
        -10.149674185920317
      ],
      [
        "from",
        -10.150323216224251
      ],
      [
        "Ġcopper",
        -10.150542754326986
      ],
      [
        "Ġtested",
        -10.151683000985166
      ],
      [
        "Ġfunctional",
        -10.152403568183612
      ],
      [
        "Ġinvestment",
        -10.15286501922997
      ],
      [
        "Ġcommunicate",
        -10.153281999677665
      ],
      [
        "ling",
        -10.154809282561576
      ],
      [
        "Ġgreenhouse",
        -10.155199767731084
      ],
      [
        "Ġtight",
        -10.155206839994458
      ],
      [
        "Ġrely",
        -10.15567905060628
      ],
      [
        "Ġcorrectly",
        -10.155885166407764
      ],
      [
        "Ġcontaining",
        -10.156144278800312
      ],
      [
        "ĠIndian",
        -10.156371170705311
      ],
      [
        "Ġstick",
        -10.156912356115065
      ],
      [
        "Ġclearly",
        -10.157718487493993
      ],
      [
        "Ġshot",
        -10.159130956645017
      ],
      [
        "Ġdiscover",
        -10.159486055379457
      ],
      [
        "Ġahead",
        -10.160859058400488
      ],
      [
        "Ġpregnancy",
        -10.160944416311567
      ],
      [
        "Ġprey",
        -10.161525096627996
      ],
      [
        "Ġdistinct",
        -10.161580435370553
      ],
      [
        "Ġsauce",
        -10.162248967249626
      ],
      [
        "Ġhunting",
        -10.162901771849487
      ],
      [
        "Ġputting",
        -10.163094773896622
      ],
      [
        "Ġfiles",
        -10.163351416199482
      ],
      [
        "Ġperiods",
        -10.163665930334217
      ],
      [
        "ĠII",
        -10.165062150301544
      ],
      [
        "Ġmolecular",
        -10.166656618330713
      ],
      [
        "Ġrepresents",
        -10.1675078843372
      ],
      [
        "Ġtraffic",
        -10.168549780157877
      ],
      [
        "Ġattached",
        -10.16859177859463
      ],
      [
        "Ġcloser",
        -10.168741866424304
      ],
      [
        "Ġcalcium",
        -10.168800920756798
      ],
      [
        "Ġbigger",
        -10.16929453572863
      ],
      [
        "Ġparent",
        -10.169424970791406
      ],
      [
        "Ġfirm",
        -10.169963380303916
      ],
      [
        "Ġguidelines",
        -10.170089485986788
      ],
      [
        "Ġcreates",
        -10.17042662781594
      ],
      [
        "Ġinteraction",
        -10.170932105606688
      ],
      [
        "Ġmicro",
        -10.171105187421796
      ],
      [
        "ĠSea",
        -10.171116946803863
      ],
      [
        "Ġvideos",
        -10.17197972533782
      ],
      [
        "Ġphysics",
        -10.172199725031357
      ],
      [
        "Ġcreatures",
        -10.172865711408065
      ],
      [
        "Ġthrive",
        -10.173109657061838
      ],
      [
        "Ġurban",
        -10.173492961409782
      ],
      [
        "ary",
        -10.173710305278853
      ],
      [
        "Ġmarketing",
        -10.173960146873274
      ],
      [
        "Ġaccuracy",
        -10.17405836278772
      ],
      [
        "Ġprices",
        -10.174138254586094
      ],
      [
        "Ġstar",
        -10.174295890501842
      ],
      [
        "Ġmeeting",
        -10.174332598338202
      ],
      [
        "ĠTake",
        -10.174451492469656
      ],
      [
        "Ġship",
        -10.174804299777849
      ],
      [
        "Ġpress",
        -10.175055968703004
      ],
      [
        "Ġmanner",
        -10.17536407435331
      ],
      [
        "ĠInstead",
        -10.176535059204474
      ],
      [
        "Ġmention",
        -10.176725946319324
      ],
      [
        "Ġbar",
        -10.177641951633182
      ],
      [
        "ĠWest",
        -10.178385482341511
      ],
      [
        "Ġcombine",
        -10.178904586049772
      ],
      [
        "Ġcomputers",
        -10.179102399059698
      ],
      [
        "Ġtrain",
        -10.180210382532662
      ],
      [
        "Ġhappened",
        -10.180224131973151
      ],
      [
        "Ġconsume",
        -10.1802503278156
      ],
      [
        "with",
        -10.180338975760456
      ],
      [
        "Although",
        -10.1805449485409
      ],
      [
        "Ġfossil",
        -10.180660775985558
      ],
      [
        "Ġcream",
        -10.18157113698784
      ],
      [
        "Ġbuying",
        -10.182689011647772
      ],
      [
        "Ġdefinitely",
        -10.183863688928186
      ],
      [
        "Ġvast",
        -10.18423009295356
      ],
      [
        "Ġstomach",
        -10.184266048003968
      ],
      [
        "ĠCounty",
        -10.184363896664442
      ],
      [
        "Ġboat",
        -10.184564572057006
      ],
      [
        "Ġpounds",
        -10.1849121067834
      ],
      [
        "Ġapproaches",
        -10.185057071623891
      ],
      [
        "Ġturning",
        -10.185378434497215
      ],
      [
        "ĠThus",
        -10.185669701613635
      ],
      [
        "Ġbond",
        -10.18588073997176
      ],
      [
        "Ġbroken",
        -10.187134695721852
      ],
      [
        "Ġspeak",
        -10.18790586765548
      ],
      [
        "Ġsides",
        -10.188149487264049
      ],
      [
        "ĠpH",
        -10.188657948250976
      ],
      [
        "</",
        -10.190113018988482
      ],
      [
        "Ġtoxic",
        -10.190740265826792
      ],
      [
        "Ġpages",
        -10.19089150197775
      ],
      [
        "Ġroute",
        -10.191657697986829
      ],
      [
        "Ġcareful",
        -10.19191296693924
      ],
      [
        "Ġlocations",
        -10.191971013485938
      ],
      [
        "From",
        -10.193144469653392
      ],
      [
        "ĠOctober",
        -10.19336887547662
      ],
      [
        "Ġlaws",
        -10.193511391688387
      ],
      [
        "age",
        -10.194584446455782
      ],
      [
        "Ġfamiliar",
        -10.195284828959574
      ],
      [
        "ĠCheck",
        -10.195472306618552
      ],
      [
        "Ġpanel",
        -10.195674152764408
      ],
      [
        "Ġinteractions",
        -10.195726522619388
      ],
      [
        "Ġlesson",
        -10.196090905266804
      ],
      [
        "Ġsheet",
        -10.196358100159326
      ],
      [
        "Ġfix",
        -10.196898003566286
      ],
      [
        "Ġtall",
        -10.197112836400985
      ],
      [
        "Ġfixed",
        -10.197490670825989
      ],
      [
        "Ġseven",
        -10.198756847944733
      ],
      [
        "Ġobtained",
        -10.198849516871968
      ],
      [
        "Ġworry",
        -10.198955234455047
      ],
      [
        "Ġmedication",
        -10.199244576804324
      ],
      [
        "Ġpreserve",
        -10.199588317260169
      ],
      [
        "Moreover",
        -10.200109932783985
      ],
      [
        "Ġpassed",
        -10.200308721302887
      ],
      [
        "Ġbalanced",
        -10.201135746746772
      ],
      [
        "Ġmeals",
        -10.201350562624269
      ],
      [
        "Ġintended",
        -10.201553399627995
      ],
      [
        "ĠAbout",
        -10.20251476822125
      ],
      [
        "Ġinstalled",
        -10.202743511796246
      ],
      [
        "Ġjoin",
        -10.203058987691442
      ],
      [
        "Ġeconomy",
        -10.203133810369414
      ],
      [
        "Ġindependent",
        -10.205288227579713
      ],
      [
        "Ġfelt",
        -10.20589811943401
      ],
      [
        "âĢ¦ĊĊ",
        -10.205933252436576
      ],
      [
        "Ġdioxide",
        -10.206927711356286
      ],
      [
        "Ġdepression",
        -10.207602247391131
      ],
      [
        "Ġexact",
        -10.207610299911169
      ],
      [
        "Ġworldwide",
        -10.208126025582455
      ],
      [
        "Ġprotected",
        -10.20962850487575
      ],
      [
        "Ġsold",
        -10.209657946042965
      ],
      [
        "Ġwindows",
        -10.209865702969054
      ],
      [
        "Ġfamous",
        -10.210063278110216
      ],
      [
        "Ġsharing",
        -10.210508701759606
      ],
      [
        "Ġfinish",
        -10.211085735470636
      ],
      [
        "Ġdeeper",
        -10.211192946242264
      ],
      [
        "removing",
        -10.211507375140592
      ],
      [
        "Ġrapidly",
        -10.211808796145014
      ],
      [
        "Ġsubstance",
        -10.212967908701836
      ],
      [
        "Ġbegins",
        -10.213027252020456
      ],
      [
        "Ġbutter",
        -10.213035485730986
      ],
      [
        "Ġturns",
        -10.213140591486347
      ],
      [
        "Ġwoman",
        -10.21314127649832
      ],
      [
        "Ġtwice",
        -10.21323307818973
      ],
      [
        "ĠCollege",
        -10.213240407484724
      ],
      [
        "Ġcooked",
        -10.213260435059109
      ],
      [
        "Ġsuggested",
        -10.21387543780475
      ],
      [
        "Ġnames",
        -10.214603636495026
      ],
      [
        "Ġadapt",
        -10.215005897678813
      ],
      [
        "Ġinnovative",
        -10.21503075678425
      ],
      [
        "Ġcollected",
        -10.215569351988083
      ],
      [
        "Ġproduces",
        -10.215579047247902
      ],
      [
        "ĠGreen",
        -10.215613362841296
      ],
      [
        "Ġschedule",
        -10.215699073294774
      ],
      [
        "Figure",
        -10.215803498480966
      ],
      [
        "Ġraised",
        -10.216069017123177
      ],
      [
        "ĠJanuary",
        -10.216835569520912
      ],
      [
        "Ġrecognize",
        -10.21735124525336
      ],
      [
        "Ġcompound",
        -10.217691520351211
      ],
      [
        "Ġclosed",
        -10.217728232304234
      ],
      [
        "Ġinjuries",
        -10.217984057068891
      ],
      [
        "Ġhabits",
        -10.21826713546752
      ],
      [
        "Ġagriculture",
        -10.218582365959522
      ],
      [
        "Ġliver",
        -10.219134055368938
      ],
      [
        "Ġcontract",
        -10.219323601982788
      ],
      [
        "Share",
        -10.219584882237465
      ],
      [
        "Ġthrow",
        -10.22151442060616
      ],
      [
        "Ġworkers",
        -10.221802151062017
      ],
      [
        "ĠLike",
        -10.222075463189338
      ],
      [
        "ĠAugust",
        -10.222376538149478
      ],
      [
        "Ġbrush",
        -10.22293222724323
      ],
      [
        "Ġnitrogen",
        -10.223314624604454
      ],
      [
        "Ġrapid",
        -10.223461572565702
      ],
      [
        "looked",
        -10.22399267254654
      ],
      [
        "Ġfurniture",
        -10.224307893389756
      ],
      [
        "Ġhorses",
        -10.22437330767354
      ],
      [
        "Ġcommand",
        -10.22478753336128
      ],
      [
        "ĠSan",
        -10.225169752656411
      ],
      [
        "Ġneck",
        -10.225329874375229
      ],
      [
        "Ġshoes",
        -10.225359357509326
      ],
      [
        "ĠIts",
        -10.225560865544946
      ],
      [
        "Ġfail",
        -10.225757799634524
      ],
      [
        "Ġbaking",
        -10.226451066677024
      ],
      [
        "Ġpreventing",
        -10.226861057604028
      ],
      [
        "Ġpreparation",
        -10.2276236683812
      ],
      [
        "Ġthermal",
        -10.22828779316774
      ],
      [
        "ĠChinese",
        -10.228984939117778
      ],
      [
        "Ġsharp",
        -10.229705733700396
      ],
      [
        "ĠCOVID",
        -10.229897036936094
      ],
      [
        "ĠWhere",
        -10.230619247901751
      ],
      [
        "Ġconvert",
        -10.2306425912912
      ],
      [
        "Ġprofessor",
        -10.230718033496286
      ],
      [
        "Ġecosystem",
        -10.23171548151591
      ],
      [
        "Ġlawn",
        -10.231750650332025
      ],
      [
        "Ġminimize",
        -10.231797650526063
      ],
      [
        "line",
        -10.23207629505539
      ],
      [
        "Ġmath",
        -10.232226247340316
      ],
      [
        "Ġhardware",
        -10.232251731422547
      ],
      [
        "Ġstages",
        -10.232586025419211
      ],
      [
        "Ġanswers",
        -10.233051141315109
      ],
      [
        "Ġopposite",
        -10.23321661241144
      ],
      [
        "but",
        -10.233418125281394
      ],
      [
        "Ġarray",
        -10.234430910528763
      ],
      [
        "Ġreports",
        -10.235287334227197
      ],
      [
        "Ġsent",
        -10.235496040411707
      ],
      [
        "ĠTechnology",
        -10.23603483684708
      ],
      [
        "Ġseconds",
        -10.2360698843413
      ],
      [
        "Ġpests",
        -10.236316555417629
      ],
      [
        "Ġitem",
        -10.236546128436409
      ],
      [
        "Ġoffered",
        -10.237101651624949
      ],
      [
        "Ġrace",
        -10.238910550455886
      ],
      [
        "Ġbroad",
        -10.23902865874899
      ],
      [
        "Ġbreast",
        -10.23915964316462
      ],
      [
        "Ġcommitment",
        -10.23952486564247
      ],
      [
        "ions",
        -10.240445534717374
      ],
      [
        "Ġbiggest",
        -10.240772343705435
      ],
      [
        "Ġdiagnosis",
        -10.241406872736787
      ],
      [
        "Ġstability",
        -10.241684999660356
      ],
      [
        "Ġmedications",
        -10.242077783727696
      ],
      [
        "Ġsustainability",
        -10.242769739416588
      ],
      [
        "ĠAct",
        -10.242813201356327
      ],
      [
        "ĠDe",
        -10.242860362897238
      ],
      [
        "Ġsuffer",
        -10.24372638373342
      ],
      [
        "Ġformat",
        -10.246622879757208
      ],
      [
        "Ġvariable",
        -10.24670670754768
      ],
      [
        "Ġrecipe",
        -10.24739120757876
      ],
      [
        "ĠLearning",
        -10.247733570014509
      ],
      [
        ".[",
        -10.247883255657523
      ],
      [
        "Ġbiology",
        -10.248060670570098
      ],
      [
        "Ġexchange",
        -10.24890239017161
      ],
      [
        "Ġincreasingly",
        -10.248998439717075
      ],
      [
        "Ġtrained",
        -10.249143037036855
      ],
      [
        "Ġdiscovery",
        -10.249585072787823
      ],
      [
        "Ġcompetition",
        -10.249864298250646
      ],
      [
        "Ġdriver",
        -10.250759370503031
      ],
      [
        "Ġrequest",
        -10.251095462675236
      ],
      [
        "ĠFlorida",
        -10.251124828684825
      ],
      [
        "Ġoven",
        -10.25205612529064
      ],
      [
        "Ġserver",
        -10.252489419463725
      ],
      [
        "Ġexciting",
        -10.252491330620565
      ],
      [
        "Ġwish",
        -10.252794097489504
      ],
      [
        "like",
        -10.253235393559068
      ],
      [
        "Ġoperate",
        -10.253414139248616
      ],
      [
        "Ġpeak",
        -10.253565052270476
      ],
      [
        "Ġjournal",
        -10.25392414242962
      ],
      [
        "Ġdetection",
        -10.25404254797354
      ],
      [
        "Ġcompleted",
        -10.254296012283689
      ],
      [
        "ĠControl",
        -10.254399450359733
      ],
      [
        "Ġworse",
        -10.255090713603634
      ],
      [
        "Ġdelicious",
        -10.255459914632835
      ],
      [
        "Ġobtain",
        -10.255929361233951
      ],
      [
        "Ġtip",
        -10.256222878566046
      ],
      [
        "Ġdespite",
        -10.25647437222108
      ],
      [
        "Ġclothes",
        -10.256654923490457
      ],
      [
        "ĠProgram",
        -10.257075229816175
      ],
      [
        "-on",
        -10.258365815936692
      ],
      [
        "Ġflying",
        -10.25873444241134
      ],
      [
        "Ġbelieved",
        -10.259032611392373
      ],
      [
        "Ġnose",
        -10.259342671665689
      ],
      [
        "Ġindustries",
        -10.259404962803623
      ],
      [
        "Ġconventional",
        -10.259461344161268
      ],
      [
        "Ġdedicated",
        -10.259648873496614
      ],
      [
        "Ġcurve",
        -10.259891724885367
      ],
      [
        "Ġcapabilities",
        -10.260193155470198
      ],
      [
        "Ġspray",
        -10.260947472989065
      ],
      [
        "Ġhistorical",
        -10.2616103107054
      ],
      [
        "Ġequation",
        -10.262159223920293
      ],
      [
        "Ġdiscussed",
        -10.262571929245212
      ],
      [
        "Ġfriendly",
        -10.262813806561642
      ],
      [
        "Ġconnections",
        -10.26303917630891
      ],
      [
        "Ġsubstances",
        -10.263676721090514
      ],
      [
        "Ġdanger",
        -10.264699419266291
      ],
      [
        "Ġdiagram",
        -10.26484929333015
      ],
      [
        "Ġdrinking",
        -10.26538713120518
      ],
      [
        "Ġregulations",
        -10.265572224069947
      ],
      [
        "Ġagricultural",
        -10.26594640822397
      ],
      [
        "Ġexplained",
        -10.26599762922456
      ],
      [
        "Ġinsurance",
        -10.266208061015332
      ],
      [
        "Ġsuccessfully",
        -10.266347262915644
      ],
      [
        "Ġexploring",
        -10.266438698490784
      ],
      [
        "Ġgave",
        -10.266939610735808
      ],
      [
        "}",
        -10.267140131605515
      ],
      [
        "Ġseeking",
        -10.26735964625407
      ],
      [
        "Ġcharacters",
        -10.267559981138312
      ],
      [
        "Ġmeasurement",
        -10.267847388394696
      ],
      [
        "Ġemotions",
        -10.26784993299906
      ],
      [
        "Those",
        -10.268750687571876
      ],
      [
        "Ġbuildings",
        -10.270237260136822
      ],
      [
        "Ġemployees",
        -10.270973792025192
      ],
      [
        "Ġspaces",
        -10.271905955936964
      ],
      [
        "Ġlessons",
        -10.272119718824433
      ],
      [
        "Ġinformed",
        -10.272268090619976
      ],
      [
        "Ġinteract",
        -10.272724359001586
      ],
      [
        "Ġlibrary",
        -10.2732877921607
      ],
      [
        "Ġthreat",
        -10.273598163099551
      ],
      [
        "ĠTV",
        -10.274455250294006
      ],
      [
        "Ġpreferences",
        -10.274715959737811
      ],
      [
        "ĠLED",
        -10.275426924962924
      ],
      [
        "Ġconfidence",
        -10.275520634850578
      ],
      [
        "Ġmembrane",
        -10.27587240707762
      ],
      [
        "see",
        -10.276555063006665
      ],
      [
        "Ġsurvey",
        -10.277365125679571
      ],
      [
        "Ġexperiments",
        -10.278372636965136
      ],
      [
        "Ġreplaced",
        -10.278699108088562
      ],
      [
        "Ġconsumers",
        -10.279064358038942
      ],
      [
        "Ġmassive",
        -10.279354343834372
      ],
      [
        "ĠDesign",
        -10.279460416295422
      ],
      [
        "Ġzone",
        -10.279538468399572
      ],
      [
        "way",
        -10.27959597759956
      ],
      [
        "Ġprogramming",
        -10.279906643035591
      ],
      [
        "ĠArt",
        -10.280121816301532
      ],
      [
        "Ġgenome",
        -10.28100244620772
      ],
      [
        "Ġnutrient",
        -10.281184424346804
      ],
      [
        "Ġnovel",
        -10.281442228255171
      ],
      [
        "Ġoutcomes",
        -10.281472613646114
      ],
      [
        "ĠPower",
        -10.282132937603306
      ],
      [
        "Ġsouth",
        -10.282697071726178
      ],
      [
        "Ġchannel",
        -10.282736598153638
      ],
      [
        "ĠCo",
        -10.283805457518772
      ],
      [
        "Ġcalories",
        -10.283883620363824
      ],
      [
        "Ġremote",
        -10.28423794295459
      ],
      [
        "Ġexplains",
        -10.285834770687872
      ],
      [
        "Ġindoor",
        -10.286359530113089
      ],
      [
        "Ġreduces",
        -10.286565602718488
      ],
      [
        "Ġpossibly",
        -10.286932035509158
      ],
      [
        "ĠWhite",
        -10.28746424729886
      ],
      [
        "ĠSociety",
        -10.28771528663575
      ],
      [
        "Ġusage",
        -10.287864747344326
      ],
      [
        "Ġmanufacturer",
        -10.288739792749215
      ],
      [
        "Ġunderlying",
        -10.288816468889523
      ],
      [
        "Ġpackage",
        -10.288896074311811
      ],
      [
        "Ġconsequences",
        -10.288898605069145
      ],
      [
        "Ġrenewable",
        -10.289025122381643
      ],
      [
        "Ġmenu",
        -10.289235022356056
      ],
      [
        "Ġthoughts",
        -10.289890227754588
      ],
      [
        "Ġmanual",
        -10.289892702925153
      ],
      [
        "ĠAssociation",
        -10.290079032602415
      ],
      [
        "ĠGet",
        -10.290506235187795
      ],
      [
        "Ġexplanation",
        -10.290719976833708
      ],
      [
        "Ġblocks",
        -10.290748188084992
      ],
      [
        "ĠStudents",
        -10.292277303167127
      ],
      [
        "Ġprocedures",
        -10.292644758966834
      ],
      [
        "ĠTexas",
        -10.29294789509044
      ],
      [
        "ĠAsia",
        -10.29306515539448
      ],
      [
        "Ġinvolve",
        -10.293499742092363
      ],
      [
        "-of",
        -10.29351611526361
      ],
      [
        "Ġillness",
        -10.293568871041485
      ],
      [
        "ĠGerman",
        -10.29390351154723
      ],
      [
        "Ġintroduce",
        -10.294206850744516
      ],
      [
        "Ġelectron",
        -10.294821507547066
      ],
      [
        "Ġtea",
        -10.294903981148074
      ],
      [
        "Ġbread",
        -10.295406552631386
      ],
      [
        "Ġguidance",
        -10.295491883922493
      ],
      [
        "Ġconstantly",
        -10.296060191443363
      ],
      [
        "Ġband",
        -10.296070843973352
      ],
      [
        "Ġyield",
        -10.296133758079216
      ],
      [
        "Before",
        -10.296360019285824
      ],
      [
        "Ġnorth",
        -10.296459146977924
      ],
      [
        "Ġlay",
        -10.296670576981985
      ],
      [
        "Ġassess",
        -10.296854768049965
      ],
      [
        "Ġadequate",
        -10.296868811095065
      ],
      [
        "Ġburn",
        -10.297350310893943
      ],
      [
        "ĠEast",
        -10.298384247667055
      ],
      [
        "Ġfair",
        -10.298446201870997
      ],
      [
        "Ġimagine",
        -10.298635342586731
      ],
      [
        "ĠPlant",
        -10.299551440514632
      ],
      [
        "Ġmovements",
        -10.299807603595005
      ],
      [
        "Ġswimming",
        -10.299840217355229
      ],
      [
        "Ġacademic",
        -10.300347937089
      ],
      [
        "era",
        -10.300986218066054
      ],
      [
        "Ġhandling",
        -10.301188872497026
      ],
      [
        "Ġwash",
        -10.301313891524778
      ],
      [
        "ĠLife",
        -10.301586523594375
      ],
      [
        "Ġdynamic",
        -10.301882585755136
      ],
      [
        "Ġnotes",
        -10.302105616480382
      ],
      [
        "Ġtrigger",
        -10.3030605674421
      ],
      [
        "Ġplayed",
        -10.303075295038116
      ],
      [
        "Ġcoral",
        -10.305399709890064
      ],
      [
        "Ġforests",
        -10.305476598657265
      ],
      [
        "Ġcoal",
        -10.305656606983904
      ],
      [
        "?\"",
        -10.305684952151951
      ],
      [
        "Ġdiffer",
        -10.306569178695948
      ],
      [
        "Ġrobot",
        -10.306616700579385
      ],
      [
        "ĠService",
        -10.30678478808482
      ],
      [
        "Ġsession",
        -10.30835124164343
      ],
      [
        "Ġinterface",
        -10.30863115820802
      ],
      [
        "Ġpolitical",
        -10.308919954700096
      ],
      [
        "Ġtear",
        -10.310240851960362
      ],
      [
        "Ġrecorded",
        -10.310277493739331
      ],
      [
        "Ġstudying",
        -10.3106990809396
      ],
      [
        "Ġdiameter",
        -10.312208807244955
      ],
      [
        "Ġorigin",
        -10.312593119973892
      ],
      [
        "Ġcorn",
        -10.312809904555769
      ],
      [
        "Ġbasically",
        -10.312816732881704
      ],
      [
        "Ġblend",
        -10.312886622032805
      ],
      [
        "Ġmaster",
        -10.313222174264215
      ],
      [
        "Ġpan",
        -10.31391931214177
      ],
      [
        "Not",
        -10.3140553128386
      ],
      [
        "ur",
        -10.314202402069403
      ],
      [
        "Ġspeech",
        -10.31422921058525
      ],
      [
        "Ġregard",
        -10.314343123970769
      ],
      [
        "Ġvaccine",
        -10.31477643917554
      ],
      [
        "ĠLook",
        -10.31660438374918
      ],
      [
        "Ġsensors",
        -10.317289601373464
      ],
      [
        "Ġdecline",
        -10.317460894222847
      ],
      [
        "Ġsport",
        -10.31779840292888
      ],
      [
        "Ġpanels",
        -10.3193333764271
      ],
      [
        "Since",
        -10.31960490974744
      ],
      [
        "Ġarm",
        -10.319681323494404
      ],
      [
        "Ġcompost",
        -10.31994435975509
      ],
      [
        "ĠGuide",
        -10.32029740329236
      ],
      [
        "Ġadds",
        -10.320320043166715
      ],
      [
        "Ġinnovation",
        -10.320773980746411
      ],
      [
        "Ġrocks",
        -10.320820047924071
      ],
      [
        "Ġsex",
        -10.321146262013045
      ],
      [
        "Ġstructural",
        -10.321258824417118
      ],
      [
        "Ġhumidity",
        -10.321572889055291
      ],
      [
        "Ġcontinued",
        -10.322189208353638
      ],
      [
        "Ġproposed",
        -10.322217142747563
      ],
      [
        "Ġears",
        -10.322250039796874
      ],
      [
        "Ġrandom",
        -10.322418633682814
      ],
      [
        "ĠTime",
        -10.32296042500008
      ],
      [
        "Ġvacuum",
        -10.323029607428706
      ],
      [
        "Ġstores",
        -10.323618670712207
      ],
      [
        "Ġcoast",
        -10.324618875902662
      ],
      [
        "Ġremaining",
        -10.324647264502952
      ],
      [
        "Ġdelivery",
        -10.324968847642106
      ],
      [
        "Ġwrote",
        -10.325105379803324
      ],
      [
        "Ġjuice",
        -10.32515919431545
      ],
      [
        "Ġrecords",
        -10.325754905782356
      ],
      [
        "ĠTwo",
        -10.32583290588948
      ],
      [
        "Ġextensive",
        -10.32640835243522
      ],
      [
        "Ġmining",
        -10.327225885753723
      ],
      [
        "engaging",
        -10.327361241781825
      ],
      [
        "ĠToday",
        -10.327552520377417
      ],
      [
        "ities",
        -10.32816552718404
      ],
      [
        "ous",
        -10.32823330912158
      ],
      [
        "Ġleg",
        -10.32855860074939
      ],
      [
        "Ġmice",
        -10.328656108257857
      ],
      [
        "Ġparallel",
        -10.328709545356842
      ],
      [
        "Ġassume",
        -10.328868448540447
      ],
      [
        "Ġmechanisms",
        -10.328874194062715
      ],
      [
        "Ġride",
        -10.328964059131648
      ],
      [
        "Ġcollect",
        -10.329393793946046
      ],
      [
        "Ġentirely",
        -10.329464349154986
      ],
      [
        "Ġsecondary",
        -10.329922933513508
      ],
      [
        "~",
        -10.330111952775656
      ],
      [
        "Ġreplacement",
        -10.330850942800405
      ],
      [
        "Â°C",
        -10.332315254920362
      ],
      [
        "Ġprove",
        -10.333314409609953
      ],
      [
        "Ġrecycling",
        -10.334426378185915
      ],
      [
        "Ġbreathing",
        -10.334762779305429
      ],
      [
        "Ġcities",
        -10.334797843276698
      ],
      [
        "Ġmyself",
        -10.3352596942094
      ],
      [
        "Ġguess",
        -10.33530258591404
      ],
      [
        "Ġsector",
        -10.335327281514012
      ],
      [
        "Re",
        -10.33633843449948
      ],
      [
        "ier",
        -10.33639948176147
      ],
      [
        "ĠRead",
        -10.336418632045104
      ],
      [
        "Ġanywhere",
        -10.336504628672424
      ],
      [
        "ĠNovember",
        -10.33716079319033
      ],
      [
        "Ġhospital",
        -10.337406773892727
      ],
      [
        ";Ċ",
        -10.33786380795557
      ],
      [
        "Ġoral",
        -10.337981383446866
      ],
      [
        "Ġvegetable",
        -10.338101161741674
      ],
      [
        "Ġforget",
        -10.338237210434633
      ],
      [
        "Ġmissing",
        -10.338511475394728
      ],
      [
        "Ġequivalent",
        -10.338818268016944
      ],
      [
        "ill",
        -10.33884915258272
      ],
      [
        "land",
        -10.339398380726056
      ],
      [
        "Ġestablish",
        -10.339820975702697
      ],
      [
        "Ġtransportation",
        -10.340046602750531
      ],
      [
        "Ġhoney",
        -10.340667933924436
      ],
      [
        "ĠHave",
        -10.340906709352003
      ],
      [
        "Ġpipe",
        -10.341498646330152
      ],
      [
        "Ġletter",
        -10.341703189480462
      ],
      [
        "Ġstudied",
        -10.341719921100744
      ],
      [
        "Ġcovers",
        -10.341774347235404
      ],
      [
        "ĠHome",
        -10.341893692880449
      ],
      [
        "Ġtitle",
        -10.342083070988126
      ],
      [
        "Ġpuppy",
        -10.342223868130583
      ],
      [
        "Ġstring",
        -10.342331722636304
      ],
      [
        "Ġthread",
        -10.342623263914218
      ],
      [
        "Ġcontinuous",
        -10.34302562421308
      ],
      [
        "moved",
        -10.343109513612172
      ],
      [
        "ties",
        -10.343870261500252
      ],
      [
        "Ġdose",
        -10.344073943638993
      ],
      [
        "Ġnest",
        -10.344261930946562
      ],
      [
        "wearing",
        -10.344997927291212
      ],
      [
        "Ġimprovement",
        -10.34514027259353
      ],
      [
        "Ġorange",
        -10.345238744811766
      ],
      [
        "Ġfacilities",
        -10.345606951161225
      ],
      [
        "you",
        -10.345680107441224
      ],
      [
        "Ġachieved",
        -10.345692870757846
      ],
      [
        "ter",
        -10.345742410341408
      ],
      [
        "Ġdebris",
        -10.3465207599111
      ],
      [
        "ĠRemember",
        -10.346567108973485
      ],
      [
        "Ġexcept",
        -10.346793144119973
      ],
      [
        "Ġsupporting",
        -10.346800930927351
      ],
      [
        "Using",
        -10.346886600032876
      ],
      [
        "Ġtrends",
        -10.347031873823443
      ],
      [
        "Ġtrouble",
        -10.347273336745287
      ],
      [
        "Ġapplying",
        -10.347819532032958
      ],
      [
        "Ġcreativity",
        -10.347998078330663
      ],
      [
        "Ġbranches",
        -10.348196274547588
      ],
      [
        "men",
        -10.350298676538568
      ],
      [
        "Ġcards",
        -10.350524588368284
      ],
      [
        "Ġmineral",
        -10.350731927681554
      ],
      [
        "Ġgravity",
        -10.35106606995919
      ],
      [
        "Ġmetals",
        -10.351285915268653
      ],
      [
        "Ġstronger",
        -10.351352251928168
      ],
      [
        "ĠDecember",
        -10.35174223103189
      ],
      [
        "Ġcake",
        -10.352026784458577
      ],
      [
        "Ġreflect",
        -10.352265300169158
      ],
      [
        "ĠAnother",
        -10.35320654768698
      ],
      [
        "Ġbehaviors",
        -10.354000105862818
      ],
      [
        "Ġtruth",
        -10.354070220780528
      ],
      [
        "Ġfrequent",
        -10.354153078518396
      ],
      [
        "Ġdirt",
        -10.35426015383155
      ],
      [
        "Ġlisted",
        -10.354340713190616
      ],
      [
        "Ġaccessible",
        -10.354372624671448
      ],
      [
        "Ġexamine",
        -10.35462848650342
      ],
      [
        "Ġstands",
        -10.354790887129305
      ],
      [
        "Ġmilitary",
        -10.355430573590583
      ],
      [
        "Ġsufficient",
        -10.35569923376603
      ],
      [
        "Ġopinion",
        -10.35584859602055
      ],
      [
        "Ġindex",
        -10.35600254652771
      ],
      [
        "Ġconflict",
        -10.356459177381817
      ],
      [
        "Ġhundreds",
        -10.356940304775822
      ],
      [
        "Ġfarming",
        -10.359009468600185
      ],
      [
        "Ġextended",
        -10.359011239797614
      ],
      [
        "Ġtropical",
        -10.359614613232822
      ],
      [
        "Ġparameters",
        -10.360300814683749
      ],
      [
        "Ġreward",
        -10.360546175219731
      ],
      [
        "Ġlenses",
        -10.360862440443524
      ],
      [
        "ĠCare",
        -10.36101861006479
      ],
      [
        "Ġinch",
        -10.363223073592325
      ],
      [
        "Ġprotective",
        -10.364211027919382
      ],
      [
        "finally",
        -10.364976205468835
      ],
      [
        "More",
        -10.365964779957242
      ],
      [
        "Ġmeasurements",
        -10.36608427688542
      ],
      [
        "ization",
        -10.366933391760076
      ],
      [
        "can",
        -10.367571063738684
      ],
      [
        "ĠEngland",
        -10.368839494167876
      ],
      [
        "Ġbeans",
        -10.368890115673672
      ],
      [
        "Ġloose",
        -10.369298833616266
      ],
      [
        "Ġgone",
        -10.370049513198277
      ],
      [
        "Ġimpossible",
        -10.37040213271382
      ],
      [
        "Ġouter",
        -10.370488054431789
      ],
      [
        "Ġcognitive",
        -10.370497256031522
      ],
      [
        "Ġinfected",
        -10.370662949520094
      ],
      [
        "ĠFoundation",
        -10.370749551845844
      ],
      [
        "Ġstrip",
        -10.370980894076604
      ],
      [
        "Ġindicates",
        -10.37177595832558
      ],
      [
        "Ġincorporate",
        -10.37228913728786
      ],
      [
        "Ġintroduction",
        -10.372687878999908
      ],
      [
        "Ġspecialized",
        -10.373258838734706
      ],
      [
        "ĠPacific",
        -10.373337730666016
      ],
      [
        "Ġvelocity",
        -10.373609684454468
      ],
      [
        "Ġpark",
        -10.373685035643732
      ],
      [
        "Ġeveryday",
        -10.373841150004658
      ],
      [
        "Ġdirector",
        -10.374267326537469
      ],
      [
        "Ġminute",
        -10.37426758111934
      ],
      [
        "Ġedges",
        -10.374346910467985
      ],
      [
        "Ġrecording",
        -10.374719163365617
      ],
      [
        "Ġsales",
        -10.375248352232507
      ],
      [
        "Ġmeant",
        -10.375399471662156
      ],
      [
        "Ġsupported",
        -10.375505335741012
      ],
      [
        "Ġcollaboration",
        -10.375866057053576
      ],
      [
        "Ġfeelings",
        -10.376006175341924
      ],
      [
        "Ġsmoke",
        -10.376156734462263
      ],
      [
        "Ġlinks",
        -10.376205522046224
      ],
      [
        "ĠNature",
        -10.376665547646915
      ],
      [
        "Ġgardening",
        -10.377022178871846
      ],
      [
        "Ġrefer",
        -10.377610166078377
      ],
      [
        "Ġveterinarian",
        -10.378328518525368
      ],
      [
        "ĠThrough",
        -10.37870475956405
      ],
      [
        "ĠTHE",
        -10.378814056086137
      ],
      [
        "Ġserved",
        -10.379005827690232
      ],
      [
        "Ġefficiently",
        -10.37901416699266
      ],
      [
        "Ġassistance",
        -10.379689993508338
      ],
      [
        "Ġnetworks",
        -10.379963036084629
      ],
      [
        "ĠJapanese",
        -10.380212696802428
      ],
      [
        "Ġclassic",
        -10.38038053484708
      ],
      [
        "Ġstation",
        -10.38040531755201
      ],
      [
        "Ġpartner",
        -10.380649563781873
      ],
      [
        "Ġknowing",
        -10.380962952895429
      ],
      [
        "\"The",
        -10.38154858448728
      ],
      [
        "Ġshock",
        -10.381683546303233
      ],
      [
        "Ġpest",
        -10.38190945302063
      ],
      [
        "ĠFebruary",
        -10.381947788726682
      ],
      [
        "Ġdownload",
        -10.381984712558216
      ],
      [
        "ĠZ",
        -10.38237166519427
      ],
      [
        "Ġwashing",
        -10.382487688900769
      ],
      [
        "Ġrights",
        -10.382757175483526
      ],
      [
        "Ġprecise",
        -10.38285967793884
      ],
      [
        "Ġremoval",
        -10.38299170914844
      ],
      [
        "Ġreact",
        -10.383069064967495
      ],
      [
        "Ġfan",
        -10.383219871939836
      ],
      [
        "Ġmeasuring",
        -10.383356632948304
      ],
      [
        "Ġchosen",
        -10.383682974265824
      ],
      [
        "ĠAC",
        -10.384030423723036
      ],
      [
        "Ġease",
        -10.38410675182966
      ],
      [
        "Ġcalculate",
        -10.38417415186869
      ],
      [
        "Ġinstruction",
        -10.384512533695132
      ],
      [
        "Ġasking",
        -10.38454182488771
      ],
      [
        "Ġresolution",
        -10.384593189314543
      ],
      [
        "Ġinterior",
        -10.385981839343197
      ],
      [
        "ĠLake",
        -10.386363506184216
      ],
      [
        "Ġrealize",
        -10.386927012419328
      ],
      [
        "Ġhappening",
        -10.387068694126636
      ],
      [
        "Ġcustom",
        -10.387476669597524
      ],
      [
        "Ġcable",
        -10.38748548903105
      ],
      [
        "Ġpredict",
        -10.387841562886068
      ],
      [
        "Ġtaught",
        -10.388651600687515
      ],
      [
        "Ġbio",
        -10.389181031359492
      ],
      [
        "Ġbear",
        -10.389286843591398
      ],
      [
        "Ġresponsibility",
        -10.390233920985876
      ],
      [
        "Ġdeliver",
        -10.390823619090988
      ],
      [
        "Ġfemales",
        -10.39101180348758
      ],
      [
        "ĠGo",
        -10.39121288177885
      ],
      [
        "Ġbreeds",
        -10.391577475391644
      ],
      [
        "Ġruns",
        -10.39292727698299
      ],
      [
        "Ġplus",
        -10.393153013243042
      ],
      [
        "Ġvet",
        -10.393655316991648
      ],
      [
        "Ġchemistry",
        -10.394205227405468
      ],
      [
        "ĠIsland",
        -10.394875591775
      ],
      [
        "Ġobvious",
        -10.395312669088922
      ],
      [
        "Ġwhereas",
        -10.395794137702325
      ],
      [
        "Ġsouthern",
        -10.39581821754171
      ],
      [
        "Ġexpertise",
        -10.396406639774876
      ],
      [
        "Ġdatabase",
        -10.396448474133946
      ],
      [
        "Ġcomparison",
        -10.3969454400275
      ],
      [
        "ĠData",
        -10.39796607503824
      ],
      [
        "ĠAdd",
        -10.39904794425802
      ],
      [
        "Ġtissues",
        -10.399243024014677
      ],
      [
        "Ġparty",
        -10.399470462036325
      ],
      [
        "âĪĴ",
        -10.399859965286884
      ],
      [
        "Ġfollows",
        -10.400208654640384
      ],
      [
        "Ġbags",
        -10.40029443853014
      ],
      [
        "out",
        -10.400380847655017
      ],
      [
        "Ġmild",
        -10.400756302475518
      ],
      [
        "fewer",
        -10.400848012930606
      ],
      [
        "Ġfinished",
        -10.40113228513681
      ],
      [
        "Ġbreath",
        -10.4014509349748
      ],
      [
        "Ġcalls",
        -10.402060129823404
      ],
      [
        "Ġprinciple",
        -10.402493822502263
      ],
      [
        "Ġvertical",
        -10.403051458288758
      ],
      [
        "Ġfascinating",
        -10.404303465642345
      ],
      [
        "Ġsoap",
        -10.405294598844188
      ],
      [
        "Ġmolecule",
        -10.405454258308028
      ],
      [
        "ĠPlease",
        -10.405886123521226
      ],
      [
        "ranging",
        -10.406690187691384
      ],
      [
        "Ġcomment",
        -10.406779725395518
      ],
      [
        "Ġgum",
        -10.406999135659706
      ],
      [
        "Ġinfrastructure",
        -10.407060626276127
      ],
      [
        "Ġseat",
        -10.407100445501662
      ],
      [
        "ĠChildren",
        -10.407393630168896
      ],
      [
        "Ġpromoting",
        -10.4074194585886
      ],
      [
        "New",
        -10.407674204850974
      ],
      [
        "Ġconsult",
        -10.407694475922414
      ],
      [
        "Ġaccept",
        -10.4080171848395
      ],
      [
        "noticed",
        -10.4084634463853
      ],
      [
        "ĠProject",
        -10.408481799606951
      ],
      [
        "Ġvitamins",
        -10.408841446352568
      ],
      [
        "Ġalgorithm",
        -10.409220069426611
      ],
      [
        "Ġartists",
        -10.41039439289264
      ],
      [
        "During",
        -10.41191415574243
      ],
      [
        "ĠDevelopment",
        -10.411983737094156
      ],
      [
        "Ġconcerned",
        -10.41232774794966
      ],
      [
        "ĠManagement",
        -10.41234911017058
      ],
      [
        "Ġmark",
        -10.414950057914863
      ],
      [
        "Ġalgorithms",
        -10.41573496360235
      ],
      [
        "lies",
        -10.415892827557943
      ],
      [
        "Ġcameras",
        -10.416009267213555
      ],
      [
        "Ġlisten",
        -10.416125562186595
      ],
      [
        "Ġsitting",
        -10.41622501349378
      ],
      [
        "Ġparticle",
        -10.41674065780188
      ],
      [
        "loved",
        -10.416754712292636
      ],
      [
        "ĠNatural",
        -10.416955302702146
      ],
      [
        "-the",
        -10.416979658411462
      ],
      [
        "Ġmoves",
        -10.417132294225436
      ],
      [
        "Ġexercises",
        -10.41745239938252
      ],
      [
        "Ġgut",
        -10.41759808059449
      ],
      [
        "Dr",
        -10.41768253993606
      ],
      [
        "ĠLearn",
        -10.417782416324014
      ],
      [
        "Ġorgans",
        -10.41787193887362
      ],
      [
        "Ġwonderful",
        -10.417946594906557
      ],
      [
        "Ġthanks",
        -10.418033444663434
      ],
      [
        "Ġhousehold",
        -10.418162692451023
      ],
      [
        "Other",
        -10.418895697884595
      ],
      [
        "ĠSee",
        -10.419633594287056
      ],
      [
        "Ġstanding",
        -10.419718784212732
      ],
      [
        "Ġnorthern",
        -10.420257762295057
      ],
      [
        "Ġmanaging",
        -10.420503968396623
      ],
      [
        "Ġwonder",
        -10.4215053165874
      ],
      [
        "Ġshell",
        -10.422080903481834
      ],
      [
        "Ġultimately",
        -10.422219294831931
      ],
      [
        "Ġmeters",
        -10.42226017942494
      ],
      [
        "Ġpredators",
        -10.423899907943456
      ],
      [
        "Ġcopy",
        -10.424288070797818
      ],
      [
        "Ġmales",
        -10.424653657329396
      ],
      [
        "ment",
        -10.425154309313555
      ],
      [
        "Ġjobs",
        -10.426063091791807
      ],
      [
        "Ġmanufacturers",
        -10.426172285706294
      ],
      [
        "Ġsymbol",
        -10.426622651645427
      ],
      [
        "Ġinsulation",
        -10.426791845777538
      ],
      [
        "Ġauthors",
        -10.42682286286597
      ],
      [
        "time",
        -10.426936188804452
      ],
      [
        "Ġhabitats",
        -10.427850583405965
      ],
      [
        "Ġbelief",
        -10.428270781321077
      ],
      [
        "Ġsignificance",
        -10.428318339407118
      ],
      [
        "Ġsupplies",
        -10.428396462408305
      ],
      [
        "Ġdairy",
        -10.428546055326391
      ],
      [
        "safely",
        -10.42857768277606
      ],
      [
        "Ġlaboratory",
        -10.428718562855948
      ],
      [
        "ĠHistory",
        -10.429077438254048
      ],
      [
        "Ġdivided",
        -10.42913587727432
      ],
      [
        "Ġrecognition",
        -10.429156448305012
      ],
      [
        "Don",
        -10.42931688349768
      ],
      [
        "ĠConsider",
        -10.42936268715373
      ],
      [
        "Ġabsorb",
        -10.4294315311467
      ],
      [
        "Ġweak",
        -10.42949764703812
      ],
      [
        "Ġcharging",
        -10.42962922800245
      ],
      [
        "ĠMexico",
        -10.429655481159331
      ],
      [
        "Ġtown",
        -10.429690781617795
      ],
      [
        "Ġwin",
        -10.430119892148747
      ],
      [
        "Ġhighlight",
        -10.43102462116926
      ],
      [
        "Ġtransform",
        -10.43111473791856
      ],
      [
        "ĠMuseum",
        -10.43162411670062
      ],
      [
        "Ġvessels",
        -10.432203507677968
      ],
      [
        "Ġextent",
        -10.433151222495484
      ],
      [
        "Ġtire",
        -10.434309354687455
      ],
      [
        "Ġwatching",
        -10.43466141653723
      ],
      [
        "]Ċ",
        -10.435030553073286
      ],
      [
        "Ġnarrow",
        -10.435840922464248
      ],
      [
        "Ġdive",
        -10.436489070897252
      ],
      [
        "Ġstyles",
        -10.436842492205272
      ],
      [
        "Ġloop",
        -10.436918664849276
      ],
      [
        "Ġfacts",
        -10.437576536260863
      ],
      [
        "Ġperfectly",
        -10.43790404269286
      ],
      [
        "Ġbacterial",
        -10.438917417807351
      ],
      [
        "Ġresistant",
        -10.439073876594458
      ],
      [
        "ĠPro",
        -10.439089098719002
      ],
      [
        "Ġaggressive",
        -10.439398852381949
      ],
      [
        "\"I",
        -10.439685943788346
      ],
      [
        "Ġecosystems",
        -10.439897325280729
      ],
      [
        "Ġautomatically",
        -10.440073627516078
      ],
      [
        "ĠGood",
        -10.440168775659398
      ],
      [
        "Ġserving",
        -10.44018491530003
      ],
      [
        "nd",
        -10.440419325923644
      ],
      [
        "Ġharder",
        -10.440582743050651
      ],
      [
        "Ġnutritional",
        -10.441806046491406
      ],
      [
        "fairly",
        -10.442257108522542
      ],
      [
        "Ġarticles",
        -10.442563105829528
      ],
      [
        "Ġappreciate",
        -10.442629961433012
      ],
      [
        "Ġresponses",
        -10.442778437433644
      ],
      [
        "Â°",
        -10.442783629838807
      ],
      [
        "Ġreached",
        -10.44303072274908
      ],
      [
        "]ĊĊ",
        -10.44307043382246
      ],
      [
        "><",
        -10.44372981897074
      ],
      [
        "ĠEvery",
        -10.44396344783674
      ],
      [
        "Ġfertilizer",
        -10.444138417138737
      ],
      [
        "Ġatom",
        -10.4446820131437
      ],
      [
        "Ġcord",
        -10.445752778111732
      ],
      [
        "Ġisland",
        -10.44719003949056
      ],
      [
        "Ġholding",
        -10.448505077152312
      ],
      [
        "Ġstroke",
        -10.448534912310585
      ],
      [
        "Ġcoil",
        -10.44883878761711
      ],
      [
        "Ġpossibility",
        -10.451168454580753
      ],
      [
        "Ġstars",
        -10.451626763126493
      ],
      [
        "ĠDog",
        -10.451688178206547
      ],
      [
        "Also",
        -10.45171902903
      ],
      [
        "Ġteams",
        -10.451814997055884
      ],
      [
        "Ġgrain",
        -10.451872849347248
      ],
      [
        "Ġgardens",
        -10.453752756670523
      ],
      [
        "Ġpolicies",
        -10.454263496178667
      ],
      [
        "Ġsyndrome",
        -10.45512132315198
      ],
      [
        "Ġincome",
        -10.455845147783831
      ],
      [
        "Ġnecessarily",
        -10.456058710467609
      ],
      [
        "ĠAny",
        -10.456338890792178
      ],
      [
        "Ġeliminate",
        -10.456339309448143
      ],
      [
        "Ġtrend",
        -10.45650137481511
      ],
      [
        "Ġparticipate",
        -10.45659789542666
      ],
      [
        "Ġcourses",
        -10.458482705428397
      ],
      [
        "Ġevaluate",
        -10.45866932716956
      ],
      [
        "Ġjump",
        -10.45875133907653
      ],
      [
        "Ġconversation",
        -10.458851480377646
      ],
      [
        "Ġhealing",
        -10.45990139898574
      ],
      [
        "ĠAustralian",
        -10.459919802892797
      ],
      [
        "Ġvariation",
        -10.45996005738594
      ],
      [
        "Ġimplement",
        -10.460421373929869
      ],
      [
        "Ġyard",
        -10.46043548453759
      ],
      [
        "Where",
        -10.460449609239614
      ],
      [
        "Ġcouldn",
        -10.461243943349617
      ],
      [
        "Ġdefine",
        -10.461381431094706
      ],
      [
        "Does",
        -10.461484406830238
      ],
      [
        "Ġprecision",
        -10.462080127384043
      ],
      [
        "Ġproductivity",
        -10.4625433823572
      ],
      [
        "vibrant",
        -10.462559169631437
      ],
      [
        "):",
        -10.46256280955572
      ],
      [
        "Ġrid",
        -10.462971259186274
      ],
      [
        "knew",
        -10.463315342850352
      ],
      [
        "Ġyes",
        -10.463321684976014
      ],
      [
        "Ġviruses",
        -10.463677014149134
      ],
      [
        "ĠJapan",
        -10.46376842970592
      ],
      [
        "Ġflexible",
        -10.46381308304352
      ],
      [
        "Ġaluminum",
        -10.464276784100267
      ],
      [
        "Ġbrings",
        -10.464615084878906
      ],
      [
        "Ġflexibility",
        -10.46464487679916
      ],
      [
        "Ġmood",
        -10.465270178376578
      ],
      [
        "Ġintensity",
        -10.465487670863094
      ],
      [
        "Ġsteam",
        -10.465823230038858
      ],
      [
        "Ġspectrum",
        -10.46711998839392
      ],
      [
        "Ġlogic",
        -10.467718350165436
      ],
      [
        "Ġbelong",
        -10.46804020058419
      ],
      [
        "Ġextract",
        -10.46809956305994
      ],
      [
        "Ġplatforms",
        -10.46982404207906
      ],
      [
        "Ġclay",
        -10.470462124827243
      ],
      [
        "Ġcleaner",
        -10.47101363739582
      ],
      [
        "Ġpro",
        -10.47156915899012
      ],
      [
        "Ġlift",
        -10.47167944872939
      ],
      [
        "Ġscore",
        -10.471722283260815
      ],
      [
        "Ġmovie",
        -10.471726481021513
      ],
      [
        "Ġsessions",
        -10.472285147659832
      ],
      [
        "Ġduration",
        -10.472423188960462
      ],
      [
        "Ġengines",
        -10.473132111857767
      ],
      [
        "Ġflavors",
        -10.473159162633223
      ],
      [
        "Ġargument",
        -10.4731923472764
      ],
      [
        "Ġfunding",
        -10.473220385173258
      ],
      [
        "Ġprevention",
        -10.47366351759866
      ],
      [
        "Ġevolved",
        -10.47367905376412
      ],
      [
        "Ġrecommendations",
        -10.474660242525584
      ],
[...]
