{
  "version": "1.0",
  "truncation": null,
  "padding": null,
  "added_tokens": [
    {
      "id": 0,
      "content": "[UNK]",
      "single_word": false,
      "lstrip": false,
      "rstrip": false,
      "normalized": false,
      "special": true
    },
    {
      "id": 1,
      "content": "[CLS]",
      "single_word": false,
      "lstrip": false,
      "rstrip": false,
      "normalized": false,
      "special": true
    },
    {
      "id": 2,
      "content": "[SEP]",
      "single_word": false,
      "lstrip": false,
      "rstrip": false,
      "normalized": false,
      "special": true
    },
    {
      "id": 3,
      "content": "[PAD]",
      "single_word": false,
      "lstrip": false,
      "rstrip": false,
      "normalized": false,
      "special": true
    },
    {
      "id": 4,
      "content": "[MASK]",
      "single_word": false,
      "lstrip": false,
      "rstrip": false,
      "normalized": false,
      "special": true
    },
    {
      "id": 5,
      "content": "[EOS]",
      "single_word": false,
      "lstrip": false,
      "rstrip": false,
      "normalized": false,
      "special": true
    }
  ],
  "normalizer": null,
  "pre_tokenizer": {
    "type": "ByteLevel",
    "add_prefix_space": false,
    "trim_offsets": true,
    "use_regex": true
  },
  "post_processor": null,
  "decoder": null,
  "model": {
    "type": "BPE",
    "dropout": null,
    "unk_token": "[UNK]",
    "continuing_subword_prefix": null,
    "end_of_word_suffix": null,
    "fuse_unk": false,
    "byte_fallback": false,
    "ignore_merges": false,
    "vocab": {
      "[UNK]": 0,
      "[CLS]": 1,
      "[SEP]": 2,
      "[PAD]": 3,
      "[MASK]": 4,
      "[EOS]": 5,
      "!": 6,
      "\"": 7,
      "#": 8,
      "$": 9,
      "%": 10,
      "&": 11,
      "'": 12,
      "(": 13,
      ")": 14,
      "*": 15,
      "+": 16,
      ",": 17,
      "-": 18,
      ".": 19,
      "/": 20,
      "0": 21,
      "1": 22,
      "2": 23,
      "3": 24,
      "4": 25,
      "5": 26,
      "6": 27,
      "7": 28,
      "8": 29,
      "9": 30,
      ":": 31,
      ";": 32,
      "<": 33,
      "=": 34,
      ">": 35,
      "?": 36,
      "@": 37,
      "A": 38,
      "B": 39,
      "C": 40,
      "D": 41,
      "E": 42,
      "F": 43,
      "G": 44,
      "H": 45,
      "I": 46,
      "J": 47,
      "K": 48,
      "L": 49,
      "M": 50,
      "N": 51,
      "O": 52,
      "P": 53,
      "Q": 54,
      "R": 55,
      "S": 56,
      "T": 57,
      "U": 58,
      "V": 59,
      "W": 60,
      "X": 61,
      "Y": 62,
      "Z": 63,
      "[": 64,
      "\\": 65,
      "]": 66,
      "^": 67,
      "_": 68,
      "`": 69,
      "a": 70,
      "b": 71,
      "c": 72,
      "d": 73,
      "e": 74,
      "f": 75,
      "g": 76,
      "h": 77,
      "i": 78,
      "j": 79,
      "k": 80,
      "l": 81,
      "m": 82,
      "n": 83,
      "o": 84,
      "p": 85,
      "q": 86,
      "r": 87,
      "s": 88,
      "t": 89,
      "u": 90,
      "v": 91,
      "w": 92,
      "x": 93,
      "y": 94,
      "z": 95,
      "|": 96,
      "}": 97,
      "~": 98,
      "¡": 99,
      "¢": 100,
      "£": 101,
      "¤": 102,
      "¥": 103,
      "¦": 104,
      "§": 105,
      "¨": 106,
      "©": 107,
      "ª": 108,
      "«": 109,
      "¬": 110,
      "®": 111,
      "¯": 112,
      "°": 113,
      "±": 114,
      "²": 115,
      "³": 116,
      "´": 117,
      "µ": 118,
      "¶": 119,
      "·": 120,
      "¸": 121,
      "¹": 122,
      "º": 123,
      "»": 124,
      "¼": 125,
      "½": 126,
      "¾": 127,
      "¿": 128,
      "Â": 129,
      "Ã": 130,
      "Ä": 131,
      "Å": 132,
      "Ġ": 133,
      "Ģ": 134,
      "ģ": 135,
      "Ĥ": 136,
      "ĥ": 137,
      "Ħ": 138,
      "ħ": 139,
      "Ĩ": 140,
      "ĩ": 141,
      "Ī": 142,
      "ī": 143,
      "Ĭ": 144,
      "ĭ": 145,
      "Į": 146,
      "į": 147,
      "İ": 148,
      "ı": 149,
      "Ĳ": 150,
      "ĳ": 151,
      "Ĵ": 152,
      "ĸ": 153,
      "Ĺ": 154,
      "ĺ": 155,
      "Ļ": 156,
      "ļ": 157,
      "Ľ": 158,
      "ľ": 159,
      "ŀ": 160,
      "Ł": 161,
      "ł": 162,
      "Ń": 163,
      "Äł": 164,
      "Äłt": 165,
      "ĠÄł": 166,
      "he": 167,
      "Äła": 168,
      "in": 169,
      "re": 170,
      "Äłthe": 171,
      "on": 172,
      "er": 173,
      "at": 174,
      "en": 175,
      "Äło": 176,
      "Äłs": 177,
      "an": 178,
      "es": 179,
      "is": 180,
      "Äłc": 181,
      "it": 182,
      "or": 183,
      "al": 184,
      "Äłw": 185,
      "ed": 186,
      "ing": 187,
      "Äłp": 188,
      "nd": 189,
      "ou": 190,
      "ar": 191,
      "Äłb": 192,
      "Äłf": 193,
      "Äłof": 194,
      "Äłto": 195,
      "ic": 196,
      "Äłin": 197,
      "¢Ä": 198,
      "ion": 199,
      "ÄĬ": 200,
      "Äłm": 201,
      "Äłand": 202,
      "Äłd": 203,
      "le": 204,
      "as": 205,
      "ro": 206,
      "ent": 207,
      "Äłth": 208,
      "Äłh": 209,
      "ct": 210,
      "il": 211,
      "st": 212,
      "om": 213,
      "ve": 214,
      "Äłe": 215,
      "Äłre": 216,
      "Ã¢Ä": 217,
      "ly": 218,
      "Äłl": 219,
      "Äłn": 220,
      "se": 221,
      "Ã¢Ä¢Ä": 222,
      "et": 223,
      "ol": 224,
      "ation": 225,
      "Äłis": 226,
      "im": 227,
      "id": 228,
      "ot": 229,
      "ce": 230,
      "ch": 231,
      "ÄłT": 232,
      "ut": 233,
      "Äłbe": 234,
      "Äłg": 235,
      "ow": 236,
      "ur": 237,
      "ra": 238,
      "ig": 239,
      "Äłthat": 240,
      "ver": 241,
      "ir": 242,
      "Äłfor": 243,
      "and": 244,
      "ÄłA": 245,
      "Äłu": 246,
      "ul": 247,
      "Äłon": 248,
      "am": 249,
      "ÄłS": 250,
      "Äłst": 251,
      "ay": 252,
      "ĠÄłthe": 253,
      "Äły": 254,
      "ith": 255,
      "ad": 256,
      "el": 257,
      "ÄłC": 258,
      "ÄłI": 259,
      "her": 260,
      "Ġ.": 261,
      "Ġ,": 262,
      "if": 263,
      "Äłas": 264,
      "Äłare": 265,
      "ter": 266,
      "Äłpro": 267,
      "od": 268,
      "ge": 269,
      "ment": 270,
      "Äłcon": 271,
      "Äłan": 272,
      "Äłwith": 273,
      "Äłyou": 274,
      "Äłit": 275,
      "Äłor": 276,
      "Äłwh": 277,
      "op": 278,
      "ab": 279,
      "th": 280,
      "Äłal": 281,
      "ist": 282,
      "ate": 283,
      "us": 284,
      "ers": 285,
      "ies": 286,
      "ess": 287,
      "res": 288,
      "ÄłThe": 289,
      "ÄłM": 290,
      "ill": 291,
      "Ã¢Ä¢Ä»": 292,
      "em": 293,
      "ac": 294,
      "ore": 295,
      "ere": 296,
      "of": 297,
      "um": 298,
      "ect": 299,
      "ity": 300,
      "ĠÄłw": 301,
      "ÄłP": 302,
      "est": 303,
      "rom": 304,
      "ive": 305,
      "os": 306,
      "Äłhe": 307,
      "ke": 308,
      "ant": 309,
      "ld": 310,
      "qu": 311,
      "ec": 312,
      "iv": 313,
      "Äłex": 314,
      "Äłcom": 315,
      "nt": 316,
      "ĠÄłc": 317,
      "igh": 318,
      "ÄłB": 319,
      "ain": 320,
      "pp": 321,
      "ĠÄłs": 322,
      "ud": 323,
      "ĠÄłof": 324,
      "ave": 325,
      "ĠÄłp": 326,
      "un": 327,
      "ort": 328,
      "oc": 329,
      "ĠÄłb": 330,
      "Äłv": 331,
      "ĠÄła": 332,
      "Äłby": 333,
      "ÄłH": 334,
      "ĠÄłf": 335,
      "ure": 336,
      "ial": 337,
      "Äłat": 338,
      "Äłcan": 339,
      "ÄłW": 340,
      "ĠÄłin": 341,
      "Äłsu": 342,
      "The": 343,
      "Äłfrom": 344,
      "Äłr": 345,
      "ÄłD": 346,
      "Äłch": 347,
      "Äłde": 348,
      "art": 349,
      "Äłwas": 350,
      "ical": 351,
      "ÄłE": 352,
      "ew": 353,
      "og": 354,
      "ri": 355,
      "ĠÄłand": 356,
      "our": 357,
      "all": 358,
      "ÄłR": 359,
      "ear": 360,
      "ÄłF": 361,
      "Äłle": 362,
      "ĠÄłm": 363,
      "ight": 364,
      "ĠÄłto": 365,
      "Äłnot": 366,
      "ich": 367,
      "Äłthis": 368,
      "out": 369,
      "Äłhave": 370,
      "du": 371,
      "ÄłÃ¢Ä¢Ä": 372,
      "rou": 373,
      "ÄłG": 374,
      "ÄłN": 375,
      "pt": 376,
      "gh": 377,
      "ions": 378,
      "00": 379,
      "ost": 380,
      "Äłen": 381,
      "ould": 382,
      "ĠÄĬ": 383,
      "ĠÄłd": 384,
      "Äłsh": 385,
      "ome": 386,
      "Äłsp": 387,
      "ated": 388,
      "ÄłL": 389,
      "ine": 390,
      "ard": 391,
      "act": 392,
      "Äłab": 393,
      "ag": 394,
      "Äłwor": 395,
      "per": 396,
      "Äłse": 397,
      "ell": 398,
      "Äłwe": 399,
      "ff": 400,
      "pl": 401,
      "ther": 402,
      "ans": 403,
      "age": 404,
      "Äłim": 405,
      "ak": 406,
      "ru": 407,
      "Äłpl": 408,
      "iz": 409,
      "are": 410,
      "ast": 411,
      "ide": 412,
      "Äłtheir": 413,
      "Äłus": 414,
      "end": 415,
      "ĠÄłh": 416,
      "ult": 417,
      "ous": 418,
      "ood": 419,
      "19": 420,
      "Äłint": 421,
      "ust": 422,
      "ib": 423,
      "Äłyour": 424,
      "hen": 425,
      "Ã¢Ä¢Ä¿": 426,
      "ap": 427,
      "orm": 428,
      "ations": 429,
      "vel": 430,
      "Äłwhich": 431,
      "ong": 432,
      "ÄłO": 433,
      "ia": 434,
      "ip": 435,
      "Äłthey": 436,
      "Äład": 437,
      "Äłk": 438,
      "ater": 439,
      "able": 440,
      "cc": 441,
      "so": 442,
      "ÄłU": 443,
      "ary": 444,
      "Äłall": 445,
      "Äłwill": 446,
      "Äłinc": 447,
      "Äłdis": 448,
      "Äłmore": 449,
      "av": 450,
      "ks": 451,
      "Äłhas": 452,
      "ep": 453,
      "ire": 454,
      "Äłcont": 455,
      "ence": 456,
      "Äłcomp": 457,
      "ÄłJ": 458,
      "ry": 459,
      "ual": 460,
      "ild": 461,
      "Äłres": 462,
      "ÄłIn": 463,
      "ex": 464,
      "ass": 465,
      "one": 466,
      "ĠÄłt": 467,
      "ents": 468,
      "ind": 469,
      "ach": 470,
      "Äłdo": 471,
      "20": 472,
      "au": 473,
      "ance": 474,
      "Ġ-": 475,
      "ose": 476,
      "ake": 477,
      "ase": 478,
      "ress": 479,
      "Äłother": 480,
      "ign": 481,
      "ÄłTh": 482,
      "ĠÄłn": 483,
      "ition": 484,
      "reat": 485,
      "ord": 486,
      "Äłcl": 487,
      "Äłman": 488,
      "very": 489,
      "ĠÄłl": 490,
      "Äłne": 491,
      "Äłbut": 492,
      "ime": 493,
      "Äłimp": 494,
      "ount": 495,
      "ice": 496,
      "ction": 497,
      "Äłalso": 498,
      "ace": 499,
      "Äłwere": 500,
      "ber": 501,
      "ĠÄłre": 502,
      "ors": 503,
      "ens": 504,
      "ÄłÃ¢Ä¢Ä¾": 505,
      "Äłper": 506,
      "Äłone": 507,
      "ok": 508,
      "ack": 509,
      "ub": 510,
      "ame": 511,
      "ish": 512,
      "ory": 513,
      "ound": 514,
      "Äłme": 515,
      ").": 516,
      "Äłj": 517,
      "ang": 518,
      "ike": 519,
      "Äłthan": 520,
      "Äłout": 521,
      "own": 522,
      "ue": 523,
      "ces": 524,
      "ite": 525,
      "Äłabout": 526,
      "Äłstud": 527,
      "Äłpre": 528,
      "Äłun": 529,
      "ons": 530,
      "ric": 531,
      "'s": 532,
      "Äłte": 533,
      "ci": 534,
      "eop": 535,
      "ile": 536,
      "olog": 537,
      "Äłapp": 538,
      "ie": 539,
      "form": 540,
      "Äłpart": 541,
      "iff": 542,
      "ree": 543,
      "low": 544,
      "ays": 545,
      "Äłwho": 546,
      "Äłar": 547,
      "ÄłSt": 548,
      "Äłcomm": 549,
      "nder": 550,
      "Äłsy": 551,
      "ĠÄłis": 552,
      "Äłev": 553,
      "eople": 554,
      "ates": 555,
      "ail": 556,
      "ĠÄłA": 557,
      "Äłthem": 558,
      "ings": 559,
      "ian": 560,
      "Äłso": 561,
      "ÄłIt": 562,
      "rit": 563,
      "ĠÄłS": 564,
      "ough": 565,
      "over": 566,
      "mer": 567,
      "Äłhis": 568,
      "ph": 569,
      "rough": 570,
      "ll": 571,
      "ĠÄłg": 572,
      "ause": 573,
      "ÄłK": 574,
      "Äłmay": 575,
      "ond": 576,
      "erv": 577,
      "ren": 578,
      "Äłqu": 579,
      "Äłbec": 580,
      "ob": 581,
      "Äłup": 582,
      "ally": 583,
      "ific": 584,
      "Äłyear": 585,
      "here": 586,
      "lud": 587,
      "row": 588,
      "ĠÄłC": 589,
      "ities": 590,
      "alth": 591,
      "Äłrec": 592,
      "vers": 593,
      "In": 594,
      "tern": 595,
      "irst": 596,
      "int": 597,
      "ove": 598,
      "erm": 599,
      "les": 600,
      "Äłthere": 601,
      "ments": 602,
      "we": 603,
      "Äłkn": 604,
      "Äłwork": 605,
      "Äłtime": 606,
      "Äłbeen": 607,
      "ÄłCh": 608,
      "stem": 609,
      "Äłsome": 610,
      "Äłits": 611,
      "Äłwhen": 612,
      "velop": 613,
      "ffect": 614,
      "ĠÄłbe": 615,
      "Äłtra": 616,
      "Äłinto": 617,
      "ys": 618,
      "red": 619,
      "te": 620,
      "ject": 621,
      "Äłover": 622,
      "Äłuse": 623,
      "ook": 624,
      "Äłdiff": 625,
      "ple": 626,
      "lect": 627,
      "ning": 628,
      "Äłthese": 629,
      "old": 630,
      "ational": 631,
      "lic": 632,
      "Äłag": 633,
      "Äłpeople": 634,
      "ÄłThis": 635,
      "Äłhow": 636,
      "ĠÄłthat": 637,
      "Äłact": 638,
      "ÄłV": 639,
      "Äłro": 640,
      "Äłcons": 641,
      "lp": 642,
      "ced": 643,
      "Äłacc": 644,
      "200": 645,
      "Äłmost": 646,
      "Äłour": 647,
      "Äłunder": 648,
      "wo": 649,
      "ating": 650,
      "Äłlike": 651,
      "Äłbet": 652,
      "hed": 653,
      "ative": 654,
      "yp": 655,
      "ram": 656,
      "10": 657,
      "ont": 658,
      "Äłthrough": 659,
      "ular": 660,
      "ĠÄłst": 661,
      "ath": 662,
      "Äłneed": 663,
      "Äłcol": 664,
      "Äłtr": 665,
      "its": 666,
      "ov": 667,
      "fter": 668,
      "Äłhad": 669,
      "ĠÄłfor": 670,
      "ÄłY": 671,
      "ious": 672,
      "ool": 673,
      "Äłbl": 674,
      "ise": 675,
      "Äłra": 676,
      "iet": 677,
      "Äłdes": 678,
      "Äłnew": 679,
      "Äłsuch": 680,
      "ark": 681,
      "uc": 682,
      "oss": 683,
      "aw": 684,
      "Äłwould": 685,
      "Äłif": 686,
      "18": 687,
      "oth": 688,
      "Th": 689,
      "ten": 690,
      "ics": 691,
      "Äłrep": 692,
      "),": 693,
      "Äłhelp": 694,
      "rop": 695,
      "round": 696,
      "iss": 697,
      "Äłany": 698,
      "Äłinclud": 699,
      "eth": 700,
      "Äłchild": 701,
      "ener": 702,
      "Äłrel": 703,
      "ts": 704,
      "ased": 705,
      "Äłprodu": 706,
      "rib": 707,
      "Äłph": 708,
      "Äłused": 709,
      "other": 710,
      "Äłdevelop": 711,
      "Äłprov": 712,
      "ful": 713,
      "Äłmany": 714,
      "uring": 715,
      "ible": 716,
      "uch": 717,
      "Äłoff": 718,
      "ility": 719,
      "ĠÄłM": 720,
      "Äłem": 721,
      "Äłspec": 722,
      "Äłonly": 723,
      "Äłfirst": 724,
      "Äłwhat": 725,
      "Äłno": 726,
      "ange": 727,
      "ef": 728,
      "Äłpr": 729,
      "ink": 730,
      "ever": 731,
      "ures": 732,
      "sel": 733,
      "ble": 734,
      "Äłam": 735,
      "als": 736,
      "ract": 737,
      "Äłsa": 738,
      "ied": 739,
      "Äłdiffere": 740,
      "ween": 741,
      "ne": 742,
      "gan": 743,
      "Äłsystem": 744,
      "cy": 745,
      "ĠÄłwh": 746,
      "Äłsc": 747,
      "Äłreg": 748,
      "Äłfe": 749,
      "ĠÄłe": 750,
      "Äłind": 751,
      "ĠÄłas": 752,
      "ĠÄłon": 753,
      "ife": 754,
      "ĠÄłwith": 755,
      "cess": 756,
      "Äładd": 757,
      "ower": 758,
      "Äłtwo": 759,
      "ution": 760,
      "Äłexp": 761,
      "ĠÄłI": 762,
      "omm": 763,
      "ade": 764,
      "ĠÄłP": 765,
      "any": 766,
      "ick": 767,
      "ÄłUn": 768,
      "vent": 769,
      "Äłac": 770,
      "ng": 771,
      "ert": 772,
      "Äłpo": 773,
      "hes": 774,
      "ĠÄły": 775,
      "201": 776,
      "ants": 777,
      "fore": 778,
      "ĠÄłB": 779,
      "ism": 780,
      "ily": 781,
      "Äłsur": 782,
      "ting": 783,
      "Äłdec": 784,
      "Äłob": 785,
      "ins": 786,
      "chn": 787,
      "Äłfl": 788,
      "Äłhealth": 789,
      "Äłyears": 790,
      "ĠÄłThe": 791,
      "ext": 792,
      "ork": 793,
      "ered": 794,
      "ural": 795,
      "Äłwater": 796,
      "Äłatt": 797,
      "arch": 798,
      "ology": 799,
      "ÄłÃ¢Ä¢Äµ": 800,
      "Äłform": 801,
      "Äłinf": 802,
      "Äłass": 803,
      "ss": 804,
      "Äłwell": 805,
      "Äłgo": 806,
      "ited": 807,
      "chool": 808,
      "ĠÄłH": 809,
      "ines": 810,
      "Ãĥ": 811,
      "ident": 812,
      "Äłhigh": 813,
      "ÄłHe": 814,
      "Äłshould": 815,
      "Äłrem": 816,
      "ists": 817,
      "gy": 818,
      "meric": 819,
      "Äłsm": 820,
      "ivers": 821,
      "ict": 822,
      "ĠÄłare": 823,
      "ness": 824,
      "Äłbetween": 825,
      "ĠÄłpro": 826,
      "ually": 827,
      "ata": 828,
      "Äłget": 829,
      "Äłsupp": 830,
      "up": 831,
      "Ġ:": 832,
      "Äłcould": 833,
      "land": 834,
      "Äłpres": 835,
      "Äłsub": 836,
      "Äłtrans": 837,
      "erson": 838,
      "aking": 839,
      "get": 840,
      "Äłimport": 841,
      "Äłmake": 842,
      "ature": 843,
      "Äłbu": 844,
      "arm": 845,
      "Äłthose": 846,
      "ives": 847,
      "oy": 848,
      "formation": 849,
      "ĠÄłor": 850,
      "Äłear": 851,
      "Äłrese": 852,
      "wn": 853,
      "Äłknow": 854,
      "Äłwhere": 855,
      "Äłher": 856,
      "Äłafter": 857,
      "cer": 858,
      "ĠÄłby": 859,
      "cept": 860,
      "Äłinter": 861,
      "Äłexam": 862,
      "Äłdifferent": 863,
      "urn": 864,
      "Äłnum": 865,
      "roup": 866,
      "iew": 867,
      "cent": 868,
      "Äłfound": 869,
      "ically": 870,
      "Äłinv": 871,
      "Äłlear": 872,
      "Äłmod": 873,
      "ĠÄłit": 874,
      "ollow": 875,
      "Äłvery": 876,
      "Äłlar": 877,
      "tle": 878,
      "Äłinst": 879,
      "Äłbecause": 880,
      "Äłway": 881,
      "iron": 882,
      "omp": 883,
      "Äłeffect": 884,
      "ases": 885,
      "ĠÄłR": 886,
      "Äłed": 887,
      "Äłtyp": 888,
      "hat": 889,
      "eg": 890,
      "Äłcount": 891,
      "Ã¢Ä¢Ä¾": 892,
      "ĠÄłse": 893,
      "Äłsim": 894,
      "ues": 895,
      "Äłcent": 896,
      "ĠÄłD": 897,
      "Äłthen": 898,
      "Äłcar": 899,
      "ages": 900,
      "ck": 901,
      "ted": 902,
      "Äłdisc": 903,
      "ĠÄłW": 904,
      "Äłpol": 905,
      "Äłworld": 906,
      "Äłexper": 907,
      "Äłincre": 908,
      "Äłjust": 909,
      "Äłke": 910,
      "imes": 911,
      "ix": 912,
      "ody": 913,
      "Äłresp": 914,
      "blem": 915,
      "und": 916,
      "Äłdet": 917,
      "Äłevery": 918,
      "Äłeven": 919,
      "led": 920,
      "ved": 921,
      "ruct": 922,
      "gg": 923,
      "ward": 924,
      "Äłsign": 925,
      "This": 926,
      "ices": 927,
      "Äłmed": 928,
      "Äłlong": 929,
      "Äłpat": 930,
      "Äłhum": 931,
      "ÄłAmeric": 932,
      "Äłtechn": 933,
      "ized": 934,
      "onom": 935,
      "ĠÄłE": 936,
      "ĠÄłwas": 937,
      "Äłresult": 938,
      "Äłvar": 939,
      "Äłsee": 940,
      "overn": 941,
      "ds": 942,
      "Äłext": 943,
      "ĠÄłhe": 944,
      "ĠÄłv": 945,
      "ĠÄłan": 946,
      "gram": 947,
      "ize": 948,
      "..": 949,
      "Äłcommun": 950,
      "app": 951,
      "io": 952,
      "ublic": 953,
      "ĠÄłex": 954,
      "Äłref": 955,
      "ven": 956,
      "Äłeach": 957,
      "Äłprocess": 958,
      "Äłchildren": 959,
      "viron": 960,
      "Äłgener": 961,
      "Äłimportant": 962,
      "Äłsaid": 963,
      "Äłcall": 964,
      "hip": 965,
      "read": 966,
      "Äłsk": 967,
      "ality": 968,
      "ĠÄłat": 969,
      "Äłcre": 970,
      "Äłsoc": 971,
      "ather": 972,
      "cient": 973,
      "ĠÄłG": 974,
      "air": 975,
      "stand": 976,
      "Äłpartic": 977,
      "Äłstudents": 978,
      "ient": 979,
      "Äłfact": 980,
      "Äłmon": 981,
      "iel": 982,
      "ale": 983,
      "ÄłAs": 984,
      "Äłfam": 985,
      "Äłrequ": 986,
      "ĠÄłF": 987,
      "Äłbeing": 988,
      "rain": 989,
      "Äłlevel": 990,
      "Äłset": 991,
      "Äłsec": 992,
      "ection": 993,
      "15": 994,
      "Äłcur": 995,
      "Äłdata": 996,
      "iqu": 997,
      "oh": 998,
      "ock": 999,
      "Äłlead": 1000,
      "ÄłWe": 1001,
      "Äłca": 1002,
      "orn": 1003,
      "Äłmuch": 1004,
      "Äłgrow": 1005,
      "Äłaut": 1006,
      "Äłshe": 1007,
      "Äłinformation": 1008,
      "ential": 1009,
      "ÄłThey": 1010,
      "Äłlife": 1011,
      "Ġ)": 1012,
      "ÄłPro": 1013,
      "ĠÃ¢Ä¢Ä»": 1014,
      "ĠÄłN": 1015,
      "ÄłAl": 1016,
      "Äłart": 1017,
      "12": 1018,
      "Äłright": 1019,
      "omen": 1020,
      "vironment": 1021,
      "ax": 1022,
      "Äłsame": 1023,
      "Äłdep": 1024,
      "Äłperson": 1025,
      "ides": 1026,
      "ty": 1027,
      "ĠÄłfrom": 1028,
      "||": 1029,
      "inal": 1030,
      "Äłco": 1031,
      "rol": 1032,
      "Ã¢Ä¢Äµ": 1033,
      "ran": 1034,
      "ĠÄłT": 1035,
      "ished": 1036,
      "Äłmin": 1037,
      "Äłstudy": 1038,
      "iversity": 1039,
      "nce": 1040,
      "ĠÄłL": 1041,
      "iety": 1042,
      "Äłdef": 1043,
      "Äłent": 1044,
      "ars": 1045,
      "to": 1046,
      "Äłoften": 1047,
      "hem": 1048,
      "Äłread": 1049,
      "Äłend": 1050,
      "Äłproblem": 1051,
      "Äłfood": 1052,
      "Äłfollow": 1053,
      "Äłmy": 1054,
      "Äłins": 1055,
      "ee": 1056,
      "Äłown": 1057,
      "ands": 1058,
      "akes": 1059,
      "eed": 1060,
      "Äłdist": 1061,
      "dition": 1062,
      "Äłloc": 1063,
      "Äłgroup": 1064,
      "pec": 1065,
      "ĠÄłal": 1066,
      "ral": 1067,
      "imate": 1068,
      "port": 1069,
      "Ġs": 1070,
      "ivid": 1071,
      "ional": 1072,
      "Äłstr": 1073,
      "ĠÄłnot": 1074,
      "ined": 1075,
      "Äłduring": 1076,
      "Äłgood": 1077,
      "Äłpop": 1078,
      "ince": 1079,
      "Äłexpl": 1080,
      "Äłschool": 1081,
      "ency": 1082,
      "self": 1083,
      "000": 1084,
      "Äłback": 1085,
      "Äłav": 1086,
      "ier": 1087,
      "Äłdoes": 1088,
      "Äłmade": 1089,
      "ves": 1090,
      "Äłboth": 1091,
      "ury": 1092,
      "ters": 1093,
      "Äłris": 1094,
      "Äłfind": 1095,
      "Äłdise": 1096,
      "irect": 1097,
      "eng": 1098,
      "199": 1099,
      "ÄłFor": 1100,
      "Äłsmall": 1101,
      "outh": 1102,
      "cl": 1103,
      "Äłdi": 1104,
      "Äłday": 1105,
      "Ã¢Ä¢Ä¶": 1106,
      "Äłcomple": 1107,
      "Äłhist": 1108,
      "ÄłAn": 1109,
      "Äłgl": 1110,
      "17": 1111,
      "Äłusing": 1112,
      "uss": 1113,
      "raph": 1114,
      "ergy": 1115,
      "iving": 1116,
      "ital": 1117,
      "ute": 1118,
      "Äłbefore": 1119,
      "Äłtreat": 1120,
      "Äłshow": 1121,
      "Äłval": 1122,
      "ÄłIf": 1123,
      "Äłtest": 1124,
      "Äłsol": 1125,
      "Äłactiv": 1126,
      "ulation": 1127,
      "day": 1128,
      "ron": 1129,
      "Äłorgan": 1130,
      "ead": 1131,
      "ft": 1132,
      "ĠÄłch": 1133,
      "Äłbo": 1134,
      "ĠÄłJ": 1135,
      "ouse": 1136,
      "ull": 1137,
      "Äłwhile": 1138,
      "lear": 1139,
      "der": 1140,
      "16": 1141,
      "the": 1142,
      "Äłtake": 1143,
      "Äłmain": 1144,
      "ah": 1145,
      "oms": 1146,
      "Äłstate": 1147,
      "itions": 1148,
      "aj": 1149,
      "use": 1150,
      "Äłaround": 1151,
      "Äłposs": 1152,
      "Äłthree": 1153,
      "ÄłInd": 1154,
      "ization": 1155,
      "Äłthough": 1156,
      "ÄłHow": 1157,
      "Äłless": 1158,
      "ÄłAr": 1159,
      "hers": 1160,
      "Äłserv": 1161,
      "Äłdown": 1162,
      "used": 1163,
      "ash": 1164,
      "ains": 1165,
      "acter": 1166,
      "ross": 1167,
      "str": 1168,
      "Äłprot": 1169,
      "Äłredu": 1170,
      "Äłvis": 1171,
      "az": 1172,
      "ering": 1173,
      "Äłnow": 1174,
      "Äłagain": 1175,
      "Äłdesign": 1176,
      "Äłec": 1177,
      "Äłlit": 1178,
      "aterial": 1179,
      "Äłresearch": 1180,
      "Äłlarge": 1181,
      "ring": 1182,
      "Äłmem": 1183,
      "rad": 1184,
      "ium": 1185,
      "ids": 1186,
      "ĠÄłcan": 1187,
      "ired": 1188,
      "Äłpower": 1189,
      "overnment": 1190,
      "ÄłNew": 1191,
      "50": 1192,
      "rent": 1193,
      "Äłsom": 1194,
      "Äłocc": 1195,
      "ris": 1196,
      "iven": 1197,
      "Äłnumber": 1198,
      "pect": 1199,
      "ination": 1200,
      "Äłstart": 1201,
      "Äłclass": 1202,
      "Äłcommon": 1203,
      "Äłfun": 1204,
      "Äłbody": 1205,
      "ially": 1206,
      "Äłchar": 1207,
      "ared": 1208,
      "ĠÄłhave": 1209,
      "Äłlook": 1210,
      "itive": 1211,
      "Ã¢Ä¢": 1212,
      "ĠÄłcon": 1213,
      "Äłsupport": 1214,
      "bers": 1215,
      "Äłbel": 1216,
      "osed": 1217,
      "oci": 1218,
      "Äłmust": 1219,
      "Äłhuman": 1220,
      "Äłprogram": 1221,
      "Äłeduc": 1222,
      "Äłhim": 1223,
      "Äłallow": 1224,
      "ior": 1225,
      "Äłest": 1226,
      "ĠÄłsh": 1227,
      "Äłunderstand": 1228,
      "ÃĤ": 1229,
      "Äłcor": 1230,
      "ffic": 1231,
      "iod": 1232,
      "ethod": 1233,
      "ev": 1234,
      "ived": 1235,
      "Äłplan": 1236,
      "iver": 1237,
      "way": 1238,
      "reen": 1239,
      "Äłelect": 1240,
      "Äłreport": 1241,
      "oun": 1242,
      "erest": 1243,
      "ason": 1244,
      "ense": 1245,
      "Äłser": 1246,
      "ources": 1247,
      "less": 1248,
      "Äłexample": 1249,
      "alk": 1250,
      "Äłenvironment": 1251,
      "Äłcare": 1252,
      "Äłwrit": 1253,
      "Äłmight": 1254,
      "Äładv": 1255,
      "Äłcontin": 1256,
      "els": 1257,
      "angu": 1258,
      "14": 1259,
      "30": 1260,
      "iness": 1261,
      "Äłret": 1262,
      "Äłconf": 1263,
      "ability": 1264,
      "cience": 1265,
      "Äłdr": 1266,
      "--": 1267,
      "ĠÄłthis": 1268,
      "Äłpoint": 1269,
      "Äłbuild": 1270,
      "line": 1271,
      "ps": 1272,
      "Äłcell": 1273,
      "ividual": 1274,
      "cing": 1275,
      "Äłmet": 1276,
      "ÄłBut": 1277,
      "com": 1278,
      "Äłplace": 1279,
      "ÄłYou": 1280,
      "ording": 1281,
      "ton": 1282,
      ".,": 1283,
      "ĠÄłO": 1284,
      "Äłpract": 1285,
      "Äłdid": 1286,
      "rodu": 1287,
      "arent": 1288,
      "ĠÄłyou": 1289,
      "bs": 1290,
      "me": 1291,
      "agn": 1292,
      "lish": 1293,
      "Äłthink": 1294,
      "atural": 1295,
      "stit": 1296,
      "irc": 1297,
      "Äłincluding": 1298,
      "Äłconsid": 1299,
      "Äłequ": 1300,
      "Äłgen": 1301,
      "man": 1302,
      "Äłexperi": 1303,
      "Äłcalled": 1304,
      "hy": 1305,
      "Äłcour": 1306,
      "ration": 1307,
      "rap": 1308,
      "ption": 1309,
      "ÄłSp": 1310,
      "lu": 1311,
      "Äłstill": 1312,
      "Äłplay": 1313,
      "ries": 1314,
      "tt": 1315,
      "Äłeas": 1316,
      "ets": 1317,
      "ÄłThere": 1318,
      "Äłknown": 1319,
      "fess": 1320,
      "Äłgreat": 1321,
      "enef": 1322,
      "Äłop": 1323,
      "Äłbeh": 1324,
      "ify": 1325,
      "ÄłÃ¢Ä¢Äº": 1326,
      "Äłphys": 1327,
      "Äłdevelopment": 1328,
      "ians": 1329,
      "Äłchange": 1330,
      "Ġ'": 1331,
      "aving": 1332,
      "11": 1333,
      "Äłlight": 1334,
      "ogn": 1335,
      "oint": 1336,
      "Äłenergy": 1337,
      "ified": 1338,
      "Äłpresent": 1339,
      "rist": 1340,
      "ner": 1341,
      "ertain": 1342,
      "Äłve": 1343,
      "ajor": 1344,
      "ĠÄłr": 1345,
      "ental": 1346,
      "ÄłAnd": 1347,
      "ield": 1348,
      "ining": 1349,
      "ger": 1350,
      "lished": 1351,
      "ected": 1352,
      "Äłproduct": 1353,
      "Äłrisk": 1354,
      "Äłdisease": 1355,
      "ision": 1356,
      "Äłfew": 1357,
      "Äłmaterial": 1358,
      "ource": 1359,
      "Äłwant": 1360,
      "ently": 1361,
      "Ġ;": 1362,
      "illion": 1363,
      "Äłtem": 1364,
      "ĠÄłwhich": 1365,
      "Äłquest": 1366,
      "Äłide": 1367,
      "ats": 1368,
      "gin": 1369,
      "ÄłAmerican": 1370,
      "atter": 1371,
      "Äłimm": 1372,
      "ik": 1373,
      "orth": 1374,
      "ÄłThese": 1375,
      "ccess": 1376,
      "hor": 1377,
      "Äłgu": 1378,
      "ained": 1379,
      "ways": 1380,
      "Äłterm": 1381,
      "Äłpublic": 1382,
      "Äłappro": 1383,
      "icle": 1384,
      "ills": 1385,
      "Äłimpro": 1386,
      "Äłdon": 1387,
      "Äłiss": 1388,
      "acc": 1389,
      "ards": 1390,
      "Äłlearn": 1391,
      "ients": 1392,
      "ean": 1393,
      "Äłbre": 1394,
      "Äłchang": 1395,
      "It": 1396,
      "Äłpot": 1397,
      "uses": 1398,
      "Äłcap": 1399,
      "ailable": 1400,
      "ÄłIs": 1401,
      "veral": 1402,
      "ug": 1403,
      "Äłpos": 1404,
      "Äłsit": 1405,
      "ĠÄłtheir": 1406,
      "erc": 1407,
      "Äłpain": 1408,
      ".\"": 1409,
      "ĠÄłIn": 1410,
      "ware": 1411,
      "ĠÄłle": 1412,
      "Äłindu": 1413,
      "Äłwithout": 1414,
      "Äłeng": 1415,
      "ences": 1416,
      "Äłmark": 1417,
      "Äłmethod": 1418,
      "atic": 1419,
      "Äłbest": 1420,
      "crib": 1421,
      "Äłdirect": 1422,
      "ological": 1423,
      "eb": 1424,
      "oid": 1425,
      "Äłsym": 1426,
      "Äłpur": 1427,
      "ĠÄłk": 1428,
      "ina": 1429,
      "Äłproject": 1430,
      "Äłwithin": 1431,
      "ission": 1432,
      "Äłmil": 1433,
      "ograph": 1434,
      "Äłident": 1435,
      "13": 1436,
      "Äłsocial": 1437,
      "hile": 1438,
      "ote": 1439,
      "ĠÄłall": 1440,
      "Äłcause": 1441,
      "orld": 1442,
      "ĠÄłim": 1443,
      "ator": 1444,
      "Äłthings": 1445,
      "Äłlow": 1446,
      "ples": 1447,
      "ĠÄłU": 1448,
      "ank": 1449,
      "arc": 1450,
      "ÄłEng": 1451,
      "Äłbelie": 1452,
      "Äłbas": 1453,
      "Äłsl": 1454,
      "Äłindividual": 1455,
      "Äłpass": 1456,
      "Äłmus": 1457,
      "resent": 1458,
      "Äłinclude": 1459,
      "'t": 1460,
      "Äłprovide": 1461,
      "Äłhand": 1462,
      "ots": 1463,
      "ole": 1464,
      "Äłkeep": 1465,
      "Äłtre": 1466,
      "Äłlaw": 1467,
      "ilar": 1468,
      "ÄłRes": 1469,
      "ĠÄłthey": 1470,
      "ÄłEx": 1471,
      "Äłanal": 1472,
      "ÄłUniversity": 1473,
      "Äłair": 1474,
      "Äłwomen": 1475,
      "Äłdem": 1476,
      "olution": 1477,
      "Äłproper": 1478,
      "now": 1479,
      "Äłopp": 1480,
      "amp": 1481,
      "Äłarea": 1482,
      "Äłanother": 1483,
      "Äłrest": 1484,
      "Äłmeas": 1485,
      "Äłearly": 1486,
      "anguage": 1487,
      "25": 1488,
      "Äłbecome": 1489,
      "Äłblood": 1490,
      "What": 1491,
      "ĠA": 1492,
      "Äłfore": 1493,
      "Äłhere": 1494,
      "Äłdev": 1495,
      "Äładdition": 1496,
      "Äłcult": 1497,
      "Äłreal": 1498,
      "Äłstand": 1499,
      "ories": 1500,
      "osp": 1501,
      "Äłpar": 1502,
      "Äłconst": 1503,
      "ĠÄłwere": 1504,
      "Äłleg": 1505,
      "Äłeconom": 1506,
      "ret": 1507,
      "ern": 1508,
      "Äłtoo": 1509,
      "ths": 1510,
      "Äłcurrent": 1511,
      "oks": 1512,
      "Äłbenef": 1513,
      "Ġ).": 1514,
      "ĠÄład": 1515,
      "though": 1516,
      "ÄłWhen": 1517,
      "ised": 1518,
      "Äłmove": 1519,
      "Äłinterest": 1520,
      "Äłpercent": 1521,
      "Äłbetter": 1522,
      "Äłfamily": 1523,
      "ĠÄłab": 1524,
      "af": 1525,
      "urop": 1526,
      "ames": 1527,
      "Äłant": 1528,
      "Äłcontrol": 1529,
      "ÄłHowever": 1530,
      "Äłel": 1531,
      "ĠÄłsu": 1532,
      "Äłele": 1533,
      "ÄłPh": 1534,
      "ended": 1535,
      "Äłland": 1536,
      "Äłhistory": 1537,
      "ĠThe": 1538,
      "urther": 1539,
      "ends": 1540,
      "Äłperform": 1541,
      "idence": 1542,
      "Äłseveral": 1543,
      "Äłparticular": 1544,
      "ĠÄłres": 1545,
      "ÄłAd": 1546,
      "ificant": 1547,
      "ek": 1548,
      "ention": 1549,
      "Äłplant": 1550,
      "Äłsaf": 1551,
      "ression": 1552,
      "Äłscient": 1553,
      "Äłmajor": 1554,
      "abor": 1555,
      "ggest": 1556,
      "Äłoper": 1557,
      "Äłfre": 1558,
      "Äłgovernment": 1559,
      "Äłfeel": 1560,
      "Äłpossible": 1561,
      "rid": 1562,
      "Ġ/": 1563,
      "inc": 1564,
      "Äłhome": 1565,
      "Äłlearning": 1566,
      "Äłtimes": 1567,
      "isc": 1568,
      "Äłche": 1569,
      "Äłanim": 1570,
      "ploy": 1571,
      "Äłspecies": 1572,
      "ystem": 1573,
      "Äłold": 1574,
      "ÄłCon": 1575,
      "ably": 1576,
      "ĠÄłcont": 1577,
      "Äłet": 1578,
      "ÄłSh": 1579,
      "Äłbus": 1580,
      "Äłnear": 1581,
      "ĠÄłpl": 1582,
      "ird": 1583,
      "ecess": 1584,
      "ling": 1585,
      "por": 1586,
      "ones": 1587,
      "Äłcal": 1588,
      "Äłwar": 1589,
      "Â¦": 1590,
      "Äłaffect": 1591,
      "Äłtop": 1592,
      "Äłhig": 1593,
      "ope": 1594,
      "ĠÄłwe": 1595,
      "eral": 1596,
      "Äłbased": 1597,
      "earch": 1598,
      "ique": 1599,
      "Äłmeans": 1600,
      "face": 1601,
      "ox": 1602,
      "ÄłCl": 1603,
      "Äłmean": 1604,
      "We": 1605,
      "ators": 1606,
      "198": 1607,
      "Äłaccess": 1608,
      "Äłcost": 1609,
      "Äłsecond": 1610,
      "ww": 1611,
      "atory": 1612,
      "une": 1613,
      "ears": 1614,
      "Äłsays": 1615,
      "Äłcountry": 1616,
      "Äłoccur": 1617,
      "par": 1618,
      "Äłnon": 1619,
      "ÄłCol": 1620,
      "ÄłÃ¢Ä¢Ä¶": 1621,
      "Äłimpact": 1622,
      "Äłtru": 1623,
      "Äłprovid": 1624,
      "Äłtreatment": 1625,
      "Äłagainst": 1626,
      "min": 1627,
      "Äłlim": 1628,
      "ray": 1629,
      "Äłfac": 1630,
      "ntil": 1631,
      "Äłfin": 1632,
      "elf": 1633,
      "ann": 1634,
      "ately": 1635,
      "Äłhapp": 1636,
      "Äłperiod": 1637,
      "ns": 1638,
      "ances": 1639,
      "Äłfour": 1640,
      "Äłsystems": 1641,
      "Äłage": 1642,
      "aper": 1643,
      "Äłinvol": 1644,
      "Äłsay": 1645,
      "ÄłUnited": 1646,
      "ĠÄłhis": 1647,
      "ither": 1648,
      "Äłprevent": 1649,
      "atch": 1650,
      "Äłothers": 1651,
      "rim": 1652,
      "ÄłDe": 1653,
      "How": 1654,
      "Äłorder": 1655,
      "agement": 1656,
      "ĠÄłhas": 1657,
      "ÄłQ": 1658,
      "Äłes": 1659,
      "Äłlast": 1660,
      "Äłareas": 1661,
      "view": 1662,
      "ething": 1663,
      "Äłorig": 1664,
      "duct": 1665,
      "ledge": 1666,
      "Äłsince": 1667,
      "anc": 1668,
      "icult": 1669,
      "Äłdel": 1670,
      "Äłobject": 1671,
      "Äłlevels": 1672,
      "aps": 1673,
      "ructure": 1674,
      "ged": 1675,
      "ym": 1676,
      "uture": 1677,
      "Äłlet": 1678,
      "Äłfollowing": 1679,
      "Äłcase": 1680,
      "ication": 1681,
      "fric": 1682,
      ",\"": 1683,
      "ane": 1684,
      "Äłmaking": 1685,
      "omes": 1686,
      "Äłlist": 1687,
      "ours": 1688,
      "ÄłComm": 1689,
      "oad": 1690,
      "Äłname": 1691,
      "Äłmar": 1692,
      "ÄłStates": 1693,
      "40": 1694,
      "work": 1695,
      "Äłcomput": 1696,
      "Äłamount": 1697,
      "Äłproblems": 1698,
      "Äłavailable": 1699,
      "Äłnatural": 1700,
      "ĠÄłinc": 1701,
      "Äłamong": 1702,
      "not": 1703,
      "Äłcome": 1704,
      "If": 1705,
      "ÄłSe": 1706,
      "gen": 1707,
      "ĠS": 1708,
      "Äłpost": 1709,
      "Äłhard": 1710,
      "ĠÄłdo": 1711,
      "Äłable": 1712,
      "aken": 1713,
      "ems": 1714,
      "ptoms": 1715,
      "Äłrad": 1716,
      "ÄłGod": 1717,
      "ape": 1718,
      "ilt": 1719,
      "ÄłTo": 1720,
      "raw": 1721,
      "Äłhead": 1722,
      "ending": 1723,
      "ler": 1724,
      "Äłcreat": 1725,
      "Äłopen": 1726,
      "ĠÄłÃ¢Ä¢Ä¾": 1727,
      "acy": 1728,
      "ored": 1729,
      "ternational": 1730,
      "alf": 1731,
      "pr": 1732,
      "Äłtype": 1733,
      "be": 1734,
      "icro": 1735,
      "Äłrece": 1736,
      "most": 1737,
      "Äłfree": 1738,
      "vious": 1739,
      "Äłflow": 1740,
      "ÄłZ": 1741,
      "Äłpress": 1742,
      "Äłmen": 1743,
      "ÄłNational": 1744,
      "mit": 1745,
      "ively": 1746,
      "ditions": 1747,
      "nal": 1748,
      "rans": 1749,
      "Äłsignificant": 1750,
      "Äłess": 1751,
      "ĠÄłother": 1752,
      "Äłsw": 1753,
      "ĠÄłcl": 1754,
      "Äłincrease": 1755,
      "Äłfoc": 1756,
      "ÄłCan": 1757,
      "ateg": 1758,
      "ÄłPl": 1759,
      "ecause": 1760,
      "Äłenc": 1761,
      "Äłcertain": 1762,
      "Äłbook": 1763,
      "Äłgra": 1764,
      "cri": 1765,
      "Äłgr": 1766,
      "selves": 1767,
      "ĠÄłK": 1768,
      "hether": 1769,
      "Äłlater": 1770,
      "Äłvir": 1771,
      "ĠÄłmore": 1772,
      "aster": 1773,
      "Äłtechnology": 1774,
      "//": 1775,
      "Äłput": 1776,
      "Äłbi": 1777,
      "Äłmult": 1778,
      "Äłdue": 1779,
      "ott": 1780,
      "Äłyoung": 1781,
      "ĠÄłbut": 1782,
      "Äłcho": 1783,
      "etic": 1784,
      "Äłcirc": 1785,
      "ember": 1786,
      "ortun": 1787,
      "Äłrun": 1788,
      "aves": 1789,
      "ÃĲ": 1790,
      "ĠÄłone": 1791,
      "ley": 1792,
      "ung": 1793,
      "Äłview": 1794,
      "Äłsuggest": 1795,
      "Äłdays": 1796,
      "ried": 1797,
      "obal": 1798,
      "Äłlittle": 1799,
      "pro": 1800,
      "thing": 1801,
      "aining": 1802,
      "pos": 1803,
      "ights": 1804,
      "Äłprofess": 1805,
      "ÄłTe": 1806,
      "rug": 1807,
      "ruction": 1808,
      "ĠÄłun": 1809,
      "ites": 1810,
      "Äłbro": 1811,
      "Äłvol": 1812,
      "pecially": 1813,
      "22": 1814,
      "for": 1815,
      "iting": 1816,
      "idd": 1817,
      "Äłcreate": 1818,
      "ilities": 1819,
      "Äłlikely": 1820,
      "Äłeducation": 1821,
      "ÄłCent": 1822,
      "Äłalong": 1823,
      "Äłsuccess": 1824,
      "ÄłUS": 1825,
      "val": 1826,
      "Äłparent": 1827,
      "ĠÄłwill": 1828,
      "Äłcomb": 1829,
      "Äłdeath": 1830,
      "aid": 1831,
      "sy": 1832,
      "ush": 1833,
      "Äłshort": 1834,
      "60": 1835,
      "cle": 1836,
      "ĠÄłde": 1837,
      "ÄłOr": 1838,
      "Äłcommunity": 1839,
      "Äłlocal": 1840,
      "100": 1841,
      "Äłcells": 1842,
      "asing": 1843,
      "edi": 1844,
      "ÄłAt": 1845,
      "Äłassoci": 1846,
      "apt": 1847,
      "Äłworking": 1848,
      "Äłinvest": 1849,
      "As": 1850,
      "ges": 1851,
      "Äłprom": 1852,
      "aces": 1853,
      "oft": 1854,
      "gether": 1855,
      "oot": 1856,
      "yd": 1857,
      "Äłconn": 1858,
      "Äłworks": 1859,
      "Äłplants": 1860,
      "ode": 1861,
      "Äłsomething": 1862,
      "fer": 1863,
      "Äłspecific": 1864,
      "ready": 1865,
      "24": 1866,
      "ued": 1867,
      "Â©": 1868,
      "Äłwhy": 1869,
      "ivil": 1870,
      "Äłcentury": 1871,
      "aching": 1872,
      "Äłdeterm": 1873,
      "Äłpotential": 1874,
      "21": 1875,
      "ipp": 1876,
      "Äłturn": 1877,
      "let": 1878,
      "utions": 1879,
      "ÄłEn": 1880,
      "Äłusually": 1881,
      "Äłconsum": 1882,
      "Äłcourse": 1883,
      "St": 1884,
      "cul": 1885,
      "Äłcancer": 1886,
      "ving": 1887,
      "Äłgiven": 1888,
      "ÄłEurop": 1889,
      "augh": 1890,
      "ysis": 1891,
      "ÄłChrist": 1892,
      "ÄłMed": 1893,
      "Äłdiscuss": 1894,
      "Äłresults": 1895,
      "Äłauthor": 1896,
      "Äłsing": 1897,
      "by": 1898,
      "Äłalways": 1899,
      "ublished": 1900,
      "side": 1901,
      "yl": 1902,
      "atures": 1903,
      "Äłpe": 1904,
      "Äłspecial": 1905,
      "oman": 1906,
      "Äłuntil": 1907,
      "ffort": 1908,
      "Äłfunction": 1909,
      "Äłexperience": 1910,
      "For": 1911,
      "hern": 1912,
      "oney": 1913,
      "oll": 1914,
      "amm": 1915,
      "Äłteac": 1916,
      "Äłbehav": 1917,
      "Äłtemper": 1918,
      "uation": 1919,
      "ream": 1920,
      "Äłpolit": 1921,
      "Äłtry": 1922,
      "rel": 1923,
      "ery": 1924,
      "Äłways": 1925,
      "Äłlanguage": 1926,
      "utes": 1927,
      "Äłpast": 1928,
      "ables": 1929,
      "oved": 1930,
      "Äłhigher": 1931,
      "iam": 1932,
      "ĠÄłj": 1933,
      "Äłspace": 1934,
      "oring": 1935,
      "Äłconditions": 1936,
      "ĠÄłsp": 1937,
      "ured": 1938,
      "iation": 1939,
      "Äłclear": 1940,
      "Äłwords": 1941,
      "ification": 1942,
      "Äłdescrib": 1943,
      "aim": 1944,
      "Äłgive": 1945,
      "Â¢": 1946,
      "ene": 1947,
      "ales": 1948,
      "ÄłAfric": 1949,
      "Äłheart": 1950,
      "Äłill": 1951,
      "Äłbr": 1952,
      "ohn": 1953,
      "ĠÄłcomp": 1954,
      "Äłey": 1955,
      "Äłkind": 1956,
      "ae": 1957,
      "Äłmot": 1958,
      "Äłnever": 1959,
      "Äłobs": 1960,
      "ĠÄłen": 1961,
      "Äłtoday": 1962,
      "Äłgre": 1963,
      "ĠÄłapp": 1964,
      "197": 1965,
      "Äłbusiness": 1966,
      "Äłtool": 1967,
      "Äłdam": 1968,
      "chie": 1969,
      "ÄłOn": 1970,
      "Äłrequire": 1971,
      "oura": 1972,
      "plic": 1973,
      "Äłens": 1974,
      "Äłsimilar": 1975,
      "You": 1976,
      "Äłfuture": 1977,
      "Äłmillion": 1978,
      "Äłstep": 1979,
      "istic": 1980,
      "ĠÄłper": 1981,
      "ÄłWhat": 1982,
      "Äłactivities": 1983,
      "oon": 1984,
      "Äłbrain": 1985,
      "ords": 1986,
      "hemical": 1987,
      "ER": 1988,
      "ument": 1989,
      "roll": 1990,
      "omet": 1991,
      "Äłdifficult": 1992,
      "Äłresearc": 1993,
      "wards": 1994,
      "icial": 1995,
      "leep": 1996,
      "ÄłAll": 1997,
      "ults": 1998,
      "Äłapplic": 1999,
      "Äłcountries": 2000,
      "Äłpopulation": 2001,
      "Äłimprove": 2002,
      "unt": 2003,
      "Äłtogether": 2004,
      "There": 2005,
      "sp": 2006,
      "Äłrele": 2007,
      "Äłpatients": 2008,
      "ÄłSome": 2009,
      "Äłask": 2010,
      "bon": 2011,
      "Ãł": 2012,
      "Äłfil": 2013,
      "Äłnecess": 2014,
      "ches": 2015,
      "gress": 2016,
      "Äłacross": 2017,
      "de": 2018,
      "Äłnext": 2019,
      "Äłbegin": 2020,
      "ivity": 2021,
      "iple": 2022,
      "Äłphysical": 2023,
      "urity": 2024,
      "ÄłBrit": 2025,
      "Äłeffects": 2026,
      "reg": 2027,
      "reme": 2028,
      "Äłground": 2029,
      "Äłexist": 2030,
      "ÄłWith": 2031,
      "ĠÄłyour": 2032,
      "Äłtypes": 2033,
      "Äłrespons": 2034,
      "23": 2035,
      "ned": 2036,
      "Äłtext": 2037,
      "order": 2038,
      "Äłneeds": 2039,
      "ibility": 2040,
      "Äłstudies": 2041,
      "NA": 2042,
      "mber": 2043,
      "Äłside": 2044,
      "Äłsens": 2045,
      "Äłleft": 2046,
      "lement": 2047,
      "ĠÄłhad": 2048,
      "ĠÄłwho": 2049,
      "iol": 2050,
      "ires": 2051,
      "Äłrole": 2052,
      "aut": 2053,
      "urch": 2054,
      "Äłkey": 2055,
      "Äłchanges": 2056,
      "Äłsymptoms": 2057,
      "ison": 2058,
      "ask": 2059,
      "Äłcity": 2060,
      "using": 2061,
      "rict": 2062,
      "Äłestab": 2063,
      "ĠÄłu": 2064,
      "amin": 2065,
      "Äłhowever": 2066,
      "Äłaccount": 2067,
      "sw": 2068,
      "Äłer": 2069,
      "stry": 2070,
      "Äłquality": 2071,
      "Äłcharacter": 2072,
      "ms": 2073,
      "Äłsure": 2074,
      "Äłcy": 2075,
      "ĠÄłout": 2076,
      "Äłfar": 2077,
      "olic": 2078,
      "Äłpred": 2079,
      "Äłcolle": 2080,
      "...": 2081,
      "ĠÄłalso": 2082,
      "Äłcases": 2083,
      "Äłline": 2084,
      "Äłchall": 2085,
      "Äłsum": 2086,
      "Äłfull": 2087,
      "ÄłCar": 2088,
      "erence": 2089,
      "ÄłRe": 2090,
      "Äłabove": 2091,
      "Äłrecogn": 2092,
      "Äłstrong": 2093,
      "ĠÄłV": 2094,
      "Äłcrit": 2095,
      "ournal": 2096,
      "Äłabs": 2097,
      "Äłknowledge": 2098,
      "ront": 2099,
      "ening": 2100,
      "Äłdig": 2101,
      "Äłeffort": 2102,
      "Äłreason": 2103,
      "fficient": 2104,
      "lean": 2105,
      "ĠÄłCh": 2106,
      "Äłcomplete": 2107,
      "ormal": 2108,
      "Äłteam": 2109,
      "Äłprim": 2110,
      "ĠÄłop": 2111,
      "Äłreally": 2112,
      "epend": 2113,
      "eds": 2114,
      "Äłseen": 2115,
      "ĠÄłbeen": 2116,
      "Äłindic": 2117,
      "oes": 2118,
      "Äłbig": 2119,
      "illed": 2120,
      "Äłenough": 2121,
      "fact": 2122,
      "org": 2123,
      "aring": 2124,
      "Äłalready": 2125,
      "osis": 2126,
      "ÄłGerm": 2127,
      "Ġ\"": 2128,
      "itud": 2129,
      "Äłnet": 2130,
      "Äłproduction": 2131,
      "sych": 2132,
      "Äłopt": 2133,
      "ils": 2134,
      "ÄłSo": 2135,
      "Äłintrodu": 2136,
      "ĠÄłSt": 2137,
      "ÄłSc": 2138,
      "Äłvalue": 2139,
      "Äłur": 2140,
      "Äłfund": 2141,
      "Äłsurface": 2142,
      "ditional": 2143,
      "ober": 2144,
      "rate": 2145,
      "Äłfall": 2146,
      "Äłnut": 2147,
      "empt": 2148,
      "Äłdeveloped": 2149,
      "SA": 2150,
      "Äłwind": 2151,
      "Äłbir": 2152,
      "ÄłHealth": 2153,
      "Äłactivity": 2154,
      "Äłprotect": 2155,
      "28": 2156,
      "tal": 2157,
      "ĠÄłup": 2158,
      "arth": 2159,
      "ĠÄłthem": 2160,
      "yn": 2161,
      "Äłfurther": 2162,
      "Äłdiet": 2163,
      "Äłquick": 2164,
      "Äłvarious": 2165,
      "__": 2166,
      "put": 2167,
      "Äłscience": 2168,
      "ctor": 2169,
      "vere": 2170,
      "Äłlower": 2171,
      "ÄłIm": 2172,
      "ÄłBl": 2173,
      "Äłgoing": 2174,
      "based": 2175,
      "Äłself": 2176,
      "Äłmakes": 2177,
      "Äłloss": 2178,
      "Äłbelow": 2179,
      "ample": 2180,
      "Äłleast": 2181,
      "ÄłThat": 2182,
      "Äłthroughout": 2183,
      "ĠÄłstud": 2184,
      "gest": 2185,
      "Äłmodel": 2186,
      "Äłarticle": 2187,
      "Äłreduce": 2188,
      "ĠÄłabout": 2189,
      "bo": 2190,
      "Äłdone": 2191,
      "Äłstory": 2192,
      "Äłconcer": 2193,
      "overed": 2194,
      "Äłsun": 2195,
      "lying": 2196,
      "verage": 2197,
      "Äłclose": 2198,
      "Äłaccording": 2199,
      "ĠÄłits": 2200,
      "onse": 2201,
      "ĠÄłthere": 2202,
      "ĠÄłme": 2203,
      "Äłweek": 2204,
      "Äłflu": 2205,
      "Äłpolic": 2206,
      "Äłgrowth": 2207,
      "Äłespecially": 2208,
      "Äłver": 2209,
      "erve": 2210,
      "ÄłSouth": 2211,
      "Äłrange": 2212,
      "ationship": 2213,
      "Äładdress": 2214,
      "Äłinflu": 2215,
      "Äłskills": 2216,
      "An": 2217,
      "ips": 2218,
      "Ch": 2219,
      "ma": 2220,
      "ĠÄłthan": 2221,
      "Äłwhether": 2222,
      "Äłhold": 2223,
      "oles": 2224,
      "ĠÄłpart": 2225,
      "Äłproducts": 2226,
      "like": 2227,
      "Äłwr": 2228,
      "Äłhouse": 2229,
      "urs": 2230,
      "izing": 2231,
      "Äłfrequ": 2232,
      "When": 2233,
      "Äławay": 2234,
      "artment": 2235,
      "Äłemploy": 2236,
      "Äłsubject": 2237,
      "Äłsimple": 2238,
      "Äłskin": 2239,
      "rect": 2240,
      "Äłpers": 2241,
      "aced": 2242,
      "ÄłBy": 2243,
      "Äłcontrib": 2244,
      "Äłclimate": 2245,
      "Äłpaper": 2246,
      "Äłmind": 2247,
      "Äłhaving": 2248,
      "acks": 2249,
      "ÄłBe": 2250,
      "Äłresources": 2251,
      "Äłgroups": 2252,
      "oor": 2253,
      "ety": 2254,
      "ows": 2255,
      "ump": 2256,
      "ĠÄłcomm": 2257,
      "Äłentire": 2258,
      "uel": 2259,
      "Äłmass": 2260,
      "Äłevent": 2261,
      "Äłphot": 2262,
      "Äłparticip": 2263,
      "ĠÄłwould": 2264,
      "ival": 2265,
      "ney": 2266,
      "anced": 2267,
      "ÄłOne": 2268,
      "Äłneeded": 2269,
      "Äłfarm": 2270,
      "icles": 2271,
      "Äłnature": 2272,
      "ÄłAss": 2273,
      "Äłwhite": 2274,
      "Äłdeg": 2275,
      "ai": 2276,
      "ging": 2277,
      "Â¤": 2278,
      "Äłfield": 2279,
      "Äłdest": 2280,
      "cell": 2281,
      "To": 2282,
      "Äłcover": 2283,
      "arget": 2284,
      "Äłfive": 2285,
      "ume": 2286,
      "Äłrepresent": 2287,
      "Äłeffective": 2288,
      "Äłissues": 2289,
      "hib": 2290,
      "mb": 2291,
      "ÄłWar": 2292,
      "Äłpractice": 2293,
      "Äłtell": 2294,
      "Äłlot": 2295,
      "Äłann": 2296,
      "oph": 2297,
      "uman": 2298,
      "ÄłWorld": 2299,
      "Äłthought": 2300,
      "nces": 2301,
      "ply": 2302,
      "Äłhalf": 2303,
      "ounds": 2304,
      "ervation": 2305,
      "vention": 2306,
      "Äłbuilding": 2307,
      "Äłresearchers": 2308,
      "Äłred": 2309,
      "Äłrate": 2310,
      "ule": 2311,
      "Äłsal": 2312,
      "Äłreact": 2313,
      "Äłword": 2314,
      "Äłneg": 2315,
      "Äłrecomm": 2316,
      "Äłmaterials": 2317,
      "Äłeither": 2318,
      "Äłnational": 2319,
      "Äłthemselves": 2320,
      "Äłcoll": 2321,
      "uck": 2322,
      "Äłgeneral": 2323,
      "Äłconsider": 2324,
      "Äłquestion": 2325,
      "Äłquestions": 2326,
      "Äłsite": 2327,
      "Äłlo": 2328,
      "ections": 2329,
      "Äłmedical": 2330,
      "Äłcreated": 2331,
      "Äłassociated": 2332,
      "ID": 2333,
      "ened": 2334,
      "Äłpublished": 2335,
      "ĠÄłcom": 2336,
      "ÄłDr": 2337,
      "ĠÄłmay": 2338,
      "duc": 2339,
      "Äłwhole": 2340,
      "Äłpressure": 2341,
      "Äłparents": 2342,
      "arr": 2343,
      "Äłstudent": 2344,
      "Äłbecame": 2345,
      "yle": 2346,
      "Äłpay": 2347,
      "ÄłShe": 2348,
      "ĠÄłso": 2349,
      "Äłactually": 2350,
      "sc": 2351,
      "Äłachie": 2352,
      "ster": 2353,
      "Äłprob": 2354,
      "ĠÄłcons": 2355,
      "Äłmarket": 2356,
      "Äłsingle": 2357,
      "Ãİ": 2358,
      "Ġ?": 2359,
      "Äłwide": 2360,
      "ÄłComp": 2361,
      "Äłalmost": 2362,
      "Äłparts": 2363,
      "Äłcomputer": 2364,
      "26": 2365,
      "Äłlay": 2366,
      "Äłlive": 2367,
      "apan": 2368,
      "light": 2369,
      "Ġ3": 2370,
      "Äłfail": 2371,
      "room": 2372,
      "ÄłAb": 2373,
      "aging": 2374,
      "Äłrelated": 2375,
      "fully": 2376,
      "Äłbar": 2377,
      "ĠÄłinto": 2378,
      "Äłrather": 2379,
      "ĠÄłtime": 2380,
      "Äłprovides": 2381,
      "Äłmembers": 2382,
      "Äłpolitical": 2383,
      "Äłtaken": 2384,
      "erg": 2385,
      "Äłsize": 2386,
      "sequ": 2387,
      ".)": 2388,
      "://": 2389,
      "ores": 2390,
      "igure": 2391,
      "ÄłAct": 2392,
      "ÄłStud": 2393,
      "Äłmonths": 2394,
      "sh": 2395,
      "Äłfat": 2396,
      "Äłansw": 2397,
      "abit": 2398,
      "ĠÄłpre": 2399,
      "Äłproduce": 2400,
      "ÄłEnglish": 2401,
      "estern": 2402,
      "Äłdrug": 2403,
      "ÄłMan": 2404,
      "aged": 2405,
      "Äłhealthy": 2406,
      "Äłindustry": 2407,
      "Äłcut": 2408,
      "Äłcolor": 2409,
      "iction": 2410,
      "Äłincreased": 2411,
      "Äłz": 2412,
      "Äłoil": 2413,
      "irm": 2414,
      "Äłstat": 2415,
      "usion": 2416,
      "ÄłDep": 2417,
      "ched": 2418,
      "itary": 2419,
      "Äłfish": 2420,
      "lex": 2421,
      "inter": 2422,
      "Äłsource": 2423,
      "Äłdog": 2424,
      "vey": 2425,
      "ÄłAm": 2426,
      "ĠÄłsome": 2427,
      "ĠÄłint": 2428,
      "Äłmeet": 2429,
      "Äłhistor": 2430,
      "ada": 2431,
      "ildren": 2432,
      "Äłunderstanding": 2433,
      "rapy": 2434,
      "80": 2435,
      "Â°": 2436,
      "Äłsent": 2437,
      "ese": 2438,
      "Äłinit": 2439,
      "ctions": 2440,
      "Äłcondition": 2441,
      "ÄłGe": 2442,
      "ternal": 2443,
      "Äłvers": 2444,
      "Äłtw": 2445,
      "ĠÄłqu": 2446,
      "erous": 2447,
      "ederal": 2448,
      "Äłcontent": 2449,
      "Äłdetail": 2450,
      "Äłopportun": 2451,
      "hold": 2452,
      "Äłcomes": 2453,
      "Äłcollect": 2454,
      "Äłwriting": 2455,
      "Äłengine": 2456,
      "AR": 2457,
      "ĠB": 2458,
      "ÄłCal": 2459,
      "off": 2460,
      "ensive": 2461,
      "Äłpriv": 2462,
      "27": 2463,
      "rated": 2464,
      "ĠÄłth": 2465,
      "Äłsleep": 2466,
      "Äłever": 2467,
      "ules": 2468,
      "ulations": 2469,
      "Äłanimals": 2470,
      "tain": 2471,
      "Äłtalk": 2472,
      "Äłcame": 2473,
      "Äłmat": 2474,
      "emic": 2475,
      "Äłlab": 2476,
      "Äłstructure": 2477,
      "ropri": 2478,
      "Äłfactors": 2479,
      "nown": 2480,
      "enn": 2481,
      "Äłfri": 2482,
      "ÄłCont": 2483,
      "Ġ.,": 2484,
      "oving": 2485,
      "Äłglobal": 2486,
      "eak": 2487,
      "ĠÄłThis": 2488,
      "ister": 2489,
      "Äłchemical": 2490,
      "iment": 2491,
      "Äłstress": 2492,
      "istory": 2493,
      "ÄłAmerica": 2494,
      "Äłreturn": 2495,
      "Äłconsidered": 2496,
      "Äłut": 2497,
      "ĠÄłover": 2498,
      "Äłport": 2499,
      "ĠÄłwhen": 2500,
      "Äłcannot": 2501,
      "ender": 2502,
      "Äłrequired": 2503,
      "minist": 2504,
      "Äłessential": 2505,
      "attle": 2506,
      "orks": 2507,
      "Äłonce": 2508,
      "place": 2509,
      "ĠÄłte": 2510,
      "Äłappear": 2511,
      "erved": 2512,
      "ĠP": 2513,
      "Äłsix": 2514,
      "Äłliving": 2515,
      "Äłprop": 2516,
      "ops": 2517,
      "istics": 2518,
      "Äłrecent": 2519,
      "Äłpositive": 2520,
      "Äłanalysis": 2521,
      "ze": 2522,
      "arily": 2523,
      "amb": 2524,
      "ĠÄłag": 2525,
      "Äłmeasure": 2526,
      "Äłmeaning": 2527,
      "Al": 2528,
      "lor": 2529,
      "verse": 2530,
      "ÄłMay": 2531,
      "ocial": 2532,
      "ĠÄłbet": 2533,
      "ibr": 2534,
      "Äłtraining": 2535,
      "Äłrights": 2536,
      "Äłpersonal": 2537,
      "iddle": 2538,
      "right": 2539,
      "rast": 2540,
      "ades": 2541,
      "rior": 2542,
      "Äłmanagement": 2543,
      "rought": 2544,
      "rown": 2545,
      "Äłmedic": 2546,
      "Äłcomplex": 2547,
      "dom": 2548,
      "Äłtaking": 2549,
      "inary": 2550,
      "Äłjob": 2551,
      "Äłevidence": 2552,
      "reng": 2553,
      "Äłavoid": 2554,
      "pid": 2555,
      "aries": 2556,
      "Äłgreen": 2557,
      "ÄłNorth": 2558,
      "aily": 2559,
      "Äłservices": 2560,
      "ising": 2561,
      "Äłtook": 2562,
      "Äłmor": 2563,
      "eter": 2564,
      "ĠÄłind": 2565,
      "ÄłJohn": 2566,
      "Äłsoil": 2567,
      "Äłpopular": 2568,
      "Äłindividuals": 2569,
      "aff": 2570,
      "mon": 2571,
      "rig": 2572,
      "ĠM": 2573,
      "Äłpath": 2574,
      "Äłhours": 2575,
      "ÄłMar": 2576,
      "194": 2577,
      "2010": 2578,
      "Äłblack": 2579,
      "Äłenvironmental": 2580,
      "het": 2581,
      "Äłste": 2582,
      "opy": 2583,
      "ĠÄłact": 2584,
      "Äłfamil": 2585,
      "rade": 2586,
      "ĠÄłunder": 2587,
      "vest": 2588,
      "Äłweight": 2589,
      "Äłclean": 2590,
      "itation": 2591,
      "Äłfru": 2592,
      "Äłlink": 2593,
      "Äłprevious": 2594,
      "Äłupon": 2595,
      "ÄłYork": 2596,
      "Äłregion": 2597,
      "Äłfeed": 2598,
      "Äłmethods": 2599,
      "Äłbenefits": 2600,
      "Äłscientists": 2601,
      "ÄłBritish": 2602,
      "29": 2603,
      "ls": 2604,
      "Äłter": 2605,
      "Äłsoft": 2606,
      "set": 2607,
      "ider": 2608,
      "chan": 2609,
      "ÄłAust": 2610,
      "ÄłHis": 2611,
      "Äłspread": 2612,
      "ÄłLe": 2613,
      "Äłpattern": 2614,
      "Äłreading": 2615,
      "Äłensure": 2616,
      "Äłnecessary": 2617,
      "ES": 2618,
      "my": 2619,
      "Ġ),": 2620,
      "Äłaction": 2621,
      "itis": 2622,
      "Äłemer": 2623,
      "abet": 2624,
      "iffere": 2625,
      "Äłarch": 2626,
      "Äłrelationship": 2627,
      "Äłvariety": 2628,
      "Äłeconomic": 2629,
      "ĠC": 2630,
      "iter": 2631,
      "raft": 2632,
      "ÄłWhile": 2633,
      "Äłrecord": 2634,
      "Äłrelig": 2635,
      "Äłassess": 2636,
      "Äłbuilt": 2637,
      "AT": 2638,
      "Ġc": 2639,
      "Äłsense": 2640,
      "Äłdom": 2641,
      "Äłregard": 2642,
      "ufact": 2643,
      "ĠÄłthese": 2644,
      "Äłitself": 2645,
      "ĠÄłIt": 2646,
      "Äłbehavior": 2647,
      "Äłconcept": 2648,
      "Äłexerc": 2649,
      "stitute": 2650,
      "Äłsat": 2651,
      "Äłdoc": 2652,
      "Äłgas": 2653,
      "Äłheat": 2654,
      "ĠÄłsuch": 2655,
      "ĠÄłrec": 2656,
      "rench": 2657,
      "Äłsociety": 2658,
      "Äłcaused": 2659,
      "ronic": 2660,
      "Äłapproach": 2661,
      "Äłtarget": 2662,
      "ĠÄłac": 2663,
      "onstr": 2664,
      "atives": 2665,
      "anies": 2666,
      "Äłdeb": 2667,
      "ÄłRep": 2668,
      "ccording": 2669,
      "Äłarg": 2670,
      "Äłdesigned": 2671,
      "Äłsafe": 2672,
      "70": 2673,
      "iency": 2674,
      "Ġt": 2675,
      "Äłtax": 2676,
      "issions": 2677,
      "gar": 2678,
      "lease": 2679,
      "uted": 2680,
      "eneral": 2681,
      "Äłextreme": 2682,
      "Äłetc": 2683,
      "Äłtemperature": 2684,
      "lt": 2685,
      "Äłmoney": 2686,
      "Äłlif": 2687,
      "ÄłSchool": 2688,
      "ÄłWh": 2689,
      "lands": 2690,
      "Äłbreak": 2691,
      "90": 2692,
      "att": 2693,
      "aling": 2694,
      "Äłyet": 2695,
      "Äłsuff": 2696,
      "ÃĦ": 2697,
      "ÄłX": 2698,
      "ari": 2699,
      "rag": 2700,
      "Äłconduct": 2701,
      "Äłdoing": 2702,
      "ief": 2703,
      "Äłinteract": 2704,
      "Äłcauses": 2705,
      "Äłencoura": 2706,
      "hood": 2707,
      "ĠÄłem": 2708,
      "Äłce": 2709,
      "amed": 2710,
      "Äłstates": 2711,
      "Äłcontain": 2712,
      "Äłhelps": 2713,
      "Äłliter": 2714,
      "Äłsomet": 2715,
      "oly": 2716,
      "ana": 2717,
      "ĠÄłwork": 2718,
      "Äłsurv": 2719,
      "Äłincreasing": 2720,
      "Äłresponse": 2721,
      "Äłcheck": 2722,
      "ming": 2723,
      "Äłinj": 2724,
      "Äłsuper": 2725,
      "35": 2726,
      "Äłcr": 2727,
      "Äłbur": 2728,
      "Äłfire": 2729,
      "Äłlives": 2730,
      "Äłability": 2731,
      "2012": 2732,
      "ĠÄłHe": 2733,
      "Äłdiagn": 2734,
      "uge": 2735,
      "itor": 2736,
      "Äłwild": 2737,
      "Äłmicro": 2738,
      "Äłprote": 2739,
      "Äłheav": 2740,
      "alled": 2741,
      "Äłidea": 2742,
      "cript": 2743,
      "Ġ1": 2744,
      "Äłaverage": 2745,
      "Äłshown": 2746,
      "ĠÄłhow": 2747,
      "ustom": 2748,
      "ĠÄłlike": 2749,
      "ĠÄłreg": 2750,
      "Äłregular": 2751,
      "Äłaccept": 2752,
      "Äłwritten": 2753,
      "ĠÄłUn": 2754,
      "asc": 2755,
      "asons": 2756,
      "Äłhtt": 2757,
      "olar": 2758,
      "Äłbegan": 2759,
      "Äłcontact": 2760,
      "Äłcompany": 2761,
      "Äłarr": 2762,
      "Äłtravel": 2763,
      "Äłeasy": 2764,
      "go": 2765,
      "part": 2766,
      "Ä£": 2767,
      "Äłbal": 2768,
      "Äłthing": 2769,
      "Äłrev": 2770,
      "ided": 2771,
      "aches": 2772,
      "Äłdamage": 2773,
      "65": 2774,
      "upp": 2775,
      "ĠÄłuse": 2776,
      "Äłmix": 2777,
      "ÄłCo": 2778,
      "Äłconcent": 2779,
      "ĠÄłman": 2780,
      "elling": 2781,
      "ternet": 2782,
      "atively": 2783,
      "Äłemb": 2784,
      "Äłreported": 2785,
      "Äłfocus": 2786,
      "ises": 2787,
      "ellow": 2788,
      "Äłtrue": 2789,
      "Äłcivil": 2790,
      "Äłlog": 2791,
      "Äłsepar": 2792,
      "Äłvari": 2793,
      "Äłposition": 2794,
      "IN": 2795,
      "ners": 2796,
      "Äłbacter": 2797,
      "Äłge": 2798,
      "Äłemot": 2799,
      "Äłbelieve": 2800,
      "ÄłResearch": 2801,
      "\".": 2802,
      "ON": 2803,
      "rew": 2804,
      "Äłdeep": 2805,
      "ÄłEarth": 2806,
      "astic": 2807,
      "iber": 2808,
      "ÄłKing": 2809,
      "Äłincludes": 2810,
      "Äłsometimes": 2811,
      "fort": 2812,
      "Äłox": 2813,
      "ÄłAg": 2814,
      "ÄłAfter": 2815,
      "Äłsex": 2816,
      "Äłseem": 2817,
      "Äłinteg": 2818,
      "ricult": 2819,
      "Äłincluded": 2820,
      "Äłnumbers": 2821,
      "Äłstandard": 2822,
      "AN": 2823,
      "ancy": 2824,
      "isions": 2825,
      "ÄłPer": 2826,
      "ĠÄłpeople": 2827,
      "ÄłWill": 2828,
      "Äłearth": 2829,
      "Äłcommunities": 2830,
      "Äłterms": 2831,
      "lin": 2832,
      "lies": 2833,
      "Äłtotal": 2834,
      "Äłmach": 2835,
      "oming": 2836,
      "umb": 2837,
      "osition": 2838,
      "ÄłEm": 2839,
      "ÄłNo": 2840,
      "Äłago": 2841,
      "2013": 2842,
      "Äłlonger": 2843,
      "Äłseries": 2844,
      "Äłgreater": 2845,
      "iers": 2846,
      "ĠÄłif": 2847,
      "ĠÄłour": 2848,
      "Äłface": 2849,
      "ÄłCount": 2850,
      "istance": 2851,
      "ached": 2852,
      "ÄłJapan": 2853,
      "ĠÄłtwo": 2854,
      "ÄłState": 2855,
      "Äłcarbon": 2856,
      "ÄłIndia": 2857,
      "Äłmusic": 2858,
      "ridge": 2859,
      "ÄłQu": 2860,
      "ban": 2861,
      "cil": 2862,
      "ĠÄłro": 2863,
      "Äłeat": 2864,
      "udd": 2865,
      "ĠÄłph": 2866,
      "ĠÄłno": 2867,
      "ĠÄłnew": 2868,
      "Äłshows": 2869,
      "Äłforest": 2870,
      "Äłmovement": 2871,
      "hing": 2872,
      "ius": 2873,
      "pose": 2874,
      "ino": 2875,
      "Äłsources": 2876,
      "ÄłII": 2877,
      "ype": 2878,
      "Äłdefin": 2879,
      "Äłservice": 2880,
      "Äłissue": 2881,
      "ancial": 2882,
      "itude": 2883,
      "ducation": 2884,
      "ground": 2885,
      "ties": 2886,
      "uary": 2887,
      "hel": 2888,
      "Äłaff": 2889,
      "imum": 2890,
      "uth": 2891,
      "Äłonline": 2892,
      "ÄłPres": 2893,
      "Äłclaim": 2894,
      "2009": 2895,
      "Äłgetting": 2896,
      "imately": 2897,
      "Äłtakes": 2898,
      "ĠÄłany": 2899,
      "irit": 2900,
      "Äłviol": 2901,
      "Äłcompet": 2902,
      "ÄłYour": 2903,
      "Äłsubst": 2904,
      "Äłschools": 2905,
      "ength": 2906,
      "ĠÄłus": 2907,
      "Äłmatter": 2908,
      "occ": 2909,
      "Äłvacc": 2910,
      "Äłshare": 2911,
      "Äłwebs": 2912,
      "stitution": 2913,
      "Äłinvolved": 2914,
      "ropriate": 2915,
      "Äłir": 2916,
      "enced": 2917,
      "Äłcoun": 2918,
      "ÄłGu": 2919,
      "Äłveget": 2920,
      "ÄłEurope": 2921,
      "overy": 2922,
      "inct": 2923,
      "Äłpict": 2924,
      "Äłbring": 2925,
      "ille": 2926,
      "Äłreview": 2927,
      "Äłlack": 2928,
      "ÄłMost": 2929,
      "Äłprec": 2930,
      "undred": 2931,
      "Äłfoods": 2932,
      "Äłbasic": 2933,
      "ĠÄłinclud": 2934,
      "Äłfem": 2935,
      "Äłdraw": 2936,
      "Äłunc": 2937,
      "Äłattempt": 2938,
      "He": 2939,
      "ĠD": 2940,
      "ĠÄłfirst": 2941,
      "ĠÄłdis": 2942,
      "ÃĻ": 2943,
      "ĠÄłob": 2944,
      "arge": 2945,
      "elt": 2946,
      "iforn": 2947,
      "ĠÄłdes": 2948,
      "Äłunique": 2949,
      "Äłdeveloping": 2950,
      "Äłmodern": 2951,
      "Äłgenerally": 2952,
      "Äłgrowing": 2953,
      "ĠÄłshould": 2954,
      "Äłorigin": 2955,
      "abetes": 2956,
      "ifferent": 2957,
      "fect": 2958,
      "cean": 2959,
      "ÄłPr": 2960,
      "ĠÄłrel": 2961,
      "Äłevents": 2962,
      "Äłattention": 2963,
      "Äłsimply": 2964,
      "Äłdiseases": 2965,
      "Äłallows": 2966,
      "pril": 2967,
      "Äłquickly": 2968,
      "ha": 2969,
      "ience": 2970,
      "lier": 2971,
      "ror": 2972,
      "uly": 2973,
      "wise": 2974,
      "Äłmess": 2975,
      "Äłconc": 2976,
      "avor": 2977,
      "Äłideas": 2978,
      "45": 2979,
      "haps": 2980,
      "ĠÃ¢Ä¢Ä¿": 2981,
      "ĠÄłam": 2982,
      "Äłslow": 2983,
      "iles": 2984,
      "Äłled": 2985,
      "idents": 2986,
      "ÄłMany": 2987,
      "eck": 2988,
      "ĠÄłform": 2989,
      "Äłcompon": 2990,
      "iece": 2991,
      "velopment": 2992,
      "ÄłIndian": 2993,
      "Äłprovided": 2994,
      "come": 2995,
      "Äłsound": 2996,
      "Äłoutside": 2997,
      "2011": 2998,
      "Äłestim": 2999,
      "rs": 3000,
      "yond": 3001,
      "ĠÄłass": 3002,
      "anks": 3003,
      "Äłstreng": 3004,
      "Äłsevere": 3005,
      "ĠÄłneed": 3006,
      "Äłdifference": 3007,
      "www": 3008,
      "Äłteachers": 3009,
      "cial": 3010,
      "ĠÄłar": 3011,
      "ĠÄłTh": 3012,
      "edia": 3013,
      "Äłpsych": 3014,
      "ulate": 3015,
      "ashing": 3016,
      "Äłidentify": 3017,
      "aun": 3018,
      "bor": 3019,
      "iot": 3020,
      "inks": 3021,
      "ÄłScience": 3022,
      "2014": 3023,
      "Äłdrink": 3024,
      "ifornia": 3025,
      "IS": 3026,
      "vant": 3027,
      "Äławare": 3028,
      "Äłdou": 3029,
      "leb": 3030,
      "Äłcapt": 3031,
      "ĠÄłsupp": 3032,
      "Äłparticularly": 3033,
      "ÄłÃĤ": 3034,
      "Äłtend": 3035,
      "Äłhyd": 3036,
      "Äłforce": 3037,
      "Äłexc": 3038,
      "Äłvide": 3039,
      "ellig": 3040,
      "Äłuses": 3041,
      "ressed": 3042,
      "Äłmanufact": 3043,
      "ĠÄłonly": 3044,
      "Äłpoor": 3045,
      "Äłrefer": 3046,
      "Äłdoesn": 3047,
      "Äłchalleng": 3048,
      "Äłprof": 3049,
      "istor": 3050,
      "umber": 3051,
      "Äłimage": 3052,
      "Äłkids": 3053,
      "ÄłJew": 3054,
      "Äłimplement": 3055,
      "Äłconsist": 3056,
      "Äłtools": 3057,
      "):": 3058,
      "load": 3059,
      "uild": 3060,
      "water": 3061,
      "Äłcross": 3062,
      "ift": 3063,
      "ÄłPre": 3064,
      "unity": 3065,
      "ension": 3066,
      "Äłbooks": 3067,
      "Äłprograms": 3068,
      "Äłoriginal": 3069,
      "cies": 3070,
      "hest": 3071,
      "itiz": 3072,
      "imal": 3073,
      "alls": 3074,
      "ĠÄłdec": 3075,
      "ÃĻÄ": 3076,
      "pite": 3077,
      "Äłdry": 3078,
      "Äłthird": 3079,
      "Äłstop": 3080,
      "ÄłMore": 3081,
      "izations": 3082,
      "2008": 3083,
      "ields": 3084,
      "mar": 3085,
      "Äłtiss": 3086,
      "head": 3087,
      "Äłgard": 3088,
      "ÄłDes": 3089,
      "Äłspeed": 3090,
      "2007": 3091,
      "Äłvisit": 3092,
      "Äładditional": 3093,
      "Äłsafety": 3094,
      "OR": 3095,
      "rition": 3096,
      "Â¼": 3097,
      "Äłcamp": 3098,
      "alt": 3099,
      "Äłpage": 3100,
      "Äłprogress": 3101,
      "Äłalthough": 3102,
      "ĠÄłmost": 3103,
      "ĠÄłwhat": 3104,
      "Äłindustr": 3105,
      "Äłperformance": 3106,
      "Äłnetwork": 3107,
      "On": 3108,
      "One": 3109,
      "eal": 3110,
      "joy": 3111,
      "ky": 3112,
      "nov": 3113,
      "Ġ2": 3114,
      "Äłsqu": 3115,
      "Äłcat": 3116,
      "Äłinternational": 3117,
      "Äłdiv": 3118,
      "osure": 3119,
      "ĠÄłoff": 3120,
      "ĠÄłmany": 3121,
      "Äłcompanies": 3122,
      "ribution": 3123,
      "Äłfeet": 3124,
      "Äłhumans": 3125,
      "Äłelectric": 3126,
      "ham": 3127,
      "esus": 3128,
      "Äłdaily": 3129,
      "roy": 3130,
      "Äłlove": 3131,
      "orthern": 3132,
      "izes": 3133,
      "ologies": 3134,
      "ÄłChina": 3135,
      "Äłproduced": 3136,
      "Äłpolicy": 3137,
      "ros": 3138,
      "Äłsust": 3139,
      "ÄłDo": 3140,
      "Äłsea": 3141,
      "Äłeval": 3142,
      "Äłdecre": 3143,
      "Äłinstead": 3144,
      "Äłcorrect": 3145,
      "ography": 3146,
      "Äłdetermine": 3147,
      "ÄłAfrican": 3148,
      "Äłprobably": 3149,
      "gn": 3150,
      "ĠÃ¢Ä¢Äµ": 3151,
      "anish": 3152,
      "Äłthreat": 3153,
      "ÄłSec": 3154,
      "ÄłCons": 3155,
      "ociety": 3156,
      "Äłvit": 3157,
      "Äłrout": 3158,
      "Äłrespect": 3159,
      "Äłstarted": 3160,
      "Äłcontinue": 3161,
      "Äłpoints": 3162,
      "Äłsituation": 3163,
      "Äłdevices": 3164,
      "ÄłAustral": 3165,
      "ĠÄłused": 3166,
      "Äłnight": 3167,
      "ceed": 3168,
      "rie": 3169,
      "ously": 3170,
      "195": 3171,
      "IV": 3172,
      "While": 3173,
      "oke": 3174,
      "Äłwarm": 3175,
      "Äłwalk": 3176,
      "imin": 3177,
      "ÄłOf": 3178,
      "Äładults": 3179,
      "Äłmechan": 3180,
      "Äłsomeone": 3181,
      "Äłoffer": 3182,
      "Äłprint": 3183,
      "ĠÄłatt": 3184,
      "But": 3185,
      "Ex": 3186,
      "istry": 3187,
      "ĠÄłsystem": 3188,
      "ĠÄłbl": 3189,
      "ĠÄłinf": 3190,
      "Äłleaves": 3191,
      "Äłpatient": 3192,
      "Äłdemonstr": 3193,
      "Äłculture": 3194,
      "where": 3195,
      "ĠÄłY": 3196,
      "Äłsold": 3197,
      "itable": 3198,
      "Äłmother": 3199,
      "ilos": 3200,
      "ÄłApp": 3201,
      "ĠÄłspec": 3202,
      "ogen": 3203,
      "Äłdoctor": 3204,
      "Äłprep": 3205,
      "Äłindepend": 3206,
      "iques": 3207,
      "Äłlooking": 3208,
      "Äłserious": 3209,
      "Äłeasily": 3210,
      "Äłbehind": 3211,
      "Äłtree": 3212,
      "ĠÄłacc": 3213,
      "ony": 3214,
      "Äłbase": 3215,
      "omb": 3216,
      "urg": 3217,
      "ÄłMin": 3218,
      "ÄłPar": 3219,
      "estic": 3220,
      "196": 3221,
      "ipment": 3222,
      "Äłexpect": 3223,
      "Äłextra": 3224,
      "Äłleading": 3225,
      "Äłinside": 3226,
      "lied": 3227,
      "rance": 3228,
      "Äłsn": 3229,
      "ims": 3230,
      "ÄłMon": 3231,
      "ÄłPart": 3232,
      "play": 3233,
      "Äłtrees": 3234,
      "Äłlimited": 3235,
      "EN": 3236,
      "bit": 3237,
      "equ": 3238,
      "eks": 3239,
      "Äłhands": 3240,
      "Äłreve": 3241,
      "sect": 3242,
      "cember": 3243,
      "ÄłAc": 3244,
      "ÄłMarch": 3245,
      "ptember": 3246,
      "Äłquite": 3247,
      "Äłsecurity": 3248,
      "Äłstrateg": 3249,
      "Äłmiles": 3250,
      "ÄłDepartment": 3251,
      "co": 3252,
      "iar": 3253,
      "ĠN": 3254,
      "ÄłInt": 3255,
      "osing": 3256,
      "Äłanything": 3257,
      "Äłattack": 3258,
      "Äłminutes": 3259,
      "ospital": 3260,
      "Äłscientific": 3261,
      "Äłanimal": 3262,
      "'re": 3263,
      "PA": 3264,
      "pe": 3265,
      "uk": 3266,
      "anuary": 3267,
      "arian": 3268,
      "rogen": 3269,
      "ula": 3270,
      "term": 3271,
      "ĠÄłbec": 3272,
      "Äłroad": 3273,
      "useum": 3274,
      "Äłfinancial": 3275,
      "Äłachieve": 3276,
      "orpor": 3277,
      "ulf": 3278,
      "ament": 3279,
      "Äłancient": 3280,
      "Äłwaste": 3281,
      "ÄłGl": 3282,
      "Äłspeak": 3283,
      "Äłfeatures": 3284,
      "lation": 3285,
      "Äłaud": 3286,
      "aly": 3287,
      "Äłmagn": 3288,
      "Äłthous": 3289,
      "Äłnormal": 3290,
      "olit": 3291,
      "ÄłCO": 3292,
      "Äłproced": 3293,
      "ÄłHar": 3294,
      "Äłselect": 3295,
      "ĠÄłeffect": 3296,
      "Äłinvestig": 3297,
      "coh": 3298,
      "wh": 3299,
      "Ġ4": 3300,
      "Äłdang": 3301,
      "lection": 3302,
      "Äłthus": 3303,
      "Äłstay": 3304,
      "ÄłEd": 3305,
      "Äłsoon": 3306,
      "Äłaccur": 3307,
      "2000": 3308,
      "Äłofficial": 3309,
      "Äładded": 3310,
      "Äłhighly": 3311,
      "Äłdirectly": 3312,
      "aught": 3313,
      "ĠÄłbetween": 3314,
      "75": 3315,
      "Â±": 3316,
      "rees": 3317,
      "Äłtheory": 3318,
      "Äłwood": 3319,
      "ctober": 3320,
      "Äłlate": 3321,
      "Äłgame": 3322,
      "Äłang": 3323,
      "ĠÄłsub": 3324,
      "ĠÄłbecause": 3325,
      "outhern": 3326,
      "ÄłGo": 3327,
      "Äłforms": 3328,
      "33": 3329,
      "ED": 3330,
      "Ġ5": 3331,
      "inical": 3332,
      "enge": 3333,
      "Äłsil": 3334,
      "Äłcustom": 3335,
      "Äłtown": 3336,
      "Äłeating": 3337,
      "uries": 3338,
      "vert": 3339,
      "amples": 3340,
      "oper": 3341,
      "ests": 3342,
      "ĠÄłcol": 3343,
      "Äładj": 3344,
      "ugust": 3345,
      "con": 3346,
      "ira": 3347,
      "ÄłÃ": 3348,
      "ĠÄłÃ¢Ä¢Äµ": 3349,
      "aters": 3350,
      "oud": 3351,
      "Äłgovern": 3352,
      "ama": 3353,
      "orders": 3354,
      "Äłlargest": 3355,
      "Äłmonth": 3356,
      "bl": 3357,
      "Äłfront": 3358,
      "rote": 3359,
      "Äłhost": 3360,
      "igned": 3361,
      "ought": 3362,
      "Äłtraditional": 3363,
      "Äłreflect": 3364,
      "Äłconstruction": 3365,
      "cription": 3366,
      "Äłmultiple": 3367,
      "Äłestablished": 3368,
      "cks": 3369,
      "ford": 3370,
      "new": 3371,
      "wide": 3372,
      "ĠR": 3373,
      "edic": 3374,
      "ara": 3375,
      "Äłbott": 3376,
      "Äłmental": 3377,
      "Äłeth": 3378,
      "Äłnation": 3379,
      "ully": 3380,
      "ĠÄłsc": 3381,
      "ÄłRec": 3382,
      "ÄłRev": 3383,
      "2005": 3384,
      "2006": 3385,
      "Äłrespond": 3386,
      "Äłsolar": 3387,
      "itch": 3388,
      "Äłprior": 3389,
      "Äłfast": 3390,
      "Äłharm": 3391,
      "Äłlabor": 3392,
      "odies": 3393,
      "ervice": 3394,
      "Äłblock": 3395,
      "ÄłCenter": 3396,
      "AS": 3397,
      "ĠF": 3398,
      "Äłfight": 3399,
      "Äłmole": 3400,
      "Äłlands": 3401,
      "ÄłUs": 3402,
      "Äłsupply": 3403,
      "Äłpoll": 3404,
      "ÄłArt": 3405,
      "Äłimmedi": 3406,
      "Äłelse": 3407,
      "Äłprimary": 3408,
      "Äłwrite": 3409,
      "ÄłCalifornia": 3410,
      "ding": 3411,
      "king": 3412,
      "life": 3413,
      "Äłi": 3414,
      "Äłtur": 3415,
      "Äłsouth": 3416,
      "aled": 3417,
      "Äłbab": 3418,
      "ica": 3419,
      "Äłbeaut": 3420,
      "rab": 3421,
      "ocr": 3422,
      "ÄłEl": 3423,
      "exic": 3424,
      "2015": 3425,
      "isms": 3426,
      "Äłanswer": 3427,
      "Â¡": 3428,
      "ĠÄłher": 3429,
      "Äłpack": 3430,
      "icip": 3431,
      "resh": 3432,
      "ĠÄłpr": 3433,
      "ÄłEducation": 3434,
      "ÄłReg": 3435,
      "Äłcommit": 3436,
      "ĠÄłprov": 3437,
      "Äłtransport": 3438,
      "Äłinstit": 3439,
      "Äłinstru": 3440,
      "Äłtypically": 3441,
      "Äłcarry": 3442,
      "airs": 3443,
      "Äłeye": 3444,
      "Äłnegative": 3445,
      "cles": 3446,
      "Äłwent": 3447,
      "Äłdark": 3448,
      "odes": 3449,
      "ÄłInstitute": 3450,
      "ossible": 3451,
      "Äłanaly": 3452,
      "Äłsummer": 3453,
      "ÄłGerman": 3454,
      "Äłbacteria": 3455,
      "ey": 3456,
      "Äłice": 3457,
      "Äłreasons": 3458,
      "Äłgives": 3459,
      "oses": 3460,
      "unction": 3461,
      "190": 3462,
      "hens": 3463,
      "Äładapt": 3464,
      "rows": 3465,
      "ception": 3466,
      "ociation": 3467,
      "Äłveh": 3468,
      "Äłcapac": 3469,
      "Äłmilitary": 3470,
      "Äłbroad": 3471,
      "Äłbeginning": 3472,
      "Äłefforts": 3473,
      "ashington": 3474,
      "cohol": 3475,
      "back": 3476,
      "che": 3477,
      "lamm": 3478,
      "uit": 3479,
      "uments": 3480,
      "Äłx": 3481,
      "Äłbad": 3482,
      "enty": 3483,
      "Äłhundred": 3484,
      "Äłstru": 3485,
      "ocal": 3486,
      "ÄłFrench": 3487,
      "Äłenjoy": 3488,
      "Äładop": 3489,
      "ĠÄłrem": 3490,
      "Äłnearly": 3491,
      "Äłsoftware": 3492,
      "32": 3493,
      "36": 3494,
      "So": 3495,
      "aith": 3496,
      "lam": 3497,
      "tained": 3498,
      "Äłsection": 3499,
      "oration": 3500,
      "Äłtowards": 3501,
      "Äłhabit": 3502,
      "ÄłMus": 3503,
      "Äłheld": 3504,
      "ials": 3505,
      "Äłappropriate": 3506,
      "Äłoverall": 3507,
      "chnology": 3508,
      "Äłeyes": 3509,
      "Äłwebsite": 3510,
      "aul": 3511,
      "mission": 3512,
      "ĠIn": 3513,
      "Äłsearch": 3514,
      "Äłbit": 3515,
      "ÄłMy": 3516,
      "ÄłRuss": 3517,
      "Äłseason": 3518,
      "Äłweeks": 3519,
      "Äłimages": 3520,
      "Äłplaces": 3521,
      "ĠÄłhigh": 3522,
      "anges": 3523,
      "Äłtherefore": 3524,
      "Äłinfection": 3525,
      "Äłcapital": 3526,
      "ÄłWilliam": 3527,
      "year": 3528,
      "Ġm": 3529,
      "reed": 3530,
      "orge": 3531,
      "Äłfoot": 3532,
      "imilar": 3533,
      "Äłaspect": 3534,
      "ÄłGree": 3535,
      "ÄłNe": 3536,
      "ÄłInternational": 3537,
      "Äłjo": 3538,
      "Äłremains": 3539,
      "Äłdescribed": 3540,
      "ÄłAfrica": 3541,
      "Äłapplications": 3542,
      "iology": 3543,
      "mosp": 3544,
      "pond": 3545,
      "rical": 3546,
      "Äłfram": 3547,
      "ĠÄłwhere": 3548,
      "ĠÄłsur": 3549,
      "ÄłDay": 3550,
      "ĠÄłtra": 3551,
      "Äłpregn": 3552,
      "ĠÄłAl": 3553,
      "Äłrapid": 3554,
      "Äłexpected": 3555,
      "Äłvalues": 3556,
      "Äłsolution": 3557,
      "Äłcultural": 3558,
      "Äłobjects": 3559,
      "na": 3560,
      "pre": 3561,
      "ĠÄłthose": 3562,
      "Äłcool": 3563,
      "Äłpiece": 3564,
      "Äłborn": 3565,
      "Äłfederal": 3566,
      "urrent": 3567,
      "ÄłSm": 3568,
      "Äłshall": 3569,
      "phas": 3570,
      "ĠÄłhelp": 3571,
      "ÄłEuropean": 3572,
      "Äłdocument": 3573,
      "38": 3574,
      "IC": 3575,
      "orb": 3576,
      "ulated": 3577,
      "ÄłCong": 3578,
      "ĠÄłafter": 3579,
      "Äłrates": 3580,
      "Äłrise": 3581,
      "ÄłNot": 3582,
      "ĠÄłhim": 3583,
      "Äłquant": 3584,
      "mitted": 3585,
      "cape": 3586,
      "Äłtri": 3587,
      "Äłnorth": 3588,
      "Äłbeg": 3589,
      "ander": 3590,
      "ĠÄłwell": 3591,
      "ÄłBo": 3592,
      "ÄłHere": 3593,
      "Äłcompared": 3594,
      "ondon": 3595,
      "Äłimportance": 3596,
      "Äłcentral": 3597,
      "Äłcommonly": 3598,
      "Äłthinking": 3599,
      "Äłcosts": 3600,
      "Äłprofessional": 3601,
      "IT": 3602,
      "ĠW": 3603,
      "Äłbrought": 3604,
      "Äłlines": 3605,
      "olved": 3606,
      "Äłgot": 3607,
      "ÄłSch": 3608,
      "Äłrich": 3609,
      "Äłagree": 3610,
      "2016": 3611,
      "Äłremain": 3612,
      "Äłearlier": 3613,
      "Äłmedia": 3614,
      "Äłproviding": 3615,
      "ÄłChristian": 3616,
      "Äłresponsible": 3617,
      "Äłcritical": 3618,
      "Äłfamilies": 3619,
      "Äłexercise": 3620,
      "34": 3621,
      "ĠT": 3622,
      "atin": 3623,
      "Äłcru": 3624,
      "ÄłAnt": 3625,
      "Äładminist": 3626,
      "Äłworkers": 3627,
      "Äłnews": 3628,
      "ĠÄłeven": 3629,
      "Äłsurround": 3630,
      "Äłprocesses": 3631,
      "Äłautom": 3632,
      "Äłlocated": 3633,
      "Äłasked": 3634,
      "ÄłCounty": 3635,
      "AC": 3636,
      "ees": 3637,
      "ĠÄłthrough": 3638,
      "ĠÄłvery": 3639,
      "Äłmom": 3640,
      "sec": 3641,
      "iding": 3642,
      "Äłstage": 3643,
      "pper": 3644,
      "rick": 3645,
      "ĠÄłyears": 3646,
      "gypt": 3647,
      "Äłlarger": 3648,
      "Äłcoast": 3649,
      "Äłgradu": 3650,
      "Ġ0": 3651,
      "ĠL": 3652,
      "Äłtherapy": 3653,
      "Äłcard": 3654,
      "Äłder": 3655,
      "Äłlength": 3656,
      "Äłaltern": 3657,
      "ÄłBecause": 3658,
      "ÄłFran": 3659,
      "ĠÄłmade": 3660,
      "ÄłOther": 3661,
      "ÄłJesus": 3662,
      "Äłrequires": 3663,
      "ĠÄłknow": 3664,
      "Äłestablish": 3665,
      "ÄłPresident": 3666,
      "Äłsustain": 3667,
      "Ġd": 3668,
      "itect": 3669,
      "arb": 3670,
      "ÄłApril": 3671,
      "Äłones": 3672,
      "que": 3673,
      "ĠÄłcould": 3674,
      "Äłyourself": 3675,
      "ĠÄłtrans": 3676,
      "cious": 3677,
      "Äłrare": 3678,
      "Äłeveryone": 3679,
      "Äłtests": 3680,
      "Äłprotection": 3681,
      "ÄłEngland": 3682,
      "Äłcreating": 3683,
      "ÄłCanada": 3684,
      "Äłceleb": 3685,
      "Äłprotein": 3686,
      "rant": 3687,
      "Äłwoman": 3688,
      "Äłtold": 3689,
      "oday": 3690,
      "illing": 3691,
      "orts": 3692,
      "ÄłFirst": 3693,
      "ĠÄłmy": 3694,
      "Äłseems": 3695,
      "ovember": 3696,
      "2004": 3697,
      "Äłeverything": 3698,
      "Äłexplore": 3699,
      "pective": 3700,
      "Äłhimself": 3701,
      "fficiency": 3702,
      "Äłaffected": 3703,
      "Äłvirus": 3704,
      "Äłsteps": 3705,
      "ÃĹ": 3706,
      "Äłdate": 3707,
      "lev": 3708,
      "Äłhy": 3709,
      "Äłhyp": 3710,
      "Äłord": 3711,
      "ĠÄłmake": 3712,
      "aste": 3713,
      "ÄłJuly": 3714,
      "ÄłVir": 3715,
      "Äłoffers": 3716,
      "Äłleaders": 3717,
      "Äłtesting": 3718,
      "Äłreduced": 3719,
      "Äłmemory": 3720,
      "Äłprojects": 3721,
      "Äłbirth": 3722,
      "Äłprivate": 3723,
      "Äłextremely": 3724,
      "itizens": 3725,
      "hav": 3726,
      "more": 3727,
      "uff": 3728,
      "ÄłÃ¢Ä¢": 3729,
      "Äłten": 3730,
      "asion": 3731,
      "road": 3732,
      "ĠÄłinter": 3733,
      "ÄłLear": 3734,
      "avid": 3735,
      "Äłuseful": 3736,
      "Äłactive": 3737,
      "onomic": 3738,
      "Äłgenetic": 3739,
      "Äłeconomy": 3740,
      "Äłelements": 3741,
      "related": 3742,
      "By": 3743,
      "ares": 3744,
      "can": 3745,
      "iable": 3746,
      "Äłcold": 3747,
      "Äłpen": 3748,
      "Äłfuel": 3749,
      "Äłhor": 3750,
      "ocks": 3751,
      "ogle": 3752,
      "ourt": 3753,
      "ÄłRiver": 3754,
      "Äłteaching": 3755,
      "Äłtrade": 3756,
      "inese": 3757,
      "Äłcenter": 3758,
      "Äłpurpose": 3759,
      "37": 3760,
      "rand": 3761,
      "Ġ10": 3762,
      "ingu": 3763,
      "Äłegg": 3764,
      "Äłlost": 3765,
      "see": 3766,
      "Ã¢Ä¢Äº": 3767,
      "Äłbeyond": 3768,
      "Äłult": 3769,
      "antly": 3770,
      "Äłcontroll": 3771,
      "ensity": 3772,
      "ÄłChar": 3773,
      "Äłacid": 3774,
      "Äłsmaller": 3775,
      "Äłdiabetes": 3776,
      "Äłvisual": 3777,
      "Äłdemand": 3778,
      "Äłbenefit": 3779,
      "aur": 3780,
      "Ġf": 3781,
      "ĠÄłext": 3782,
      "iny": 3783,
      "Äłmount": 3784,
      "lege": 3785,
      "ilit": 3786,
      "change": 3787,
      "ÄłHer": 3788,
      "ĠÄłfe": 3789,
      "ÄłFrom": 3790,
      "Äłenh": 3791,
      "ologist": 3792,
      "lict": 3793,
      "Äłroom": 3794,
      "merican": 3795,
      "Äłcommunic": 3796,
      "Äłorganization": 3797,
      "Äładvant": 3798,
      "Äłlaws": 3799,
      "force": 3800,
      "Äłdigital": 3801,
      "Äłvideo": 3802,
      "31": 3803,
      "At": 3804,
      "And": 3805,
      "tical": 3806,
      "atur": 3807,
      "Äłsaw": 3808,
      "Äłcou": 3809,
      "Äłcode": 3810,
      "Äłmid": 3811,
      "Äłhope": 3812,
      "ctors": 3813,
      "iring": 3814,
      "amer": 3815,
      "ÄłMexic": 3816,
      "ĠÄłsm": 3817,
      "Äłsugar": 3818,
      "ciples": 3819,
      "formed": 3820,
      "ĠÄłgo": 3821,
      "Äłdifferences": 3822,
      "Äłgoal": 3823,
      "Äłmodels": 3824,
      "Äłdevice": 3825,
      "Äłteacher": 3826,
      "39": 3827,
      "II": 3828,
      "men": 3829,
      "ying": 3830,
      "ĠÄłed": 3831,
      "encies": 3832,
      "Äłmax": 3833,
      "Äłnuc": 3834,
      "semb": 3835,
      "ulum": 3836,
      "ifically": 3837,
      "ÄłHistory": 3838,
      "Äłcontext": 3839,
      "Äłrecently": 3840,
      "Äłagricult": 3841,
      "ÄłVal": 3842,
      "Äłexpand": 3843,
      "Äłexposure": 3844,
      "Äłdecision": 3845,
      "Äłgoes": 3846,
      "Äłeducational": 3847,
      "Äłsites": 3848,
      "Äłstandards": 3849,
      "ĠÄłincre": 3850,
      "Äłapplication": 3851,
      "Äłdestroy": 3852,
      "ibrary": 3853,
      "house": 3854,
      "Â¸": 3855,
      "Äłcred": 3856,
      "Äłhot": 3857,
      "estion": 3858,
      "key": 3859,
      "pped": 3860,
      "Äłvict": 3861,
      "ruary": 3862,
      "irection": 3863,
      "Äłcontains": 3864,
      "Äłbecomes": 3865,
      "rops": 3866,
      "2017": 3867,
      "Äłtechniques": 3868,
      "Äłcommunication": 3869,
      "Äłcontinued": 3870,
      "ebruary": 3871,
      "ographic": 3872,
      "Äłfreed": 3873,
      "Äłhttp": 3874,
      "rieved": 3875,
      "rum": 3876,
      "uing": 3877,
      "xiety": 3878,
      "inated": 3879,
      "reet": 3880,
      "Äłpan": 3881,
      "Äłefficient": 3882,
      "amily": 3883,
      "ĠÄłthen": 3884,
      "Äłwhose": 3885,
      "ÄłMe": 3886,
      "ĠÄłpat": 3887,
      "ĠÄłbel": 3888,
      "Äłrules": 3889,
      "ager": 3890,
      "Äłacqu": 3891,
      "ĠÄłhealth": 3892,
      "ÄłProgram": 3893,
      "Äłfollowed": 3894,
      "eech": 3895,
      "Äłreceive": 3896,
      "Äłreceived": 3897,
      "Äłtrying": 3898,
      "care": 3899,
      "med": 3900,
      "pris": 3901,
      "time": 3902,
      "Ġp": 3903,
      "inally": 3904,
      "ittle": 3905,
      "Äłfair": 3906,
      "Äłhon": 3907,
      "urance": 3908,
      "Äłstri": 3909,
      "emy": 3910,
      "ĠÄłcount": 3911,
      "Äłsequ": 3912,
      "ÄłJune": 3913,
      "Äłtrack": 3914,
      "Äłroot": 3915,
      "Äłtransfer": 3916,
      "ÄłAmericans": 3917,
      "ÄłAlthough": 3918,
      "Äłcollabor": 3919,
      "ded": 3920,
      "iance": 3921,
      "pire": 3922,
      "Â³": 3923,
      "Ġ6": 3924,
      "inf": 3925,
      "Äłbul": 3926,
      "Äłbillion": 3927,
      "imens": 3928,
      "These": 3929,
      "ĠÄłmod": 3930,
      "rupt": 3931,
      "ĠÄłlong": 3932,
      "anging": 3933,
      "ouncil": 3934,
      "ognitive": 3935,
      "Äłproperties": 3936,
      "DA": 3937,
      "kin": 3938,
      "oe": 3939,
      "xic": 3940,
      "Åĥ": 3941,
      "ĠG": 3942,
      "Ġb": 3943,
      "omas": 3944,
      "Äłisn": 3945,
      "Äłstaff": 3946,
      "ÄłCity": 3947,
      "aint": 3948,
      "ÄłEven": 3949,
      "ibly": 3950,
      "apter": 3951,
      "Äłrock": 3952,
      "Äłcolon": 3953,
      "ĠÄłeach": 3954,
      "Äłdiscovered": 3955,
      "Äłmonit": 3956,
      "Äłsett": 3957,
      "Äłequipment": 3958,
      "Äłbasis": 3959,
      "Äłinteresting": 3960,
      "Äłinfluence": 3961,
      "ĠÄłown": 3962,
      "Äłfit": 3963,
      "Äłhous": 3964,
      "Äłconvers": 3965,
      "ĠÄłfact": 3966,
      "ÄłRead": 3967,
      "ĠÄłdist": 3968,
      "Äłjoint": 3969,
      "ĠÄłev": 3970,
      "Äłpractices": 3971,
      "ĠÄłimport": 3972,
      "ÄłSeptember": 3973,
      "Äłvirt": 3974,
      "ĠÄłjust": 3975,
      "Äłpredict": 3976,
      "78": 3977,
      "ĠÄłear": 3978,
      "reak": 3979,
      "Äłmob": 3980,
      "Äłreach": 3981,
      "Äłforces": 3982,
      "ector": 3983,
      "eces": 3984,
      "Äłcomplic": 3985,
      "Äłjournal": 3986,
      "Äłteeth": 3987,
      "Äłexamples": 3988,
      "Äłmember": 3989,
      "Äłcalcul": 3990,
      "ĠÄłagain": 3991,
      "Äłreligious": 3992,
      "48": 3993,
      "HE": 3994,
      "eared": 3995,
      "known": 3996,
      "Äłsus": 3997,
      "Äłswe": 3998,
      "Äłmal": 3999,
      "Äłmouth": 4000,
      "rot": 4001,
      "Äłgir": 4002,
      "rael": 4003,
      "ÄłSw": 4004,
      "Äłitems": 4005,
      "ophy": 4006,
      "ĠÄłfound": 4007,
      "apers": 4008,
      "ÄłUN": 4009,
      "Äłdecades": 4010,
      "ĠÄłWe": 4011,
      "hemat": 4012,
      "Äłpowerful": 4013,
      "Äłmeasures": 4014,
      "Äłcurrently": 4015,
      "Äłconsumption": 4016,
      "iant": 4017,
      "ĠÄłet": 4018,
      "isation": 4019,
      "Äłmill": 4020,
      "Äłep": 4021,
      "abilities": 4022,
      "Äłalone": 4023,
      "rome": 4024,
      "ocol": 4025,
      "Äłdeal": 4026,
      "Äłdead": 4027,
      "ÄłUse": 4028,
      "ĠÄłbeing": 4029,
      "ĠÄłInd": 4030,
      "Äłallowed": 4031,
      "Äłlegal": 4032,
      "Äłolder": 4033,
      "Äłoptions": 4034,
      "bol": 4035,
      "book": 4036,
      "son": 4037,
      "uations": 4038,
      "zz": 4039,
      "Ġ%": 4040,
      "ĠI": 4041,
      "ĠÄłart": 4042,
      "ero": 4043,
      "essel": 4044,
      "Äłfile": 4045,
      "Äłmap": 4046,
      "Äłhar": 4047,
      "olid": 4048,
      "rack": 4049,
      "ÄłAccording": 4050,
      "Äłstruct": 4051,
      "ÄłPark": 4052,
      "Äłexec": 4053,
      "ÄłWest": 4054,
      "ÄłGreat": 4055,
      "ĠÄłdifferent": 4056,
      "Äłusers": 4057,
      "ÄłJanuary": 4058,
      "ÄłChurch": 4059,
      "ÃĥÄ": 4060,
      "Äłintroduced": 4061,
      "Äłopportunity": 4062,
      "ault": 4063,
      "ios": 4064,
      "ygen": 4065,
      "Â½": 4066,
      "Äłwond": 4067,
      "Äłwinter": 4068,
      "Äłpet": 4069,
      "ÄłPeople": 4070,
      "Äłexact": 4071,
      "Äłimag": 4072,
      "ÄłOctober": 4073,
      "ÄłInc": 4074,
      "inding": 4075,
      "riculum": 4076,
      "Äłrob": 4077,
      "standing": 4078,
      "Äłpurch": 4079,
      "ÄłDecember": 4080,
      "Äłchoose": 4081,
      "Äłillness": 4082,
      "Äłfruit": 4083,
      "Äłheavy": 4084,
      "OS": 4085,
      "ait": 4086,
      "Äłtit": 4087,
      "atab": 4088,
      "Äłcateg": 4089,
      "Äłbatter": 4090,
      "Äłtoward": 4091,
      "Äłmention": 4092,
      "Äłmoving": 4093,
      "Äłdied": 4094,
      "Äłhom": 4095,
      "stead": 4096,
      "ÄłIS": 4097,
      "ĠÄłworld": 4098,
      "ÄłNow": 4099,
      "Äłshape": 4100,
      "Äładult": 4101,
      "Äłjud": 4102,
      "Äłunit": 4103,
      "Äłcommerc": 4104,
      "ĠÄłbefore": 4105,
      "ooking": 4106,
      "Äłrepe": 4107,
      "Äłemphas": 4108,
      "iox": 4109,
      "ĠÄłexper": 4110,
      "Äłlocation": 4111,
      "Äłimmune": 4112,
      "Äłcompletely": 4113,
      "Äłfemale": 4114,
      "Äłstrugg": 4115,
      "cast": 4116,
      "orage": 4117,
      "Äłfather": 4118,
      "iful": 4119,
      "ĠÄłway": 4120,
      "ĠÄłwater": 4121,
      "ework": 4122,
      "reatment": 4123,
      "ĠÄłrequ": 4124,
      "Äłteach": 4125,
      "Äłactions": 4126,
      "Äłemissions": 4127,
      "Äłscreen": 4128,
      "Äłtechnologies": 4129,
      "Äłdepend": 4130,
      "Äłplanet": 4131,
      "Äłproperty": 4132,
      "Äłfriends": 4133,
      "Ãħ": 4134,
      "Äłmiddle": 4135,
      "ÄłAugust": 4136,
      "amental": 4137,
      "Äłstra": 4138,
      "ÄłCom": 4139,
      "ĠÄłsaid": 4140,
      "ĠÄłboth": 4141,
      "ÄłDuring": 4142,
      "Äłking": 4143,
      "asses": 4144,
      "ube": 4145,
      "ails": 4146,
      "Äłpoly": 4147,
      "Äłfactor": 4148,
      "gery": 4149,
      "Äłchoice": 4150,
      "Äłcollection": 4151,
      "Äłchallenge": 4152,
      "Äłbirds": 4153,
      "Äłpatterns": 4154,
      "EC": 4155,
      "Some": 4156,
      "well": 4157,
      "Äłhomes": 4158,
      "ÄłEc": 4159,
      "rief": 4160,
      "Äłnovel": 4161,
      "ĠÄłNew": 4162,
      "Äłpresented": 4163,
      "Äłdrugs": 4164,
      "Äłopportunities": 4165,
      "elligence": 4166,
      "Äłgarden": 4167,
      "44": 4168,
      "gency": 4169,
      "Äłtou": 4170,
      "Äłcorn": 4171,
      "Äłmiss": 4172,
      "idel": 4173,
      "ÄłTrans": 4174,
      "uthor": 4175,
      "uls": 4176,
      "Äłalcohol": 4177,
      "respond": 4178,
      "Äłweb": 4179,
      "Äłdecl": 4180,
      "ĠÄłsec": 4181,
      "ĠÄłsee": 4182,
      "Äłshowed": 4183,
      "Äłoccurs": 4184,
      "Äłnutri": 4185,
      "ÄłAssociation": 4186,
      "Äłversion": 4187,
      "Äłtissue": 4188,
      "500": 4189,
      "cont": 4190,
      "with": 4191,
      "ĠE": 4192,
      "Äłtable": 4193,
      "Äłtrib": 4194,
      "heck": 4195,
      "Äłbound": 4196,
      "Äłfinal": 4197,
      "Äłfresh": 4198,
      "leg": 4199,
      "oma": 4200,
      "Äłnamed": 4201,
      "iments": 4202,
      "Äłund": 4203,
      "ĠÄłcent": 4204,
      "Äłatmosp": 4205,
      "Äłleave": 4206,
      "ĠÄłAr": 4207,
      "oves": 4208,
      "Äłscale": 4209,
      "Äłgeneration": 4210,
      "Äłfindings": 4211,
      "Äłreports": 4212,
      "ÄłSpanish": 4213,
      "Äłidentified": 4214,
      "Äłtrust": 4215,
      "poses": 4216,
      ");": 4217,
      "All": 4218,
      "Âµ": 4219,
      "Ãĺ": 4220,
      "Äłast": 4221,
      "ald": 4222,
      "Äłrepl": 4223,
      "Äłlaun": 4224,
      "oted": 4225,
      "Äłgain": 4226,
      "Äłgave": 4227,
      "Äłgiving": 4228,
      "amil": 4229,
      "ÄłSystem": 4230,
      "antic": 4231,
      "ĠÄłsame": 4232,
      "ÄłDis": 4233,
      "ÄłGreen": 4234,
      "ĠÄłdet": 4235,
      "ÄłInter": 4236,
      "ĠÄłlaw": 4237,
      "Äłdistance": 4238,
      "Äłpopulations": 4239,
      "Äłmilk": 4240,
      "Äłrecommend": 4241,
      "Äłchallenges": 4242,
      "AM": 4243,
      "Un": 4244,
      "ference": 4245,
      "ias": 4246,
      "rehens": 4247,
      "Äłwon": 4248,
      "Äłliqu": 4249,
      "ching": 4250,
      "Äłgold": 4251,
      "ams": 4252,
      "ademic": 4253,
      "ÄłThen": 4254,
      "ÄłPat": 4255,
      "ÄłGeneral": 4256,
      "ĠÄłduring": 4257,
      "ĠÄłlife": 4258,
      "Äłprinc": 4259,
      "iverse": 4260,
      "Äłanti": 4261,
      "Äłlimit": 4262,
      "ÄłMedic": 4263,
      "95": 4264,
      "EM": 4265,
      "aign": 4266,
      "nes": 4267,
      "Ġ(": 4268,
      "Äłcry": 4269,
      "Äłwrote": 4270,
      "Äłstar": 4271,
      "Äłexhib": 4272,
      "ÄłWater": 4273,
      "Äłrat": 4274,
      "ĠÄłdef": 4275,
      "Äłcompar": 4276,
      "ĠÄłgood": 4277,
      "Äłbelieved": 4278,
      "Äłbehavi": 4279,
      "Äłurban": 4280,
      "With": 4281,
      "lim": 4282,
      "ximately": 4283,
      "ĠÄłend": 4284,
      "arrow": 4285,
      "Äłinnov": 4286,
      "Äłmission": 4287,
      "Äłconsequ": 4288,
      "ÄłPress": 4289,
      "Äłrule": 4290,
      "ightly": 4291,
      "ĠÄłdisc": 4292,
      "Äłclinical": 4293,
      "Äłperhaps": 4294,
      "ysical": 4295,
      "ĠÄłprocess": 4296,
      "Äłtechnique": 4297,
      "ĠÄłexp": 4298,
      "Äłclassroom": 4299,
      "Äłsuccessful": 4300,
      "aughter": 4301,
      "Äłthousands": 4302,
      "Sh": 4303,
      "Â·": 4304,
      "encing": 4305,
      "Äłsch": 4306,
      "Äłwatch": 4307,
      "edu": 4308,
      "Äłbreat": 4309,
      "Äłfig": 4310,
      "Äłnative": 4311,
      "Äłformer": 4312,
      "ÄłHigh": 4313,
      "They": 4314,
      "ĠÄłdid": 4315,
      "2003": 4316,
      "Äłregions": 4317,
      "Äłfamous": 4318,
      "Äłfunctions": 4319,
      "Äłpassed": 4320,
      "Äłtrend": 4321,
      "Äłforeign": 4322,
      "Äłillust": 4323,
      "Äłcapacity": 4324,
      "85": 4325,
      "Here": 4326,
      "mal": 4327,
      "oice": 4328,
      "onic": 4329,
      "Äłfully": 4330,
      "Äłinsect": 4331,
      "Äłdivid": 4332,
      "enth": 4333,
      "etrieved": 4334,
      "Äłstim": 4335,
      "Äłstyle": 4336,
      "acific": 4337,
      "Äłincome": 4338,
      "2002": 4339,
      "Äłdecisions": 4340,
      "onomy": 4341,
      "Äłvision": 4342,
      "Äłguide": 4343,
      "Äłbelief": 4344,
      "Äłsignificantly": 4345,
      "ND": 4346,
      "ras": 4347,
      "Ġth": 4348,
      "Äłfear": 4349,
      "Äłmoved": 4350,
      "Äłreplace": 4351,
      "Äłcoming": 4352,
      "ÄłNA": 4353,
      "Äłworth": 4354,
      "ÄłThus": 4355,
      "Äłenter": 4356,
      "clus": 4357,
      "Äłmaintain": 4358,
      "Äłplanning": 4359,
      "Äłmuscle": 4360,
      "Äłtreated": 4361,
      "Äłelement": 4362,
      "Äłrunning": 4363,
      "Äłcombination": 4364,
      "Äłexisting": 4365,
      "____": 4366,
      "Äłindustrial": 4367,
      "ÄłCongress": 4368,
      "300": 4369,
      "ken": 4370,
      "ping": 4371,
      "inciples": 4372,
      "Äłpow": 4373,
      "Äłfix": 4374,
      "Äłthick": 4375,
      "Äłeight": 4376,
      "Äłnames": 4377,
      "othes": 4378,
      "ÄłTest": 4379,
      "ÄłAre": 4380,
      "orest": 4381,
      "Äłvill": 4382,
      "ÄłEast": 4383,
      "ÄłEgypt": 4384,
      "ĠÄłdem": 4385,
      "ÄłLaw": 4386,
      "Äłcommand": 4387,
      "isease": 4388,
      "Äłreprodu": 4389,
      "Äłflood": 4390,
      "Äłattract": 4391,
      "Äłsigns": 4392,
      "anguages": 4393,
      "Äłradiation": 4394,
      "ynam": 4395,
      "Äłdogs": 4396,
      "Äłbalance": 4397,
      "Äłpicture": 4398,
      "Äłevalu": 4399,
      "Äłstrategies": 4400,
      "ĠÄłocc": 4401,
      "Äłson": 4402,
      "ndrome": 4403,
      "Äłden": 4404,
      "ession": 4405,
      "ÄłHouse": 4406,
      "ÄłDon": 4407,
      "ÄłFl": 4408,
      "Äłseven": 4409,
      "Äłseeds": 4410,
      "Äłkid": 4411,
      "Äłdisorder": 4412,
      "Äłdisplay": 4413,
      "ishing": 4414,
      "Äłappears": 4415,
      "ÄłIts": 4416,
      "ĠÄłgreat": 4417,
      "Äłassum": 4418,
      "Äłserve": 4419,
      "----": 4420,
      "Äłequal": 4421,
      "fessor": 4422,
      "Äłbreast": 4423,
      "Äłamounts": 4424,
      "Äłhistorical": 4425,
      "Äłfriend": 4426,
      "hors": 4427,
      "ieces": 4428,
      "pir": 4429,
      "Ãĳ": 4430,
      "atform": 4431,
      "Äłbed": 4432,
      "Äłhair": 4433,
      "Äłlung": 4434,
      "ÄłMc": 4435,
      "rier": 4436,
      "ÄłJournal": 4437,
      "Äłresource": 4438,
      "lick": 4439,
      "ifying": 4440,
      "ÄłGermany": 4441,
      "Äłchemicals": 4442,
      "Äłseparate": 4443,
      "Pro": 4444,
      "do": 4445,
      "gal": 4446,
      "mat": 4447,
      "Ġ||": 4448,
      "ĠÄłent": 4449,
      "ĠÄłlear": 4450,
      "Äłbone": 4451,
      "Äłfields": 4452,
      "roke": 4453,
      "raction": 4454,
      "ÄłSur": 4455,
      "Äłalt": 4456,
      "osen": 4457,
      "Äłcomfort": 4458,
      "Äłvia": 4459,
      "ÄłWashington": 4460,
      "ÄłNovember": 4461,
      "Äłspring": 4462,
      "Äłcontract": 4463,
      "2018": 4464,
      "ĠÄłrep": 4465,
      "ologists": 4466,
      "ieties": 4467,
      "That": 4468,
      "Äłprice": 4469,
      "Äłinfections": 4470,
      "ĠÄłorgan": 4471,
      "Äłdepression": 4472,
      "Äłwanted": 4473,
      "Äłlearned": 4474,
      "Äłconstruct": 4475,
      "ÄłPhil": 4476,
      "Äłclearly": 4477,
      "Äłobserv": 4478,
      "Äłdegree": 4479,
      "Äłrecommended": 4480,
      "Äłutil": 4481,
      "Äłencourage": 4482,
      "Äłcomponents": 4483,
      "za": 4484,
      "Â£": 4485,
      "Äłpick": 4486,
      "Äłbodies": 4487,
      "Äłhuge": 4488,
      "Äłnorm": 4489,
      "ÄłTra": 4490,
      "Äłgames": 4491,
      "urt": 4492,
      "Äłstore": 4493,
      "Äłstream": 4494,
      "istan": 4495,
      "acing": 4496,
      "ĠÄłav": 4497,
      "ĠÄłfollow": 4498,
      "ÄłDNA": 4499,
      "ourse": 4500,
      "ÄłLord": 4501,
      "ÄłLondon": 4502,
      "ĠÄłread": 4503,
      "Äłperfect": 4504,
      "Äłunivers": 4505,
      "onds": 4506,
      "Äłblue": 4507,
      "Äłfeature": 4508,
      "Äłorganizations": 4509,
      "Äłoccup": 4510,
      "iveness": 4511,
      "Äłchanged": 4512,
      "ĠÄłlead": 4513,
      "Äłrequirements": 4514,
      "Äłlayer": 4515,
      "Äłrelationships": 4516,
      "EL": 4517,
      "pret": 4518,
      "atric": 4519,
      "Äłsand": 4520,
      "Äłwear": 4521,
      "Äłbra": 4522,
      "Äłfavor": 4523,
      "roph": 4524,
      "Äłload": 4525,
      "Äłgender": 4526,
      "igen": 4527,
      "ÄłAir": 4528,
      "ÄłCouncil": 4529,
      "Äłexcept": 4530,
      "Äłchurch": 4531,
      "ÄłNet": 4532,
      "Äłplaced": 4533,
      "Äłapplied": 4534,
      "ĠÄłAs": 4535,
      "overty": 4536,
      "Äłbecoming": 4537,
      "ĠÄłstate": 4538,
      "ĠÄłIf": 4539,
      "Äłassist": 4540,
      "Äłpresence": 4541,
      "Äładvanced": 4542,
      "ÄłIsland": 4543,
      "porary": 4544,
      "Äłhappen": 4545,
      "ĠÄłstudy": 4546,
      "Äłdoub": 4547,
      "PS": 4548,
      "Wh": 4549,
      "iate": 4550,
      "tes": 4551,
      "zing": 4552,
      "Â¥": 4553,
      "Ä¤": 4554,
      "Äłtim": 4555,
      "Äłsort": 4556,
      "Äłcop": 4557,
      "Äłfigure": 4558,
      "icians": 4559,
      "Äłmist": 4560,
      "Äłmag": 4561,
      "Äłmath": 4562,
      "Äłreality": 4563,
      "ĠÄłsign": 4564,
      "Äłspirit": 4565,
      "active": 4566,
      "Äłkilled": 4567,
      "Äłneigh": 4568,
      "Äłevolution": 4569,
      "2001": 4570,
      "Äłoffic": 4571,
      "ĠÄłevery": 4572,
      "Äłexpress": 4573,
      "Äłseek": 4574,
      "Äłstarting": 4575,
      "Äłdidn": 4576,
      "ĠÄłimp": 4577,
      "ÄłEnvironment": 4578,
      "Äłwrong": 4579,
      "Äłoxygen": 4580,
      "Äłindependent": 4581,
      "Äłbaby": 4582,
      "AL": 4583,
      "Res": 4584,
      "ij": 4585,
      "iated": 4586,
      "uous": 4587,
      "Â§": 4588,
      "rest": 4589,
      "Äłcore": 4590,
      "Äłpal": 4591,
      "icular": 4592,
      "Äłmale": 4593,
      "asks": 4594,
      "ste": 4595,
      "ÄłSociety": 4596,
      "resents": 4597,
      "Äłvary": 4598,
      "Äłchance": 4599,
      "ĠÄłgroup": 4600,
      "Äłworked": 4601,
      "189": 4602,
      "othing": 4603,
      "Äłrelatively": 4604,
      "Äłphilos": 4605,
      "Äłdistinct": 4606,
      "Äłexplain": 4607,
      "Äłorganic": 4608,
      "ĠÄłconf": 4609,
      "Äłmachine": 4610,
      "Äłdrinking": 4611,
      "uilding": 4612,
      "ÄłAustralia": 4613,
      "55": 4614,
      "OT": 4615,
      "ancing": 4616,
      "Äłball": 4617,
      "Äłmig": 4618,
      "astern": 4619,
      "uter": 4620,
      "irt": 4621,
      "ÄłSan": 4622,
      "Ġ.\"": 4623,
      "ĠÄłcar": 4624,
      "ĠÄłshe": 4625,
      "ÄłRoman": 4626,
      "ÄłFood": 4627,
      "Äłnote": 4628,
      "Äłnothing": 4629,
      "Äłseed": 4630,
      "rust": 4631,
      "ĠÄłAn": 4632,
      "Äłqual": 4633,
      "Äłgoals": 4634,
      "Äłtransl": 4635,
      "risis": 4636,
      "Äłdrive": 4637,
      "Äłchanging": 4638,
      "Äłantib": 4639,
      "However": 4640,
      "Äłturned": 4641,
      "Äłeventually": 4642,
      "Äłmessage": 4643,
      "Is": 4644,
      "tion": 4645,
      "vis": 4646,
      "Äłing": 4647,
      "atically": 4648,
      "Äłsac": 4649,
      "ria": 4650,
      "ÄłOur": 4651,
      "uality": 4652,
      "exts": 4653,
      "ventional": 4654,
      "ĠÄłval": 4655,
      "Äłdefined": 4656,
      "Äłexperiences": 4657,
      "Äłeasier": 4658,
      "ometimes": 4659,
      "ÄłBlack": 4660,
      "Äłreaction": 4661,
      "ÃĦÄ£": 4662,
      "Äładjust": 4663,
      "64": 4664,
      "ET": 4665,
      "Our": 4666,
      "rations": 4667,
      "west": 4668,
      "works": 4669,
      "Äłtask": 4670,
      "Äłbran": 4671,
      "Äłmis": 4672,
      "ulner": 4673,
      "adian": 4674,
      "ÄłCor": 4675,
      "ÄłMod": 4676,
      "osystem": 4677,
      "Äłhear": 4678,
      "ĠÄłpoint": 4679,
      "ĠÄłfl": 4680,
      "ÄłFebruary": 4681,
      "ĠÄłday": 4682,
      "Äłweather": 4683,
      "ÄłUK": 4684,
      "Äłdisorders": 4685,
      "ÄłJust": 4686,
      "ÄłInternet": 4687,
      "ĠÄłret": 4688,
      "Äłsurvey": 4689,
      "Äłcarried": 4690,
      "raining": 4691,
      "ÄłProject": 4692,
      "Äłdistribution": 4693,
      "Äłlesson": 4694,
      "Äłmetal": 4695,
      "Äłproperly": 4696,
      "Äłmajority": 4697,
      "1980": 4698,
      "Äłhappens": 4699,
      "Äłfilm": 4700,
      "Äłwidely": 4701,
      "Äłdetails": 4702,
      "Although": 4703,
      "hetic": 4704,
      "Äłfreedom": 4705,
      "Ar": 4706,
      "CS": 4707,
      "Most": 4708,
      "rates": 4709,
      "Ã¡": 4710,
      "ĠH": 4711,
      "Ġthe": 4712,
      "Äłtour": 4713,
      "ishes": 4714,
      "itness": 4715,
      "arp": 4716,
      "Äłtooth": 4717,
      "Äłmo": 4718,
      "otes": 4719,
      "otic": 4720,
      "uting": 4721,
      "Äłforward": 4722,
      "Äłanxiety": 4723,
      "Äłalg": 4724,
      "oser": 4725,
      "Äłexcess": 4726,
      "ĠÄłcor": 4727,
      "Äłvessel": 4728,
      "oster": 4729,
      "Äłplans": 4730,
      "Äłuser": 4731,
      "ĠÄłrese": 4732,
      "Äłupd": 4733,
      "Äłconservation": 4734,
      "Äłhelping": 4735,
      "ĠÄłHow": 4736,
      "ÄłProt": 4737,
      "Äłboard": 4738,
      "Äłletter": 4739,
      "ortunately": 4740,
      "Äłdiscussion": 4741,
      "Äłpeace": 4742,
      "Äłstatus": 4743,
      "ÄłMexico": 4744,
      "69": 4745,
      "Ad": 4746,
      "BC": 4747,
      "bal": 4748,
      "Â«": 4749,
      "Äłign": 4750,
      "Äłaim": 4751,
      "Äłwet": 4752,
      "Äłdra": 4753,
      "Äłdirection": 4754,
      "Äłthr": 4755,
      "struct": 4756,
      "omin": 4757,
      "Äłefficiency": 4758,
      "Äłlat": 4759,
      "Äłisol": 4760,
      "ÄłAv": 4761,
      "ÄłSince": 4762,
      "Äłstories": 4763,
      "ÄłCath": 4764,
      "ivation": 4765,
      "ĠÄłperson": 4766,
      "ĠÄłfood": 4767,
      "ÄłFrance": 4768,
      "Äłspect": 4769,
      "ÄłOver": 4770,
      "Äłapply": 4771,
      "plete": 4772,
      "Äłrot": 4773,
      "ĠÄłThey": 4774,
      "Äłformed": 4775,
      "Äłremember": 4776,
      "Äłinstruct": 4777,
      "ĠÄłset": 4778,
      "Äłkept": 4779,
      "Äłbox": 4780,
      "ÄłArch": 4781,
      "Äłelimin": 4782,
      "Äłtopic": 4783,
      "Äłhighest": 4784,
      "Äłessay": 4785,
      "Äłconnect": 4786,
      "Äłobserved": 4787,
      "Äłparticipants": 4788,
      "ÄłGeorge": 4789,
      "ÄłJapanese": 4790,
      "Äłstrength": 4791,
      "ĠÄłsupport": 4792,
      "Äłelectricity": 4793,
      "Äłbottom": 4794,
      "After": 4795,
      "gs": 4796,
      "Â»": 4797,
      "inn": 4798,
      "eria": 4799,
      "Äłcitizens": 4800,
      "eding": 4801,
      "oul": 4802,
      "icks": 4803,
      "Äłmut": 4804,
      "Äłhorm": 4805,
      "olk": 4806,
      "ida": 4807,
      "urd": 4808,
      "igation": 4809,
      "ĠÄłback": 4810,
      "ÄłDi": 4811,
      "riage": 4812,
      "ÄłRel": 4813,
      "Äłnotes": 4814,
      "ague": 4815,
      "aped": 4816,
      "Äłpret": 4817,
      "cipl": 4818,
      "arket": 4819,
      "efore": 4820,
      "Äłremove": 4821,
      "ĠÄłvar": 4822,
      "Äłcharge": 4823,
      "Äłfeeling": 4824,
      "Äłprofession": 4825,
      "Äłconnection": 4826,
      "rastructure": 4827,
      "eaking": 4828,
      "och": 4829,
      "Â²": 4830,
      "Ġ8": 4831,
      "Ġ]": 4832,
      "Ġ|": 4833,
      "oting": 4834,
      "ÄłTr": 4835,
      "osa": 4836,
      "ĠÄłpop": 4837,
      "Äłchronic": 4838,
      "ĠÄłmust": 4839,
      "ĠÄłnow": 4840,
      "oking": 4841,
      "ÄłChildren": 4842,
      "ÄłChinese": 4843,
      "tee": 4844,
      "Äłactual": 4845,
      "ypes": 4846,
      "Äłgets": 4847,
      "clusion": 4848,
      "ĠÄłchildren": 4849,
      "Äłperformed": 4850,
      "Äłradio": 4851,
      "Äłreleased": 4852,
      "obert": 4853,
      "Äłfailure": 4854,
      "Äłcommercial": 4855,
      "name": 4856,
      "ye": 4857,
      "Äłcities": 4858,
      "Äłphen": 4859,
      "Äłlived": 4860,
      "Äłlanguages": 4861,
      "ategy": 4862,
      "ÄłMary": 4863,
      "ÄłMount": 4864,
      "ÄłMuseum": 4865,
      "ĠÄłmain": 4866,
      "Äłweak": 4867,
      "Äłcontrast": 4868,
      "exas": 4869,
      "Äłclick": 4870,
      "ĠÄłget": 4871,
      "ervices": 4872,
      "Äłmostly": 4873,
      "Äłremoved": 4874,
      "ĠÄłprodu": 4875,
      "Äłtechnical": 4876,
      "ĠÄłGod": 4877,
      "ÄłWeb": 4878,
      "Äłrisks": 4879,
      "1998": 4880,
      "Äłcompleted": 4881,
      "Äłbuildings": 4882,
      "Äłplayed": 4883,
      "Äłprofessor": 4884,
      "Äłarchitect": 4885,
      "Äłregarding": 4886,
      "Äłmoment": 4887,
      "Äładvantage": 4888,
      "ĠÄłsmall": 4889,
      "AD": 4890,
      "ht": 4891,
      "ux": 4892,
      "wood": 4893,
      "Ġ000": 4894,
      "Äłtum": 4895,
      "Äłsave": 4896,
      "itage": 4897,
      "orial": 4898,
      "arn": 4899,
      "Äłinh": 4900,
      "Äłinternal": 4901,
      "asure": 4902,
      "lym": 4903,
      "ÄłSpec": 4904,
      "Äłstorage": 4905,
      "eline": 4906,
      "ÄłTheir": 4907,
      "erences": 4908,
      "Äłcompl": 4909,
      "ÄłWestern": 4910,
      "ĠÄłinv": 4911,
      "ÄłGen": 4912,
      "ÄłOnce": 4913,
      "erman": 4914,
      "Äłscen": 4915,
      "ĠÄłPro": 4916,
      "Äłcreation": 4917,
      "ĠÄłFor": 4918,
      "ÄłAlso": 4919,
      "Äłcoal": 4920,
      "Äłstrategy": 4921,
      "Äłserved": 4922,
      "Äłterrit": 4923,
      "Äłimmediately": 4924,
      "Äłmonitoring": 4925,
      "'ll": 4926,
      "eep": 4927,
      "pan": 4928,
      "Â¿": 4929,
      "requ": 4930,
      "Äłcopy": 4931,
      "itors": 4932,
      "Äłwaters": 4933,
      "Äłfaith": 4934,
      "stood": 4935,
      "ÄłSu": 4936,
      "ache": 4937,
      "ÄłPal": 4938,
      "Äłriver": 4939,
      "ÄłEach": 4940,
      "ĠÄłmon": 4941,
      "ĠÄłmuch": 4942,
      "Äłnoted": 4943,
      "ĠÄłdown": 4944,
      "energy": 4945,
      "Äłbuy": 4946,
      "Äłnumerous": 4947,
      "Äłinstance": 4948,
      "ÄłAsia": 4949,
      "Äłbackground": 4950,
      "Äłstatement": 4951,
      "Äłreducing": 4952,
      "Äłclasses": 4953,
      "Äłgene": 4954,
      "ÄłTherefore": 4955,
      "ÄłCollege": 4956,
      "ĠÄłdoes": 4957,
      "Äłdetermined": 4958,
      "Äłtemperatures": 4959,
      "ST": 4960,
      "then": 4961,
      "win": 4962,
      "Ġ!": 4963,
      "ĠO": 4964,
      "eries": 4965,
      "Äłsem": 4966,
      "Äłplease": 4967,
      "Äłfert": 4968,
      "Äłmel": 4969,
      "Äłdatab": 4970,
      "iled": 4971,
      "isting": 4972,
      "ÄłMor": 4973,
      "ÄłWork": 4974,
      "Äłround": 4975,
      "Äłspend": 4976,
      "ÄłUnder": 4977,
      "Äłincorpor": 4978,
      "Äłdisp": 4979,
      "2020": 4980,
      "Äłrecords": 4981,
      "Äłtrig": 4982,
      "ractice": 4983,
      "ÄłUnion": 4984,
      "Äłpresident": 4985,
      "Äłsetting": 4986,
      "Äłcurriculum": 4987,
      "Äłleads": 4988,
      "1996": 4989,
      "Äłconcern": 4990,
      "Äłfrequently": 4991,
      "Äłvaccine": 4992,
      "Äłinstrument": 4993,
      "ĠÄłimportant": 4994,
      "\",": 4995,
      "67": 4996,
      "cers": 4997,
      "down": 4998,
      "Ãı": 4999,
      "ĠÄłest": 5000,
      "Äłocean": 5001,
      "ingly": 5002,
      "Äłlose": 5003,
      "Äłnorthern": 5004,
      "ett": 5005,
      "uration": 5006,
      "rav": 5007,
      "andom": 5008,
      "ÄłMich": 5009,
      "anted": 5010,
      "ĠÄłco": 5011,
      "ĠÄłinformation": 5012,
      "ÄłFound": 5013,
      "ulture": 5014,
      "2019": 5015,
      "ĠÄłnumber": 5016,
      "ĠÄłref": 5017,
      "Äłpartners": 5018,
      "riting": 5019,
      "Äłincreases": 5020,
      "Äłgoods": 5021,
      "1990": 5022,
      "Äłlegis": 5023,
      "Äłimpacts": 5024,
      "Äłpolicies": 5025,
      "Äłemotional": 5026,
      "Äłreferred": 5027,
      "which": 5028,
      "RO": 5029,
      "flow": 5030,
      "ses": 5031,
      "ya": 5032,
      "Äłap": 5033,
      "Äłcognitive": 5034,
      "alysis": 5035,
      "Äłwin": 5036,
      "Äłwall": 5037,
      "inger": 5038,
      "Äłpun": 5039,
      "Äłflex": 5040,
      "iced": 5041,
      "lements": 5042,
      "Äłhospital": 5043,
      "ÄłCourt": 5044,
      "ĠÄłoften": 5045,
      "ÄłDavid": 5046,
      "ÄłEv": 5047,
      "Äłplatform": 5048,
      "ĠÄłtake": 5049,
      "ificial": 5050,
      "Äłoffice": 5051,
      "Äłsolutions": 5052,
      "Äłideal": 5053,
      "ĠÄłlevel": 5054,
      "ÄłPlan": 5055,
      "Äłsuggests": 5056,
      "ÄłOrgan": 5057,
      "Äłpromote": 5058,
      "Äłnutrition": 5059,
      "Äłfarmers": 5060,
      "Äłlooks": 5061,
      "ÄłStudents": 5062,
      "Äłestimated": 5063,
      "Äłvitamin": 5064,
      "Äłprocedure": 5065,
      "ÄłVirgin": 5066,
      "RE": 5067,
      "Ã¥": 5068,
      "ĠÄłusing": 5069,
      "rete": 5070,
      "Äłcere": 5071,
      "Äłwhe": 5072,
      "Äłhaz": 5073,
      "omy": 5074,
      "Äłreb": 5075,
      "uts": 5076,
      "Äłgraph": 5077,
      "Äłaren": 5078,
      "umn": 5079,
      "ÄłPaul": 5080,
      "ÄłRed": 5081,
      "Äłunf": 5082,
      "ĠÄłproblem": 5083,
      "Äłdiscover": 5084,
      "Äłglass": 5085,
      "Äłsolid": 5086,
      "pected": 5087,
      "Äłallowing": 5088,
      "Äłflowers": 5089,
      "Äłcycle": 5090,
      "board": 5091,
      "Äłmedicine": 5092,
      "Äłvegetables": 5093,
      "Äłprepared": 5094,
      "ÄłGreek": 5095,
      "idelines": 5096,
      "point": 5097,
      "Â¾": 5098,
      "Äłiron": 5099,
      "Äłaid": 5100,
      "reated": 5101,
      "reci": 5102,
      "Äłtherap": 5103,
      "eder": 5104,
      "ario": 5105,
      "olve": 5106,
      "ÄłAng": 5107,
      "Äłyellow": 5108,
      "Äłwhom": 5109,
      "usiness": 5110,
      "Äłheard": 5111,
      "ÄłHIV": 5112,
      "ÄłDist": 5113,
      "Äłspot": 5114,
      "Äłplastic": 5115,
      "anged": 5116,
      "ciences": 5117,
      "Äłblog": 5118,
      "ĠÄłwhile": 5119,
      "Äłinflamm": 5120,
      "Äłdepending": 5121,
      "Äłcorrespond": 5122,
      "Äłcareer": 5123,
      "comes": 5124,
      "Äłslightly": 5125,
      "Äłoperations": 5126,
      "Äłvolume": 5127,
      "Äłdegrees": 5128,
      "Äłmeeting": 5129,
      "Äłpreviously": 5130,
      "Äłcounter": 5131,
      "Äłsurrounding": 5132,
      "49": 5133,
      "cular": 5134,
      "rich": 5135,
      "ĠÄłra": 5136,
      "Äłsav": 5137,
      "Äłcand": 5138,
      "Äłwave": 5139,
      "struction": 5140,
      "ulating": 5141,
      "amps": 5142,
      "umin": 5143,
      "ÄłBoth": 5144,
      "ĠÄłfind": 5145,
      "ago": 5146,
      "agers": 5147,
      "ĠÄłhuman": 5148,
      "apes": 5149,
      "Äłrecy": 5150,
      "Äłhelped": 5151,
      "ributed": 5152,
      "ĠÄłThere": 5153,
      "Äłdetect": 5154,
      "Äłsignal": 5155,
      "Äłlargely": 5156,
      "Äłgenes": 5157,
      "cellent": 5158,
      "Äłconducted": 5159,
      "Äłinjury": 5160,
      "Äłviolence": 5161,
      "Äławareness": 5162,
      "Äłdangerous": 5163,
      "ÄłMedicine": 5164,
      "band": 5165,
      "last": 5166,
      "uable": 5167,
      "ĠÄłcell": 5168,
      "inion": 5169,
      "Äłpieces": 5170,
      "Äłhour": 5171,
      "iling": 5172,
      "ceived": 5173,
      "eles": 5174,
      "ested": 5175,
      "ĠÄłsim": 5176,
      "ĠÄłschool": 5177,
      "ĠÄłmin": 5178,
      "ĠÄłmet": 5179,
      "ÄłLou": 5180,
      "ÄłLet": 5181,
      "ÄłOff": 5182,
      "ipe": 5183,
      "Äłexpression": 5184,
      "ĠÄłIs": 5185,
      "ĠÄłyear": 5186,
      "ĠÄłvis": 5187,
      "hips": 5188,
      "Äłauthors": 5189,
      "arsh": 5190,
      "Äłcontinues": 5191,
      "Äłkeeping": 5192,
      "ĠÄłresp": 5193,
      "Äłinvestment": 5194,
      "Äłcharacteristics": 5195,
      "Äłabsorb": 5196,
      "Äłinitial": 5197,
      "ÄłJewish": 5198,
      "Äłbegins": 5199,
      "havior": 5200,
      "77": 5201,
      "86": 5202,
      "col": 5203,
      "lo": 5204,
      "met": 5205,
      "pat": 5206,
      "Ġg": 5207,
      "ĠÄłthree": 5208,
      "arly": 5209,
      "Äłburn": 5210,
      "utive": 5211,
      "raz": 5212,
      "opes": 5213,
      "ÄłPacific": 5214,
      "ÄłDec": 5215,
      "ĠÄłmight": 5216,
      "ichard": 5217,
      "berg": 5218,
      "Äłmeat": 5219,
      "Äłarm": 5220,
      "rowth": 5221,
      "Äłtradition": 5222,
      "oviet": 5223,
      "Äłrace": 5224,
      "Äłtypical": 5225,
      "Äłexperts": 5226,
      "Äłreference": 5227,
      "Äłexplains": 5228,
      "Äłtreatments": 5229,
      "Äłdownload": 5230,
      "ÄłIsrael": 5231,
      "Äłidentity": 5232,
      "Äłinvolve": 5233,
      "ĠÄłdevelop": 5234,
      "ipped": 5235,
      "ÄłEnergy": 5236,
      "ĠÄłstudents": 5237,
      "Äłalternative": 5238,
      "Äłgirls": 5239,
      "Äłatmosphere": 5240,
      "Äłdivided": 5241,
      "Qu": 5242,
      "mm": 5243,
      "ped": 5244,
      "Â¬": 5245,
      "Â®": 5246,
      "Âº": 5247,
      "ĠJ": 5248,
      "Äłsnow": 5249,
      "itz": 5250,
      "itting": 5251,
      "Äłfine": 5252,
      "Äłtoxic": 5253,
      "roc": 5254,
      "Äłreached": 5255,
      "Äłnav": 5256,
      "Äłnarrow": 5257,
      "anda": 5258,
      "ÄłSee": 5259,
      "ÄłService": 5260,
      "Äłstorm": 5261,
      "ÄłMiss": 5262,
      "ÄłPol": 5263,
      "Äłcomment": 5264,
      "ÄłBi": 5265,
      "ÄłBar": 5266,
      "ĠÄłbody": 5267,
      "Äłvast": 5268,
      "Äłvulner": 5269,
      "ĠÄłdep": 5270,
      "ags": 5271,
      "Äłkill": 5272,
      "ÄłInf": 5273,
      "Äłotherwise": 5274,
      "ensus": 5275,
      "Äłjour": 5276,
      "Äłcolors": 5277,
      "ÃĥÅĥ": 5278,
      "Äłsmart": 5279,
      "ĠÄłexample": 5280,
      "Äłprocessing": 5281,
      "Äłshowing": 5282,
      "Äłapproximately": 5283,
      "Äłsymbol": 5284,
      "Äłconnected": 5285,
      "Äłdescribe": 5286,
      "Äłrelease": 5287,
      "Äłcollege": 5288,
      "Äłcontribute": 5289,
      "Äłengineering": 5290,
      "Äłassessment": 5291,
      "Äłliterature": 5292,
      "Äłaspects": 5293,
      "Äłpregnancy": 5294,
      "Äłnuclear": 5295,
      "Äłwonder": 5296,
      "CC": 5297,
      "DF": 5298,
      "Many": 5299,
      "RI": 5300,
      "ii": 5301,
      "ville": 5302,
      "Â¹": 5303,
      "Äłsample": 5304,
      "Äłbank": 5305,
      "Äłbird": 5306,
      "Äłfif": 5307,
      "Äłmort": 5308,
      "rog": 5309,
      "Äłrenew": 5310,
      "urb": 5311,
      "Äłforced": 5312,
      "Äłupper": 5313,
      "ÄłST": 5314,
      "ÄłSocial": 5315,
      "ĠÄłpres": 5316,
      "unn": 5317,
      "Äłspeech": 5318,
      "Äłcomprehens": 5319,
      "Äłneu": 5320,
      "Äłstudied": 5321,
      "Äłprepar": 5322,
      "ĠÄłgl": 5323,
      "rence": 5324,
      "Äłconsult": 5325,
      "Äłspecifically": 5326,
      "cycl": 5327,
      "Äłexperiment": 5328,
      "risk": 5329,
      "Äłconflict": 5330,
      "Äłplaying": 5331,
      "Äłfeelings": 5332,
      "Äłconcerns": 5333,
      "Äłfrequency": 5334,
      "Äłlinked": 5335,
      "Äłsexual": 5336,
      "Äłmanufacture": 5337,
      "Äłcampaign": 5338,
      "Äłdecrease": 5339,
      "Äłbeautiful": 5340,
      "Äłcrucial": 5341,
      "ÄłNASA": 5342,
      "ael": 5343,
      "bra": 5344,
      "den": 5345,
      "la": 5346,
      "oo": 5347,
      "rong": 5348,
      "rating": 5349,
      "ÄłÃ¢Ä": 5350,
      "Äłoption": 5351,
      "Äłinput": 5352,
      "roops": 5353,
      "ÄłWind": 5354,
      "Äłdisapp": 5355,
      "ĠÄłterm": 5356,
      "Äłparty": 5357,
      "ÄłKore": 5358,
      "erves": 5359,
      "tenance": 5360,
      "Äłoffered": 5361,
      "Äłemail": 5362,
      "Äłinstall": 5363,
      "Äłexpert": 5364,
      "Äłowners": 5365,
      "Äłcourt": 5366,
      "ĠÄłright": 5367,
      "ĠÄłknown": 5368,
      "ĠÄłcontin": 5369,
      "ymptoms": 5370,
      "Äłmulti": 5371,
      "Äłannual": 5372,
      "Äłdiagnosis": 5373,
      "Äłliquid": 5374,
      "Ph": 5375,
      "ball": 5376,
      "burg": 5377,
      "eer": 5378,
      "Ġe": 5379,
      "Äłsides": 5380,
      "isher": 5381,
      "Äłpul": 5382,
      "arter": 5383,
      "Äłbattle": 5384,
      "Äłfoss": 5385,
      "Äłmit": 5386,
      "olars": 5387,
      "ÄłToday": 5388,
      "Äłgod": 5389,
      "ÄłMass": 5390,
      "estyle": 5391,
      "keep": 5392,
      "ĠÄłcond": 5393,
      "ÄłElect": 5394,
      "ÄłGroup": 5395,
      "ells": 5396,
      "ÄłUp": 5397,
      "ÄłJames": 5398,
      "Äłresidents": 5399,
      "Äłclim": 5400,
      "rowing": 5401,
      "ĠÄłequ": 5402,
      "ĠÄłBut": 5403,
      "Äłformation": 5404,
      "ĠÄłprogram": 5405,
      "Äłresulting": 5406,
      "ĠÄłanother": 5407,
      "Äłcausing": 5408,
      "Äłarticles": 5409,
      "Äłvalid": 5410,
      "Äłecosystem": 5411,
      "Äłbelong": 5412,
      "Äłpractical": 5413,
      "Äłexperienced": 5414,
      "Äłpurposes": 5415,
      "Äłelev": 5416,
      "ÄłSea": 5417,
      "olester": 5418,
      "ÄłLearning": 5419,
      "Äłmentioned": 5420,
      "42": 5421,
      "More": 5422,
      "cest": 5423,
      "gi": 5424,
      "las": 5425,
      "rep": 5426,
      "Äłple": 5427,
      "Äłfaster": 5428,
      "Äłdoll": 5429,
      "Äłstages": 5430,
      "aying": 5431,
      "iform": 5432,
      "ÄłPen": 5433,
      "osite": 5434,
      "ivate": 5435,
      "ÄłBer": 5436,
      "ÄłBook": 5437,
      "ÄłEvery": 5438,
      "ÄłFurther": 5439,
      "Äłnotice": 5440,
      "ĠÄłdata": 5441,
      "ÄłLatin": 5442,
      "ĠÄłless": 5443,
      "bert": 5444,
      "Äłoutput": 5445,
      "Äłunits": 5446,
      "athy": 5447,
      "Äłrain": 5448,
      "Äłanyone": 5449,
      "Äłacademic": 5450,
      "Äłsubs": 5451,
      "Äłeffectively": 5452,
      "Äłminor": 5453,
      "ircraft": 5454,
      "Äłimmig": 5455,
      "afety": 5456,
      "Äłinvolves": 5457,
      "Äłvolunt": 5458,
      "Äłcombined": 5459,
      "Äłrecognize": 5460,
      "Äłsubjects": 5461,
      "Äłconcentration": 5462,
      "Äłdefinition": 5463,
      "ocratic": 5464,
      "Äłsustainable": 5465,
      "CO": 5466,
      "Ã£": 5467,
      "ĠÃ¢Ä¢Ä¶": 5468,
      "Äłtiny": 5469,
      "reate": 5470,
      "enry": 5471,
      "Äłdram": 5472,
      "state": 5473,
      "stances": 5474,
      "urning": 5475,
      "radu": 5476,
      "Äłconv": 5477,
      "ÄłPort": 5478,
      "ĠÄłca": 5479,
      "ĠÄłcase": 5480,
      "Äłinches": 5481,
      "aven": 5482,
      "ÄłThomas": 5483,
      "ordin": 5484,
      "Äłuns": 5485,
      "Äłsyndrome": 5486,
      "rams": 5487,
      "Äłphase": 5488,
      "Äłsurgery": 5489,
      "ĠÄłEng": 5490,
      "150": 5491,
      "Äłfinding": 5492,
      "1999": 5493,
      "Äłthoughts": 5494,
      "Äłsituations": 5495,
      "Äłoperation": 5496,
      "annel": 5497,
      "ÄłCommun": 5498,
      "ĠÄłclass": 5499,
      "Äłcircuit": 5500,
      "Äłbrother": 5501,
      "Äłmotor": 5502,
      "Äłrelevant": 5503,
      "Äłhousehold": 5504,
      "Äłfamiliar": 5505,
      "ĠÄłaround": 5506,
      "Äłvehicle": 5507,
      "Äłrapidly": 5508,
      "olesterol": 5509,
      "fish": 5510,
      "Â¶": 5511,
      "ĠÄłÃ¢Ä¢Äº": 5512,
      "Äłsen": 5513,
      "Äłcert": 5514,
      "alle": 5515,
      "Äłpoverty": 5516,
      "arant": 5517,
      "Äłbones": 5518,
      "Äłbrief": 5519,
      "Äłfib": 5520,
      "Äłfrag": 5521,
      "ician": 5522,
      "Äłinform": 5523,
      "ctic": 5524,
      "Äłnor": 5525,
      "olute": 5526,
      "celer": 5527,
      "irus": 5528,
      "ums": 5529,
      "ÄłPublic": 5530,
      "ĠÄłbo": 5531,
      "ÄłWhy": 5532,
      "rian": 5533,
      "ÄłGood": 5534,
      "acters": 5535,
      "ĠÄłstill": 5536,
      "Äłtruth": 5537,
      "Äłextent": 5538,
      "Äłparticles": 5539,
      "Äłgrown": 5540,
      "being": 5541,
      "Äłgrass": 5542,
      "Äłpersons": 5543,
      "offee": 5544,
      "Äłforests": 5545,
      "Äłderived": 5546,
      "ION": 5547,
      "ki": 5548,
      "pic": 5549,
      "taining": 5550,
      "Ä¯": 5551,
      "Äłax": 5552,
      "ona": 5553,
      "orith": 5554,
      "Äłdri": 5555,
      "level": 5556,
      "olt": 5557,
      "utrition": 5558,
      "ÄłArab": 5559,
      "ÄłSen": 5560,
      "abits": 5561,
      "unk": 5562,
      "allow": 5563,
      "akers": 5564,
      "ava": 5565,
      "inder": 5566,
      "Äłdoctors": 5567,
      "ailed": 5568,
      "Äłfacts": 5569,
      "Äłsecret": 5570,
      "Äłexplan": 5571,
      "Äłmainly": 5572,
      "cules": 5573,
      "ÄłMedical": 5574,
      "Äłkinds": 5575,
      "Äłmotion": 5576,
      "going": 5577,
      "Äłrevolution": 5578,
      "Äłstraight": 5579,
      "43": 5580,
      "63": 5581,
      "long": 5582,
      "no": 5583,
      "nic": 5584,
      "pen": 5585,
      "rite": 5586,
      "ĠK": 5587,
      "ĠÄłdu": 5588,
      "atal": 5589,
      "Äłsamples": 5590,
      "Äłcrisis": 5591,
      "itt": 5592,
      "Äłpark": 5593,
      "Äłpages": 5594,
      "ctive": 5595,
      "oto": 5596,
      "ÄłIr": 5597,
      "ÄłMat": 5598,
      "Äłvital": 5599,
      "ÄłDem": 5600,
      "pert": 5601,
      "ÄłJer": 5602,
      "Äłmanage": 5603,
      "ĠÄłredu": 5604,
      "Äłappeared": 5605,
      "ÄłStand": 5606,
      "Äłrail": 5607,
      "Äłphone": 5608,
      "Äłassign": 5609,
      "Äłmuscles": 5610,
      "ÄłDevelopment": 5611,
      "ÄłCentral": 5612,
      "Äłprimarily": 5613,
      "Äłfundamental": 5614,
      "Another": 5615,
      "Äłcomponent": 5616,
      "Äłsquare": 5617,
      "Äłofficials": 5618,
      "Äłgovernments": 5619,
      "47": 5620,
      "BN": 5621,
      "Dr": 5622,
      "OU": 5623,
      "bi": 5624,
      "des": 5625,
      "li": 5626,
      "rus": 5627,
      "rants": 5628,
      "Ġ7": 5629,
      "Ġh": 5630,
      "Äłtrou": 5631,
      "ĠÄłide": 5632,
      "Äłther": 5633,
      "Äłsend": 5634,
      "Äłsong": 5635,
      "Äłsector": 5636,
      "Äłdial": 5637,
      "Äłthin": 5638,
      "ompl": 5639,
      "sets": 5640,
      "ÄłTexas": 5641,
      "ÄłSim": 5642,
      "ÄłMil": 5643,
      "ÄłMake": 5644,
      "Äłheight": 5645,
      "ÄłBel": 5646,
      "udget": 5647,
      "ĠÄłpower": 5648,
      "ĠÄłpublic": 5649,
      "ÄłRights": 5650,
      "Äłship": 5651,
      "ÄłLa": 5652,
      "enses": 5653,
      "Äłprefer": 5654,
      "Äłconsists": 5655,
      "ĠÄłelect": 5656,
      "Äłattacks": 5657,
      "Äłinterpret": 5658,
      "ĠÄłDe": 5659,
      "Äłworldwide": 5660,
      "Äłdefic": 5661,
      "Äłready": 5662,
      "Äładvance": 5663,
      "Äłconfirm": 5664,
      "Äłveter": 5665,
      "afe": 5666,
      "Äłfacilit": 5667,
      "Äłsaying": 5668,
      "Äłletters": 5669,
      "ÄłTechnology": 5670,
      "Äłresponsibility": 5671,
      "ÄłCarol": 5672,
      "Äłperspective": 5673,
      "ÄłRepublic": 5674,
      "ĠÄłUniversity": 5675,
      "Äłpollution": 5676,
      "Äłinstitutions": 5677,
      "Äłeggs": 5678,
      "Äłenhance": 5679,
      "Äłharvest": 5680,
      "igenous": 5681,
      "59": 5682,
      "88": 5683,
      "CE": 5684,
      "MS": 5685,
      "Pl": 5686,
      "hi": 5687,
      "liam": 5688,
      "normal": 5689,
      "rd": 5690,
      "ĠÄłec": 5691,
      "anes": 5692,
      "Äłpush": 5693,
      "Äłdro": 5694,
      "Äłnations": 5695,
      "olving": 5696,
      "ÄłTem": 5697,
      "abil": 5698,
      "umps": 5699,
      "Äłexternal": 5700,
      "ÄłHel": 5701,
      "ÄłDef": 5702,
      "ÄłOb": 5703,
      "Äłdiss": 5704,
      "Äłresistance": 5705,
      "ĠÄłne": 5706,
      "Äłmanner": 5707,
      "Äłraised": 5708,
      "ĠÄłwithout": 5709,
      "oyal": 5710,
      "ĠÄłexpl": 5711,
      "rolog": 5712,
      "hemistry": 5713,
      "Äłdiam": 5714,
      "ounced": 5715,
      "Äłapproaches": 5716,
      "Äłfunding": 5717,
      "Äłclosely": 5718,
      "ĠÄłinterest": 5719,
      "udden": 5720,
      "Äłcredit": 5721,
      "Äłexactly": 5722,
      "62": 5723,
      "AB": 5724,
      "Now": 5725,
      "Why": 5726,
      "comp": 5727,
      "free": 5728,
      "ih": 5729,
      "mic": 5730,
      "mark": 5731,
      "ÅĤ": 5732,
      "Ġin": 5733,
      "Äłastr": 5734,
      "Äłsouthern": 5735,
      "Äłwestern": 5736,
      "Äłinvent": 5737,
      "Äłdental": 5738,
      "Äłlic": 5739,
      "ÄłSun": 5740,
      "ads": 5741,
      "ÄłCivil": 5742,
      "Äłproport": 5743,
      "ÄłMr": 5744,
      "ĠÄłcare": 5745,
      "ÄłBas": 5746,
      "ÄłWomen": 5747,
      "Äłrul": 5748,
      "ieve": 5749,
      "Äłsynt": 5750,
      "ĠÄłiss": 5751,
      "luded": 5752,
      "Äłaccompl": 5753,
      "Äłproducing": 5754,
      "ĠÄłBrit": 5755,
      "cientists": 5756,
      "Äłleader": 5757,
      "Äłpurs": 5758,
      "Äłoperating": 5759,
      "ecessary": 5760,
      "prove": 5761,
      "Äłdeaths": 5762,
      "ĠÄłChrist": 5763,
      "Äłmathemat": 5764,
      "ÄłControl": 5765,
      "ĠÄłindividual": 5766,
      "Äłreligion": 5767,
      "ING": 5768,
      "Äłestimates": 5769,
      "olitical": 5770,
      "Äłaccurate": 5771,
      "aturally": 5772,
      "Äłstructures": 5773,
      "Do": 5774,
      "From": 5775,
      "chers": 5776,
      "greg": 5777,
      "Ġ9": 5778,
      "oral": 5779,
      "Äłpig": 5780,
      "Äłinject": 5781,
      "Äłhunt": 5782,
      "Äłnarr": 5783,
      "urric": 5784,
      "ulin": 5785,
      "atever": 5786,
      "ÄłMicro": 5787,
      "ÄłHuman": 5788,
      "ĠÄłmove": 5789,
      "Äłspent": 5790,
      "acts": 5791,
      "Äłweap": 5792,
      "rue": 5793,
      "Äłsyn": 5794,
      "ĠÄłAnd": 5795,
      "Äłphr": 5796,
      "Äłsurpris": 5797,
      "Äłdecline": 5798,
      "Äłrefers": 5799,
      "Äłskill": 5800,
      "Äłlessons": 5801,
      "Äłreduction": 5802,
      "Äłelectrical": 5803,
      "cribed": 5804,
      "Äłinterested": 5805,
      "Äłtopics": 5806,
      "ÄłCommission": 5807,
      "idden": 5808,
      "Äłbusinesses": 5809,
      "Äłhttps": 5810,
      "Äłdouble": 5811,
      "ÄłGoogle": 5812,
      "Äłconsequences": 5813,
      "Äłfigures": 5814,
      "87": 5815,
      "TS": 5816,
      "dent": 5817,
      "know": 5818,
      "lig": 5819,
      "Ä¥": 5820,
      "ĠÄłZ": 5821,
      "ini": 5822,
      "onn": 5823,
      "Äłsan": 5824,
      "esity": 5825,
      "Äłcup": 5826,
      "asp": 5827,
      "omic": 5828,
      "ellect": 5829,
      "Äłconver": 5830,
      "Äłconventional": 5831,
      "usal": 5832,
      "ĠÄłpass": 5833,
      "agues": 5834,
      "ellite": 5835,
      "ansas": 5836,
      "aker": 5837,
      "Äładequ": 5838,
      "avy": 5839,
      "ĠÄłlarge": 5840,
      "Äłappoint": 5841,
      "ĠÄłgovernment": 5842,
      "jects": 5843,
      "Äłrepresents": 5844,
      "Äłrelative": 5845,
      "Äłprison": 5846,
      "Äłprinciples": 5847,
      "Äłformat": 5848,
      "Äłtested": 5849,
      "ÄłArmy": 5850,
      "ÄłNews": 5851,
      "Äłimproved": 5852,
      "ĠÄłplace": 5853,
      "Äłperiods": 5854,
      "ediatric": 5855,
      "Äłfruits": 5856,
      "Äłincreasingly": 5857,
      "ĠÄłincluding": 5858,
      "ÄłSecond": 5859,
      "ÄłUsing": 5860,
      "Äłmaximum": 5861,
      "ĠÄłagainst": 5862,
      "Äłphenomen": 5863,
      "liament": 5864,
      "According": 5865,
      "Can": 5866,
      "Your": 5867,
      "].": 5868,
      "een": 5869,
      "gment": 5870,
      "hand": 5871,
      "ivery": 5872,
      "lers": 5873,
      "Ä´": 5874,
      "inations": 5875,
      "Äłcamer": 5876,
      "ita": 5877,
      "aria": 5878,
      "stream": 5879,
      "ÄłTur": 5880,
      "Äłgrade": 5881,
      "Äłfort": 5882,
      "ÄłSupp": 5883,
      "ado": 5884,
      "isted": 5885,
      "essment": 5886,
      "ÄłMac": 5887,
      "ude": 5888,
      "ocation": 5889,
      "Äłvent": 5890,
      "ÄłDan": 5891,
      "Äłchick": 5892,
      "ÄłRobert": 5893,
      "Äłleaf": 5894,
      "Äłspl": 5895,
      "Äłworse": 5896,
      "Äłwealth": 5897,
      "Äłintelligence": 5898,
      "Äłkil": 5899,
      "Äłallerg": 5900,
      "Äłunlike": 5901,
      "ĠÄłgener": 5902,
      "ifications": 5903,
      "Äłunderstood": 5904,
      "ĠÄłwithin": 5905,
      "Äłexposed": 5906,
      "Äłremained": 5907,
      "ictor": 5908,
      "venue": 5909,
      "ĠÄłchild": 5910,
      "azing": 5911,
      "Äłcorpor": 5912,
      "Äłmetab": 5913,
      "Äłbeneficial": 5914,
      "Äłaffects": 5915,
      "Äłbright": 5916,
      "plications": 5917,
      "ÄłCompany": 5918,
      "Äłemergency": 5919,
      "ascular": 5920,
      "Äłrepeated": 5921,
      "Äłnormally": 5922,
      "ÄłCatholic": 5923,
      "kins": 5924,
      "rons": 5925,
      "rem": 5926,
      "Äłcrops": 5927,
      "Äłtoler": 5928,
      "Äłmer": 5929,
      "Äłdie": 5930,
      "Äłdaughter": 5931,
      "otential": 5932,
      "cel": 5933,
      "ÄłAD": 5934,
      "ÄłCare": 5935,
      "embers": 5936,
      "esting": 5937,
      "ÄłHol": 5938,
      "Äłsufficient": 5939,
      "ÄłRem": 5940,
      "Äłshared": 5941,
      "ÄłLake": 5942,
      "Äłintended": 5943,
      "oseph": 5944,
      "ĠÄłrest": 5945,
      "ÄłSte": 5946,
      "ĠÄłAmerican": 5947,
      "Äłtraffic": 5948,
      "Äłdespite": 5949,
      "ucose": 5950,
      "Äłhelpful": 5951,
      "Äłobtained": 5952,
      "Äłinfrastructure": 5953,
      "Äłsettle": 5954,
      "ohns": 5955,
      "Äłinsp": 5956,
      "Äłorganized": 5957,
      "Äłcharacters": 5958,
      "Äładvice": 5959,
      "Äłpaint": 5960,
      "Äłoccurred": 5961,
      "Äłbiological": 5962,
      "ĠÄłdevelopment": 5963,
      "Äłrecognized": 5964,
      "Äłsalt": 5965,
      "Äłsatis": 5966,
      "Äłsubstant": 5967,
      "ÄłJews": 5968,
      "Äłhundreds": 5969,
      "Äładopted": 5970,
      "ÄłLouis": 5971,
      "89": 5972,
      "No": 5973,
      "iac": 5974,
      "Äłtaught": 5975,
      "ĠÄłold": 5976,
      "Äłapart": 5977,
      "Äłcovered": 5978,
      "Äłpray": 5979,
      "Äłbow": 5980,
      "Äłfelt": 5981,
      "Äłdu": 5982,
      "olf": 5983,
      "ols": 5984,
      "Äłstars": 5985,
      "ademy": 5986,
      "eling": 5987,
      "abric": 5988,
      "Äłexcellent": 5989,
      "ĠÄłprom": 5990,
      "ĠÄłfew": 5991,
      "ĠÄłmean": 5992,
      "Äłabund": 5993,
      "ibilities": 5994,
      "ipal": 5995,
      "Äłkit": 5996,
      "Äłneut": 5997,
      "ĠÄłAd": 5998,
      "Äłroots": 5999,
      "Äłaccomp": 6000,
      "ropical": 6001,
      "inking": 6002,
      "Äłpoet": 6003,
      "Äłhealthcare": 6004,
      "Äłsubsequ": 6005,
      "....": 6006,
      "Äłcooper": 6007,
      "1993": 6008,
      "Äłsolve": 6009,
      "ashion": 6010,
      "ĠÄłcontrol": 6011,
      "ÄłClass": 6012,
      "Äłfacilities": 6013,
      "ÄłStudies": 6014,
      "Äłmedications": 6015,
      "Äłdomestic": 6016,
      "Äłdebt": 6017,
      "ÄłWhite": 6018,
      "Äłsuffering": 6019,
      "ĠÄłbecome": 6020,
      "ÄłSmith": 6021,
      "sembly": 6022,
      "Äłcomplicated": 6023,
      "ĠÄłresearch": 6024,
      "htm": 6025,
      "61": 6026,
      "Sp": 6027,
      "field": 6028,
      "ooth": 6029,
      "wer": 6030,
      "Â¨": 6031,
      "Ä¢": 6032,
      "Ġa": 6033,
      "Ġw": 6034,
      "inity": 6035,
      "anning": 6036,
      "Äłwants": 6037,
      "Äłfilled": 6038,
      "omach": 6039,
      "eters": 6040,
      "Äłstone": 6041,
      "Äłstret": 6042,
      "add": 6043,
      "Äłpros": 6044,
      "Äłrural": 6045,
      "Äłcholesterol": 6046,
      "arts": 6047,
      "ÄłGovernment": 6048,
      "ÄłOcean": 6049,
      "ĠÄłtem": 6050,
      "ĠÄłreport": 6051,
      "rices": 6052,
      "Äłtrain": 6053,
      "ÄłVol": 6054,
      "180": 6055,
      "ĠÄłPh": 6056,
      "Äłremaining": 6057,
      "Äłfoundation": 6058,
      "Äłdiscrim": 6059,
      "Äłdiverse": 6060,
      "ĠÄłchange": 6061,
      "Äłsomew": 6062,
      "rison": 6063,
      "ÄłIslam": 6064,
      "prise": 6065,
      "ÄłCanadian": 6066,
      "Äłcircum": 6067,
      "Äłbiggest": 6068,
      "itudes": 6069,
      "ĠÄłcommun": 6070,
      "Äłanswers": 6071,
      "Äłdetailed": 6072,
      "Äłproposed": 6073,
      "lorida": 6074,
      "Äłsteel": 6075,
      "Äłrecorded": 6076,
      "Äłrevealed": 6077,
      "ÄłRussia": 6078,
      "Äłagricultural": 6079,
      "ÄłVirginia": 6080,
      "51": 6081,
      "rors": 6082,
      "such": 6083,
      "van": 6084,
      "Â´": 6085,
      "ĠÄłel": 6086,
      "ĠÄłhere": 6087,
      "ĠÄłident": 6088,
      "ĠÄłorder": 6089,
      "ena": 6090,
      "ester": 6091,
      "Äłpump": 6092,
      "Äłfle": 6093,
      "icide": 6094,
      "Äłinternet": 6095,
      "Äłdynam": 6096,
      "Äłloved": 6097,
      "Äłnit": 6098,
      "Äłisland": 6099,
      "ÄłTwo": 6100,
      "racy": 6101,
      "igital": 6102,
      "ÄłAI": 6103,
      "ÄłCD": 6104,
      "istant": 6105,
      "ÄłMal": 6106,
      "emia": 6107,
      "umes": 6108,
      "ĠÄłwar": 6109,
      "ĠÄłwomen": 6110,
      "Äłrub": 6111,
      "inds": 6112,
      "Äłdoor": 6113,
      "Äłmeant": 6114,
      "Äłju": 6115,
      "cium": 6116,
      "formance": 6117,
      "Äłarms": 6118,
      "Äłroll": 6119,
      "Äłschem": 6120,
      "ÄłProv": 6121,
      "Äłpossess": 6122,
      "Äłsupported": 6123,
      "ÄłSpace": 6124,
      "Äłgreatest": 6125,
      "Äłmovements": 6126,
      "ĠÄłresult": 6127,
      "Äłnearby": 6128,
      "Äłcertainly": 6129,
      "Äłindicate": 6130,
      "Äłintroduction": 6131,
      "ictionary": 6132,
      "Äłtalking": 6133,
      "Äłjobs": 6134,
      "Äłafford": 6135,
      "Äłpictures": 6136,
      "Äłroutine": 6137,
      "Äłdoubt": 6138,
      "Äłmoist": 6139,
      "New": 6140,
      "yth": 6141,
      "ĠÄłve": 6142,
      "Äłsick": 6143,
      "icon": 6144,
      "ston": 6145,
      "Äłliver": 6146,
      "Äłlinks": 6147,
      "etics": 6148,
      "uty": 6149,
      "raf": 6150,
      "ÄłSub": 6151,
      "Äłstored": 6152,
      "ifies": 6153,
      "throp": 6154,
      "Äłexchange": 6155,
      "ÄłRef": 6156,
      "ĠÄłdi": 6157,
      "ĠÄłdiff": 6158,
      "Äłimpl": 6159,
      "ĠÄłlast": 6160,
      "ĠÄłstand": 6161,
      "Äłobvious": 6162,
      "Äłfloor": 6163,
      "ĠÄłprot": 6164,
      "Äłinterview": 6165,
      "Äłcounty": 6166,
      "Äłcenturies": 6167,
      "Äłexperiments": 6168,
      "Äłshel": 6169,
      "Äłexplained": 6170,
      "Äłrising": 6171,
      "1995": 6172,
      "Äłmarked": 6173,
      "Äłsecondary": 6174,
      "Äłchoices": 6175,
      "Äłpotentially": 6176,
      "Äłdiscussed": 6177,
      "olicy": 6178,
      "ministration": 6179,
      "stitutional": 6180,
      "Äłcapture": 6181,
      "ealand": 6182,
      "Äłcouple": 6183,
      "Äłnutrients": 6184,
      "Äłingred": 6185,
      "'ve": 6186,
      "400": 6187,
      "79": 6188,
      "Us": 6189,
      "ca": 6190,
      "oz": 6191,
      "Äłtroops": 6192,
      "ĠÄłment": 6193,
      "Äłaqu": 6194,
      "Äłaircraft": 6195,
      "era": 6196,
      "atus": 6197,
      "Äłsounds": 6198,
      "Äłcle": 6199,
      "ittee": 6200,
      "orter": 6201,
      "alse": 6202,
      "Äłpaid": 6203,
      "Äłfly": 6204,
      "roid": 6205,
      "ÄłAut": 6206,
      "ulates": 6207,
      "ÄłSal": 6208,
      "ÄłMet": 6209,
      "ĠÄłcalled": 6210,
      "Äłrandom": 6211,
      "ÄłDel": 6212,
      "ĠÄłdirect": 6213,
      "ÄłLand": 6214,
      "Äłintake": 6215,
      "Äłunless": 6216,
      "Äłappreci": 6217,
      "ritten": 6218,
      "ĠÄłgu": 6219,
      "Äłconscious": 6220,
      "Äłdepends": 6221,
      "Äłminim": 6222,
      "ÄłAnother": 6223,
      "Äłprotected": 6224,
      "Äłlooked": 6225,
      "ĠÄłshow": 6226,
      "Äłcourses": 6227,
      "Äłfewer": 6228,
      "Äłimproving": 6229,
      "ĠÄłsuggest": 6230,
      "ÄłConf": 6231,
      "Äłdeliver": 6232,
      "Äłauthority": 6233,
      "ÄłBritain": 6234,
      "Äłfluid": 6235,
      "ĠÄłcommon": 6236,
      "Äłiniti": 6237,
      "Äłportion": 6238,
      "Äłmoral": 6239,
      "Äłlifestyle": 6240,
      "Äłmobile": 6241,
      "Äłinsects": 6242,
      "stein": 6243,
      "Äłpretty": 6244,
      "ÄłOffice": 6245,
      "54": 6246,
      "AP": 6247,
      "Ab": 6248,
      "IG": 6249,
      "Im": 6250,
      "US": 6251,
      "born": 6252,
      "cher": 6253,
      "vity": 6254,
      "Ġre": 6255,
      "ĠÃĤ": 6256,
      "Äłtips": 6257,
      "Äłsod": 6258,
      "Äłcoffee": 6259,
      "Äłwa": 6260,
      "Äłwire": 6261,
      "Äłmaster": 6262,
      "Äłthor": 6263,
      "Äłgather": 6264,
      "Äłstem": 6265,
      "Äłyouth": 6266,
      "ÄłPC": 6267,
      "aine": 6268,
      "Äłvoc": 6269,
      "Äłsuitable": 6270,
      "ÄłRetrieved": 6271,
      "Äłenable": 6272,
      "action": 6273,
      "Äłabuse": 6274,
      "Äłkm": 6275,
      "ressive": 6276,
      "Äłclosed": 6277,
      "ĠÄłlater": 6278,
      "ĠÄłgen": 6279,
      "lude": 6280,
      "Äłtrials": 6281,
      "Äłpoison": 6282,
      "Äłflo": 6283,
      "Äłsupplement": 6284,
      "ĠÄłWhen": 6285,
      "Äłvaluable": 6286,
      "ĠÄłchar": 6287,
      "Äładvoc": 6288,
      "Äłdriving": 6289,
      "ĠÄłOn": 6290,
      "Äłengage": 6291,
      "Äłparas": 6292,
      "ĠÄłsuccess": 6293,
      "Äłprevention": 6294,
      "rimary": 6295,
      "ĠÄłappro": 6296,
      "Äłholds": 6297,
      "Äłmassive": 6298,
      "ambridge": 6299,
      "Äłmorning": 6300,
      "Äłsurvive": 6301,
      "Äłaccepted": 6302,
      "iotics": 6303,
      "Äłprocedures": 6304,
      "Äłmolecules": 6305,
      "Äłhabitat": 6306,
      "Äłcontrolled": 6307,
      "Äłvirtual": 6308,
      "ÄłFoundation": 6309,
      "66": 6310,
      "body": 6311,
      "lantic": 6312,
      "mas": 6313,
      "rial": 6314,
      "Ġn": 6315,
      "ĠÄłenergy": 6316,
      "indu": 6317,
      "erals": 6318,
      "organ": 6319,
      "alks": 6320,
      "icago": 6321,
      "Äłmere": 6322,
      "Äłlatter": 6323,
      "Äłlik": 6324,
      "sey": 6325,
      "ola": 6326,
      "utch": 6327,
      "Äłgall": 6328,
      "ÄłAtt": 6329,
      "ÄłSy": 6330,
      "ifted": 6331,
      "uma": 6332,
      "Äłhearing": 6333,
      "ivities": 6334,
      "pping": 6335,
      "ĠÄłprop": 6336,
      "orted": 6337,
      "ÄłWild": 6338,
      "Äłperman": 6339,
      "ĠÄłCon": 6340,
      "Äłrecon": 6341,
      "Äłrecovery": 6342,
      "Äładding": 6343,
      "Äłexpensive": 6344,
      "Äłacceler": 6345,
      "Äłflat": 6346,
      "rades": 6347,
      "ployment": 6348,
      "Äłgrand": 6349,
      "1970": 6350,
      "aska": 6351,
      "Äłconcerned": 6352,
      "Äłphotos": 6353,
      "Äłwildlife": 6354,
      "Äłsubstance": 6355,
      "Äłvehicles": 6356,
      "Äłbattery": 6357,
      "Äłalgorith": 6358,
      "Äłlatest": 6359,
      "Äłdatabase": 6360,
      "99": 6361,
      "Cl": 6362,
      "Other": 6363,
      "bran": 6364,
      "break": 6365,
      "dress": 6366,
      "faces": 6367,
      "iological": 6368,
      "lines": 6369,
      "mary": 6370,
      "zen": 6371,
      "Äłtasks": 6372,
      "reation": 6373,
      "onal": 6374,
      "isp": 6375,
      "Äłcrow": 6376,
      "itative": 6377,
      "orse": 6378,
      "ala": 6379,
      "Äłwitness": 6380,
      "Äłfu": 6381,
      "Äłfirm": 6382,
      "Äłhabits": 6383,
      "Äłlib": 6384,
      "Äłgal": 6385,
      "Äłonto": 6386,
      "ÄłMiddle": 6387,
      "osph": 6388,
      "ÄłBet": 6389,
      "ÄłBay": 6390,
      "ĠÄłsocial": 6391,
      "ortion": 6392,
      "ÄłDirect": 6393,
      "ÄłFederal": 6394,
      "ÄłNature": 6395,
      "Äłshop": 6396,
      "ustain": 6397,
      "ÄłInstead": 6398,
      "ĠÄłnon": 6399,
      "reating": 6400,
      "itely": 6401,
      "ĠÄłSp": 6402,
      "ÄłKen": 6403,
      "Äłknew": 6404,
      "oval": 6405,
      "Äłdecide": 6406,
      "Äłdecided": 6407,
      "Äłflight": 6408,
      "Ġ://": 6409,
      "Äłmedication": 6410,
      "Äłdistingu": 6411,
      "ditionally": 6412,
      "ttp": 6413,
      "ÄłColumb": 6414,
      "Äłcreative": 6415,
      "Äłauthorities": 6416,
      "Äłfiles": 6417,
      "Äłera": 6418,
      "Äłrecognition": 6419,
      "ĠÄłoper": 6420,
      "books": 6421,
      "ivalent": 6422,
      "ÄłManagement": 6423,
      "Äłgreenhouse": 6424,
      "Äłdocuments": 6425,
      "Äłregularly": 6426,
      "Äłirrit": 6427,
      "Äłmanufacturing": 6428,
      "ÄłRevolution": 6429,
      "Äłframework": 6430,
      "ĠÄłeduc": 6431,
      "Äłsweet": 6432,
      "Äłmillions": 6433,
      "Äłtitle": 6434,
      "Be": 6435,
      "fortunately": 6436,
      "ien": 6437,
      "ka": 6438,
      "yme": 6439,
      "Äłahead": 6440,
      "inet": 6441,
      "erb": 6442,
      "Äłsin": 6443,
      "ano": 6444,
      "Äłcook": 6445,
      "oub": 6446,
      "Äłbill": 6447,
      "Äłdiversity": 6448,
      "Äłdream": 6449,
      "Äłdedic": 6450,
      "Äłdensity": 6451,
      "rooms": 6452,
      "otion": 6453,
      "ÄłAND": 6454,
      "ÄłIll": 6455,
      "abul": 6456,
      "istent": 6457,
      "ĠÄłfour": 6458,
      "ÄłGal": 6459,
      "ÄłNations": 6460,
      "ÄłLife": 6461,
      "1960": 6462,
      "Äłcloud": 6463,
      "Äłuniversity": 6464,
      "eoples": 6465,
      "Äłparties": 6466,
      "oughly": 6467,
      "ĠÄłgiven": 6468,
      "luding": 6469,
      "Äłproduces": 6470,
      "Äłnoise": 6471,
      "Äłregional": 6472,
      "ommon": 6473,
      "Äłremote": 6474,
      "Äłshell": 6475,
      "theless": 6476,
      "Äłserving": 6477,
      "Äłelectron": 6478,
      "ÄłEngine": 6479,
      "Äłconstant": 6480,
      "Äłfocused": 6481,
      "Äłdescribes": 6482,
      "Äłabsolute": 6483,
      "Äłfrequent": 6484,
      "Äłsuffer": 6485,
      "ĠÄłamong": 6486,
      "istorical": 6487,
      "Äłindustries": 6488,
      "ÄłGlobal": 6489,
      "Äłlandscape": 6490,
      "Äłtransportation": 6491,
      "Äłsequence": 6492,
      "Äłprinciple": 6493,
      "Äłprofessionals": 6494,
      "Äłinflammation": 6495,
      "Äłvulnerable": 6496,
      "Äłjourney": 6497,
      "56": 6498,
      "76": 6499,
      "Bl": 6500,
      "EP": 6501,
      "IL": 6502,
      "OC": 6503,
      "Since": 6504,
      "gu": 6505,
      "rat": 6506,
      "war": 6507,
      "Ä·": 6508,
      "Ġ19": 6509,
      "Äłpil": 6510,
      "Äłbrown": 6511,
      "Äłhit": 6512,
      "stone": 6513,
      "Äłlots": 6514,
      "Äłgun": 6515,
      "iginal": 6516,
      "ulatory": 6517,
      "abb": 6518,
      "estions": 6519,
      "osc": 6520,
      "ocy": 6521,
      "ĠÄłins": 6522,
      "ogue": 6523,
      "ÄłRichard": 6524,
      "Äłenz": 6525,
      "ÄłOld": 6526,
      "Äłoutcomes": 6527,
      "ĠÄłSe": 6528,
      "obe": 6529,
      "ĠÄłCl": 6530,
      "ĠÄłCol": 6531,
      "ÄłVis": 6532,
      "ribute": 6533,
      "Äłobtain": 6534,
      "Äłformal": 6535,
      "Äłtransition": 6536,
      "Äłtransmission": 6537,
      "ĠÄłEx": 6538,
      "Äłgenerated": 6539,
      "Äłminimum": 6540,
      "Äłeastern": 6541,
      "Äłdirector": 6542,
      "riminal": 6543,
      "ÄłQue": 6544,
      "Äłconsumers": 6545,
      "ourage": 6546,
      "Äłnecessarily": 6547,
      "IDS": 6548,
      "Äłachieved": 6549,
      "Äłcollected": 6550,
      "Äłfeeding": 6551,
      "Äłconcepts": 6552,
      "Äłsurvival": 6553,
      "ĠÄłUnited": 6554,
      "Äłhorse": 6555,
      "Äłpurchase": 6556,
      "Äłstruggle": 6557,
      "81": 6558,
      "Int": 6559,
      "eper": 6560,
      "hu": 6561,
      "hma": 6562,
      "nam": 6563,
      "oose": 6564,
      "pread": 6565,
      "while": 6566,
      "Äłtried": 6567,
      "heim": 6568,
      "especially": 6569,
      "Äłcast": 6570,
      "itter": 6571,
      "Äłwest": 6572,
      "Äłfiber": 6573,
      "Äłdin": 6574,
      "lets": 6575,
      "sts": 6576,
      "Äłnine": 6577,
      "imm": 6578,
      "igue": 6579,
      "Äłunt": 6580,
      "amination": 6581,
      "Äłstation": 6582,
      "Äłyield": 6583,
      "Ġ,\"": 6584,
      "Äłoral": 6585,
      "ocracy": 6586,
      "ĠÄłbas": 6587,
      "ÄłWood": 6588,
      "ÄłData": 6589,
      "ÄłDisc": 6590,
      "Äłchain": 6591,
      "ÄłRob": 6592,
      "ĠÄłmen": 6593,
      "ĠÄłmaterial": 6594,
      "ÄłNatural": 6595,
      "Äłwors": 6596,
      "ella": 6597,
      "ĠÄłhand": 6598,
      "Äłincl": 6599,
      "Äłcontem": 6600,
      "Äłcontaining": 6601,
      "ĠÄłtreatment": 6602,
      "ĠÄłlocal": 6603,
      "Äłimpossible": 6604,
      "Äłoutcome": 6605,
      "phone": 6606,
      "weight": 6607,
      "Äłroof": 6608,
      "Äłemp": 6609,
      "ventions": 6610,
      "Äłobesity": 6611,
      "Äłdiscovery": 6612,
      "Äłextended": 6613,
      "cientific": 6614,
      "Äłdepos": 6615,
      "Äłinsurance": 6616,
      "1997": 6617,
      "Äłvisible": 6618,
      "ounter": 6619,
      "Äłcarefully": 6620,
      "Äłcapable": 6621,
      "Äłparam": 6622,
      "Äłfacing": 6623,
      "Äłcreates": 6624,
      "Äłaccounts": 6625,
      "Ġ\".": 6626,
      "Äłnetworks": 6627,
      "Äłappearance": 6628,
      "Äłinteraction": 6629,
      "ÄłKingdom": 6630,
      "ĠÄłinflu": 6631,
      "Äłselected": 6632,
      "levision": 6633,
      "Äłdestroyed": 6634,
      "Äłcollaboration": 6635,
      "Äłspiritual": 6636,
      "Äłvessels": 6637,
      "ÄłCarolina": 6638,
      "Des": 6639,
      "Se": 6640,
      "VID": 6641,
      "ao": 6642,
      "gans": 6643,
      "uke": 6644,
      "ĠThis": 6645,
      "Äłtank": 6646,
      "ĠÄłeng": 6647,
      "inction": 6648,
      "reland": 6649,
      "orrow": 6650,
      "Äłwel": 6651,
      "Äłpub": 6652,
      "Äłpup": 6653,
      "ounce": 6654,
      "Äłble": 6655,
      "Äłmamm": 6656,
      "Äłdrop": 6657,
      "ilation": 6658,
      "stract": 6659,
      "sell": 6660,
      "ota": 6661,
      "ÄłTor": 6662,
      "ÄłSl": 6663,
      "Äłpropos": 6664,
      "that": 6665,
      "ÄłMark": 6666,
      "ĠÄłpresent": 6667,
      "earing": 6668,
      "ÄłNative": 6669,
      "ÄłLeg": 6670,
      "Äłusage": 6671,
      "ÄłOF": 6672,
      "ÄłOut": 6673,
      "ipes": 6674,
      "eps": 6675,
      "ĠÄłnever": 6676,
      "Äłcloser": 6677,
      "Äłunable": 6678,
      "Äłtele": 6679,
      "ÄłStreet": 6680,
      "teen": 6681,
      "ĠÄłstart": 6682,
      "Äłindex": 6683,
      "Äłacknow": 6684,
      "Äłinfected": 6685,
      "apping": 6686,
      "Äłsets": 6687,
      "Äłfollows": 6688,
      "arents": 6689,
      "ÄłExpl": 6690,
      "Äłfinally": 6691,
      "atching": 6692,
      "ÄłUSA": 6693,
      "ipping": 6694,
      "ĠÄłenc": 6695,
      "Äłexistence": 6696,
      "Äłphotograph": 6697,
      "Äłfailed": 6698,
      "Äłproteins": 6699,
      "Äłsoldiers": 6700,
      "ioxide": 6701,
      "Äłcomfortable": 6702,
      "Äłfertil": 6703,
      "abulary": 6704,
      "53": 6705,
      "CA": 6706,
      "IR": 6707,
      "kes": 6708,
      "uilt": 6709,
      "hent": 6710,
      "Äłsed": 6711,
      "Äłcav": 6712,
      "Äłwalls": 6713,
      "Äłpure": 6714,
      "Äłbridge": 6715,
      "Äłment": 6716,
      "Äłmold": 6717,
      "Äłmaps": 6718,
      "Äłnurs": 6719,
      "Äłneck": 6720,
      "race": 6721,
      "amine": 6722,
      "ÄłSuch": 6723,
      "Äłstable": 6724,
      "opedia": 6725,
      "ÄłMont": 6726,
      "eren": 6727,
      "umer": 6728,
      "ivated": 6729,
      "ĠÄłpain": 6730,
      "ĠÄłpossible": 6731,
      "ocated": 6732,
      "Äłvoice": 6733,
      "ÄłHome": 6734,
      "ÄłWell": 6735,
      "Äłchosen": 6736,
      "Äłsharp": 6737,
      "izer": 6738,
      "ÄłJud": 6739,
      "rying": 6740,
      "ĠÄłland": 6741,
      "ĠÄłlittle": 6742,
      "ritis": 6743,
      "Äłraise": 6744,
      "ĠÄłPl": 6745,
      "Äłintervention": 6746,
      "Äłjustice": 6747,
      "Äłrespir": 6748,
      "ÄłProfessor": 6749,
      "idespread": 6750,
      "cling": 6751,
      "Äłglucose": 6752,
      "ĠÄłconn": 6753,
      "Äłfacility": 6754,
      "ÄłCommon": 6755,
      "ÄłZealand": 6756,
      "Äłviews": 6757,
      "Äłvolt": 6758,
      "ĠÄłdeath": 6759,
      "gressive": 6760,
      "Äłerror": 6761,
      "Äłreactions": 6762,
      "Äłmachines": 6763,
      "ĠÄłinclude": 6764,
      "ĠÄłobs": 6765,
      "ÄłDesign": 6766,
      "Äłfighting": 6767,
      "ÄłRussian": 6768,
      "ĠÄłHowever": 6769,
      ".|": 6770,
      "41": 6771,
      "72": 6772,
      "gent": 6773,
      "oids": 6774,
      "Ä³": 6775,
      "Ġand": 6776,
      "ĠÄłant": 6777,
      "Äławard": 6778,
      "esis": 6779,
      "orous": 6780,
      "Äłpapers": 6781,
      "icate": 6782,
      "rovers": 6783,
      "oli": 6784,
      "idity": 6785,
      "ÄłAp": 6786,
      "ÄłSouthern": 6787,
      "tery": 6788,
      "ÄłMag": 6789,
      "ĠÄłpar": 6790,
      "Äłvote": 6791,
      "ĠÄłair": 6792,
      "ureau": 6793,
      "Äłsuc": 6794,
      "ÄłForest": 6795,
      "Äłleaving": 6796,
      "ĠÄłdon": 6797,
      "Äłshift": 6798,
      "ÄłLike": 6799,
      "ĠÄłhouse": 6800,
      "Äłintellect": 6801,
      "ÄłOx": 6802,
      "ÄłJoseph": 6803,
      "Äłuniverse": 6804,
      "Äłrecover": 6805,
      "ints": 6806,
      "Äłregist": 6807,
      "Äłinstruction": 6808,
      "vironments": 6809,
      "ociated": 6810,
      "Äłopinion": 6811,
      "Äłopposite": 6812,
      "Äłlegs": 6813,
      "Äłinterests": 6814,
      "anned": 6815,
      "Äłpeak": 6816,
      "ĠÄłenvironment": 6817,
      "Äłsensitive": 6818,
      "Äłcolleagues": 6819,
      "Äłindicates": 6820,
      "ĠÄłparticular": 6821,
      "ĠÄłbetter": 6822,
      "Äłinjuries": 6823,
      "Äłprepare": 6824,
      "Äładministration": 6825,
      "ÄłCharles": 6826,
      "ÄłValley": 6827,
      "ĠÄłcountry": 6828,
      "46": 6829,
      "71": 6830,
      "83": 6831,
      "Con": 6832,
      "En": 6833,
      "Let": 6834,
      "fl": 6835,
      "fit": 6836,
      "rass": 6837,
      "ture": 6838,
      "Ä»": 6839,
      "ĠÄłthings": 6840,
      "onym": 6841,
      "erior": 6842,
      "ora": 6843,
      "Äłbread": 6844,
      "Äłeast": 6845,
      "othe": 6846,
      "otton": 6847,
      "char": 6848,
      "ÄłTHE": 6849,
      "ÄłAP": 6850,
      "amber": 6851,
      "ÄłSam": 6852,
      "ÄłSoviet": 6853,
      "ÄłMart": 6854,
      "ÄłPost": 6855,
      "ĠÄłcost": 6856,
      "ĠÄłcap": 6857,
      "ÄłBible": 6858,
      "Äłchapter": 6859,
      "riers": 6860,
      "riend": 6861,
      "earchers": 6862,
      "Äłspeaking": 6863,
      "Äłselection": 6864,
      "ervous": 6865,
      "lected": 6866,
      "ĠÄłarea": 6867,
      "Äłresulted": 6868,
      "Äłseeing": 6869,
      "rained": 6870,
      "ÄłAnn": 6871,
      "azon": 6872,
      "cribe": 6873,
      "Äłmeasured": 6874,
      "Äłsuggested": 6875,
      "Stud": 6876,
      "ĠÄłperiod": 6877,
      "Äłoptim": 6878,
      "ÄłScott": 6879,
      "Äłwindow": 6880,
      "Äłemployees": 6881,
      "Äłcleaning": 6882,
      "Äłclaims": 6883,
      "Äłimplementation": 6884,
      "ÄłAustralian": 6885,
      "Äłharmful": 6886,
      "Äłinstruments": 6887,
      "Äłjoin": 6888,
      "Äłcommunicate": 6889,
      "Äłagriculture": 6890,
      "ÄłNetwork": 6891,
      "Äłexplanation": 6892,
      "Äłdedicated": 6893,
      "My": 6894,
      "Not": 6895,
      "draw": 6896,
      "hop": 6897,
      "oil": 6898,
      "Äław": 6899,
      "ato": 6900,
      "Äłlas": 6901,
      "ether": 6902,
      "ceive": 6903,
      "Äłgone": 6904,
      "igate": 6905,
      "irty": 6906,
      "Äłstomach": 6907,
      "mented": 6908,
      "iest": 6909,
      "ÄłMoon": 6910,
      "osion": 6911,
      "Äłhem": 6912,
      "ivision": 6913,
      "ĠÄłcal": 6914,
      "ÄłDisease": 6915,
      "Äłchrom": 6916,
      "Äłchief": 6917,
      "ÄłFe": 6918,
      "ÄłForm": 6919,
      "ÄłLab": 6920,
      "elled": 6921,
      "akistan": 6922,
      "ruit": 6923,
      "ultural": 6924,
      "Äłcompounds": 6925,
      "ÄłJe": 6926,
      "ÄłThose": 6927,
      "Äłthanks": 6928,
      "Äłprem": 6929,
      "rency": 6930,
      "ificance": 6931,
      "Äłages": 6932,
      "ÄłVictor": 6933,
      "Äłcolour": 6934,
      "Äłdesire": 6935,
      "Äłpoem": 6936,
      "ĠÄłThese": 6937,
      "ĠÄłproper": 6938,
      "Äłsignals": 6939,
      "ĠÄłEurop": 6940,
      "ĠÄłhead": 6941,
      "Äłcalls": 6942,
      "Ġ):": 6943,
      "Äłreaders": 6944,
      "ĠÄłalong": 6945,
      "Äłpossibly": 6946,
      "Äłoccasion": 6947,
      "roduction": 6948,
      "Äłphysics": 6949,
      "ÄłPhys": 6950,
      "ÄłConstitution": 6951,
      "Äłcalcium": 6952,
      "ÄłColor": 6953,
      "Äłcomputers": 6954,
      "Äłconnections": 6955,
      "ĠÄłmeans": 6956,
      "olesc": 6957,
      "Äłentirely": 6958,
      "Äłtells": 6959,
      "Äłstatistics": 6960,
      "Äłsentence": 6961,
      "Äłdomin": 6962,
      "Äłtissues": 6963,
      "Äłlaunch": 6964,
      "ÄłEnvironmental": 6965,
      "Äłspectrum": 6966,
      "Äłrenewable": 6967,
      "Äładequate": 6968,
      "57": 6969,
      "Cont": 6970,
      "aud": 6971,
      "bed": 6972,
      "eut": 6973,
      "gl": 6974,
      "lar": 6975,
      "oom": 6976,
      "under": 6977,
      "uzz": 6978,
      "word": 6979,
      "zed": 6980,
      "Âª": 6981,
      "Ä²": 6982,
      "Åģ": 6983,
      "hedu": 6984,
      "Äłtheories": 6985,
      "Äłsight": 6986,
      "Äłsudden": 6987,
      "Äłcards": 6988,
      "itamin": 6989,
      "Äłpp": 6990,
      "Äłbiod": 6991,
      "Äłbanks": 6992,
      "Äłfabric": 6993,
      "Äłdust": 6994,
      "asive": 6995,
      "asures": 6996,
      "Äłreform": 6997,
      "imals": 6998,
      "imental": 6999,
      "Äłbear": 7000,
      "amins": 7001,
      "Äłstability": 7002,
      "Äłconclusion": 7003,
      "abled": 7004,
      "ÄłPan": 7005,
      "ivered": 7006,
      "Äłheating": 7007,
      "ÄłBen": 7008,
      "ÄłHenry": 7009,
      "ĠÄłfree": 7010,
      "Äłrivers": 7011,
      "ĠÄłdr": 7012,
      "Äłimper": 7013,
      "ĠÄłhome": 7014,
      "ÄłOh": 7015,
      "Äłdiscipl": 7016,
      "Äłarmy": 7017,
      "ailability": 7018,
      "herent": 7019,
      "ÄłChange": 7020,
      "Äłacts": 7021,
      "Äłtrial": 7022,
      "Äłnewsp": 7023,
      "hesis": 7024,
      "inson": 7025,
      "Äłsmoking": 7026,
      "Äłsecure": 7027,
      "ÄłAny": 7028,
      "Äłboost": 7029,
      "Äłpossibility": 7030,
      "Äłmeters": 7031,
      "hyd": 7032,
      "enefits": 7033,
      "Äłguarant": 7034,
      "acco": 7035,
      "Äłcontrols": 7036,
      "Äłhappened": 7037,
      "Äłviruses": 7038,
      "Äłsuccessfully": 7039,
      "Äłfilter": 7040,
      "Äłcritic": 7041,
      "Äłarchae": 7042,
      "ÄłReport": 7043,
      "Äłargument": 7044,
      "Äłmixed": 7045,
      "Äłprecise": 7046,
      "Äłoriginally": 7047,
      "Äłstrengthen": 7048,
      "Äłcandid": 7049,
      "Äłfossil": 7050,
      "Äłtrouble": 7051,
      "Figure": 7052,
      "LA": 7053,
      "MP": 7054,
      "SS": 7055,
      "eers": 7056,
      "Ã§": 7057,
      "ĠÄłable": 7058,
      "heast": 7059,
      "Äłod": 7060,
      "Äłped": 7061,
      "Äłband": 7062,
      "Äłbudget": 7063,
      "Äłfill": 7064,
      "Äłmac": 7065,
      "Äłdioxide": 7066,
      "enter": 7067,
      "uten": 7068,
      "igher": 7069,
      "irth": 7070,
      "andon": 7071,
      "ÄłAge": 7072,
      "acob": 7073,
      "ÄłPower": 7074,
      "ĠÄłcause": 7075,
      "ĠÄłcurrent": 7076,
      "ÄłBro": 7077,
      "ÄłBank": 7078,
      "ÄłBudd": 7079,
      "ĠÄłfull": 7080,
      "ĠÄłindu": 7081,
      "Äłru": 7082,
      "Äłring": 7083,
      "riends": 7084,
      "ĠÄłmar": 7085,
      "iah": 7086,
      "Äłincred": 7087,
      "Äłdispos": 7088,
      "Äłcontamin": 7089,
      "ÄłThrough": 7090,
      "ĠÄłAll": 7091,
      "ĠÄłCan": 7092,
      "ĠÄłComm": 7093,
      "plex": 7094,
      "Äłrab": 7095,
      "Äłchildhood": 7096,
      "Äłpron": 7097,
      "icted": 7098,
      "Äłtransform": 7099,
      "Äłcenters": 7100,
      "Äłmedium": 7101,
      "Äłextensive": 7102,
      "ĠÄłNational": 7103,
      "ĠÄłTo": 7104,
      "Äłelectro": 7105,
      "Äłconsidering": 7106,
      "Äłlights": 7107,
      "ĠÄłrun": 7108,
      "Äłguidelines": 7109,
      "Äłcultures": 7110,
      "ÄłClimate": 7111,
      "Äłtruly": 7112,
      "elfare": 7113,
      "Äłdelivery": 7114,
      "ĠÄłothers": 7115,
      "ependent": 7116,
      "ĠÄłtechn": 7117,
      "liest": 7118,
      "ÄłAcademy": 7119,
      "Äłinstitution": 7120,
      "Äłhousing": 7121,
      "Äłtrends": 7122,
      "Äłphilosophy": 7123,
      "ÄłDistrict": 7124,
      "52": 7125,
      "CH": 7126,
      "During": 7127,
      "Every": 7128,
      "IP": 7129,
      "People": 7130,
      "hire": 7131,
      "press": 7132,
      "rine": 7133,
      "yles": 7134,
      "ĠÄłrisk": 7135,
      "Äłsections": 7136,
      "Äłcos": 7137,
      "Äłcrop": 7138,
      "alian": 7139,
      "Äłfashion": 7140,
      "Äłhus": 7141,
      "Äłnerve": 7142,
      "Äłnaturally": 7143,
      "raq": 7144,
      "Äłforget": 7145,
      "ami": 7146,
      "Äłstock": 7147,
      "Äłstrict": 7148,
      "eless": 7149,
      "ÄłCheck": 7150,
      "ÄłPers": 7151,
      "anta": 7152,
      "lder": 7153,
      "ĠÄłbased": 7154,
      "ÄłDet": 7155,
      "ÄłRome": 7156,
      "Äłshut": 7157,
      "Äłsports": 7158,
      "rub": 7159,
      "asty": 7160,
      "Äłusual": 7161,
      "ĠÄłhapp": 7162,
      "1950": 7163,
      "ibl": 7164,
      "ÄłInformation": 7165,
      "ĠÄłlight": 7166,
      "Äłapparent": 7167,
      "ÄłChicago": 7168,
      "Äłrose": 7169,
      "Äłaccident": 7170,
      "ÄłYet": 7171,
      "aws": 7172,
      "Äłreliable": 7173,
      "Äłempt": 7174,
      "idential": 7175,
      "Äłfounded": 7176,
      "Äłmoder": 7177,
      "Äłsimpl": 7178,
      "Äłmaintenance": 7179,
      "Äłimmun": 7180,
      "Äłconstantly": 7181,
      "Äłmarine": 7182,
      "Äłswitch": 7183,
      "Äłputting": 7184,
      "Äłfunctional": 7185,
      "Äłimprovement": 7186,
      "Äłresponses": 7187,
      "Äłindicated": 7188,
      "Äłfunds": 7189,
      "Äłemployed": 7190,
      "ĠÄłcommunity": 7191,
      "Äłrepresented": 7192,
      "ĠÄłconsider": 7193,
      "Äłtwenty": 7194,
      "Äłdiagnosed": 7195,
      "Äłcompetition": 7196,
      "Äłangle": 7197,
      "Äłimmediate": 7198,
      "Äłbeauty": 7199,
      "Äłhouses": 7200,
      "Äłconversation": 7201,
      "Äłratio": 7202,
      "Äłbehaviour": 7203,
      "ĠÄłoccur": 7204,
      "Äłneighb": 7205,
      "ĠÄłBritish": 7206,
      "hedule": 7207,
      "97": 7208,
      "DS": 7209,
      "Even": 7210,
      "MA": 7211,
      "See": 7212,
      "chen": 7213,
      "ĠV": 7214,
      "Ġ12": 7215,
      "Äłtube": 7216,
      "Äłtexts": 7217,
      "health": 7218,
      "Äłaf": 7219,
      "Äłtheore": 7220,
      "onia": 7221,
      "isk": 7222,
      "Äłwid": 7223,
      "Äłwife": 7224,
      "edical": 7225,
      "ingle": 7226,
      "oured": 7227,
      "arters": 7228,
      "Äłbag": 7229,
      "Äłfell": 7230,
      "ili": 7231,
      "stant": 7232,
      "omething": 7233,
      "Äłepid": 7234,
      "Äłlies": 7235,
      "Äłnan": 7236,
      "otland": 7237,
      "ÄłTer": 7238,
      "ÄłTime": 7239,
      "igious": 7240,
      "irds": 7241,
      "ÄłAlex": 7242,
      "ÄłSk": 7243,
      "ady": 7244,
      "adder": 7245,
      "ÄłCap": 7246,
      "ifer": 7247,
      "ÄłMars": 7248,
      "ects": 7249,
      "Äłhel": 7250,
      "ÄłEnd": 7251,
      "ogs": 7252,
      "ÄłList": 7253,
      "ÄłLanguage": 7254,
      "ÄłLabor": 7255,
      "actions": 7256,
      "agram": 7257,
      "Äłplenty": 7258,
      "ĠÄłhaving": 7259,
      "uster": 7260,
      "ĠÄłlook": 7261,
      "ĠÄłreal": 7262,
      "orses": 7263,
      "Äłpreval": 7264,
      "reek": 7265,
      "ÄłKnow": 7266,
      "ĠÄłComp": 7267,
      "Äłoffering": 7268,
      "Äłregulations": 7269,
      "Äłexpressed": 7270,
      "Äłpolice": 7271,
      "Äłdetection": 7272,
      "ĠÄłEn": 7273,
      "Äłrefuge": 7274,
      "Äłgenerate": 7275,
      "Äłgrows": 7276,
      "Äłsheet": 7277,
      "Äłdepth": 7278,
      "ranean": 7279,
      "Äłdefine": 7280,
      "ports": 7281,
      "Äłmaintained": 7282,
      "azine": 7283,
      "Äłsupporting": 7284,
      "Äłelectronic": 7285,
      "Äłpainting": 7286,
      "Äłhandle": 7287,
      "aneously": 7288,
      "Äłopened": 7289,
      "Äłreceiving": 7290,
      "Äłdigest": 7291,
      "ĠÄłStates": 7292,
      "ÄłAbout": 7293,
      "Äłcutting": 7294,
      "Äłtwice": 7295,
      "opyright": 7296,
      "Äłtargets": 7297,
      "Äłarrived": 7298,
      "Äłslowly": 7299,
      "Äłhydrogen": 7300,
      "Äłwarming": 7301,
      "Äłwalking": 7302,
      "ĠÄłaccount": 7303,
      "Äłlaboratory": 7304,
      "ĠÄłprovide": 7305,
      "ÄłFranc": 7306,
      "ÄłFrank": 7307,
      "Äłpanel": 7308,
      "Äłhonor": 7309,
      "Äłscholars": 7310,
      "ĠÄłavailable": 7311,
      "elesc": 7312,
      "ohnson": 7313,
      "68": 7314,
      "CT": 7315,
      "De": 7316,
      "IA": 7317,
      "Ind": 7318,
      "gression": 7319,
      "medi": 7320,
      "ny": 7321,
      "rary": 7322,
      "wing": 7323,
      "yal": 7324,
      "ĠÄłrad": 7325,
      "onents": 7326,
      "Äłcats": 7327,
      "Äłprices": 7328,
      "Äłbond": 7329,
      "asy": 7330,
      "Äłles": 7331,
      "Äłnone": 7332,
      "etime": 7333,
      "ette": 7334,
      "Äłgut": 7335,
      "ifts": 7336,
      "Äłpromin": 7337,
      "Äłancest": 7338,
      "ÄłMD": 7339,
      "acher": 7340,
      "ummer": 7341,
      "osqu": 7342,
      "ĠÄłcirc": 7343,
      "ĠÄłpotential": 7344,
      "ĠÄłauthor": 7345,
      "ĠÄłfamily": 7346,
      "ÄłWorks": 7347,
      "ÄłFlorida": 7348,
      "Äłsharing": 7349,
      "ÄłLibrary": 7350,
      "arden": 7351,
      "peror": 7352,
      "Äłplate": 7353,
      "Äłwilling": 7354,
      "ĠÄłSh": 7355,
      "rene": 7356,
      "ÄłChild": 7357,
      "Äłaged": 7358,
      "Äłunderlying": 7359,
      "ÄłYear": 7360,
      "Äłrelation": 7361,
      "Äłdecade": 7362,
      "ĠÄłareas": 7363,
      "ĠÄłproduct": 7364,
      "Äłtransmit": 7365,
      "Äłmodified": 7366,
      "Äłcars": 7367,
      "ĠÄłvol": 7368,
      "Äłsky": 7369,
      "Äłdefe": 7370,
      "ĠÄłalways": 7371,
      "ĠÄłyoung": 7372,
      "ĠÄłlet": 7373,
      "ÄłExt": 7374,
      "ÄłAdv": 7375,
      "Äłcalories": 7376,
      "Äłdelay": 7377,
      "Äłopening": 7378,
      "ÄłOnly": 7379,
      "Äłcharacterized": 7380,
      "Äłvertical": 7381,
      "Äłcovers": 7382,
      "ÄłGeorg": 7383,
      "Äłfeedback": 7384,
      "Äłsubstances": 7385,
      "Äłconsistent": 7386,
      "ÄłMoreover": 7387,
      "Äłmagnetic": 7388,
      "Äłleadership": 7389,
      "Äłmountain": 7390,
      "ioxid": 7391,
      "ĠÄłdeterm": 7392,
      "ĠÄłdiscuss": 7393,
      "Äłbeliefs": 7394,
      "Äłkidney": 7395,
      "ĠÄłrespons": 7396,
      "razil": 7397,
      "%)": 7398,
      ".;": 7399,
      "800": 7400,
      "BS": 7401,
      "OW": 7402,
      "TP": 7403,
      "ais": 7404,
      "sis": 7405,
      "wan": 7406,
      "ĠIt": 7407,
      "reast": 7408,
      "isdom": 7409,
      "Äłbath": 7410,
      "Äłboy": 7411,
      "icy": 7412,
      "asters": 7413,
      "stru": 7414,
      "Äłreject": 7415,
      "Äłbees": 7416,
      "Äłgrid": 7417,
      "iger": 7418,
      "ÄłServices": 7419,
      "Äłstands": 7420,
      "ayer": 7421,
      "ÄłIV": 7422,
      "Äłitem": 7423,
      "ÄłPsych": 7424,
      "ÄłBill": 7425,
      "ĠÄłside": 7426,
      "Äłran": 7427,
      "Äłrice": 7428,
      "ript": 7429,
      "ĠÄłmajor": 7430,
      "ÄłNor": 7431,
      "ĠÄłdays": 7432,
      "Äłspr": 7433,
      "Äłplays": 7434,
      "Äłintense": 7435,
      "aph": 7436,
      "Äłcompare": 7437,
      "ĠÄłtest": 7438,
      "Äłunknown": 7439,
      "Äłteen": 7440,
      "ieval": 7441,
      "Äłoverl": 7442,
      "Äłourselves": 7443,
      "Äłdesired": 7444,
      "archy": 7445,
      "ersonal": 7446,
      "ĠÄłRe": 7447,
      "ĠÄłRes": 7448,
      "Äłextract": 7449,
      "Äłsupports": 7450,
      "ographical": 7451,
      "Äłoperate": 7452,
      "Äłprovider": 7453,
      "Äłobjective": 7454,
      "Äłmarried": 7455,
      "Äłfocuses": 7456,
      "Äłbroken": 7457,
      "Äłturns": 7458,
      "Äłgrew": 7459,
      "ĠÄłthemselves": 7460,
      "Äłburning": 7461,
      "Äłvariables": 7462,
      "Äłemotion": 7463,
      "Äłemotions": 7464,
      "Äłevaluation": 7465,
      "Äłmechanism": 7466,
      "ĠÄłeffects": 7467,
      "Äłcarrying": 7468,
      "Äłpregnant": 7469,
      "Äłhypothes": 7470,
      "Äłcomparison": 7471,
      "ĠÄłlearning": 7472,
      "ĠÄłrepresent": 7473,
      "ĠÄłvarious": 7474,
      "Äłlegisl": 7475,
      "ĠÄłcells": 7476,
      "Äłcomprehensive": 7477,
      "Äłvocabulary": 7478,
      "NS": 7479,
      "Read": 7480,
      "bul": 7481,
      "pet": 7482,
      "top": 7483,
      "uh": 7484,
      "Ġ18": 7485,
      "ĠÃ¢Ä¢": 7486,
      "ÄłÃİ": 7487,
      "ĠÄłYou": 7488,
      "isters": 7489,
      "Äłcaught": 7490,
      "Äłpool": 7491,
      "Äłpeoples": 7492,
      "arl": 7493,
      "Äłfer": 7494,
      "icious": 7495,
      "Äłmoon": 7496,
      "Äłdent": 7497,
      "Äłdys": 7498,
      "Äłhole": 7499,
      "Äłholid": 7500,
      "Äłlibrary": 7501,
      "iral": 7502,
      "Äłstated": 7503,
      "Äłstick": 7504,
      "Äłstroke": 7505,
      "ÄłCP": 7506,
      "ÄłCur": 7507,
      "oding": 7508,
      "mentation": 7509,
      "ushed": 7510,
      "illa": 7511,
      "ĠÄłwords": 7512,
      "Äłhero": 7513,
      "ighter": 7514,
      "ocument": 7515,
      "ĠÄłfurther": 7516,
      "ÄłWik": 7517,
      "ÄłEth": 7518,
      "ÄłRad": 7519,
      "Äłlect": 7520,
      "ÄłGet": 7521,
      "ÄłNorthern": 7522,
      "Äłends": 7523,
      "ĠÄłdel": 7524,
      "endment": 7525,
      "Äłcompens": 7526,
      "example": 7527,
      "ĠÄłturn": 7528,
      "ÄłThough": 7529,
      "Äłmanaged": 7530,
      "angle": 7531,
      "Äłtea": 7532,
      "ÄłStart": 7533,
      "ritical": 7534,
      "teb": 7535,
      "olds": 7536,
      "Äłagency": 7537,
      "Äłattend": 7538,
      "Äłhighlight": 7539,
      "ĠÄłview": 7540,
      "ohyd": 7541,
      "Äłdepart": 7542,
      "class": 7543,
      "ĠÄłchanges": 7544,
      "Äłstarts": 7545,
      "ĠÄłshort": 7546,
      "stitutes": 7547,
      "Äłpresentation": 7548,
      "Äłhappy": 7549,
      "ippi": 7550,
      "Äłconsumer": 7551,
      "ĠÄłapplic": 7552,
      "rolled": 7553,
      "Äłabsence": 7554,
      "Äłholding": 7555,
      "Äłemployment": 7556,
      "Äłfarming": 7557,
      "Äłlabel": 7558,
      "Äłreturned": 7559,
      "ĠÄłrecogn": 7560,
      "Äłcrime": 7561,
      "Äłvariable": 7562,
      "Äłearthqu": 7563,
      "borhood": 7564,
      "ENT": 7565,
      "ĠÄłbecame": 7566,
      "imilarly": 7567,
      "Äłtrip": 7568,
      "Äładministr": 7569,
      "forcement": 7570,
      "Äłtouch": 7571,
      "ĠÄłsecond": 7572,
      "Äłfixed": 7573,
      "Äłvillage": 7574,
      "ĠÄłestab": 7575,
      "Äłastronom": 7576,
      "Äłphenomenon": 7577,
      "Äłpermanent": 7578,
      "Äłvoltage": 7579,
      "250": 7580,
      "First": 7581,
      "Rec": 7582,
      "Te": 7583,
      "from": 7584,
      "mes": 7585,
      "rif": 7586,
      "rÃĥ": 7587,
      "uan": 7588,
      "was": 7589,
      "whel": 7590,
      "Ä®": 7591,
      "Äłtall": 7592,
      "Äłtaste": 7593,
      "ani": 7594,
      "itals": 7595,
      "orph": 7596,
      "Äłwaves": 7597,
      "Äłpin": 7598,
      "Äłban": 7599,
      "Äłfalse": 7600,
      "Äłmuseum": 7601,
      "omatic": 7602,
      "otal": 7603,
      "ÄłTw": 7604,
      "Äłongoing": 7605,
      "Äłstores": 7606,
      "Äłye": 7607,
      "ÄłCy": 7608,
      "ÄłChe": 7609,
      "essions": 7610,
      "acent": 7611,
      "ÄłPet": 7612,
      "ÄłProp": 7613,
      "ÄłPeter": 7614,
      "ĠÄłsk": 7615,
      "ĠÄłsince": 7616,
      "ĠÄłpur": 7617,
      "ĠÄłtoday": 7618,
      "ÄłLiter": 7619,
      "ansion": 7620,
      "orms": 7621,
      "Äłdispl": 7622,
      "ÄłJul": 7623,
      "achine": 7624,
      "ĠÄłnatural": 7625,
      "ĠÄłlow": 7626,
      "ubs": 7627,
      "ishment": 7628,
      "ricts": 7629,
      "ĠÄłAb": 7630,
      "ĠÄłAfric": 7631,
      "iana": 7632,
      "obile": 7633,
      "ffects": 7634,
      "tein": 7635,
      "Äłproved": 7636,
      "Äładds": 7637,
      "ventually": 7638,
      "ĠÄłBl": 7639,
      "Äłremark": 7640,
      "Äłpreserve": 7641,
      "Äłknows": 7642,
      "ĠÄłseveral": 7643,
      "Äłcarb": 7644,
      "Äłeveryday": 7645,
      "Äłprocessed": 7646,
      "Äłrequest": 7647,
      "Äłartificial": 7648,
      "Äłmining": 7649,
      "1991": 7650,
      "1994": 7651,
      "ĠÄłJohn": 7652,
      "strial": 7653,
      "Äłmembran": 7654,
      "agnetic": 7655,
      "Äłequally": 7656,
      "Äłplayers": 7657,
      "ĠÄładv": 7658,
      "ĠÄłabove": 7659,
      "Äłlisten": 7660,
      "print": 7661,
      "ÄłWithout": 7662,
      "Äłcriteria": 7663,
      "Äłdestruction": 7664,
      "Äłnegot": 7665,
      "Äłlayers": 7666,
      "Äłfatigue": 7667,
      "Äłfishing": 7668,
      "Äłengineers": 7669,
      "Äłmeasurement": 7670,
      "Äłdebate": 7671,
      "ĠÄłdesign": 7672,
      "Äłconcrete": 7673,
      "Äłdanger": 7674,
      "Äłagreement": 7675,
      "Äłgradually": 7676,
      "Äłultimately": 7677,
      "Äłcryst": 7678,
      "Äłdrawn": 7679,
      "Äłarchitecture": 7680,
      "cyclopedia": 7681,
      "(\"": 7682,
      "600": 7683,
      "American": 7684,
      "Go": 7685,
      "but": 7686,
      "door": 7687,
      "rin": 7688,
      "uated": 7689,
      "Â¯": 7690,
      "ÄłÃĲ": 7691,
      "ĠÄłkeep": 7692,
      "heets": 7693,
      "Äłske": 7694,
      "itivity": 7695,
      "itarian": 7696,
      "Äłpull": 7697,
      "Äłpestic": 7698,
      "Äłbot": 7699,
      "Äłfever": 7700,
      "icit": 7701,
      "icing": 7702,
      "Äłdates": 7703,
      "ented": 7704,
      "Äłreward": 7705,
      "Äłnose": 7706,
      "etary": 7707,
      "uris": 7708,
      "andemic": 7709,
      "ÄłSil": 7710,
      "ading": 7711,
      "Äłorbit": 7712,
      "Äłorgans": 7713,
      "umbers": 7714,
      "iva": 7715,
      "ĠÄłfar": 7716,
      "Äłwasn": 7717,
      "ÄłEqu": 7718,
      "alling": 7719,
      "ÄłRom": 7720,
      "ĠÄłmethod": 7721,
      "ĠÄłtoo": 7722,
      "outs": 7723,
      "rous": 7724,
      "Äłabnormal": 7725,
      "ultiple": 7726,
      "ustral": 7727,
      "ĠÄłtr": 7728,
      "ĠÄłlim": 7729,
      "Äłpref": 7730,
      "Äłtheme": 7731,
      "ÄłKeep": 7732,
      "hered": 7733,
      "Äłagencies": 7734,
      "Äłrocks": 7735,
      "Äłrelief": 7736,
      "Äłscript": 7737,
      "Äłattached": 7738,
      "Äłassistance": 7739,
      "arming": 7740,
      "Äłedge": 7741,
      "ĠÄłseen": 7742,
      "Äłvariation": 7743,
      "Äłautism": 7744,
      "Äłinsulin": 7745,
      "eek": 7746,
      "1992": 7747,
      "Äłmaintaining": 7748,
      "ÄłIndians": 7749,
      "Äłplayer": 7750,
      "Äłgreatly": 7751,
      "Äłopposed": 7752,
      "ĠÄłresults": 7753,
      "Äłaccessible": 7754,
      "Äłescape": 7755,
      "Äłdelivered": 7756,
      "Äłlisted": 7757,
      "ÄłCommunity": 7758,
      "Äłgravity": 7759,
      "ĠÄłupon": 7760,
      "Äłphoto": 7761,
      "Äłparticipation": 7762,
      "ucky": 7763,
      "Äłzone": 7764,
      "Äłhistoric": 7765,
      "holders": 7766,
      "Äłmatters": 7767,
      "Äłarrange": 7768,
      "Äłintegrated": 7769,
      "Äłdrawing": 7770,
      "ÄłPrevention": 7771,
      "Äłvitamins": 7772,
      "Äłmechanical": 7773,
      "ĠÄłYork": 7774,
      "ĠÄłspecific": 7775,
      "ÄłParis": 7776,
      "Äłcommitted": 7777,
      "ĠÄłcentury": 7778,
      "Äłofficers": 7779,
      "lymph": 7780,
      "Äłfacilitate": 7781,
      "html": 7782,
      "Äłingredients": 7783,
      "CR": 7784,
      "Don": 7785,
      "Source": 7786,
      "df": 7787,
      "def": 7788,
      "eor": 7789,
      "gers": 7790,
      "gence": 7791,
      "making": 7792,
      "spec": 7793,
      "tic": 7794,
      "ĠÄłill": 7795,
      "heet": 7796,
      "esides": 7797,
      "Äłwine": 7798,
      "Äłwidespread": 7799,
      "Äłpounds": 7800,
      "Äłfract": 7801,
      "Äłfasc": 7802,
      "ioned": 7803,
      "Äłmand": 7804,
      "lete": 7805,
      "rost": 7806,
      "Äłhop": 7807,
      "etition": 7808,
      "charge": 7809,
      "ÄłTimes": 7810,
      "uther": 7811,
      "Äłgar": 7812,
      "Äłforth": 7813,
      "ÄłIreland": 7814,
      "ÄłIraq": 7815,
      "Äłwhatever": 7816,
      "ĠÄłcome": 7817,
      "ĠÄłcertain": 7818,
      "ĠÄłbest": 7819,
      "ÄłWhere": 7820,
      "agon": 7821,
      "eller": 7822,
      "Äłplot": 7823,
      "Äłplus": 7824,
      "ulty": 7825,
      "1940": 7826,
      "Äłintest": 7827,
      "Äłcontained": 7828,
      "ĠÄłtimes": 7829,
      "Äłdose": 7830,
      "2021": 7831,
      "ĠÄłname": 7832,
      "ĠÄłnext": 7833,
      "ĠÄłAt": 7834,
      "Äłsole": 7835,
      "ÄłKh": 7836,
      "ĠÄłbehavior": 7837,
      "Äłtrained": 7838,
      "Äłroles": 7839,
      "Äłdesc": 7840,
      "issippi": 7841,
      "angered": 7842,
      "ommod": 7843,
      "Äłsurve": 7844,
      "Äłsupplies": 7845,
      "Äłexamination": 7846,
      "Äłinstalled": 7847,
      "Äłeditor": 7848,
      "Äłstudying": 7849,
      "Äłexplo": 7850,
      "Äłtreating": 7851,
      "Äłvisited": 7852,
      "Äłissued": 7853,
      "Äłparalle": 7854,
      "Äłantioxid": 7855,
      "Äłhappening": 7856,
      "Äłlistening": 7857,
      "ÄłCancer": 7858,
      "Äłbiology": 7859,
      "Äłprotecting": 7860,
      "Äłexercises": 7861,
      "ÄłWho": 7862,
      "criptions": 7863,
      "Äłcounsel": 7864,
      "Äłpsychological": 7865,
      "iotic": 7866,
      "istoric": 7867,
      "ÄłDespite": 7868,
      "ĠÄłblood": 7869,
      "ĠÄłspecies": 7870,
      "ÄłParty": 7871,
      "ÄłReview": 7872,
      "Äłjoined": 7873,
      "Äłvictim": 7874,
      "Äłvictims": 7875,
      "imensions": 7876,
      "Äłcomplications": 7877,
      "Äłcategories": 7878,
      "Äłbatteries": 7879,
      "Äłrecommendations": 7880,
      "ÄłTestament": 7881,
      "Äłceremon": 7882,
      "Äłkilomet": 7883,
      "Äłsucceed": 7884,
      "08": 7885,
      "96": 7886,
      "DP": 7887,
      "Just": 7888,
      "iov": 7889,
      "iability": 7890,
      "rateg": 7891,
      "uy": 7892,
      "Ä©": 7893,
      "Ġl": 7894,
      "ĠÃ¢Ä¢Ä¾": 7895,
      "ĠÄłthink": 7896,
      "ĠÄłess": 7897,
      "ĠÄłÃ¢Ä¢Ä¶": 7898,
      "Äłsought": 7899,
      "Äłsession": 7900,
      "ali": 7901,
      "Äłwww": 7902,
      "Äłinhib": 7903,
      "ÄłTake": 7904,
      "igan": 7905,
      "ÄłAS": 7906,
      "ÄłAccess": 7907,
      "Äłstake": 7908,
      "Äłstead": 7909,
      "ifest": 7910,
      "abs": 7911,
      "ÄłMer": 7912,
      "emed": 7913,
      "ÄłPlease": 7914,
      "ositive": 7915,
      "quare": 7916,
      "ĠÄłclear": 7917,
      "ĠÄłsimilar": 7918,
      "ocus": 7919,
      "ĠÄłbook": 7920,
      "ĠÄłage": 7921,
      "Äłrid": 7922,
      "Äłrig": 7923,
      "Äłrhy": 7924,
      "ÄłEarly": 7925,
      "ogether": 7926,
      "ÄłRock": 7927,
      "ÄłRoad": 7928,
      "ĠÄłmus": 7929,
      "ÄłGovern": 7930,
      "ĠÄłdev": 7931,
      "Äłspending": 7932,
      "Äłimplications": 7933,
      "ipedia": 7934,
      "Äłcompris": 7935,
      "Äłcomposed": 7936,
      "ĠÄłnature": 7937,
      "Äłbutton": 7938,
      "oken": 7939,
      "okes": 7940,
      "Äłjump": 7941,
      "anger": 7942,
      "Äłarts": 7943,
      "ailing": 7944,
      "ffective": 7945,
      "Äłundert": 7946,
      "Äłpharm": 7947,
      "everal": 7948,
      "ĠÄłprob": 7949,
      "upreme": 7950,
      "Äłearn": 7951,
      "Äłedition": 7952,
      "Äłdetected": 7953,
      "ocking": 7954,
      "Äłminute": 7955,
      "eeding": 7956,
      "Äłdistrict": 7957,
      "Äłorganisms": 7958,
      "Äłboys": 7959,
      "Äłeducators": 7960,
      "Äłserver": 7961,
      "coming": 7962,
      "Äłrestrict": 7963,
      "Äłflower": 7964,
      "Äłyounger": 7965,
      "ĠÄłenough": 7966,
      "ĠÄłuntil": 7967,
      "Äłparticipate": 7968,
      "ÄłEmpire": 7969,
      "Äłprecip": 7970,
      "Äłthousand": 7971,
      "Äłcustomers": 7972,
      "Äłreplaced": 7973,
      "Äłbehaviors": 7974,
      "Äłinnovation": 7975,
      "Äłconstructed": 7976,
      "Äłbranch": 7977,
      "Äłterritory": 7978,
      "Äłsenior": 7979,
      "Äłcamera": 7980,
      "Äłdiscrimination": 7981,
      "Äłsomewhat": 7982,
      "Äłcircumstances": 7983,
      "osquit": 7984,
      "74": 7985,
      "AA": 7986,
      "CD": 7987,
      "Lear": 7988,
      "ML": 7989,
      "aus": 7990,
      "aired": 7991,
      "dis": 7992,
      "iations": 7993,
      "uine": 7994,
      "words": 7995,
      "Ä¶": 7996,
      "Äłtail": 7997,
      "Äłath": 7998,
      "atoes": 7999,
      "Äłcm": 8000,
      "Äłcash": 8001,
      "Äłpair": 8002,
      "ouds": 8003,
      "arg": 8004,
      "Äłmic": 8005,
      "Äłnob": 8006,
      "idal": 8007,
      "aming": 8008,
      "ÄłSand": 8009,
      "ÄłSciences": 8010,
      "adel": 8011,
      "ÄłIP": 8012,
      "Äłprove": 8013,
      "illiam": 8014,
      "emies": 8015,
      "achers": 8016,
      "ÄłPop": 8017,
      "quir": 8018,
      "ĠÄłcases": 8019,
      "ÄłBab": 8020,
      "aints": 8021,
      "ĠÄłsociety": 8022,
      "unch": 8023,
      "Äłvs": 8024,
      "Äłvac": 8025,
      "oga": 8026,
      "riz": 8027,
      "oston": 8028,
      "Äłenvironments": 8029,
      "arding": 8030,
      "actic": 8031,
      "Äłweigh": 8032,
      "plant": 8033,
      "ruption": 8034,
      "ĠÄłnear": 8035,
      "Äłneither": 8036,
      "Äłunus": 8037,
      "Äłpartner": 8038,
      "ĠÄłSc": 8039,
      "weet": 8040,
      "Äłnewly": 8041,
      "Äłrelax": 8042,
      "Äłacids": 8043,
      "ictions": 8044,
      "Äłwhereas": 8045,
      "unday": 8046,
      "Äłsigned": 8047,
      "Äłmineral": 8048,
      "Äłminerals": 8049,
      "Äłplane": 8050,
      "Äłwriters": 8051,
      "Äłconfidence": 8052,
      "Äłequivalent": 8053,
      "Äłdirections": 8054,
      "ÄłExper": 8055,
      "incol": 8056,
      "including": 8057,
      "Äłlimits": 8058,
      "Äłfourth": 8059,
      "Äłflows": 8060,
      "Äłruns": 8061,
      "Äłsuggestions": 8062,
      "ÄłTechn": 8063,
      "Äłdifficulties": 8064,
      "Äłcyber": 8065,
      "Äłabsor": 8066,
      "Äłsunlight": 8067,
      "Äłfarms": 8068,
      "ĠÄłcomb": 8069,
      "ĠÄłaccess": 8070,
      "Äłinteractions": 8071,
      "Äłconcentrations": 8072,
      "Äłroute": 8073,
      "Äłdemonstrate": 8074,
      "Äłdemonstrated": 8075,
      "ÄłCOVID": 8076,
      "Äłsilver": 8077,
      "Äłmolecular": 8078,
      "Äłhoriz": 8079,
      "imensional": 8080,
      "ĠÄłearly": 8081,
      "ocolate": 8082,
      "ĠÄłgroups": 8083,
      "ĠÄłvalue": 8084,
      "ÄłOrganization": 8085,
      "usalem": 8086,
      "ÄłColumbia": 8087,
      "82": 8088,
      "CL": 8089,
      "Cons": 8090,
      "OL": 8091,
      "cons": 8092,
      "dem": 8093,
      "eace": 8094,
      "eenth": 8095,
      "iop": 8096,
      "Ã¦": 8097,
      "Äłaer": 8098,
      "enza": 8099,
      "Äłcooking": 8100,
      "Äłwait": 8101,
      "arks": 8102,
      "Äłben": 8103,
      "Äłfought": 8104,
      "omer": 8105,
      "Äłlaid": 8106,
      "Äłnervous": 8107,
      "imming": 8108,
      "ÄłTim": 8109,
      "Äłgram": 8110,
      "owers": 8111,
      "verity": 8112,
      "ÄłCambridge": 8113,
      "istence": 8114,
      "ÄłBul": 8115,
      "ĠÄłsays": 8116,
      "ĠÄłpost": 8117,
      "ÄłHill": 8118,
      "ÄłHospital": 8119,
      "ÄłEU": 8120,
      "ÄłFin": 8121,
      "ÄłGold": 8122,
      "ostic": 8123,
      "Äłspin": 8124,
      "ÄłLess": 8125,
      "ÄłLong": 8126,
      "apor": 8127,
      "Äłcomposition": 8128,
      "Äłresolution": 8129,
      "ĠÄłnet": 8130,
      "Äłprev": 8131,
      "Äłarray": 8132,
      "ÄłStep": 8133,
      "ÄłItalian": 8134,
      "ĠÄłgeneral": 8135,
      "erving": 8136,
      "Äłaccum": 8137,
      "oven": 8138,
      "ĠÄłforce": 8139,
      "Äłscene": 8140,
      "ĠÄłWar": 8141,
      "Äłextend": 8142,
      "apped": 8143,
      "Äłmonitor": 8144,
      "Äłdepartment": 8145,
      "rank": 8146,
      "Äłdefend": 8147,
      "Äłlocations": 8148,
      "Äłcareful": 8149,
      "ĠÄłOr": 8150,
      "roduced": 8151,
      "ÄłSpain": 8152,
      "Äłelection": 8153,
      "Äłcircle": 8154,
      "Äłbrings": 8155,
      "ometry": 8156,
      "ependence": 8157,
      "Äłbigger": 8158,
      "Äłfalls": 8159,
      "scale": 8160,
      "Äłmeasurements": 8161,
      "Äłsatellite": 8162,
      "ĠÄłhowever": 8163,
      "ĠÄłrole": 8164,
      "Äłvaccines": 8165,
      "ĠÄłamount": 8166,
      "Äłhydro": 8167,
      "Äłdecreased": 8168,
      "Äłaudience": 8169,
      "ÄłChristianity": 8170,
      "Äłrarely": 8171,
      "Äłacquired": 8172,
      "Äłfairly": 8173,
      "ĠÄłexperience": 8174,
      "Äłnutrient": 8175,
      "Äłlaunched": 8176,
      "Äłbreathing": 8177,
      "Äłlungs": 8178,
      "ĠÄłfollowing": 8179,
      "Äłuniversities": 8180,
      "Äłfavorite": 8181,
      "ĠÄłsignificant": 8182,
      "Äłmortality": 8183,
      "ĠÄłconditions": 8184,
      "ÄłIrish": 8185,
      "Äłinspired": 8186,
      "Äłfuels": 8187,
      "ĠÄłeducation": 8188,
      "Äłrespiratory": 8189,
      "Äłintellectual": 8190,
      "'m": 8191,
      "02": 8192,
      "05": 8193,
      "Comp": 8194,
      "Or": 8195,
      "Once": 8196,
      "Pr": 8197,
      "iences": 8198,
      "oin": 8199,
      "soft": 8200,
      "Ä±": 8201,
      "Äłtong": 8202,
      "Äłtons": 8203,
      "inating": 8204,
      "Äłsew": 8205,
      "Äłcart": 8206,
      "itted": 8207,
      "arium": 8208,
      "Äłmood": 8209,
      "Äłmov": 8210,
      "Äłmales": 8211,
      "Äłmoves": 8212,
      "ila": 8213,
      "Äłrein": 8214,
      "Äłrect": 8215,
      "Äłgap": 8216,
      "ÄłSer": 8217,
      "ÄłSat": 8218,
      "ÄłSol": 8219,
      "Äłstuff": 8220,
      "Äłassets": 8221,
      "Äłproof": 8222,
      "Äłconven": 8223,
      "Äłorient": 8224,
      "opic": 8225,
      "abeth": 8226,
      "thal": 8227,
      "ÄłMen": 8228,
      "ÄłMad": 8229,
      "emb": 8230,
      "umat": 8231,
      "ĠÄłwant": 8232,
      "Äłhealing": 8233,
      "Äłexists": 8234,
      "Äłcomments": 8235,
      "ĠÄłcourse": 8236,
      "ÄłBefore": 8237,
      "unicip": 8238,
      "ÄłHave": 8239,
      "Äłrank": 8240,
      "ÄłDown": 8241,
      "ÄłEPA": 8242,
      "ÄłNever": 8243,
      "Äłenorm": 8244,
      "Äłships": 8245,
      "Äłsport": 8246,
      "Äłspaces": 8247,
      "ĠÄłhistory": 8248,
      "Äłintent": 8249,
      "Äłintention": 8250,
      "Äłcontrovers": 8251,
      "acebook": 8252,
      "ĠÄłreason": 8253,
      "ensions": 8254,
      "Äłtelevision": 8255,
      "ĠÄłgive": 8256,
      "obs": 8257,
      "ÄłVen": 8258,
      "ontal": 8259,
      "Äłcolumn": 8260,
      "Äłschedule": 8261,
      "Äłregulate": 8262,
      "Äłformula": 8263,
      "ÄłHeb": 8264,
      "ĠÄłproject": 8265,
      "Äłheritage": 8266,
      "Äłartists": 8267,
      "Äłprogramming": 8268,
      "Äłestimate": 8269,
      "Äłcorrel": 8270,
      "Äłdriven": 8271,
      "ĠÄłOne": 8272,
      "fessional": 8273,
      "ercise": 8274,
      "ĠÄłleast": 8275,
      "ĠÄłleft": 8276,
      "riday": 8277,
      "Äłoldest": 8278,
      "Äłseconds": 8279,
      "ÄłCommittee": 8280,
      "Äłmarriage": 8281,
      "ÄłAtlantic": 8282,
      "Äłassociation": 8283,
      "Äłstrongly": 8284,
      "ÄłScotland": 8285,
      "Äłmedicines": 8286,
      "Äłmixture": 8287,
      "Äłfemales": 8288,
      "Äłdivision": 8289,
      "ogenic": 8290,
      "Äłbegun": 8291,
      "ĠÄłcountries": 8292,
      "Äłsettings": 8293,
      "Äłsettled": 8294,
      "Äłcategory": 8295,
      "Äłevaluate": 8296,
      "Äłinstructions": 8297,
      "Äłeliminate": 8298,
      "ÄłMichael": 8299,
      "Äłhazard": 8300,
      "ÄłFurthermore": 8301,
      "ĠÄłdue": 8302,
      "Äłnarrative": 8303,
      "Äłchicken": 8304,
      "Äłnitrogen": 8305,
      "120": 8306,
      "84": 8307,
      "Am": 8308,
      "Ed": 8309,
      "Of": 8310,
      "UN": 8311,
      "craft": 8312,
      "just": 8313,
      "oons": 8314,
      "oices": 8315,
      "ooks": 8316,
      "tts": 8317,
      "yes": 8318,
      "Ġst": 8319,
      "Äłid": 8320,
      "Äłtip": 8321,
      "Äłtropical": 8322,
      "inear": 8323,
      "rey": 8324,
      "reater": 8325,
      "Äłov": 8326,
      "itory": 8327,
      "Äłborder": 8328,
      "Äłfest": 8329,
      "icts": 8330,
      "Äłinner": 8331,
      "Äłmatch": 8332,
      "Äłdense": 8333,
      "Äłdimin": 8334,
      "roat": 8335,
      "Äłease": 8336,
      "olves": 8337,
      "idance": 8338,
      "utor": 8339,
      "utation": 8340,
      "urches": 8341,
      "raham": 8342,
      "Äłstreet": 8343,
      "aded": 8344,
      "Äłalph": 8345,
      "Äłexceed": 8346,
      "ÄłBig": 8347,
      "ĠÄłsay": 8348,
      "ĠÄłpers": 8349,
      "ĠÄłaut": 8350,
      "ĠÄławay": 8351,
      "ÄłHoly": 8352,
      "ĠÄłfac": 8353,
      "ĠÄłfuture": 8354,
      "ĠÄłinvest": 8355,
      "Äłrational": 8356,
      "ÄłDen": 8357,
      "ÄłFour": 8358,
      "Äłnoticed": 8359,
      "ptic": 8360,
      "pling": 8361,
      "aked": 8362,
      "1920": 8363,
      "1930": 8364,
      "Äłdisability": 8365,
      "achuse": 8366,
      "2022": 8367,
      "Äłunex": 8368,
      "ĠÄłbegan": 8369,
      "ÄłView": 8370,
      "ĠÄłstates": 8371,
      "Äłdescription": 8372,
      "Äłproven": 8373,
      "neys": 8374,
      "Äłindeed": 8375,
      "ĠÄłBe": 8376,
      "Äłsurfaces": 8377,
      "Äłinfant": 8378,
      "Äłsmooth": 8379,
      "Äłsupposed": 8380,
      "ollowing": 8381,
      "ĠÄłRep": 8382,
      "Äłpolar": 8383,
      "Äłartist": 8384,
      "Äłentry": 8385,
      "Äłreduces": 8386,
      "Äłelected": 8387,
      "mann": 8388,
      "Äłexperiencing": 8389,
      "Äłaffecting": 8390,
      "Äłobjectives": 8391,
      "Äłmarks": 8392,
      "Äłcreatures": 8393,
      "ÄłChristmas": 8394,
      "Äłpolitics": 8395,
      "Äłdamaged": 8396,
      "Äłresearcher": 8397,
      "Äłcontribution": 8398,
      "Äłannually": 8399,
      "ÄłStudy": 8400,
      "Äłfatty": 8401,
      "ÄłContin": 8402,
      "Äłessentially": 8403,
      "iterranean": 8404,
      "Äłmicrob": 8405,
      "riculture": 8406,
      "Äłdefinitely": 8407,
      "Äłbringing": 8408,
      "haust": 8409,
      "Äłaccuracy": 8410,
      "Äłcustomer": 8411,
      "Äłanalyze": 8412,
      "Äłjoints": 8413,
      "ÄłIncre": 8414,
      "ÄłISBN": 8415,
      "Äłcorner": 8416,
      "Äłasthma": 8417,
      "Äłobservations": 8418,
      "Äłhormone": 8419,
      "ÄłMississippi": 8420,
      "ÄłWindows": 8421,
      "Äłdollars": 8422,
      "raduate": 8423,
      "Äłproportion": 8424,
      "Äłweapons": 8425,
      "Äłsatisf": 8426,
      "ĠÄłcharacter": 8427,
      "Äłgalax": 8428,
      "heimer": 8429,
      "elescope": 8430,
      "achusetts": 8431,
      "?\"": 8432,
      "EG": 8433,
      "IM": 8434,
      "Like": 8435,
      "RA": 8436,
      "TH": 8437,
      "bing": 8438,
      "called": 8439,
      "mers": 8440,
      "night": 8441,
      "uits": 8442,
      "ĠÄłthough": 8443,
      "Äłtight": 8444,
      "Äłtack": 8445,
      "ĠÄłpp": 8446,
      "hea": 8447,
      "rec": 8448,
      "rend": 8449,
      "Äłcrack": 8450,
      "Äłcotton": 8451,
      "orus": 8452,
      "ications": 8453,
      "Äłinn": 8454,
      "Äłmeth": 8455,
      "Äłdrain": 8456,
      "Äłrevenue": 8457,
      "Äłlie": 8458,
      "Äłnest": 8459,
      "Äłislands": 8460,
      "otype": 8461,
      "Äłbeings": 8462,
      "Äłforg": 8463,
      "ÄłIdent": 8464,
      "ÄłMem": 8465,
      "ÄłBC": 8466,
      "ÄłBrazil": 8467,
      "ÄłHaw": 8468,
      "alleng": 8469,
      "ÄłRoyal": 8470,
      "ÄłFund": 8471,
      "Äłabandon": 8472,
      "agraph": 8473,
      "ĠÄłter": 8474,
      "Äłclin": 8475,
      "ĠÄłline": 8476,
      "ĠÄłlower": 8477,
      "oked": 8478,
      "Äłmeal": 8479,
      "Äłoutbreak": 8480,
      "Äłunw": 8481,
      "ÄłStat": 8482,
      "ÄłKids": 8483,
      "ÄłKansas": 8484,
      "ĠÄłbegin": 8485,
      "Äłtrauma": 8486,
      "older": 8487,
      "Äłagreed": 8488,
      "Äłunderg": 8489,
      "Äłblocks": 8490,
      "eneration": 8491,
      "ĠÄłBy": 8492,
      "Äłinfants": 8493,
      "Äłassume": 8494,
      "Äłpresents": 8495,
      "Äłears": 8496,
      "Äłinterventions": 8497,
      "Äłmode": 8498,
      "Äłvarieties": 8499,
      "Äłgenerations": 8500,
      "Äłcalling": 8501,
      "airy": 8502,
      "ÄłAsian": 8503,
      "eeds": 8504,
      "Äłavailability": 8505,
      "Äłprotocol": 8506,
      "azz": 8507,
      "ĠÄłcannot": 8508,
      "pectives": 8509,
      "ĠÄłconcept": 8510,
      "Äłwriter": 8511,
      "lishing": 8512,
      "ika": 8513,
      "iking": 8514,
      "Äłbreed": 8515,
      "Äłsitting": 8516,
      "ĠÄłallow": 8517,
      "Äłlowest": 8518,
      "Äłscientist": 8519,
      "Äłwarning": 8520,
      "1989": 8521,
      "Äłpreventing": 8522,
      "ĠSt": 8523,
      "ĠÄłclaim": 8524,
      "Äłprompt": 8525,
      "ĠÄłopport": 8526,
      "Äłpropag": 8527,
      "Äłemerging": 8528,
      "Äłbehavioral": 8529,
      "Äłliteracy": 8530,
      "ĠÄłlikely": 8531,
      "Äłdeeply": 8532,
      "ÄłAgency": 8533,
      "ÄłSecurity": 8534,
      "Äłroads": 8535,
      "Äłaudio": 8536,
      "Äłethnic": 8537,
      "Äłquantity": 8538,
      "Äłnucle": 8539,
      "ĠÄłpatients": 8540,
      "Äłscreening": 8541,
      "Äłpowers": 8542,
      "--------": 8543,
      "Äłuniversal": 8544,
      "Äłexcessive": 8545,
      "Äłisolated": 8546,
      "Äłthermal": 8547,
      "Äłsubsequent": 8548,
      "Äłmerely": 8549,
      "Äłcontemporary": 8550,
      "Äłbiodiversity": 8551,
      "incoln": 8552,
      "%.": 8553,
      "',": 8554,
      "1000": 8555,
      "700": 8556,
      "HO": 8557,
      "Le": 8558,
      "bacco": 8559,
      "car": 8560,
      "fall": 8561,
      "oir": 8562,
      "Ġ_": 8563,
      "ĠIf": 8564,
      "ĠCh": 8565,
      "ÄłÃĥÄ": 8566,
      "inition": 8567,
      "reas": 8568,
      "rection": 8569,
      "reets": 8570,
      "eness": 8571,
      "Äłcriminal": 8572,
      "Äłwish": 8573,
      "Äłfav": 8574,
      "Äłinformed": 8575,
      "rose": 8576,
      "Äłholes": 8577,
      "stance": 8578,
      "section": 8579,
      "eting": 8580,
      "ÄłCorn": 8581,
      "Äłconj": 8582,
      "Äłconqu": 8583,
      "uscript": 8584,
      "ema": 8585,
      "ĠÄłwhether": 8586,
      "ÄłPM": 8587,
      "ÄłPass": 8588,
      "Äłexclus": 8589,
      "ÄłBur": 8590,
      "ĠÄłsl": 8591,
      "ĠÄłsit": 8592,
      "ĠÄłpast": 8593,
      "ĠÄłpract": 8594,
      "ĠÄłfin": 8595,
      "ĠÄłflow": 8596,
      "Äłdealing": 8597,
      "ews": 8598,
      "ighting": 8599,
      "Äłshapes": 8600,
      "agle": 8601,
      "izz": 8602,
      "Äłintellig": 8603,
      "ÄłOpen": 8604,
      "ipher": 8605,
      "aternal": 8606,
      "Äłdisaster": 8607,
      "Äłdisabilities": 8608,
      "Äłcompost": 8609,
      "ÄłJacob": 8610,
      "Äłmanip": 8611,
      "Äłneur": 8612,
      "ubes": 8613,
      "reement": 8614,
      "Äłcommission": 8615,
      "ĠÄłSo": 8616,
      "ĠÄłground": 8617,
      "Äłagents": 8618,
      "iseases": 8619,
      "aware": 8620,
      "Äłamazing": 8621,
      "erty": 8622,
      "Äłremoval": 8623,
      "Äłsmoke": 8624,
      "Äłinterpre": 8625,
      "Äłdifferently": 8626,
      "Äłevening": 8627,
      "onomics": 8628,
      "Äłauthent": 8629,
      "Äłentered": 8630,
      "Äłfinds": 8631,
      "Äłconfig": 8632,
      "Äłapproved": 8633,
      "Äłmarkets": 8634,
      "Äłdirected": 8635,
      "Äłrestoration": 8636,
      "Äłrealize": 8637,
      "1986": 8638,
      "Äłinvolving": 8639,
      "Äłcomputing": 8640,
      "ÄłCentre": 8641,
      "Äłmotivation": 8642,
      "Äłdegrad": 8643,
      "Äłcovering": 8644,
      "ĠÄłconsid": 8645,
      "ÄłAmazon": 8646,
      "ĠBut": 8647,
      "Äłprivile": 8648,
      "Äłmeaningful": 8649,
      "ibraries": 8650,
      "Äłsafely": 8651,
      "ÄłCoast": 8652,
      "Äłembed": 8653,
      "Äłmechanisms": 8654,
      "ĠÄłsystems": 8655,
      "Äłstrategic": 8656,
      "irable": 8657,
      "ÄłBoard": 8658,
      "Äłcontrolling": 8659,
      "ĠÄłincrease": 8660,
      "ĠÄłincreased": 8661,
      "ĠÄłpattern": 8662,
      "Äłimagine": 8663,
      "Äłprincipal": 8664,
      "Äłreproductive": 8665,
      "Äłfriendly": 8666,
      "ĠÄłreturn": 8667,
      "ĠÄłEnglish": 8668,
      "Äłconfirmed": 8669,
      "ĠÄłtemper": 8670,
      "Äłempty": 8671,
      "92": 8672,
      "EE": 8673,
      "HA": 8674,
      "HD": 8675,
      "OM": 8676,
      "Re": 8677,
      "Under": 8678,
      "],": 8679,
      "da": 8680,
      "fly": 8681,
      "iat": 8682,
      "lights": 8683,
      "miss": 8684,
      "nel": 8685,
      "rity": 8686,
      "Äª": 8687,
      "Äłille": 8688,
      "Äłtables": 8689,
      "ĠÄłQ": 8690,
      "ĠÄłX": 8691,
      "atial": 8692,
      "Äłcord": 8693,
      "itches": 8694,
      "Äłwound": 8695,
      "Äłwisdom": 8696,
      "Äłbrows": 8697,
      "Äłfellow": 8698,
      "icides": 8699,
      "Äłmild": 8700,
      "Äłhat": 8701,
      "Äłrely": 8702,
      "Äłrecept": 8703,
      "Äłgro": 8704,
      "amous": 8705,
      "advant": 8706,
      "heric": 8707,
      "opher": 8708,
      "thritis": 8709,
      "usive": 8710,
      "ÄłMel": 8711,
      "ÄłPakistan": 8712,
      "ĠÄłsw": 8713,
      "ĠÄłsure": 8714,
      "ĠÄłsomething": 8715,
      "ĠÄłput": 8716,
      "ĠÄłpred": 8717,
      "unct": 8718,
      "ĠÄłfund": 8719,
      "ĠÄłfunction": 8720,
      "ĠÄłfamil": 8721,
      "ÄłDev": 8722,
      "rize": 8723,
      "ÄłLead": 8724,
      "ÄłLittle": 8725,
      "astro": 8726,
      "ouses": 8727,
      "1900": 8728,
      "ĠÄłneg": 8729,
      "Äłclar": 8730,
      "ĠÄłloss": 8731,
      "ĠÄłreally": 8732,
      "ĠÄłAm": 8733,
      "ĠÄłAmeric": 8734,
      "ÄłItaly": 8735,
      "ĠÄłgrowth": 8736,
      "Äłovercome": 8737,
      "Äłoverwhel": 8738,
      "ĠÄłstrong": 8739,
      "Äłexamine": 8740,
      "ega": 8741,
      "Äłsignificance": 8742,
      "Äłseeking": 8743,
      "ĠÄłLe": 8744,
      "Äłmyst": 8745,
      "Äłmyth": 8746,
      "Äłinsert": 8747,
      "Äłlighting": 8748,
      "Äłbreeding": 8749,
      "Äłcaps": 8750,
      "Äłpassing": 8751,
      "Äłpercentage": 8752,
      "ÄłAdministration": 8753,
      "ĠÄłplay": 8754,
      "ÄłPlant": 8755,
      "ÃĲÂµ": 8756,
      "Äłbrand": 8757,
      "Äłensuring": 8758,
      "Äłintroduce": 8759,
      "Äłnuts": 8760,
      "ÄłImp": 8761,
      "ĠÄłstudies": 8762,
      "Äładdressed": 8763,
      "ĠÄłcomplete": 8764,
      "Äłmarketing": 8765,
      "Äłsentences": 8766,
      "Äłsteam": 8767,
      "Äłmicrosc": 8768,
      "Äłoxid": 8769,
      "ĠÄłphysical": 8770,
      "Äłdefinitions": 8771,
      "Äłidentifying": 8772,
      "borne": 8773,
      "Äłexciting": 8774,
      "Äłimplemented": 8775,
      "Äłbabies": 8776,
      "ĠÄłsurface": 8777,
      "Äłautomatically": 8778,
      "Äłcoastal": 8779,
      "Äłcelebrate": 8780,
      "Äłinnovative": 8781,
      "Äłstimul": 8782,
      "Äłtumor": 8783,
      "Äłscenario": 8784,
      "Äłhunting": 8785,
      "ÄłDaniel": 8786,
      "Äłwaiting": 8787,
      "Äłhusband": 8788,
      "73": 8789,
      "UR": 8790,
      "gments": 8791,
      "mble": 8792,
      "oys": 8793,
      "uber": 8794,
      "yt": 8795,
      "Ä½": 8796,
      "Ġwww": 8797,
      "Äłlymph": 8798,
      "Äłtick": 8799,
      "ĠÄłarm": 8800,
      "ĠÄłself": 8801,
      "Äłcort": 8802,
      "iti": 8803,
      "ori": 8804,
      "alities": 8805,
      "edy": 8806,
      "Äłpets": 8807,
      "Äłmir": 8808,
      "Äłdim": 8809,
      "Äłhoney": 8810,
      "Äłhidden": 8811,
      "olism": 8812,
      "Äłgrain": 8813,
      "Äłgiant": 8814,
      "ura": 8815,
      "ÄłSet": 8816,
      "ÄłCamp": 8817,
      "ÄłIT": 8818,
      "thm": 8819,
      "ÄłMove": 8820,
      "Äłhence": 8821,
      "ĠÄłpo": 8822,
      "ĠÄłpractice": 8823,
      "Äłrit": 8824,
      "Äłchannel": 8825,
      "Äłdeeper": 8826,
      "ÄłFree": 8827,
      "ĠÄłmembers": 8828,
      "ÄłGall": 8829,
      "Äłenemy": 8830,
      "ffe": 8831,
      "pled": 8832,
      "izabeth": 8833,
      "apse": 8834,
      "ÄłObs": 8835,
      "Äłincident": 8836,
      "aval": 8837,
      "ĠÄłnational": 8838,
      "Äłclothing": 8839,
      "ĠÄłlanguage": 8840,
      "Äłpermission": 8841,
      "Äłunn": 8842,
      "Äłuniform": 8843,
      "ĠÄłAss": 8844,
      "lesh": 8845,
      "Äłroyal": 8846,
      "Äłbless": 8847,
      "Äłraising": 8848,
      "Äłdesert": 8849,
      "awa": 8850,
      "Äłanywhere": 8851,
      "Äłrelations": 8852,
      "Äłindigenous": 8853,
      "forest": 8854,
      "Äłforming": 8855,
      "ĠÄłHis": 8856,
      "Äłsupplements": 8857,
      "Äłtranslation": 8858,
      "Äłtransmitted": 8859,
      "Äłexamined": 8860,
      "ĠÄłRetrieved": 8861,
      "Äłcurve": 8862,
      "ÄłAlaska": 8863,
      "Äłinsight": 8864,
      "ÄłIndust": 8865,
      "Äłclassified": 8866,
      "Äłmetals": 8867,
      "Äłdevelopmental": 8868,
      "Äłtempor": 8869,
      "Äłguess": 8870,
      "Äłengaged": 8871,
      "Äłslaves": 8872,
      "ĠAs": 8873,
      "ĠÄłsuper": 8874,
      "ĠÄłplan": 8875,
      "Äłoccurring": 8876,
      "Äłproviders": 8877,
      "Äłcycles": 8878,
      "Äłlabour": 8879,
      "Äłtaxes": 8880,
      "Äłbalanced": 8881,
      "Äłvariations": 8882,
      "Äłcaptured": 8883,
      "Äłdivine": 8884,
      "Äłprinted": 8885,
      "Äłindependence": 8886,
      "Äłcooling": 8887,
      "Äłconversion": 8888,
      "ĠÄłrequired": 8889,
      "Äłbreath": 8890,
      "Äłflooding": 8891,
      "Äłmistakes": 8892,
      "Äłbranches": 8893,
      "ĠÄłpopulation": 8894,
      "Äłnutritional": 8895,
      "Äłmanufacturers": 8896,
      "Äłaccomplish": 8897,
      "Äłneutral": 8898,
      "ython": 8899,
      "ĠÄłdifficult": 8900,
      "Äłsodium": 8901,
      "ustainable": 8902,
      "Äłlaser": 8903,
      "olescents": 8904,
      "ÄłGeorgia": 8905,
      ")|": 8906,
      "BM": 8907,
      "Co": 8908,
      "Pre": 8909,
      "Today": 8910,
      "auses": 8911,
      "bur": 8912,
      "gov": 8913,
      "lims": 8914,
      "su": 8915,
      "sen": 8916,
      "ugg": 8917,
      "Ä¼": 8918,
      "Ġ20": 8919,
      "Ġcom": 8920,
      "Ġ11": 8921,
      "Ġorg": 8922,
      "Äłtal": 8923,
      "ĠÄłer": 8924,
      "ĠÄłvers": 8925,
      "Äłsister": 8926,
      "Äłsizes": 8927,
      "Äłcatch": 8928,
      "itler": 8929,
      "Äłwelfare": 8930,
      "Äłpra": 8931,
      "asma": 8932,
      "Äłhosp": 8933,
      "Äłhorses": 8934,
      "cho": 8935,
      "ÄłTV": 8936,
      "ÄłTry": 8937,
      "Äłgent": 8938,
      "rared": 8939,
      "verages": 8940,
      "ÄłCat": 8941,
      "ÄłIN": 8942,
      "ifting": 8943,
      "oded": 8944,
      "Äłwithdraw": 8945,
      "Äłalive": 8946,
      "acles": 8947,
      "ĠÄłwild": 8948,
      "Äłexception": 8949,
      "Äłexhaust": 8950,
      "ÄłBack": 8951,
      "ÄłHall": 8952,
      "ÄłDar": 8953,
      "Äłchair": 8954,
      "ÄłEst": 8955,
      "ÄłFort": 8956,
      "Äłleak": 8957,
      "arded": 8958,
      "Äłseverity": 8959,
      "ideo": 8960,
      "ĠÄłhard": 8961,
      "apters": 8962,
      "Äłincidence": 8963,
      "Äłcompound": 8964,
      "assium": 8965,
      "ĠÄłtrue": 8966,
      "Äłmeals": 8967,
      "ÄłStar": 8968,
      "ĠÄłSch": 8969,
      "phia": 8970,
      "Äłtraditions": 8971,
      "aths": 8972,
      "Äłracial": 8973,
      "Äłphosph": 8974,
      "ĠÄłMan": 8975,
      "Äłamb": 8976,
      "ĠÄłwhose": 8977,
      "ommun": 8978,
      "ÄłUnfortunately": 8979,
      "Äłattach": 8980,
      "Äłinfect": 8981,
      "Äłknowing": 8982,
      "cern": 8983,
      "ĠÄłitself": 8984,
      "egree": 8985,
      "ĠÄłWorld": 8986,
      "Äłrefused": 8987,
      "ocket": 8988,
      "Äłmini": 8989,
      "Äłowner": 8990,
      "ĠÄłalready": 8991,
      "claim": 8992,
      "Äłglac": 8993,
      "Äłoccas": 8994,
      "ĠÄłconduct": 8995,
      "Äłreturning": 8996,
[...]
