{
  "version": "1.0",
  "truncation": null,
  "padding": null,
  "added_tokens": [
    {
      "id": 0,
      "content": "<|bos|>",
      "single_word": false,
      "lstrip": false,
      "rstrip": false,
      "normalized": false,
      "special": true
    },
    {
      "id": 1,
      "content": "<|user_start|>",
      "single_word": false,
      "lstrip": false,
      "rstrip": false,
      "normalized": false,
      "special": true
    },
    {
      "id": 2,
      "content": "<|user_end|>",
      "single_word": false,
      "lstrip": false,
      "rstrip": false,
      "normalized": false,
      "special": true
    },
    {
      "id": 3,
      "content": "<|assistant_start|>",
      "single_word": false,
      "lstrip": false,
      "rstrip": false,
      "normalized": false,
      "special": true
    },
    {
      "id": 4,
      "content": "<|assistant_end|>",
      "single_word": false,
      "lstrip": false,
      "rstrip": false,
      "normalized": false,
      "special": true
    },
    {
      "id": 5,
      "content": "<|python_start|>",
      "single_word": false,
      "lstrip": false,
      "rstrip": false,
      "normalized": false,
      "special": true
    },
    {
      "id": 6,
      "content": "<|python_end|>",
      "single_word": false,
      "lstrip": false,
      "rstrip": false,
      "normalized": false,
      "special": true
    },
    {
      "id": 7,
      "content": "<|output_start|>",
      "single_word": false,
      "lstrip": false,
      "rstrip": false,
      "normalized": false,
      "special": true
    },
    {
      "id": 8,
      "content": "<|output_end|>",
      "single_word": false,
      "lstrip": false,
      "rstrip": false,
      "normalized": false,
      "special": true
    },
    {
      "id": 9,
      "content": "<|unk|>",
      "single_word": false,
      "lstrip": false,
      "rstrip": false,
      "normalized": false,
      "special": true
    }
  ],
  "normalizer": null,
  "pre_tokenizer": {
    "type": "Sequence",
    "pretokenizers": [
      {
        "type": "Split",
        "pattern": {
          "Regex": "'(?i:[sdmt]|ll|ve|re)|[^\\r\\n\\p{L}\\p{N}]?+\\p{L}+|\\p{N}{1,2}| ?[^\\s\\p{L}\\p{N}]++[\\r\\n]*|\\s*[\\r\\n]|\\s+(?!\\S)|\\s+"
        },
        "behavior": "Isolated",
        "invert": false
      },
      {
        "type": "ByteLevel",
        "add_prefix_space": false,
        "trim_offsets": true,
        "use_regex": false
      }
    ]
  },
  "post_processor": {
    "type": "TemplateProcessing",
    "single": [
      {
        "Sequence": {
          "id": "A",
          "type_id": 0
        }
      }
    ],
    "pair": [
      {
        "Sequence": {
          "id": "A",
          "type_id": 0
        }
      },
      {
        "Sequence": {
          "id": "B",
          "type_id": 1
        }
      }
    ],
    "special_tokens": {}
  },
  "decoder": {
    "type": "ByteLevel",
    "add_prefix_space": true,
    "trim_offsets": true,
    "use_regex": true
  },
  "model": {
    "type": "Unigram",
    "unk_id": 9,
    "vocab": [
      [
        "<|bos|>",
        -1.0
      ],
      [
        "<|user_start|>",
        -1.0
      ],
      [
        "<|user_end|>",
        -1.0
      ],
      [
        "<|assistant_start|>",
        -1.0
      ],
      [
        "<|assistant_end|>",
        -1.0
      ],
      [
        "<|python_start|>",
        -1.0
      ],
      [
        "<|python_end|>",
        -1.0
      ],
      [
        "<|output_start|>",
        -1.0
      ],
      [
        "<|output_end|>",
        -1.0
      ],
      [
        "<|unk|>",
        -1.0
      ],
      [
        "ĠkumaÅŁ",
        -1.0
      ],
      [
        "ĠÙĬØ¶Ø·Ø±",
        -1.0
      ],
      [
        "cession",
        -1.0
      ],
      [
        "åįģä¸ī",
        -1.0
      ],
      [
        "Ġtente",
        -1.0
      ],
      [
        "ĠØ¢ÙĥÙĦ",
        -1.0
      ],
      [
        "ww",
        -1.0
      ],
      [
        "ĠØ§ÙĦØ³Ø±ÙĬØ§ÙĨÙĬ",
        -1.0
      ],
      [
        "æİĪæ¬Ĭ",
        -1.0
      ],
      [
        "ĠØªÙģØ³Ø±",
        -1.0
      ],
      [
        "melisiniz",
        -1.0
      ],
      [
        "Ġelectromagnetic",
        -1.0
      ],
      [
        "ÑģÐ¾ÑĤ",
        -1.0
      ],
      [
        "à¸Īà¸Ńà¸¡à¸ŀà¸¥",
        -1.0
      ],
      [
        "ÐļÐŁ",
        -1.0
      ],
      [
        "ĠLegion",
        -1.0
      ],
      [
        "ä»ĸçļĦæķ°çĽ®æĺ¯åħŃçĻ¾åħŃåįģåħŃ",
        -1.0
      ],
      [
        "Ġmodeling",
        -1.0
      ],
      [
        "ĠdÃ¶nemler",
        -1.0
      ],
      [
        "à±ģà°ķà°²à°ķ",
        -1.0
      ],
      [
        "ĠØªÙĥØªÙħÙĦ",
        -1.0
      ],
      [
        "Ġtopar",
        -1.0
      ],
      [
        "ĠØ§ÙĦØªØ³ÙħÙĬØ©",
        -1.0
      ],
      [
        "ÙħØ´Ø§Ø±ÙĥØ§Øª",
        -1.0
      ],
      [
        "Ġleft",
        -1.0
      ],
      [
        "port",
        -1.0
      ],
      [
        "ÑģÐºÐ°Ð¶Ð¸ÑĤÐµ",
        -1.0
      ],
      [
        "ĠMayor",
        -1.0
      ],
      [
        "ĠØ§ÙĦÙħØªØ§Ø¨Ø¹Ø©",
        -1.0
      ],
      [
        "ĠÑĥÑĩÐ°ÑģÑĤÐºÐ¾Ð²",
        -1.0
      ],
      [
        "ĠØ´Ø§Ø±Ùĥ",
        -1.0
      ],
      [
        "Ġpersua",
        -1.0
      ],
      [
        "spot",
        -1.0
      ],
      [
        "ĠÑĥÐ²Ð¸Ð´ÐµÐ»Ð°",
        -1.0
      ],
      [
        "ĠØ§ÙĦØ§ÙĨØ¨ÙĬØ§Ø¡",
        -1.0
      ],
      [
        "ĠPriceline",
        -1.0
      ],
      [
        "ĠHighway",
        -1.0
      ],
      [
        "ĠÙĪØ¥Ø·ÙĦØ§ÙĤ",
        -1.0
      ],
      [
        "Ġrich",
        -1.0
      ],
      [
        "ĠØ§ÙĦÙħØ³Ø§ÙģØ±ÙĬÙĨ",
        -1.0
      ],
      [
        "Ġduman",
        -1.0
      ],
      [
        "ĠÃ§evrilmiÅŁ",
        -1.0
      ],
      [
        "à°¬à°²",
        -1.0
      ],
      [
        "Ġpolice",
        -1.0
      ],
      [
        "Imam",
        -1.0
      ],
      [
        "ä¸īç¨®",
        -1.0
      ],
      [
        "ĠØ§ÙĦØ°ÙĥÙĬØ©",
        -1.0
      ],
      [
        "ĠØ§ÙĦÙħØ¶Ø§Ø¹ÙģØ§Øª",
        -1.0
      ],
      [
        "ĠØ§ÙĬØ±Ø§Ø¯Ø§Øª",
        -1.0
      ],
      [
        "Ġà¤¬à¤¹à¤¨",
        -1.0
      ],
      [
        "à¸´à¸Ļà¸Ĺà¸²à¸ĩà¸ģà¸¥",
        -1.0
      ],
      [
        "ĠÙĬØªÙħØ³Ùĥ",
        -1.0
      ],
      [
        "ĠÐ¿Ð°Ð»Ð°Ñĩ",
        -1.0
      ],
      [
        "ĠÐĲÐ´Ð¼Ð¸Ð½Ð¸ÑģÑĤÑĢÐ°ÑĨÐ¸Ñı",
        -1.0
      ],
      [
        "Ġtespit",
        -1.0
      ],
      [
        "ĠÙĨÙħØ·",
        -1.0
      ],
      [
        "à¸¡à¹Ģà¸ļ",
        -1.0
      ],
      [
        "Ġtable",
        -1.0
      ],
      [
        "ĠØ´Ø¯",
        -1.0
      ],
      [
        "ĠÙĬÙĪØŃÙĨØ§",
        -1.0
      ],
      [
        "ELLÄ°KLE",
        -1.0
      ],
      [
        "Ġdesenlerin",
        -1.0
      ],
      [
        "Ġfacilite",
        -1.0
      ],
      [
        "Ġgender",
        -1.0
      ],
      [
        "ĠÐ¾ÑĤÐºÐ°Ð·Ð°",
        -1.0
      ],
      [
        "ĠØ§Ø³ØªØ´Ø§Ø±Ø©",
        -1.0
      ],
      [
        "ĠØ¨Ø¹Ø¶ÙĩØ§",
        -1.0
      ],
      [
        "ĠÙģØ´ÙĬØ¦Ø§",
        -1.0
      ],
      [
        "mdan",
        -1.0
      ],
      [
        "ĠKUWA",
        -1.0
      ],
      [
        "people",
        -1.0
      ],
      [
        "ĠSONNERY",
        -1.0
      ],
      [
        "ĠÐ°Ð·Ð°ÑĢÑĤÐ½ÑĭÐµ",
        -1.0
      ],
      [
        "ĠØ¨Ø§ÙĦØ·",
        -1.0
      ],
      [
        "ĠgÃ¶zle",
        -1.0
      ],
      [
        "ĠÙģØ¥ÙĨÙĨØ§",
        -1.0
      ],
      [
        "ĠØ§ÙĦØªÙĬØ§Ø±Ø§Øª",
        -1.0
      ],
      [
        "ĠØ§ÙĦØ§Ø³ØªØ¬Ø§Ø¨Ø©",
        -1.0
      ],
      [
        "ĠÙĪØ§ÙĦÙħÙĬÙĪÙĦ",
        -1.0
      ],
      [
        "ĠØ§ÙĦØªØ¹",
        -1.0
      ],
      [
        "é¡Į",
        -1.0
      ],
      [
        "ĠØ§ÙĦÙĪØ²Ø§Ø±Ø©",
        -1.0
      ],
      [
        "ĠØ§ÙĦÙĥÙħ",
        -1.0
      ],
      [
        "Ġnano",
        -1.0
      ],
      [
        "à¸Ħà¸Ńà¸£",
        -1.0
      ],
      [
        "vumilia",
        -1.0
      ],
      [
        "Ġlance",
        -1.0
      ],
      [
        "Wakazi",
        -1.0
      ],
      [
        "åºĶæĢ¥",
        -1.0
      ],
      [
        "ĠÐºÐ°ÐºÐ¾Ð¼",
        -1.0
      ],
      [
        "leÅŁen",
        -1.0
      ],
      [
        "ĠØ§ÙĦØ¨ÙĨÙī",
        -1.0
      ],
      [
        "à¸Ļà¸ģà¸£à¸Ńà¸ĩ",
        -1.0
      ],
      [
        "==",
        -1.0
      ],
      [
        "à¸´à¸Ļà¹Ģà¸Ľ",
        -1.0
      ],
      [
        "ĠÑĦÐ»ÐµÑĪ",
        -1.0
      ],
      [
        "à±Ĩà°²à°¨",
        -1.0
      ],
      [
        "Mardin",
        -1.0
      ],
      [
        "çĲĨè«ĸ",
        -1.0
      ],
      [
        "ĠØ§ÙĦÙģØ¦Ø§Øª",
        -1.0
      ],
      [
        "ĠØ·ÙĪØ§ÙĦ",
        -1.0
      ],
      [
        "è¿ĩç¨ĭä¸Ń",
        -1.0
      ],
      [
        "TÃ¼m",
        -1.0
      ],
      [
        "à¹īà¹Ģà¸§à¸¥à¸²à¸ĸ",
        -1.0
      ],
      [
        "ĠØ¨ØµÙĪØ±Ø©",
        -1.0
      ],
      [
        "Ġà¤Łà¤ķ",
        -1.0
      ],
      [
        "ï¼Įè¯´",
        -1.0
      ],
      [
        "à±ģà°¬à°¡",
        -1.0
      ],
      [
        "Ø£Ø®",
        -1.0
      ],
      [
        "à¸´à¸ģà¸°",
        -1.0
      ],
      [
        "Ġà¤ıà¤ķà¤²",
        -1.0
      ],
      [
        "ÐļÑĥÐ½ÑģÑĤÐºÐ°Ð¼ÐµÑĢÐ°",
        -1.0
      ],
      [
        "è¶ħå¸Ĥ",
        -1.0
      ],
      [
        "Ġkis",
        -1.0
      ],
      [
        "-ÐĽ",
        -1.0
      ],
      [
        "èį¯åİĤ",
        -1.0
      ],
      [
        "tron",
        -1.0
      ],
      [
        "mba",
        -1.0
      ],
      [
        "ĠÙĪÙĬØ³ÙĥÙĨ",
        -1.0
      ],
      [
        "è´¦æĪ·",
        -1.0
      ],
      [
        "ologie",
        -1.0
      ],
      [
        "Ġresult",
        -1.0
      ],
      [
        "ĠØµØ§Ø±ÙĪØ®",
        -1.0
      ],
      [
        "ĠØ§ÙĦØ²Ø¬Ø§Ø¬",
        -1.0
      ],
      [
        "Ġæĵįä½ľä»ĭéĿ¢æĶ¯æı´å¤ļåľĭèªŀ",
        -1.0
      ],
      [
        "Ġrayons",
        -1.0
      ],
      [
        "à±ĭà°²à°ķ",
        -1.0
      ],
      [
        "Ä±lmaya",
        -1.0
      ],
      [
        "æĹłéľĢ",
        -1.0
      ],
      [
        "è²¡åĭĻ",
        -1.0
      ],
      [
        "ĠfirmamÄ±z",
        -1.0
      ],
      [
        "ĠÐºÑĢÑĥÐ¿Ð½ÑĭÐ¼",
        -1.0
      ],
      [
        "Ġmantiki",
        -1.0
      ],
      [
        "Protein",
        -1.0
      ],
      [
        "ĠÑĢÐ°Ð±Ð¾ÑĤÐ°Ð»Ð¸",
        -1.0
      ],
      [
        "ĠÐ³ÑĥÐ±ÐµÑĢÐ½",
        -1.0
      ],
      [
        "è°Īèµ·",
        -1.0
      ],
      [
        "ĠØ¨ØªØ³Ø¬ÙĬÙĦ",
        -1.0
      ],
      [
        "Ġcorps",
        -1.0
      ],
      [
        "ĠÐĲÑģÑĦÐµÐ½Ð´Ð¸ÑıÑĢÐ¾Ð²Ð°",
        -1.0
      ],
      [
        "Ġà¸Ńà¸²à¸«à¸²à¸£",
        -1.0
      ],
      [
        "ÑĢÐ½Ð¾Ðµ",
        -1.0
      ],
      [
        "à¸¸à¸Ļ",
        -1.0
      ],
      [
        "ĠÑĤÐ¾Ð»ÑģÑĤ",
        -1.0
      ],
      [
        "Ġabri",
        -1.0
      ],
      [
        "Ġphase",
        -1.0
      ],
      [
        "ĠFantasy",
        -1.0
      ],
      [
        "ĠIvory",
        -1.0
      ],
      [
        "à¹īà¸§à¹Ģà¸Ľ",
        -1.0
      ],
      [
        "à¥ģà¤¬à¤Ī",
        -1.0
      ],
      [
        "Ġdevoted",
        -1.0
      ],
      [
        "Ġusumbufu",
        -1.0
      ],
      [
        "ĠÙħÙħÙĦÙĪ",
        -1.0
      ],
      [
        "Mr",
        -1.0
      ],
      [
        "ĠØ§ÙĦÙħØ´ÙĩÙĪØ¯",
        -1.0
      ],
      [
        "Ġminister",
        -1.0
      ],
      [
        "Ø§ÙħÙĬÙĨ",
        -1.0
      ],
      [
        "ĠÐ¿Ð¾ÐºÐ»Ð¾Ð½",
        -1.0
      ],
      [
        "ĠgÃ©",
        -1.0
      ],
      [
        "à¸Ľà¸§à¸²à¸£à¸ĵà¸²",
        -1.0
      ],
      [
        "ĠyazÄ±",
        -1.0
      ],
      [
        "åıĳéĢģ",
        -1.0
      ],
      [
        "ĠÙħÙģÙĬØ¯Ø§",
        -1.0
      ],
      [
        "à°¾à°łà°¶",
        -1.0
      ],
      [
        "ĠØ§ÙĦØªÙĪØ¨Ø©",
        -1.0
      ],
      [
        "à¸±à¸įà¸Ī",
        -1.0
      ],
      [
        "ĠÙĪØ§ÙĨØª",
        -1.0
      ],
      [
        "mergence",
        -1.0
      ],
      [
        "à¸·à¸Ńà¸Ļà¸ģà¸£à¸ģà¸İà¸²à¸Ħà¸¡",
        -1.0
      ],
      [
        "Ġexisted",
        -1.0
      ],
      [
        "ĠDecor",
        -1.0
      ],
      [
        "Ġmasi",
        -1.0
      ],
      [
        "èµ·å±ħå®¤",
        -1.0
      ],
      [
        "aus",
        -1.0
      ],
      [
        "éĺ¿èĴĻä¼Ĭå°¼æµ·æ»©åº¦åģĩæĿĳåıĬæ°´çĸĹä¸Ńå¿ĥ",
        -1.0
      ],
      [
        "ĠATF",
        -1.0
      ],
      [
        "ĠAffaires",
        -1.0
      ],
      [
        "ĠÙĪÙĦÙĩÙħ",
        -1.0
      ],
      [
        "à¸ĩà¹Ģà¸Ļ",
        -1.0
      ],
      [
        "ĠVienna",
        -1.0
      ],
      [
        "ĠÙĬØªÙĪØµÙĦ",
        -1.0
      ],
      [
        "ĠÐ¿ÑĢÐ¾ÑģÐ¼Ð°ÑĤÑĢÐ¸Ð²",
        -1.0
      ],
      [
        "Ġà¸ķà¸Ńà¸Ļà¸Ļ",
        -1.0
      ],
      [
        "åħ¬åħ±åĮºåŁŁç©ºè°ĥ",
        -1.0
      ],
      [
        "ĠÑģÑĤÑĢÐ¾Ð¸ÑĤÐµÐ»ÑĮÑģÑĤÐ²Ð¾",
        -1.0
      ],
      [
        "ĠØ§ÙĦÙħØ·Ø§Ø¹Ùħ",
        -1.0
      ],
      [
        "ĠadlandÄ±r",
        -1.0
      ],
      [
        "ĠÐŁÐ¾Ð»Ð¸",
        -1.0
      ],
      [
        "cÄ±n",
        -1.0
      ],
      [
        "à¸£à¸°à¸Ľà¸£à¸Ħà¸Ļà¸ĺà¸£à¸£à¸ŀ",
        -1.0
      ],
      [
        "ĠÙĬØ³ÙĤØ·",
        -1.0
      ],
      [
        "ĠÙĦØ§Ø®ØªÙĬØ§Ø±",
        -1.0
      ],
      [
        "ĠSenior",
        -1.0
      ],
      [
        "ĠsancaÄŁÄ±na",
        -1.0
      ],
      [
        "ĠØ§ÙĦÙĬØ¯",
        -1.0
      ],
      [
        "ĠHamilton",
        -1.0
      ],
      [
        "à°°à°¹",
        -1.0
      ],
      [
        "Ġconnais",
        -1.0
      ],
      [
        "à¸±à¸Ķà¸ļ",
        -1.0
      ],
      [
        "Ġkumwokoa",
        -1.0
      ],
      [
        "ĠSor",
        -1.0
      ],
      [
        "Ø§ÙĦÙħØ·ÙĦÙĪØ¨",
        -1.0
      ],
      [
        "à¸´à¸¡à¸ķ",
        -1.0
      ],
      [
        "ĠØ§ÙĦØ£Ø´Ø±Ø·Ø©",
        -1.0
      ],
      [
        "Ġtiens",
        -1.0
      ],
      [
        "ĠJulius",
        -1.0
      ],
      [
        "Ġdesteklenen",
        -1.0
      ],
      [
        "Ġelektronik",
        -1.0
      ],
      [
        "Ġfacebook",
        -1.0
      ],
      [
        "ĠYAPI",
        -1.0
      ],
      [
        "à¹Ģà¸§",
        -1.0
      ],
      [
        "ĠdÃ¼ÅŁtÃ¼ÄŁÃ¼",
        -1.0
      ],
      [
        "Illustrations",
        -1.0
      ],
      [
        "ĠÙĨÙĪØ¹ÙĬØ©",
        -1.0
      ],
      [
        "front",
        -1.0
      ],
      [
        "à¸±à¸¢à¸«à¸£",
        -1.0
      ],
      [
        "Ð½ÑıÑı",
        -1.0
      ],
      [
        "å«ģ",
        -1.0
      ],
      [
        "Ġsentensi",
        -1.0
      ],
      [
        "Ġà¸Ľà¸£à¸°à¹Ģà¸Ĺà¸¨",
        -1.0
      ],
      [
        "ĠsÄ±caklÄ±k",
        -1.0
      ],
      [
        "Ġdist",
        -1.0
      ],
      [
        "ĠØ§ÙĦÙħØªØªØ§ÙĦÙĬØ©",
        -1.0
      ],
      [
        "ÐĴÐ¾Ð»ÑĪÐµÐ±Ð½",
        -1.0
      ],
      [
        "Ġnation",
        -1.0
      ],
      [
        "à¥Ĥà¤ģ.Ċ",
        -1.0
      ],
      [
        "ĠAndyDufresne",
        -1.0
      ],
      [
        "å¦ĤæŃ¤",
        -1.0
      ],
      [
        "à¸ªà¸²à¸¡à¸²à¸£à¸ĸà¸Ħ",
        -1.0
      ],
      [
        "ĠÐ¿ÑĢÐ¾Ð¸Ð·Ð²Ð¾Ð´Ð¸ÑĤ",
        -1.0
      ],
      [
        "Ġmemur",
        -1.0
      ],
      [
        "èħ°éĥ¨",
        -1.0
      ],
      [
        "Ġconjoint",
        -1.0
      ],
      [
        "ĠÐ¿ÑĢÐ¸Ð»Ð¾Ð¶ÐµÐ½Ð¸Ðµ",
        -1.0
      ],
      [
        "likuwa",
        -1.0
      ],
      [
        "Ġprices",
        -1.0
      ],
      [
        "ĠÙĦÙĩ",
        -1.0
      ],
      [
        "Ø¹ÙĬ",
        -1.0
      ],
      [
        "-à¤®",
        -1.0
      ],
      [
        "ĠÑĢÐ°Ð¹Ð¾Ð½",
        -1.0
      ],
      [
        "ĠtrÃ©sorier",
        -1.0
      ],
      [
        "à¹īà¸¢à¸ģ",
        -1.0
      ],
      [
        "åĪ¤åĨ³",
        -1.0
      ],
      [
        "ĠÐ³Ð¾ÑģÐ¿Ð¸ÑĤÐ°Ð»Ðµ",
        -1.0
      ],
      [
        "ĠÑģÐ²ÑıÐ·Ð°Ð½Ð½ÑĭÐµ",
        -1.0
      ],
      [
        "åĮħæĭ¬ä½Ĩä¸įéĻĲæĸ¼",
        -1.0
      ],
      [
        "Ġgeldigi",
        -1.0
      ],
      [
        "ĠCongrÃ¨s",
        -1.0
      ],
      [
        "ĠkÃ¼vet",
        -1.0
      ],
      [
        "Ġkumuomba",
        -1.0
      ],
      [
        "Ġreporters",
        -1.0
      ],
      [
        "Ġtahrip",
        -1.0
      ],
      [
        "ĠØ¨ØŃØ§ÙĦØ©",
        -1.0
      ],
      [
        "Ġsesi",
        -1.0
      ],
      [
        "Ġyepyeni",
        -1.0
      ],
      [
        "Ġbaz",
        -1.0
      ],
      [
        "afikiana",
        -1.0
      ],
      [
        "é¦ĸåħĪ",
        -1.0
      ],
      [
        "ÐŃÐĽÐķÐľÐķÐĿÐ¢",
        -1.0
      ],
      [
        "HTC",
        -1.0
      ],
      [
        "ĠaÃ§Ä±p",
        -1.0
      ],
      [
        "ĠÐµÑħÐ°ÑĤÑĮ",
        -1.0
      ],
      [
        "ĠØ§ÙĥÙĪÙĨ",
        -1.0
      ],
      [
        "ĠØŃØµÙĪÙĦ",
        -1.0
      ],
      [
        "à±Ī,",
        -1.0
      ],
      [
        "Ġsignification",
        -1.0
      ],
      [
        "ĠØªØŃØ³ÙĬÙĨ",
        -1.0
      ],
      [
        "æĹ¥çķªè°·å°ıéļĬ",
        -1.0
      ],
      [
        "Ġhasara",
        -1.0
      ],
      [
        "ĠPillay",
        -1.0
      ],
      [
        "Ġkamati",
        -1.0
      ],
      [
        "å¦Ĥä½ķåľ¨",
        -1.0
      ],
      [
        "ĠÐĿÐ°Ð²ÑĥÑħÐ¾Ð´Ð¾Ð½Ð¾ÑģÐ¾ÑĢ",
        -1.0
      ],
      [
        "ĠØ§ÙĦÙģØ±ÙĨØ³ÙĬ",
        -1.0
      ],
      [
        "ĠØ£ÙĪØµ",
        -1.0
      ],
      [
        "Design",
        -1.0
      ],
      [
        "à±ĩà°¯à°¬",
        -1.0
      ],
      [
        "Ġà¸Ĺà¸Ńà¸ĩà¸¥",
        -1.0
      ],
      [
        "à¸¹à¹Ģà¸£",
        -1.0
      ],
      [
        "à¸±à¸ķà¸£à¸²à¸ª",
        -1.0
      ],
      [
        "maktadÄ±r",
        -1.0
      ],
      [
        "-Kotafon",
        -1.0
      ],
      [
        "ĠØ§ÙĦÙģØ¹Ø§ÙĦ",
        -1.0
      ],
      [
        "Ġzinaonesha",
        -1.0
      ],
      [
        "åħ³å¿ĥ",
        -1.0
      ],
      [
        "Ġimepata",
        -1.0
      ],
      [
        "èŃ¦æĸ¹",
        -1.0
      ],
      [
        "Ġà¸Ļà¸²à¸¢à¸ģà¸£",
        -1.0
      ],
      [
        "ĠeÅŁsiz",
        -1.0
      ],
      [
        "ç±»ä¼¼çļĦ",
        -1.0
      ],
      [
        "ĠyanÄ±tÄ±n",
        -1.0
      ],
      [
        "Ġra",
        -1.0
      ],
      [
        "ĠMassachusetts",
        -1.0
      ],
      [
        "ĠÐŃÐ³Ð½Ð¾ÑĢ",
        -1.0
      ],
      [
        "ĠyÄ±",
        -1.0
      ],
      [
        "LIK",
        -1.0
      ],
      [
        "From",
        -1.0
      ],
      [
        "è¨Ŀçķ°",
        -1.0
      ],
      [
        "Ð½Ð°Ñı",
        -1.0
      ],
      [
        "âĢĻessentiel",
        -1.0
      ],
      [
        "ĠÙĬÙĪØ¨ÙĪÙĦØ¯ÙģÙĬÙĦ",
        -1.0
      ],
      [
        "Ġà¤¸à¤¹à¤²",
        -1.0
      ],
      [
        "sisitizia",
        -1.0
      ],
      [
        "ĠÐĲÐ»ÐµÐºÑģÐ°Ð½Ð´ÑĢ",
        -1.0
      ],
      [
        "Ġnetworks",
        -1.0
      ],
      [
        "Ġantioxidant",
        -1.0
      ],
      [
        "Ġsamples",
        -1.0
      ],
      [
        "ĠÙĬÙĤÙĪØ¯ÙĩØ§",
        -1.0
      ],
      [
        "æ°ĳæ¬Ĭè¥¿è·¯",
        -1.0
      ],
      [
        "ĠÙĦÙĦØŃØ±Ø§Ø±Ø©",
        -1.0
      ],
      [
        "à¸Ĺà¸²à¸ĩà¸ģà¸²à¸£à¹Ģà¸¡",
        -1.0
      ],
      [
        "Ġfinancier",
        -1.0
      ],
      [
        "à¹īà¸§à¹Ģà¸£à¸²",
        -1.0
      ],
      [
        "Ġsait",
        -1.0
      ],
      [
        "Ð¿Ð¾Ð²",
        -1.0
      ],
      [
        "Ä°nsan",
        -1.0
      ],
      [
        "ĠÙĪØ§ÙĦØ²",
        -1.0
      ],
      [
        "ï¼ĮèĢĮä¸Ķåľ¨",
        -1.0
      ],
      [
        "åıĪæľī",
        -1.0
      ],
      [
        "ĠÐ´Ð¾Ð¿Ð¾Ð»Ð½Ð¸ÑĤÐµÐ»ÑĮÐ½Ð¾Ðµ",
        -1.0
      ],
      [
        "Ġmorts",
        -1.0
      ],
      [
        "zunguukwa",
        -1.0
      ],
      [
        "à¸§à¸²à¸ĩ",
        -1.0
      ],
      [
        "ĠÙģÙĪØ±",
        -1.0
      ],
      [
        "ĠÙĪØ¥Ø¹Ø§Ø¯Ø©",
        -1.0
      ],
      [
        "ĠÐºÐ¾Ð½ÑĨÑĥ",
        -1.0
      ],
      [
        "èĸª",
        -1.0
      ],
      [
        "ĠØ¥ØºÙĦØ§ÙĤ",
        -1.0
      ],
      [
        "à±ĩ.",
        -1.0
      ],
      [
        "kosoa",
        -1.0
      ],
      [
        "Ġimparator",
        -1.0
      ],
      [
        "ĠÐ¾Ð±ÑīÐµÐ¿ÑĢÐ¸Ð½ÑıÑĤ",
        -1.0
      ],
      [
        "ÑĪÐµÑĢ",
        -1.0
      ],
      [
        "ThaiRunning",
        -1.0
      ],
      [
        "à¸±à¸§à¹ĥà¸Īà¹Ģà¸ķ",
        -1.0
      ],
      [
        "ĠtÃ¼ken",
        -1.0
      ],
      [
        "ĠdÄ±ÅŁÄ±ndaki",
        -1.0
      ],
      [
        "Ġkonuklar",
        -1.0
      ],
      [
        "ĠÙģÙĩØ¤ÙĦØ§Ø¡",
        -1.0
      ],
      [
        "Ġtelecommunication",
        -1.0
      ],
      [
        "ĠÐ½Ð°Ð´Ð¿Ð¸ÑģÑĮÑİ",
        -1.0
      ],
      [
        "Ġrecruitment",
        -1.0
      ],
      [
        "Ð²Ñģ",
        -1.0
      ],
      [
        "'exercer",
        -1.0
      ],
      [
        "çļĦç¨ĭåº¦",
        -1.0
      ],
      [
        "ĠÙĪØ£ÙĨÙĩÙħ",
        -1.0
      ],
      [
        "ĠÙĪØ¨ÙĤÙĬ",
        -1.0
      ],
      [
        "Ġwam",
        -1.0
      ],
      [
        "ĠÙĪØ¨Ø¹Ø¯Ùĩ",
        -1.0
      ],
      [
        "izme",
        -1.0
      ],
      [
        "èµµ",
        -1.0
      ],
      [
        "ĠÙĦØ§ØŃØ¯",
        -1.0
      ],
      [
        "à¸´à¹Ĥà¸¥à¹Ģà¸¡à¸ķà¸£",
        -1.0
      ],
      [
        "Ġtandis",
        -1.0
      ],
      [
        "à¸±à¸ĩà¸Ĺ",
        -1.0
      ],
      [
        "æĽ¿ä½ł",
        -1.0
      ],
      [
        "Ġisingekuwa",
        -1.0
      ],
      [
        "Ġpalette",
        -1.0
      ],
      [
        "CorkiçļĦ",
        -1.0
      ],
      [
        "à¸´à¹Ĥà¸Ļ",
        -1.0
      ],
      [
        "ĠDanimarka",
        -1.0
      ],
      [
        "èĤł",
        -1.0
      ],
      [
        "Ġtavuk",
        -1.0
      ],
      [
        "ĠÐ¼Ð¾Ð¶ÐµÑĤÐµ",
        -1.0
      ],
      [
        "ĠØ§ÙĦÙĦØµÙĪØµ",
        -1.0
      ],
      [
        "Ù§Ù¨",
        -1.0
      ],
      [
        "ĠSeason",
        -1.0
      ],
      [
        "ĠMecburi",
        -1.0
      ],
      [
        "ĠMilli",
        -1.0
      ],
      [
        "wekwa",
        -1.0
      ],
      [
        "ĠØ§ÙĦØ´ÙħØ³",
        -1.0
      ],
      [
        "ĠÐ¼ÐµÐ½ÑĮÑĪÐµÐ¹",
        -1.0
      ],
      [
        "à¹īà¹Ģà¸Ħà¸£",
        -1.0
      ],
      [
        "ĠØµØ§Ø¦Ùħ",
        -1.0
      ],
      [
        "ĠkullanÄ±lmak",
        -1.0
      ],
      [
        "çļĦæĵįä½ľ",
        -1.0
      ],
      [
        "äºĭçļĦ",
        -1.0
      ],
      [
        "ĠØ«ÙĦØ§Ø«Ø§",
        -1.0
      ],
      [
        "çº¢åĮħ",
        -1.0
      ],
      [
        "ĠTufail",
        -1.0
      ],
      [
        "ĠkalkÄ±p",
        -1.0
      ],
      [
        "åı¯ä»¥ä½¿çĶ¨",
        -1.0
      ],
      [
        "à°¾'",
        -1.0
      ],
      [
        "Ġenhance",
        -1.0
      ],
      [
        "pewa",
        -1.0
      ],
      [
        "Ġpresented",
        -1.0
      ],
      [
        "Tennessee",
        -1.0
      ],
      [
        "à°¾à°®à°ķà°°à°£",
        -1.0
      ],
      [
        "Ø²Ùħ",
        -1.0
      ],
      [
        "'ordre",
        -1.0
      ],
      [
        "Ġeliminating",
        -1.0
      ],
      [
        "ĠØ¨ØµÙĨØ¹Ø§Ø¡",
        -1.0
      ],
      [
        "ĠtanÄ±ma",
        -1.0
      ],
      [
        "Ġkiburi",
        -1.0
      ],
      [
        "ĠÃ©normÃ©ment",
        -1.0
      ],
      [
        "ĠØ§ÙĦØ¨Ø·Ø§ÙĤØ©",
        -1.0
      ],
      [
        "à¸¹à¸Ķà¸Īà¸²",
        -1.0
      ],
      [
        "è§ģéĿ¢",
        -1.0
      ],
      [
        "ĠMetadata",
        -1.0
      ],
      [
        "è³ĩæĸĻå¤¾",
        -1.0
      ],
      [
        "-of",
        -1.0
      ],
      [
        "ĠÙĪØ§ÙĦØ¹Ø§ÙĦÙħ",
        -1.0
      ],
      [
        "éĥ¨éĸĢ",
        -1.0
      ],
      [
        "å¤¸å¼ł",
        -1.0
      ],
      [
        "Ġà°«à°£",
        -1.0
      ],
      [
        "ĠØ§ÙĦÙħÙĩØªÙħÙĬÙĨ",
        -1.0
      ],
      [
        "Ø¬Ø¨Ø§Øª",
        -1.0
      ],
      [
        "Ø°Ø§Ø¨",
        -1.0
      ],
      [
        "ĠØ£ØªÙħ",
        -1.0
      ],
      [
        "à¹īà¸Ńà¸ĩà¸§à¸ĩà¸Īà¸£à¸Ľ",
        -1.0
      ],
      [
        "Ġessai",
        -1.0
      ],
      [
        "ÒļÐ°Ð·Ð°ÒĽ",
        -1.0
      ],
      [
        "âĢĻAr",
        -1.0
      ],
      [
        "ï¼ĮçŃī",
        -1.0
      ],
      [
        "Ġdhihirisho",
        -1.0
      ],
      [
        "Ġkujifungua",
        -1.0
      ],
      [
        "ĠUzman",
        -1.0
      ],
      [
        "ĠÙĨØ§ÙĨÙĪ",
        -1.0
      ],
      [
        "è¿«å®³",
        -1.0
      ],
      [
        "kl",
        -1.0
      ],
      [
        "à¤¿à¤¨à¤¸",
        -1.0
      ],
      [
        "ĠØ§ÙĦØ¹Ø´ÙĪØ§Ø¦ÙĬ",
        -1.0
      ],
      [
        "ĠkÃ¶yleri",
        -1.0
      ],
      [
        "à¹īà¸§à¸¢à¸£à¸°à¸ļà¸ļ",
        -1.0
      ],
      [
        "ess",
        -1.0
      ],
      [
        "Ġaldat",
        -1.0
      ],
      [
        "Ð°ÑĨÐ¸Ñı",
        -1.0
      ],
      [
        "à¸´à¸Ľà¸¥",
        -1.0
      ],
      [
        "ç¦»cityterminalen",
        -1.0
      ],
      [
        "ĠØ§ÙĦØ«ÙħØ§ÙĨÙĬØ©",
        -1.0
      ],
      [
        "Ġmasa",
        -1.0
      ],
      [
        "ĠÐ±ÑĭÑģÑĤÑĢÐ¾Ðµ",
        -1.0
      ],
      [
        "à±Ĥà°¡à°¡",
        -1.0
      ],
      [
        "Ġkuchukuliwa",
        -1.0
      ],
      [
        "à¥ģà¤¯",
        -1.0
      ],
      [
        "Ġata",
        -1.0
      ],
      [
        "Ġvitu",
        -1.0
      ],
      [
        "ĠØ¨ÙħØ±ÙĥØ²",
        -1.0
      ],
      [
        "Ð¶",
        -1.0
      ],
      [
        "à¸´à¹ģà¸ģ",
        -1.0
      ],
      [
        "Ġà¸Ħà¸£",
        -1.0
      ],
      [
        "tengewa",
        -1.0
      ],
      [
        "ĠÐĽÐµÐ±ÐµÐ´ÐµÐ²",
        -1.0
      ],
      [
        "Jibu",
        -1.0
      ],
      [
        "à¸ķ",
        -1.0
      ],
      [
        "ĠScene",
        -1.0
      ],
      [
        "Ġautrement",
        -1.0
      ],
      [
        "ĠgÃ©nÃ©tiquement",
        -1.0
      ],
      [
        "ĠÑĢÐµÑĩÐ¸",
        -1.0
      ],
      [
        "!ĊĊĊ",
        -1.0
      ],
      [
        "à¸Ļà¸°à¸Ī",
        -1.0
      ],
      [
        "ĠØ§ÙĦÙħØªØ¨Ø¹Ø©",
        -1.0
      ],
      [
        "main",
        -1.0
      ],
      [
        "Ø¹ØªÙħØ¯",
        -1.0
      ],
      [
        "ÙĬØŃÙĬÙī",
        -1.0
      ],
      [
        "çļĦç»ıæµİ",
        -1.0
      ],
      [
        "Ġsuspension",
        -1.0
      ],
      [
        "ï¼Įç¡®ä¿Ŀ",
        -1.0
      ],
      [
        "Ġpara",
        -1.0
      ],
      [
        "à¸Ļà¹ģà¸«",
        -1.0
      ],
      [
        "Ġviongozi",
        -1.0
      ],
      [
        "ĠØºØ°Ø§Ø¦ÙĬØ©",
        -1.0
      ],
      [
        "ĠkeÅŁfed",
        -1.0
      ],
      [
        "ĠØ²ÙħØ§ÙĨ",
        -1.0
      ],
      [
        "à¸§à¹Ĥà¸¡à¸ĩ",
        -1.0
      ],
      [
        "à¸Ħà¸£à¸ļ",
        -1.0
      ],
      [
        "Ø«ÙĨÙĬÙĨ",
        -1.0
      ],
      [
        "à°¿à°¤à°ª",
        -1.0
      ],
      [
        "Ġå¤ļå®¶è¿ĲèĲ¥åķĨåĬłçłģ",
        -1.0
      ],
      [
        "ĠØ§Ø®ØªØªØ§Ùħ",
        -1.0
      ],
      [
        "âĢľLakini",
        -1.0
      ],
      [
        "à¸´à¸Ļà¹Ģà¸ķà¸Ńà¸£",
        -1.0
      ],
      [
        "ï¼Įé¢ĩ",
        -1.0
      ],
      [
        "ĠØ·ÙĤÙĪØ³",
        -1.0
      ],
      [
        "ĠThink",
        -1.0
      ],
      [
        "èĤĮ",
        -1.0
      ],
      [
        "ĠØ§ÙĤØ§ÙħØªÙĩ",
        -1.0
      ],
      [
        "ĠAnalytics",
        -1.0
      ],
      [
        "Ġleading",
        -1.0
      ],
      [
        "à¸±à¸ĩà¸Ħà¸²à¸¢à¸Ļà¸²",
        -1.0
      ],
      [
        "ĠÐŀÐºÐ¾Ð»Ð¾",
        -1.0
      ],
      [
        "ĠÐĳÐŀÐĸÐķÐ¡Ð¢ÐĴÐķÐĿ",
        -1.0
      ],
      [
        "-ÑĢ",
        -1.0
      ],
      [
        "ĠÐĴÐ¾Ð¾Ð±ÑīÐµ",
        -1.0
      ],
      [
        "ĠÐ¼ÐµÐ»ÑĮ",
        -1.0
      ],
      [
        "Ġpursuing",
        -1.0
      ],
      [
        "åį³åı¯",
        -1.0
      ],
      [
        "Ġappris",
        -1.0
      ],
      [
        "Ġofficially",
        -1.0
      ],
      [
        "ĠÙĪÙĥØ¨Ø§Ø±",
        -1.0
      ],
      [
        "Ġsala",
        -1.0
      ],
      [
        "è»Ĭèĥİ",
        -1.0
      ],
      [
        "Ġkuguguna",
        -1.0
      ],
      [
        "à¹īà¸²à¸Ńà¸ĩà¸Ħ",
        -1.0
      ],
      [
        "ãĢģæĪĸ",
        -1.0
      ],
      [
        "à¸±à¸¢à¸§",
        -1.0
      ],
      [
        "à¥įà¤§à¤¤",
        -1.0
      ],
      [
        "ØªÙģØ§Ø¹",
        -1.0
      ],
      [
        "ĠRaaskamboni",
        -1.0
      ],
      [
        "çĨŁæĤīæĿİçİ®å³°çļĦäººå£«ç§°",
        -1.0
      ],
      [
        "ÐºÐ¾Ð¼",
        -1.0
      ],
      [
        "pata",
        -1.0
      ],
      [
        "ĠHarika",
        -1.0
      ],
      [
        "Ġrookie",
        -1.0
      ],
      [
        "Ġà°§à°°",
        -1.0
      ],
      [
        "onomie",
        -1.0
      ],
      [
        "äºĮä¸ī",
        -1.0
      ],
      [
        "kana",
        -1.0
      ],
      [
        "à±ĭà°¯à°¡",
        -1.0
      ],
      [
        "à¹ģà¸ĭ",
        -1.0
      ],
      [
        "ĠÐ³Ð³",
        -1.0
      ],
      [
        "Ġxxxjapan",
        -1.0
      ],
      [
        "Ġuhalifu",
        -1.0
      ],
      [
        "ĠØ§ÙĦÙħØªØ¨",
        -1.0
      ],
      [
        "ÑģÐ¾ÐµÐ´Ð¸Ð½",
        -1.0
      ],
      [
        "acte",
        -1.0
      ],
      [
        "ĠTÃ¼rkÃ§e",
        -1.0
      ],
      [
        "ĠÐ·Ð°Ð³ÑĢÐ°Ð½Ð¿Ð°ÑģÐ¿Ð¾ÑĢÑĤ",
        -1.0
      ],
      [
        "ĠØ£Ø¶",
        -1.0
      ],
      [
        "èĻŁéĪ£åŁºæ½¤æ»ĳèĦĤ",
        -1.0
      ],
      [
        "à±įà°¥à°ª",
        -1.0
      ],
      [
        "ĠÐ¿ÑĢÐ¾Ð²ÐµÑĢ",
        -1.0
      ],
      [
        "Simba",
        -1.0
      ],
      [
        "Ġromantizm",
        -1.0
      ],
      [
        "ĠÙģÙĤØ¨ÙĦ",
        -1.0
      ],
      [
        "ĠØ®ÙĦÙĬÙģØ©",
        -1.0
      ],
      [
        "ĠÅŁÃ¶yledir",
        -1.0
      ],
      [
        "ÙĬØ´ÙĥÙĦ",
        -1.0
      ],
      [
        "è£ģ",
        -1.0
      ],
      [
        "Ġmadalya",
        -1.0
      ],
      [
        "Ġmelan",
        -1.0
      ],
      [
        "ĠÐ¸Ð¼ÐµÐ»Ð¾",
        -1.0
      ],
      [
        "ÙħÙĬØ±ÙĥØ§",
        -1.0
      ],
      [
        "ĠÄ°lk",
        -1.0
      ],
      [
        "à°¾à°ľà°²",
        -1.0
      ],
      [
        "ĠØ§ÙĦØªÙģÙĥÙĬØ±",
        -1.0
      ],
      [
        "ael",
        -1.0
      ],
      [
        "ĠÐ°Ð²Ð°Ð½Ð³Ð°ÑĢÐ´",
        -1.0
      ],
      [
        "åº·åĽłåĽł",
        -1.0
      ],
      [
        "è®©æĪĳ",
        -1.0
      ],
      [
        "é£ĽåĪ©æµ¦",
        -1.0
      ],
      [
        "ĠØ¨Ø¹ÙħÙĦ",
        -1.0
      ],
      [
        "ĠKaldÄ±r",
        -1.0
      ],
      [
        "å¾¹åºķ",
        -1.0
      ],
      [
        "åĽĽä¸ªå¤§åĩīå¸¦æĿ¥å¤ļä¹Īå¤§çļĦæ°ĳæĹıçģ¾éļ¾",
        -1.0
      ],
      [
        "ckey",
        -1.0
      ],
      [
        "ĠGo",
        -1.0
      ],
      [
        "ĠÐ¿Ð°ÐºÐµÑĤÐ°",
        -1.0
      ],
      [
        "Ġsay",
        -1.0
      ],
      [
        "çķĮæīįåīĽæºĸåĤĻåİŁè«ĴæĪĳåĢĳçļĦå¹¼ç¨ļ",
        -1.0
      ],
      [
        "ÐĶÐĲ",
        -1.0
      ],
      [
        "å¤¾",
        -1.0
      ],
      [
        "èª²ç¨ĭ",
        -1.0
      ],
      [
        "åŃ¸çļĦ",
        -1.0
      ],
      [
        "-midi",
        -1.0
      ],
      [
        "ĠØ®Ø·Ø±Ø§",
        -1.0
      ],
      [
        "ĠSchweppes",
        -1.0
      ],
      [
        "à°¾:",
        -1.0
      ],
      [
        "à¹ĥà¸Ļà¸Ħà¸£à¸Ńà¸ļà¸Ħà¸£",
        -1.0
      ],
      [
        "aÃ«l",
        -1.0
      ],
      [
        "ĠÙĤÙĬØ§Ø³Ø§",
        -1.0
      ],
      [
        "à¹ĩà¸Ļà¸ªà¸³à¸«à¸£",
        -1.0
      ],
      [
        "Ġindispensable",
        -1.0
      ],
      [
        "ĠConver",
        -1.0
      ],
      [
        "à°Ĥà°§à°¨à°²",
        -1.0
      ],
      [
        "Ġhuhitaji",
        -1.0
      ],
      [
        "ÙĪØ¨Ø§ÙĦØªØ§ÙĦÙĬ",
        -1.0
      ],
      [
        "ÙıØ³Ùħ",
        -1.0
      ],
      [
        "à¸´à¸¡à¹Ģà¸Ľ",
        -1.0
      ],
      [
        "Ġcaptain",
        -1.0
      ],
      [
        "ĠÐ³Ñĥ",
        -1.0
      ],
      [
        "ĠÐ¾ÑģÐ¾Ð±Ð¾Ð³Ð¾",
        -1.0
      ],
      [
        "TÃ©moignage",
        -1.0
      ],
      [
        "Ð¢",
        -1.0
      ],
      [
        "ÑĥÐµÐ¼",
        -1.0
      ],
      [
        "à¸´à¸Ķà¹Ģà¸ª",
        -1.0
      ],
      [
        "åħ³èģĶ",
        -1.0
      ],
      [
        "çĽ¸äºĴ",
        -1.0
      ],
      [
        "èģļ",
        -1.0
      ],
      [
        "Ġspectators",
        -1.0
      ],
      [
        "lles",
        -1.0
      ],
      [
        "lt",
        -1.0
      ],
      [
        "æľºèĬ¯",
        -1.0
      ],
      [
        "ĠØ¨Ø§ÙĦÙĬØ±ÙħÙĪ",
        -1.0
      ],
      [
        "æĪĲç«ĭ",
        -1.0
      ],
      [
        "ĠÐ³ÑĢÐ°Ð½Ð´Ð¸Ð¾Ð·",
        -1.0
      ],
      [
        "Ġdilini",
        -1.0
      ],
      [
        "ĠÐ¼ÑĥÑĩÐµÐ½Ð¸ÐºÐ¾Ð²",
        -1.0
      ],
      [
        "ĠÑģÐµÑĢÐµÐ´Ð¸Ð½Ðµ",
        -1.0
      ],
      [
        "ĠÙģØªØ§Øª",
        -1.0
      ],
      [
        "Ġkunyuny",
        -1.0
      ],
      [
        "ĠÐºÐ¾Ð¼ÑĦÐ¾ÑĢÑĤÐ°",
        -1.0
      ],
      [
        "à¸ĩà¹ĥà¸Ļà¸ľ",
        -1.0
      ],
      [
        "ĠÐ·Ð½Ð°ÑĩÐ¸ÑĤÐµÐ»ÑĮÐ½Ð¾",
        -1.0
      ],
      [
        "à¸µà¸ģà¸Ħà¸Ļ",
        -1.0
      ],
      [
        "ĠÐ²Ð¾Ð·Ð½Ð¸ÐºÐ°ÑĤÑĮ",
        -1.0
      ],
      [
        "à¹ĩà¸ļà¸Ļ",
        -1.0
      ],
      [
        "çĻ¼è¨Ģäºº",
        -1.0
      ],
      [
        "à¸ĺà¸£à¸£à¸¡à¹Ĥà¸Ķà¸¢à¹Ģà¸Ħà¸²à¸£à¸ŀ",
        -1.0
      ],
      [
        "ĠÐŀÐ³Ð¾Ð½ÑĮ",
        -1.0
      ],
      [
        "Ã¶ne",
        -1.0
      ],
      [
        "ĠÙĪØ§ÙĦÙħØŃØ§ÙģØ¸Ø§Øª",
        -1.0
      ],
      [
        "çļĦä½ıå®¿",
        -1.0
      ],
      [
        "à¸¸à¸Ĺà¹Ħà¸ĺà¸ªà¸§à¸£à¸£à¸¢",
        -1.0
      ],
      [
        "æĥ³åģļ",
        -1.0
      ],
      [
        "Ġderisi",
        -1.0
      ],
      [
        "Ġenemy",
        -1.0
      ],
      [
        "sayçĶŁæ´»åĳ½çĲĨç¶²èįīå±±äººèĢģå¸«",
        -1.0
      ],
      [
        "Ġdeprem",
        -1.0
      ],
      [
        "ĠÃ§izgi",
        -1.0
      ],
      [
        "ĠFutbol",
        -1.0
      ],
      [
        "ĠØ³ÙĬØ§Ø³Ø©",
        -1.0
      ],
      [
        "ĠtaÅŁÄ±maktadÄ±r",
        -1.0
      ],
      [
        "ĠØ¹ØµØ¨",
        -1.0
      ],
      [
        "Ġåħĭé²ģæł¼",
        -1.0
      ],
      [
        "ÐµÐ²ÑģÐºÐ¾Ð³Ð¾",
        -1.0
      ],
      [
        "ĠArce",
        -1.0
      ],
      [
        "Hannover",
        -1.0
      ],
      [
        "Ġkielezo",
        -1.0
      ],
      [
        "ĠÙĪØ·ÙĦØ¨ÙĪØ§",
        -1.0
      ],
      [
        "ĠSL",
        -1.0
      ],
      [
        "ĠdÃ¼nya",
        -1.0
      ],
      [
        "ĠÐľÐ¸ÑĤÑĢÐ¾ÑĦÐ°Ð½Ð¾Ð²",
        -1.0
      ],
      [
        "umanitÃ©",
        -1.0
      ],
      [
        "ĠAsk",
        -1.0
      ],
      [
        "ĠÐ±Ð¸ÑĤÐ²Ðµ",
        -1.0
      ],
      [
        "ĠÙĤØ·ÙĬØ¹Ø©",
        -1.0
      ],
      [
        "çĲĨæĢ§",
        -1.0
      ],
      [
        "à¹īà¸³à¸«à¸¥",
        -1.0
      ],
      [
        "ĠØ§ÙĥØªØ±Ø§Ø«",
        -1.0
      ],
      [
        "Ġæİ¥åıĹå®łçī©è¿Ľåħ¥",
        -1.0
      ],
      [
        "ĠØ§ÙĦØ±Ø¹Ø§ÙĬØ§",
        -1.0
      ],
      [
        "ĠæĿ¾å³¶è¸©è¸©ç´Ļ",
        -1.0
      ],
      [
        "à¹ĥà¸Ļà¸ĩà¸²à¸Ļà¸¡à¸«à¸ģà¸£à¸£à¸¡à¸§",
        -1.0
      ],
      [
        "ï¼ĮçŃīåĪ°",
        -1.0
      ],
      [
        "Ġzirve",
        -1.0
      ],
      [
        "ĠéħĴåºĹå®īæİĴäºĨ",
        -1.0
      ],
      [
        "ĠÚ©",
        -1.0
      ],
      [
        "-Ñĥ",
        -1.0
      ],
      [
        "ĠÙĪØ§ÙĦÙĨØ¯Ùħ",
        -1.0
      ],
      [
        "taba",
        -1.0
      ],
      [
        "Ġsavons",
        -1.0
      ],
      [
        "ĠCour",
        -1.0
      ],
      [
        "Ġà°¸",
        -1.0
      ],
      [
        "çļĦåı¯èĥ½æĢ§",
        -1.0
      ],
      [
        "æ¼",
        -1.0
      ],
      [
        "ĠÙĥØ´ÙģÙĩ",
        -1.0
      ],
      [
        "âĢ¦..",
        -1.0
      ],
      [
        "Ġgovernments",
        -1.0
      ],
      [
        "ÑıÑħ",
        -1.0
      ],
      [
        "ĠEserleri",
        -1.0
      ],
      [
        "Ġà¸Ńà¸ĩà¸¨à¸²à¹Ģà¸ĭà¸¥à¹Ģà¸ĭ",
        -1.0
      ],
      [
        "|ÐľÐµÑģÑĤÐ¾",
        -1.0
      ],
      [
        "à¸±à¸ĩà¸Ħà¸¡à¹ģà¸¥à¸°",
        -1.0
      ],
      [
        "ĠØ§ÙĦØ¬Ø§Ø±ÙĬØ©",
        -1.0
      ],
      [
        "Ġorganization",
        -1.0
      ],
      [
        "Ġseni",
        -1.0
      ],
      [
        "Ġà°īà°ªà°°",
        -1.0
      ],
      [
        "ĠÙĦÙĩÙĬØ¦Ø©",
        -1.0
      ],
      [
        "ÑīÐ¸ÑĤÐµ",
        -1.0
      ],
      [
        "çļĦå½¢å¼ı",
        -1.0
      ],
      [
        "åįĪé¤ĲåĴĮæĻļé¤Ĳ",
        -1.0
      ],
      [
        "Ġdurmadan",
        -1.0
      ],
      [
        "Ġà¸Ļà¸²à¸¢à¸ģà¹Ģà¸Ĺà¸¨à¸¡à¸Ļà¸ķà¸£",
        -1.0
      ],
      [
        "çļĦåĥ¹åĢ¼",
        -1.0
      ],
      [
        "ĠÐ²Ð°Ð¶Ð½Ð¾Ðµ",
        -1.0
      ],
      [
        "ï¼Įåı¯è®ĵæķ´é«ĶéĨ«çĻĤçħ§èŃ·çĶ¢æ¥ŃçļĦçĶ¢åĢ¼éģĶ",
        -1.0
      ],
      [
        "ĠÐ¸Ð´ÐµÐ°Ð»ÑĮÐ½Ð¾Ðµ",
        -1.0
      ],
      [
        "Ø§ÙħÙĬØ©",
        -1.0
      ],
      [
        "ĠØ§ÙĦØ¥Ø°Ø§Ø¹ÙĬØ©",
        -1.0
      ],
      [
        "ĠØ§ÙĦØ¨Ø§ÙĬ",
        -1.0
      ],
      [
        "åħ¨å¥Ĺç½ĳç»ľæĬĢæľ¯è®¾å¤ĩ",
        -1.0
      ],
      [
        "ĠÙĪÙħØ¬Ø§ÙĦØ³",
        -1.0
      ],
      [
        "Ð¸Ð½Ð¾Ð¼",
        -1.0
      ],
      [
        "ĠKathleen",
        -1.0
      ],
      [
        "ĠØ§ÙĦØ°ÙĬ",
        -1.0
      ],
      [
        "Ð°Ð¼Ð¸",
        -1.0
      ],
      [
        "fanya",
        -1.0
      ],
      [
        "ĠÐ´ÐµÑĢÐµÐ²Ð°",
        -1.0
      ],
      [
        "à¸Īà¸²à¸ģà¸ģà¸²à¸£à¹ĥà¸Ĭ",
        -1.0
      ],
      [
        "à¸ĩà¸ģà¸²à¸£",
        -1.0
      ],
      [
        "lerken",
        -1.0
      ],
      [
        "ĠÑģÐ¸ÑģÑĤÐµÐ¼Ð°",
        -1.0
      ],
      [
        "ĠÑģÑĥÑģÑĤÐ°Ð²Ð¾Ð²",
        -1.0
      ],
      [
        "Ø§Ø±Ø¬ÙĪ",
        -1.0
      ],
      [
        "à¸Ħà¸Ļà¸Ń",
        -1.0
      ],
      [
        "/v",
        -1.0
      ],
      [
        "Ġmetro",
        -1.0
      ],
      [
        "ĠÙĨÙĤÙĦ",
        -1.0
      ],
      [
        "ĠØªØ¹Ø¨ÙĬØ±",
        -1.0
      ],
      [
        "é»ŀçļĦ",
        -1.0
      ],
      [
        "âĺħ",
        -1.0
      ],
      [
        "à¸ĩà¸«à¸¥à¸²à¸¢à¸ķà¸ĸà¸²à¸Ħà¸ķà¹Ģà¸ģ",
        -1.0
      ],
      [
        "Ġconcrete",
        -1.0
      ],
      [
        "ĠVal",
        -1.0
      ],
      [
        "-à°°",
        -1.0
      ],
      [
        "ĠØ§ÙĦØŃÙĪÙĬØµÙĦØ§Øª",
        -1.0
      ],
      [
        "shie",
        -1.0
      ],
      [
        "ĠÙĥØªØ¨",
        -1.0
      ],
      [
        "ĠÑĥÑĩÑĢÐµÐ¶Ð´ÐµÐ½",
        -1.0
      ],
      [
        "Ġensuite",
        -1.0
      ],
      [
        "ĠÐĿÑĮÑİ",
        -1.0
      ],
      [
        "Ġsoucis",
        -1.0
      ],
      [
        "ØµÙĪØ§Øª",
        -1.0
      ],
      [
        "à¸ŀà¸²à¸ĵ",
        -1.0
      ],
      [
        "mimi",
        -1.0
      ],
      [
        "ĠOld",
        -1.0
      ],
      [
        "ĠÐ¿ÑĢÐµÐ´ÑģÑĤÐ°Ð²Ð»ÐµÐ½Ð¾",
        -1.0
      ],
      [
        "ĠÙĨØ²Ø§Ø¹",
        -1.0
      ],
      [
        "ĠÑģÐ°Ð»Ð°ÑĤ",
        -1.0
      ],
      [
        "otype",
        -1.0
      ],
      [
        "æĺ",
        -1.0
      ],
      [
        "ĠÑĥÑģÑĤÑĥÐ¿",
        -1.0
      ],
      [
        "ÙĦÙĨØ¯ÙĨ",
        -1.0
      ],
      [
        "ĠÙħÙĥØªÙĪØ¨Ø©",
        -1.0
      ],
      [
        "ĠØ§ÙĦØ£Ø³ÙĦØŃØ©",
        -1.0
      ],
      [
        "Ġadvi",
        -1.0
      ],
      [
        "Ġsapiens",
        -1.0
      ],
      [
        "ĠÑįÑĤÐ°Ð¿Ð¾Ð¼",
        -1.0
      ],
      [
        "ĠØ§ÙĦÙĥÙĦÙĬØ§Øª",
        -1.0
      ],
      [
        "æĸ°å¢ŀä¿¡è´·åįłGDPæ¯Ķéĩį",
        -1.0
      ],
      [
        "ĠØ§ÙĦØ§Ø®ØªØ±Ø§Ø¹",
        -1.0
      ],
      [
        "ç±ĥçĲĥçĩŁ",
        -1.0
      ],
      [
        "ogo",
        -1.0
      ],
      [
        "ĠsÃ¶yledikleri",
        -1.0
      ],
      [
        "ÑıÐ¹ÑĤÐµ",
        -1.0
      ],
      [
        "ulnerability",
        -1.0
      ],
      [
        "ĠFemale",
        -1.0
      ],
      [
        "ĠkÃ¶peÄŁi",
        -1.0
      ],
      [
        "ĠØ§ÙĦØªØŃØ±ÙĬÙħ",
        -1.0
      ],
      [
        "ĠHighlanderattack",
        -1.0
      ],
      [
        "åı¯ä½¿çĶ¨",
        -1.0
      ],
      [
        "Ġanadolu",
        -1.0
      ],
      [
        "ĠÃ¶mÃ¼r",
        -1.0
      ],
      [
        "éıĪè¼ª",
        -1.0
      ],
      [
        "ĠØ¯ÙĬÙĪØ§ÙĨ",
        -1.0
      ],
      [
        "à¹Ħà¸Ńà¹Ģà¸Ķ",
        -1.0
      ],
      [
        "Ġtraduit",
        -1.0
      ],
      [
        "ÙĪØ¸Ø§Ø¦Ùģ",
        -1.0
      ],
      [
        "ĠÑĢÐµÐ²Ð¾Ð»ÑİÑĨÐ¸Ñı",
        -1.0
      ],
      [
        "ÐĿÐ«",
        -1.0
      ],
      [
        "ä¸ľäº¬",
        -1.0
      ],
      [
        "à¸°à¸«",
        -1.0
      ],
      [
        "Ġmetropolitan",
        -1.0
      ],
      [
        "Ġroots",
        -1.0
      ],
      [
        "ĠÐ°Ð»ÑĦÐ°Ð²Ð¸ÑĤ",
        -1.0
      ],
      [
        "ĠÑĤÐµÐ¼Ð½Ð¾",
        -1.0
      ],
      [
        "Ġéĩĳ",
        -1.0
      ],
      [
        "à¹Ħà¸Ńà¹Ģà¸Ĺà¸¡à¹ģà¸£à¸£",
        -1.0
      ],
      [
        "çĮ¶",
        -1.0
      ],
      [
        "ĠØ§ÙĦØ§Ø³ØªØ´Ø§Ø±ÙĬ",
        -1.0
      ],
      [
        "Ġmch",
        -1.0
      ],
      [
        "Ġdilara",
        -1.0
      ],
      [
        "What",
        -1.0
      ],
      [
        "ĠkireÃ§lenme",
        -1.0
      ],
      [
        "ĠÐ³Ð¾Ð²Ð¾ÑĢÐ¸ÑĪÑĮ",
        -1.0
      ],
      [
        "ĠÐ»ÐµÑĤÐ°",
        -1.0
      ],
      [
        "ĠÐ²ÐµÐ·",
        -1.0
      ],
      [
        "à¸±à¸ģà¸ĩà¸²à¸Ļ",
        -1.0
      ],
      [
        "ØºÙĬØ¨",
        -1.0
      ],
      [
        "Ġpuisse",
        -1.0
      ],
      [
        "å¨ĥå¨ĥ",
        -1.0
      ],
      [
        "ãĥŁãĥłãĥ©",
        -1.0
      ],
      [
        "Ġleopard",
        -1.0
      ],
      [
        "Ð»Ð¸Ñı",
        -1.0
      ],
      [
        "ĠØŃÙĨ",
        -1.0
      ],
      [
        "ÙĬÙĥØ§",
        -1.0
      ],
      [
        "ĠÐ¿Ð¾Ð´Ð°",
        -1.0
      ],
      [
        "ÙĬØ´Ø©",
        -1.0
      ],
      [
        "äºĨä¸ĢäºĽ",
        -1.0
      ],
      [
        "Ġnalo",
        -1.0
      ],
      [
        "ÐĵÐ½ÑĳÐ·Ð´Ð°",
        -1.0
      ],
      [
        "ĠÑĢÐ°Ð·Ð¾ÑĢ",
        -1.0
      ],
      [
        "ĠÐºÐ¾ÑģÑĤÑİÐ¼",
        -1.0
      ],
      [
        "à¥Ī?Ċ",
        -1.0
      ],
      [
        "åİĦ",
        -1.0
      ],
      [
        "maz",
        -1.0
      ],
      [
        "æĶľæīĭ",
        -1.0
      ],
      [
        "åľ¨ç½ĳç»ľä¸Ĭ",
        -1.0
      ],
      [
        "Ä±yo",
        -1.0
      ],
      [
        "à¤¾à¤Łà¤°",
        -1.0
      ],
      [
        "Ġgouvern",
        -1.0
      ],
      [
        "Ø§ØµÙĦ",
        -1.0
      ],
      [
        "ĠTopaz",
        -1.0
      ],
      [
        "à¹Ĥà¸Ķà¸¢à¸Ľà¸ģà¸ķ",
        -1.0
      ],
      [
        "ĠHER",
        -1.0
      ],
      [
        "Ġà¤§à¤®",
        -1.0
      ],
      [
        "Ä°slam",
        -1.0
      ],
      [
        "Ð¸ÐµÐ¹",
        -1.0
      ],
      [
        "à¹Īà¸²à¸ĩà¹Ħà¸ªà¸§à¹Ģà¸Ľ",
        -1.0
      ],
      [
        "mesiyle",
        -1.0
      ],
      [
        "ĠåĽŀ",
        -1.0
      ],
      [
        "ĠÑĢÐ°ÑģÐ¿ÑĢÐµÐ´ÐµÐ»ÐµÐ½Ð¸Ñı",
        -1.0
      ],
      [
        "Exception",
        -1.0
      ],
      [
        "Ġà°īà°¬",
        -1.0
      ],
      [
        "Ġmicrofluidic",
        -1.0
      ],
      [
        "Ġyata",
        -1.0
      ],
      [
        "ĠØ§Ø³ØªØ®Ø¯ÙħØª",
        -1.0
      ],
      [
        "ĠØ§ÙĦØ¨ØµÙĦ",
        -1.0
      ],
      [
        "Ġà°Ĩà°¤à°°",
        -1.0
      ],
      [
        "Ġkudanganywa",
        -1.0
      ],
      [
        "Ġnonprofit",
        -1.0
      ],
      [
        "ĠÐºÐ¾ÑĤÐ¾ÑĢÐ¾Ð¹",
        -1.0
      ],
      [
        "Africa",
        -1.0
      ],
      [
        "é»ĳçĨĬçļĦçİ°çĬ¶",
        -1.0
      ],
      [
        "Ġà°ľà°°à°Ĺà°¬",
        -1.0
      ],
      [
        "è²¼å¿ĥ",
        -1.0
      ],
      [
        "ĠÙħØ¶Ø§Ø¹ÙģØ§",
        -1.0
      ],
      [
        "ÑģÐº",
        -1.0
      ],
      [
        "ĠAyah",
        -1.0
      ],
      [
        "ĠØ±ØŃÙħØªÙĥ",
        -1.0
      ],
      [
        "Ġfondatrice",
        -1.0
      ],
      [
        "ĠWafaransa",
        -1.0
      ],
      [
        "Ø§ÙĦÙĬØ¨",
        -1.0
      ],
      [
        "comp",
        -1.0
      ],
      [
        "Ġmysterious",
        -1.0
      ],
      [
        "ile",
        -1.0
      ],
      [
        "à¥Ģà¤ķà¤°",
        -1.0
      ],
      [
        "ĠhÃ¼kÃ¼mdar",
        -1.0
      ],
      [
        "RAR",
        -1.0
      ],
      [
        "ĠÐ°Ð²Ð³ÑĥÑģÑĤÐµ",
        -1.0
      ],
      [
        "ĠÙĪØ¬ØŃÙĪØ¯",
        -1.0
      ],
      [
        "ĠØ§ÙĦØ¹ÙĥÙĪØ³",
        -1.0
      ],
      [
        "ĠSites",
        -1.0
      ],
      [
        "ÑĤÑĢÐ°Ð½Ñģ",
        -1.0
      ],
      [
        "ï¼ĮåĨįçĶ¨æĪĳåĢĳçļĦçħ§çīĩåĴĮä»¥åīįæĭįçļĦå¤§éłŃè²¼è£Ŀé£¾",
        -1.0
      ],
      [
        "ĠÐ´Ð°ÑĤÐ°",
        -1.0
      ],
      [
        "ĠKWENYE",
        -1.0
      ],
      [
        "ĠÐľÑĥÐ´ÑĢÐ¾ÑģÑĤÐ¸",
        -1.0
      ],
      [
        "ĠÙĬØŃÙĬÙĬ",
        -1.0
      ],
      [
        "à¸ªà¸²à¸¡à¸²à¸£à¸ĸà¸Ļà¸³à¹Ħà¸Ľà¹ĥà¸Ĭ",
        -1.0
      ],
      [
        "Ġmawaziri",
        -1.0
      ],
      [
        "ĠÙĦÙĦØ§Ø¹Øª",
        -1.0
      ],
      [
        "ÐľÐ«",
        -1.0
      ],
      [
        "ĠÐļÐ¥ÐĽ",
        -1.0
      ],
      [
        "Ġkork",
        -1.0
      ],
      [
        "æĴŀæĵĬ",
        -1.0
      ],
      [
        "à¸ļà¸£à¸²à¸§à¹Ģà¸ĭà¸Ńà¸£",
        -1.0
      ],
      [
        "à¸Ļà¸ļà¸Ļ",
        -1.0
      ],
      [
        "ĠÙĪÙĬÙĥØªØ¨",
        -1.0
      ],
      [
        "à¸Ĺà¸²à¸ĩà¸Ńà¸²à¸ģà¸²à¸¨",
        -1.0
      ],
      [
        "à¥įà¤®à¤¶",
        -1.0
      ],
      [
        "à¹Īà¸²à¸¢à¹Ģà¸ĩ",
        -1.0
      ],
      [
        "ĠLulworthçļĦ",
        -1.0
      ],
      [
        "kleri",
        -1.0
      ],
      [
        "ĠÅŁerbet",
        -1.0
      ],
      [
        "Ġfrancophone",
        -1.0
      ],
      [
        "è´Ŀ",
        -1.0
      ],
      [
        "ĠÑħÑĢÐ¸ÑģÑĤÐ¸Ð°Ð½ÑģÐºÐ¾Ð¹",
        -1.0
      ],
      [
        "Ġchungu",
        -1.0
      ],
      [
        "ĠÐ»ÑĳÐ³Ðº",
        -1.0
      ],
      [
        "ĠÙĬØ³Ø¬ÙĦ",
        -1.0
      ],
      [
        "ĠÙĪÙĪØ²Ø§Ø±Ø©",
        -1.0
      ],
      [
        "æĵłéĸĭ",
        -1.0
      ],
      [
        "à¸µà¸ī",
        -1.0
      ],
      [
        "ĠØ¨Ø§Øµ",
        -1.0
      ],
      [
        "ĠkulÃ¼be",
        -1.0
      ],
      [
        "Ce",
        -1.0
      ],
      [
        "ï¼Įå°±èĥ½",
        -1.0
      ],
      [
        "åŁĩæ¡¥åĮº",
        -1.0
      ],
      [
        "portation",
        -1.0
      ],
      [
        "ÙģØ§ÙĦ",
        -1.0
      ],
      [
        "à°ĤĊĊĊ",
        -1.0
      ],
      [
        "à¥ĭà¤¶à¤¨",
        -1.0
      ],
      [
        "à¸µà¸¢à¹ĥà¸Ī",
        -1.0
      ],
      [
        "à¸§à¸²à¸ĩà¸¢à¸²à¸ªà¸¥à¸ļ",
        -1.0
      ],
      [
        "à¸±à¸Ļà¸ĺà¸°à¹Ģà¸ŀà¸Ľà¹Ħà¸Ĺà¸Ķ",
        -1.0
      ],
      [
        "Ġwaliopoteza",
        -1.0
      ],
      [
        "éģĵå¾·",
        -1.0
      ],
      [
        "ĠÙĪØ§ÙĦØ¸Ø±ÙĪÙģ",
        -1.0
      ],
      [
        "çļĦæĬ½æıĴ",
        -1.0
      ],
      [
        "ĠÑĢÐµÐ¿",
        -1.0
      ],
      [
        "ĠØ¨ØŃØ¶ÙĪØ±",
        -1.0
      ],
      [
        "èĤ¢ä½ĵ",
        -1.0
      ],
      [
        "ĠØ³Ø§Ø¦ÙĦ",
        -1.0
      ],
      [
        "æĵįä½ľæĸ¹æ³ķ",
        -1.0
      ],
      [
        "ĠÙħØºØ²Ùī",
        -1.0
      ],
      [
        "à¸µà¸§à¸²à¸Ļ",
        -1.0
      ],
      [
        "ĠTF",
        -1.0
      ],
      [
        "è£Ŀ",
        -1.0
      ],
      [
        "à±ĩà°Ĵà°ķ",
        -1.0
      ],
      [
        "Â».Ċ",
        -1.0
      ],
      [
        "ĠÙĩÙħÙĩÙħ",
        -1.0
      ],
      [
        "ĠØ§ÙĦØ¹Ø§Ø¦ÙĦØ§Øª",
        -1.0
      ],
      [
        "æĸĩèīº",
        -1.0
      ],
      [
        "åĨĴ",
        -1.0
      ],
      [
        "æĭĺçķĻ",
        -1.0
      ],
      [
        "Ġelbise",
        -1.0
      ],
      [
        "à¹ĩà¸Ļà¸Ĳà¸²à¸Ļ",
        -1.0
      ],
      [
        "HEDÄ°YELÄ°",
        -1.0
      ],
      [
        "ç²¾ç¾İ",
        -1.0
      ],
      [
        "ĠØ§ÙĦØ§Ø³ØªÙĤØ¨Ø§ÙĦ",
        -1.0
      ],
      [
        "ĠØ¨Ø¯Ø§ÙģØ¹",
        -1.0
      ],
      [
        "ĠAkhera",
        -1.0
      ],
      [
        "ĠÙĬÙĨØªÙĩÙĬ",
        -1.0
      ],
      [
        "ĠØªÙĦØ§ÙħØ°",
        -1.0
      ],
      [
        "Ð¼Ð¾Ðº",
        -1.0
      ],
      [
        "ĠØ§ÙĦÙĦØ°Ø§ÙĨ",
        -1.0
      ],
      [
        "Ġrestent",
        -1.0
      ],
      [
        "ĠÙĬØ·Ø§ÙĦØ¨",
        -1.0
      ],
      [
        "çļĨ",
        -1.0
      ],
      [
        "vul",
        -1.0
      ],
      [
        "Ġunivers",
        -1.0
      ],
      [
        "ĠAntalya",
        -1.0
      ],
      [
        "å¥½",
        -1.0
      ],
      [
        "ĠÙĪØ¨ÙĤ",
        -1.0
      ],
      [
        "è¶ģ",
        -1.0
      ],
      [
        "ĠÐ°Ð±ÑģÐ¾Ð»ÑİÑĤ",
        -1.0
      ],
      [
        "Ġaux",
        -1.0
      ],
      [
        "luk",
        -1.0
      ],
      [
        "à±Īà°µà°°",
        -1.0
      ],
      [
        "éĺĲæĺİ",
        -1.0
      ],
      [
        "ÙĨØ³ÙĬ",
        -1.0
      ],
      [
        "ĠØ§ÙĦØµØ§Ø¦Øº",
        -1.0
      ],
      [
        "ĠÐ¿Ð¾ÑĩÑĤÐµ",
        -1.0
      ],
      [
        "Ġanki",
        -1.0
      ],
      [
        "ĠHicaz",
        -1.0
      ],
      [
        "ĠØ§ÙĦÙħØµØŃÙģ",
        -1.0
      ],
      [
        "à¸Ĥà¸ĵà¸°à¸Ĺ",
        -1.0
      ],
      [
        "age",
        -1.0
      ],
      [
        "à¹Ģà¸¨à¸£à¸©à¸Ĳ",
        -1.0
      ],
      [
        "à¹īà¸³à¹ģà¸Ĥ",
        -1.0
      ],
      [
        "kie",
        -1.0
      ],
      [
        "æľĢæĸ°",
        -1.0
      ],
      [
        "Ġikili",
        -1.0
      ],
      [
        "à¹Ĥà¸ŀà¸ĺ",
        -1.0
      ],
      [
        "ĠDers",
        -1.0
      ],
      [
        "ĠØ¨Ø§ÙĦØ¬ÙĪØ§Ø²",
        -1.0
      ],
      [
        "åĭĻ",
        -1.0
      ],
      [
        "ĠØªÙĥØ´Ùģ",
        -1.0
      ],
      [
        "ĠSchools",
        -1.0
      ],
      [
        "ç»´å°Ķäº¬æµ·æ»©åº¦åģĩæĿĳ",
        -1.0
      ],
      [
        "æĪĳä»¬åľ¨",
        -1.0
      ],
      [
        "ĠvarlÄ±k",
        -1.0
      ],
      [
        "Ġbrusque",
        -1.0
      ],
      [
        "ãĢĳåı°ä¸ŃéĢ¢çĶ²å¤ľå¸Ĥ",
        -1.0
      ],
      [
        "tesa",
        -1.0
      ],
      [
        "Ġenseign",
        -1.0
      ],
      [
        "à¸Ńà¸Ńà¸ģà¸£",
        -1.0
      ],
      [
        "ĠsuccÃ¨s",
        -1.0
      ],
      [
        "ĠÙĪØ°Ø±ÙĬØªÙĩ",
        -1.0
      ],
      [
        "æ´»åľ°çĲĥæ¨¡æĭŁåĻ¨",
        -1.0
      ],
      [
        "ĠÙĪØ§ÙĦØ¯ÙĬÙĨ",
        -1.0
      ],
      [
        "à±įà°®à°²à°ķ",
        -1.0
      ],
      [
        "Ġfosfolipid",
        -1.0
      ],
      [
        "ĠyaÅŁamÄ±",
        -1.0
      ],
      [
        "Ġnoter",
        -1.0
      ],
      [
        "Ġestate",
        -1.0
      ],
      [
        "ï¼Įç¾İåĽ½",
        -1.0
      ],
      [
        "ĠØ§ÙĦÙħØªØ¯",
        -1.0
      ],
      [
        "ĠØ³ÙħÙĬ",
        -1.0
      ],
      [
        "ĠØŃØµÙĦ",
        -1.0
      ],
      [
        "æ²»",
        -1.0
      ],
      [
        "ĠÙĪØ§ÙĦØªØ²Ø§Ùħ",
        -1.0
      ],
      [
        "ĠTurkiet",
        -1.0
      ],
      [
        "esel",
        -1.0
      ],
      [
        "à¹ģà¸¥à¸°à¸Ĺ",
        -1.0
      ],
      [
        "ÙĪÙĩÙĥØ°Ø§",
        -1.0
      ],
      [
        "à±ģâĢĿ,",
        -1.0
      ],
      [
        "Ġodaya",
        -1.0
      ],
      [
        "ĠÙĪØ§ÙĦÙħØŃÙĦÙĬØ©",
        -1.0
      ],
      [
        "ĠÐ¾ÑĤÑģÑĤÐ°Ð²",
        -1.0
      ],
      [
        "Ġbanyodan",
        -1.0
      ],
      [
        "ĠsÃ¶mÃ¼r",
        -1.0
      ],
      [
        "ologies",
        -1.0
      ],
      [
        "Ġà¤ĩà¤ķà¤Ł",
        -1.0
      ],
      [
        "å¿§",
        -1.0
      ],
      [
        "ĠØ§ÙĦØ®ØªØ§Ùħ",
        -1.0
      ],
      [
        "ĠØ¨ÙĤÙĪØ§Ø¹Ø¯",
        -1.0
      ],
      [
        "Ùģ",
        -1.0
      ],
      [
        "Ġbirds",
        -1.0
      ],
      [
        "Ġarkadaslar",
        -1.0
      ],
      [
        "ĠÙĬÙĨÙħÙĪ",
        -1.0
      ],
      [
        "ĠÙĬØªÙģÙĤ",
        -1.0
      ],
      [
        "à¸ªà¸Ļà¸Ĺà¸Ļà¸²",
        -1.0
      ],
      [
        "à¸ªà¸§à¸¢",
        -1.0
      ],
      [
        "ä¸Ģä¸ĭ",
        -1.0
      ],
      [
        "Ġproduct",
        -1.0
      ],
      [
        "ĠGao",
        -1.0
      ],
      [
        "Ġengineers",
        -1.0
      ],
      [
        "Ã¨che",
        -1.0
      ],
      [
        "ĠÙĪØµØ¨Ø±",
        -1.0
      ],
      [
        "ĠÃ¼retilmektedir",
        -1.0
      ],
      [
        "çļĦå°±æĺ¯",
        -1.0
      ],
      [
        "LERÄ°N",
        -1.0
      ],
      [
        "è´£ä»»",
        -1.0
      ],
      [
        "Ġcolonie",
        -1.0
      ],
      [
        "ĠÐ¼Ð¾Ð»Ð¾Ð´ÑĭÑħ",
        -1.0
      ],
      [
        "jitokeza",
        -1.0
      ],
      [
        "ĠÐ¿Ð¾ÐºÐ¸Ð½ÑĥÐ»",
        -1.0
      ],
      [
        "ÙıÙĪØ³",
        -1.0
      ],
      [
        "à°¶à°°à°£à°¬à°¸à°ª",
        -1.0
      ],
      [
        "ĠseÃ§enek",
        -1.0
      ],
      [
        "æ§ĭ",
        -1.0
      ],
      [
        "à°ļà°¸",
        -1.0
      ],
      [
        "ĠgÃ¶rÃ¼nce",
        -1.0
      ],
      [
        "Ð¸ÑĤÑĮ",
        -1.0
      ],
      [
        "Ġana",
        -1.0
      ],
      [
        "Ġfallait",
        -1.0
      ],
      [
        "à¸ĩà¸«à¸¥à¸²à¸¢à¸ķà¸²à¸¡à¸Ħà¸§à¸²à¸¡à¹Ģà¸Ľ",
        -1.0
      ],
      [
        "ĠÐĳÐ¾Ð³Ñĥ",
        -1.0
      ],
      [
        "ĠÙĦÙĦØŃÙĤ",
        -1.0
      ],
      [
        "ĠÙĪÙĤØ·Ø±",
        -1.0
      ],
      [
        "Ġà°¤à°Łà°¸",
        -1.0
      ],
      [
        "çļĦåįķä½į",
        -1.0
      ],
      [
        "å¤§å°ı",
        -1.0
      ],
      [
        "à¹īà¸ĩà¸²à¸Ļ",
        -1.0
      ],
      [
        "à¸´à¸Ķà¹Ħà¸Ķ",
        -1.0
      ],
      [
        "à¸¹à¸ģà¸ŀ",
        -1.0
      ],
      [
        "ĠÐ¸Ð·ÑĥÑĩÐµÐ½Ð¸Ðµ",
        -1.0
      ],
      [
        "ĠØ§ÙĦØ¨ÙĨÙĥ",
        -1.0
      ],
      [
        "ĠbardaÄŁÄ±",
        -1.0
      ],
      [
        "ĠÐ²ÑĭÑģÐºÐ°Ð·",
        -1.0
      ],
      [
        "Ġhadis",
        -1.0
      ],
      [
        "Ġdoktor",
        -1.0
      ],
      [
        "ĠÐ´Ð¾ÐºÐ»Ð°Ð´",
        -1.0
      ],
      [
        "ä¿Ŀéļªåħ¬åı¸",
        -1.0
      ],
      [
        "ĠÙĬØ·Ø±Ø¯",
        -1.0
      ],
      [
        "à¥įà¤°à¤ķà¤°à¤£",
        -1.0
      ],
      [
        "ĠÙĬÙĪÙĨØ³",
        -1.0
      ],
      [
        "à¹īà¹Ĥà¸ªà¸ķà¹ģà¸¥à¸°à¸Ľà¸£à¸°à¸ªà¸²à¸Ĺà¸ª",
        -1.0
      ],
      [
        "à±įà°°à°®à°£",
        -1.0
      ],
      [
        "Ġkonser",
        -1.0
      ],
      [
        "å¯¹ä½ł",
        -1.0
      ],
      [
        "BahÃ§e",
        -1.0
      ],
      [
        "ĠØªÙģÙĥÙĬØ±Ùĩ",
        -1.0
      ],
      [
        "Nina",
        -1.0
      ],
      [
        "Ġç´Ħ",
        -1.0
      ],
      [
        "ĠAustralian",
        -1.0
      ],
      [
        "ĠÐľÐ¾ÑģÐºÐ¾Ð²ÑģÐºÐ¾Ð¹",
        -1.0
      ],
      [
        "ĠÙĬÙĪØ§Ø¬Ùĩ",
        -1.0
      ],
      [
        "åĽŀçŃĶ",
        -1.0
      ],
      [
        "ĠØ£ØŃÙĤ",
        -1.0
      ],
      [
        "à¹Ħà¸«à¸¥à¸ľ",
        -1.0
      ],
      [
        "å¹¾ä¸ĭ",
        -1.0
      ],
      [
        "ä½ķåħīæ²ª",
        -1.0
      ],
      [
        "Ġconsultez",
        -1.0
      ],
      [
        "éħĴåĲ§",
        -1.0
      ],
      [
        "Ġimprovement",
        -1.0
      ],
      [
        "ĠÑģÑĢÐµÐ´",
        -1.0
      ],
      [
        "ĠÙģØªØŃØ©",
        -1.0
      ],
      [
        "Jana",
        -1.0
      ],
      [
        "à°Ĥà°¦à°ķ",
        -1.0
      ],
      [
        "à°Ī",
        -1.0
      ],
      [
        "à¹īà¹Ħà¸Ĥ",
        -1.0
      ],
      [
        "âĢĻd",
        -1.0
      ],
      [
        "åĩī",
        -1.0
      ],
      [
        "ÐĶÐ¾ÑģÑĤÐ°Ð²ÐºÐ°",
        -1.0
      ],
      [
        "ÑħÐ¾Ð¶Ð´ÐµÐ½Ð¸Ñı",
        -1.0
      ],
      [
        "ĠØ±Ø§Ø¦Ø¬",
        -1.0
      ],
      [
        "pigania",
        -1.0
      ],
      [
        "litik",
        -1.0
      ],
      [
        "umbwa",
        -1.0
      ],
      [
        "ĠBaÅŁkanÄ±",
        -1.0
      ],
      [
        "à¹ģà¸Ĭ",
        -1.0
      ],
      [
        "Ġsundurma",
        -1.0
      ],
      [
        "æĭĲ",
        -1.0
      ],
      [
        "ĠØ§ÙĨÙģØ¹Ø§ÙĦ",
        -1.0
      ],
      [
        "Ġzako",
        -1.0
      ],
      [
        "uth",
        -1.0
      ],
      [
        "ĠØªØ³ÙĩÙĬÙĦ",
        -1.0
      ],
      [
        "à°¾à°Ĺà°¯",
        -1.0
      ],
      [
        "usement",
        -1.0
      ],
      [
        "Ġmalighafi",
        -1.0
      ],
      [
        "ĠÙĨÙĨØµØŃ",
        -1.0
      ],
      [
        "ĠÙħØ«",
        -1.0
      ],
      [
        "à¸¸à¸Ļà¸ŀ",
        -1.0
      ],
      [
        "à±įà°ªà°¬à°¡",
        -1.0
      ],
      [
        "èĳ£äºĭæľĥ",
        -1.0
      ],
      [
        "Ġpoker",
        -1.0
      ],
      [
        "à¸²à¸ļà¸£",
        -1.0
      ],
      [
        "Ġsouplesse",
        -1.0
      ],
      [
        "Ġearn",
        -1.0
      ],
      [
        "æĿĥåĬĽ",
        -1.0
      ],
      [
        "kabiliana",
        -1.0
      ],
      [
        "ĠHaatim",
        -1.0
      ],
      [
        "HE",
        -1.0
      ],
      [
        "Ø®Ø±Ø¬",
        -1.0
      ],
      [
        "ÙĤØ§Ø±",
        -1.0
      ],
      [
        "ĠVi",
        -1.0
      ],
      [
        "Ġukweli",
        -1.0
      ],
      [
        "ĠÐ¿ÑĢÐ¾Ð¿ÑĥÑģÐº",
        -1.0
      ],
      [
        "ÐĶÐ¶Ð¾Ð½",
        -1.0
      ],
      [
        "Ġcapitaux",
        -1.0
      ],
      [
        "å¿ĥçĲĨä¸ĬçļĦ",
        -1.0
      ],
      [
        "rob",
        -1.0
      ],
      [
        "ĠÐºÐ¾ÑįÑĦÑĦÐ¸ÑĨÐ¸ÐµÐ½ÑĤ",
        -1.0
      ],
      [
        "Ġespace",
        -1.0
      ],
      [
        "ĠÅŀimon",
        -1.0
      ],
      [
        "à¥ĭà¥¤",
        -1.0
      ],
      [
        "Ġjudge",
        -1.0
      ],
      [
        "à¹īà¸²à¸Ħ",
        -1.0
      ],
      [
        "Ġassist",
        -1.0
      ],
      [
        "iles",
        -1.0
      ],
      [
        "ĠØ§ÙĦØ£ÙĤØ·Ø§Ø±",
        -1.0
      ],
      [
        "âĢľèªłä¿¡åį±æ©Ł",
        -1.0
      ],
      [
        "à¸µà¸Ħà¸§à¸²à¸¡à¸¢à¸²à¸§",
        -1.0
      ],
      [
        "Servlet",
        -1.0
      ],
      [
        "ĠÙĪØ§ÙĦØ¹ÙĦÙħØ§Ø¡",
        -1.0
      ],
      [
        "ĠØ§ÙĦØ¶Ø§Ø±",
        -1.0
      ],
      [
        "æĻĴ",
        -1.0
      ],
      [
        "ĠØªØ¹Ø¯",
        -1.0
      ],
      [
        "à¸´à¸Ļà¸ķà¸Ļà¸²à¸ģà¸²à¸£",
        -1.0
      ],
      [
        "ĠØ±Ø³ÙĪÙĦØ§",
        -1.0
      ],
      [
        "Tarabalar",
        -1.0
      ],
      [
        "à¹ĥà¸Ļà¸Ĺà¸§",
        -1.0
      ],
      [
        "ĠÐ¿Ð¾Ð³Ð»Ð¾Ñī",
        -1.0
      ],
      [
        "ĠØ§ÙĦØŃØ¶",
        -1.0
      ],
      [
        "ĠÙĪØ¨Ø³",
        -1.0
      ],
      [
        "ĠetkinliÄŁi",
        -1.0
      ],
      [
        "ĠÙĥÙħØ¨ÙĬÙĪØªØ±",
        -1.0
      ],
      [
        "Ġwivu",
        -1.0
      ],
      [
        "ĠÐ¿Ð¾Ð»ÑİÐ±",
        -1.0
      ],
      [
        "ĠØ§ÙĦÙģÙĦØ³Ø·ÙĬÙĨÙĬÙĪÙĨ",
        -1.0
      ],
      [
        "à¸±à¸§à¹ģà¸¥",
        -1.0
      ],
      [
        "ĠÙĪÙħØ¹Ø¯Ø§Øª",
        -1.0
      ],
      [
        "ĠÐ¾Ð»Ð¸ÑĨÐµÑĤÐ²Ð¾ÑĢ",
        -1.0
      ],
      [
        "ĠÐ·Ð´Ð°Ð½Ð¸Ð¸",
        -1.0
      ],
      [
        "Ġsouth",
        -1.0
      ],
      [
        "ĠØ¨Ø§ÙĦÙĨØ¸Ø§Ùħ",
        -1.0
      ],
      [
        "à¥¦",
        -1.0
      ],
      [
        "Ġuyu",
        -1.0
      ],
      [
        "omponent",
        -1.0
      ],
      [
        "ric",
        -1.0
      ],
      [
        "ĠÐŃÐºÑģ",
        -1.0
      ],
      [
        "èªªæĺİæľĥ",
        -1.0
      ],
      [
        "à¸¡à¹Ģà¸ģ",
        -1.0
      ],
      [
        "æĲĶçĻ¢",
        -1.0
      ],
      [
        "ĠYugoslavya",
        -1.0
      ],
      [
        "ĠyÃ¼kseklik",
        -1.0
      ],
      [
        "ĠÙĪÙĤÙĬÙħØ©",
        -1.0
      ],
      [
        "ĠÐºÐ¾ÑĤÐ¾ÑĢÐ¾Ð³Ð¾",
        -1.0
      ],
      [
        "Ä°",
        -1.0
      ],
      [
        "ĠØ£ÙĤØ³Ø§Ùħ",
        -1.0
      ],
      [
        "mesinde",
        -1.0
      ],
      [
        "ĠÐ¿ÑĢÐ¾ÑģÑĤÐ¾Ð¹",
        -1.0
      ],
      [
        "ĠØ§ÙĦØ¬Ø³Ø¯",
        -1.0
      ],
      [
        "Ġinvolving",
        -1.0
      ],
      [
        "à¸¹à¸ģà¸¥à¸ļ",
        -1.0
      ],
      [
        "à¸´à¹Ģà¸Ĥ",
        -1.0
      ],
      [
        "åºŃ",
        -1.0
      ],
      [
        "ĠÙĪØ§ÙĦØµÙģØ§Øª",
        -1.0
      ],
      [
        "Ġdouan",
        -1.0
      ],
      [
        "à¤ļà¤ķà¤°",
        -1.0
      ],
      [
        "Ġterritoriale",
        -1.0
      ],
      [
        "Ġsurf",
        -1.0
      ],
      [
        "Ġutunzaji",
        -1.0
      ],
      [
        "ĠÙĪØ§ÙģØ±",
        -1.0
      ],
      [
        "à±ĩà°ĺ",
        -1.0
      ],
      [
        "gypte",
        -1.0
      ],
      [
        "ĠÐĳÐ°ÑĢÑģÐµÐ»Ð¾Ð½Ñĭ",
        -1.0
      ],
      [
        "vid",
        -1.0
      ],
      [
        "ĠaprÃ¨s",
        -1.0
      ],
      [
        "Ġconfiguration",
        -1.0
      ],
      [
        "ĠÐĳÐ°ÑģÐ¸Ð³Ð°Ð»ÑĥÐ¿Ð¾",
        -1.0
      ],
      [
        "ĠØŃÙĥØ§Ùħ",
        -1.0
      ],
      [
        "Ġsubstrates",
        -1.0
      ],
      [
        "à±įà°¤à°¨à°®",
        -1.0
      ],
      [
        "ĠØ§ÙĦÙĥØ§Ø°Ø¨",
        -1.0
      ],
      [
        "å¤¾å¾ĹçĶŁçĹĽ",
        -1.0
      ],
      [
        "Ð¾Ð²ÑĭÐ¼Ð¸",
        -1.0
      ],
      [
        "è§Ģ",
        -1.0
      ],
      [
        "ĠConservative",
        -1.0
      ],
      [
        "ĠÙħØ³Ø§ÙģØ©",
        -1.0
      ],
      [
        "rap",
        -1.0
      ],
      [
        "Ø·Ùĩ",
        -1.0
      ],
      [
        "ĠØ§ÙĦØ¥ØŃ",
        -1.0
      ],
      [
        "ĠmÃ¼ÅŁterilerimiz",
        -1.0
      ],
      [
        "Ġstrategy",
        -1.0
      ],
      [
        "ĠÙĪØ§ÙĦÙĬÙĪÙħ",
        -1.0
      ],
      [
        "Ð»Ð¸Ð¼ÑĦÐ¾Ð°Ð´ÐµÐ½Ð¾Ð¿Ð°ÑĤÐ¸Ñı",
        -1.0
      ],
      [
        "à¸²à¸ĩà¸ģ",
        -1.0
      ],
      [
        "ĠØ§ÙĦØŃÙĦØ§ÙĦ",
        -1.0
      ],
      [
        "Ġkwahiyo",
        -1.0
      ],
      [
        "åįıè®®",
        -1.0
      ],
      [
        "ĠHS",
        -1.0
      ],
      [
        "ĠÐ·Ð°Ð´ÑĥÐ¼",
        -1.0
      ],
      [
        "é»ĥ",
        -1.0
      ],
      [
        "à¸±à¸ģà¹Ģà¸Ĺ",
        -1.0
      ],
      [
        "ĠGO",
        -1.0
      ],
      [
        "ĠÐ½ÐµÐºÐ¾ÑĤÐ¾ÑĢÑĭÐ¼",
        -1.0
      ],
      [
        "Ġà°Ĩà°¤",
        -1.0
      ],
      [
        "uncu",
        -1.0
      ],
      [
        "Ġkilichopo",
        -1.0
      ],
      [
        "ĠDiwani",
        -1.0
      ],
      [
        "à¹Ģà¸ĺà¸Ńà¸Ĺ",
        -1.0
      ],
      [
        "Categories",
        -1.0
      ],
      [
        "çļĦç¡®",
        -1.0
      ],
      [
        "à¸µà¸¬à¸²à¸Ĺ",
        -1.0
      ],
      [
        "à¹ģà¸ŀà¸£",
        -1.0
      ],
      [
        "ĠbaÅŁvur",
        -1.0
      ],
      [
        "à¸±à¸ĩà¹Ĥà¸Ĩà¸ª",
        -1.0
      ],
      [
        "à¤¾à¤Ĺà¤°à¤£",
        -1.0
      ],
      [
        "ĠStrukturella",
        -1.0
      ],
      [
        "Ġnyinyi",
        -1.0
      ],
      [
        "Vilevile",
        -1.0
      ],
      [
        "Ġà°ªà°ķ",
        -1.0
      ],
      [
        "ä»ķ",
        -1.0
      ],
      [
        "Ġvisivyo",
        -1.0
      ],
      [
        "à¸Ńà¸Ńà¸ģà¸Ķà¸Ńà¸ģ",
        -1.0
      ],
      [
        "à¸Ńà¸ĩà¸«à¸£",
        -1.0
      ],
      [
        "Ġfacility",
        -1.0
      ],
      [
        "SÃ¼bvansiyonlu",
        -1.0
      ],
      [
        "ĠkeÃ§iboynuzu",
        -1.0
      ],
      [
        "ĠÙĨØ´Ø£Ø©",
        -1.0
      ],
      [
        "hk",
        -1.0
      ],
      [
        "Plan",
        -1.0
      ],
      [
        "à±ĭà°¯à°ª",
        -1.0
      ],
      [
        "Ġevrilmenin",
        -1.0
      ],
      [
        "ĠÃĸte",
        -1.0
      ],
      [
        "å»łåķĨ",
        -1.0
      ],
      [
        "ĠÙĪØ§ÙĦØªÙĨ",
        -1.0
      ],
      [
        "ĠOrient",
        -1.0
      ],
      [
        "ĠÑĩÑĤÐµÐ½Ð¸Ñı",
        -1.0
      ],
      [
        "ĠØ§ÙĦØ¶Ø¬ÙĬØ¬",
        -1.0
      ],
      [
        "ĠÃ©valuer",
        -1.0
      ],
      [
        "Ġprestation",
        -1.0
      ],
      [
        "å¦Ĥæŀľä½ł",
        -1.0
      ],
      [
        "ĠÑĢÐµÐ»ÑĮÐµÑĦ",
        -1.0
      ],
      [
        "iyet",
        -1.0
      ],
      [
        "ĠmaÄŁara",
        -1.0
      ],
      [
        "à¹ĩà¸Īà¸°à¹Ģà¸ģ",
        -1.0
      ],
      [
        "ĠØ§ÙĦÙĩØ²",
        -1.0
      ],
      [
        "ecek",
        -1.0
      ],
      [
        "ĠØªØŃÙħÙĦÙĩ",
        -1.0
      ],
      [
        "ĠØ§ÙĦØ³Ø·ÙĪØ±",
        -1.0
      ],
      [
        "Ø§ÙĦØ¥Ø®Ø¨Ø§Ø±ÙĬØ©",
        -1.0
      ],
      [
        "ĠÙħØ¨Ø¯",
        -1.0
      ],
      [
        "ĠÃ§ocuklarda",
        -1.0
      ],
      [
        "sinde",
        -1.0
      ],
      [
        "ĠÙħÙĤØ¯Ø§Ø±",
        -1.0
      ],
      [
        "à°¾à°¸à°¨à°¸à°Ń",
        -1.0
      ],
      [
        "ĠØ¨Ø§ØŃØ«ÙĪÙĨ",
        -1.0
      ],
      [
        "ĠAfrodit",
        -1.0
      ],
      [
        "à±Ĩà°µà°²à°ª",
        -1.0
      ],
      [
        "çļĦäºĭæĥħ",
        -1.0
      ],
      [
        "ĠHey",
        -1.0
      ],
      [
        "à¸µ,",
        -1.0
      ],
      [
        "ĠØ§ÙĪØ¶Ø§Ø¹",
        -1.0
      ],
      [
        "ĠØ¨ÙĬÙĨÙĩ",
        -1.0
      ],
      [
        "ĠÐºÑĥÐ¿Ð¸Ð»Ð°",
        -1.0
      ],
      [
        "à±ģà°²à°¤",
        -1.0
      ],
      [
        "à¸¹à¸Ħ",
        -1.0
      ],
      [
        "ĠØ¨Ø§ÙĦØ°Ø§Øª",
        -1.0
      ],
      [
        "ĠFrench",
        -1.0
      ],
      [
        "é»Ħ",
        -1.0
      ],
      [
        "Ġà¤ľà¤¸à¤µ",
        -1.0
      ],
      [
        "Ġfew",
        -1.0
      ],
      [
        "ĠSau",
        -1.0
      ],
      [
        "'ex",
        -1.0
      ],
      [
        "å¤§çļĦ",
        -1.0
      ],
      [
        "ĠØ§ÙĦÙħÙĪØ³ÙħÙĬØ©",
        -1.0
      ],
      [
        "Ø§ÙĪÙĨ",
        -1.0
      ],
      [
        "ĠØ¹ÙĨÙĪØ§ÙĨ",
        -1.0
      ],
      [
        "ØŃØ¸Ø§Øª",
        -1.0
      ],
      [
        "Ġà°®à°¹",
        -1.0
      ],
      [
        "¶",
        -1.0
      ],
      [
        "masÄ±yla",
        -1.0
      ],
      [
        "Ġmoderne",
        -1.0
      ],
      [
        "å»¶çºĮ",
        -1.0
      ],
      [
        "à¤īà¤¸à¤ķ",
        -1.0
      ],
      [
        "Ġregards",
        -1.0
      ],
      [
        "à°®à°¨à°ķ",
        -1.0
      ],
      [
        "ï¼Įèªª",
        -1.0
      ],
      [
        "à¸£à¸²à¸Ħà¸²à¸Ĺ",
        -1.0
      ],
      [
        "Ġuliokithiri",
        -1.0
      ],
      [
        "çĶ¨æĸ¼",
        -1.0
      ],
      [
        "ĠPath",
        -1.0
      ],
      [
        "ĠØ§ÙĦØ®Ø·ÙĬØ±",
        -1.0
      ],
      [
        "-ÑĩÑĥÑĤÑĮ",
        -1.0
      ],
      [
        "ĠbranÅŁ",
        -1.0
      ],
      [
        "à°¾à°¤à°®",
        -1.0
      ],
      [
        "ĠØ§ÙĦÙĤÙĪÙħÙĬØ©",
        -1.0
      ],
      [
        "à¥ĭà¤¬à¤°",
        -1.0
      ],
      [
        "ĠØ§ÙĦÙĬÙĩÙĪØ¯ÙĬ",
        -1.0
      ],
      [
        "ĠÐĶÐ°",
        -1.0
      ],
      [
        "ÙĬØªØ§Ùħ",
        -1.0
      ],
      [
        "ĠÐ³Ð¾ÑĢÑıÑĩÐ¸Ð¹",
        -1.0
      ],
      [
        "æŃ¤",
        -1.0
      ],
      [
        "à¸Ńà¹Ģà¸Ķ",
        -1.0
      ],
      [
        "ĠRRE",
        -1.0
      ],
      [
        "åł",
        -1.0
      ],
      [
        "ĠØ·Ø¨Ø§Ø¹Ø©",
        -1.0
      ],
      [
        "à±Ģà°ļ",
        -1.0
      ],
      [
        "Ġawali",
        -1.0
      ],
      [
        "Ġkilicho",
        -1.0
      ],
      [
        "ĠØ£Ø±Ø³ÙĦÙĩ",
        -1.0
      ],
      [
        "à¸¸à¸Ĺà¸ĺà¸ĺà¸£à¸£à¸¡",
        -1.0
      ],
      [
        "èĩªå·±æĺ¯è¦ºå¾ĹæŃ£åĽłçĤºæĸ°",
        -1.0
      ],
      [
        "ophy",
        -1.0
      ],
      [
        "Ġhabituel",
        -1.0
      ],
      [
        "ĠÐºÐ¾Ð¼Ð°Ð½Ð´Ðµ",
        -1.0
      ],
      [
        "Ġà¤¸à¤®",
        -1.0
      ],
      [
        "Ġpiece",
        -1.0
      ],
      [
        "ÐĴÐ¸ÑģÐ±Ð°Ð´ÐµÐ½",
        -1.0
      ],
      [
        "à¸¸à¸¨à¸¥à¸ĺà¸£à¸£à¸¡à¸Ĺ",
        -1.0
      ],
      [
        "ĠparamÃ©t",
        -1.0
      ],
      [
        "ĠØ§ÙĦÙħØªÙĪØ§ØµÙĦ",
        -1.0
      ],
      [
        "Ġtools",
        -1.0
      ],
      [
        "-Ð¯ÑģÐµÐ½ÐµÑĨÐºÐ¾Ð³Ð¾",
        -1.0
      ],
      [
        "å¤§é»ĳä¼ŀ",
        -1.0
      ],
      [
        "ĠXVII",
        -1.0
      ],
      [
        "wahi",
        -1.0
      ],
      [
        "ĠÐ¿ÐµÑĩÐ°ÑĤÐ¸",
        -1.0
      ],
      [
        "ĠØ§ÙĦÙħØ³ØªÙĤØ¨ÙĦÙĬØ©",
        -1.0
      ],
      [
        "ĠØ¹ÙħØ§ÙĨ",
        -1.0
      ],
      [
        "åĬ©äº§å£«",
        -1.0
      ],
      [
        "ĠÐºÐ¾Ð»Ð»ÐµÐ³Ð¸",
        -1.0
      ],
      [
        "ĠÙĦØ§ØŃØªÙĦØ§ÙĦ",
        -1.0
      ],
      [
        "Ġgirdik",
        -1.0
      ],
      [
        "ĠÑħÐ°ÑĢÐ°ÐºÑĤÐµÑĢÐ¸Ð·ÑĥÐµÑĤÑģÑı",
        -1.0
      ],
      [
        "ĠBelge",
        -1.0
      ],
      [
        "à¹Įà¸ļà¸£à¸£à¹Ģà¸¥à¸ĩ",
        -1.0
      ],
      [
        "lect",
        -1.0
      ],
      [
        "ĠÑįÑĤÐ°Ð¶Ðµ",
        -1.0
      ],
      [
        "Ġè¯·",
        -1.0
      ],
      [
        "à¹ĥà¸ļà¸Ńà¸Ļ",
        -1.0
      ],
      [
        "Ġmilitants",
        -1.0
      ],
      [
        "Ġunderwent",
        -1.0
      ],
      [
        "Ð»ÑıÑĤÑĮ",
        -1.0
      ],
      [
        "Ġwanahadithi",
        -1.0
      ],
      [
        "Ġsmooth",
        -1.0
      ],
      [
        "ãĢĭï¼Į",
        -1.0
      ],
      [
        "Ġvinne",
        -1.0
      ],
      [
        "ĠÑĪÐ¸ÑĢÐ¾ÐºÐ¾",
        -1.0
      ],
      [
        "ĠØ£ÙĨØ²ÙĦ",
        -1.0
      ],
      [
        "ĠÙĪØ§ÙĦØ¹ÙĦÙħ",
        -1.0
      ],
      [
        "ĠhayatÄ±",
        -1.0
      ],
      [
        "à¸²à¸ķ",
        -1.0
      ],
      [
        "Ġbour",
        -1.0
      ],
      [
        "ĠCoat",
        -1.0
      ],
      [
        "ĠarrÃªt",
        -1.0
      ],
      [
        "Ġritual",
        -1.0
      ],
      [
        "Ġbundle",
        -1.0
      ],
      [
        "Ġwants",
        -1.0
      ],
      [
        "ĠÐŀÑĢÐ¸Ð°Ð½Ñĭ",
        -1.0
      ],
      [
        "ÙĪÙĨÙĬØ©",
        -1.0
      ],
      [
        "ĠØ§ÙĦÙħØ¹ÙĤØ¯Ø©",
        -1.0
      ],
      [
        "ÑħÐ¾ÑĤÐ½Ð¸ÑĩÑĮÐ¸",
        -1.0
      ],
      [
        "ĠÑĢÐµÐ»Ð¸Ð³Ð¸Ð¾Ð·",
        -1.0
      ],
      [
        "à¸Ĭà¸¥à¸Ľà¸£à¸°à¸Ĺà¸²à¸Ļ",
        -1.0
      ],
      [
        "à¸±à¸Ļà¹Ħà¸Ľà¸Ķ",
        -1.0
      ],
      [
        "ÙħØ§",
        -1.0
      ],
      [
        "Ð¸ÑģÑĤ",
        -1.0
      ],
      [
        "Ġnguo",
        -1.0
      ],
      [
        "ĠÙĪØ±Ø£ÙĬ",
        -1.0
      ],
      [
        "ÙħÙĦ",
        -1.0
      ],
      [
        "åĮ»çĸĹ",
        -1.0
      ],
      [
        "à¸§à¸ĩà¸ģà¸²à¸£",
        -1.0
      ],
      [
        "à¹īà¸Ńà¸ĩà¸Ļà¸Ńà¸Ļ",
        -1.0
      ],
      [
        "ĠbÃ¶ylelikle",
        -1.0
      ],
      [
        "ĠAnywhere",
        -1.0
      ],
      [
        "Ġà¤ĵà¤µà¤°",
        -1.0
      ],
      [
        "Ġnimeacha",
        -1.0
      ],
      [
        "ä»»ä½ķ",
        -1.0
      ],
      [
        "onjo",
        -1.0
      ],
      [
        "ĠÐ¼Ð°ÑģÐ»Ñı",
        -1.0
      ],
      [
        "Ġmodeller",
        -1.0
      ],
      [
        "MEZO",
        -1.0
      ],
      [
        "Ju",
        -1.0
      ],
      [
        "à¹īà¸Ńà¸ĩà¹Ĥà¸Ķà¸¢à¸ªà¸²à¸£",
        -1.0
      ],
      [
        "å¾®æľºä¿ĿæĬ¤è£ħç½®",
        -1.0
      ],
      [
        "çļĦä¼łæĴŃ",
        -1.0
      ],
      [
        "ĠÐ±Ð¾Ð»ÐµÐ·Ð½ÐµÐ¹",
        -1.0
      ],
      [
        "MONEYVAL",
        -1.0
      ],
      [
        "ĠÐ½ÐµÑĢÐ²",
        -1.0
      ],
      [
        "Ġarkeolojik",
        -1.0
      ],
      [
        "à¹īà¹ģà¸Ļ",
        -1.0
      ],
      [
        "à¸±à¸¡à¸¡à¸Ĭà¹Ĥà¸¢",
        -1.0
      ],
      [
        "ÅŁer",
        -1.0
      ],
      [
        "Ġkiulimwengu",
        -1.0
      ],
      [
        "ĠTwita",
        -1.0
      ],
      [
        "Ġidam",
        -1.0
      ],
      [
        "ĠÐ¸Ð´ÐµÐ°Ð»ÑĮÐ½Ð¾",
        -1.0
      ],
      [
        "à°¿:",
        -1.0
      ],
      [
        "ĠÃ©gal",
        -1.0
      ],
      [
        "Ø¬ÙĨØ§",
        -1.0
      ],
      [
        "à¸Ńà¸ĩà¸łà¸²à¸©à¸²",
        -1.0
      ],
      [
        "Ġdysfunction",
        -1.0
      ],
      [
        "ĠØ§ÙĦØ§ÙĨØªÙĩØ§ÙĥØ§Øª",
        -1.0
      ],
      [
        "ĠØ§ÙĦÙħÙĨØŃ",
        -1.0
      ],
      [
        "ĠÐĲÐ½Ð³Ð¸Ð»ÑĮÑı",
        -1.0
      ],
      [
        "ĠÃĩÃ¼nkÃ¼",
        -1.0
      ],
      [
        "ĠÐľÐ°Ð»Ð¸",
        -1.0
      ],
      [
        "Ġdeliver",
        -1.0
      ],
      [
        "à¸Ĭà¸²à¸įà¸īà¸¥à¸²à¸Ķ",
        -1.0
      ],
      [
        "ĠÃ©nergie",
        -1.0
      ],
      [
        "à¸Ļà¸ľ",
        -1.0
      ],
      [
        "æīĢè°ĵçļĦ",
        -1.0
      ],
      [
        "Ġpsvitaforums",
        -1.0
      ],
      [
        "ĠÙĤÙĪØ§Øª",
        -1.0
      ],
      [
        "à¹Īà¸§à¸¡à¸Ķ",
        -1.0
      ],
      [
        "ĠØ§ÙĨØ¬Ø§Ø²",
        -1.0
      ],
      [
        "oked",
        -1.0
      ],
      [
        "èģĶçĽŁ",
        -1.0
      ],
      [
        "ĠÐ¿ÑĢÐ¾Ð³ÑĢÐ°Ð¼Ð¼Ñĭ",
        -1.0
      ],
      [
        "ĠWengine",
        -1.0
      ],
      [
        "à¸Ķà¸£à¸£à¸Ĭà¸Ļ",
        -1.0
      ],
      [
        "ç«ŀ",
        -1.0
      ],
      [
        "äººæ°ĳæĶ¿åºľ",
        -1.0
      ],
      [
        "ĠØ£Ø¬Ø²Ø§Ø¡",
        -1.0
      ],
      [
        "ĠFar",
        -1.0
      ],
      [
        "çľŁçļĦæĺ¯",
        -1.0
      ],
      [
        "à¤¾à¤ª",
        -1.0
      ],
      [
        "ãĢĤè¿ĻäºĽè´¹çĶ¨åĴĮæĬ¼éĩĳåı¯èĥ½ä¸įåĮħæĭ¬ç¨İæ¬¾",
        -1.0
      ],
      [
        "Ġshorter",
        -1.0
      ],
      [
        "Ġspent",
        -1.0
      ],
      [
        "éģ©åĲĪ",
        -1.0
      ],
      [
        "Cool",
        -1.0
      ],
      [
        "Ġteori",
        -1.0
      ],
      [
        "ĠØ§ÙĦØ²Ø±",
        -1.0
      ],
      [
        "ĠØ±Ø§ÙĥÙĪØ¨Ø©",
        -1.0
      ],
      [
        "Ġjan",
        -1.0
      ],
      [
        "ĠÐľÐ°Ð»",
        -1.0
      ],
      [
        ".Wa",
        -1.0
      ],
      [
        "ĠÐ¿Ð¾Ð»ÐµÐ·Ð½Ð¾",
        -1.0
      ],
      [
        "ØŃÙĦØ§ÙĦ",
        -1.0
      ],
      [
        "ĠÙĦÙĦÙĨØ¸Ø±",
        -1.0
      ],
      [
        "Ø§ÙĦØ£ÙĪÙĦ",
        -1.0
      ],
      [
        "ãĢĤä¼ļ",
        -1.0
      ],
      [
        "Ġkent",
        -1.0
      ],
      [
        "ÙħÙĨØªØ¯Ùī",
        -1.0
      ],
      [
        "ä¸°å¯ĮçļĦ",
        -1.0
      ],
      [
        "Ġdownload",
        -1.0
      ],
      [
        "ĠØŃÙĤÙĬÙĤØ©",
        -1.0
      ],
      [
        "à¤¾à¤¤",
        -1.0
      ],
      [
        "Ġà¹ģà¸¡à¸¥à¸ĩ",
        -1.0
      ],
      [
        "lette",
        -1.0
      ],
      [
        "jili",
        -1.0
      ],
      [
        "ĠMoammar",
        -1.0
      ],
      [
        "æĦıç¾©",
        -1.0
      ],
      [
        "à¸¡à¸£à¸£à¸Ħ",
        -1.0
      ],
      [
        "Ø¬Ùĩ",
        -1.0
      ],
      [
        "ĠdÃ©fiscalisÃ©",
        -1.0
      ],
      [
        "ĠÙĪØ§ÙĦØ¥Ø¯Ø±Ø§Ùĥ",
        -1.0
      ],
      [
        "ĠdÄ±ÅŁarÄ±da",
        -1.0
      ],
      [
        "ĠmarchÃ©",
        -1.0
      ],
      [
        "Ð¸ÑĢÑĥÐµÑĤ",
        -1.0
      ],
      [
        "ted",
        -1.0
      ],
      [
        "ĠAlman",
        -1.0
      ],
      [
        "Ġsikimin",
        -1.0
      ],
      [
        "Ð°ÐµÑĤÐµÑģÑĮ",
        -1.0
      ],
      [
        "ĠÐ¿Ð¾Ð»Ð¸Ð²Ð°",
        -1.0
      ],
      [
        "Ġà°¹à°¯",
        -1.0
      ],
      [
        "Ø§ÙĦØ£ÙĨØ¹Ø§Ùħ",
        -1.0
      ],
      [
        "Ġà¤ıà¤«à¤¡",
        -1.0
      ],
      [
        "à¸·à¸Ńà¸ĩ",
        -1.0
      ],
      [
        "à¸Ļà¸²à¸ĩà¸ªà¸²à¸§",
        -1.0
      ],
      [
        "à¸¢à¸¡",
        -1.0
      ],
      [
        "Ġobtain",
        -1.0
      ],
      [
        "Ġhint",
        -1.0
      ],
      [
        "à¸±à¸ĩà¹Ģà¸§",
        -1.0
      ],
      [
        "...,",
        -1.0
      ],
      [
        "_MACHINE",
        -1.0
      ],
      [
        "ĠÐ½Ð¾Ð²ÑĥÑİ",
        -1.0
      ],
      [
        "ĠMu",
        -1.0
      ],
      [
        "ĠÃ¶nceden",
        -1.0
      ],
      [
        "ĠØªØ·ÙĩÙĬØ±",
        -1.0
      ],
      [
        "à¸±à¸Ļà¸¢à¸Ńà¸Ķà¹Ģà¸¢",
        -1.0
      ],
      [
        "ĠGAVSIMIZ",
        -1.0
      ],
      [
        "à¸´à¸Ļà¸Ķ",
        -1.0
      ],
      [
        "ĠÑĦÐ°Ð¼Ð¸Ð»Ð¸Ñı",
        -1.0
      ],
      [
        "à±ĭà°¦à°Ĺ",
        -1.0
      ],
      [
        "larina",
        -1.0
      ],
      [
        "à¥įà¤¯à¤¸",
        -1.0
      ],
      [
        "Ġacted",
        -1.0
      ],
      [
        "ĠÐºÑĢÐµ",
        -1.0
      ],
      [
        "å¼¯æĽ²",
        -1.0
      ],
      [
        "ĠØ§ÙĦØ¯ÙģØ§Ø¹ÙĬØ©",
        -1.0
      ],
      [
        "à¸ķà¸³à¸£à¸²",
        -1.0
      ],
      [
        "Ġsympa",
        -1.0
      ],
      [
        "ĠØ§ÙĦØ³Ø§ÙĤ",
        -1.0
      ],
      [
        "à¸ĩà¹Ģà¸Ĥ",
        -1.0
      ],
      [
        "à¹Īà¸Ńà¸Ļà¸¡",
        -1.0
      ],
      [
        "ĠBe",
        -1.0
      ],
      [
        "èµ°äº²æĪļè®¤éĹ¨åŃĲ",
        -1.0
      ],
      [
        "Ġà¹ĥà¸Ļà¸ģà¸²à¸£",
        -1.0
      ],
      [
        "ĠØªØªÙĪØ¬Ùĩ",
        -1.0
      ],
      [
        "rÃ©g",
        -1.0
      ],
      [
        "à¸±à¸ļà¸Ħà¸£à¸Ńà¸ļà¸Ħà¸£",
        -1.0
      ],
      [
        "ç§ģ",
        -1.0
      ],
      [
        "Ġorders",
        -1.0
      ],
      [
        "Chevrolet",
        -1.0
      ],
      [
        "ĠÑĢÐ°Ð·Ð¼ÐµÑīÐµÐ½Ð¸Ñı",
        -1.0
      ],
      [
        "ï¼ĮæıĲåįĩ",
        -1.0
      ],
      [
        "ĠÙĤØ±Ø§Ø±Ø§",
        -1.0
      ],
      [
        "à¹Ĥà¸Ħà¸ģà¸«",
        -1.0
      ],
      [
        "Ø¬ÙĬÙĦ",
        -1.0
      ],
      [
        "à°¾à°¹à°°à°£à°ķ",
        -1.0
      ],
      [
        "Ġnulle",
        -1.0
      ],
      [
        "Ġyalvar",
        -1.0
      ],
      [
        "Ġhallerde",
        -1.0
      ],
      [
        "Ġpembeni",
        -1.0
      ],
      [
        "Ġtemel",
        -1.0
      ],
      [
        "à¹Īà¸¥à¸°à¸Ĭ",
        -1.0
      ],
      [
        "ĠGutiÃ©rrez",
        -1.0
      ],
      [
        "Ġrenouvellement",
        -1.0
      ],
      [
        "ĠUNLOVEABLE",
        -1.0
      ],
      [
        "Ġinaombewa",
        -1.0
      ],
      [
        "Ġkukutana",
        -1.0
      ],
      [
        "ĠÐ¿ÑĢÐ¾ÑĦÐµÑģÑģÐ¸Ð¾Ð½Ð°Ð»ÑĮÐ½Ð¾Ð¹",
        -1.0
      ],
      [
        "æĶ¿åºľåĴĮ",
        -1.0
      ],
      [
        "ĠCAA",
        -1.0
      ],
      [
        "Ġsudden",
        -1.0
      ],
      [
        "éŀŃ",
        -1.0
      ],
      [
        "ĠÙĪØ¨Ø§Ø¡",
        -1.0
      ],
      [
        "Ã´le",
        -1.0
      ],
      [
        "Ġshell",
        -1.0
      ],
      [
        "ĠpropriÃ©tÃ©",
        -1.0
      ],
      [
        "èĭ±æł¼åħ°",
        -1.0
      ],
      [
        "à¸łà¸²à¸ŀà¸ª",
        -1.0
      ],
      [
        "à°¾à°°à°ķ",
        -1.0
      ],
      [
        "ĠÙĦÙĦØ¥",
        -1.0
      ],
      [
        "Ġconsiderable",
        -1.0
      ],
      [
        "ĠÙĦÙĦØ´Ø¹Ø¨",
        -1.0
      ],
      [
        "à¹ĳà¹ĳ",
        -1.0
      ],
      [
        "ĠGivenchy",
        -1.0
      ],
      [
        "ÐĿÐ°ÑĩÐ°Ð»Ð¾",
        -1.0
      ],
      [
        "Ñĭ",
        -1.0
      ],
      [
        "Zeneggen",
        -1.0
      ],
      [
        "Ġsubstance",
        -1.0
      ],
      [
        "ĠÐ¾Ð±Ð¾",
        -1.0
      ],
      [
        "Ð»ÑĮÑģÐºÐ¸Ð¹",
        -1.0
      ],
      [
        "absolute",
        -1.0
      ],
      [
        "ĠØ§ÙĦØ´Ø¨ÙĥØ©",
        -1.0
      ],
      [
        "ĠfiertÃ©",
        -1.0
      ],
      [
        "à¹Ģà¸ĭà¸Ļà¸ķ",
        -1.0
      ],
      [
        "Ġà¤¹à¤«",
        -1.0
      ],
      [
        "ĠÐ¿ÑĥÐ»ÑĮ",
        -1.0
      ],
      [
        "ĠÐĺÐ³Ð¾ÑĢÐµÐ²Ðµ",
        -1.0
      ],
      [
        "ĠÑĤÑĢÐ°Ð´Ð¸ÑĨÐ¸Ð¾Ð½Ð½Ð¾",
        -1.0
      ],
      [
        "Ġidare",
        -1.0
      ],
      [
        "ä¸įè¿ŀç»ŃçĤ¹",
        -1.0
      ],
      [
        "ĠÑģÑĤÐ¾ÑĢÐ¾Ð½",
        -1.0
      ],
      [
        "ĠØ§ÙĦÙģÙĥØ±",
        -1.0
      ],
      [
        "Ġbilme",
        -1.0
      ],
      [
        "ĠBeceri",
        -1.0
      ],
      [
        "Ġtransportation",
        -1.0
      ],
      [
        "ĠÙĪØ³ÙĪØ±ÙĬØ§",
        -1.0
      ],
      [
        "ĠÙĪØ§ÙĦØªÙĪ",
        -1.0
      ],
      [
        "Ð´Ð¸ÑĢÐµÐºÑĤÐ¾ÑĢ",
        -1.0
      ],
      [
        "nywe",
        -1.0
      ],
      [
        "à±įà°ķà°ľ",
        -1.0
      ],
      [
        "ç±¤",
        -1.0
      ],
      [
        "ĠÐ¿Ð¾Ð½Ð¸Ð¼Ð°Ñİ",
        -1.0
      ],
      [
        "à°¾à°¡à°ķ",
        -1.0
      ],
      [
        "ØªØµØ§ÙħÙĬÙħ",
        -1.0
      ],
      [
        "ĠÙĪØ§ÙĦØŃÙĦ",
        -1.0
      ],
      [
        "Ġà¤ķà¤¤",
        -1.0
      ],
      [
        "ÙĢÙĢÙĢÙĢÙĢ",
        -1.0
      ],
      [
        "temp",
        -1.0
      ],
      [
        "ĠtÃ¼rden",
        -1.0
      ],
      [
        "Ġbacak",
        -1.0
      ],
      [
        "ĠWakurugenzi",
        -1.0
      ],
      [
        "teen",
        -1.0
      ],
      [
        "à¤ĳ",
        -1.0
      ],
      [
        "ĠÐ¿ÐµÑĢÐµÐ²Ð¾Ð·",
        -1.0
      ],
      [
        "à¤Ĥà¤¡à¤°",
        -1.0
      ],
      [
        "ĠPRESUMER",
        -1.0
      ],
      [
        "exp",
        -1.0
      ],
      [
        "ists",
        -1.0
      ],
      [
        "à±ģ!",
        -1.0
      ],
      [
        "çĶ¨ç¶²çµ¡æīĵæīĭæĶ»æĵĬ",
        -1.0
      ],
      [
        "Ġsonradan",
        -1.0
      ],
      [
        "ĠÑįÑģÑĤÑĢÐ¾Ð³ÐµÐ½Ð¾Ð²",
        -1.0
      ],
      [
        "ÐĿÐ°Ð¼",
        -1.0
      ],
      [
        "Ġcomprehensive",
        -1.0
      ],
      [
        "à¹Įà¸«à¸¥à¸²à¸¢",
        -1.0
      ],
      [
        "ĠAkÅŁam",
        -1.0
      ],
      [
        "èī²æĥħ",
        -1.0
      ],
      [
        "region",
        -1.0
      ],
      [
        "UB",
        -1.0
      ],
      [
        "Ġmen",
        -1.0
      ],
      [
        "èĲ½çļĦ",
        -1.0
      ],
      [
        "æľĢé«ĺæ³ķéĻ¢",
        -1.0
      ],
      [
        "åĺŁåĺŁ",
        -1.0
      ],
      [
        "Ġconcluded",
        -1.0
      ],
      [
        "ĠØ§ÙĦÙħØªØ´",
        -1.0
      ],
      [
        "à¸¸à¸ĩà¹Ĥà¸Ī",
        -1.0
      ],
      [
        "ÙĪÙĦØ¹ÙĦ",
        -1.0
      ],
      [
        "æŃ§è§Ĩ",
        -1.0
      ],
      [
        "Ġijayo",
        -1.0
      ],
      [
        "ĠfÄ±rÃ§alar",
        -1.0
      ],
      [
        "ĠÐ¿ÑĢÐ°ÑĩÐµÑĩÐ½Ð¾Ð¹",
        -1.0
      ],
      [
        "ĠÐľÐ£ÐĶÐłÐŀÐ¡Ð¢Ð¬",
        -1.0
      ],
      [
        "ĠØ§ÙĦØ³ÙģØ§Ø±Ø©",
        -1.0
      ],
      [
        "æħ®",
        -1.0
      ],
      [
        "à¸±à¸§à¹Ģà¸¥à¸Ĥ",
        -1.0
      ],
      [
        "à¸ģà¸£à¸ĵ",
        -1.0
      ],
      [
        "ĠrÃ©c",
        -1.0
      ],
      [
        "æĪĳåĢĳåľ¨",
        -1.0
      ],
      [
        "ĠÐ·Ð´Ð°Ð½Ð¸Ñı",
        -1.0
      ],
      [
        "ĠNews",
        -1.0
      ],
      [
        "Ġbeef",
        -1.0
      ],
      [
        "ÙĬÙĩÙħØ§",
        -1.0
      ],
      [
        "Ġhotels",
        -1.0
      ],
      [
        "ĠØ§ÙĦØ¥Ø®Ø¨Ø§Ø±ÙĬØ©",
        -1.0
      ],
      [
        "naires",
        -1.0
      ],
      [
        "ĠBad",
        -1.0
      ],
      [
        "ĠÐ¡ÐµÐ²ÐµÑĢÐ½Ð¾Ð¼",
        -1.0
      ],
      [
        "éªĤ",
        -1.0
      ],
      [
        "ĠÑĤÐ°ÐºÐ°Ñı",
        -1.0
      ],
      [
        "Ġtrente",
        -1.0
      ],
      [
        "ĠØ§ÙĦØ§Ø¹ÙĦØ§ÙħÙĬ",
        -1.0
      ],
      [
        "ĠÙĪØ¬Ø¨Ø§Øª",
        -1.0
      ],
      [
        "Er",
        -1.0
      ],
      [
        "gic",
        -1.0
      ],
      [
        "ØªØ¨Ø±",
        -1.0
      ],
      [
        "ÐºÐ»ÑİÑĩÐµÐ½Ð¸Ðµ",
        -1.0
      ],
      [
        "ĠÙĦÙĦØ¬",
        -1.0
      ],
      [
        "Ð»ÑıÑİ",
        -1.0
      ],
      [
        "ĠÙħØ±ÙĥØ²",
        -1.0
      ],
      [
        "ĠØ°",
        -1.0
      ],
      [
        "kah",
        -1.0
      ],
      [
        "ĠØ§ÙĦØ·Ø¨Ø§Ø·Ø¨Ø§Ø¦ÙĬ",
        -1.0
      ],
      [
        "Ġtraite",
        -1.0
      ],
      [
        "ĠCairo",
        -1.0
      ],
      [
        "ĠDakota",
        -1.0
      ],
      [
        "ĠÐ¿Ð¾Ð²Ð»Ð¸Ñı",
        -1.0
      ],
      [
        "Ø¸Ø§ÙģØ±",
        -1.0
      ],
      [
        "ĠparÃ§a",
        -1.0
      ],
      [
        "à¸Ĥà¸Ńà¸ĩà¹Ĥà¸¥à¸ģ",
        -1.0
      ],
      [
        "cy",
        -1.0
      ],
      [
        "ĠÑĢÐ°ÑģÑģÐºÐ°Ð¶Ñĥ",
        -1.0
      ],
      [
        "Ġparokia",
        -1.0
      ],
      [
        "Ð²Ñĥ",
        -1.0
      ],
      [
        "ĠÐ¡ÐķÐłÐĶÐ¦Ðķ",
        -1.0
      ],
      [
        "ĠplacÃ©s",
        -1.0
      ],
      [
        "ç¹ģçĲĲ",
        -1.0
      ],
      [
        "à¸Ĺà¸³à¸ĩà¸²à¸Ļ",
        -1.0
      ],
      [
        "Tiruvallur",
        -1.0
      ],
      [
        "ĠDucroux",
        -1.0
      ],
      [
        "ĠÐºÐ¾Ð¿Ðµ",
        -1.0
      ],
      [
        "à¸ŀà¸£à¸°à¸Īà¸Ńà¸¡à¹Ģà¸ģà¸¥",
        -1.0
      ],
      [
        "à¹īà¸¢",
        -1.0
      ],
      [
        "ĠGrÃ¢ce",
        -1.0
      ],
      [
        "ĠsektÃ¶rÃ¼n",
        -1.0
      ],
      [
        "fuatao",
        -1.0
      ],
      [
        "Ġpointe",
        -1.0
      ],
      [
        "ĠÐ¿ÑĢÐ¾Ð³ÑĢÐ°Ð¼Ð¼Ð°",
        -1.0
      ],
      [
        "ĠÑĢÐ°Ð·Ð¼ÐµÑī",
        -1.0
      ],
      [
        "ĠÐ¾ÑģÐ½Ð¾Ð²Ð¾Ð¹",
        -1.0
      ],
      [
        "Ãĩe",
        -1.0
      ],
      [
        "ĠÐ´Ð°ÑĤÑĮ",
        -1.0
      ],
      [
        "Ġelekezi",
        -1.0
      ],
      [
        "|US",
        -1.0
      ],
      [
        "ĠÐ¨ÐµÐ²ÑĩÐµÐ½ÐºÐ¾",
        -1.0
      ],
      [
        "ĠØ·ÙĪØ¨Ùī",
        -1.0
      ],
      [
        "ĠkÃ¶ÅŁe",
        -1.0
      ],
      [
        "å®¹æĺĵ",
        -1.0
      ],
      [
        "ĠØ³Ø¬ÙĨ",
        -1.0
      ],
      [
        "ĠbriÃ¨vement",
        -1.0
      ],
      [
        "nflamatuar",
        -1.0
      ],
      [
        "æĬĵ",
        -1.0
      ],
      [
        "à¹īà¸¡à¸ķà¸³",
        -1.0
      ],
      [
        "éģ¸è³¼",
        -1.0
      ],
      [
        "ĠVÃ¼cuttaki",
        -1.0
      ],
      [
        "ĠÐ²Ð¾ÑģÐ¿ÑĢÐ¸ÑıÑĤÐ¸Ñı",
        -1.0
      ],
      [
        "à¸ľà¸ªà¸¡à¸ģ",
        -1.0
      ],
      [
        "ĠÐ¾Ð¿ÐµÑĢÐ°ÑĤÐ¸Ð²Ð½Ð¾Ð³Ð¾",
        -1.0
      ],
      [
        "ĠØ§ÙĦØªØ£ÙĦÙĬÙģ",
        -1.0
      ],
      [
        "Ġà¤Ĩà¤ľ",
        -1.0
      ],
      [
        "ï¼Įçľĭçľĭè¿Ļä½įæ½®äººå¼ĢçļĦ",
        -1.0
      ],
      [
        "Ġnywele",
        -1.0
      ],
      [
        "faqih",
        -1.0
      ],
      [
        "nishwa",
        -1.0
      ],
      [
        "ĠÐ½Ð°Ð·ÑĭÐ²Ð°ÐµÑĪÑĮ",
        -1.0
      ],
      [
        "vÃ©s",
        -1.0
      ],
      [
        "not",
        -1.0
      ],
      [
        "ty",
        -1.0
      ],
      [
        "ĠÐ¦ÐµÐ½Ñĭ",
        -1.0
      ],
      [
        "Ã¼lmÃ¼ÅŁtÃ¼r",
        -1.0
      ],
      [
        "ĠÑĤÐ°ÐºÐ¾Ð²Ð°",
        -1.0
      ],
      [
        "ĠÙĦØ§ÙĩÙĪØª",
        -1.0
      ],
      [
        "æĿ¡ä»¶",
        -1.0
      ],
      [
        "ÑĪÐµ",
        -1.0
      ],
      [
        "à¹ĥà¸Ļà¸ŀ",
        -1.0
      ],
      [
        "ĠÙĪØ§Ø¨Ø±Ø§ÙĩÙĬÙħ",
        -1.0
      ],
      [
        "ĠSituation",
        -1.0
      ],
      [
        "ĠÙĤØ¯Ø±",
        -1.0
      ],
      [
        "Akizungumza",
        -1.0
      ],
      [
        "ĠØ¨Ø¯Ùħ",
        -1.0
      ],
      [
        "ĠSupervisor",
        -1.0
      ],
      [
        "ãĢĤä½Ĩä»ĸ",
        -1.0
      ],
      [
        "ĠÙĬØªØ±Ø§Ø¬Ø¹",
        -1.0
      ],
      [
        "/home",
        -1.0
      ],
      [
        "à°¿à°§à°®",
        -1.0
      ],
      [
        "Ġkwasababu",
        -1.0
      ],
      [
        "ĠÑĩÐ°Ð¹",
        -1.0
      ],
      [
        "à¸¸:",
        -1.0
      ],
      [
        "ï¼ĮèĢĮæĺ¯åľ¨å±ŀçģµå±ĤéĿ¢çļĦ",
        -1.0
      ],
      [
        "irmidhiy",
        -1.0
      ],
      [
        "Ġfournir",
        -1.0
      ],
      [
        "é¢Ŀå¤ĸ",
        -1.0
      ],
      [
        "à¹ģà¸Łà¸Ļ",
        -1.0
      ],
      [
        "ĠÐ¼ÐµÑĢÐ¾Ð¿ÑĢÐ¸ÑıÑĤÐ¸Ð¸",
        -1.0
      ],
      [
        "ĠØ§ÙĦÙħØ³Ø£ÙĦØ©",
        -1.0
      ],
      [
        "ĠÙĥÙĦÙĬÙĩÙħØ§",
        -1.0
      ],
      [
        "âĢĻmadrasatayn",
        -1.0
      ],
      [
        "arma",
        -1.0
      ],
      [
        "Ġà¹Ĥà¸Ľà¸£à¹ģà¸ģà¸£à¸¡à¸Ľà¸£à¸°à¸¢",
        -1.0
      ],
      [
        "à±ģ-",
        -1.0
      ],
      [
        "à¥Ģà¤®à¤¤",
        -1.0
      ],
      [
        "ĠProgramme",
        -1.0
      ],
      [
        "à¥©",
        -1.0
      ],
      [
        "çĩķ",
        -1.0
      ],
      [
        "åĴĮæģ¢å¤įæ²»çĲĨçļĦæĸ¹æ¡Ī",
        -1.0
      ],
      [
        "Ġhonest",
        -1.0
      ],
      [
        "çĬ¹å¤ªè£Ķç¾İåĽ½äºº",
        -1.0
      ],
      [
        "ĠÑģÐ¿Ð¾ÑģÐ¾Ð±Ð¾Ð²",
        -1.0
      ],
      [
        "Ġà¤ªà¤ļ",
        -1.0
      ],
      [
        "ĠØ¹Ø¯ÙĬ",
        -1.0
      ],
      [
        "à¹īà¸Ħà¸§à¸²à¸¡à¸ª",
        -1.0
      ],
      [
        "ebe",
        -1.0
      ],
      [
        "-profit",
        -1.0
      ],
      [
        "Tattoo",
        -1.0
      ],
      [
        "ĠText",
        -1.0
      ],
      [
        "ØªÙĦØ°Ø°",
        -1.0
      ],
      [
        "ĠÙĩØ§Ùħ",
        -1.0
      ],
      [
        "åıĶ",
        -1.0
      ],
      [
        "ÄŁini",
        -1.0
      ],
      [
        "ï¼Įå¸¸",
        -1.0
      ],
      [
        "ĠØ´ÙĬØ§Ø·ÙĬÙĨ",
        -1.0
      ],
      [
        "çĽ´è¨Ģä¸įè®³",
        -1.0
      ],
      [
        "Ø§ÙĦØªÙĪ",
        -1.0
      ],
      [
        "55",
        -1.0
      ],
      [
        "ĠÐºÐµÑĢÐ½ÐµÑĢ",
        -1.0
      ],
      [
        "ĠLÃ¢",
        -1.0
      ],
      [
        "ĠChoice",
        -1.0
      ],
      [
        "ĠØ§ÙĦØ¬Ø¯Ø¯",
        -1.0
      ],
      [
        "ĠÐ¿Ð¾Ð»Ð½Ð¾Ð¼",
        -1.0
      ],
      [
        "ĠÐ¸Ð·Ð²ÐµÑģÑĤÐ½ÑĭÑħ",
        -1.0
      ],
      [
        "âĢĿ:",
        -1.0
      ],
      [
        "Ġof",
        -1.0
      ],
      [
        "ĠØ§ØŃØªØ³Ø§Ø¨",
        -1.0
      ],
      [
        "so",
        -1.0
      ],
      [
        "ĠØ§ÙĦØ£ØŃÙĥØ§Ùħ",
        -1.0
      ],
      [
        "Ġprincipales",
        -1.0
      ],
      [
        "sunu",
        -1.0
      ],
      [
        "ĠØ¹ÙĤØ¯Ùĩ",
        -1.0
      ],
      [
        "SaÄŁlÄ±klÄ±",
        -1.0
      ],
      [
        "ĠÐ·Ð½Ð°Ð¼ÐµÐ½",
        -1.0
      ],
      [
        "ĠÑĢÐ¾ÑģÑĤÐ¾Ð¼",
        -1.0
      ],
      [
        "ĠÙĪØªÙĪÙĨØ³",
        -1.0
      ],
      [
        "anki",
        -1.0
      ],
      [
        "ĠÙĬØªØ¹ÙĬÙĨ",
        -1.0
      ],
      [
        "è¶ĭä¹ĭèĭ¥é¹ľ",
        -1.0
      ],
      [
        "ĠÐ¿Ð°ÑĢÑĤÐ¸Ñİ",
        -1.0
      ],
      [
        "ä¸ĢåĢĭäºº",
        -1.0
      ],
      [
        "à¥ģà¤¸à¤ľ",
        -1.0
      ],
      [
        "ĠÙĪØ§ÙĦØ¹Ø¨Ø«",
        -1.0
      ],
      [
        "à¹Īà¹ģà¸¡",
        -1.0
      ],
      [
        "à¹Įà¸Ĺà¸³à¸Ńà¸²à¸«à¸²à¸£",
        -1.0
      ],
      [
        "å°¤åħ¶æĺ¯",
        -1.0
      ],
      [
        "âĢĿãĢĤĊ",
        -1.0
      ],
      [
        "Ġtunnel",
        -1.0
      ],
      [
        "ĠØ¨ØªØ£Ø³ÙĬØ³",
        -1.0
      ],
      [
        "à¹Īà¸²à¸Ļà¸Ĺà¸²à¸ĩ",
        -1.0
      ],
      [
        "sors",
        -1.0
      ],
      [
        "ï¼Įä¸»è¦ģ",
        -1.0
      ],
      [
        "à¤¾à¤Łà¤ľ",
        -1.0
      ],
      [
        "æĶ¯",
        -1.0
      ],
      [
        "ĠnumarasÄ±nÄ±",
        -1.0
      ],
      [
        "à±įâĢĿ",
        -1.0
      ],
      [
        "ĠdÃ¼ÅŁÃ¼nÃ¼yor",
        -1.0
      ],
      [
        "å§¿",
        -1.0
      ],
      [
        "phy",
        -1.0
      ],
      [
        "(c",
        -1.0
      ],
      [
        "ĠÑĥÑħÐ°",
        -1.0
      ],
      [
        "ĠÙĬÙĨÙĥØ±",
        -1.0
      ],
      [
        "éŁ³éĩı",
        -1.0
      ],
      [
        "ÐĳÐ¾Ð»ÑĮÑĪÐ¾Ð¹",
        -1.0
      ],
      [
        "ĠØºÙĬØ¨Ø©",
        -1.0
      ],
      [
        "à¸´à¸ķà¸Ł",
        -1.0
      ],
      [
        "à¹Īà¸¥à¸°à¹Ģà¸Ķ",
        -1.0
      ],
      [
        "ĠÙħØ£Ø³Ø§Ø©",
        -1.0
      ],
      [
        "ÐĶÐµÑĤ",
        -1.0
      ],
      [
        "Ġprinciples",
        -1.0
      ],
      [
        "ĠØ§ÙĦÙħØµØ±",
        -1.0
      ],
      [
        "âĢĻOMS",
        -1.0
      ],
      [
        "ĠÙĦÙĦØ¹ÙħØ§ÙĦ",
        -1.0
      ],
      [
        "Ġkavga",
        -1.0
      ],
      [
        "ĠVolkswagen",
        -1.0
      ],
      [
        "ĠÑģÑĤÐ°ÑĤÑĮÑıÐ¼Ð¸",
        -1.0
      ],
      [
        "ÑĥÑİÑīÐ¸Ð¹",
        -1.0
      ],
      [
        "å¤ªå·®",
        -1.0
      ],
      [
        "à¹Ģà¸ľà¸²",
        -1.0
      ],
      [
        "Ġconseils",
        -1.0
      ],
      [
        "ĠØ§ÙĦØ£Ø±ÙĪØ§ØŃ",
        -1.0
      ],
      [
        "inÃ©e",
        -1.0
      ],
      [
        "à¹Įà¹Ĥà¸¥à¸ģ",
        -1.0
      ],
      [
        "æ·±åħ¥",
        -1.0
      ],
      [
        "ĠØ§ÙĦÙħØ³ØªØ·Ø§Ø¹",
        -1.0
      ],
      [
        "ĠÑģÐ¼Ð¾ÑĢÑīÐ¸Ð²Ð°Ð½Ð¸Ðµ",
        -1.0
      ],
      [
        "Ø¯ÙĬØ§Øª",
        -1.0
      ],
      [
        "æł·",
        -1.0
      ],
      [
        "çļĦèģ²éŁ³",
        -1.0
      ],
      [
        "ĠØ±Ø³ÙħÙĬ",
        -1.0
      ],
      [
        "Ġattaque",
        -1.0
      ],
      [
        "à¸´à¸Īà¸ª",
        -1.0
      ],
      [
        "ĠÐ¿ÑĢÐ¾ÑģÐ»Ð°Ð²",
        -1.0
      ],
      [
        "ĠÑĤÑīÐµ",
        -1.0
      ],
      [
        "Ġwakubwa",
        -1.0
      ],
      [
        "çº³ç±³æ¯Ķäºļ",
        -1.0
      ],
      [
        "pal",
        -1.0
      ],
      [
        "Ð¡ÑĤÐ°",
        -1.0
      ],
      [
        "ĠÙĦØªØ¹",
        -1.0
      ],
      [
        "ĠVIGEZO",
        -1.0
      ],
      [
        "à¸±à¸Ĵà¸Ļà¸²à¸ªà¸¡à¸²à¸ĺ",
        -1.0
      ],
      [
        "ĠÐ¼ÐµÑģÑıÑĨÐ°",
        -1.0
      ],
      [
        "ØŃØ§Ø¨",
        -1.0
      ],
      [
        "esa",
        -1.0
      ],
      [
        "à¸µà¸¢à¸§à¸īà¸¥à¸²à¸Ķ",
        -1.0
      ],
      [
        "Ġmadarakani",
        -1.0
      ],
      [
        "åĩłå¤©",
        -1.0
      ],
      [
        "ĠØ§Ø³ØªØ´ÙĩØ¯",
        -1.0
      ],
      [
        "Ġà¤«à¤ķ",
        -1.0
      ],
      [
        "à°ķà°Łà°°à°®à°£",
        -1.0
      ],
      [
        "as",
        -1.0
      ],
      [
        "ĠServices",
        -1.0
      ],
      [
        "Ð¿ÐµÑĢÑģÐ¾Ð½Ð°Ð»",
        -1.0
      ],
      [
        "Ġchini",
        -1.0
      ],
      [
        "à¸µà¸¢à¸¡à¸Ń",
        -1.0
      ],
      [
        "à¸Ļà¸²à¸¢",
        -1.0
      ],
      [
        "à¥ĥà¤Ĥ",
        -1.0
      ],
      [
        "Ġlow",
        -1.0
      ],
      [
        "ĠØ§ÙĦÙģØ±Ø§Øª",
        -1.0
      ],
      [
        "ĠÙĪØŃØ¬Ùħ",
        -1.0
      ],
      [
        "ĠWalibya",
        -1.0
      ],
      [
        "ĠBUILD",
        -1.0
      ],
      [
        "ĠmontrÃ©",
        -1.0
      ],
      [
        "ĠÙħØ¨Ø¹ÙĪØ«",
        -1.0
      ],
      [
        "Ġseed",
        -1.0
      ],
      [
        "ĠÐ°ÑįÑĢÐ¾Ð¿Ð¾ÑĢÑĤ",
        -1.0
      ],
      [
        "Ø¹Ø²",
        -1.0
      ],
      [
        "ĠÙĪØªØŃØª",
        -1.0
      ],
      [
        "ĠÙĩØ¬Ø§Ø¦ÙĬØ§",
        -1.0
      ],
      [
        "ĠÃ©tudier",
        -1.0
      ],
      [
        "ĠØ§ÙĦÙħÙĥÙĪÙĨØ§Øª",
        -1.0
      ],
      [
        "ĠØ§ÙĦØ¹ÙĤÙĪØ¨Ø§Øª",
        -1.0
      ],
      [
        "parer",
        -1.0
      ],
      [
        "ÙĳÙĬØ©",
        -1.0
      ],
      [
        "ç¾Ĭ",
        -1.0
      ],
      [
        "ĠgÃ¼nler",
        -1.0
      ],
      [
        "ĠImmune",
        -1.0
      ],
      [
        "GÃľLTEKÄ°N",
        -1.0
      ],
      [
        "à¸´à¹Ĥà¸£à¸ĺ",
        -1.0
      ],
      [
        "Ð°ÑĤÐµÐ»Ñİ",
        -1.0
      ],
      [
        "ĠarmÃ©es",
        -1.0
      ],
      [
        "Ð¸Ð²Ð°Ñİ",
        -1.0
      ],
      [
        "ĠØ¨ÙĨØ¬Ø§ØŃ",
        -1.0
      ],
      [
        "ĠØ§ÙĦØ§ÙĨØªÙĩØ§Ø²ÙĬÙĬÙĨ",
        -1.0
      ],
      [
        "å®Ŀè´µçļĦ",
        -1.0
      ],
      [
        "Ġbekler",
        -1.0
      ],
      [
        "ĠÙĪØ§ÙĦÙĨÙĤ",
        -1.0
      ],
      [
        "à¹īà¸Ľà¸£à¸°à¹Ĥà¸¢à¸Ĭà¸Ļ",
        -1.0
      ],
      [
        "Manufacturer",
        -1.0
      ],
      [
        "Ġterk",
        -1.0
      ],
      [
        "KÃ¼ltÃ¼r",
        -1.0
      ],
      [
        "ĠÑĢÑĥÐ³",
        -1.0
      ],
      [
        "onie",
        -1.0
      ],
      [
        "Ġadventure",
        -1.0
      ],
      [
        "Ġannesinin",
        -1.0
      ],
      [
        "ĠgeÃ§iren",
        -1.0
      ],
      [
        "Ø¥Ø¹",
        -1.0
      ],
      [
        "formerly",
        -1.0
      ],
      [
        "ĠØªØ´",
        -1.0
      ],
      [
        "tÄ±ÄŁÄ±nÄ±z",
        -1.0
      ],
      [
        "ĠyavaÅŁ",
        -1.0
      ],
      [
        "Ġmuhtemel",
        -1.0
      ],
      [
        "ĠØŃÙĪØ¶",
        -1.0
      ],
      [
        "çļĦæłĩåĩĨ",
        -1.0
      ],
      [
        "ĠHumeyni",
        -1.0
      ],
      [
        "Ġregroupe",
        -1.0
      ],
      [
        "ffective",
        -1.0
      ],
      [
        "ä¼ļæĽ´",
        -1.0
      ],
      [
        "Ġherbs",
        -1.0
      ],
      [
        "å·¡",
        -1.0
      ],
      [
        "ĠLiterary",
        -1.0
      ],
      [
        "Ġhuman",
        -1.0
      ],
      [
        "ĠKos",
        -1.0
      ],
      [
        "Mutlu",
        -1.0
      ],
      [
        "ĠKi",
        -1.0
      ],
      [
        "à¸¸à¸ģà¸Ĥ",
        -1.0
      ],
      [
        "ĠiÃ§me",
        -1.0
      ],
      [
        "à¥ģà¤ĸà¤¤",
        -1.0
      ],
      [
        "à¸±à¸ģà¸¡",
        -1.0
      ],
      [
        "ĠØ§ÙĦÙģØ±ÙĪØ³ÙĬØ©",
        -1.0
      ],
      [
        "ĠÃ§aÄŁdaÅŁ",
        -1.0
      ],
      [
        "æ¡£æ¡Ī",
        -1.0
      ],
      [
        "ĠØ§ÙĦØµÙĨØªÙĬÙħØ§Øª",
        -1.0
      ],
      [
        "à¥Ĥà¤·à¤£",
        -1.0
      ],
      [
        "à°¾à°¶",
        -1.0
      ],
      [
        "homme",
        -1.0
      ],
      [
        "ĠMurdoch",
        -1.0
      ],
      [
        "Ġvisuels",
        -1.0
      ],
      [
        "æ©Łæ²¹",
        -1.0
      ],
      [
        "à¸Ľà¸¥à¸²à¸¢",
        -1.0
      ],
      [
        "ĠÑĥÐºÑĢÐ°Ð¸Ð½ÑģÐºÐ¾Ð¼",
        -1.0
      ],
      [
        "ĠØ§ÙĦØ²Ø¹ÙģØ±Ø§ÙĨÙĬ",
        -1.0
      ],
      [
        "åĬłä¸¹åĬł",
        -1.0
      ],
      [
        "çļĦå°ĳå¥³",
        -1.0
      ],
      [
        "ĠÑĦÐ¾ÑĤÐ¾Ð±ÑĥÐ¼Ð°Ð³Ð°",
        -1.0
      ],
      [
        "Ġacqu",
        -1.0
      ],
      [
        "ĠÐ¿ÑĢÐ¸Ð½Ð°Ð´Ð»ÐµÐ¶Ð¸ÑĤ",
        -1.0
      ],
      [
        "ĠÑģÐ¼Ð°ÑĢÑĤÑĦÐ¾Ð½",
        -1.0
      ],
      [
        "-Mustadrak",
        -1.0
      ],
      [
        "Ġaucun",
        -1.0
      ],
      [
        "hakuna",
        -1.0
      ],
      [
        "ĠÐ¸Ð´Ð¾Ð»Ð¾Ð²",
        -1.0
      ],
      [
        "Ġduruyor",
        -1.0
      ],
      [
        "ĠÐĿÐķÐĹÐĿÐĲÐĻÐļÐĲ",
        -1.0
      ],
      [
        "Visa",
        -1.0
      ],
      [
        "à¸¹à¸¡à¹Ģà¸ĭà¸Ńà¸£",
        -1.0
      ],
      [
        "ĠKÄ°",
        -1.0
      ],
      [
        "ĠØ§ÙĦÙĨØ§Ø¬ØŃØ§Øª",
        -1.0
      ],
      [
        "ĠØ¨Ø§ÙĦØ£ÙħÙĨ",
        -1.0
      ],
      [
        "Ġefficace",
        -1.0
      ],
      [
        "åĩ½",
        -1.0
      ],
      [
        "ĠÙħØ±Ø§",
        -1.0
      ],
      [
        "à¸Ĭà¹Ģà¸Ļà¸©à¸İ",
        -1.0
      ],
      [
        "åłĨæ²Ļ",
        -1.0
      ],
      [
        "ĠÐĵÐµÐ½ÑĥÐ¸",
        -1.0
      ],
      [
        "ĠÐ»ÑİÐ±Ð°Ñı",
        -1.0
      ],
      [
        "Ð¸ÑĢÐ¾Ð²Ð°Ð½Ð°",
        -1.0
      ],
      [
        "à¸¸à¸ĩà¹Ģà¸Ľ",
        -1.0
      ],
      [
        "ĠMike",
        -1.0
      ],
      [
        "à¹īà¸³à¹Ĥà¸ŀ",
        -1.0
      ],
      [
        "å¾ĺå¾Ĭ",
        -1.0
      ],
      [
        "à¥įà¤Ľà¤¨",
        -1.0
      ],
      [
        "ĠÐĶÐ¾ÐºÑĥÐ¼ÐµÐ½ÑĤ",
        -1.0
      ],
      [
        "ĠÐ³Ð¾ÑĢÐ´Ð¸ÑĤÑģÑı",
        -1.0
      ],
      [
        "ĠÐ½ÐµÐºÐ¾ÑĤÐ¾ÑĢÐ¾Ð¹",
        -1.0
      ],
      [
        "ĠtÃ©lescope",
        -1.0
      ],
      [
        "Ġarms",
        -1.0
      ],
      [
        "Tume",
        -1.0
      ],
      [
        "à±įà°ķà°Ĺ",
        -1.0
      ],
      [
        "ĠØ§ÙĦÙħØ³Ø§Ø¨ØŃ",
        -1.0
      ],
      [
        "ĠVo",
        -1.0
      ],
      [
        "Ġvitabu",
        -1.0
      ],
      [
        "à±Ģà°¯à°®",
        -1.0
      ],
      [
        ".islamway",
        -1.0
      ],
      [
        "Ġearnings",
        -1.0
      ],
      [
        "Ġpull",
        -1.0
      ],
      [
        "Ġlideri",
        -1.0
      ],
      [
        "chunga",
        -1.0
      ],
      [
        "Ġyaliyopo",
        -1.0
      ],
      [
        "ĠØ±Ø¦ÙĬØ³ÙĬØ§",
        -1.0
      ],
      [
        "Ġannounce",
        -1.0
      ],
      [
        "ĠAnother",
        -1.0
      ],
      [
        "ĠØ¨Ø§ÙĦÙģØ¹ÙĦ",
        -1.0
      ],
      [
        "à±ĩà°ĸà°¨",
        -1.0
      ],
      [
        "ÄŁa",
        -1.0
      ],
      [
        "à¸´à¸įà¸įà¸²à¹Ĥà¸Ĺ",
        -1.0
      ],
      [
        "ĠMode",
        -1.0
      ],
      [
        "Ġkiswahili",
        -1.0
      ],
      [
        "ĠÃĸden",
        -1.0
      ],
      [
        "à¹ģà¸Īà¸ģ",
        -1.0
      ],
      [
        "éº¦åŁºç¦ıçĳŀ",
        -1.0
      ],
      [
        "Ġanalyzing",
        -1.0
      ],
      [
        "ĠØªØªÙĨØ§",
        -1.0
      ],
      [
        "ä¸įå¤ļ",
        -1.0
      ],
      [
        "ĠØ£Ø±Ø¨Ø§Ø¹",
        -1.0
      ],
      [
        "Ä±lmadan",
        -1.0
      ],
      [
        "ĠrahatlÄ±kla",
        -1.0
      ],
      [
        "à¸µà¹Ħà¸Ķ",
        -1.0
      ],
      [
        "âĢĻÃ©tablissement",
        -1.0
      ],
      [
        "ĠETME",
        -1.0
      ],
      [
        "ĠfÃ©minine",
        -1.0
      ],
      [
        "åķıæĪĳ",
        -1.0
      ],
      [
        "Ø®Øª",
        -1.0
      ],
      [
        "Bel",
        -1.0
      ],
      [
        "æ²¡",
        -1.0
      ],
      [
        "Ġtalepleri",
        -1.0
      ],
      [
        "Ġyarar",
        -1.0
      ],
      [
        "ĠØªÙĤØ§Ø¨ÙĦ",
        -1.0
      ],
      [
        "Ð¿ÑĢÐ°Ð·Ð´Ð½",
        -1.0
      ],
      [
        "ĠaÃ§tÄ±ÄŁÄ±",
        -1.0
      ],
      [
        "à¸´",
        -1.0
      ],
      [
        "Ġdifficile",
        -1.0
      ],
      [
        "VI",
        -1.0
      ],
      [
        "æ²Ĳæµ´",
        -1.0
      ],
      [
        "à¸±à¸¡à¸Ļ",
        -1.0
      ],
      [
        "å¥ĸ",
        -1.0
      ],
      [
        "ĠÑģ",
        -1.0
      ],
      [
        "à¥ģà¤¤",
        -1.0
      ],
      [
        "ĠØ§ÙĦØ¨Ø±ÙĪØ³ØªØ§ØªØ§",
        -1.0
      ],
      [
        "ãģłãģ",
        -1.0
      ],
      [
        "ĠØ§ÙĦØŃØ³Ø§Ø¨ÙĬØ§ØªÙĬØ©",
        -1.0
      ],
      [
        "çµ",
        -1.0
      ],
      [
        "ĠÙĪØ§ÙĦØµØ§ÙĦØŃÙĬÙĨ",
        -1.0
      ],
      [
        "à¸¡",
        -1.0
      ],
      [
        "é«ĶåĬĽ",
        -1.0
      ],
      [
        "ĠØ§ÙĦØ±Ø¨Ø§ÙĨÙĬ",
        -1.0
      ],
      [
        "Ġnedir",
        -1.0
      ],
      [
        "ĠØ¨Ø§ÙĦØ¹Ø§ØµÙħØ©",
        -1.0
      ],
      [
        "Ġupbeat",
        -1.0
      ],
      [
        "à¸ļà¹Ĩ",
        -1.0
      ],
      [
        "ĠMiÅĽra",
        -1.0
      ],
      [
        "Ġmatawi",
        -1.0
      ],
      [
        "ĠÐ¿ÐµÑĪÐµÑħÐ¾Ð´",
        -1.0
      ],
      [
        "Peygamber",
        -1.0
      ],
      [
        "ĠbÃ¼yÃ¼cÃ¼",
        -1.0
      ],
      [
        "à¸·à¸Ńà¹ĥà¸ª",
        -1.0
      ],
      [
        "Ġsimultane",
        -1.0
      ],
      [
        "ĠRennes",
        -1.0
      ],
      [
        "åıįæĬĹ",
        -1.0
      ],
      [
        "à¹īà¸²à¹Ħà¸Ľà¸ª",
        -1.0
      ],
      [
        "ĠVur",
        -1.0
      ],
      [
        "ãĢĬç¦ıå¨ĥä¹ĲèģļåºĨæĸ°æĺ¥",
        -1.0
      ],
      [
        "éĽĨ",
        -1.0
      ],
      [
        "à¸µà¸Ļà¸ª",
        -1.0
      ],
      [
        "Ø·Ø¨ÙĬØ¹ÙĬ",
        -1.0
      ],
      [
        "åıĸ",
        -1.0
      ],
      [
        "ÙĪØ£Ø¶Ø§Ùģ",
        -1.0
      ],
      [
        "ĠHead",
        -1.0
      ],
      [
        "ope",
        -1.0
      ],
      [
        "Ä°ZMÄ°R",
        -1.0
      ],
      [
        "çĽĪ",
        -1.0
      ],
      [
        "åĢ¾åĲĳ",
        -1.0
      ],
      [
        "'ass",
        -1.0
      ],
      [
        "ĠContra",
        -1.0
      ],
      [
        "bla",
        -1.0
      ],
      [
        "Ġhell",
        -1.0
      ],
      [
        "ĠÕ½ÕºÕ¡Õ",
        -1.0
      ],
      [
        "ĠÑİÐ±ÐºÐ°",
        -1.0
      ],
      [
        "à°¿oà°¦",
        -1.0
      ],
      [
        "à¸Ŀà¸²à¸ľà¸Ļ",
        -1.0
      ],
      [
        "Ġlinatoa",
        -1.0
      ],
      [
        "à±įà°ªà°·",
        -1.0
      ],
      [
        "Ġegzersiz",
        -1.0
      ],
      [
        "st",
        -1.0
      ],
      [
        "-ÙĦØ§",
        -1.0
      ],
      [
        "ÙħØ§ÙĨÙĬ",
        -1.0
      ],
      [
        "ĠÐĹÐ°ÑĩÐµÐ¼",
        -1.0
      ],
      [
        "âĢĻlar",
        -1.0
      ],
      [
        "ï¼ĮéĢĻå¼µçīĮ",
        -1.0
      ],
      [
        "Enterprise",
        -1.0
      ],
      [
        "ĠÙĬØŃØ¨ÙĪÙĨ",
        -1.0
      ],
      [
        "à¹Įà¸Ĥà¸Ńà¸ĩà¸ľ",
        -1.0
      ],
      [
        "èµ¤è£¸è£¸çļĦ",
        -1.0
      ],
      [
        "ĠÑĤÐ¾Ð½ÐºÐ°Ñı",
        -1.0
      ],
      [
        "Ġà¸«à¸²à¸ģà¹Ħà¸¡",
        -1.0
      ],
      [
        "Ð¸Ð¼Ð°",
        -1.0
      ],
      [
        "ĠMugabe",
        -1.0
      ],
      [
        "Ġà¸Ħà¸§à¸²à¸¡à¸Ħ",
        -1.0
      ],
      [
        "Ġmiongo",
        -1.0
      ],
      [
        "à¸Ĳà¸²à¸Ļà¸°",
        -1.0
      ],
      [
        "ĠMaul",
        -1.0
      ],
      [
        "ĠÐ´Ð°Ð±Ñĭ",
        -1.0
      ],
      [
        "ĠÙĩÙĬÙħÙĨØªÙĩØ§",
        -1.0
      ],
      [
        "ĠØ«Ø§ÙĦØ«",
        -1.0
      ],
      [
        "ĠØ±Ø²ÙĤÙĩ",
        -1.0
      ],
      [
        "ĠÙĦØªÙģØ±ÙĬØº",
        -1.0
      ],
      [
        "ĠDRC",
        -1.0
      ],
      [
        "Ġà¤¯à¤¦",
        -1.0
      ],
      [
        "åĪ°æľĢ",
        -1.0
      ],
      [
        "onu",
        -1.0
      ],
      [
        "ĠItikadi",
        -1.0
      ],
      [
        "Ġshabaha",
        -1.0
      ],
      [
        "âĢľç£ļ",
        -1.0
      ],
      [
        "ĠØŃÙĬÙĪÙĬ",
        -1.0
      ],
      [
        "éĤ£åĢĭ",
        -1.0
      ],
      [
        "Ġkuachwa",
        -1.0
      ],
      [
        "Ġuygundur",
        -1.0
      ],
      [
        "ĠduyduklarÄ±",
        -1.0
      ],
      [
        "ĠÐ½ÐµÐ¿Ð¾Ð»Ð°Ð´Ð¾Ðº",
        -1.0
      ],
      [
        "ĠØ§ÙĦØ£Ø³ØªØ§Ø°",
        -1.0
      ],
      [
        "èĢĥ",
        -1.0
      ],
      [
        "ĠØ¨ÙĬØª",
        -1.0
      ],
      [
        "Ø§Ø¨ØªÙĩ",
        -1.0
      ],
      [
        "Ġdenge",
        -1.0
      ],
      [
        "Sony",
        -1.0
      ],
      [
        "Ø§ÙĩØ±",
        -1.0
      ],
      [
        "ÙĪØ¯ÙĬÙĨ",
        -1.0
      ],
      [
        "Ġexalt",
        -1.0
      ],
      [
        "ĠØ³ØªÙĨ",
        -1.0
      ],
      [
        "ĠyaptÄ±ÄŁÄ±nÄ±",
        -1.0
      ],
      [
        "çīĽ",
        -1.0
      ],
      [
        "Ġlile",
        -1.0
      ],
      [
        "ĠØªØ·Ø¨ÙĬÙĤÙĬØ©",
        -1.0
      ],
      [
        "ĠBisiklet",
        -1.0
      ],
      [
        "ä¹ĭå¤ĸä¾¿æĺ¯å¸ĤåĮºåĨħæľĢç¹ģåįİçļĦåľ°æ®µ",
        -1.0
      ],
      [
        "ĠsupplÃ©ment",
        -1.0
      ],
      [
        "âĢ»éģ¸çĶ¨éĥµå±Ģ",
        -1.0
      ],
      [
        "Ġusababishano",
        -1.0
      ],
      [
        "Ġkupigwa",
        -1.0
      ],
      [
        "'aimerais",
        -1.0
      ],
      [
        "\"I",
        -1.0
      ],
      [
        "Ġrule",
        -1.0
      ],
      [
        "ĠÙĨÙģÙĪØ³ÙĨØ§",
        -1.0
      ],
      [
        "ÙģØ¶Ø©",
        -1.0
      ],
      [
        "å©Ĩ",
        -1.0
      ],
      [
        "æĬ½åĩºå¤§èĤīæ£Ĵ",
        -1.0
      ],
      [
        "ç¥ŀè¿¹",
        -1.0
      ],
      [
        "Ġmaumbile",
        -1.0
      ],
      [
        "ĠÙĪØ¸Ø§Ø¦Ùģ",
        -1.0
      ],
      [
        "'information",
        -1.0
      ],
      [
        "Ġhelpful",
        -1.0
      ],
      [
        "ĠÐ¿ÐµÑĢÐ¸Ð¾Ð´Ðµ",
        -1.0
      ],
      [
        "ĠØ§ÙĦØ³Ø§ÙħØ±Ø§Ø¦ÙĬ",
        -1.0
      ],
      [
        "ĠÙĦØ£ÙĤ",
        -1.0
      ],
      [
        "å®łè¾±äº¤åĬłçļĦä¸ĢçĶŁ",
        -1.0
      ],
      [
        "ĠÙĦÙĦØ³ÙĥØ§ÙĨ",
        -1.0
      ],
      [
        "ĠcompÃ©tence",
        -1.0
      ],
      [
        "ĠØ¹Ø³ÙĥØ±ÙĬØ§",
        -1.0
      ],
      [
        "ĠLis",
        -1.0
      ],
      [
        "ĠÙģØ±ÙĤØ©",
        -1.0
      ],
      [
        "|P",
        -1.0
      ],
      [
        "ĠFunOrb",
        -1.0
      ],
      [
        "Ġissues",
        -1.0
      ],
      [
        "ĠØ¨ÙĤØµØ¯",
        -1.0
      ],
      [
        "ĠØªÙĤÙĨÙĬØ©",
        -1.0
      ],
      [
        "ç¬ĳåĺ»åĺ»",
        -1.0
      ],
      [
        "Ġdistances",
        -1.0
      ],
      [
        "æ¸ħæĻ¨",
        -1.0
      ],
      [
        "ĠÑģÑģÑĭÐ»ÐºÐ¾Ð¹",
        -1.0
      ],
      [
        "ĠØ§ÙĨÙĩØ§",
        -1.0
      ],
      [
        "ç¬¬äºĮä¸ª",
        -1.0
      ],
      [
        "-RÃ©nyi",
        -1.0
      ],
      [
        "ĠÙĨØ´Ø±Ùĩ",
        -1.0
      ],
      [
        "ĠÐºÐ¾ÑĤÐ¾ÑĢÑĭÐµ",
        -1.0
      ],
      [
        "Ġyok",
        -1.0
      ],
      [
        "ĠÙħØ¦Ø§Øª",
        -1.0
      ],
      [
        "åľ£çģµ",
        -1.0
      ],
      [
        "à¹ĩà¸¡à¸§",
        -1.0
      ],
      [
        "Ġà¤¸à¤®à¤Ŀà¤¨",
        -1.0
      ],
      [
        "JU",
        -1.0
      ],
      [
        "ĠAllahÄ±m",
        -1.0
      ],
      [
        "ĠcomplÃ¨te",
        -1.0
      ],
      [
        "ĠÐ´Ð¾Ð½ÐµÑģÐµÐ½Ð¸Ðµ",
        -1.0
      ],
      [
        "ĠgÃ¼zellik",
        -1.0
      ],
      [
        "died",
        -1.0
      ],
      [
        "Ġurefu",
        -1.0
      ],
      [
        "ĠØ§ÙĦÙħØŃØ¯Ø¯",
        -1.0
      ],
      [
        "Ġmwito",
        -1.0
      ],
      [
        "Ġeskort",
        -1.0
      ],
      [
        "ĠÑıÐ½Ð²Ð°ÑĢÑı",
        -1.0
      ],
      [
        "ÑĭÐ²Ð°Ð»Ð¸",
        -1.0
      ],
      [
        "ØªØµØ§ÙĦØ§Øª",
        -1.0
      ],
      [
        "hilo",
        -1.0
      ],
      [
        "ä¼ĬæľĹ",
        -1.0
      ],
      [
        "ĠHaslet",
        -1.0
      ],
      [
        "kumbukwa",
        -1.0
      ],
      [
        "ĠKanununun",
        -1.0
      ],
      [
        "ĠTamthilia",
        -1.0
      ],
      [
        "Ġhz",
        -1.0
      ],
      [
        "ĠÑĪÐ°Ð³Ð¾Ð¼",
        -1.0
      ],
      [
        "ĠÙħØ²Ø§Ø¬",
        -1.0
      ],
      [
        "ĠåĪ©",
        -1.0
      ],
      [
        "ĠØ§ÙĦØ¹Ø²ÙĦ",
        -1.0
      ],
      [
        "ĠMikro",
        -1.0
      ],
      [
        "åĲķæĢ¡ä¸Ń",
        -1.0
      ],
      [
        "ĠÙĦÙĪØŃØ©",
        -1.0
      ],
      [
        "à¸±à¸Ħà¸£à¸£à¸²à¸Ĭà¸Ĺ",
        -1.0
      ],
      [
        "ĠÐ½Ð°Ð²ÑĭÐºÐ¾Ð²",
        -1.0
      ],
      [
        "ĠÐ¿ÑĢÐ¸Ð·Ð½Ð°Ð»Ð¸",
        -1.0
      ],
      [
        "Ø¥ÙĦØ§",
        -1.0
      ],
      [
        "Ġmicroprocessor",
        -1.0
      ],
      [
        "à±įâĢ¦",
        -1.0
      ],
      [
        "à¸¹à¸Ľà¸Ń",
        -1.0
      ],
      [
        "Ġcloset",
        -1.0
      ],
      [
        "ĠØ§ÙĦØ³ÙĪØ±Ø©",
        -1.0
      ],
      [
        "ĠÙĦÙĦØ£Ùħ",
        -1.0
      ],
      [
        "ĠLunch",
        -1.0
      ],
      [
        "à¥įà¤Ńà¤°",
        -1.0
      ],
      [
        "ĠÐ¼Ð°Ð½ÑĳÐ²ÑĢ",
        -1.0
      ],
      [
        "ĠØ§ÙĦÙĨØ·Ø§ÙĤ",
        -1.0
      ],
      [
        "//",
        -1.0
      ],
      [
        "ĵ",
        -1.0
      ],
      [
        "gel",
        -1.0
      ],
      [
        "à¸µà¸¢à¸§à¸Ļ",
        -1.0
      ],
      [
        "ĠClifford",
        -1.0
      ],
      [
        "Ġà°Ĳà°Ĳà°Ł",
        -1.0
      ],
      [
        "è¡ĮçĤº",
        -1.0
      ],
      [
        "ĠØ§ÙĦÙħØªØ¯Ø§ÙĪÙĦØ©",
        -1.0
      ],
      [
        "à¹Īà¸²à¸ĩà¸«à¸Ļ",
        -1.0
      ],
      [
        "yeyusha",
        -1.0
      ],
      [
        "ãģª",
        -1.0
      ],
      [
        "à¸µ(",
        -1.0
      ],
      [
        "âĢĻamphithÃ©Ã¢tre",
        -1.0
      ],
      [
        "ĠØ§ÙĦØ¹Ø³ÙĥØ±ÙĬ",
        -1.0
      ],
      [
        "à±Ĭà°¡à°²à°¨",
        -1.0
      ],
      [
        "éŃļ",
        -1.0
      ],
      [
        "à¥ģà¤¦à¤°",
        -1.0
      ],
      [
        "ĠØ¬ÙĦØ§ÙĦÙĩ",
        -1.0
      ],
      [
        "ĠÙĪÙģØ±ÙĨØ³Ø§",
        -1.0
      ],
      [
        "à¸µà¸ģà¸²à¸£à¸Ń",
        -1.0
      ],
      [
        "Ġà¤°à¤ķ",
        -1.0
      ],
      [
        "à°¾à°®à°¨",
        -1.0
      ],
      [
        "Ġhormon",
        -1.0
      ],
      [
        "Ġkushinda",
        -1.0
      ],
      [
        "Ä±ÄŁÄ±",
        -1.0
      ],
      [
        "Mtandao",
        -1.0
      ],
      [
        "Ġfemme",
        -1.0
      ],
      [
        "ĠÑģÑĦÐ¾ÑĢÐ¼ÑĥÐ»Ð¸ÑĢ",
        -1.0
      ],
      [
        "ĠkÃ¼rÃ¼",
        -1.0
      ],
      [
        "ä¼Ĭç§īç»¶",
        -1.0
      ],
      [
        "ĠÙĪØ²ÙĬØ±",
        -1.0
      ],
      [
        "Ġintegrated",
        -1.0
      ],
      [
        "Ġduyu",
        -1.0
      ],
      [
        "ĠØ±ÙĪØ§",
        -1.0
      ],
      [
        "ĠØ§ÙĦØ²ÙħÙĨÙĬØ©",
        -1.0
      ],
      [
        "ÙĲÙģ",
        -1.0
      ],
      [
        "ĠÙģØ§Ø±Ø³",
        -1.0
      ],
      [
        "Ð¸ÐµÐ²",
        -1.0
      ],
      [
        "ĠØµÙģØ©",
        -1.0
      ],
      [
        "ĠÑĤÐµÑĢÑĢÐ¸ÑĤÐ¾ÑĢÐ¸Ð¸",
        -1.0
      ],
      [
        "Ä±lmalÄ±dÄ±r",
        -1.0
      ],
      [
        "ÙĬØ§Ø¡",
        -1.0
      ],
      [
        "ĠÑģÐµÐ½",
        -1.0
      ],
      [
        "à¸£à¸°à¸¢à¸°à¹Ģà¸§à¸¥à¸²",
        -1.0
      ],
      [
        "ĠKodi",
        -1.0
      ],
      [
        "[deÄŁiÅŁtir",
        -1.0
      ],
      [
        "ĠBest",
        -1.0
      ],
      [
        "ĠØ§ÙĦÙħÙģÙĪØ¶ÙĬØ©",
        -1.0
      ],
      [
        "ĠÙĨØµÙĬØŃØ©",
        -1.0
      ],
      [
        "èĢĮIWCä¸ĩåĽ½è¡¨çļĦé«ĺçº§èħķè¡¨æĽ´æĺ¯éľĢè¦ģçģµå·§æīĭèħķ",
        -1.0
      ],
      [
        "adam",
        -1.0
      ],
      [
        "à¹īà¸§à¹Ħà¸¡",
        -1.0
      ],
      [
        "ĠFlorida",
        -1.0
      ],
      [
        "Ġkader",
        -1.0
      ],
      [
        "ä¸ĸçķĮä¸Ĭ",
        -1.0
      ],
      [
        "à¹Ĥà¸£à¸ĩà¸ĩà¸²à¸Ļ",
        -1.0
      ],
      [
        "à¹Ģà¸ķà¸£",
        -1.0
      ],
      [
        "ĠriviÃ¨re",
        -1.0
      ],
      [
        "ĠØ¥ÙĨØª",
        -1.0
      ],
      [
        "ĠCAT",
        -1.0
      ],
      [
        "ĠÙĪØ¸ÙĩØ±Øª",
        -1.0
      ],
      [
        "-Faqiihul",
        -1.0
      ],
      [
        "ĠØ¨ÙĦØ§ÙĬÙĦ",
        -1.0
      ],
      [
        "æľºåĬ¨",
        -1.0
      ],
      [
        "ĠÐ¿ÑĢÐ¾Ð²Ð¾Ð´Ð¸ÑĤÑĮ",
        -1.0
      ],
      [
        "à°İà°¤",
        -1.0
      ],
      [
        "Ø¨Ø¹Ø¯",
        -1.0
      ],
      [
        "Ġowned",
        -1.0
      ],
      [
        "Ġtreize",
        -1.0
      ],
      [
        "ĠrelÃ¨vent",
        -1.0
      ],
      [
        "lÄ±larÄ±n",
        -1.0
      ],
      [
        "nukuliwa",
        -1.0
      ],
      [
        "ĠDortmund",
        -1.0
      ],
      [
        "ĠØ§ÙĦÙģÙĦØ§ÙĨÙĬ",
        -1.0
      ],
      [
        "Solweig",
        -1.0
      ],
      [
        "ĠÐĳÐ°",
        -1.0
      ],
      [
        "ĠkullandÄ±ÄŁÄ±nÄ±z",
        -1.0
      ],
      [
        "ØŃØ±Ø¨",
        -1.0
      ],
      [
        "Ã¶rÃ¼",
        -1.0
      ],
      [
        "à¹īà¸²à¸łà¸²à¸ŀ",
        -1.0
      ],
      [
        "Ġkuzaa",
        -1.0
      ],
      [
        "mare",
        -1.0
      ],
      [
        "ĠAfter",
        -1.0
      ],
      [
        "ĠÑĦÑĢÐ°Ð½ÑĨÑĥÐ·",
        -1.0
      ],
      [
        "ĠSave",
        -1.0
      ],
      [
        "ĠÐ°ÑįÑĢÐ¾Ð¿Ð¾ÑĢÑĤÑĥ",
        -1.0
      ],
      [
        "èģĨåĲ¬",
        -1.0
      ],
      [
        "ckets",
        -1.0
      ],
      [
        "ĠAp",
        -1.0
      ],
      [
        "kalk",
        -1.0
      ],
      [
        "ä¼ĺå¼Ĥ",
        -1.0
      ],
      [
        "à±įà°¦à°®à°µ",
        -1.0
      ],
      [
        "ãĢİ",
        -1.0
      ],
      [
        "Ġtemple",
        -1.0
      ],
      [
        "ĠfaÃ§on",
        -1.0
      ],
      [
        "èĻķå¥³åº§",
        -1.0
      ],
      [
        "ĠÃ¼lkelerinde",
        -1.0
      ],
      [
        "ĠØ§ÙĦØ¹ØµÙĪØ±",
        -1.0
      ],
      [
        "Ø§Ø¹ÙĦÙĬØ©",
        -1.0
      ],
      [
        "ĠHapp",
        -1.0
      ],
      [
        "ĠÙħØ¬ÙĬØ¯",
        -1.0
      ],
      [
        "ĠÙħÙĤÙĦ",
        -1.0
      ],
      [
        "ï¼ĮåħĪçĶŁä»¬",
        -1.0
      ],
      [
        "ĠØ¥Ø³",
        -1.0
      ],
      [
        "Ð¡ÐŁ",
        -1.0
      ],
      [
        "ĠÑĥÐºÑĥÑģ",
        -1.0
      ],
      [
        "à¸±à¸Ļà¸«",
        -1.0
      ],
      [
        "ĠÑĢÐµÐ±ÐµÐ½ÐºÐ°",
        -1.0
      ],
      [
        "Ġimeamua",
        -1.0
      ],
      [
        "èĲ¨æ´Ľå¤«",
        -1.0
      ],
      [
        "ĠniÅŁ",
        -1.0
      ],
      [
        "éĽĨæĪĲ",
        -1.0
      ],
      [
        "é«ĺæ½®çļĦ",
        -1.0
      ],
      [
        "ĠsalÄ±n",
        -1.0
      ],
      [
        "ÐĵÐ¾ÑģÑĥÐ´Ð°ÑĢ",
        -1.0
      ],
      [
        "ĠØ§ÙĦØ³Ø§Ø¨ÙĤÙĬÙĨ",
        -1.0
      ],
      [
        "à±įà°¨à°¸",
        -1.0
      ],
      [
        "à¸±à¸§à¸Ľà¸£à¸°à¸Ĭà¸²à¸Ĭà¸Ļ",
        -1.0
      ],
      [
        "å°ıåŃ©",
        -1.0
      ],
      [
        "è¿Ļæľ¬ä¹¦",
        -1.0
      ],
      [
        "ĠÙĬØ¤ÙħÙĨ",
        -1.0
      ],
      [
        "Ãĩanakkale",
        -1.0
      ],
      [
        "ĠÑĥÑĩÐ°ÑīÐ¸ÑħÑģÑı",
        -1.0
      ],
      [
        "Ġdevletlerin",
        -1.0
      ],
      [
        "tmaya",
        -1.0
      ],
      [
        "Ġmaternelle",
        -1.0
      ],
      [
        "å½±éŁ³",
        -1.0
      ],
      [
        "Ø§Ø®ØªØ·Ø§Ùģ",
        -1.0
      ],
      [
        "ĠÐļÑĢÑĥ",
        -1.0
      ],
      [
        "ĠsarhoÅŁ",
        -1.0
      ],
      [
        "ĠÑģÐ¾ÑĥÑģÐ°",
        -1.0
      ],
      [
        "à±įà°ªà°²",
        -1.0
      ],
      [
        "à±įà°ķà°ķ",
        -1.0
      ],
      [
        "ĠsayfalarÄ±",
        -1.0
      ],
      [
        "æŃ£åľ¨",
        -1.0
      ],
      [
        "Dans",
        -1.0
      ],
      [
        "ä¼ģæ¥Ńç¤¾äº¤è»Łé«Ķ",
        -1.0
      ],
      [
        "ĠCPU",
        -1.0
      ],
      [
        "ÙĴØ£",
        -1.0
      ],
      [
        "à¸µà¸§à¸łà¸²à¸ŀ",
        -1.0
      ],
      [
        "ï½ŀĊ",
        -1.0
      ],
      [
        "Ġà¹ģà¸¥à¸°à¹Ģà¸Ħà¸£",
        -1.0
      ],
      [
        "à¹īà¸Ļà¸ķ",
        -1.0
      ],
      [
        "ĠØ±ÙĪØª",
        -1.0
      ],
      [
        "ĠHiyo",
        -1.0
      ],
      [
        "ven",
        -1.0
      ],
      [
        "ĠAssassin",
        -1.0
      ],
      [
        "ĠgeÃ§erek",
        -1.0
      ],
      [
        "Ġvin",
        -1.0
      ],
      [
        "cheka",
        -1.0
      ],
      [
        "å¯¹å°ļæľªè¾¾åĪ°çİ¯å¢ĥè´¨éĩıæłĩåĩĨçļĦéĩįçĤ¹åĮºåŁŁ",
        -1.0
      ],
      [
        "à¸µà¸ģà¹Ģà¸¥à¸¢",
        -1.0
      ],
      [
        "ĠÃ§ekici",
        -1.0
      ],
      [
        "ĠBrÃ©ganÃ§on",
        -1.0
      ],
      [
        "Ġà¸ľà¸¡à¸¢",
        -1.0
      ],
      [
        "à¸·à¸Ńà¸Ĺà¸£",
        -1.0
      ],
      [
        "âĢĻA",
        -1.0
      ],
      [
        "ÙħØŃ",
        -1.0
      ],
      [
        "ĠclientÃ¨le",
        -1.0
      ],
      [
        "åľį",
        -1.0
      ],
      [
        "-Cha",
        -1.0
      ],
      [
        "Ð¡ÐºÐ¸Ð´ÐºÐ¸",
        -1.0
      ],
      [
        "ĠÑĥÐ»ÑĥÑĩÑĪÐµÐ½Ð¸Ñı",
        -1.0
      ],
      [
        "iyor",
        -1.0
      ],
      [
        "LAVANDIER",
        -1.0
      ],
      [
        "issement",
        -1.0
      ],
      [
        "à±ĩà°ĸà°²",
        -1.0
      ],
      [
        "ÐŁÑĢÐ¸Ð¾Ð±ÑĢÐµÑĤÐµÐ½Ð¸Ðµ",
        -1.0
      ],
      [
        "à¸±à¸¥à¹Ģ",
        -1.0
      ],
      [
        "Ġculprit",
        -1.0
      ],
      [
        "ÙİÙĨØ²",
        -1.0
      ],
      [
        "Ġfourth",
        -1.0
      ],
      [
        "Ġpromote",
        -1.0
      ],
      [
        "ĠØ§ÙĦØŃØ³ÙĬ",
        -1.0
      ],
      [
        "åĲįèĳĹ",
        -1.0
      ],
      [
        "ĠbakÄ±yorum",
        -1.0
      ],
      [
        "br",
        -1.0
      ],
      [
        "à¹īà¸²à¸ĩà¸§",
        -1.0
      ],
      [
        "ĠEntry",
        -1.0
      ],
      [
        "ĠWhich",
        -1.0
      ],
      [
        "ĠconsidÃ¨rent",
        -1.0
      ],
      [
        "ÐŀÐĶ",
        -1.0
      ],
      [
        "à¸¶à¸Ķà¹Ģà¸Ńà¸²",
        -1.0
      ],
      [
        "ĠGÃ©linas",
        -1.0
      ],
      [
        "ĠMotoru",
        -1.0
      ],
      [
        "ĠÐ²ÑĭÑĪÐµ",
        -1.0
      ],
      [
        "Ġduo",
        -1.0
      ],
      [
        "ĠÙĪØ§ÙĦÙħÙĤØ±Ø±Ø§Øª",
        -1.0
      ],
      [
        "à¸¸à¹Ĥ",
        -1.0
      ],
      [
        "Ð¿Ð°Ð¼ÑıÑĤÑĮ",
        -1.0
      ],
      [
        "ĠÙĥØ·",
        -1.0
      ],
      [
        "çİ»åĪ©ç»´äºļ",
        -1.0
      ],
      [
        "Ġpolitical",
        -1.0
      ],
      [
        "Ġthorough",
        -1.0
      ],
      [
        "ĠBÃ¼yÃ¼k",
        -1.0
      ],
      [
        "éķľå¤´",
        -1.0
      ],
      [
        "ĠÑħÐ¾ÑĢ",
        -1.0
      ],
      [
        "TEN",
        -1.0
      ],
      [
        "ĠÐ¿Ð¾Ð¿ÑĭÑĤÐ°Ð»ÑģÑı",
        -1.0
      ],
      [
        "à¸±à¸ļà¸Ħà¸§à¸²à¸¡à¸Ħ",
        -1.0
      ],
      [
        "ĠbitiÅŁ",
        -1.0
      ],
      [
        "LP",
        -1.0
      ],
      [
        "ĠJPEG",
        -1.0
      ],
      [
        "Ġkikuu",
        -1.0
      ],
      [
        "ĠØ§ÙĦØµÙĪØª",
        -1.0
      ],
      [
        "mesine",
        -1.0
      ],
      [
        "ĠgoÃ»t",
        -1.0
      ],
      [
        "tumike",
        -1.0
      ],
      [
        "ĠØ¬Ø°Ø±",
        -1.0
      ],
      [
        "CP",
        -1.0
      ],
      [
        "å®¡è®®",
        -1.0
      ],
      [
        "/Ð´",
        -1.0
      ],
      [
        "ĠboyadÄ±r",
        -1.0
      ],
      [
        "Ġkutokuwa",
        -1.0
      ],
      [
        "Ġmbwembwe",
        -1.0
      ],
      [
        "Cha",
        -1.0
      ],
      [
        "åį°è®°",
        -1.0
      ],
      [
        "Ġç¾İåħĥåĲİçļĦé¢Ħç®Ĺéĩĳé¢Ŀ",
        -1.0
      ],
      [
        "\";",
        -1.0
      ],
      [
        "åºĬåīįæĺİæľĪåħī",
        -1.0
      ],
      [
        "ĠÐºÐ¸ÑĤÐ°Ð¹ÑģÐºÐ¸Ð¹",
        -1.0
      ],
      [
        "ÑĤÐ¾Ð¹",
        -1.0
      ],
      [
        "Ġlokanta",
        -1.0
      ],
      [
        "åĪĴç®Ĺ",
        -1.0
      ],
      [
        "Ġremise",
        -1.0
      ],
      [
        "ĠØ§ÙĦÙħØ¹Ø§ÙħÙĦØ©",
        -1.0
      ],
      [
        "nia",
        -1.0
      ],
      [
        "à¸ķà¸£à¸°à¸ģ",
        -1.0
      ],
      [
        "ĠÙħÙĤØ§ÙĦØ§",
        -1.0
      ],
      [
        "å·´è¥¿",
        -1.0
      ],
      [
        "ĠØ¨Ø¥Ø±Ø³Ø§ÙĦ",
        -1.0
      ],
      [
        "ĠMÃ¼ge",
        -1.0
      ],
      [
        "ĠCoke",
        -1.0
      ],
      [
        "Ġstations",
        -1.0
      ],
      [
        "ĠØ§Ø±ÙĩØ§Ø¨ÙĬ",
        -1.0
      ],
      [
        ".à°¸",
        -1.0
      ],
      [
        "ĠÙħØ³ÙĬØŃÙĬ",
        -1.0
      ],
      [
        "kre",
        -1.0
      ],
      [
        "ĠUsanii",
        -1.0
      ],
      [
        "ĠressamlarÄ±n",
        -1.0
      ],
      [
        "ĠÙĦØ¯ÙģØ¹",
        -1.0
      ],
      [
        "èĬĤçº¦",
        -1.0
      ],
      [
        "Ġantioksidan",
        -1.0
      ],
      [
        "Ġkasaba",
        -1.0
      ],
      [
        "-man",
        -1.0
      ],
      [
        "ĠØ§ÙĦØ·Ø§ØºÙĬØ©",
        -1.0
      ],
      [
        "ĠÑĥÑģ",
        -1.0
      ],
      [
        "ĠbaÅŁta",
        -1.0
      ],
      [
        "ĠÑħÐ¾ÑĢÐ¾ÑĪÐ¾",
        -1.0
      ],
      [
        "ÙĬØ§ÙģØ©",
        -1.0
      ],
      [
        "ĠTordgueule",
        -1.0
      ],
      [
        "ÄŁiyle",
        -1.0
      ],
      [
        "ĠrÃ¨gne",
        -1.0
      ],
      [
        "Ġgang",
        -1.0
      ],
      [
        "Ð½ÑĮ",
        -1.0
      ],
      [
        "æľīæĦıæĢĿ",
        -1.0
      ],
      [
        "Ġà¸Ħà¸£à¸²à¸§à¸Ļ",
        -1.0
      ],
      [
        "Ġilerliyor",
        -1.0
      ],
      [
        "ĠCanterbury",
        -1.0
      ],
      [
        "ĠØ§ÙĦØ£ÙĨØ«ÙĪÙĬ",
        -1.0
      ],
      [
        "ĠÙħÙĨØ§ÙĤØ¶Ø©",
        -1.0
      ],
      [
        "Ġholidays",
        -1.0
      ],
      [
        "Se",
        -1.0
      ],
      [
        "Ġà¤¨à¤¯",
        -1.0
      ],
      [
        "Ð²ÐµÑī",
        -1.0
      ],
      [
        "åģľè»Ĭåł´",
        -1.0
      ],
      [
        "ÛĮÙĨ",
        -1.0
      ],
      [
        "ĠÐ¾ÑĦÐ¾ÑĢÐ¼",
        -1.0
      ],
      [
        "ÙĪÙĬØª",
        -1.0
      ],
      [
        "ĠKubbe",
        -1.0
      ],
      [
        "ĠHe",
        -1.0
      ],
      [
        "teremsha",
        -1.0
      ],
      [
        "à¹ĩà¸Ļà¹Ħà¸Ĺà¸¢",
        -1.0
      ],
      [
        "Ð¾Ð»Ð¾Ð³Ð¸ÑĩÐµÑģÐºÐ¸Ðµ",
        -1.0
      ],
      [
        "Ġoyuncuya",
        -1.0
      ],
      [
        "ĠVikihaber",
        -1.0
      ],
      [
        "Ġrelocated",
        -1.0
      ],
      [
        "ĠfraternitÃ©",
        -1.0
      ],
      [
        "ĠfacilitÃ©",
        -1.0
      ],
      [
        "à¸¡à¸Ħà¸§à¸ļà¸Ħ",
        -1.0
      ],
      [
        "ä¸īæ¬¡",
        -1.0
      ],
      [
        "ĠÑģÐ¼Ð¾ÑĤÑĢÑı",
        -1.0
      ],
      [
        "ç¶²çµ¡",
        -1.0
      ],
      [
        "Ġmermerden",
        -1.0
      ],
      [
        "ĠÐºÑĢÑĭ",
        -1.0
      ],
      [
        "Ġunutulmaz",
        -1.0
      ],
      [
        "ä¼Ļä¼´",
        -1.0
      ],
      [
        "etim",
        -1.0
      ],
      [
        "Ġnotice",
        -1.0
      ],
      [
        "ĠamÃ©nagement",
        -1.0
      ],
      [
        "HÄ±ristiyan",
        -1.0
      ],
      [
        "åĨµ",
        -1.0
      ],
      [
        "à¸µà¸Ħà¸§à¸²à¸¡à¸ªà¸²à¸¡à¸²à¸£à¸ĸ",
        -1.0
      ],
      [
        "ĠÃľnal",
        -1.0
      ],
      [
        "ĠKampanya",
        -1.0
      ],
      [
        "ĠMutahhari",
        -1.0
      ],
      [
        "à¸µà¸¢à¸ĩà¹ģà¸Ħ",
        -1.0
      ],
      [
        "ĠsavaÅŁ",
        -1.0
      ],
      [
        "ä¸ª",
        -1.0
      ],
      [
        "ĠÐŁÐ¾ÑģÐºÐ¾Ð»ÑĮÐºÑĥ",
        -1.0
      ],
      [
        "çļĦåĴĮ",
        -1.0
      ],
      [
        "-v",
        -1.0
      ],
      [
        "ä»¶äºĭ",
        -1.0
      ],
      [
        "ĠEkÅŁi",
        -1.0
      ],
      [
        "ĠØ§ÙĦØ³Ø±ÙĬ",
        -1.0
      ],
      [
        "Ġminare",
        -1.0
      ],
      [
        "ĠØ§ÙĦØŃÙĦÙģØ§Ø¡",
        -1.0
      ],
      [
        "ĠØ¨ÙĤØ±Ø§Ø¡Ø©",
        -1.0
      ],
      [
        "ĠØ§ÙĦØ¥ØªØµØ§ÙĦ",
        -1.0
      ],
      [
        "ĠÐ·Ð¾Ð½",
        -1.0
      ],
      [
        "æľĭåıĭ",
        -1.0
      ],
      [
        "ĠÙĪØ¬ÙĩÙĩØ§",
        -1.0
      ],
      [
        "ĠÑģÐ´ÐµÐ»Ð°Ð»Ð¸",
        -1.0
      ],
      [
        "diklerini",
        -1.0
      ],
      [
        "Ġtahrik",
        -1.0
      ],
      [
        "ĠÐ¼ÐµÑĤÐ¾Ð´Ð¸Ðº",
        -1.0
      ],
      [
        "ĠØ§ÙĦØ§ÙĦÙĤØ§Ø¨",
        -1.0
      ],
      [
        "ĠÙĬØ²ÙĪØ±",
        -1.0
      ],
      [
        "wide",
        -1.0
      ],
      [
        "Ð§Ðµ",
        -1.0
      ],
      [
        "Ġakaniambia",
        -1.0
      ],
      [
        "ĠHmong",
        -1.0
      ],
      [
        "Ġpermanence",
        -1.0
      ],
      [
        "support",
        -1.0
      ],
      [
        "Ġkoruyucu",
        -1.0
      ],
      [
        "ĠØ§ÙĦØ¢ØªÙī",
        -1.0
      ],
      [
        "âĢĻÃ©tablir",
        -1.0
      ],
      [
        "à¸±à¸ļà¹ģà¸ļà¸ļ",
        -1.0
      ],
      [
        "à°¾à°¹à°°à°£",
        -1.0
      ],
      [
        "ĠÐ½Ð¾Ð²Ð¾ÑģÑĤÐ¸",
        -1.0
      ],
      [
        "à¸µà¸ļà¸£",
        -1.0
      ],
      [
        "Ġimportants",
        -1.0
      ],
      [
        "Ġkupungua",
        -1.0
      ],
      [
        "ä¹Łä¸įèĥ½",
        -1.0
      ],
      [
        "ĠÄ°ngiltere",
        -1.0
      ],
      [
        "Ġà¤Ńà¤°à¤¤",
        -1.0
      ],
      [
        "ĠØ§ÙĦÙĪØ¬",
        -1.0
      ],
      [
        "à¸±à¸¡à¸¡à¸²à¸įà¸²à¸ĵ",
        -1.0
      ],
      [
        "å¤ľéĸĵ",
        -1.0
      ],
      [
        "à¸¹à¸ģà¸Ļà¸³à¸¡à¸²à¹ĥà¸Ĭ",
        -1.0
      ],
      [
        "ĠÙĦØŃÙħØ§ÙĬØ©",
        -1.0
      ],
      [
        "naji",
        -1.0
      ],
      [
        "à¸´à¸Ķà¸«à¸£",
        -1.0
      ],
      [
        "Ġallegedly",
        -1.0
      ],
      [
        "Ġamu",
        -1.0
      ],
      [
        "à¸±à¸ģà¹Ģà¸Ĥ",
        -1.0
      ],
      [
        "æ®·",
        -1.0
      ],
      [
        "ĠÐ¿Ð¾Ð´Ð°ÑĩÐ¸",
        -1.0
      ],
      [
        "Gè½¯ä»¶å·¥ç¨ĭå¸Ī",
        -1.0
      ],
      [
        "aves",
        -1.0
      ],
      [
        "ĠØ§ÙĦØ³Ø®Ø±ÙĬØ©",
        -1.0
      ],
      [
        "Ġarchitecture",
        -1.0
      ],
      [
        "/à¤ķ",
        -1.0
      ],
      [
        "éĥ¨éĹ¨",
        -1.0
      ],
      [
        "ered",
        -1.0
      ],
      [
        "à¹Īà¸ĩà¹Ħà¸®",
        -1.0
      ],
      [
        "Benjamin",
        -1.0
      ],
      [
        "ĠÐĹÐµÐ½Ð·Ð°Ð±ÑĥÑĢÐ¾",
        -1.0
      ],
      [
        "âĢĻaff",
        -1.0
      ],
      [
        "å¤ļå§¿å¤ļå½©",
        -1.0
      ],
      [
        "à±ĩà°ªà°¨",
        -1.0
      ],
      [
        "ĠSyariah",
        -1.0
      ],
      [
        "Ġbizim",
        -1.0
      ],
      [
        "ĠÙĪÙĤØ¶Ø§Ø¡",
        -1.0
      ],
      [
        "ĠZerubabeli",
        -1.0
      ],
      [
        "ĠÙĬÙĤØ¯ÙħÙĩ",
        -1.0
      ],
      [
        "ĠØ§ÙĦØŃÙĦÙĪÙĬØ§Øª",
        -1.0
      ],
      [
        "à¹ĩà¸Ļà¸ŀà¸¥",
        -1.0
      ],
      [
        "ĠkazanÃ§",
        -1.0
      ],
      [
        "Ġokunur",
        -1.0
      ],
      [
        "Ġport",
        -1.0
      ],
      [
        "ĠgÃ¶rÃ¼ÅŁleri",
        -1.0
      ],
      [
        "ĠØ§ÙĦØ´Ø¹",
        -1.0
      ],
      [
        "ĠÙħÙĨØµÙģ",
        -1.0
      ],
      [
        "ÐľÐ»ÐµÐºÐ¾Ð¿Ð¸ÑĤÐ°ÑĤÐµÐ»ÑĮÐ½Ð¸ÑĨÐ°",
        -1.0
      ],
      [
        "-purpose",
        -1.0
      ],
      [
        "ĠØºØ°Ø§Ø¦Ùĩ",
        -1.0
      ],
      [
        "ÑĪÐµÐ³Ð¾",
        -1.0
      ],
      [
        "à¸ķà¸ģà¸Ńà¸¢",
        -1.0
      ],
      [
        "ĠÙĦÙĦØŃÙħÙĦ",
        -1.0
      ],
      [
        "æİ¥ä¸ĭä¾Ĩ",
        -1.0
      ],
      [
        "ĠrÃ©sultats",
        -1.0
      ],
      [
        "ä»¤æĪĳ",
        -1.0
      ],
      [
        "ĠØ§ÙĦÙģØªÙĨØ©",
        -1.0
      ],
      [
        "Ġufunguzi",
        -1.0
      ],
      [
        "Ġfrust",
        -1.0
      ],
      [
        "à¹Īà¸²à¸ĩà¸Ħ",
        -1.0
      ],
      [
        "ä»¥ä¸įåĲĮ",
        -1.0
      ],
      [
        "ĠPorter",
        -1.0
      ],
      [
        "Ġkaburi",
        -1.0
      ],
      [
        "ĠCarol",
        -1.0
      ],
      [
        "ĠÐ½ÑĳÐ¼",
        -1.0
      ],
      [
        "ĠYeter",
        -1.0
      ],
      [
        "ĠÙĦÙħØŃØ§Ø±Ø¨Ø©",
        -1.0
      ],
      [
        ".||",
        -1.0
      ],
      [
        "à¹Īà¸²à¹ģà¸ģ",
        -1.0
      ],
      [
        "ĠÃ§Ä±karken",
        -1.0
      ],
      [
        "ĠÐ§ÑĥÑĤÑĮ",
        -1.0
      ],
      [
        "ĠÙĨØ³ÙĪØ§",
        -1.0
      ],
      [
        "Ġcounted",
        -1.0
      ],
      [
        "à±Ĥà°¹à°°à°ļà°¨",
        -1.0
      ],
      [
        "ĠAssociation",
        -1.0
      ],
      [
        "Ġberaber",
        -1.0
      ],
      [
        "Ġà¹Ħà¸Ľà¸Īà¸Ļà¸ĸ",
        -1.0
      ],
      [
        "Ġà¹ģà¸¥à¸°à¸Ħà¸§à¸£",
        -1.0
      ],
      [
        "Tarih",
        -1.0
      ],
      [
        "ĠØ¹Ø¯Ùħ",
        -1.0
      ],
      [
        "ĠÑģÐ¾Ð³Ð»Ð°ÑģÐµÐ½",
        -1.0
      ],
      [
        "è¯º",
        -1.0
      ],
      [
        "'Union",
        -1.0
      ],
      [
        "èĦĳç»Ħç»ĩ",
        -1.0
      ],
      [
        "ĠÙĪØªÙĪØ¬ÙĬÙĩ",
        -1.0
      ],
      [
        "Ġbozuk",
        -1.0
      ],
      [
        "çļĦçĶ·äºº",
        -1.0
      ],
      [
        "ĠÐĴÐ°ÑĢÐ¸Ð°Ð½ÑĤÑĭ",
        -1.0
      ],
      [
        "ĠhastanÄ±n",
        -1.0
      ],
      [
        "Ġà¸ªà¸²à¸§à¸ªà¸§à¸¢",
        -1.0
      ],
      [
        "-junte",
        -1.0
      ],
      [
        "ÑĥÑĢÐµ",
        -1.0
      ],
      [
        "ØŃÙĤÙĤ",
        -1.0
      ],
      [
        "Ġkupuuza",
        -1.0
      ],
      [
        "ĠÐ³Ð¾ÑģÑĥÐ´Ð°ÑĢÑģÑĤÐ²",
        -1.0
      ],
      [
        "Ġband",
        -1.0
      ],
      [
        "ĠÑĤÑĢÐ°Ð½Ñģ",
        -1.0
      ],
      [
        "(Ùĥ",
        -1.0
      ],
      [
        "èĩªæĿĢ",
        -1.0
      ],
      [
        "çķ°",
        -1.0
      ],
      [
        "ÙĩØ´",
        -1.0
      ],
      [
        "ĠØªÙĤØ¯ÙĬØ±Ø§Øª",
        -1.0
      ],
      [
        "ĠÐ¿ÑĢÐµÐ´Ð¿ÑĢÐ¸ÑıÑĤÐ¸Ðµ",
        -1.0
      ],
      [
        "ĠÙĪØ§ÙĦÙĨØ³Ø§Ø¦ÙĬ",
        -1.0
      ],
      [
        "Ġà¤°à¤¬",
        -1.0
      ],
      [
        "Ġhafif",
        -1.0
      ],
      [
        "ifi",
        -1.0
      ],
      [
        "ĠÐºÑĥÐ´Ð°",
        -1.0
      ],
      [
        "à±į?Ċ",
        -1.0
      ],
      [
        "Ġpuissamment",
        -1.0
      ],
      [
        "é©¬",
        -1.0
      ],
      [
        "ĠØ§Ø¨ÙĬÙĩ",
        -1.0
      ],
      [
        "âĢľå¤©åĿĽèĥ¡åŃĲèĪŀèĢħ",
        -1.0
      ],
      [
        "ĠØ£ØŃÙĬØ§Ø¡",
        -1.0
      ],
      [
        "ĠKisunni",
        -1.0
      ],
      [
        "à¹ĥà¸Ļà¸ĩà¸²à¸Ļ",
        -1.0
      ],
      [
        "ĠÐ¾Ð¿Ð»Ð°ÑĤÑĭ",
        -1.0
      ],
      [
        "ved",
        -1.0
      ],
      [
        "ĠLan",
        -1.0
      ],
      [
        "leurs",
        -1.0
      ],
      [
        "éĤ®ä»¶",
        -1.0
      ],
      [
        "çĻ»éĮĦ",
        -1.0
      ],
      [
        "AWEZA",
        -1.0
      ],
      [
        "ĠØ§ÙĦØ£Øª",
        -1.0
      ],
      [
        "ĠEkurhuleni",
        -1.0
      ],
      [
        "Ġunderstated",
        -1.0
      ],
      [
        "ĠIB",
        -1.0
      ],
      [
        "-numÃ©ro",
        -1.0
      ],
      [
        "lanmÄ±ÅŁtÄ±r",
        -1.0
      ],
      [
        "ĠÐ¿ÑĢÐ¾ÑĤÐ¸Ð²",
        -1.0
      ],
      [
        "æľ¬åľ°äºº",
        -1.0
      ],
      [
        "ĠØ§ÙĦÙħØªÙĩÙħÙĬÙĨ",
        -1.0
      ],
      [
        "Ġkukosekana",
        -1.0
      ],
      [
        "ĠÙħÙĬØ±Ø²Ø§",
        -1.0
      ],
      [
        "à¸·à¸Ļà¹Ħà¸£à¹Ģà¸Ł",
        -1.0
      ],
      [
        "ĠÙĪØ§ÙĦÙĨØ³Ø¨Ø©",
        -1.0
      ],
      [
        "Ġbalmumu",
        -1.0
      ],
      [
        "à±įà°µà°¬",
        -1.0
      ],
      [
        "Ã¸Ã³",
        -1.0
      ],
      [
        "ĠÐºÐ¾ÑĢÐ¿ÑĥÑģÐ°",
        -1.0
      ],
      [
        "æĿİæĺĩåŁº",
        -1.0
      ],
      [
        "âĢĻembarquement",
        -1.0
      ],
      [
        "çģ¯",
        -1.0
      ],
      [
        "Ġà¸Ĥà¸ĵà¸°à¸Ĺ",
        -1.0
      ],
      [
        "cuz",
        -1.0
      ],
      [
        "ĠÐ¿ÑĢÐ¸ÑģÑĥÑĤÑģÑĤÐ²",
        -1.0
      ],
      [
        "ulma",
        -1.0
      ],
      [
        "JETSET",
        -1.0
      ],
      [
        "ĠÙģÙĩÙĨØ§Ùĥ",
        -1.0
      ],
      [
        "æīĢå¾Ĺ",
        -1.0
      ],
      [
        "ĠØ§ÙĦÙħØ±ÙĬØŃØ©",
        -1.0
      ],
      [
        "æĦĪ",
        -1.0
      ],
      [
        "ĠØ§ÙĦÙħØ²",
        -1.0
      ],
      [
        "ĠRudrabhishek",
        -1.0
      ],
      [
        "ÙĪØ¹ÙĨØ¯ÙħØ§",
        -1.0
      ],
      [
        "ĠFair",
        -1.0
      ],
      [
        "à¸¥à¸ĩ",
        -1.0
      ],
      [
        "Ġdiscuss",
        -1.0
      ],
      [
        "ĠÐ¼Ð¾Ð½Ð°Ñħ",
        -1.0
      ],
      [
        "à¹īà¸²à¸Ļà¸ģà¸¥",
        -1.0
      ],
      [
        "ĠÐ¼Ð°Ð»ÑĭÑĪ",
        -1.0
      ],
      [
        "ĠÐĲÐļÐ¡ÐĺÐŀÐľÐĲ",
        -1.0
      ],
      [
        "ĠÐ½ÐµÑĢÐ²Ñĭ",
        -1.0
      ],
      [
        "à¹Īà¸²à¸¢à¸Ī",
        -1.0
      ],
      [
        "à¸µà¹Ģà¸§à¸¥à¸²à¹Ģà¸£",
        -1.0
      ],
      [
        "Ġà¤ªà¤¹à¤¨",
        -1.0
      ],
      [
        "ery",
        -1.0
      ],
      [
        "æ²¡æľīä»»ä½ķ",
        -1.0
      ],
      [
        "è·³èĽĭå¡ŀåĪ°å°ĳå¥³çļĦèĨ£ç©´ä¸Ńåİ»",
        -1.0
      ],
      [
        "ĠÐ¡Ð¿ÐµÑĢÐ¼Ð°ÑĤÐ¾Ð·Ð¾Ð¸Ð´Ñĭ",
        -1.0
      ],
      [
        "ĠÙħØ±Ø¬Ø¹Ø§",
        -1.0
      ],
      [
        "Ø¨Ø¶",
        -1.0
      ],
      [
        "Ġtannia",
        -1.0
      ],
      [
        "à°¿[",
        -1.0
      ],
      [
        "ĠSanatÄ±n",
        -1.0
      ],
      [
        "à±įà°¯à°ªà°¡",
        -1.0
      ],
      [
        "ĠÐ¼Ð¾ÑīÐ½Ð¾ÑģÑĤÐµÐ¹",
        -1.0
      ],
      [
        "ĠÐ»ÐµÐºÑģ",
        -1.0
      ],
      [
        "'an",
        -1.0
      ],
      [
        "ĠÑĥÐ´Ð°Ð»ÐµÐ½Ð¸Ñı",
        -1.0
      ],
      [
        "ĠÃ¶ykÃ¼sÃ¼",
        -1.0
      ],
      [
        "'intermÃ©diaire",
        -1.0
      ],
      [
        "Ã¼cÃ¼",
        -1.0
      ],
      [
        "åħ¨æĸ¹ä½į",
        -1.0
      ],
      [
        "ĠÙĪØ£ØªØ¨Ø§Ø¹",
        -1.0
      ],
      [
        "ĠÐĶÐ£Ð¨ÐķÐĴÐĿ",
        -1.0
      ],
      [
        "åľ¨ä¸ŃåĽ½",
        -1.0
      ],
      [
        "ĠÐŁÐµÑĢÐµ",
        -1.0
      ],
      [
        "Ġcohe",
        -1.0
      ],
      [
        "ĠÐ¿Ð¾Ð»Ð¸ÑĤÐ¸ÐºÑĥ",
        -1.0
      ],
      [
        "ĠØªØ£Ø®Ø°",
        -1.0
      ],
      [
        "èĲ¬çī©æľīéĿĪè«ĸ",
        -1.0
      ],
      [
        "ĠØ§ÙĦÙĨØ²Ø§Ø¹",
        -1.0
      ],
      [
        "æŃ£å¸¸",
        -1.0
      ],
      [
        "à±ģà°¡à°ª",
        -1.0
      ],
      [
        "ĠUSB",
        -1.0
      ],
      [
        "èĳ¬",
        -1.0
      ],
      [
        "Ġà¸Īà¸³à¸Ļà¸§à¸Ļ",
        -1.0
      ],
      [
        "ĠÙ¾",
        -1.0
      ],
      [
        "Ġunusual",
        -1.0
      ],
      [
        "ĠkarÄ±ÅŁtÄ±rÄ±lmÄ±ÅŁ",
        -1.0
      ],
      [
        "Ġoraya",
        -1.0
      ],
      [
        "ĠÙĦÙĦØ´ÙĬØ·Ø§ÙĨ",
        -1.0
      ],
      [
        "à°Ĥà°ªà°¨",
        -1.0
      ],
      [
        "ĠØ§ÙĦØ®ÙģÙĬ",
        -1.0
      ],
      [
        "ĠÐ¿Ð¾Ð´Ð´ÐµÑĢÐ¶",
        -1.0
      ],
      [
        "à¥įà¤¸",
        -1.0
      ],
      [
        "å¨Ľæ¨Ĥ",
        -1.0
      ],
      [
        "åıĹåŃķ",
        -1.0
      ],
      [
        "Ġizlerken",
        -1.0
      ],
      [
        "Ø§ÙĦÙĨÙĪØ¹",
        -1.0
      ],
      [
        "ĠÙĤØ¨ÙĦÙĩØ§",
        -1.0
      ],
      [
        "ĠetmiÅŁti",
        -1.0
      ],
      [
        "ĠÃ¶lÃ§",
        -1.0
      ],
      [
        "Ġèı¯",
        -1.0
      ],
      [
        "ĠÐ¾ÑģÑĤÐ°Ð»ÑĮÐ½ÑĭÑħ",
        -1.0
      ],
      [
        "à¹ĩà¸Ļà¸Ńà¸ģà¹Ģà¸«",
        -1.0
      ],
      [
        "Ġgratuitement",
        -1.0
      ],
      [
        "à±ģà°¯",
        -1.0
      ],
      [
        "Ġsk",
        -1.0
      ],
      [
        "Ġtue",
        -1.0
      ],
      [
        "Ġpound",
        -1.0
      ],
      [
        "ĠÐĶÐµÐ¹ÑģÑĤÐ²Ð¸Ðµ",
        -1.0
      ],
      [
        "ĠØ§ÙĦÙħØ«ÙĦ",
        -1.0
      ],
      [
        "ĠÐ¿ÑĢÐ¸ÑĪÐµÑģÑĤÐ²Ð¸Ðµ",
        -1.0
      ],
      [
        "safirisha",
        -1.0
      ],
      [
        "ĠMwenyekiti",
        -1.0
      ],
      [
        "Ġaffirmative",
        -1.0
      ],
      [
        "ĠØ¬Ø²Ø§Ùĥ",
        -1.0
      ],
      [
        "ĠGratien",
        -1.0
      ],
      [
        "à¸Ńà¸ģà¸¢",
        -1.0
      ],
      [
        "ĠfonciÃ¨re",
        -1.0
      ],
      [
        "ç¬¬IIIéĺ¶æ®µçłĶç©¶",
        -1.0
      ],
      [
        "Ġkumpiga",
        -1.0
      ],
      [
        "ncyclopaedia",
        -1.0
      ],
      [
        "ÐĶÐ¾ÑĢÑģÐ½Ð°Ð±",
        -1.0
      ],
      [
        "ĠCCM",
        -1.0
      ],
      [
        "ĠUtaona",
        -1.0
      ],
      [
        "à¹īà¸Īà¸°à¹Ħà¸¡",
        -1.0
      ],
      [
        "ç§ĳç¾ħæĭīå¤ļå·ŀ",
        -1.0
      ],
      [
        "Ġquote",
        -1.0
      ],
      [
        "can",
        -1.0
      ],
      [
        "ĠØªØ²ÙĪØ¬",
        -1.0
      ],
      [
        "ĠhÃ¼kÃ¼mler",
        -1.0
      ],
      [
        "Ġuungwaji",
        -1.0
      ],
      [
        "Ġseeking",
        -1.0
      ],
      [
        "Ġtaabu",
        -1.0
      ],
      [
        "ĠØªÙĬÙħÙĪØ±",
        -1.0
      ],
      [
        "Ġà¤¸à¤¤",
        -1.0
      ],
      [
        "å°±æĬĬ",
        -1.0
      ],
      [
        "ned",
        -1.0
      ],
      [
        "ĠÑģÐ²ÑıÐ·Ð°Ð½",
        -1.0
      ],
      [
        "Ġ;Ċ",
        -1.0
      ],
      [
        "Ġgalerie",
        -1.0
      ],
      [
        "SD",
        -1.0
      ],
      [
        "åĲ¯ç¤ºå½ķ",
        -1.0
      ],
      [
        "æ¥Ńç¸¾",
        -1.0
      ],
      [
        "ĠØ§ÙĦØŃØµ",
        -1.0
      ],
      [
        "ĠÐ¾ÑĤÐ¼ÐµÐ½Ð¸ÑĤÑĮ",
        -1.0
      ],
      [
        "Ġdiyordum",
        -1.0
      ],
      [
        "ĠÐ³Ð¾ÑģÑĥÐ´Ð°",
        -1.0
      ],
      [
        "åģľä¸ĭ",
        -1.0
      ],
      [
        "caux",
        -1.0
      ],
      [
        "åħ³éĶ®",
        -1.0
      ],
      [
        "ĠÐ¤Ð¸Ð½ÐºÐ¸Ð½ÑĪÑĤÐµÐ¹Ð½",
        -1.0
      ],
      [
        "à±įà°Ńà°®",
        -1.0
      ],
      [
        "ÑĮÐ¸",
        -1.0
      ],
      [
        "ãĢĤèĩ³äºİ",
        -1.0
      ],
      [
        "ĠiÅŁini",
        -1.0
      ],
      [
        "ÐŁÑĢÐµÐ·Ð¸Ð´ÐµÐ½ÑĤ",
        -1.0
      ],
      [
        "ĠØ§ÙĦÙĨØ¸Ø§ÙħÙĬ",
        -1.0
      ],
      [
        "èĩ´",
        -1.0
      ],
      [
        "ĠÃ§avuÅŁ",
        -1.0
      ],
      [
        "Ġcooked",
        -1.0
      ],
      [
        "ĠAxanar",
        -1.0
      ],
      [
        "æľīæĹ¶åĢĻ",
        -1.0
      ],
      [
        "ĠÙħØªØ¹ÙĦÙĤ",
        -1.0
      ],
      [
        "à¹Īà¸Ńà¸¢à¸Ńà¸Ńà¸ģ",
        -1.0
      ],
      [
        "à¸¹à¸ĩà¸Ĺ",
        -1.0
      ],
      [
        "ãĢģèģĶåĲĪæĹ¶é¢ĳåĪĨæŀĲ",
        -1.0
      ],
      [
        "ata",
        -1.0
      ],
      [
        "Ġà°ĩà°ķ",
        -1.0
      ],
      [
        "ĠsoulevÃ©es",
        -1.0
      ],
      [
        "ĠØ§ÙĦÙģÙħ",
        -1.0
      ],
      [
        "ÙİÙ°",
        -1.0
      ],
      [
        "punguzwa",
        -1.0
      ],
      [
        "ĠCependant",
        -1.0
      ],
      [
        "Ġcesse",
        -1.0
      ],
      [
        "ĠØ§Ø¹ØªØ°Ø§Ø±",
        -1.0
      ],
      [
        "cheni",
        -1.0
      ],
      [
        "åĪ»æĿ¿åį°è±¡",
        -1.0
      ],
      [
        "taÅŁÄ±",
        -1.0
      ],
      [
        "ÙĪØŃÙĬ",
        -1.0
      ],
      [
        "ĠÙĪØ§ÙĦØ¨ÙĬØ§ÙĨØ§Øª",
        -1.0
      ],
      [
        "Ġdawa",
        -1.0
      ],
      [
        "ĠÐ¿Ð¾Ð´Ð¼Ð½Ð¾Ð¶ÐµÑģÑĤÐ²",
        -1.0
      ],
      [
        "Ø§ÙĦØ®Ø§Ø¯ÙħØ©",
        -1.0
      ],
      [
        "Ø§ÙĦØªØ¯Ø®",
        -1.0
      ],
      [
        "à¹Ģà¸Īà¸ķà¸Ļà¸²",
        -1.0
      ],
      [
        "ĠØ§ÙĦØ¨Ø·Ø§Ø±ÙĬØ§Øª",
        -1.0
      ],
      [
        "Ð¢ÑģÑĥÑĩÐ¸Ð¼Ð¸ÐºÐ°Ð´Ð¾",
        -1.0
      ],
      [
        "ĠØ¨Ø§ÙĨÙĩÙħ",
        -1.0
      ],
      [
        "ä¸Ģè¼Ľ",
        -1.0
      ],
      [
        "Ġukilinganisha",
        -1.0
      ],
      [
        "ĠÐºÑįÑĪ",
        -1.0
      ],
      [
        "liÄŁinin",
        -1.0
      ],
      [
        "à¹ĥà¸Ļà¸ģà¸²à¸£à¸Ĺ",
        -1.0
      ],
      [
        "æĦıæĢĿæĺ¯",
        -1.0
      ],
      [
        "ider",
        -1.0
      ],
      [
        "Ze",
        -1.0
      ],
      [
        "Ø§ÙĤÙĬ",
        -1.0
      ],
      [
        "ĠUkuzaji",
        -1.0
      ],
      [
        "ĠGÃ¶zenek",
        -1.0
      ],
      [
        "ĠtaÅŁaklarÄ±",
        -1.0
      ],
      [
        "Ġgrey",
        -1.0
      ],
      [
        "à¤Ĥ.",
        -1.0
      ],
      [
        "ILIR",
        -1.0
      ],
      [
        "à¸±à¸ģà¹Ģà¸Ľ",
        -1.0
      ],
      [
        "%ãĢĤ",
        -1.0
      ],
      [
        "à¸¢à¸ĩà¸ķ",
        -1.0
      ],
      [
        "à¹Ģà¸ŀà¸£à¸²à¸°à¸¡",
        -1.0
      ],
      [
        "Ġereksiyon",
        -1.0
      ],
      [
        "ÑĢÐ¸Ð½",
        -1.0
      ],
      [
        "Ġkuunganisha",
        -1.0
      ],
      [
        "æĳĦåĥıæľº",
        -1.0
      ],
      [
        "åķĬ",
        -1.0
      ],
      [
        "ĠolmasÄ±",
        -1.0
      ],
      [
        "à¸Ļà¸¡à¸²à¸Īà¸²à¸ģ",
        -1.0
      ],
      [
        "ï¼ĮæľīçļĦ",
        -1.0
      ],
      [
        "à¸ģà¸£à¸°à¹Ģà¸Ĺ",
        -1.0
      ],
      [
        "ĠKisukari",
        -1.0
      ],
      [
        "Ġbilgilendir",
        -1.0
      ],
      [
        "Ġà¤ķà¤¬",
        -1.0
      ],
      [
        "ĠÙĪÙĩÙħÙĬØ©",
        -1.0
      ],
      [
        "à¸¶à¸ģà¸©à¸²à¹Ģà¸Ľ",
        -1.0
      ],
      [
        "à¸±à¸ļà¸ģà¸²à¸£à¸Ńà¸ļà¸£à¸¡",
        -1.0
      ],
      [
        "à¸Ńà¸²à¸ªà¸ªà¸ªà¸ª",
        -1.0
      ],
      [
        "ĠyakÄ±n",
        -1.0
      ],
      [
        "çľĭå®Į",
        -1.0
      ],
      [
        "ä¸ŃåĽ½äºº",
        -1.0
      ],
      [
        "ÙħØ¹Øª",
        -1.0
      ],
      [
        "ĠÐºÐ°ÐºÐ¾Ð³Ð¾",
        -1.0
      ],
      [
        "Ø¶ÙĬ",
        -1.0
      ],
      [
        "à¸Ńà¸§à¸¢à¸ŀà¸£",
        -1.0
      ],
      [
        "à°¾à°¡à°®",
        -1.0
      ],
      [
        "ĠÙĦØ³ÙĨØ§",
        -1.0
      ],
      [
        "Ġmana",
        -1.0
      ],
      [
        "ĠØ§ÙĦØ¯ÙħØ§Øº",
        -1.0
      ],
      [
        "Ġresimli",
        -1.0
      ],
      [
        "æ´ŀ",
        -1.0
      ],
      [
        "ĠÐ·Ð°Ð²Ð¾Ð´Ð°",
        -1.0
      ],
      [
        "à¹īà¸Ńà¸«à¸²",
        -1.0
      ],
      [
        "Ð¾ÑģÑĭ",
        -1.0
      ],
      [
        "à¹Īà¸§à¸¢à¸ĩà¸²à¸Ļà¸Ĺ",
        -1.0
      ],
      [
        "ÑĥÑİÑģÑĮ",
        -1.0
      ],
      [
        "ĠØªØ¹ÙĬÙĤ",
        -1.0
      ],
      [
        "ĠÙĪÙĪØ§Ø¶ØŃ",
        -1.0
      ],
      [
        "çļĦç¤¾ä¼ļ",
        -1.0
      ],
      [
        "-out",
        -1.0
      ],
      [
        "à¸ĩà¹Ģà¸Ħà¸£",
        -1.0
      ],
      [
        "Ġburda",
        -1.0
      ],
      [
        "ĠdÃ©posÃ©",
        -1.0
      ],
      [
        "ĠØ§ÙĦÙħØ³ÙĨØ¯",
        -1.0
      ],
      [
        "ĠÙĬØ¬ÙĪØ²",
        -1.0
      ],
      [
        "ï¼ĮåŃ¦æł¡",
        -1.0
      ],
      [
        "à¸Łà¸²à¸§à¸¥",
        -1.0
      ],
      [
        "ĠÐ·Ð°Ð¿ÑĢÐ¾ÑģÑĭ",
        -1.0
      ],
      [
        "ĠÐ²ÑĢÐ°ÑĩÑĥ",
        -1.0
      ],
      [
        "Ġà¤ħà¤¦",
        -1.0
      ],
      [
        "åīįåĲİ",
        -1.0
      ],
      [
        "Ġeglenceler",
        -1.0
      ],
      [
        "à¸ģà¸²à¸£à¸ªà¸Ļ",
        -1.0
      ],
      [
        "ĠØ§ÙĦØ²ÙĬØ¬",
        -1.0
      ],
      [
        "Ġremplace",
        -1.0
      ],
      [
        ".Ð¨ÐºÐµÑĤÐ°Ð½Ð°",
        -1.0
      ],
      [
        "chag",
        -1.0
      ],
      [
        "ãĢģæīĢæľīæĿĥåĴĮéĿŀä¾µæĿĥçļĦæīĢæľīé»ĺç¤ºä¿Ŀè¯ģåĴĮæĿ¡ä»¶",
        -1.0
      ],
      [
        "ennes",
        -1.0
      ],
      [
        "ç»ı",
        -1.0
      ],
      [
        "fananishwa",
        -1.0
      ],
      [
        "Ġconstruction",
        -1.0
      ],
      [
        "à¸Ńà¸²à¸Īà¸Īà¸°à¸¡",
        -1.0
      ],
      [
        "Ġà¹ĥà¸Ļà¸Ħà¸§à¸²à¸¡à¸«à¸¡à¸²à¸¢à¸Ħà¸Ļà¸Ĥà¸Ńà¸ĩà¸Ħà¸Ļà¸Ĺ",
        -1.0
      ],
      [
        "èĪĴæľįéĤĦæĺ¯ä¸įèĪĴæľį",
        -1.0
      ],
      [
        "à¸ķà¸²à¸¡à¸Ħà¸§à¸²à¸¡",
        -1.0
      ],
      [
        "à¹Īà¸²à¹Ħà¸Ķ",
        -1.0
      ],
      [
        "åıĳå¸ĥ",
        -1.0
      ],
      [
        "Ġsupraconduct",
        -1.0
      ],
      [
        "çļĦç²¾æ¶²",
        -1.0
      ],
      [
        "ĠØ¯Ø¨ÙĦÙĪÙħØ§Ø³ÙĬØ©",
        -1.0
      ],
      [
        "Ġkorudugu",
        -1.0
      ],
      [
        "ÙĲÙĬØ«",
        -1.0
      ],
      [
        "ĠØ§ÙĨØªÙĩØ§Ø²ÙĬÙĬÙĨ",
        -1.0
      ],
      [
        "ĠØ¯Ø®ÙĪÙĦ",
        -1.0
      ],
      [
        "ĠØ§ÙĦÙħØ¹ÙĬÙĤØ§Øª",
        -1.0
      ],
      [
        "ĠÐ¿Ð¾Ð¿Ð°ÑģÑĤÑĮ",
        -1.0
      ],
      [
        "à¸´à¸ĩà¸Ńà¸²à¸Īà¸ĸ",
        -1.0
      ],
      [
        "à¸Ķà¸ģ",
        -1.0
      ],
      [
        "ĠÙĪØªØ±Ø¬Ùħ",
        -1.0
      ],
      [
        "ĠHijazi",
        -1.0
      ],
      [
        "Ġnokta",
        -1.0
      ],
      [
        "èĪĴéģ©",
        -1.0
      ],
      [
        "æĹ¥æľŁ",
        -1.0
      ],
      [
        "Ġà°ľà°¯à°¦",
        -1.0
      ],
      [
        "ĠÙĦÙĪØŃØ§Øª",
        -1.0
      ],
      [
        "ÅŁat",
        -1.0
      ],
      [
        "Ġpou",
        -1.0
      ],
      [
        "æĻ´",
        -1.0
      ],
      [
        "ĠÙĩÙĬÙĨØªÙĬÙĥØ§",
        -1.0
      ],
      [
        "ĠÙĪØªØ´",
        -1.0
      ],
      [
        "Anne",
        -1.0
      ],
      [
        "å´Ľèµ·",
        -1.0
      ],
      [
        "ç»ĵåĲĪ",
        -1.0
      ],
      [
        "ĠØ¢Ø®Ø±ÙĪÙĨ",
        -1.0
      ],
      [
        "ĠØ¨ÙĬØ§ÙĨØ§",
        -1.0
      ],
      [
        "à¹Įà¸£",
        -1.0
      ],
      [
        "Ġbireyin",
        -1.0
      ],
      [
        "ç¬¬äºĮæ¬¡",
        -1.0
      ],
      [
        "ĠØ§Ø¹ØªØ¨Ø§Ø±ÙĩØ§",
        -1.0
      ],
      [
        "çļĦèªŀæ°£",
        -1.0
      ],
      [
        "ebilir",
        -1.0
      ],
      [
        "Ġkahverengi",
        -1.0
      ],
      [
        "Ġlecture",
        -1.0
      ],
      [
        "Ġà°ªà°¹",
        -1.0
      ],
      [
        "changanya",
        -1.0
      ],
      [
        "åĽ¾å½¢",
        -1.0
      ],
      [
        "ngu",
        -1.0
      ],
      [
        "ĠØ§ÙĦÙħØŃØªÙĦ",
        -1.0
      ],
      [
        "ĠMicro",
        -1.0
      ],
      [
        "à¸±à¸¨à¸¡",
        -1.0
      ],
      [
        "ĠÐĺÑģÐ¿Ð¾Ð»ÑĮÐ·ÑĥÑı",
        -1.0
      ],
      [
        "ÙĪØªÙĪÙĨØ§Øª",
        -1.0
      ],
      [
        "Ġrestaurer",
        -1.0
      ],
      [
        "æĴ",
        -1.0
      ],
      [
        "Ø¨Ø¨ÙĦÙĬÙĪØ¬Ø±Ø§ÙģÙĬØ§",
        -1.0
      ],
      [
        "Ġà¹ģà¸Ńà¸Ļà¸Ķ",
        -1.0
      ],
      [
        "bank",
        -1.0
      ],
      [
        "ĠÐºÐ¾ÑĢÐ¾Ð»Ñı",
        -1.0
      ],
      [
        "https",
        -1.0
      ],
      [
        "æ°´",
        -1.0
      ],
      [
        "ASTV",
        -1.0
      ],
      [
        "½",
        -1.0
      ],
      [
        "Ġparticuliers",
        -1.0
      ],
      [
        "Ġpleasure",
        -1.0
      ],
      [
        "eleze",
        -1.0
      ],
      [
        "ÑīÐ¸Ðº",
        -1.0
      ],
      [
        "à¸±à¸ĩà¸ªà¸²à¸¡à¸²à¸£à¸ĸ",
        -1.0
      ],
      [
        "ĠFLO",
        -1.0
      ],
      [
        "Ġgone",
        -1.0
      ],
      [
        "Ġgrab",
        -1.0
      ],
      [
        "æī£",
        -1.0
      ],
      [
        "ĠdÃ¼zenlendi",
        -1.0
      ],
      [
        "Ctrl",
        -1.0
      ],
      [
        "ĠÐ¿ÑĢÐ¸Ð¼ÐµÑĩ",
        -1.0
      ],
      [
        "Share",
        -1.0
      ],
      [
        "ĠÐ¾Ð¿ÑĢÐµÐ´ÐµÐ»ÑĳÐ½Ð½ÑĥÑİ",
        -1.0
      ],
      [
        "ĠÐĹÐĴÐģÐĹÐĶÐĿÐŀÐķ",
        -1.0
      ],
      [
        "ĠÃ§Ä±kmak",
        -1.0
      ],
      [
        "ĠØ§Ø´ÙĬØ§Ø¡",
        -1.0
      ],
      [
        "Ġpardon",
        -1.0
      ],
      [
        "è®¨",
        -1.0
      ],
      [
        "ĠÐ±Ð¾ÑĢÐµÑĤÑģÑı",
        -1.0
      ],
      [
        "andaaji",
        -1.0
      ],
      [
        "ĠMadini",
        -1.0
      ],
      [
        "ĠØ§Ø¬Øª",
        -1.0
      ],
      [
        "à±ĭà°¤à°ķ",
        -1.0
      ],
      [
        "Ġwrites",
        -1.0
      ],
      [
        "ä¸»é¢ĺçļĦ",
        -1.0
      ],
      [
        "Ø±ØŃ",
        -1.0
      ],
      [
        "ĠÙħØ¬ÙħÙĪØ¹Ø©",
        -1.0
      ],
      [
        "Friends",
        -1.0
      ],
      [
        "ĠØ¥Ø¨Ø±Ø§Ùħ",
        -1.0
      ],
      [
        "ĠÐ¾Ð±ÑĢÐ°Ð·ÑĥÑİÑīÐ¸Ð¼ÑģÑı",
        -1.0
      ],
      [
        "åĪ°å®īæ°ĳçļĦåĬŀåħ¬å®¤",
        -1.0
      ],
      [
        "à°Ĥà°ľà°°",
        -1.0
      ],
      [
        "Ġà¸ļà¸¥",
        -1.0
      ],
      [
        "Un",
        -1.0
      ],
      [
        "Ø§ÙĦØ¸Ø±ÙĪÙģ",
        -1.0
      ],
      [
        "à¸´à¸Ķà¸«à¸²",
        -1.0
      ],
      [
        "ä¸įåħģè®¸",
        -1.0
      ],
      [
        "èĳī",
        -1.0
      ],
      [
        "ĠÙĪØ£ØŃØ¯",
        -1.0
      ],
      [
        "à¹īà¸²à¸ĩà¸Ŀ",
        -1.0
      ],
      [
        "stitution",
        -1.0
      ],
      [
        "Ġclassique",
        -1.0
      ],
      [
        "ĠBased",
        -1.0
      ],
      [
        "Ð¾Ð»Ð¾Ð³Ð¾Ð¼",
        -1.0
      ],
      [
        "âĢĻadolescence",
        -1.0
      ],
      [
        "ino",
        -1.0
      ],
      [
        "ĠÙĪØ¯ÙĪØ±ÙĩØ§",
        -1.0
      ],
      [
        ".o",
        -1.0
      ],
      [
        "Ġusawa",
        -1.0
      ],
      [
        "æĳ©å¤©è¼ª",
        -1.0
      ],
      [
        "ï¼ĮåįģåĪĨ",
        -1.0
      ],
      [
        "æĶ¶å®¹æīĢ",
        -1.0
      ],
      [
        "ĠbaktÄ±ÄŁÄ±mÄ±zda",
        -1.0
      ],
      [
        "ĠØ¹ÙħÙĦ",
        -1.0
      ],
      [
        "è§Ĵåº¦åīĽå¥½åı¯ä»¥çŀĦåĪ°",
        -1.0
      ],
      [
        "ĠÙħØ¹ÙĦÙħØ©",
        -1.0
      ],
      [
        "è¾Ł",
        -1.0
      ],
      [
        "ĠÐ½ÐµÐ´Ð²Ð¸Ð¶Ð¸Ð¼Ð¾ÑģÑĤÐ¸",
        -1.0
      ],
      [
        "->",
        -1.0
      ],
      [
        "ĠØ§ÙĦØªØ´Ø¨ÙĬÙĩ",
        -1.0
      ],
      [
        "ĠÙħØ¹ØªÙħØ¯Ø§",
        -1.0
      ],
      [
        "ÙĬÙģ",
        -1.0
      ],
      [
        "ĠØ£Ø¹Ø·Ø§Ùĩ",
        -1.0
      ],
      [
        "Ġmm",
        -1.0
      ],
      [
        "ĠØ¨Ø§ÙĦØªØ£ÙĥÙĬØ¯",
        -1.0
      ],
      [
        "ĠÐ¾Ð¿ÑĢÐµÐ´ÐµÐ»ÐµÐ½Ð¸Ñı",
        -1.0
      ],
      [
        "ĠÐ¿Ð¾ÑģÑĤÐ°Ð½Ð¾Ð²",
        -1.0
      ],
      [
        "Cinsel",
        -1.0
      ],
      [
        "ĠÐ²ÑģÑıÐºÐ¾Ð¼",
        -1.0
      ],
      [
        "Ġà¹Ģà¸ª",
        -1.0
      ],
      [
        "à¸¸à¸Ĺà¸ĺà¸¨à¸²à¸ªà¸Ļ",
        -1.0
      ],
      [
        "åįģæľĪä¸īåįģæĹ¥",
        -1.0
      ],
      [
        "ĠErtuÄŁrul",
        -1.0
      ],
      [
        "iront",
        -1.0
      ],
      [
        "éħĴåºĹçļĦ",
        -1.0
      ],
      [
        "ä¾Ľ",
        -1.0
      ],
      [
        "åİ¿çº§ä»¥ä¸Ĭäººæ°ĳæĶ¿åºľåıĬåħ¶çİ¯å¢ĥä¿ĿæĬ¤çŃīæľīåħ³è¡ĮæĶ¿ä¸»ç®¡éĥ¨éĹ¨",
        -1.0
      ],
      [
        "Ġkukataa",
        -1.0
      ],
      [
        "à¸µà¸ŀ",
        -1.0
      ],
      [
        "ĠØ²ÙĬÙĨ",
        -1.0
      ],
      [
        "ĠÐ¾Ð±Ð½Ð°ÑĢÑĥÐ¶",
        -1.0
      ],
      [
        "ĠquatriÃ¨me",
        -1.0
      ],
      [
        "ĠÐ¾ÑĤÐ¾ÑĤÐ¾ÐºÑģÐ¸ÑĩÐ½ÑĭÑħ",
        -1.0
      ],
      [
        "Ġincludes",
        -1.0
      ],
      [
        "Ð¡Ð¸",
        -1.0
      ],
      [
        "ä¸įç®¡",
        -1.0
      ],
      [
        "ĠÐ¿ÑıÑĤÑĮ",
        -1.0
      ],
      [
        "ĠØ§ÙĦÙħØ¹Ø±ÙģØ©",
        -1.0
      ],
      [
        "ĠØ®Ø§Øµ",
        -1.0
      ],
      [
        "æĪĳè·ŁèĢģå¸«åĲĪæĭį",
        -1.0
      ],
      [
        "åĥ",
        -1.0
      ],
      [
        "ĠÑģÐ¾ÑģÑĤÐ°Ð²Ð¸ÑĤ",
        -1.0
      ],
      [
        "Ġfuel",
        -1.0
      ],
      [
        "ĠÙĪØ§ÙĦØ´Ø¬Ø§Ø¹Ø©",
        -1.0
      ],
      [
        "Ð¸Ð¾Ð½Ð°",
        -1.0
      ],
      [
        "Ġà°Ĩà°Ł",
        -1.0
      ],
      [
        "'outil",
        -1.0
      ],
      [
        "à¸Ļà¹ģà¸Ļ",
        -1.0
      ],
      [
        "ĠKURBAN",
        -1.0
      ],
      [
        "Ġinaendelea",
        -1.0
      ],
      [
        "Ġukimwi",
        -1.0
      ],
      [
        "VÃ¼cut",
        -1.0
      ],
      [
        "ĠMheshimiwa",
        -1.0
      ],
      [
        "Ġchembe",
        -1.0
      ],
      [
        "ĠÙĪØ¥ØŃ",
        -1.0
      ],
      [
        "Ġlisilo",
        -1.0
      ],
      [
        "ĠÄ±ÅŁÄ±n",
        -1.0
      ],
      [
        "Ġtap",
        -1.0
      ],
      [
        "à±įà°°à°¤à°ķ",
        -1.0
      ],
      [
        "ĠÙĤØ¯Ø³Ø³Ø±Ùĩ",
        -1.0
      ],
      [
        "ĠGenÃ¨ve",
        -1.0
      ],
      [
        "ĠÐºÐ¾ÑĢÑĢÐµÐ»Ð¸ÑĢÑĥÐµÑĤ",
        -1.0
      ],
      [
        "èĽĭ",
        -1.0
      ],
      [
        "ĠØ§ÙĦØ§Ø³ØªÙĩÙĦØ§Ùĥ",
        -1.0
      ],
      [
        "ĠØ§ÙĦÙħÙĨÙĩØ§Ø¬",
        -1.0
      ],
      [
        "à¸¸à¸Ķà¸ĭ",
        -1.0
      ],
      [
        "ĠØ¬ÙĪØ²",
        -1.0
      ],
      [
        "ĠharikaydÄ±",
        -1.0
      ],
      [
        "ĠÅŁehrinde",
        -1.0
      ],
      [
        "ÐµÐ¼",
        -1.0
      ],
      [
        "Ġadds",
        -1.0
      ],
      [
        "ĠManastÄ±r",
        -1.0
      ],
      [
        "ĠInstead",
        -1.0
      ],
      [
        "ĠÙĦØ§Ø´Ùĥ",
        -1.0
      ],
      [
        "à¥įà¤«",
        -1.0
      ],
      [
        "Ð¾ÑĩÐºÐ°Ñħ",
        -1.0
      ],
      [
        "à¹Ģà¸ŀà¸¥à¸ĩà¸Ķ",
        -1.0
      ],
      [
        "Ġhor",
        -1.0
      ],
      [
        "æ·ĺå®Ŀç½ĳ",
        -1.0
      ],
      [
        "æĻļé¤Ĳ",
        -1.0
      ],
      [
        "ï¼Īåħįè²»",
        -1.0
      ],
      [
        "VAR",
        -1.0
      ],
      [
        "UNICEF",
        -1.0
      ],
      [
        "ï¼Įå°±ä¸į",
        -1.0
      ],
      [
        "èµ°è¿ĩ",
        -1.0
      ],
      [
        "à¹īà¸²à¸ĩà¸ģà¸£à¸£à¸¡",
        -1.0
      ],
      [
        "Ġyale",
        -1.0
      ],
      [
        "mamalÄ±dÄ±r",
        -1.0
      ],
      [
        "Ġà¸Ľà¸£à¸°à¸ģà¸Ńà¸ļà¸ģ",
        -1.0
      ],
      [
        "emediÄŁi",
        -1.0
      ],
      [
        "ĠØ´Ø¨Ùĩ",
        -1.0
      ],
      [
        "Ġintaneti",
        -1.0
      ],
      [
        "à¸Īà¸£à¸£à¸¢à¸²à¸ļà¸£à¸£à¸ĵ",
        -1.0
      ],
      [
        "ĠØ§ÙĦÙħØºØ§Ø¯Ø±Ø©",
        -1.0
      ],
      [
        "ØªÙħØ§",
        -1.0
      ],
      [
        "à¹ģà¸Ńà¸¥à¸ģà¸Ńà¸®à¸Ńà¸¥",
        -1.0
      ],
      [
        "à¸¡à¸£",
        -1.0
      ],
      [
        "'Ãł",
        -1.0
      ],
      [
        "ĠÐ¾Ð¶ÐµÑģÑĤÐ¾Ñĩ",
        -1.0
      ],
      [
        "ĠÐľÑĥÑĪÐºÐ¸Ð½",
        -1.0
      ],
      [
        "ĠØ§ÙĦØ³ÙĨ",
        -1.0
      ],
      [
        "Ġkuzingatia",
        -1.0
      ],
      [
        "ĠÑĪÐ¿Ð¸",
        -1.0
      ],
      [
        "Ġà°ħà°°à°£",
        -1.0
      ],
      [
        "ĠÐ¾ÑģÐ¾Ð±ÐµÐ½Ð½Ð¾ÑģÑĤÑĮ",
        -1.0
      ],
      [
        "eceÄŁimi",
        -1.0
      ],
      [
        "ĠØ§ÙĦÙħØ£ÙħÙĪØ±",
        -1.0
      ],
      [
        "ĠØ£Ø¯Ø§Ø¡",
        -1.0
      ],
      [
        "à¸´à¸ģà¸¥",
        -1.0
      ],
      [
        "ĠÐ¿ÑĢÐ¾ÑģÑĤÑĭÐ¼",
        -1.0
      ],
      [
        "å®¸å¸Į",
        -1.0
      ],
      [
        "ĠSaba",
        -1.0
      ],
      [
        "efe",
        -1.0
      ],
      [
        "ĠØªØŃ",
        -1.0
      ],
      [
        "Ġwawa",
        -1.0
      ],
      [
        "æ¸¾",
        -1.0
      ],
      [
        "ĠÑĢÐ°Ð·",
        -1.0
      ],
      [
        "Harvard",
        -1.0
      ],
      [
        "ĠÐ¿Ð¾Ð»ÑĥÑĩÐ°ÑİÑĤ",
        -1.0
      ],
      [
        "é£Ł",
        -1.0
      ],
      [
        "acaktÄ±",
        -1.0
      ],
      [
        "à¸Ńà¸Ħà¸§à¸²à¸¡",
        -1.0
      ],
      [
        "ĠGÃ¼r",
        -1.0
      ],
      [
        "ĠestimÃ©",
        -1.0
      ],
      [
        "ĠÑĢÐ¾Ð´Ð¸ÑĤÐµÐ»Ð¸",
        -1.0
      ],
      [
        "ĠÐ¿Ð¸ÑĤ",
        -1.0
      ],
      [
        "ĠØ¥ÙģØ±ÙĬÙĤÙĬØ©",
        -1.0
      ],
      [
        "à¸Ĭà¸²à¸§à¸Ī",
        -1.0
      ],
      [
        "bat",
        -1.0
      ],
      [
        "à¸Ħà¸Ńà¸¡à¹Ĥà¸ŀà¹Ģà¸Ļà¸Ļà¸ķ",
        -1.0
      ],
      [
        "ĠÐļÐ¾Ð¼Ð¸ÑĤÐµÑĤÐ°",
        -1.0
      ],
      [
        "âĢĻOCDE",
        -1.0
      ],
      [
        "ĠÐ±ÐµÐ·Ð¾Ð¿Ð°ÑģÐ½Ð¾Ð³Ð¾",
        -1.0
      ],
      [
        "æ¡ĥèĬ±åº¦åģĩæĿĳ",
        -1.0
      ],
      [
        "à°Īà°¸",
        -1.0
      ],
      [
        "Ø£Ø³Ø¦ÙĦØ©",
        -1.0
      ],
      [
        "Ġcreatures",
        -1.0
      ],
      [
        "ĠØ§ÙĦÙħÙĤØ¨ÙĦ",
        -1.0
      ],
      [
        "ĠÙħØµÙĬØ¨Ø©",
        -1.0
      ],
      [
        "ĠØ§ÙĦØ³Ø¹Ø±",
        -1.0
      ],
      [
        "ÙĪÙĨÙĩØ§",
        -1.0
      ],
      [
        "ĠToplantÄ±",
        -1.0
      ],
      [
        "tane",
        -1.0
      ],
      [
        "Ð¸Ð¼ÑģÑı",
        -1.0
      ],
      [
        "à¸ĩà¸²à¸Ļà¸ģ",
        -1.0
      ],
      [
        "ĠAH",
        -1.0
      ],
      [
        "redacted",
        -1.0
      ],
      [
        "æĮĩçļĦæĺ¯",
        -1.0
      ],
      [
        "ĠÃ¢",
        -1.0
      ],
      [
        "Ġdiriger",
        -1.0
      ],
      [
        "Ġprecursor",
        -1.0
      ],
      [
        "ä¾ĿçĦ¶",
        -1.0
      ],
      [
        "à¸±à¸ĩà¸Ħ",
        -1.0
      ],
      [
        "åĥµ",
        -1.0
      ],
      [
        "à¥Ĥà¤°à¤¤",
        -1.0
      ],
      [
        "ĠFÄ±r",
        -1.0
      ],
      [
        "ĠØ®ÙĬØ±",
        -1.0
      ],
      [
        "à¸´à¸Ĭà¸¢",
        -1.0
      ],
      [
        "ĠØ£Ø´ÙĬØ±",
        -1.0
      ],
      [
        "Ġmadola",
        -1.0
      ],
      [
        "ĠÐ¿ÑĢÐ¾Ð³ÐµÑģÑĤÐµÑĢÐ¾Ð½",
        -1.0
      ],
      [
        "ĠÑģÐ¾Ð±ÐµÑģÐµÐ´",
        -1.0
      ],
      [
        "ĠÙĪØ³Ø¹",
        -1.0
      ],
      [
        "Ġprincipes",
        -1.0
      ],
      [
        "ĠBoulogne",
        -1.0
      ],
      [
        "ĠØŃØ±ÙĬØµ",
        -1.0
      ],
      [
        "-ELEVEN",
        -1.0
      ],
      [
        "à¸ŀà¸²",
        -1.0
      ],
      [
        "ĠØªØ±Ø¨ÙĪÙĬ",
        -1.0
      ],
      [
        "ĠÐĶÐ¼Ð¸ÑĤÑĢ",
        -1.0
      ],
      [
        "ç«ĻçĤ¹",
        -1.0
      ],
      [
        "ĠÑįÑĤÐ¸Ð¼Ð¸",
        -1.0
      ],
      [
        "à¥ĩà¤¡à¤°",
        -1.0
      ],
      [
        "ĠØ§ÙĦØ¶ØŃÙĬØ©",
        -1.0
      ],
      [
        "ç»ĨèĬĤ",
        -1.0
      ],
      [
        "ĠØ§ØªØµØ§ÙĦ",
        -1.0
      ],
      [
        "à¹ĥà¸Ļà¹Ģà¸§à¸¥à¸²à¹Ģà¸Ķ",
        -1.0
      ],
      [
        "ĠÙĪØµÙģÙĩØ§",
        -1.0
      ],
      [
        "à¹Īà¸Ńà¸¡à¹Ħà¸¡",
        -1.0
      ],
      [
        "ĠÐľÐ¾Ð¸",
        -1.0
      ],
      [
        "ĠØªÙĨÙĤØ³Ùħ",
        -1.0
      ],
      [
        "Ø´Ø±ÙĪØ·",
        -1.0
      ],
      [
        "rip",
        -1.0
      ],
      [
        "Ġkibinaadamu",
        -1.0
      ],
      [
        "ä¸Ģçĵ¶",
        -1.0
      ],
      [
        "ï¼ĮæĶ¶",
        -1.0
      ],
      [
        "à¸¸à¸ĩà¸¨à¸£",
        -1.0
      ],
      [
        "Ð¾Ð³ÐµÐ½Ðµ",
        -1.0
      ],
      [
        "ĠÐĺÑĤÐ°Ðº",
        -1.0
      ],
      [
        "å¾ĲåħĪçĶŁ",
        -1.0
      ],
      [
        "ĠÙĪØ±Ø¦ÙĬØ³",
        -1.0
      ],
      [
        "ĠTesisleri",
        -1.0
      ],
      [
        "ĠÙħÙĥØ§ÙĨÙĩ",
        -1.0
      ],
      [
        "à±ģà°¤à°¨",
        -1.0
      ],
      [
        "è¯´åĪ°",
        -1.0
      ],
      [
        "ĠÐ½ÐµÐ½Ð°",
        -1.0
      ],
      [
        "Ġmtandao",
        -1.0
      ],
      [
        "à±įà°¯à°¬à°¡",
        -1.0
      ],
      [
        "à¸±à¸ļà¹ģà¸Ī",
        -1.0
      ],
      [
        "âĢĻÃ©chappe",
        -1.0
      ],
      [
        "ĠØªØŃØ±Ø´",
        -1.0
      ],
      [
        "à¹īà¸Ńà¸¢à¸Ħà¸³",
        -1.0
      ],
      [
        "åľ¨æĸ¼",
        -1.0
      ],
      [
        "Ġente",
        -1.0
      ],
      [
        "Ġyi",
        -1.0
      ],
      [
        "ĠÑĥÐ¼Ð¾Ð»ÑĩÐ°Ð½Ð¸Ñİ",
        -1.0
      ],
      [
        "Ġà¸Ĺà¸°à¹Ģà¸¥",
        -1.0
      ],
      [
        "Ġwatch",
        -1.0
      ],
      [
        "ĠKha",
        -1.0
      ],
      [
        "à¸Ĭà¸³à¸£",
        -1.0
      ],
      [
        "ĠMaster",
        -1.0
      ],
      [
        "ĠdensitÃ©",
        -1.0
      ],
      [
        "ĠÙĪÙĨØŃÙĪÙĩØ§",
        -1.0
      ],
      [
        "é£Ľ",
        -1.0
      ],
      [
        "ĠArchive",
        -1.0
      ],
      [
        "æĹħé¦Ĩ",
        -1.0
      ],
      [
        "ĠØ§ÙĦØ§Ø®ØªÙĦØ§ÙģØ§Øª",
        -1.0
      ],
      [
        "à¸²à¸¢à¹Ģà¸ª",
        -1.0
      ],
      [
        "éº¼",
        -1.0
      ],
      [
        "abÄ±",
        -1.0
      ],
      [
        "à¹Įà¸ŀà¸£",
        -1.0
      ],
      [
        "ÐŀÑģÐºÐ°ÑĢ",
        -1.0
      ],
      [
        "ĠÐ»Ð¸ÑĤÑĢÐ¾Ð²",
        -1.0
      ],
      [
        "è¾¦æ³ķ",
        -1.0
      ],
      [
        "'av",
        -1.0
      ],
      [
        "à¥īà¤¯à¤¡",
        -1.0
      ],
      [
        "è¶Ļ",
        -1.0
      ],
      [
        "kez",
        -1.0
      ],
      [
        "çģĮ",
        -1.0
      ],
      [
        "faa",
        -1.0
      ],
      [
        "()",
        -1.0
      ],
      [
        "ĠÑģÑĥÐ¼ÐµÐ»",
        -1.0
      ],
      [
        "ÙģÙĨÙĤÙĪÙĦ",
        -1.0
      ],
      [
        "bar",
        -1.0
      ],
      [
        "ĠØ§ÙĦØªØ¬Ø±ÙĬØ¨ÙĬ",
        -1.0
      ],
      [
        "ï¼Įä»¥åıĬè¶ħè¿ĩåĽ½å®¶éĩįçĤ¹æ±¡æŁĵçī©æİĴæĶ¾æĢ»éĩıæİ§åĪ¶çº¦æĿŁæĢ§æĮĩæłĩçļĦåľ°åĮº",
        -1.0
      ],
      [
        "ĠÑĥÐ²Ð°Ð¶ÐµÐ½Ð¸ÐµÐ¼",
        -1.0
      ],
      [
        "à¸´à¸¡à¸§",
        -1.0
      ],
      [
        "à¸´à¸©à¸Ĺ",
        -1.0
      ],
      [
        "ĠOrman",
        -1.0
      ],
      [
        "&B",
        -1.0
      ],
      [
        "ĠCluster",
        -1.0
      ],
      [
        "Ġcalling",
        -1.0
      ],
      [
        "ç»ĨèıĮ",
        -1.0
      ],
      [
        "Ġà¹ģà¸¥à¸°à¹Ģà¸¡",
        -1.0
      ],
      [
        "-author",
        -1.0
      ],
      [
        "ä¾Ĩèĩª",
        -1.0
      ],
      [
        "ĠÑĢÐ°Ð±Ð¾ÑĤÑĭ",
        -1.0
      ],
      [
        "tw",
        -1.0
      ],
      [
        "à°¾à°²à°®",
        -1.0
      ],
      [
        "à°¿à°·à°¨",
        -1.0
      ],
      [
        "éĸĭéłŃ",
        -1.0
      ],
      [
        "ĠØ§ÙĦÙħØ´Ø§ÙĩØ¯Ø§Øª",
        -1.0
      ],
      [
        "à°¿à°²à°µà°¬à°¡",
        -1.0
      ],
      [
        "Ø¢Ø®",
        -1.0
      ],
      [
        "Ġà¸ŀà¸£à¸°à¸Ħà¸£",
        -1.0
      ],
      [
        "ÙĪØ±ÙĪ",
        -1.0
      ],
      [
        "è£ħç½®",
        -1.0
      ],
      [
        "Ġstal",
        -1.0
      ],
      [
        "à¸ģà¸£à¸°à¹ģà¸ªà¹ģà¸«",
        -1.0
      ],
      [
        "à¥įà¤°à¤¦",
        -1.0
      ],
      [
        "Ġadi",
        -1.0
      ],
      [
        "Ø§ÙĦÙħØ¬",
        -1.0
      ],
      [
        "ĠØ§ÙĦØªÙĥØ±ÙĬÙħ",
        -1.0
      ],
      [
        "ĠØ§ÙĦØ³ÙĪØ±ÙĬÙĬÙĨ",
        -1.0
      ],
      [
        "ĠØ§ÙĦÙħØ¹Ø¨ÙĪØ¯",
        -1.0
      ],
      [
        "à±ĩà°·à°®",
        -1.0
      ],
      [
        "ĠÐ»Ð¸Ð½Ð¸Ñİ",
        -1.0
      ],
      [
        "Ø±Ø¨ÙĪÙĩÙĬØ¯Ø±Ø§Øª",
        -1.0
      ],
      [
        "ĠbÃ¶lÃ¼m",
        -1.0
      ],
      [
        "å¤©å·²é»ĳäºĨ",
        -1.0
      ],
      [
        "ĠatmÄ±ÅŁ",
        -1.0
      ],
      [
        "à¸µà¸£à¸ĸ",
        -1.0
      ],
      [
        "Individual",
        -1.0
      ],
      [
        "Ġbaign",
        -1.0
      ],
      [
        "ĠZA",
        -1.0
      ],
      [
        "Ġviolence",
        -1.0
      ],
      [
        "/mutfak",
        -1.0
      ],
      [
        "Ġaliyoya",
        -1.0
      ],
      [
        "ĠÑģÐ¼ÑĭÑģÐ»Ð¾Ð²ÑĭÐµ",
        -1.0
      ],
      [
        "ĠÐĺÐľ",
        -1.0
      ],
      [
        "ĠyapacaÄŁÄ±nÄ±z",
        -1.0
      ],
      [
        "ĠØ§ÙĦØ§Ø³ØªØ±Ø§ØªÙĬØ¬ÙĬØ§Øª",
        -1.0
      ],
      [
        "ĠÙĪÙĪØ³Ø§Ø¦ÙĦ",
        -1.0
      ],
      [
        "ĠÐ¿Ð¾Ð·Ð¸ÑĨÐ¸Ð¹",
        -1.0
      ],
      [
        "December",
        -1.0
      ],
      [
        "ĠØ§ÙĦØªØ§Ø±ÙĬØ®ÙĬØ©",
        -1.0
      ],
      [
        "ÑģÑĤÐ°",
        -1.0
      ],
      [
        "ĠçĶŁ",
        -1.0
      ],
      [
        "ä¸ĢçĻ¾åħ«åįģåº¦çļĦçĽ´ç·ļ",
        -1.0
      ],
      [
        "ĠÑĥÑģÐ¿Ð¾ÐºÐ°Ð¸Ð²",
        -1.0
      ],
      [
        "çĽ¸åĲĮçļĦ",
        -1.0
      ],
      [
        "ĠÙĦÙĦØ°",
        -1.0
      ],
      [
        "æĢ¡ä¸Ńç¬ĳéģĵ",
        -1.0
      ],
      [
        "Ġcars",
        -1.0
      ],
      [
        "ĠTengefu",
        -1.0
      ],
      [
        "à¹Īà¸§à¸¢à¸£",
        -1.0
      ],
      [
        "à¸¢à¸Ļà¸Ĺ",
        -1.0
      ],
      [
        "å¤§éŁĵæ°ĳåľĭ",
        -1.0
      ],
      [
        "åĪĽå»º",
        -1.0
      ],
      [
        "é¼łæ¨ĻæĮīéįµçļĦéįµç¨ĭ",
        -1.0
      ],
      [
        "ĠÐ²ÑĭÑĢÐ°Ð¶ÐµÐ½Ð½Ð¾ÑģÑĤÐ¸",
        -1.0
      ],
      [
        "ĠÙĬÙĪÙĨØ§ÙĬØªØ¯",
        -1.0
      ],
      [
        "Ġhajui",
        -1.0
      ],
      [
        "resse",
        -1.0
      ],
      [
        "à¹Īà¸¥à¸°à¸Ľ",
        -1.0
      ],
      [
        "à±Ĩà°°à°µ",
        -1.0
      ],
      [
        "ĠSÃ¼per",
        -1.0
      ],
      [
        "à¸ķà¸°à¹Ģà¸Ħ",
        -1.0
      ],
      [
        "Ġà¸ªà¸³à¸Ļ",
        -1.0
      ],
      [
        "à¹ģà¸¥à¸°à¸ľ",
        -1.0
      ],
      [
        "ĠDiesel",
        -1.0
      ],
      [
        "Ġpermitted",
        -1.0
      ],
      [
        "ĠÑģÑĤÐ¾Ð¸Ð¼Ð¾ÑģÑĤÐ¸",
        -1.0
      ],
      [
        "ĠØ§ÙĦÙħØ®Ø§Ø·Ø±",
        -1.0
      ],
      [
        "ä½µ",
        -1.0
      ],
      [
        "à¹ĩà¸Ļà¹ģà¸¥",
        -1.0
      ],
      [
        "ĠØ§ÙĦÙħÙģÙĩÙĪÙħ",
        -1.0
      ],
      [
        "OÄŀLU",
        -1.0
      ],
      [
        "åŁİå¸Ĥ",
        -1.0
      ],
      [
        "ĠÑĢÑĭÐ±Ð¾Ð»Ð¾Ð²",
        -1.0
      ],
      [
        "ĠØ·Ø¨ÙĬØ¹ÙĬØ©",
        -1.0
      ],
      [
        "ĠyanÄ±k",
        -1.0
      ],
      [
        "ĠÙĪØ§ÙĦØŃØ²ÙĨ",
        -1.0
      ],
      [
        "ĠÐ¿ÑĢÐ¸Ð½ÑĨÐ¸Ð¿Ðµ",
        -1.0
      ],
      [
        "Sizin",
        -1.0
      ],
      [
        "èŀº",
        -1.0
      ],
      [
        "ĠÐ½Ð¸Ð·ÐºÐ¾Ð¹",
        -1.0
      ],
      [
        "ĠÙĦØ³ÙĨÙĪØ§Øª",
        -1.0
      ],
      [
        "Ġà¸Ľà¸£à¸°à¸Īà¸³à¸Ľ",
        -1.0
      ],
      [
        "ÑīÐ¸Ð¼",
        -1.0
      ],
      [
        "à¸ģà¸²à¸£à¸ľà¸ªà¸¡à¹Ģà¸Ĺ",
        -1.0
      ],
      [
        "ĠgÃ¼venli",
        -1.0
      ],
      [
        "ĠÐ¾Ð±ÑıÐ·Ð°ÑĤÐµÐ»ÑĮÑģÑĤÐ²",
        -1.0
      ],
      [
        "ĠÙĦÙĬØ§ÙĦ",
        -1.0
      ],
      [
        "Ð¼Ð¾Ð¹",
        -1.0
      ],
      [
        "ĠØ§ÙĦÙħÙĤØ±Ø¨ÙĬÙĨ",
        -1.0
      ],
      [
        "ÙĦÙħØ§Ø°Ø§",
        -1.0
      ],
      [
        "ĠTab",
        -1.0
      ],
      [
        "ĠØŃØ³Ø§Ø³ÙĬØ©",
        -1.0
      ],
      [
        "Ġenthousiaste",
        -1.0
      ],
      [
        "à¹īà¸Ħà¸Ńà¸¡à¸ŀ",
        -1.0
      ],
      [
        "à¸«à¸²à¸ģà¹Ħà¸¡",
        -1.0
      ],
      [
        "ĠØ¬ÙĩÙĦÙĩ",
        -1.0
      ],
      [
        "ä¸Ģéłħ",
        -1.0
      ],
      [
        "à¹Ĵà¹ĺ",
        -1.0
      ],
      [
        "ĠÐ´Ð¾ÑģÐ»Ð¾Ð²Ð½Ð¾",
        -1.0
      ],
      [
        "ĠÑģÐ»ÑĥÐ¶Ð±Ðµ",
        -1.0
      ],
      [
        "è¶ħç´ļ",
        -1.0
      ],
      [
        "ĠÙĪØ£ØŃ",
        -1.0
      ],
      [
        "æ½ĺåĬŃåĭĩ",
        -1.0
      ],
      [
        "ĠØ§ÙĦÙħØªÙĪØ§ÙģØ±Ø©",
        -1.0
      ],
      [
        "'n",
        -1.0
      ],
      [
        "ĠÐ¸ÑģÑĤÐ¸Ð½Ð½Ð¾Ð¹",
        -1.0
      ],
      [
        "ĠØ¨ØºØ²Ø©",
        -1.0
      ],
      [
        "tara",
        -1.0
      ],
      [
        "à¸¸à¸ģà¸ķà¸²à¸łà¸²",
        -1.0
      ],
      [
        "Ġbekleyen",
        -1.0
      ],
      [
        "ĠÐ¼Ð°Ð³Ð¸Ñİ",
        -1.0
      ],
      [
        "Ġmapana",
        -1.0
      ],
      [
        "ĠÙĤØ§Ø¯ØªÙĩØ§",
        -1.0
      ],
      [
        "à¤¾à¤īà¤¥",
        -1.0
      ],
      [
        "ç©¿äºĨ",
        -1.0
      ],
      [
        "æĨ§æĨ¬",
        -1.0
      ],
      [
        "Ġmaintenant",
        -1.0
      ],
      [
        "æĽ²çº¿",
        -1.0
      ],
      [
        "ĠÑĦÐ¸Ð·Ð¸ÑĩÐµÑģÐºÐ¾Ð¹",
        -1.0
      ],
      [
        "à¸¸à¸ª",
        -1.0
      ],
      [
        "Fox",
        -1.0
      ],
      [
        "ĠsystÃ¨me",
        -1.0
      ],
      [
        "ĠÙĦÙĦØ§ÙĤØªØµØ§Ø¯",
        -1.0
      ],
      [
        "èŃīæĺİ",
        -1.0
      ],
      [
        "ĠØ·Ø§Ø¦ÙģÙĬ",
        -1.0
      ],
      [
        "Ġsurmon",
        -1.0
      ],
      [
        "à¸Ńà¸ĩà¹Ģà¸ķ",
        -1.0
      ],
      [
        "ĠØªÙĪÙģÙĬ",
        -1.0
      ],
      [
        "ĠÐĺÑģÐ¿Ð°Ð½Ð¸Ð¸",
        -1.0
      ],
      [
        "ĠOPTIMISÃīES",
        -1.0
      ],
      [
        "Ġadded",
        -1.0
      ],
      [
        "à¸¶à¸ģà¹Ħà¸Ķ",
        -1.0
      ],
      [
        "ĠÐ¾ÑģÐ¼Ð¾ÑĤÑĢÐ°",
        -1.0
      ],
      [
        "ĠØ§ÙĦÙĤÙĩÙĪØ©",
        -1.0
      ],
      [
        "å¤§æķĻåłĤ",
        -1.0
      ],
      [
        "ĠcanlÄ±",
        -1.0
      ],
      [
        "âĢĻindi",
        -1.0
      ],
      [
        "ØªÙĦØ§Ùģ",
        -1.0
      ],
      [
        "SPKAutorunKiller",
        -1.0
      ],
      [
        "ĠÃľyesi",
        -1.0
      ],
      [
        "èĳĹéĢĻ",
        -1.0
      ],
      [
        "ĠÙħØŃØªÙģØ¸Ø§",
        -1.0
      ],
      [
        "MÃ¼ÅŁteri",
        -1.0
      ],
      [
        "å±¤",
        -1.0
      ],
      [
        "ĠÙĦÙĦÙĨØ²ÙĦØ§Ø¡",
        -1.0
      ],
      [
        "à°Ĥà°Łà°Ĺà°¦",
        -1.0
      ],
      [
        "ĠØ§Ø¨ÙĦØŃØ¯",
        -1.0
      ],
      [
        "ĠmouillÃ©",
        -1.0
      ],
      [
        "à¹īà¸Ńà¸¢à¸ģà¸§",
        -1.0
      ],
      [
        "ï¼ĮèĦ¸",
        -1.0
      ],
      [
        "ÐĽÐ£Ð§",
        -1.0
      ],
      [
        "ĠkonfigÃ¼rasyon",
        -1.0
      ],
      [
        "Ġà¸Ĺà¸³à¸«à¸Ļ",
        -1.0
      ],
      [
        "ĠÙĦÙĥÙħ",
        -1.0
      ],
      [
        "ĠÙĬØ±Ùī",
        -1.0
      ],
      [
        "å±ģçľ¼",
        -1.0
      ],
      [
        "à°¾à°£à°®",
        -1.0
      ],
      [
        "ĠUpon",
        -1.0
      ],
      [
        "ĠlibÃ©ral",
        -1.0
      ],
      [
        "ĠØ²ÙĬØ§Ø±Ø©",
        -1.0
      ],
      [
        "à¹īà¸²à¸Īà¸²à¸ģ",
        -1.0
      ],
      [
        "Ø³ÙĬØ·",
        -1.0
      ],
      [
        "ä¸¥æł¼çļĦ",
        -1.0
      ],
      [
        "laÅŁtÄ±rÄ±r",
        -1.0
      ],
      [
        "å°įæĩī",
        -1.0
      ],
      [
        "è£½",
        -1.0
      ],
      [
        "ĠPeretz",
        -1.0
      ],
      [
        "Ġcassette",
        -1.0
      ],
      [
        "ĠÐ»ÐµÐ¿",
        -1.0
      ],
      [
        "ĠRas",
        -1.0
      ],
      [
        "ĠÐ¡Ð´ÐµÐ»",
        -1.0
      ],
      [
        "è°ĭæĿĢå±ŀäºİäº²å¯Ĩä¼´ä¾£æīĢä¸º",
        -1.0
      ],
      [
        "ĠØ¨Ø´Ø¤ÙĪÙĨ",
        -1.0
      ],
      [
        "ĠØ¨Ø´Ø¨ÙĥØ©",
        -1.0
      ],
      [
        "ÙĬØ¶Ø©",
        -1.0
      ],
      [
        "ÐµÑĢÐµ",
        -1.0
      ],
      [
        "ØªÙħØªØ¹",
        -1.0
      ],
      [
        "ĠReservoir",
        -1.0
      ],
      [
        "à¹īà¸Ńà¸ĩà¸ģà¸²à¸£à¹Ģà¸¥",
        -1.0
      ],
      [
        "è®¤",
        -1.0
      ],
      [
        "Ġhectares",
        -1.0
      ],
      [
        "à°¾à°¦à°¨à°¨",
        -1.0
      ],
      [
        "à¹Īà¸²à¸§à¸£",
        -1.0
      ],
      [
        "Ġmonth",
        -1.0
      ],
      [
        "ÙĦØ§ÙħÙĬØ©",
        -1.0
      ],
      [
        "à¸¹à¸Ļxxx",
        -1.0
      ],
      [
        "ĠÙĪØ§ÙĦØŃØ±ÙĥØ§Øª",
        -1.0
      ],
      [
        "ĠÑģÐµÑĢÑĤÐ¸ÑĦÐ¸ÐºÐ°ÑĨÐ¸Ð¸",
        -1.0
      ],
      [
        "Ġkuu",
        -1.0
      ],
      [
        "æĹºçĽĽ",
        -1.0
      ],
      [
        "à±Ĥà°·à°¨",
        -1.0
      ],
      [
        "ĠÑĤÑĢÑĥÐ±Ñĭ",
        -1.0
      ],
      [
        "ĠØªÙĥÙĪÙĨ",
        -1.0
      ],
      [
        "à¹ģà¸Ħà¸¥",
        -1.0
      ],
      [
        "Ġspectacle",
        -1.0
      ],
      [
        "à°¾à°Ĺà°¦",
        -1.0
      ],
      [
        "ĠcaractÃ©r",
        -1.0
      ],
      [
        "ĠÐ²Ð¾Ð¿ÑĢÐ¾ÑģÐ¾Ð¼",
        -1.0
      ],
      [
        "ĠAjira",
        -1.0
      ],
      [
        "format",
        -1.0
      ],
      [
        "|ÐĶÐ°ÑĤÐ°",
        -1.0
      ],
      [
        "Ġelinizde",
        -1.0
      ],
      [
        "Ð¸ÑĢÐ¾Ð²Ð°Ð½Ð½ÑĭÐµ",
        -1.0
      ],
      [
        "Ġmaridhiano",
        -1.0
      ],
      [
        "ĠÐ·Ð°ÐºÐ°Ð½ÑĩÐ¸Ð²Ð°ÐµÑĤÑģÑı",
        -1.0
      ],
      [
        "Ġà¸£à¸°à¸¢à¸°",
        -1.0
      ],
      [
        "ĠÙĦÙĦÙĪÙĤØ§ÙĬØ©",
        -1.0
      ],
      [
        "èī¯å¥½çļĦ",
        -1.0
      ],
      [
        "ĠØ§Ø¹ÙĦØ§ÙħÙĬ",
        -1.0
      ],
      [
        "å´",
        -1.0
      ],
      [
        "à¸¢à¸Ļà¹ģà¸Ľà¸¥à¸ĩà¸Ĥà¸Ńà¸ĩ",
        -1.0
      ],
      [
        "pokuwa",
        -1.0
      ],
      [
        "ĠÙħØŃØ·Ø©",
        -1.0
      ],
      [
        "éĢĲæŃ¥",
        -1.0
      ],
      [
        "åºĶåŃĺåħ¨",
        -1.0
      ],
      [
        "ĠÐ»Ð¸ÑĩÐ½Ð¾Ð³Ð¾",
        -1.0
      ],
      [
        "ĠÙĪØ§ÙĦØ¹ÙģÙĪ",
        -1.0
      ],
      [
        "Ġwowote",
        -1.0
      ],
      [
        "ĠØ§ÙĦØ¶Ø±Ø§Ø¦Ø¨",
        -1.0
      ],
      [
        "ĠØ«ÙħØ§ÙĨÙĬØ©",
        -1.0
      ],
      [
        "à¹ĩà¸Ļà¸ģà¸²à¸£à¹Ģà¸£",
        -1.0
      ],
      [
        "ĠolanÄ±",
        -1.0
      ],
      [
        "ĠÐ»ÐµÐ½ÑĤ",
        -1.0
      ],
      [
        "ĠØ¹Ø§Ø¯",
        -1.0
      ],
      [
        "ĠÐ½Ð°Ñģ",
        -1.0
      ],
      [
        "à¸ģà¸²à¸£à¸«à¸¥",
        -1.0
      ],
      [
        "YouTube",
        -1.0
      ],
      [
        "ĠØ£Ø³ÙĨØ§ÙĨ",
        -1.0
      ],
      [
        "Ġmuscle",
        -1.0
      ],
      [
        "ÙĦÙĬÙĩ",
        -1.0
      ],
      [
        "Ġbafuni",
        -1.0
      ],
      [
        "NJ",
        -1.0
      ],
      [
        "Ġsolar",
        -1.0
      ],
      [
        "à¹īà¹Ģà¸ŀ",
        -1.0
      ],
      [
        "ĠÙħØ¹Ø§ÙĦÙĬ",
        -1.0
      ],
      [
        "ĠØ§ÙĦØºØ§ÙħØ¶Ø©",
        -1.0
      ],
      [
        "ĠÙĪØ§ÙĦØ§ÙħØªØŃØ§ÙĨ",
        -1.0
      ],
      [
        "ØŃÙĬØªÙĩ",
        -1.0
      ],
      [
        "ĠØ§ÙĦØ¯Ø¹Ø§ÙĬØ©",
        -1.0
      ],
      [
        "æ¨Ĥè¶£",
        -1.0
      ],
      [
        "IA",
        -1.0
      ],
      [
        "ĠolmaksÄ±zÄ±n",
        -1.0
      ],
      [
        "Tips",
        -1.0
      ],
      [
        "Ġmahusiano",
        -1.0
      ],
      [
        "Ġpertinent",
        -1.0
      ],
      [
        "ĠÐ¾Ð´Ð½Ð¸Ð¼",
        -1.0
      ],
      [
        "ĠÙĬØ¶ÙĬÙģ",
        -1.0
      ],
      [
        "ĠÐ¿Ð¾Ð´Ð´",
        -1.0
      ],
      [
        "è§ĤçĤ¹",
        -1.0
      ],
      [
        "ĠØ§ÙĦØ§ÙħÙĨÙĬØ©",
        -1.0
      ],
      [
        "chunguze",
        -1.0
      ],
      [
        ".medtronic",
        -1.0
      ],
      [
        "à¸Ħà¸§à¸²à¸¡à¸ªà¸§",
        -1.0
      ],
      [
        "ÅŁir",
        -1.0
      ],
      [
        "ä¸ĸçķĮéĸ±è®ĢæĹ¥",
        -1.0
      ],
      [
        "ÙĬØ®",
        -1.0
      ],
      [
        "cun",
        -1.0
      ],
      [
        "ĠÐĿÐ¾Ð²Ð¾",
        -1.0
      ],
      [
        "ĠÐ¾ÑĤÐ²ÑĢÐ°ÑĤ",
        -1.0
      ],
      [
        "Ġintriguing",
        -1.0
      ],
      [
        "Ġaydan",
        -1.0
      ],
      [
        "Ġattendees",
        -1.0
      ],
      [
        "å®ŀåľ¨",
        -1.0
      ],
      [
        "Ġmsaidizi",
        -1.0
      ],
      [
        "çİ°å®ŀ",
        -1.0
      ],
      [
        "ĠØ¨Ø³Ø¹Ø©",
        -1.0
      ],
      [
        "ĠÐ¼Ð¾Ð»Ð¾Ð´Ð¾Ð¹",
        -1.0
      ],
      [
        "ĠØ§ÙĦØ¹ÙħØ§ÙĦÙĬØ©",
        -1.0
      ],
      [
        "Visit",
        -1.0
      ],
      [
        "ĠÙĦØªÙĨÙģÙĬØ°",
        -1.0
      ],
      [
        "à°ħà°¯",
        -1.0
      ],
      [
        "wasiliana",
        -1.0
      ],
      [
        "'existence",
        -1.0
      ],
      [
        "ĠÑģÐµÑĢÑĮÐµÐ·Ð½ÑĭÑħ",
        -1.0
      ],
      [
        "Ġgrenade",
        -1.0
      ],
      [
        "Ð³Ð°Ð½",
        -1.0
      ],
      [
        "Ġy",
        -1.0
      ],
      [
        "Ġmaddesi",
        -1.0
      ],
      [
        "Ġhusus",
        -1.0
      ],
      [
        "Ġwait",
        -1.0
      ],
      [
        "host",
        -1.0
      ],
      [
        "ĠSchi",
        -1.0
      ],
      [
        "æĵĶå¿ĥ",
        -1.0
      ],
      [
        "{Ø£",
        -1.0
      ],
      [
        "ĠRÃ©",
        -1.0
      ],
      [
        "ĠUltimate",
        -1.0
      ],
      [
        "Ġkumi",
        -1.0
      ],
      [
        "ska",
        -1.0
      ],
      [
        "à¥įà¤¤à¤ķ",
        -1.0
      ],
      [
        "Ø§ÙĦØ¨Ø±",
        -1.0
      ],
      [
        "ĠBrÃ©sil",
        -1.0
      ],
      [
        "è¿Īåħĭå°Ķ",
        -1.0
      ],
      [
        "ĠrÃ©pondre",
        -1.0
      ],
      [
        "ï¼Įéķ·",
        -1.0
      ],
      [
        "ĠÐ¿Ð¾ÑģÑĥÐ´Ñĭ",
        -1.0
      ],
      [
        "ĠØ§ÙĦØ£Ùģ",
        -1.0
      ],
      [
        "yant",
        -1.0
      ],
      [
        "ÐĿÐ°ÑĪÐ°",
        -1.0
      ],
      [
        "å¤§å¤ļ",
        -1.0
      ],
      [
        "Ġkinds",
        -1.0
      ],
      [
        "Xå°Ħçº¿æľĽè¿ľéķľ",
        -1.0
      ],
      [
        "ĠÐ»Ð¸ÑģÑĤÑĮÑı",
        -1.0
      ],
      [
        "è¶ħéģİ",
        -1.0
      ],
      [
        "åĴĮä»ĸä»¬",
        -1.0
      ],
      [
        "ĠØ£Ø«Ø±Øª",
        -1.0
      ],
      [
        "æĶ¯éħį",
        -1.0
      ],
      [
        "Ġåħ¬å°ºæĪĸæĽ´éģł",
        -1.0
      ],
      [
        "äººåİ»",
        -1.0
      ],
      [
        "ĠØ§ÙĦØ£ÙħØ¹Ø§Ø¡",
        -1.0
      ],
      [
        "ĠÙĪØ§ÙĦØ¨ØŃØ±",
        -1.0
      ],
      [
        "ĠÐ¿Ð¾ÑĩÑĤÐ¸",
        -1.0
      ],
      [
        "Ð²ÑĢÐµÐ¼ÐµÐ½Ð½Ð¾Ðµ",
        -1.0
      ],
      [
        "à¹Īà¸Ńà¸ĩà¹Ĥà¸Łà¸¡",
        -1.0
      ],
      [
        "çļĦå®¶äºº",
        -1.0
      ],
      [
        "ä¸ºä¸ŃåĽ½",
        -1.0
      ],
      [
        "ĠrÃ©solution",
        -1.0
      ],
      [
        "à±į....Ċ",
        -1.0
      ],
      [
        "à¥Ģà¤µà¤°",
        -1.0
      ],
      [
        "ĠÑģÐ¾Ð¾ÑĤÐ²ÐµÑĤÑģÑĤÐ²Ð¾Ð²Ð°ÑĤÑĮ",
        -1.0
      ],
      [
        "mbwi",
        -1.0
      ],
      [
        "ĠÑģÐµÐ»ÑĮÑģÐºÐ¸Ñħ",
        -1.0
      ],
      [
        "ĠMkubwa",
        -1.0
      ],
      [
        "ĠØ£Ø´Ø±Ø·Ø©",
        -1.0
      ],
      [
        "ĠÐ¿Ð¾ÑĢÐ°Ð±Ð¾ÑĤÐ°ÑĤÑĮ",
        -1.0
      ],
      [
        "Ġvime",
        -1.0
      ],
      [
        "æĵļ",
        -1.0
      ],
      [
        "æµªè´¹",
        -1.0
      ],
      [
        "à¸Ńà¸Ńà¸ģ",
        -1.0
      ],
      [
        "Ġlezbiyen",
        -1.0
      ],
      [
        "Ġabart",
        -1.0
      ],
      [
        "ĠÐºÐ°ÑĢ",
        -1.0
      ],
      [
        "berry",
        -1.0
      ],
      [
        "Your",
        -1.0
      ],
      [
        "ãĢģåįĹ",
        -1.0
      ],
      [
        "à¤Ĥà¤¤à¤°",
        -1.0
      ],
      [
        "éŃħæĹı",
        -1.0
      ],
      [
        "Ġà¸ģà¸²à¸£à¸Ńà¸Ńà¸ģà¹ģà¸ļà¸ļ",
        -1.0
      ],
      [
        "porte",
        -1.0
      ],
      [
        "Ġistem",
        -1.0
      ],
      [
        "Ġrapor",
        -1.0
      ],
      [
        "à±ĭà°®à°¯",
        -1.0
      ],
      [
        "ĠÙģÙĩØ°Ùĩ",
        -1.0
      ],
      [
        "à¸ªà¸łà¸²à¸§à¸°",
        -1.0
      ],
      [
        "ĠØ§ÙĦØ£Ø±Ø¬ØŃ",
        -1.0
      ],
      [
        "Ġkonuma",
        -1.0
      ],
      [
        "à¸¡à¸²à¸Ļà¸²à¸Ļ",
        -1.0
      ],
      [
        "ĠèĻķ",
        -1.0
      ],
      [
        "à¸±à¸¢à¸łà¸²à¸¢à¹ĥà¸Ļ",
        -1.0
      ],
      [
        "ĠÑģÐ¾ÑĤÑĢÑĥÐ´Ð½Ð¸ÐºÐ¸",
        -1.0
      ],
      [
        "dÄ±n",
        -1.0
      ],
      [
        "ĠÐĶÐµÐ²Ð¾ÑĩÐºÐ°",
        -1.0
      ],
      [
        "Gra",
        -1.0
      ],
      [
        "Ġspec",
        -1.0
      ],
      [
        "ĠÐļÐĳ",
        -1.0
      ],
      [
        "ĠÑħÐ¾Ð´Ðµ",
        -1.0
      ],
      [
        "Ġconfirm",
        -1.0
      ],
      [
        "Ġdigital",
        -1.0
      ],
      [
        "Nexant",
        -1.0
      ],
      [
        "ĠÑĢÐµÐ»Ð¸Ð³Ð¸Ð¸",
        -1.0
      ],
      [
        "ĠØ§ÙĦÙħÙĩØ¬ÙĪØ±Ø©",
        -1.0
      ],
      [
        "æĪª",
        -1.0
      ],
      [
        "ĠNu",
        -1.0
      ],
      [
        "Ġorganized",
        -1.0
      ],
      [
        "ĠØ§ÙĦÙĥØ§Ø±ÙĬØ²ÙħØ§ØªÙĬØ©",
        -1.0
      ],
      [
        "ĠEntre",
        -1.0
      ],
      [
        "èģĮä¸ļ",
        -1.0
      ],
      [
        "Ġfully",
        -1.0
      ],
      [
        "ĠÐ´ÑĭÑħÐ°Ð½Ð¸Ðµ",
        -1.0
      ],
      [
        "à¸´à¸Ļà¹Ĥà¸Ķ",
        -1.0
      ],
      [
        "æķ´æķ´",
        -1.0
      ],
      [
        "Ð¾ÑĢÑĥ",
        -1.0
      ],
      [
        "ĠÙĬØ¹ÙĬØ´ÙĪÙĨ",
        -1.0
      ],
      [
        "ĠÙħÙĬ",
        -1.0
      ],
      [
        "Ġdip",
        -1.0
      ],
      [
        "ĠÑĥÐ´ÐµÑĢÐ¶",
        -1.0
      ],
      [
        "à¹ĩà¸ķà¸ģ",
        -1.0
      ],
      [
        "æĹ©",
        -1.0
      ],
      [
        "à¤Ĩà¤¯",
        -1.0
      ],
      [
        "à¥Įà¤®",
        -1.0
      ],
      [
        "Utilis",
        -1.0
      ],
      [
        "ĠÑģÐ¼Ð°ÑĢÑĤÑĦÐ¾Ð½Ð°",
        -1.0
      ],
      [
        "ĠEski",
        -1.0
      ],
      [
        "ĠØ§ÙĦÙģØ¶",
        -1.0
      ],
      [
        "à°¿,âĢĿ",
        -1.0
      ],
      [
        "Ġphenomenon",
        -1.0
      ],
      [
        "ĠÐºÐ¾Ð¼Ð½Ð°ÑĤÐ°",
        -1.0
      ],
      [
        "Ġà°Ĺà°£",
        -1.0
      ],
      [
        "Ø´Ø±ÙĬØ·",
        -1.0
      ],
      [
        "Ġrecovery",
        -1.0
      ],
      [
        "Ġgetirmektedir",
        -1.0
      ],
      [
        "ĠÐ¾ÑĪÐ¸Ð±ÐºÐ°",
        -1.0
      ],
      [
        "ÙĩØ¯Øª",
        -1.0
      ],
      [
        "ĠÐ±Ð°ÑĢÑĢÐ¸ÐºÐ°Ð´Ñĭ",
        -1.0
      ],
      [
        "ÙĦÙĦÙĩ",
        -1.0
      ],
      [
        "-Aas",
        -1.0
      ],
      [
        "Ð³ÑĢÐµ",
        -1.0
      ],
      [
        "ĠØ§ÙĦÙħØ§ÙĦÙĥÙĬØ©",
        -1.0
      ],
      [
        "ĠÙĬÙĤÙĪÙħ",
        -1.0
      ],
      [
        "ĠYASAK",
        -1.0
      ],
      [
        "éģŃåĪ°",
        -1.0
      ],
      [
        "à¹īà¸³à¸¥",
        -1.0
      ],
      [
        "ĠÐ¿Ð¾Ð»Ð¾Ð²Ð¾Ð³Ð¾",
        -1.0
      ],
      [
        "âĢĿ)",
        -1.0
      ],
      [
        "ĠSÄ°NEMA",
        -1.0
      ],
      [
        "ĠØ¨Ø¶Ø¹Ø©",
        -1.0
      ],
      [
        "à¸¸à¸Ĺà¸ĺà¹Ĥà¸Ĩà¸©à¸²à¸Īà¸²à¸£à¸¢",
        -1.0
      ],
      [
        "ĠÐ»ÑİÐ±ÑıÑĤ",
        -1.0
      ],
      [
        "ï¼ĮçĽ¸ä¿¡",
        -1.0
      ],
      [
        "ï¼ĮèĢĮéĿŀä½¿çĶ¨äººå·¥ç¿»èŃ¯èĢĮæĪĲ",
        -1.0
      ],
      [
        "Ġpikipiki",
        -1.0
      ],
      [
        "ĠØ§ÙĦØ¬Ø²Ø§Ø¦ÙĬØ©",
        -1.0
      ],
      [
        "æ¯ĶçĶ·ç«¥æĽ´æľīåı¯èĥ½",
        -1.0
      ],
      [
        "ĠGÃ¶ster",
        -1.0
      ],
      [
        "Ġasiye",
        -1.0
      ],
      [
        "ĠÙĪØ±Ø¹Ø§Ùĩ",
        -1.0
      ],
      [
        "å»ºè®¾",
        -1.0
      ],
      [
        "Ġosseuse",
        -1.0
      ],
      [
        "à¸µà¸¢à¸Ļà¸ŀ",
        -1.0
      ],
      [
        "ÐĶÑĥÑĢÐ¸Ð¿ÑĪ",
        -1.0
      ],
      [
        "ĠdetaylarÄ±",
        -1.0
      ],
      [
        "à¸´à¸Ķà¸Ĺ",
        -1.0
      ],
      [
        "Ġapplied",
        -1.0
      ],
      [
        "zuia",
        -1.0
      ],
      [
        "à¥īà¤¡",
        -1.0
      ],
      [
        "çĶµè·¯",
        -1.0
      ],
      [
        "ĠAllemagne",
        -1.0
      ],
      [
        "æŃ¥é©Ł",
        -1.0
      ],
      [
        "Ġkonu",
        -1.0
      ],
      [
        "-Ð¿Ð¾Ð»Ð¾",
        -1.0
      ],
      [
        "Ä±dÄ±r",
        -1.0
      ],
      [
        "à¥ĩà¤ľà¤¤",
        -1.0
      ],
      [
        "ĠØ§ÙĦÙħØªØµÙģØŃ",
        -1.0
      ],
      [
        "ĠÐ¾ÑħÑĢÐ°Ð½",
        -1.0
      ],
      [
        "Ġgramu",
        -1.0
      ],
      [
        "ĠRh",
        -1.0
      ],
      [
        "ĠÐĲÐ½Ð³ÐµÐ»",
        -1.0
      ],
      [
        "ĠDL",
        -1.0
      ],
      [
        "ĠyukarÄ±daki",
        -1.0
      ],
      [
        "Ġweapon",
        -1.0
      ],
      [
        "Ġbekleme",
        -1.0
      ],
      [
        "à¸£à¸ĸà¸Ħ",
        -1.0
      ],
      [
        "ĠÑĤÑĢÐµÑĤÑĮÐµÐ¹",
        -1.0
      ],
      [
        "Ø¯Ø§Ø¯ÙĬ",
        -1.0
      ],
      [
        "Ġanavyovi",
        -1.0
      ],
      [
        "Ð¶Ð¸Ð²",
        -1.0
      ],
      [
        "ĠyapÄ±lmalÄ±dÄ±r",
        -1.0
      ],
      [
        "Jinsi",
        -1.0
      ],
      [
        "Ø§Ø¦Ø±Ø©",
        -1.0
      ],
      [
        "ĠÙĪØ£ÙĪÙĦ",
        -1.0
      ],
      [
        "à¹īà¸Īà¸°",
        -1.0
      ],
      [
        "Ġà¸ĸà¸Ńà¸Ķ",
        -1.0
      ],
      [
        "âĢľà¸Ħ",
        -1.0
      ],
      [
        "Ð°ÑĨÐ¸ÑıÐ¼Ð¸",
        -1.0
      ],
      [
        "à¹Įà¸£à¸§à¸¡",
        -1.0
      ],
      [
        "elezeka",
        -1.0
      ],
      [
        "çļĦè½¦",
        -1.0
      ],
      [
        "ĠØ§ÙĦÙħÙħØ§ÙĦÙĬÙĥ",
        -1.0
      ],
      [
        "à¸Ľà¸ģ",
        -1.0
      ],
      [
        "ĠÙĦÙĦÙħÙĨØ¸ÙħØ©",
        -1.0
      ],
      [
        "'un",
        -1.0
      ],
      [
        "ĠAlgiers",
        -1.0
      ],
      [
        "ĠÃ§eker",
        -1.0
      ],
      [
        "à¸¸à¸ĩà¸ª",
        -1.0
      ],
      [
        "ĠØ³Ø£ÙĦØª",
        -1.0
      ],
      [
        "Ġyalifanyika",
        -1.0
      ],
      [
        "ĠØªØ¹Ùħ",
        -1.0
      ],
      [
        "Ġverte",
        -1.0
      ],
      [
        "ĠÐ²ÑĭÑģÐ¾ÐºÐ¾ÑģÐºÐ¾ÑĢÐ¾ÑģÑĤÐ½Ð¾Ð¹",
        -1.0
      ],
      [
        "à¹Įà¸ªà¸³à¸Ħ",
        -1.0
      ],
      [
        "ĠÙĨØ§Ø¹ÙħØ©",
        -1.0
      ],
      [
        "ĠØªØ¹Ø¬Ø¨",
        -1.0
      ],
      [
        "ĠÙĪÙħØµØ¯Ø±",
        -1.0
      ],
      [
        "è¨»åĨĬ",
        -1.0
      ],
      [
        "Ġpower",
        -1.0
      ],
      [
        "-Aamash",
        -1.0
      ],
      [
        "Ð°Ð»ÑĮÐ½Ñĭ",
        -1.0
      ],
      [
        "çº³ç±³æĬĢæľ¯",
        -1.0
      ],
      [
        "Ġkipya",
        -1.0
      ],
      [
        "script",
        -1.0
      ],
      [
        "à±Ĥà°ªà°°",
        -1.0
      ],
      [
        "ĠÐĿÑĥÐ¶Ð½Ð¾",
        -1.0
      ],
      [
        "ĠÑģÑħÐ²Ð°ÑĤÐ¸Ð»",
        -1.0
      ],
      [
        "ĠØ§ÙĦØŃØ¨",
        -1.0
      ],
      [
        "Sn",
        -1.0
      ],
      [
        "ĠÙĪÙĦ",
        -1.0
      ],
      [
        "çļĦåıĺåĮĸ",
        -1.0
      ],
      [
        "ĠØ§ÙĦØ¹Ø¸Ùħ",
        -1.0
      ],
      [
        "ØŃØªÙĬØ§Ø¬Ø§Øª",
        -1.0
      ],
      [
        "ĠÙħÙĪØ¶Ø¹",
        -1.0
      ],
      [
        "ç³»ä¸»ä»»çļĦ",
        -1.0
      ],
      [
        "ĠØ¥ÙĨÙĩÙħ",
        -1.0
      ],
      [
        "ÑİÑģÑĮ",
        -1.0
      ],
      [
        "à±Ĩà°®à°Ł",
        -1.0
      ],
      [
        "à¹ĥà¸Ļà¸Ŀ",
        -1.0
      ],
      [
        "ĠØ®Ø§Ø±Ø¬Ø©",
        -1.0
      ],
      [
        "\"à¸Ń",
        -1.0
      ],
      [
        "à±Ĭà°¦à°²à°µ",
        -1.0
      ],
      [
        "ĠØ¬ÙĩØªÙĩ",
        -1.0
      ],
      [
        "ĠØ§ÙĦØ¬Ø³ÙĬÙħ",
        -1.0
      ],
      [
        "à¹ĩà¸Ļà¸Ńà¸Ļ",
        -1.0
      ],
      [
        "à¸¶à¸ļ",
        -1.0
      ],
      [
        "Ġutoaji",
        -1.0
      ],
      [
        "Ġmanifestations",
        -1.0
      ],
      [
        "ĠÙĪÙħÙĪØ§ÙĤÙģ",
        -1.0
      ],
      [
        "Ġrue",
        -1.0
      ],
      [
        "çļĦå¼Ģåıĳ",
        -1.0
      ],
      [
        "Ð¡Ð¸ÑģÑĤÐµÐ¼",
        -1.0
      ],
      [
        "Haut",
        -1.0
      ],
      [
        "à±įà°¨à°²",
        -1.0
      ],
      [
        "ĠÐ²Ð¾Ð¹Ð½Ñĭ",
        -1.0
      ],
      [
        "ç®¡è¾ĸ",
        -1.0
      ],
      [
        "Hol",
        -1.0
      ],
      [
        "Ġhissettir",
        -1.0
      ],
      [
        "çªĹæĪ·",
        -1.0
      ],
      [
        "ä¸įèī¯",
        -1.0
      ],
      [
        "ĠÙĥÙĦÙħ",
        -1.0
      ],
      [
        "ny",
        -1.0
      ],
      [
        "à¸·à¸Ńà¸Ļà¸ģà¸£à¸°à¸Īà¸ģ",
        -1.0
      ],
      [
        "Mwandishi",
        -1.0
      ],
      [
        "ĠYehova",
        -1.0
      ],
      [
        "çķ«éĿ¢ä¸Ńç¾İå¥³æī¯ä¸ĭæµ´å·¾",
        -1.0
      ],
      [
        "ĠÐ²ÐµÑĢ",
        -1.0
      ],
      [
        "ĠÑģÐµÑĢÑĮÑĳÐ·Ð½Ð¾",
        -1.0
      ],
      [
        "à¹Ģà¸ĩ",
        -1.0
      ],
      [
        "Ġterminer",
        -1.0
      ],
      [
        "Ġnavires",
        -1.0
      ],
      [
        "à¸©",
        -1.0
      ],
      [
        "Ġcontingent",
        -1.0
      ],
      [
        "Ġprohibition",
        -1.0
      ],
      [
        "ĠGÃ¼nÃ¼mÃ¼ze",
        -1.0
      ],
      [
        "ĠÐ¿Ð¾Ð´Ð´ÐµÑĢÐ¶ÐºÐ¸",
        -1.0
      ],
      [
        "Ġuygulayan",
        -1.0
      ],
      [
        "ĠÙĪØ§ÙĦØ¹ÙĤÙĦ",
        -1.0
      ],
      [
        "ĠÐ¼Ð¸ÑĤÑĢÐ¾Ð¿Ð¾Ð»Ð¸ÑĤ",
        -1.0
      ],
      [
        "Ġstretch",
        -1.0
      ],
      [
        "ĠÙĪØ§Øµ",
        -1.0
      ],
      [
        "ĠØ§ÙĦØ¯ÙĦØ§ÙĦÙĬØ©",
        -1.0
      ],
      [
        "ĠÃŁ",
        -1.0
      ],
      [
        "ĠØ§ÙĦØ£Ø¶",
        -1.0
      ],
      [
        "åīµæĸ°",
        -1.0
      ],
      [
        "Ġhususa",
        -1.0
      ],
      [
        "ĠØ§ÙĦØ¯Ø§Ø®ÙĦ",
        -1.0
      ],
      [
        "Ġsanata",
        -1.0
      ],
      [
        "!!.Ċ",
        -1.0
      ],
      [
        "à¸·à¸Ńà¹Ģà¸£",
        -1.0
      ],
      [
        "Ġmutlu",
        -1.0
      ],
      [
        "Ġburden",
        -1.0
      ],
      [
        "ĠÐ³Ð»ÑĥÐ±Ð¾ÐºÐ¾Ð¹",
        -1.0
      ],
      [
        "ÙĨØºØªÙĪÙĨ",
        -1.0
      ],
      [
        "Ð¾ÑĩÐ½Ð¾",
        -1.0
      ],
      [
        "ĠÐ±ÑĢÐ°ÑĤÐ¾Ð¼",
        -1.0
      ],
      [
        "Ð¾Ð³ÑĢÐ°ÑĦÐ¸Ð¸",
[...]
