{
  "version": "1.0",
  "truncation": null,
  "padding": null,
  "added_tokens": [
    {
      "id": 0,
      "content": "<|bos|>",
      "single_word": false,
      "lstrip": false,
      "rstrip": false,
      "normalized": false,
      "special": true
    },
    {
      "id": 1,
      "content": "<|user_start|>",
      "single_word": false,
      "lstrip": false,
      "rstrip": false,
      "normalized": false,
      "special": true
    },
    {
      "id": 2,
      "content": "<|user_end|>",
      "single_word": false,
      "lstrip": false,
      "rstrip": false,
      "normalized": false,
      "special": true
    },
    {
      "id": 3,
      "content": "<|assistant_start|>",
      "single_word": false,
      "lstrip": false,
      "rstrip": false,
      "normalized": false,
      "special": true
    },
    {
      "id": 4,
      "content": "<|assistant_end|>",
      "single_word": false,
      "lstrip": false,
      "rstrip": false,
      "normalized": false,
      "special": true
    },
    {
      "id": 5,
      "content": "<|python_start|>",
      "single_word": false,
      "lstrip": false,
      "rstrip": false,
      "normalized": false,
      "special": true
    },
    {
      "id": 6,
      "content": "<|python_end|>",
      "single_word": false,
      "lstrip": false,
      "rstrip": false,
      "normalized": false,
      "special": true
    },
    {
      "id": 7,
      "content": "<|output_start|>",
      "single_word": false,
      "lstrip": false,
      "rstrip": false,
      "normalized": false,
      "special": true
    },
    {
      "id": 8,
      "content": "<|output_end|>",
      "single_word": false,
      "lstrip": false,
      "rstrip": false,
      "normalized": false,
      "special": true
    }
  ],
  "normalizer": null,
  "pre_tokenizer": {
    "type": "Sequence",
    "pretokenizers": [
      {
        "type": "Split",
        "pattern": {
          "Regex": "'(?i:[sdmt]|ll|ve|re)|[^\\r\\n\\p{L}\\p{N}]?+\\p{L}+|\\p{N}{1,2}| ?[^\\s\\p{L}\\p{N}]++[\\r\\n]*|\\s*[\\r\\n]|\\s+(?!\\S)|\\s+"
        },
        "behavior": "Isolated",
        "invert": false
      },
      {
        "type": "ByteLevel",
        "add_prefix_space": false,
        "trim_offsets": true,
        "use_regex": false
      }
    ]
  },
  "post_processor": null,
  "decoder": {
    "type": "ByteLevel",
    "add_prefix_space": true,
    "trim_offsets": true,
    "use_regex": true
  },
  "model": {
    "type": "BPE",
    "dropout": null,
    "unk_token": null,
    "continuing_subword_prefix": null,
    "end_of_word_suffix": null,
    "fuse_unk": false,
    "byte_fallback": true,
    "ignore_merges": false,
    "vocab": {
      "<|bos|>": 0,
      "<|user_start|>": 1,
      "<|user_end|>": 2,
      "<|assistant_start|>": 3,
      "<|assistant_end|>": 4,
      "<|python_start|>": 5,
      "<|python_end|>": 6,
      "<|output_start|>": 7,
      "<|output_end|>": 8,
      "!": 9,
      "\"": 10,
      "#": 11,
      "$": 12,
      "%": 13,
      "&": 14,
      "'": 15,
      "(": 16,
      ")": 17,
      "*": 18,
      "+": 19,
      ",": 20,
      "-": 21,
      ".": 22,
      "/": 23,
      "0": 24,
      "1": 25,
      "2": 26,
      "3": 27,
      "4": 28,
      "5": 29,
      "6": 30,
      "7": 31,
      "8": 32,
      "9": 33,
      ":": 34,
      ";": 35,
      "<": 36,
      "=": 37,
      ">": 38,
      "?": 39,
      "@": 40,
      "A": 41,
      "B": 42,
      "C": 43,
      "D": 44,
      "E": 45,
      "F": 46,
      "G": 47,
      "H": 48,
      "I": 49,
      "J": 50,
      "K": 51,
      "L": 52,
      "M": 53,
      "N": 54,
      "O": 55,
      "P": 56,
      "Q": 57,
      "R": 58,
      "S": 59,
      "T": 60,
      "U": 61,
      "V": 62,
      "W": 63,
      "X": 64,
      "Y": 65,
      "Z": 66,
      "[": 67,
      "\\": 68,
      "]": 69,
      "^": 70,
      "_": 71,
      "`": 72,
      "a": 73,
      "b": 74,
      "c": 75,
      "d": 76,
      "e": 77,
      "f": 78,
      "g": 79,
      "h": 80,
      "i": 81,
      "j": 82,
      "k": 83,
      "l": 84,
      "m": 85,
      "n": 86,
      "o": 87,
      "p": 88,
      "q": 89,
      "r": 90,
      "s": 91,
      "t": 92,
      "u": 93,
      "v": 94,
      "w": 95,
      "x": 96,
      "y": 97,
      "z": 98,
      "{": 99,
      "|": 100,
      "}": 101,
      "~": 102,
      "¡": 103,
      "¢": 104,
      "£": 105,
      "¤": 106,
      "¥": 107,
      "¦": 108,
      "§": 109,
      "¨": 110,
      "©": 111,
      "ª": 112,
      "«": 113,
      "¬": 114,
      "®": 115,
      "¯": 116,
      "°": 117,
      "±": 118,
      "²": 119,
      "³": 120,
      "´": 121,
      "µ": 122,
      "¶": 123,
      "·": 124,
      "¸": 125,
      "¹": 126,
      "º": 127,
      "»": 128,
      "¼": 129,
      "½": 130,
      "¾": 131,
      "¿": 132,
      "À": 133,
      "Á": 134,
      "Â": 135,
      "Ã": 136,
      "Ä": 137,
      "Å": 138,
      "Æ": 139,
      "Ç": 140,
      "È": 141,
      "É": 142,
      "Ê": 143,
      "Ë": 144,
      "Ì": 145,
      "Í": 146,
      "Î": 147,
      "Ï": 148,
      "Ð": 149,
      "Ñ": 150,
      "Ò": 151,
      "Ó": 152,
      "Ô": 153,
      "Õ": 154,
      "Ö": 155,
      "×": 156,
      "Ø": 157,
      "Ù": 158,
      "Ú": 159,
      "Û": 160,
      "Ü": 161,
      "Ý": 162,
      "Þ": 163,
      "ß": 164,
      "à": 165,
      "á": 166,
      "â": 167,
      "ã": 168,
      "ä": 169,
      "å": 170,
      "æ": 171,
      "ç": 172,
      "è": 173,
      "é": 174,
      "ê": 175,
      "ë": 176,
      "ì": 177,
      "í": 178,
      "î": 179,
      "ï": 180,
      "ð": 181,
      "ñ": 182,
      "ò": 183,
      "ó": 184,
      "ô": 185,
      "õ": 186,
      "ö": 187,
      "÷": 188,
      "ø": 189,
      "ù": 190,
      "ú": 191,
      "û": 192,
      "ü": 193,
      "ý": 194,
      "þ": 195,
      "ÿ": 196,
      "Ā": 197,
      "ā": 198,
      "Ă": 199,
      "ă": 200,
      "Ą": 201,
      "ą": 202,
      "Ć": 203,
      "ć": 204,
      "Ĉ": 205,
      "ĉ": 206,
      "Ċ": 207,
      "ċ": 208,
      "Č": 209,
      "č": 210,
      "Ď": 211,
      "ď": 212,
      "Đ": 213,
      "đ": 214,
      "Ē": 215,
      "ē": 216,
      "Ĕ": 217,
      "ĕ": 218,
      "Ė": 219,
      "ė": 220,
      "Ę": 221,
      "ę": 222,
      "Ě": 223,
      "ě": 224,
      "Ĝ": 225,
      "ĝ": 226,
      "Ğ": 227,
      "ğ": 228,
      "Ġ": 229,
      "ġ": 230,
      "Ģ": 231,
      "ģ": 232,
      "Ĥ": 233,
      "ĥ": 234,
      "Ħ": 235,
      "ħ": 236,
      "Ĩ": 237,
      "ĩ": 238,
      "Ī": 239,
      "ī": 240,
      "Ĭ": 241,
      "ĭ": 242,
      "Į": 243,
      "į": 244,
      "İ": 245,
      "ı": 246,
      "Ĳ": 247,
      "ĳ": 248,
      "Ĵ": 249,
      "ĵ": 250,
      "Ķ": 251,
      "ķ": 252,
      "ĸ": 253,
      "Ĺ": 254,
      "ĺ": 255,
      "Ļ": 256,
      "ļ": 257,
      "Ľ": 258,
      "ľ": 259,
      "Ŀ": 260,
      "ŀ": 261,
      "Ł": 262,
      "ł": 263,
      "Ń": 264,
      "Ġt": 265,
      "Ġa": 266,
      "he": 267,
      "in": 268,
      "re": 269,
      "Ġthe": 270,
      "on": 271,
      "er": 272,
      "Ġo": 273,
      "at": 274,
      "Ġs": 275,
      "en": 276,
      "Ġc": 277,
      "es": 278,
      "Ġw": 279,
      "is": 280,
      "nd": 281,
      "it": 282,
      "or": 283,
      "Ġp": 284,
      "al": 285,
      "Ġb": 286,
      "ed": 287,
      "an": 288,
      "Ġof": 289,
      "Ġf": 290,
      "ing": 291,
      "Ġin": 292,
      "ou": 293,
      "ar": 294,
      "Ġm": 295,
      "Ġand": 296,
      "Ġto": 297,
      "ic": 298,
      "ion": 299,
      "Ġd": 300,
      "le": 301,
      "ro": 302,
      "as": 303,
      "Ġh": 304,
      "ent": 305,
      "Ġth": 306,
      "ct": 307,
      "Ġe": 308,
      "il": 309,
      "Ġre": 310,
      "om": 311,
      "ve": 312,
      "Ġl": 313,
      "st": 314,
      "Ġn": 315,
      ".Ċ": 316,
      "ly": 317,
      "Ġbe": 318,
      "âĢ": 319,
      "Ġis": 320,
      "ĠT": 321,
      "se": 322,
      "ol": 323,
      "Ġg": 324,
      "ation": 325,
      "im": 326,
      "id": 327,
      "et": 328,
      "ut": 329,
      "ce": 330,
      "ot": 331,
      "ur": 332,
      "ra": 333,
      "ch": 334,
      "ow": 335,
      "Ġfor": 336,
      "ĠA": 337,
      "ig": 338,
      "ĠS": 339,
      "Ġu": 340,
      "Ġthat": 341,
      "Ġon": 342,
      "Ġst": 343,
      "ver": 344,
      "Ġy": 345,
      "ir": 346,
      "ĠC": 347,
      "ĠI": 348,
      "ul": 349,
      "ay": 350,
      "am": 351,
      "ith": 352,
      "Ġas": 353,
      "el": 354,
      "ad": 355,
      "Ġpro": 356,
      "her": 357,
      "Ġare": 358,
      "Ġcon": 359,
      "Ġan": 360,
      "Ġwith": 361,
      "if": 362,
      "Ġyou": 363,
      "Ġwh": 364,
      "Ġor": 365,
      "Ġit": 366,
      "Ġal": 367,
      "ter": 368,
      "od": 369,
      "ĠM": 370,
      "ĠThe": 371,
      "Ġ(": 372,
      "ment": 373,
      "ge": 374,
      "ĠP": 375,
      "th": 376,
      "op": 377,
      "ate": 378,
      "ist": 379,
      "ers": 380,
      "Ġde": 381,
      "ies": 382,
      "Ġhe": 383,
      "ess": 384,
      "ab": 385,
      "ill": 386,
      "Ġex": 387,
      "ĠB": 388,
      "us": 389,
      "ect": 390,
      "ore": 391,
      "Ġwe": 392,
      "Ġcom": 393,
      "Ġsu": 394,
      "âĢĻ": 395,
      "ity": 396,
      "est": 397,
      "res": 398,
      "ive": 399,
      "ac": 400,
      "Ġha": 401,
      "ĠH": 402,
      "um": 403,
      "rom": 404,
      "ld": 405,
      "Ġv": 406,
      "os": 407,
      "ke": 408,
      "ant": 409,
      "qu": 410,
      "Ġby": 411,
      "em": 412,
      "iv": 413,
      "ain": 414,
      "ĠW": 415,
      "nt": 416,
      "pp": 417,
      "Ġat": 418,
      "Ġcan": 419,
      "igh": 420,
      "ĠD": 421,
      "Ġwas": 422,
      "ud": 423,
      "ĠE": 424,
      "Ġfrom": 425,
      "Ġch": 426,
      "and": 427,
      "oc": 428,
      "Ġr": 429,
      "ort": 430,
      "ĠR": 431,
      "Ġne": 432,
      "ĠF": 433,
      "ial": 434,
      "Ġse": 435,
      "ure": 436,
      "un": 437,
      "Ġnot": 438,
      "Ġle": 439,
      "ĠâĢ": 440,
      "art": 441,
      "ical": 442,
      "ĠN": 443,
      "ĠG": 444,
      "Ġhave": 445,
      "ri": 446,
      "ĠL": 447,
      "og": 448,
      "Ġsh": 449,
      "Ġen": 450,
      "Ġsp": 451,
      "Ġthis": 452,
      "pt": 453,
      "ight": 454,
      "rou": 455,
      "red": 456,
      "Ġab": 457,
      "ich": 458,
      "Ġwor": 459,
      "all": 460,
      "ions": 461,
      "ther": 462,
      "ould": 463,
      "âĢĻs": 464,
      "our": 465,
      "ome": 466,
      "ost": 467,
      "gh": 468,
      "The": 469,
      "du": 470,
      "Ġim": 471,
      "ated": 472,
      "per": 473,
      "20": 474,
      "Ġus": 475,
      "Ġpl": 476,
      "ine": 477,
      "ag": 478,
      "out": 479,
      "Ġtheir": 480,
      "ard": 481,
      "ff": 482,
      "act": 483,
      "ide": 484,
      "ell": 485,
      "Ġint": 486,
      "pl": 487,
      "ĠO": 488,
      "ear": 489,
      "ans": 490,
      "age": 491,
      "ast": 492,
      "ak": 493,
      "Ġyour": 494,
      "ust": 495,
      "Ġwhich": 496,
      "iz": 497,
      "Ġwhe": 498,
      "Ġk": 499,
      "ĠJ": 500,
      "Ġthey": 501,
      "ec": 502,
      "ous": 503,
      "ĠU": 504,
      "ult": 505,
      "ood": 506,
      "Ġad": 507,
      "Ġall": 508,
      "Ġcont": 509,
      "Ġinc": 510,
      "ib": 511,
      "end": 512,
      "ĠIn": 513,
      "Ġwill": 514,
      "cc": 515,
      "ru": 516,
      "19": 517,
      "Ġdis": 518,
      "ap": 519,
      "Ġres": 520,
      "Ġmore": 521,
      "Ġcomp": 522,
      "ong": 523,
      "ip": 524,
      "âĢĿ": 525,
      "ations": 526,
      "vel": 527,
      "ew": 528,
      "ia": 529,
      "Ġhas": 530,
      "ere": 531,
      "orm": 532,
      "so": 533,
      "ater": 534,
      "Ġdo": 535,
      "ary": 536,
      "ĠTh": 537,
      "able": 538,
      "ild": 539,
      "ence": 540,
      "are": 541,
      "Ġman": 542,
      "ual": 543,
      "Ġcl": 544,
      "Ġother": 545,
      "ks": 546,
      "Ġbut": 547,
      "ry": 548,
      "Ġwere": 549,
      "ind": 550,
      "ep": 551,
      "Ġimp": 552,
      "ents": 553,
      "ance": 554,
      "Ġper": 555,
      "Ġte": 556,
      "Ġme": 557,
      "ach": 558,
      "Ġalso": 559,
      "ĠâĢľ": 560,
      "Ġone": 561,
      "ign": 562,
      "reat": 563,
      "'s": 564,
      "ake": 565,
      "ose": 566,
      "ress": 567,
      "ass": 568,
      "av": 569,
      "au": 570,
      "ase": 571,
      "Ġso": 572,
      "Ġj": 573,
      "ition": 574,
      "ction": 575,
      "ice": 576,
      "Ġout": 577,
      "ber": 578,
      "Ġapp": 579,
      "ime": 580,
      "Ġun": 581,
      "one": 582,
      "very": 583,
      "Ġar": 584,
      "Ġpart": 585,
      "ord": 586,
      "Ġabout": 587,
      "ace": 588,
      "Ġstud": 589,
      "ens": 590,
      "ount": 591,
      "Ġev": 592,
      "ory": 593,
      "ack": 594,
      "ish": 595,
      "ire": 596,
      "ĠSt": 597,
      "ok": 598,
      "Ġinf": 599,
      "Ġwho": 600,
      "Ġpe": 601,
      "ame": 602,
      "ors": 603,
      "Ġsy": 604,
      "Ġcomm": 605,
      "ang": 606,
      "Ġhis": 607,
      "ue": 608,
      "Ġthem": 609,
      "ces": 610,
      "ub": 611,
      "ike": 612,
      "Ġsc": 613,
      "ite": 614,
      "ĠK": 615,
      "ound": 616,
      "ree": 617,
      "now": 618,
      "ĠIt": 619,
      "Ġpre": 620,
      "Ġbec": 621,
      "olog": 622,
      "low": 623,
      "Ġup": 624,
      "Ġmay": 625,
      "ric": 626,
      "Ġqu": 627,
      "Ġ\"": 628,
      "iff": 629,
      "ie": 630,
      "Ġthan": 631,
      "ile": 632,
      "Ġsome": 633,
      "ople": 634,
      "Ġrec": 635,
      "Ġyear": 636,
      "ays": 637,
      "ĠCh": 638,
      "ates": 639,
      "ail": 640,
      "Ġwhen": 641,
      "Ġbeen": 642,
      "nder": 643,
      "ings": 644,
      "Ġthere": 645,
      "ian": 646,
      "Ġits": 647,
      "mer": 648,
      "Ġgo": 649,
      "ren": 650,
      "Ġinto": 651,
      "Ġwork": 652,
      "Ġtime": 653,
      "Ġtra": 654,
      "Ġag": 655,
      "ĠThis": 656,
      "ough": 657,
      "Ġover": 658,
      "ph": 659,
      "Ġthese": 660,
      "rit": 661,
      "ons": 662,
      "Ġdiff": 663,
      "erv": 664,
      "te": 665,
      "rough": 666,
      "vers": 667,
      "ally": 668,
      "lud": 669,
      "Ġhow": 670,
      "Ġpeople": 671,
      "ĠV": 672,
      "ause": 673,
      "Ġcons": 674,
      "Ġro": 675,
      "ond": 676,
      "Ġcol": 677,
      "Ġuse": 678,
      "ific": 679,
      "tern": 680,
      "Ġhad": 681,
      "ms": 682,
      "Ġra": 683,
      "ll": 684,
      "Ġtr": 685,
      "Ġbet": 686,
      "we": 687,
      "Ġact": 688,
      "alth": 689,
      "ove": 690,
      "Ġour": 691,
      "ities": 692,
      "int": 693,
      "10": 694,
      "Ġlike": 695,
      "ys": 696,
      "Ġmost": 697,
      "Ġunder": 698,
      "Ġknow": 699,
      "lect": 700,
      "lic": 701,
      "ments": 702,
      "irst": 703,
      "Ġsa": 704,
      "row": 705,
      "Ġacc": 706,
      "les": 707,
      "ning": 708,
      "ious": 709,
      "ject": 710,
      "Ġbl": 711,
      "Ġdes": 712,
      "ĠY": 713,
      "Ġwould": 714,
      "velop": 715,
      "stem": 716,
      "ffect": 717,
      "ook": 718,
      "Ġsuch": 719,
      "Ġrel": 720,
      "Ġneed": 721,
      "Ġtw": 722,
      "Ġnew": 723,
      ").": 724,
      "Ġhel": 725,
      "Ġrep": 726,
      "Ġif": 727,
      "Ġchild": 728,
      "Ġinclud": 729,
      "ient": 730,
      "ational": 731,
      "Ġany": 732,
      "Ġgen": 733,
      "ative": 734,
      "Ġhelp": 735,
      "ob": 736,
      "cess": 737,
      "ple": 738,
      "ular": 739,
      "ced": 740,
      "hed": 741,
      "Ġprodu": 742,
      "Ġpr": 743,
      "Ġph": 744,
      "Ġonly": 745,
      "Ġused": 746,
      "ating": 747,
      "Ġwhat": 748,
      "ov": 749,
      "yp": 750,
      "Ġprov": 751,
      "Ġind": 752,
      "ool": 753,
      "Ġoff": 754,
      "Ġno": 755,
      "Ġmany": 756,
      "Ġthrough": 757,
      "Ġdevelop": 758,
      "Ġspec": 759,
      "Ġam": 760,
      "Ġfe": 761,
      "Ġfirst": 762,
      "),": 763,
      "oss": 764,
      "iet": 765,
      "ĠUn": 766,
      "ise": 767,
      "fter": 768,
      "Ġem": 769,
      "Ġac": 770,
      "round": 771,
      "ath": 772,
      "ark": 773,
      "Ġreg": 774,
      "ics": 775,
      "18": 776,
      "uring": 777,
      "hen": 778,
      "erm": 779,
      "ful": 780,
      "ts": 781,
      "Ġexp": 782,
      "Ġsystem": 783,
      "uc": 784,
      "Ġpo": 785,
      "Ġdiffere": 786,
      "Ġtwo": 787,
      "rib": 788,
      "iss": 789,
      "ne": 790,
      "oth": 791,
      "ied": 792,
      "ility": 793,
      "ink": 794,
      "Ġob": 795,
      "rop": 796,
      "Ġdec": 797,
      "Ġass": 798,
      "eth": 799,
      "old": 800,
      "als": 801,
      "ased": 802,
      "Ġadd": 803,
      "ible": 804,
      "Ġsur": 805,
      "ange": 806,
      "Ġatt": 807,
      "ures": 808,
      "ĠâĢĵ": 809,
      "ten": 810,
      "Ġshould": 811,
      "ower": 812,
      "ĠHe": 813,
      "ife": 814,
      "In": 815,
      "fore": 816,
      "Ġwell": 817,
      "Ġwater": 818,
      "ract": 819,
      "ween": 820,
      "Ġsupp": 821,
      "ert": 822,
      "ram": 823,
      "Ġrem": 824,
      "aw": 825,
      "ble": 826,
      "Ġfl": 827,
      "arch": 828,
      "Ġinv": 829,
      "ng": 830,
      "Ġhealth": 831,
      "Ġ-": 832,
      "00": 833,
      "own": 834,
      "Ġsub": 835,
      "Ġyears": 836,
      "Ġco": 837,
      "gan": 838,
      "ution": 839,
      "Ġbetween": 840,
      "ade": 841,
      "sel": 842,
      "Ġpres": 843,
      "Ġsm": 844,
      "its": 845,
      "Ġhigh": 846,
      "cy": 847,
      "hes": 848,
      "ever": 849,
      "Ġcould": 850,
      ":Ċ": 851,
      "Ġwhere": 852,
      "ick": 853,
      "Ġmake": 854,
      "wn": 855,
      "?Ċ": 856,
      "Ġtrans": 857,
      "ants": 858,
      "Ġbu": 859,
      "ily": 860,
      "ĠAs": 861,
      "xt": 862,
      "Ġimport": 863,
      "uch": 864,
      "form": 865,
      "Ġpers": 866,
      "Ġget": 867,
      "chn": 868,
      "ident": 869,
      "ural": 870,
      "Ġinter": 871,
      "ience": 872,
      "Ġmod": 873,
      "ology": 874,
      "Ġear": 875,
      "Ġpol": 876,
      "chool": 877,
      "ited": 878,
      "Ġinst": 879,
      "ting": 880,
      "Ġher": 881,
      "Ġrese": 882,
      "Ġform": 883,
      "Ġnum": 884,
      "meric": 885,
      "land": 886,
      "ines": 887,
      "Ġlear": 888,
      "ivers": 889,
      "Ġexam": 890,
      "ins": 891,
      "ef": 892,
      "Ġdisc": 893,
      "ont": 894,
      "ata": 895,
      "Ġdifferent": 896,
      "Ġeffect": 897,
      "Ġexper": 898,
      "ness": 899,
      "âĢĻt": 900,
      "ists": 901,
      "gy": 902,
      "ict": 903,
      "Ġbecause": 904,
      "Ġfound": 905,
      "ually": 906,
      "Ġlong": 907,
      "cept": 908,
      "Ġafter": 909,
      "Ġsim": 910,
      "hat": 911,
      "Ġcar": 912,
      "oy": 913,
      "Ġlar": 914,
      "Ġincre": 915,
      "ism": 916,
      "Ġcount": 917,
      "Ġjust": 918,
      "Ġeven": 919,
      "Ġworld": 920,
      "Ġcent": 921,
      "Ġmed": 922,
      "Ġdet": 923,
      "Ġthen": 924,
      "Ġinform": 925,
      "Ġvery": 926,
      "ature": 927,
      "Ġway": 928,
      "get": 929,
      "aking": 930,
      "ft": 931,
      "Ġtyp": 932,
      "Ġresp": 933,
      "urn": 934,
      "Ġvar": 935,
      "vent": 936,
      "Ġsign": 937,
      "Ġed": 938,
      "Ġhum": 939,
      "ically": 940,
      "other": 941,
      "ĠAmeric": 942,
      "Ġgener": 943,
      "Ġke": 944,
      "ives": 945,
      "Ġsee": 946,
      "Ġprog": 947,
      "Ġthose": 948,
      "Ġref": 949,
      "12": 950,
      "iew": 951,
      "Ġfol": 952,
      "Ġpat": 953,
      "cer": 954,
      "Ġresult": 955,
      "Ġext": 956,
      "Ġchildren": 957,
      "ck": 958,
      "Ġevery": 959,
      "ros": 960,
      "Ġloc": 961,
      "Ġpub": 962,
      "iron": 963,
      "ases": 964,
      "Ġsaid": 965,
      "arm": 966,
      "ues": 967,
      "Ġprocess": 968,
      "Ġsoc": 969,
      "led": 970,
      "Ġfact": 971,
      "ps": 972,
      "omm": 973,
      "Ġbeing": 974,
      "Ġeach": 975,
      "ds": 976,
      "Ġcall": 977,
      "Ġca": 978,
      "Ġsec": 979,
      "ages": 980,
      "Ġrequ": 981,
      "Ġtechn": 982,
      "Ġimportant": 983,
      "Ġpartic": 984,
      "ork": 985,
      "Ġgra": 986,
      "Th": 987,
      "Ġcommun": 988,
      "ruct": 989,
      "Ġdist": 990,
      "tle": 991,
      "Ġset": 992,
      "Ġlife": 993,
      "Ġmon": 994,
      ".âĢĿ": 995,
      "ody": 996,
      "vern": 997,
      "ather": 998,
      "ized": 999,
      "ved": 1000,
      "Ġdep": 1001,
      "ĠAl": 1002,
      "Ġduring": 1003,
      "Ġcre": 1004,
      "Ġmuch": 1005,
      "Ġent": 1006,
      "ĠWe": 1007,
      "Ġdef": 1008,
      "io": 1009,
      "Ġart": 1010,
      "cent": 1011,
      "Ġfam": 1012,
      "ward": 1013,
      "Ġstudents": 1014,
      "Ġinformation": 1015,
      "Ġown": 1016,
      "Ġshe": 1017,
      ")Ċ": 1018,
      "Ġfood": 1019,
      "imes": 1020,
      "Ġsk": 1021,
      "Ġread": 1022,
      "ices": 1023,
      "Ġlead": 1024,
      "Ġfollow": 1025,
      "ize": 1026,
      "ĠThey": 1027,
      "Ġright": 1028,
      "Ġaut": 1029,
      "15": 1030,
      "Ġmy": 1031,
      "Ġlevel": 1032,
      "any": 1033,
      "ĠPro": 1034,
      "eg": 1035,
      "Ġdata": 1036,
      "ection": 1037,
      "Ġgrow": 1038,
      "Ġsame": 1039,
      "Ġmade": 1040,
      "Ġdoes": 1041,
      "gg": 1042,
      "Ġfind": 1043,
      "Ġproble": 1044,
      "Ġperson": 1045,
      "Ġstudy": 1046,
      "hip": 1047,
      "Ġstr": 1048,
      "Ġav": 1049,
      "Ġcur": 1050,
      "Ġmin": 1051,
      "ted": 1052,
      "the": 1053,
      "Ġgood": 1054,
      "11": 1055,
      "Ġend": 1056,
      "ĠIf": 1057,
      "ality": 1058,
      "viron": 1059,
      "Ġback": 1060,
      "ale": 1061,
      "Ġboth": 1062,
      "Ġins": 1063,
      ".,": 1064,
      "und": 1065,
      "onom": 1066,
      "ĠAn": 1067,
      "Ġschool": 1068,
      "Ġgrou": 1069,
      "Ġche": 1070,
      "Ġusing": 1071,
      "Ġdi": 1072,
      "||": 1073,
      "ĠFor": 1074,
      "Ġhist": 1075,
      "Ġtest": 1076,
      "Ġexpl": 1077,
      "Ġpop": 1078,
      "Ġcomple": 1079,
      "stand": 1080,
      "..": 1081,
      "ivid": 1082,
      "Ġsmall": 1083,
      "Ġbefore": 1084,
      "iel": 1085,
      "Ġval": 1086,
      "Ġshow": 1087,
      "read": 1088,
      "ential": 1089,
      "Ġmain": 1090,
      "ĠHow": 1091,
      "Ġcor": 1092,
      "Ġtreat": 1093,
      "Ġbo": 1094,
      "inal": 1095,
      "17": 1096,
      "ince": 1097,
      "ĠAr": 1098,
      "Ġagain": 1099,
      "Ġgl": 1100,
      "iversity": 1101,
      "ined": 1102,
      "ergy": 1103,
      "ock": 1104,
      "Ġoften": 1105,
      "ars": 1106,
      "Ġprot": 1107,
      "ty": 1108,
      "imate": 1109,
      "Ġless": 1110,
      "rol": 1111,
      "Ġwhile": 1112,
      "Ġbr": 1113,
      "Ġstate": 1114,
      "ix": 1115,
      "Ġsol": 1116,
      "ien": 1117,
      "Ġposs": 1118,
      "Ġtake": 1119,
      "ĠSp": 1120,
      "omen": 1121,
      "der": 1122,
      "Ġday": 1123,
      "nce": 1124,
      "ex": 1125,
      "ax": 1126,
      "vironment": 1127,
      "Ġnow": 1128,
      "ĠInd": 1129,
      "dition": 1130,
      "Ġdise": 1131,
      "ute": 1132,
      "Ġocc": 1133,
      "16": 1134,
      "Ġpower": 1135,
      "ished": 1136,
      "Ġris": 1137,
      "akes": 1138,
      "Ġlit": 1139,
      "oh": 1140,
      "Ġnumber": 1141,
      "Ġserv": 1142,
      "ĠNew": 1143,
      "Ġec": 1144,
      "Ġorgan": 1145,
      "Ġprovid": 1146,
      "iqu": 1147,
      "ral": 1148,
      "Ġmem": 1149,
      "Ġvis": 1150,
      "Ġredu": 1151,
      "ier": 1152,
      "Ġactiv": 1153,
      "Ġfun": 1154,
      "Ġdesign": 1155,
      "iety": 1156,
      "irect": 1157,
      "ulation": 1158,
      "ĠSc": 1159,
      "Ġhim": 1160,
      "Ġbody": 1161,
      "Ġchar": 1162,
      "ury": 1163,
      "ves": 1164,
      "iving": 1165,
      "ered": 1166,
      "air": 1167,
      "Ġhand": 1168,
      "Ġresearch": 1169,
      "Ġclass": 1170,
      "up": 1171,
      "Ġsupport": 1172,
      "Ġaround": 1173,
      "ital": 1174,
      "Ġthree": 1175,
      "Ġbel": 1176,
      "Ġcell": 1177,
      "Ġhuman": 1178,
      "Ġcommon": 1179,
      "Ġdown": 1180,
      "Ġgovern": 1181,
      "ters": 1182,
      "uss": 1183,
      "Ġconf": 1184,
      "Ġmust": 1185,
      "ven": 1186,
      "Ġelect": 1187,
      "-b": 1188,
      "hers": 1189,
      "ave": 1190,
      "Ġstart": 1191,
      "ĠRe": 1192,
      "Ġest": 1193,
      "Ġlook": 1194,
      ").Ċ": 1195,
      "âĢĶ": 1196,
      "13": 1197,
      "aj": 1198,
      "This": 1199,
      "ving": 1200,
      "ger": 1201,
      "rent": 1202,
      "ium": 1203,
      "Ġpoint": 1204,
      "ains": 1205,
      "Ġland": 1206,
      "Ġgreat": 1207,
      "day": 1208,
      "ah": 1209,
      "Ġcle": 1210,
      "cl": 1211,
      "ouse": 1212,
      "Ġser": 1213,
      "Ġlarge": 1214,
      "Ġplan": 1215,
      "Ġdid": 1216,
      "Ġexample": 1217,
      "Ġreport": 1218,
      "ross": 1219,
      "itions": 1220,
      "ĠBut": 1221,
      "Ġallow": 1222,
      "-s": 1223,
      "self": 1224,
      "Ġcare": 1225,
      "14": 1226,
      "Ġincluding": 1227,
      "acter": 1228,
      "orn": 1229,
      "ional": 1230,
      "Ġcontin": 1231,
      "rain": 1232,
      "ull": 1233,
      "anc": 1234,
      "Ġbuild": 1235,
      "Ġequ": 1236,
      "Ġop": 1237,
      "30": 1238,
      "Ġadv": 1239,
      "ron": 1240,
      "Ġret": 1241,
      "ared": 1242,
      "com": 1243,
      "ĠYou": 1244,
      "Ġunderstand": 1245,
      "Ġconst": 1246,
      "way": 1247,
      ",âĢĿ": 1248,
      "ash": 1249,
      "Ġmet": 1250,
      "ee": 1251,
      "ividual": 1252,
      "ĠThere": 1253,
      "Ġthough": 1254,
      "ially": 1255,
      "gen": 1256,
      "Ġcour": 1257,
      "Ġpract": 1258,
      "inc": 1259,
      "Ġeduc": 1260,
      "ner": 1261,
      "Ġpublic": 1262,
      "esp": 1263,
      "Ġwrit": 1264,
      "Ġknown": 1265,
      "iven": 1266,
      "ired": 1267,
      "outh": 1268,
      "Ġsom": 1269,
      "Ġstill": 1270,
      "ries": 1271,
      "aterial": 1272,
      "Ġeas": 1273,
      "Ġbeh": 1274,
      "ĠIs": 1275,
      "els": 1276,
      "ĠAnd": 1277,
      "oms": 1278,
      "ids": 1279,
      "Ġcalled": 1280,
      "iver": 1281,
      ".\"": 1282,
      "Ġquest": 1283,
      "âĢĵ": 1284,
      "Ġdr": 1285,
      "Ġthink": 1286,
      "ization": 1287,
      "oci": 1288,
      "Ġappro": 1289,
      "ĠâĢĺ": 1290,
      "ected": 1291,
      "itive": 1292,
      "osed": 1293,
      "iod": 1294,
      "Ġplace": 1295,
      "erest": 1296,
      "ources": 1297,
      "Ġgu": 1298,
      "Ġenvironment": 1299,
      "reen": 1300,
      "Ġmight": 1301,
      "Ġpresent": 1302,
      "Ġmat": 1303,
      "Ġide": 1304,
      "Ġfew": 1305,
      "Ġenergy": 1306,
      "ĠWh": 1307,
      "ĠThese": 1308,
      "lish": 1309,
      "ering": 1310,
      "ination": 1311,
      "bers": 1312,
      "Ġindividual": 1313,
      "ank": 1314,
      "ration": 1315,
      "Ġtem": 1316,
      "Ġchang": 1317,
      "Ġstand": 1318,
      "angu": 1319,
      "Ġwithin": 1320,
      "Ġcaus": 1321,
      "50": 1322,
      "raph": 1323,
      "eng": 1324,
      "Ġproduct": 1325,
      "Ġchange": 1326,
      "de": 1327,
      "Ġdem": 1328,
      "ffic": 1329,
      "tt": 1330,
      "oun": 1331,
      "Ġwant": 1332,
      "Ġpur": 1333,
      "âĢľ": 1334,
      "ason": 1335,
      "Ġwithout": 1336,
      "Ġphys": 1337,
      "ording": 1338,
      "Ġimpro": 1339,
      "Ġiss": 1340,
      "Ġlearn": 1341,
      "Ġcap": 1342,
      "ense": 1343,
      "ption": 1344,
      "ived": 1345,
      "Ġpot": 1346,
      "ĠEng": 1347,
      "Ġair": 1348,
      "Ġdevelopment": 1349,
      "ior": 1350,
      "Ġsym": 1351,
      "ertain": 1352,
      "agn": 1353,
      "me": 1354,
      "Ġben": 1355,
      "man": 1356,
      "Ġident": 1357,
      "less": 1358,
      "Ġlight": 1359,
      "Ġplay": 1360,
      "ethod": 1361,
      "Ġmaterial": 1362,
      "Ġprof": 1363,
      "ĠDe": 1364,
      "Ġimm": 1365,
      "Ġproject": 1366,
      "Ġsl": 1367,
      "alk": 1368,
      "arent": 1369,
      "ets": 1370,
      "Ġbre": 1371,
      "eral": 1372,
      "Ġve": 1373,
      "Ġeng": 1374,
      "Ġmeas": 1375,
      "Ġsocial": 1376,
      "Ġpos": 1377,
      "ians": 1378,
      "line": 1379,
      "ental": 1380,
      "Ġarea": 1381,
      "Ġdirect": 1382,
      "Ġdon": 1383,
      "ĠAmerican": 1384,
      "ĠUniversity": 1385,
      "ton": 1386,
      "Ġsit": 1387,
      "ability": 1388,
      "Ġ&": 1389,
      "iness": 1390,
      "Ġlaw": 1391,
      "Ġdisease": 1392,
      "-c": 1393,
      "ield": 1394,
      "bs": 1395,
      "illion": 1396,
      "Ġmus": 1397,
      "Ġinclude": 1398,
      "Ġanother": 1399,
      "Ġpass": 1400,
      "orth": 1401,
      "Ġbest": 1402,
      "ajor": 1403,
      "ified": 1404,
      "erc": 1405,
      "ris": 1406,
      "Ġhome": 1407,
      "ological": 1408,
      "Ġanal": 1409,
      "ained": 1410,
      "ify": 1411,
      "ĠCon": 1412,
      "Ġcult": 1413,
      "Ġpain": 1414,
      "ug": 1415,
      "It": 1416,
      "Ġet": 1417,
      "Ġinterest": 1418,
      "Ġbelie": 1419,
      "rodu": 1420,
      "Ġrisk": 1421,
      "Ġwomen": 1422,
      "Ġopp": 1423,
      "ccess": 1424,
      "Ġrest": 1425,
      "Ġprogram": 1426,
      "Ġant": 1427,
      "Ġblood": 1428,
      "Ġgovernment": 1429,
      "Ġproper": 1430,
      "ĠAd": 1431,
      "ently": 1432,
      "atural": 1433,
      "Ġcontrol": 1434,
      "Ġbas": 1435,
      "Ġsever": 1436,
      "'t": 1437,
      "ĠHowever": 1438,
      "Ġbecome": 1439,
      "Ġmark": 1440,
      "ern": 1441,
      "-f": 1442,
      "ats": 1443,
      "az": 1444,
      "Ġlow": 1445,
      "Ġleg": 1446,
      "ik": 1447,
      "Ġearly": 1448,
      "Ġdesc": 1449,
      "Ġwar": 1450,
      "ision": 1451,
      "Ġbetter": 1452,
      "atic": 1453,
      "ining": 1454,
      "ways": 1455,
      "Ġfore": 1456,
      "Ġagainst": 1457,
      "ource": 1458,
      "to": 1459,
      "Ġold": 1460,
      "ills": 1461,
      "ider": 1462,
      "ĠPh": 1463,
      "Ġtre": 1464,
      "Ġprovide": 1465,
      "here": 1466,
      "hor": 1467,
      "Ġmove": 1468,
      "Ġmethod": 1469,
      "Ġpar": 1470,
      "Ġeconom": 1471,
      "Ġanim": 1472,
      "Ġkeep": 1473,
      "Ġhere": 1474,
      "gin": 1475,
      "eed": 1476,
      "ĠSh": 1477,
      "Ġreal": 1478,
      "ients": 1479,
      "Ġmil": 1480,
      "Ġoper": 1481,
      "Ġlast": 1482,
      "Ġperform": 1483,
      "arc": 1484,
      "lu": 1485,
      "Ġgroup": 1486,
      "Ġcause": 1487,
      "lished": 1488,
      "Ġoccur": 1489,
      "Ġhistory": 1490,
      "Ġlangu": 1491,
      "Ġtoo": 1492,
      "Ġsecond": 1493,
      "icle": 1494,
      "ories": 1495,
      "Ġavail": 1496,
      "Ġmeans": 1497,
      "ead": 1498,
      "str": 1499,
      "ware": 1500,
      "ission": 1501,
      "Ġmajor": 1502,
      "ention": 1503,
      "Ġorder": 1504,
      "Ġspecies": 1505,
      "Ġindu": 1506,
      "Ġter": 1507,
      "rap": 1508,
      "view": 1509,
      "ards": 1510,
      "Ġparticular": 1511,
      "Ġele": 1512,
      "Ġlearning": 1513,
      "Ġsaf": 1514,
      "rist": 1515,
      "Ġpossible": 1516,
      "ples": 1517,
      "Ġseveral": 1518,
      "Ġaddition": 1519,
      "Ġinvol": 1520,
      "Ġcurrent": 1521,
      "Ġfamily": 1522,
      "amp": 1523,
      "ĠRes": 1524,
      "oid": 1525,
      "Ġfin": 1526,
      "|Ċ": 1527,
      "Ġbenef": 1528,
      "ĠUnited": 1529,
      "Ġtop": 1530,
      "Ġnear": 1531,
      "ĠCl": 1532,
      "pect": 1533,
      "ĠEx": 1534,
      "Ġdev": 1535,
      "Ġsignific": 1536,
      "use": 1537,
      "par": 1538,
      "ĠWhen": 1539,
      "ograph": 1540,
      "Ġsay": 1541,
      "ote": 1542,
      "Ġorig": 1543,
      "Ġperiod": 1544,
      "Ġhig": 1545,
      "Ġcal": 1546,
      "irc": 1547,
      "Ġunt": 1548,
      "Ġable": 1549,
      "Ġprom": 1550,
      "Ġmean": 1551,
      "Ġ[": 1552,
      "Ġaffect": 1553,
      ".âĢĿĊ": 1554,
      "Ġpercent": 1555,
      "Ġplant": 1556,
      "Ġlim": 1557,
      "Ġcost": 1558,
      "ogn": 1559,
      "ina": 1560,
      "Ġfeel": 1561,
      "ret": 1562,
      ".S": 1563,
      "idence": 1564,
      "ĠCol": 1565,
      "Ġopen": 1566,
      "Ġareas": 1567,
      "Ġbus": 1568,
      "Ġsince": 1569,
      "Ġmen": 1570,
      "osp": 1571,
      "Ġnon": 1572,
      "Ġmar": 1573,
      "ĠCan": 1574,
      "Ġel": 1575,
      "urop": 1576,
      "ĠPl": 1577,
      "ĠâĢĶ": 1578,
      "Ġothers": 1579,
      "-p": 1580,
      "ĠTo": 1581,
      "ling": 1582,
      "Ġtreatment": 1583,
      "Ġhapp": 1584,
      "ator": 1585,
      "ended": 1586,
      "ĠZ": 1587,
      "Ġthings": 1588,
      "Ġamong": 1589,
      "ĠSe": 1590,
      "ilar": 1591,
      "of": 1592,
      "Ġcountry": 1593,
      "Ġbased": 1594,
      "omp": 1595,
      "Ġprevent": 1596,
      "Ġfour": 1597,
      "Ġscient": 1598,
      "though": 1599,
      "port": 1600,
      "ole": 1601,
      "What": 1602,
      "Ġavailable": 1603,
      "cing": 1604,
      "ocus": 1605,
      "ĠQ": 1606,
      "ploy": 1607,
      "Ġsays": 1608,
      "ns": 1609,
      "ots": 1610,
      "Ġfollowing": 1611,
      "ances": 1612,
      "ends": 1613,
      "elf": 1614,
      "Ġcond": 1615,
      "Ġhead": 1616,
      "urther": 1617,
      "Ġfac": 1618,
      "Ġfre": 1619,
      ",\"": 1620,
      "Ġaccess": 1621,
      "ably": 1622,
      "Ġtimes": 1623,
      "ĠStates": 1624,
      "ww": 1625,
      "ane": 1626,
      "ĠGod": 1627,
      "25": 1628,
      "oint": 1629,
      "ĠComm": 1630,
      "Ġdel": 1631,
      "ames": 1632,
      "Ġname": 1633,
      "Ġlo": 1634,
      "Ġcase": 1635,
      "Ġobject": 1636,
      "abor": 1637,
      "Ġcome": 1638,
      "Ġcertain": 1639,
      "Ġconn": 1640,
      "Ġwee": 1641,
      "une": 1642,
      "-d": 1643,
      "Ġproblem": 1644,
      "ĠAt": 1645,
      "Ġage": 1646,
      "Ġpost": 1647,
      "Ġlocal": 1648,
      "Ġlist": 1649,
      "Ġfree": 1650,
      "ression": 1651,
      "Ġtype": 1652,
      "Ġnatural": 1653,
      "Ġstruct": 1654,
      "ised": 1655,
      "Ġsuccess": 1656,
      "ring": 1657,
      "Ġgr": 1658,
      "Ġmonth": 1659,
      "urope": 1660,
      "We": 1661,
      "Ġview": 1662,
      "Ġimpact": 1663,
      "40": 1664,
      "aper": 1665,
      "Ġrece": 1666,
      "Ġpress": 1667,
      "Ġrun": 1668,
      "Ġintern": 1669,
      "Ġsignificant": 1670,
      "Ġcreat": 1671,
      "Ġproblems": 1672,
      "icult": 1673,
      "Ġbi": 1674,
      "olution": 1675,
      "If": 1676,
      "ones": 1677,
      "Ġmult": 1678,
      "Ġbir": 1679,
      "Ġput": 1680,
      "Ġess": 1681,
      "Ġassoci": 1682,
      "Ġamount": 1683,
      "hy": 1684,
      "Ġlevels": 1685,
      "ope": 1686,
      "ggest": 1687,
      "Ġbro": 1688,
      "Ġflow": 1689,
      "As": 1690,
      "Ġmaking": 1691,
      "Ġlittle": 1692,
      "Ġvol": 1693,
      "por": 1694,
      "Ġdue": 1695,
      "Ġhard": 1696,
      "br": 1697,
      "ĠCent": 1698,
      "Ġlet": 1699,
      "ledge": 1700,
      "resent": 1701,
      "ortun": 1702,
      "ĠNational": 1703,
      "uture": 1704,
      "ately": 1705,
      "Ġsw": 1706,
      "Ġfocus": 1707,
      "work": 1708,
      "Ġfar": 1709,
      "Ġlater": 1710,
      "agement": 1711,
      "oks": 1712,
      "Ġobs": 1713,
      "Ġpotential": 1714,
      "ething": 1715,
      "atory": 1716,
      "ĠTe": 1717,
      "Ġinvest": 1718,
      "Ġyoung": 1719,
      "ured": 1720,
      "Ġuntil": 1721,
      "Ġshort": 1722,
      "over": 1723,
      "Ġbook": 1724,
      "stit": 1725,
      "ĠEn": 1726,
      "ication": 1727,
      "21": 1728,
      "Ġsuggest": 1729,
      "ĠEurope": 1730,
      "ides": 1731,
      "Ġdeterm": 1732,
      "ged": 1733,
      "ĠBe": 1734,
      "Ġpolit": 1735,
      "Ġsystems": 1736,
      "Ġgiven": 1737,
      "Ġlanguage": 1738,
      "Ġturn": 1739,
      "hem": 1740,
      "ither": 1741,
      "Ġbehav": 1742,
      "not": 1743,
      "ĠFr": 1744,
      "Ġcho": 1745,
      "-m": 1746,
      "__": 1747,
      "Ġcells": 1748,
      "Ġrad": 1749,
      "Ġdays": 1750,
      "sy": 1751,
      "Ġfunction": 1752,
      "Ġlikely": 1753,
      "aps": 1754,
      "Ġvir": 1755,
      "Ġincrease": 1756,
      "aken": 1757,
      "Ġcirc": 1758,
      "aster": 1759,
      "ĠAf": 1760,
      "Ġseem": 1761,
      "Ġcomput": 1762,
      "Ġcommunity": 1763,
      "Ġalong": 1764,
      "Ġhy": 1765,
      "ĠChrist": 1766,
      "Ġresults": 1767,
      "face": 1768,
      "Ġcomb": 1769,
      "Ġteac": 1770,
      "Ġtechnology": 1771,
      "ĠOr": 1772,
      "ried": 1773,
      "Ġeducation": 1774,
      "Ġusually": 1775,
      "ending": 1776,
      "Ġsomething": 1777,
      "Ġalways": 1778,
      "cle": 1779,
      "Ġappear": 1780,
      "Ġdeath": 1781,
      "Ġsing": 1782,
      "orld": 1783,
      "Ġtemper": 1784,
      "Ġ$": 1785,
      "ĠUS": 1786,
      "Ġexperience": 1787,
      "Ġeffective": 1788,
      "vious": 1789,
      "Ġdifficult": 1790,
      "ĠAll": 1791,
      "Ġheart": 1792,
      "Ġspecific": 1793,
      "Ġcreate": 1794,
      "ĠOn": 1795,
      "ators": 1796,
      "Ġcourse": 1797,
      "Ġrele": 1798,
      "Ġdra": 1799,
      "Ġ.": 1800,
      "Ġpast": 1801,
      "Ġconsum": 1802,
      "ecially": 1803,
      "ĠWhat": 1804,
      "ape": 1805,
      "ember": 1806,
      "etic": 1807,
      "Ġconditions": 1808,
      "Ġneeds": 1809,
      "Ġauthor": 1810,
      "ptoms": 1811,
      "ned": 1812,
      "Ġclear": 1813,
      "Ġsimilar": 1814,
      "af": 1815,
      "Ġparent": 1816,
      "Ġfil": 1817,
      "Ġexist": 1818,
      "isc": 1819,
      "asing": 1820,
      "Ġspace": 1821,
      "Ġvarious": 1822,
      "Ġenc": 1823,
      "aining": 1824,
      "ilities": 1825,
      "Ġcancer": 1826,
      "Ġfuture": 1827,
      "ox": 1828,
      "Ġtoday": 1829,
      "Ġwords": 1830,
      "rug": 1831,
      "yl": 1832,
      "Ġgive": 1833,
      "Ġbrain": 1834,
      "There": 1835,
      "Ġspecial": 1836,
      "Ġcentury": 1837,
      "ored": 1838,
      "app": 1839,
      "ruction": 1840,
      "Ġill": 1841,
      "Ġpopulation": 1842,
      "iation": 1843,
      "Ġprofess": 1844,
      "Ġey": 1845,
      "Ġcharacter": 1846,
      "Ġdiscuss": 1847,
      "Ġrecord": 1848,
      "Ġdescrib": 1849,
      "Ġnecess": 1850,
      "Ġcr": 1851,
      "Ġdam": 1852,
      "ribut": 1853,
      "especially": 1854,
      "pr": 1855,
      "Ġwhy": 1856,
      "ique": 1857,
      "Ġcrit": 1858,
      "mit": 1859,
      "ours": 1860,
      "idd": 1861,
      "Ġmillion": 1862,
      "obal": 1863,
      "Ġhigher": 1864,
      "Ġcountries": 1865,
      "Ġhowever": 1866,
      "Ġside": 1867,
      "Ġtoget": 1868,
      "Ġtogether": 1869,
      "Ġ'": 1870,
      "How": 1871,
      "ĠJoh": 1872,
      "Ġapplic": 1873,
      "Ġrespons": 1874,
      "Ġchanges": 1875,
      "ĠSo": 1876,
      "Ġimprove": 1877,
      "Ġnext": 1878,
      "ateg": 1879,
      "Ġrequire": 1880,
      "Ġabove": 1881,
      "ĠMed": 1882,
      "Ġacross": 1883,
      "oney": 1884,
      "60": 1885,
      "ĠBl": 1886,
      "be": 1887,
      "Ġestab": 1888,
      "ler": 1889,
      "Ġgre": 1890,
      "Ġplants": 1891,
      "Ġworking": 1892,
      "Ġstrong": 1893,
      "Ġleast": 1894,
      "aves": 1895,
      "Ġsens": 1896,
      "min": 1897,
      "orts": 1898,
      "Ġtry": 1899,
      "atch": 1900,
      "Ġbegin": 1901,
      "Ġprop": 1902,
      "Ġworks": 1903,
      "Ġer": 1904,
      "ĠGerm": 1905,
      "Ġline": 1906,
      "ode": 1907,
      "most": 1908,
      "-t": 1909,
      "Ġmov": 1910,
      "Ġbusiness": 1911,
      "St": 1912,
      "Ġtool": 1913,
      "Ġleft": 1914,
      "selves": 1915,
      "Ġask": 1916,
      "22": 1917,
      "Ġmot": 1918,
      "Ġcomplete": 1919,
      "Ġnever": 1920,
      "ray": 1921,
      "Ġways": 1922,
      "omes": 1923,
      "ym": 1924,
      "ysis": 1925,
      "Ġeffects": 1926,
      "ĠEar": 1927,
      "Ġkind": 1928,
      "ires": 1929,
      "ĠAfric": 1930,
      "aces": 1931,
      "Ġaway": 1932,
      "âĢĻre": 1933,
      "acy": 1934,
      "ĠBrit": 1935,
      "nal": 1936,
      "oot": 1937,
      "-l": 1938,
      "Ġpatients": 1939,
      ",Ċ": 1940,
      "aring": 1941,
      "80": 1942,
      "ilt": 1943,
      "Ġgeneral": 1944,
      "Ġespecially": 1945,
      "Ġteam": 1946,
      "duct": 1947,
      "Ġconsider": 1948,
      "ĠWar": 1949,
      "Ġenough": 1950,
      "!Ċ": 1951,
      "Ġtru": 1952,
      "Ġresearc": 1953,
      "Ġchem": 1954,
      "let": 1955,
      "Ġnet": 1956,
      "Ġhaving": 1957,
      "Ġcases": 1958,
      "ales": 1959,
      "chie": 1960,
      "Ġknowledge": 1961,
      "Ġinflu": 1962,
      "Ġcolle": 1963,
      "Ġrelations": 1964,
      "Ġkey": 1965,
      "Ġens": 1966,
      "Ġfull": 1967,
      "aching": 1968,
      "Ġprim": 1969,
      "Ġstep": 1970,
      "Ġtypes": 1971,
      "lement": 1972,
      "24": 1973,
      "Ġterm": 1974,
      "ges": 1975,
      "istic": 1976,
      "Ġsubject": 1977,
      "thing": 1978,
      "Ġstudies": 1979,
      "Ġrole": 1980,
      "oman": 1981,
      "apt": 1982,
      "Ġpolic": 1983,
      "Ġsymptoms": 1984,
      "amm": 1985,
      "Ġphysical": 1986,
      "ipp": 1987,
      "//": 1988,
      "Ġopt": 1989,
      "Ġgoing": 1990,
      "itor": 1991,
      "Ġprotect": 1992,
      "aim": 1993,
      "Ġz": 1994,
      "iting": 1995,
      "Ġmind": 1996,
      "Ġhouse": 1997,
      "Ġbecame": 1998,
      "Ġself": 1999,
      "ley": 2000,
      "alf": 2001,
      "Ġwhether": 2002,
      "ument": 2003,
      "Ġaccount": 2004,
      "ĠSome": 2005,
      "ency": 2006,
      "Ġconcer": 2007,
      "Ġpred": 2008,
      "Ġfurther": 2009,
      "Ġground": 2010,
      "ann": 2011,
      "eter": 2012,
      "Ġrepresent": 2013,
      "sc": 2014,
      "ued": 2015,
      "Ġsum": 2016,
      "for": 2017,
      "acc": 2018,
      "For": 2019,
      "ush": 2020,
      "Ġproduction": 2021,
      "Ġnorm": 2022,
      "Ġlower": 2023,
      "ification": 2024,
      "atures": 2025,
      "Ġreason": 2026,
      "Ġcity": 2027,
      "Ġfund": 2028,
      "ĠWith": 2029,
      "ables": 2030,
      "Ġmakes": 2031,
      "ĠEnglish": 2032,
      "Ġquestion": 2033,
      "ready": 2034,
      "Ġrange": 2035,
      "Ġmic": 2036,
      "Ġlive": 2037,
      "Ġvalue": 2038,
      "Ġchall": 2039,
      "ae": 2040,
      "Ġemploy": 2041,
      "sw": 2042,
      "iol": 2043,
      "Ġdig": 2044,
      "Ġnut": 2045,
      "ĠWorld": 2046,
      "Ġmodel": 2047,
      "Ġtext": 2048,
      "aut": 2049,
      "://": 2050,
      "ibility": 2051,
      "ott": 2052,
      "side": 2053,
      "Ġeff": 2054,
      "Ġcy": 2055,
      "Ġsure": 2056,
      "ĠOne": 2057,
      "Ġscience": 2058,
      "Ġquality": 2059,
      "Ġloss": 2060,
      "Ġbig": 2061,
      "Ġresources": 2062,
      "Ġtoward": 2063,
      "Ġoffic": 2064,
      "Ġseen": 2065,
      "edi": 2066,
      "verage": 2067,
      "ĠGen": 2068,
      ".\"Ċ": 2069,
      "Ġwind": 2070,
      "Ġgrowth": 2071,
      "Ġgroups": 2072,
      "90": 2073,
      "Ġlot": 2074,
      "Ġparticip": 2075,
      "ung": 2076,
      "NA": 2077,
      "ĠLe": 2078,
      "cul": 2079,
      "ites": 2080,
      "Ġactivities": 2081,
      "Ġbat": 2082,
      "Ġactivity": 2083,
      "Ġindic": 2084,
      "bon": 2085,
      "ĠThat": 2086,
      "ream": 2087,
      "ird": 2088,
      "23": 2089,
      "rel": 2090,
      "Ġreally": 2091,
      "Ġachie": 2092,
      "urch": 2093,
      "mber": 2094,
      "leep": 2095,
      "by": 2096,
      "Ġalready": 2097,
      "oura": 2098,
      "augh": 2099,
      "iple": 2100,
      "An": 2101,
      "ĠHealth": 2102,
      "Ġstory": 2103,
      "Ġdone": 2104,
      "sych": 2105,
      "esc": 2106,
      "uation": 2107,
      "ils": 2108,
      "Ġproducts": 2109,
      "ĠGo": 2110,
      "Ġneg": 2111,
      "Ġclose": 2112,
      "ands": 2113,
      "Ġtradition": 2114,
      "Ġdeveloped": 2115,
      "Ġskills": 2116,
      "Ġfield": 2117,
      "Ġdiet": 2118,
      "Ġreduce": 2119,
      "Ġfall": 2120,
      "earch": 2121,
      "Ġrather": 2122,
      "Ġwr": 2123,
      "etimes": 2124,
      "overed": 2125,
      "Ġarticle": 2126,
      "ĠGe": 2127,
      "Ġsite": 2128,
      "Ġpaper": 2129,
      "Ġrecogn": 2130,
      "Ġbelow": 2131,
      "Ġbuilding": 2132,
      "Ġnational": 2133,
      "iam": 2134,
      "Ġmass": 2135,
      "unt": 2136,
      "Ġaccording": 2137,
      "Ġsurface": 2138,
      "Ġclimate": 2139,
      "Ġinit": 2140,
      "erence": 2141,
      "put": 2142,
      "Ġindust": 2143,
      "Ġword": 2144,
      "ĠCar": 2145,
      "Ġstat": 2146,
      "Ġur": 2147,
      "Ġphot": 2148,
      "ĠAm": 2149,
      "Ġdeg": 2150,
      "ĠBy": 2151,
      "urity": 2152,
      "Ġeither": 2153,
      "Ġsingle": 2154,
      "Ġconcept": 2155,
      "fact": 2156,
      "fer": 2157,
      "ival": 2158,
      "ison": 2159,
      "rams": 2160,
      "Ġprob": 2161,
      "Ġcollect": 2162,
      "70": 2163,
      "Ġdrug": 2164,
      "idered": 2165,
      "Ġabs": 2166,
      "When": 2167,
      "lo": 2168,
      "ĠIntern": 2169,
      "Ġissues": 2170,
      "Ġmembers": 2171,
      "ĠCal": 2172,
      "ivity": 2173,
      "Ġtot": 2174,
      "ĠMar": 2175,
      "rict": 2176,
      "osis": 2177,
      "amin": 2178,
      "Ġevent": 2179,
      "ER": 2180,
      "ery": 2181,
      "Ġann": 2182,
      "Ġobserv": 2183,
      "ask": 2184,
      "ĠIm": 2185,
      "ĠShe": 2186,
      "Ġmeet": 2187,
      "Ġsource": 2188,
      "Ġflu": 2189,
      "ivil": 2190,
      "ights": 2191,
      "Ġaddress": 2192,
      "Ġfive": 2193,
      "Ġonce": 2194,
      "ĠTr": 2195,
      "Ġfr": 2196,
      "fficient": 2197,
      "ule": 2198,
      "Ġrate": 2199,
      "Ġsize": 2200,
      "Ġcut": 2201,
      "Ġtaken": 2202,
      "yn": 2203,
      "val": 2204,
      "Ġdom": 2205,
      "ĠMay": 2206,
      "Ġred": 2207,
      "Ġrecomm": 2208,
      "roll": 2209,
      "Ġ=": 2210,
      "ublic": 2211,
      "Ġevidence": 2212,
      "Ġassociated": 2213,
      "ĠSouth": 2214,
      "ips": 2215,
      "Ġmedical": 2216,
      "ĠAmerica": 2217,
      "Ġsound": 2218,
      "Ġwide": 2219,
      "ĠDr": 2220,
      "Ġconsidered": 2221,
      "Ġreturn": 2222,
      "Ġwhole": 2223,
      "Ġupon": 2224,
      "Ġquestions": 2225,
      "illed": 2226,
      "Ġfrequ": 2227,
      "rect": 2228,
      "ĠNorth": 2229,
      "Ġdetail": 2230,
      "Ġrelig": 2231,
      "Ġpressure": 2232,
      "Ġstates": 2233,
      "reg": 2234,
      "Ġcreated": 2235,
      "Ġfail": 2236,
      "Ġresearchers": 2237,
      "reme": 2238,
      "Ġnature": 2239,
      "Ġintrodu": 2240,
      "Ġlay": 2241,
      "Ġsent": 2242,
      "Ġhistor": 2243,
      "Ġthemselves": 2244,
      "epend": 2245,
      "Ġskin": 2246,
      "Ġopportun": 2247,
      "Ġliving": 2248,
      "Ġincreased": 2249,
      "sequ": 2250,
      "Ġtell": 2251,
      "Ġver": 2252,
      "Ġunderstanding": 2253,
      "ober": 2254,
      "Ġdest": 2255,
      "Ġpolitical": 2256,
      "Ġcame": 2257,
      "Ġdoct": 2258,
      "ety": 2259,
      "Ġrepl": 2260,
      "ensive": 2261,
      "ĠPr": 2262,
      "Ġfri": 2263,
      "Ġmaint": 2264,
      "Ġpay": 2265,
      "Ġsal": 2266,
      "org": 2267,
      "Ġcannot": 2268,
      "Ġwhite": 2269,
      "Ġhold": 2270,
      "Ġrequired": 2271,
      "Ġpractice": 2272,
      "utions": 2273,
      "08": 2274,
      "Ġquick": 2275,
      "ournal": 2276,
      "09": 2277,
      "Ġrelated": 2278,
      "Ġmarket": 2279,
      "ĠAb": 2280,
      ".com": 2281,
      "ĠJohn": 2282,
      "Ġability": 2283,
      "Ġcondition": 2284,
      "aced": 2285,
      "Ġactually": 2286,
      "Ġsimple": 2287,
      "ĠStud": 2288,
      "ibr": 2289,
      "Ġentire": 2290,
      "Ch": 2291,
      "Ġpurp": 2292,
      "Ġrelationship": 2293,
      "Ġanimals": 2294,
      "ening": 2295,
      "ĠAss": 2296,
      "eb": 2297,
      "ystem": 2298,
      "aging": 2299,
      "Ġweek": 2300,
      "Ġcomplex": 2301,
      "Ġengine": 2302,
      "Ġfamil": 2303,
      "ump": 2304,
      "Ġhealthy": 2305,
      "Ġmaterials": 2306,
      "Ġneeded": 2307,
      "ĠYork": 2308,
      "ĠMan": 2309,
      "oph": 2310,
      "âĢ¦": 2311,
      "Ġmodern": 2312,
      "ai": 2313,
      "Ġthought": 2314,
      "ging": 2315,
      "Ġhtt": 2316,
      "acks": 2317,
      "ications": 2318,
      "Ġstudent": 2319,
      "Ġessential": 2320,
      "ĠRep": 2321,
      "Ġstress": 2322,
      "Ġexperien": 2323,
      "Ġmanagement": 2324,
      "Ġdog": 2325,
      "Ġexerc": 2326,
      "Ġprovides": 2327,
      "oon": 2328,
      "ney": 2329,
      "Ġavoid": 2330,
      "itud": 2331,
      "ĠSoc": 2332,
      "go": 2333,
      "Ġglobal": 2334,
      "Ġmoney": 2335,
      "Ġadult": 2336,
      "Ġfactors": 2337,
      "ores": 2338,
      "vere": 2339,
      "Ġcomes": 2340,
      "To": 2341,
      "Ġblack": 2342,
      "aged": 2343,
      "01": 2344,
      "Ġeconomic": 2345,
      "Ġfish": 2346,
      "Ġoil": 2347,
      "Ġarg": 2348,
      "Ġidea": 2349,
      "07": 2350,
      "Al": 2351,
      "Ġport": 2352,
      "Ġitself": 2353,
      "Ġrights": 2354,
      "eds": 2355,
      "hib": 2356,
      "Ġassess": 2357,
      "Ġspe": 2358,
      "urs": 2359,
      "ĠAust": 2360,
      "Ġalmost": 2361,
      "Ġparts": 2362,
      "Ġservices": 2363,
      "itary": 2364,
      "Ġdoc": 2365,
      "Ġnecessary": 2366,
      "izing": 2367,
      "olic": 2368,
      "artment": 2369,
      "Ġapproach": 2370,
      "lying": 2371,
      "chan": 2372,
      "oses": 2373,
      "Ġpublished": 2374,
      "Ġansw": 2375,
      "hing": 2376,
      "erve": 2377,
      "Ġmeasure": 2378,
      "sp": 2379,
      "Ġcoll": 2380,
      "Ġreact": 2381,
      "AS": 2382,
      "Ġsoil": 2383,
      "Ġweight": 2384,
      "Ġcat": 2385,
      "Ġfat": 2386,
      "Ġconduct": 2387,
      "ĠX": 2388,
      "ĠAct": 2389,
      "usion": 2390,
      "Ġanalysis": 2391,
      "Ġvers": 2392,
      "rad": 2393,
      "Ġprote": 2394,
      "Ġindividuals": 2395,
      "ened": 2396,
      "Ġpriv": 2397,
      "Ġbar": 2398,
      "ences": 2399,
      "gest": 2400,
      "Ġparents": 2401,
      "Ġlab": 2402,
      "Ġpersonal": 2403,
      "ĠDep": 2404,
      "Ġsun": 2405,
      "Ġemer": 2406,
      "ĠComp": 2407,
      "Ġmonths": 2408,
      "uel": 2409,
      "Ġsuff": 2410,
      "Ġtook": 2411,
      "cient": 2412,
      "Ġmor": 2413,
      "Ġproduce": 2414,
      "Ġarch": 2415,
      "Ġcolor": 2416,
      "Ġsam": 2417,
      "Wh": 2418,
      "ma": 2419,
      "Ġever": 2420,
      "Ġpath": 2421,
      "Ġhalf": 2422,
      "ply": 2423,
      "ese": 2424,
      "Ġgreen": 2425,
      "ĠEarth": 2426,
      "itation": 2427,
      "ES": 2428,
      "irm": 2429,
      "Ġbegan": 2430,
      "Ġgas": 2431,
      "nces": 2432,
      "ĠState": 2433,
      "Ġtar": 2434,
      "Ġlink": 2435,
      "Ġpattern": 2436,
      "bo": 2437,
      "Ġpopular": 2438,
      "26": 2439,
      "Ġsleep": 2440,
      "ĠHis": 2441,
      "Ġthroughout": 2442,
      "Ġut": 2443,
      "ĠCont": 2444,
      "You": 2445,
      "Ġjob": 2446,
      "ĠHist": 2447,
      "Ġcontent": 2448,
      "Ġclaim": 2449,
      "inter": 2450,
      "Ġreading": 2451,
      "Ġfarm": 2452,
      "Ġsuper": 2453,
      "apan": 2454,
      "Ġarr": 2455,
      "ĠCanad": 2456,
      "Ġstop": 2457,
      "Ġprinc": 2458,
      "erous": 2459,
      "Ġliter": 2460,
      "ze": 2461,
      "ections": 2462,
      "iction": 2463,
      "Ġaction": 2464,
      "-based": 2465,
      "Ġyet": 2466,
      "Ġsepar": 2467,
      "Ġregard": 2468,
      "Ġinteract": 2469,
      "empt": 2470,
      "Ġcomputer": 2471,
      "my": 2472,
      "anced": 2473,
      "onse": 2474,
      "Ġsoft": 2475,
      "Ġtotal": 2476,
      "mb": 2477,
      "oll": 2478,
      "ume": 2479,
      "Ġtaking": 2480,
      "05": 2481,
      "pid": 2482,
      "ĠGu": 2483,
      "ĠJew": 2484,
      "Ġfeed": 2485,
      "Ġchemical": 2486,
      "-w": 2487,
      "utes": 2488,
      "igure": 2489,
      "Ġlonger": 2490,
      "uck": 2491,
      "estern": 2492,
      "Ġsense": 2493,
      "Ġtemperature": 2494,
      "hold": 2495,
      "ĠDo": 2496,
      "icles": 2497,
      "Ġbur": 2498,
      "Ġcop": 2499,
      "Ġcompany": 2500,
      "Ġheat": 2501,
      "ches": 2502,
      "Ġge": 2503,
      "Ġincreasing": 2504,
      "abit": 2505,
      "emic": 2506,
      "minist": 2507,
      "ccording": 2508,
      "Ġfire": 2509,
      "Ġbuilt": 2510,
      "ively": 2511,
      "Ġsurv": 2512,
      "Ġregion": 2513,
      "Ġdeb": 2514,
      "Ġrecent": 2515,
      "Ġtherap": 2516,
      "28": 2517,
      "Ġenvironmental": 2518,
      "Ġindustry": 2519,
      "iddle": 2520,
      "Ġshows": 2521,
      "Ġprevious": 2522,
      "ĠNe": 2523,
      "Ġsix": 2524,
      "Ġwriting": 2525,
      "ĠCo": 2526,
      "Ã©": 2527,
      "lor": 2528,
      "Ġbenefits": 2529,
      "reng": 2530,
      "Ġterms": 2531,
      "AT": 2532,
      "Ġonline": 2533,
      "...": 2534,
      "Ġclean": 2535,
      "Ġhours": 2536,
      "Ġrul": 2537,
      "yle": 2538,
      "iment": 2539,
      "Ġtraining": 2540,
      "rown": 2541,
      "Ġtalk": 2542,
      "lex": 2543,
      "27": 2544,
      "Ġfru": 2545,
      "06": 2546,
      "Ġcontact": 2547,
      "Ġsociety": 2548,
      "ĠWhile": 2549,
      "Ġcheck": 2550,
      "ĠAfter": 2551,
      "Ġinj": 2552,
      "Ġla": 2553,
      "Ġservice": 2554,
      "ulations": 2555,
      "Ġbehavior": 2556,
      "ĠBritish": 2557,
      "Ġmatter": 2558,
      "Ġdiagn": 2559,
      "--": 2560,
      "het": 2561,
      "Ġstructure": 2562,
      "Ġconc": 2563,
      "Ġmusic": 2564,
      "Ġprovided": 2565,
      "Ġmeaning": 2566,
      "Ġposition": 2567,
      "Ġcaused": 2568,
      "order": 2569,
      "ropri": 2570,
      "ID": 2571,
      "ising": 2572,
      "aily": 2573,
      "ript": 2574,
      "Ġtravel": 2575,
      "lt": 2576,
      "Ġce": 2577,
      "Ġschools": 2578,
      "fully": 2579,
      "Ġlives": 2580,
      "Ġeasy": 2581,
      "astic": 2582,
      "vey": 2583,
      "Ġetc": 2584,
      "ĠNo": 2585,
      "Ġvari": 2586,
      "Ġpositive": 2587,
      "ows": 2588,
      "AR": 2589,
      "inary": 2590,
      "Ġheav": 2591,
      ".g": 2592,
      "Ġwild": 2593,
      "Ġsafe": 2594,
      "Ġspread": 2595,
      "Ġsat": 2596,
      "ricult": 2597,
      "Ġcauses": 2598,
      "Ġvariety": 2599,
      "Ġmach": 2600,
      "Ġincludes": 2601,
      "istance": 2602,
      "Ġbring": 2603,
      "Ġdesigned": 2604,
      "Ġprec": 2605,
      "aff": 2606,
      "Ġshown": 2607,
      "ĠPe": 2608,
      "ederal": 2609,
      "Ġbreak": 2610,
      "02": 2611,
      "ĠResearch": 2612,
      "hood": 2613,
      "ĠJapan": 2614,
      "Ġthing": 2615,
      "Ġregular": 2616,
      "Ġhelps": 2617,
      "Ġvide": 2618,
      "Ġtrue": 2619,
      "Ġviol": 2620,
      "aving": 2621,
      "Ġaccept": 2622,
      "lands": 2623,
      "ster": 2624,
      "enn": 2625,
      "rought": 2626,
      "ĠII": 2627,
      "Ġsex": 2628,
      "imately": 2629,
      "ĠEm": 2630,
      "Ġcontain": 2631,
      "light": 2632,
      "ronic": 2633,
      "Ġdeep": 2634,
      "Ġthreat": 2635,
      "ene": 2636,
      "Ġrelative": 2637,
      "Ġaverage": 2638,
      "ĠSchool": 2639,
      "istics": 2640,
      "Ġrev": 2641,
      "Ġmethods": 2642,
      "Ġpoll": 2643,
      "gar": 2644,
      "asc": 2645,
      "rior": 2646,
      "ony": 2647,
      "ades": 2648,
      "ufact": 2649,
      "Ġidentify": 2650,
      "Ġste": 2651,
      "ched": 2652,
      "ners": 2653,
      "aries": 2654,
      "Ġoriginal": 2655,
      "Ġprograms": 2656,
      "ials": 2657,
      "atives": 2658,
      "Ġstandard": 2659,
      "Ġissue": 2660,
      "Ġgreater": 2661,
      "new": 2662,
      "03": 2663,
      "amed": 2664,
      "Ġtarget": 2665,
      "Ġfem": 2666,
      "Ġensure": 2667,
      "Ġculture": 2668,
      "Ġcompl": 2669,
      "Ġmechan": 2670,
      "Ġearth": 2671,
      "Ġlif": 2672,
      "ister": 2673,
      "04": 2674,
      "Ġreported": 2675,
      "Ġsimply": 2676,
      "Ġcarbon": 2677,
      "Ġexc": 2678,
      "Ġslow": 2679,
      "ĠSu": 2680,
      "ĠIndia": 2681,
      "Ġsometimes": 2682,
      "verse": 2683,
      "Ġbacter": 2684,
      "Ġreview": 2685,
      "Ġevents": 2686,
      "Ġeat": 2687,
      "ĠInstit": 2688,
      "oor": 2689,
      "Ġinteg": 2690,
      "-in": 2691,
      "Ġsources": 2692,
      "eration": 2693,
      "know": 2694,
      "Ġorigin": 2695,
      "Ġsubst": 2696,
      "ĠPar": 2697,
      "Ġmovement": 2698,
      "Ġdamage": 2699,
      "Ġforest": 2700,
      "Ġstreng": 2701,
      "Ġremov": 2702,
      "But": 2703,
      "Ġbal": 2704,
      "Ġcompan": 2705,
      "wh": 2706,
      "Ġrespect": 2707,
      "Ġfoods": 2708,
      "arily": 2709,
      "rench": 2710,
      "duc": 2711,
      "Ġled": 2712,
      "Ġscientists": 2713,
      "Ġdoing": 2714,
      "Ġresponse": 2715,
      "Ġemot": 2716,
      "Ġtax": 2717,
      "35": 2718,
      "Ġbelieve": 2719,
      "Ġencoura": 2720,
      "29": 2721,
      "Ġcompet": 2722,
      "Ġmicro": 2723,
      "ĠKing": 2724,
      "ban": 2725,
      "Ġinvolved": 2726,
      "Ġlove": 2727,
      "Ġuses": 2728,
      "aling": 2729,
      "rast": 2730,
      "rand": 2731,
      "Ġcamp": 2732,
      "osition": 2733,
      "Ġface": 2734,
      "Ġparticularly": 2735,
      "ender": 2736,
      "Ġwritten": 2737,
      "Ġelectric": 2738,
      "elling": 2739,
      "):": 2740,
      "Ġdemon": 2741,
      "aches": 2742,
      "ises": 2743,
      "ength": 2744,
      "ĠSec": 2745,
      "IN": 2746,
      "ĠPres": 2747,
      "ĠWill": 2748,
      "Ġlack": 2749,
      "icine": 2750,
      "room": 2751,
      "Ġoutside": 2752,
      "Ġsust": 2753,
      "Ġpsych": 2754,
      "Ġchalleng": 2755,
      "Ġnormal": 2756,
      "Ġforms": 2757,
      "Ġcompon": 2758,
      "Ġvisit": 2759,
      "Ġpoor": 2760,
      "Ġpict": 2761,
      "rim": 2762,
      "ĠCO": 2763,
      "Ġple": 2764,
      "Ġforce": 2765,
      "ĠEd": 2766,
      "ief": 2767,
      "ervation": 2768,
      "Ġteachers": 2769,
      "Ġimplement": 2770,
      "ming": 2771,
      "abet": 2772,
      "ĠApp": 2773,
      "Ġattention": 2774,
      "Ġemb": 2775,
      "45": 2776,
      "Ġshare": 2777,
      "Ġfeet": 2778,
      "Ġproduced": 2779,
      "uge": 2780,
      "Ġdeveloping": 2781,
      "Ġattempt": 2782,
      "ĠPer": 2783,
      "umb": 2784,
      "Ġappl": 2785,
      "31": 2786,
      "Ġpage": 2787,
      "Ġgenerally": 2788,
      "Ġir": 2789,
      "Ġcoun": 2790,
      "Ġbasic": 2791,
      "ĠChina": 2792,
      "osing": 2793,
      "Ġsafety": 2794,
      "isions": 2795,
      "ĠScience": 2796,
      "Ġcust": 2797,
      "osure": 2798,
      "ĠÂ": 2799,
      "ucle": 2800,
      "rated": 2801,
      "Ġserious": 2802,
      "Ġlate": 2803,
      "Ġgrowing": 2804,
      "ha": 2805,
      "ached": 2806,
      "Ġimage": 2807,
      "Ġnumbers": 2808,
      "Ġrefer": 2809,
      "ctions": 2810,
      "ops": 2811,
      "Ġharm": 2812,
      "Ġextreme": 2813,
      "Ġmagn": 2814,
      "Ġsqu": 2815,
      "Ġlat": 2816,
      "Ġfinanc": 2817,
      "Ġox": 2818,
      "ĠMin": 2819,
      "Ġselect": 2820,
      "issions": 2821,
      "ĠQu": 2822,
      "ĠHar": 2823,
      "Ġdoesn": 2824,
      "Ġpolicy": 2825,
      "Ġconsist": 2826,
      "Ġlog": 2827,
      "Ġindepend": 2828,
      "Ġwebs": 2829,
      "Ġcit": 2830,
      "Ġpatient": 2831,
      "Ġdispl": 2832,
      "set": 2833,
      "Ġincluded": 2834,
      "Ġprobably": 2835,
      "Ġanimal": 2836,
      "Ġaware": 2837,
      "Ġattack": 2838,
      "Ġnetwork": 2839,
      "Ġwood": 2840,
      "Ġaff": 2841,
      "dom": 2842,
      "Ġmedia": 2843,
      "idge": 2844,
      "Ġthus": 2845,
      "Ġprep": 2846,
      "Ġmanufact": 2847,
      "Ġcorrect": 2848,
      "Ġsomeone": 2849,
      "Ġcontinue": 2850,
      "Ġveget": 2851,
      "Ġspeed": 2852,
      "imum": 2853,
      "Ġeasily": 2854,
      "Ġmental": 2855,
      "Ġnight": 2856,
      "Ġdraw": 2857,
      "ĠMe": 2858,
      "IS": 2859,
      "\".": 2860,
      "vention": 2861,
      "Ġ--": 2862,
      "rie": 2863,
      "erg": 2864,
      "ribution": 2865,
      "oles": 2866,
      "Ġseries": 2867,
      "ls": 2868,
      "Ġgetting": 2869,
      "Ġcommit": 2870,
      "Ġideas": 2871,
      "ĠAustral": 2872,
      "Ġvirus": 2873,
      "cies": 2874,
      "irit": 2875,
      "Ġtakes": 2876,
      "ads": 2877,
      "fect": 2878,
      "Ġdaily": 2879,
      "ĠMany": 2880,
      "oly": 2881,
      "Ġdou": 2882,
      "Ġdefin": 2883,
      "Ġperformance": 2884,
      "ĠPre": 2885,
      "Ġtraditional": 2886,
      "where": 2887,
      "Ġtree": 2888,
      "ided": 2889,
      "ography": 2890,
      "ĠJan": 2891,
      "iency": 2892,
      "Ġconcent": 2893,
      "raft": 2894,
      "Ġallows": 2895,
      "oring": 2896,
      "Ġkids": 2897,
      "Ġmess": 2898,
      "Ġtown": 2899,
      "ground": 2900,
      "ashing": 2901,
      "Ġinternational": 2902,
      "ties": 2903,
      "Ġinstit": 2904,
      "Ġexpress": 2905,
      "ems": 2906,
      "Ġtherefore": 2907,
      "ext": 2908,
      "asons": 2909,
      "Ġinvestig": 2910,
      "Ġappropri": 2911,
      "ension": 2912,
      "Ġcapt": 2913,
      "ana": 2914,
      "ecause": 2915,
      "uth": 2916,
      "pro": 2917,
      "Ġlooking": 2918,
      "Ġdang": 2919,
      "Ġsold": 2920,
      "ĠBo": 2921,
      "32": 2922,
      "ĠAg": 2923,
      "cell": 2924,
      "ĠInt": 2925,
      "ĠAug": 2926,
      "oes": 2927,
      "Ġprogress": 2928,
      "Ġdiseases": 2929,
      "Ġachieve": 2930,
      "anks": 2931,
      "Ġtools": 2932,
      "rs": 2933,
      "Ġ/": 2934,
      "Ġquite": 2935,
      "Ġcommunities": 2936,
      "Ġstarted": 2937,
      "Ġsea": 2938,
      "rew": 2939,
      "Ġquickly": 2940,
      "orks": 2941,
      "Ġtheory": 2942,
      ".org": 2943,
      "Ġwall": 2944,
      "erson": 2945,
      "Ġdetermine": 2946,
      "Ġtur": 2947,
      "Ġearl": 2948,
      "Ġcover": 2949,
      "On": 2950,
      "Ġap": 2951,
      "Ġfa": 2952,
      "Ġprimary": 2953,
      "Ġsil": 2954,
      "overy": 2955,
      "ĠPart": 2956,
      "Ġinstead": 2957,
      "Ġcivil": 2958,
      "Ġadded": 2959,
      "Ġtrees": 2960,
      "www": 2961,
      "Ġhyd": 2962,
      "Ġdifference": 2963,
      "Ġunique": 2964,
      "haps": 2965,
      "ĠCount": 2966,
      "ĠYour": 2967,
      "Ġestim": 2968,
      "ceed": 2969,
      "Ġfav": 2970,
      "Ġago": 2971,
      "Ġmultiple": 2972,
      "Ġoffer": 2973,
      "iforn": 2974,
      "ĠCenter": 2975,
      "AN": 2976,
      "Ġleaders": 2977,
      "ino": 2978,
      "Ġbab": 2979,
      "Ġeth": 2980,
      "ĠEuropean": 2981,
      "ying": 2982,
      "Ġprint": 2983,
      "97": 2984,
      "ĠMore": 2985,
      "Ġthous": 2986,
      "Ġbooks": 2987,
      "Ġcompanies": 2988,
      "uary": 2989,
      "Ġdecre": 2990,
      "ĠCons": 2991,
      "Ġwarm": 2992,
      "Ġeval": 2993,
      "Ġnation": 2994,
      "Ġtend": 2995,
      "Ġheld": 2996,
      "Ġrout": 2997,
      "ĠJu": 2998,
      "ĠEduc": 2999,
      "Ġinside": 3000,
      "Ġful": 3001,
      "Ġpoints": 3002,
      "Ġvacc": 3003,
      "Ġdiv": 3004,
      "Ġestablished": 3005,
      "Ġlarger": 3006,
      "99": 3007,
      "cil": 3008,
      "Ġcross": 3009,
      "ĠEl": 3010,
      "Ġmother": 3011,
      "Ġdirectly": 3012,
      "hel": 3013,
      "Ġtiss": 3014,
      "ius": 3015,
      "Ġimmedi": 3016,
      "itude": 3017,
      "Ġhumans": 3018,
      "-h": 3019,
      "Ġreflect": 3020,
      "Ġmilitary": 3021,
      "ille": 3022,
      "ĠGerman": 3023,
      "ĠFrench": 3024,
      "iot": 3025,
      "iques": 3026,
      "Ġhighly": 3027,
      "Ġaltern": 3028,
      "Ġdry": 3029,
      "Ġaud": 3030,
      "Ġsevere": 3031,
      "na": 3032,
      "ellow": 3033,
      "Ġsou": 3034,
      "Ġthird": 3035,
      "ON": 3036,
      "Ġunc": 3037,
      "ift": 3038,
      "ifornia": 3039,
      "Ġreve": 3040,
      "ĠGl": 3041,
      "joy": 3042,
      "inks": 3043,
      "Ġcompared": 3044,
      "Ġnegative": 3045,
      "elt": 3046,
      "undred": 3047,
      "rate": 3048,
      "Ġadditional": 3049,
      "Ġsoon": 3050,
      "Ġsecurity": 3051,
      "Ġtri": 3052,
      "like": 3053,
      "ancy": 3054,
      "Ġvit": 3055,
      "95": 3056,
      "pril": 3057,
      "iers": 3058,
      "Ġvalues": 3059,
      "Ġlabor": 3060,
      "36": 3061,
      "Ġfront": 3062,
      "useum": 3063,
      "ĠMost": 3064,
      "Ġanswer": 3065,
      "Ġcentral": 3066,
      "Ġexercise": 3067,
      "Ġcritical": 3068,
      "ounds": 3069,
      "Ġscientific": 3070,
      "Ġanaly": 3071,
      "Ġacid": 3072,
      "nov": 3073,
      "Ġeye": 3074,
      "Ġi": 3075,
      "Ġinfection": 3076,
      "Ġaspect": 3077,
      "ror": 3078,
      "One": 3079,
      "Ġdemonstr": 3080,
      "pe": 3081,
      "Ġsupply": 3082,
      "term": 3083,
      "Ġsolar": 3084,
      "Ġspeak": 3085,
      "Ġsus": 3086,
      "Ġhar": 3087,
      "OR": 3088,
      "Ġbehind": 3089,
      "gency": 3090,
      "rig": 3091,
      "ĠJes": 3092,
      "Ġalthough": 3093,
      "Ġaccur": 3094,
      "icated": 3095,
      "Ġprior": 3096,
      "Ġactive": 3097,
      "Ġobt": 3098,
      "ĠIndian": 3099,
      "Ġextra": 3100,
      "Ġ|": 3101,
      "Ġleading": 3102,
      "Ġfamilies": 3103,
      "Ġproced": 3104,
      "Ġbad": 3105,
      "Ġdocument": 3106,
      "ĠInstitute": 3107,
      "Ġwalk": 3108,
      "ĠSm": 3109,
      "ĠDepartment": 3110,
      "33": 3111,
      "Ġbirth": 3112,
      "Ġfoot": 3113,
      "yond": 3114,
      "ĠWest": 3115,
      "Ġuseful": 3116,
      "Ġbit": 3117,
      "Ġstay": 3118,
      "ĠArt": 3119,
      "ims": 3120,
      "ĠChild": 3121,
      "omet": 3122,
      "ĠRuss": 3123,
      "-g": 3124,
      "Ġlimited": 3125,
      "Ġthinking": 3126,
      "Ġtransport": 3127,
      "Ġclin": 3128,
      "uries": 3129,
      "cial": 3130,
      "ĠAc": 3131,
      "vant": 3132,
      "cean": 3133,
      "Ġhost": 3134,
      "oming": 3135,
      "Ġstrateg": 3136,
      "omb": 3137,
      "hens": 3138,
      "rote": 3139,
      "Ġpurpose": 3140,
      "âĢĻve": 3141,
      "ulate": 3142,
      "sh": 3143,
      "Ġtowards": 3144,
      "Ġgard": 3145,
      "âĢĻll": 3146,
      "right": 3147,
      "aly": 3148,
      "ĠCalifornia": 3149,
      "Ġbroad": 3150,
      "Ġhor": 3151,
      "mon": 3152,
      "ĠMarch": 3153,
      "ĠOf": 3154,
      "formation": 3155,
      "Ġfram": 3156,
      "arr": 3157,
      "Ġhttp": 3158,
      "Ġfeatures": 3159,
      "thern": 3160,
      "Ġcontribut": 3161,
      "Ġteaching": 3162,
      "Ġworkers": 3163,
      "Ġwent": 3164,
      "Ġsection": 3165,
      "isms": 3166,
      "olar": 3167,
      "Ġfinancial": 3168,
      "75": 3169,
      "abetes": 3170,
      "itch": 3171,
      "Ġwhose": 3172,
      "Ġdoctor": 3173,
      "Ġseems": 3174,
      "Ġ,": 3175,
      "Ġshall": 3176,
      "ĠHer": 3177,
      "Ġquant": 3178,
      "ĠReg": 3179,
      "Ġimpl": 3180,
      "Ġdrink": 3181,
      "ĠChar": 3182,
      "Ġvideo": 3183,
      "den": 3184,
      "Ġstra": 3185,
      "ĠUs": 3186,
      "bor": 3187,
      "Ġdecl": 3188,
      "Ġrequires": 3189,
      "ĠRec": 3190,
      "ĠOther": 3191,
      "Ġcustom": 3192,
      "mar": 3193,
      "ĠAfrica": 3194,
      "Ġbeginning": 3195,
      "Ġcard": 3196,
      "Ġhands": 3197,
      "Ġsituation": 3198,
      "ĠOct": 3199,
      "Ġadminist": 3200,
      "Ġsustain": 3201,
      "iber": 3202,
      "fort": 3203,
      "He": 3204,
      "ĠSch": 3205,
      "itis": 3206,
      "ĠSw": 3207,
      "ĠNot": 3208,
      "lation": 3209,
      "Ġones": 3210,
      "Ġprotein": 3211,
      "Ġhabit": 3212,
      "Ġcontains": 3213,
      "Ġdecision": 3214,
      "-y": 3215,
      "come": 3216,
      "Ġelements": 3217,
      "____": 3218,
      "Ġcapital": 3219,
      "rition": 3220,
      "Ġexcept": 3221,
      "hern": 3222,
      "Ġexpect": 3223,
      "So": 3224,
      "Ġstri": 3225,
      "ilos": 3226,
      "ĠSept": 3227,
      "Ġhot": 3228,
      "Ġdark": 3229,
      "Ġmount": 3230,
      "ĠJune": 3231,
      "Ġfight": 3232,
      "Ġwaste": 3233,
      "âĢ¢": 3234,
      "IC": 3235,
      "equ": 3236,
      "Ġmom": 3237,
      "Ġproperty": 3238,
      "Ġjud": 3239,
      "ĠInternational": 3240,
      "inct": 3241,
      "sect": 3242,
      "Ġlost": 3243,
      "Ġminutes": 3244,
      "Ġinfluence": 3245,
      "Ġenjoy": 3246,
      "uman": 3247,
      "Ġhundred": 3248,
      "ipment": 3249,
      "ields": 3250,
      "Ġpack": 3251,
      "Ġsearch": 3252,
      "Ġcapac": 3253,
      "Ġinterp": 3254,
      "imin": 3255,
      "Ġdescribed": 3256,
      "Ġbase": 3257,
      "Ġjo": 3258,
      "hest": 3259,
      "Ġcosts": 3260,
      "Ġcred": 3261,
      "-st": 3262,
      "lection": 3263,
      "Ġancient": 3264,
      "Ġcolon": 3265,
      "Ġprivate": 3266,
      "Ġsoftware": 3267,
      ";Ċ": 3268,
      "Ġreceived": 3269,
      "ĠAfrican": 3270,
      "istry": 3271,
      "Ġprotection": 3272,
      "Ġelse": 3273,
      "Ġdemand": 3274,
      "ologies": 3275,
      "uk": 3276,
      "Ġimportance": 3277,
      "ĠAugust": 3278,
      "Ġfast": 3279,
      "ĠRiver": 3280,
      "att": 3281,
      "Ġsn": 3282,
      "Ġnews": 3283,
      "ĠAnt": 3284,
      "Ġlength": 3285,
      "Ġbecomes": 3286,
      "Ġfra": 3287,
      "Ġlocated": 3288,
      "Ġbrought": 3289,
      "Ġexact": 3290,
      "ĠMon": 3291,
      "iter": 3292,
      "Ġprocesses": 3293,
      "izations": 3294,
      "Ġgoal": 3295,
      "Ġrates": 3296,
      "ĠAlthough": 3297,
      "inese": 3298,
      "ran": 3299,
      "orders": 3300,
      "idents": 3301,
      "Ġlargest": 3302,
      "ĠHere": 3303,
      "IV": 3304,
      "Ġcarry": 3305,
      "Ġveh": 3306,
      "Ġcommunication": 3307,
      "Ġnorth": 3308,
      "Ġtechniques": 3309,
      "Ġlaws": 3310,
      "coh": 3311,
      "vest": 3312,
      "EN": 3313,
      "ĠApril": 3314,
      "ĠCanada": 3315,
      "wise": 3316,
      "Ġseason": 3317,
      "iles": 3318,
      "Ġagricult": 3319,
      "Ġrespond": 3320,
      "Ġadop": 3321,
      "Ġwrite": 3322,
      "Ġapplication": 3323,
      "Ġult": 3324,
      "ĠBar": 3325,
      "Ġleaves": 3326,
      "Ġdisp": 3327,
      "Ġestablish": 3328,
      "Ġborn": 3329,
      "mission": 3330,
      "see": 3331,
      "bol": 3332,
      "Ġnearly": 3333,
      "Ġang": 3334,
      "ĠHistory": 3335,
      "ĠKe": 3336,
      "Ġtypically": 3337,
      "ashington": 3338,
      "Ġprojects": 3339,
      "ulated": 3340,
      "And": 3341,
      "pper": 3342,
      "Ġord": 3343,
      "Ġplaces": 3344,
      "Ġreligious": 3345,
      "gn": 3346,
      "ĠTw": 3347,
      "Ġweeks": 3348,
      "Ġfit": 3349,
      "ĠCor": 3350,
      "Ġnucle": 3351,
      "used": 3352,
      "Ġgot": 3353,
      "ĠDay": 3354,
      "98": 3355,
      "Ġappropriate": 3356,
      "AC": 3357,
      "Ġefforts": 3358,
      "Ġsites": 3359,
      "ĠDav": 3360,
      "ĠMus": 3361,
      "izes": 3362,
      "Ġblock": 3363,
      "Ġwa": 3364,
      "Ġstru": 3365,
      "Ġsolution": 3366,
      "Ġadj": 3367,
      "ĠServ": 3368,
      "Ġcitiz": 3369,
      "orthern": 3370,
      "Ġadults": 3371,
      "Ġsummer": 3372,
      "ĠTra": 3373,
      "Ġtests": 3374,
      "ED": 3375,
      "Ġcrop": 3376,
      "Ġrare": 3377,
      "Ġimages": 3378,
      "Ġcool": 3379,
      "Ġremain": 3380,
      "Ġdied": 3381,
      "Ġrapid": 3382,
      "ĠFirst": 3383,
      "Ġbeaut": 3384,
      "imal": 3385,
      "Ġagree": 3386,
      "'re": 3387,
      "ription": 3388,
      "odies": 3389,
      "tery": 3390,
      "ĠFrom": 3391,
      "Ġadapt": 3392,
      "ĠGree": 3393,
      "Ġmonitor": 3394,
      "Ġadvant": 3395,
      "Ġinstall": 3396,
      "Ġreach": 3397,
      "estic": 3398,
      "ipl": 3399,
      "Ġdevices": 3400,
      "Ġcreating": 3401,
      "ĠJuly": 3402,
      "cks": 3403,
      "Ġsurround": 3404,
      "Ġson": 3405,
      "Ġtesting": 3406,
      "65": 3407,
      "resh": 3408,
      "Ġwebsite": 3409,
      "Ġmill": 3410,
      "Ġmole": 3411,
      "Ġx": 3412,
      "Ġtold": 3413,
      "Ġgame": 3414,
      "ĠMy": 3415,
      "Ġbacteria": 3416,
      "-to": 3417,
      "Ġvict": 3418,
      "Ġmemory": 3419,
      "Ġmix": 3420,
      "Ġdigital": 3421,
      "Ġremains": 3422,
      "Ġcultural": 3423,
      "Ġeyes": 3424,
      "king": 3425,
      "ĠPress": 3426,
      "Ġdeal": 3427,
      "Ġlines": 3428,
      "At": 3429,
      "Ġcru": 3430,
      "aid": 3431,
      "atur": 3432,
      ".)": 3433,
      "itect": 3434,
      "Ġgives": 3435,
      "Ġegg": 3436,
      "ĠWilliam": 3437,
      "Ġsouth": 3438,
      "Ġep": 3439,
      "rogen": 3440,
      "eal": 3441,
      "Ġstage": 3442,
      "ĠEngland": 3443,
      "Ġconstruction": 3444,
      "Ġbehavi": 3445,
      "ĠMc": 3446,
      "Ġapplications": 3447,
      "Ġbasis": 3448,
      "ĠAmericans": 3449,
      "Ġmention": 3450,
      "ira": 3451,
      "uous": 3452,
      "iece": 3453,
      "ĠJesus": 3454,
      "Ġfriends": 3455,
      "ibrary": 3456,
      "oke": 3457,
      "Ġtable": 3458,
      "ĠAssoci": 3459,
      "oud": 3460,
      "Ġcommand": 3461,
      "ĠRet": 3462,
      "Ġresponsible": 3463,
      "Ġice": 3464,
      "Ġautom": 3465,
      "Ġder": 3466,
      "ogen": 3467,
      "iar": 3468,
      "Ġteacher": 3469,
      "Ġbreat": 3470,
      "Ġproviding": 3471,
      "ellig": 3472,
      "Ġdead": 3473,
      "Ġcold": 3474,
      "Ġcenter": 3475,
      "Ġfather": 3476,
      "Ġmodels": 3477,
      "Ġbenefit": 3478,
      "ĠPark": 3479,
      "ĠPresident": 3480,
      "38": 3481,
      "Ġhimself": 3482,
      "Ġcele": 3483,
      "ĠEc": 3484,
      "head": 3485,
      "These": 3486,
      "Ġenh": 3487,
      "Ġpractices": 3488,
      "Ġtrade": 3489,
      "Ġcou": 3490,
      "Ġequipment": 3491,
      "arian": 3492,
      "-term": 3493,
      "cember": 3494,
      "ford": 3495,
      "Ġcam": 3496,
      "ula": 3497,
      "uments": 3498,
      "ĠChristian": 3499,
      "ĠProg": 3500,
      "Ġtherapy": 3501,
      "Ġten": 3502,
      "Ġbeyond": 3503,
      "Ġfuel": 3504,
      "Ġlegal": 3505,
      "itable": 3506,
      "ĠCong": 3507,
      "Ġmiles": 3508,
      "34": 3509,
      "Ġroom": 3510,
      "Ġsugar": 3511,
      "Ġpan": 3512,
      "Ġexpected": 3513,
      "Ġweb": 3514,
      "ype": 3515,
      "Ġhope": 3516,
      "Ġaffected": 3517,
      "ĠWashington": 3518,
      "rael": 3519,
      "Ġreasons": 3520,
      "Ġcontroll": 3521,
      "Ġanti": 3522,
      "37": 3523,
      "Ġdepend": 3524,
      "Ġconsequ": 3525,
      "Ġcalcul": 3526,
      "Ġsaw": 3527,
      "Ġyourself": 3528,
      "Ġmid": 3529,
      "42": 3530,
      "ding": 3531,
      "ev": 3532,
      "Ġanything": 3533,
      "Ġweather": 3534,
      "Ġexamples": 3535,
      "ĠChinese": 3536,
      "Ġfinal": 3537,
      "Ġoverall": 3538,
      "Ġmeasures": 3539,
      "ribute": 3540,
      "illing": 3541,
      "Ex": 3542,
      "cohol": 3543,
      "Ġreceive": 3544,
      "By": 3545,
      "Ġeating": 3546,
      "Ġobjects": 3547,
      "mosp": 3548,
      "aught": 3549,
      "cles": 3550,
      "Ġpen": 3551,
      "ĠSeptember": 3552,
      "Ġnothing": 3553,
      "ovember": 3554,
      "96": 3555,
      "amb": 3556,
      "Ġrecently": 3557,
      "ĠChurch": 3558,
      "sec": 3559,
      "iable": 3560,
      "Ġprofessional": 3561,
      "Ġconnect": 3562,
      "aul": 3563,
      "apter": 3564,
      "Ġsmaller": 3565,
      "med": 3566,
      "strial": 3567,
      "Ġconflic": 3568,
      "Ġorganization": 3569,
      "Ġopportunity": 3570,
      "Ġfederal": 3571,
      "Ġsett": 3572,
      "ĠEducation": 3573,
      "Ġdevice": 3574,
      "lamm": 3575,
      "ĠGreat": 3576,
      "back": 3577,
      "Ġbott": 3578,
      "Ġrain": 3579,
      "ĠInc": 3580,
      "Ġeverything": 3581,
      "rees": 3582,
      "Ġscreen": 3583,
      "Ġexposure": 3584,
      "ĠCity": 3585,
      "Ġcoast": 3586,
      "ondon": 3587,
      "48": 3588,
      "ĠGovern": 3589,
      "unch": 3590,
      "Ġforces": 3591,
      "Ġjoint": 3592,
      "Ġconstit": 3593,
      "IT": 3594,
      "Ġund": 3595,
      "Ġguid": 3596,
      "Ġsequ": 3597,
      "uff": 3598,
      "ara": 3599,
      "Ġolder": 3600,
      "anish": 3601,
      "iples": 3602,
      "Ġcode": 3603,
      "With": 3604,
      "Ġfollowed": 3605,
      "ham": 3606,
      "Ġinstru": 3607,
      "Ġmiddle": 3608,
      "ospital": 3609,
      "ĠLear": 3610,
      "urg": 3611,
      "While": 3612,
      "Ġgradu": 3613,
      "ests": 3614,
      "41": 3615,
      "Ġstrength": 3616,
      "ought": 3617,
      "Ġking": 3618,
      "Ġteeth": 3619,
      "ĠPol": 3620,
      "Ġscale": 3621,
      "Ġoccurs": 3622,
      "ĠJournal": 3623,
      "water": 3624,
      "Ġinsp": 3625,
      "Ġchoose": 3626,
      "ĠSystem": 3627,
      "ica": 3628,
      "Ġpet": 3629,
      "Ġhous": 3630,
      "Ġeveryone": 3631,
      "ama": 3632,
      "icate": 3633,
      "Ġlocation": 3634,
      "à¤": 3635,
      "Ġfruit": 3636,
      "Ġasked": 3637,
      "Ġimag": 3638,
      "Ġdate": 3639,
      "Ġbirds": 3640,
      "-year": 3641,
      "orge": 3642,
      "Ġpredict": 3643,
      "mitted": 3644,
      "lin": 3645,
      "Ġcurrently": 3646,
      "Ġeconomy": 3647,
      "Ġrecommend": 3648,
      "Ġmaintain": 3649,
      "Ġalone": 3650,
      "Ġusers": 3651,
      "-S": 3652,
      "Ġcra": 3653,
      "Ġwrote": 3654,
      "men": 3655,
      "Ġwon": 3656,
      "Ġbul": 3657,
      "Ġsuccessful": 3658,
      "ĠTechn": 3659,
      "gypt": 3660,
      "Ġswe": 3661,
      "Ġspirit": 3662,
      "Ġapprox": 3663,
      "ĠJanuary": 3664,
      "Ġeffort": 3665,
      "ĠEven": 3666,
      "Ġwinter": 3667,
      "Ġhyp": 3668,
      "Ġbeg": 3669,
      "Ġbillion": 3670,
      "rec": 3671,
      "44": 3672,
      "ingu": 3673,
      "Ġcompletely": 3674,
      "Ġstandards": 3675,
      "39": 3676,
      "oe": 3677,
      "Ġfear": 3678,
      "Ġformer": 3679,
      "Ġrock": 3680,
      "Ġdifferences": 3681,
      "edia": 3682,
      "Ġreduced": 3683,
      "Ġconstant": 3684,
      "Ġrob": 3685,
      "ĠOctober": 3686,
      "Ġshape": 3687,
      "Ġrise": 3688,
      "PA": 3689,
      "Ġvirt": 3690,
      "Ġdegree": 3691,
      "Ġtox": 3692,
      "Ġvia": 3693,
      "Ġgoes": 3694,
      "ĠVir": 3695,
      "Ġcommonly": 3696,
      "Ġsteps": 3697,
      "ĠRed": 3698,
      "Ġtrying": 3699,
      "Ġnamed": 3700,
      "Ġelectr": 3701,
      "ĠIS": 3702,
      "ĠDevelop": 3703,
      "Ġmiss": 3704,
      "Ġallowed": 3705,
      "Ġdrugs": 3706,
      "ĠDis": 3707,
      "ĠOur": 3708,
      "Ġearlier": 3709,
      "Ġfair": 3710,
      "Ġrich": 3711,
      "ĠAccording": 3712,
      "ĠCom": 3713,
      "Ġvisual": 3714,
      "Ġbra": 3715,
      "more": 3716,
      "vert": 3717,
      "Ġpurch": 3718,
      "Ġcollection": 3719,
      "ari": 3720,
      "amic": 3721,
      "Ġtrack": 3722,
      "uit": 3723,
      "ensity": 3724,
      "Ġacqu": 3725,
      "Ġperfect": 3726,
      "Ġmax": 3727,
      "Ġdestro": 3728,
      "Ġplaced": 3729,
      "Ġleave": 3730,
      "bit": 3731,
      "Ġwoman": 3732,
      "ico": 3733,
      "ĠThen": 3734,
      "hemat": 3735,
      "ĠCommun": 3736,
      "Ġinteresting": 3737,
      "Ġrules": 3738,
      "Ġpregn": 3739,
      "Ġcontext": 3740,
      "AL": 3741,
      "Ġdiscovered": 3742,
      "Ġcontinued": 3743,
      "85": 3744,
      "enge": 3745,
      "Ġhon": 3746,
      "oday": 3747,
      "edom": 3748,
      "ĠFeb": 3749,
      "ĠSim": 3750,
      "Ġexec": 3751,
      "ĠInst": 3752,
      "Ġapplied": 3753,
      "Ġgenetic": 3754,
      "ĠIsrael": 3755,
      "ords": 3756,
      "Ġpow": 3757,
      "ĠEast": 3758,
      "Ġuser": 3759,
      "Ġhistorical": 3760,
      "Ġrule": 3761,
      "Ġcommerc": 3762,
      "Ġcateg": 3763,
      "ocr": 3764,
      "rick": 3765,
      "92": 3766,
      "Ġpowerful": 3767,
      "Ġlimit": 3768,
      "Ġsect": 3769,
      "ĠTrans": 3770,
      "Ġmig": 3771,
      "gery": 3772,
      "ĠHigh": 3773,
      "ibly": 3774,
      "91": 3775,
      "Ġdiabetes": 3776,
      "off": 3777,
      "Ġmember": 3778,
      "Ġmob": 3779,
      "airs": 3780,
      "Ġisn": 3781,
      "55": 3782,
      "ĠRead": 3783,
      "load": 3784,
      "aur": 3785,
      "ĠDuring": 3786,
      "Ġsigns": 3787,
      "Ġtit": 3788,
      "ĠDecember": 3789,
      "ĠBlack": 3790,
      ".e": 3791,
      "Ġwond": 3792,
      "Ġfile": 3793,
      "Ġoccup": 3794,
      "Ġidentified": 3795,
      "yd": 3796,
      "94": 3797,
      "irection": 3798,
      "Ġcontract": 3799,
      "Ġpresence": 3800,
      "book": 3801,
      "aters": 3802,
      "alt": 3803,
      "Ġenter": 3804,
      "Ġmis": 3805,
      "Ġeight": 3806,
      "known": 3807,
      "oration": 3808,
      "ĠPat": 3809,
      "Some": 3810,
      "ĠFin": 3811,
      "iest": 3812,
      "Ġcapacity": 3813,
      "Ġpeace": 3814,
      "ternal": 3815,
      "Ġneigh": 3816,
      "ĠGermany": 3817,
      "enty": 3818,
      "Ġsch": 3819,
      "ĠSan": 3820,
      "Ġball": 3821,
      "Ġpoly": 3822,
      "son": 3823,
      "ĠCour": 3824,
      "ĠMod": 3825,
      "43": 3826,
      "Ġnutri": 3827,
      "ĠNovember": 3828,
      "Ġbox": 3829,
      "ste": 3830,
      "reet": 3831,
      "ĠRoman": 3832,
      "Ġmajority": 3833,
      "udd": 3834,
      "Ġanx": 3835,
      "Ġcompar": 3836,
      "Ġpromot": 3837,
      "Ġpatterns": 3838,
      "ament": 3839,
      "Ġincreases": 3840,
      "Ġcourt": 3841,
      "ĠCounty": 3842,
      "abilities": 3843,
      "iring": 3844,
      "Ġcoming": 3845,
      "ĠBi": 3846,
      "Ġtransfer": 3847,
      "Ġroad": 3848,
      "ocol": 3849,
      "Ġbelief": 3850,
      "Ġproperties": 3851,
      "Ġacad": 3852,
      "Ġremember": 3853,
      "Ġdisplay": 3854,
      "Ġgave": 3855,
      "Ġassign": 3856,
      "Ġrelatively": 3857,
      "Ġcook": 3858,
      "Ġformed": 3859,
      "Ġstatus": 3860,
      "Ġsitu": 3861,
      "aint": 3862,
      "Ġincor": 3863,
      "Ġrat": 3864,
      "ĠEgypt": 3865,
      "aled": 3866,
      "ĠLondon": 3867,
      "Ġactions": 3868,
      "Ġchurch": 3869,
      "atin": 3870,
      "phas": 3871,
      "eech": 3872,
      "ĠSur": 3873,
      "Ġeffic": 3874,
      "que": 3875,
      "ĠVal": 3876,
      "ĠLaw": 3877,
      "Ġimmune": 3878,
      "ĠSince": 3879,
      "]Ċ": 3880,
      "Ġefficient": 3881,
      "Ġ:": 3882,
      "related": 3883,
      "emy": 3884,
      "ocks": 3885,
      "ĠHouse": 3886,
      "Ġasse": 3887,
      "Ġillust": 3888,
      "life": 3889,
      "Ġden": 3890,
      "Ġprice": 3891,
      "Ġteach": 3892,
      "icip": 3893,
      "Ġcities": 3894,
      "Ġshowed": 3895,
      "Ġatmosp": 3896,
      "Pro": 3897,
      "Ġgir": 3898,
      "Ġnote": 3899,
      "aste": 3900,
      "Ġversion": 3901,
      "Ġmachine": 3902,
      "Ġplanet": 3903,
      "Ġchallenges": 3904,
      "Ġassist": 3905,
      "Ġopportunities": 3906,
      "Ġstrugg": 3907,
      "Ġexisting": 3908,
      "Ġincome": 3909,
      "Ġchanged": 3910,
      "can": 3911,
      "ĠCoun": 3912,
      "Ġvill": 3913,
      "ĠWater": 3914,
      "ruary": 3915,
      "-e": 3916,
      "era": 3917,
      "Ġbalance": 3918,
      "Ġtissue": 3919,
      "rehens": 3920,
      "cious": 3921,
      "Ġtask": 3922,
      "Ġgold": 3923,
      "Ġoffers": 3924,
      "ĠUnion": 3925,
      "Ġfresh": 3926,
      "Ġvo": 3927,
      "ĠDNA": 3928,
      "Ġstories": 3929,
      "93": 3930,
      "Ġemissions": 3931,
      "Ġperhaps": 3932,
      "Ġfully": 3933,
      "Ġast": 3934,
      "Ġ+": 3935,
      "Ġtou": 3936,
      "Ġstaff": 3937,
      "Ġinnov": 3938,
      "Ġstrategies": 3939,
      "Ġwid": 3940,
      "ĠGeneral": 3941,
      "Ġemp": 3942,
      "Ġchoice": 3943,
      "-A": 3944,
      "ees": 3945,
      "ĠAlso": 3946,
      "ĠMex": 3947,
      "Ġfactor": 3948,
      "Ġillness": 3949,
      "Ġstim": 3950,
      "encies": 3951,
      "Ġmoment": 3952,
      "II": 3953,
      "Ġiniti": 3954,
      "Ġbaby": 3955,
      "Ġworth": 3956,
      "resp": 3957,
      "Ġphilos": 3958,
      "Ġforward": 3959,
      "ĠArch": 3960,
      "-C": 3961,
      "force": 3962,
      "rupt": 3963,
      "Ġsymbol": 3964,
      "Ġdidn": 3965,
      "64": 3966,
      "Ġinsect": 3967,
      "Ġfemale": 3968,
      "Ġmouth": 3969,
      "Ġexpand": 3970,
      "ĠJewish": 3971,
      "Ġnames": 3972,
      "\",": 3973,
      "Ġappears": 3974,
      "Ġarchitect": 3975,
      "Ġdat": 3976,
      "aign": 3977,
      "Ġhair": 3978,
      "Ġgiving": 3979,
      "iful": 3980,
      "Ġoptions": 3981,
      "Ġcollabor": 3982,
      "rieved": 3983,
      "Ġconvers": 3984,
      "Ġpiece": 3985,
      "craft": 3986,
      "Ġmut": 3987,
      "Ġcomponents": 3988,
      "Ġmoving": 3989,
      "Ġevolution": 3990,
      "Ġconsumption": 3991,
      "ogle": 3992,
      "Ġforeign": 3993,
      "ĠNow": 3994,
      "RE": 3995,
      "ĠJust": 3996,
      "Ġcry": 3997,
      "Ġdetect": 3998,
      "ĠRo": 3999,
      "inated": 4000,
      "Ġing": 4001,
      "Ġdistance": 4002,
      "iences": 4003,
      "ĠProt": 4004,
      "Ġequal": 4005,
      "Ġcitizens": 4006,
      "ĠBecause": 4007,
      "Ġunit": 4008,
      "Ġworked": 4009,
      "Ġeducational": 4010,
      "ĠEnvironment": 4011,
      "Ġriver": 4012,
      "Ġroot": 4013,
      "Ġconstruct": 4014,
      "Ġinstance": 4015,
      "HE": 4016,
      "Ġweak": 4017,
      "ĠFrance": 4018,
      "ĠSociety": 4019,
      "ero": 4020,
      "Ġfunctions": 4021,
      "rome": 4022,
      "rief": 4023,
      "odes": 4024,
      "onn": 4025,
      "ĠPhil": 4026,
      "Ġevalu": 4027,
      "ĠAre": 4028,
      "omas": 4029,
      "ĠUK": 4030,
      "Ġrepe": 4031,
      "iny": 4032,
      "Ġexplore": 4033,
      "Ġrot": 4034,
      "89": 4035,
      "Ġdirection": 4036,
      "ĠUse": 4037,
      "Ġblue": 4038,
      "Ġplanning": 4039,
      "Ġalcohol": 4040,
      "Ġutil": 4041,
      "Ġmal": 4042,
      "Ġpicture": 4043,
      "Ġsignificantly": 4044,
      "Ġelement": 4045,
      "ĠBr": 4046,
      "iance": 4047,
      "Ġgain": 4048,
      "Ġaim": 4049,
      "Ġfindings": 4050,
      "ĠFl": 4051,
      "Ġtele": 4052,
      "eding": 4053,
      "Ġassum": 4054,
      "Be": 4055,
      "47": 4056,
      "Ad": 4057,
      "Ġpassed": 4058,
      "88": 4059,
      "Ġoffice": 4060,
      "Ġexperim": 4061,
      "Ġmission": 4062,
      "ifically": 4063,
      "Ġchance": 4064,
      "ald": 4065,
      "Ġrunning": 4066,
      "iding": 4067,
      "Ġregions": 4068,
      "ession": 4069,
      "ĠProf": 4070,
      "ST": 4071,
      "ĠPeople": 4072,
      "Ġobserved": 4073,
      "Ġsurvey": 4074,
      "Ġthousands": 4075,
      "Ġfamous": 4076,
      "Ġhuge": 4077,
      "Is": 4078,
      "Ġgoals": 4079,
      "Ġbelieved": 4080,
      "bre": 4081,
      "46": 4082,
      "Ġmap": 4083,
      "Ġsuggests": 4084,
      "Ġspect": 4085,
      "Ġclassroom": 4086,
      "Ġdetails": 4087,
      "uild": 4088,
      "Ġstyle": 4089,
      "ĠConf": 4090,
      "Ġwrong": 4091,
      "Ġplans": 4092,
      "Ġresistance": 4093,
      "Ġphen": 4094,
      "ky": 4095,
      "ygen": 4096,
      "rab": 4097,
      "Ġreports": 4098,
      "ĠWestern": 4099,
      "Ġexperiences": 4100,
      "ching": 4101,
      "ĠAustralia": 4102,
      "orage": 4103,
      "Ġfriend": 4104,
      "Ġdefined": 4105,
      "Ġpick": 4106,
      "ĠCongress": 4107,
      "ĠTheir": 4108,
      "Ġnative": 4109,
      "Ġbreast": 4110,
      "Ġexcess": 4111,
      "SA": 4112,
      "pris": 4113,
      "Ġfeature": 4114,
      "ĠEach": 4115,
      "Ġwatch": 4116,
      "Ġapply": 4117,
      "Ġguide": 4118,
      "Ġqual": 4119,
      "Ġabsor": 4120,
      "Ġiron": 4121,
      "Ġspring": 4122,
      "Ġtreated": 4123,
      "pective": 4124,
      "Ġantib": 4125,
      "Ġgarden": 4126,
      "ĠAssociation": 4127,
      "asion": 4128,
      "Un": 4129,
      "opy": 4130,
      "Ġfavor": 4131,
      "pped": 4132,
      "oma": 4133,
      "Ġvision": 4134,
      "Ġmuscle": 4135,
      "51": 4136,
      "Ġcelebr": 4137,
      "ĠThus": 4138,
      "Ġattract": 4139,
      "Ġbound": 4140,
      "house": 4141,
      "ographic": 4142,
      "Â°": 4143,
      "Ġorganizations": 4144,
      "Ġexhib": 4145,
      "Ġinstruct": 4146,
      "Ġcommercial": 4147,
      "ses": 4148,
      "Ġheavy": 4149,
      ");": 4150,
      "Ġstructures": 4151,
      "âĢĿ,": 4152,
      "Ġurban": 4153,
      "Ġseparate": 4154,
      "Ġimmediately": 4155,
      "ĠBra": 4156,
      "Ġstar": 4157,
      "ĠInter": 4158,
      "Ġtechnologies": 4159,
      "char": 4160,
      "Ġexplain": 4161,
      "Ġdecisions": 4162,
      "Ġliqu": 4163,
      "Ġcarried": 4164,
      "Ġconducted": 4165,
      "che": 4166,
      "Ġpresented": 4167,
      "iox": 4168,
      "52": 4169,
      "Ġeventually": 4170,
      "Ġdisorder": 4171,
      "Ġgeneration": 4172,
      "Ġlegis": 4173,
      "Ġsuppl": 4174,
      "ĠCur": 4175,
      "Ġseven": 4176,
      "Ġlearned": 4177,
      "DA": 4178,
      "Ġpp": 4179,
      "Ġintellig": 4180,
      "All": 4181,
      "Ġfert": 4182,
      "Ġresource": 4183,
      "Ġagg": 4184,
      "asks": 4185,
      "wards": 4186,
      "Ġclinical": 4187,
      "After": 4188,
      "Ġmale": 4189,
      "igen": 4190,
      "Ġextremely": 4191,
      "Ġfigure": 4192,
      "Ġmo": 4193,
      "Ġperformed": 4194,
      "Ġneu": 4195,
      "Ġdyn": 4196,
      "ĠAng": 4197,
      "Ġrequirements": 4198,
      "61": 4199,
      "86": 4200,
      "hors": 4201,
      "Ġsave": 4202,
      "ares": 4203,
      "Ġemphas": 4204,
      "Ġboard": 4205,
      "Ġeasier": 4206,
      "ĠRev": 4207,
      "Ġapproximately": 4208,
      "ulum": 4209,
      "co": 4210,
      "care": 4211,
      "Ġfix": 4212,
      "change": 4213,
      ".C": 4214,
      "Ġhighest": 4215,
      "bed": 4216,
      "Ġâ": 4217,
      "63": 4218,
      "Ġdecades": 4219,
      "Ġplastic": 4220,
      "ĠJapanese": 4221,
      "ĠPal": 4222,
      "Ġbuildings": 4223,
      "Ġjournal": 4224,
      "72": 4225,
      "Ġreality": 4226,
      "Ġdivid": 4227,
      "Ġbank": 4228,
      "53": 4229,
      "ĠSpec": 4230,
      "eces": 4231,
      "enth": 4232,
      "ĠLet": 4233,
      "wide": 4234,
      "Ġmetal": 4235,
      "49": 4236,
      "Ġserve": 4237,
      "ĠFebruary": 4238,
      "Ġsac": 4239,
      "EC": 4240,
      "ĠPublic": 4241,
      "Ġopin": 4242,
      "Ġitems": 4243,
      "Ġhappen": 4244,
      "Ġdepression": 4245,
      "Ġelectricity": 4246,
      "ĠGreen": 4247,
      "Ġtopic": 4248,
      "Ġindustrial": 4249,
      "ida": 4250,
      "Ġbodies": 4251,
      "lege": 4252,
      "uing": 4253,
      "ĠGeorge": 4254,
      "ĠUN": 4255,
      "ĠLord": 4256,
      "Ġintroduced": 4257,
      "Ġkid": 4258,
      "iant": 4259,
      "Ġmedicine": 4260,
      "isation": 4261,
      "Ġesc": 4262,
      "ophy": 4263,
      "ressive": 4264,
      "Ġvary": 4265,
      "ĠRetrieved": 4266,
      "Ġslight": 4267,
      "Ġaspects": 4268,
      "iate": 4269,
      "87": 4270,
      ".;": 4271,
      "Ġbone": 4272,
      "Ġpopulations": 4273,
      "ĠOver": 4274,
      "ager": 4275,
      "Ġpresident": 4276,
      "Ġrisks": 4277,
      "ĠProgram": 4278,
      "Ġbed": 4279,
      "ologist": 4280,
      "Ġtrust": 4281,
      "54": 4282,
      "ĠWeb": 4283,
      "Ġfrequently": 4284,
      "Ġchronic": 4285,
      "rest": 4286,
      "Ġthr": 4287,
      "They": 4288,
      "Ġrecommended": 4289,
      "Ġstore": 4290,
      "ructure": 4291,
      "Ġdestroy": 4292,
      "Ġdistribution": 4293,
      "ingly": 4294,
      "ĠAut": 4295,
      "ĠDon": 4296,
      "tee": 4297,
      "ĠJames": 4298,
      "gment": 4299,
      "Ġnutrition": 4300,
      "Ġconnected": 4301,
      "zz": 4302,
      "Ġfaith": 4303,
      "Ġcycle": 4304,
      "ube": 4305,
      "Ġindependent": 4306,
      "Ġreducing": 4307,
      "uses": 4308,
      "Ġbecoming": 4309,
      "Ġtemperatures": 4310,
      "81": 4311,
      "Ġexperiment": 4312,
      "Ġemail": 4313,
      "62": 4314,
      "Ġorganic": 4315,
      "Ġmilk": 4316,
      "Ġnovel": 4317,
      "tical": 4318,
      "Ġves": 4319,
      "Ġchallenge": 4320,
      "Ġnotes": 4321,
      "Ġsolutions": 4322,
      "ĠSocial": 4323,
      "Ġremove": 4324,
      "ĠMat": 4325,
      "Ġletter": 4326,
      "cast": 4327,
      "ĠRel": 4328,
      "ĠMor": 4329,
      "Ġassessment": 4330,
      "icial": 4331,
      "Ġhom": 4332,
      "Ġnumerous": 4333,
      "Ġign": 4334,
      "Ġdisorders": 4335,
      "Ġviolence": 4336,
      "71": 4337,
      "Ġparty": 4338,
      "Ġsexual": 4339,
      "Ġtruth": 4340,
      "Ġhomes": 4341,
      "Ġalternative": 4342,
      "ĠChildren": 4343,
      "/or": 4344,
      ".)Ċ": 4345,
      "Ġrelease": 4346,
      "Ġpul": 4347,
      "Ġcausing": 4348,
      "Ġpolicies": 4349,
      "Ġinvolves": 4350,
      "Ġrecords": 4351,
      "ken": 4352,
      "olid": 4353,
      "Ġmoved": 4354,
      "Ġinitial": 4355,
      "Ġestimated": 4356,
      "76": 4357,
      "Ġgene": 4358,
      "ously": 4359,
      "imens": 4360,
      "ĠMich": 4361,
      "ĠDes": 4362,
      "rog": 4363,
      "Ġactual": 4364,
      "Ph": 4365,
      "Ġwidely": 4366,
      "Ġreleased": 4367,
      "ĠMary": 4368,
      "Ġoperations": 4369,
      "Ġisol": 4370,
      "ĠPlan": 4371,
      "cular": 4372,
      "roph": 4373,
      "Ġprefer": 4374,
      "erences": 4375,
      "Ġstream": 4376,
      "Ġsample": 4377,
      "Ġspeech": 4378,
      "56": 4379,
      "Ġfields": 4380,
      "ognitive": 4381,
      "Ġkilled": 4382,
      "Ġsurgery": 4383,
      "Ġdesp": 4384,
      "osystem": 4385,
      "ĠChe": 4386,
      "Ġglass": 4387,
      "Ġplat": 4388,
      "Ġmer": 4389,
      "rant": 4390,
      "unction": 4391,
      "ĠInternet": 4392,
      "Ġcand": 4393,
      "ĠNet": 4394,
      "ĠFound": 4395,
      "AM": 4396,
      "ias": 4397,
      "Ġsetting": 4398,
      "Ġtechnique": 4399,
      "Ġcombination": 4400,
      "Ġgraph": 4401,
      "Ġalg": 4402,
      "Ġdoub": 4403,
      "ĠCouncil": 4404,
      "ologists": 4405,
      "roup": 4406,
      "Ġchanging": 4407,
      "Ġinternal": 4408,
      "ĠAv": 4409,
      "ĠDavid": 4410,
      "Ġ#": 4411,
      "Ġterrit": 4412,
      "ĠSee": 4413,
      "Ġappe": 4414,
      "ĠMic": 4415,
      "Ġoxygen": 4416,
      "ieties": 4417,
      "apers": 4418,
      "57": 4419,
      "Ġlayer": 4420,
      "Ġreference": 4421,
      "Ġanxiety": 4422,
      "raw": 4423,
      "ĠWork": 4424,
      "erate": 4425,
      "66": 4426,
      "clus": 4427,
      "Ġflood": 4428,
      "Ġtrend": 4429,
      "âĢĿ.": 4430,
      "ilit": 4431,
      "Ġbuy": 4432,
      "ault": 4433,
      "ij": 4434,
      "Ġparticipants": 4435,
      "Ġdrop": 4436,
      "lim": 4437,
      "Ġwanted": 4438,
      "Ġcharacteristics": 4439,
      "Ġtransl": 4440,
      "Ġcampaign": 4441,
      "ollow": 4442,
      "Ġdiscussion": 4443,
      "olved": 4444,
      "Ġprepar": 4445,
      "Ġconnection": 4446,
      "Ġnoted": 4447,
      "porary": 4448,
      "ĠOb": 4449,
      "Ġstarting": 4450,
      "Ġresulting": 4451,
      "67": 4452,
      "Ġcontrast": 4453,
      "Ġcounter": 4454,
      "Ġnuclear": 4455,
      "Ġinflamm": 4456,
      "Ġminor": 4457,
      "onds": 4458,
      "Ġfreedom": 4459,
      "Ġded": 4460,
      "Ġcovered": 4461,
      "ĠRober": 4462,
      "ĠDevelopment": 4463,
      "Ġdogs": 4464,
      "ĠFood": 4465,
      "ĠDec": 4466,
      "ĠSpanish": 4467,
      "rows": 4468,
      "anging": 4469,
      "Ġhousehold": 4470,
      "Ġburn": 4471,
      "Ġfig": 4472,
      "Ġgets": 4473,
      "68": 4474,
      "PS": 4475,
      "othes": 4476,
      "Ġbattle": 4477,
      "82": 4478,
      "tered": 4479,
      "Ġdrive": 4480,
      "works": 4481,
      "Ġunivers": 4482,
      "Ġdistinct": 4483,
      "Ġfeeling": 4484,
      "-M": 4485,
      "Ġliterature": 4486,
      "Ġdangerous": 4487,
      "Ġbottom": 4488,
      "bal": 4489,
      "Ġlived": 4490,
      "Ġanyone": 4491,
      "Ġarm": 4492,
      "Ġmag": 4493,
      "Ġhear": 4494,
      "ĠMuseum": 4495,
      "antic": 4496,
      "iveness": 4497,
      "Äģ": 4498,
      "Ġshap": 4499,
      "Ġsav": 4500,
      "84": 4501,
      "ĠCath": 4502,
      "Ġready": 4503,
      "erved": 4504,
      "Ġreprodu": 4505,
      "Ġadvanced": 4506,
      "Ġcris": 4507,
      "Ġexperts": 4508,
      "78": 4509,
      "Ġdegrees": 4510,
      "Ġclearly": 4511,
      "Ġinjury": 4512,
      "ander": 4513,
      "ĠTherefore": 4514,
      "ped": 4515,
      "ĠCollege": 4516,
      "essor": 4517,
      "rum": 4518,
      "Ġload": 4519,
      "Ar": 4520,
      "Ġstatement": 4521,
      "Ġocean": 4522,
      "Ġinfections": 4523,
      "Ġstorage": 4524,
      "Ġtour": 4525,
      "Ġtrig": 4526,
      "Ġremoved": 4527,
      "Ġseed": 4528,
      "Ġincorpor": 4529,
      "-up": 4530,
      "Ġreb": 4531,
      "ĠUnder": 4532,
      "Ġcircum": 4533,
      "Ġfilm": 4534,
      "Ġcreation": 4535,
      "Ġreplace": 4536,
      "Ġrelationships": 4537,
      "77": 4538,
      "However": 4539,
      "Ġconv": 4540,
      "Ġprinciples": 4541,
      "atically": 4542,
      "Ġmathemat": 4543,
      "ĠCourt": 4544,
      "Ġeffectively": 4545,
      "amental": 4546,
      "Ġcopy": 4547,
      "Ġthick": 4548,
      "ĠVol": 4549,
      "Ġpromote": 4550,
      "Ġcore": 4551,
      "Ġadjust": 4552,
      "Ġencourage": 4553,
      "Ġvitamin": 4554,
      "58": 4555,
      "Ġfine": 4556,
      "Ġcomprehens": 4557,
      "Ġoutput": 4558,
      "ocal": 4559,
      "urance": 4560,
      "Ġradiation": 4561,
      "Ġpal": 4562,
      "ĠRepublic": 4563,
      "Ġbackground": 4564,
      "Ġprofession": 4565,
      "Ġpollution": 4566,
      "Ġfailure": 4567,
      "ulf": 4568,
      "EM": 4569,
      "Ġtrou": 4570,
      "Ġtim": 4571,
      "Ġemotional": 4572,
      "Here": 4573,
      "Ġinvolve": 4574,
      "Ġpartners": 4575,
      "Ġwin": 4576,
      "Ġmeeting": 4577,
      "ishing": 4578,
      "Ġadvantage": 4579,
      "Ġproperly": 4580,
      "ĠAir": 4581,
      "OS": 4582,
      "Ġconfirm": 4583,
      "ndrome": 4584,
      "Ġexcell": 4585,
      "ĠHuman": 4586,
      "Ġturned": 4587,
      "According": 4588,
      "Ġmostly": 4589,
      "ĠMount": 4590,
      "Ġannual": 4591,
      "Ġclasses": 4592,
      "ĠGovernment": 4593,
      "ii": 4594,
      "Ġgrant": 4595,
      "ieces": 4596,
      "Ġvessel": 4597,
      "Ġexpert": 4598,
      "stitution": 4599,
      "59": 4600,
      "uration": 4601,
      "ĠSam": 4602,
      "cers": 4603,
      "Ġinput": 4604,
      "Ġfinding": 4605,
      "Ġunf": 4606,
      "Ġhappens": 4607,
      "83": 4608,
      "lick": 4609,
      "ĠÃ": 4610,
      "ĠTur": 4611,
      "Ġreferred": 4612,
      "ĠOnce": 4613,
      "ĠTex": 4614,
      "riculum": 4615,
      "oyal": 4616,
      "Ġphysic": 4617,
      "Ġupd": 4618,
      "ta": 4619,
      "Ġvul": 4620,
      "key": 4621,
      "hetic": 4622,
      "-le": 4623,
      "Ġradio": 4624,
      "elines": 4625,
      "Ġelimin": 4626,
      "Ġexactly": 4627,
      "Ġvolume": 4628,
      "Ġsand": 4629,
      "Ġwhom": 4630,
      "Ġpages": 4631,
      "Ġhelping": 4632,
      "Ġacademic": 4633,
      "ĠIsland": 4634,
      "Res": 4635,
      "Ġdepending": 4636,
      "Ġbelong": 4637,
      "Ġship": 4638,
      "Ġdetermined": 4639,
      "Ġexperienced": 4640,
      "za": 4641,
      "do": 4642,
      "Ġdie": 4643,
      "rosc": 4644,
      "ĠGreek": 4645,
      "Ġclick": 4646,
      "Ġmessage": 4647,
      "orial": 4648,
      "Ġinterpret": 4649,
      "Ġoption": 4650,
      "ĠTest": 4651,
      "ortunately": 4652,
      "Ġtooth": 4653,
      "ĠOff": 4654,
      "Ġleads": 4655,
      "Ġrelevant": 4656,
      "Ġhelped": 4657,
      "Ġpric": 4658,
      "Ġconflict": 4659,
      "Ġgrass": 4660,
      "-th": 4661,
      "Ġauthors": 4662,
      "Ġgames": 4663,
      "ĠAsia": 4664,
      "74": 4665,
      "73": 4666,
      "ET": 4667,
      "Ġlanguages": 4668,
      "Ġupper": 4669,
      "Ġregarding": 4670,
      "Ġlandsc": 4671,
      "ios": 4672,
      "Sh": 4673,
      "Ġhearing": 4674,
      "Ġmist": 4675,
      "Ġpreviously": 4676,
      "uted": 4677,
      "ception": 4678,
      "Ġexpression": 4679,
      "ressed": 4680,
      "ĠHen": 4681,
      "Ġserved": 4682,
      "Ġhorm": 4683,
      "upp": 4684,
      "Ġnor": 4685,
      "79": 4686,
      "Ġinfluen": 4687,
      "ĠBel": 4688,
      "Ġefficiency": 4689,
      "Ġdefic": 4690,
      "-B": 4691,
      "part": 4692,
      "ĠFore": 4693,
      "met": 4694,
      "Ġrace": 4695,
      "ĠOrgan": 4696,
      "Ġsquare": 4697,
      "riage": 4698,
      "Ġamounts": 4699,
      "ĠIts": 4700,
      "Ġspot": 4701,
      "Ġofficial": 4702,
      "Ġconcerns": 4703,
      "ux": 4704,
      "Ġgender": 4705,
      "ago": 4706,
      "ĠBro": 4707,
      "Ġjour": 4708,
      "Ġconcepts": 4709,
      "Ġinterested": 4710,
      "Ġconservation": 4711,
      "Ġcollege": 4712,
      "69": 4713,
      "...Ċ": 4714,
      "Ġplatform": 4715,
      "berg": 4716,
      "Ġheard": 4717,
      "clusion": 4718,
      "och": 4719,
      "Ġtum": 4720,
      "Ġbeautiful": 4721,
      "Ġprepared": 4722,
      "Ġmentioned": 4723,
      "Ġdri": 4724,
      "bl": 4725,
      "Ġsynt": 4726,
      "ping": 4727,
      "Ġaid": 4728,
      "Ġseeds": 4729,
      "Ġmanufacture": 4730,
      "Ġplease": 4731,
      "Ġsem": 4732,
      ".D": 4733,
      "ĠProject": 4734,
      "ĠHIV": 4735,
      "ss": 4736,
      "Ġmotor": 4737,
      "Ġdram": 4738,
      "Ġvot": 4739,
      "Ġreligion": 4740,
      "Ġscen": 4741,
      "Ġinh": 4742,
      "umn": 4743,
      "ĠInf": 4744,
      "tes": 4745,
      "Ġconver": 4746,
      "ears": 4747,
      "Ġwealth": 4748,
      "Ġcalc": 4749,
      "lease": 4750,
      "Ġlinked": 4751,
      "Ġhour": 4752,
      "ams": 4753,
      "onic": 4754,
      "Ġmanage": 4755,
      "ĠDem": 4756,
      "Ġcredit": 4757,
      "Ġvolunt": 4758,
      "rep": 4759,
      "Ġkept": 4760,
      "Ġsaying": 4761,
      "ĠService": 4762,
      "ĠGra": 4763,
      "Ġeggs": 4764,
      "itz": 4765,
      "Ġreaction": 4766,
      "aughter": 4767,
      "rete": 4768,
      "Ġconsult": 4769,
      "Ġconcern": 4770,
      "rans": 4771,
      "Ġimproved": 4772,
      "Ġround": 4773,
      "Ġsustainable": 4774,
      "Ġcomfort": 4775,
      "ĠWhy": 4776,
      "Ġdiss": 4777,
      "Ġcrucial": 4778,
      "Ġisland": 4779,
      "standing": 4780,
      "with": 4781,
      "Ġbud": 4782,
      "Ġfarmers": 4783,
      "Ġtoxic": 4784,
      "Ġtransform": 4785,
      "Ġtrib": 4786,
      "Ġsignal": 4787,
      "Ġdescribe": 4788,
      "ĠST": 4789,
      "Ġcere": 4790,
      "Ġspent": 4791,
      "ĠPort": 4792,
      "ategy": 4793,
      "Ġexposed": 4794,
      "ĠPaul": 4795,
      "Ġowners": 4796,
      "Ġmeat": 4797,
      "uable": 4798,
      "Ġhttps": 4799,
      "nes": 4800,
      "inate": 4801,
      "Ġpip": 4802,
      "Ġsolid": 4803,
      "Ġunits": 4804,
      "mal": 4805,
      "Ġessay": 4806,
      "Sp": 4807,
      "well": 4808,
      "zing": 4809,
      "ĠLa": 4810,
      "ĠJews": 4811,
      "Ġseek": 4812,
      "Ġgenes": 4813,
      "ĠHel": 4814,
      "-n": 4815,
      "ributed": 4816,
      "Ġpurposes": 4817,
      "Many": 4818,
      "Im": 4819,
      "Ġmeant": 4820,
      "Ġstrategy": 4821,
      "ĠRich": 4822,
      "Ġdecided": 4823,
      "ĠBer": 4824,
      "Ġallowing": 4825,
      "Ġoperation": 4826,
      "Ġmotiv": 4827,
      "alled": 4828,
      "Ġcontribute": 4829,
      "vision": 4830,
      "OT": 4831,
      "urt": 4832,
      "isher": 4833,
      "ĠPhys": 4834,
      "-related": 4835,
      "Ġinstitutions": 4836,
      "Ġawareness": 4837,
      "Ġflex": 4838,
      "mark": 4839,
      "nic": 4840,
      "ifying": 4841,
      "That": 4842,
      "Ġobvious": 4843,
      "ĠSy": 4844,
      "Ġsusp": 4845,
      "Ġcharge": 4846,
      "Ġlung": 4847,
      "Ġsort": 4848,
      "ya": 4849,
      "Ġvegetables": 4850,
      "Ġrenew": 4851,
      "ĠSun": 4852,
      "Ġprocessing": 4853,
      "Ġcompleted": 4854,
      "board": 4855,
      "ĠSal": 4856,
      "leg": 4857,
      "ĠMars": 4858,
      "place": 4859,
      "Ġtrad": 4860,
      "Ġcoal": 4861,
      "Ġatmosphere": 4862,
      "Our": 4863,
      "ĠWhite": 4864,
      "Ġecosystem": 4865,
      "Ġhospital": 4866,
      "osite": 4867,
      "Ġther": 4868,
      "ĠRem": 4869,
      "iverse": 4870,
      "Ġarticles": 4871,
      "Ġnav": 4872,
      "Ġdatab": 4873,
      "kin": 4874,
      "Ġshared": 4875,
      "ĠHol": 4876,
      "Ġkill": 4877,
      "Ġconclud": 4878,
      "ĠStudents": 4879,
      "Ġhop": 4880,
      "Ġreached": 4881,
      "Ġcast": 4882,
      "ĠThomas": 4883,
      "Ġlib": 4884,
      "Ġclos": 4885,
      "Ġgod": 4886,
      "Although": 4887,
      "Ġpret": 4888,
      "Ġsecret": 4889,
      "ĠMark": 4890,
      "lig": 4891,
      "Ġreduction": 4892,
      "Ġnotice": 4893,
      "Ġdiscover": 4894,
      "Ġbrother": 4895,
      "ĠNAS": 4896,
      "ĠVirgin": 4897,
      "acing": 4898,
      "comes": 4899,
      "Ġlooks": 4900,
      "ags": 4901,
      "Ġtasks": 4902,
      "Ġappoint": 4903,
      "Ġarmy": 4904,
      "Ġinvent": 4905,
      "rations": 4906,
      "otic": 4907,
      "Ġphase": 4908,
      "Ġmanner": 4909,
      "Ġpractical": 4910,
      "Ġban": 4911,
      "astern": 4912,
      "rates": 4913,
      "ria": 4914,
      "Ġdefinition": 4915,
      "acific": 4916,
      "Ġnorthern": 4917,
      "Ġpresc": 4918,
      "Ġprocedure": 4919,
      "Ġshar": 4920,
      "Ġextensive": 4921,
      "Ġcontinues": 4922,
      "ample": 4923,
      "ĠEvery": 4924,
      "Ġsouthern": 4925,
      "rence": 4926,
      "Ġdiagnosis": 4927,
      "bi": 4928,
      "ball": 4929,
      "ules": 4930,
      "ĠSer": 4931,
      "Ġstorm": 4932,
      "ixt": 4933,
      "Ġmainly": 4934,
      "Ġfocused": 4935,
      "Why": 4936,
      "ishes": 4937,
      "akers": 4938,
      "Ġpark": 4939,
      "Ġproposed": 4940,
      "ormal": 4941,
      "ĠTexas": 4942,
      "-like": 4943,
      "Ġsituations": 4944,
      "which": 4945,
      "Ġyouth": 4946,
      "Ġpun": 4947,
      "ounced": 4948,
      "Ġrecorded": 4949,
      "iling": 4950,
      "Ġcorresp": 4951,
      "Ġchemicals": 4952,
      "ĠPen": 4953,
      "ĠMiss": 4954,
      "ĠLou": 4955,
      "Ġpieces": 4956,
      "Ġbird": 4957,
      "Ġsector": 4958,
      "Ġmaster": 4959,
      "Ġyellow": 4960,
      "Ġwest": 4961,
      "Ġfort": 4962,
      "ĠNor": 4963,
      "Ġgar": 4964,
      "Ġsufficient": 4965,
      "Ġintended": 4966,
      "Ġtreatments": 4967,
      "ĠEv": 4968,
      "Ġbegins": 4969,
      "wood": 4970,
      "ĠBay": 4971,
      "Ġmel": 4972,
      "Ġvulner": 4973,
      "ĠMet": 4974,
      "Ġstation": 4975,
      "onomic": 4976,
      "Ġsong": 4977,
      "Now": 4978,
      "ĠJer": 4979,
      "ĠSub": 4980,
      "Ġsamples": 4981,
      "oper": 4982,
      "Ġideal": 4983,
      "From": 4984,
      "ĠCentral": 4985,
      "Ġelectrical": 4986,
      "New": 4987,
      "Ġkn": 4988,
      "Ġparticles": 4989,
      "ĠIsl": 4990,
      "arrow": 4991,
      "itors": 4992,
      "Ġcenturies": 4993,
      "Ġoffered": 4994,
      "oking": 4995,
      "anch": 4996,
      "Ġfrequency": 4997,
      "ĠSen": 4998,
      "Ġwonder": 4999,
      "Ġauthority": 5000,
      "Ġblog": 5001,
      "Ġvoice": 5002,
      "Ġprofessor": 5003,
      "Ġmort": 5004,
      "Ġsupported": 5005,
      "'ll": 5006,
      "Ġmonitoring": 5007,
      "Ġwife": 5008,
      "Ġprimarily": 5009,
      "ĠAcad": 5010,
      "Ġheight": 5011,
      "Ġvital": 5012,
      "Ġfinally": 5013,
      "Ġforced": 5014,
      "Ġuns": 5015,
      "iated": 5016,
      "Ġengineering": 5017,
      "Ġphenomen": 5018,
      "Ġconsequences": 5019,
      "Ġcollected": 5020,
      "Ġwaters": 5021,
      "Ġremained": 5022,
      "Ġgrade": 5023,
      "Ġlic": 5024,
      "Ġliquid": 5025,
      "Ġimpacts": 5026,
      "CC": 5027,
      "ipped": 5028,
      "Ġadvance": 5029,
      "ĠOld": 5030,
      "ĠMac": 5031,
      "Ġflowers": 5032,
      "Ġcomment": 5033,
      "âĢĿĊ": 5034,
      "aker": 5035,
      "Ġfaster": 5036,
      "ĠMr": 5037,
      "Ġtaught": 5038,
      "roc": 5039,
      "ĠBas": 5040,
      "Ġformation": 5041,
      "acters": 5042,
      "Ġspecifically": 5043,
      "Ġcoord": 5044,
      "Ġattacks": 5045,
      "Ġdro": 5046,
      "alle": 5047,
      "ĠMexico": 5048,
      "aks": 5049,
      "Ġstraight": 5050,
      "Ġmorning": 5051,
      "AP": 5052,
      "Ġindicate": 5053,
      "Ġcombined": 5054,
      "ĠFurther": 5055,
      "ek": 5056,
      "vis": 5057,
      "Ġraised": 5058,
      "ossible": 5059,
      "what": 5060,
      "Ġmath": 5061,
      "ĠDi": 5062,
      "Ġexcellent": 5063,
      "ĠEnergy": 5064,
      "AD": 5065,
      "espite": 5066,
      "Ġcert": 5067,
      "Ġexternal": 5068,
      "ĠCivil": 5069,
      "Ġlov": 5070,
      "Ġnations": 5071,
      "Ġwet": 5072,
      "Cl": 5073,
      "-sp": 5074,
      "US": 5075,
      "Ġtechnical": 5076,
      "Ġkeeping": 5077,
      "Ġnutrients": 5078,
      "eline": 5079,
      "Ġcertainly": 5080,
      "Ġoccurred": 5081,
      "anges": 5082,
      "EL": 5083,
      "Ġsubjects": 5084,
      "RO": 5085,
      "ĠJe": 5086,
      "ĠNews": 5087,
      "ails": 5088,
      "Ġdiam": 5089,
      "olute": 5090,
      "Ġemergency": 5091,
      "Ġperman": 5092,
      "Ġclim": 5093,
      "aturally": 5094,
      "Ġlesson": 5095,
      "Ġdrinking": 5096,
      "eria": 5097,
      "going": 5098,
      "Ġfoss": 5099,
      "Ġkinds": 5100,
      "Ġshowing": 5101,
      "ĠBudd": 5102,
      "inger": 5103,
      "ĠDist": 5104,
      "ato": 5105,
      "ensus": 5106,
      "Ġeast": 5107,
      "Ġresponsibility": 5108,
      "Ġjobs": 5109,
      "ĠLatin": 5110,
      "Ġlargely": 5111,
      "ĠDise": 5112,
      "Ġspend": 5113,
      "Ġfacts": 5114,
      "ĠBritain": 5115,
      "eters": 5116,
      "ĠMass": 5117,
      "Ġhaz": 5118,
      "-D": 5119,
      "Ã¡": 5120,
      "Ġhyper": 5121,
      "ĠNASA": 5122,
      "Ġoperating": 5123,
      "Ġsnow": 5124,
      "Ġfelt": 5125,
      "Ġrecy": 5126,
      "Ġcareer": 5127,
      "ĠBen": 5128,
      "Ġextent": 5129,
      "Pl": 5130,
      "ague": 5131,
      "Ġcognitive": 5132,
      "oviet": 5133,
      "Most": 5134,
      "ancing": 5135,
      "Ġstone": 5136,
      "Ġbrief": 5137,
      "atric": 5138,
      "ework": 5139,
      "Ġsounds": 5140,
      "Ġbright": 5141,
      "Ġidentity": 5142,
      "ested": 5143,
      "itness": 5144,
      "ulating": 5145,
      "Ġvent": 5146,
      "Ġquar": 5147,
      "Ġvaccine": 5148,
      "Ġsettle": 5149,
      "Ġvast": 5150,
      "ht": 5151,
      "Ġmoist": 5152,
      "Ġexistence": 5153,
      "Ġfacilities": 5154,
      "ĠAD": 5155,
      "ĠAN": 5156,
      "tion": 5157,
      "ĠMart": 5158,
      "Ġju": 5159,
      "No": 5160,
      "Ġbiological": 5161,
      "ĠâĢ¦": 5162,
      "inent": 5163,
      "ĠCle": 5164,
      "rier": 5165,
      "Ġsche": 5166,
      "Ġhelpful": 5167,
      "Ġpurs": 5168,
      "ĠClass": 5169,
      "enses": 5170,
      "Ġhit": 5171,
      "osen": 5172,
      "rastructure": 5173,
      "nel": 5174,
      "Ġsurrounding": 5175,
      "Ġrefers": 5176,
      "ĠFlor": 5177,
      "Ġrural": 5178,
      "Ġaccurate": 5179,
      "omy": 5180,
      "Ġdespite": 5181,
      "Ġofficials": 5182,
      "Ġvehicle": 5183,
      "Ġfruits": 5184,
      "Ġresist": 5185,
      "Ġexplains": 5186,
      "ĠFranc": 5187,
      "Ġgoods": 5188,
      "Ġadvice": 5189,
      "Ġpersons": 5190,
      "ĠMal": 5191,
      "istan": 5192,
      "Ġneut": 5193,
      "Ġagricultural": 5194,
      "ĠFre": 5195,
      "Ġaffects": 5196,
      "Ġmere": 5197,
      "ĠIr": 5198,
      "Ġmaximum": 5199,
      "Ġpros": 5200,
      "Ġmuscles": 5201,
      "Ġcrisis": 5202,
      "Ġlose": 5203,
      "ĠDirect": 5204,
      "Ġdouble": 5205,
      "Ġperiods": 5206,
      "omin": 5207,
      "Ġrevolution": 5208,
      "Ġfamiliar": 5209,
      "Ġcrops": 5210,
      "ĠMedicine": 5211,
      "Ġfeelings": 5212,
      "Ġgrand": 5213,
      "ĠCommission": 5214,
      "Ġdoll": 5215,
      "oughly": 5216,
      "ded": 5217,
      "ĠDef": 5218,
      "Ġcharacters": 5219,
      "ado": 5220,
      "Ġletters": 5221,
      "Ġoral": 5222,
      "uls": 5223,
      "Ġbill": 5224,
      "ompl": 5225,
      "rich": 5226,
      "Ġdetailed": 5227,
      "Ġmeasured": 5228,
      "ĠRobert": 5229,
      "con": 5230,
      "ĠBoth": 5231,
      "ville": 5232,
      "ael": 5233,
      "rian": 5234,
      "Ġinvestment": 5235,
      "Ġroll": 5236,
      "Ġmetab": 5237,
      "Ġmotion": 5238,
      "iced": 5239,
      "Ġsin": 5240,
      "Ġsalt": 5241,
      "Ġbow": 5242,
      "gal": 5243,
      "Ġotherwise": 5244,
      "Ġfib": 5245,
      "rapy": 5246,
      "Ġfundamental": 5247,
      "BC": 5248,
      "Ġtips": 5249,
      "-re": 5250,
      "Ġplayed": 5251,
      "Ġtested": 5252,
      "Ġmedium": 5253,
      "ĠArmy": 5254,
      "Ġinterests": 5255,
      "ĠLearning": 5256,
      "ĠSpace": 5257,
      "Ġweap": 5258,
      "ificial": 5259,
      "ĠSecond": 5260,
      "roke": 5261,
      "Ġinstruction": 5262,
      "Ab": 5263,
      "Ġsubsequ": 5264,
      "Ġdepth": 5265,
      "ĠElect": 5266,
      "Ġcomponent": 5267,
      "athy": 5268,
      "ĠAtl": 5269,
      "Ġtro": 5270,
      "ache": 5271,
      "'ve": 5272,
      "Ġaren": 5273,
      "Ġreturned": 5274,
      "ĠMil": 5275,
      "Ġsatis": 5276,
      "Ġperspective": 5277,
      "ĠLake": 5278,
      "van": 5279,
      "Ġhabitat": 5280,
      "ĠCam": 5281,
      "Ġslightly": 5282,
      "Ġsend": 5283,
      "Ġthoughts": 5284,
      "Ġpotentially": 5285,
      "ĠAI": 5286,
      "ras": 5287,
      "itage": 5288,
      "onomy": 5289,
      "oo": 5290,
      "Ġinstrument": 5291,
      "Ġtypical": 5292,
      "âĢĻm": 5293,
      "Ġflat": 5294,
      "ĠLife": 5295,
      "Ġphone": 5296,
      "ĠSom": 5297,
      "Ġobtained": 5298,
      "Ġfif": 5299,
      "asure": 5300,
      "ĠSl": 5301,
      "Ġexplained": 5302,
      "ĠCatholic": 5303,
      "Ġsuggested": 5304,
      "name": 5305,
      "Ġvalid": 5306,
      "ĠSoviet": 5307,
      "Ġkil": 5308,
      "ION": 5309,
      "osa": 5310,
      "pen": 5311,
      "olars": 5312,
      "Ġsurpris": 5313,
      "Ġfirm": 5314,
      "Ġkm": 5315,
      "utive": 5316,
      "ÃŃ": 5317,
      "Ġnerv": 5318,
      "hi": 5319,
      "inn": 5320,
      "mp": 5321,
      "ĠMedical": 5322,
      "Ġfloor": 5323,
      "CO": 5324,
      "ĠData": 5325,
      "ĠSmith": 5326,
      "Ġenhance": 5327,
      "ooth": 5328,
      "Ġgrown": 5329,
      "Ġplaying": 5330,
      "Ġdivided": 5331,
      "Ġfle": 5332,
      "roid": 5333,
      "Ġvaluable": 5334,
      "Ġleader": 5335,
      "ĠArab": 5336,
      "Ġdial": 5337,
      "Ġpig": 5338,
      "Ġdepends": 5339,
      "ĠTechnology": 5340,
      "teries": 5341,
      "unk": 5342,
      "Ġstudied": 5343,
      "Ġtopics": 5344,
      "Ġspl": 5345,
      "ĠOut": 5346,
      "Ġ*": 5347,
      "Ġpil": 5348,
      "tenance": 5349,
      "ĠQue": 5350,
      "Ġgovernments": 5351,
      "ĠPacific": 5352,
      "Ġfluid": 5353,
      "Ġonto": 5354,
      "Ġrail": 5355,
      "that": 5356,
      "Ġimmun": 5357,
      "ĠFoundation": 5358,
      "Ġimmig": 5359,
      "oster": 5360,
      "Ġresidents": 5361,
      "Ġlinks": 5362,
      "Ġcontrolled": 5363,
      "ĠTwo": 5364,
      "Ġharvest": 5365,
      "Ġcurriculum": 5366,
      "Ġinterview": 5367,
      "active": 5368,
      "MS": 5369,
      "More": 5370,
      "Ġhealthcare": 5371,
      "celer": 5372,
      "Ġrecognized": 5373,
      "Ġtrial": 5374,
      "Ġnit": 5375,
      "Ġpolice": 5376,
      "igenous": 5377,
      "Ġexplan": 5378,
      "Ġtrain": 5379,
      "Another": 5380,
      "Ġincreasingly": 5381,
      "Ġapparent": 5382,
      "Ġgirls": 5383,
      "eck": 5384,
      "Ġwalls": 5385,
      "osc": 5386,
      "ditionally": 5387,
      "Ġprices": 5388,
      "ĠHenry": 5389,
      "Ġviews": 5390,
      "Ġbusinesses": 5391,
      "Ġgreatest": 5392,
      "ĠToday": 5393,
      "Ġcardi": 5394,
      "Ġthin": 5395,
      "ĠLand": 5396,
      "Ġelev": 5397,
      "ĠUsing": 5398,
      "ĠBible": 5399,
      "Ġdeaths": 5400,
      "Ġfollows": 5401,
      "umin": 5402,
      "rolog": 5403,
      "Ġproport": 5404,
      "stood": 5405,
      "-P": 5406,
      "Ġoutcomes": 5407,
      "ĠWind": 5408,
      "RI": 5409,
      "Ġhundreds": 5410,
      "lers": 5411,
      "Ġsyndrome": 5412,
      "resents": 5413,
      "Ġclaims": 5414,
      "Ġsyn": 5415,
      "ĠMont": 5416,
      "Ġrapidly": 5417,
      "Ġaccompl": 5418,
      "Ġdisapp": 5419,
      "ĠTreat": 5420,
      "icks": 5421,
      "ye": 5422,
      "Ġproteins": 5423,
      "Ġconsists": 5424,
      "Ġminimum": 5425,
      "Ġdecrease": 5426,
      "ĠJud": 5427,
      "Ġsed": 5428,
      "ĠRussian": 5429,
      "Ġpump": 5430,
      "Ġcontinuous": 5431,
      "Ġcircumst": 5432,
      "ĠCarol": 5433,
      "Ġliver": 5434,
      "Ġportion": 5435,
      "verty": 5436,
      "Ġwestern": 5437,
      "Ġsubstant": 5438,
      "Ġsen": 5439,
      "gl": 5440,
      "Ġlik": 5441,
      "Ġsoldiers": 5442,
      "Ġpoverty": 5443,
      "inding": 5444,
      "Ġleaving": 5445,
      "Ġappeared": 5446,
      "umber": 5447,
      "Ġconcentration": 5448,
      "rot": 5449,
      "ĠRussia": 5450,
      "Ġcontaining": 5451,
      "Ġchief": 5452,
      "ĠSou": 5453,
      "ventional": 5454,
      "Ġlooked": 5455,
      "Ġsmart": 5456,
      "ĠInformation": 5457,
      "Ġintelligence": 5458,
      "Ġprotected": 5459,
      "ava": 5460,
      "cript": 5461,
      "Ġprison": 5462,
      "othing": 5463,
      "ka": 5464,
      "Ġpaint": 5465,
      "field": 5466,
      "Ġappearance": 5467,
      "ĠSea": 5468,
      "Ġconcerned": 5469,
      "Ġsan": 5470,
      "ario": 5471,
      "Ġchann": 5472,
      "racy": 5473,
      "Ġdistingu": 5474,
      "ĠAnother": 5475,
      "hips": 5476,
      "Ġadvoc": 5477,
      "Ġhappened": 5478,
      "Ġapproaches": 5479,
      "Ġgun": 5480,
      "abil": 5481,
      "Ġdigest": 5482,
      "Ġjustice": 5483,
      "Ġallerg": 5484,
      "oral": 5485,
      "ĠCD": 5486,
      "fall": 5487,
      "Ġstars": 5488,
      "atever": 5489,
      "Ġregularly": 5490,
      "Ġemployees": 5491,
      "isp": 5492,
      "ĠBook": 5493,
      "Ġlatest": 5494,
      "Ġselected": 5495,
      "Ġpaid": 5496,
      "Ġadding": 5497,
      "Ġclosely": 5498,
      "Ġrub": 5499,
      "Ġvisible": 5500,
      "ellect": 5501,
      "Ġinternet": 5502,
      "ĠInstead": 5503,
      "ĠEmp": 5504,
      "Go": 5505,
      "Ġpregnancy": 5506,
      "Ġtried": 5507,
      "Ġpray": 5508,
      "Ġ...": 5509,
      "zy": 5510,
      "ĠDel": 5511,
      "ĠJose": 5512,
      "rid": 5513,
      "Ġrecovery": 5514,
      "Ġparam": 5515,
      "Ġprocedures": 5516,
      "ĠKore": 5517,
      "Ġprinciple": 5518,
      "ĠBC": 5519,
      "Ġmedications": 5520,
      "Ġstret": 5521,
      "Ġconscious": 5522,
      "Ġdiversity": 5523,
      "Ġsuffering": 5524,
      "Ġdu": 5525,
      "cest": 5526,
      "ĠSte": 5527,
      "Ġdiscussed": 5528,
      "Ġreform": 5529,
      "Ġextract": 5530,
      "ĠNav": 5531,
      "ĠHistor": 5532,
      "Ġdirector": 5533,
      "asp": 5534,
      "Ġrepresents": 5535,
      "iled": 5536,
      "ĠGoogle": 5537,
      "ĠCompany": 5538,
      "Ġbattery": 5539,
      "Ġdomestic": 5540,
      "ĠWomen": 5541,
      "Ġsatell": 5542,
      "TS": 5543,
      "Ġrein": 5544,
      "\"Ċ": 5545,
      "agers": 5546,
      "ĠLike": 5547,
      "bing": 5548,
      "ĠTem": 5549,
      "Ġargument": 5550,
      "Ġnaturally": 5551,
      "Ġrecognize": 5552,
      "Ġinfrastructure": 5553,
      "Ġcapable": 5554,
      "Ġfunding": 5555,
      "li": 5556,
      "Ġinflammation": 5557,
      "Ġfiles": 5558,
      "Ġingred": 5559,
      "ĠVirginia": 5560,
      "/s": 5561,
      "Ġstock": 5562,
      "Ġadequ": 5563,
      "Ġmovements": 5564,
      "Ġdeliver": 5565,
      "Ġsides": 5566,
      "ĠLouis": 5567,
      "Ġwire": 5568,
      "Ġod": 5569,
      "Ġsensitive": 5570,
      "BN": 5571,
      "Ġknew": 5572,
      "inet": 5573,
      "Ġroots": 5574,
      "Ġdut": 5575,
      "ĠWild": 5576,
      "Ġstem": 5577,
      "Ġlessons": 5578,
      "ING": 5579,
      "ĠStand": 5580,
      "ĠCharles": 5581,
      "anes": 5582,
      "ascular": 5583,
      "ĠSupp": 5584,
      "wer": 5585,
      "ĠPsych": 5586,
      "Ind": 5587,
      "chers": 5588,
      "Ġwel": 5589,
      "Ġbehaviour": 5590,
      "Ġinches": 5591,
      "Ġshel": 5592,
      "Ġcorrespond": 5593,
      "Ġexpensive": 5594,
      "ĠFam": 5595,
      "ĠUp": 5596,
      "ĠEnvironmental": 5597,
      "-se": 5598,
      "Do": 5599,
      "Ġmit": 5600,
      "ota": 5601,
      "Ġcolors": 5602,
      "Ġwear": 5603,
      "rus": 5604,
      "Ġminim": 5605,
      "Ġprevention": 5606,
      "ĠSuch": 5607,
      "Ġinfected": 5608,
      "ĠPC": 5609,
      "Ġassemb": 5610,
      "ĠControl": 5611,
      "Ġstated": 5612,
      "mas": 5613,
      "Ġparties": 5614,
      "orith": 5615,
      "Ġages": 5616,
      "Ġsimpl": 5617,
      "Ġaccomp": 5618,
      "Ġpure": 5619,
      "Ġdream": 5620,
      "Ġmobile": 5621,
      "Ġwave": 5622,
      "Ġstages": 5623,
      "IL": 5624,
      "Ġcontem": 5625,
      "Ġfacilit": 5626,
      "ĠEngine": 5627,
      "Ġentirely": 5628,
      "ĠRights": 5629,
      "Ġcorpor": 5630,
      "ĠMake": 5631,
      "ĠMiddle": 5632,
      "Ġrand": 5633,
      "Ġmyth": 5634,
      "comp": 5635,
      "west": 5636,
      "Ġsuffer": 5637,
      "burg": 5638,
      "Ġsurvival": 5639,
      "Ġhunt": 5640,
      "Ġraise": 5641,
      "anguage": 5642,
      "bert": 5643,
      "Ġagriculture": 5644,
      "Ġintroduction": 5645,
      "Ġdriving": 5646,
      "ĠManagement": 5647,
      "ibilities": 5648,
      "Ġformat": 5649,
      "Ġsecure": 5650,
      "uilding": 5651,
      "Ġalt": 5652,
      "ĠStudies": 5653,
      "Ġdiscovery": 5654,
      "De": 5655,
      "Ġpush": 5656,
      "Ġnurs": 5657,
      "ĠRef": 5658,
      "Ġinject": 5659,
      "Ġopinion": 5660,
      "Ġabsolute": 5661,
      "Ġrecip": 5662,
      "ĠDisc": 5663,
      "Ġsets": 5664,
      "Ġchain": 5665,
      "Ġexchange": 5666,
      "ĠMem": 5667,
      "Ġrandom": 5668,
      "Ġ.Ċ": 5669,
      "Ġdocuments": 5670,
      "Ġvehicles": 5671,
      "cling": 5672,
      "Ġimpossible": 5673,
      "Ġconsid": 5674,
      "ada": 5675,
      "ĠGroup": 5676,
      "ĠFlorida": 5677,
      "Ġmoral": 5678,
      "Ġclosed": 5679,
      "band": 5680,
      "Ġband": 5681,
      "olve": 5682,
      "DF": 5683,
      "Ġabuse": 5684,
      "-H": 5685,
      "alian": 5686,
      "Ġnarrow": 5687,
      "ĠConstitution": 5688,
      "ĠHaw": 5689,
      "Ġmillions": 5690,
      "ĠBat": 5691,
      "Ġspiritual": 5692,
      "During": 5693,
      "onst": 5694,
      "ĠBre": 5695,
      "Ġsubstance": 5696,
      "road": 5697,
      "Ġtitle": 5698,
      "add": 5699,
      "Ġdiverse": 5700,
      "dden": 5701,
      "lar": 5702,
      "pping": 5703,
      "ĠPeter": 5704,
      "Ġcouple": 5705,
      "Ġunlike": 5706,
      "ocratic": 5707,
      "ĠSaf": 5708,
      "Ġindex": 5709,
      "Ġtalking": 5710,
      "Ġinterf": 5711,
      "olf": 5712,
      "Ġprecise": 5713,
      "-sh": 5714,
      "Ġapart": 5715,
      "time": 5716,
      "Ġaw": 5717,
      "alse": 5718,
      "ey": 5719,
      "ĠPost": 5720,
      "ypes": 5721,
      "-be": 5722,
      "idden": 5723,
      "ĠOx": 5724,
      "Ġflight": 5725,
      "Te": 5726,
      "Ġfertil": 5727,
      "-day": 5728,
      "Ġincl": 5729,
      "Ġroutine": 5730,
      "ĠPower": 5731,
      "Ġpossess": 5732,
      "Ġimproving": 5733,
      "Ġswitch": 5734,
      "Ġnetworks": 5735,
      "Us": 5736,
      "Ġtraffic": 5737,
      "Ġadopted": 5738,
      "Ġprem": 5739,
      "Ġgather": 5740,
      "omach": 5741,
      "liam": 5742,
      "Ġtouch": 5743,
      "Ġbudget": 5744,
      "osph": 5745,
      "Ġcoff": 5746,
      "ĠBet": 5747,
      "Ġgenerate": 5748,
      "Ġproducing": 5749,
      "Ġnan": 5750,
      "Ġsick": 5751,
      "ston": 5752,
      "rants": 5753,
      "Ġforests": 5754,
      "Ġachieved": 5755,
      "iology": 5756,
      "Ġexperiments": 5757,
      "ĠNature": 5758,
      "Ġlabel": 5759,
      "Ġleadership": 5760,
      "des": 5761,
      "uke": 5762,
      "Ġsuitable": 5763,
      "Ġprofessionals": 5764,
      "Ġlifest": 5765,
      "Ġera": 5766,
      "Ġcomprehensive": 5767,
      "ĠBur": 5768,
      "Ġdescribes": 5769,
      "Ġmassive": 5770,
      "apping": 5771,
      "Ġdental": 5772,
      "Dr": 5773,
      "Ġengage": 5774,
      "exp": 5775,
      "Ġcomputers": 5776,
      "icit": 5777,
      "Ġrestrict": 5778,
      "Ġtun": 5779,
      "ĠFrank": 5780,
      "Ġadministration": 5781,
      "Ġsudden": 5782,
      "Ġ<": 5783,
      "aus": 5784,
      "Ġlisted": 5785,
      "Ġaccepted": 5786,
      "Ġhorse": 5787,
      "ĠSum": 5788,
      "orrow": 5789,
      "-old": 5790,
      "Ġpossibility": 5791,
      "Ġpref": 5792,
      "Ġlandscape": 5793,
      "ĠIN": 5794,
      "ĠAlex": 5795,
      "Ġsuc": 5796,
      "Ġcalls": 5797,
      "ctic": 5798,
      "Ġnormally": 5799,
      "stream": 5800,
      "Ġmaintenance": 5801,
      "Ġplays": 5802,
      "Ġsurvive": 5803,
      "Ġsecondary": 5804,
      "Ġbones": 5805,
      "Ġapprec": 5806,
      "mes": 5807,
      "cules": 5808,
      "Ġpictures": 5809,
      "ĠFederal": 5810,
      "Ġopened": 5811,
      "mic": 5812,
      "mat": 5813,
      "cel": 5814,
      "Ġdistrict": 5815,
      "raction": 5816,
      "Ġwors": 5817,
      "Ġselection": 5818,
      "vironments": 5819,
      "Ġneighb": 5820,
      "Ġsteel": 5821,
      "rors": 5822,
      "Ġlibrary": 5823,
      "ĠTHE": 5824,
      "Ġwindow": 5825,
      "othe": 5826,
      "agues": 5827,
      "osal": 5828,
      "Ġrevealed": 5829,
      "aser": 5830,
      "esity": 5831,
      "Ġdiscrim": 5832,
      "Ġstored": 5833,
      "Ġchapter": 5834,
      "Ġchart": 5835,
      "eer": 5836,
      "Ġtail": 5837,
      "Ġprepare": 5838,
      "Ġgall": 5839,
      "fl": 5840,
      "ĠMo": 5841,
      "Ġamb": 5842,
      "Ġmarriage": 5843,
      "erals": 5844,
      "ĠAny": 5845,
      "erent": 5846,
      "Ġmanufacturing": 5847,
      "HO": 5848,
      "oted": 5849,
      "Ġvillage": 5850,
      "Ġgenerated": 5851,
      "hma": 5852,
      "point": 5853,
      "Ġintervention": 5854,
      "Ġlatter": 5855,
      "liament": 5856,
      "-sc": 5857,
      "pat": 5858,
      "Gen": 5859,
      "alysis": 5860,
      "ett": 5861,
      "anged": 5862,
      "Ġdecline": 5863,
      "ĠGood": 5864,
      "lements": 5865,
      "Ġsupplement": 5866,
      "Re": 5867,
      "Ġaircraft": 5868,
      "Ġcandid": 5869,
      "Ġjourney": 5870,
      "ĠLibrary": 5871,
      "Ġplate": 5872,
      "Ġarms": 5873,
      "Ġtal": 5874,
      "ona": 5875,
      "ĠKnow": 5876,
      "ini": 5877,
      "Ġacts": 5878,
      "-cent": 5879,
      "Ġbrown": 5880,
      "Ġwarming": 5881,
      "Ġimper": 5882,
      "Ġworse": 5883,
      "Ġpossibly": 5884,
      "Ġmamm": 5885,
      "Ġancest": 5886,
      "Ġtoler": 5887,
      "ropical": 5888,
      "Ġdepos": 5889,
      "Ġunderstood": 5890,
      "Ġregional": 5891,
      "Ġassistance": 5892,
      "olester": 5893,
      "ĠLeg": 5894,
      "Ġwildlife": 5895,
      "Ġnarr": 5896,
      "urd": 5897,
      "Ġremote": 5898,
      "Ġtransmission": 5899,
      "Ġdomin": 5900,
      "ĠLabor": 5901,
      "Ġpoet": 5902,
      "ulin": 5903,
      "ĠPers": 5904,
      "ĠCanadian": 5905,
      "hemical": 5906,
      "Ġreaders": 5907,
      "Ġdatabase": 5908,
      "Ġgrav": 5909,
      "reed": 5910,
      "Ġworldwide": 5911,
      "Ġformal": 5912,
      "-time": 5913,
      "ĠOffice": 5914,
      "ctive": 5915,
      "Other": 5916,
      "Ġremaining": 5917,
      "Ġpretty": 5918,
      "obe": 5919,
      "ĠDan": 5920,
      "Ġtiny": 5921,
      "Ġphr": 5922,
      "Ġharmful": 5923,
      "Ġstarts": 5924,
      "Ġrepeated": 5925,
      "Ġoriginally": 5926,
      "SS": 5927,
      "ĠCommon": 5928,
      "Ġaccounts": 5929,
      "Ġobtain": 5930,
      "Ġfill": 5931,
      "Ġsweet": 5932,
      "Ġcircumstances": 5933,
      "Ġax": 5934,
      "Ġtransition": 5935,
      "Ġintake": 5936,
      "Ġmoon": 5937,
      "Ġunless": 5938,
      "Ġcreative": 5939,
      "tage": 5940,
      "Ġagencies": 5941,
      "imer": 5942,
      "organ": 5943,
      "Ġextended": 5944,
      "Ġspeaking": 5945,
      "Ġoptim": 5946,
      "Ġphotos": 5947,
      "Ġguidelines": 5948,
      "ĠThrough": 5949,
      "Ġmedication": 5950,
      "iform": 5951,
      "avery": 5952,
      "ansion": 5953,
      "Ġinjuries": 5954,
      "ifies": 5955,
      "Ġunknown": 5956,
      "abits": 5957,
      "ĠWell": 5958,
      "Ġdust": 5959,
      "Ġcars": 5960,
      "Ġhouses": 5961,
      "ĠReview": 5962,
      "Ġlands": 5963,
      "zen": 5964,
      "ĠKen": 5965,
      "aria": 5966,
      "ĠTor": 5967,
      "Ġbeneficial": 5968,
      "ĠTer": 5969,
      "ĠHam": 5970,
      "inations": 5971,
      "abric": 5972,
      "Ġfigures": 5973,
      "olesterol": 5974,
      "ua": 5975,
      "Ġalgorith": 5976,
      "Ġcatch": 5977,
      "Ġstick": 5978,
      "ashion": 5979,
      "Ġstruggle": 5980,
      "Ġleaf": 5981,
      "Ġcultiv": 5982,
      "ester": 5983,
      "Ġmountain": 5984,
      "under": 5985,
      "icians": 5986,
      "Ġtwice": 5987,
      "Ġinstitution": 5988,
      "ĠCare": 5989,
      "ĠOF": 5990,
      "Ġsurf": 5991,
      "Ġlocations": 5992,
      "Ġopposite": 5993,
      "Ġinsects": 5994,
      "Ġacceler": 5995,
      "Ġconsistent": 5996,
      "Ġfell": 5997,
      "Ġchoices": 5998,
      "Ġafford": 5999,
      ".âĢĻ": 6000,
      "Ġexpressed": 6001,
      "ĠId": 6002,
      "Ġsuccessfully": 6003,
      "Ġfilled": 6004,
      "Ġchildhood": 6005,
      "Ġdoor": 6006,
      "Ġintellect": 6007,
      ".A": 6008,
      "Ġmac": 6009,
      "Ġopening": 6010,
      "Ġderived": 6011,
      "Ġabund": 6012,
      "Ġequival": 6013,
      "My": 6014,
      "Ġgal": 6015,
      "Ġauthorities": 6016,
      "Ġmuseum": 6017,
      "Ġaqu": 6018,
      "Ġenable": 6019,
      "Ġperce": 6020,
      "Ġresponses": 6021,
      "Ġdoctors": 6022,
      "Ġcourses": 6023,
      "asive": 6024,
      "Ġsports": 6025,
      "Ġfailed": 6026,
      "Ġcloud": 6027,
      "ĠAbout": 6028,
      "Ġantibiot": 6029,
      "ĠAtt": 6030,
      "orter": 6031,
      "prise": 6032,
      "ĠISBN": 6033,
      "Ġproduces": 6034,
      "ĠAnn": 6035,
      "-F": 6036,
      "Ġaudience": 6037,
      "Ġble": 6038,
      "Ġdecade": 6039,
      "Ġanswers": 6040,
      "Ġsell": 6041,
      "inder": 6042,
      "Ġcreates": 6043,
      "Ġframework": 6044,
      "ocracy": 6045,
      "inction": 6046,
      "Ġenvironments": 6047,
      "CT": 6048,
      "ĠNations": 6049,
      "Ġwants": 6050,
      "ĠProv": 6051,
      "ĠCommit": 6052,
      "Ġwaves": 6053,
      "-of": 6054,
      "Ġtells": 6055,
      "Ġagreement": 6056,
      "Ġfoundation": 6057,
      "Ġseeing": 6058,
      "ĠDiv": 6059,
      "Ġgreatly": 6060,
      "ĠUSA": 6061,
      "Ġalle": 6062,
      "win": 6063,
      "oto": 6064,
      "Ġsolve": 6065,
      "Ġyield": 6066,
      "ĠScient": 6067,
      "Ġindeed": 6068,
      ".n": 6069,
      "rag": 6070,
      "Ġerror": 6071,
      "acts": 6072,
      "Ġemotions": 6073,
      "luding": 6074,
      "ĠAp": 6075,
      "Ġslowly": 6076,
      "Ġskill": 6077,
      "Ġraw": 6078,
      "ĠYet": 6079,
      "Ġedge": 6080,
      "ĠÎ": 6081,
      "Ġuniverse": 6082,
      "ĠColumb": 6083,
      "Ġmarried": 6084,
      "aud": 6085,
      "Ġpull": 6086,
      "arant": 6087,
      "normal": 6088,
      "Read": 6089,
      "Ġscholars": 6090,
      "inson": 6091,
      "Ġfiber": 6092,
      "Ġstomach": 6093,
      "Ġaer": 6094,
      "Ġreject": 6095,
      "Ġhighlight": 6096,
      "lets": 6097,
      "Ġcorn": 6098,
      "Ġdecide": 6099,
      "ogue": 6100,
      "ĠThose": 6101,
      "mary": 6102,
      "ĠDisease": 6103,
      ".|Ċ": 6104,
      "Ġcrow": 6105,
      "Ġdifficulty": 6106,
      "icago": 6107,
      "Ġdaughter": 6108,
      "Ġmarked": 6109,
      "Ġunp": 6110,
      "Ġwalking": 6111,
      "Ġhappy": 6112,
      "igation": 6113,
      "Ġcommunicate": 6114,
      "Ġtroops": 6115,
      "-the": 6116,
      "Ġthor": 6117,
      "Ġdiscipl": 6118,
      "Ġinteraction": 6119,
      "Ġkit": 6120,
      "Ġdoubt": 6121,
      "Ġpermanent": 6122,
      "stein": 6123,
      "ront": 6124,
      "ĠGlobal": 6125,
      "ĠRad": 6126,
      "Ġtruly": 6127,
      "Not": 6128,
      "VID": 6129,
      "Ġoutl": 6130,
      "Ġflav": 6131,
      "Ġsequence": 6132,
      "Ġstudying": 6133,
      "Ġethnic": 6134,
      "ĠDesign": 6135,
      "Ġcircuit": 6136,
      "Ã¼": 6137,
      "Ġthousand": 6138,
      "Ġratio": 6139,
      "Ġboost": 6140,
      "ĠJohns": 6141,
      "Ġmanaged": 6142,
      "ĠJoseph": 6143,
      "ki": 6144,
      "oned": 6145,
      "Ġ>": 6146,
      "Ġcultures": 6147,
      "ait": 6148,
      "Ġfasc": 6149,
      "Ġsharing": 6150,
      "Ġconstitution": 6151,
      "Ġlots": 6152,
      "Ġfossil": 6153,
      "ĠIll": 6154,
      "Since": 6155,
      "nam": 6156,
      "Ġprotocol": 6157,
      "Sc": 6158,
      "Ġdensity": 6159,
      "Ġindicates": 6160,
      "Ġmarine": 6161,
      "Ġbio": 6162,
      "htm": 6163,
      "inity": 6164,
      "ĠMicro": 6165,
      "Ġmagnetic": 6166,
      "Ġimmediate": 6167,
      "Ġlaboratory": 6168,
      "rine": 6169,
      "stone": 6170,
      "Ġelectron": 6171,
      "Ġreader": 6172,
      "Ġdesire": 6173,
      "anda": 6174,
      "Ġhandle": 6175,
      "hist": 6176,
      "kes": 6177,
      "Ġborder": 6178,
      "ĠLong": 6179,
      "Ġcomposition": 6180,
      "Ġcarefully": 6181,
      "Ġelectronic": 6182,
      "Ġwish": 6183,
      "Ġbear": 6184,
      "ĠFort": 6185,
      "ĠRome": 6186,
      "Ġmechanism": 6187,
      "wo": 6188,
      "inking": 6189,
      "Ġcalcium": 6190,
      "Ġacids": 6191,
      "Ġcritic": 6192,
      "Ġlaun": 6193,
      "Ġagency": 6194,
      "Ġsight": 6195,
      "Ġcamera": 6196,
      "See": 6197,
      "itative": 6198,
      "Ġshift": 6199,
      "Ġmachines": 6200,
      "Ġaf": 6201,
      "ĠStreet": 6202,
      "ĠKh": 6203,
      "ĠExpl": 6204,
      "Ġdedicated": 6205,
      "flow": 6206,
      "ribed": 6207,
      "Ġmolecules": 6208,
      "Ġmixed": 6209,
      "ivery": 6210,
      "Ġreplaced": 6211,
      "eper": 6212,
      "Ġwitness": 6213,
      "RC": 6214,
      "aped": 6215,
      "ĠOh": 6216,
      "Ġregulations": 6217,
      "ĠAustralian": 6218,
      "Ġfixed": 6219,
      "ioxide": 6220,
      "Ġshell": 6221,
      "Ġremark": 6222,
      "Ġbroken": 6223,
      "Ġdebate": 6224,
      "ums": 6225,
      "ĠLab": 6226,
      "Ġsky": 6227,
      "ĠOnly": 6228,
      "Ġsupporting": 6229,
      "down": 6230,
      "merican": 6231,
      "Ġultimately": 6232,
      "gent": 6233,
      "rd": 6234,
      "ĠAdminist": 6235,
      "Ġsignals": 6236,
      "Ġorganized": 6237,
      "Ġunable": 6238,
      "Ġconventional": 6239,
      "ĠReport": 6240,
      "ĠGold": 6241,
      "iration": 6242,
      "irty": 6243,
      "Ġprol": 6244,
      "Ġprogramming": 6245,
      "Ġconsumers": 6246,
      "ĠProfessor": 6247,
      "Ġregul": 6248,
      "ĠParis": 6249,
      "Ġrepresented": 6250,
      "rating": 6251,
      "Ġimplementation": 6252,
      "abul": 6253,
      "Ġunderlying": 6254,
      "EP": 6255,
      "then": 6256,
      "Ġdestroyed": 6257,
      "-L": 6258,
      "ĠItaly": 6259,
      "Ġlimits": 6260,
      "Ġcloser": 6261,
      "Ġmild": 6262,
      "En": 6263,
      "ifications": 6264,
      "Ġvessels": 6265,
      "Ġaccum": 6266,
      "Figure": 6267,
      "Ġcoffee": 6268,
      "Ġinhib": 6269,
      "ĠExper": 6270,
      "itudes": 6271,
      "Ġfly": 6272,
      "Ġinner": 6273,
      "Stud": 6274,
      "Ġnine": 6275,
      "orses": 6276,
      "Ġcutting": 6277,
      "Ġconfidence": 6278,
      "ena": 6279,
      "Ġsod": 6280,
      "Ġbreathing": 6281,
      "Ġstands": 6282,
      "Ġdin": 6283,
      "Ġlifestyle": 6284,
      "Ġoverl": 6285,
      "zed": 6286,
      "Ġpowers": 6287,
      "icide": 6288,
      "uma": 6289,
      "ella": 6290,
      "ĠStat": 6291,
      "Ġnoise": 6292,
      "ican": 6293,
      "Ġcontamin": 6294,
      "Ġmulti": 6295,
      "Ġsucceed": 6296,
      "ĠHall": 6297,
      "ĠCat": 6298,
      "....": 6299,
      "Ġvariable": 6300,
      "ymph": 6301,
      "Can": 6302,
      "ĠSk": 6303,
      "ĠFe": 6304,
      "Ġwww": 6305,
      "ĠBank": 6306,
      "ups": 6307,
      "ĠCa": 6308,
      "Ġdownload": 6309,
      "Ġends": 6310,
      "ĠSouthern": 6311,
      "Qu": 6312,
      "Ġfighting": 6313,
      "Ġhus": 6314,
      "orous": 6315,
      "reland": 6316,
      "elled": 6317,
      "Ġpersist": 6318,
      "Ġprincip": 6319,
      "riting": 6320,
      "yles": 6321,
      "ny": 6322,
      "teen": 6323,
      "agon": 6324,
      "Ġarrived": 6325,
      "ipping": 6326,
      "ĠCancer": 6327,
      "ĠStep": 6328,
      "Se": 6329,
      "cher": 6330,
      "icon": 6331,
      "Ġpurchase": 6332,
      "Ġpron": 6333,
      "Ġfewer": 6334,
      "ĠClin": 6335,
      "uts": 6336,
      "àª": 6337,
      "Ġevaluation": 6338,
      "ventions": 6339,
      "Ġyounger": 6340,
      "riers": 6341,
      "Ġterritory": 6342,
      "last": 6343,
      "hether": 6344,
      "Ġsentence": 6345,
      "ĠAdd": 6346,
      "ĠHome": 6347,
      "Ġcolleagues": 6348,
      "Ġwriter": 6349,
      "Ġnecessarily": 6350,
      "Ġunus": 6351,
      "Ġregist": 6352,
      "ita": 6353,
      "irus": 6354,
      "ĠCult": 6355,
      "fortunately": 6356,
      "Ġrecept": 6357,
      "Ġphilosophy": 6358,
      "Ġreserv": 6359,
      "Ġcart": 6360,
      "Ġexists": 6361,
      "Ġcomparison": 6362,
      "Ġgone": 6363,
      "Ġtrained": 6364,
      "ĠOcean": 6365,
      "Ġcm": 6366,
      "ĠVict": 6367,
      "hav": 6368,
      "ĠRevolution": 6369,
      "umes": 6370,
      "Con": 6371,
      "ĠGet": 6372,
      "ĠForm": 6373,
      "antly": 6374,
      "âĢĺ": 6375,
      "Ġattend": 6376,
      "Ġrequest": 6377,
      "Ġconcrete": 6378,
      "ictionary": 6379,
      ".htm": 6380,
      "Ġcolour": 6381,
      "from": 6382,
      "Ġarchitecture": 6383,
      "Ġcounty": 6384,
      "-free": 6385,
      "ocy": 6386,
      "ĠVis": 6387,
      "Ġbehaviors": 6388,
      "IA": 6389,
      "Ġacknow": 6390,
      "Ġlisten": 6391,
      "ribe": 6392,
      "Ġaccident": 6393,
      "Ġcrime": 6394,
      "Ġpup": 6395,
      "Ġcontained": 6396,
      "tering": 6397,
      "Ġshop": 6398,
      "Ġmaintaining": 6399,
      "Ġsupports": 6400,
      "Ġpolitics": 6401,
      "Ġrow": 6402,
      "Ġimprovement": 6403,
      "Ġadministr": 6404,
      "Ġobst": 6405,
      "-on": 6406,
      "Ġbiggest": 6407,
      "Ġpoison": 6408,
      "zil": 6409,
      "Ġourselves": 6410,
      "throp": 6411,
      "Ġdescription": 6412,
      "Ġvoc": 6413,
      "but": 6414,
      "sey": 6415,
      "rade": 6416,
      "ĠExp": 6417,
      "Ġnerve": 6418,
      "âĢĻd": 6419,
      "Ġhoriz": 6420,
      "Ġnewsp": 6421,
      "ĠForest": 6422,
      "ĠEmpire": 6423,
      "Ġwhereas": 6424,
      "ĠPub": 6425,
      "Ġchosen": 6426,
      "ints": 6427,
      "ĠMad": 6428,
      "Ġparticipate": 6429,
      "Ġcapture": 6430,
      "Ġtwenty": 6431,
      "azing": 6432,
      "Ġtank": 6433,
      "ĠExt": 6434,
      "Ġfeedback": 6435,
      "Ġentry": 6436,
      "icious": 6437,
      "Ġeastern": 6438,
      "Ġreactions": 6439,
      "Ġconclusion": 6440,
      "Ġcholesterol": 6441,
      "Ġfounded": 6442,
      "ĠCommittee": 6443,
      "gans": 6444,
      "Ġfeeding": 6445,
      "ala": 6446,
      "inating": 6447,
      "abled": 6448,
      "ĠPan": 6449,
      "ĠChicago": 6450,
      "Ġment": 6451,
      "ĠTime": 6452,
      "Ġrecognition": 6453,
      "ĠMa": 6454,
      "________": 6455,
      "Ġpercentage": 6456,
      "ih": 6457,
      "Ġlies": 6458,
      "ĠIP": 6459,
      "Ġneighbor": 6460,
      "phone": 6461,
      "Ġmechanisms": 6462,
      "-R": 6463,
      "Ġlegs": 6464,
      "Ġemployment": 6465,
      "Ġeld": 6466,
      "izer": 6467,
      "ĠCy": 6468,
      "itan": 6469,
      "Ġdioxide": 6470,
      "Ġpreval": 6471,
      "Bl": 6472,
      "Ġjoin": 6473,
      "Ã³": 6474,
      "ĠCarolina": 6475,
      "bridge": 6476,
      "Ġmand": 6477,
      "ĠRoyal": 6478,
      "Ġbeliefs": 6479,
      "Ġsupplies": 6480,
      "Ġvirtual": 6481,
      "stract": 6482,
      "ĠBoard": 6483,
      "Ġresolution": 6484,
      "omic": 6485,
      "ĠMag": 6486,
      "Ġpool": 6487,
      "Ġartificial": 6488,
      "Ġvulnerable": 6489,
      "Ġbond": 6490,
      "anta": 6491,
      "Ġships": 6492,
      "Ġstanding": 6493,
      "IR": 6494,
      "ults": 6495,
      "heast": 6496,
      "Ġresulted": 6497,
      "Ġconnections": 6498,
      "-E": 6499,
      "Ġsubs": 6500,
      "âĢľThe": 6501,
      "Ġrelax": 6502,
      "Ġdiagnosed": 6503,
      "LE": 6504,
      "Ġhabits": 6505,
      "Ġorganisms": 6506,
      "Ġtransportation": 6507,
      "Ġjoined": 6508,
      "Ġneck": 6509,
      "Ġinstructions": 6510,
      "ĠDet": 6511,
      "Ġahead": 6512,
      "Ġinstruments": 6513,
      "Ġpresentation": 6514,
      "ĠSpain": 6515,
      "arn": 6516,
      "Ġcats": 6517,
      "ĠIreland": 6518,
      "Ġattached": 6519,
      "asters": 6520,
      "ĠEnd": 6521,
      "Ġserver": 6522,
      "Ġclust": 6523,
      "Ġtrials": 6524,
      "ĠRichard": 6525,
      "utch": 6526,
      "ĠScot": 6527,
      "uzz": 6528,
      "oven": 6529,
      "ĠPy": 6530,
      "Ġdebt": 6531,
      "ĠColor": 6532,
      "Ġring": 6533,
      "Ġveter": 6534,
      "Ġfunds": 6535,
      "Ġfabric": 6536,
      "Ġpsychological": 6537,
      "Ġepid": 6538,
      "Ġroof": 6539,
      "Ġmode": 6540,
      "ĠNatural": 6541,
      "ctor": 6542,
      "Ġsupposed": 6543,
      "Ġstable": 6544,
      "Ġoccasion": 6545,
      "ola": 6546,
      "ritis": 6547,
      "Ġparalle": 6548,
      "irds": 6549,
      "DP": 6550,
      "Ġequivalent": 6551,
      "Ġsmooth": 6552,
      "UN": 6553,
      "-level": 6554,
      "Ġtaste": 6555,
      "Ġtall": 6556,
      "Ġfer": 6557,
      "Int": 6558,
      "Ġdistur": 6559,
      "Ġelectro": 6560,
      "ĠNorthern": 6561,
      "ĠStudy": 6562,
      "Ġobjective": 6563,
      "earchers": 6564,
      "Ġvote": 6565,
      "ĠRob": 6566,
      "hop": 6567,
      "Ġturns": 6568,
      "Ġrid": 6569,
      "Ġprompt": 6570,
      "Ġguarant": 6571,
      "ĠNative": 6572,
      "BS": 6573,
      "Ġwilling": 6574,
      "Ġobservations": 6575,
      "ureau": 6576,
      "Ġuniversity": 6577,
      "Ġzone": 6578,
      "Ġdelay": 6579,
      "Ġprove": 6580,
      "Ġbread": 6581,
      "Ġnearby": 6582,
      "Ġprev": 6583,
      "Ġflag": 6584,
      "Ġlayers": 6585,
      "while": 6586,
      "eless": 6587,
      "Ġdrawing": 6588,
      "Ġrefuge": 6589,
      "IP": 6590,
      "Ġphotograph": 6591,
      "Cont": 6592,
      "Ġoblig": 6593,
      "roduction": 6594,
      "opic": 6595,
      "ĠTimes": 6596,
      "Ġlaunch": 6597,
      "Ġparticipation": 6598,
      "ĠCamp": 6599,
      "hesis": 6600,
      "Ġholid": 6601,
      "rovers": 6602,
      "Ġzero": 6603,
      "Ġcompetition": 6604,
      "ĠAgricult": 6605,
      "Ġteen": 6606,
      "Ġcos": 6607,
      "Ġdemonstrated": 6608,
      "Ġgreenhouse": 6609,
      "Ġreven": 6610,
      "Ġgenerations": 6611,
      "Ġfalse": 6612,
      "Ġwhatever": 6613,
      "Ġath": 6614,
      "âĢĻ,": 6615,
      "Ġknows": 6616,
      "Ġhousing": 6617,
      "Let": 6618,
      "Ġmice": 6619,
      "Ġcompounds": 6620,
      "Ġcomments": 6621,
      "Ġissued": 6622,
      "iratory": 6623,
      "Ġinsurance": 6624,
      "Ġdrain": 6625,
      "ĠSol": 6626,
      "ora": 6627,
      "Ġemployed": 6628,
      "ĠPract": 6629,
      "Ġstring": 6630,
      "Ġgrew": 6631,
      "pet": 6632,
      "igned": 6633,
      "ĠSciences": 6634,
      "irt": 6635,
      "espread": 6636,
      "een": 6637,
      "Ġgap": 6638,
      "Ġsole": 6639,
      "Ġhem": 6640,
      "earing": 6641,
      "ĠAcademy": 6642,
      "Ġspok": 6643,
      "ditional": 6644,
      "Ġlegisl": 6645,
      "Ġexplo": 6646,
      "ĠScott": 6647,
      "Ġmembr": 6648,
      "Ġsubstances": 6649,
      "-T": 6650,
      "Ġdent": 6651,
      "Ġmining": 6652,
      "itt": 6653,
      "].": 6654,
      "usiness": 6655,
      "cycl": 6656,
      "Ġfrequent": 6657,
      "hered": 6658,
      "Ġestimates": 6659,
      "Ġvoltage": 6660,
      "Ġinteractions": 6661,
      "OL": 6662,
      "onia": 6663,
      "Ġcarb": 6664,
      "Ġexercises": 6665,
      "Ġexamine": 6666,
      "Ġrising": 6667,
      "Ġpositions": 6668,
      "ĠGal": 6669,
      "isters": 6670,
      "Ġshot": 6671,
      "Ġindustries": 6672,
      "such": 6673,
      "rem": 6674,
      "Ġflo": 6675,
      "Ġoperate": 6676,
      "Ġfunctional": 6677,
      "Pe": 6678,
      "ployment": 6679,
      "ĠKeep": 6680,
      "tic": 6681,
      "erior": 6682,
      "Ġdemonstrate": 6683,
      "Ġfever": 6684,
      "Of": 6685,
      "ĠPM": 6686,
      "isk": 6687,
      "Ġpair": 6688,
      "ĠClimate": 6689,
      "ĠGrand": 6690,
      "Ġrelation": 6691,
      "ĠIII": 6692,
      "Ġindependence": 6693,
      "body": 6694,
      "ĠWhere": 6695,
      "word": 6696,
      "ĠÐ": 6697,
      "ĠWik": 6698,
      ".m": 6699,
      "ĠEarly": 6700,
      "CS": 6701,
      "uter": 6702,
      "Ġsomewhat": 6703,
      "Ġbrand": 6704,
      "fish": 6705,
      "Ġobesity": 6706,
      "ighter": 6707,
      "Ġoutbre": 6708,
      "Ġinstalled": 6709,
      "xts": 6710,
      "ĠMill": 6711,
      "aine": 6712,
      "IM": 6713,
      "Ġgluc": 6714,
      "Ġexpansion": 6715,
      "Ġtea": 6716,
      "ading": 6717,
      "Ġdelivery": 6718,
      "oples": 6719,
      "Ġdefe": 6720,
      "Ġcustomers": 6721,
      "ourage": 6722,
      "ĠMichael": 6723,
      "ĠCap": 6724,
      "Ġassociation": 6725,
      "Ġchallenging": 6726,
      "etime": 6727,
      "ca": 6728,
      "Over": 6729,
      "everal": 6730,
      "Ġadequate": 6731,
      "Ġastr": 6732,
      "dule": 6733,
      "Ġphysics": 6734,
      "Ġmos": 6735,
      "no": 6736,
      "cont": 6737,
      "ĠHoly": 6738,
      "First": 6739,
      "Ġreliable": 6740,
      "Ġcategories": 6741,
      "ittle": 6742,
      "anches": 6743,
      "Med": 6744,
      "ĠGard": 6745,
      "ĠGeorg": 6746,
      "Ġlegislation": 6747,
      "state": 6748,
      "Ġru": 6749,
      "ĠDiff": 6750,
      "ĠItalian": 6751,
      "Lear": 6752,
      "ĠWood": 6753,
      "Ġsmoking": 6754,
      "IG": 6755,
      "bur": 6756,
      "ĠFree": 6757,
      "uh": 6758,
      "Ġhistoric": 6759,
      "gments": 6760,
      "ĠEU": 6761,
      "Ġshut": 6762,
      "Ġrelief": 6763,
      "Ġsurve": 6764,
      "Ġhole": 6765,
      "Ġnest": 6766,
      "weight": 6767,
      "Ġaccessible": 6768,
      "ĠEth": 6769,
      "Ġhypothes": 6770,
      "Ġbiod": 6771,
      "Ġmaps": 6772,
      "LA": 6773,
      "Ġmanif": 6774,
      "ĠValley": 6775,
      "Ġsettings": 6776,
      "Ġreduces": 6777,
      "Ġsignificance": 6778,
      "Ġmatch": 6779,
      "Ġearthqu": 6780,
      "Ġputting": 6781,
      "Ġrenewable": 6782,
      "Ġsheet": 6783,
      "ugh": 6784,
      "Ġinvolving": 6785,
      "ether": 6786,
      "Ġspaces": 6787,
      "Ġmarkets": 6788,
      "gu": 6789,
      "Ġlaunched": 6790,
      "Ġfashion": 6791,
      "CD": 6792,
      "Ġske": 6793,
      "aked": 6794,
      "Ġpartner": 6795,
      "Ġsmoke": 6796,
      "oln": 6797,
      "Ġdefine": 6798,
      "Ġpainting": 6799,
      "-and": 6800,
      "Ġrhy": 6801,
      "alls": 6802,
      "Ġeveryday": 6803,
      "Your": 6804,
      "itely": 6805,
      "Ġbanks": 6806,
      "rooms": 6807,
      "Ġdanger": 6808,
      "ĠAS": 6809,
      "Ġended": 6810,
      "Ġtight": 6811,
      "Ġmm": 6812,
      "Ġframe": 6813,
      "Ġkidney": 6814,
      "Ġwidespread": 6815,
      "Ġongoing": 6816,
      "itter": 6817,
      "Ġcontrols": 6818,
      "Ġcup": 6819,
      "Ġdeclared": 6820,
      "ĠCOVID": 6821,
      "ĠBrown": 6822,
      "Ġdoi": 6823,
      "Ġfract": 6824,
      "Ġagreed": 6825,
      "ĠEastern": 6826,
      "uels": 6827,
      "using": 6828,
      "Ġenemy": 6829,
      "umps": 6830,
      "rav": 6831,
      "ĠAdditionally": 6832,
      "eenth": 6833,
      "Ġwasn": 6834,
      "Ġweapons": 6835,
      "ented": 6836,
      "Ġbot": 6837,
      "Ġroute": 6838,
      "Ġscript": 6839,
      "Ġmood": 6840,
      "osion": 6841,
      "Ġhero": 6842,
      "plant": 6843,
      "Ġmatters": 6844,
      "-cont": 6845,
      "Ġmeasurement": 6846,
      "Ġintellectual": 6847,
      "Ġnegot": 6848,
      "war": 6849,
      "Ġneur": 6850,
      "Ġcommitted": 6851,
      "Ġpapers": 6852,
      "acco": 6853,
      "Ġtissues": 6854,
      "Ġvictims": 6855,
      "Ġmedic": 6856,
      "Ġscan": 6857,
      "Ġforget": 6858,
      "Ġchrom": 6859,
      "Ġtrip": 6860,
      "idential": 6861,
      "Ġille": 6862,
      "ĠStr": 6863,
      "Ġfacility": 6864,
      "Ġconsumer": 6865,
      "Ġholds": 6866,
      "Ġrivers": 6867,
      ".gov": 6868,
      "idity": 6869,
      "itivity": 6870,
      "Ġmeasurements": 6871,
      "Ġforth": 6872,
      "Ġcalories": 6873,
      "Ġrice": 6874,
      "Ġmeth": 6875,
      "Ġsections": 6876,
      "Ġdepartment": 6877,
      "Ġstimul": 6878,
      "Ġbreath": 6879,
      "ĠSing": 6880,
      "born": 6881,
      "Ġdestruction": 6882,
      "Ġmoisture": 6883,
      "Ġdrawn": 6884,
      "Ġmeters": 6885,
      "ĠGuide": 6886,
      "Ġbutter": 6887,
      "Ġswim": 6888,
      "Ġminerals": 6889,
      "Ġmanip": 6890,
      "Rec": 6891,
      "Ġgram": 6892,
      "âĢĿ.Ċ": 6893,
      "Ġphoto": 6894,
      "ĠBrazil": 6895,
      "Ġcav": 6896,
      "operation": 6897,
      "ani": 6898,
      "Ġvarieties": 6899,
      "Ġvariables": 6900,
      "Ġseeking": 6901,
      "azine": 6902,
      "quit": 6903,
      "iah": 6904,
      "aming": 6905,
      "Ġarrange": 6906,
      "Ġpy": 6907,
      "ĠParty": 6908,
      "Ġrepair": 6909,
      "Ġundert": 6910,
      "abulary": 6911,
      "Ġarrest": 6912,
      "aph": 6913,
      "top": 6914,
      "ushed": 6915,
      "Ġshif": 6916,
      "Ġburning": 6917,
      "thritis": 6918,
      "Ġblow": 6919,
      "Ġbrings": 6920,
      "Ġmechanical": 6921,
      "Ġlect": 6922,
      "Ġfarming": 6923,
      "Ġnone": 6924,
      "ĠHave": 6925,
      "ĠConst": 6926,
      "aded": 6927,
      "Ġparas": 6928,
      "Ġhydrogen": 6929,
      "Â·": 6930,
      "Ġpassage": 6931,
      "UR": 6932,
      "Ġthy": 6933,
      "Ġdivision": 6934,
      "la": 6935,
      "Ġconven": 6936,
      "Ġbeauty": 6937,
      "Ġcollaboration": 6938,
      "ediatric": 6939,
      "example": 6940,
      "Ġspending": 6941,
      "Ġvs": 6942,
      "herent": 6943,
      "inally": 6944,
      "Ġpra": 6945,
      "Ġtexts": 6946,
      "Ġvisitors": 6947,
      "Ġcovers": 6948,
      "ulty": 6949,
      "Ġplayers": 6950,
      "Ġconstructed": 6951,
      "ĠAccess": 6952,
      "Ġcenters": 6953,
      "Ġbath": 6954,
      "Ġstre": 6955,
      "Ġslavery": 6956,
      "Ġentered": 6957,
      "Ġapproved": 6958,
      "opes": 6959,
      "forest": 6960,
      "Ġexplanation": 6961,
      "Ġstreet": 6962,
      "Ġaband": 6963,
      "Ġguidance": 6964,
      "Ġindicated": 6965,
      "Ġaward": 6966,
      "ML": 6967,
      "elesc": 6968,
      "Ġdys": 6969,
      "Ġmathematics": 6970,
      "Ġkne": 6971,
      "Ġboys": 6972,
      "oding": 6973,
      "ĠAgency": 6974,
      "Ġruns": 6975,
      "Ġannounced": 6976,
      "Ġconsidering": 6977,
      "arsh": 6978,
      "Ġdetection": 6979,
      "Ġintegrated": 6980,
      "Ġvac": 6981,
      "Ġcentre": 6982,
      "ĠSpecial": 6983,
      "eers": 6984,
      "ocation": 6985,
      "Ġoffering": 6986,
      "occ": 6987,
      "Ġscene": 6988,
      "Ġbridge": 6989,
      "Ġrely": 6990,
      "ĠEss": 6991,
      "Ġloved": 6992,
      "Ġdisaster": 6993,
      "Ġhun": 6994,
      "/d": 6995,
      "Ġcolumn": 6996,
      "Ġholding": 6997,
      "Ġtheories": 6998,
      "ĠMer": 6999,
      "Ġorient": 7000,
      "Ġrecommendations": 7001,
      "Ġbreeding": 7002,
      "ĠAge": 7003,
      "Ġrig": 7004,
      "esis": 7005,
      "Ġtons": 7006,
      "how": 7007,
      "usal": 7008,
      "otton": 7009,
      "-ch": 7010,
      "rite": 7011,
      "Ġgut": 7012,
      "Ġstrongly": 7013,
      "ĠDig": 7014,
      "iral": 7015,
      "Ġreceiving": 7016,
      "Even": 7017,
      "Ġdomain": 7018,
      "itting": 7019,
      "incoln": 7020,
      "Ġdesigns": 7021,
      "ĠTV": 7022,
      "Ġdepart": 7023,
      "Ġpreparation": 7024,
      "indu": 7025,
      "Ġcards": 7026,
      "Ġorgans": 7027,
      "Ġroles": 7028,
      "Ġdesired": 7029,
      "Ġblocks": 7030,
      "sis": 7031,
      "urrent": 7032,
      "ishment": 7033,
      "Ġdamaged": 7034,
      "iability": 7035,
      "/p": 7036,
      "OC": 7037,
      "ĠLib": 7038,
      "Ġmeal": 7039,
      "Ġworry": 7040,
      "Ġwound": 7041,
      "Ġoutcome": 7042,
      "rof": 7043,
      "Ġartists": 7044,
      "Ġnob": 7045,
      "Ġestimate": 7046,
      "Ġstroke": 7047,
      "Ġcriteria": 7048,
      "forcement": 7049,
      "ĠFamily": 7050,
      "-being": 7051,
      "Ġfourth": 7052,
      "Ġfulf": 7053,
      "Ġrespectively": 7054,
      "Ġmales": 7055,
      "ortion": 7056,
      "Ġmissing": 7057,
      "etics": 7058,
      "ĠEffect": 7059,
      "outs": 7060,
      "Ġfurn": 7061,
      "?âĢĿ": 7062,
      "ĠCreat": 7063,
      "Ġconstantly": 7064,
      "Ġusage": 7065,
      "roat": 7066,
      "Ġsurfaces": 7067,
      "heric": 7068,
      "Ġescape": 7069,
      "Ġmerely": 7070,
      "ĠAdv": 7071,
      "kins": 7072,
      "amination": 7073,
      "Ġingredients": 7074,
      "olving": 7075,
      "ixture": 7076,
      "ĠAP": 7077,
      "ĠDar": 7078,
      "Ġevaluate": 7079,
      "Ġtract": 7080,
      "rey": 7081,
      "Ġintense": 7082,
      "reek": 7083,
      "Ġtrouble": 7084,
      "Ġchest": 7085,
      "Ġpublication": 7086,
      "unicip": 7087,
      "Ġcaptured": 7088,
      "Ġchick": 7089,
      "Ġseemed": 7090,
      "Ġblind": 7091,
      "Ġasking": 7092,
      "-scale": 7093,
      "Ġofficers": 7094,
      "ĠLanguage": 7095,
      "Ġengaged": 7096,
      "Ã¢": 7097,
      "Ġcontrovers": 7098,
      "ĠTeac": 7099,
      "Ġfro": 7100,
      "Ġearn": 7101,
      "Once": 7102,
      "ĠSil": 7103,
      "Ġexamination": 7104,
      "Ġpreventing": 7105,
      "ĠRom": 7106,
      "Ġlearners": 7107,
      "ady": 7108,
      "Ġcompare": 7109,
      "Ġadvantages": 7110,
      "Ġvolcan": 7111,
      "Ġcarrying": 7112,
      "Ġarchae": 7113,
      "-r": 7114,
      "ĠIrish": 7115,
      "Ġaccuracy": 7116,
      "Ġcomposed": 7117,
      "ĠCre": 7118,
      "Ġneither": 7119,
      "Ġanalys": 7120,
      "Ġinfluenced": 7121,
      "ĠTake": 7122,
      "utrition": 7123,
      "Ġirrit": 7124,
      "itamin": 7125,
      "ĠPlant": 7126,
      "Ġcharacterized": 7127,
      "ĠAND": 7128,
      "Ġpounds": 7129,
      "Ġtube": 7130,
      "Ġsacr": 7131,
      "health": 7132,
      "ĠKingdom": 7133,
      "Ġuncertain": 7134,
      "rowing": 7135,
      "Ġsought": 7136,
      "Ġwait": 7137,
      "Ġdischar": 7138,
      "Ã¶": 7139,
      "Ġprohib": 7140,
      "ĠSecret": 7141,
      "Ġfold": 7142,
      "RA": 7143,
      "pling": 7144,
      "Ġangle": 7145,
      "ĠServices": 7146,
      "ĠNaz": 7147,
      "Ġnose": 7148,
      "ĠEqu": 7149,
      "Ġtransp": 7150,
      "Ġtheore": 7151,
      "ĠAcc": 7152,
      "Ġasthma": 7153,
      "wing": 7154,
      "Ġhorses": 7155,
      "Ġfemales": 7156,
      "Ġplenty": 7157,
      "Ġdefense": 7158,
      "col": 7159,
      "Ġbabies": 7160,
      "Ġsubsequent": 7161,
      "hire": 7162,
      "Ġmaintained": 7163,
      "action": 7164,
      "iological": 7165,
      "Ġagents": 7166,
      "Ġrealize": 7167,
      "Because": 7168,
      "Ġshock": 7169,
      "Ġinformed": 7170,
      "-cl": 7171,
      "Ġinher": 7172,
      "AA": 7173,
      "Ġrank": 7174,
      "Ġincred": 7175,
      "amins": 7176,
      "eren": 7177,
      "ĠPolic": 7178,
      "ĠResources": 7179,
      "ĠFurthermore": 7180,
      "Ġinfect": 7181,
      "asty": 7182,
      "Ġdollars": 7183,
      "Ġabnormal": 7184,
      "Ġhonor": 7185,
      "rial": 7186,
      "pes": 7187,
      "ĠConn": 7188,
      "Ġviruses": 7189,
      "ĠOxford": 7190,
      "ĠDou": 7191,
      "apse": 7192,
      "ivered": 7193,
      "Ġcircle": 7194,
      "ĠMoreover": 7195,
      "ĠHy": 7196,
      "airy": 7197,
      "Ġturning": 7198,
      "Ġcompris": 7199,
      "Ġmolecular": 7200,
      "itals": 7201,
      "Ġfavorite": 7202,
      "Ġproportion": 7203,
      "Ġcommission": 7204,
      "Ġremoval": 7205,
      "Ġstrict": 7206,
      "Ġbringing": 7207,
      "Ġdependent": 7208,
      "-G": 7209,
      "Ġscore": 7210,
      "ailed": 7211,
      "Ġboy": 7212,
      "riend": 7213,
      "ĠList": 7214,
      "rison": 7215,
      "Ġcham": 7216,
      "Ġthanks": 7217,
      "Ġattempts": 7218,
      "ĠCommunity": 7219,
      "Ġexcessive": 7220,
      "Ġnervous": 7221,
      "Ġcomplicated": 7222,
      "ĠSir": 7223,
      "ĠChristmas": 7224,
      "ĠBab": 7225,
      "ĠWorks": 7226,
      "Ġislands": 7227,
      "ĠAtlantic": 7228,
      "ĠAdministration": 7229,
      "ĠSup": 7230,
      "Ġwithd": 7231,
      "Ġcryst": 7232,
      "osh": 7233,
      "htt": 7234,
      "ĠBefore": 7235,
      "Ġsatellite": 7236,
      "uits": 7237,
      "aska": 7238,
      "igan": 7239,
      "ĠIndians": 7240,
      "Ġmetabol": 7241,
      "Ġconfirmed": 7242,
      "ipedia": 7243,
      "Ġphenomenon": 7244,
      "rary": 7245,
      "Ġproof": 7246,
      "Ġdifficulties": 7247,
      "Ġped": 7248,
      "Ġelection": 7249,
      "hyd": 7250,
      "Ġjump": 7251,
      "Ġdiscrimination": 7252,
      "Ġinn": 7253,
      "estion": 7254,
      "Ġmessages": 7255,
      "Ġfacing": 7256,
      "Ġinterpretation": 7257,
      "Ġmortality": 7258,
      "illa": 7259,
      "ĠAsian": 7260,
      "Ġcareful": 7261,
      "Ġinsulin": 7262,
      "Ġplus": 7263,
      "Ġintest": 7264,
      "Ġdistributed": 7265,
      "ĠSwed": 7266,
      "cyclop": 7267,
      "esides": 7268,
      "oir": 7269,
      "agraph": 7270,
      "ĠSecurity": 7271,
      "Ġgradually": 7272,
      "Ġfairly": 7273,
      "tles": 7274,
      "rene": 7275,
      "ĠâĢ¢": 7276,
      "Ġimplemented": 7277,
      "Ġrarely": 7278,
      "Ġthreats": 7279,
      "oston": 7280,
      "Ġhusband": 7281,
      "Ġimplications": 7282,
      "Ġmoves": 7283,
      "ĠDistrict": 7284,
      "'m": 7285,
      "ommod": 7286,
      "ĠProp": 7287,
      "ĠSometimes": 7288,
      "Ġtub": 7289,
      "Ġpresents": 7290,
      "ylvan": 7291,
      "Ġpregnant": 7292,
      "Ġconversation": 7293,
      "Ġeffectiveness": 7294,
      "Ġserving": 7295,
      "gers": 7296,
      "âĢĻ.": 7297,
      "Ġaims": 7298,
      "ommon": 7299,
      "aired": 7300,
      "ĠZeal": 7301,
      "Ġpestic": 7302,
      "ĠRock": 7303,
      "Ġbeings": 7304,
      "Ġcopper": 7305,
      "greg": 7306,
      "ĠThough": 7307,
      "rency": 7308,
      "Ġbreed": 7309,
      "Every": 7310,
      "hent": 7311,
      "ĠMD": 7312,
      "Ġdisabilities": 7313,
      "Ġsales": 7314,
      "Ġuniversal": 7315,
      "Ġtowns": 7316,
      "Ġopposed": 7317,
      "-qu": 7318,
      "Ġtheme": 7319,
      "gs": 7320,
      "rane": 7321,
      "ommun": 7322,
      "Ġpharm": 7323,
      "ĠChange": 7324,
      "Ġcategory": 7325,
      "ruption": 7326,
      "Ġcrew": 7327,
      "ĠViet": 7328,
      "Ġsharp": 7329,
      "Ġturb": 7330,
      "Ġedition": 7331,
      "Ġcrim": 7332,
      "Ġcooking": 7333,
      "Ġmicrob": 7334,
      "ĠVictor": 7335,
      "Ġglucose": 7336,
      "lishing": 7337,
      "Ġarts": 7338,
      "olesc": 7339,
      "Ġequally": 7340,
      "ĠSym": 7341,
      "Ġshapes": 7342,
      "Ġempt": 7343,
      "ĠBig": 7344,
      "Me": 7345,
      "ĠOpen": 7346,
      "Or": 7347,
      "ĠDirector": 7348,
      "Ġparallel": 7349,
      "Ġsilver": 7350,
      "oom": 7351,
      "Ġdose": 7352,
      "Ġcompens": 7353,
      "âĢĶthe": 7354,
      "emia": 7355,
      "ĠYear": 7356,
      "Ġteams": 7357,
      "Ġheating": 7358,
      "Ġconsiderable": 7359,
      "ĠHeb": 7360,
      "Ġassume": 7361,
      "ĠMartin": 7362,
      "Ġgalax": 7363,
      "otes": 7364,
      "Ġhazard": 7365,
      "Ġdealing": 7366,
      "Ġstronger": 7367,
      "Ġmg": 7368,
      "Ġgained": 7369,
      "ĠBill": 7370,
      "agram": 7371,
      "Ġfung": 7372,
      "Ġtrends": 7373,
      "ĠMS": 7374,
      "rox": 7375,
      "Ġcombat": 7376,
      "ĠVer": 7377,
      "Ġclaimed": 7378,
      "ĠYoung": 7379,
      "Today": 7380,
      "ibl": 7381,
      "abb": 7382,
      "Ġscreening": 7383,
      "Ġformula": 7384,
      "Ġrespiratory": 7385,
      "Ġseconds": 7386,
      "raining": 7387,
      "UT": 7388,
      "orph": 7389,
      "Ġowner": 7390,
      "heimer": 7391,
      "Ġforg": 7392,
      "Ġbranch": 7393,
      "Ġcontemporary": 7394,
      "ĠFace": 7395,
      "inning": 7396,
      "igate": 7397,
      "Ġevil": 7398,
      "Ġartist": 7399,
      "Ġinfant": 7400,
      "Ġfocuses": 7401,
      "ollowing": 7402,
      "Ġbranches": 7403,
      "iary": 7404,
      "ontal": 7405,
      "ĠZealand": 7406,
      "ano": 7407,
      "Ġinnovation": 7408,
      "Ġproved": 7409,
      "Ġbiology": 7410,
      "Ġpanel": 7411,
      "Ġlie": 7412,
      "Ġprominent": 7413,
      "Ġeliminate": 7414,
      "isdom": 7415,
      "Ġitem": 7416,
      "Ġoverw": 7417,
      "Ġclient": 7418,
      "IDS": 7419,
      "Ġcoastal": 7420,
      "Ġslave": 7421,
      "Ġinvestigation": 7422,
      "Ġspectrum": 7423,
      "Ġcriminal": 7424,
      "Ġplanned": 7425,
      "Ġmineral": 7426,
      "Ġproceed": 7427,
      "ĠJohnson": 7428,
      "chen": 7429,
      "@example": 7430,
      "Ġtreating": 7431,
      "va": 7432,
      "Ġwarning": 7433,
      "Ġdelivered": 7434,
      "yal": 7435,
      "Ġrocks": 7436,
      "ilation": 7437,
      "ograp": 7438,
      "Ġcyber": 7439,
      "Ġgrid": 7440,
      "Ġencoun": 7441,
      "Ġtut": 7442,
      "Ġcorrel": 7443,
      "asses": 7444,
      "Ġunusual": 7445,
      "ao": 7446,
      "ĠImm": 7447,
      "ĠPrinc": 7448,
      "ĠPop": 7449,
      "Ġnitrogen": 7450,
      "%)": 7451,
      "Ġroughly": 7452,
      "Ġplane": 7453,
      "urric": 7454,
      "ersonal": 7455,
      "Ġknowing": 7456,
      "Ġproven": 7457,
      "Ġcomfortable": 7458,
      "atial": 7459,
      "eness": 7460,
      "ĠLincoln": 7461,
      "Ġabsence": 7462,
      "imp": 7463,
      "Ġencouraged": 7464,
      "Ġpeak": 7465,
      "Ġserves": 7466,
      "ogether": 7467,
      "Ġclar": 7468,
      "ohyd": 7469,
      "ĠNon": 7470,
      "Ġprincipal": 7471,
      "Ġessentially": 7472,
      "essions": 7473,
      "ĠHill": 7474,
      "Ġslaves": 7475,
      "Am": 7476,
      "ricts": 7477,
      "oids": 7478,
      "Ġexceed": 7479,
      "Ġhoney": 7480,
      "ĠFund": 7481,
      "Ġsport": 7482,
      "Ġlights": 7483,
      "ĠDen": 7484,
      "ĠOhio": 7485,
      "Ġtemple": 7486,
      "Ġnewly": 7487,
      "Ġid": 7488,
      "ovascular": 7489,
      "Ġadvert": 7490,
      "Ġflower": 7491,
      "Ġlaid": 7492,
      "otype": 7493,
      "Ġdeeper": 7494,
      "theless": 7495,
      "ptions": 7496,
      "Ġinitially": 7497,
      "ishop": 7498,
      "Ġdefect": 7499,
      "ĠCheck": 7500,
      "haust": 7501,
      "Ġdemands": 7502,
      "adder": 7503,
      "ĠPet": 7504,
      "Ġacute": 7505,
      "including": 7506,
      "Ġpassing": 7507,
      "Ġexamined": 7508,
      "ENT": 7509,
      "ĠCast": 7510,
      "ĠAmong": 7511,
      "ĠMult": 7512,
      "yer": 7513,
      "Ġsession": 7514,
      "Ġstatements": 7515,
      "ĠâĨ": 7516,
      "Ġdefend": 7517,
      "Ġjudge": 7518,
      "Ġgranted": 7519,
      "Le": 7520,
      "-v": 7521,
      "Ġphosph": 7522,
      "oric": 7523,
      "Ġexclus": 7524,
      "Ġsigned": 7525,
      "Ġtargets": 7526,
      "Ġordered": 7527,
      "Ġvideos": 7528,
      "Ġunw": 7529,
      "ĠCentre": 7530,
      "Ġconqu": 7531,
      "ĠPo": 7532,
      "Ġhappening": 7533,
      "ĠLar": 7534,
      "Ġtrigger": 7535,
      "Ġstatistics": 7536,
      "Ġpeoples": 7537,
      "Ġexception": 7538,
      "Ġaccompan": 7539,
      "ourse": 7540,
      "alm": 7541,
      "Ġlake": 7542,
      "Ġanywhere": 7543,
      "Ġcleaning": 7544,
      "Ġremed": 7545,
      "Ġvariation": 7546,
      "Ġhosp": 7547,
      "Ġacres": 7548,
      "Ġepis": 7549,
      "Ġouter": 7550,
      "Ġstores": 7551,
      "ĠMel": 7552,
      "uality": 7553,
      "ĠFinally": 7554,
      "istical": 7555,
      "Ġexperimental": 7556,
      "Ġminute": 7557,
      "Ġdecreased": 7558,
      "abeth": 7559,
      "Ġconsideration": 7560,
      "Ġsuffered": 7561,
      "bra": 7562,
      "vard": 7563,
      "ette": 7564,
      "Ġinterpre": 7565,
      "ylvania": 7566,
      "ĠSund": 7567,
      "ĠDespite": 7568,
      "peror": 7569,
      "Ġmodified": 7570,
      "Ġsatisf": 7571,
      "otal": 7572,
      "Ġclothing": 7573,
      "ĠWho": 7574,
      "Ġbatteries": 7575,
      "Ġchlor": 7576,
      "Ġfalls": 7577,
      "Ġschedule": 7578,
      "ieval": 7579,
      "rance": 7580,
      "itarian": 7581,
      "Ġgrain": 7582,
      "Ġreward": 7583,
      "Ġeditor": 7584,
      "Ġfaced": 7585,
      "Ġcorner": 7586,
      "Ġcoverage": 7587,
      "bar": 7588,
      "Ġmicrosc": 7589,
      "eli": 7590,
      "iana": 7591,
      "rous": 7592,
      "amics": 7593,
      "Ġbiom": 7594,
      "ĠChristians": 7595,
      "Ġrecover": 7596,
      "Ġtraditions": 7597,
      "amine": 7598,
      "ĠWord": 7599,
      "Ġfishing": 7600,
      "ĠNetwork": 7601,
      "oga": 7602,
      "ĠJac": 7603,
      "ĠIns": 7604,
      "Ġdrought": 7605,
      "ĠResp": 7606,
      "vin": 7607,
      "Ġliteracy": 7608,
      "reated": 7609,
      "isco": 7610,
      "iat": 7611,
      "ustain": 7612,
      "MP": 7613,
      "Ġimagine": 7614,
      "df": 7615,
      "bles": 7616,
      "Ġgro": 7617,
      "atively": 7618,
      "icing": 7619,
      "Ġsubstantial": 7620,
      "yr": 7621,
      "Ġdriven": 7622,
      "Ġtelevision": 7623,
      "Ġintent": 7624,
      "Ġdetected": 7625,
      "Ġearliest": 7626,
      "isted": 7627,
      "Ġobserve": 7628,
      "Ġracial": 7629,
      "Ġphysician": 7630,
      "icted": 7631,
      "Ġabilities": 7632,
      "Ġremind": 7633,
      "Ġelected": 7634,
      "Ġ;": 7635,
      "Ġflows": 7636,
      "Ġisolated": 7637,
      "âĢ¦Ċ": 7638,
      "Ġidentifying": 7639,
      "Ġtom": 7640,
      "Ġroads": 7641,
      "Ġassigned": 7642,
      "coming": 7643,
      "riz": 7644,
      "Ġerrors": 7645,
      "itory": 7646,
      "ĠIslam": 7647,
      "Ġprinting": 7648,
      "Ġwine": 7649,
      "Ġstructural": 7650,
      "Ġusual": 7651,
      "onal": 7652,
      "ĠMen": 7653,
      "ultane": 7654,
      "ooking": 7655,
      "ĠOrganization": 7656,
      "Ġconsume": 7657,
      "ĠDoes": 7658,
      "ĠFour": 7659,
      "Ġidentification": 7660,
      "Ġdynamic": 7661,
      "Ġpand": 7662,
      "ĠIndust": 7663,
      "HD": 7664,
      "Ġstations": 7665,
      "ĠPak": 7666,
      "ĠFigure": 7667,
      "Ġmarks": 7668,
      "Ġtropical": 7669,
      "Ġguard": 7670,
      "ounce": 7671,
      "Ġtranslation": 7672,
      "Ġcomplications": 7673,
      "Ġhormone": 7674,
      "ĠAngel": 7675,
      "Ġradical": 7676,
      "Ġstead": 7677,
      "ĠSat": 7678,
      "elfare": 7679,
      "Ġconcerning": 7680,
      "ĠBul": 7681,
      "ĠMethod": 7682,
      "erted": 7683,
      "Ġmaybe": 7684,
      "AB": 7685,
      "ĠBoston": 7686,
      "orted": 7687,
      "Ġconfig": 7688,
      "Ġsenior": 7689,
      "Ġautism": 7690,
      "Ġdecor": 7691,
      "Ġmusical": 7692,
      "aning": 7693,
      "Ġamazing": 7694,
      "Ġaged": 7695,
      "Ġproductivity": 7696,
      "Ġregulation": 7697,
      "Ġovercome": 7698,
      "Ġprovider": 7699,
      "Ġconcluded": 7700,
      "ĠGr": 7701,
      "ecific": 7702,
      "ĠIran": 7703,
      "Ġengagement": 7704,
      "Ġsensors": 7705,
      "Ġsunlight": 7706,
      "Ġevolved": 7707,
      "Ġdisrupt": 7708,
      "ruit": 7709,
      "ĠSupreme": 7710,
      "/m": 7711,
      "ĠFather": 7712,
      "Ġneighborhood": 7713,
      "Ġstuff": 7714,
      "ĠEp": 7715,
      "Ġsubt": 7716,
      "Ġmeasuring": 7717,
      "Ġov": 7718,
      "Ġfinished": 7719,
      "Ġwindows": 7720,
      "ĠWindows": 7721,
      "ogs": 7722,
      "icy": 7723,
      "\".Ċ": 7724,
      "-called": 7725,
      "Ġlistening": 7726,
      "Ġholes": 7727,
      "Ġsoul": 7728,
      "Ġsensor": 7729,
      "Ġperm": 7730,
      "gien": 7731,
      "Ġadds": 7732,
      "Ġfed": 7733,
      "Ġaccommod": 7734,
      "Ġscar": 7735,
      "Ġcash": 7736,
      "Ġalter": 7737,
      "ĠPlease": 7738,
      "Ġsuscept": 7739,
      "Ġstake": 7740,
      "Ġmold": 7741,
      "Ġweakness": 7742,
      "Ġdiameter": 7743,
      "Ġgrows": 7744,
      "asant": 7745,
      "Ġstrengthen": 7746,
      "ĠSafety": 7747,
      "Ġrelie": 7748,
      "Ġengineers": 7749,
      "Ġwriters": 7750,
      "EE": 7751,
      "edu": 7752,
      "Ġprinted": 7753,
      "ĠSign": 7754,
      "ostic": 7755,
      "ĠSuper": 7756,
      "imm": 7757,
      "Ġadm": 7758,
      "holders": 7759,
      "ĠpH": 7760,
      "Ġhealing": 7761,
      "Ġdates": 7762,
      "onym": 7763,
      "itual": 7764,
      "ĠMoon": 7765,
      "etary": 7766,
      "Ġfinds": 7767,
      "Ed": 7768,
      "Ġbigger": 7769,
      "Ġheavily": 7770,
      "ogenic": 7771,
      ".p": 7772,
      "ocial": 7773,
      "Comp": 7774,
      "Ġfilter": 7775,
      "Ġmigration": 7776,
      "just": 7777,
      "Ġcontribution": 7778,
      "Ġperception": 7779,
      "**": 7780,
      "erman": 7781,
      "Ġtaxes": 7782,
      "ĠWall": 7783,
      "Ġheads": 7784,
      "Ġkilomet": 7785,
      "Ref": 7786,
      "rays": 7787,
      "plete": 7788,
      "Ġfest": 7789,
      "Ġcaught": 7790,
      "Ġmountains": 7791,
      "ĠEr": 7792,
      "Ġflour": 7793,
      "ildren": 7794,
      "Ġrepresentation": 7795,
      "angered": 7796,
      "zheimer": 7797,
      "ĠUt": 7798,
      "ĠColumbia": 7799,
      "ĠEst": 7800,
      "arents": 7801,
      "uset": 7802,
      "ĠEngineering": 7803,
      "ĠEdward": 7804,
      "angle": 7805,
      "Ġscientist": 7806,
      "Ġobservation": 7807,
      "ĠHawai": 7808,
      "ĠArticle": 7809,
      "ioxid": 7810,
      "urning": 7811,
      "ols": 7812,
      "Ġexperiencing": 7813,
      "Ġstability": 7814,
      "Ġdirected": 7815,
      "Ġbomb": 7816,
      "ĠLow": 7817,
      "Don": 7818,
      "Ġcas": 7819,
      "Ġhence": 7820,
      "Ġemphasis": 7821,
      "ĠColl": 7822,
      "Ġprotecting": 7823,
      "Ġthermal": 7824,
      "Ġplot": 7825,
      "Ġshoot": 7826,
      "ĠPot": 7827,
      "Ġcolonial": 7828,
      "izabeth": 7829,
      "Ġviewed": 7830,
      "ĠTim": 7831,
      "Ġregardless": 7832,
      "Joh": 7833,
      "ailable": 7834,
      "Ġsitting": 7835,
      "Ġinspired": 7836,
      "achuset": 7837,
      "Ġoldest": 7838,
      "People": 7839,
      "achusetts": 7840,
      "Ġrab": 7841,
      "Ġautomatically": 7842,
      "Ġconcentrations": 7843,
      "acent": 7844,
      "Ġmur": 7845,
      "ima": 7846,
      "Ġgiant": 7847,
      "Ġcann": 7848,
      "ĠDev": 7849,
      "Ġoccurring": 7850,
      "Ġconj": 7851,
      "Ġrose": 7852,
      "Ġcoc": 7853,
      "ĠAC": 7854,
      "iture": 7855,
      "Ġfatty": 7856,
      "Ġbrows": 7857,
      "Ġenables": 7858,
      "ĠPrevention": 7859,
      "Ġfunctioning": 7860,
      "Ġreaching": 7861,
      "Ġagent": 7862,
      "Ġreporting": 7863,
      "Ġensuring": 7864,
      "Ġvocabulary": 7865,
      "Ġenorm": 7866,
      "nsylvania": 7867,
      "ucky": 7868,
      "ĠSimilar": 7869,
      "ĠSpirit": 7870,
      "Ġvel": 7871,
      "lete": 7872,
      "allow": 7873,
      "Ġvictim": 7874,
      "quir": 7875,
      "Ġprogramme": 7876,
      "Ġgirl": 7877,
      "Ġcompound": 7878,
      "requ": 7879,
      "Ġexhaust": 7880,
      "/c": 7881,
      "Ġneutral": 7882,
      "esh": 7883,
      "Ġcorrectly": 7884,
      "ĠNever": 7885,
      "Ġacquired": 7886,
      "Ġquiet": 7887,
      "Ġprotective": 7888,
      "Ġreveal": 7889,
      "Ġsurge": 7890,
      "Ġwheel": 7891,
      "Ġmeals": 7892,
      "Ġmixture": 7893,
      "ĠIV": 7894,
      "Ġwheat": 7895,
      "ĠThree": 7896,
      "Ġaffecting": 7897,
      "Ġcommitment": 7898,
      "Ġintensity": 7899,
      "Ġinnovative": 7900,
      "ĠOtt": 7901,
      "Ġobjectives": 7902,
      "gence": 7903,
      "ĠProtection": 7904,
      "ĠLearn": 7905,
      "ĠHand": 7906,
      "Ġworst": 7907,
      "ĠHebrew": 7908,
      "Ġworship": 7909,
      "Ġconce": 7910,
      "Ġowned": 7911,
      "Ġprocessed": 7912,
      "ĠHospital": 7913,
      "Ġprofit": 7914,
      "ĠCoast": 7915,
      "Ġ^": 7916,
      "ĠNeg": 7917,
      "OM": 7918,
      "Ġextend": 7919,
      "Ġbacterial": 7920,
      "Ġcooling": 7921,
      "About": 7922,
      "ĠCross": 7923,
      "print": 7924,
      "asm": 7925,
      "ura": 7926,
      "ĠLead": 7927,
      "ĠStart": 7928,
      "ĠJeff": 7929,
      "ician": 7930,
      "race": 7931,
      "Ġmosquit": 7932,
      "Ġthereby": 7933,
      "Ġappointed": 7934,
      "ali": 7935,
      "Ġquantity": 7936,
      "ĠSet": 7937,
      "Ġasc": 7938,
      "Ġmir": 7939,
      "App": 7940,
      "Ġinsight": 7941,
      "Ġresid": 7942,
      "door": 7943,
      "Ġinteractive": 7944,
      "Ġplanting": 7945,
      "Ġforming": 7946,
      "icular": 7947,
      "Ġheritage": 7948,
      "ĠForce": 7949,
      "Ġwrites": 7950,
      "(s": 7951,
      "Ġarray": 7952,
      "anger": 7953,
      "Ġdecay": 7954,
      "erty": 7955,
      "eut": 7956,
      "Ġavailability": 7957,
      "athered": 7958,
      "ĠLo": 7959,
      "igue": 7960,
      "Ġpoem": 7961,
      "Ġpolar": 7962,
      "urches": 7963,
      "Ġstrain": 7964,
      "PR": 7965,
      "Ġsupplements": 7966,
      "ĠReading": 7967,
      "-res": 7968,
      "ricted": 7969,
      "Ġmoderate": 7970,
      "Ġduty": 7971,
      "Ġbless": 7972,
      "Ġpersonality": 7973,
      "thon": 7974,
      "Ġvertical": 7975,
      "Ġbrush": 7976,
      "Ġargue": 7977,
      "ĠQueen": 7978,
      "Ġrect": 7979,
      "Ġsizes": 7980,
      "iments": 7981,
      "Ġpreserve": 7982,
      "ographical": 7983,
      "Ġconference": 7984,
      "Ġassets": 7985,
      "Ġpin": 7986,
      "ĠMuslim": 7987,
      "oured": 7988,
      "Ġgases": 7989,
      "Ġaddressed": 7990,
      "Ġcontributed": 7991,
      "\"The": 7992,
      "ĠWil": 7993,
      "Ġinhabit": 7994,
      "ĠGeorgia": 7995,
      "Ġplayer": 7996,
      "ĠNov": 7997,
      "Ġtob": 7998,
      "Ġdance": 7999,
      "uber": 8000,
      "ĠCr": 8001,
      "Ġvan": 8002,
      "Ġmathematical": 8003,
      "Ġchannel": 8004,
      "ĠJo": 8005,
      "Ġopposition": 8006,
      "ĠTre": 8007,
      "ĠConservation": 8008,
      "Ġimaging": 8009,
      "Ġadverse": 8010,
      "Ġsuperior": 8011,
      "opyright": 8012,
      "adel": 8013,
      "Ġlosses": 8014,
      "Ġconserv": 8015,
      "ĠKorea": 8016,
      "ĠScotland": 8017,
      "brid": 8018,
      "Ġrobot": 8019,
      "atal": 8020,
      "CH": 8021,
      "Ġmanaging": 8022,
      "otherapy": 8023,
      "ĠCambridge": 8024,
      "Ġcalling": 8025,
      "Ġregarded": 8026,
      "Ġlip": 8027,
      ")||": 8028,
      "Ġlaser": 8029,
      "Ġillegal": 8030,
      "Ġnutrient": 8031,
      "ĠFind": 8032,
      "Ġanalyze": 8033,
      "enger": 8034,
      "Ġuniform": 8035,
      "Ġindigenous": 8036,
      "Ġquarter": 8037,
      "ercury": 8038,
      "ĠMath": 8039,
      "Ġadvent": 8040,
      "ĠMinister": 8041,
      "Ġnice": 8042,
      "ansas": 8043,
      "Ġinequ": 8044,
      "ĠOper": 8045,
      "ĠSurvey": 8046,
      "uten": 8047,
      "ĠCub": 8048,
      "soft": 8049,
      "Ġathlet": 8050,
      "Ġtables": 8051,
      "Ġcovering": 8052,
      "Ġfinger": 8053,
      "Ġhidden": 8054,
      "Per": 8055,
      "neys": 8056,
      "eping": 8057,
      "Step": 8058,
      "Ġachievement": 8059,
      "ĠLight": 8060,
      "amples": 8061,
      "asma": 8062,
      "Ġles": 8063,
      "OD": 8064,
      "Ġsettlement": 8065,
      "ĠChapter": 8066,
      "-known": 8067,
      "cking": 8068,
      "Ġcord": 8069,
      "Ġsimultane": 8070,
      "Ġvariations": 8071,
      "usalem": 8072,
      "Ġkilling": 8073,
      "âĢĶand": 8074,
      "ĠAssess": 8075,
      "Ġcattle": 8076,
      "ĠPennsylvania": 8077,
      "Ġinterventions": 8078,
      "ĠWithout": 8079,
      "rolled": 8080,
      "ĠPakistan": 8081,
      "Ġvitamins": 8082,
      ".M": 8083,
      "Ġdemocracy": 8084,
      "Ġurine": 8085,
      "lines": 8086,
      "Ġtobacco": 8087,
      "Ġunion": 8088,
      "ĠAlzheimer": 8089,
      "endment": 8090,
      "Ġcomprom": 8091,
      "kind": 8092,
      "Ġcounsel": 8093,
      "hus": 8094,
      "Ġproviders": 8095,
      "-century": 8096,
      "rint": 8097,
      "uting": 8098,
      "ĠDivision": 8099,
      "Ġburied": 8100,
      "],": 8101,
      "ĠCorn": 8102,
      "ĠCell": 8103,
      "Ġsettled": 8104,
      "rical": 8105,
      "Ġdietary": 8106,
      "Ġcort": 8107,
      "ĠDutch": 8108,
      "Ġinterface": 8109,
      "-a": 8110,
      "ĠNote": 8111,
      "archy": 8112,
      "Ġexpanded": 8113,
      "ĠMassachusetts": 8114,
      "ĠLiter": 8115,
      "Ġantibiotics": 8116,
      "night": 8117,
      "irms": 8118,
      "Ġpointed": 8119,
      "Ġparameters": 8120,
      "Ġbag": 8121,
      "Ġgrains": 8122,
      "Ġcharacteristic": 8123,
      "ĠPolicy": 8124,
      "Ġtick": 8125,
      "Ġorbit": 8126,
      "Ġchap": 8127,
      "Ġsteam": 8128,
      "Ġlymph": 8129,
      "ĠMah": 8130,
      "Ġcourts": 8131,
      "Ġconsumed": 8132,
      "Ġcalculated": 8133,
      "semb": 8134,
      "Ġoverwhel": 8135,
      "ĠTable": 8136,
      "ptom": 8137,
      "ĠJul": 8138,
      "ĠSand": 8139,
      "Ġfarms": 8140,
      "Ġmine": 8141,
      "Ġcharged": 8142,
      "Ġchemistry": 8143,
      "fts": 8144,
      "Ġstyles": 8145,
      "-N": 8146,
      "Ġherb": 8147,
      "à¥": 8148,
      "ude": 8149,
      "Ġofficer": 8150,
      ".'": 8151,
      "Ġthreatened": 8152,
      "una": 8153,
      "Ġengaging": 8154,
      "iva": 8155,
      "-W": 8156,
      "Ġharder": 8157,
      "ĠBattle": 8158,
      "oli": 8159,
      "Ġadvis": 8160,
      "Ġelder": 8161,
      "Ġparagraph": 8162,
      "pled": 8163,
      "apes": 8164,
      ")|Ċ": 8165,
      "ĠKar": 8166,
      "Ġstones": 8167,
      "ĠLy": 8168,
      "Ġterror": 8169,
      "Ġalive": 8170,
      "Ġseparated": 8171,
      "Ġirrig": 8172,
      "aws": 8173,
      "Ġvisited": 8174,
      "Ġritual": 8175,
      "Pre": 8176,
      "Ġorders": 8177,
      "ĠPolit": 8178,
      "ĠUnfortunately": 8179,
      "Ġbutton": 8180,
      "Ġscope": 8181,
      "Ġphrase": 8182,
      "ĠRh": 8183,
      "Get": 8184,
      "She": 8185,
      "Ġresearcher": 8186,
      "Ġsmell": 8187,
      "aren": 8188,
      "ĠHindu": 8189,
      "mia": 8190,
      "Ġadolesc": 8191,
      "MD": 8192,
      "uro": 8193,
      "Ġprey": 8194,
      "Ø§": 8195,
      "Ġven": 8196,
      "ptic": 8197,
      "Ġcustomer": 8198,
      "Ġease": 8199,
      "Ġecosystems": 8200,
      "Ġrational": 8201,
      "Ġsubstit": 8202,
      "Ġhardware": 8203,
      "Ġmanufacturers": 8204,
      "Under": 8205,
      "arb": 8206,
      "Ġscores": 8207,
      "Ġexploration": 8208,
      "ema": 8209,
      "Ġmyst": 8210,
      "ĠCurrent": 8211,
      "rat": 8212,
      "Ð°": 8213,
      "adow": 8214,
      "Ġcotton": 8215,
      "ĠType": 8216,
      "ĠMichigan": 8217,
      "Ġpanels": 8218,
      "oul": 8219,
      "Ġeducators": 8220,
      "Ġtong": 8221,
      "MA": 8222,
      "encing": 8223,
      "Ġlists": 8224,
      "ega": 8225,
      "Ġsup": 8226,
      "Ġgravity": 8227,
      "Ġhat": 8228,
      "irth": 8229,
      "ipe": 8230,
      "Ġpreced": 8231,
      "Ġpromoting": 8232,
      "Ġpermission": 8233,
      "Ġvegetation": 8234,
      "Ġaimed": 8235,
      "rize": 8236,
      "Ġinterior": 8237,
      "alities": 8238,
      "apor": 8239,
      "Ġalph": 8240,
      "Ġversions": 8241,
      "Also": 8242,
      "ĠColorado": 8243,
      "ĠTop": 8244,
      "Ġsched": 8245,
      "Ġperforming": 8246,
      "Ġfats": 8247,
      "Ġequality": 8248,
      "-inf": 8249,
      "Ġbiodiversity": 8250,
      "Ġinitiative": 8251,
      "eting": 8252,
      "ĠFact": 8253,
      "Note": 8254,
      "azon": 8255,
      "Ġauthent": 8256,
      "Ġpit": 8257,
      "Ġfing": 8258,
      "amps": 8259,
      "Ġresil": 8260,
      "ĠFacebook": 8261,
      "Ġtechnological": 8262,
      "ĠAuthor": 8263,
      "ĠLess": 8264,
      "ĠModern": 8265,
      "Ġelsewhere": 8266,
      "eor": 8267,
      "Ġupdated": 8268,
      "fulness": 8269,
      "Ġaddiction": 8270,
      "ecess": 8271,
      "Ġordinary": 8272,
      "lights": 8273,
      "Ġran": 8274,
      "Ġbuff": 8275,
      "Ġsensitivity": 8276,
      "Ġoxid": 8277,
      "ĠJerusalem": 8278,
      "Ġphysically": 8279,
      "Ġemotion": 8280,
      "Ġtumor": 8281,
      "Ġnarrative": 8282,
      "Ġdeficiency": 8283,
      "hea": 8284,
      "orig": 8285,
      "Ġcreatures": 8286,
      "Ġimprovements": 8287,
      "Ġchances": 8288,
      "Ġfellow": 8289,
      "Ġdress": 8290,
      "Ġye": 8291,
      "Ġdisability": 8292,
      "ĠCho": 8293,
      "ĠVen": 8294,
      "Ġcancers": 8295,
      "Ġsurg": 8296,
      "Ġlungs": 8297,
      "',": 8298,
      "Part": 8299,
      "ket": 8300,
      "Ġbees": 8301,
      "Ġtempor": 8302,
      "Ġliterary": 8303,
      "real": 8304,
      "aret": 8305,
      "Ġbehavioral": 8306,
      "actions": 8307,
      "Ġarguments": 8308,
      "omer": 8309,
      "Ġcapabilities": 8310,
      "Where": 8311,
      "Ġmunicip": 8312,
      "Ġtemporary": 8313,
      "Ġentertain": 8314,
      "ĠCE": 8315,
      "Ġspray": 8316,
      "ĠImp": 8317,
      "Ġfalling": 8318,
      "Ġkeeps": 8319,
      "sor": 8320,
      "Ġexciting": 8321,
      "Ġorange": 8322,
      "Ġstopped": 8323,
      "emb": 8324,
      "Ġreasonable": 8325,
      "Ġexecutive": 8326,
      "CA": 8327,
      "mers": 8328,
      "Ġestablishment": 8329,
      "asts": 8330,
      "NS": 8331,
      "Ġflying": 8332,
      "sts": 8333,
      "sell": 8334,
      "ĠWal": 8335,
      ".html": 8336,
      "ĠBusiness": 8337,
      "Ġhunting": 8338,
      "ĠOnline": 8339,
      "Ġsustainability": 8340,
      "ĠLee": 8341,
      "Ġincident": 8342,
      "Ġfocusing": 8343,
      "Ġcommittee": 8344,
      "ĠElizabeth": 8345,
      "Ġboundaries": 8346,
      "ĠTO": 8347,
      "ĠAL": 8348,
      "iger": 8349,
      "idal": 8350,
      "Ġargued": 8351,
      "ĠPoint": 8352,
      "ĠBack": 8353,
      "Ġcardiovascular": 8354,
      "Ġfisher": 8355,
      "Ġfought": 8356,
      "Ġseat": 8357,
      "Ġholiday": 8358,
      "ĠSar": 8359,
      "Ġrac": 8360,
      "iations": 8361,
      "Ġsevent": 8362,
      "-ex": 8363,
      "Ġwaiting": 8364,
      "Last": 8365,
      "ĠFire": 8366,
      "ĠAnalysis": 8367,
      "ĠRoad": 8368,
      "ĠWay": 8369,
      "ĠModel": 8370,
      "Ġampl": 8371,
      "ĠSystems": 8372,
      "ulpt": 8373,
      "raq": 8374,
      "Ġpsychology": 8375,
      "ĠDC": 8376,
      "mann": 8377,
      "Ġbelieves": 8378,
      "ĠHead": 8379,
      "Ġfuels": 8380,
      "ĠMot": 8381,
      "ĠFar": 8382,
      "Ġfires": 8383,
      "Ġdirections": 8384,
      "-making": 8385,
      "Before": 8386,
      "Ġremarkable": 8387,
      "iop": 8388,
      "ugg": 8389,
      "rection": 8390,
      "Ġclassified": 8391,
      "operative": 8392,
      "Ġdescript": 8393,
      "Ġpreferred": 8394,
      "asy": 8395,
      "Ġantioxid": 8396,
      "Ġhall": 8397,
      "ĠSS": 8398,
      "Ġabstract": 8399,
      "Ġemerging": 8400,
      "Ġwatching": 8401,
      "Ġperceived": 8402,
      "Ġlogic": 8403,
      "Ġmetals": 8404,
      "Ġjur": 8405,
      "Ġdeeply": 8406,
      "ĠUr": 8407,
      "Ġpropag": 8408,
      "Ġlowest": 8409,
      "Ġcolonies": 8410,
      "Ġflexible": 8411,
      "CP": 8412,
      "cyclopedia": 8413,
      "Ġdominant": 8414,
      "Ġconvey": 8415,
      "Ġintroduce": 8416,
      "Ġlens": 8417,
      "utation": 8418,
      "Ġpilot": 8419,
      "ĠObs": 8420,
      "Ġduration": 8421,
      "Ġtrauma": 8422,
      "Ġwisdom": 8423,
      "Ġattitude": 8424,
      "Ġdetermining": 8425,
      "Ġdiffer": 8426,
      "EF": 8427,
      "Ġcompost": 8428,
      "Col": 8429,
      "ivest": 8430,
      "Ġdism": 8431,
      "Ġtelling": 8432,
      "Ġsafely": 8433,
      "Ġtor": 8434,
      "Ġsummary": 8435,
      "Ġvaccines": 8436,
      "Ġspoken": 8437,
      "Ġsentences": 8438,
      "ĠJustice": 8439,
      "lock": 8440,
      "sen": 8441,
      "Ġdistricts": 8442,
      "arbon": 8443,
      "Ġdriver": 8444,
      "Ġcarbohyd": 8445,
      "Ġassumed": 8446,
      "Ġsaved": 8447,
      "agan": 8448,
      "ipher": 8449,
      "ĠFrancisco": 8450,
      "jo": 8451,
      "ĠTry": 8452,
      "advant": 8453,
      "Ġstreets": 8454,
      "Ġgent": 8455,
      "ĠIT": 8456,
      "Ġcontributions": 8457,
      "ĠSpring": 8458,
      "Ġlabour": 8459,
      "anted": 8460,
      "ĠStar": 8461,
      "Ġethical": 8462,
      "http": 8463,
      "Ġquantum": 8464,
      "Ġfet": 8465,
      "HS": 8466,
      "ĠIss": 8467,
      "icity": 8468,
      "Ġgast": 8469,
      "âĢľWe": 8470,
      "Ġconsciousness": 8471,
      "Ġfaces": 8472,
      "Ġremoving": 8473,
      "Ġexped": 8474,
      "berry": 8475,
      "Ġmarg": 8476,
      "ĠPlay": 8477,
      "ĠNavy": 8478,
      "Ġdimens": 8479,
      "istant": 8480,
      "Fig": 8481,
      "Ġhumanity": 8482,
      "Ġdegrad": 8483,
      "Ġcontainer": 8484,
      "ĠAgain": 8485,
      "Ġlock": 8486,
      "Ġexpertise": 8487,
      "Ġrhyth": 8488,
      "zym": 8489,
      "Ġdies": 8490,
      "Ġsocieties": 8491,
      "Hist": 8492,
      "lymp": 8493,
      "ependent": 8494,
      "Ġcorresponding": 8495,
      "ĠAlexander": 8496,
      "Ġcure": 8497,
      "ĠAT": 8498,
      "Ġdim": 8499,
      "Ġgenome": 8500,
      "obile": 8501,
      "ĠBooks": 8502,
      "uum": 8503,
      "Ġwonderful": 8504,
      "ĠDrug": 8505,
      "bec": 8506,
      "atus": 8507,
      "Ġplanets": 8508,
      "Ġpainful": 8509,
      "Ear": 8510,
      "ĠLittle": 8511,
      "ĠFred": 8512,
      "Ġaccompanied": 8513,
      "thod": 8514,
      "ĠPhilipp": 8515,
      "Ġexhibit": 8516,
      "ĠTom": 8517,
      "Ġevening": 8518,
      "ĠContin": 8519,
      "Ġom": 8520,
      "Ġtargeted": 8521,
      "ĠCode": 8522,
      "Ġattach": 8523,
      "Ġevident": 8524,
      "Just": 8525,
      "eries": 8526,
      "ĠPage": 8527,
      "ĠHarvard": 8528,
      "ĠInit": 8529,
      "Ġlimitations": 8530,
      "Ġrecycling": 8531,
      "Ġshed": 8532,
      "Ġengines": 8533,
      "Ġgrounds": 8534,
      "elve": 8535,
      "unc": 8536,
      "Ġinvestigate": 8537,
      "Ġcooperation": 8538,
      "Ġdefinitely": 8539,
      "Ġjoints": 8540,
      "ilson": 8541,
      "Ġroyal": 8542,
      "ĠIslamic": 8543,
      "Ġboat": 8544,
      "Ġchair": 8545,
      "Ġlighting": 8546,
      "Ġdramatic": 8547,
      "Using": 8548,
      "DS": 8549,
      "Ġwider": 8550,
      "ĠPur": 8551,
      "Ġarmed": 8552,
      "Ġequation": 8553,
      "Ġplain": 8554,
      "heet": 8555,
      "Ġecological": 8556,
      "ĠDO": 8557,
      "Ġgeomet": 8558,
      "Ġinfants": 8559,
      "ĠArctic": 8560,
      "ĠIdent": 8561,
      "Ġcommunications": 8562,
      "ĠMA": 8563,
      "Ġappeal": 8564,
      "ailing": 8565,
      "har": 8566,
      "erb": 8567,
      "Ġextension": 8568,
      "Ġlinear": 8569,
      "Cons": 8570,
      "ĠSunday": 8571,
      "olk": 8572,
      "Ġmanager": 8573,
      "lims": 8574,
      "hemistry": 8575,
      "Ġreverse": 8576,
      "ĠBang": 8577,
      "Ġacting": 8578,
      "Ġtransmitted": 8579,
      "Ġoccas": 8580,
      "Ġmembrane": 8581,
      "aints": 8582,
      "Ġpandemic": 8583,
      "ĠIslands": 8584,
      "ĠLaboratory": 8585,
      "Ġaudio": 8586,
      "Ġconclus": 8587,
      "Pub": 8588,
      "books": 8589,
      "HA": 8590,
      "Ã¤": 8591,
      "ĠEconomic": 8592,
      "Each": 8593,
      "ĪĴ": 8594,
      "Ġdifferently": 8595,
      "ĠOl": 8596,
      "ĠHor": 8597,
      "ĠParliament": 8598,
      "Ġtrick": 8599,
      "Ġmothers": 8600,
      "IF": 8601,
      "Ġranging": 8602,
      "Ġreferences": 8603,
      "ĠWildlife": 8604,
      "Ð¾": 8605,
      "Ġlosing": 8606,
      "Ġapplying": 8607,
      "á¹": 8608,
      "Ġadapted": 8609,
      "Ġdipl": 8610,
      "Ġhouseholds": 8611,
      "Ġentering": 8612,
      "Ġexpectations": 8613,
      "Ġminds": 8614,
      "Ġconverted": 8615,
      "Ġconvert": 8616,
      "Ġaging": 8617,
      "Ġrequirement": 8618,
      "erally": 8619,
      "words": 8620,
      "Ġenormous": 8621,
      "Art": 8622,
      "Ġspinal": 8623,
      "Ġbalanced": 8624,
      "Ġdense": 8625,
      "ami": 8626,
      "ĠEPA": 8627,
      "ĠCard": 8628,
      "Ġpriority": 8629,
      "endar": 8630,
      "ivestock": 8631,
      "CE": 8632,
      "Ġtip": 8633,
      "Ġfur": 8634,
      "Ġtow": 8635,
      "ashes": 8636,
      "Ġintegration": 8637,
      "Ġclothes": 8638,
      "Ġwearing": 8639,
      "Ġexisted": 8640,
      "Ġcelebrated": 8641,
      "ĠSecretary": 8642,
      "riendly": 8643,
      "Ġempty": 8644,
      "uan": 8645,
      "Ġclients": 8646,
      "Ġtens": 8647,
      "Ġtelesc": 8648,
      "Ġviolent": 8649,
      "Ġash": 8650,
      "Ġprovince": 8651,
      "Ġexplicit": 8652,
      "aware": 8653,
      "Ġtribes": 8654,
      "ĠHim": 8655,
      "ĠHeart": 8656,
      "Ġclock": 8657,
      "Ġclassical": 8658,
      "Ġloose": 8659,
      "Ġdiscussions": 8660,
      "ĠStan": 8661,
      "Ġion": 8662,
      "Ġcoron": 8663,
      "ĠDiet": 8664,
      "erts": 8665,
      "rix": 8666,
      "Ġfeels": 8667,
      "Ġtraits": 8668,
      "Ġwouldn": 8669,
      "ĠAgriculture": 8670,
      "ĠDown": 8671,
      "agnetic": 8672,
      "Ġsessions": 8673,
      "Ġdeploy": 8674,
      "Ġguess": 8675,
      "Ġversus": 8676,
      "Ġstrike": 8677,
      "Ġactively": 8678,
      "Ġsad": 8679,
      "Ġinvolvement": 8680,
      "Ġpersonnel": 8681,
      "Ġcontrolling": 8682,
      "Ġresc": 8683,
      "inf": 8684,
      "play": 8685,
      "Ġcontinuing": 8686,
      "ĠIce": 8687,
      "Ġnuts": 8688,
      "BT": 8689,
      "Ġatoms": 8690,
      "Ġcul": 8691,
      "pan": 8692,
      "ĠBureau": 8693,
      "Ġcraft": 8694,
      "Ġrestore": 8695,
      "Ġopinions": 8696,
      "Ġhormones": 8697,
      "Ġreadily": 8698,
      "giene": 8699,
      "Ġcough": 8700,
      "ĠMur": 8701,
      "aka": 8702,
      "ĠAsk": 8703,
      "gon": 8704,
      "ĠPalest": 8705,
      "Ġemerged": 8706,
      "Ġbegun": 8707,
      "ĠLin": 8708,
      "Ġ×": 8709,
      "%,": 8710,
      "ĠMach": 8711,
      "ĠIraq": 8712,
      "usive": 8713,
      "ologically": 8714,
      "oves": 8715,
      "thew": 8716,
      "Ġsplit": 8717,
      "ĠID": 8718,
      "Ġweigh": 8719,
      "ĠProcess": 8720,
      "opher": 8721,
      "Ġparad": 8722,
      "Ġhospitals": 8723,
      "wan": 8724,
      "esium": 8725,
      "urse": 8726,
      "Ġuniversities": 8727,
      "Ġproductive": 8728,
      "Ġcollective": 8729,
      "Ġattribut": 8730,
      "Ġinsights": 8731,
      "rob": 8732,
      "ĠCirc": 8733,
      "Ġtap": 8734,
      "unct": 8735,
      "Ġspots": 8736,
      "adelph": 8737,
      "ĠUV": 8738,
      "ĠClick": 8739,
      "ila": 8740,
      "Ġmanual": 8741,
      "Ġdevast": 8742,
      "ĠPortug": 8743,
      "Ġpupils": 8744,
      "Ġtransmit": 8745,
      "----": 8746,
      "Are": 8747,
      "gra": 8748,
      "Ġthread": 8749,
      "Ġaggressive": 8750,
      "ĠDaniel": 8751,
      "Ġentit": 8752,
      "Ġdefault": 8753,
      "ĠChristianity": 8754,
      "Ġasp": 8755,
      "Ġtack": 8756,
      "Ġfacilitate": 8757,
      "Ġvirtually": 8758,
      "Ġcomplexity": 8759,
      "Ġnutritional": 8760,
      "-en": 8761,
      "ĠHelp": 8762,
      "Ġmeaningful": 8763,
      "ba": 8764,
      "ĠCA": 8765,
      "Ġprofile": 8766,
      "Ġtact": 8767,
      "ranean": 8768,
      "Ġwebsites": 8769,
      "Ġdairy": 8770,
      "Ġoccupied": 8771,
      "Ġpill": 8772,
      "oons": 8773,
      "Ġborrow": 8774,
      "Ġpromise": 8775,
      "Ġannually": 8776,
      "Ġdrivers": 8777,
      "Ġhandling": 8778,
      "heets": 8779,
      "ensed": 8780,
      "Ġanticip": 8781,
      "Ġaccurately": 8782,
      ".E": 8783,
      "CR": 8784,
      "inois": 8785,
      "Ġwars": 8786,
      "Ġplanted": 8787,
      "Ġmanifest": 8788,
      "ffective": 8789,
      "Ġeru": 8790,
      "ĠEgyptian": 8791,
      "ĠTemple": 8792,
      "Ġbeat": 8793,
      "Ġconversion": 8794,
      "ĠLast": 8795,
      "Ġcab": 8796,
      "ĠGulf": 8797,
      "Ġenthus": 8798,
      "Ġbarriers": 8799,
      "Ġdesert": 8800,
      "ouds": 8801,
      "Ġcub": 8802,
      "Ġmovie": 8803,
      "Ġshore": 8804,
      "rin": 8805,
      "Ġsaving": 8806,
      "Ġbare": 8807,
      "ĠSection": 8808,
      "ĠPhot": 8809,
      "ĠOlymp": 8810,
      "Ġvictory": 8811,
      "Ġassembly": 8812,
      "ĠInvest": 8813,
      "ĠAvoid": 8814,
      "havior": 8815,
      "Ġmarketing": 8816,
      "ĠMid": 8817,
      "Ġsoils": 8818,
      "Ġlifetime": 8819,
      "rh": 8820,
      "ĠMess": 8821,
      "Ġmouse": 8822,
      "Ġraising": 8823,
      "Ġsacred": 8824,
      "enced": 8825,
      "Ġwelfare": 8826,
      "Ġshaped": 8827,
      "Ġjuice": 8828,
      "estions": 8829,
      "Ġspecialized": 8830,
      "Ġfatigue": 8831,
      "ĠTreatment": 8832,
      "Ġcomputing": 8833,
      "rained": 8834,
      "Ġpets": 8835,
      "Ġnotion": 8836,
      "Ġintention": 8837,
      "Ðµ": 8838,
      "ĠWikipedia": 8839,
      "izers": 8840,
      "Ġlibr": 8841,
      "awa": 8842,
      "Ġspecified": 8843,
      "bell": 8844,
      "ĠOrig": 8845,
      "ĠBlue": 8846,
      "Ġclub": 8847,
      "onday": 8848,
      "ĠIncre": 8849,
      "Ġunn": 8850,
      "ifice": 8851,
      "ĠIndeed": 8852,
      "Ġintegr": 8853,
      "Ġgathered": 8854,
      "Ġsculpt": 8855,
      "Ġaccord": 8856,
      "bean": 8857,
      "Ġveloc": 8858,
      "Ġfriendly": 8859,
      "'d": 8860,
      "May": 8861,
      "Ġreturns": 8862,
      "Ġstrategic": 8863,
      "ocolate": 8864,
      "Ġanger": 8865,
      "Ġprivacy": 8866,
      "Ġpion": 8867,
      "ogy": 8868,
      "Ġshorter": 8869,
      "Ġdil": 8870,
      "assion": 8871,
      "sm": 8872,
      "raine": 8873,
      "Ġtrem": 8874,
      "Ġposts": 8875,
      "Ġtone": 8876,
      "Ġcontents": 8877,
      "ĠLim": 8878,
      "Ġspatial": 8879,
      "olves": 8880,
      "-J": 8881,
      "SP": 8882,
      "Ġthroat": 8883,
      "Ġprecip": 8884,
      "Ġastronom": 8885,
      "izz": 8886,
      "ceans": 8887,
      "Ġsavings": 8888,
      "cin": 8889,
      "Ġorigins": 8890,
      "Ġinvention": 8891,
      "Ġnewspaper": 8892,
      "Ġmyself": 8893,
      "Ġprobability": 8894,
      "Ġaddresses": 8895,
      "Ġabsorb": 8896,
      "Ġstood": 8897,
      "Ġflash": 8898,
      "ackson": 8899,
      "Ġseriously": 8900,
      "Ġvig": 8901,
      "Ġmature": 8902,
      "Ġverb": 8903,
      "Ġnoticed": 8904,
      "Ġestate": 8905,
      "Ġrealized": 8906,
      "Ġhabitats": 8907,
      "Ġcelebrate": 8908,
      "Ġrepresentative": 8909,
      "Ġvegetable": 8910,
      "ois": 8911,
      "Ġwinds": 8912,
      "Ġsodium": 8913,
      "Ġunlikely": 8914,
      "Ġscat": 8915,
      "Despite": 8916,
      "Ġgrades": 8917,
      "uther": 8918,
      "Ġorb": 8919,
      "mm": 8920,
      "Ġattitudes": 8921,
      "Ġdraft": 8922,
      "Ġscheme": 8923,
      "ĠMax": 8924,
      "unning": 8925,
      "Ġtransferred": 8926,
      "adelphia": 8927,
      "mentia": 8928,
      "ĠField": 8929,
      "Ġneurons": 8930,
      "ometer": 8931,
      "Ġears": 8932,
      "Ġpowder": 8933,
      "ĠLos": 8934,
      "Ġchoosing": 8935,
      "Ġapparently": 8936,
      "Google": 8937,
      "Ġol": 8938,
      "ĠHT": 8939,
      "agen": 8940,
      "Ġdigestive": 8941,
      "Ġhypothesis": 8942,
      "ati": 8943,
      "Ġwithdraw": 8944,
      "Com": 8945,
      "ĠConference": 8946,
      "Ġsurgical": 8947,
      "Use": 8948,
      "Ġpurchased": 8949,
      "Ġindirect": 8950,
      "Ġpoetry": 8951,
      "Ġhaven": 8952,
      "issipp": 8953,
      "ateral": 8954,
      "ĠEmer": 8955,
      "Ġchurches": 8956,
      "ĠBuilding": 8957,
      "icating": 8958,
      "Ġanalyzed": 8959,
      "Ġtends": 8960,
      "was": 8961,
      "raham": 8962,
      "Ġsuit": 8963,
      "ĠLew": 8964,
      "Ġclassic": 8965,
      "Ġwat": 8966,
      "Ġreign": 8967,
      "umer": 8968,
      "ĠNeed": 8969,
      "Ġheaven": 8970,
      "arming": 8971,
      "ĠObama": 8972,
      "Ġminimal": 8973,
      "ĠCapt": 8974,
      "icking": 8975,
      "Ġcreativity": 8976,
      "John": 8977,
      "Ġcow": 8978,
      "ĠTown": 8979,
      "Ġgods": 8980,
      "Ġsoph": 8981,
      "Ġpace": 8982,
      "Ġacknowled": 8983,
      "roud": 8984,
      "Ġfunded": 8985,
      "Ġmotivation": 8986,
      "lected": 8987,
      "Ġinfluences": 8988,
      "Ġwal": 8989,
      "cule": 8990,
      "anz": 8991,
      "ĠGall": 8992,
      "Ġsongs": 8993,
      "Ġincent": 8994,
      "Ġrecre": 8995,
      "Ġrestoration": 8996,
      "urable": 8997,
      "Ġpossibilities": 8998,
      "Who": 8999,
      "ĠSeveral": 9000,
      ".J": 9001,
      "Ġcomplement": 9002,
      "oded": 9003,
      "ĠBal": 9004,
      "Ġreplacement": 9005,
      "Ġforecast": 9006,
      "EG": 9007,
      "Ġvaries": 9008,
      "Ġcirculation": 9009,
      "Ġjoy": 9010,
      "Ġearthquake": 9011,
      "Ġdiarr": 9012,
      "ĠAmazon": 9013,
      "uity": 9014,
      "Ġpenet": 9015,
      "Ġcompetitive": 9016,
      "Ġhal": 9017,
      "Ġsale": 9018,
      "Ġspr": 9019,
      "Ġdevelops": 9020,
      "Ġfrust": 9021,
      "oz": 9022,
      "Ġminimize": 9023,
      "Ġsymbols": 9024,
      "ĠAR": 9025,
      "Ġarise": 9026,
      "oca": 9027,
      "Ġoptimal": 9028,
      "OP": 9029,
      "ĠAndrew": 9030,
      "Ġcaps": 9031,
      "ĠSenate": 9032,
      "olt": 9033,
      "ĠMedia": 9034,
      "Ġmedicines": 9035,
      "Ġalign": 9036,
      "Ġgly": 9037,
      "ĠSaint": 9038,
      "Ġrevers": 9039,
      "ĠPerhaps": 9040,
      "ĠConfed": 9041,
      "Sim": 9042,
      "Ġgift": 9043,
      "pectives": 9044,
      "ĠCentury": 9045,
      "Ġcurve": 9046,
      "outheast": 9047,
      "Ġpractition": 9048,
      "Ġflexibility": 9049,
      "Ġresistant": 9050,
      "Ġgraduate": 9051,
      "Ġtherm": 9052,
      "Source": 9053,
      "Ġbeans": 9054,
      "Ġexploring": 9055,
      "Ġvibr": 9056,
      "rip": 9057,
      "ĠFil": 9058,
      "medi": 9059,
      "ĠKey": 9060,
      "Ġownership": 9061,
      "Ġsons": 9062,
      "Ġprescribed": 9063,
      "Ġbreaking": 9064,
      "Ġdeer": 9065,
      "Ġprevalence": 9066,
      "Ġdrinks": 9067,
      "erving": 9068,
      "Like": 9069,
      "Ġglac": 9070,
      "Ġcheap": 9071,
      "ĠMuslims": 9072,
      "-shaped": 9073,
      "Ġoutbreak": 9074,
      "Ġdict": 9075,
      "Ġgif": 9076,
      "EA": 9077,
      "Ġvillages": 9078,
      "Ġpassion": 9079,
      "ĠIllinois": 9080,
      "oil": 9081,
      "Ġpeer": 9082,
      "ais": 9083,
      "ĠCP": 9084,
      "ĠWhether": 9085,
      "Ġparticle": 9086,
      "bour": 9087,
      "Ġtab": 9088,
      "Ġchose": 9089,
      "ĠVietnam": 9090,
      "Ge": 9091,
      "Ġmanagers": 9092,
      "onscious": 9093,
      "Ġembry": 9094,
      "ĠDigital": 9095,
      "ĠRam": 9096,
      "Ġtransc": 9097,
      "ĠSP": 9098,
      "Ġmaxim": 9099,
      "you": 9100,
      "ĠCrit": 9101,
      "ador": 9102,
      "ĠTestament": 9103,
      "Ġreveals": 9104,
      "Ġpaying": 9105,
      ".c": 9106,
      "Two": 9107,
      "ocated": 9108,
      "Ġcompos": 9109,
      "ĠVar": 9110,
      "neum": 9111,
      "Ġprox": 9112,
      "Ġmemor": 9113,
      "Ġviral": 9114,
      "Ġspan": 9115,
      "Ġpersu": 9116,
      "Ġrevenue": 9117,
      "Ġscr": 9118,
      "Ġanalyses": 9119,
      "Ġrefused": 9120,
      "Ġaddressing": 9121,
      "Ġcalculate": 9122,
      "Ġbears": 9123,
      "ĠTH": 9124,
      "uscript": 9125,
      "Ġclay": 9126,
      "icts": 9127,
      "Ġreaches": 9128,
      "Ġ(âĢľ": 9129,
      "ĠOk": 9130,
      "Ġglobe": 9131,
      "Ġdistinguish": 9132,
      "best": 9133,
      "onents": 9134,
      "this": 9135,
      "ĠBu": 9136,
      "regular": 9137,
      "Ġprivile": 9138,
      "Ġadopt": 9139,
      "Ġtongue": 9140,
      "Ne": 9141,
      "Ġscenario": 9142,
      "Ġliterally": 9143,
      "Ġaccomplish": 9144,
      "emies": 9145,
      "amil": 9146,
      "Ġcolony": 9147,
      "Ġpairs": 9148,
      "Ġsees": 9149,
      "Ġbasically": 9150,
      "Ġmeetings": 9151,
      "Ġreproductive": 9152,
      "Ġtill": 9153,
      "Ġadvances": 9154,
      "Ġlingu": 9155,
      "issippi": 9156,
      ".),": 9157,
      "bury": 9158,
      "Ġprime": 9159,
      "ĠÂ£": 9160,
      "-off": 9161,
      "ilst": 9162,
      "Ġpreserved": 9163,
      "Ġrepresenting": 9164,
      "ĠImpro": 9165,
      "ĠMusic": 9166,
      "UL": 9167,
      "Ġspin": 9168,
      "ĠConvention": 9169,
[...]
