{
  "version": "1.0",
  "truncation": null,
  "padding": null,
  "added_tokens": [
    {
      "id": 0,
      "content": "<|bos|>",
      "single_word": false,
      "lstrip": false,
      "rstrip": false,
      "normalized": false,
      "special": true
    },
    {
      "id": 1,
      "content": "<|user_start|>",
      "single_word": false,
      "lstrip": false,
      "rstrip": false,
      "normalized": false,
      "special": true
    },
    {
      "id": 2,
      "content": "<|user_end|>",
      "single_word": false,
      "lstrip": false,
      "rstrip": false,
      "normalized": false,
      "special": true
    },
    {
      "id": 3,
      "content": "<|assistant_start|>",
      "single_word": false,
      "lstrip": false,
      "rstrip": false,
      "normalized": false,
      "special": true
    },
    {
      "id": 4,
      "content": "<|assistant_end|>",
      "single_word": false,
      "lstrip": false,
      "rstrip": false,
      "normalized": false,
      "special": true
    },
    {
      "id": 5,
      "content": "<|python_start|>",
      "single_word": false,
      "lstrip": false,
      "rstrip": false,
      "normalized": false,
      "special": true
    },
    {
      "id": 6,
      "content": "<|python_end|>",
      "single_word": false,
      "lstrip": false,
      "rstrip": false,
      "normalized": false,
      "special": true
    },
    {
      "id": 7,
      "content": "<|output_start|>",
      "single_word": false,
      "lstrip": false,
      "rstrip": false,
      "normalized": false,
      "special": true
    },
    {
      "id": 8,
      "content": "<|output_end|>",
      "single_word": false,
      "lstrip": false,
      "rstrip": false,
      "normalized": false,
      "special": true
    },
    {
      "id": 9,
      "content": "<|unk|>",
      "single_word": false,
      "lstrip": false,
      "rstrip": false,
      "normalized": false,
      "special": true
    }
  ],
  "normalizer": null,
  "pre_tokenizer": {
    "type": "Sequence",
    "pretokenizers": [
      {
        "type": "Split",
        "pattern": {
          "Regex": "'(?i:[sdmt]|ll|ve|re)|[^\\r\\n\\p{L}\\p{N}]?+\\p{L}+|\\p{N}{1,2}| ?[^\\s\\p{L}\\p{N}]++[\\r\\n]*|\\s*[\\r\\n]|\\s+(?!\\S)|\\s+"
        },
        "behavior": "Isolated",
        "invert": false
      },
      {
        "type": "ByteLevel",
        "add_prefix_space": false,
        "trim_offsets": true,
        "use_regex": false
      }
    ]
  },
  "post_processor": {
    "type": "TemplateProcessing",
    "single": [
      {
        "Sequence": {
          "id": "A",
          "type_id": 0
        }
      }
    ],
    "pair": [
      {
        "Sequence": {
          "id": "A",
          "type_id": 0
        }
      },
      {
        "Sequence": {
          "id": "B",
          "type_id": 1
        }
      }
    ],
    "special_tokens": {}
  },
  "decoder": null,
  "model": {
    "type": "Unigram",
    "unk_id": 9,
    "vocab": [
      [
        "<|bos|>",
        0.0
      ],
      [
        "<|user_start|>",
        0.0
      ],
      [
        "<|user_end|>",
        0.0
      ],
      [
        "<|assistant_start|>",
        0.0
      ],
      [
        "<|assistant_end|>",
        0.0
      ],
      [
        "<|python_start|>",
        0.0
      ],
      [
        "<|python_end|>",
        0.0
      ],
      [
        "<|output_start|>",
        0.0
      ],
      [
        "<|output_end|>",
        0.0
      ],
      [
        "<|unk|>",
        0.0
      ],
      [
        "s",
        -3.145768466113429
      ],
      [
        "Ġ",
        -3.2038758655176967
      ],
      [
        "Ġthe",
        -3.3881383462767634
      ],
      [
        ",",
        -3.434953380283682
      ],
      [
        ".",
        -3.7230780286238794
      ],
      [
        "Ġand",
        -3.92364690578702
      ],
      [
        "Ġof",
        -3.97051863413968
      ],
      [
        "Ġto",
        -3.9773340093373903
      ],
      [
        "a",
        -4.052715541995873
      ],
      [
        "ing",
        -4.364549941164926
      ],
      [
        "Ġin",
        -4.483800256546015
      ],
      [
        "Ġis",
        -4.601330953582547
      ],
      [
        "ed",
        -4.8342643505866345
      ],
      [
        "'",
        -4.887900904165676
      ],
      [
        "0",
        -4.986625586804848
      ],
      [
        "Ġthat",
        -5.004398592092688
      ],
      [
        "Ġfor",
        -5.041427845487648
      ],
      [
        "d",
        -5.074997452176239
      ],
      [
        "y",
        -5.089197010397585
      ],
      [
        "Ċ",
        -5.138250694955925
      ],
      [
        "1",
        -5.149795434263737
      ],
      [
        ":",
        -5.177457765458364
      ],
      [
        "Ġare",
        -5.224495219850118
      ],
      [
        "ly",
        -5.250027626954701
      ],
      [
        "e",
        -5.262725736409191
      ],
      [
        ".Ċ",
        -5.270422092179912
      ],
      [
        "Ġyou",
        -5.300415537090943
      ],
      [
        ".ĊĊ",
        -5.310029386208296
      ],
      [
        "Ġit",
        -5.314333286448097
      ],
      [
        "2",
        -5.330884723519565
      ],
      [
        "Ġwith",
        -5.354449282470645
      ],
      [
        "Ġbe",
        -5.447589747099688
      ],
      [
        "Ġon",
        -5.4807325633092585
      ],
      [
        "Ġcan",
        -5.501297410926771
      ],
      [
        "Ġor",
        -5.516394371576258
      ],
      [
        "Ġas",
        -5.524445579881984
      ],
      [
        "t",
        -5.60811299325241
      ],
      [
        "-",
        -5.683737317816897
      ],
      [
        "ĊĊ",
        -5.698430990797265
      ],
      [
        "Ġyour",
        -5.711444166079385
      ],
      [
        "Ġ(",
        -5.742380337808163
      ],
      [
        "Ġhave",
        -5.854589843340115
      ],
      [
        "\"",
        -5.885021065466958
      ],
      [
        "Ġfrom",
        -5.888518878948645
      ],
      [
        "ĠThe",
        -5.91432513855548
      ],
      [
        "ĠI",
        -5.915693150615878
      ],
      [
        "Ġby",
        -5.972627404522646
      ],
      [
        "Ġan",
        -5.994303669760098
      ],
      [
        "3",
        -5.998893269132205
      ],
      [
        ")",
        -6.002215302092322
      ],
      [
        "Ġthis",
        -6.028044410494761
      ],
      [
        "5",
        -6.046395508910161
      ],
      [
        "?",
        -6.0878871061860735
      ],
      [
        "Ġnot",
        -6.090695401429993
      ],
      [
        "Ġat",
        -6.116132682424951
      ],
      [
        "Ġwill",
        -6.170341201407664
      ],
      [
        "4",
        -6.18139260089348
      ],
      [
        "Ġtheir",
        -6.203356776120497
      ],
      [
        "Ġthey",
        -6.316708727867999
      ],
      [
        "Ġmore",
        -6.32722416960341
      ],
      [
        "9",
        -6.335790824002627
      ],
      [
        "Ġwas",
        -6.365365095497319
      ],
      [
        "The",
        -6.387426807295482
      ],
      [
        "6",
        -6.455714962430344
      ],
      [
        "Ġwe",
        -6.463672485282197
      ],
      [
        "Ġbut",
        -6.478875441124538
      ],
      [
        "Ġwhich",
        -6.488607685968695
      ],
      [
        "Ġhas",
        -6.495087595319244
      ],
      [
        "8",
        -6.516059277335698
      ],
      [
        "Ġone",
        -6.540412616978347
      ],
      [
        "Ġother",
        -6.5525368372019255
      ],
      [
        "Question",
        -6.5782835790858485
      ],
      [
        "n",
        -6.581948058937778
      ],
      [
        "Ġalso",
        -6.5824105131667
      ],
      [
        "ĠAnswer",
        -6.5999413916874605
      ],
      [
        "7",
        -6.613297595795435
      ],
      [
        "Ġabout",
        -6.649198451406068
      ],
      [
        "Ġall",
        -6.650932291632861
      ],
      [
        "Ġwhen",
        -6.720703622969433
      ],
      [
        "ĠIt",
        -6.728728443612592
      ],
      [
        "ies",
        -6.744039719277879
      ],
      [
        "Ġdo",
        -6.746237318651014
      ],
      [
        "Ġif",
        -6.758818318294518
      ],
      [
        "Ġuse",
        -6.767521187645086
      ],
      [
        "Ġtime",
        -6.769251730610675
      ],
      [
        "Ġinto",
        -6.775474216094532
      ],
      [
        "ĠA",
        -6.778736529399335
      ],
      [
        "Ġthem",
        -6.783990943847167
      ],
      [
        "Ġlike",
        -6.792109029388206
      ],
      [
        "Ġso",
        -6.82560172516434
      ],
      [
        "Ġhow",
        -6.838131153517919
      ],
      [
        "Ġmay",
        -6.839094528840091
      ],
      [
        "ĠThis",
        -6.848664819390043
      ],
      [
        "Ġup",
        -6.85163304719662
      ],
      [
        "Ġsome",
        -6.88539051051028
      ],
      [
        "ĠWhat",
        -6.900251638725383
      ],
      [
        "Ġthan",
        -6.90655633375607
      ],
      [
        "Ġout",
        -6.906863748572009
      ],
      [
        "er",
        -6.9094243487280504
      ],
      [
        "Ġthese",
        -6.935887015578249
      ],
      [
        "on",
        -6.941191072935883
      ],
      [
        "Ġthere",
        -6.9521041358990825
      ],
      [
        "Ġwhat",
        -6.971652706897295
      ],
      [
        "Ġwater",
        -6.9717653369117265
      ],
      [
        "Ġany",
        -6.973045880018924
      ],
      [
        "i",
        -6.984333946500206
      ],
      [
        "Ġused",
        -7.000783416001836
      ],
      [
        "Ġneed",
        -7.018131650371037
      ],
      [
        "Ġour",
        -7.019012293053576
      ],
      [
        "Ġmake",
        -7.039738113219682
      ],
      [
        "A",
        -7.040648853448191
      ],
      [
        "If",
        -7.04133196971126
      ],
      [
        "Ġget",
        -7.081868815682391
      ],
      [
        "Ġmost",
        -7.086439125231907
      ],
      [
        "r",
        -7.096678050807181
      ],
      [
        "Ġwere",
        -7.101542991417565
      ],
      [
        "Ġsuch",
        -7.111944594140205
      ],
      [
        "re",
        -7.122894671699099
      ],
      [
        "ĠIn",
        -7.13807247252344
      ],
      [
        "Ġbeen",
        -7.149483173542176
      ],
      [
        "Ġpeople",
        -7.149979231459257
      ],
      [
        "o",
        -7.153816581073578
      ],
      [
        "Ġhelp",
        -7.1564307200578146
      ],
      [
        "m",
        -7.159526372944608
      ],
      [
        "Ġshould",
        -7.161077902169039
      ],
      [
        "able",
        -7.186048414827898
      ],
      [
        "Ġnew",
        -7.19458265343526
      ],
      [
        "Ġwho",
        -7.199303763439783
      ],
      [
        "Ġwould",
        -7.199784667379587
      ],
      [
        "Ġits",
        -7.201874425566309
      ],
      [
        "Ġonly",
        -7.230461508261277
      ],
      [
        "Ġjust",
        -7.241666873676637
      ],
      [
        "Ġmany",
        -7.259362498130347
      ],
      [
        "Ġtwo",
        -7.2782864202200415
      ],
      [
        "Ġhigh",
        -7.279245255140275
      ],
      [
        "/",
        -7.293651877404512
      ],
      [
        "Ġwell",
        -7.309373011127027
      ],
      [
        "Ġwork",
        -7.318089322566529
      ],
      [
        ";",
        -7.325074197722023
      ],
      [
        "Ġover",
        -7.335067188865425
      ],
      [
        "Ġmy",
        -7.339958190313352
      ],
      [
        "Ġway",
        -7.34005304339292
      ],
      [
        "Ġbetween",
        -7.3522494291090545
      ],
      [
        "?Ċ",
        -7.358345447669741
      ],
      [
        "Ġfirst",
        -7.360129882245914
      ],
      [
        "Ġdifferent",
        -7.361197947893194
      ],
      [
        "Ġthrough",
        -7.374450909507813
      ],
      [
        "I",
        -7.374766668381646
      ],
      [
        "ity",
        -7.388462477287646
      ],
      [
        "Ġwhere",
        -7.389838244597282
      ],
      [
        "Ġusing",
        -7.408286987087655
      ],
      [
        "ever",
        -7.427361942056676
      ],
      [
        "Ġlong",
        -7.429930984051099
      ],
      [
        "!",
        -7.430507757464765
      ],
      [
        "Ġno",
        -7.43406367401804
      ],
      [
        "Ġcould",
        -7.462900878341079
      ],
      [
        "Ġlook",
        -7.480622283890909
      ],
      [
        "Ġbecaus",
        -7.481761442266594
      ],
      [
        "Ġvery",
        -7.492212069675007
      ],
      [
        "Ġeven",
        -7.502901169943799
      ],
      [
        "Ġthen",
        -7.512201346031182
      ],
      [
        "ĠThey",
        -7.546273933384032
      ],
      [
        "al",
        -7.546588522920574
      ],
      [
        "ĠHow",
        -7.546595437450243
      ],
      [
        "Ġsystem",
        -7.5489977053674195
      ],
      [
        "Ġeach",
        -7.551818116481312
      ],
      [
        "Ġmuch",
        -7.558490520515223
      ],
      [
        "Ġimportant",
        -7.569003066874037
      ],
      [
        "Ġhad",
        -7.569341034090142
      ],
      [
        "c",
        -7.570040934247983
      ],
      [
        "Ġknow",
        -7.571731412854685
      ],
      [
        "Ġprovide",
        -7.580727769901937
      ],
      [
        "Ġhe",
        -7.592474418841343
      ],
      [
        "Ġdoes",
        -7.599036175308061
      ],
      [
        "?ĊĊ",
        -7.601417694449566
      ],
      [
        "Ġhealth",
        -7.603019275561632
      ],
      [
        "Ġgood",
        -7.604174344521766
      ],
      [
        "Ġfood",
        -7.613280698153837
      ],
      [
        "l",
        -7.613306195649113
      ],
      [
        "ĠâĢĵ",
        -7.613782516406015
      ],
      [
        "ĠYou",
        -7.619175808841865
      ],
      [
        "Ġtake",
        -7.627913672368409
      ],
      [
        "Ġsee",
        -7.636483898449558
      ],
      [
        "Ġhis",
        -7.639391750912379
      ],
      [
        "In",
        -7.641049263684138
      ],
      [
        "Ġdon",
        -7.64880069240191
      ],
      [
        "Ġwhile",
        -7.650518791092761
      ],
      [
        "Ġcause",
        -7.666074935692986
      ],
      [
        "Ġbefore",
        -7.667795895216493
      ],
      [
        "Ġyears",
        -7.668524500952353
      ],
      [
        ").",
        -7.683736864182409
      ],
      [
        "Ġworld",
        -7.687610695136756
      ],
      [
        "Ġafter",
        -7.709494133907581
      ],
      [
        "Ġwant",
        -7.718697269534372
      ],
      [
        "ĠC",
        -7.719552744978158
      ],
      [
        "ve",
        -7.721949831679732
      ],
      [
        "Ġduring",
        -7.7299502333544226
      ],
      [
        "Ġevery",
        -7.734390548583866
      ],
      [
        "Ġcome",
        -7.73823503597308
      ],
      [
        "Ġaround",
        -7.740867891015588
      ],
      [
        "Ġenergy",
        -7.743543007250423
      ],
      [
        "Ġsame",
        -7.746295043562217
      ],
      [
        "Ġlife",
        -7.762962626719355
      ],
      [
        "Ġboth",
        -7.764054953782267
      ],
      [
        "Ġgreat",
        -7.768365826641101
      ],
      [
        "Ġbeing",
        -7.773583008547075
      ],
      [
        "Ġarea",
        -7.774207054949432
      ],
      [
        "us",
        -7.777039537940874
      ],
      [
        "Ġthose",
        -7.779496273660444
      ],
      [
        "Ġright",
        -7.78197166582421
      ],
      [
        "Ġdata",
        -7.797547704898971
      ],
      [
        "Ġoften",
        -7.798464401392275
      ],
      [
        "Ġback",
        -7.804624862304408
      ],
      [
        "Ġallow",
        -7.807439509952287
      ],
      [
        "Ġdesign",
        -7.812671975952821
      ],
      [
        "Ġinclude",
        -7.813415979346045
      ],
      [
        "What",
        -7.818042943363311
      ],
      [
        "Ġbody",
        -7.823298642286257
      ],
      [
        "Ġprocess",
        -7.825252850808317
      ],
      [
        "Ġpart",
        -7.829077259963132
      ],
      [
        "Ġfind",
        -7.83377436636475
      ],
      [
        "Ġsmall",
        -7.83434501377965
      ],
      [
        "Ġdown",
        -7.83599887208349
      ],
      [
        "),",
        -7.840190778356249
      ],
      [
        "Ġday",
        -7.842106972837488
      ],
      [
        "Ġfound",
        -7.842231095108902
      ],
      [
        "Ġbest",
        -7.847380508245653
      ],
      [
        "%",
        -7.848499002588385
      ],
      [
        "(",
        -7.850673293717806
      ],
      [
        "Ġlight",
        -7.851762379896458
      ],
      [
        "Ġmade",
        -7.86556784229821
      ],
      [
        "Ġkeep",
        -7.870004142538605
      ],
      [
        "ĠWe",
        -7.876297770113613
      ],
      [
        "g",
        -7.886104196177708
      ],
      [
        "Ġincrease",
        -7.9089988680129135
      ],
      [
        "h",
        -7.909237641128019
      ],
      [
        "Ġyear",
        -7.909797349106984
      ],
      [
        "Ġcreate",
        -7.912677187329104
      ],
      [
        "Ġhome",
        -7.913513693824671
      ],
      [
        "Ġrequire",
        -7.914476208996389
      ],
      [
        "Ġsaid",
        -7.92939791483872
      ],
      [
        "Ġinformation",
        -7.93046539501543
      ],
      [
        "in",
        -7.935549516161284
      ],
      [
        "Ġnumber",
        -7.936702120881106
      ],
      [
        "ĠFor",
        -7.939091879087911
      ],
      [
        "Ġus",
        -7.942873654421685
      ],
      [
        "p",
        -7.949328064871459
      ],
      [
        "How",
        -7.949443544022287
      ],
      [
        "Ġtemperature",
        -7.952441893195159
      ],
      [
        ":Ċ",
        -7.954933445378543
      ],
      [
        "ness",
        -7.957221886140598
      ],
      [
        "Ġinclud",
        -7.963156384316177
      ],
      [
        "ll",
        -7.963568522066753
      ],
      [
        "Ġcondition",
        -7.965549947564243
      ],
      [
        "Ġoff",
        -7.967567993708848
      ],
      [
        "Ġstudents",
        -7.973964374425524
      ],
      [
        "This",
        -7.974350393015662
      ],
      [
        "Ġplant",
        -7.974633000523708
      ],
      [
        "Ġnow",
        -7.9823282707567795
      ],
      [
        "Ġform",
        -7.985762955942242
      ],
      [
        "Ġpower",
        -7.985851175251332
      ],
      [
        "Ġspecies",
        -7.988576309303545
      ],
      [
        "Ġlarge",
        -7.988676238084771
      ],
      [
        "Ġplants",
        -7.989345923258535
      ],
      [
        "ĠB",
        -7.991123828651951
      ],
      [
        "Ġresearch",
        -7.994273750158387
      ],
      [
        "Ġmight",
        -8.000463357939115
      ],
      [
        "is",
        -8.00138246214039
      ],
      [
        "Ġgo",
        -8.00281254551022
      ],
      [
        "Ġhuman",
        -8.00290302890994
      ],
      [
        "x",
        -8.003592506528273
      ],
      [
        "Ġstart",
        -8.004087164856271
      ],
      [
        "ĠThese",
        -8.00480676835069
      ],
      [
        "Ġstudy",
        -8.008930067453102
      ],
      [
        "Ġwithout",
        -8.011031138179414
      ],
      [
        "Ġplace",
        -8.013038004488303
      ],
      [
        "Ġbetter",
        -8.01362805515148
      ],
      [
        "Ġfew",
        -8.015861343763794
      ],
      [
        "ability",
        -8.021303207990751
      ],
      [
        "Ġdog",
        -8.023936967234327
      ],
      [
        "Ġbecome",
        -8.024678358513254
      ],
      [
        "Ġthink",
        -8.027397717851075
      ],
      [
        "Ġchange",
        -8.029778060066178
      ],
      [
        "Ġmean",
        -8.0299682243776
      ],
      [
        "Ġair",
        -8.031550895347046
      ],
      [
        "Ġexample",
        -8.031803665086382
      ],
      [
        "Ġown",
        -8.038183437450352
      ],
      [
        "based",
        -8.041635979314208
      ],
      [
        "Ġstill",
        -8.042466903127359
      ],
      [
        "Ġme",
        -8.051712694582799
      ],
      [
        "ic",
        -8.053872266698718
      ],
      [
        "Ġtoo",
        -8.060482136036903
      ],
      [
        "Ġgroup",
        -8.07173176314229
      ],
      [
        "Ġcommon",
        -8.075561217286769
      ],
      [
        "Ġcontrol",
        -8.076490966777476
      ],
      [
        "Ġlead",
        -8.078554120430432
      ],
      [
        "S",
        -8.079518331775347
      ],
      [
        "Ġunder",
        -8.08297434751553
      ],
      [
        "Ġsupport",
        -8.089691410269662
      ],
      [
        "Ġpotential",
        -8.089959459970117
      ],
      [
        "...",
        -8.096519859470773
      ],
      [
        "Ġtype",
        -8.099413547110814
      ],
      [
        "It",
        -8.102999980969688
      ],
      [
        "Ġher",
        -8.107604946193877
      ],
      [
        "ĠTo",
        -8.108625074742124
      ],
      [
        "Ġend",
        -8.110639452957232
      ],
      [
        "Ġmaking",
        -8.111213441628479
      ],
      [
        "Ġchildren",
        -8.112553943939004
      ],
      [
        "est",
        -8.118183634118154
      ],
      [
        "and",
        -8.120676357651657
      ],
      [
        "Ġthree",
        -8.122190203964358
      ],
      [
        "Ġless",
        -8.123253850007163
      ],
      [
        "Ġgive",
        -8.124454661914164
      ],
      [
        "um",
        -8.131148380051965
      ],
      [
        "ĠBut",
        -8.131158650871575
      ],
      [
        "Ġwithin",
        -8.132949367734293
      ],
      [
        "Ġlot",
        -8.135990567072774
      ],
      [
        "âĢĻ",
        -8.136042095989643
      ],
      [
        "Ġknown",
        -8.136763371492261
      ],
      [
        "Ġdisease",
        -8.140816759504638
      ],
      [
        "Ġexperience",
        -8.140831346921606
      ],
      [
        "Ġnatural",
        -8.141584493072548
      ],
      [
        "Ġgrow",
        -8.14168768853951
      ],
      [
        "Ġschool",
        -8.142149895143596
      ],
      [
        "f",
        -8.14448412464229
      ],
      [
        "Ġmust",
        -8.150837876418043
      ],
      [
        "Ġset",
        -8.154996331584533
      ],
      [
        "ĠAnd",
        -8.157608840684784
      ],
      [
        "Ġthings",
        -8.167155662011632
      ],
      [
        "Ġrisk",
        -8.17095648439219
      ],
      [
        ":ĊĊ",
        -8.175570871298845
      ],
      [
        "C",
        -8.17712767633191
      ],
      [
        "Ġsure",
        -8.191817381085446
      ],
      [
        "D",
        -8.196801929225739
      ],
      [
        "Ġenvironment",
        -8.199397366482735
      ],
      [
        "Ġindividual",
        -8.201164372638253
      ],
      [
        "Ġdue",
        -8.201894422069632
      ],
      [
        "ĠS",
        -8.205157158403493
      ],
      [
        "ĠWhen",
        -8.207975307558236
      ],
      [
        "Ġwhy",
        -8.209023025007728
      ],
      [
        "Ġpoint",
        -8.209179738921398
      ],
      [
        "Ġdevelop",
        -8.21021369653489
      ],
      [
        "Ġcalled",
        -8.210768989081513
      ],
      [
        "Ġreally",
        -8.213306602666272
      ],
      [
        "Ġspecific",
        -8.216272887555844
      ],
      [
        "Ġlow",
        -8.2352103734698
      ],
      [
        "Ġplay",
        -8.235486849355768
      ],
      [
        "ĠE",
        -8.23735710535897
      ],
      [
        "Ġproject",
        -8.238361414484684
      ],
      [
        "Ġreduce",
        -8.24050575293316
      ],
      [
        "Ġrange",
        -8.241985684064678
      ],
      [
        "Ġhere",
        -8.247360031214608
      ],
      [
        "Ġprevent",
        -8.247946640599102
      ],
      [
        "Ġanother",
        -8.250539353114178
      ],
      [
        "Ġcar",
        -8.251202371801632
      ],
      [
        "Ġensure",
        -8.251574706250809
      ],
      [
        "Ġblood",
        -8.252104141728184
      ],
      [
        "Ġmain",
        -8.252186298234273
      ],
      [
        "Ġvalue",
        -8.252373314811091
      ],
      [
        "Ġlevel",
        -8.253418322930063
      ],
      [
        "Ġun",
        -8.257351126679017
      ],
      [
        "Ġadd",
        -8.25791522057836
      ],
      [
        "Ġbenefit",
        -8.263579199027609
      ],
      [
        "the",
        -8.264431896387286
      ],
      [
        "ation",
        -8.268686426157707
      ],
      [
        "Ġpossible",
        -8.271682735780445
      ],
      [
        "Ġtry",
        -8.273279441851386
      ],
      [
        "Ġcolor",
        -8.274187796795594
      ],
      [
        "Ġgoing",
        -8.281503251427978
      ],
      [
        "ĠSo",
        -8.28318294771396
      ],
      [
        "Ġcurrent",
        -8.285020507779226
      ],
      [
        "Ġalways",
        -8.287231188232262
      ],
      [
        "Ġfollowing",
        -8.287855348943324
      ],
      [
        "Ġsomething",
        -8.289030441484421
      ],
      [
        "Ġcare",
        -8.289093070893948
      ],
      [
        "Ġheat",
        -8.29580546154137
      ],
      [
        "Ġper",
        -8.296446889584246
      ],
      [
        "ĠM",
        -8.298190620266205
      ],
      [
        "Ġvarious",
        -8.299755364291304
      ],
      [
        "Ġamount",
        -8.300417768394487
      ],
      [
        "ĠThere",
        -8.3035418078092
      ],
      [
        "Ġproblem",
        -8.305069332583841
      ],
      [
        "Ġturn",
        -8.30742790591462
      ],
      [
        "Ġfactor",
        -8.310859723677794
      ],
      [
        "Ġsource",
        -8.311717394654007
      ],
      [
        "Ġfish",
        -8.314304895071084
      ],
      [
        "Ġtree",
        -8.316888461714381
      ],
      [
        "Ġdid",
        -8.319031472960763
      ],
      [
        "Ġtest",
        -8.320878303914185
      ],
      [
        "Ġusual",
        -8.323186717168888
      ],
      [
        "Ġconsider",
        -8.324581343104901
      ],
      [
        "Ġpresent",
        -8.338419166597317
      ],
      [
        "Ġlast",
        -8.339887629630756
      ],
      [
        "Ġshow",
        -8.34583044887436
      ],
      [
        "Ġresult",
        -8.348562765771916
      ],
      [
        "Ġsize",
        -8.348824402522016
      ],
      [
        "Ġsoil",
        -8.350665628599458
      ],
      [
        "Ġlittle",
        -8.357623697553631
      ],
      [
        "Ġlearn",
        -8.363162182443645
      ],
      [
        "Ġorder",
        -8.363173965706679
      ],
      [
        "th",
        -8.36471018415578
      ],
      [
        "Ġteam",
        -8.367661582341892
      ],
      [
        "Ġspace",
        -8.382312614541984
      ],
      [
        "Ġquality",
        -8.384273780882829
      ],
      [
        "Ġavailable",
        -8.387876281831918
      ],
      [
        "Ġdevelopment",
        -8.387894437896914
      ],
      [
        "Ġanimals",
        -8.388339748328864
      ],
      [
        "Ġtext",
        -8.390293926353772
      ],
      [
        "Ġopen",
        -8.397599017480536
      ],
      [
        "Ġlive",
        -8.3994537339196
      ],
      [
        "Ġgeneral",
        -8.403629429346449
      ],
      [
        "Ġcells",
        -8.406875986995477
      ],
      [
        "ĠAs",
        -8.415103152283633
      ],
      [
        "Ġlearning",
        -8.42539441471341
      ],
      [
        "Ġenough",
        -8.426294432042507
      ],
      [
        "Ġcertain",
        -8.42651792076868
      ],
      [
        "Ġsolution",
        -8.427845391682848
      ],
      [
        "thing",
        -8.42797591722146
      ],
      [
        ",\"",
        -8.42845167096998
      ],
      [
        "ĠD",
        -8.429012110723438
      ],
      [
        "less",
        -8.432258004210762
      ],
      [
        "Ġessential",
        -8.43349632201473
      ],
      [
        "Ġpressure",
        -8.434900014118213
      ],
      [
        "+",
        -8.435188635130126
      ],
      [
        "Ġseveral",
        -8.435245730746125
      ],
      [
        "Ġmodel",
        -8.442849875086857
      ],
      [
        "Ġterm",
        -8.443721603757393
      ],
      [
        "Ġname",
        -8.445368461586146
      ],
      [
        "Ġshe",
        -8.445899092285766
      ],
      [
        "Ġtogether",
        -8.447331866459518
      ],
      [
        "ally",
        -8.455272206421768
      ],
      [
        "Ġnear",
        -8.455443056683013
      ],
      [
        "Ġfeel",
        -8.455503130310763
      ],
      [
        "Ġsurface",
        -8.45606558448134
      ],
      [
        "Ġweek",
        -8.459853685335698
      ],
      [
        "Ġfunction",
        -8.460516751383343
      ],
      [
        "Ġweight",
        -8.460623826927996
      ],
      [
        "Ġleave",
        -8.461661019031324
      ],
      [
        "Ġtypes",
        -8.461899346362857
      ],
      [
        "Ġacid",
        -8.462545431634858
      ],
      [
        "ĠWhich",
        -8.462874991874077
      ],
      [
        "or",
        -8.466074865472935
      ],
      [
        "Ġ&",
        -8.46656262359382
      ],
      [
        "Ġprotein",
        -8.467449851912896
      ],
      [
        "When",
        -8.469753552285509
      ],
      [
        "Ġoil",
        -8.470324078658496
      ],
      [
        "Ġhappen",
        -8.471231156701672
      ],
      [
        "Ġdifference",
        -8.472289056959202
      ],
      [
        "Ġrole",
        -8.472308461027655
      ],
      [
        "Ġdamage",
        -8.472364505188583
      ],
      [
        "Ġnon",
        -8.473710976140353
      ],
      [
        "Ġage",
        -8.476116897298805
      ],
      [
        "Ġunderstand",
        -8.477714325219564
      ],
      [
        "Ġtreatment",
        -8.481645165326231
      ],
      [
        "Ġstate",
        -8.483364927130975
      ],
      [
        "Ġput",
        -8.48530432319438
      ],
      [
        "Ġtechnology",
        -8.485736479537035
      ],
      [
        "b",
        -8.4864754768168
      ],
      [
        "Ġhard",
        -8.48872847242775
      ],
      [
        "Ġsay",
        -8.4887575611707
      ],
      [
        "Ġlocal",
        -8.490742672148205
      ],
      [
        "Ġ$",
        -8.492207914755756
      ],
      [
        "Ġimpact",
        -8.50277590513808
      ],
      [
        "Ġaway",
        -8.503001324261932
      ],
      [
        "Ġproduce",
        -8.50334244865216
      ],
      [
        "Ġsystems",
        -8.509769351235047
      ],
      [
        "Ġproblems",
        -8.510279880012712
      ],
      [
        "Ġmaterial",
        -8.511953922862551
      ],
      [
        "Ġgarden",
        -8.512150625116838
      ],
      [
        "Ġdirect",
        -8.514101753123612
      ],
      [
        "Ġtop",
        -8.514162573435543
      ],
      [
        "Ġfree",
        -8.515430381306548
      ],
      [
        "Ġmethod",
        -8.517419908509332
      ],
      [
        "Ġside",
        -8.51863674927274
      ],
      [
        "Ġcase",
        -8.519191991237648
      ],
      [
        "Ġperson",
        -8.519545893234355
      ],
      [
        "Ġsince",
        -8.522741865636121
      ],
      [
        "Ġhand",
        -8.52393645361424
      ],
      [
        "You",
        -8.526805219105832
      ],
      [
        "Ġcost",
        -8.527759879146952
      ],
      [
        "Ġalong",
        -8.529091803580144
      ],
      [
        "Ġ=",
        -8.52988649586777
      ],
      [
        "Ġresults",
        -8.533574992565818
      ],
      [
        "Ġfield",
        -8.534788891848557
      ],
      [
        "Ġneeds",
        -8.541195619880181
      ],
      [
        "Ġpractice",
        -8.541378709330228
      ],
      [
        "Ġmaterials",
        -8.543420811332165
      ],
      [
        "Ġfocus",
        -8.547652383781017
      ],
      [
        "Ġproper",
        -8.54808239217196
      ],
      [
        "Ġshort",
        -8.548741367458998
      ],
      [
        "Ġlet",
        -8.551806969999848
      ],
      [
        "Ġmaintain",
        -8.553038426316999
      ],
      [
        "Ġlevels",
        -8.553236062636902
      ],
      [
        "Ġlove",
        -8.555201323274435
      ],
      [
        "Ġdiet",
        -8.557224820079508
      ],
      [
        "ĠThat",
        -8.559428369721871
      ],
      [
        "Ġprogram",
        -8.560011836945655
      ],
      [
        "Ġhaving",
        -8.560500391884519
      ],
      [
        "least",
        -8.561833243124704
      ],
      [
        "Ġobject",
        -8.562082298039261
      ],
      [
        "Ġfamily",
        -8.563167392378581
      ],
      [
        "Ġphysical",
        -8.566495458208315
      ],
      [
        "Ġcomputer",
        -8.566644945060702
      ],
      [
        "Ġuntil",
        -8.566765808188087
      ],
      [
        "We",
        -8.567402502981228
      ],
      [
        "Ġsecond",
        -8.568215345218803
      ],
      [
        "Ġearly",
        -8.56964702406578
      ],
      [
        "Ġproducts",
        -8.569705835979255
      ],
      [
        "B",
        -8.572073964186568
      ],
      [
        "Ġgrowth",
        -8.572382928696843
      ],
      [
        "an",
        -8.575228123006926
      ],
      [
        "Ġpopulation",
        -8.577302829414299
      ],
      [
        "ĠBy",
        -8.578238529889543
      ],
      [
        "Ġoffer",
        -8.587279282649686
      ],
      [
        "Ġkind",
        -8.588965923645855
      ],
      [
        "Ġdogs",
        -8.592727204247954
      ],
      [
        "Ġnext",
        -8.593518592822724
      ],
      [
        "Ġworking",
        -8.593946732083499
      ],
      [
        "!Ċ",
        -8.597110068705021
      ],
      [
        "Ġcheck",
        -8.599898476574467
      ],
      [
        "Ġhigher",
        -8.60098402189897
      ],
      [
        "Ġmakes",
        -8.604280656859412
      ],
      [
        "Ġbusiness",
        -8.604309904204465
      ],
      [
        "Ġcourse",
        -8.607680918011456
      ],
      [
        "Ġkey",
        -8.608543330625462
      ],
      [
        "Ġeasy",
        -8.61389356041034
      ],
      [
        "Ġline",
        -8.615097212428694
      ],
      [
        "Ġsimilar",
        -8.616882832382668
      ],
      [
        "Ġvariet",
        -8.617152467930927
      ],
      [
        "Ġwide",
        -8.61924975556967
      ],
      [
        "Ġchanges",
        -8.62367335137439
      ],
      [
        "ĠT",
        -8.625101068230979
      ],
      [
        "Ġgiven",
        -8.627203611905866
      ],
      [
        "Ġdepend",
        -8.628963691449973
      ],
      [
        "Ġthing",
        -8.630021080035743
      ],
      [
        "Ġavoid",
        -8.630138041461185
      ],
      [
        "Ġlower",
        -8.630298876446844
      ],
      [
        "Ġold",
        -8.631523377761221
      ],
      [
        "Ġlikely",
        -8.633311300571432
      ],
      [
        "There",
        -8.634891681319184
      ],
      [
        "ce",
        -8.63797494698493
      ],
      [
        "Ġdoesn",
        -8.638380440526651
      ],
      [
        "Ġ[",
        -8.639145163139727
      ],
      [
        "ĠWith",
        -8.63960044376292
      ],
      [
        "Ġdays",
        -8.641944637115406
      ],
      [
        "ĠâĢĶ",
        -8.641947302211245
      ],
      [
        "Ġplan",
        -8.642633181623825
      ],
      [
        "Ġcover",
        -8.644070070964979
      ],
      [
        "Ġreal",
        -8.64459856686971
      ],
      [
        "Ġsimple",
        -8.64526704395628
      ],
      [
        "ĠUniversity",
        -8.645881650543352
      ],
      [
        "Ġfast",
        -8.646335768864699
      ],
      [
        "Ġsafe",
        -8.648064129234204
      ],
      [
        "Ġfull",
        -8.651269454176655
      ],
      [
        ")Ċ",
        -8.651658105904524
      ],
      [
        "Ġskin",
        -8.652086988505939
      ],
      [
        "Ġnever",
        -8.653303326902606
      ],
      [
        "Ġissues",
        -8.655810624469485
      ],
      [
        "Ġprotect",
        -8.65628886195475
      ],
      [
        "ĠHe",
        -8.658560738037686
      ],
      [
        "Ġfollow",
        -8.660101680144837
      ],
      [
        "Ġactually",
        -8.660472290779033
      ],
      [
        "Ġbuilding",
        -8.661227875242417
      ],
      [
        "Ġunique",
        -8.664230315369466
      ],
      [
        "Ġeffective",
        -8.668426496774742
      ],
      [
        "Ġacross",
        -8.668795515438722
      ],
      [
        "Ġespecially",
        -8.670466861650038
      ],
      [
        "Ġask",
        -8.675797485790525
      ],
      [
        "Ġprofessional",
        -8.678336894461774
      ],
      [
        "ĠAmerican",
        -8.678794247069922
      ],
      [
        "ĠSome",
        -8.679353245196353
      ],
      [
        "Ġexist",
        -8.68064219200006
      ],
      [
        "Ġfuture",
        -8.683010470472052
      ],
      [
        "Ġproduction",
        -8.684133739002181
      ],
      [
        "Ġeye",
        -8.686919636077226
      ],
      [
        "Ġhealthy",
        -8.69212099006204
      ],
      [
        "Ġsocial",
        -8.695095013069485
      ],
      [
        "Ġdone",
        -8.695686678333303
      ],
      [
        "Ġfact",
        -8.69638114849879
      ],
      [
        "ĠP",
        -8.69683542218188
      ],
      [
        "Ġclose",
        -8.699669914742305
      ],
      [
        "Ġstep",
        -8.700962032266792
      ],
      [
        "*",
        -8.701000635992811
      ],
      [
        "Ġarticle",
        -8.701753106907685
      ],
      [
        "Ġminute",
        -8.703339022904768
      ],
      [
        "Ġdry",
        -8.704226091892048
      ],
      [
        "Ġpaper",
        -8.705960689899184
      ],
      [
        "not",
        -8.707616113624836
      ],
      [
        "Ġsingle",
        -8.70851878563808
      ],
      [
        "Ġanimal",
        -8.709572796003403
      ],
      [
        "Ġfar",
        -8.712153807911609
      ],
      [
        "Ġsuggest",
        -8.71251166520244
      ],
      [
        "Ġclean",
        -8.715011960481746
      ],
      [
        "Ġmillion",
        -8.71647230351214
      ],
      [
        "against",
        -8.716498815342533
      ],
      [
        "Ġcell",
        -8.717124722788721
      ],
      [
        "Ġground",
        -8.717229749715976
      ],
      [
        "Ġheart",
        -8.721499935862855
      ],
      [
        "Ġchild",
        -8.72259719662857
      ],
      [
        "Ġclear",
        -8.72342078273358
      ],
      [
        "v",
        -8.72389859376036
      ],
      [
        "Ġstore",
        -8.724919707650823
      ],
      [
        "Ġimage",
        -8.725023838840668
      ],
      [
        "Ġaccording",
        -8.72516459927526
      ],
      [
        "Ġdifficult",
        -8.726478437099443
      ],
      [
        "Ġtimes",
        -8.728503212261817
      ],
      [
        "Ġvideo",
        -8.728661990360472
      ],
      [
        "Ġspeed",
        -8.729068451290715
      ],
      [
        "Ġregular",
        -8.732353430298229
      ],
      [
        "Ġtoday",
        -8.733298434946462
      ],
      [
        "Ġclimate",
        -8.733577095272082
      ],
      [
        "Ġabove",
        -8.733735809211275
      ],
      [
        ")ĊĊ",
        -8.734355590513498
      ],
      [
        "Ġoccur",
        -8.734685691773347
      ],
      [
        "To",
        -8.73567750195472
      ],
      [
        "Ġimprove",
        -8.741620924040133
      ],
      [
        "u",
        -8.748827846783268
      ],
      [
        "Ġpet",
        -8.74981055136816
      ],
      [
        "Ġquestion",
        -8.749982976954726
      ],
      [
        "Ġrecommend",
        -8.751505523803232
      ],
      [
        "Ġloss",
        -8.752764521043488
      ],
      [
        "Ġdeep",
        -8.753422317348033
      ],
      [
        "Ġsignificant",
        -8.754203022692458
      ],
      [
        "Ġwhite",
        -8.754324094403016
      ],
      [
        "Ġelectric",
        -8.754551591864722
      ],
      [
        "Ġproduct",
        -8.758431297918165
      ],
      [
        "Ġbring",
        -8.759963234826035
      ],
      [
        "Ġcontent",
        -8.764131195578724
      ],
      [
        "Ġsays",
        -8.767766024540101
      ],
      [
        "Ġtraining",
        -8.769760581929937
      ],
      [
        "Ġfour",
        -8.775416557604355
      ],
      [
        "Ġbook",
        -8.776892573043142
      ],
      [
        "Ġleft",
        -8.78007389553447
      ],
      [
        "Ġonce",
        -8.78169478714372
      ],
      [
        "ĠYour",
        -8.782588503087705
      ],
      [
        "Ġvehicle",
        -8.784036796320823
      ],
      [
        "âĢĵ",
        -8.78463249212103
      ],
      [
        "Ġsign",
        -8.785025591067619
      ],
      [
        "ther",
        -8.785229682251643
      ],
      [
        "ĠNew",
        -8.785406659536855
      ],
      [
        "Ġeither",
        -8.786357587303442
      ],
      [
        "Ġface",
        -8.788207212734967
      ],
      [
        "Ġapproach",
        -8.788686552525316
      ],
      [
        "Ġrecent",
        -8.788914808313072
      ],
      [
        "w",
        -8.78969619752326
      ],
      [
        "Ġaccess",
        -8.789909437115785
      ],
      [
        "Ġenvironmental",
        -8.790299126538073
      ],
      [
        "Ġeffects",
        -8.791968376359808
      ],
      [
        "Ġrun",
        -8.79225034779818
      ],
      [
        "Ġeat",
        -8.793578161791066
      ],
      [
        "Ġgas",
        -8.795954360282849
      ],
      [
        "Ġunderstanding",
        -8.797812601552643
      ],
      [
        "Ġparts",
        -8.797901972661236
      ],
      [
        "Ġbasic",
        -8.798166989637105
      ],
      [
        "Ġmove",
        -8.798777755363087
      ],
      [
        "Ġmatter",
        -8.798813354191054
      ],
      [
        "Ġfuel",
        -8.80488290435559
      ],
      [
        "Ġread",
        -8.806272663803028
      ],
      [
        "ion",
        -8.807059439295756
      ],
      [
        "Ġtreat",
        -8.807128054698563
      ],
      [
        "Ġstrong",
        -8.807929653049102
      ],
      [
        "]",
        -8.809632586753585
      ],
      [
        "ous",
        -8.810262559993042
      ],
      [
        "Ġamong",
        -8.810962601335195
      ],
      [
        "Ġstructure",
        -8.811462367125799
      ],
      [
        "k",
        -8.811492481598183
      ],
      [
        "activity",
        -8.81304370029636
      ],
      [
        "Ġhim",
        -8.81385568799312
      ],
      [
        "Ġpost",
        -8.815704660681218
      ],
      [
        "T",
        -8.816748233421894
      ],
      [
        "Ġperformance",
        -8.817491553338055
      ],
      [
        "one",
        -8.817677277298348
      ],
      [
        "Ġengine",
        -8.818873883175893
      ],
      [
        "Ġbelieve",
        -8.819332620431762
      ],
      [
        "Ġeffect",
        -8.822308488270448
      ],
      [
        "Ġfurther",
        -8.825471298093383
      ],
      [
        "Ġenjoy",
        -8.825829140364458
      ],
      [
        "Ġskills",
        -8.825963548582395
      ],
      [
        "Ġaddition",
        -8.826397561670102
      ],
      [
        "For",
        -8.82820764967773
      ],
      [
        "Ġsound",
        -8.82828680872547
      ],
      [
        "Ġposition",
        -8.832293520307562
      ],
      [
        "ary",
        -8.833222350404165
      ],
      [
        "Ġscience",
        -8.84027008647959
      ],
      [
        "Ġways",
        -8.841530071933803
      ],
      [
        "Ġreason",
        -8.841979402364974
      ],
      [
        "Ġcreat",
        -8.842293163794233
      ],
      [
        "Ġalready",
        -8.842765389691543
      ],
      [
        "Ġbehavior",
        -8.842911211234188
      ],
      [
        "Ġbig",
        -8.843453790157923
      ],
      [
        "Ġfeatures",
        -8.846396245434393
      ],
      [
        "Ġbit",
        -8.846910621399068
      ],
      [
        "Ġcommunity",
        -8.84699146970675
      ],
      [
        "Ġcarbon",
        -8.847217208196565
      ],
      [
        "Ġindustry",
        -8.848195427095956
      ],
      [
        "Ġmarket",
        -8.852048606088168
      ],
      [
        "Ġhours",
        -8.852483261163254
      ],
      [
        "Ġinside",
        -8.853384056166748
      ],
      [
        "Ġcat",
        -8.854730212744155
      ],
      [
        "Ġrate",
        -8.85570225049145
      ],
      [
        "Ġdiscover",
        -8.85573763729834
      ],
      [
        "Ġlist",
        -8.856351667728855
      ],
      [
        "Ġbelow",
        -8.8567542986587
      ],
      [
        "Ġpopular",
        -8.8588896707798
      ],
      [
        "ĠNo",
        -8.858928752662218
      ],
      [
        "Ġaction",
        -8.861717620509754
      ],
      [
        "Ġhistory",
        -8.863581714247093
      ],
      [
        "necessary",
        -8.863971384218793
      ],
      [
        "Ġthought",
        -8.866452015979199
      ],
      [
        "Ġparent",
        -8.868698050607465
      ],
      [
        "Ġhead",
        -8.870010240838742
      ],
      [
        "Ġexplain",
        -8.870983156555061
      ],
      [
        "ĠW",
        -8.871000028764453
      ],
      [
        "Ġremain",
        -8.871565567265627
      ],
      [
        "Ġwaste",
        -8.875033585411142
      ],
      [
        "Ġsafety",
        -8.875929710735596
      ],
      [
        "Ġmention",
        -8.87719054073018
      ],
      [
        "ĠR",
        -8.87724743490285
      ],
      [
        "Ġstay",
        -8.877742646070057
      ],
      [
        "it",
        -8.878294893999128
      ],
      [
        "Ġred",
        -8.880155208327345
      ],
      [
        "Ġidea",
        -8.880396111403119
      ],
      [
        "Ġthough",
        -8.88382088997827
      ],
      [
        "Ġcomplex",
        -8.884392040295758
      ],
      [
        "Ġshape",
        -8.885412022970579
      ],
      [
        "Ġeasi",
        -8.885790383138112
      ],
      [
        "Ġal",
        -8.887670136463903
      ],
      [
        "Ġissue",
        -8.887889206798473
      ],
      [
        "Ġseen",
        -8.888582811579301
      ],
      [
        "E",
        -8.890031392890343
      ],
      [
        "Ġslow",
        -8.89037472616004
      ],
      [
        "Ġsense",
        -8.890376751165736
      ],
      [
        "Ġmajor",
        -8.894354303277254
      ],
      [
        "Ġagain",
        -8.895400917288189
      ],
      [
        "Ġmanagement",
        -8.895864195057557
      ],
      [
        "Ġam",
        -8.896409866855553
      ],
      [
        "Ġwhe",
        -8.8981593161329
      ],
      [
        "Ġpublic",
        -8.900288437371948
      ],
      [
        "Ġuser",
        -8.900971680000485
      ],
      [
        "ĠOne",
        -8.90102188622857
      ],
      [
        "Ġpain",
        -8.901633924265035
      ],
      [
        "Ġcook",
        -8.902567213116104
      ],
      [
        "Ġcompany",
        -8.903138577887306
      ],
      [
        "Ġtoward",
        -8.903594336566153
      ],
      [
        "ĠU",
        -8.906090689119488
      ],
      [
        "Ġappear",
        -8.908728572810036
      ],
      [
        "Ġwarm",
        -8.908763161236786
      ],
      [
        "Ġfall",
        -8.908913145356022
      ],
      [
        "Ġactivities",
        -8.909497600211427
      ],
      [
        "Ġaddress",
        -8.90956791412243
      ],
      [
        "Ġliving",
        -8.909679871175406
      ],
      [
        "z",
        -8.910171081836207
      ],
      [
        "Ġknowledge",
        -8.911440753195476
      ],
      [
        "Ġblack",
        -8.911582007604823
      ],
      [
        "Ġreach",
        -8.91165648162907
      ],
      [
        "Ġanswer",
        -8.911851667461574
      ],
      [
        "ry",
        -8.9124389771487
      ],
      [
        "Ġconcern",
        -8.916051549080127
      ],
      [
        "Ġtotal",
        -8.917399144118658
      ],
      [
        "Ġstress",
        -8.918104144660266
      ],
      [
        "Ġtools",
        -8.919886173152946
      ],
      [
        "âĢĶ",
        -8.921404614860108
      ],
      [
        "Ġpositive",
        -8.92317860893009
      ],
      [
        "Ġbuild",
        -8.925661578802302
      ],
      [
        "Ġperiod",
        -8.925666476983785
      ],
      [
        "Ġresearchers",
        -8.927483479447993
      ],
      [
        "Ġnature",
        -8.928695306468214
      ],
      [
        "age",
        -8.928946756020387
      ],
      [
        "Ġpattern",
        -8.931419313984549
      ],
      [
        "Ġcold",
        -8.931443796073008
      ],
      [
        "Ġroom",
        -8.935269305748989
      ],
      [
        "ĠO",
        -8.937350629808781
      ],
      [
        "Ġpersonal",
        -8.937406009812985
      ],
      [
        "Ġmedical",
        -8.937709641241849
      ],
      [
        "Ġgame",
        -8.938806595467137
      ],
      [
        "Ġscientist",
        -8.938928213101942
      ],
      [
        "Ġmind",
        -8.941343643295248
      ],
      [
        "Ġcancer",
        -8.942741733520553
      ],
      [
        "Ġtypically",
        -8.944422881948336
      ],
      [
        "Ġresponse",
        -8.945018913598187
      ],
      [
        "Ġbrain",
        -8.945289372570437
      ],
      [
        "As",
        -8.947496907093903
      ],
      [
        "Ġgenetic",
        -8.949991943297771
      ],
      [
        "Ġwhole",
        -8.950998357354127
      ],
      [
        "ĠWhil",
        -8.951259617999163
      ],
      [
        "So",
        -8.952914241220247
      ],
      [
        "Ġaverage",
        -8.95389038725061
      ],
      [
        "Ġcamera",
        -8.954508386374725
      ],
      [
        "Ġland",
        -8.955539144037942
      ],
      [
        "Ġassociated",
        -8.956968664825148
      ],
      [
        "Ġauthor",
        -8.958766083052861
      ],
      [
        "Ġdoing",
        -8.9601656490405
      ],
      [
        "Ġsomeone",
        -8.962686297637656
      ],
      [
        "Ġhouse",
        -8.963272831132947
      ],
      [
        "Ġcool",
        -8.964485251013986
      ],
      [
        "Ġmethods",
        -8.964702294567443
      ],
      [
        "Ġcorrect",
        -8.965546817223867
      ],
      [
        "Ġadult",
        -8.967035138824475
      ],
      [
        "Ġmonths",
        -8.968835710926601
      ],
      [
        "Ġhelps",
        -8.9699644372085
      ],
      [
        "Ġperform",
        -8.970107306025465
      ],
      [
        "le",
        -8.970683700342892
      ],
      [
        "Ġaffect",
        -8.972452787632331
      ],
      [
        "Ġmachine",
        -8.973055171755643
      ],
      [
        "ĠN",
        -8.974439436204715
      ],
      [
        "Ġmovement",
        -8.976641796655139
      ],
      [
        "Ġsymptoms",
        -8.977341511341914
      ],
      [
        "Ġrepresent",
        -8.977682124982957
      ],
      [
        "Ġcontact",
        -8.979314131130248
      ],
      [
        "Ġgreen",
        -8.981216972124697
      ],
      [
        "Ġtell",
        -8.982088272312875
      ],
      [
        "rather",
        -8.9836734269232
      ],
      [
        "âĢ¦",
        -8.985131460878385
      ],
      [
        "taking",
        -8.98719443932011
      ],
      [
        "Ġhumans",
        -8.98740979811953
      ],
      [
        "Ġcode",
        -8.987505215017404
      ],
      [
        "Ġpercent",
        -8.989932797375014
      ],
      [
        "Ġtraditional",
        -8.993854749352977
      ],
      [
        "Ġseason",
        -8.994399397497567
      ],
      [
        "Ġonline",
        -8.995259582196624
      ],
      [
        "Ġexercise",
        -8.99603235890215
      ],
      [
        "Ġshare",
        -8.997170054285847
      ],
      [
        "Ġservice",
        -8.998151209665275
      ],
      [
        "Ġdetermine",
        -8.999086849796175
      ],
      [
        "Ġflower",
        -8.999127956200322
      ],
      [
        "Ġbuy",
        -9.000378378018961
      ],
      [
        "Ġchoose",
        -9.00111310911559
      ],
      [
        "Ġchemical",
        -9.003972083313823
      ],
      [
        "Ġforce",
        -9.004194734353282
      ],
      [
        "Ġsite",
        -9.006674538241526
      ],
      [
        "Ġcut",
        -9.007533808791758
      ],
      [
        "Ġyoung",
        -9.008085486151888
      ],
      [
        "Ġapplications",
        -9.010431490616584
      ],
      [
        "Ġhold",
        -9.010554622444063
      ],
      [
        "to",
        -9.011115222953292
      ],
      [
        "Ġperfect",
        -9.011398362151663
      ],
      [
        "Ġcontinue",
        -9.012832566143375
      ],
      [
        "Ġidentify",
        -9.013351733083772
      ],
      [
        "Ġsimpl",
        -9.015323359500984
      ],
      [
        "Ġwomen",
        -9.015637397187202
      ],
      [
        "Ġquickly",
        -9.01749210045828
      ],
      [
        "Ġclass",
        -9.018325473802223
      ],
      [
        "Ġinvolve",
        -9.018669924083344
      ],
      [
        "Ġgot",
        -9.021756588273057
      ],
      [
        "Ġentire",
        -9.022532311828591
      ],
      [
        "Ġquestions",
        -9.022839226765475
      ],
      [
        "Ġprimar",
        -9.023162878943369
      ],
      [
        "Ġresources",
        -9.023580796359878
      ],
      [
        ".\"ĊĊ",
        -9.02386737728834
      ],
      [
        "Ġflow",
        -9.024150444452856
      ],
      [
        "Ġcrucial",
        -9.02436138831992
      ],
      [
        "Ġanalysis",
        -9.026041025458907
      ],
      [
        "Ġmuscle",
        -9.027000980163436
      ],
      [
        "Ġwinter",
        -9.02887587912294
      ],
      [
        "Ġisn",
        -9.029081623873315
      ],
      [
        "Ġtechniques",
        -9.03009019121228
      ],
      [
        ".\"Ċ",
        -9.032270775540027
      ],
      [
        "Ġoverall",
        -9.032583436781026
      ],
      [
        "Ġcases",
        -9.034343824139588
      ],
      [
        "Ġmoney",
        -9.03485981414526
      ],
      [
        "Ġbalance",
        -9.036201610144902
      ],
      [
        "ive",
        -9.036226645326472
      ],
      [
        "Ġwear",
        -9.038465981346093
      ],
      [
        "Ġrelationship",
        -9.03879685298443
      ],
      [
        "Ġoutside",
        -9.038996361576066
      ],
      [
        "Ġdevice",
        -9.040026773783064
      ],
      [
        "Ġproperties",
        -9.042020996658026
      ],
      [
        "Ġsugar",
        -9.043193141746656
      ],
      [
        "ĠDNA",
        -9.043252248639456
      ],
      [
        "Ġrelated",
        -9.04360236051061
      ],
      [
        "instead",
        -9.046026848537949
      ],
      [
        "Ġnormal",
        -9.046247214524662
      ],
      [
        "ĠAI",
        -9.046454956444302
      ],
      [
        "Ġlocation",
        -9.046821236393864
      ],
      [
        "Ġpast",
        -9.04687617156378
      ],
      [
        "Ġbase",
        -9.04834461516431
      ],
      [
        "Ġmodern",
        -9.050503897380556
      ],
      [
        "Ġspecial",
        -9.050801956441909
      ],
      [
        "Ġremove",
        -9.051291045305623
      ],
      [
        "F",
        -9.05305936350227
      ],
      [
        "Ġetc",
        -9.05455226700816
      ],
      [
        "Ġtool",
        -9.058865973228569
      ],
      [
        "Ġsometime",
        -9.059745936181404
      ],
      [
        "Ġinfection",
        -9.061650641262652
      ],
      [
        "_",
        -9.06201995461063
      ],
      [
        "Ġrelative",
        -9.062468078705653
      ],
      [
        "Ġglobal",
        -9.063585733172015
      ],
      [
        "Ġguide",
        -9.065796510511545
      ],
      [
        "Ġfive",
        -9.066551042835352
      ],
      [
        "probably",
        -9.066719908059197
      ],
      [
        "throughout",
        -9.067118618183851
      ],
      [
        "Ġplastic",
        -9.06975241026448
      ],
      [
        "Ġhear",
        -9.069955984293564
      ],
      [
        "Ġlayer",
        -9.072544788238154
      ],
      [
        "Ġcall",
        -9.073427994908196
      ],
      [
        "Ġmilk",
        -9.073839020534027
      ],
      [
        "Ġeffort",
        -9.075367925763882
      ],
      [
        "ĠNational",
        -9.07679595845192
      ],
      [
        "ĠAn",
        -9.080757511324808
      ],
      [
        "Ġb",
        -9.081964589787948
      ],
      [
        "Ġsoftware",
        -9.083235396487217
      ],
      [
        "Ġmultiple",
        -9.086319464735796
      ],
      [
        "Ġcomponents",
        -9.08692580197079
      ],
      [
        "Ġparticular",
        -9.087147074052805
      ],
      [
        "Ġsleep",
        -9.089593210606964
      ],
      [
        "Ġactive",
        -9.090728056861586
      ],
      [
        "Ġexplore",
        -9.092500579677369
      ],
      [
        "Ġweather",
        -9.09265622291431
      ],
      [
        "Ġfeet",
        -9.093389879343318
      ],
      [
        "Ġbad",
        -9.094235262547596
      ],
      [
        "ach",
        -9.09728992203799
      ],
      [
        "Ġcompared",
        -9.09760090618884
      ],
      [
        "Ġself",
        -9.097872096103744
      ],
      [
        "Ġelements",
        -9.098533091287951
      ],
      [
        "Ġsignal",
        -9.099830720473856
      ],
      [
        ").Ċ",
        -9.100736833610398
      ],
      [
        "Ġmonitor",
        -9.100882361206532
      ],
      [
        "Ġextreme",
        -9.101466908732617
      ],
      [
        "Ġwood",
        -9.10255550074324
      ],
      [
        "M",
        -9.103043915784484
      ],
      [
        "Ġcomplete",
        -9.103045484399274
      ],
      [
        "Ġhot",
        -9.103441029128144
      ],
      [
        "Ġdetail",
        -9.10443417086524
      ],
      [
        "Ġlength",
        -9.10504245497097
      ],
      [
        "Ġdigital",
        -9.10761923149828
      ],
      [
        "ĠUnited",
        -9.108788181252915
      ],
      [
        "Ġmetal",
        -9.11084510943332
      ],
      [
        "ĠAll",
        -9.111285013537316
      ],
      [
        "Ġchoice",
        -9.111427485482691
      ],
      [
        "Ġview",
        -9.112584630970597
      ],
      [
        "Ġrelease",
        -9.112698502797574
      ],
      [
        "Ġever",
        -9.11677142605506
      ],
      [
        "Ġcontain",
        -9.117084631831965
      ],
      [
        "Ġeducation",
        -9.118288904720483
      ],
      [
        "Ġart",
        -9.119994555369011
      ],
      [
        "ĠH",
        -9.120369084382078
      ],
      [
        "Ġvisit",
        -9.121496953289103
      ],
      [
        "Ġcountry",
        -9.121658672304836
      ],
      [
        "Ġreaction",
        -9.122140391458393
      ],
      [
        "Ġreport",
        -9.122684208335954
      ],
      [
        "Ġprice",
        -9.124556617691134
      ],
      [
        "|",
        -9.125466476780709
      ],
      [
        "yourself",
        -9.126378779473196
      ],
      [
        "Ġnight",
        -9.12794368156812
      ],
      [
        "Ġpatients",
        -9.128411981480545
      ],
      [
        "Ġact",
        -9.12987899214716
      ],
      [
        "Ġwon",
        -9.131038904939656
      ],
      [
        "Ġsummer",
        -9.13111471401704
      ],
      [
        "Ġbirds",
        -9.131410475183213
      ],
      [
        "Ġbattery",
        -9.132660440376812
      ],
      [
        "ĠDo",
        -9.132769680975253
      ],
      [
        "Ġnetwork",
        -9.133799575645789
      ],
      [
        "Ġoptions",
        -9.13394016443507
      ],
      [
        "Ġincreasing",
        -9.134891071743322
      ],
      [
        "Ġeating",
        -9.136291400975534
      ],
      [
        "P",
        -9.136783920738086
      ],
      [
        "Ġstop",
        -9.13692344174986
      ],
      [
        "Ġsuccessful",
        -9.137544424353653
      ],
      [
        "ĠG",
        -9.138370819203653
      ],
      [
        "Ġequipment",
        -9.13940710426849
      ],
      [
        "Ġcycle",
        -9.140918772297097
      ],
      [
        "ment",
        -9.14095590358782
      ],
      [
        "Ġmeasure",
        -9.14207688542758
      ],
      [
        "yet",
        -9.144195958492396
      ],
      [
        "Ġprovid",
        -9.145957389319676
      ],
      [
        "Ġmix",
        -9.146279372812456
      ],
      [
        "Ġtrue",
        -9.148519453154677
      ],
      [
        "Ġshown",
        -9.153789735881542
      ],
      [
        "Ġhalf",
        -9.155447581260304
      ],
      [
        "Ġsubject",
        -9.157418331883328
      ],
      [
        "Ġtaken",
        -9.16184263573576
      ],
      [
        "Ġregion",
        -9.161916293017054
      ],
      [
        "Ġmeat",
        -9.162297252941563
      ],
      [
        "Ġservices",
        -9.162590987976357
      ],
      [
        "Ġwebsite",
        -9.16383716026407
      ],
      [
        "Ġenhance",
        -9.164308836342371
      ],
      [
        "ĠF",
        -9.16553094305295
      ],
      [
        "Ġlater",
        -9.167387453661256
      ],
      [
        "Ġnutrient",
        -9.1676553043293
      ],
      [
        "Why",
        -9.1690466700816
      ],
      [
        "Ġexperiment",
        -9.169089464826657
      ],
      [
        "Ġstarted",
        -9.169101007099696
      ],
      [
        "One",
        -9.169200989446963
      ],
      [
        "Ġpurpose",
        -9.169477670726398
      ],
      [
        "Ġreturn",
        -9.16972814885451
      ],
      [
        "by",
        -9.172101561938744
      ],
      [
        "Ġpre",
        -9.172488963552892
      ],
      [
        "Ġachieve",
        -9.173559164853508
      ],
      [
        "Ġefficient",
        -9.175533758188744
      ],
      [
        "Ġinvolved",
        -9.176065320448584
      ],
      [
        "Ġdivers",
        -9.17650255889554
      ],
      [
        "ĠAt",
        -9.176550497294391
      ],
      [
        "ĠSchool",
        -9.18253040788528
      ],
      [
        "Ġago",
        -9.182551753304
      ],
      [
        "Ġattention",
        -9.18419219889521
      ],
      [
        "O",
        -9.18528523506118
      ],
      [
        "ĠCan",
        -9.187450060095983
      ],
      [
        "ĠHealth",
        -9.188464974873158
      ],
      [
        "Ġchicken",
        -9.18983655523368
      ],
      [
        "Ġshows",
        -9.191647415695352
      ],
      [
        "quite",
        -9.192888362279373
      ],
      [
        "Ġeggs",
        -9.193321337774153
      ],
      [
        "Ġadditional",
        -9.193627338641022
      ],
      [
        "Ġstudent",
        -9.19394508300348
      ],
      [
        "Ġplayer",
        -9.196028012190707
      ],
      [
        "Ġunit",
        -9.196695306829945
      ],
      [
        "Ġblock",
        -9.196794645866134
      ],
      [
        "Ġingredient",
        -9.197489355990657
      ],
      [
        "ĠâĢľ",
        -9.19856238033233
      ],
      [
        "Ġadvance",
        -9.19883015774782
      ],
      [
        "Ġlanguage",
        -9.200862723980553
      ],
      [
        "Ġdescribe",
        -9.20182249041273
      ],
      [
        "ĠHere",
        -9.203120155979466
      ],
      [
        "Ġbreak",
        -9.203997783080409
      ],
      [
        "Ġapply",
        -9.204245923611484
      ],
      [
        "Ġpoints",
        -9.205206684683684
      ],
      [
        "Ġdistance",
        -9.205878671894885
      ],
      [
        "Ġconcept",
        -9.20636788651961
      ],
      [
        "ship",
        -9.20728474323418
      ],
      [
        "Ġfinal",
        -9.208446670421257
      ],
      [
        "ĠL",
        -9.208928001408935
      ],
      [
        "Ġitself",
        -9.211094157127992
      ],
      [
        "Ġfoods",
        -9.212308570998278
      ],
      [
        "Ġsolar",
        -9.212404890440876
      ],
      [
        "larger",
        -9.213092464537684
      ],
      [
        "be",
        -9.213956552555928
      ],
      [
        "\\",
        -9.21399640493727
      ],
      [
        "ance",
        -9.216032506562916
      ],
      [
        "Ġnegative",
        -9.218414784926551
      ],
      [
        "Ġthemselves",
        -9.218571433575532
      ],
      [
        "Ġaspect",
        -9.218991919446305
      ],
      [
        "Ġoriginal",
        -9.21920894209171
      ],
      [
        "Ġsave",
        -9.220532990719713
      ],
      [
        "Ġoffers",
        -9.22097818488212
      ],
      [
        "Ġbacteria",
        -9.221867980237173
      ],
      [
        "Ġprocesses",
        -9.225274953788702
      ],
      [
        "Ġmale",
        -9.225673787792545
      ],
      [
        "Ġbehind",
        -9.227204068767904
      ],
      [
        "Ġfile",
        -9.227607411287316
      ],
      [
        "Ġseem",
        -9.229157313172326
      ],
      [
        "Ġoption",
        -9.22929373855034
      ],
      [
        "Ġadded",
        -9.229366649477358
      ],
      [
        "Ġcompound",
        -9.232204869174534
      ],
      [
        "Ġworks",
        -9.232295855626226
      ],
      [
        "Ġdrink",
        -9.234664728374856
      ],
      [
        "Ġinfluence",
        -9.235634632677762
      ],
      [
        "where",
        -9.23681052328439
      ],
      [
        "Ġcaus",
        -9.23732474153133
      ],
      [
        "Ġgain",
        -9.237482965906636
      ],
      [
        "Ġstory",
        -9.238775456307676
      ],
      [
        "Ġapplication",
        -9.239571382193285
      ],
      [
        "Ġsample",
        -9.243415990446232
      ],
      [
        "Â°",
        -9.24346811861202
      ],
      [
        "Ġfront",
        -9.244004713244536
      ],
      [
        "Ġfat",
        -9.24528273650454
      ],
      [
        "Ġcontribute",
        -9.245863948543564
      ],
      [
        "Ġice",
        -9.247010115590037
      ],
      [
        "ĠOn",
        -9.248585047160784
      ],
      [
        "Ġpatient",
        -9.24912306520644
      ],
      [
        "Ġtarget",
        -9.24951336458044
      ],
      [
        "Ġglass",
        -9.25088849696935
      ],
      [
        "Ġjob",
        -9.25177930284286
      ],
      [
        "Ġstandard",
        -9.25246143067725
      ],
      [
        "Ġinjur",
        -9.252660159271574
      ],
      [
        "Ġfill",
        -9.253625608428578
      ],
      [
        "Ġinsect",
        -9.254479046927168
      ],
      [
        "Ġsea",
        -9.254980814473516
      ],
      [
        "Ġstudie",
        -9.255076717764757
      ],
      [
        "Ġdirection",
        -9.25625521181589
      ],
      [
        "Ġreading",
        -9.256707049900214
      ],
      [
        ".\"",
        -9.25843416571712
      ],
      [
        "Ġparticularly",
        -9.258821398538728
      ],
      [
        "Ġdevices",
        -9.259667830697436
      ],
      [
        "Ġsection",
        -9.259957312315064
      ],
      [
        "Ġsalt",
        -9.259970037528753
      ],
      [
        "Ġconnection",
        -9.260209752113347
      ],
      [
        "Ġlimit",
        -9.260252357210472
      ],
      [
        "wise",
        -9.26299792727256
      ],
      [
        "Ġappropriate",
        -9.26352933909233
      ],
      [
        "Ġtakes",
        -9.263785498954736
      ],
      [
        "man",
        -9.264666172293223
      ],
      [
        "Ġtrack",
        -9.265074698215106
      ],
      [
        "Ġeyes",
        -9.265174631034572
      ],
      [
        "But",
        -9.267440046643394
      ],
      [
        "Ġgoal",
        -9.268443422561802
      ],
      [
        "Ġfemale",
        -9.268998991154362
      ],
      [
        "Ġspread",
        -9.26912468464728
      ],
      [
        "Ġenter",
        -9.269237097363408
      ],
      [
        "Ġevidence",
        -9.269959675392396
      ],
      [
        "Ġdrive",
        -9.270098915209068
      ],
      [
        "Ġdidn",
        -9.2701737103515
      ],
      [
        "Ġrest",
        -9.27085615371328
      ],
      [
        "Ġsmaller",
        -9.271831772839882
      ],
      [
        "Ġconduct",
        -9.272090031210674
      ],
      [
        "Ġdail",
        -9.274878503064963
      ],
      [
        "Ġdark",
        -9.275572641174223
      ],
      [
        "Ġlink",
        -9.275832942142468
      ],
      [
        "Ġwords",
        -9.277156950608823
      ],
      [
        "ĠStates",
        -9.277182537666189
      ],
      [
        "Ġfun",
        -9.278009989329524
      ],
      [
        "running",
        -9.278016121084374
      ],
      [
        "Ġaccount",
        -9.27845016916423
      ],
      [
        "Ġfresh",
        -9.279260235848152
      ],
      [
        "Ġtend",
        -9.281013418063964
      ],
      [
        "Ġseparate",
        -9.2819379262156
      ],
      [
        "Ġinput",
        -9.28227446262649
      ],
      [
        "Ġcharge",
        -9.283351197817373
      ],
      [
        "Ġextra",
        -9.284187793794755
      ],
      [
        "Ġmental",
        -9.284563575541725
      ],
      [
        "Ġgenerate",
        -9.286153445260108
      ],
      [
        "ĠYes",
        -9.287569874545342
      ],
      [
        "Ġsearch",
        -9.289310476598118
      ],
      [
        "Ġdiscuss",
        -9.291553457896658
      ],
      [
        "Ġreduc",
        -9.29257775971846
      ],
      [
        "ĠDr",
        -9.297157072549687
      ],
      [
        "Ġman",
        -9.2974241696668
      ],
      [
        "Ġinstall",
        -9.2987129043945
      ],
      [
        "Ġfeed",
        -9.300023797339763
      ],
      [
        "Ġoutput",
        -9.300204502504236
      ],
      [
        "Ġspring",
        -9.30022267552154
      ],
      [
        "Ġtalk",
        -9.300234255860303
      ],
      [
        "Ġmeet",
        -9.301501096533082
      ],
      [
        "Ġmonth",
        -9.301534246774043
      ],
      [
        "Ġextend",
        -9.301862091362151
      ],
      [
        "Ġmanage",
        -9.30447117555928
      ],
      [
        "Ġattack",
        -9.305739913308557
      ],
      [
        "Ġstyle",
        -9.306476223239326
      ],
      [
        "Ġmodels",
        -9.30796968954948
      ],
      [
        "Ġcats",
        -9.308036818629072
      ],
      [
        "Ġconstant",
        -9.308157492265746
      ],
      [
        "Ġspot",
        -9.308373843799457
      ],
      [
        "Ġsupply",
        -9.308879632475456
      ],
      [
        "Ġprovided",
        -9.309139000753916
      ],
      [
        "Ġtips",
        -9.309884600259515
      ],
      [
        "Ġword",
        -9.31001248485384
      ],
      [
        "Ġtravel",
        -9.310137942798384
      ],
      [
        "Ġcritical",
        -9.3110889789872
      ],
      [
        "Ġstrength",
        -9.312191298390864
      ],
      [
        "Ġuseful",
        -9.312519688129823
      ],
      [
        "Ġgovernment",
        -9.31755067649217
      ],
      [
        "ĠUse",
        -9.317582000373516
      ],
      [
        "Ġcircuit",
        -9.318879853121558
      ],
      [
        "Ġsix",
        -9.319992081858812
      ],
      [
        "Ġseries",
        -9.320521376786129
      ],
      [
        "ĠEarth",
        -9.320745641140611
      ],
      [
        "Ġcompletely",
        -9.321040460891918
      ],
      [
        "Ġculture",
        -9.323715625657696
      ],
      [
        "Ġwatch",
        -9.3289287679394
      ],
      [
        "N",
        -9.330317939395613
      ],
      [
        "Ġorganic",
        -9.332298698437397
      ],
      [
        "Ġeveryone",
        -9.332766225525123
      ],
      [
        "âĢĿ",
        -9.333307685610276
      ],
      [
        "ĠAfter",
        -9.33456628719441
      ],
      [
        "more",
        -9.33476847791928
      ],
      [
        "Ġgeneration",
        -9.336094843833935
      ],
      [
        "Ġversion",
        -9.336562801141234
      ],
      [
        "Ġserve",
        -9.336690656491598
      ],
      [
        "Ġkill",
        -9.336720590010549
      ],
      [
        "Ġcenter",
        -9.33676682799564
      ],
      [
        "Ġelectrical",
        -9.337412884219315
      ],
      [
        "Ġelse",
        -9.33874015575157
      ],
      [
        "-to",
        -9.339037243437952
      ],
      [
        "Ġsun",
        -9.339268953719362
      ],
      [
        "ĠAmerica",
        -9.340311601266112
      ],
      [
        "Ġproduced",
        -9.34044594125709
      ],
      [
        "ĠMost",
        -9.341592239626811
      ],
      [
        "R",
        -9.342462420097394
      ],
      [
        "ĠNorth",
        -9.342756067239026
      ],
      [
        "Ġmass",
        -9.343406392839508
      ],
      [
        "Ġvision",
        -9.344927743639994
      ],
      [
        "Ġblue",
        -9.345366322901384
      ],
      [
        "Ġeasier",
        -9.345743586101715
      ],
      [
        "Ġmedia",
        -9.347206382188324
      ],
      [
        "Because",
        -9.348333141785725
      ],
      [
        "Ġfine",
        -9.348652992270631
      ],
      [
        "ĠMore",
        -9.348763520119435
      ],
      [
        "Ġmolecule",
        -9.35090362419694
      ],
      [
        "Ġpiece",
        -9.352450508053067
      ],
      [
        "Ġfit",
        -9.352618150754967
      ],
      [
        "Can",
        -9.353995288103691
      ],
      [
        "Ġcentur",
        -9.354787419586096
      ],
      [
        "Ġcommunication",
        -9.355531912348916
      ],
      [
        "Ġexpert",
        -9.356131847879787
      ],
      [
        "Ġkids",
        -9.35664088100171
      ],
      [
        "These",
        -9.35930254822732
      ],
      [
        "ĠScience",
        -9.359603029609572
      ],
      [
        "considered",
        -9.359967596492153
      ],
      [
        "Ġgoe",
        -9.360674908999451
      ],
      [
        "Ġfruit",
        -9.36190356960272
      ],
      [
        "Ġimages",
        -9.363704298270562
      ],
      [
        "Ġnotice",
        -9.364438329063358
      ],
      [
        "companie",
        -9.36499511081824
      ],
      [
        "Ġlives",
        -9.365100256056529
      ],
      [
        "Ġtissue",
        -9.36525205063181
      ],
      [
        "Ġsteps",
        -9.365422851742371
      ],
      [
        "Ġcity",
        -9.365679925171143
      ],
      [
        "Ġinterest",
        -9.366620421047624
      ],
      [
        "Ġdocument",
        -9.367828684952334
      ],
      [
        "Ġbegin",
        -9.368113747505369
      ],
      [
        "W",
        -9.36853342511498
      ],
      [
        "Ġpay",
        -9.368604614591566
      ],
      [
        "most",
        -9.37168379811021
      ],
      [
        "Ġchallenges",
        -9.373478840500283
      ],
      [
        "Ġfeature",
        -9.373744996060298
      ],
      [
        "Using",
        -9.37409668170896
      ],
      [
        "Ġefficiency",
        -9.37512862514609
      ],
      [
        "Ġtheory",
        -9.37606448526374
      ],
      [
        "Ġhandle",
        -9.376320285060949
      ],
      [
        "Ġfrequent",
        -9.37687154947905
      ],
      [
        ".S",
        -9.377998071178247
      ],
      [
        "Ġestablish",
        -9.379084458084286
      ],
      [
        "Ġreceive",
        -9.381903624324906
      ],
      [
        "Ġremember",
        -9.38206507310141
      ],
      [
        "Ġaim",
        -9.382906320114024
      ],
      [
        "Ġitems",
        -9.383564561821135
      ],
      [
        "And",
        -9.384311465224936
      ],
      [
        "Ġdetect",
        -9.384407354875703
      ],
      [
        "Ġlack",
        -9.384831527567664
      ],
      [
        "Ġcarry",
        -9.38491419919254
      ],
      [
        "Ġvary",
        -9.38514847800614
      ],
      [
        "Ġserious",
        -9.386143456512226
      ],
      [
        "Ġseeds",
        -9.388319319055332
      ],
      [
        "ĠShe",
        -9.389603895993057
      ],
      [
        "ĠJ",
        -9.390065138405976
      ],
      [
        "Ġimportance",
        -9.390800099980352
      ],
      [
        "ĠUS",
        -9.391494440195606
      ],
      [
        "Ġenable",
        -9.392275131450724
      ],
      [
        "Whil",
        -9.392729615311136
      ],
      [
        "Ġfeeling",
        -9.393092551039825
      ],
      [
        "Ġcountries",
        -9.393932845416314
      ],
      [
        "Ġdeal",
        -9.394054225946425
      ],
      [
        "Ġevent",
        -9.39486351412038
      ],
      [
        "Ġcontains",
        -9.39540122426805
      ],
      [
        "Ġsuccess",
        -9.396076159107178
      ],
      [
        "Ġdisplay",
        -9.398626538839917
      ],
      [
        "Ġnote",
        -9.399030468022127
      ],
      [
        "ĠResearch",
        -9.399824585399092
      ],
      [
        "Ġscientific",
        -9.40245467003264
      ],
      [
        "=",
        -9.402525347468416
      ],
      [
        "Ġoxygen",
        -9.40328256344482
      ],
      [
        "Ġpump",
        -9.403769014269743
      ],
      [
        "ĠMany",
        -9.404298877928277
      ],
      [
        "Ġlimited",
        -9.404747507141368
      ],
      [
        "Ġpair",
        -9.404963541873922
      ],
      [
        "Ġbaby",
        -9.405289247355585
      ],
      [
        "Ġdate",
        -9.405815557271117
      ],
      [
        "Ġfluid",
        -9.406342324369824
      ],
      [
        "Ġjoint",
        -9.40652961644592
      ],
      [
        "Ġbag",
        -9.406811782088944
      ],
      [
        "Ġideal",
        -9.406989118442493
      ],
      [
        "Ġmeal",
        -9.40716950241058
      ],
      [
        "Ġtable",
        -9.4072838995929
      ],
      [
        "Another",
        -9.408488664747768
      ],
      [
        "Ġdemand",
        -9.408632264477518
      ],
      [
        "Ġwalk",
        -9.410286855287652
      ],
      [
        "Ġcolors",
        -9.41173800804903
      ],
      [
        "Ġmoving",
        -9.412718125108256
      ],
      [
        "Ġpoor",
        -9.412952711941324
      ],
      [
        "ĠWhy",
        -9.4141682102845
      ],
      [
        "Ġbird",
        -9.416513492342972
      ],
      [
        "Ġpath",
        -9.417140791854264
      ],
      [
        "Ġfilter",
        -9.41798325712978
      ],
      [
        "Ġprett",
        -9.418323035103192
      ],
      [
        "Ġphone",
        -9.419573943911589
      ],
      [
        "Ġvolume",
        -9.419677787455246
      ],
      [
        "ĠWorld",
        -9.420068356953902
      ],
      [
        "Ġmaintenanc",
        -9.422007333907317
      ],
      [
        "Ġegg",
        -9.42223379594984
      ],
      [
        "Ġevents",
        -9.424784337923176
      ],
      [
        "Ġpromote",
        -9.426676816259194
      ],
      [
        "Ġaccurate",
        -9.426820164484813
      ],
      [
        "Ġmemory",
        -9.427124518274912
      ],
      [
        "Ġcollect",
        -9.427163300346455
      ],
      [
        "Ġtaste",
        -9.427470569548602
      ],
      [
        ">",
        -9.427756626964374
      ],
      [
        "Ġcrop",
        -9.42826559726966
      ],
      [
        "Ġbrand",
        -9.429406232864302
      ],
      [
        "ĠFrom",
        -9.42947361647067
      ],
      [
        "Ġbuil",
        -9.42968257827794
      ],
      [
        "Ġwall",
        -9.430436023260985
      ],
      [
        "Ġscale",
        -9.430552113628275
      ],
      [
        "Ġhope",
        -9.430768696629578
      ],
      [
        "Ġframe",
        -9.43093864920948
      ],
      [
        "Ġprocedure",
        -9.43436057828572
      ],
      [
        "Ġinitial",
        -9.434732362440664
      ],
      [
        "Ġdefine",
        -9.436108783715644
      ],
      [
        "H",
        -9.436693205877052
      ],
      [
        "-->",
        -9.43706084897634
      ],
      [
        "Ġbottom",
        -9.437260727279076
      ],
      [
        "Ġforest",
        -9.43782797506752
      ],
      [
        "Ġbone",
        -9.439700296244231
      ],
      [
        "Ġfarm",
        -9.440358965572193
      ],
      [
        "Ġliquid",
        -9.440633677138631
      ],
      [
        "Ġgenes",
        -9.441645004741371
      ],
      [
        "Ġprotection",
        -9.442425766419722
      ],
      [
        "ism",
        -9.445158990109968
      ],
      [
        "Ġprograms",
        -9.445841677267186
      ],
      [
        "-up",
        -9.446778106510104
      ],
      [
        "Ġrare",
        -9.44711255904336
      ],
      [
        "Ġtouch",
        -9.448966056235264
      ],
      [
        "developed",
        -9.449375332332142
      ],
      [
        "Ġspend",
        -9.449693613406566
      ],
      [
        "Ġtherap",
        -9.449947820536371
      ],
      [
        "$",
        -9.451689460952473
      ],
      [
        "Ġcosts",
        -9.452157073566202
      ],
      [
        "Ġcommonly",
        -9.455142916315252
      ],
      [
        "Ġteeth",
        -9.456497703218872
      ],
      [
        "Ġseek",
        -9.456768403571855
      ],
      [
        "Ġconnect",
        -9.456772263605904
      ],
      [
        "Ġvisual",
        -9.456847503161278
      ],
      [
        "Ġbrown",
        -9.457049234713583
      ],
      [
        "of",
        -9.457677222429382
      ],
      [
        "Ġequal",
        -9.45811082830424
      ],
      [
        "Ġtank",
        -9.458233635810164
      ],
      [
        "Ġsoft",
        -9.45862995491333
      ],
      [
        "Ġlines",
        -9.45901932308708
      ],
      [
        "Ġcleaning",
        -9.459756015468578
      ],
      [
        "Ġpage",
        -9.459762005249528
      ],
      [
        "Ġhearing",
        -9.462714378583335
      ],
      [
        "Ġcloth",
        -9.463007505683333
      ],
      [
        "Ġlate",
        -9.463452496092556
      ],
      [
        "Ġboard",
        -9.464438710858328
      ],
      [
        "ĠThen",
        -9.465125351553064
      ],
      [
        "ĠAdditional",
        -9.466301023643702
      ],
      [
        "Ġcombination",
        -9.466349489243967
      ],
      [
        "Ġinstance",
        -9.467316171754913
      ],
      [
        "Ġfigure",
        -9.46779983085687
      ],
      [
        "Ġadjust",
        -9.468181639915642
      ],
      [
        "Ġcame",
        -9.468501408267269
      ],
      [
        "Ġalgorithm",
        -9.469377951678554
      ],
      [
        "Ġtask",
        -9.469725513982649
      ],
      [
        "Ġencourage",
        -9.470022730575382
      ],
      [
        "care",
        -9.47022656415461
      ],
      [
        "Ġtrain",
        -9.471093276535631
      ],
      [
        "Ġapp",
        -9.471368766545524
      ],
      [
        "Ġusers",
        -9.471915448852876
      ],
      [
        "Ġpublished",
        -9.472194541310024
      ],
      [
        "Ġreasons",
        -9.474073131816391
      ],
      [
        "Ġreplace",
        -9.47412545412656
      ],
      [
        "Ġgene",
        -9.47805336936088
      ],
      [
        "Ġelement",
        -9.47829968136844
      ],
      [
        "Ġready",
        -9.47933005369998
      ],
      [
        "Ġrich",
        -9.480371403872406
      ],
      [
        "Ġwind",
        -9.480573228794611
      ],
      [
        "G",
        -9.480987899001793
      ],
      [
        "out",
        -9.48111779574535
      ],
      [
        "Ġstone",
        -9.481725682201894
      ],
      [
        "Ġvia",
        -9.481867652474632
      ],
      [
        "Ġselect",
        -9.482074544151434
      ],
      [
        "Ġleg",
        -9.482174773052904
      ],
      [
        "ĠK",
        -9.484451158374338
      ],
      [
        "Ġpass",
        -9.484514394530448
      ],
      [
        "Ġstorage",
        -9.48456162148832
      ],
      [
        "Ġyellow",
        -9.484956435580036
      ],
      [
        "applied",
        -9.48672775630017
      ],
      [
        "ĠV",
        -9.48690378249283
      ],
      [
        "Ġnative",
        -9.487833767296143
      ],
      [
        "Ġfix",
        -9.48827350765783
      ],
      [
        "Ġdecrease",
        -9.488791820533237
      ],
      [
        "Ġwriting",
        -9.48913813200691
      ],
      [
        "Ġclaim",
        -9.490150497094254
      ],
      [
        "Ġnothing",
        -9.491380356277508
      ],
      [
        "Ġlandscape",
        -9.4919961343272
      ],
      [
        "Ġslight",
        -9.49230204477211
      ],
      [
        "Ġprint",
        -9.49260102905686
      ],
      [
        "Ġball",
        -9.493548359420936
      ],
      [
        "Ġconvert",
        -9.49356936229599
      ],
      [
        "Ġseems",
        -9.49400496798468
      ],
      [
        "Ġsubstance",
        -9.494571258673126
      ],
      [
        "Ġmembers",
        -9.495255733537444
      ],
      [
        "Ġmoisture",
        -9.495722742094513
      ],
      [
        "By",
        -9.496176018340506
      ],
      [
        "Ġexactly",
        -9.497166618692958
      ],
      [
        "Ġsituation",
        -9.497755215522758
      ],
      [
        "Ġalternative",
        -9.498515863241462
      ],
      [
        "Ġensur",
        -9.498777198233965
      ],
      [
        "[",
        -9.500494779882626
      ],
      [
        "Ġrequirements",
        -9.501822692785584
      ],
      [
        "Ġlocate",
        -9.502075024402288
      ],
      [
        "Ġwait",
        -9.50275558544227
      ],
      [
        "Ġresponsible",
        -9.504190593283152
      ],
      [
        "Ġdecision",
        -9.50493013319928
      ],
      [
        "Ġlaw",
        -9.505950925438706
      ],
      [
        "Ġled",
        -9.507375419831543
      ],
      [
        "Ġfire",
        -9.507698512509272
      ],
      [
        "Ġmoment",
        -9.50797731974259
      ],
      [
        "Ġcutting",
        -9.508501795650943
      ],
      [
        "Ġtransport",
        -9.508980014427056
      ],
      [
        "Ġleaf",
        -9.510053460676174
      ],
      [
        "Ġtechnique",
        -9.511265526128003
      ],
      [
        "Ġsoon",
        -9.511432487416108
      ],
      [
        "ĠâĢ¦",
        -9.512288926857003
      ],
      [
        "Ġfrequency",
        -9.51318251799536
      ],
      [
        "Ġfund",
        -9.513454656485903
      ],
      [
        "Ġrise",
        -9.515185114229425
      ],
      [
        "ĠSouth",
        -9.51643030425554
      ],
      [
        "ĠX",
        -9.51865568738914
      ],
      [
        "Ġhair",
        -9.52107787697202
      ],
      [
        "Ġadapt",
        -9.524637777540756
      ],
      [
        "Ġwild",
        -9.525636087176771
      ],
      [
        "Ġstates",
        -9.525876751803882
      ],
      [
        "Ġsetting",
        -9.526123223791254
      ],
      [
        "Ġstage",
        -9.526378908652609
      ],
      [
        "Ġsignificantly",
        -9.526702113871735
      ],
      [
        "hether",
        -9.527064247132328
      ],
      [
        "Ġchance",
        -9.527103384460435
      ],
      [
        "Ġcommuniti",
        -9.527406362565497
      ],
      [
        "ĠOur",
        -9.528639020544102
      ],
      [
        "ĠNot",
        -9.530224243524865
      ],
      [
        "ĠAlso",
        -9.53124980290082
      ],
      [
        "Ġcombine",
        -9.531851963900989
      ],
      [
        "giving",
        -9.534744316162836
      ],
      [
        "Ġhost",
        -9.536106930696672
      ],
      [
        "Ġimplement",
        -9.536365097707028
      ],
      [
        "cy",
        -9.536702975758558
      ],
      [
        "Ġthus",
        -9.537126845739309
      ],
      [
        "Ġmusic",
        -9.53747860436619
      ],
      [
        "Ġsecurity",
        -9.538746272894242
      ],
      [
        "Ġideas",
        -9.538872675421448
      ],
      [
        "Ġdesire",
        -9.539352819261394
      ],
      [
        "Ġplatform",
        -9.539485003140104
      ],
      [
        "Ġpresence",
        -9.539539183872767
      ],
      [
        "Ġear",
        -9.539708407434324
      ],
      [
        "Ġnode",
        -9.540216727627453
      ],
      [
        "Ġflavor",
        -9.541661143265989
      ],
      [
        "ial",
        -9.542204854491148
      ],
      [
        "Ġhands",
        -9.544522707469586
      ],
      [
        "Ġtook",
        -9.545730376117014
      ],
      [
        "Ġdoctor",
        -9.546247458791925
      ],
      [
        "Ġconstruction",
        -9.547060286633366
      ],
      [
        "Ġlesson",
        -9.547188081055298
      ],
      [
        "Step",
        -9.5471964652865
      ],
      [
        "Ġtesting",
        -9.54822254800268
      ],
      [
        "Ġtherefor",
        -9.548351372886774
      ],
      [
        "ĠMy",
        -9.548628083596036
      ],
      [
        "Ġhorse",
        -9.548864499607074
      ],
      [
        "Ġthird",
        -9.549044785719712
      ],
      [
        "ĠTheir",
        -9.550803310712524
      ],
      [
        "came",
        -9.551593961814833
      ],
      [
        "Ġjourney",
        -9.55189378447107
      ],
      [
        "Ġolder",
        -9.552424904578622
      ],
      [
        "Ġocean",
        -9.553520779997587
      ],
      [
        "Ġsevere",
        -9.55430376973806
      ],
      [
        "Ġcollection",
        -9.55519455142721
      ],
      [
        "Ġreflect",
        -9.555263354087314
      ],
      [
        "Ġexpensive",
        -9.555405699804297
      ],
      [
        "Ġ--",
        -9.555656159718383
      ],
      [
        "Ġmeaning",
        -9.55679588954752
      ],
      [
        "-term",
        -9.557033090283536
      ],
      [
        "Ġeffectively",
        -9.557812061591896
      ],
      [
        "ization",
        -9.557894204386349
      ],
      [
        "Ġde",
        -9.558773127003588
      ],
      [
        "Ġbeautiful",
        -9.5588029489148
      ],
      [
        "Ġmechanism",
        -9.559706526882604
      ],
      [
        "Ġexposure",
        -9.559813319365537
      ],
      [
        "Ġiron",
        -9.561928318811775
      ],
      [
        "Ġfiber",
        -9.562345434804156
      ],
      [
        "Ġfoot",
        -9.562988712028922
      ],
      [
        "Ġmessage",
        -9.563082246826268
      ],
      [
        "ĠCenter",
        -9.563558552009992
      ],
      [
        "Ġfloor",
        -9.563861127328847
      ],
      [
        "Ġpowerful",
        -9.564016489090312
      ],
      [
        "Ġfabric",
        -9.566243012608894
      ],
      [
        "Ġdegrees",
        -9.566412438122656
      ],
      [
        "Ġ#",
        -9.566669931442604
      ],
      [
        "Ġroad",
        -9.566789598052438
      ],
      [
        "Ġroot",
        -9.567283723229718
      ],
      [
        "bility",
        -9.567665751599431
      ],
      [
        "Q",
        -9.56839571650472
      ],
      [
        "Some",
        -9.569160385769088
      ],
      [
        "gan",
        -9.569175736019831
      ],
      [
        "Ġheavy",
        -9.569823170903623
      ],
      [
        "Ġmedication",
        -9.56983512541906
      ],
      [
        "Ġfriends",
        -9.570511208898278
      ],
      [
        "Ġcommercial",
        -9.570621623098438
      ],
      [
        "Ġproperty",
        -9.571192406109745
      ],
      [
        "Ġdiabetes",
        -9.572473761931864
      ],
      [
        "Ġsolid",
        -9.572717632627825
      ],
      [
        "âĢ¢",
        -9.573271767069883
      ],
      [
        "Ġvirus",
        -9.573546726455753
      ],
      [
        "Ġaid",
        -9.57375874123031
      ],
      [
        "ĠAre",
        -9.574412361455876
      ],
      [
        "Ġcount",
        -9.576358835345452
      ],
      [
        "Ġstem",
        -9.57692639079511
      ],
      [
        "Ġdriver",
        -9.57720021822001
      ],
      [
        "An",
        -9.577229626704128
      ],
      [
        "Do",
        -9.577380453839016
      ],
      [
        "Ġreview",
        -9.578116065382655
      ],
      [
        "Ġsmooth",
        -9.57838018934579
      ],
      [
        "Ġmeasurement",
        -9.57877124653415
      ],
      [
        "Ġthinking",
        -9.579245092494313
      ],
      [
        "Ġbox",
        -9.58009490947297
      ],
      [
        "Ġobserve",
        -9.580403854954216
      ],
      [
        "Ġtasks",
        -9.580403910577068
      ],
      [
        "Ġwonder",
        -9.580903919216963
      ],
      [
        "Ġsend",
        -9.580953070558886
      ],
      [
        "Ġrefer",
        -9.58098301951669
      ],
      [
        "With",
        -9.583646872838278
      ],
      [
        "Ġpanel",
        -9.584579246238157
      ],
      [
        "ĠOf",
        -9.587772226362162
      ],
      [
        "Ġparticles",
        -9.588187040269316
      ],
      [
        "Ġindicate",
        -9.588329370608484
      ],
      [
        "Ġresistance",
        -9.589003716113725
      ],
      [
        "Ġfunctions",
        -9.591745781324535
      ],
      [
        "Ġdeath",
        -9.592677970309593
      ],
      [
        "Ġcontext",
        -9.593560324845122
      ],
      [
        "Ġpest",
        -9.595016155790317
      ],
      [
        "Ġmotion",
        -9.59639045669043
      ],
      [
        "Ġapproximate",
        -9.597285729441628
      ],
      [
        "Ġphase",
        -9.597421933484274
      ],
      [
        "Ġconsistent",
        -9.59876727078236
      ],
      [
        "Ġopportunity",
        -9.599076722835823
      ],
      [
        "Ġearth",
        -9.599619961527102
      ],
      [
        "Ġsensor",
        -9.599756864598522
      ],
      [
        "ful",
        -9.599908348510642
      ],
      [
        "fish",
        -9.600403743088735
      ],
      [
        "Ġflight",
        -9.600927282420416
      ],
      [
        "Ġworth",
        -9.601712715719728
      ],
      [
        "Ġsuitabl",
        -9.601917780792956
      ],
      [
        "Ġpurchase",
        -9.603600582634982
      ],
      [
        "Ġconnected",
        -9.604812100872904
      ],
      [
        "ĠWho",
        -9.604903045013
      ],
      [
        "Ġstrategies",
        -9.605845714892444
      ],
      [
        "ĠBe",
        -9.606547144075254
      ],
      [
        "Ġswitch",
        -9.606988283650631
      ],
      [
        "Ġcapacity",
        -9.608436831601663
      ],
      [
        "Ġfully",
        -9.608467222045247
      ],
      [
        "Ġmen",
        -9.61031536427948
      ],
      [
        "Ġdeliver",
        -9.610427610590463
      ],
      [
        "Ġnumbers",
        -9.610652163653
      ],
      [
        "Ġphotograph",
        -9.61127288493118
      ],
      [
        "Ġcouple",
        -9.611482566151713
      ],
      [
        "Ġforward",
        -9.611595584190244
      ],
      [
        "Ġwrong",
        -9.611744153115124
      ],
      [
        "Ġmedium",
        -9.61299686906409
      ],
      [
        "Ġforms",
        -9.614168406391896
      ],
      [
        "Ġconsumption",
        -9.614230454141614
      ],
      [
        "Ġpicture",
        -9.614234161803664
      ],
      [
        "Ġquick",
        -9.614583738216094
      ],
      [
        "land",
        -9.614934820596908
      ],
      [
        "Ġinteresting",
        -9.615963361818327
      ],
      [
        "ĠEnglish",
        -9.616802384129135
      ],
      [
        "Ġpush",
        -9.616828359244757
      ],
      [
        "lthough",
        -9.618249267961474
      ],
      [
        "Ġstand",
        -9.61879318406604
      ],
      [
        "Ġsort",
        -9.619044382665876
      ],
      [
        "almos",
        -9.621676852712138
      ],
      [
        "ily",
        -9.622004676781716
      ],
      [
        "V",
        -9.623749292575784
      ],
      [
        "K",
        -9.624421363993044
      ],
      [
        "Ġlose",
        -9.625190136563264
      ],
      [
        "Ġreference",
        -9.627492256907813
      ],
      [
        "Ġinches",
        -9.62907889608493
      ],
      [
        "beyond",
        -9.631936714338536
      ],
      [
        "Ġrain",
        -9.632594735094528
      ],
      [
        "alone",
        -9.633256428377528
      ],
      [
        "Ġsustainabl",
        -9.63362890682026
      ],
      [
        "Now",
        -9.635079232371496
      ],
      [
        "Ġpark",
        -9.63534003569606
      ],
      [
        "Ġemissions",
        -9.635738286577697
      ],
      [
        "ĠNow",
        -9.636908750265938
      ],
      [
        "Ġhuge",
        -9.636981968341964
      ],
      [
        "written",
        -9.638247689160362
      ],
      [
        "Ġshot",
        -9.638558679745117
      ],
      [
        "Ġrecord",
        -9.638905206855064
      ],
      [
        "ĠWater",
        -9.639403349801256
      ],
      [
        "Ġmiddle",
        -9.640826083974453
      ],
      [
        "work",
        -9.64131663747067
      ],
      [
        "Ġrepair",
        -9.641820880357242
      ],
      [
        "Ġcard",
        -9.644107838675172
      ],
      [
        "Ġvital",
        -9.645239949748587
      ],
      [
        "Ġcharacteristic",
        -9.646398229340043
      ],
      [
        "Ġaren",
        -9.647087525940249
      ],
      [
        "Ġdrawing",
        -9.647316534344853
      ],
      [
        "Ġvariable",
        -9.648358610577835
      ],
      [
        "Ġdepth",
        -9.648652878349068
      ],
      [
        "Ġfair",
        -9.6493540287837
      ],
      [
        "Ġcontainer",
        -9.649417151298618
      ],
      [
        "Ġthousand",
        -9.649540129216192
      ],
      [
        "Ġvitamin",
        -9.649769470818557
      ],
      [
        "Ġpick",
        -9.649956277227783
      ],
      [
        "Ġdraw",
        -9.65033585115493
      ],
      [
        "Ġcoming",
        -9.650585831135515
      ],
      [
        "Ġchang",
        -9.650594105150867
      ],
      [
        "Ġbright",
        -9.653200603393978
      ],
      [
        "ĠLet",
        -9.654037828247834
      ],
      [
        "ĠState",
        -9.654622877344064
      ],
      [
        "Ġwrite",
        -9.655735569131927
      ],
      [
        "Ġco",
        -9.65575591101885
      ],
      [
        "Ġpieces",
        -9.655812132306878
      ],
      [
        "Ġstick",
        -9.657173204055796
      ],
      [
        "Ġintroduce",
        -9.657540147404374
      ],
      [
        "ĠOnc",
        -9.657851802872788
      ],
      [
        "Ġpaint",
        -9.659827792639444
      ],
      [
        "Ġprevious",
        -9.660462197851594
      ],
      [
        "Ġmatch",
        -9.661854519232634
      ],
      [
        "Ġgames",
        -9.6637488734854
      ],
      [
        "They",
        -9.664081249581407
      ],
      [
        "Ġexpress",
        -9.664425810260088
      ],
      [
        "Ġdynamic",
        -9.666627285349602
      ],
      [
        "mm",
        -9.66779258694115
      ],
      [
        "wildlife",
        -9.66838624387598
      ],
      [
        "ĠOther",
        -9.66937149304132
      ],
      [
        "Ġsupplement",
        -9.671198051392995
      ],
      [
        "ish",
        -9.67139484273546
      ],
      [
        "ĠMake",
        -9.671861251314647
      ],
      [
        "Ġexcellent",
        -9.672673773150628
      ],
      [
        "Ġsecure",
        -9.673011443595058
      ],
      [
        "Ġvegetables",
        -9.675747976852648
      ],
      [
        "Ġnational",
        -9.677080355714915
      ],
      [
        "Ġplanning",
        -9.677089655913942
      ],
      [
        "Ġchallenge",
        -9.67873345377247
      ],
      [
        "Ġleader",
        -9.678809966108558
      ],
      [
        "Ġsell",
        -9.67894833734261
      ],
      [
        "Ġsociet",
        -9.67953465477944
      ],
      [
        "Ġalcohol",
        -9.67980625728483
      ],
      [
        "ĠDay",
        -9.680125313358085
      ],
      [
        "Ġoperat",
        -9.682201957388155
      ],
      [
        "Ġsurrounding",
        -9.68235990071352
      ],
      [
        "Ġevolution",
        -9.682367941911842
      ],
      [
        "Ġprocessing",
        -9.683982664705946
      ],
      [
        "Ġcontroll",
        -9.684552795358927
      ],
      [
        "Ġgrass",
        -9.68534333032045
      ],
      [
        "**",
        -9.685879353960964
      ],
      [
        "That",
        -9.68776764839685
      ],
      [
        "Ġcolour",
        -9.68921379698227
      ],
      [
        "Ġtexture",
        -9.689685473514649
      ],
      [
        "Ġinternal",
        -9.69032327853321
      ],
      [
        "Ġstructures",
        -9.690333038218196
      ],
      [
        "lost",
        -9.691158005921682
      ],
      [
        "haps",
        -9.691285703566688
      ],
      [
        "went",
        -9.692895298956644
      ],
      [
        "On",
        -9.694199710485702
      ],
      [
        "L",
        -9.694253618544709
      ],
      [
        "Ġspeak",
        -9.694402749001911
      ],
      [
        "Ġdead",
        -9.694473032589205
      ],
      [
        "Ġexpand",
        -9.6948962361984
      ],
      [
        "Ġmanufacturer",
        -9.695336589855188
      ],
      [
        "Ġmulti",
        -9.696074855395644
      ],
      [
        "means",
        -9.697044197228845
      ],
      [
        "Ġcomfortabl",
        -9.697093507242249
      ],
      [
        "Ġrecognize",
        -9.698227240508928
      ],
      [
        "Ġresulting",
        -9.698239550294655
      ],
      [
        "Ġcapture",
        -9.702751179464926
      ],
      [
        "Ġnoise",
        -9.7035870479581
      ],
      [
        "Ġexpected",
        -9.703814866197591
      ],
      [
        "Ġinternational",
        -9.705161506551397
      ],
      [
        "Ġcomponent",
        -9.705833245453771
      ],
      [
        "Ġlegal",
        -9.705928091486928
      ],
      [
        "Ġscreen",
        -9.706092338650327
      ],
      [
        "Ġsustain",
        -9.706178470640562
      ],
      [
        "Ġlabel",
        -9.70653659570553
      ],
      [
        "Ġseed",
        -9.707413850918286
      ],
      [
        "Ġload",
        -9.707957234998208
      ],
      [
        "Ġmiles",
        -9.70846341104136
      ],
      [
        "Ġmode",
        -9.708905080339328
      ],
      [
        "ĠHigh",
        -9.70989930574036
      ],
      [
        "Ġtechnologies",
        -9.710150191161729
      ],
      [
        "ĠOr",
        -9.710335812526056
      ],
      [
        "Ġonto",
        -9.710359993489206
      ],
      [
        "Ġweb",
        -9.711808579579236
      ],
      [
        "Ġattempt",
        -9.711914572051953
      ],
      [
        "ĠFirst",
        -9.713683572935102
      ],
      [
        "Ġdemonstrate",
        -9.714355094616632
      ],
      [
        "Ġdriv",
        -9.715742242277967
      ],
      [
        "efore",
        -9.716126011468177
      ],
      [
        ".com",
        -9.718370058320437
      ],
      [
        "Ġbackground",
        -9.719675711737716
      ],
      [
        "Ġmouth",
        -9.719873500568829
      ],
      [
        "Ġheight",
        -9.72058459695306
      ],
      [
        "About",
        -9.72148189289978
      ],
      [
        "ĠMay",
        -9.72167476637959
      ],
      [
        "Ġconservation",
        -9.72183582130029
      ],
      [
        "Ġhighlight",
        -9.722153029123112
      ],
      [
        "Ġfriend",
        -9.72279673222194
      ],
      [
        "Ġpull",
        -9.723054632754668
      ],
      [
        "Ġhabitat",
        -9.724848412727102
      ],
      [
        "Ġfinish",
        -9.725793598551222
      ],
      [
        "Ġreveal",
        -9.72621133651737
      ],
      [
        "Ġfamili",
        -9.726740734436495
      ],
      [
        "Ġaffected",
        -9.729573240350792
      ],
      [
        "Ġregions",
        -9.729914719846487
      ],
      [
        "Ġvaluable",
        -9.730680900601644
      ],
      [
        "Ġsquare",
        -9.730796513309414
      ],
      [
        "Ġrules",
        -9.730951420382672
      ],
      [
        "Ġexpression",
        -9.731606984345516
      ],
      [
        "Ġfinancial",
        -9.732167797015675
      ],
      [
        "ers",
        -9.733136804623763
      ],
      [
        "Ġlens",
        -9.734664224594136
      ],
      [
        "Ġmiss",
        -9.734687331294406
      ],
      [
        "Ġpractical",
        -9.734783283364564
      ],
      [
        "Ġmaximum",
        -9.734939161139703
      ],
      [
        "Ġidentifie",
        -9.735285104140214
      ],
      [
        "Ġvoltage",
        -9.735443542305012
      ],
      [
        "Ġresident",
        -9.735480800159806
      ],
      [
        "ĠAccording",
        -9.735522736197105
      ],
      [
        "Ġplanet",
        -9.73592457125637
      ],
      [
        "Ġround",
        -9.7362455857444
      ],
      [
        "Ġbodies",
        -9.736580387458412
      ],
      [
        "Ġopportunit",
        -9.738768401030336
      ],
      [
        "ĠNOT",
        -9.739309051863508
      ],
      [
        "Ġexpect",
        -9.739516538638938
      ],
      [
        "ĠEven",
        -9.740004838829815
      ],
      [
        "X",
        -9.740387922204714
      ],
      [
        "Ġsequence",
        -9.740926826136276
      ],
      [
        "Ġhit",
        -9.7413613743599
      ],
      [
        "Ġlibrar",
        -9.741455538272728
      ],
      [
        "Ġsurvey",
        -9.742237376010248
      ],
      [
        "Ġdrug",
        -9.743988831087648
      ],
      [
        "Ġbreed",
        -9.744413174350743
      ],
      [
        "Ġregard",
        -9.745089225284593
      ],
      [
        "Ġmixture",
        -9.745408835215173
      ],
      [
        "upon",
        -9.746095687272712
      ],
      [
        "over",
        -9.746131226063952
      ],
      [
        "Ġsaw",
        -9.746286034575814
      ],
      [
        "Ġadvantage",
        -9.74660799533286
      ],
      [
        "ĠGod",
        -9.748293395116807
      ],
      [
        "Here",
        -9.749906578977612
      ],
      [
        "Ġpredict",
        -9.752798827043538
      ],
      [
        "Ġstuff",
        -9.752931689836709
      ],
      [
        "Ġmeasures",
        -9.753128623159768
      ],
      [
        "tiny",
        -9.753952279761313
      ],
      [
        "Ġaccept",
        -9.754192686583329
      ],
      [
        "Ġmember",
        -9.755994214099548
      ],
      [
        "Ġreported",
        -9.757091490205704
      ],
      [
        "âĪĴ",
        -9.757143222775262
      ],
      [
        "Ġactual",
        -9.757286616102371
      ],
      [
        "ĠEuropean",
        -9.757287458599611
      ],
      [
        "Ġanti",
        -9.75775555234032
      ],
      [
        "Ġplease",
        -9.75808748013027
      ],
      [
        "Ġsheet",
        -9.758707839955918
      ],
      [
        "ĠUK",
        -9.759734021323744
      ],
      [
        "Ġimmune",
        -9.76068946263186
      ],
      [
        "for",
        -9.76104571579146
      ],
      [
        "Ġbar",
        -9.761563195505396
      ],
      [
        "-like",
        -9.761624623769348
      ],
      [
        "Ġdouble",
        -9.763992843984289
      ],
      [
        "Ġrates",
        -9.765918920010316
      ],
      [
        "Ġsuit",
        -9.766788066712238
      ],
      [
        "studies",
        -9.76751738330983
      ],
      [
        "Ġsteel",
        -9.768580306768223
      ],
      [
        "Ġelectronic",
        -9.770679071026525
      ],
      [
        "Ġmedicine",
        -9.772302874387918
      ],
      [
        "Ġdegree",
        -9.772345916003117
      ],
      [
        "Ġgrade",
        -9.772406379382192
      ],
      [
        "Ġconcentration",
        -9.773259493334296
      ],
      [
        "Ġbeginning",
        -9.773639537379118
      ],
      [
        "Ġroots",
        -9.774385757759156
      ],
      [
        "Ġowner",
        -9.77447635893565
      ],
      [
        "Ġfeeding",
        -9.774951228352313
      ],
      [
        "Ġrespond",
        -9.775032128745334
      ],
      [
        "ĠAlthough",
        -9.776015339810495
      ],
      [
        "Ġcoast",
        -9.7763007899471
      ],
      [
        "Ġselection",
        -9.77650917688609
      ],
      [
        "Ġequation",
        -9.778845992302356
      ],
      [
        "Ġannual",
        -9.780216921576145
      ],
      [
        "ĠInstitute",
        -9.781778974599144
      ],
      [
        "Ġcomfort",
        -9.782172442428394
      ],
      [
        "Ġcentral",
        -9.78277473369122
      ],
      [
        "Ġfavorite",
        -9.782838713104535
      ],
      [
        "Ġorganization",
        -9.782931296496525
      ],
      [
        "Ġcarrie",
        -9.783035460448636
      ],
      [
        "Ġwindow",
        -9.786591823548465
      ],
      [
        "Ġstaff",
        -9.786837949396968
      ],
      [
        "Ġmarine",
        -9.786956321563
      ],
      [
        "Ġclick",
        -9.788320400542716
      ],
      [
        "Ġblog",
        -9.788362062437743
      ],
      [
        "Ġsurvive",
        -9.7884813200318
      ],
      [
        "Ġrecycl",
        -9.789246090907778
      ],
      [
        "Ġhabit",
        -9.789481300968667
      ],
      [
        "Ġtests",
        -9.790191735350326
      ],
      [
        "Ġteachers",
        -9.791407317765437
      ],
      [
        "Ġdrop",
        -9.79162413739688
      ],
      [
        "Ġfail",
        -9.791901543202268
      ],
      [
        "Ġdistribution",
        -9.79218866048836
      ],
      [
        "Ġfight",
        -9.793074595954916
      ],
      [
        "Ġgap",
        -9.79478076511032
      ],
      [
        "Ġmotor",
        -9.794791690267337
      ],
      [
        "Ġfarmer",
        -9.79513677733724
      ],
      [
        "Ġconsumer",
        -9.79658128121233
      ],
      [
        "Ġinsight",
        -9.79715899020171
      ],
      [
        "Ġcross",
        -9.797586181843933
      ],
      [
        "Ġteaching",
        -9.79889054679106
      ],
      [
        "ĠDepartment",
        -9.79916382232084
      ],
      [
        "Ġtransfer",
        -9.799535245405576
      ],
      [
        "Ġadvice",
        -9.80113636401554
      ],
      [
        "Ġsweet",
        -9.801186733345826
      ],
      [
        "Ġabsorb",
        -9.801434149104384
      ],
      [
        "Ġdangerous",
        -9.801628174771968
      ],
      [
        "Ġprogress",
        -9.802045587404995
      ],
      [
        "Ġangle",
        -9.803516719948966
      ],
      [
        "Ġoperation",
        -9.80355720073019
      ],
      [
        "Ġshift",
        -9.80371771720066
      ],
      [
        "Ġroof",
        -9.804108256246456
      ],
      [
        "Ġappearance",
        -9.806180823662476
      ],
      [
        "head",
        -9.80666596416476
      ],
      [
        "Ġeconomic",
        -9.807531409278564
      ],
      [
        "Ġdoor",
        -9.80848875441252
      ],
      [
        "ĠDur",
        -9.810027643260383
      ],
      [
        "ĠCalifornia",
        -9.810468629288458
      ],
      [
        "Ġoutcome",
        -9.810828284621476
      ],
      [
        "Ġsports",
        -9.81126970505132
      ],
      [
        "Y",
        -9.81178481076204
      ],
      [
        "Ġfashion",
        -9.812607488018394
      ],
      [
        "Ġrule",
        -9.815433502675251
      ],
      [
        "ĠSince",
        -9.815991477783
      ],
      [
        "Ġcustomer",
        -9.816026281986431
      ],
      [
        "Ġemergenc",
        -9.816330221260834
      ],
      [
        "Ġsettings",
        -9.816911797674935
      ],
      [
        "Ġconsume",
        -9.817586679016577
      ],
      [
        "Ġexamples",
        -9.817631064445113
      ],
      [
        "Ġdie",
        -9.817907824045273
      ],
      [
        "Ġassess",
        -9.81835820033959
      ],
      [
        "Ġbasis",
        -9.82186692453048
      ],
      [
        "Ġpot",
        -9.822042033045223
      ],
      [
        "Ġphoto",
        -9.822097183304347
      ],
      [
        "Ġstock",
        -9.822267369588896
      ],
      [
        "Ġcategor",
        -9.823347801016514
      ],
      [
        "Ġdecade",
        -9.823494407371
      ],
      [
        "Ġhappy",
        -9.824691050001183
      ],
      [
        "ĠEnergy",
        -9.825392916444104
      ],
      [
        "Ġcore",
        -9.825805962756329
      ],
      [
        "Ġregarding",
        -9.825873278707654
      ],
      [
        "Ġflat",
        -9.82690808322782
      ],
      [
        "Ġshell",
        -9.827555923736488
      ],
      [
        "Ġnest",
        -9.827732063968456
      ],
      [
        "Ġdrain",
        -9.82803994564263
      ],
      [
        "Ġroutine",
        -9.828320424736996
      ],
      [
        "Ġcomment",
        -9.82999089936964
      ],
      [
        "Ġpress",
        -9.830499889912826
      ],
      [
        "Ġplaces",
        -9.83277559386541
      ],
      [
        "Ġemotional",
        -9.833318711862873
      ],
      [
        "Ġchemicals",
        -9.833903661859985
      ],
      [
        "ĠRiver",
        -9.834560757230292
      ],
      [
        "Ġbillion",
        -9.834599061180882
      ],
      [
        "Ġcatch",
        -9.835262498366172
      ],
      [
        "Ġattract",
        -9.8353684198582
      ],
      [
        "Ġbroad",
        -9.835447173468316
      ],
      [
        "Ġinterested",
        -9.83547665057086
      ],
      [
        "Ġsites",
        -9.836154556881056
      ],
      [
        "Ġlearned",
        -9.83697983957092
      ],
      [
        "ĠIndia",
        -9.837277177540225
      ],
      [
        "Ġassist",
        -9.8379481973157
      ],
      [
        "held",
        -9.83852488154166
      ],
      [
        "Ġrock",
        -9.83858108709068
      ],
      [
        "Ġpollution",
        -9.839830941597125
      ],
      [
        "Ġarray",
        -9.839835726314826
      ],
      [
        "Ġresource",
        -9.840512551468652
      ],
      [
        "wide",
        -9.841383332605542
      ],
      [
        "Ġmelt",
        -9.844774825280698
      ],
      [
        "ĠAfrica",
        -9.845632104187072
      ],
      [
        "Ġeventual",
        -9.84646994174137
      ],
      [
        "Our",
        -9.847440428261768
      ],
      [
        "Ġsession",
        -9.84776962828331
      ],
      [
        "Ġhour",
        -9.848210865568625
      ],
      [
        "Ġshade",
        -9.848913173929969
      ],
      [
        "ĠEducation",
        -9.850041987453311
      ],
      [
        "Ġartist",
        -9.850139938625269
      ],
      [
        "Ġperspective",
        -9.851322904871152
      ],
      [
        "Ġoptimal",
        -9.85189840542886
      ],
      [
        "Ġcreative",
        -9.852279419223088
      ],
      [
        "Ġorgan",
        -9.852485990840766
      ],
      [
        "Ġchocolate",
        -9.853607014424828
      ],
      [
        "ĠJust",
        -9.8540876774284
      ],
      [
        "Ġcapabilit",
        -9.85606953596157
      ],
      [
        "Ġfinding",
        -9.857323323393333
      ],
      [
        "Ġsub",
        -9.857671694738888
      ],
      [
        "Ġtypical",
        -9.85923671381742
      ],
      [
        "ber",
        -9.8600029939284
      ],
      [
        "Ġnice",
        -9.860513801536491
      ],
      [
        "Ġprefer",
        -9.860613802078504
      ],
      [
        "Ġvoice",
        -9.860804165397528
      ],
      [
        "Ġexternal",
        -9.860962312497566
      ],
      [
        "Ġgettin",
        -9.861554240519688
      ],
      [
        "Ġhundred",
        -9.862475797550502
      ],
      [
        "Ġbooks",
        -9.86377104185772
      ],
      [
        "Ġcustomers",
        -9.8638360384864
      ],
      [
        "Ġcomprehensive",
        -9.864059523511862
      ],
      [
        "Ġtopic",
        -9.865529799325271
      ],
      [
        "which",
        -9.865581861648211
      ],
      [
        "No",
        -9.866484259296763
      ],
      [
        "Ġbiological",
        -9.866544318955944
      ],
      [
        "Ġbirth",
        -9.866763137396592
      ],
      [
        "Ġearlie",
        -9.867370771918472
      ],
      [
        "Ġinstructions",
        -9.86785394179512
      ],
      [
        "time",
        -9.868388222562556
      ],
      [
        "created",
        -9.868823542363092
      ],
      [
        "Ġcalculate",
        -9.86915225402752
      ],
      [
        "ĠCO",
        -9.870030775988411
      ],
      [
        "Ġmanual",
        -9.873168533359305
      ],
      [
        "ĠTherefor",
        -9.873502077982822
      ],
      [
        "ĠPark",
        -9.874430996331776
      ],
      [
        "Ġburn",
        -9.87547506314121
      ],
      [
        "Ġmother",
        -9.876064531987836
      ],
      [
        "-free",
        -9.878932918198894
      ],
      [
        "Ġtrigger",
        -9.879559583801395
      ],
      [
        "Ġportion",
        -9.881144821702623
      ],
      [
        "Ġraw",
        -9.881622461401529
      ],
      [
        "Ġsurger",
        -9.881861258763443
      ],
      [
        "Ġreceived",
        -9.882191800781808
      ],
      [
        "Ġoffice",
        -9.882459580728352
      ],
      [
        "told",
        -9.88337202862478
      ],
      [
        "immediately",
        -9.883663434032144
      ],
      [
        "side",
        -9.884533531060145
      ],
      [
        "that",
        -9.884910126572883
      ],
      [
        "Ġvirtual",
        -9.885599123158771
      ],
      [
        "Ġsnow",
        -9.885784437847304
      ],
      [
        "visible",
        -9.885834709396502
      ],
      [
        "Ġatmosphere",
        -9.885896713793684
      ],
      [
        "Ġexperiences",
        -9.88669089216066
      ],
      [
        "ĠâĢ¢",
        -9.887257957923785
      ],
      [
        "Ġchain",
        -9.88806592014446
      ],
      [
        "After",
        -9.88823125049139
      ],
      [
        "Ġedge",
        -9.888450635721473
      ],
      [
        "Ġreliabl",
        -9.889456698387669
      ],
      [
        "Ġsport",
        -9.890467023751436
      ],
      [
        "body",
        -9.890580054689933
      ],
      [
        "rought",
        -9.8919610398901
      ],
      [
        "Ġvalve",
        -9.892844578009928
      ],
      [
        "Ġteacher",
        -9.894480048908164
      ],
      [
        "Ġblade",
        -9.895042890290563
      ],
      [
        "Ġgoals",
        -9.897128640940588
      ],
      [
        "ĠEurope",
        -9.897356670553336
      ],
      [
        "Ġschedule",
        -9.898494575475247
      ],
      [
        "Ġnumero",
        -9.899784139451004
      ],
      [
        "Ġlab",
        -9.900793025633808
      ],
      [
        "Ġrid",
        -9.901266048291172
      ],
      [
        "Ġowners",
        -9.901443850571866
      ],
      [
        "ĠOver",
        -9.902094076406286
      ],
      [
        "Ġoperate",
        -9.902697402323485
      ],
      [
        "Ġclassroom",
        -9.90329387589073
      ],
      [
        "Ġskill",
        -9.90452434178287
      ],
      [
        "Ġmid",
        -9.90457733507001
      ],
      [
        "Ġinform",
        -9.905359049969077
      ],
      [
        "Ġsounds",
        -9.905987582670766
      ],
      [
        "related",
        -9.906429329073664
      ],
      [
        "Ġconclusion",
        -9.906578829798148
      ],
      [
        "ĠAustralia",
        -9.90672344202546
      ],
      [
        "Ġcake",
        -9.90680473312771
      ],
      [
        "Ġphotos",
        -9.907321102084582
      ],
      [
        "Ġlayers",
        -9.90760935511295
      ],
      [
        "itis",
        -9.90858617748367
      ],
      [
        "ything",
        -9.908603258202124
      ],
      [
        "Ġraise",
        -9.908723766614036
      ],
      [
        "Ġwanted",
        -9.90883667722114
      ],
      [
        "Ġstandards",
        -9.908996722602996
      ],
      [
        "Ġwalls",
        -9.909625530994242
      ],
      [
        "All",
        -9.91162617940184
      ],
      [
        "Ġrespect",
        -9.91163096986986
      ],
      [
        "Ġmorning",
        -9.912100276063573
      ],
      [
        "Ġestimate",
        -9.9129167968874
      ],
      [
        "Ġvariation",
        -9.913552956086018
      ],
      [
        "Ġstraight",
        -9.91403182545828
      ],
      [
        "Ġchalleng",
        -9.914262268307157
      ],
      [
        "Ġfilm",
        -9.914690884014943
      ],
      [
        "Ġmeasur",
        -9.91478465955046
      ],
      [
        "Ġclasses",
        -9.914786574199091
      ],
      [
        "ĠPeople",
        -9.91557695288639
      ],
      [
        "Ġtrip",
        -9.915786649800456
      ],
      [
        "Ġclient",
        -9.915823823824663
      ],
      [
        "Ġhydrogen",
        -9.916373073754473
      ],
      [
        "Ġbutton",
        -9.917463882255088
      ],
      [
        "ĠGreat",
        -9.917788956424795
      ],
      [
        "Ġtransition",
        -9.918220687824803
      ],
      [
        "Ġofficial",
        -9.918799707680211
      ],
      [
        "self",
        -9.91919696073959
      ],
      [
        "âĢĻt",
        -9.919348584884537
      ],
      [
        "Ġplanting",
        -9.919708059398218
      ],
      [
        "Ġthin",
        -9.91979387681819
      ],
      [
        "Ġhelpful",
        -9.920442975864802
      ],
      [
        "Ġinvestment",
        -9.92153387674809
      ],
      [
        "Ġartificial",
        -9.92186848898711
      ],
      [
        "Ġcareer",
        -9.922988240987385
      ],
      [
        "Ġcloud",
        -9.923795961918822
      ],
      [
        "Ġconcrete",
        -9.923953553698189
      ],
      [
        "Ġreduction",
        -9.924839612140174
      ],
      [
        "Ġchanged",
        -9.92539147998535
      ],
      [
        "Ġratio",
        -9.92635044763828
      ],
      [
        "ĠFood",
        -9.926702285208435
      ],
      [
        "ĠEvery",
        -9.927643373095682
      ],
      [
        "Ġupper",
        -9.928094266953437
      ],
      [
        "Ġexpose",
        -9.929137542351304
      ],
      [
        "water",
        -9.92984452795119
      ],
      [
        "Ġdetailed",
        -9.930312025277113
      ],
      [
        "Answer",
        -9.932043119693368
      ],
      [
        "Ġimprovement",
        -9.932059794728184
      ],
      [
        "Ġcheese",
        -9.932472953432626
      ],
      [
        "Ġchannel",
        -9.934114757706812
      ],
      [
        "Ġgets",
        -9.934740503325912
      ],
      [
        "Ġmagnetic",
        -9.93655641119796
      ],
      [
        "Ġstorie",
        -9.937289171938078
      ],
      [
        "#",
        -9.93804566600859
      ],
      [
        "ĠpH",
        -9.9393899542626
      ],
      [
        "Ġcultural",
        -9.939834782255456
      ],
      [
        "Ġedit",
        -9.94053626803185
      ],
      [
        "Ġformation",
        -9.94106397318906
      ],
      [
        "Ġbatteries",
        -9.941739543778366
      ],
      [
        "Ġcarefully",
        -9.942280010125772
      ],
      [
        "Ġpolicy",
        -9.942567820885015
      ],
      [
        "Ġfly",
        -9.942884941340823
      ],
      [
        "Ġtri",
        -9.943824427517326
      ],
      [
        "Ġdiscussion",
        -9.944486907595437
      ],
      [
        "Ġwheel",
        -9.94474087046374
      ],
      [
        "Ġillness",
        -9.94542324814396
      ],
      [
        "Ġcontrast",
        -9.945740148886948
      ],
      [
        "Ġcreature",
        -9.945858635132824
      ],
      [
        "Ġtechnical",
        -9.945945934677042
      ],
      [
        "Ġdur",
        -9.946208479366987
      ],
      [
        "Ġyield",
        -9.94660017113062
      ],
      [
        "Ġimproved",
        -9.946894998936
      ],
      [
        "Ġcredit",
        -9.947964004061216
      ],
      [
        "Ġcontinuous",
        -9.949122017906667
      ],
      [
        "Ġharvest",
        -9.949445968967083
      ],
      [
        "ĠLake",
        -9.949550662600068
      ],
      [
        "Ġfirm",
        -9.949914776940938
      ],
      [
        "Ġbottle",
        -9.9499251367806
      ],
      [
        "-being",
        -9.95220701361211
      ],
      [
        "ence",
        -9.95263493132726
      ],
      [
        "Ġsector",
        -9.953349513892237
      ],
      [
        "Ġemail",
        -9.954232911149171
      ],
      [
        "Ġthick",
        -9.95439379680476
      ],
      [
        "Ġvector",
        -9.954502401669297
      ],
      [
        "/or",
        -9.955480639980628
      ],
      [
        "Ġsaving",
        -9.955980222032842
      ],
      [
        "Ġemployee",
        -9.95640222534492
      ],
      [
        "Ġlay",
        -9.95684345341385
      ],
      [
        "Ġnamed",
        -9.957410959740052
      ],
      [
        "Ġinterface",
        -9.9576492549084
      ],
      [
        "Ġoffering",
        -9.95833545043694
      ],
      [
        "Ġwet",
        -9.958479574764016
      ],
      [
        "Ġremoved",
        -9.959067472964636
      ],
      [
        "Ġfindings",
        -9.960555130810814
      ],
      [
        "Ġtrust",
        -9.96093003931462
      ],
      [
        "Ġcars",
        -9.96149021273198
      ],
      [
        "Ġfossil",
        -9.961518347309202
      ],
      [
        "Ġstrategy",
        -9.961791039348478
      ],
      [
        "Ġcheap",
        -9.96215555009558
      ],
      [
        "Ġprimari",
        -9.962183132436149
      ],
      [
        "Ġinteract",
        -9.96357161604158
      ],
      [
        "Ġparticipant",
        -9.965466980329376
      ],
      [
        "Ġoperations",
        -9.965874061050885
      ],
      [
        "Ġshared",
        -9.966294869117892
      ],
      [
        "Ġagree",
        -9.966294920116445
      ],
      [
        "Ġupdate",
        -9.967155517311888
      ],
      [
        "Ġeducational",
        -9.96716358237708
      ],
      [
        "Ġseat",
        -9.967319769991924
      ],
      [
        "Ġlaser",
        -9.967983264407748
      ],
      [
        "Ġwave",
        -9.96811314219888
      ],
      [
        "Ġerror",
        -9.97105382861907
      ],
      [
        "Ġkitchen",
        -9.971082398199115
      ],
      [
        "Most",
        -9.971684376371922
      ],
      [
        "Ġteach",
        -9.9717825265389
      ],
      [
        "Ġmold",
        -9.97184303380142
      ],
      [
        "Ġlighting",
        -9.972002027948388
      ],
      [
        "Ġoutdoor",
        -9.974510638858671
      ],
      [
        "Ġtea",
        -9.975274343224022
      ],
      [
        "Ġorganisms",
        -9.976578803517938
      ],
      [
        "Ġleak",
        -9.977088847661612
      ],
      [
        "Ġcreation",
        -9.977134950201002
      ],
      [
        "Ġengineering",
        -9.977928465644904
      ],
      [
        "Ġemotion",
        -9.97837800852437
      ],
      [
        "Ġcream",
        -9.978594824844802
      ],
      [
        "-year",
        -9.978639286943253
      ],
      [
        "Ġhistorical",
        -9.979288607085328
      ],
      [
        "Ġguid",
        -9.980490139969792
      ],
      [
        "Ġprior",
        -9.982251013115023
      ],
      [
        "Ġindustrial",
        -9.98318681947316
      ],
      [
        "Ġengage",
        -9.983575421168386
      ],
      [
        "Ġinteractions",
        -9.983702305286238
      ],
      [
        ".[",
        -9.983765698282957
      ],
      [
        "Ġshowed",
        -9.985343004975013
      ],
      [
        "Ġplate",
        -9.986263290957869
      ],
      [
        "Ġsolve",
        -9.986293978258937
      ],
      [
        "if",
        -9.987112227862168
      ],
      [
        "Ġisland",
        -9.987448256683756
      ],
      [
        "Ġbite",
        -9.987465911225804
      ],
      [
        "Ġaware",
        -9.98775079453168
      ],
      [
        "Ġwar",
        -9.988324631311492
      ],
      [
        "Ġobvious",
        -9.988372291596786
      ],
      [
        "Ġenzyme",
        -9.988465646629354
      ],
      [
        "latest",
        -9.988570285281448
      ],
      [
        "Ġcontract",
        -9.989390288589789
      ],
      [
        "Ġorigin",
        -9.990156075285382
      ],
      [
        "Ġthrow",
        -9.990371314996844
      ],
      [
        "Ġoccurr",
        -9.990580148928707
      ],
      [
        "capable",
        -9.99106233641122
      ],
      [
        "Ġtalking",
        -9.991229470755968
      ],
      [
        "ĠKeep",
        -9.9914109487561
      ],
      [
        "Ġancient",
        -9.99168054042131
      ],
      [
        "Ġuniverse",
        -9.991736453306746
      ],
      [
        "Ġstomach",
        -9.99175076246843
      ],
      [
        "-in",
        -9.99249109306696
      ],
      [
        "Ġbeneficial",
        -9.993706006407924
      ],
      [
        "Ġbike",
        -9.99382739858942
      ],
      [
        "Ġprepared",
        -9.994497825759112
      ],
      [
        "ĠDoes",
        -9.99452097655923
      ],
      [
        "Ġblend",
        -9.99460099242754
      ],
      [
        "ctober",
        -9.995081416177287
      ],
      [
        "Ġultimate",
        -9.99560079595962
      ],
      [
        "Ġunits",
        -9.995640812477642
      ],
      [
        "Ġevolve",
        -9.99577590852684
      ],
      [
        "ĠDon",
        -9.9976926989848
      ],
      [
        "Are",
        -9.998693353003514
      ],
      [
        "Ġthorough",
        -9.999071997911866
      ],
      [
        "Ġlung",
        -10.000193387309803
      ],
      [
        "Ġautomatic",
        -10.001084982210092
      ],
      [
        "Ġharmful",
        -10.001283675679767
      ],
      [
        "Ġadopt",
        -10.001448305594495
      ],
      [
        "Ġdioxide",
        -10.001477208512227
      ],
      [
        "Many",
        -10.00186961111928
      ],
      [
        "Ġfiles",
        -10.001912695434306
      ],
      [
        "Ġgrain",
        -10.002081264805945
      ],
      [
        "Ġgenerator",
        -10.003212841384578
      ],
      [
        "ĠY",
        -10.004480824185524
      ],
      [
        "Ġroll",
        -10.005081194200187
      ],
      [
        "ĠQ",
        -10.00557306222158
      ],
      [
        "Ġquant",
        -10.005890552679812
      ],
      [
        "Ġlift",
        -10.005972024012411
      ],
      [
        "-quality",
        -10.006660013399587
      ],
      [
        "Ġcable",
        -10.007707962290285
      ],
      [
        "ĠYork",
        -10.007920075187377
      ],
      [
        "ĠMarch",
        -10.008375419059163
      ],
      [
        "Ġinvest",
        -10.00887197797076
      ],
      [
        "ĠAfrican",
        -10.00910669950002
      ],
      [
        "Ġformula",
        -10.009825804139972
      ],
      [
        "Ġconsideration",
        -10.010273173147358
      ],
      [
        "Ġestimated",
        -10.011106061764924
      ],
      [
        "Ġmeeting",
        -10.011446025502874
      ],
      [
        "Ġjoin",
        -10.012974547347872
      ],
      [
        "Ġbutter",
        -10.013561096509628
      ],
      [
        "Ġprompt",
        -10.013745155131229
      ],
      [
        "Ġlarges",
        -10.01431288270152
      ],
      [
        "Ġtransmission",
        -10.015002388146542
      ],
      [
        "Ġopinion",
        -10.015168808866402
      ],
      [
        "Ġgirl",
        -10.015183729838196
      ],
      [
        "Ġprepare",
        -10.015886174163116
      ],
      [
        "Ġfan",
        -10.015992765562498
      ],
      [
        "Ġcharacter",
        -10.016452518040944
      ],
      [
        "Your",
        -10.016633839339772
      ],
      [
        "Ġtru",
        -10.016855349073698
      ],
      [
        "Ġhelping",
        -10.018015269804025
      ],
      [
        "kept",
        -10.018084486558468
      ],
      [
        "Ġdecisions",
        -10.018267461808232
      ],
      [
        "Ġessay",
        -10.018930132975823
      ],
      [
        "Ġindoor",
        -10.019071639107947
      ],
      [
        "Ġbaking",
        -10.019151647395804
      ],
      [
        "Ġconsequence",
        -10.021964868446442
      ],
      [
        "Ġdatabase",
        -10.022502917980876
      ],
      [
        "Ġthread",
        -10.023110785758824
      ],
      [
        "Ġmaster",
        -10.023523811908902
      ],
      [
        "ĠBritish",
        -10.02446157918059
      ],
      [
        "Ġwaves",
        -10.024476074139733
      ],
      [
        "Ġobtain",
        -10.025051743532234
      ],
      [
        "Ġeconom",
        -10.025452023221876
      ],
      [
        "Ġfailure",
        -10.026570886000068
      ],
      [
        "Ġintend",
        -10.026918273627633
      ],
      [
        "line",
        -10.026955588631544
      ],
      [
        "Ġsit",
        -10.026991663331586
      ],
      [
        "ĠJohn",
        -10.027188224066856
      ],
      [
        "Ġdimension",
        -10.027565208707788
      ],
      [
        "Ġorganizations",
        -10.027653576012014
      ],
      [
        "Â±",
        -10.02782480476639
      ],
      [
        "Ġchoosing",
        -10.02791016663664
      ],
      [
        "ĠLike",
        -10.028012273079565
      ],
      [
        "Ġamazing",
        -10.0281226585603
      ],
      [
        "Ġplent",
        -10.02823292438812
      ],
      [
        "Ġrace",
        -10.028378442460095
      ],
      [
        "Ġvessel",
        -10.02863546984075
      ],
      [
        "Ġbill",
        -10.028751463136569
      ],
      [
        "at",
        -10.028841084436262
      ],
      [
        "Ġflood",
        -10.029483329092429
      ],
      [
        "Ġsymbol",
        -10.029709221018267
      ],
      [
        "ical",
        -10.030271060629673
      ],
      [
        "Ġagent",
        -10.030310645318137
      ],
      [
        "Ġheal",
        -10.030750466143498
      ],
      [
        "Ġattach",
        -10.03149109644776
      ],
      [
        "Ġguidelines",
        -10.031606900024082
      ],
      [
        "Ġsunlight",
        -10.031849906889173
      ],
      [
        "Ġreward",
        -10.032069517795506
      ],
      [
        "Ġtransform",
        -10.033078531011224
      ],
      [
        "ĠWell",
        -10.035174303591278
      ],
      [
        "-time",
        -10.035869966868912
      ],
      [
        "Ġfields",
        -10.03610072479312
      ],
      [
        "Ġcoat",
        -10.03622573131732
      ],
      [
        "Ġcomposition",
        -10.036848272363256
      ],
      [
        "]Ċ",
        -10.037807730446204
      ],
      [
        "Ġpregnanc",
        -10.038826906867197
      ],
      [
        "ian",
        -10.03905969500477
      ],
      [
        "Ġband",
        -10.03963815731386
      ],
      [
        "Ġgear",
        -10.04001888332957
      ],
      [
        "Ġinnovation",
        -10.040123767344776
      ],
      [
        "Ġbroke",
        -10.040320212697557
      ],
      [
        "Yes",
        -10.043983110386744
      ],
      [
        "Ġgrown",
        -10.044984366432704
      ],
      [
        "Ġcalci",
        -10.045528810103804
      ],
      [
        "Ġdrugs",
        -10.045699554900104
      ],
      [
        "My",
        -10.045822753630446
      ],
      [
        "up",
        -10.045904554858884
      ],
      [
        "ĠFurther",
        -10.04607878098082
      ],
      [
        "Ġmammal",
        -10.046551801805188
      ],
      [
        "Ġantibiotic",
        -10.048179994490308
      ],
      [
        "Ġradiation",
        -10.048698689955078
      ],
      [
        "Ġletter",
        -10.048743601765567
      ],
      [
        "Ġassume",
        -10.048801758838184
      ],
      [
        "ĠPower",
        -10.04992345441986
      ],
      [
        "Ġgraph",
        -10.053643950978833
      ],
      [
        "Ġmajority",
        -10.053925118436528
      ],
      [
        "Ġparticle",
        -10.05408624066131
      ],
      [
        "Ġharm",
        -10.054140880873192
      ],
      [
        "Ġcommand",
        -10.054688424731657
      ],
      [
        "Ġoven",
        -10.056255850030215
      ],
      [
        "Ġapart",
        -10.058330348188436
      ],
      [
        "Ġpack",
        -10.0588221985485
      ],
      [
        "Ġrealize",
        -10.059195998297492
      ],
      [
        "Ġawareness",
        -10.06046607669215
      ],
      [
        "Ġextract",
        -10.06145538782459
      ],
      [
        "Ġanxiet",
        -10.063065842083429
      ],
      [
        "Ġimprov",
        -10.063269934707195
      ],
      [
        "ĠBlack",
        -10.06389129796969
      ],
      [
        "Ġstation",
        -10.064607379572902
      ],
      [
        "Ġabsolute",
        -10.06529889138487
      ],
      [
        "Ġdomain",
        -10.065732081031744
      ],
      [
        "ar",
        -10.065828400257804
      ],
      [
        "stability",
        -10.066095370711016
      ],
      [
        "Ġrelevant",
        -10.066671742955702
      ],
      [
        "Ġapproximation",
        -10.067048883532165
      ],
      [
        "Ġbreast",
        -10.067510600883931
      ],
      [
        "Ġextensive",
        -10.067796805884344
      ],
      [
        "ĠAir",
        -10.068280759491907
      ],
      [
        "Ġcoffee",
        -10.06861312904188
      ],
      [
        "Ġaircraft",
        -10.06870116046056
      ],
      [
        "Ġwire",
        -10.06899364105324
      ],
      [
        "Ġdecide",
        -10.069209376936325
      ],
      [
        "Ġresponsibilit",
        -10.070053588886484
      ],
      [
        "Ġpreviously",
        -10.07029944592844
      ],
      [
        "Ġproduc",
        -10.070345006625306
      ],
      [
        "Ġinstallation",
        -10.070587966912296
      ],
      [
        "Ġpan",
        -10.070795681232314
      ],
      [
        "Ġseal",
        -10.07129487338263
      ],
      [
        "ĠCanada",
        -10.071474650016471
      ],
      [
        "Ġtight",
        -10.071593425786777
      ],
      [
        "Ġborn",
        -10.072046149122222
      ],
      [
        "Ġexamine",
        -10.072151287711495
      ],
      [
        "coming",
        -10.073047970329412
      ],
      [
        "referred",
        -10.07324468390186
      ],
      [
        "Ġmap",
        -10.073519499163204
      ],
      [
        "Ġengineer",
        -10.074089995352953
      ],
      [
        "Ġincorporate",
        -10.074388089096644
      ],
      [
        "Ġprecise",
        -10.0745920849123
      ],
      [
        "Ġdetermined",
        -10.075056970288651
      ],
      [
        "Ġmembrane",
        -10.075979329488982
      ],
      [
        "Ġforces",
        -10.07629438584324
      ],
      [
        "Ġleaving",
        -10.076470320136318
      ],
      [
        "Ġminimum",
        -10.07673564398162
      ],
      [
        "ĠInternational",
        -10.076902903298691
      ],
      [
        "Ġheating",
        -10.076927545655998
      ],
      [
        "Ġdensit",
        -10.07720055007995
      ],
      [
        "Ġfunctional",
        -10.07788301589649
      ],
      [
        "Conclusion",
        -10.080098255991546
      ],
      [
        "Ġintelligence",
        -10.080500479330023
      ],
      [
        "Ġcomparison",
        -10.080769370015393
      ],
      [
        "Ġversatil",
        -10.082194926708102
      ],
      [
        "Ġwash",
        -10.084337745766463
      ],
      [
        "Ġhunting",
        -10.08597619431638
      ],
      [
        "Ġaudio",
        -10.0864405013147
      ],
      [
        "Ġprofile",
        -10.08649970893099
      ],
      [
        "Ġscore",
        -10.08712941078984
      ],
      [
        "Ġexplor",
        -10.087166365209352
      ],
      [
        "Ġdelay",
        -10.088005086119296
      ],
      [
        "Ġhousehold",
        -10.08841785249689
      ],
      [
        "Ġsaying",
        -10.088429131462748
      ],
      [
        "stock",
        -10.089129573163772
      ],
      [
        "Ġturning",
        -10.089283731157009
      ],
      [
        "Ġnutrition",
        -10.089336264647182
      ],
      [
        "Ġassessment",
        -10.09042910938038
      ],
      [
        "Ġfruits",
        -10.090436962107304
      ],
      [
        "Ġdisorders",
        -10.09137857265446
      ],
      [
        "Ġexhibit",
        -10.09241945474383
      ],
      [
        "Ġclinical",
        -10.09251883925916
      ],
      [
        "sharing",
        -10.09270682314091
      ],
      [
        "Ġaffects",
        -10.093667881438598
      ],
      [
        "Ġopening",
        -10.094302145013977
      ],
      [
        "Ġcompost",
        -10.094865108518366
      ],
      [
        "Ġbeauty",
        -10.094878029703844
      ],
      [
        "Ġlaunch",
        -10.095208504288442
      ],
      [
        "Ġexcessive",
        -10.097179201853468
      ],
      [
        "Ġbond",
        -10.097501954273795
      ],
      [
        "Ġcurve",
        -10.09797709992986
      ],
      [
        "Ġinternet",
        -10.099198004850258
      ],
      [
        "Ġsmell",
        -10.100777981910111
      ],
      [
        "Ġpropose",
        -10.10119062817431
      ],
      [
        "Ġboat",
        -10.101418784880108
      ],
      [
        "ĠProgram",
        -10.101760065247372
      ],
      [
        "Ġcircle",
        -10.102125833263411
      ],
      [
        "Ġspeaker",
        -10.102387804828828
      ],
      [
        "Ġbreath",
        -10.102602301887808
      ],
      [
        "Ġinner",
        -10.10293223859139
      ],
      [
        "Ġship",
        -10.104129829248553
      ],
      [
        "Ġmission",
        -10.105719490999594
      ],
      [
        "Ġsituations",
        -10.105756461878949
      ],
      [
        "Ġgift",
        -10.107044697810228
      ],
      [
        "Ġvaccine",
        -10.10780189012522
      ],
      [
        "Ġrice",
        -10.10784447695818
      ],
      [
        "Ġindependent",
        -10.108475309787115
      ],
      [
        "Ġradio",
        -10.108932086324568
      ],
      [
        "ĠChina",
        -10.10928630080394
      ],
      [
        "Ġprivate",
        -10.109291110689671
      ],
      [
        "Ġsensitive",
        -10.10984763533827
      ],
      [
        "Ġmatrix",
        -10.109922417261313
      ],
      [
        "Ġtoxic",
        -10.110012973476888
      ],
      [
        "Ġpercentage",
        -10.11015084629128
      ],
      [
        "Ġwouldn",
        -10.11022042640644
      ],
      [
        "ten",
        -10.110509295426148
      ],
      [
        "Ġpowder",
        -10.111124454743884
      ],
      [
        "ĠGreen",
        -10.111811270052154
      ],
      [
        "Ġexcess",
        -10.11203627188464
      ],
      [
        "Ġconsists",
        -10.112438802186102
      ],
      [
        "going",
        -10.112894107723266
      ],
      [
        "Ġweigh",
        -10.112957997020564
      ],
      [
        "Use",
        -10.113076007266011
      ],
      [
        "Ġbear",
        -10.113554741037708
      ],
      [
        "Ġchronic",
        -10.113605028148696
      ],
      [
        "Ġrely",
        -10.11382163028984
      ],
      [
        "Ġconstruct",
        -10.113840930856083
      ],
      [
        "nstead",
        -10.11538816791382
      ],
      [
        "ĠJune",
        -10.11831439751288
      ],
      [
        "Ġinteraction",
        -10.119050206251462
      ],
      [
        "Onc",
        -10.119413862708754
      ],
      [
        "Ġchose",
        -10.121077717374051
      ],
      [
        "Ġdownload",
        -10.12110512795806
      ],
      [
        "Ġfundamental",
        -10.121813447275697
      ],
      [
        "Ġquantit",
        -10.12210063826797
      ],
      [
        "Ġdepression",
        -10.122446918905212
      ],
      [
        "ĠSea",
        -10.12279685919123
      ],
      [
        "Ġmachines",
        -10.123322643964492
      ],
      [
        "ĠRNA",
        -10.1239379428719
      ],
      [
        "Ġstable",
        -10.124212194403778
      ],
      [
        "Let",
        -10.124784683123156
      ],
      [
        "Ġmask",
        -10.125036752486563
      ],
      [
        "Ġcorn",
        -10.125093060602271
      ],
      [
        "Ġurban",
        -10.125170281500234
      ],
      [
        "Ġconflict",
        -10.12520401032361
      ],
      [
        "Ġwasn",
        -10.125395781217932
      ],
      [
        "Ġregister",
        -10.126133272642695
      ],
      [
        "Ġstatus",
        -10.126812250388298
      ],
      [
        "Ġjournal",
        -10.127299597086214
      ],
      [
        "Ġappreciate",
        -10.127629575255142
      ],
      [
        "Ġarm",
        -10.129118227796162
      ],
      [
        "Ġdish",
        -10.129263904445429
      ],
      [
        "Ġconfirm",
        -10.129799819831453
      ],
      [
        "Ġcompare",
        -10.130132848681946
      ],
      [
        "Ġcommunicate",
        -10.130506116802383
      ],
      [
        "Ġtrade",
        -10.130700603002891
      ],
      [
        "Ġadvantages",
        -10.131147450137716
      ],
      [
        "Ġputt",
        -10.131150392853488
      ],
      [
        "Ġmanufacturing",
        -10.131904233472165
      ],
      [
        "Ġzero",
        -10.13197131084872
      ],
      [
        "Ġsmart",
        -10.132275056696455
      ],
      [
        "ĠWhere",
        -10.132573298841477
      ],
      [
        "Ġlaws",
        -10.132727753596484
      ],
      [
        "ĠLife",
        -10.132767855743303
      ],
      [
        "ier",
        -10.133179473543612
      ],
      [
        "Ġencounter",
        -10.133313085398092
      ],
      [
        "Ġagriculture",
        -10.13350762283774
      ],
      [
        "Ġtopics",
        -10.13365464689036
      ],
      [
        "Ġstring",
        -10.134561892781774
      ],
      [
        "ĠTake",
        -10.135959732416616
      ],
      [
        "Ġcrack",
        -10.137813272544232
      ],
      [
        "Ġrecovery",
        -10.13782481740854
      ],
      [
        "ĠRed",
        -10.138781776784352
      ],
      [
        "ĠSt",
        -10.139091287851071
      ],
      [
        "Ġlifestyle",
        -10.13994199477682
      ],
      [
        "Ġminerals",
        -10.140525546051752
      ],
      [
        "Ġrobot",
        -10.140528000362846
      ],
      [
        "Ġexact",
        -10.141405469526914
      ],
      [
        "Ġseven",
        -10.141561504647532
      ],
      [
        "Ġhormone",
        -10.141759578968522
      ],
      [
        "Ġlisten",
        -10.142887210940392
      ],
      [
        "Ġmobile",
        -10.142917431367692
      ],
      [
        "ĠApril",
        -10.142917727631264
      ],
      [
        "uary",
        -10.14300361887441
      ],
      [
        "Ġfoundation",
        -10.143247234664292
      ],
      [
        "Ġagenc",
        -10.143432271451667
      ],
      [
        "Ġtrial",
        -10.1448578929964
      ],
      [
        "Ġconsist",
        -10.14557776541087
      ],
      [
        "Although",
        -10.145674437723358
      ],
      [
        "Ġcloser",
        -10.14627851073206
      ],
      [
        "ĠFrench",
        -10.1463643960927
      ],
      [
        "Ġremov",
        -10.147175200121197
      ],
      [
        "ĠHis",
        -10.147445929765906
      ],
      [
        "Ġbulb",
        -10.148844926695135
      ],
      [
        "Ġprinciples",
        -10.1492991196158
      ],
      [
        "Ġcompetition",
        -10.149531534518411
      ],
      [
        "Ġpounds",
        -10.151134996022604
      ],
      [
        "Ġdust",
        -10.151489273800326
      ],
      [
        "Ġeight",
        -10.15230531861068
      ],
      [
        "-friendly",
        -10.153133044528616
      ],
      [
        "Ġdecided",
        -10.153379128001244
      ],
      [
        "Ġaccuracy",
        -10.153506997221724
      ],
      [
        "Ġassembl",
        -10.153532554268011
      ],
      [
        "ĠBoth",
        -10.153730468951323
      ],
      [
        "Ġdivide",
        -10.153795887606918
      ],
      [
        "ĠGoogle",
        -10.15390716207752
      ],
      [
        "definitely",
        -10.154260382503194
      ],
      [
        "Ġsurfaces",
        -10.156983411609884
      ],
      [
        "Ġmechanical",
        -10.157671510953207
      ],
      [
        "Ġeliminate",
        -10.158216688609514
      ],
      [
        "Ġcup",
        -10.15827302275996
      ],
      [
        "Ġgenerat",
        -10.159946035435212
      ],
      [
        "Ġpreparation",
        -10.160113364971288
      ],
      [
        "Ġmutation",
        -10.160466701381347
      ],
      [
        "Ġuniversit",
        -10.160535000031944
      ],
      [
        "Ġminimize",
        -10.161516543431752
      ],
      [
        "Ġaudience",
        -10.162116073642435
      ],
      [
        "Ġutilize",
        -10.162668844525513
      ],
      [
        "According",
        -10.162674773743976
      ],
      [
        "ĠJuly",
        -10.162843465849509
      ],
      [
        "Ġchoices",
        -10.16301049900745
      ],
      [
        "ĠCounty",
        -10.16340587435537
      ],
      [
        "Ġhomes",
        -10.163787522709171
      ],
      [
        "leading",
        -10.164444243195993
      ],
      [
        "Ġpassed",
        -10.164464638934948
      ],
      [
        "Ġregulations",
        -10.164503748671688
      ],
      [
        "ĠAdd",
        -10.165034675880904
      ],
      [
        "Ġspray",
        -10.16661956316238
      ],
      [
        "Ġdental",
        -10.167397620510728
      ],
      [
        "Ġprinter",
        -10.168723476477911
      ],
      [
        "Ġapproaches",
        -10.170146505909448
      ],
      [
        "Ġchapter",
        -10.171514427914772
      ],
      [
        "Ġalter",
        -10.17191493492622
      ],
      [
        "gave",
        -10.173266427198715
      ],
      [
        "Ġrapid",
        -10.173460001830223
      ],
      [
        "Ġpredator",
        -10.1734828982185
      ],
      [
        "Ġallerg",
        -10.173842852328736
      ],
      [
        "Ġderive",
        -10.17388353866091
      ],
      [
        "ĠHave",
        -10.17388787581167
      ],
      [
        "ĠWar",
        -10.17416595396857
      ],
      [
        "Ġfoster",
        -10.175455909883674
      ],
      [
        "Ġvarie",
        -10.175728691243872
      ],
      [
        "Ġconventional",
        -10.175879142079545
      ],
      [
        "Ġrecover",
        -10.176382413319589
      ],
      [
        "Ġphysics",
        -10.176792109788458
      ],
      [
        "Ġbreeding",
        -10.177909253939678
      ],
      [
        "Ġcooked",
        -10.178404169271433
      ],
      [
        "Ġformat",
        -10.178645418204653
      ],
      [
        "Ġtooth",
        -10.178758027077386
      ],
      [
        "Ġpool",
        -10.179433282930178
      ],
      [
        "Ġdiagnose",
        -10.179618942201834
      ],
      [
        "Ġappeal",
        -10.18005520115365
      ],
      [
        "Ġcollege",
        -10.180748061014016
      ],
      [
        "Ġwish",
        -10.181028328139634
      ],
      [
        "Ġrenewable",
        -10.181814776691766
      ],
      [
        "Ġlense",
        -10.182090171249092
      ],
      [
        "Ġbrake",
        -10.182539740472883
      ],
      [
        "Ġclothes",
        -10.183136894799532
      ],
      [
        "Ġdescription",
        -10.18347615580041
      ],
      [
        "November",
        -10.184489938496409
      ],
      [
        "Ġprinting",
        -10.184502761611665
      ],
      [
        "Ġrestaurant",
        -10.185072596514594
      ],
      [
        "Ġsharp",
        -10.185278818072996
      ],
      [
        "Ġbehaviour",
        -10.185569012768736
      ],
      [
        "ware",
        -10.18584021927453
      ],
      [
        "Ġtraffic",
        -10.186965071633823
      ],
      [
        "Ġselected",
        -10.188534615385816
      ],
      [
        "Ġbread",
        -10.188927560258753
      ],
      [
        "Ġsufficient",
        -10.188965268512908
      ],
      [
        "Ġthrive",
        -10.189421784941842
      ],
      [
        "Ġport",
        -10.190118284244251
      ],
      [
        "Ġbecom",
        -10.191304674356005
      ],
      [
        "More",
        -10.191480299690586
      ],
      [
        "Ġdistinct",
        -10.191622322287044
      ],
      [
        "Ġecosystem",
        -10.192843250950313
      ],
      [
        "Ġrecipe",
        -10.193409454650595
      ],
      [
        "Ġloop",
        -10.1934290679575
      ],
      [
        "Ġregulator",
        -10.19425341525093
      ],
      [
        "Ġbloom",
        -10.194558318867916
      ],
      [
        "Ġserver",
        -10.195801409200538
      ],
      [
        "Ġstorm",
        -10.196022054807266
      ],
      [
        "Ġriver",
        -10.196032071330563
      ],
      [
        "Ġinitiative",
        -10.19611494297995
      ],
      [
        "Ġalign",
        -10.197607959599228
      ],
      [
        "Ġhospital",
        -10.197838874325765
      ],
      [
        "Ġbigge",
        -10.19798171247282
      ],
      [
        "Ġdefinition",
        -10.198257810452574
      ],
      [
        "ĠSystem",
        -10.198261317175998
      ],
      [
        "Ġcontinues",
        -10.19884874641041
      ],
      [
        "Ġvast",
        -10.199135883655142
      ],
      [
        "Ġwarming",
        -10.19941120752936
      ],
      [
        "ĠAny",
        -10.199762954516473
      ],
      [
        "Ġwalking",
        -10.199836921731745
      ],
      [
        "Ġindustries",
        -10.20060712059916
      ],
      [
        "Ġdream",
        -10.200842859473088
      ],
      [
        "twic",
        -10.200866834277363
      ],
      [
        "ions",
        -10.20149747846602
      ],
      [
        "Ġgenome",
        -10.20179912766117
      ],
      [
        "Ġpictures",
        -10.202909301103794
      ],
      [
        "Ġutiliz",
        -10.203861405933704
      ],
      [
        "Ġbees",
        -10.203994690870342
      ],
      [
        "Ġadequate",
        -10.204822401302462
      ],
      [
        "ĠThrough",
        -10.205206543992942
      ],
      [
        "ĠLook",
        -10.207743134165892
      ],
      [
        "Ġscenario",
        -10.2077573840956
      ],
      [
        "Ġtube",
        -10.207770124196871
      ],
      [
        "Ġdisorder",
        -10.207804723334746
      ],
      [
        "Ġprogramm",
        -10.20782570040464
      ],
      [
        "Ġjump",
        -10.208012867633007
      ],
      [
        "Ġfear",
        -10.208440145875697
      ],
      [
        "Ġsudden",
        -10.208469098328033
      ],
      [
        "Ġshoot",
        -10.208628748578338
      ],
      [
        "Ġpurposes",
        -10.208772448189103
      ],
      [
        "Ġperiods",
        -10.209953432673483
      ],
      [
        "Ġsupplie",
        -10.209989440746831
      ],
      [
        "Ġscene",
        -10.210156815807808
      ],
      [
        "Ġcareful",
        -10.210236823629645
      ],
      [
        "Ġshapes",
        -10.210776281740433
      ],
      [
        "Ġsteam",
        -10.211011342046106
      ],
      [
        "Ġintegrate",
        -10.211036587996734
      ],
      [
        "Ġimpacts",
        -10.21236139754892
      ],
      [
        "Ġtomato",
        -10.21272013595934
      ],
      [
        "Ġremote",
        -10.21306926045111
      ],
      [
        "Ġintake",
        -10.213578618958
      ],
      [
        "Ġ...Ċ",
        -10.21423135976235
      ],
      [
        "Ġliver",
        -10.21550005100578
      ],
      [
        "Ġparameter",
        -10.215660908215009
      ],
      [
        "ĠControl",
        -10.216441016030664
      ],
      [
        "Ġcontaining",
        -10.216789666342937
      ],
      [
        "Ġrecorded",
        -10.217170888841466
      ],
      [
        "Ġdetection",
        -10.217825165104106
      ],
      [
        "Ġfelt",
        -10.217888326372638
      ],
      [
        "Ġequivalent",
        -10.218000622329336
      ],
      [
        "First",
        -10.218003148584168
      ],
      [
        "He",
        -10.21876424811719
      ],
      [
        "Ġconsult",
        -10.21890638921938
      ],
      [
        "Ġintroduc",
        -10.2198416932472
      ],
      [
        "Ġdiagnosis",
        -10.220653691516508
      ],
      [
        "Ġstarts",
        -10.22085570052956
      ],
      [
        "Ġknee",
        -10.220967438408731
      ],
      [
        "-on",
        -10.221332205677063
      ],
      [
        "Ġten",
        -10.2214635061641
      ],
      [
        "Ġprove",
        -10.22234591685493
      ],
      [
        "Ġtrait",
        -10.222366741489028
      ],
      [
        "Ġpathway",
        -10.222456955075907
      ],
      [
        "U",
        -10.223765361886892
      ],
      [
        "Ġpilot",
        -10.225104556712022
      ],
      [
        "Ġsuper",
        -10.225107022901256
      ],
      [
        "Ġsurvival",
        -10.22514097232946
      ],
      [
        "Ġacademic",
        -10.225190800554348
      ],
      [
        "Ġprovider",
        -10.22540846753452
      ],
      [
        "ĠNature",
        -10.225574917290697
      ],
      [
        "Ġdestroy",
        -10.226165236904247
      ],
      [
        "Ġmanner",
        -10.226615518341369
      ],
      [
        "Ġdecline",
        -10.22675533757466
      ],
      [
        "Ġcolumn",
        -10.226900263200632
      ],
      [
        "Ġfamiliar",
        -10.227204751281448
      ],
      [
        "Ġfacilit",
        -10.228169083322571
      ],
      [
        "ĠSeptem",
        -10.228423782844397
      ],
      [
        "Ġinnovative",
        -10.22893143556378
      ],
      [
        "ĠWest",
        -10.2291593407028
      ],
      [
        "chemistry",
        -10.22971946342939
      ],
      [
        "Ġcraft",
        -10.231968226818616
      ],
      [
        "Ġmolecular",
        -10.233332647139436
      ],
      [
        "Ġnorth",
        -10.234298861708506
      ],
      [
        "ĠPlant",
        -10.234438398148184
      ],
      [
        "ility",
        -10.236558125546845
      ],
      [
        "with",
        -10.237166510962256
      ],
      [
        "wood",
        -10.237940213267706
      ],
      [
        "Ġmath",
        -10.238783716917832
      ],
      [
        "ĠHuman",
        -10.238895091369102
      ],
      [
        "Ġpepper",
        -10.239448994513596
      ],
      [
        "ĠIndian",
        -10.240444821005674
      ],
      [
        "Ġagricultural",
        -10.241883224170245
      ],
      [
        "Ġframework",
        -10.242136154523427
      ],
      [
        "Ġnovel",
        -10.24255430765912
      ],
      [
        "Ġstructural",
        -10.242684151430192
      ],
      [
        "Figure",
        -10.242822245380324
      ],
      [
        "Ġrandom",
        -10.242890326185314
      ],
      [
        "Ġvolunteer",
        -10.243775461364717
      ],
      [
        "Ġtip",
        -10.24441104618191
      ],
      [
        "...Ċ",
        -10.246306166291498
      ],
      [
        "Ġbarrier",
        -10.246432398953786
      ],
      [
        "ĠThus",
        -10.247166710220387
      ],
      [
        "City",
        -10.24788066120604
      ],
      [
        "Ġdepartment",
        -10.248878464700498
      ],
      [
        "Ġforget",
        -10.249980308023662
      ],
      [
        "ture",
        -10.25061183790044
      ],
      [
        "Ġguess",
        -10.250908873317492
      ],
      [
        "Ġseconds",
        -10.25135971239199
      ],
      [
        "Ġcalculation",
        -10.25142928279142
      ],
      [
        "ĠFish",
        -10.25161958520998
      ],
      [
        "Ġdirector",
        -10.251923851887703
      ],
      [
        "Ġboost",
        -10.25228492958939
      ],
      [
        "ĠAct",
        -10.252458055839702
      ],
      [
        "ĠAugust",
        -10.25356441858106
      ],
      [
        "Ġpuppy",
        -10.253654394770198
      ],
      [
        "Ġcollaboration",
        -10.253688403072792
      ],
      [
        "Ġengag",
        -10.25379007139934
      ],
      [
        "Ġrapidly",
        -10.25431290998836
      ],
      [
        "Ġrealit",
        -10.255473522296898
      ],
      [
        "Ġnet",
        -10.256044925924591
      ],
      [
        "Ġsignals",
        -10.256279821264254
      ],
      [
        "Ġdiffer",
        -10.25834414600758
      ],
      [
        "Ġinflammation",
        -10.25943132572884
      ],
      [
        "Ġgrant",
        -10.259790571574866
      ],
      [
        "ĠIsland",
        -10.26025987752153
      ],
      [
        "Ġbowl",
        -10.260805802035604
      ],
      [
        "j",
        -10.260900019428677
      ],
      [
        "From",
        -10.260989145886288
      ],
      [
        "Ġspider",
        -10.261042958531826
      ],
      [
        "Ġwoman",
        -10.261366732700886
      ],
      [
        "Ġsauce",
        -10.26165440762915
      ],
      [
        "Ġinstitution",
        -10.262281802650074
      ],
      [
        "ĠJanuary",
        -10.262335459344596
      ],
      [
        "Ġweak",
        -10.262378717833831
      ],
      [
        "Ġusage",
        -10.26272365822415
      ],
      [
        "Ġtail",
        -10.263085241696722
      ],
      [
        "Ġobtained",
        -10.263206543008655
      ],
      [
        "ring",
        -10.26353928919742
      ],
      [
        "Ġstatement",
        -10.263957944265533
      ],
      [
        "ĠEngland",
        -10.264712749907698
      ],
      [
        "Ġworkshop",
        -10.26604259522794
      ],
      [
        "].",
        -10.266598770190306
      ],
      [
        "Ġbugs",
        -10.267253910447948
      ],
      [
        "Ġpure",
        -10.267469271030418
      ],
      [
        "Ġsent",
        -10.267488968429472
      ],
      [
        "Ġstrain",
        -10.268042754182572
      ],
      [
        "Ġopposite",
        -10.268312274596491
      ],
      [
        "Ġpages",
        -10.268783169524378
      ],
      [
        "Ġsuffer",
        -10.268946337095697
      ],
      [
        "Ġstretch",
        -10.269223114294135
      ],
      [
        "Ġremaining",
        -10.269226362454848
      ],
      [
        "Ġrecognition",
        -10.26946487535103
      ],
      [
        "Ġinspire",
        -10.269527873081952
      ],
      [
        "made",
        -10.270314880097413
      ],
      [
        "Ġspen",
        -10.270354781623553
      ],
      [
        "Ġinsurance",
        -10.270772594624765
      ],
      [
        "Ġdelicious",
        -10.273167209442407
      ],
      [
        "Ġgold",
        -10.273232616866824
      ],
      [
        "Ġanalyze",
        -10.274410260457753
      ],
      [
        "ĠFoundation",
        -10.274632626094084
      ],
      [
        "Ġpro",
        -10.274736230798108
      ],
      [
        "Ġnose",
        -10.274788210227364
      ],
      [
        "Ġtradition",
        -10.27487256815543
      ],
      [
        "Ġstroke",
        -10.275798537560764
      ],
      [
        "but",
        -10.276585167240023
      ],
      [
        "Ġbrick",
        -10.277151201587497
      ],
      [
        "ĠTechnology",
        -10.27751526652801
      ],
      [
        "ĠLED",
        -10.277979629554096
      ],
      [
        "ĠSan",
        -10.278093575488024
      ],
      [
        "Ġplays",
        -10.278516284669514
      ],
      [
        "Ġrotation",
        -10.278594359329052
      ],
      [
        "Ġhardware",
        -10.279173261967363
      ],
      [
        "Ġlaborator",
        -10.279269020919712
      ],
      [
        "Ġfeedback",
        -10.279340174418197
      ],
      [
        "Ġroute",
        -10.280183559724463
      ],
      [
        "tic",
        -10.280184817220253
      ],
      [
        "Ġhole",
        -10.28043549917854
      ],
      [
        "Ġgraphic",
        -10.280450855211669
      ],
      [
        "Ġspecialize",
        -10.280584247780322
      ],
      [
        "ĠStudents",
        -10.28127361479011
      ],
      [
        "Ġlinked",
        -10.28172057108007
      ],
      [
        "Ġbelief",
        -10.282235189355958
      ],
      [
        "Ġwor",
        -10.28362293889912
      ],
      [
        "Ġtitle",
        -10.283849684375216
      ],
      [
        "Ġshop",
        -10.283901283743774
      ],
      [
        "Ġholes",
        -10.284992585612528
      ],
      [
        "Ġpeak",
        -10.285887447800384
      ],
      [
        "Ġaesthetic",
        -10.286549198412027
      ],
      [
        "Ġsold",
        -10.287863229285074
      ],
      [
        "Ġsurprise",
        -10.28848646556541
      ],
      [
        "Ġloose",
        -10.288609188096672
      ],
      [
        "ĠWork",
        -10.288699842678408
      ],
      [
        "Ġbudget",
        -10.28889629035416
      ],
      [
        "Ġtrouble",
        -10.289876202859125
      ],
      [
        "Ġjuice",
        -10.290288974931098
      ],
      [
        "Ġcalorie",
        -10.290599285459528
      ],
      [
        "Ġdiagram",
        -10.290648170763076
      ],
      [
        "ĠRead",
        -10.290719936272524
      ],
      [
        "ĠHome",
        -10.291269394184996
      ],
      [
        "board",
        -10.291843285167255
      ],
      [
        "ĠFlorida",
        -10.29250254763686
      ],
      [
        "Ġpreferred",
        -10.292556176962762
      ],
      [
        "Ġcompleted",
        -10.292697899491372
      ],
      [
        "Ġdrought",
        -10.293636770652288
      ],
      [
        "ĠCommon",
        -10.293715021667923
      ],
      [
        "Ġkidney",
        -10.293732092687502
      ],
      [
        "Ġrobots",
        -10.294043920795492
      ],
      [
        "Ġstream",
        -10.29550263861134
      ],
      [
        "-of",
        -10.295667542272463
      ],
      [
        "ĠNatural",
        -10.295676612015844
      ],
      [
        "Ġworkers",
        -10.296220480405983
      ],
      [
        "Ġbiolog",
        -10.29664262703405
      ],
      [
        "Ġmild",
        -10.296775761843588
      ],
      [
        "Ġrequest",
        -10.296817555261187
      ],
      [
        "aging",
        -10.297709393333092
      ],
      [
        "Ġpermanent",
        -10.297954224003576
      ],
      [
        "Ġtall",
        -10.29833964236204
      ],
      [
        "Ġhorses",
        -10.299707750249471
      ],
      [
        "Ġattend",
        -10.300070353506555
      ],
      [
        "Ġzone",
        -10.300459212068084
      ],
      [
        "Ġinvestigate",
        -10.300654483961326
      ],
      [
        "Ġnecessar",
        -10.30107553006246
      ],
      [
        "Ġlonge",
        -10.301677299633656
      ],
      [
        "Ġstands",
        -10.302895560268864
      ],
      [
        "Ġweed",
        -10.303321967556354
      ],
      [
        "Ġblow",
        -10.303345370582935
      ],
      [
        "Ġtension",
        -10.303418987981496
      ],
      [
        "Ġvertical",
        -10.303457584803336
      ],
      [
        "Ġpartial",
        -10.304005033927083
      ],
      [
        "Ġstar",
        -10.30447233806137
      ],
      [
        "Ġouter",
        -10.304836598296394
      ],
      [
        "Ġspeech",
        -10.305003119425349
      ],
      [
        "ate",
        -10.305055335189955
      ],
      [
        "Ġmistake",
        -10.30517592889317
      ],
      [
        "ĠLong",
        -10.305995632715852
      ],
      [
        "Ġregulate",
        -10.306459430120762
      ],
      [
        "Ġcitie",
        -10.306523642764102
      ],
      [
        "Ġpromoting",
        -10.307038922034884
      ],
      [
        "Ġpolitical",
        -10.308511357238617
      ],
      [
        "Ġpainting",
        -10.309147092977543
      ],
      [
        "ĠHistory",
        -10.309284984037031
      ],
      [
        "Ġadjustment",
        -10.30929540439579
      ],
      [
        "Ġatoms",
        -10.309475107874244
      ],
      [
        "accessible",
        -10.309622865823652
      ],
      [
        "ĠDesign",
        -10.31015115120356
      ],
      [
        "ĠZ",
        -10.310154559827298
      ],
      [
        "Ġcalls",
        -10.310420326056672
      ],
      [
        "ĠLight",
        -10.310460919905765
      ],
      [
        "Ġreact",
        -10.310658319310589
      ],
      [
        "Ġsew",
        -10.310747089535358
      ],
      [
        "Ġneck",
        -10.311111897206644
      ],
      [
        "ĠService",
        -10.31114907982385
      ],
      [
        "neath",
        -10.311274460326588
      ],
      [
        "Ġevaluate",
        -10.31147553179714
      ],
      [
        "we",
        -10.312295520390313
      ],
      [
        "Ġsecret",
        -10.312839220361337
      ],
      [
        "you",
        -10.313394325529051
      ],
      [
        "Ġdirt",
        -10.313549117823378
      ],
      [
        "from",
        -10.314145918889029
      ],
      [
        "Ġcards",
        -10.314789142276464
      ],
      [
        "Ġdedicate",
        -10.315068012280816
      ],
      [
        "Ġbrush",
        -10.315837327977508
      ],
      [
        "Ġsignificance",
        -10.316725094352762
      ],
      [
        "Ġcommitment",
        -10.316908402536969
      ],
      [
        "ĠGood",
        -10.317698696824012
      ],
      [
        "Ġarrive",
        -10.318457401215042
      ],
      [
        "Ġpossibl",
        -10.31858584052354
      ],
      [
        "Ġgradual",
        -10.319642804373476
      ],
      [
        "Ġcm",
        -10.319819711650217
      ],
      [
        "?\"",
        -10.319901468474786
      ],
      [
        "Ġwin",
        -10.320605661283055
      ],
      [
        "Ġplug",
        -10.320895331231824
      ],
      [
        "Ġscratch",
        -10.321995366382108
      ],
      [
        "Ġworry",
        -10.322329788180442
      ],
      [
        "Ġimagine",
        -10.322568280834709
      ],
      [
        "Ġneural",
        -10.322921678268123
      ],
      [
        "ĠStart",
        -10.32539300265052
      ],
      [
        "Ġsides",
        -10.326704043164948
      ],
      [
        "Ġsizes",
        -10.327918852645588
      ],
      [
        "Ġfroze",
        -10.329019318729037
      ],
      [
        "Ġfamous",
        -10.32911349277515
      ],
      [
        "Ġprey",
        -10.33007223234145
      ],
      [
        "Ġreports",
        -10.331846895996025
      ],
      [
        "Ġtutorial",
        -10.332319243327465
      ],
      [
        "Ġunlike",
        -10.332506417542923
      ],
      [
        "Ġmirror",
        -10.333048962117095
      ],
      [
        "ĠToday",
        -10.333827275692196
      ],
      [
        "Ġbigger",
        -10.333939738684242
      ],
      [
        "Ġheavi",
        -10.33406283222224
      ],
      [
        "Ġstronger",
        -10.334100349042624
      ],
      [
        "ĠGroup",
        -10.334193919962594
      ],
      [
        "ĠAsia",
        -10.334869642659148
      ],
      [
        "Ġsouth",
        -10.334895229572382
      ],
      [
        "Ġelectrons",
        -10.335065702660462
      ],
      [
        "Ġmovie",
        -10.33616868616837
      ],
      [
        "Ġlie",
        -10.33661318381508
      ],
      [
        "Ġclosed",
        -10.336716784027123
      ],
      [
        "ĠCheck",
        -10.337765031101558
      ],
      [
        "Ġrepeat",
        -10.338337693819732
      ],
      [
        "Ġmark",
        -10.338447151930646
      ],
      [
        "Ġcoordinate",
        -10.338544738408196
      ],
      [
        "Ġraised",
        -10.339019393230096
      ],
      [
        "Ġmineral",
        -10.339876728967552
      ],
      [
        "Ġprofessor",
        -10.340559882974862
      ],
      [
        "Ġdespi",
        -10.340707360644188
      ],
      [
        "Since",
        -10.34151296933968
      ],
      [
        "Ġmoved",
        -10.343023441332807
      ],
      [
        "how",
        -10.344024132033542
      ],
      [
        "Ġpreserve",
        -10.344628808616616
      ],
      [
        "ĠPlease",
        -10.345624721241798
      ],
      [
        "Ġpackage",
        -10.345755917295609
      ],
      [
        "Ġcoral",
        -10.34686957320458
      ],
      [
        "Ġsensors",
        -10.347059695036814
      ],
      [
        "ĠMan",
        -10.347867024984376
      ],
      [
        "ĠPacific",
        -10.348177909403866
      ],
      [
        "Ġshelter",
        -10.348539656274657
      ],
      [
        "Ġdanger",
        -10.34877634535146
      ],
      [
        "anagement",
        -10.349115838870798
      ],
      [
        "Ġwhale",
        -10.349361525445133
      ],
      [
        "Ġthreat",
        -10.349430979121877
      ],
      [
        "--",
        -10.349700239220924
      ],
      [
        "Ġmountain",
        -10.351169334794143
      ],
      [
        "like",
        -10.35143858855302
      ],
      [
        "ĠRe",
        -10.351616154397403
      ],
      [
        "Ġplane",
        -10.35184529626398
      ],
      [
        "Ġhandling",
        -10.3519497587417
      ],
      [
        "Ġbegins",
        -10.351998201006383
      ],
      [
        "Ġwrote",
        -10.352414194246172
      ],
      [
        "Ġunderly",
        -10.352978543206856
      ],
      [
        "Ġwindows",
        -10.353814888285395
      ],
      [
        "Ġturtle",
        -10.353839869886066
      ],
      [
        "Ġnarrow",
        -10.354894138984449
      ],
      [
        "Ġgut",
        -10.355111870685764
      ],
      [
        "Ġworse",
        -10.355845828760224
      ],
      [
        "Ġconfidence",
        -10.355945651996269
      ],
      [
        "ĠSociety",
        -10.357361525973907
      ],
      [
        "ĠII",
        -10.357462655632371
      ],
      [
        "Ġelectron",
        -10.357503106354397
      ],
      [
        "Ġleaders",
        -10.358756476224574
      ],
      [
        "Ġbreeds",
        -10.35912741987962
      ],
      [
        "Ġflying",
        -10.35993901740872
      ],
      [
        "ĠEast",
        -10.360553295600893
      ],
      [
        "men",
        -10.36127738252921
      ],
      [
        "ĠProject",
        -10.361464660328856
      ],
      [
        "Ġtransformation",
        -10.361683185753533
      ],
      [
        "ĠWestern",
        -10.361885384897532
      ],
      [
        "Ġnation",
        -10.362231745336556
      ],
      [
        "Ġpartner",
        -10.36365624192492
      ],
      [
        "Be",
        -10.363868561885374
      ],
      [
        "Ġanswers",
        -10.363897160425172
      ],
      [
        "Ġthreaten",
        -10.364960837730344
      ],
      [
        "ĠTV",
        -10.36498049769867
      ],
      [
        "Ġtax",
        -10.36515002608625
      ],
      [
        "Ġlawn",
        -10.365283987217715
      ],
      [
        "Ġorange",
        -10.365334544597207
      ],
      [
        "Ġcalm",
        -10.365523804070484
      ],
      [
        "Ġarchitecture",
        -10.36554545510307
      ],
      [
        "Ġenhanc",
        -10.367664884476874
      ],
      [
        "ought",
        -10.36779172512291
      ],
      [
        "ĠAssociation",
        -10.3687034561419
      ],
      [
        "Dur",
        -10.368958261951438
      ],
      [
        "bilities",
        -10.369268174026676
      ],
      [
        "Ġdesigner",
        -10.369928806540347
      ],
      [
        "Ġpackag",
        -10.370142727869656
      ],
      [
        "Ġfed",
        -10.371181325663995
      ],
      [
        "Ġstruggle",
        -10.37163141377986
      ],
      [
        "Ġhabitats",
        -10.371780600634338
      ],
      [
        "ĠRemember",
        -10.372060083823
      ],
      [
        "Not",
        -10.372568729078305
      ],
      [
        "OVID",
        -10.372849340260476
      ],
      [
        "wimming",
        -10.372995845913774
      ],
      [
        "Ġsets",
        -10.37343087370986
      ],
      [
        "Ġthermal",
        -10.373444873648356
      ],
      [
        "Ġfertilizer",
        -10.373933356798611
      ],
      [
        "aught",
        -10.374522906057647
      ],
      [
        "Ġmanaging",
        -10.374759724809037
      ],
      [
        "Ġerrors",
        -10.375025832748245
      ],
      [
        "Ġprotective",
        -10.375342868367152
      ],
      [
        "Ġedges",
        -10.37605824576346
      ],
      [
        "Ġpond",
        -10.3763421621133
      ],
      [
        "Ġcotton",
        -10.376970721999514
      ],
      [
        "ĠGet",
        -10.378249610855423
      ],
      [
        "Unfortunate",
        -10.378500198384238
      ],
      [
        "Ġgum",
        -10.378519159485014
      ],
      [
        "Ġprinciple",
        -10.378670221937876
      ],
      [
        "Ġdishe",
        -10.38034742579556
      ],
      [
        "Ġprocessor",
        -10.380360468445204
      ],
      [
        "Ġpathogen",
        -10.380518057475266
      ],
      [
        "ĠWhite",
        -10.381531235958636
      ],
      [
        "Ġnews",
        -10.38179068620488
      ],
      [
        "Ġwonderful",
        -10.381965889973683
      ],
      [
        "Ġcampaign",
        -10.382861669094346
      ],
      [
        "Ġgate",
        -10.382998174767582
      ],
      [
        "Ġbeans",
        -10.38309993600404
      ],
      [
        "Ġmassive",
        -10.38336458185548
      ],
      [
        "Ġcounter",
        -10.38341924573692
      ],
      [
        "Ġarise",
        -10.386929266060957
      ],
      [
        "weight",
        -10.388861008288789
      ],
      [
        "ĠLearn",
        -10.390242379893376
      ],
      [
        "Ġbreathing",
        -10.391064412143091
      ],
      [
        "Ġparticipate",
        -10.391296988189918
      ],
      [
        "ĠChange",
        -10.392174561418232
      ],
      [
        "Ġoccasional",
        -10.39237414021222
      ],
      [
        "Ġstyles",
        -10.392445782323367
      ],
      [
        "Ġshoes",
        -10.394637814576026
      ],
      [
        "]ĊĊ",
        -10.394718650325055
      ],
      [
        "Ġecological",
        -10.394822580085163
      ],
      [
        "Ġglucose",
        -10.39494609354188
      ],
      [
        "Ġride",
        -10.395497233201985
      ],
      [
        "Ġlogic",
        -10.395567585884228
      ],
      [
        "Ġinterior",
        -10.395650970143652
      ],
      [
        "Where",
        -10.396005379312566
      ],
      [
        "sium",
        -10.39603009508527
      ],
      [
        "way",
        -10.396690510806469
      ],
      [
        "Ġcharging",
        -10.39687645516652
      ],
      [
        "Ġcombin",
        -10.39720799189134
      ],
      [
        "Ġexcept",
        -10.397591768062044
      ],
      [
        "ĠTHE",
        -10.397918977065848
      ],
      [
        "Ġnitrogen",
        -10.397922317433268
      ],
      [
        "ĠLearning",
        -10.398147563177812
      ],
      [
        "Ġvibrant",
        -10.39823277496038
      ],
      [
        "ĠOpen",
        -10.398473882910764
      ],
      [
        "Ġvisitor",
        -10.398950775299216
      ],
      [
        "Ġgreenhouse",
        -10.399260939971024
      ],
      [
        "Ġcopy",
        -10.399512626086526
      ],
      [
        "iness",
        -10.399620250209251
      ],
      [
        "Ġpai",
        -10.399716468499475
      ],
      [
        "pecifically",
        -10.3997304656204
      ],
      [
        "Ġbrief",
        -10.399991145126831
      ],
      [
        "ĠUp",
        -10.400404933771124
      ],
      [
        "icrosoft",
        -10.400880337903072
      ],
      [
        "ĠMichigan",
        -10.40219241811463
      ],
      [
        "Ġdetermining",
        -10.40256562963554
      ],
      [
        "Ġplus",
        -10.403125174523838
      ],
      [
        "Ġenabl",
        -10.403970968986252
      ],
      [
        "Ġfascinating",
        -10.404045271570729
      ],
      [
        "Ġstages",
        -10.404090510244307
      ],
      [
        "Ġrelax",
        -10.404522624569363
      ],
      [
        "Ġtaught",
        -10.404778278222048
      ],
      [
        "ĠEnvironmental",
        -10.405219300654396
      ],
      [
        "all",
        -10.40568203827826
      ],
      [
        "Ġemerg",
        -10.406907353407298
      ],
      [
        "Ġlock",
        -10.407030158523618
      ],
      [
        "Ġholding",
        -10.407552033318131
      ],
      [
        "Ġtruth",
        -10.408162366268147
      ],
      [
        "Ġcouldn",
        -10.40854101359922
      ],
      [
        "ĠOcean",
        -10.408916223079949
      ],
      [
        "Ġparallel",
        -10.411138593019247
      ],
      [
        "Ġbranche",
        -10.411985030662802
      ],
      [
        "Ġexpense",
        -10.41244963260454
      ],
      [
        "Ġworksheet",
        -10.413197985764224
      ],
      [
        "ural",
        -10.414090328287603
      ],
      [
        "Ġheater",
        -10.414237124579124
      ],
      [
        "q",
        -10.414284383286503
      ],
      [
        "Ġinter",
        -10.414706251364573
      ],
      [
        "Ġchamber",
        -10.416145418607924
      ],
      [
        "Ġmilitar",
        -10.417153317775105
      ],
      [
        "Ġpresentation",
        -10.417970038217264
      ],
      [
        "Ġsales",
        -10.418268545349534
      ],
      [
        "Ġmosquito",
        -10.41853763699289
      ],
      [
        "Ġtrace",
        -10.418648664217764
      ],
      [
        "Ġcontribution",
        -10.41868617954815
      ],
      [
        "policies",
        -10.419205533682604
      ],
      [
        "Ġspin",
        -10.420710187170371
      ],
      [
        "Ġappliance",
        -10.421193768649658
      ],
      [
        "see",
        -10.421505966518875
      ],
      [
        "are",
        -10.422067277870283
      ],
      [
        "ĠPro",
        -10.422093190730774
      ],
      [
        "ĠWindows",
        -10.42305068146866
      ],
      [
        "Ġnames",
        -10.423468069030116
      ],
      [
        "Ġarrow",
        -10.423490066371777
      ],
      [
        "Ġclock",
        -10.423520040928
      ],
      [
        "Ġbank",
        -10.42377780574326
      ],
      [
        "Ġformer",
        -10.42385733060593
      ],
      [
        "Ġintricate",
        -10.42403635125794
      ],
      [
        "Ġfacing",
        -10.424476791740862
      ],
      [
        "Ġpregnant",
        -10.425101842128658
      ],
      [
        "\"The",
        -10.425213276662111
      ],
      [
        "ĠGerman",
        -10.425566540290449
      ],
      [
        "Ġtough",
        -10.425705974753289
      ],
      [
        "):",
        -10.426812746363964
      ],
      [
        "ĠTexas",
        -10.427248410963491
      ],
      [
        "Ġrecords",
        -10.427396007885022
      ],
      [
        "Ġdebri",
        -10.427967489002857
      ],
      [
        "Ġtruck",
        -10.428095044137349
      ],
      [
        "can",
        -10.428810694205858
      ],
      [
        "Ġcopper",
        -10.429221027185132
      ],
      [
        "Ġagreement",
        -10.43003504292986
      ],
      [
        "Ġsubstantial",
        -10.43018646635966
      ],
      [
        "Ġintervention",
        -10.43044123784243
      ],
      [
        "Ġfather",
        -10.430590989034323
      ],
      [
        "Ġsecondary",
        -10.431152173755038
      ],
      [
        "Ġinsert",
        -10.43165682682047
      ],
      [
        "Ġcorner",
        -10.432495445429836
      ],
      [
        "Ġwine",
        -10.432517243884194
      ],
      [
        "ĠGo",
        -10.433101725091444
      ],
      [
        "Ġamino",
        -10.43367621419161
      ],
      [
        "Ġcustom",
        -10.433782317115591
      ],
      [
        "Ġlake",
        -10.434778899446654
      ],
      [
        "Ġalgae",
        -10.434836446085338
      ],
      [
        "Ġtown",
        -10.434894741332547
      ],
      [
        "Ġpossibilit",
        -10.435950702522124
      ],
      [
        "ized",
        -10.4362090414026
      ],
      [
        "Ġclassic",
        -10.436310152300042
      ],
      [
        "Ġeveryday",
        -10.436876037160555
      ],
      [
        "Ġstrip",
        -10.437064072639329
      ],
      [
        "Ġrequir",
        -10.437176764664825
      ],
      [
        "Ġdiameter",
        -10.43733692435191
      ],
      [
        "ĠEngineer",
        -10.4382412148977
      ],
      [
        "Ġassistance",
        -10.43895739199521
      ],
      [
        "Ġease",
        -10.439099212740182
      ],
      [
        "Ġaward",
        -10.439194970407446
      ],
      [
        "Ġmeant",
        -10.43943862535395
      ],
      [
        "ĠCollege",
        -10.440549698442206
      ],
      [
        "Ġdomestic",
        -10.440756091623832
      ],
      [
        "Ġitem",
        -10.44206414071067
      ],
      [
        "ĠMuseum",
        -10.442749123685267
      ],
      [
        "such",
        -10.443266013438286
      ],
      [
        "Ġfisher",
        -10.443551929604157
      ],
      [
        "ĠGarden",
        -10.444158810996171
      ],
      [
        "Ġdelve",
        -10.444971870437216
      ],
      [
        "ĠGuide",
        -10.444977107117596
      ],
      [
        "Ġathlete",
        -10.445459061904687
      ],
      [
        "Ġcorresponding",
        -10.445531181163126
      ],
      [
        "Ġcontribut",
        -10.446297241872465
      ],
      [
        "ĠWeb",
        -10.446444237809132
      ],
      [
        "Ġobes",
        -10.448307322857143
      ],
      [
        "Ġimmediate",
        -10.44893831543673
      ],
      [
        "Ġaluminum",
        -10.448964692796828
      ],
      [
        "Ġflexi",
        -10.450569876207917
      ],
      [
        "Ġrelief",
        -10.450736707226508
      ],
      [
        "Ġhazard",
        -10.450802048295913
      ],
      [
        "Ġtrend",
        -10.45081364411472
      ],
      [
        "Ġ**",
        -10.451250913652808
      ],
      [
        "Ġbridge",
        -10.451874763074583
      ],
      [
        "Ġmanager",
        -10.451909824177577
      ],
      [
        "Ġduration",
        -10.451967354706875
      ],
      [
        "Ġtape",
        -10.4520842412357
      ],
      [
        "Ġcleaner",
        -10.45229112731466
      ],
      [
        "Ġtransportation",
        -10.452295090488864
      ],
      [
        "Ġsenior",
        -10.45232915767814
      ],
      [
        "Ġbleeding",
        -10.452359328521537
      ],
      [
        "Ġremarkabl",
        -10.452412959980144
      ],
      [
        "Ġtrap",
        -10.452809272567547
      ],
      [
        "ĠInternet",
        -10.452984101880396
      ],
      [
        "Ġcontinu",
        -10.453682935954124
      ],
      [
        "ĠTest",
        -10.453739128792485
      ],
      [
        "}",
        -10.45409005103168
      ],
      [
        "Ġguarantee",
        -10.45416455218158
      ],
      [
        "Ġtrends",
        -10.454549323257924
      ],
      [
        "afety",
        -10.454588957681516
      ],
      [
        "Ġspaces",
        -10.455953477224613
      ],
      [
        "Ġattribute",
        -10.456853551819355
      ],
      [
        "Ġengagement",
        -10.457336374124894
      ],
      [
        "Ġconversation",
        -10.457407351209262
      ],
      [
        "Ġconfiguration",
        -10.457432890348692
      ],
      [
        "Ġexciting",
        -10.457511188901798
      ],
      [
        "Ġreplacement",
        -10.457586671198468
      ],
      [
        "Ġmining",
        -10.457620063674376
      ],
      [
        "Ġintroduction",
        -10.45773669441836
      ],
      [
        "low",
        -10.458226779811664
      ],
      [
        "Ġdollar",
        -10.45835515030986
      ],
      [
        "`",
        -10.458890784272583
      ],
      [
        "Ġpreferences",
        -10.45934844074482
      ],
      [
        "Ġaquarium",
        -10.45991597676186
      ],
      [
        "Ġlights",
        -10.459928954850495
      ],
      [
        "Ġsmoke",
        -10.460436072946877
      ],
      [
        "Ġexchange",
        -10.461198690789912
      ],
      [
        "ĠBlue",
        -10.461421104598728
      ],
      [
        "Ġworm",
        -10.462072118864176
      ],
      [
        "Ġillustrate",
        -10.462587197469444
      ],
      [
        "Ġbathroom",
        -10.462817951593593
      ],
      [
        "ĠBay",
        -10.463993688678505
      ],
      [
        "Ġpromise",
        -10.464364715519636
      ],
      [
        "ĠAl",
        -10.464457949191932
      ],
      [
        "ĠTwo",
        -10.464655109300462
      ],
      [
        "ĠUnderstand",
        -10.464683591575907
      ],
      [
        "Ġexperti",
        -10.465137871652304
      ],
      [
        "Ġrecording",
        -10.46546768852405
      ],
      [
        ".)Ċ",
        -10.46566815797879
      ],
      [
        "Every",
        -10.466173067325975
      ],
      [
        "Ġpayment",
        -10.466550008165305
      ],
      [
        "Ġescape",
        -10.467395929589294
      ],
      [
        "ING",
        -10.467715955291682
      ],
      [
        "un",
        -10.467748571289023
      ],
      [
        "ĠFree",
        -10.468454109571615
      ],
      [
        "Ġfuse",
        -10.468844484852182
      ],
      [
        "Ġlinear",
        -10.469531626161816
      ],
      [
        "Ġtumor",
        -10.470178108342548
      ],
      [
        "ĠDecember",
        -10.47045325004596
      ],
      [
        "Ġyouth",
        -10.470678440966092
      ],
      [
        "Ġsupporting",
        -10.47113694691922
      ],
      [
        "ĠDog",
        -10.471761375877522
      ],
      [
        "Ġdiscomfort",
        -10.47205832322154
      ],
      [
        "Ġassign",
        -10.472830483326293
      ],
      [
        "Ġmount",
        -10.4733130034229
      ],
      [
        "Ġdesigns",
        -10.47331652385342
      ],
      [
        "Ġmanufacture",
        -10.474061106889147
      ],
      [
        "Ġresolution",
        -10.474166975277502
      ],
      [
        "Ġsexual",
        -10.475146150138675
      ],
      [
        "Ġlarva",
        -10.475645761007758
      ],
      [
        "Ġcoal",
        -10.47580985949648
      ],
      [
        "Ġtropical",
        -10.476608770066829
      ],
      [
        "Ġreverse",
        -10.477525649601487
      ],
      [
        "Ġveterinarian",
        -10.47834898904058
      ],
      [
        "//",
        -10.47846254087302
      ],
      [
        "Ġapparent",
        -10.47858591967745
      ],
      [
        "Ġlimitation",
        -10.478907606929724
      ],
      [
        "Understand",
        -10.479199373041704
      ],
      [
        "Ġnutritional",
        -10.479453592200432
      ],
      [
        "Ġdistribute",
        -10.479779923127085
      ],
      [
        "New",
        -10.479948668445717
      ],
      [
        "ĠConsider",
        -10.480191248175029
      ],
      [
        "ĠTime",
        -10.48165738928597
      ],
      [
        "Ġloan",
        -10.482175342126762
      ],
      [
        "Ġmenu",
        -10.482737544594574
      ],
      [
        "Ġimpossibl",
        -10.482919030296298
      ],
      [
        "Ġwidth",
        -10.484014788791743
      ],
      [
        "ĠUn",
        -10.484113974817198
      ],
      [
        "Ġnorthern",
        -10.484488518954116
      ],
      [
        "Ġprofit",
        -10.48449200149541
      ],
      [
        "li",
        -10.48462917063364
      ],
      [
        "Ġmarketing",
        -10.484643497349314
      ],
      [
        "Ġ<",
        -10.485209553784369
      ],
      [
        "Ġoperator",
        -10.485237773267
      ],
      [
        "ification",
        -10.485288428415712
      ],
      [
        "ĠSocial",
        -10.485364016878602
      ],
      [
        "Ġhumidit",
        -10.485440448053424
      ],
      [
        "Ġinterview",
        -10.486163897025635
      ],
      [
        "Ġaggressive",
        -10.486498339472352
      ],
      [
        "Ġreserve",
        -10.486869011395218
      ],
      [
        "Ġinfrastructure",
        -10.487323394898556
      ],
      [
        "Ġcharacters",
        -10.487389258319157
      ],
      [
        "ĠJapanese",
        -10.487978551377116
      ],
      [
        "Ġinteractive",
        -10.488329373385444
      ],
      [
        "Ġbake",
        -10.4887381129866
      ],
      [
        "Ġparasite",
        -10.488831297054375
      ],
      [
        "Ġgases",
        -10.488983153749288
      ],
      [
        "Ġminor",
        -10.489271672223634
      ],
      [
        "Does",
        -10.489434496700389
      ],
      [
        "Ġoral",
        -10.490515921904011
      ],
      [
        "Ġmetabolism",
        -10.490554233130563
      ],
      [
        "Ġfederal",
        -10.490693068054494
      ],
      [
        "Keep",
        -10.491247164586351
      ],
      [
        "Ġcement",
        -10.491305886007856
      ],
      [
        "Ġauthors",
        -10.491314614922086
      ],
      [
        "Ġsex",
        -10.491694837776627
      ],
      [
        "Ġknowing",
        -10.492406167488168
      ],
      [
        "Ġexperiencing",
        -10.49333192825988
      ],
      [
        "ĠCentral",
        -10.49338870606293
      ],
      [
        "Ġdiamond",
        -10.493672218845964
      ],
      [
        "Ġnuclea",
        -10.493789421355949
      ],
      [
        "Ġsubsequent",
        -10.493942231243754
      ],
      [
        "Ġthanks",
        -10.494144758656706
      ],
      [
        "Ġbreaking",
        -10.494159963812926
      ],
      [
        "Ġfacilitate",
        -10.494456090787336
      ],
      [
        "ĠChildren",
        -10.494490061921676
      ],
      [
        "Ġsilver",
        -10.49466440790972
      ],
      [
        "Ġneutral",
        -10.494795005132737
      ],
      [
        "Ġrespectively",
[...]
