{
  "version": "1.0",
  "truncation": null,
  "padding": null,
  "added_tokens": [
    {
      "id": 0,
      "content": "<|bos|>",
      "single_word": false,
      "lstrip": false,
      "rstrip": false,
      "normalized": false,
      "special": true
    },
    {
      "id": 1,
      "content": "<|user_start|>",
      "single_word": false,
      "lstrip": false,
      "rstrip": false,
      "normalized": false,
      "special": true
    },
    {
      "id": 2,
      "content": "<|user_end|>",
      "single_word": false,
      "lstrip": false,
      "rstrip": false,
      "normalized": false,
      "special": true
    },
    {
      "id": 3,
      "content": "<|assistant_start|>",
      "single_word": false,
      "lstrip": false,
      "rstrip": false,
      "normalized": false,
      "special": true
    },
    {
      "id": 4,
      "content": "<|assistant_end|>",
      "single_word": false,
      "lstrip": false,
      "rstrip": false,
      "normalized": false,
      "special": true
    },
    {
      "id": 5,
      "content": "<|python_start|>",
      "single_word": false,
      "lstrip": false,
      "rstrip": false,
      "normalized": false,
      "special": true
    },
    {
      "id": 6,
      "content": "<|python_end|>",
      "single_word": false,
      "lstrip": false,
      "rstrip": false,
      "normalized": false,
      "special": true
    },
    {
      "id": 7,
      "content": "<|output_start|>",
      "single_word": false,
      "lstrip": false,
      "rstrip": false,
      "normalized": false,
      "special": true
    },
    {
      "id": 8,
      "content": "<|output_end|>",
      "single_word": false,
      "lstrip": false,
      "rstrip": false,
      "normalized": false,
      "special": true
    },
    {
      "id": 9,
      "content": "<|unk|>",
      "single_word": false,
      "lstrip": false,
      "rstrip": false,
      "normalized": false,
      "special": true
    }
  ],
  "normalizer": null,
  "pre_tokenizer": {
    "type": "Sequence",
    "pretokenizers": [
      {
        "type": "Split",
        "pattern": {
          "Regex": "'(?i:[sdmt]|ll|ve|re)|[^\\r\\n\\p{L}\\p{N}]?+\\p{L}+|\\p{N}{1,2}| ?[^\\s\\p{L}\\p{N}]++[\\r\\n]*|\\s*[\\r\\n]|\\s+(?!\\S)|\\s+"
        },
        "behavior": "Isolated",
        "invert": false
      },
      {
        "type": "ByteLevel",
        "add_prefix_space": false,
        "trim_offsets": true,
        "use_regex": false
      }
    ]
  },
  "post_processor": {
    "type": "TemplateProcessing",
    "single": [
      {
        "Sequence": {
          "id": "A",
          "type_id": 0
        }
      }
    ],
    "pair": [
      {
        "Sequence": {
          "id": "A",
          "type_id": 0
        }
      },
      {
        "Sequence": {
          "id": "B",
          "type_id": 1
        }
      }
    ],
    "special_tokens": {}
  },
  "decoder": null,
  "model": {
    "type": "BPE",
    "dropout": null,
    "unk_token": "<|unk|>",
    "continuing_subword_prefix": null,
    "end_of_word_suffix": null,
    "fuse_unk": false,
    "byte_fallback": false,
    "ignore_merges": false,
    "vocab": {
      "<|bos|>": 0,
      "<|user_start|>": 1,
      "<|user_end|>": 2,
      "<|assistant_start|>": 3,
      "<|assistant_end|>": 4,
      "<|python_start|>": 5,
      "<|python_end|>": 6,
      "<|output_start|>": 7,
      "<|output_end|>": 8,
      "<|unk|>": 9,
      "!": 10,
      "\"": 11,
      "#": 12,
      "$": 13,
      "%": 14,
      "&": 15,
      "'": 16,
      "(": 17,
      ")": 18,
      "*": 19,
      "+": 20,
      ",": 21,
      "-": 22,
      ".": 23,
      "/": 24,
      "0": 25,
      "1": 26,
      "2": 27,
      "3": 28,
      "4": 29,
      "5": 30,
      "6": 31,
      "7": 32,
      "8": 33,
      "9": 34,
      ":": 35,
      ";": 36,
      "<": 37,
      "=": 38,
      ">": 39,
      "?": 40,
      "@": 41,
      "A": 42,
      "B": 43,
      "C": 44,
      "D": 45,
      "E": 46,
      "F": 47,
      "G": 48,
      "H": 49,
      "I": 50,
      "J": 51,
      "K": 52,
      "L": 53,
      "M": 54,
      "N": 55,
      "O": 56,
      "P": 57,
      "Q": 58,
      "R": 59,
      "S": 60,
      "T": 61,
      "U": 62,
      "V": 63,
      "W": 64,
      "X": 65,
      "Y": 66,
      "Z": 67,
      "[": 68,
      "\\": 69,
      "]": 70,
      "^": 71,
      "_": 72,
      "`": 73,
      "a": 74,
      "b": 75,
      "c": 76,
      "d": 77,
      "e": 78,
      "f": 79,
      "g": 80,
      "h": 81,
      "i": 82,
      "j": 83,
      "k": 84,
      "l": 85,
      "m": 86,
      "n": 87,
      "o": 88,
      "p": 89,
      "q": 90,
      "r": 91,
      "s": 92,
      "t": 93,
      "u": 94,
      "v": 95,
      "w": 96,
      "x": 97,
      "y": 98,
      "z": 99,
      "{": 100,
      "|": 101,
      "}": 102,
      "~": 103,
      "¡": 104,
      "¢": 105,
      "£": 106,
      "¤": 107,
      "¥": 108,
      "¦": 109,
      "§": 110,
      "¨": 111,
      "©": 112,
      "ª": 113,
      "«": 114,
      "¬": 115,
      "®": 116,
      "¯": 117,
      "°": 118,
      "±": 119,
      "²": 120,
      "³": 121,
      "´": 122,
      "µ": 123,
      "¶": 124,
      "·": 125,
      "¸": 126,
      "¹": 127,
      "º": 128,
      "»": 129,
      "¼": 130,
      "½": 131,
      "¾": 132,
      "¿": 133,
      "À": 134,
      "Á": 135,
      "Â": 136,
      "Ã": 137,
      "Ä": 138,
      "Å": 139,
      "Æ": 140,
      "Ç": 141,
      "È": 142,
      "É": 143,
      "Ê": 144,
      "Ë": 145,
      "Ì": 146,
      "Í": 147,
      "Î": 148,
      "Ï": 149,
      "Ð": 150,
      "Ñ": 151,
      "Ò": 152,
      "Ó": 153,
      "Ô": 154,
      "Õ": 155,
      "Ö": 156,
      "×": 157,
      "Ø": 158,
      "Ù": 159,
      "Ú": 160,
      "Û": 161,
      "Ü": 162,
      "Ý": 163,
      "Þ": 164,
      "ß": 165,
      "à": 166,
      "á": 167,
      "â": 168,
      "ã": 169,
      "ä": 170,
      "å": 171,
      "æ": 172,
      "ç": 173,
      "è": 174,
      "é": 175,
      "ê": 176,
      "ë": 177,
      "ì": 178,
      "í": 179,
      "î": 180,
      "ï": 181,
      "ð": 182,
      "ñ": 183,
      "ò": 184,
      "ó": 185,
      "ô": 186,
      "õ": 187,
      "ö": 188,
      "÷": 189,
      "ø": 190,
      "ù": 191,
      "ú": 192,
      "û": 193,
      "ü": 194,
      "ý": 195,
      "þ": 196,
      "ÿ": 197,
      "Ā": 198,
      "ā": 199,
      "Ă": 200,
      "ă": 201,
      "Ą": 202,
      "ą": 203,
      "Ć": 204,
      "ć": 205,
      "Ĉ": 206,
      "ĉ": 207,
      "Ċ": 208,
      "ċ": 209,
      "Č": 210,
      "č": 211,
      "Ď": 212,
      "ď": 213,
      "Đ": 214,
      "đ": 215,
      "Ē": 216,
      "ē": 217,
      "Ĕ": 218,
      "ĕ": 219,
      "Ė": 220,
      "ė": 221,
      "Ę": 222,
      "ę": 223,
      "Ě": 224,
      "ě": 225,
      "Ĝ": 226,
      "ĝ": 227,
      "Ğ": 228,
      "ğ": 229,
      "Ġ": 230,
      "ġ": 231,
      "Ģ": 232,
      "ģ": 233,
      "Ĥ": 234,
      "ĥ": 235,
      "Ħ": 236,
      "ħ": 237,
      "Ĩ": 238,
      "ĩ": 239,
      "Ī": 240,
      "ī": 241,
      "Ĭ": 242,
      "ĭ": 243,
      "Į": 244,
      "į": 245,
      "İ": 246,
      "ı": 247,
      "Ĳ": 248,
      "ĳ": 249,
      "Ĵ": 250,
      "ĵ": 251,
      "Ķ": 252,
      "ķ": 253,
      "ĸ": 254,
      "Ĺ": 255,
      "ĺ": 256,
      "Ļ": 257,
      "ļ": 258,
      "Ľ": 259,
      "ľ": 260,
      "Ŀ": 261,
      "ŀ": 262,
      "Ł": 263,
      "ł": 264,
      "Ń": 265,
      "Ġt": 266,
      "Ġa": 267,
      "in": 268,
      "he": 269,
      "re": 270,
      "on": 271,
      "Ġthe": 272,
      "er": 273,
      "Ġs": 274,
      "at": 275,
      "Ġc": 276,
      "Ġo": 277,
      "es": 278,
      "en": 279,
      "Ġw": 280,
      "nd": 281,
      "it": 282,
      "ing": 283,
      "is": 284,
      "Ġp": 285,
      "Ġf": 286,
      "or": 287,
      "Ġb": 288,
      "ou": 289,
      "al": 290,
      "an": 291,
      "Ġm": 292,
      "ed": 293,
      "Ġto": 294,
      "Ġin": 295,
      "Ġof": 296,
      "ar": 297,
      "Ġand": 298,
      "Ġd": 299,
      "ic": 300,
      "ion": 301,
      "le": 302,
      "ro": 303,
      "as": 304,
      "Ġth": 305,
      "Ġh": 306,
      "ct": 307,
      "ent": 308,
      "Ġe": 309,
      "Ġl": 310,
      "ve": 311,
      "il": 312,
      "Ġre": 313,
      "om": 314,
      "st": 315,
      "Ġis": 316,
      ".Ċ": 317,
      "Ġn": 318,
      "Ġy": 319,
      "et": 320,
      "ly": 321,
      "Ġg": 322,
      "Ġyou": 323,
      "ow": 324,
      "Ġbe": 325,
      "se": 326,
      "ĠT": 327,
      "ut": 328,
      "im": 329,
      "ot": 330,
      "id": 331,
      "ol": 332,
      "ce": 333,
      "ig": 334,
      "ra": 335,
      "Ġu": 336,
      "Ġfor": 337,
      "ch": 338,
      "ĠA": 339,
      "ation": 340,
      "ur": 341,
      "Ġst": 342,
      "Ġon": 343,
      "ĠI": 344,
      "Ġthat": 345,
      "ir": 346,
      "ver": 347,
      "Ġare": 348,
      "Ġit": 349,
      "ay": 350,
      "el": 351,
      "ul": 352,
      "ith": 353,
      "Ġpro": 354,
      "if": 355,
      "am": 356,
      "Ġwith": 357,
      "ĠS": 358,
      "Ġan": 359,
      ".ĊĊ": 360,
      "Ġor": 361,
      "Ġas": 362,
      "Ġcon": 363,
      "est": 364,
      "Ġal": 365,
      "od": 366,
      "ĊĊ": 367,
      "ĠC": 368,
      "ad": 369,
      "her": 370,
      "ke": 371,
      "ter": 372,
      "Ġwh": 373,
      "Ġcan": 374,
      "ge": 375,
      "ure": 376,
      "ĠThe": 377,
      "ate": 378,
      "Ġha": 379,
      "Ġcom": 380,
      "ess": 381,
      "ill": 382,
      "Ġex": 383,
      "um": 384,
      "Ġhe": 385,
      "ers": 386,
      "ab": 387,
      "ĠW": 388,
      "ore": 389,
      "ant": 390,
      "pe": 391,
      "qu": 392,
      "igh": 393,
      "em": 394,
      "'s": 395,
      "th": 396,
      "ive": 397,
      "Ġyour": 398,
      "Ġwe": 399,
      "ain": 400,
      "ment": 401,
      "Ġsu": 402,
      "ies": 403,
      "op": 404,
      "Ġ(": 405,
      "ac": 406,
      "Ġv": 407,
      "ity": 408,
      "Ġde": 409,
      "ist": 410,
      "os": 411,
      "ĠP": 412,
      "us": 413,
      "rom": 414,
      "Ġse": 415,
      "ĠM": 416,
      "ld": 417,
      "ĠB": 418,
      "Ġne": 419,
      "pp": 420,
      "Ġen": 421,
      "nt": 422,
      "Ġch": 423,
      "Ġr": 424,
      "Ġat": 425,
      "ect": 426,
      "ial": 427,
      "Ġfrom": 428,
      "Ġsh": 429,
      "iv": 430,
      "Ġhave": 431,
      "ort": 432,
      "ight": 433,
      "oc": 434,
      "Ġle": 435,
      "ĠD": 436,
      "og": 437,
      "res": 438,
      "Ġby": 439,
      "ĠH": 440,
      "ud": 441,
      "un": 442,
      "and": 443,
      "Ġnot": 444,
      "Ġpl": 445,
      "per": 446,
      "art": 447,
      "Ġus": 448,
      "all": 449,
      "ical": 450,
      "ĠF": 451,
      "du": 452,
      "Ġthis": 453,
      "ome": 454,
      "ib": 455,
      "ide": 456,
      "rou": 457,
      "act": 458,
      "Ġab": 459,
      "ine": 460,
      "ost": 461,
      "Ġma": 462,
      "ns": 463,
      "ell": 464,
      "ould": 465,
      "ĠE": 466,
      "out": 467,
      "pt": 468,
      "Ġim": 469,
      "ĠR": 470,
      "ions": 471,
      "âĢ": 472,
      "Ġdo": 473,
      "iz": 474,
      "Ġwhe": 475,
      "ust": 476,
      "Ġcomp": 477,
      "ard": 478,
      "ere": 479,
      "ff": 480,
      "ich": 481,
      "Ġwill": 482,
      "ast": 483,
      "Ġint": 484,
      "Ġwor": 485,
      "our": 486,
      "ood": 487,
      "Ġthey": 488,
      "age": 489,
      "Ġtheir": 490,
      "gh": 491,
      "Ġk": 492,
      "ther": 493,
      "ater": 494,
      "pl": 495,
      "ĠN": 496,
      "king": 497,
      "Ġad": 498,
      "The": 499,
      "Ġwas": 500,
      "are": 501,
      "Ġall": 502,
      "ated": 503,
      "Ġmore": 504,
      "ĠL": 505,
      "able": 506,
      "ĠG": 507,
      "ag": 508,
      "ip": 509,
      "end": 510,
      "Ġcont": 511,
      "hat": 512,
      "oo": 513,
      "Ġme": 514,
      "ans": 515,
      "Ġbut": 516,
      "ally": 517,
      "ĠO": 518,
      "ks": 519,
      "Ġso": 520,
      "ike": 521,
      "so": 522,
      "wer": 523,
      "ous": 524,
      "ult": 525,
      "Ġinc": 526,
      "ep": 527,
      "ind": 528,
      "ru": 529,
      "ear": 530,
      "ry": 531,
      "cc": 532,
      "estion": 533,
      "Ġj": 534,
      "ong": 535,
      "Ġres": 536,
      "ance": 537,
      "Ġcl": 538,
      "orm": 539,
      "Qu": 540,
      "Ġte": 541,
      "Ġhas": 542,
      "Ġ\"": 543,
      "ire": 544,
      "Ġwhich": 545,
      "vel": 546,
      "ie": 547,
      "Ġdis": 548,
      "ations": 549,
      "Ġout": 550,
      "Ġsp": 551,
      "ction": 552,
      "Ġimp": 553,
      "his": 554,
      "20": 555,
      "Ġpre": 556,
      "ents": 557,
      "nswer": 558,
      "Ġother": 559,
      "one": 560,
      "Ġalso": 561,
      "Question": 562,
      "av": 563,
      "'t": 564,
      "ri": 565,
      "ign": 566,
      "ence": 567,
      "Ġone": 568,
      "Ġtim": 569,
      "ĠAnswer": 570,
      "Ġman": 571,
      "ice": 572,
      "ach": 573,
      "very": 574,
      "ass": 575,
      "ens": 576,
      "reat": 577,
      "ace": 578,
      "Ġspe": 579,
      "Ġfe": 580,
      "Ġthem": 581,
      "ors": 582,
      "ition": 583,
      "ap": 584,
      "Ġper": 585,
      "low": 586,
      "ase": 587,
      "au": 588,
      "ĠU": 589,
      "ack": 590,
      "ĠIn": 591,
      "Ġabout": 592,
      "ĠIt": 593,
      "Ġlike": 594,
      "Ġro": 595,
      "ary": 596,
      "iff": 597,
      "ress": 598,
      "Ġup": 599,
      "Ġun": 600,
      "Ġsc": 601,
      "Ġwhen": 602,
      "ile": 603,
      "now": 604,
      "Ġqu": 605,
      "Ġsome": 606,
      "ue": 607,
      "ite": 608,
      "Ġif": 609,
      "ild": 610,
      "Ġsy": 611,
      "ia": 612,
      "Ġev": 613,
      "Ġneed": 614,
      "Ġcol": 615,
      "Ġdiff": 616,
      "ound": 617,
      "ces": 618,
      "Ġinto": 619,
      "ame": 620,
      "ose": 621,
      "Ġpart": 622,
      "ays": 623,
      "ll": 624,
      "ric": 625,
      "Ġapp": 626,
      "Ġmay": 627,
      "form": 628,
      "ĠThis": 629,
      "Ġtime": 630,
      "Ġuse": 631,
      "ak": 632,
      "Ġthan": 633,
      "ber": 634,
      "ific": 635,
      "row": 636,
      "Ġhel": 637,
      "Ġhow": 638,
      "Ġthere": 639,
      "lect": 640,
      "ĠY": 641,
      "Ġbec": 642,
      "..": 643,
      "Ġpe": 644,
      "Ġhelp": 645,
      "Ġcomm": 646,
      "ail": 647,
      "ating": 648,
      "ree": 649,
      "Ġover": 650,
      "Ġar": 651,
      "Ġrec": 652,
      "Ġbl": 653,
      "Ġbet": 654,
      "Ġtra": 655,
      "Ġtr": 656,
      "ĠWhat": 657,
      "Ġany": 658,
      "ings": 659,
      "als": 660,
      "ish": 661,
      "Ġco": 662,
      "ang": 663,
      "cess": 664,
      "Ġgo": 665,
      "Ġthese": 666,
      "ause": 667,
      "Ġknow": 668,
      "int": 669,
      "Ġcons": 670,
      "ond": 671,
      "Ġstud": 672,
      "les": 673,
      "Ġits": 674,
      "Ġspec": 675,
      "ĠâĢ": 676,
      "nder": 677,
      "olog": 678,
      "Ġgen": 679,
      "hy": 680,
      "Ġwater": 681,
      "ake": 682,
      "red": 683,
      "ord": 684,
      "Ġget": 685,
      "we": 686,
      "Ġdes": 687,
      "Ġyear": 688,
      "ons": 689,
      "ub": 690,
      "ory": 691,
      "ough": 692,
      "ount": 693,
      "rough": 694,
      "Ġprodu": 695,
      "ature": 696,
      "ĠJ": 697,
      "ular": 698,
      "Ġdiffere": 699,
      "Ġeff": 700,
      "Ġour": 701,
      "Ġwhat": 702,
      "Ġused": 703,
      "stem": 704,
      "ove": 705,
      "Ġwere": 706,
      "Ġmost": 707,
      "Ġra": 708,
      "Ġfl": 709,
      "ari": 710,
      "alth": 711,
      "ook": 712,
      "ms": 713,
      "te": 714,
      "round": 715,
      "ning": 716,
      "Ġsa": 717,
      "lud": 718,
      "Ġacc": 719,
      "Ġact": 720,
      "Ġoff": 721,
      "Ġmake": 722,
      "Ġwho": 723,
      "Ġsuch": 724,
      "ient": 725,
      "Ġam": 726,
      "ck": 727,
      "ople": 728,
      "vers": 729,
      "ates": 730,
      "ting": 731,
      "ne": 732,
      "ick": 733,
      "Ġsm": 734,
      "irst": 735,
      "Ġprov": 736,
      "ple": 737,
      "eth": 738,
      "Ġunder": 739,
      "erg": 740,
      "Ġadd": 741,
      "Ġcar": 742,
      "10": 743,
      "xt": 744,
      "erv": 745,
      "Ġnew": 746,
      "Ġag": 747,
      "ĠSt": 748,
      "Ġbeen": 749,
      "Ġtw": 750,
      "Ġem": 751,
      "ful": 752,
      "ics": 753,
      "Ġinclud": 754,
      "Ġshould": 755,
      "ility": 756,
      "Ġwould": 757,
      "uring": 758,
      "ower": 759,
      "Ġthrough": 760,
      "ments": 761,
      "Ġpeople": 762,
      "ject": 763,
      "ange": 764,
      "Ġdi": 765,
      "Ġno": 766,
      "Ġpo": 767,
      "Ġsystem": 768,
      "ov": 769,
      "Ġty": 770,
      "oth": 771,
      "ise": 772,
      "Ġonly": 773,
      "hes": 774,
      "ĠV": 775,
      "Ġpr": 776,
      "Ġwork": 777,
      "ark": 778,
      "its": 779,
      "Ġinter": 780,
      "Ġjust": 781,
      "ob": 782,
      "ph": 783,
      "ced": 784,
      "ĠK": 785,
      "own": 786,
      "ities": 787,
      "Ġke": 788,
      "velop": 789,
      "ative": 790,
      "Ġmy": 791,
      "Ġpos": 792,
      "Ġwell": 793,
      "Ġreg": 794,
      "Ġrel": 795,
      "old": 796,
      "Ġhealth": 797,
      "ible": 798,
      "Ġbu": 799,
      "ten": 800,
      "Ġind": 801,
      "Ġmany": 802,
      "ble": 803,
      "Ġsur": 804,
      "Ġfirst": 805,
      "19": 806,
      "Ġhigh": 807,
      "ren": 808,
      "Ġdifferent": 809,
      "chn": 810,
      "fore": 811,
      "tain": 812,
      "ract": 813,
      "Ġplant": 814,
      "hen": 815,
      "fter": 816,
      "Ġdoes": 817,
      "ize": 818,
      "Ġrem": 819,
      "Ġtwo": 820,
      "ween": 821,
      "ual": 822,
      "lic": 823,
      "get": 824,
      "ink": 825,
      "Ġexper": 826,
      "ased": 827,
      "Ġwhere": 828,
      "Ġac": 829,
      "ience": 830,
      "Ġmod": 831,
      "Ġche": 832,
      "Ġrep": 833,
      "Ġdevelop": 834,
      "Ġ-": 835,
      "Ġob": 836,
      "erm": 837,
      "ram": 838,
      "Ġbetween": 839,
      "ft": 840,
      "ade": 841,
      "Ġlong": 842,
      "hed": 843,
      "Ġdet": 844,
      "Ġsupp": 845,
      "arm": 846,
      "cy": 847,
      "Ġdec": 848,
      "Ġimport": 849,
      "Ġtrans": 850,
      "uch": 851,
      "Ġprocess": 852,
      "Ġvari": 853,
      "Ġusing": 854,
      "ential": 855,
      "rit": 856,
      "Ġway": 857,
      "Ġinv": 858,
      "?Ċ": 859,
      "ife": 860,
      "Ġsim": 861,
      ").": 862,
      "ĠCh": 863,
      "In": 864,
      "Ġthen": 865,
      "Ġfood": 866,
      "ĠIf": 867,
      "Ġpat": 868,
      "Ġcould": 869,
      "ious": 870,
      "Ġinst": 871,
      "Ġass": 872,
      "rib": 873,
      "ually": 874,
      "ts": 875,
      "Ġform": 876,
      "Ġmain": 877,
      "ef": 878,
      "Ġbecause": 879,
      "Ġevery": 880,
      "iss": 881,
      "Ġgrow": 882,
      "Ġsub": 883,
      "ins": 884,
      "Ġcre": 885,
      "Ġatt": 886,
      "Ġeven": 887,
      "ĠHow": 888,
      "Ġtechn": 889,
      "ever": 890,
      "ically": 891,
      "iron": 892,
      "oy": 893,
      "wn": 894,
      "iqu": 895,
      "Ġyears": 896,
      "Ġinf": 897,
      "gan": 898,
      "ody": 899,
      "Ġeffect": 900,
      "'re": 901,
      "Ġsol": 902,
      "Ġvery": 903,
      "Ġlar": 904,
      "Ġext": 905,
      "ily": 906,
      "00": 907,
      "Ġsee": 908,
      "arch": 909,
      "Ġph": 910,
      "Ġrese": 911,
      "ines": 912,
      "ian": 913,
      "ĠâĢĵ": 914,
      "gg": 915,
      "ĠThey": 916,
      "ution": 917,
      "pect": 918,
      "Ġsign": 919,
      "ĠYou": 920,
      "Ġins": 921,
      "Ġnum": 922,
      "--": 923,
      "Ġcell": 924,
      "Ġexp": 925,
      "ology": 926,
      "Ġgener": 927,
      "Ġgood": 928,
      "ergy": 929,
      "sel": 930,
      "ural": 931,
      "Ġmuch": 932,
      "Ġeach": 933,
      "Ġrequ": 934,
      "Ġgra": 935,
      "Ġcle": 936,
      "ool": 937,
      "ron": 938,
      "Ġhum": 939,
      "?ĊĊ": 940,
      "Ġhad": 941,
      "Ġwant": 942,
      "Ġsk": 943,
      "Ġdisc": 944,
      "),": 945,
      "ps": 946,
      "ness": 947,
      "Ġback": 948,
      "Ġexam": 949,
      "uc": 950,
      "Ġmin": 951,
      "Ġlear": 952,
      "ures": 953,
      "cial": 954,
      "Ġimportant": 955,
      "Ġstr": 956,
      "Ġfind": 957,
      "ollow": 958,
      "ruct": 959,
      "Ġsmall": 960,
      "mer": 961,
      "Ġresult": 962,
      "ata": 963,
      "Ġwhile": 964,
      "Ġchild": 965,
      "Ġdon": 966,
      "viron": 967,
      "Ġmed": 968,
      "ĠWh": 969,
      "Ġelect": 970,
      "Ġbr": 971,
      "Ġloc": 972,
      "ec": 973,
      "vent": 974,
      "Ġav": 975,
      "Ġincre": 976,
      "Ġca": 977,
      "ues": 978,
      "Ġhis": 979,
      "Ġfun": 980,
      "Ġlight": 981,
      "eld": 982,
      "ational": 983,
      "ied": 984,
      "Ġafter": 985,
      "stand": 986,
      "ss": 987,
      "Ġear": 988,
      "Ġpers": 989,
      "Ġcor": 990,
      "Ġpres": 991,
      "aterial": 992,
      "Ġset": 993,
      "nce": 994,
      "Ġtake": 995,
      "ix": 996,
      "Ġstart": 997,
      "Ġref": 998,
      "Ġair": 999,
      "Ġgl": 1000,
      "ĠWe": 1001,
      "Ġdog": 1002,
      "Ġcur": 1003,
      "Ġfact": 1004,
      "ices": 1005,
      "ality": 1006,
      "ety": 1007,
      "Ġfound": 1008,
      "Ġsec": 1009,
      "Ġve": 1010,
      "Ġdown": 1011,
      "Ġdesign": 1012,
      "Ġbeing": 1013,
      "Ġworld": 1014,
      "ists": 1015,
      "ized": 1016,
      "ale": 1017,
      "other": 1018,
      "Ġbre": 1019,
      "Ġeas": 1020,
      "Ġenergy": 1021,
      "Ġpot": 1022,
      "Ġbefore": 1023,
      "Ġcall": 1024,
      "Ġinform": 1025,
      "Ġmat": 1026,
      "Ġtem": 1027,
      "Ġfollow": 1028,
      "Ġaround": 1029,
      "Ġart": 1030,
      "Ġshe": 1031,
      "ward": 1032,
      "urn": 1033,
      "cept": 1034,
      "ĠUn": 1035,
      ".\"": 1036,
      "cer": 1037,
      "Ġallow": 1038,
      "Ġlevel": 1039,
      "vironment": 1040,
      "eg": 1041,
      "Ġher": 1042,
      "Ġduring": 1043,
      "Ġdep": 1044,
      "ives": 1045,
      "Ġdist": 1046,
      "Ġcomple": 1047,
      "Ġpower": 1048,
      "tle": 1049,
      "ases": 1050,
      "Ġsame": 1051,
      "Ġhand": 1052,
      "Ġmaterial": 1053,
      "Ġredu": 1054,
      "ages": 1055,
      "ock": 1056,
      "Ġaut": 1057,
      "Ġend": 1058,
      "Ġbody": 1059,
      "Ġent": 1060,
      "ider": 1061,
      "Ġprog": 1062,
      "Ġval": 1063,
      "Ġpartic": 1064,
      "Ġown": 1065,
      "tern": 1066,
      "Ġlife": 1067,
      "dition": 1068,
      "omm": 1069,
      "ield": 1070,
      "Ġtyp": 1071,
      "ets": 1072,
      "ys": 1073,
      "ides": 1074,
      "Ġchar": 1075,
      "Ġthose": 1076,
      "Ġkeep": 1077,
      "Ġexpl": 1078,
      "els": 1079,
      "Ġmon": 1080,
      "Ġlead": 1081,
      "ew": 1082,
      "Ġproble": 1083,
      "ger": 1084,
      "ather": 1085,
      "ty": 1086,
      "iew": 1087,
      "Ġmade": 1088,
      "rop": 1089,
      "Ġright": 1090,
      "chool": 1091,
      "Ġshow": 1092,
      "ident": 1093,
      "Ġoften": 1094,
      "aw": 1095,
      "Ġprot": 1096,
      "cl": 1097,
      "Ġdata": 1098,
      "Ġpoint": 1099,
      "Ġread": 1100,
      "Ġsom": 1101,
      "reen": 1102,
      "Ġbest": 1103,
      "12": 1104,
      "air": 1105,
      "read": 1106,
      "Ġless": 1107,
      "Ġboth": 1108,
      "ats": 1109,
      "Ġbo": 1110,
      "Ġtoo": 1111,
      "ien": 1112,
      "Ġed": 1113,
      "ining": 1114,
      "Ġmet": 1115,
      "Ġcare": 1116,
      "ĠFor": 1117,
      "ium": 1118,
      "Ġproduct": 1119,
      "Ġopt": 1120,
      "Ġanim": 1121,
      ":Ċ": 1122,
      "Ġplay": 1123,
      "Ġgu": 1124,
      "Ġpop": 1125,
      "iving": 1126,
      "ted": 1127,
      "rol": 1128,
      "ird": 1129,
      "ave": 1130,
      "acter": 1131,
      "eng": 1132,
      "Ġeng": 1133,
      "Ġcommon": 1134,
      "ving": 1135,
      "rent": 1136,
      "io": 1137,
      "Ġperson": 1138,
      "Ġenvironment": 1139,
      "Ġvis": 1140,
      "Ġday": 1141,
      "Ġinformation": 1142,
      "Ġstudy": 1143,
      "ull": 1144,
      "ĠPro": 1145,
      "cing": 1146,
      "aking": 1147,
      "-b": 1148,
      "Ġ'": 1149,
      "Ġhome": 1150,
      "hys": 1151,
      "What": 1152,
      "Ġdef": 1153,
      "ited": 1154,
      "ional": 1155,
      "ĠHe": 1156,
      "ier": 1157,
      "ath": 1158,
      "Ġposs": 1159,
      "Ġequ": 1160,
      "ng": 1161,
      "perature": 1162,
      "Ġtreat": 1163,
      "ĠAl": 1164,
      "Ġunderstand": 1165,
      "ĠAs": 1166,
      "Ġadv": 1167,
      "Ġrequire": 1168,
      "up": 1169,
      "ethod": 1170,
      "Ġnumber": 1171,
      "imate": 1172,
      "ined": 1173,
      "Ġproper": 1174,
      "Ġcommun": 1175,
      "oci": 1176,
      "ars": 1177,
      "ivers": 1178,
      "ivid": 1179,
      "ves": 1180,
      "Ġmight": 1181,
      "Ġpol": 1182,
      "Ġresp": 1183,
      "Ġtest": 1184,
      "Ġbra": 1185,
      "Ġlit": 1186,
      "ids": 1187,
      "ason": 1188,
      "Ġorgan": 1189,
      "Ġben": 1190,
      "Ġnow": 1191,
      "any": 1192,
      "led": 1193,
      "ven": 1194,
      "Ġsaid": 1195,
      "Ġop": 1196,
      "Ġsaf": 1197,
      "Ġdr": 1198,
      "ved": 1199,
      "Ġpain": 1200,
      "Ġens": 1201,
      "ĠThese": 1202,
      "Ġlook": 1203,
      "Ġmem": 1204,
      "ute": 1205,
      "Ġtemperature": 1206,
      "Ġap": 1207,
      "How": 1208,
      "ork": 1209,
      "ict": 1210,
      "Ġresearch": 1211,
      "Ġbetter": 1212,
      "-s": 1213,
      "rap": 1214,
      "Ġdire": 1215,
      "Ġsupport": 1216,
      "Ġfam": 1217,
      ":ĊĊ": 1218,
      "âĢĻ": 1219,
      "15": 1220,
      "ands": 1221,
      "Ġcent": 1222,
      "Ġpur": 1223,
      "Ġimpro": 1224,
      "der": 1225,
      "ont": 1226,
      "Ġprovide": 1227,
      "hip": 1228,
      "cent": 1229,
      "Ġdid": 1230,
      "oss": 1231,
      "way": 1232,
      "ead": 1233,
      "ection": 1234,
      "kes": 1235,
      "Ġstudents": 1236,
      "Ġmethod": 1237,
      "the": 1238,
      "Ġaff": 1239,
      "Ġplan": 1240,
      "ĠAnd": 1241,
      "Ġclass": 1242,
      "itions": 1243,
      "ĠAn": 1244,
      "Ġwithout": 1245,
      "Ġflow": 1246,
      "ered": 1247,
      "Ġserv": 1248,
      "ince": 1249,
      "Ġlarge": 1250,
      "This": 1251,
      "ouse": 1252,
      "Ġbeh": 1253,
      "ĠTh": 1254,
      "inal": 1255,
      "ering": 1256,
      "Ġcount": 1257,
      "ways": 1258,
      "...": 1259,
      "day": 1260,
      "itive": 1261,
      "ash": 1262,
      "ĠThere": 1263,
      "ĠTo": 1264,
      "ital": 1265,
      "Ġstill": 1266,
      "Ġmaking": 1267,
      "Ġsl": 1268,
      "Ġprof": 1269,
      "ulation": 1270,
      "Ġincluding": 1271,
      ",\"": 1272,
      "bs": 1273,
      "Ġgreat": 1274,
      "ert": 1275,
      "Ġey": 1276,
      "If": 1277,
      "ention": 1278,
      "Ġgrou": 1279,
      "ording": 1280,
      "ĠBut": 1281,
      "und": 1282,
      "Ġexample": 1283,
      "ants": 1284,
      "Ġiss": 1285,
      "ots": 1286,
      "Ġtop": 1287,
      "Ġris": 1288,
      "Ġspecies": 1289,
      "Ġdev": 1290,
      "Ġide": 1291,
      "Ġactiv": 1292,
      "Ġchang": 1293,
      "Ġchange": 1294,
      "rodu": 1295,
      "Ġknown": 1296,
      "Ġperform": 1297,
      "Ġagain": 1298,
      "Ġbas": 1299,
      "Ġthink": 1300,
      "Ġcreat": 1301,
      "Ġcontain": 1302,
      "Ġclean": 1303,
      "Ġtype": 1304,
      "Ġbenef": 1305,
      "Ġcreate": 1306,
      "It": 1307,
      "Ġbuild": 1308,
      "less": 1309,
      "Ġdise": 1310,
      "ism": 1311,
      "Ġchildren": 1312,
      "Ġhapp": 1313,
      "ross": 1314,
      "Ġsw": 1315,
      "Ġocc": 1316,
      "self": 1317,
      "ability": 1318,
      "Ġfew": 1319,
      "Ġhuman": 1320,
      "-f": 1321,
      "oid": 1322,
      "Ġpract": 1323,
      "ared": 1324,
      "11": 1325,
      "'ll": 1326,
      "Ġtext": 1327,
      "Ġnat": 1328,
      "Ġthings": 1329,
      "Ġcost": 1330,
      "Ġthree": 1331,
      "hers": 1332,
      "Ġplace": 1333,
      "Ġcurrent": 1334,
      "ior": 1335,
      "Ġgr": 1336,
      "Ġpotential": 1337,
      "Ġfeel": 1338,
      "ify": 1339,
      "Ġwithin": 1340,
      "ething": 1341,
      "30": 1342,
      "Ġtre": 1343,
      "ator": 1344,
      "Ġcaus": 1345,
      "Ġcontrol": 1346,
      "Ġmeas": 1347,
      "Ġdra": 1348,
      "Ġarea": 1349,
      "ĠHowever": 1350,
      "ner": 1351,
      "Ġhard": 1352,
      "ooking": 1353,
      "Ġsure": 1354,
      "Ġplants": 1355,
      "co": 1356,
      "Ġhy": 1357,
      "Ġess": 1358,
      "iven": 1359,
      "Ġcalled": 1360,
      "Ġrun": 1361,
      "Ġdel": 1362,
      "Ġbel": 1363,
      "line": 1364,
      "ole": 1365,
      "Ġconst": 1366,
      "ax": 1367,
      "Ġmark": 1368,
      "ination": 1369,
      "Ġconf": 1370,
      "ex": 1371,
      "Ġindivid": 1372,
      "Ġspecific": 1373,
      "Ġsour": 1374,
      "Ġphys": 1375,
      "Ġlow": 1376,
      "ters": 1377,
      "ique": 1378,
      "Ġser": 1379,
      "irc": 1380,
      "ral": 1381,
      "Ġindu": 1382,
      "ank": 1383,
      "Ġcat": 1384,
      "oms": 1385,
      "Ġthough": 1386,
      "Ġcells": 1387,
      "ills": 1388,
      "50": 1389,
      "here": 1390,
      "Ġmean": 1391,
      "Ġmust": 1392,
      "Ġschool": 1393,
      "Ġdam": 1394,
      "Ġcause": 1395,
      "ĠAd": 1396,
      "omp": 1397,
      "Ġcontin": 1398,
      "ime": 1399,
      "Ġsignific": 1400,
      "Ġsurf": 1401,
      "Ġsomething": 1402,
      "-c": 1403,
      "ern": 1404,
      "Ġbi": 1405,
      "ĠSo": 1406,
      "18": 1407,
      "Ġfish": 1408,
      "icle": 1409,
      "ware": 1410,
      "Ġwhy": 1411,
      "Ġfield": 1412,
      "Ġlearn": 1413,
      "etic": 1414,
      "Ġappro": 1415,
      "Ġproject": 1416,
      "ization": 1417,
      "'ve": 1418,
      "Ġsecond": 1419,
      "ring": 1420,
      "Ġprevent": 1421,
      "Ġpub": 1422,
      "ental": 1423,
      "Ġpress": 1424,
      "Ġgoing": 1425,
      "Ġstate": 1426,
      "Ġrest": 1427,
      "Ġcal": 1428,
      "me": 1429,
      "Ġsize": 1430,
      "Ġfunction": 1431,
      "ĠSc": 1432,
      "ĠWhen": 1433,
      "ense": 1434,
      "Ġstep": 1435,
      "iness": 1436,
      "Ġcolor": 1437,
      "ling": 1438,
      "Ġblood": 1439,
      "-t": 1440,
      "Ġtry": 1441,
      "ĠIs": 1442,
      "ug": 1443,
      "Ġphot": 1444,
      "Ġfollowing": 1445,
      "Ġcap": 1446,
      "Ġconn": 1447,
      "Ġopen": 1448,
      "Ġident": 1449,
      "ĠAr": 1450,
      "ients": 1451,
      "Ġmove": 1452,
      "Ġmus": 1453,
      "Ġaddition": 1454,
      "Ġable": 1455,
      "ertain": 1456,
      "aring": 1457,
      "meric": 1458,
      "Ġhig": 1459,
      "Ġsit": 1460,
      "Ġconsider": 1461,
      "Ġele": 1462,
      "Ġanal": 1463,
      "Ġheat": 1464,
      "Ġcomput": 1465,
      "Ġhere": 1466,
      "ently": 1467,
      "Ġinclude": 1468,
      "ape": 1469,
      "ected": 1470,
      "Ġmeans": 1471,
      "Ġreally": 1472,
      "Ġdue": 1473,
      "Ġreal": 1474,
      "ĠPl": 1475,
      "Ġbecome": 1476,
      "ane": 1477,
      "br": 1478,
      "ee": 1479,
      "St": 1480,
      "iversity": 1481,
      "icro": 1482,
      "erest": 1483,
      "Ġcour": 1484,
      "Ġamount": 1485,
      "gen": 1486,
      "Ġavail": 1487,
      "Ġexperience": 1488,
      "osed": 1489,
      "iver": 1490,
      "Ġoper": 1491,
      "uss": 1492,
      "Ġet": 1493,
      "Ġfree": 1494,
      "ished": 1495,
      "Ġimpact": 1496,
      "Ġpossible": 1497,
      "Ġvarious": 1498,
      "Ġlot": 1499,
      "eds": 1500,
      "Ġpass": 1501,
      "Ġret": 1502,
      "Ġhead": 1503,
      "Ġdirect": 1504,
      "Ġmil": 1505,
      "ends": 1506,
      "Ġneeds": 1507,
      "Ġsignificant": 1508,
      "Ġappe": 1509,
      "Ġstand": 1510,
      "Ġfil": 1511,
      "akes": 1512,
      "ips": 1513,
      "Ġanother": 1514,
      "cle": 1515,
      "of": 1516,
      "Ġcome": 1517,
      "Ġel": 1518,
      "aper": 1519,
      "ption": 1520,
      "Ġlet": 1521,
      "Ġant": 1522,
      "Ġdeterm": 1523,
      "Ġcy": 1524,
      "Ġpresent": 1525,
      "Ġdays": 1526,
      "Ġwee": 1527,
      "ified": 1528,
      "Ġprogram": 1529,
      "Ġvol": 1530,
      "Ġlim": 1531,
      "Ġcomb": 1532,
      "port": 1533,
      "Ġnatural": 1534,
      "bers": 1535,
      "Ġold": 1536,
      "Ġstruct": 1537,
      "Ġsay": 1538,
      "Ġec": 1539,
      "str": 1540,
      "NA": 1541,
      "ocus": 1542,
      "Ġpar": 1543,
      "Ġalways": 1544,
      "Ġfin": 1545,
      "Ġcirc": 1546,
      "Ġimm": 1547,
      "Ġcond": 1548,
      "-d": 1549,
      "Ġtool": 1550,
      "-p": 1551,
      "Ġlittle": 1552,
      "Ġcam": 1553,
      "Ġput": 1554,
      "land": 1555,
      "Ġes": 1556,
      "Ġdevelopment": 1557,
      "Ġsym": 1558,
      "ccess": 1559,
      "Ġmult": 1560,
      "ateg": 1561,
      "Ġ[": 1562,
      "Ġlast": 1563,
      "Ġsever": 1564,
      "Ġspace": 1565,
      "Ġapplic": 1566,
      "Ġest": 1567,
      "Ġunt": 1568,
      "ĠAmeric": 1569,
      "Ġtypes": 1570,
      "over": 1571,
      "13": 1572,
      "ush": 1573,
      "Ġmakes": 1574,
      "outh": 1575,
      "ones": 1576,
      "ĠSh": 1577,
      "arent": 1578,
      "14": 1579,
      "thing": 1580,
      "ĠEx": 1581,
      "Ġsens": 1582,
      "Ġinvol": 1583,
      "aves": 1584,
      "Ġareas": 1585,
      "ances": 1586,
      "'m": 1587,
      "Ġter": 1588,
      "Ġfeature": 1589,
      "oot": 1590,
      "Ġaccess": 1591,
      "omes": 1592,
      "ote": 1593,
      "iod": 1594,
      "ĠRe": 1595,
      "16": 1596,
      "ĠWhich": 1597,
      "Ġnut": 1598,
      "Ġteam": 1599,
      "ĠCl": 1600,
      "de": 1601,
      "gn": 1602,
      "Ġcut": 1603,
      "Ġbased": 1604,
      "ration": 1605,
      "atter": 1606,
      "Ġprofess": 1607,
      "ream": 1608,
      "Ġlay": 1609,
      "fort": 1610,
      "Ġavailable": 1611,
      "inc": 1612,
      "Ġprovid": 1613,
      "Ġquality": 1614,
      "aces": 1615,
      "----": 1616,
      "view": 1617,
      "ably": 1618,
      "arc": 1619,
      "Ġbeg": 1620,
      "Ġ$": 1621,
      "Ġensure": 1622,
      "hor": 1623,
      "ilar": 1624,
      "pecial": 1625,
      "aste": 1626,
      "We": 1627,
      "Ġspecial": 1628,
      "Ġproblem": 1629,
      "ieve": 1630,
      "Ġcr": 1631,
      "Ġinterest": 1632,
      "ples": 1633,
      "Ġhist": 1634,
      "Ġbig": 1635,
      "ended": 1636,
      "Ġtimes": 1637,
      "Ġseveral": 1638,
      "az": 1639,
      "ode": 1640,
      "Ġenough": 1641,
      "Ġscient": 1642,
      "Ġfocus": 1643,
      "Ġengine": 1644,
      "Ġsoil": 1645,
      "Ġdem": 1646,
      "ems": 1647,
      "ox": 1648,
      "Ġrange": 1649,
      "Ġdig": 1650,
      "Ġlearning": 1651,
      "Ġcertain": 1652,
      "Ġessential": 1653,
      "orn": 1654,
      "Ġchem": 1655,
      "Ġsal": 1656,
      "Ġpost": 1657,
      "Ġconsum": 1658,
      "Ġmot": 1659,
      "Ġusually": 1660,
      "Ġobject": 1661,
      "__": 1662,
      "Ġeffective": 1663,
      "Ġrisk": 1664,
      "Ġprom": 1665,
      "Ġdesc": 1666,
      "onom": 1667,
      "Ġside": 1668,
      "ision": 1669,
      "Ġbus": 1670,
      "Ġeffic": 1671,
      "alk": 1672,
      "oad": 1673,
      "Ġz": 1674,
      "Ġsystems": 1675,
      "Ġgive": 1676,
      "ocial": 1677,
      "be": 1678,
      "ards": 1679,
      "Ġmar": 1680,
      "ending": 1681,
      "Ġtechnology": 1682,
      "par": 1683,
      "Ġ&": 1684,
      "Ġoccur": 1685,
      "let": 1686,
      "bon": 1687,
      "âĢĶ": 1688,
      "ours": 1689,
      "Ġmonth": 1690,
      "Ġkey": 1691,
      "Ġfeed": 1692,
      "Ġconditions": 1693,
      "Ġsound": 1694,
      "Ġmill": 1695,
      "ological": 1696,
      "Ġeduc": 1697,
      "oes": 1698,
      "urther": 1699,
      "Ġsurface": 1700,
      "Ġmaterials": 1701,
      "ables": 1702,
      "atic": 1703,
      "pr": 1704,
      "Ġprote": 1705,
      "Ġline": 1706,
      "Ġlist": 1707,
      "Ġdisease": 1708,
      "Ġcho": 1709,
      "Ġgroup": 1710,
      "Ġresults": 1711,
      "Ġuntil": 1712,
      "ency": 1713,
      "aster": 1714,
      "Ġfre": 1715,
      "Ġnon": 1716,
      "Ġproducts": 1717,
      "Ġ=": 1718,
      "Ġwind": 1719,
      "Ġhigher": 1720,
      "Ġanimals": 1721,
      "ires": 1722,
      "oring": 1723,
      "ĠBy": 1724,
      "lu": 1725,
      "Ġtoget": 1726,
      "oose": 1727,
      "Ġtogether": 1728,
      "ories": 1729,
      "ĠWith": 1730,
      "Ġorder": 1731,
      "Ġinvest": 1732,
      "ĠRes": 1733,
      "Ġsince": 1734,
      "jor": 1735,
      "Ġreport": 1736,
      "ustom": 1737,
      "ah": 1738,
      "17": 1739,
      "Ġparticular": 1740,
      "ries": 1741,
      "asing": 1742,
      "Ġrecomm": 1743,
      "atch": 1744,
      "ember": 1745,
      "Ġmaintain": 1746,
      "Ġmov": 1747,
      ".,": 1748,
      "rect": 1749,
      "ired": 1750,
      "Ġbehav": 1751,
      "light": 1752,
      "ĠSe": 1753,
      "ately": 1754,
      "Ġperiod": 1755,
      "Ġimprove": 1756,
      "Ġcase": 1757,
      "Ġnext": 1758,
      "ored": 1759,
      "Ġweight": 1760,
      "When": 1761,
      "iting": 1762,
      "Ġaway": 1763,
      "Ġans": 1764,
      "As": 1765,
      "fer": 1766,
      "ĠBe": 1767,
      "Ġname": 1768,
      "Ġworks": 1769,
      "oint": 1770,
      "ott": 1771,
      "omen": 1772,
      "ĠThat": 1773,
      "Ġsing": 1774,
      "Ġbird": 1775,
      "ĠCan": 1776,
      "ĠInd": 1777,
      "Ġsugg": 1778,
      "Ġsuccess": 1779,
      "ains": 1780,
      "Ġgreen": 1781,
      "olution": 1782,
      "Ġchanges": 1783,
      "Ġprim": 1784,
      "Ġfamily": 1785,
      "oun": 1786,
      "Ġstrong": 1787,
      "Ġtreatment": 1788,
      "Ġmeasure": 1789,
      "work": 1790,
      "fact": 1791,
      "put": 1792,
      "Ġoil": 1793,
      "Ġopp": 1794,
      "Ġrele": 1795,
      "Ġpressure": 1796,
      "erc": 1797,
      "ication": 1798,
      "Ġlevels": 1799,
      "agement": 1800,
      "Ġrepl": 1801,
      "Ġlikely": 1802,
      "Ġhealthy": 1803,
      "Ġincrease": 1804,
      "Ġprotect": 1805,
      "Ġcult": 1806,
      "pecially": 1807,
      "You": 1808,
      "Ġhaving": 1809,
      "Ġchall": 1810,
      "Ġnear": 1811,
      "ump": 1812,
      "Ġlocal": 1813,
      "ctor": 1814,
      "Ġmach": 1815,
      "Ġnecess": 1816,
      "Ġgas": 1817,
      "icult": 1818,
      "Ġshort": 1819,
      "inter": 1820,
      "ĠUniversity": 1821,
      "osp": 1822,
      "Ġcomplete": 1823,
      "-l": 1824,
      "cul": 1825,
      "Ġkind": 1826,
      "oney": 1827,
      "Ġsuggest": 1828,
      "ĠNew": 1829,
      "Ġlower": 1830,
      "Ġtru": 1831,
      "Ġground": 1832,
      "af": 1833,
      "arden": 1834,
      "Ġword": 1835,
      "aut": 1836,
      "Ġwhite": 1837,
      "Ġworking": 1838,
      "Ġcourse": 1839,
      "Ġalong": 1840,
      "Ġeasy": 1841,
      "Ġmajor": 1842,
      "Ġproblems": 1843,
      "Ġcomes": 1844,
      "Ġreduce": 1845,
      "Ġgame": 1846,
      "utes": 1847,
      "hem": 1848,
      "Ġfore": 1849,
      "Ġassoci": 1850,
      "ators": 1851,
      "There": 1852,
      "ither": 1853,
      "Ġfac": 1854,
      "Ġrece": 1855,
      "uture": 1856,
      "Ġearly": 1857,
      "Ġrole": 1858,
      "Ġquick": 1859,
      "âĢĵ": 1860,
      "Ġcharacter": 1861,
      "vious": 1862,
      "Ġenc": 1863,
      "imes": 1864,
      "ĠAt": 1865,
      "aging": 1866,
      "Ġdogs": 1867,
      "ches": 1868,
      "Ġwrit": 1869,
      "Ġpaper": 1870,
      "Ġmicro": 1871,
      "izing": 1872,
      "Ġdoesn": 1873,
      "Ġmodel": 1874,
      "Ġbro": 1875,
      "ipp": 1876,
      "por": 1877,
      "Ġsimilar": 1878,
      "Ġreact": 1879,
      "ury": 1880,
      "usion": 1881,
      "âĢ¦": 1882,
      "âĢĻs": 1883,
      "-m": 1884,
      ")Ċ": 1885,
      "Ġavoid": 1886,
      "Ġorig": 1887,
      "Ġissues": 1888,
      "Ġlab": 1889,
      "ogn": 1890,
      "Ġflu": 1891,
      "chan": 1892,
      "Ġfull": 1893,
      "Ġresour": 1894,
      "Ġcra": 1895,
      "ression": 1896,
      ")ĊĊ": 1897,
      "Ġothers": 1898,
      "ret": 1899,
      "Ġsum": 1900,
      "Ġdone": 1901,
      "40": 1902,
      "une": 1903,
      "Ġactually": 1904,
      "oor": 1905,
      "Ġleast": 1906,
      "not": 1907,
      "Ġhim": 1908,
      "Ġstra": 1909,
      "Ġvalue": 1910,
      "Ġreason": 1911,
      "atory": 1912,
      "Ġeat": 1913,
      "Ġfour": 1914,
      "ooks": 1915,
      "Ġport": 1916,
      "ames": 1917,
      "ived": 1918,
      "Ġeye": 1919,
      "Ġwarm": 1920,
      "Ġmarket": 1921,
      "Ġsocial": 1922,
      "Ġrad": 1923,
      "Ġgrowth": 1924,
      "Ġleg": 1925,
      "Ġbook": 1926,
      "Ġproduction": 1927,
      "Ġmind": 1928,
      "Ġaccording": 1929,
      "Ġdry": 1930,
      "An": 1931,
      "idd": 1932,
      "ĠCon": 1933,
      "Ġsun": 1934,
      "Ġturn": 1935,
      "Ġsoft": 1936,
      "Ġgiven": 1937,
      "Ġdiet": 1938,
      "Ġobs": 1939,
      "ĠSp": 1940,
      "Ġways": 1941,
      "Ġunique": 1942,
      "ĠTe": 1943,
      "Ġnever": 1944,
      "elf": 1945,
      "Ġespecially": 1946,
      "Ġred": 1947,
      "astic": 1948,
      "25": 1949,
      "Ġage": 1950,
      "Ġagainst": 1951,
      "Ġfri": 1952,
      "Ġsafe": 1953,
      "21": 1954,
      "Ġaffect": 1955,
      "resh": 1956,
      "joy": 1957,
      "yle": 1958,
      "Ġdifficult": 1959,
      "bit": 1960,
      "Ġresearc": 1961,
      "iple": 1962,
      "Ġfar": 1963,
      "Ġnorm": 1964,
      "amm": 1965,
      "Ġpred": 1966,
      "man": 1967,
      "Ġegg": 1968,
      "Ġlive": 1969,
      "verage": 1970,
      "Ġheart": 1971,
      "Ġbusiness": 1972,
      "wards": 1973,
      "ler": 1974,
      "ray": 1975,
      "Ġregular": 1976,
      "Ġcustom": 1977,
      "Ġcheck": 1978,
      "Ġgre": 1979,
      "Ġsingle": 1980,
      "Ġsimple": 1981,
      "Ġer": 1982,
      "ER": 1983,
      "ilities": 1984,
      "idence": 1985,
      "Ġclear": 1986,
      "Ġdamage": 1987,
      "Ġi": 1988,
      "Ġacross": 1989,
      "Ġelectric": 1990,
      "rag": 1991,
      "Ġfactors": 1992,
      "Ġbegin": 1993,
      "Ġfu": 1994,
      "ensive": 1995,
      "Ġintern": 1996,
      "Ġhouse": 1997,
      "Ġbenefits": 1998,
      "agn": 1999,
      "Ġprob": 2000,
      "Ġtur": 2001,
      "angu": 2002,
      "anced": 2003,
      "ĠCol": 2004,
      "Ġrespons": 2005,
      "most": 2006,
      "Ġthing": 2007,
      "Ġwr": 2008,
      "Ġauthor": 2009,
      "lish": 2010,
      "ĠSome": 2011,
      "Ġabove": 2012,
      "orth": 2013,
      "Ġmass": 2014,
      "ivity": 2015,
      "Ġbit": 2016,
      "Ġcontrib": 2017,
      "Ġpie": 2018,
      "leep": 2019,
      "ĠDe": 2020,
      "Ġland": 2021,
      "Ġleft": 2022,
      "Ġeffects": 2023,
      "Ġfuture": 2024,
      "igns": 2025,
      "Ġamong": 2026,
      "apt": 2027,
      "Ġskin": 2028,
      "Ġabs": 2029,
      "fect": 2030,
      "ission": 2031,
      "ina": 2032,
      "ised": 2033,
      "Ġste": 2034,
      "com": 2035,
      "Ġparts": 2036,
      "Ġhelps": 2037,
      "ufact": 2038,
      "ffic": 2039,
      "Ġcool": 2040,
      "Ġcompon": 2041,
      "Ġlooking": 2042,
      "Ġcarbon": 2043,
      "uro": 2044,
      "Ġcondition": 2045,
      "ĠOn": 2046,
      "ĠâĢĶ": 2047,
      "Ġsource": 2048,
      "Ġfrequ": 2049,
      "Ġwide": 2050,
      "estions": 2051,
      "Ġill": 2052,
      "Ġpast": 2053,
      "though": 2054,
      "omet": 2055,
      "ĠOr": 2056,
      "Ġenjoy": 2057,
      "Ġach": 2058,
      "Ġtoday": 2059,
      "Ġterm": 2060,
      "ĠPh": 2061,
      "Ġdiscuss": 2062,
      "Ġphysical": 2063,
      "ledge": 2064,
      "ĠEn": 2065,
      "ĠZ": 2066,
      "itch": 2067,
      "ibility": 2068,
      "Ġcru": 2069,
      "ification": 2070,
      "Ġtraining": 2071,
      "Ġsays": 2072,
      "lection": 2073,
      "stry": 2074,
      "Ġdetail": 2075,
      "Ġpopular": 2076,
      "aching": 2077,
      "ĠYour": 2078,
      "Ġcorrect": 2079,
      "Ġhold": 2080,
      "To": 2081,
      "side": 2082,
      "upp": 2083,
      "Ġvide": 2084,
      "Ġdifference": 2085,
      "Ġprovides": 2086,
      "Ġmagn": 2087,
      "Ġvers": 2088,
      "Ġclose": 2089,
      "ibr": 2090,
      "Ġwhether": 2091,
      "Ġpublic": 2092,
      "ruction": 2093,
      "ĠBl": 2094,
      "Ġonce": 2095,
      "Ġnet": 2096,
      "Ġdesigned": 2097,
      "Ġcomplex": 2098,
      "Ġexpect": 2099,
      "ores": 2100,
      "Ġchemical": 2101,
      "Ġquestion": 2102,
      "to": 2103,
      "ann": 2104,
      "uals": 2105,
      "Ġmechan": 2106,
      "Ġinteract": 2107,
      "Ġbal": 2108,
      "Ġbatter": 2109,
      "avor": 2110,
      "Ġgetting": 2111,
      "Ġbelow": 2112,
      "ĠInst": 2113,
      "Ġunderstanding": 2114,
      "ilt": 2115,
      "Ġindic": 2116,
      "60": 2117,
      "erence": 2118,
      "Ġsam": 2119,
      "Ġrepres": 2120,
      "lished": 2121,
      "For": 2122,
      "Ġthin": 2123,
      "ae": 2124,
      "ried": 2125,
      "Ġsubst": 2126,
      "Ġgarden": 2127,
      "Ġallows": 2128,
      "Ġanswer": 2129,
      "ym": 2130,
      "Ġemb": 2131,
      "Ġview": 2132,
      "ming": 2133,
      "Ġdeg": 2134,
      "Ġoffer": 2135,
      "ope": 2136,
      "rown": 2137,
      "Ġskills": 2138,
      "Ġperformance": 2139,
      "Ġprop": 2140,
      "Ġfurther": 2141,
      "Ġeither": 2142,
      "Ġpercent": 2143,
      "Ġcomputer": 2144,
      "Ġweek": 2145,
      "Ġstop": 2146,
      "Ġproduce": 2147,
      "raph": 2148,
      "ery": 2149,
      "Ġconcer": 2150,
      "Ġsmo": 2151,
      "Ġparent": 2152,
      "Ġscience": 2153,
      "ready": 2154,
      "Ġdescrib": 2155,
      "Ġfeatures": 2156,
      "Ġpan": 2157,
      "Ġtot": 2158,
      "Ġwall": 2159,
      "hing": 2160,
      "Ġenh": 2161,
      "Ġnecessary": 2162,
      "ured": 2163,
      "!ĊĊ": 2164,
      "amin": 2165,
      "ney": 2166,
      "Ġloss": 2167,
      "Ġability": 2168,
      "utions": 2169,
      "Ġcoll": 2170,
      "Ġexperien": 2171,
      "iment": 2172,
      "Ġclimate": 2173,
      "Ġvariety": 2174,
      "Ġfall": 2175,
      "Ġneeded": 2176,
      "Ġresearchers": 2177,
      "Ġindividual": 2178,
      "Ġfem": 2179,
      "Ġhours": 2180,
      "ptoms": 2181,
      "for": 2182,
      "Ġposition": 2183,
      "bo": 2184,
      "lement": 2185,
      "Ġinside": 2186,
      "Ġpersonal": 2187,
      "ising": 2188,
      "Ġanimal": 2189,
      "ĠAI": 2190,
      "Ġbrain": 2191,
      "Wh": 2192,
      "ura": 2193,
      "duct": 2194,
      ".\"ĊĊ": 2195,
      "Ġpurp": 2196,
      "Ġmix": 2197,
      "Ġarticle": 2198,
      "use": 2199,
      "Ġlif": 2200,
      "ront": 2201,
      "Ġglob": 2202,
      "ysis": 2203,
      "Ġveget": 2204,
      "Ġcompany": 2205,
      "Ġbuy": 2206,
      ").Ċ": 2207,
      "aling": 2208,
      "Ġseen": 2209,
      "Ġtell": 2210,
      "Ġindustry": 2211,
      "24": 2212,
      "Ġcancer": 2213,
      "ĠOne": 2214,
      "Ġ.": 2215,
      "room": 2216,
      "Ġbar": 2217,
      "Ġresist": 2218,
      "Ch": 2219,
      "nam": 2220,
      "ese": 2221,
      "roll": 2222,
      "alf": 2223,
      "Ġblack": 2224,
      "Ġalready": 2225,
      "Ġhappen": 2226,
      "ext": 2227,
      "ploy": 2228,
      "Ġwood": 2229,
      "Ġimage": 2230,
      "iques": 2231,
      "Ġcrit": 2232,
      "edi": 2233,
      "ument": 2234,
      "ĠAll": 2235,
      "Ġbreak": 2236,
      "ength": 2237,
      "Ġinit": 2238,
      "Ġvir": 2239,
      "Ġprep": 2240,
      "Ġselect": 2241,
      "Ġdoing": 2242,
      "Ġdraw": 2243,
      "Ġmanufact": 2244,
      "Ġcommunity": 2245,
      "unt": 2246,
      "ĠUS": 2247,
      "Ġpet": 2248,
      "Ġneg": 2249,
      "ales": 2250,
      "Ġexist": 2251,
      "aps": 2252,
      "Ġpoll": 2253,
      "istic": 2254,
      "Ġfat": 2255,
      "Ġmilk": 2256,
      "Ġpay": 2257,
      "mit": 2258,
      "Ġevent": 2259,
      "stain": 2260,
      "ton": 2261,
      "ĠWor": 2262,
      "ystem": 2263,
      "Ġbacter": 2264,
      "Ġstress": 2265,
      "Ġhistory": 2266,
      "ung": 2267,
      "Ġcold": 2268,
      "ĠIm": 2269,
      "Ġwhole": 2270,
      "osing": 2271,
      "reng": 2272,
      "lying": 2273,
      "lt": 2274,
      "Ġpositive": 2275,
      "Ġrequired": 2276,
      "aken": 2277,
      "Ġrecord": 2278,
      "ties": 2279,
      "Ġlove": 2280,
      "anguage": 2281,
      "Ġver": 2282,
      "selves": 2283,
      "22": 2284,
      "ĠEar": 2285,
      "Ġmatter": 2286,
      "Ġmethods": 2287,
      "Ġexerc": 2288,
      "Ġcontent": 2289,
      "Ġtravel": 2290,
      "Ġsustain": 2291,
      "by": 2292,
      "ortun": 2293,
      "Ġliving": 2294,
      "Ġchalleng": 2295,
      "Ġspeed": 2296,
      "Ġdevice": 2297,
      "Ġfarm": 2298,
      "Ġintrodu": 2299,
      "Ġlonger": 2300,
      "amp": 2301,
      "aving": 2302,
      "Ġmention": 2303,
      "Ġask": 2304,
      "Ġminim": 2305,
      "Ġactivities": 2306,
      "Ġstrateg": 2307,
      "Ġcountry": 2308,
      "just": 2309,
      "iency": 2310,
      "!Ċ": 2311,
      ",Ċ": 2312,
      "Ġnature": 2313,
      "Ġtradition": 2314,
      "ĠNo": 2315,
      "ume": 2316,
      "Ġsn": 2317,
      "ows": 2318,
      "Ġhot": 2319,
      "Ġsomeone": 2320,
      "orts": 2321,
      "ĠEng": 2322,
      "Ġinstall": 2323,
      "Ġeconom": 2324,
      "Ġmole": 2325,
      "Ġleaves": 2326,
      "ply": 2327,
      "Ġcollect": 2328,
      "Ġself": 2329,
      "Ġmedical": 2330,
      "Ġgeneral": 2331,
      "Ġfit": 2332,
      "Ġenvironmental": 2333,
      "Ġsafety": 2334,
      "Ġetc": 2335,
      "Ġknowledge": 2336,
      "Ġsleep": 2337,
      "Ġox": 2338,
      "Ġappear": 2339,
      "arget": 2340,
      "Ġlater": 2341,
      "ationship": 2342,
      "Ġstructure": 2343,
      "Ġtree": 2344,
      "Ġquestions": 2345,
      "fully": 2346,
      "Ġyoung": 2347,
      "Ġsitu": 2348,
      "ites": 2349,
      "Ġrate": 2350,
      "Ġmo": 2351,
      "Ġwild": 2352,
      "Ġelectr": 2353,
      "Ġtools": 2354,
      "Ġprotein": 2355,
      "Ġterms": 2356,
      "ask": 2357,
      "Ġeasily": 2358,
      "Ġtrees": 2359,
      "ik": 2360,
      "Ġut": 2361,
      "Ġextra": 2362,
      "Ġveh": 2363,
      "Ġentire": 2364,
      "uck": 2365,
      "app": 2366,
      "Ġslow": 2367,
      "ement": 2368,
      "Ġpath": 2369,
      "Al": 2370,
      "Ġmoney": 2371,
      "Ġuser": 2372,
      "nces": 2373,
      "Ġremov": 2374,
      "Ġdeep": 2375,
      "Ġsolution": 2376,
      "Ġgrowing": 2377,
      "Ġapproach": 2378,
      "Ġconnect": 2379,
      "Ġtaking": 2380,
      "Ġever": 2381,
      "Ġgover": 2382,
      "eral": 2383,
      "Ġwar": 2384,
      "Ġbuilding": 2385,
      "Ġjour": 2386,
      "illed": 2387,
      "Ġcrucial": 2388,
      "ief": 2389,
      "cell": 2390,
      "Ġhumans": 2391,
      "Ġsymptoms": 2392,
      "sc": 2393,
      "Ġcomfort": 2394,
      "Ġprec": 2395,
      "Ġperfect": 2396,
      "Ġactivity": 2397,
      "Ġassociated": 2398,
      "Ġfle": 2399,
      "Ġtypically": 2400,
      "Ġidea": 2401,
      "ĠQu": 2402,
      "Ġfund": 2403,
      "Ġmonths": 2404,
      "Ġbur": 2405,
      "01": 2406,
      "Ġonline": 2407,
      "Ġrecogn": 2408,
      "eter": 2409,
      "iation": 2410,
      "val": 2411,
      "inary": 2412,
      "Ġindividuals": 2413,
      "yl": 2414,
      "ene": 2415,
      "cks": 2416,
      "Ġpatients": 2417,
      "80": 2418,
      "ule": 2419,
      "Ġfru": 2420,
      "rel": 2421,
      "Ġconcept": 2422,
      "Ġresources": 2423,
      "Ġadult": 2424,
      "Ġisn": 2425,
      "ES": 2426,
      "Ġoverall": 2427,
      "icles": 2428,
      "Ġbehavior": 2429,
      "idered": 2430,
      "Ġincludes": 2431,
      "ises": 2432,
      "Ġstreng": 2433,
      "Ġhyd": 2434,
      "Ġtechniques": 2435,
      "uff": 2436,
      "Ġbring": 2437,
      "Ġcreating": 2438,
      "reme": 2439,
      "Ġseason": 2440,
      "Ġrather": 2441,
      "Ġsepar": 2442,
      "Ġmen": 2443,
      "Ġinflu": 2444,
      "Ġstay": 2445,
      "mb": 2446,
      "Ġtarget": 2447,
      "ĠCent": 2448,
      "Ġmeet": 2449,
      "Ġchoose": 2450,
      "Ġwomen": 2451,
      "ĠShe": 2452,
      "Ġcook": 2453,
      "ctions": 2454,
      "Ġhor": 2455,
      "aced": 2456,
      "ĠCar": 2457,
      "Ġrelationship": 2458,
      "erve": 2459,
      "ĠComp": 2460,
      "Ġappl": 2461,
      "Ġsolar": 2462,
      "Ġgovern": 2463,
      "Ġgot": 2464,
      "Ġharm": 2465,
      "Ġhowever": 2466,
      "ĠDo": 2467,
      "Ġjob": 2468,
      "Ġaddress": 2469,
      "Ġobserv": 2470,
      "ipment": 2471,
      "Ġconsidered": 2472,
      "Ġmanagement": 2473,
      "Th": 2474,
      "izes": 2475,
      "gar": 2476,
      "Ġminutes": 2477,
      "Ġmillion": 2478,
      "ograp": 2479,
      "Ġfoods": 2480,
      "Ġlarger": 2481,
      "Ġdeveloped": 2482,
      "het": 2483,
      "ulations": 2484,
      "aches": 2485,
      "Ġuses": 2486,
      "Ġcover": 2487,
      "Ġissue": 2488,
      "Ġfib": 2489,
      "Ġheav": 2490,
      "nov": 2491,
      "So": 2492,
      "Ġcreated": 2493,
      "-based": 2494,
      "Ġeyes": 2495,
      "Ġapplications": 2496,
      "Ġpack": 2497,
      "Ġrob": 2498,
      "ronic": 2499,
      "Ġinteg": 2500,
      "Ġprofessional": 2501,
      "sect": 2502,
      "ĠLe": 2503,
      "ellow": 2504,
      "Ġopportun": 2505,
      "ĠWhile": 2506,
      "pro": 2507,
      "Ġtakes": 2508,
      "Ġroom": 2509,
      "Ġvac": 2510,
      "aged": 2511,
      "ĠAmerican": 2512,
      "Ġthroughout": 2513,
      "Ġrelated": 2514,
      "Ġsand": 2515,
      "Ġquickly": 2516,
      "Ġconsist": 2517,
      "rug": 2518,
      "Ġcompan": 2519,
      "rig": 2520,
      "Ġcases": 2521,
      "Ġstudies": 2522,
      "Ġthought": 2523,
      "Ġmodern": 2524,
      "verse": 2525,
      "Ġpopulation": 2526,
      "-w": 2527,
      "Ġsqu": 2528,
      "era": 2529,
      "igure": 2530,
      "Ġyourself": 2531,
      "Ġcompared": 2532,
      "ging": 2533,
      "Ġnight": 2534,
      "earch": 2535,
      "23": 2536,
      "Ġprint": 2537,
      "Ġpractice": 2538,
      "Ġdom": 2539,
      "rad": 2540,
      "Ġprobably": 2541,
      "oll": 2542,
      "itable": 2543,
      ".\"Ċ": 2544,
      "acks": 2545,
      "ĠDr": 2546,
      "augh": 2547,
      "Ġaverage": 2548,
      "Ġsense": 2549,
      "Ġdevices": 2550,
      "Ġwinter": 2551,
      "Ġfresh": 2552,
      "ounds": 2553,
      "Ġincreased": 2554,
      "ges": 2555,
      "Ġfive": 2556,
      "Ġfast": 2557,
      "Ġsimply": 2558,
      "Ġcontact": 2559,
      "Ġbad": 2560,
      "Ġexc": 2561,
      "Ġrepresent": 2562,
      "Ġdigital": 2563,
      "ĠMed": 2564,
      "Ġglobal": 2565,
      "Ġsil": 2566,
      "Ġtotal": 2567,
      "Ġx": 2568,
      "Ġbreed": 2569,
      "rams": 2570,
      "Ġattention": 2571,
      "Ġmetal": 2572,
      ").ĊĊ": 2573,
      "ĠComm": 2574,
      "Ġprimary": 2575,
      "Ġvideo": 2576,
      "Ġbeaut": 2577,
      "aily": 2578,
      "rapy": 2579,
      "lor": 2580,
      "ners": 2581,
      "ades": 2582,
      "Ġremain": 2583,
      "Ġfront": 2584,
      "Ġoptim": 2585,
      "Ġshape": 2586,
      "Ġservices": 2587,
      ".S": 2588,
      "Ġidentify": 2589,
      "Ġcop": 2590,
      "Ġcapt": 2591,
      "Ġface": 2592,
      "itud": 2593,
      "ison": 2594,
      "urs": 2595,
      "IN": 2596,
      "Ġsequ": 2597,
      "Ġsuper": 2598,
      "Ġinstead": 2599,
      "Ġlength": 2600,
      "Ġsea": 2601,
      "ival": 2602,
      "ĠDNA": 2603,
      "ĠHere": 2604,
      "Ġmultiple": 2605,
      "play": 2606,
      "AT": 2607,
      "ĠPr": 2608,
      "Ġlanguage": 2609,
      "Ġoutside": 2610,
      "Ġnormal": 2611,
      "ively": 2612,
      "Ġcompet": 2613,
      "Ġla": 2614,
      "osis": 2615,
      "Ġoptions": 2616,
      "Ġunit": 2617,
      "Ġple": 2618,
      "Ġsubject": 2619,
      "Ġfuel": 2620,
      "Ġhalf": 2621,
      "Ġtend": 2622,
      "urity": 2623,
      "Ġlaw": 2624,
      "ĠX": 2625,
      "Ġur": 2626,
      "Ġparticip": 2627,
      "ned": 2628,
      "Ġmachine": 2629,
      "Ġefficient": 2630,
      "ON": 2631,
      "Ġdistrib": 2632,
      "ze": 2633,
      "Ġeducation": 2634,
      "Ġcolors": 2635,
      "urope": 2636,
      "Ġing": 2637,
      "Ġsat": 2638,
      "Ġseem": 2639,
      "ĠEarth": 2640,
      "Ġfoot": 2641,
      "erous": 2642,
      "Ġeggs": 2643,
      "Ġann": 2644,
      "rict": 2645,
      "Ġequipment": 2646,
      "Ġaud": 2647,
      "Ġsomet": 2648,
      "sp": 2649,
      "Ġbasic": 2650,
      "-g": 2651,
      "Ġoffers": 2652,
      "Ġaltern": 2653,
      "Ġalmost": 2654,
      "Ġproperties": 2655,
      "Ġexplain": 2656,
      "Ġbirds": 2657,
      "Ġcou": 2658,
      "90": 2659,
      "Ġwebs": 2660,
      "fric": 2661,
      "Ġfail": 2662,
      "âĢĿ": 2663,
      "**": 2664,
      "Ġextreme": 2665,
      "hib": 2666,
      "Ġfram": 2667,
      "Ġsite": 2668,
      "Ġthemselves": 2669,
      "oh": 2670,
      "Ġmedic": 2671,
      "Ad": 2672,
      "Ġfemale": 2673,
      "ules": 2674,
      "Ġconduct": 2675,
      "Ġpaint": 2676,
      "aim": 2677,
      "Ġelements": 2678,
      "isc": 2679,
      "Ġgenetic": 2680,
      "Ġcannot": 2681,
      "Ġestab": 2682,
      "alking": 2683,
      "ĠTr": 2684,
      "Ġincreasing": 2685,
      "Ġproviding": 2686,
      "abor": 2687,
      "Ġaccount": 2688,
      "ians": 2689,
      "Ġdetermine": 2690,
      "70": 2691,
      "xim": 2692,
      "Ġservice": 2693,
      "iddle": 2694,
      "eed": 2695,
      "Ġwon": 2696,
      "Ġgenerally": 2697,
      "Ġther": 2698,
      "ĠUnited": 2699,
      "ils": 2700,
      "ograph": 2701,
      "Ġquant": 2702,
      "Ġcontinu": 2703,
      "Ġfire": 2704,
      "pid": 2705,
      "Ġremove": 2706,
      "Ġstory": 2707,
      "Ġautom": 2708,
      "ĠNational": 2709,
      "Ġsometimes": 2710,
      "gest": 2711,
      "Ġbase": 2712,
      "istics": 2713,
      "Ġcaused": 2714,
      "ropri": 2715,
      "rior": 2716,
      "Ġregard": 2717,
      "Ġwa": 2718,
      "uit": 2719,
      "Pro": 2720,
      "Ġrelative": 2721,
      "Ġglass": 2722,
      "Ġmodels": 2723,
      "Ġsummer": 2724,
      "OT": 2725,
      "Ġshows": 2726,
      "oph": 2727,
      "Ġkids": 2728,
      "Ġadvant": 2729,
      "ground": 2730,
      "Ġspread": 2731,
      "Ġtraditional": 2732,
      "ding": 2733,
      "ccording": 2734,
      "Ġcauses": 2735,
      "where": 2736,
      "ences": 2737,
      "Ġdark": 2738,
      "Ġlog": 2739,
      "Ġbab": 2740,
      "Ġchoice": 2741,
      "Ġpict": 2742,
      "ĠCo": 2743,
      "ĠDes": 2744,
      "Ġtiss": 2745,
      "ĠCont": 2746,
      "ĠNot": 2747,
      "Ġdoc": 2748,
      "ift": 2749,
      "acy": 2750,
      "RE": 2751,
      "Ġreview": 2752,
      "Ġadjust": 2753,
      "Ġanalysis": 2754,
      "Ġscientists": 2755,
      "cies": 2756,
      "ĠAfter": 2757,
      "asc": 2758,
      "ights": 2759,
      "Ġanything": 2760,
      "tenance": 2761,
      "Ġacid": 2762,
      "ĠEurope": 2763,
      "ucle": 2764,
      "Ġquite": 2765,
      "Ġemerg": 2766,
      "-in": 2767,
      "Ġinsect": 2768,
      "ster": 2769,
      "Ġshown": 2770,
      "Ġprevious": 2771,
      "Ġwords": 2772,
      "-A": 2773,
      "Ġdy": 2774,
      "Ġstarted": 2775,
      "Ġemploy": 2776,
      "Ġlo": 2777,
      "Ġge": 2778,
      "mon": 2779,
      "Ġhabit": 2780,
      "Ġtaken": 2781,
      "elling": 2782,
      "Ġfeet": 2783,
      "ecause": 2784,
      "ged": 2785,
      "Ġearth": 2786,
      "Ġtrying": 2787,
      "Ġmentioned": 2788,
      "Ġfamil": 2789,
      "issions": 2790,
      "Ġbehind": 2791,
      "Ġsources": 2792,
      "Ġstandard": 2793,
      "Ġ\\": 2794,
      "orage": 2795,
      "Ġweather": 2796,
      "Ġrequires": 2797,
      "arily": 2798,
      "Ġgroups": 2799,
      "Ġsmaller": 2800,
      "asons": 2801,
      "Ġexact": 2802,
      "Ġadded": 2803,
      "Ġadditional": 2804,
      "Ġpoints": 2805,
      "Ġcomponents": 2806,
      "isms": 2807,
      "Ġmor": 2808,
      "Ġyet": 2809,
      "Ġwond": 2810,
      "Ġcode": 2811,
      "Ġrot": 2812,
      "Ġbattery": 2813,
      "itor": 2814,
      "Ġpurpose": 2815,
      "min": 2816,
      "Ġreading": 2817,
      "Ġtrue": 2818,
      "Ġeverything": 2819,
      "ulate": 2820,
      "ĠCO": 2821,
      "Ġplastic": 2822,
      "Ġarr": 2823,
      "Ġlayer": 2824,
      "ĠUs": 2825,
      "imately": 2826,
      "Ġsteps": 2827,
      "Ġtowards": 2828,
      "cre": 2829,
      "Ġdrug": 2830,
      "uted": 2831,
      "sy": 2832,
      "ouch": 2833,
      "Ġmemory": 2834,
      "Ġice": 2835,
      "Ġwaste": 2836,
      "icy": 2837,
      "ening": 2838,
      "ched": 2839,
      "Ġadapt": 2840,
      "Ġdirectly": 2841,
      "ĠCons": 2842,
      "hern": 2843,
      "Ġir": 2844,
      "Ġdecre": 2845,
      "Ġparents": 2846,
      "oles": 2847,
      "Ġregion": 2848,
      "--------": 2849,
      "One": 2850,
      "aff": 2851,
      "Ġcard": 2852,
      "Ġago": 2853,
      "Ġpurch": 2854,
      "ĠHealth": 2855,
      "ustr": 2856,
      "Ġbrand": 2857,
      "Ġinj": 2858,
      "Ġbacteria": 2859,
      "ha": 2860,
      "Ġleading": 2861,
      "ED": 2862,
      "Ġsurv": 2863,
      "Ġprovided": 2864,
      "ipe": 2865,
      "ĠApp": 2866,
      "Ex": 2867,
      "Ġbott": 2868,
      "att": 2869,
      "Ġlink": 2870,
      "'d": 2871,
      "icial": 2872,
      "onse": 2873,
      "Ġfert": 2874,
      "Ġdaily": 2875,
      "Ġliqu": 2876,
      "Ġones": 2877,
      "Ġang": 2878,
      "ĠStates": 2879,
      "Ġcountries": 2880,
      "Ġencou": 2881,
      "istry": 2882,
      "-st": 2883,
      "Ġcats": 2884,
      "ĠCal": 2885,
      "ma": 2886,
      "Ġswe": 2887,
      "AR": 2888,
      "Ġnegative": 2889,
      "Ġnutri": 2890,
      "Ġitself": 2891,
      "ervation": 2892,
      "Ġassess": 2893,
      "Ġgain": 2894,
      "Ġcleaning": 2895,
      "Ġbelieve": 2896,
      "Ġachieve": 2897,
      "Ġexercise": 2898,
      "ĠMan": 2899,
      "Ġcontinue": 2900,
      "ĠAss": 2901,
      "Ġshare": 2902,
      "ĠGen": 2903,
      "Ġsignal": 2904,
      "Is": 2905,
      "iding": 2906,
      "ension": 2907,
      "Ġball": 2908,
      "Ġstat": 2909,
      "Ġvit": 2910,
      "like": 2911,
      "Ġrout": 2912,
      "ĠSouth": 2913,
      "Ġdefin": 2914,
      "ellig": 2915,
      "Ġreplace": 2916,
      "ĠMay": 2917,
      "AS": 2918,
      "cean": 2919,
      "Ġreach": 2920,
      "ley": 2921,
      "idge": 2922,
      "Ġanaly": 2923,
      "Why": 2924,
      "Ġhar": 2925,
      "Ġroad": 2926,
      "ĠStud": 2927,
      "oses": 2928,
      "Ġpoly": 2929,
      "ĠScience": 2930,
      "Ġconcent": 2931,
      "ricult": 2932,
      "Ġeasier": 2933,
      "Ġbox": 2934,
      "ping": 2935,
      "Ġsugar": 2936,
      "vest": 2937,
      "Ġsix": 2938,
      "Ġapplication": 2939,
      "rition": 2940,
      "Ġdiam": 2941,
      "Ġdou": 2942,
      "Ġtherm": 2943,
      "rast": 2944,
      "Ġhighly": 2945,
      "Ġeveryone": 2946,
      "Â°": 2947,
      "reg": 2948,
      "Ġeating": 2949,
      "orpor": 2950,
      "ĠAfric": 2951,
      "Ġcity": 2952,
      "Ġmess": 2953,
      "atives": 2954,
      "ĠMy": 2955,
      "Ġdiagn": 2956,
      "Ġdidn": 2957,
      "Ġimages": 2958,
      "Ġblue": 2959,
      "Ġproduced": 2960,
      "new": 2961,
      "Ġcapac": 2962,
      "nal": 2963,
      "Ġaspect": 2964,
      "Ġteac": 2965,
      "Ġconstant": 2966,
      "oon": 2967,
      "li": 2968,
      "alu": 2969,
      "ĠTra": 2970,
      "Ġevidence": 2971,
      "Ġguide": 2972,
      "Ġcosts": 2973,
      "Ġrecommend": 2974,
      "Ġsoftware": 2975,
      "Ġnumbers": 2976,
      "Ġexplore": 2977,
      "osition": 2978,
      "Ġsupply": 2979,
      "Ġful": 2980,
      "Ġmeat": 2981,
      "Ġscreen": 2982,
      "raft": 2983,
      "Ġaim": 2984,
      "Ġtemperatures": 2985,
      "Ġideas": 2986,
      "Ġfix": 2987,
      "Ġdream": 2988,
      "Ġstore": 2989,
      "Ġappropri": 2990,
      "Ġmembers": 2991,
      "But": 2992,
      "Ġelse": 2993,
      "Ġefficiency": 2994,
      "sequ": 2995,
      "Ġparticularly": 2996,
      "wh": 2997,
      "Ġ,": 2998,
      "abric": 2999,
      "vant": 3000,
      "ĠGu": 3001,
      "Ġpret": 3002,
      "Ġprocesses": 3003,
      "Ġprotection": 3004,
      "Ġdest": 3005,
      "osure": 3006,
      "...ĊĊ": 3007,
      "Ġweeks": 3008,
      "Ġgreater": 3009,
      "back": 3010,
      "ĠâĢľ": 3011,
      "AC": 3012,
      "Ġstrength": 3013,
      "Ġinnov": 3014,
      "ros": 3015,
      "artment": 3016,
      "Ġoption": 3017,
      "Ġrecent": 3018,
      "onds": 3019,
      "Sh": 3020,
      "Ġpen": 3021,
      "ĠPre": 3022,
      "Ġactive": 3023,
      "Ġrecommended": 3024,
      "ID": 3025,
      "ĠOf": 3026,
      "Ġtips": 3027,
      "head": 3028,
      "Ġmoist": 3029,
      "Ġmom": 3030,
      "ĠMe": 3031,
      "Ġseeds": 3032,
      "Ġrefer": 3033,
      "Ġinvolved": 3034,
      "ography": 3035,
      "rogen": 3036,
      "ĠAm": 3037,
      "Ġassist": 3038,
      "Ġingred": 3039,
      "bing": 3040,
      "ests": 3041,
      "ĠNorth": 3042,
      "Ġseries": 3043,
      "ĠWorld": 3044,
      "cient": 3045,
      "Ġcross": 3046,
      "irm": 3047,
      "emic": 3048,
      "Ġtransport": 3049,
      "Ġaware": 3050,
      "Ġrespect": 3051,
      "iny": 3052,
      "Ġdiseases": 3053,
      "Ġaction": 3054,
      "Ġlens": 3055,
      "onn": 3056,
      "Ġitems": 3057,
      "Ġspring": 3058,
      "Ġbreat": 3059,
      "iring": 3060,
      "anks": 3061,
      "aries": 3062,
      "Ġmaxim": 3063,
      "Ġlives": 3064,
      "ription": 3065,
      "ĠKe": 3066,
      "ror": 3067,
      "Ġplat": 3068,
      "Ġstyle": 3069,
      "epend": 3070,
      "Ġforce": 3071,
      "go": 3072,
      "endly": 3073,
      "Ġemot": 3074,
      "abet": 3075,
      "itation": 3076,
      "Ġabsor": 3077,
      "oming": 3078,
      "Ġallowing": 3079,
      "Ġindustr": 3080,
      "water": 3081,
      "overed": 3082,
      "iable": 3083,
      "inct": 3084,
      "ĠSchool": 3085,
      "Ġblock": 3086,
      "\",": 3087,
      "clusion": 3088,
      "pper": 3089,
      "ĠAust": 3090,
      "rab": 3091,
      "itute": 3092,
      "Ġbed": 3093,
      "vere": 3094,
      "Ġbuilt": 3095,
      "Ġresponse": 3096,
      "Ġdirection": 3097,
      "Be": 3098,
      "Ġroot": 3099,
      "Ġstorage": 3100,
      "ino": 3101,
      "Ġult": 3102,
      "____": 3103,
      "Ġgovernment": 3104,
      "ai": 3105,
      "Ġ+": 3106,
      "Ġhair": 3107,
      "Ġsearch": 3108,
      "aks": 3109,
      "vert": 3110,
      "Ġalg": 3111,
      "ditionally": 3112,
      "ĠAre": 3113,
      "Ġprinc": 3114,
      "Ġlocation": 3115,
      "Ġpiece": 3116,
      "Ġtable": 3117,
      "Ġcycle": 3118,
      "itude": 3119,
      "ached": 3120,
      "unch": 3121,
      "Ġkit": 3122,
      "Ġarg": 3123,
      "ĠWhy": 3124,
      "Ġelectrical": 3125,
      "Ġrock": 3126,
      "Ġflowers": 3127,
      "Ġforest": 3128,
      "Ġnucle": 3129,
      "Ġstudent": 3130,
      "Ġproperly": 3131,
      "Ġscientific": 3132,
      "à¤": 3133,
      "Ġprior": 3134,
      "ĠYes": 3135,
      "Ġmaintenance": 3136,
      "Ġ--": 3137,
      "Ġbalance": 3138,
      "Ġchallenges": 3139,
      "Ġgar": 3140,
      "Ġinitial": 3141,
      "Ġusers": 3142,
      "Ġmedia": 3143,
      "Ġoutput": 3144,
      "rist": 3145,
      "Ġseed": 3146,
      "Ġdeveloping": 3147,
      "Ġimmedi": 3148,
      "Ġremember": 3149,
      "Ġdetect": 3150,
      "Ġrunning": 3151,
      "eb": 3152,
      "Ġprojects": 3153,
      "IS": 3154,
      "Ġmusic": 3155,
      "ĠâĢ¦": 3156,
      "cles": 3157,
      "ĠInt": 3158,
      "Ġleave": 3159,
      "Ġprice": 3160,
      "Ġpage": 3161,
      "Ġfine": 3162,
      "ĠAlso": 3163,
      "Ġnetwork": 3164,
      "Ġload": 3165,
      "Ġcontext": 3166,
      "Ġmoving": 3167,
      "Ġcritical": 3168,
      "ygen": 3169,
      "Ġmotor": 3170,
      "yp": 3171,
      "Ġgoal": 3172,
      "imin": 3173,
      "Ġclim": 3174,
      "He": 3175,
      "Ġcompanies": 3176,
      "urer": 3177,
      "Ġimplement": 3178,
      "ube": 3179,
      "onic": 3180,
      "Ġmental": 3181,
      "Ġdisp": 3182,
      "ĠUse": 3183,
      "rees": 3184,
      "Ġgear": 3185,
      "Ġuseful": 3186,
      "Ġcommunication": 3187,
      "Ġmovement": 3188,
      "ounter": 3189,
      "Ġcompletely": 3190,
      "Ġfabric": 3191,
      "Ġprefer": 3192,
      "Ġinstruct": 3193,
      "eration": 3194,
      "ĠResearch": 3195,
      "Ġoriginal": 3196,
      "fficient": 3197,
      "Ġliquid": 3198,
      "icate": 3199,
      "Ġclaim": 3200,
      "Ġgoes": 3201,
      "Ġprograms": 3202,
      "Ġcarry": 3203,
      "Ġcommonly": 3204,
      "ociety": 3205,
      "Ġworth": 3206,
      "Ġsoon": 3207,
      "Ġbenefit": 3208,
      "Ġutil": 3209,
      "Ġwebsite": 3210,
      "ightly": 3211,
      "overy": 3212,
      "iful": 3213,
      "ĠMost": 3214,
      "Ġsurround": 3215,
      "Ġvehicle": 3216,
      "Ġdang": 3217,
      "Ġdeal": 3218,
      "Ġgene": 3219,
      "Ġbul": 3220,
      "terns": 3221,
      "Ġmeaning": 3222,
      "Ġtalk": 3223,
      "Ġlimited": 3224,
      "asks": 3225,
      "ĠDep": 3226,
      "Ġreflect": 3227,
      "Ġorganic": 3228,
      "ĠFrom": 3229,
      "Ġsignificantly": 3230,
      "Ġreducing": 3231,
      "Ġgold": 3232,
      "Ġforms": 3233,
      "Ġwear": 3234,
      "Ġpriv": 3235,
      "rate": 3236,
      "rec": 3237,
      "35": 3238,
      "Ġlate": 3239,
      "iles": 3240,
      "ops": 3241,
      "Ġvalu": 3242,
      "Ġobjects": 3243,
      "28": 3244,
      "Ġattract": 3245,
      "Ġcry": 3246,
      "term": 3247,
      "Ġsuitable": 3248,
      "Ġguid": 3249,
      "Ġpublished": 3250,
      "ĠAmerica": 3251,
      "Ġ/": 3252,
      "wise": 3253,
      "ript": 3254,
      "Ġserious": 3255,
      "Ġaren": 3256,
      "Ġvisual": 3257,
      "45": 3258,
      "onstr": 3259,
      "Ġobtain": 3260,
      "sych": 3261,
      "Can": 3262,
      "sh": 3263,
      "Ġmel": 3264,
      "Ġstates": 3265,
      "ĠMar": 3266,
      "Ġbecomes": 3267,
      "Ġvolt": 3268,
      "Ġinvestig": 3269,
      "AN": 3270,
      "iot": 3271,
      "Ġtouch": 3272,
      "Ġcenter": 3273,
      "illing": 3274,
      "Ġexcess": 3275,
      "ball": 3276,
      "Ġsigns": 3277,
      "Ġthick": 3278,
      "ĠFr": 3279,
      "Ġimportance": 3280,
      "Ġtransform": 3281,
      "-h": 3282,
      "Ġchick": 3283,
      "Ġpretty": 3284,
      "zz": 3285,
      "Ġgenes": 3286,
      "Ġreturn": 3287,
      "ensity": 3288,
      "inally": 3289,
      "ĠMore": 3290,
      "Ġpatterns": 3291,
      "Ġvalues": 3292,
      "Ġvisit": 3293,
      "rum": 3294,
      "Ġsuff": 3295,
      "Ġinput": 3296,
      "ĠThen": 3297,
      "Ġteeth": 3298,
      "Ġlines": 3299,
      "Ġseems": 3300,
      "Ġappropriate": 3301,
      "-to": 3302,
      "come": 3303,
      "iate": 3304,
      "Ġexcell": 3305,
      "ieved": 3306,
      "Ġlands": 3307,
      "Ġdeath": 3308,
      "Ġdisord": 3309,
      "Ġgets": 3310,
      "Ġcontains": 3311,
      "isions": 3312,
      "Ġreasons": 3313,
      "Ġpractices": 3314,
      "Ġfriends": 3315,
      "32": 3316,
      "Ġsave": 3317,
      "IT": 3318,
      "Ġwatch": 3319,
      "vey": 3320,
      "irth": 3321,
      "ana": 3322,
      "Ġnothing": 3323,
      "Ġrev": 3324,
      "Ġrain": 3325,
      "Ġpatient": 3326,
      "Ġhappens": 3327,
      "Ġcooking": 3328,
      "Ġjo": 3329,
      "Ġresistance": 3330,
      "Ġplatform": 3331,
      "Ġsection": 3332,
      "ĠNe": 3333,
      "Ġspeak": 3334,
      "fl": 3335,
      "hood": 3336,
      "load": 3337,
      "Ġhands": 3338,
      "By": 3339,
      "Ġtank": 3340,
      "oud": 3341,
      "Ġstage": 3342,
      "ulated": 3343,
      "Ġevents": 3344,
      "Ġinterf": 3345,
      "Ġrepair": 3346,
      "Ġexpress": 3347,
      "Cl": 3348,
      "ancy": 3349,
      "Ġgames": 3350,
      "Ġsustainable": 3351,
      "Ġfavor": 3352,
      "Ġjoint": 3353,
      "Ġdepending": 3354,
      "Ġcamera": 3355,
      "Ġcame": 3356,
      "ocks": 3357,
      "ĠOur": 3358,
      "Ġevalu": 3359,
      "uge": 3360,
      "EN": 3361,
      "Ġexcept": 3362,
      "Ġbath": 3363,
      "Ġproced": 3364,
      "Ġimpl": 3365,
      "Ġcommit": 3366,
      "ĠGo": 3367,
      "ologies": 3368,
      "Ġgraph": 3369,
      "Con": 3370,
      "mosp": 3371,
      "rick": 3372,
      "While": 3373,
      "Ġbottom": 3374,
      "Ġfertil": 3375,
      "Ġideal": 3376,
      "Ġcalcul": 3377,
      "Ġwriting": 3378,
      "-e": 3379,
      "lege": 3380,
      "ĠAustral": 3381,
      "Ġsolutions": 3382,
      "Ġready": 3383,
      "Ġdemonstr": 3384,
      "Ġce": 3385,
      "ĠAb": 3386,
      "ibly": 3387,
      ".g": 3388,
      "Ġlimit": 3389,
      "OR": 3390,
      "rehe": 3391,
      "Ġaccept": 3392,
      "Ġtransfer": 3393,
      "bol": 3394,
      "||": 3395,
      "Ġintellig": 3396,
      "Ġresponsible": 3397,
      "house": 3398,
      "yond": 3399,
      "hesis": 3400,
      "Ġbaby": 3401,
      "onal": 3402,
      "Ġbill": 3403,
      "ĠChe": 3404,
      "Ġrapid": 3405,
      "Ġswitch": 3406,
      "Ġoxygen": 3407,
      "Ġtheory": 3408,
      "Ġpick": 3409,
      "irt": 3410,
      "odies": 3411,
      "apter": 3412,
      "ĠMany": 3413,
      "ocol": 3414,
      "ĠIntern": 3415,
      "Ġupon": 3416,
      "\".": 3417,
      "Ġfinal": 3418,
      "Ġcontroll": 3419,
      "Ġconstruction": 3420,
      "enn": 3421,
      "Ġtechnique": 3422,
      "Ġlack": 3423,
      "With": 3424,
      "arr": 3425,
      "ĠGe": 3426,
      "ĠWho": 3427,
      "Ġtook": 3428,
      "lands": 3429,
      "Ġbud": 3430,
      "Ġyellow": 3431,
      "Ġgives": 3432,
      "Ġdistance": 3433,
      "26": 3434,
      "Ġrich": 3435,
      "ails": 3436,
      "Ġreaction": 3437,
      "Ġcamp": 3438,
      "Ġvacc": 3439,
      "acing": 3440,
      "ĠNow": 3441,
      "asts": 3442,
      "Ġinvolves": 3443,
      "Ġenhance": 3444,
      "Ġpull": 3445,
      "Ġthreat": 3446,
      "Ġarch": 3447,
      "ifically": 3448,
      "dd": 3449,
      "Ġadding": 3450,
      "ĠWhe": 3451,
      "Ġdrive": 3452,
      "ĠPe": 3453,
      "Ġhope": 3454,
      "36": 3455,
      "Ġhost": 3456,
      "ĠWest": 3457,
      "ĠReg": 3458,
      "Ġpattern": 3459,
      "Ġprogress": 3460,
      "Ġrat": 3461,
      "Ġshap": 3462,
      "Ġheavy": 3463,
      "ls": 3464,
      "Ġinfl": 3465,
      "ĠArt": 3466,
      "ula": 3467,
      "apan": 3468,
      "Ġplaces": 3469,
      "Ġspot": 3470,
      "abetes": 3471,
      "craft": 3472,
      "hold": 3473,
      "wor": 3474,
      "Ġpow": 3475,
      "Ġvary": 3476,
      "Ġvegetables": 3477,
      "Ġpump": 3478,
      "Ġcro": 3479,
      "Ġvision": 3480,
      "Ġfilm": 3481,
      "On": 3482,
      "Ġbeautiful": 3483,
      "set": 3484,
      "ogen": 3485,
      "Ġfactor": 3486,
      "aur": 3487,
      "Ġthr": 3488,
      "Ġrare": 3489,
      "Ġpowerful": 3490,
      "Ġcurrently": 3491,
      "Ġfruit": 3492,
      "Ġemissions": 3493,
      "Ġpoor": 3494,
      "Ġrequirements": 3495,
      "Ġsolid": 3496,
      "cking": 3497,
      "Ġdead": 3498,
      "Ġbroad": 3499,
      "cape": 3500,
      "Ġdisplay": 3501,
      "Ġincluded": 3502,
      "And": 3503,
      "rew": 3504,
      "ĠAg": 3505,
      "Ġgrass": 3506,
      "Ġimmune": 3507,
      "Ġbag": 3508,
      "Ġexpensive": 3509,
      "olar": 3510,
      "Ã©": 3511,
      "Ġtherapy": 3512,
      "Ġsex": 3513,
      "Ġcharge": 3514,
      "Ġwrong": 3515,
      "ĠEm": 3516,
      "âĢ¢": 3517,
      "Ġlocated": 3518,
      "ĠRem": 3519,
      "ously": 3520,
      "Ġconnected": 3521,
      "Ġdemand": 3522,
      "more": 3523,
      "Ġaqu": 3524,
      "ĠSa": 3525,
      "ĠSm": 3526,
      "Ġexpert": 3527,
      "mber": 3528,
      "Ġapplied": 3529,
      "Ġtissue": 3530,
      "ĠÂ": 3531,
      "Ġpair": 3532,
      "Ġfully": 3533,
      "hel": 3534,
      "Ġstem": 3535,
      "ĠPer": 3536,
      "Ġdecision": 3537,
      "Ġcausing": 3538,
      "Ġcircuit": 3539,
      "ĠTheir": 3540,
      "ificial": 3541,
      "standing": 3542,
      "05": 3543,
      "IG": 3544,
      "rage": 3545,
      "Ġdocument": 3546,
      "Ġthinking": 3547,
      "Ġdro": 3548,
      "ony": 3549,
      "amed": 3550,
      "Ġpref": 3551,
      "Ġroll": 3552,
      "Ġevolution": 3553,
      "Ġprocessing": 3554,
      "Ġsalt": 3555,
      "zing": 3556,
      "char": 3557,
      "Ġsecurity": 3558,
      "Ġexcellent": 3559,
      "Ġreve": 3560,
      "Ġoutd": 3561,
      "Ġensuring": 3562,
      "27": 3563,
      "Ġfile": 3564,
      "Ġatmosp": 3565,
      "Ġingredients": 3566,
      "right": 3567,
      "They": 3568,
      "Ġthird": 3569,
      "Ġincorpor": 3570,
      "Ġstarting": 3571,
      "ĠĠ": 3572,
      "ened": 3573,
      "aly": 3574,
      "These": 3575,
      "Ġcars": 3576,
      "off": 3577,
      "Ġep": 3578,
      "ĠBecause": 3579,
      "Ġclin": 3580,
      "Ġsuccessful": 3581,
      "Ġimag": 3582,
      "Ġsituation": 3583,
      "che": 3584,
      "Ġwalk": 3585,
      "Ġmouth": 3586,
      "Ġeffort": 3587,
      "Ġbehavi": 3588,
      "Ġcapacity": 3589,
      "Ġmiss": 3590,
      "Ġdiv": 3591,
      "ault": 3592,
      "Ġwrite": 3593,
      "uses": 3594,
      "Ġswim": 3595,
      "-term": 3596,
      "IC": 3597,
      "Ġsent": 3598,
      "rated": 3599,
      "ancing": 3600,
      "Ġproteins": 3601,
      "Ġnutrients": 3602,
      "umb": 3603,
      "roduction": 3604,
      "Ġwat": 3605,
      "ister": 3606,
      "ĠTechn": 3607,
      "Ġelectricity": 3608,
      ".com": 3609,
      "07": 3610,
      "imens": 3611,
      "Ġcoming": 3612,
      "Ġsevere": 3613,
      "iments": 3614,
      "Ġkeeping": 3615,
      "tes": 3616,
      "Ġroof": 3617,
      "Ġsynt": 3618,
      "Ġsmooth": 3619,
      "Ġbrown": 3620,
      "omb": 3621,
      "ĠState": 3622,
      "Ġreceive": 3623,
      "board": 3624,
      "Ġtrig": 3625,
      "Ġowners": 3626,
      "Ġconsumption": 3627,
      "ffect": 3628,
      "Ġaccur": 3629,
      "Ġtaste": 3630,
      "enty": 3631,
      "amb": 3632,
      "oe": 3633,
      "Ġmi": 3634,
      "ille": 3635,
      "life": 3636,
      "Ġlat": 3637,
      "Ġteaching": 3638,
      "Ġinfect": 3639,
      "At": 3640,
      "Ġtox": 3641,
      "Ġdepend": 3642,
      "pping": 3643,
      "Ġkn": 3644,
      "....": 3645,
      "ching": 3646,
      "ipes": 3647,
      "Ġapply": 3648,
      "Ġdri": 3649,
      "Ġled": 3650,
      "empt": 3651,
      "rought": 3652,
      "Ġparticles": 3653,
      "AL": 3654,
      "Ġund": 3655,
      "estic": 3656,
      "umin": 3657,
      "Ġinsp": 3658,
      "Ġestim": 3659,
      "Ġweb": 3660,
      "Ġnoise": 3661,
      "Ġnutrition": 3662,
      "ĠLet": 3663,
      "Ġcommer": 3664,
      "cular": 3665,
      "mission": 3666,
      "ĠWater": 3667,
      "Ġreduced": 3668,
      "Ġtrend": 3669,
      "Ġolder": 3670,
      "Ġoccurs": 3671,
      "Ġbecame": 3672,
      "pite": 3673,
      "ĠOver": 3674,
      "Ġmuscle": 3675,
      "lier": 3676,
      "Ġstim": 3677,
      "Ġcontribute": 3678,
      "Ġvaluable": 3679,
      "Ġvoltage": 3680,
      "tings": 3681,
      "ero": 3682,
      "Ġwire": 3683,
      "Ġfaster": 3684,
      "Ġmath": 3685,
      "Ġexpected": 3686,
      "Ġwet": 3687,
      "inding": 3688,
      "Ġpromot": 3689,
      "08": 3690,
      "Ġliter": 3691,
      "Ġschools": 3692,
      "mm": 3693,
      "zy": 3694,
      "enge": 3695,
      "Ġmount": 3696,
      "Ġhearing": 3697,
      "Ġpieces": 3698,
      "Ġexperiences": 3699,
      "ĠJapan": 3700,
      "Ġtesting": 3701,
      "Ġexactly": 3702,
      "Re": 3703,
      "TC": 3704,
      "Ġbran": 3705,
      "Ġpresence": 3706,
      "hetic": 3707,
      "Ġalternative": 3708,
      "ided": 3709,
      "ipl": 3710,
      "ĠTw": 3711,
      "Ġforward": 3712,
      "duc": 3713,
      "iction": 3714,
      "Ġflex": 3715,
      "Ġthous": 3716,
      "ĠDis": 3717,
      "ĠGl": 3718,
      "Ġcollection": 3719,
      "Ġchain": 3720,
      "hyd": 3721,
      "odes": 3722,
      "izations": 3723,
      "erences": 3724,
      "ĠNOT": 3725,
      "Ġproperty": 3726,
      "ashion": 3727,
      "inking": 3728,
      "asting": 3729,
      "ĠOnce": 3730,
      "Ġinteresting": 3731,
      "Ġcollabor": 3732,
      "rehens": 3733,
      "ok": 3734,
      "Ġmut": 3735,
      "Ġmiddle": 3736,
      "Ġinfection": 3737,
      "Ġcentury": 3738,
      "ĠOther": 3739,
      "Ġexamples": 3740,
      "Ġboard": 3741,
      "Ġadults": 3742,
      "Ġeth": 3743,
      "Ġspect": 3744,
      "Ġthread": 3745,
      "Ġdetails": 3746,
      "ĠPar": 3747,
      "ĠEach": 3748,
      "Ġelement": 3749,
      "Step": 3750,
      "Ġdescribed": 3751,
      "Ġfro": 3752,
      "Ġfunctions": 3753,
      "aught": 3754,
      "Ġupd": 3755,
      "Ġhorse": 3756,
      "urt": 3757,
      "Ġscale": 3758,
      "Ġdepends": 3759,
      "Ġmag": 3760,
      "Ġexperiment": 3761,
      "Ġcombination": 3762,
      "cules": 3763,
      "Ġtasks": 3764,
      "Ġwin": 3765,
      "Ġhistor": 3766,
      "Ġeffectively": 3767,
      "Ġculture": 3768,
      "Ġju": 3769,
      "Do": 3770,
      "wing": 3771,
      "hest": 3772,
      "orith": 3773,
      "Ġbooks": 3774,
      "Ġbirth": 3775,
      "Ġgradu": 3776,
      "tical": 3777,
      "Ġast": 3778,
      "Ġthus": 3779,
      "Ġstar": 3780,
      "resp": 3781,
      "ĠRed": 3782,
      "ĠRec": 3783,
      "Ġincreases": 3784,
      "Ġsetting": 3785,
      "Ġreported": 3786,
      "Ġstrategies": 3787,
      "Ġanyone": 3788,
      "Ġstraight": 3789,
      "iet": 3790,
      "ĠTH": 3791,
      "place": 3792,
      "Ġcharacteristics": 3793,
      "Ġcomfortable": 3794,
      "Ġtail": 3795,
      "ĠAir": 3796,
      "Ġtrack": 3797,
      "osystem": 3798,
      "ĠAdditionally": 3799,
      "Ġportion": 3800,
      "Ġextremely": 3801,
      "Ġcommercial": 3802,
      "Ġpsych": 3803,
      "ĠAccording": 3804,
      "iforn": 3805,
      "Ġagricult": 3806,
      "Ġhyp": 3807,
      "alle": 3808,
      ".e": 3809,
      "itis": 3810,
      "Ġhuge": 3811,
      "Ġrub": 3812,
      "Ġindepend": 3813,
      "Ġplayers": 3814,
      "Ġadvanced": 3815,
      "care": 3816,
      "Ġlost": 3817,
      "Ġdeb": 3818,
      "ĠLear": 3819,
      "Ġpool": 3820,
      "Ġexposure": 3821,
      "iar": 3822,
      "Ġdifferences": 3823,
      "Ġslightly": 3824,
      "Ġdoctor": 3825,
      "ĠIts": 3826,
      "Ġgoals": 3827,
      "ĠJoh": 3828,
      "09": 3829,
      "ĠAc": 3830,
      "Ġvia": 3831,
      "pped": 3832,
      "Ġresid": 3833,
      "Ġversion": 3834,
      "fish": 3835,
      "Ġsnow": 3836,
      "Ġcutting": 3837,
      "Some": 3838,
      "rain": 3839,
      "Us": 3840,
      "ĠFl": 3841,
      "Ġcoast": 3842,
      "Ġfeeding": 3843,
      "Ġiron": 3844,
      "Ġwent": 3845,
      "ffee": 3846,
      "Ġaffected": 3847,
      "Ġmanufacturer": 3848,
      "ĠClass": 3849,
      "bits": 3850,
      "ancial": 3851,
      "-y": 3852,
      "gram": 3853,
      "Ġsensor": 3854,
      "Ġfluid": 3855,
      "Ġbone": 3856,
      "ctors": 3857,
      "Ġantib": 3858,
      "ocal": 3859,
      "Ġkid": 3860,
      "29": 3861,
      "Ġ#": 3862,
      "Ġfair": 3863,
      "Ġstructures": 3864,
      "Ġbike": 3865,
      "Ġrelatively": 3866,
      "Ġlooks": 3867,
      "Ġrules": 3868,
      "ĠFirst": 3869,
      "Ġlargest": 3870,
      "ada": 3871,
      "Ġfly": 3872,
      "Ġbeyond": 3873,
      "ĠBi": 3874,
      "Ġresulting": 3875,
      "Ġchanging": 3876,
      "Ġnotice": 3877,
      "Ġvolume": 3878,
      "Ġconvers": 3879,
      "ials": 3880,
      "Ġdepth": 3881,
      "anging": 3882,
      "redit": 3883,
      "Ġdiscovered": 3884,
      "Ġdynam": 3885,
      "Pl": 3886,
      "Ġpupp": 3887,
      "Ġdiscover": 3888,
      "Ġfields": 3889,
      "haps": 3890,
      "Ġ...": 3891,
      "ĠMod": 3892,
      "Ġsample": 3893,
      "Ġcateg": 3894,
      "ams": 3895,
      "Now": 3896,
      "rench": 3897,
      "Ġprofession": 3898,
      "ibrary": 3899,
      "Ġgiving": 3900,
      "arian": 3901,
      "Ġrelease": 3902,
      "-like": 3903,
      "Ġ:": 3904,
      "ĠGerm": 3905,
      "Ġsmart": 3906,
      "Ġsymbol": 3907,
      "ifornia": 3908,
      "elt": 3909,
      "ester": 3910,
      "Ġround": 3911,
      "unction": 3912,
      "Ġpicture": 3913,
      "Ġshar": 3914,
      "Ġdiabetes": 3915,
      "Ġphotos": 3916,
      "urally": 3917,
      "ĠWar": 3918,
      "Ġrates": 3919,
      "ech": 3920,
      "ups": 3921,
      "Ġder": 3922,
      "Ġhomes": 3923,
      "Ġformed": 3924,
      "GA": 3925,
      "Im": 3926,
      "Ġtask": 3927,
      "Ġalthough": 3928,
      "Ġnews": 3929,
      "Ġextract": 3930,
      "Ġopportunity": 3931,
      "Ġfamilies": 3932,
      "ĠSim": 3933,
      "Ġchance": 3934,
      "ĠRep": 3935,
      "Ġspir": 3936,
      "Ġrecently": 3937,
      "Ġplanning": 3938,
      "Ġinfluence": 3939,
      "Ġmob": 3940,
      "key": 3941,
      "que": 3942,
      "Ġign": 3943,
      "urance": 3944,
      "ĠJust": 3945,
      "Ġflat": 3946,
      "Ġagg": 3947,
      "Ġsounds": 3948,
      "ST": 3949,
      "hol": 3950,
      "Ġnan": 3951,
      "Ġapprox": 3952,
      "Ġlabor": 3953,
      "Ġjourney": 3954,
      "uries": 3955,
      "EC": 3956,
      "Un": 3957,
      "Ġstick": 3958,
      "Ġstuff": 3959,
      "ĠMake": 3960,
      "Ġcommunities": 3961,
      "Ġmoisture": 3962,
      "Ġmoment": 3963,
      "Ġmother": 3964,
      "Ġdura": 3965,
      "ĠEven": 3966,
      "ĠCenter": 3967,
      "Ġinsects": 3968,
      "inks": 3969,
      "Ġnav": 3970,
      "Ġstream": 3971,
      "ĠMin": 3972,
      "Ġremains": 3973,
      "Ġadvantage": 3974,
      "All": 3975,
      "ĠHigh": 3976,
      "Ġdegrees": 3977,
      "31": 3978,
      "Ġadop": 3979,
      "Ġmanage": 3980,
      "Ġtherefore": 3981,
      "ĠQ": 3982,
      "used": 3983,
      "Ġefforts": 3984,
      "Ġhandle": 3985,
      "Ġfill": 3986,
      "ĠAct": 3987,
      "Ġonto": 3988,
      "Ġkill": 3989,
      "Ġattempt": 3990,
      "oration": 3991,
      "Ġnote": 3992,
      "Ġbright": 3993,
      "ĠPart": 3994,
      "ender": 3995,
      "Ġmedium": 3996,
      "Ġdriving": 3997,
      "ĠInstitute": 3998,
      "Ġeconomic": 3999,
      "Ġfight": 4000,
      "Ġalgorith": 4001,
      "Ġocean": 4002,
      "Ġhear": 4003,
      "Ġcloth": 4004,
      "Ġarm": 4005,
      "Ġtechnologies": 4006,
      "ĠPhot": 4007,
      "Ġpric": 4008,
      "Ġpush": 4009,
      "izer": 4010,
      "Ġcove": 4011,
      "Ġwonder": 4012,
      "oly": 4013,
      "Ġnit": 4014,
      "Ġnational": 4015,
      "Ġexhib": 4016,
      "Ġexpand": 4017,
      "Ġidentified": 4018,
      "ĠGra": 4019,
      "Ġinstance": 4020,
      "Ġwritten": 4021,
      "Ġappearance": 4022,
      "abilities": 4023,
      "oom": 4024,
      "Ġmid": 4025,
      "semb": 4026,
      "ĠBu": 4027,
      "Ġbasis": 4028,
      "Ġexisting": 4029,
      "Ġmale": 4030,
      "uration": 4031,
      "Ġplaced": 4032,
      "Ġinches": 4033,
      "SA": 4034,
      "know": 4035,
      "Ġfigure": 4036,
      "ĠSw": 4037,
      "Ġbutter": 4038,
      "Ġhighlight": 4039,
      "Our": 4040,
      "ĠSystem": 4041,
      "Ġroots": 4042,
      "Ġmolecules": 4043,
      "Ġsort": 4044,
      "Ġflo": 4045,
      "ĠTherefore": 4046,
      "Ġfeeling": 4047,
      "Ġsites": 4048,
      "Ġcomponent": 4049,
      "Ġ|": 4050,
      "Ġqual": 4051,
      "Ġraw": 4052,
      "Ġflavor": 4053,
      "Ġfishing": 4054,
      "Ġbeginning": 4055,
      "ĠMon": 4056,
      "ĠCalifornia": 4057,
      "Ġthermal": 4058,
      "ET": 4059,
      "Ġheight": 4060,
      "RO": 4061,
      "ogs": 4062,
      "Ġmarine": 4063,
      "06": 4064,
      "99": 4065,
      "ban": 4066,
      "ober": 4067,
      "rim": 4068,
      "udi": 4069,
      "Ġfrequency": 4070,
      "Ġtax": 4071,
      "Ġcore": 4072,
      "Ġallowed": 4073,
      "uary": 4074,
      "Ġvital": 4075,
      "However": 4076,
      "Ġmeasures": 4077,
      "ype": 4078,
      "lebr": 4079,
      "Ġdistinct": 4080,
      "ternal": 4081,
      "Ġimproved": 4082,
      "Ġmaintaining": 4083,
      "Ġmic": 4084,
      "Here": 4085,
      "met": 4086,
      "xi": 4087,
      "igned": 4088,
      "Ġseparate": 4089,
      "alt": 4090,
      "Ġuns": 4091,
      "Ġsaw": 4092,
      "Ġtit": 4093,
      "iling": 4094,
      "Ġimmediately": 4095,
      "Ġhit": 4096,
      "ceed": 4097,
      "Ġsold": 4098,
      "Ġcand": 4099,
      "Ġnest": 4100,
      "ĠBar": 4101,
      "Ġharvest": 4102,
      "fess": 4103,
      "ressive": 4104,
      "Ġsamples": 4105,
      "itect": 4106,
      "ĠChrist": 4107,
      "ĠEnglish": 4108,
      "ĠRead": 4109,
      "Ġdistribution": 4110,
      "Ġinstructions": 4111,
      "Ġfashion": 4112,
      "ken": 4113,
      "lean": 4114,
      "Ġbackground": 4115,
      "Ġecosystem": 4116,
      "Ġelectro": 4117,
      "Ġmagnetic": 4118,
      "Ġalone": 4119,
      "ĠUK": 4120,
      "Ġnative": 4121,
      "Ġspecifically": 4122,
      "Ġnearly": 4123,
      "Ġobserved": 4124,
      "ĠFood": 4125,
      "bed": 4126,
      "ycl": 4127,
      "Ġoperations": 4128,
      "Ġdoor": 4129,
      "Ġelectronic": 4130,
      "gery": 4131,
      "Ġcalc": 4132,
      "Ġfinancial": 4133,
      "Ġchicken": 4134,
      "-up": 4135,
      "can": 4136,
      "Ġfinding": 4137,
      "Ġpopulations": 4138,
      "ications": 4139,
      "ĠBrit": 4140,
      "Ġrise": 4141,
      "Ġmember": 4142,
      "Ġregularly": 4143,
      "Ġopportunities": 4144,
      "02": 4145,
      "pan": 4146,
      "ĠAut": 4147,
      "inated": 4148,
      "ĠAlthough": 4149,
      "Ġdate": 4150,
      "ION": 4151,
      "Ġded": 4152,
      "Ġalive": 4153,
      "Ġrisks": 4154,
      "75": 4155,
      "Ġeducational": 4156,
      "Ġasked": 4157,
      "Ġcovered": 4158,
      "Res": 4159,
      "erate": 4160,
      "celer": 4161,
      "ĠSince": 4162,
      "Ġcompar": 4163,
      "Ġconnection": 4164,
      "equ": 4165,
      "ĠIndia": 4166,
      "hemat": 4167,
      "Ġillustr": 4168,
      "book": 4169,
      "Ġhunt": 4170,
      "Ġcompost": 4171,
      "Ġcomprehens": 4172,
      "Ġdivers": 4173,
      "ifying": 4174,
      "Ġregarding": 4175,
      "EM": 4176,
      "bor": 4177,
      "pre": 4178,
      "Ġflight": 4179,
      "Ġleaders": 4180,
      "Ġshowed": 4181,
      "Ġmaximum": 4182,
      "Ġplate": 4183,
      "formation": 4184,
      "Ġcoffee": 4185,
      "Ġinflamm": 4186,
      "Ġfrag": 4187,
      "aser": 4188,
      "raction": 4189,
      "Ġconver": 4190,
      "Ġadvice": 4191,
      "Ġremoved": 4192,
      "33": 4193,
      "-qu": 4194,
      "ying": 4195,
      "eters": 4196,
      "imal": 4197,
      "Ġancient": 4198,
      "Ġtests": 4199,
      "Ġplanet": 4200,
      "Ġdegree": 4201,
      "iples": 4202,
      "Ġ*": 4203,
      "Ġmiles": 4204,
      "ĠAfrica": 4205,
      "Ġapprec": 4206,
      "Ġfloor": 4207,
      "Ġgeneration": 4208,
      "Ġfavorite": 4209,
      "AM": 4210,
      "ilit": 4211,
      "Ġclos": 4212,
      "cel": 4213,
      "Ġactual": 4214,
      "Ġreference": 4215,
      "mar": 4216,
      "Ġrelax": 4217,
      "95": 4218,
      "Ġneut": 4219,
      "udd": 4220,
      "Ġequal": 4221,
      "undred": 4222,
      "Ġelimin": 4223,
      "oman": 4224,
      "Ġdat": 4225,
      "ĠII": 4226,
      "ildren": 4227,
      "Ġsurpr": 4228,
      "vironments": 4229,
      "Ġmonit": 4230,
      "âĢĻt": 4231,
      "PS": 4232,
      "eties": 4233,
      "Ġbegan": 4234,
      "Ġhabitat": 4235,
      "Ġwanted": 4236,
      "Ġbow": 4237,
      "icated": 4238,
      "Ġrepe": 4239,
      "ament": 4240,
      "ĠUnder": 4241,
      "Ġconservation": 4242,
      "ĠJu": 4243,
      "Ġindustrial": 4244,
      "Ġspl": 4245,
      "ĠSec": 4246,
      "Ġbecoming": 4247,
      "Ġregions": 4248,
      "Ġrespond": 4249,
      "Ġatmosphere": 4250,
      "Ġtrou": 4251,
      "Ġvibr": 4252,
      "Ġdesired": 4253,
      "Ġchallenge": 4254,
      "Ġestablish": 4255,
      "wers": 4256,
      "Ġexpression": 4257,
      "Ġserve": 4258,
      "-r": 4259,
      "Ġcounter": 4260,
      "Ġconsult": 4261,
      "Ġframe": 4262,
      "Ġaspects": 4263,
      "ĠWhether": 4264,
      "ky": 4265,
      "Ġdental": 4266,
      "ĠEvery": 4267,
      "Ġteach": 4268,
      "Ġscen": 4269,
      "Ġmostly": 4270,
      "Ġinterested": 4271,
      "ĠTrans": 4272,
      "iant": 4273,
      "iced": 4274,
      "rupt": 4275,
      "Ar": 4276,
      "Des": 4277,
      "col": 4278,
      "Ġhighest": 4279,
      "AD": 4280,
      "Ġfr": 4281,
      "Ġheating": 4282,
      "ĠBo": 4283,
      "riendly": 4284,
      "Ġhelping": 4285,
      "Ġobvious": 4286,
      "Ġpotentially": 4287,
      "Ġphoto": 4288,
      "Ġreceived": 4289,
      "Ġexperienced": 4290,
      "Ġdouble": 4291,
      "ses": 4292,
      "Ġcontract": 4293,
      "Ġcorresp": 4294,
      "Ġvirt": 4295,
      "aled": 4296,
      "otic": 4297,
      "Ġstru": 4298,
      "ĠChar": 4299,
      "cription": 4300,
      "vity": 4301,
      "Ġphase": 4302,
      "Ġenter": 4303,
      "Ġhappy": 4304,
      "Ġmuscles": 4305,
      "Ġfilter": 4306,
      "related": 4307,
      "55": 4308,
      "No": 4309,
      "Ġwave": 4310,
      "Ġbodies": 4311,
      "Ġspend": 4312,
      "Ġdiverse": 4313,
      "Ġdecisions": 4314,
      "Ġgrown": 4315,
      "Ġinternational": 4316,
      "iol": 4317,
      "ios": 4318,
      "Ġâ": 4319,
      "Ġweak": 4320,
      "Ġlov": 4321,
      "ĠCount": 4322,
      "ogle": 4323,
      "allow": 4324,
      "Ġsatis": 4325,
      "Ġteachers": 4326,
      "48": 4327,
      "Ġsizes": 4328,
      "Ġcert": 4329,
      "ĠWell": 4330,
      "azing": 4331,
      "ipping": 4332,
      "After": 4333,
      "dom": 4334,
      "Ġtiny": 4335,
      "icks": 4336,
      "elines": 4337,
      "Ġchann": 4338,
      "Ġbreast": 4339,
      "Ġcouple": 4340,
      "03": 4341,
      "SE": 4342,
      "Ġtopic": 4343,
      "Ġfinish": 4344,
      "Ġsuggests": 4345,
      "Ġgenerate": 4346,
      "Ġinternal": 4347,
      "Ġfrequently": 4348,
      "Ġprepared": 4349,
      "Ġmedicine": 4350,
      "Ġmembr": 4351,
      "Ġsunlight": 4352,
      "42": 4353,
      "Ġfol": 4354,
      "lease": 4355,
      "add": 4356,
      "Ġevol": 4357,
      "Ġanti": 4358,
      "Ġplease": 4359,
      "part": 4360,
      "oday": 4361,
      "Ġorganization": 4362,
      "Ġchanged": 4363,
      "Ġvitamin": 4364,
      "04": 4365,
      "Ġdiss": 4366,
      "Ġshell": 4367,
      "Ġmotion": 4368,
      "Ġsweet": 4369,
      "\"ĊĊ": 4370,
      "Ġtalking": 4371,
      "erals": 4372,
      "Ġartificial": 4373,
      "Ġprivate": 4374,
      "isher": 4375,
      "Ġselection": 4376,
      "Ġwalls": 4377,
      "Ġcelebr": 4378,
      "Ġintelligence": 4379,
      "Ġenvironments": 4380,
      "minist": 4381,
      "alse": 4382,
      "Ġhosp": 4383,
      "ĠAC": 4384,
      "Ġcentral": 4385,
      "Ġresource": 4386,
      "Ġves": 4387,
      "inder": 4388,
      "ĠUsing": 4389,
      ");": 4390,
      "ĠArab": 4391,
      "Ġsell": 4392,
      "Ġdrop": 4393,
      "opl": 4394,
      "Ġnumerous": 4395,
      "Ġearlier": 4396,
      "Ġpractical": 4397,
      "My": 4398,
      "inating": 4399,
      "Ġestablished": 4400,
      "That": 4401,
      "Ġbound": 4402,
      "Ġnamed": 4403,
      "Ġstaff": 4404,
      "izz": 4405,
      "Ġengineering": 4406,
      "pril": 4407,
      "known": 4408,
      "ny": 4409,
      "atically": 4410,
      "Ġmist": 4411,
      "icious": 4412,
      "ads": 4413,
      "Ġlights": 4414,
      "Se": 4415,
      "bl": 4416,
      "time": 4417,
      "Ġhelpful": 4418,
      "Ġsess": 4419,
      "encies": 4420,
      "Ġhundred": 4421,
      "Ġtransition": 4422,
      "hop": 4423,
      "Ġsav": 4424,
      "Ġfollowed": 4425,
      ".)": 4426,
      "Ġtold": 4427,
      "ĠBra": 4428,
      "Ġopening": 4429,
      "Ġmis": 4430,
      "Ġstored": 4431,
      "ĠSpe": 4432,
      "Ġmaybe": 4433,
      "ĠJan": 4434,
      "Ġshel": 4435,
      "cious": 4436,
      "wide": 4437,
      "Ġsed": 4438,
      "Ġlose": 4439,
      "Ġphone": 4440,
      "Ġclasses": 4441,
      "ped": 4442,
      "ĠAnt": 4443,
      "ĠCor": 4444,
      "Ġrid": 4445,
      "Ġboost": 4446,
      "Ġcustomer": 4447,
      "Ġchemicals": 4448,
      "Ġrelationships": 4449,
      "AP": 4450,
      "icking": 4451,
      "Ġallerg": 4452,
      "Ġpregn": 4453,
      "...Ċ": 4454,
      "Ġthor": 4455,
      "iveness": 4456,
      "Ġparam": 4457,
      "ĠDepartment": 4458,
      "Ġunc": 4459,
      "Ġtypical": 4460,
      "Ġplaying": 4461,
      "ING": 4462,
      "Ġpurchase": 4463,
      "xiety": 4464,
      "Ġlots": 4465,
      "idity": 4466,
      "Ġoperation": 4467,
      "Ġapproximately": 4468,
      "Ġsimpl": 4469,
      "Ġsurfaces": 4470,
      "Ġamounts": 4471,
      "Ġlayers": 4472,
      "ĠAustralia": 4473,
      "ĠDon": 4474,
      "ĠChina": 4475,
      "Ġadvance": 4476,
      "Ġpromote": 4477,
      "Ġconcerns": 4478,
      "65": 4479,
      "Ġbot": 4480,
      "Ġmig": 4481,
      "ulating": 4482,
      "ĠBr": 4483,
      "Ġdesigns": 4484,
      "Ġdrugs": 4485,
      "-re": 4486,
      "Ġsociety": 4487,
      "Ġyield": 4488,
      "utor": 4489,
      "Ġpredict": 4490,
      "chen": 4491,
      "raw": 4492,
      "Ġpollution": 4493,
      "inger": 4494,
      "rows": 4495,
      "Ġheld": 4496,
      "ĠDoes": 4497,
      "ĠEduc": 4498,
      "Ġtrain": 4499,
      "Ġmachines": 4500,
      "Ġnavig": 4501,
      "hors": 4502,
      "Ġstone": 4503,
      "Ġvent": 4504,
      "ĠGreat": 4505,
      "Ġcontrast": 4506,
      "Ġsche": 4507,
      "Ġfindings": 4508,
      "Ġmaster": 4509,
      "Ġnotes": 4510,
      "Ġstarts": 4511,
      "Ġstandards": 4512,
      "-year": 4513,
      "Ġdish": 4514,
      "Ġemp": 4515,
      "Ġsaying": 4516,
      "Ġwindow": 4517,
      "Ġsus": 4518,
      "ĠEl": 4519,
      "ĠSaudi": 4520,
      "eper": 4521,
      "Ġpets": 4522,
      "Ġstre": 4523,
      "ĠMicro": 4524,
      "ĠGreen": 4525,
      "ĠYork": 4526,
      "Ġacqu": 4527,
      "Ġsod": 4528,
      "ĠAv": 4529,
      "Ġexec": 4530,
      "Ġspray": 4531,
      "ought": 4532,
      "uting": 4533,
      "estyle": 4534,
      "ptember": 4535,
      "Ġcomplic": 4536,
      "Ġreactions": 4537,
      "Ġprofessionals": 4538,
      "med": 4539,
      "umn": 4540,
      "Ġleads": 4541,
      "Ġdefined": 4542,
      "Ġcontainer": 4543,
      "ipped": 4544,
      "flow": 4545,
      "oice": 4546,
      "Ġcup": 4547,
      "Ġtooth": 4548,
      "ica": 4549,
      "Ġhour": 4550,
      "pective": 4551,
      "Ġwidely": 4552,
      "==": 4553,
      "En": 4554,
      "rans": 4555,
      "Ġfear": 4556,
      "ĠSu": 4557,
      "oughly": 4558,
      "Ġcheese": 4559,
      "Ġbusinesses": 4560,
      "Ġsteel": 4561,
      "Ġmanufacturing": 4562,
      "Ġratio": 4563,
      "ĠServ": 4564,
      "atever": 4565,
      "ĠDay": 4566,
      "my": 4567,
      "mat": 4568,
      "ux": 4569,
      "iration": 4570,
      "orthern": 4571,
      "unk": 4572,
      "Ġplays": 4573,
      "Ġcoat": 4574,
      "Ġexperts": 4575,
      "vention": 4576,
      "Ġprepare": 4577,
      "Ġharmful": 4578,
      "Int": 4579,
      "gs": 4580,
      "ulf": 4581,
      "Ġriver": 4582,
      "Ġtrust": 4583,
      "Ġformation": 4584,
      "Ġaircraft": 4585,
      "Ġpolit": 4586,
      "-sh": 4587,
      "Ġconstruct": 4588,
      "Ġencourag": 4589,
      "umps": 4590,
      "ĠDi": 4591,
      "Ġsecure": 4592,
      "cohol": 4593,
      "Ġlearned": 4594,
      "Ġdetailed": 4595,
      "useum": 4596,
      "Ġfruits": 4597,
      "-C": 4598,
      "cers": 4599,
      "ager": 4600,
      "Ġsmell": 4601,
      "Ġtransl": 4602,
      "Ġnaturally": 4603,
      "Ġsquare": 4604,
      "Ġencourage": 4605,
      "Ġshoot": 4606,
      "ashing": 4607,
      "Yes": 4608,
      "lines": 4609,
      "eline": 4610,
      "Ġsurgery": 4611,
      "Ġelectron": 4612,
      "Ġvehicles": 4613,
      "bal": 4614,
      "ius": 4615,
      "Ġax": 4616,
      "Ġplans": 4617,
      "Ġacad": 4618,
      "Ġillness": 4619,
      "Ġdangerous": 4620,
      "Ġfurn": 4621,
      "Ġexch": 4622,
      "Ġtreatments": 4623,
      "-free": 4624,
      "Ġaccurate": 4625,
      "Ġdust": 4626,
      "urrent": 4627,
      "ĠBet": 4628,
      "Ġindicate": 4629,
      "Ġintroduced": 4630,
      "bre": 4631,
      "net": 4632,
      "Ġheard": 4633,
      "Ġsyn": 4634,
      "Ġprecise": 4635,
      "een": 4636,
      "Ġmit": 4637,
      "Ġblog": 4638,
      "ĠKeep": 4639,
      "Ġbillion": 4640,
      "Ġflav": 4641,
      "Ġhealthcare": 4642,
      "Ġgreenhouse": 4643,
      "Ġcultural": 4644,
      "ĠEuropean": 4645,
      "Sc": 4646,
      "Ġmamm": 4647,
      "Ġneigh": 4648,
      "ĠFrench": 4649,
      "-be": 4650,
      "Ġprimarily": 4651,
      "Ġjournal": 4652,
      "Ph": 4653,
      "ĠSte": 4654,
      "ĠOct": 4655,
      "Ġopin": 4656,
      "Ġdetermined": 4657,
      "lex": 4658,
      "uments": 4659,
      "Ġorganizations": 4660,
      "iverse": 4661,
      "Ġdrawing": 4662,
      "lies": 4663,
      "omy": 4664,
      "Ġring": 4665,
      "outhern": 4666,
      "Ġspin": 4667,
      "Ġsignals": 4668,
      "Ġcreative": 4669,
      "ĠAdd": 4670,
      "37": 4671,
      "Ġcart": 4672,
      "uth": 4673,
      "Ġupper": 4674,
      "Ġcomprehensive": 4675,
      "iance": 4676,
      "Ġpa": 4677,
      "Ġconc": 4678,
      "roup": 4679,
      "ĠEd": 4680,
      "agram": 4681,
      "Ġsituations": 4682,
      "-D": 4683,
      "Ab": 4684,
      "ĠSk": 4685,
      "osite": 4686,
      "anges": 4687,
      "ĠKing": 4688,
      "Ġacceler": 4689,
      "Ġdrain": 4690,
      "Answer": 4691,
      "ĠHum": 4692,
      "Ġbrush": 4693,
      "Ġeventually": 4694,
      "body": 4695,
      "Ġpul": 4696,
      "Ġfed": 4697,
      "organ": 4698,
      "Ġmold": 4699,
      "abol": 4700,
      "hyl": 4701,
      "Ġmatch": 4702,
      "Ġfriend": 4703,
      "Ġhorm": 4704,
      "Ġstories": 4705,
      "ologist": 4706,
      "ĠBlack": 4707,
      "crete": 4708,
      "Ġphen": 4709,
      "Ġtoward": 4710,
      "Ġhous": 4711,
      "Ġincred": 4712,
      "Ġstring": 4713,
      "Ġveter": 4714,
      "Ġoccas": 4715,
      "Ġthousands": 4716,
      "ares": 4717,
      "Ġexposed": 4718,
      "Ġstrategy": 4719,
      "-quality": 4720,
      "hus": 4721,
      "atural": 4722,
      "Ġwhose": 4723,
      "Ġshop": 4724,
      "Ġcream": 4725,
      "Ġsurrounding": 4726,
      "ÂŃ": 4727,
      "Ġmeal": 4728,
      "Ġperformed": 4729,
      "Ġreleased": 4730,
      "force": 4731,
      "Ġsequence": 4732,
      "wood": 4733,
      "Ġ<": 4734,
      "Ġreality": 4735,
      "rier": 4736,
      "Ġattack": 4737,
      "Ġextensive": 4738,
      "Ġgenerated": 4739,
      "ĠEnvironment": 4740,
      "Ġconsistent": 4741,
      "Ġtoxic": 4742,
      "TCGA": 4743,
      "-se": 4744,
      "hab": 4745,
      "ĠÎ": 4746,
      "Ġten": 4747,
      "ĠDiff": 4748,
      "Ġflood": 4749,
      "Ġcombined": 4750,
      "ocolate": 4751,
      "-B": 4752,
      "lim": 4753,
      "ructure": 4754,
      "Ġlighting": 4755,
      "Ġinfections": 4756,
      "Ġstrugg": 4757,
      "iers": 4758,
      "na": 4759,
      "ĠElect": 4760,
      "Another": 4761,
      "Ġmechanical": 4762,
      "Are": 4763,
      "Ġburn": 4764,
      "anes": 4765,
      "Ġstro": 4766,
      "Ġcommand": 4767,
      "Ġrecycl": 4768,
      "Ġbeneficial": 4769,
      "print": 4770,
      "mitted": 4771,
      "Ġconducted": 4772,
      "Ġemergency": 4773,
      "44": 4774,
      "Ġconsequ": 4775,
      "ource": 4776,
      "Ġcustomers": 4777,
      "ued": 4778,
      "Ġfoss": 4779,
      "Ġble": 4780,
      "works": 4781,
      "Ġvs": 4782,
      "Ġrice": 4783,
      "Ġformat": 4784,
      "Ġchoosing": 4785,
      "ynt": 4786,
      "Ġtour": 4787,
      "Ġdecrease": 4788,
      "rael": 4789,
      "ĠProgram": 4790,
      "roduct": 4791,
      "Ġinjury": 4792,
      "icip": 4793,
      "olute": 4794,
      "osen": 4795,
      "Ġinsights": 4796,
      "Ġedge": 4797,
      "Ġensures": 4798,
      "ĠPlant": 4799,
      "Ġrelevant": 4800,
      "Ġpanels": 4801,
      "Ġroutine": 4802,
      "39": 4803,
      "Ġsem": 4804,
      "Ġbond": 4805,
      "Ġconcepts": 4806,
      "Ġmixt": 4807,
      "ees": 4808,
      "Ġdu": 4809,
      "ĠIns": 4810,
      "ĠPhys": 4811,
      "Ġchrom": 4812,
      "Ġcolour": 4813,
      "Ġpartners": 4814,
      "Ġappears": 4815,
      "Ġcorrespond": 4816,
      "ta": 4817,
      "ste": 4818,
      "ĠDuring": 4819,
      "Ġvirus": 4820,
      "ĠAssoci": 4821,
      "Ġwaves": 4822,
      "ĠCom": 4823,
      "Ġplenty": 4824,
      "Ġspirit": 4825,
      "rote": 4826,
      "Ġhon": 4827,
      "irect": 4828,
      "Ke": 4829,
      "ĠApril": 4830,
      "ĠMus": 4831,
      "Ġworked": 4832,
      "Ġstatement": 4833,
      "Ġmajority": 4834,
      "Ġbatteries": 4835,
      "Ġleaf": 4836,
      "Ġoutdoor": 4837,
      "Ġwasn": 4838,
      "ava": 4839,
      "Ġsets": 4840,
      "Ġtreated": 4841,
      "Ġradiation": 4842,
      "Ġwildlife": 4843,
      "Ġconcentration": 4844,
      "EL": 4845,
      "Ġnice": 4846,
      "Ġrelig": 4847,
      "Ġplanting": 4848,
      "Ġsettings": 4849,
      "ĠDesign": 4850,
      "which": 4851,
      "Ġdie": 4852,
      "Ġproducing": 4853,
      "ĠVal": 4854,
      "-friendly": 4855,
      "Once": 4856,
      "Sp": 4857,
      "yn": 4858,
      "Ġexternal": 4859,
      "Ġminerals": 4860,
      "oxide": 4861,
      "Ġfarmers": 4862,
      "Ġfailure": 4863,
      "ek": 4864,
      "Ġlung": 4865,
      "Ġpainting": 4866,
      "Ġbudget": 4867,
      "/or": 4868,
      "isp": 4869,
      "Ġdensity": 4870,
      "ĠMarch": 4871,
      "Ġreliable": 4872,
      "iences": 4873,
      "Ġconcern": 4874,
      "38": 4875,
      "Ġwest": 4876,
      "omic": 4877,
      "ĠAug": 4878,
      "ĠWill": 4879,
      "Ġoptimal": 4880,
      "Ġreferred": 4881,
      "Ġlatest": 4882,
      "Ġden": 4883,
      "olid": 4884,
      "erent": 4885,
      "Ġworry": 4886,
      "orms": 4887,
      "Ġdecades": 4888,
      "Ġtexture": 4889,
      "Ġdress": 4890,
      "ighter": 4891,
      "opy": 4892,
      "Ġcompounds": 4893,
      "Ġunits": 4894,
      "Ġkept": 4895,
      "Ġapart": 4896,
      "Ġcreates": 4897,
      "Ġcycl": 4898,
      "Ġsubstance": 4899,
      "Ġadvantages": 4900,
      "Ġpreviously": 4901,
      "Ġvessel": 4902,
      "oors": 4903,
      "pen": 4904,
      "iter": 4905,
      "Ġanxiety": 4906,
      "Ġwheel": 4907,
      "ublic": 4908,
      "ĠIsrael": 4909,
      "Ġtruly": 4910,
      "].": 4911,
      "rs": 4912,
      "Ġfilled": 4913,
      "Ġconven": 4914,
      "Ġoffering": 4915,
      "Ġmorning": 4916,
      "OS": 4917,
      "ĠPark": 4918,
      "itely": 4919,
      "phas": 4920,
      "Ġcarefully": 4921,
      "Ġphotograph": 4922,
      "Ġclinical": 4923,
      "ND": 4924,
      "Ġord": 4925,
      "umber": 4926,
      "pert": 4927,
      "ĠGod": 4928,
      "Ġspaces": 4929,
      "Ġchoices": 4930,
      "ico": 4931,
      "Ġrenew": 4932,
      "ĠSupp": 4933,
      "ĠPC": 4934,
      "Ġmathemat": 4935,
      "Ġconsidering": 4936,
      "Ġkinds": 4937,
      "Ġprocedure": 4938,
      "itary": 4939,
      "osa": 4940,
      "ĠMain": 4941,
      "weight": 4942,
      "Ġrab": 4943,
      "Ġlegs": 4944,
      "Ġestimated": 4945,
      "Ġtub": 4946,
      "Ġemotional": 4947,
      "Ġarchitect": 4948,
      "Ġpig": 4949,
      "oma": 4950,
      "ĠJune": 4951,
      "ception": 4952,
      "Ġimproving": 4953,
      "ĠDevelop": 4954,
      "ĠInternational": 4955,
      "och": 4956,
      "clus": 4957,
      "Ġperiods": 4958,
      "Ġmeasured": 4959,
      "Ġhaz": 4960,
      "ĠHist": 4961,
      "ĠGet": 4962,
      "idden": 4963,
      "Most": 4964,
      "othe": 4965,
      "ĠCre": 4966,
      "Ġassum": 4967,
      "Ġpal": 4968,
      "Ġfocused": 4969,
      "Ġinvestment": 4970,
      "Ġmicrob": 4971,
      "Ġminimum": 4972,
      "MS": 4973,
      "Ġwalking": 4974,
      "ĠIndian": 4975,
      "34": 4976,
      "crib": 4977,
      "rant": 4978,
      "inate": 4979,
      "lev": 4980,
      "see": 4981,
      "Ġcoord": 4982,
      "Ġiniti": 4983,
      "mary": 4984,
      "zen": 4985,
      "Ġdescribe": 4986,
      "Ġlandscape": 4987,
      "-le": 4988,
      "II": 4989,
      "asp": 4990,
      "Ġcertainly": 4991,
      "Ġlabel": 4992,
      "ĠOrgan": 4993,
      "Ġshared": 4994,
      "inations": 4995,
      "Ġoffice": 4996,
      "Ġofficial": 4997,
      "Ġtechnical": 4998,
      "ĠProfess": 4999,
      "Ġcontinues": 5000,
      "Ġfo": 5001,
      "aming": 5002,
      "Ġseg": 5003,
      "ĠMc": 5004,
      "Ġplug": 5005,
      "ologists": 5006,
      "ran": 5007,
      "Ġtri": 5008,
      "Ġpup": 5009,
      "antic": 5010,
      "Ġmainly": 5011,
      "Ġbelong": 5012,
      "Ġaudio": 5013,
      "cil": 5014,
      "cap": 5015,
      "chers": 5016,
      "Ġsides": 5017,
      "Ġfasc": 5018,
      "Ġdin": 5019,
      "oys": 5020,
      "Ġsensitive": 5021,
      "Ġaffects": 5022,
      "Ġhousehold": 5023,
      "ugg": 5024,
      "Ġactions": 5025,
      "ĠSeptember": 5026,
      "Ġchallenging": 5027,
      "Ġfiber": 5028,
      "Ġstatus": 5029,
      "con": 5030,
      "rates": 5031,
      "Ġ{": 5032,
      "ndom": 5033,
      "acific": 5034,
      "ĠPres": 5035,
      "ĠBoth": 5036,
      "ĠThus": 5037,
      "Ġdiversity": 5038,
      "OU": 5039,
      "ded": 5040,
      "Ġhom": 5041,
      "ĠCare": 5042,
      "ĠHer": 5043,
      "Ġrefrig": 5044,
      "ĠCanada": 5045,
      "Ġfixed": 5046,
      "Ġkitchen": 5047,
      "Ġwaters": 5048,
      "atus": 5049,
      "Ġfur": 5050,
      "Ġprey": 5051,
      "Ġrefers": 5052,
      "Ġplayer": 5053,
      "gy": 5054,
      "ented": 5055,
      "ĠChem": 5056,
      "Ġshad": 5057,
      "Ġlinked": 5058,
      "ĠJohn": 5059,
      "Ġaid": 5060,
      "ishes": 5061,
      "Ġmac": 5062,
      "otes": 5063,
      "ormal": 5064,
      "Ġbuff": 5065,
      "Ġeconomy": 5066,
      "ĠJuly": 5067,
      "ĠHave": 5068,
      "Ġintake": 5069,
      "Ġrod": 5070,
      "rowing": 5071,
      "uits": 5072,
      "ĠRiver": 5073,
      "Ġcraft": 5074,
      "Ġinternet": 5075,
      "ĠCommun": 5076,
      "Ġwait": 5077,
      "Ġdisorders": 5078,
      "org": 5079,
      "ida": 5080,
      "Ġwash": 5081,
      "Ġperhaps": 5082,
      "Ġvarieties": 5083,
      "Ġshowing": 5084,
      "Ġmessage": 5085,
      "Ġpuppy": 5086,
      "IL": 5087,
      "rus": 5088,
      "othes": 5089,
      "idth": 5090,
      "phone": 5091,
      "Ġoperating": 5092,
      "Ġselected": 5093,
      "Ġprinciples": 5094,
      "Ġcrops": 5095,
      "Many": 5096,
      "gin": 5097,
      "Ġvel": 5098,
      "Ġtried": 5099,
      "Ġgut": 5100,
      "Ġassemb": 5101,
      "ĠFurther": 5102,
      "Ġrocks": 5103,
      "Ġconfirm": 5104,
      "ometimes": 5105,
      "Ġpurposes": 5106,
      "-th": 5107,
      "Ġpages": 5108,
      "Ġsports": 5109,
      "inese": 5110,
      "uk": 5111,
      "Ġaw": 5112,
      "Ġorganisms": 5113,
      "Ġbiological": 5114,
      "Ġrobot": 5115,
      "Ġpil": 5116,
      "Ġdivid": 5117,
      "Ġstable": 5118,
      "acking": 5119,
      "ishing": 5120,
      "Ġauthors": 5121,
      "Ġdrink": 5122,
      "ĠAny": 5123,
      "Ġborn": 5124,
      "Ġrein": 5125,
      "Ġalcohol": 5126,
      "Ġvul": 5127,
      "Ġradio": 5128,
      "Ġcalcium": 5129,
      "Bl": 5130,
      "Ġmild": 5131,
      "Ġclick": 5132,
      "Ġamazing": 5133,
      "fortun": 5134,
      "DA": 5135,
      "Your": 5136,
      "with": 5137,
      "Ġfold": 5138,
      "Ġbrought": 5139,
      "ĠOut": 5140,
      "Ġversat": 5141,
      "Ġhistorical": 5142,
      "Ġlibrary": 5143,
      "Ġsty": 5144,
      "ĠGold": 5145,
      "Ġturned": 5146,
      "Ġturns": 5147,
      "Ġawareness": 5148,
      "ĠSan": 5149,
      "Ġremote": 5150,
      "Ġafford": 5151,
      "Ġflower": 5152,
      "-time": 5153,
      "Ġmixed": 5154,
      "Ġconcrete": 5155,
      "Ġleaving": 5156,
      "Ġconsists": 5157,
      "Ġbreath": 5158,
      "-S": 5159,
      "mers": 5160,
      "Ġnorth": 5161,
      "Ġbear": 5162,
      "Ġrule": 5163,
      "Ġprem": 5164,
      "Ġdamaged": 5165,
      "porary": 5166,
      "Ġped": 5167,
      "Ġbin": 5168,
      "ĠSur": 5169,
      "Ġchronic": 5170,
      "Ġvisible": 5171,
      "Ġessay": 5172,
      "Ġcultiv": 5173,
      "According": 5174,
      "Ġsouth": 5175,
      "Ġtoile": 5176,
      "ĠST": 5177,
      "Ġcomposition": 5178,
      "Ġclosed": 5179,
      "Ġcorn": 5180,
      "41": 5181,
      "ias": 5182,
      "requ": 5183,
      "ĠWhere": 5184,
      "Ġshoes": 5185,
      "oster": 5186,
      "Ġtrip": 5187,
      "arium": 5188,
      "Ġlegal": 5189,
      "Ġlifestyle": 5190,
      "Ġquantum": 5191,
      "Ġcryst": 5192,
      "ĠGoogle": 5193,
      "Ġinflammation": 5194,
      "cast": 5195,
      "Ġstom": 5196,
      "ivil": 5197,
      "Ġrecovery": 5198,
      "Ġtopics": 5199,
      "Ġdeliver": 5200,
      "Ġangle": 5201,
      "ingu": 5202,
      "orous": 5203,
      "Ġisol": 5204,
      "ĠPower": 5205,
      "acters": 5206,
      "ĠUp": 5207,
      "Ġcapable": 5208,
      "Ġdestro": 5209,
      "Ġindependent": 5210,
      "Ġnames": 5211,
      "ĠWind": 5212,
      "Ġcompress": 5213,
      "Ġseeing": 5214,
      "Ġdigest": 5215,
      "ebru": 5216,
      "lets": 5217,
      "ĠSch": 5218,
      "Ġcoal": 5219,
      "Ġsurvey": 5220,
      "Ġcreation": 5221,
      "Ġbuildings": 5222,
      "Ġinvolve": 5223,
      "paration": 5224,
      "Ġwindows": 5225,
      "Ġbeauty": 5226,
      "Ġobtained": 5227,
      "ĠTechnology": 5228,
      "51": 5229,
      "yd": 5230,
      "Ġpure": 5231,
      "ĠIS": 5232,
      "erson": 5233,
      "Ġseven": 5234,
      "ĠBas": 5235,
      "ĠHar": 5236,
      "Ġrandom": 5237,
      "ĠStep": 5238,
      "Ġdecor": 5239,
      "Ġrapidly": 5240,
      "Ġprices": 5241,
      "85": 5242,
      "ama": 5243,
      "ĠCB": 5244,
      "ĠLED": 5245,
      "Ġpolicy": 5246,
      "Ġelev": 5247,
      "Ġparticipants": 5248,
      "Ġtun": 5249,
      "etics": 5250,
      "Ġmap": 5251,
      "ĠInter": 5252,
      "Ġbones": 5253,
      "Ġspent": 5254,
      "Ġtransmission": 5255,
      "Ġtested": 5256,
      "Ġimpacts": 5257,
      "Ġcapture": 5258,
      "ĠConsider": 5259,
      "Ġshapes": 5260,
      "gans": 5261,
      "mic": 5262,
      "Ġmes": 5263,
      "struct": 5264,
      "ĠTake": 5265,
      "Ġenable": 5266,
      "Ġinstit": 5267,
      "Ġreduction": 5268,
      "Ġbegins": 5269,
      "53": 5270,
      "gers": 5271,
      "ira": 5272,
      "Ġsufficient": 5273,
      "Ġchlor": 5274,
      "Ġcatch": 5275,
      "Ġhydro": 5276,
      "ĠEducation": 5277,
      "vents": 5278,
      "Ġbat": 5279,
      "Ġabund": 5280,
      "ĠPlan": 5281,
      "Ġcopy": 5282,
      "what": 5283,
      "Ġsend": 5284,
      "Ġcoc": 5285,
      "Ġtoler": 5286,
      "idents": 5287,
      "igen": 5288,
      "Ġstock": 5289,
      "ĠâĢ¢": 5290,
      "Ġaccum": 5291,
      "ĠInstead": 5292,
      "Ġannual": 5293,
      "Ġmobile": 5294,
      "Ġweld": 5295,
      "eding": 5296,
      "rot": 5297,
      "Ġstret": 5298,
      "Ġcolle": 5299,
      "Ġmetabol": 5300,
      "Ġsurvive": 5301,
      "-being": 5302,
      "CS": 5303,
      "Ġtall": 5304,
      "Ġadvent": 5305,
      "Ġuniverse": 5306,
      "Ġphysic": 5307,
      "Ġbalanced": 5308,
      "Ġteacher": 5309,
      "]Ċ": 5310,
      "Ġahead": 5311,
      "Ġsong": 5312,
      "iture": 5313,
      "ĠMark": 5314,
      "Ġexperiments": 5315,
      "Ġmonitor": 5316,
      "Ġrestaur": 5317,
      "Ġcloser": 5318,
      "Ġmembrane": 5319,
      "):": 5320,
      "Ġlic": 5321,
      "Ġstages": 5322,
      "Ġalt": 5323,
      "ially": 5324,
      "ears": 5325,
      "airy": 5326,
      "ĠSea": 5327,
      "US": 5328,
      "VID": 5329,
      "ras": 5330,
      "isation": 5331,
      "Ġscr": 5332,
      "Ġmode": 5333,
      "Ġdecided": 5334,
      "Ġlocations": 5335,
      "Ġcontaining": 5336,
      "----------------": 5337,
      "Ġdoub": 5338,
      "allel": 5339,
      "-related": 5340,
      "opes": 5341,
      "orses": 5342,
      "Ġcooling": 5343,
      "Ġcollected": 5344,
      "Ġfamiliar": 5345,
      "Ġtrigger": 5346,
      "Ġband": 5347,
      "Ġinner": 5348,
      "Ġengage": 5349,
      "Ġpolic": 5350,
      "Ġmeasurement": 5351,
      "ĠCheck": 5352,
      "64": 5353,
      "More": 5354,
      "Pre": 5355,
      "kin": 5356,
      "ĠAP": 5357,
      "Ġattached": 5358,
      "Ġbathroom": 5359,
      "Ġmixture": 5360,
      "ebruary": 5361,
      "ocation": 5362,
      "ĠDav": 5363,
      "dule": 5364,
      "ventional": 5365,
      "Ġcomputers": 5366,
      "Ġwarming": 5367,
      "ĠPeople": 5368,
      "Over": 5369,
      "Ġcards": 5370,
      "ompl": 5371,
      "Ġnerv": 5372,
      "that": 5373,
      "using": 5374,
      "ĠHel": 5375,
      "ĠNet": 5376,
      "ĠLike": 5377,
      "Ġenthus": 5378,
      "Ġerror": 5379,
      "Ġinteraction": 5380,
      "52": 5381,
      "ris": 5382,
      "Ġaer": 5383,
      "Ġment": 5384,
      "Ġhole": 5385,
      "osal": 5386,
      "Ġhoriz": 5387,
      "charge": 5388,
      "-n": 5389,
      "Ġorient": 5390,
      "ĠDec": 5391,
      "Ġstudying": 5392,
      "Ġtight": 5393,
      "Ġcredit": 5394,
      "Ġgir": 5395,
      "emy": 5396,
      "ĠFe": 5397,
      "Ġcarried": 5398,
      "Ġemail": 5399,
      "Ġmolecular": 5400,
      "Ġmonitoring": 5401,
      "-F": 5402,
      "?\"": 5403,
      "Ġconclusion": 5404,
      "ĠGP": 5405,
      "pected": 5406,
      "Ġstomach": 5407,
      "des": 5408,
      "ker": 5409,
      "Ġtube": 5410,
      "Ġemphas": 5411,
      "Ġphysics": 5412,
      "Ġinteractions": 5413,
      "Ġcooked": 5414,
      "Ġurban": 5415,
      "Comp": 5416,
      "iated": 5417,
      "ĠMac": 5418,
      "Ġinterp": 5419,
      "Ġclearly": 5420,
      "ĠEnergy": 5421,
      "Ġbreeding": 5422,
      "Ġlenses": 5423,
      "Ġsau": 5424,
      "Ġorange": 5425,
      "Ġwhatever": 5426,
      "Ġviol": 5427,
      "ĠPy": 5428,
      "ĠInc": 5429,
      "Ġhelped": 5430,
      "Ġoverl": 5431,
      "Ġtrade": 5432,
      "Ġparticle": 5433,
      "Ġinstalled": 5434,
      "Â°C": 5435,
      "ypes": 5436,
      "asure": 5437,
      "Ġlake": 5438,
      "sters": 5439,
      "sec": 5440,
      "ulum": 5441,
      "amental": 5442,
      "ĠRuss": 5443,
      "Ġlesson": 5444,
      "Ġbroken": 5445,
      "Ġmechanism": 5446,
      "Ġfer": 5447,
      "Ġfig": 5448,
      "Ġban": 5449,
      "Ġretain": 5450,
      "Ġnation": 5451,
      "Ġampl": 5452,
      "Ġcharacters": 5453,
      "ropical": 5454,
      "ĠProt": 5455,
      "Ġpreferences": 5456,
      "\"The": 5457,
      "eria": 5458,
      "Ġforces": 5459,
      "Ġpresented": 5460,
      "ĠCollege": 5461,
      "Ġtum": 5462,
      "ĠCH": 5463,
      "ardens": 5464,
      "cope": 5465,
      "Ġfiles": 5466,
      "Ġconsumers": 5467,
      "Ġmotiv": 5468,
      "Ġbuying": 5469,
      "Ġhappened": 5470,
      "Ġrecognize": 5471,
      "Ġcopper": 5472,
      "ĠOctober": 5473,
      "Ġvulner": 5474,
      "54": 5475,
      "bility": 5476,
      "ĠJew": 5477,
      "ario": 5478,
      "Ġnormally": 5479,
      "Ġcorrectly": 5480,
      "Ġpanel": 5481,
      "anted": 5482,
      "Ġotherwise": 5483,
      "ovember": 5484,
      "Ġwouldn": 5485,
      "Ġcareer": 5486,
      "Ġsuggested": 5487,
      "Ġelectrons": 5488,
      "Ġpictures": 5489,
      "ĠJanuary": 5490,
      "Ġproport": 5491,
      "ossible": 5492,
      "ĠExpl": 5493,
      "Ġzero": 5494,
      "fortunately": 5495,
      "nes": 5496,
      "oke": 5497,
      "word": 5498,
      "Ġrace": 5499,
      "Ġformula": 5500,
      "Ġsuccessfully": 5501,
      "Ġnuclear": 5502,
      "Ġcontrolled": 5503,
      "Ġseat": 5504,
      "Ġindex": 5505,
      "Ġbigger": 5506,
      "Ġvast": 5507,
      "osph": 5508,
      "Ġjew": 5509,
      "Ġcloud": 5510,
      "Ġmeeting": 5511,
      "sm": 5512,
      "Ġbees": 5513,
      "Ġstation": 5514,
      "ĠBel": 5515,
      "ĠLake": 5516,
      "Ġfacts": 5517,
      "aws": 5518,
      "Ġboat": 5519,
      "Ġfunctional": 5520,
      "Ġprogramming": 5521,
      "Ġpowder": 5522,
      "ĠTur": 5523,
      "Ġstri": 5524,
      "ĠPacific": 5525,
      "Ġchocolate": 5526,
      "Ġincl": 5527,
      "Ġsolve": 5528,
      "Ġvideos": 5529,
      "Ġslowly": 5530,
      "ĠAfrican": 5531,
      "!!": 5532,
      "46": 5533,
      "Let": 5534,
      "Rem": 5535,
      "Ġshif": 5536,
      "ĠHis": 5537,
      "Ġends": 5538,
      "Ġmetals": 5539,
      "Ġequation": 5540,
      "Ġputting": 5541,
      "Ġvertical": 5542,
      "Ġinfluen": 5543,
      "Ġexplained": 5544,
      "ĠAbout": 5545,
      "Ġhunting": 5546,
      "Ġfossil": 5547,
      "Ġtal": 5548,
      "Ġcement": 5549,
      "rade": 5550,
      "ĠMex": 5551,
      "ĠGood": 5552,
      "Ġ\\(": 5553,
      "ĠStudents": 5554,
      "Ġguidelines": 5555,
      "Ġhoney": 5556,
      "Ġrib": 5557,
      "Ġfung": 5558,
      "Ġlessons": 5559,
      "irds": 5560,
      "Ġmarketing": 5561,
      "Ġinnovative": 5562,
      "tion": 5563,
      "ye": 5564,
      "Ġic": 5565,
      "Ġunlike": 5566,
      "Ġnovel": 5567,
      "Ġdetection": 5568,
      "Ġgrade": 5569,
      "Ġconfidence": 5570,
      "Ġmeasurements": 5571,
      "Ġpercentage": 5572,
      "Ġlaws": 5573,
      "Ġfelt": 5574,
      "stract": 5575,
      "ĠSum": 5576,
      "ibilities": 5577,
      "ĠRef": 5578,
      "Ġworldwide": 5579,
      "Ġparas": 5580,
      "Ġsubstances": 5581,
      "RI": 5582,
      "itches": 5583,
      "ophy": 5584,
      "ĠPat": 5585,
      "Ġcollege": 5586,
      "Ġguess": 5587,
      "Ġfacilit": 5588,
      "ĠEngine": 5589,
      "ĠMedic": 5590,
      "Conclusion": 5591,
      "rite": 5592,
      "Ġreef": 5593,
      "Ġjump": 5594,
      "ieving": 5595,
      "ignment": 5596,
      "Ġacids": 5597,
      "Use": 5598,
      "]ĊĊ": 5599,
      "volution": 5600,
      "Ġcit": 5601,
      "ĠpH": 5602,
      "Ġeight": 5603,
      "mentation": 5604,
      "ĠLa": 5605,
      "ĠLook": 5606,
      "Ġbutton": 5607,
      "Ġoutc": 5608,
      "Ġexplains": 5609,
      "Ġreports": 5610,
      "Ġdiscussed": 5611,
      "Ġsurvival": 5612,
      "Ġadminist": 5613,
      "ĠChinese": 5614,
      "Ġclassroom": 5615,
      "rors": 5616,
      "ĠMet": 5617,
      "ĠEast": 5618,
      "Ġdecide": 5619,
      "Ġreduces": 5620,
      "cover": 5621,
      "Ġacademic": 5622,
      "iest": 5623,
      "Ġscrew": 5624,
      "reek": 5625,
      "Ġproduces": 5626,
      "gets": 5627,
      "uracy": 5628,
      "Ġdefinition": 5629,
      "Ġdisorder": 5630,
      "43": 5631,
      "dy": 5632,
      "Ġmal": 5633,
      "Ġhabits": 5634,
      "aint": 5635,
      "ĠMa": 5636,
      "Ġunless": 5637,
      "Ġtraffic": 5638,
      "Ġpossibly": 5639,
      "Ġprofessor": 5640,
      "ĠBritish": 5641,
      "ĠCounty": 5642,
      "mp": 5643,
      "Ġ)": 5644,
      "Ġdram": 5645,
      "Ġgall": 5646,
      "pec": 5647,
      "earing": 5648,
      "aked": 5649,
      "Ġprompt": 5650,
      "Ġabsolute": 5651,
      "Ġcompetition": 5652,
      "Ġinnovation": 5653,
      "New": 5654,
      "Ġdirt": 5655,
      "Ġdiscovery": 5656,
      "Ġpossess": 5657,
      "Ġcircum": 5658,
      "Ġturb": 5659,
      "iotics": 5660,
      "-M": 5661,
      "Ġmission": 5662,
      "ĠHouse": 5663,
      "Ġintended": 5664,
      "Ġdownload": 5665,
      "Ġinstallation": 5666,
      "ĠTwo": 5667,
      "Ġsharp": 5668,
      "Ġdatab": 5669,
      "ĠAugust": 5670,
      "CO": 5671,
      "Under": 5672,
      "Ġbank": 5673,
      "ample": 5674,
      "Ġmeals": 5675,
      "Ġregul": 5676,
      "Ġdelicious": 5677,
      "Ġfeedback": 5678,
      "Ġclosely": 5679,
      "First": 5680,
      "inn": 5681,
      "urch": 5682,
      "quit": 5683,
      "Ġneur": 5684,
      "ander": 5685,
      "apers": 5686,
      "Ġunivers": 5687,
      "Ġscene": 5688,
      "Ġturning": 5689,
      "Ġfarming": 5690,
      "Ġfundamental": 5691,
      "FA": 5692,
      "Ġcrop": 5693,
      "itors": 5694,
      "Ġinject": 5695,
      "riers": 5696,
      "Ġbiggest": 5697,
      "Ġaudience": 5698,
      "Ġcommitment": 5699,
      "west": 5700,
      "esity": 5701,
      "itting": 5702,
      "Ġmice": 5703,
      "Ġtow": 5704,
      "lements": 5705,
      "Ġdeeper": 5706,
      "ague": 5707,
      "Ġhumidity": 5708,
      "Ġcompleted": 5709,
      "Ġvolunt": 5710,
      "Ġfriendly": 5711,
      "Ġprinting": 5712,
      "Ġsou": 5713,
      "Ġamb": 5714,
      "Ġwants": 5715,
      "Ġskill": 5716,
      "Ġapproaches": 5717,
      "Ġseconds": 5718,
      "ĠArch": 5719,
      "Ġstrain": 5720,
      "Ġrepresents": 5721,
      "Ġremoving": 5722,
      "Ġexcessive": 5723,
      "Ġfirm": 5724,
      "ĠCity": 5725,
      "active": 5726,
      "asses": 5727,
      "Ġages": 5728,
      "Ġperspective": 5729,
      "Ġsupported": 5730,
      "Ġpreventing": 5731,
      "Ġcardi": 5732,
      "Ġconstantly": 5733,
      "',": 5734,
      "Ġshift": 5735,
      "ocity": 5736,
      "Ġworse": 5737,
      "Ġdefinitely": 5738,
      "49": 5739,
      "Cont": 5740,
      "ivery": 5741,
      "tress": 5742,
      "Ġcomment": 5743,
      "Ġanswers": 5744,
      "-on": 5745,
      "LE": 5746,
      "Ġforget": 5747,
      "ĠCD": 5748,
      "ĠCat": 5749,
      "Ġshade": 5750,
      "aker": 5751,
      "ĠThrough": 5752,
      "Ġassessment": 5753,
      "Ġdynamic": 5754,
      "Ġclothing": 5755,
      "Cons": 5756,
      "Ġstability": 5757,
      "Ġpros": 5758,
      "Ġadds": 5759,
      "Ġplane": 5760,
      "Ġbelief": 5761,
      "Ġsmoke": 5762,
      "going": 5763,
      "97": 5764,
      "ican": 5765,
      "ĠSee": 5766,
      "acc": 5767,
      "Ġraise": 5768,
      "Ġmedication": 5769,
      "Ġinformed": 5770,
      "Ġsheet": 5771,
      "Ġletter": 5772,
      "Ġrecorded": 5773,
      "Ġinjuries": 5774,
      "arrow": 5775,
      "ado": 5776,
      "Ġhaven": 5777,
      "ĠFIG": 5778,
      "Ġknows": 5779,
      "Ġaccompl": 5780,
      "Ġembry": 5781,
      "Ġsustainability": 5782,
      "Ġnitrogen": 5783,
      "uum": 5784,
      "heet": 5785,
      "Ġluck": 5786,
      "tery": 5787,
      "Ġagree": 5788,
      "Ġhandling": 5789,
      "Ġdetermining": 5790,
      "Ġmulti": 5791,
      "Ġchemistry": 5792,
      "ĠGuide": 5793,
      "Ġagriculture": 5794,
      "Ġopinion": 5795,
      "ii": 5796,
      "point": 5797,
      "Ġtor": 5798,
      "Ġsick": 5799,
      "Ġcul": 5800,
      "Ġhidden": 5801,
      "Ġcompr": 5802,
      "Ġprotected": 5803,
      "Ġcomputing": 5804,
      "Ġindustries": 5805,
      "Ġlaser": 5806,
      "Ġgun": 5807,
      "Ġgave": 5808,
      "iform": 5809,
      "ĠSun": 5810,
      "osquit": 5811,
      "Ġshot": 5812,
      "ĠEc": 5813,
      "Ġphotography": 5814,
      "Ġorigin": 5815,
      "how": 5816,
      "inant": 5817,
      "Ġcm": 5818,
      "ĠAng": 5819,
      "ĠOff": 5820,
      "Ġhardware": 5821,
      "aul": 5822,
      "ked": 5823,
      "Ġwrote": 5824,
      "Ġnurs": 5825,
      "ĠTime": 5826,
      "igital": 5827,
      "rome": 5828,
      "oyal": 5829,
      "Ġmicrow": 5830,
      "De": 5831,
      "Ġath": 5832,
      "anation": 5833,
      "Ġreward": 5834,
      "osion": 5835,
      "ĠBen": 5836,
      "Ġneck": 5837,
      "pling": 5838,
      "Ġdishes": 5839,
      "Ġaccident": 5840,
      "Ġtransp": 5841,
      "Ġexploring": 5842,
      "arsh": 5843,
      "Ġpassage": 5844,
      "Ġmoved": 5845,
      "ĠWorks": 5846,
      "Although": 5847,
      "ĠGerman": 5848,
      "98": 5849,
      "bur": 5850,
      "lers": 5851,
      "Ġcab": 5852,
      "Ġgro": 5853,
      "Ġknowing": 5854,
      "Ġregulations": 5855,
      "-the": 5856,
      "bles": 5857,
      "ara": 5858,
      "Ġvoice": 5859,
      "Ġrow": 5860,
      "order": 5861,
      "Ġcommunicate": 5862,
      "Ġsales": 5863,
      "Ġexciting": 5864,
      "Ġreplacement": 5865,
      "Ġsatisf": 5866,
      "Ġrenewable": 5867,
      "orter": 5868,
      "stone": 5869,
      "Ġsupplement": 5870,
      "Ġseek": 5871,
      "Ġcareful": 5872,
      "ĠAssociation": 5873,
      "ionally": 5874,
      "ĠFlor": 5875,
      "Ġperman": 5876,
      "Ġdiamond": 5877,
      "62": 5878,
      "Ġson": 5879,
      "Ġbaking": 5880,
      "ĠSaf": 5881,
      "Ġsector": 5882,
      "uble": 5883,
      "Ġfoundation": 5884,
      "ĠAtl": 5885,
      "rastructure": 5886,
      "PA": 5887,
      "arn": 5888,
      "Ġloose": 5889,
      "ĠToday": 5890,
      "Ġshut": 5891,
      "ĠEas": 5892,
      "Ġspots": 5893,
      "Ġattacks": 5894,
      "ucose": 5895,
      "Ġparallel": 5896,
      "Ġaccessible": 5897,
      "dden": 5898,
      "Ġphenomen": 5899,
      "Ġtoilet": 5900,
      "Gen": 5901,
      "ena": 5902,
      "iled": 5903,
      "ĠSet": 5904,
      "Ġcompare": 5905,
      "Ġadequ": 5906,
      "Ġtwice": 5907,
      "Ġmattress": 5908,
      "Ġlooked": 5909,
      "Ġsilver": 5910,
      "Ġremaining": 5911,
      "Ġvaccine": 5912,
      "zed": 5913,
      "irty": 5914,
      "ĠSub": 5915,
      "oding": 5916,
      "ĠFact": 5917,
      "Ġjud": 5918,
      "Ġsport": 5919,
      "Ġanywhere": 5920,
      "Ġstudied": 5921,
      "Ġaccuracy": 5922,
      "Ġextended": 5923,
      "Ġseeking": 5924,
      "Ġmining": 5925,
      "Ġdefic": 5926,
      "Ġbiology": 5927,
      "Ġhydrogen": 5928,
      "cher": 5929,
      "Ġtap": 5930,
      "arant": 5931,
      "Ġsudden": 5932,
      "Ġship": 5933,
      "ĠKnow": 5934,
      "Ġcheap": 5935,
      "Ġlawn": 5936,
      "Ġtrends": 5937,
      "56": 5938,
      "86": 5939,
      "elcome": 5940,
      "ocking": 5941,
      "Ġraised": 5942,
      "Ġdecl": 5943,
      "Ġplayed": 5944,
      "Ġabsorb": 5945,
      "fall": 5946,
      "Ġtherap": 5947,
      "Ġshed": 5948,
      "Ġsharing": 5949,
      "ilding": 5950,
      "Ġvariable": 5951,
      "Ġbasically": 5952,
      "Ġretur": 5953,
      "Ġmoves": 5954,
      "bohyd": 5955,
      "ait": 5956,
      "Ġtutor": 5957,
      "Ġod": 5958,
      "icing": 5959,
      "Ġstores": 5960,
      "ĠWild": 5961,
      "Ġatoms": 5962,
      "ĠData": 5963,
      "ĠLife": 5964,
      "Ġcontamin": 5965,
      "rue": 5966,
      "Ġsecret": 5967,
      "Ġfamous": 5968,
      "Ġvirtual": 5969,
      "ynthesis": 5970,
      "Ġpolicies": 5971,
      "Not": 5972,
      "cember": 5973,
      "Ġcham": 5974,
      "Ġinstruction": 5975,
      "Ġinsurance": 5976,
      "ĠAnother": 5977,
      "Ġcreatures": 5978,
      "Ġconflic": 5979,
      "Ġcrus": 5980,
      "CC": 5981,
      "box": 5982,
      "edia": 5983,
      "Ġchapter": 5984,
      "Ġclust": 5985,
      "Ġblocks": 5986,
      "Ġoffered": 5987,
      "Ġbread": 5988,
      "Ġarticles": 5989,
      "ĠScient": 5990,
      "ognitive": 5991,
      "zzle": 5992,
      "Ġinterface": 5993,
      "Ġderived": 5994,
      "mark": 5995,
      "uter": 5996,
      "Ġspeech": 5997,
      "Ġreput": 5998,
      "overn": 5999,
      "atching": 6000,
      "Ġproposed": 6001,
      "Ġentirely": 6002,
      "Ġtissues": 6003,
      "Figure": 6004,
      "RNA": 6005,
      "cest": 6006,
      "umes": 6007,
      "Ġchosen": 6008,
      "Ġmineral": 6009,
      "Ġequival": 6010,
      "Ġminimize": 6011,
      "Ġdiagnosis": 6012,
      "ĠRemember": 6013,
      "Ġdedicated": 6014,
      "Reg": 6015,
      "then": 6016,
      "uing": 6017,
      "Ġ@": 6018,
      "Ġbee": 6019,
      "ĠSol": 6020,
      "ĠDet": 6021,
      "ĠFebruary": 6022,
      "ĠLong": 6023,
      "Ġpreparation": 6024,
      "Ġmanner": 6025,
      "ifications": 6026,
      "Ġflour": 6027,
      "Ġzone": 6028,
      "Ġmedications": 6029,
      "|Ċ": 6030,
      "Ġ>": 6031,
      "Ġwound": 6032,
      "Ġgather": 6033,
      "olf": 6034,
      "izers": 6035,
      "Ġscore": 6036,
      "Ġbelieved": 6037,
      "Ġreplaced": 6038,
      "Ġprotective": 6039,
      "Ġachieved": 6040,
      "Ġmechanisms": 6041,
      "Ġsubstant": 6042,
      "Ġlaboratory": 6043,
      "72": 6044,
      "rid": 6045,
      "itivity": 6046,
      "ulin": 6047,
      "Ġenab": 6048,
      "ĠRNA": 6049,
      "ĠOb": 6050,
      "Ġbrings": 6051,
      "Ġowner": 6052,
      "Ġprocedures": 6053,
      "Ġbehaviors": 6054,
      "Ġholes": 6055,
      "Ġrig": 6056,
      "Ġdespite": 6057,
      "Ġdioxide": 6058,
      "Ġgrain": 6059,
      "Ġpurs": 6060,
      "Ġcourses": 6061,
      "ĠColor": 6062,
      "Ġresponsibility": 6063,
      "Ġmassive": 6064,
      "Ġcontinuous": 6065,
      "Ġforests": 6066,
      "Ġimagine": 6067,
      "Ġenthusi": 6068,
      "IF": 6069,
      "Rel": 6070,
      "tt": 6071,
      "Ġsen": 6072,
      "atin": 6073,
      "Ġgad": 6074,
      "Ġgum": 6075,
      "ĠSociety": 6076,
      "ĠCP": 6077,
      "ĠHome": 6078,
      "Ġreserv": 6079,
      "Ġbrief": 6080,
      "Ġlinear": 6081,
      "Ġstronger": 6082,
      "lin": 6083,
      "ĠTV": 6084,
      "ĠDef": 6085,
      "ĠNovember": 6086,
      "Ġserving": 6087,
      "Ġcapital": 6088,
      "Ġdiameter": 6089,
      "Ġrefriger": 6090,
      "Ġoutcomes": 6091,
      "Ġpounds": 6092,
      "Ġfa": 6093,
      "ĠFound": 6094,
      "Ġkne": 6095,
      "Ġgrows": 6096,
      "Ġminor": 6097,
      "Ġdepression": 6098,
      "-sc": 6099,
      "Ġmilitary": 6100,
      "-pro": 6101,
      "Ġintegr": 6102,
      "Ġcontinued": 6103,
      "Ġgarlic": 6104,
      "/s": 6105,
      "Ġcord": 6106,
      "Ġdut": 6107,
      "Ġye": 6108,
      "Ġorgans": 6109,
      "abil": 6110,
      "opic": 6111,
      "ĠRel": 6112,
      "agues": 6113,
      "Ġrights": 6114,
      "Ġruns": 6115,
      "Ġsafely": 6116,
      "From": 6117,
      "gl": 6118,
      "no": 6119,
      "pat": 6120,
      "Ġdent": 6121,
      "Ġstars": 6122,
      "Ġprol": 6123,
      "ĠExt": 6124,
      "ĠLab": 6125,
      "Ġmeant": 6126,
      "Ġoperate": 6127,
      "Ġdiscussion": 6128,
      "Ġdivided": 6129,
      "SP": 6130,
      "uel": 6131,
      "atur": 6132,
      "Ġwish": 6133,
      "ĠDel": 6134,
      "ournal": 6135,
      "Ġkeeps": 6136,
      "Ġdescription": 6137,
      "Ġfacing": 6138,
      "ĠCOVID": 6139,
      "Ġjoin": 6140,
      "Ġdriver": 6141,
      "61": 6142,
      "isk": 6143,
      "Ġmort": 6144,
      "Ġdoll": 6145,
      "Ġnose": 6146,
      "Ġfewer": 6147,
      "Ġfinished": 6148,
      "Ġsteam": 6149,
      "Ġhospital": 6150,
      "Ġschedule": 6151,
      "Ġpolitical": 6152,
      "Ġstroke": 6153,
      "onge": 6154,
      "Ġbio": 6155,
      "ota": 6156,
      "Ġoral": 6157,
      "ĠClean": 6158,
      "ĠWork": 6159,
      "Ġkil": 6160,
      "Ġfinally": 6161,
      "Ġfacilities": 6162,
      "Ġfurniture": 6163,
      "ya": 6164,
      "Ġcast": 6165,
      "Ġfault": 6166,
      "ora": 6167,
      "alysis": 6168,
      "Ġstain": 6169,
      "Ġweigh": 6170,
      "Ġblo": 6171,
      "Ġattach": 6172,
      "Ġdepos": 6173,
      "Ġopposite": 6174,
      "Ġexercises": 6175,
      "ographic": 6176,
      "Ġbehaviour": 6177,
      "Ġbottle": 6178,
      "Ind": 6179,
      "ĠBre": 6180,
      "âĢĭ": 6181,
      "apor": 6182,
      "Ġchest": 6183,
      "ĠChildren": 6184,
      "Ġgenerator": 6185,
      "egin": 6186,
      "Ġthoughts": 6187,
      "Ġintroduction": 6188,
      "Ġincreasingly": 6189,
      "ascular": 6190,
      "ĠJapanese": 6191,
      "Me": 6192,
      "Read": 6193,
      "down": 6194,
      "ĠCam": 6195,
      "ricks": 6196,
      "akers": 6197,
      "anged": 6198,
      "ĠStart": 6199,
      "Ġdistributed": 6200,
      "Ġtransportation": 6201,
      "Before": 6202,
      "Ġrevolution": 6203,
      "Ġspeaker": 6204,
      "Ġkidney": 6205,
      "Ġtaught": 6206,
      "Ġpark": 6207,
      "Ġfeels": 6208,
      "Ġwhereas": 6209,
      "Ġdurability": 6210,
      "AB": 6211,
      "eras": 6212,
      "Ġwoman": 6213,
      "Ġfather": 6214,
      "Ġflying": 6215,
      "Ġgone": 6216,
      "Ġwearing": 6217,
      "ĠPol": 6218,
      "ĠDC": 6219,
      "unning": 6220,
      "Ġclay": 6221,
      "Ġrecipe": 6222,
      "Ġattrib": 6223,
      "ĠProject": 6224,
      "Ġcyl": 6225,
      "Ġpropag": 6226,
      "zer": 6227,
      "Ġcities": 6228,
      "ĠNature": 6229,
      "Ġpeace": 6230,
      "Ġcovers": 6231,
      "Ġinsulation": 6232,
      "Ġcapabilities": 6233,
      "Ġindicates": 6234,
      "________": 6235,
      "ĠDevelopment": 6236,
      "dent": 6237,
      "Ġtick": 6238,
      "Ġaest": 6239,
      "Ġcott": 6240,
      "Ġoven": 6241,
      "orrect": 6242,
      "Ġbid": 6243,
      "ilos": 6244,
      "Ġplus": 6245,
      "Ġusage": 6246,
      "Ġears": 6247,
      "Ġpassed": 6248,
      "AI": 6249,
      "OL": 6250,
      "ĠIN": 6251,
      "Ġchart": 6252,
      "Ġtea": 6253,
      "Ġconfig": 6254,
      "Ġpredators": 6255,
      "Ġfrequent": 6256,
      "anc": 6257,
      "Ġmir": 6258,
      "stream": 6259,
      "rac": 6260,
      "Ġengaging": 6261,
      "Ġmovements": 6262,
      "Ġanalog": 6263,
      "brid": 6264,
      "Ġconcerned": 6265,
      "Ġlifes": 6266,
      "Ġrecords": 6267,
      "66": 6268,
      "77": 6269,
      "fit": 6270,
      "Ġdive": 6271,
      "Ġrely": 6272,
      "Ġyog": 6273,
      "Ġchol": 6274,
      "ĠRob": 6275,
      "Ġarray": 6276,
      "Ġtrained": 6277,
      "Ġsubsequ": 6278,
      "Ġengines": 6279,
      "exas": 6280,
      "Ġspecialized": 6281,
      "Ġconnections": 6282,
      "Ġargument": 6283,
      "-E": 6284,
      "inity": 6285,
      "eries": 6286,
      "ĠLight": 6287,
      "riculum": 6288,
      "Ġeveryday": 6289,
      "Ġvalid": 6290,
      "bris": 6291,
      "Ġloop": 6292,
      "Ġdestroy": 6293,
      "\"We": 6294,
      "91": 6295,
      "cule": 6296,
      "Ġsight": 6297,
      "Ġcos": 6298,
      "orge": 6299,
      "Ġconventional": 6300,
      "ested": 6301,
      "ĠOcean": 6302,
      "Ġfeather": 6303,
      "Ġcharging": 6304,
      "Ġdelivery": 6305,
      "ĠIsland": 6306,
      "Ġmillions": 6307,
      "uminum": 6308,
      ".D": 6309,
      "ikes": 6310,
      "Ġhorses": 6311,
      "omfort": 6312,
      "Ġnoticed": 6313,
      "Ġclients": 6314,
      "Ġmanip": 6315,
      "Ġrestrict": 6316,
      "Ġframew": 6317,
      "ĠManagement": 6318,
      "ENT": 6319,
      ";Ċ": 6320,
      "Does": 6321,
      "Te": 6322,
      "uts": 6323,
      "rape": 6324,
      "Ġstands": 6325,
      "ache": 6326,
      "Ġplates": 6327,
      "Ġtruth": 6328,
      "Ġexpans": 6329,
      "Ġfollows": 6330,
      "Ġsupports": 6331,
      "Ġconsume": 6332,
      "Ġhappening": 6333,
      "Ġburning": 6334,
      "haust": 6335,
      "Ġbreathing": 6336,
      "Ġplatforms": 6337,
      "Ġcorresponding": 6338,
      "++": 6339,
      "rical": 6340,
      "Ġisland": 6341,
      "Ġgal": 6342,
      "Ġgly": 6343,
      "plant": 6344,
      "Ġindoor": 6345,
      "Ġobesity": 6346,
      "Ġmovie": 6347,
      "Ġrobust": 6348,
      "Ġefficiently": 6349,
      "ĠControl": 6350,
      "Ġirrit": 6351,
      "-res": 6352,
      "47": 6353,
      "58": 6354,
      "Ġmature": 6355,
      "Ġdies": 6356,
      "Ġdairy": 6357,
      "ĠPort": 6358,
      "Ġthanks": 6359,
      "Ġunderlying": 6360,
      "Ġinterview": 6361,
      "Ġoccup": 6362,
      "Ġlisted": 6363,
      "Ġjobs": 6364,
      "Ġguidance": 6365,
      "Ġswimming": 6366,
      "ffective": 6367,
      "Ġwal": 6368,
      "Ġpink": 6369,
      "ani": 6370,
      "Ġliver": 6371,
      "ĠTry": 6372,
      "Ġenables": 6373,
      "ocy": 6374,
      "ĠFore": 6375,
      "Ġinfrastructure": 6376,
      "iox": 6377,
      "hips": 6378,
      "%)": 6379,
      "well": 6380,
      "zym": 6381,
      "Ġmosquit": 6382,
      "ĠAp": 6383,
      "astics": 6384,
      "angle": 6385,
      "Ġworkers": 6386,
      "Ġbreeds": 6387,
      "Ġcontainers": 6388,
      "Ġsubjects": 6389,
      "Ġconsequences": 6390,
      "Ġvelocity": 6391,
      "-of": 6392,
      "CE": 6393,
      "ford": 6394,
      "vit": 6395,
      "Ġtrick": 6396,
      "entle": 6397,
      "ourse": 6398,
      "ĠOh": 6399,
      "berg": 6400,
      "Ġbiod": 6401,
      "Ġvacuum": 6402,
      "Ġexpertise": 6403,
      "Ġbranches": 6404,
      "68": 6405,
      "arity": 6406,
      "abul": 6407,
      "Ġcompl": 6408,
      "oves": 6409,
      "Ġsupporting": 6410,
      "Ġrecognized": 6411,
      "Ġcrypt": 6412,
      "esterol": 6413,
      "ĠMedicine": 6414,
      "69": 6415,
      "IM": 6416,
      "but": 6417,
      "iability": 6418,
      "Ġink": 6419,
      "ifies": 6420,
      "Ġhealing": 6421,
      "ĠPract": 6422,
      "Ġabilities": 6423,
      "ĠOpt": 6424,
      "Ġresolution": 6425,
      "Ġunderst": 6426,
      "ĠVol": 6427,
      "Ġinterior": 6428,
      "hemical": 6429,
      "Ġdomestic": 6430,
      "Ġarrange": 6431,
      "Ġthrive": 6432,
      "Ġmanufacturers": 6433,
      "Ġtitle": 6434,
      "Ġvibrant": 6435,
      ".[": 6436,
      "><": 6437,
      "field": 6438,
      "ham": 6439,
      "vis": 6440,
      "Ġtown": 6441,
      "urb": 6442,
      "Ġnoted": 6443,
      "Ġclothes": 6444,
      "Ġcarp": 6445,
      "Ġpreserv": 6446,
      "ocket": 6447,
      "Ġclassic": 6448,
      "Using": 6449,
      "Ġappreciate": 6450,
      "57": 6451,
      "96": 6452,
      "During": 6453,
      "oop": 6454,
      "ifier": 6455,
      "Ġalter": 6456,
      "Ġdebris": 6457,
      "Ġbacterial": 6458,
      "Ġemotions": 6459,
      "Ġol": 6460,
      "Ġpin": 6461,
      "Ġpel": 6462,
      "Ġblow": 6463,
      "amic": 6464,
      "ĠForm": 6465,
      "ĠEqu": 6466,
      "ustain": 6467,
      "Ġimpossible": 6468,
      "Ġscan": 6469,
      "Ġapparent": 6470,
      "Ġtrim": 6471,
      "Ġcontrols": 6472,
      "Ġnuts": 6473,
      "Ġpromoting": 6474,
      "Ġalgorithm": 6475,
      "ĠFlorida": 6476,
      "DF": 6477,
      "Pe": 6478,
      "Ġmm": 6479,
      "ĠTest": 6480,
      "alled": 6481,
      "eren": 6482,
      "Ġunus": 6483,
      "Ġmyself": 6484,
      "Ġextend": 6485,
      "aughter": 6486,
      "ĠLearning": 6487,
      "Ġhundreds": 6488,
      "71": 6489,
      "CA": 6490,
      "oz": 6491,
      "Ġcater": 6492,
      "Ġattend": 6493,
      "airs": 6494,
      "ugs": 6495,
      "ĠExper": 6496,
      "Ġholding": 6497,
      "Ġintroduce": 6498,
      "Ġautomatically": 6499,
      "Ġcollaboration": 6500,
      "Ġparameters": 6501,
      "Ġfascinating": 6502,
      "Ġdatabase": 6503,
      "Get": 6504,
      "Ġcere": 6505,
      "Ġvan": 6506,
      "ĠMat": 6507,
      "Ġjack": 6508,
      "reatment": 6509,
      "Ġapplying": 6510,
      "Ġsupplies": 6511,
      "Ġartists": 6512,
      "Ġrealize": 6513,
      "ĠPlay": 6514,
      "Ġpassion": 6515,
      "Ġstructural": 6516,
      "Ġexchange": 6517,
      "TH": 6518,
      "ĠGr": 6519,
      "earchers": 6520,
      "Ġformer": 6521,
      "ĠAsia": 6522,
      "Ġsecondary": 6523,
      "Ġpresentation": 6524,
      "Ġteams": 6525,
      "Ġdrivers": 6526,
      "Ġtast": 6527,
      "asive": 6528,
      "ĠCell": 6529,
      "Ġseam": 6530,
      "ĠRet": 6531,
      "ags": 6532,
      "Ġblank": 6533,
      "Ġinfected": 6534,
      "Ġcalories": 6535,
      "Ġvegetable": 6536,
      "Ġagricultural": 6537,
      "Ġhorizont": 6538,
      "Ġinterpret": 6539,
      "CT": 6540,
      "Lear": 6541,
      "from": 6542,
      "iology": 6543,
      "Ġseal": 6544,
      "Ġcompact": 6545,
      "Ġquar": 6546,
      "Ġdistingu": 6547,
      "Ġharder": 6548,
      "Ġlisten": 6549,
      "ĠBlue": 6550,
      "Ġminimal": 6551,
      "Ġdomain": 6552,
      "Ġemployees": 6553,
      "ĠTHE": 6554,
      "Cs": 6555,
      "la": 6556,
      "Ġcas": 6557,
      "Ġinch": 6558,
      "olph": 6559,
      "Ġneuro": 6560,
      "Ġdoors": 6561,
      "phones": 6562,
      "rence": 6563,
      "ĠBefore": 6564,
      "âĢ¦ĊĊ": 6565,
      "Ġfitness": 6566,
      "Ġaims": 6567,
      "Ġcoastal": 6568,
      "Or": 6569,
      "Since": 6570,
      "normal": 6571,
      "ctic": 6572,
      "Ġnerve": 6573,
      "Ġgardens": 6574,
      "ĠTexas": 6575,
      "ĠPlease": 6576,
      "ooked": 6577,
      "Ġreprodu": 6578,
      "Ġdelay": 6579,
      "Ġimmun": 6580,
      "Ġdifficulty": 6581,
      "Ġinteractive": 6582,
      "Ġevaluate": 6583,
      "ĠLearn": 6584,
      "Ġdurable": 6585,
      "ĠHistory": 6586,
      "Fig": 6587,
      "ki": 6588,
      "ĠPers": 6589,
      "ulture": 6590,
      "Ġclub": 6591,
      "enses": 6592,
      "Ġvegan": 6593,
      "Ġholds": 6594,
      "Ġsodium": 6595,
      "Ġcircumst": 6596,
      "-L": 6597,
      "63": 6598,
      "ka": 6599,
      "lings": 6600,
      "mal": 6601,
      "ami": 6602,
      "Ġsusp": 6603,
      "Ġpoison": 6604,
      "Ġgoods": 6605,
      "Ġfeelings": 6606,
      "ĠOnly": 6607,
      "Ġwatching": 6608,
      "Ġbranch": 6609,
      "Ġvessels": 6610,
      "Other": 6611,
      "nel": 6612,
      "Ġdimens": 6613,
      "Ġgerm": 6614,
      "Ġleak": 6615,
      "Ġrecording": 6616,
      "ĠStr": 6617,
      "Ġsky": 6618,
      "Ġdiscomfort": 6619,
      "Ġdrinking": 6620,
      "Ġcameras": 6621,
      "Ġrespectively": 6622,
      "Ġpaid": 6623,
      "Ġequivalent": 6624,
      "rations": 6625,
      "tic": 6626,
      "vol": 6627,
      "Ġions": 6628,
      "encing": 6629,
      "Ġpipe": 6630,
      "Ġlik": 6631,
      "Ġrecept": 6632,
      "Ġgases": 6633,
      "uls": 6634,
      "Ġancest": 6635,
      "agine": 6636,
      "Ġagre": 6637,
      "Ġempt": 6638,
      "Ġherb": 6639,
      "ommon": 6640,
      "Ġprinciple": 6641,
      "Ġgadgets": 6642,
      "-old": 6643,
      "81": 6644,
      "ĠWood": 6645,
      "Ġdetermination": 6646,
      "Ġsensors": 6647,
      "ĠDecember": 6648,
      "Also": 6649,
      "Ġspectrum": 6650,
      "Ġalgorithms": 6651,
      "Ġcav": 6652,
      "Ġlinks": 6653,
      "ĠIll": 6654,
      "amins": 6655,
      "ĠPost": 6656,
      "ĠGarden": 6657,
      "Ġouter": 6658,
      "Ġappar": 6659,
      "Ġcarbohyd": 6660,
      "Ġeffectiveness": 6661,
      "Ġglucose": 6662,
      "Ġherbs": 6663,
      "Ġgreatly": 6664,
      "Share": 6665,
      "84": 6666,
      "sis": 6667,
      "uous": 6668,
      "ville": 6669,
      "Ġfan": 6670,
      "Ġyes": 6671,
      "ĠCa": 6672,
      "istor": 6673,
      "Ġclient": 6674,
      "Ġcellular": 6675,
      "Ġpotat": 6676,
      "Ġentry": 6677,
      "Stud": 6678,
      "ĠAmericans": 6679,
      "Ġchannel": 6680,
      "Ġsouthern": 6681,
      "Ġinhib": 6682,
      "appe": 6683,
      "aterials": 6684,
      "Ġedges": 6685,
      "Ġbrake": 6686,
      "azon": 6687,
      "Ġsequences": 6688,
      "Ġcomparison": 6689,
      "Dr": 6690,
      "vin": 6691,
      "Ġion": 6692,
      "Ġtip": 6693,
      "esides": 6694,
      "Ġbeans": 6695,
      "Ġasking": 6696,
      "Ġvict": 6697,
      "eping": 6698,
      "Ġoverw": 6699,
      "Ġacts": 6700,
      "Ġserves": 6701,
      "Ġembra": 6702,
      "apping": 6703,
      "Ġflexibility": 6704,
      "Ġneutral": 6705,
      "IV": 6706,
      "lock": 6707,
      "ĠFree": 6708,
      "Ġwashing": 6709,
      "Ġcouldn": 6710,
      "Ġdefine": 6711,
      "exp": 6712,
      "Ġlimits": 6713,
      "Ġcrust": 6714,
      "Ġnecessarily": 6715,
      "ĠBiology": 6716,
      "ĠUnderstanding": 6717,
      "Ġloved": 6718,
      "//": 6719,
      "Every": 6720,
      "Ġok": 6721,
      "orph": 6722,
      "utch": 6723,
      "otal": 6724,
      "eles": 6725,
      "ocular": 6726,
      "ĠNatural": 6727,
      "ĠInformation": 6728,
      "Ġconscious": 6729,
      "Ġdied": 6730,
      "Ġserved": 6731,
      "ĠEngland": 6732,
      "App": 6733,
      "son": 6734,
      "Ġwidth": 6735,
      "terior": 6736,
      "ĠDise": 6737,
      "pled": 6738,
      "Ġremark": 6739,
      "Ġsignificance": 6740,
      "Ġpackaging": 6741,
      "Ġbrands": 6742,
      "Ġfairly": 6743,
      "Ġpregnancy": 6744,
      ",ĊĊ": 6745,
      "bra": 6746,
      "nger": 6747,
      "Ġtropical": 6748,
      "Ġdoctors": 6749,
      "ieves": 6750,
      "Ġpreval": 6751,
      "Ġunf": 6752,
      "ondon": 6753,
      "Ġmixing": 6754,
      "Ġverte": 6755,
      "Ġmenu": 6756,
      "88": 6757,
      "men": 6758,
      "Ġcable": 6759,
      "arge": 6760,
      "sts": 6761,
      "owns": 6762,
      "imental": 6763,
      "Ġitem": 6764,
      "Ġfemales": 6765,
      "Ġmissing": 6766,
      "Ġlifespan": 6767,
      "73": 6768,
      "74": 6769,
      "94": 6770,
      "rooms": 6771,
      "this": 6772,
      "Ġcomposed": 6773,
      "Ġkilled": 6774,
      "Ġknew": 6775,
      "Ġvector": 6776,
      "Ġultimately": 6777,
      "Ġflexible": 6778,
      "Ġcandid": 6779,
      "92": 6780,
      "Ġpests": 6781,
      "Ġexhaust": 6782,
      "Ġride": 6783,
      "reating": 6784,
      "ounced": 6785,
      "ometer": 6786,
      "Ġremoval": 6787,
      ".m": 6788,
      "bage": 6789,
      "oids": 6790,
      "Ġtheore": 6791,
      "Ġgentle": 6792,
      "Ġstated": 6793,
      "Ġgrand": 6794,
      "Ġidentity": 6795,
      "onomic": 6796,
      "ĠInternet": 6797,
      "Ġcampa": 6798,
      "Ġwonderful": 6799,
      "Ġbowl": 6800,
      ";ĊĊ": 6801,
      "IR": 6802,
      "Ġbite": 6803,
      "icit": 6804,
      "Ġrear": 6805,
      "ĠMount": 6806,
      "ĠDist": 6807,
      "Ġcalls": 6808,
      "Ġresistant": 6809,
      "Ġnutrient": 6810,
      "Ġsuffering": 6811,
      "Ġpilot": 6812,
      "Ġsauce": 6813,
      "Ġmicrowave": 6814,
      "-T": 6815,
      "Rec": 6816,
      "Ġhun": 6817,
      "Ġlies": 6818,
      "irus": 6819,
      "amination": 6820,
      "ivest": 6821,
      "agers": 6822,
      "Ġminute": 6823,
      "-by": 6824,
      "Ġcircuits": 6825,
      "Ġobserve": 6826,
      "Ġrevealed": 6827,
      "Ġveterin": 6828,
      "Just": 6829,
      "Ġtables": 6830,
      "ĠTem": 6831,
      "iratory": 6832,
      "ĠMich": 6833,
      "Ġintense": 6834,
      "ĠGroup": 6835,
      "Ġcoral": 6836,
      "Ġbreaking": 6837,
      "Ġmeasuring": 6838,
      "Ġcalm": 6839,
      "Ġstanding": 6840,
      "Ġresponses": 6841,
      "Ġvulnerable": 6842,
      "heets": 6843,
      "erative": 6844,
      "Ġcrow": 6845,
      "Ġmer": 6846,
      "icted": 6847,
      "eless": 6848,
      "Ġletters": 6849,
      "Ġera": 6850,
      "Ġperfectly": 6851,
      "Ġhabitats": 6852,
      "ĠÂ·": 6853,
      "Ġtrouble": 6854,
      "Ġcaught": 6855,
      "ounce": 6856,
      "Ġnorthern": 6857,
      "Ġyounger": 6858,
      "Ġcomments": 6859,
      "illa": 6860,
      "Ġadvert": 6861,
      "Ġgenome": 6862,
      "efits": 6863,
      "Ġcreativity": 6864,
      "Ġconsumer": 6865,
      "Ġaffecting": 6866,
      "Ġvolunte": 6867,
      "-P": 6868,
      ".F": 6869,
      "93": 6870,
      "Ġsch": 6871,
      "Ġcivil": 6872,
      "ading": 6873,
      "ĠPress": 6874,
      "aped": 6875,
      "Ġproven": 6876,
      "Ġprocessed": 6877,
      "Ġinspect": 6878,
      "ĠWeb": 6879,
      "ditional": 6880,
      "Ġnearby": 6881,
      "reshold": 6882,
      "ĠHuman": 6883,
      "59": 6884,
      "MP": 6885,
      "Ġske": 6886,
      "Ġsac": 6887,
      "atric": 6888,
      "rots": 6889,
      "Ġreached": 6890,
      "Ġoccurred": 6891,
      "Ġgradually": 6892,
      "ĠArabia": 6893,
      "ĠEnvironmental": 6894,
      "rapeut": 6895,
      "Ġ...ĊĊ": 6896,
      "eling": 6897,
      "Ġran": 6898,
      "soft": 6899,
      "Ġtrials": 6900,
      "Ġgrid": 6901,
      "ĠSpace": 6902,
      "Ġselecting": 6903,
      "while": 6904,
      "Ġassistance": 6905,
      "ĠProfessor": 6906,
      "Ġcolleagues": 6907,
      "ioxid": 6908,
      "/d": 6909,
      "82": 6910,
      "Ġtension": 6911,
      "itness": 6912,
      "asm": 6913,
      "ĠAND": 6914,
      "Ġchances": 6915,
      "ĠFind": 6916,
      "Ġspark": 6917,
      "Ġmolecule": 6918,
      "ĠCentral": 6919,
      "ĠAvoid": 6920,
      "ĠChemistry": 6921,
      "ĠFurthermore": 6922,
      "Don": 6923,
      "LC": 6924,
      "cript": 6925,
      "Ġid": 6926,
      "Ġbub": 6927,
      "alian": 6928,
      "Ġmales": 6929,
      "Ġease": 6930,
      "ĠPM": 6931,
      "rying": 6932,
      "Ġvalve": 6933,
      "Ġshowc": 6934,
      "Ġobjective": 6935,
      "Ġlistening": 6936,
      "ĠCommon": 6937,
      "Ġimmediate": 6938,
      "Ġsuffer": 6939,
      "67": 6940,
      "AG": 6941,
      "Ġsan": 6942,
      "Ġdense": 6943,
      "ĠSl": 6944,
      "iber": 6945,
      "Ġintric": 6946,
      "ĠOF": 6947,
      "ĠInf": 6948,
      "Ġdiagram": 6949,
      "Ġlarv": 6950,
      "Ġentertain": 6951,
      "ĠAgricult": 6952,
      "Ġconclud": 6953,
      "Ġathlet": 6954,
      "##": 6955,
      "Ġcoun": 6956,
      "roph": 6957,
      "Ġheated": 6958,
      "ĠWashing": 6959,
      "ĠMiddle": 6960,
      "Ġarms": 6961,
      "ĠJournal": 6962,
      "Ġhealthier": 6963,
      "ritis": 6964,
      "Ġnetworks": 6965,
      "Ġmoon": 6966,
      "Ġfunds": 6967,
      "ĠMedical": 6968,
      "Ġlogic": 6969,
      "Ġmammals": 6970,
      "Ġmine": 6971,
      "Ġbeef": 6972,
      "ĠTer": 6973,
      "Ġintensity": 6974,
      "ĠStand": 6975,
      "Ġpharm": 6976,
      "Ġgrains": 6977,
      "Ġengagement": 6978,
      "lessly": 6979,
      "Ġaquarium": 6980,
      "Ġecosystems": 6981,
      "Ġevolved": 6982,
      "Ġcomplicated": 6983,
      "ĠDavid": 6984,
      "pm": 6985,
      "rink": 6986,
      "athy": 6987,
      "Ġpod": 6988,
      "ĠSometimes": 6989,
      "istant": 6990,
      "Ġenzym": 6991,
      "Ġwilling": 6992,
      "Ġteen": 6993,
      "Ġmanual": 6994,
      "Ġappoint": 6995,
      "Ġsubs": 6996,
      "ĠWhite": 6997,
      "Ġguarant": 6998,
      "Ġgran": 6999,
      "Ġdirector": 7000,
      "Ġcrack": 7001,
      "Ġpersonalized": 7002,
      "Ġintegrated": 7003,
      "ĠWestern": 7004,
      "Ġsessions": 7005,
      "Ġsoph": 7006,
      "Ġcognitive": 7007,
      "Ġholid": 7008,
      "Ġcompound": 7009,
      "Ġresol": 7010,
      "Ġrecipes": 7011,
      "Ġsubstr": 7012,
      "Ġphilos": 7013,
      "Ġbask": 7014,
      "Ġcattle": 7015,
      "Ġsitting": 7016,
      "Ġcompetitive": 7017,
      "Ġvitamins": 7018,
      "Ġsynthetic": 7019,
      "76": 7020,
      "87": 7021,
      "itter": 7022,
      "ette": 7023,
      "Ġalk": 7024,
      "ĠBro": 7025,
      "Ġrating": 7026,
      "Ġperforming": 7027,
      "coming": 7028,
      "Ġexistence": 7029,
      "ĠService": 7030,
      ")||": 7031,
      "AF": 7032,
      "such": 7033,
      "win": 7034,
      "edom": 7035,
      "Ġrect": 7036,
      "Ġnarrow": 7037,
      "oline": 7038,
      "Ġstorm": 7039,
      "ĠMill": 7040,
      "Ġunw": 7041,
      "Ġunex": 7042,
      "Ġuniform": 7043,
      "Ġcolon": 7044,
      "Ġtraits": 7045,
      "Ġcoating": 7046,
      "Ġassume": 7047,
      "Ġextent": 7048,
      "Ġphosph": 7049,
      "Ġavailability": 7050,
      "ĠShould": 7051,
      "Ġdietary": 7052,
      "Ġtells": 7053,
      "Ġexhibit": 7054,
      "Ġflavors": 7055,
      "OW": 7056,
      "Ġtack": 7057,
      "Ġdried": 7058,
      "ĠMuseum": 7059,
      "Ġcontem": 7060,
      "Ġmanaged": 7061,
      "Ġcris": 7062,
      "Ġpenet": 7063,
      "ĠRegular": 7064,
      "Ġdivision": 7065,
      "Ġeliminate": 7066,
      "Ġsediment": 7067,
      "Ġjewel": 7068,
      "CH": 7069,
      "Even": 7070,
      "comp": 7071,
      "Ġfalse": 7072,
      "icity": 7073,
      "rog": 7074,
      "ĠTor": 7075,
      "Ġstones": 7076,
      "ĠBudd": 7077,
      "ources": 7078,
      "ults": 7079,
      "Ġjoy": 7080,
      "rix": 7081,
      "obal": 7082,
      "Ġgravity": 7083,
      "Ġcorner": 7084,
      "Ġboil": 7085,
      "Ġdescribes": 7086,
      "Ġexperiencing": 7087,
      "ĠAcad": 7088,
      "ĠSecond": 7089,
      "Ġcircumstances": 7090,
      "LA": 7091,
      "Le": 7092,
      "oa": 7093,
      "under": 7094,
      "ini": 7095,
      "Ġeco": 7096,
      "ĠTop": 7097,
      "ĠCamp": 7098,
      "Ġvoc": 7099,
      "Ġcompat": 7100,
      "rub": 7101,
      "Ġpartner": 7102,
      "Ġexamine": 7103,
      "Ġessentially": 7104,
      "Ġcategory": 7105,
      "Ġversatile": 7106,
      "TP": 7107,
      "fast": 7108,
      "uis": 7109,
      "you": 7110,
      "ĪĴ": 7111,
      "utrition": 7112,
      "Ġstems": 7113,
      "eli": 7114,
      "ĠMal": 7115,
      "ĠHaw": 7116,
      "Ġsoy": 7117,
      "rian": 7118,
      "Ġspeaking": 7119,
      "Ġpaying": 7120,
      "Ġexpansion": 7121,
      "IP": 7122,
      "van": 7123,
      "Ġtape": 7124,
      "Ġbeach": 7125,
      "Ġprove": 7126,
      "ĠSil": 7127,
      "Ġimaging": 7128,
      "Ġkm": 7129,
      "ĠLondon": 7130,
      "ĠVe": 7131,
      "Ġimprovement": 7132,
      "Ġbringing": 7133,
      "Ġneighb": 7134,
      "Ġincredibly": 7135,
      "Ġassembly": 7136,
      "89": 7137,
      "Where": 7138,
      "rest": 7139,
      "Ġdim": 7140,
      "roid": 7141,
      "Ġyouth": 7142,
      "osc": 7143,
      "Ġrural": 7144,
      "outs": 7145,
      "anger": 7146,
      "Ġflash": 7147,
      "Ġregional": 7148,
      "ommod": 7149,
      "ĠAdv": 7150,
      "Ġstyles": 7151,
      "Che": 7152,
      "Ġtoys": 7153,
      "Ġthreshold": 7154,
      "Ġhop": 7155,
      "Ġreaching": 7156,
      "Ġconvert": 7157,
      "ĠPan": 7158,
      "Ġtele": 7159,
      "Ġourselves": 7160,
      "Ġcomplement": 7161,
      "Ġauto": 7162,
      "Ġleadership": 7163,
      "Ġsuscept": 7164,
      "forcement": 7165,
      "pecific": 7166,
      "ivestock": 7167,
      "OD": 7168,
      "Ġthrow": 7169,
      "utive": 7170,
      "Ġpersist": 7171,
      "Ġmarkets": 7172,
      "Ġheads": 7173,
      "Ġreceiving": 7174,
      "Ġcharacterized": 7175,
      "proof": 7176,
      "Ġdissol": 7177,
      "Ġthoroughly": 7178,
      "Ġcholesterol": 7179,
      "Ġapparatus": 7180,
      ",âĢĿ": 7181,
      "Red": 7182,
      "Ġpix": 7183,
      "ilation": 7184,
      "Ġdealing": 7185,
      "ĠMot": 7186,
      "ĠOpen": 7187,
      "Ġgenerations": 7188,
      "Ġpossibility": 7189,
      "Ġprevention": 7190,
      "Ġfocuses": 7191,
      "Ġcultures": 7192,
      "agnetic": 7193,
      "Ġmagnitude": 7194,
      "Ġregardless": 7195,
      "medi": 7196,
      "Ġfisher": 7197,
      "Ġlived": 7198,
      "ether": 7199,
      "Ġoptical": 7200,
      "Ġfertilizer": 7201,
      "Ġcotton": 7202,
      "Ġunderstood": 7203,
      "Because": 7204,
      "Ġtough": 7205,
      "inent": 7206,
      "Ġov": 7207,
      "Ġdeer": 7208,
      "Ġmanaging": 7209,
      "ressed": 7210,
      "Ġbridge": 7211,
      "Ġparticipate": 7212,
      "Ġanalyze": 7213,
      "Ġfrozen": 7214,
      "Ġnervous": 7215,
      "78": 7216,
      "ds": 7217,
      "gal": 7218,
      "Ġtons": 7219,
      "Ġsaving": 7220,
      "Ġshield": 7221,
      "Ġblind": 7222,
      "Ġmini": 7223,
      "Ġvet": 7224,
      "Ġadvoc": 7225,
      "Ġerrors": 7226,
      "UR": 7227,
      "iders": 7228,
      "ĠSn": 7229,
      "ĠBest": 7230,
      "Ġchat": 7231,
      "angered": 7232,
      "Ġvariables": 7233,
      "Ġleader": 7234,
      "ĠConf": 7235,
      "Ġattractive": 7236,
      "Ġjuice": 7237,
      "Ġadequate": 7238,
      "Ġcrisis": 7239,
      "-day": 7240,
      "BC": 7241,
      "gical": 7242,
      "otype": 7243,
      "ĠCur": 7244,
      "ĠCoun": 7245,
      "Ġhem": 7246,
      "ĠGovern": 7247,
      "Ġsoap": 7248,
      "Ġresil": 7249,
      "Ġpeak": 7250,
      "Ġbiom": 7251,
      "ĠNews": 7252,
      "Ġdemonstrated": 7253,
      "Ġsexual": 7254,
      "Ġfoam": 7255,
      "'.": 7256,
      "Sim": 7257,
      "UT": 7258,
      "pread": 7259,
      "Ġtone": 7260,
      "ingly": 7261,
      "orp": 7262,
      "Ġine": 7263,
      "Ġorch": 7264,
      "Ġranging": 7265,
      "ĠFollow": 7266,
      "ideo": 7267,
      "Ġincome": 7268,
      "Ġcolumn": 7269,
      "Ġvariations": 7270,
      "Ġforming": 7271,
      "Ġexplanation": 7272,
      "ĠThose": 7273,
      "Ġfatty": 7274,
      "Ġprecision": 7275,
      "Ġbabies": 7276,
      "Ġpreferred": 7277,
      "Ġincorporating": 7278,
      "Ġliterature": 7279,
      "Ġsession": 7280,
      "Ġmitig": 7281,
      "ĠMexico": 7282,
      "Ġhorizontal": 7283,
      "Ġempty": 7284,
      "-and": 7285,
      "gu": 7286,
      "etime": 7287,
      "ĠSal": 7288,
      "Ġsuit": 7289,
      "ĠBig": 7290,
      "Ġking": 7291,
      "Ġtraum": 7292,
      "althy": 7293,
      "atively": 7294,
      "Ġregist": 7295,
      "chnology": 7296,
      "Ġdecline": 7297,
      "Ġvariation": 7298,
      "ega": 7299,
      "Ġmeters": 7300,
      "Ġterrit": 7301,
      "Ġprotecting": 7302,
      "Ġwaiting": 7303,
      "Ġclimbing": 7304,
      "Ġdigestive": 7305,
      "-cl": 7306,
      ".G": 7307,
      "Ġ.Ċ": 7308,
      "Ġpun": 7309,
      "Ġlact": 7310,
      "rays": 7311,
      "amine": 7312,
      "ĠMart": 7313,
      "ĠFire": 7314,
      "berry": 7315,
      "Ġtrad": 7316,
      "Ġtreats": 7317,
      "Ġoriginally": 7318,
      "Ġsubstit": 7319,
      "ogenic": 7320,
      "Ġbags": 7321,
      "ĠPhotos": 7322,
      "izza": 7323,
      "zil": 7324,
      "ĠPaul": 7325,
      "rium": 7326,
      "Ġtwist": 7327,
      "Ġdrag": 7328,
      "Ġhyper": 7329,
      "Ġsensitivity": 7330,
      "Ġclaims": 7331,
      "zyme": 7332,
      "Ġfinger": 7333,
      "Ġduration": 7334,
      "Ġstead": 7335,
      "elly": 7336,
      "Ġdispl": 7337,
      "Ġdecay": 7338,
      "Ġartist": 7339,
      "Ġproductivity": 7340,
      "Ġinterests": 7341,
      "Ġconsumed": 7342,
      "Ġimplications": 7343,
      "Ġgraphics": 7344,
      "Ġreligious": 7345,
      "-ch": 7346,
      "Car": 7347,
      "EE": 7348,
      "Of": 7349,
      "iological": 7350,
      "kins": 7351,
      "Ġtomat": 7352,
      "ĠRich": 7353,
      "Ġaccomp": 7354,
      "cycl": 7355,
      "Ġtransmit": 7356,
      "ucks": 7357,
      "Ġrobots": 7358,
      "Ġdiamonds": 7359,
      "Ġrecommendations": 7360,
      "Ġnutritional": 7361,
      "Ġhousing": 7362,
      "Ġchromos": 7363,
      "nab": 7364,
      "za": 7365,
      "Ġwider": 7366,
      "Ġmood": 7367,
      "Ġham": 7368,
      "ĠMr": 7369,
      "Ġshipping": 7370,
      "Ġadhes": 7371,
      "Ġclock": 7372,
      "Ġprevents": 7373,
      "Ġspeeds": 7374,
      "Ġperce": 7375,
      "Ġshouldn": 7376,
      "rency": 7377,
      "Ġtempl": 7378,
      "Ġrespiratory": 7379,
      "Ġdrawn": 7380,
      "Ġantioxid": 7381,
      "Ġfacility": 7382,
      "Ġfibers": 7383,
      "Ġalternatives": 7384,
      "ASA": 7385,
      "Ġboxes": 7386,
      "gent": 7387,
      "rey": 7388,
      "Ġyard": 7389,
      "Ġgap": 7390,
      "Ġdeploy": 7391,
      "usiness": 7392,
      "ella": 7393,
      "Ġlargely": 7394,
      "Ġtruck": 7395,
      "Ġfuels": 7396,
      "Ġpollen": 7397,
      "Ġpackage": 7398,
      "Ġlaunch": 7399,
      "rosion": 7400,
      "Ġexpressed": 7401,
      "Ps": 7402,
      "SS": 7403,
      "hav": 7404,
      "Ġcake": 7405,
      "Ġpu": 7406,
      "Ġfract": 7407,
      "edge": 7408,
      "Ġgently": 7409,
      "amps": 7410,
      "ĠBay": 7411,
      "Ġplum": 7412,
      "Ġimper": 7413,
      "ĠGreek": 7414,
      "Ġblend": 7415,
      "ints": 7416,
      "Ġreaders": 7417,
      "ĠProper": 7418,
      "ĠProcess": 7419,
      "Ġdefect": 7420,
      "Ġspecialist": 7421,
      "Ġworkshop": 7422,
      "Ġstreet": 7423,
      "Ġneurons": 7424,
      "pers": 7425,
      "Ġmere": 7426,
      "Ġdial": 7427,
      "Ġwhales": 7428,
      "ĠFinally": 7429,
      "ĠEss": 7430,
      "Ġuniversity": 7431,
      "Ġsupposed": 7432,
      "Ġorganized": 7433,
      "Ġconfident": 7434,
      "Ġoccurring": 7435,
      "Ġdanger": 7436,
      "Ġcategories": 7437,
      "Ġchannels": 7438,
      "Ġpermanent": 7439,
      "ĠWashington": 7440,
      ".'": 7441,
      "EO": 7442,
      "],": 7443,
      "gien": 7444,
      "Ġsle": 7445,
      "Ġcred": 7446,
      "Ġwires": 7447,
      "Ġpy": 7448,
      "Ġpand": 7449,
      "asant": 7450,
      "Ġreaches": 7451,
      "Ġweap": 7452,
      "ĠBur": 7453,
      "Ġintest": 7454,
      "Ġrose": 7455,
      "ĠYear": 7456,
      "ĠJava": 7457,
      "Ġpositions": 7458,
      "Ġmodified": 7459,
      "Ġidentification": 7460,
      "Ġforeign": 7461,
      "Ġhimself": 7462,
      "Ġviews": 7463,
      "Ġinitially": 7464,
      "Ġimplementation": 7465,
      "Ġsplit": 7466,
      "Ġnavigate": 7467,
      "Ġwestern": 7468,
      "Ġframework": 7469,
      "Ġunusual": 7470,
      "Ġfif": 7471,
      "oral": 7472,
      "roc": 7473,
      "ude": 7474,
      "avy": 7475,
      "Ġparty": 7476,
      "Ġaccommod": 7477,
      "Ġaging": 7478,
      "Ġguard": 7479,
      "Ġgreatest": 7480,
      "Ġcombat": 7481,
      "Ġmarks": 7482,
      "Ġgardening": 7483,
      "ĠUSA": 7484,
      "Ġcovering": 7485,
      "Ġidentifying": 7486,
      "ĠFrance": 7487,
      "Ġdemonstrate": 7488,
      "rapeutic": 7489,
      "()": 7490,
      "(s": 7491,
      "Man": 7492,
      "Water": 7493,
      "cont": 7494,
      "rie": 7495,
      "Ġmand": 7496,
      "ĠMil": 7497,
      "ĠMem": 7498,
      "Ġshock": 7499,
      "Ġroles": 7500,
      "Ġtrial": 7501,
      "Ġcoop": 7502,
      "cknow": 7503,
      "cycle": 7504,
      "Ġcurriculum": 7505,
      "Ġequations": 7506,
      "Ġdelicate": 7507,
      "Ġerosion": 7508,
      "Ġrecognition": 7509,
      "Ġincorporate": 7510,
      "Ġmountain": 7511,
      "Ġspiritual": 7512,
      "eal": 7513,
      "Ġaward": 7514,
      "ndrome": 7515,
      "oted": 7516,
      "Ġfort": 7517,
      "ĠMass": 7518,
      "ĠFace": 7519,
      "Ġwatering": 7520,
      "Ġrising": 7521,
      "Ġpassing": 7522,
      "ĠPhil": 7523,
      "Ġenhancing": 7524,
      "Ġdocuments": 7525,
      "Ġaxis": 7526,
      "ĠDifferent": 7527,
      ".org": 7528,
      "wo": 7529,
      "ona": 7530,
      "struction": 7531,
      "Ġquiet": 7532,
      "Ġaccidents": 7533,
      "ĠVir": 7534,
      "Ġdecade": 7535,
      "ĠThanks": 7536,
      "Ġcombine": 7537,
      "Ġreviews": 7538,
      "Ġroute": 7539,
      "See": 7540,
      "ittle": 7541,
      "Ġpestic": 7542,
      "Ġfans": 7543,
      "Ġfav": 7544,
      "Ġbought": 7545,
      "Ġhur": 7546,
      "oto": 7547,
      "osh": 7548,
      "ĠMach": 7549,
      "berries": 7550,
      "taining": 7551,
      "Ġinstant": 7552,
      "Ġmelting": 7553,
      "ĠAustralian": 7554,
      "Ġchamber": 7555,
      "Ġ**": 7556,
      "Ġsoci": 7557,
      "ĠPot": 7558,
      "Ġleather": 7559,
      "Ġcoverage": 7560,
      "Ġbuck": 7561,
      "Ġdiscipl": 7562,
      "ĠMoreover": 7563,
      "Ġcalculated": 7564,
      "Ġconvenient": 7565,
      "Ġrestaurant": 7566,
      "-H": 7567,
      "Ġfant": 7568,
      "eterm": 7569,
      "Ġrough": 7570,
      "Ġunable": 7571,
      "Ġinvent": 7572,
      "Ġinstrum": 7573,
      "Ġpresents": 7574,
      "Ġhybrid": 7575,
      "aneously": 7576,
      "Ġmorph": 7577,
      "Ġpolymer": 7578,
      "Ġdrops": 7579,
      "ĠGermany": 7580,
      "Ġrecycling": 7581,
      "Ġdimensions": 7582,
      "Ġveterinarian": 7583,
      "Ġenzymes": 7584,
      "Tra": 7585,
      "band": 7586,
      "erior": 7587,
      "Ġpest": 7588,
      "Ġdrought": 7589,
      "ctu": 7590,
      "Ġlob": 7591,
      "ĠAM": 7592,
      "Ġproof": 7593,
      "heric": 7594,
      "Ġspending": 7595,
      "Ġapps": 7596,
      "Ġplanted": 7597,
      "idespread": 7598,
      "Ġguy": 7599,
      "Ġprofile": 7600,
      "Ġfocusing": 7601,
      "Ġlaun": 7602,
      "onna": 7603,
      "Ġsynthesis": 7604,
      "Ġdoubt": 7605,
      "Understanding": 7606,
      "83": 7607,
      "TA": 7608,
      "aj": 7609,
      "Ġwings": 7610,
      "Ġlighter": 7611,
      "ĠTre": 7612,
      "Ġstitch": 7613,
      "Ġstuck": 7614,
      "amily": 7615,
      "Ġexclus": 7616,
      "ĠPet": 7617,
      "Ġshorter": 7618,
      "ĠNon": 7619,
      "Ġdisrupt": 7620,
      "ĠUV": 7621,
      "Ġestimate": 7622,
      "ĠResp": 7623,
      "Ġcontributing": 7624,
      "Ġdegrad": 7625,
      "Ġextraction": 7626,
      "Ġfunding": 7627,
      "ĠTraining": 7628,
      "Ġsavings": 7629,
      "-shaped": 7630,
      "About": 7631,
      "bar": 7632,
      "rin": 7633,
      "Ġenerg": 7634,
      "uning": 7635,
      "ĠFarm": 7636,
      "Ġtrib": 7637,
      "ĠVis": 7638,
      "Ġcenters": 7639,
      "ĠAnim": 7640,
      "ĠAnimal": 7641,
      "Ġslide": 7642,
      "ĠExp": 7643,
      "Ġengineers": 7644,
      "Ġboundaries": 7645,
      "Ġbinocular": 7646,
      "oons": 7647,
      "Äģ": 7648,
      "Ġtent": 7649,
      "stit": 7650,
      "owered": 7651,
      "ĠPen": 7652,
      "ĠPal": 7653,
      "aren": 7654,
      "Ġdriven": 7655,
      "Ġflows": 7656,
      "Ġphotograp": 7657,
      "Ġassociation": 7658,
      "Ġglasses": 7659,
      "Ġdecreased": 7660,
      "-rich": 7661,
      "ĠFoundation": 7662,
      "/m": 7663,
      "Col": 7664,
      "SD": 7665,
      "night": 7666,
      "esium": 7667,
      "estation": 7668,
      "ĠCy": 7669,
      "Ġriding": 7670,
      "ĠFalse": 7671,
      "Ġbreaks": 7672,
      "Ġradi": 7673,
      "Ġsatell": 7674,
      "ĠNotes": 7675,
      "Ġgeomet": 7676,
      "Ġgolden": 7677,
      ".âĢĿ": 7678,
      "Com": 7679,
      "Ġwidespread": 7680,
      "itamin": 7681,
      "ĠSand": 7682,
      "ĠHol": 7683,
      "Ġcomprom": 7684,
      "ĠNote": 7685,
      "ĠNASA": 7686,
      "Ġdisappe": 7687,
      "ĠUN": 7688,
      "Ġamino": 7689,
      "Ġretail": 7690,
      "Ġversions": 7691,
      "Ġwarning": 7692,
      "Ġexcited": 7693,
      "Ġroads": 7694,
      "iotic": 7695,
      "Related": 7696,
      "-known": 7697,
      "??": 7698,
      "CN": 7699,
      "top": 7700,
      "ðŁ": 7701,
      "erally": 7702,
      "Ġselling": 7703,
      "Ġnor": 7704,
      "etch": 7705,
      "Ġstunning": 7706,
      "ĠSing": 7707,
      "ĠSolar": 7708,
      "Ġaluminum": 7709,
      "Ġsections": 7710,
      "Ġchip": 7711,
      "Ġtheme": 7712,
      "Ġunknown": 7713,
      "Ġgenetics": 7714,
      "ĠJames": 7715,
      "Ġformal": 7716,
      "Ġpreserve": 7717,
      "certain": 7718,
      "Ġappeal": 7719,
      "Ġenhanced": 7720,
      "Ġobservations": 7721,
      "Ġrotation": 7722,
      "Ġphenomenon": 7723,
      "mble": 7724,
      "Ġtire": 7725,
      "rem": 7726,
      "reens": 7727,
      "Ġgift": 7728,
      "mented": 7729,
      "lder": 7730,
      "Ġrelation": 7731,
      "Ġopened": 7732,
      "anguages": 7733,
      "Ġfalls": 7734,
      "ĠMaybe": 7735,
      "Ġelectronics": 7736,
      "Ġgirls": 7737,
      "bu": 7738,
      "aning": 7739,
      "Ġinver": 7740,
      "Ġlosing": 7741,
      "Ġgiant": 7742,
      "Ġstack": 7743,
      "adian": 7744,
      "Ġvill": 7745,
      "Ġrust": 7746,
      "ĠFish": 7747,
      "ĠRad": 7748,
      "ĠNE": 7749,
      "Ġacting": 7750,
      "Ġpopularity": 7751,
      "Ġindicated": 7752,
      "Ġtargeted": 7753,
      "Ġstimul": 7754,
      "Ġaggressive": 7755,
      "ĠCreate": 7756,
      "Ġinstitutions": 7757,
      "Ġgaming": 7758,
      "ithium": 7759,
      "ĠDogs": 7760,
      "Ġrecover": 7761,
      "Ġemit": 7762,
      "Ġdetected": 7763,
      "Ġgrams": 7764,
      "Ġdelight": 7765,
      "Ġsalmon": 7766,
      "Ġachieving": 7767,
      "Ġoxid": 7768,
      "Ġcarrying": 7769,
      "Ġlimitations": 7770,
      "ĠĠĠĠ": 7771,
      "Ġastron": 7772,
      "Ġconversation": 7773,
      "Ġallergies": 7774,
      "Ġneighbor": 7775,
      "Ġfost": 7776,
      "lear": 7777,
      "ili": 7778,
      "ĠTrue": 7779,
      "thritis": 7780,
      "ĠBal": 7781,
      "ĠDigital": 7782,
      "ostic": 7783,
      "ĠLow": 7784,
      "Ġcontents": 7785,
      "Ġapple": 7786,
      "ĠStar": 7787,
      "othing": 7788,
      "Ġregulation": 7789,
      "Ġphr": 7790,
      "Ġcharged": 7791,
      "Ġcenturies": 7792,
      "ĠPlace": 7793,
      "Ġzinc": 7794,
      "Ġfarms": 7795,
      "Ġpreparing": 7796,
      "Ġseparated": 7797,
      "Ġquantity": 7798,
      "ĠGeneral": 7799,
      "Ġpriorit": 7800,
      "ĠPhysics": 7801,
      "Ġmathematical": 7802,
      "Sm": 7803,
      "lation": 7804,
      "Ġom": 7805,
      "Ġpip": 7806,
      "Ġpipes": 7807,
      "Ġmeth": 7808,
      "icide": 7809,
      "ĠDid": 7810,
      "unge": 7811,
      "Ġworms": 7812,
      "apse": 7813,
      "plete": 7814,
      "ĠKore": 7815,
      "Ġmoderate": 7816,
      "Ġcorpor": 7817,
      "ĠConn": 7818,
      "Ġcomplexity": 7819,
      "aska": 7820,
      "Ġcalculate": 7821,
      "Ġinspired": 7822,
      "ĠBrazil": 7823,
      "79": 7824,
      "Am": 7825,
      "Have": 7826,
      "Ġcow": 7827,
      "ĠAD": 7828,
      "Ġstrict": 7829,
      "Ġanch": 7830,
      "Ġexists": 7831,
      "ĠHy": 7832,
      "ĠNext": 7833,
      "onday": 7834,
      "weet": 7835,
      "oving": 7836,
      "Ġinsulin": 7837,
      "ĠProv": 7838,
      "Ġcircle": 7839,
      "ĠReview": 7840,
      "Ġcharacteristic": 7841,
      "Ġprinted": 7842,
      "Ġwebsites": 7843,
      "-level": 7844,
      "\"Ċ": 7845,
      ".A": 7846,
      "Pr": 7847,
      "iking": 7848,
      "inction": 7849,
      "reet": 7850,
      "ĠType": 7851,
      "Ġants": 7852,
      "Ġdesire": 7853,
      "Ġflies": 7854,
      "Ġprone": 7855,
      "Ġtreating": 7856,
      "Ġmessages": 7857,
      "Ġlungs": 7858,
      "Ġorientation": 7859,
      "-scale": 7860,
      "May": 7861,
      "bell": 7862,
      "ih": 7863,
      "rument": 7864,
      "à¥": 7865,
      "ĠÃ": 7866,
      "heast": 7867,
      "Ġwast": 7868,
      "Ġwax": 7869,
      "Ġpapers": 7870,
      "Ġenzyme": 7871,
      "ĠEnd": 7872,
      "Ġupg": 7873,
      "ĠâĢĺ": 7874,
      "Ġinsight": 7875,
      "ools": 7876,
      "rolog": 7877,
      "Ġpossibilities": 7878,
      "Ġcirculation": 7879,
      "Ġinvolving": 7880,
      "Ġfreedom": 7881,
      "Ġstrongly": 7882,
      "Which": 7883,
      "riction": 7884,
      "Ġexceptional": 7885,
      "Ġrepeated": 7886,
      "Ġhazard": 7887,
      "Ġdiesel": 7888,
      "abulary": 7889,
      "Ġunexpected": 7890,
      "\"I": 7891,
      "list": 7892,
      "pact": 7893,
      "ita": 7894,
      "oust": 7895,
      "Ġdolph": 7896,
      "Ġlivestock": 7897,
      "ĠAR": 7898,
      "Ġongoing": 7899,
      "ĠDown": 7900,
      "Ġtech": 7901,
      "Ġscript": 7902,
      "Ġpepper": 7903,
      "ĠChoose": 7904,
      "Ġinstrument": 7905,
      "Ġmeter": 7906,
      "Ġsafer": 7907,
      "Ġreplacing": 7908,
      "ĠAmazon": 7909,
      "Ġcitiz": 7910,
      "Ġoverwhel": 7911,
      "OM": 7912,
      "kers": 7913,
      "lig": 7914,
      "rane": 7915,
      "Ġwing": 7916,
      "Ġgroom": 7917,
      "Ġbeet": 7918,
      "Ġstabil": 7919,
      "ĠDog": 7920,
      "ĠFin": 7921,
      "action": 7922,
      "Ġworn": 7923,
      "ĠList": 7924,
      "Ġmanif": 7925,
      "luding": 7926,
      "Ġagent": 7927,
      "Ġsimult": 7928,
      "Ġscientist": 7929,
      "ĠQuestions": 7930,
      "vantages": 7931,
      "Ġhormone": 7932,
      "ĠSafety": 7933,
      "Ġyeast": 7934,
      "ju": 7935,
      "lied": 7936,
      "oil": 7937,
      "sor": 7938,
      "Â®": 7939,
      "Ġepid": 7940,
      "Ġlip": 7941,
      "Ġlux": 7942,
      "omal": 7943,
      "ceans": 7944,
      "ĠAlex": 7945,
      "Ġneural": 7946,
      "rous": 7947,
      "Ġsomewhere": 7948,
      "Ġtract": 7949,
      "Ġprotocol": 7950,
      "Ġguys": 7951,
      "Ġpersonality": 7952,
      "Ġmarked": 7953,
      "Ġconsideration": 7954,
      "Ġtotally": 7955,
      "Ġtargets": 7956,
      "Ġurine": 7957,
      "Ġrubber": 7958,
      "Ġantibiotics": 7959,
      "Ġfederal": 7960,
      "Ġduct": 7961,
      "ĠEngineering": 7962,
      "ongevity": 7963,
      "-a": 7964,
      "iam": 7965,
      "Ġsink": 7966,
      "Ġodd": 7967,
      "aria": 7968,
      "icon": 7969,
      "icular": 7970,
      "ĠSocial": 7971,
      "ĠMult": 7972,
      "ĠBack": 7973,
      "Ġsched": 7974,
      "text": 7975,
      "Ġstrengthen": 7976,
      "Ġemployed": 7977,
      "Ġutilized": 7978,
      "Ġthickness": 7979,
      "Ġethical": 7980,
      "ĠSimilar": 7981,
      "Ġshooting": 7982,
      "Ġbuffer": 7983,
      "Aut": 7984,
      "Ġcub": 7985,
      "Ġpaste": 7986,
      "Ġfats": 7987,
      "alog": 7988,
      "Ġmouse": 7989,
      "ĠSuch": 7990,
      "ĠLaw": 7991,
      "Ġrelief": 7992,
      "ĠSciences": 7993,
      "Ġvegetation": 7994,
      "Ġheavily": 7995,
      "imensional": 7996,
      "Ġpregnant": 7997,
      "Ġstruggle": 7998,
      "otherapy": 7999,
      "CD": 8000,
      "Ġaids": 8001,
      "icul": 8002,
      "Ġgast": 8003,
      "ĠIdent": 8004,
      "ĠPublic": 8005,
      "aret": 8006,
      "Ġpeer": 8007,
      "riting": 8008,
      "Ġcleaner": 8009,
      "Ġlift": 8010,
      "itudes": 8011,
      "Ġintelligent": 8012,
      "Ġobviously": 8013,
      "ĠWindows": 8014,
      "GB": 8015,
      "Sum": 8016,
      "ao": 8017,
      "Ġfing": 8018,
      "oured": 8019,
      "roat": 8020,
      "Ġnarr": 8021,
      "ĠSpecial": 8022,
      "Ġoutcome": 8023,
      "Ġinvention": 8024,
      "Ġfunctionality": 8025,
      "Ġpurchasing": 8026,
      "Ġbulbs": 8027,
      "Ġconversion": 8028,
      "ĠCommunity": 8029,
      "Ġwelding": 8030,
      "Ġremarkable": 8031,
      "Main": 8032,
      "car": 8033,
      "Ġaf": 8034,
      "reated": 8035,
      "anish": 8036,
      "ĠTO": 8037,
      "Ġkg": 8038,
      "ĠLess": 8039,
      "ĠLead": 8040,
      "ĠLabor": 8041,
      "inds": 8042,
      "bert": 8043,
      "Ġvolcan": 8044,
      "Ġcircular": 8045,
      "Ġviruses": 8046,
      "Ġintegration": 8047,
      "Ġfootprint": 8048,
      "She": 8049,
      "Ġbrows": 8050,
      "asters": 8051,
      "Ġrent": 8052,
      "ruit": 8053,
      "Ġthereby": 8054,
      "engu": 8055,
      "Ġadvis": 8056,
      "âĢĻre": 8057,
      "Ġoils": 8058,
      "Ġembod": 8059,
      "Ġbehavioral": 8060,
      "Expl": 8061,
      "Ġnucleus": 8062,
      "Ġinvestigate": 8063,
      "Ġsymbols": 8064,
      "ĠSuper": 8065,
      "Ġdollars": 8066,
      "$$": 8067,
      "-N": 8068,
      "SC": 8069,
      "oin": 8070,
      "Ġpra": 8071,
      "Ġlamp": 8072,
      "ĠMor": 8073,
      "ĠDiv": 8074,
      "Ġplacing": 8075,
      "Ġusual": 8076,
      "ipal": 8077,
      "Ġwhenever": 8078,
      "Ġspecified": 8079,
      "atures": 8080,
      "Ġagents": 8081,
      "oved": 8082,
      "owners": 8083,
      "Ġhygien": 8084,
      "Ġposts": 8085,
      "Ġseemed": 8086,
      "Ġalgae": 8087,
      "Ġgears": 8088,
      "working": 8089,
      "Per": 8090,
      "UL": 8091,
      "rich": 8092,
      "Ġeast": 8093,
      "omer": 8094,
      "ĠID": 8095,
      "Ġalarm": 8096,
      "emia": 8097,
      "ĠHand": 8098,
      "Ġsole": 8099,
      "Ġperception": 8100,
      "ĠJe": 8101,
      "obile": 8102,
      "Ġsurve": 8103,
      "Ġcorrel": 8104,
      "Ġsensory": 8105,
      "Ġwarmer": 8106,
      "Ġbarrier": 8107,
      "Ġabsolutely": 8108,
      "Ġfeathers": 8109,
      "Ġlarvae": 8110,
      "%,": 8111,
      "Fe": 8112,
      "ML": 8113,
      "Ġow": 8114,
      "Ġwife": 8115,
      "Ġbark": 8116,
      "Ġhurt": 8117,
      "etal": 8118,
      "ĠAL": 8119,
      "ĠIT": 8120,
      "ĠDisc": 8121,
      "Ġplastics": 8122,
      "Ġindeed": 8123,
      "Ġabsence": 8124,
      "Add": 8125,
      "Ġimplemented": 8126,
      "Ġaffordable": 8127,
      "Ġadventure": 8128,
      "Ġaccomplish": 8129,
      "Ġconflict": 8130,
      "Ġsenior": 8131,
      "Ġbidet": 8132,
      "IA": 8133,
      "Mod": 8134,
      "Well": 8135,
      "awn": 8136,
      "uce": 8137,
      "Ġtag": 8138,
      "aters": 8139,
      "Ġpit": 8140,
      "adder": 8141,
      "Ġexceed": 8142,
      "Ġabuse": 8143,
      "lectric": 8144,
      "Ġcoil": 8145,
      "Ġprocessor": 8146,
      "Ġresulted": 8147,
      "Ġdefault": 8148,
      "ushing": 8149,
      "Any": 8150,
      "eeding": 8151,
      "ĠPhoto": 8152,
      "Art": 8153,
      "Ġincredible": 8154,
      "Ġculinary": 8155,
      "cence": 8156,
      "gra": 8157,
      "Ġton": 8158,
      "onia": 8159,
      "ĠTips": 8160,
      "olars": 8161,
      "ĠMP": 8162,
      "ĠHor": 8163,
      "ĠFlow": 8164,
      "ĠNor": 8165,
      "ĠLou": 8166,
      "ubric": 8167,
      "Ġchildhood": 8168,
      "Ġenvironmentally": 8169,
      "ĠExcel": 8170,
      "Ġfluores": 8171,
      "Ġvisitors": 8172,
      "Ġcontrolling": 8173,
      "Ġevolutionary": 8174,
      "Ġoutdoors": 8175,
      "Ġhonest": 8176,
      "-off": 8177,
      "Note": 8178,
      "eath": 8179,
      "hal": 8180,
      "iage": 8181,
      "Ġcer": 8182,
      "Ġpond": 8183,
      "Ġmuseum": 8184,
      "lete": 8185,
      "estone": 8186,
      "Ġvine": 8187,
      "ĠBab": 8188,
      "ĠFour": 8189,
      "Ġabnormal": 8190,
      "Ġdischarge": 8191
    },
    "merges": [
      [
        "Ġ",
        "t"
      ],
      [
        "Ġ",
        "a"
      ],
      [
        "i",
        "n"
      ],
      [
        "h",
        "e"
      ],
      [
        "r",
        "e"
      ],
      [
        "o",
        "n"
      ],
      [
        "Ġt",
        "he"
      ],
      [
        "e",
        "r"
      ],
      [
        "Ġ",
        "s"
      ],
      [
        "a",
        "t"
      ],
      [
        "Ġ",
        "c"
      ],
      [
        "Ġ",
        "o"
      ],
      [
        "e",
        "s"
      ],
      [
        "e",
        "n"
      ],
      [
        "Ġ",
        "w"
      ],
      [
        "n",
        "d"
      ],
      [
        "i",
        "t"
      ],
      [
        "in",
        "g"
      ],
      [
        "i",
        "s"
      ],
      [
        "Ġ",
        "p"
      ],
      [
        "Ġ",
        "f"
      ],
      [
        "o",
        "r"
      ],
      [
        "Ġ",
        "b"
      ],
      [
        "o",
        "u"
      ],
      [
        "a",
        "l"
      ],
      [
        "a",
        "n"
      ],
      [
        "Ġ",
        "m"
      ],
      [
        "e",
        "d"
      ],
      [
        "Ġt",
        "o"
      ],
      [
        "Ġ",
        "in"
      ],
      [
        "Ġo",
        "f"
      ],
      [
        "a",
        "r"
      ],
      [
        "Ġa",
        "nd"
      ],
      [
        "Ġ",
        "d"
      ],
      [
        "i",
        "c"
      ],
      [
        "i",
        "on"
      ],
      [
        "l",
        "e"
      ],
      [
        "r",
        "o"
      ],
      [
        "a",
        "s"
      ],
      [
        "Ġt",
        "h"
      ],
      [
        "Ġ",
        "h"
      ],
      [
        "c",
        "t"
      ],
      [
        "en",
        "t"
      ],
      [
        "Ġ",
        "e"
      ],
      [
        "Ġ",
        "l"
      ],
      [
        "v",
        "e"
      ],
      [
        "i",
        "l"
      ],
      [
        "Ġ",
        "re"
      ],
      [
        "o",
        "m"
      ],
      [
        "s",
        "t"
      ],
      [
        "Ġ",
        "is"
      ],
      [
        ".",
        "Ċ"
      ],
      [
        "Ġ",
        "n"
      ],
      [
        "Ġ",
        "y"
      ],
      [
        "e",
        "t"
      ],
      [
        "l",
        "y"
      ],
      [
        "Ġ",
        "g"
      ],
      [
        "Ġy",
        "ou"
      ],
      [
        "o",
        "w"
      ],
      [
        "Ġb",
        "e"
      ],
      [
        "s",
        "e"
      ],
      [
        "Ġ",
        "T"
      ],
      [
        "u",
        "t"
      ],
      [
        "i",
        "m"
      ],
      [
        "o",
        "t"
      ],
      [
        "i",
        "d"
      ],
      [
        "o",
        "l"
      ],
      [
        "c",
        "e"
      ],
      [
        "i",
        "g"
      ],
      [
        "r",
        "a"
      ],
      [
        "Ġ",
        "u"
      ],
      [
        "Ġf",
        "or"
      ],
      [
        "c",
        "h"
      ],
      [
        "Ġ",
        "A"
      ],
      [
        "at",
        "ion"
      ],
      [
        "u",
        "r"
      ],
      [
        "Ġs",
        "t"
      ],
      [
        "Ġ",
        "on"
      ],
      [
        "Ġ",
        "I"
      ],
      [
        "Ġth",
        "at"
      ],
      [
        "i",
        "r"
      ],
      [
        "v",
        "er"
      ],
      [
        "Ġa",
        "re"
      ],
      [
        "Ġ",
        "it"
      ],
      [
        "a",
        "y"
      ],
      [
        "e",
        "l"
      ],
      [
        "u",
        "l"
      ],
      [
        "it",
        "h"
      ],
      [
        "Ġp",
        "ro"
      ],
      [
        "i",
        "f"
      ],
      [
        "a",
        "m"
      ],
      [
        "Ġw",
        "ith"
      ],
      [
        "Ġ",
        "S"
      ],
      [
        "Ġa",
        "n"
      ],
      [
        ".Ċ",
        "Ċ"
      ],
      [
        "Ġo",
        "r"
      ],
      [
        "Ġa",
        "s"
      ],
      [
        "Ġc",
        "on"
      ],
      [
        "es",
        "t"
      ],
      [
        "Ġa",
        "l"
      ],
      [
        "o",
        "d"
      ],
      [
        "Ċ",
        "Ċ"
      ],
      [
        "Ġ",
        "C"
      ],
      [
        "a",
        "d"
      ],
      [
        "he",
        "r"
      ],
      [
        "k",
        "e"
      ],
      [
        "t",
        "er"
      ],
      [
        "Ġw",
        "h"
      ],
      [
        "Ġc",
        "an"
      ],
      [
        "g",
        "e"
      ],
      [
        "u",
        "re"
      ],
      [
        "ĠT",
        "he"
      ],
      [
        "at",
        "e"
      ],
      [
        "Ġh",
        "a"
      ],
      [
        "Ġc",
        "om"
      ],
      [
        "es",
        "s"
      ],
      [
        "il",
        "l"
      ],
      [
        "Ġe",
        "x"
      ],
      [
        "u",
        "m"
      ],
      [
        "Ġ",
        "he"
      ],
      [
        "er",
        "s"
      ],
      [
        "a",
        "b"
      ],
      [
        "Ġ",
        "W"
      ],
      [
        "o",
        "re"
      ],
      [
        "an",
        "t"
      ],
      [
        "p",
        "e"
      ],
      [
        "q",
        "u"
      ],
      [
        "ig",
        "h"
      ],
      [
        "e",
        "m"
      ],
      [
        "'",
        "s"
      ],
      [
        "t",
        "h"
      ],
      [
        "i",
        "ve"
      ],
      [
        "Ġyou",
        "r"
      ],
      [
        "Ġw",
        "e"
      ],
      [
        "a",
        "in"
      ],
      [
        "m",
        "ent"
      ],
      [
        "Ġs",
        "u"
      ],
      [
        "i",
        "es"
      ],
      [
        "o",
        "p"
      ],
      [
        "Ġ",
        "("
      ],
      [
        "a",
        "c"
      ],
      [
        "Ġ",
        "v"
      ],
      [
        "it",
        "y"
      ],
      [
        "Ġd",
        "e"
      ],
      [
        "is",
        "t"
      ],
      [
        "o",
        "s"
      ],
      [
        "Ġ",
        "P"
      ],
      [
        "u",
        "s"
      ],
      [
        "ro",
        "m"
      ],
      [
        "Ġs",
        "e"
      ],
      [
        "Ġ",
        "M"
      ],
      [
        "l",
        "d"
      ],
      [
        "Ġ",
        "B"
      ],
      [
        "Ġn",
        "e"
      ],
      [
        "p",
        "p"
      ],
      [
        "Ġ",
        "en"
      ],
      [
        "n",
        "t"
      ],
      [
        "Ġc",
        "h"
      ],
      [
        "Ġ",
        "r"
      ],
      [
        "Ġa",
        "t"
      ],
      [
        "e",
        "ct"
      ],
      [
        "i",
        "al"
      ],
      [
        "Ġf",
        "rom"
      ],
      [
        "Ġs",
        "h"
      ],
      [
        "i",
        "v"
      ],
      [
        "Ġha",
        "ve"
      ],
      [
        "or",
        "t"
      ],
      [
        "igh",
        "t"
      ],
      [
        "o",
        "c"
      ],
      [
        "Ġ",
        "le"
      ],
      [
        "Ġ",
        "D"
      ],
      [
        "o",
        "g"
      ],
      [
        "re",
        "s"
      ],
      [
        "Ġb",
        "y"
      ],
      [
        "Ġ",
        "H"
      ],
      [
        "u",
        "d"
      ],
      [
        "u",
        "n"
      ],
      [
        "a",
        "nd"
      ],
      [
        "Ġn",
        "ot"
      ],
      [
        "Ġp",
        "l"
      ],
      [
        "p",
        "er"
      ],
      [
        "ar",
        "t"
      ],
      [
        "Ġu",
        "s"
      ],
      [
        "al",
        "l"
      ],
      [
        "ic",
        "al"
      ],
      [
        "Ġ",
        "F"
      ],
      [
        "d",
        "u"
      ],
      [
        "Ġth",
        "is"
      ],
      [
        "om",
        "e"
      ],
      [
        "i",
        "b"
      ],
      [
        "id",
        "e"
      ],
      [
        "r",
        "ou"
      ],
      [
        "a",
        "ct"
      ],
      [
        "Ġa",
        "b"
      ],
      [
        "in",
        "e"
      ],
      [
        "o",
        "st"
      ],
      [
        "Ġm",
        "a"
      ],
      [
        "n",
        "s"
      ],
      [
        "el",
        "l"
      ],
      [
        "ou",
        "ld"
      ],
      [
        "Ġ",
        "E"
      ],
      [
        "ou",
        "t"
      ],
      [
        "p",
        "t"
      ],
      [
        "Ġ",
        "im"
      ],
      [
        "Ġ",
        "R"
      ],
      [
        "ion",
        "s"
      ],
      [
        "â",
        "Ģ"
      ],
      [
        "Ġd",
        "o"
      ],
      [
        "i",
        "z"
      ],
      [
        "Ġw",
        "he"
      ],
      [
        "u",
        "st"
      ],
      [
        "Ġcom",
        "p"
      ],
      [
        "ar",
        "d"
      ],
      [
        "e",
        "re"
      ],
      [
        "f",
        "f"
      ],
      [
        "ic",
        "h"
      ],
      [
        "Ġw",
        "ill"
      ],
      [
        "as",
        "t"
      ],
      [
        "Ġin",
        "t"
      ],
      [
        "Ġw",
        "or"
      ],
      [
        "ou",
        "r"
      ],
      [
        "o",
        "od"
      ],
      [
        "Ġthe",
        "y"
      ],
      [
        "a",
        "ge"
      ],
      [
        "Ġthe",
        "ir"
      ],
      [
        "g",
        "h"
      ],
      [
        "Ġ",
        "k"
      ],
      [
        "t",
        "her"
      ],
      [
        "at",
        "er"
      ],
      [
        "p",
        "l"
      ],
      [
        "Ġ",
        "N"
      ],
      [
        "k",
        "ing"
      ],
      [
        "Ġa",
        "d"
      ],
      [
        "T",
        "he"
      ],
      [
        "Ġw",
        "as"
      ],
      [
        "a",
        "re"
      ],
      [
        "Ġal",
        "l"
      ],
      [
        "at",
        "ed"
      ],
      [
        "Ġm",
        "ore"
      ],
      [
        "Ġ",
        "L"
      ],
      [
        "ab",
        "le"
      ],
      [
        "Ġ",
        "G"
      ],
      [
        "a",
        "g"
      ],
      [
        "i",
        "p"
      ],
      [
        "en",
        "d"
      ],
      [
        "Ġcon",
        "t"
      ],
      [
        "h",
        "at"
      ],
      [
        "o",
        "o"
      ],
      [
        "Ġm",
        "e"
      ],
      [
        "an",
        "s"
      ],
      [
        "Ġb",
        "ut"
      ],
      [
        "al",
        "ly"
      ],
      [
        "Ġ",
        "O"
      ],
      [
        "k",
        "s"
      ],
      [
        "Ġs",
        "o"
      ],
      [
        "i",
        "ke"
      ],
      [
        "s",
        "o"
      ],
      [
        "w",
        "er"
      ],
      [
        "ou",
        "s"
      ],
      [
        "ul",
        "t"
      ],
      [
        "Ġin",
        "c"
      ],
      [
        "e",
        "p"
      ],
      [
        "in",
        "d"
      ],
      [
        "r",
        "u"
      ],
      [
        "e",
        "ar"
      ],
      [
        "r",
        "y"
      ],
      [
        "c",
        "c"
      ],
      [
        "est",
        "ion"
      ],
      [
        "Ġ",
        "j"
      ],
      [
        "on",
        "g"
      ],
      [
        "Ġre",
        "s"
      ],
      [
        "an",
        "ce"
      ],
      [
        "Ġc",
        "l"
      ],
      [
        "or",
        "m"
      ],
      [
        "Q",
        "u"
      ],
      [
        "Ġt",
        "e"
      ],
      [
        "Ġh",
        "as"
      ],
      [
        "Ġ",
        "\""
      ],
      [
        "i",
        "re"
      ],
      [
        "Ġwh",
        "ich"
      ],
      [
        "ve",
        "l"
      ],
      [
        "i",
        "e"
      ],
      [
        "Ġd",
        "is"
      ],
      [
        "ation",
        "s"
      ],
      [
        "Ġo",
        "ut"
      ],
      [
        "Ġs",
        "p"
      ],
      [
        "ct",
        "ion"
      ],
      [
        "Ġim",
        "p"
      ],
      [
        "h",
        "is"
      ],
      [
        "2",
        "0"
      ],
      [
        "Ġp",
        "re"
      ],
      [
        "ent",
        "s"
      ],
      [
        "ns",
        "wer"
      ],
      [
        "Ġo",
        "ther"
      ],
      [
        "on",
        "e"
      ],
      [
        "Ġal",
        "so"
      ],
      [
        "Qu",
        "estion"
      ],
      [
        "a",
        "v"
      ],
      [
        "'",
        "t"
      ],
      [
        "r",
        "i"
      ],
      [
        "ig",
        "n"
      ],
      [
        "en",
        "ce"
      ],
      [
        "Ġon",
        "e"
      ],
      [
        "Ġt",
        "im"
      ],
      [
        "ĠA",
        "nswer"
      ],
      [
        "Ġm",
        "an"
      ],
      [
        "ic",
        "e"
      ],
      [
        "a",
        "ch"
      ],
      [
        "ver",
        "y"
      ],
      [
        "as",
        "s"
      ],
      [
        "en",
        "s"
      ],
      [
        "re",
        "at"
      ],
      [
        "a",
        "ce"
      ],
      [
        "Ġs",
        "pe"
      ],
      [
        "Ġf",
        "e"
      ],
      [
        "Ġthe",
        "m"
      ],
      [
        "or",
        "s"
      ],
      [
        "it",
        "ion"
      ],
      [
        "a",
        "p"
      ],
      [
        "Ġp",
        "er"
      ],
      [
        "l",
        "ow"
      ],
      [
        "as",
        "e"
      ],
      [
        "a",
        "u"
      ],
      [
        "Ġ",
        "U"
      ],
      [
        "ac",
        "k"
      ],
      [
        "ĠI",
        "n"
      ],
      [
        "Ġab",
        "out"
      ],
      [
        "ĠI",
        "t"
      ],
      [
        "Ġl",
        "ike"
      ],
      [
        "Ġ",
        "ro"
      ],
      [
        "ar",
        "y"
      ],
      [
        "if",
        "f"
      ],
      [
        "res",
        "s"
      ],
      [
        "Ġu",
        "p"
      ],
      [
        "Ġu",
        "n"
      ],
      [
        "Ġs",
        "c"
      ],
      [
        "Ġwhe",
        "n"
      ],
      [
        "i",
        "le"
      ],
      [
        "n",
        "ow"
      ],
      [
        "Ġ",
        "qu"
      ],
      [
        "Ġs",
        "ome"
      ],
      [
        "u",
        "e"
      ],
      [
        "it",
        "e"
      ],
      [
        "Ġ",
        "if"
      ],
      [
        "il",
        "d"
      ],
      [
        "Ġs",
        "y"
      ],
      [
        "i",
        "a"
      ],
      [
        "Ġe",
        "v"
      ],
      [
        "Ġne",
        "ed"
      ],
      [
        "Ġc",
        "ol"
      ],
      [
        "Ġd",
        "iff"
      ],
      [
        "ou",
        "nd"
      ],
      [
        "c",
        "es"
      ],
      [
        "Ġint",
        "o"
      ],
      [
        "am",
        "e"
      ],
      [
        "o",
        "se"
      ],
      [
        "Ġp",
        "art"
      ],
      [
        "ay",
        "s"
      ],
      [
        "l",
        "l"
      ],
      [
        "r",
        "ic"
      ],
      [
        "Ġa",
        "pp"
      ],
      [
        "Ġm",
        "ay"
      ],
      [
        "f",
        "orm"
      ],
      [
        "ĠT",
        "his"
      ],
      [
        "Ġtim",
        "e"
      ],
      [
        "Ġu",
        "se"
      ],
      [
        "a",
        "k"
      ],
      [
        "Ġth",
        "an"
      ],
      [
        "b",
        "er"
      ],
      [
        "if",
        "ic"
      ],
      [
        "ro",
        "w"
      ],
      [
        "Ġhe",
        "l"
      ],
      [
        "Ġh",
        "ow"
      ],
      [
        "Ġthe",
        "re"
      ],
      [
        "le",
        "ct"
      ],
      [
        "Ġ",
        "Y"
      ],
      [
        "Ġbe",
        "c"
      ],
      [
        ".",
        "."
      ],
      [
        "Ġp",
        "e"
      ],
      [
        "Ġhel",
        "p"
      ],
      [
        "Ġcom",
        "m"
      ],
      [
        "a",
        "il"
      ],
      [
        "at",
        "ing"
      ],
      [
        "re",
        "e"
      ],
      [
        "Ġo",
        "ver"
      ],
      [
        "Ġa",
        "r"
      ],
      [
        "Ġre",
        "c"
      ],
      [
        "Ġb",
        "l"
      ],
      [
        "Ġb",
        "et"
      ],
      [
        "Ġt",
        "ra"
      ],
      [
        "Ġt",
        "r"
      ],
      [
        "ĠW",
        "hat"
      ],
      [
        "Ġan",
        "y"
      ],
      [
        "ing",
        "s"
      ],
      [
        "al",
        "s"
      ],
      [
        "is",
        "h"
      ],
      [
        "Ġc",
        "o"
      ],
      [
        "an",
        "g"
      ],
      [
        "c",
        "ess"
      ],
      [
        "Ġg",
        "o"
      ],
      [
        "Ġthe",
        "se"
      ],
      [
        "au",
        "se"
      ],
      [
        "Ġk",
        "now"
      ],
      [
        "in",
        "t"
      ],
      [
        "Ġcon",
        "s"
      ],
      [
        "on",
        "d"
      ],
      [
        "Ġst",
        "ud"
      ],
      [
        "l",
        "es"
      ],
      [
        "Ġit",
        "s"
      ],
      [
        "Ġspe",
        "c"
      ],
      [
        "Ġ",
        "âĢ"
      ],
      [
        "nd",
        "er"
      ],
      [
        "ol",
        "og"
      ],
      [
        "Ġg",
        "en"
      ],
      [
        "h",
        "y"
      ],
      [
        "Ġw",
        "ater"
      ],
      [
        "a",
        "ke"
      ],
      [
        "re",
        "d"
      ],
      [
        "or",
        "d"
      ],
      [
        "Ġg",
        "et"
      ],
      [
        "w",
        "e"
      ],
      [
        "Ġd",
        "es"
      ],
      [
        "Ġy",
        "ear"
      ],
      [
        "on",
        "s"
      ],
      [
        "u",
        "b"
      ],
      [
        "or",
        "y"
      ],
      [
        "ou",
        "gh"
      ],
      [
        "ou",
        "nt"
      ],
      [
        "rou",
        "gh"
      ],
      [
        "Ġpro",
        "du"
      ],
      [
        "at",
        "ure"
      ],
      [
        "Ġ",
        "J"
      ],
      [
        "ul",
        "ar"
      ],
      [
        "Ġdiff",
        "ere"
      ],
      [
        "Ġe",
        "ff"
      ],
      [
        "Ġo",
        "ur"
      ],
      [
        "Ġwh",
        "at"
      ],
      [
        "Ġus",
        "ed"
      ],
      [
        "st",
        "em"
      ],
      [
        "o",
        "ve"
      ],
      [
        "Ġwe",
        "re"
      ],
      [
        "Ġm",
        "ost"
      ],
      [
        "Ġ",
        "ra"
      ],
      [
        "Ġf",
        "l"
      ],
      [
        "ar",
        "i"
      ],
      [
        "al",
        "th"
      ],
      [
        "oo",
        "k"
      ],
      [
        "m",
        "s"
      ],
      [
        "t",
        "e"
      ],
      [
        "rou",
        "nd"
      ],
      [
        "n",
        "ing"
      ],
      [
        "Ġs",
        "a"
      ],
      [
        "l",
        "ud"
      ],
      [
        "Ġa",
        "cc"
      ],
      [
        "Ġa",
        "ct"
      ],
      [
        "Ġof",
        "f"
      ],
      [
        "Ġma",
        "ke"
      ],
      [
        "Ġwh",
        "o"
      ],
      [
        "Ġsu",
        "ch"
      ],
      [
        "i",
        "ent"
      ],
      [
        "Ġa",
        "m"
      ],
      [
        "c",
        "k"
      ],
      [
        "op",
        "le"
      ],
      [
        "ver",
        "s"
      ],
      [
        "at",
        "es"
      ],
      [
        "t",
        "ing"
      ],
      [
        "n",
        "e"
      ],
      [
        "ic",
        "k"
      ],
      [
        "Ġs",
        "m"
      ],
      [
        "ir",
        "st"
      ],
      [
        "Ġpro",
        "v"
      ],
      [
        "p",
        "le"
      ],
      [
        "et",
        "h"
      ],
      [
        "Ġu",
        "nder"
      ],
      [
        "er",
        "g"
      ],
      [
        "Ġad",
        "d"
      ],
      [
        "Ġc",
        "ar"
      ],
      [
        "1",
        "0"
      ],
      [
        "x",
        "t"
      ],
      [
        "er",
        "v"
      ],
      [
        "Ġne",
        "w"
      ],
      [
        "Ġa",
        "g"
      ],
      [
        "ĠS",
        "t"
      ],
      [
        "Ġbe",
        "en"
      ],
      [
        "Ġt",
        "w"
      ],
      [
        "Ġe",
        "m"
      ],
      [
        "f",
        "ul"
      ],
      [
        "ic",
        "s"
      ],
      [
        "Ġinc",
        "lud"
      ],
      [
        "Ġsh",
        "ould"
      ],
      [
        "il",
        "ity"
      ],
      [
        "Ġw",
        "ould"
      ],
      [
        "ur",
        "ing"
      ],
      [
        "ow",
        "er"
      ],
      [
        "Ġth",
        "rough"
      ],
      [
        "ment",
        "s"
      ],
      [
        "Ġpe",
        "ople"
      ],
      [
        "j",
        "ect"
      ],
      [
        "an",
        "ge"
      ],
      [
        "Ġd",
        "i"
[...]
