{
  "version": "1.0",
  "truncation": null,
  "padding": null,
  "added_tokens": [
    {
      "id": 0,
      "content": "<|bos|>",
      "single_word": false,
      "lstrip": false,
      "rstrip": false,
      "normalized": false,
      "special": true
    },
    {
      "id": 1,
      "content": "<|user_start|>",
      "single_word": false,
      "lstrip": false,
      "rstrip": false,
      "normalized": false,
      "special": true
    },
    {
      "id": 2,
      "content": "<|user_end|>",
      "single_word": false,
      "lstrip": false,
      "rstrip": false,
      "normalized": false,
      "special": true
    },
    {
      "id": 3,
      "content": "<|assistant_start|>",
      "single_word": false,
      "lstrip": false,
      "rstrip": false,
      "normalized": false,
      "special": true
    },
    {
      "id": 4,
      "content": "<|assistant_end|>",
      "single_word": false,
      "lstrip": false,
      "rstrip": false,
      "normalized": false,
      "special": true
    },
    {
      "id": 5,
      "content": "<|python_start|>",
      "single_word": false,
      "lstrip": false,
      "rstrip": false,
      "normalized": false,
      "special": true
    },
    {
      "id": 6,
      "content": "<|python_end|>",
      "single_word": false,
      "lstrip": false,
      "rstrip": false,
      "normalized": false,
      "special": true
    },
    {
      "id": 7,
      "content": "<|output_start|>",
      "single_word": false,
      "lstrip": false,
      "rstrip": false,
      "normalized": false,
      "special": true
    },
    {
      "id": 8,
      "content": "<|output_end|>",
      "single_word": false,
      "lstrip": false,
      "rstrip": false,
      "normalized": false,
      "special": true
    },
    {
      "id": 9,
      "content": "<|unk|>",
      "single_word": false,
      "lstrip": false,
      "rstrip": false,
      "normalized": false,
      "special": true
    }
  ],
  "normalizer": null,
  "pre_tokenizer": {
    "type": "Sequence",
    "pretokenizers": [
      {
        "type": "Split",
        "pattern": {
          "Regex": "'(?i:[sdmt]|ll|ve|re)|[^\\r\\n\\p{L}\\p{N}]?+\\p{L}+|\\p{N}{1,2}| ?[^\\s\\p{L}\\p{N}]++[\\r\\n]*|\\s*[\\r\\n]|\\s+(?!\\S)|\\s+"
        },
        "behavior": "Isolated",
        "invert": false
      },
      {
        "type": "ByteLevel",
        "add_prefix_space": false,
        "trim_offsets": true,
        "use_regex": false
      }
    ]
  },
  "post_processor": {
    "type": "TemplateProcessing",
    "single": [
      {
        "Sequence": {
          "id": "A",
          "type_id": 0
        }
      }
    ],
    "pair": [
      {
        "Sequence": {
          "id": "A",
          "type_id": 0
        }
      },
      {
        "Sequence": {
          "id": "B",
          "type_id": 1
        }
      }
    ],
    "special_tokens": {}
  },
  "decoder": null,
  "model": {
    "type": "Unigram",
    "unk_id": 9,
    "vocab": [
      [
        "<|bos|>",
        0.0
      ],
      [
        "<|user_start|>",
        0.0
      ],
      [
        "<|user_end|>",
        0.0
      ],
      [
        "<|assistant_start|>",
        0.0
      ],
      [
        "<|assistant_end|>",
        0.0
      ],
      [
        "<|python_start|>",
        0.0
      ],
      [
        "<|python_end|>",
        0.0
      ],
      [
        "<|output_start|>",
        0.0
      ],
      [
        "<|output_end|>",
        0.0
      ],
      [
        "<|unk|>",
        0.0
      ],
      [
        "s",
        -2.8926540930631486
      ],
      [
        "Ġthe",
        -3.498667154590523
      ],
      [
        ",",
        -3.5524295079333967
      ],
      [
        "Ġ",
        -3.55798844303332
      ],
      [
        ".",
        -3.85461262235744
      ],
      [
        "Ġand",
        -4.045994345467065
      ],
      [
        "Ġof",
        -4.075563892595143
      ],
      [
        "Ġto",
        -4.088974414907527
      ],
      [
        "Ġa",
        -4.187256275116708
      ],
      [
        "ing",
        -4.26849106465621
      ],
      [
        "Ġin",
        -4.529199463349066
      ],
      [
        "e",
        -4.672596972899791
      ],
      [
        "ed",
        -4.695967510978525
      ],
      [
        "d",
        -4.711618590127324
      ],
      [
        "Ġis",
        -4.744046410085343
      ],
      [
        "t",
        -4.811728015084366
      ],
      [
        "y",
        -4.86470686415762
      ],
      [
        "'",
        -5.034521317560747
      ],
      [
        "ly",
        -5.091550751736682
      ],
      [
        "Ġfor",
        -5.131223576410484
      ],
      [
        "Ġthat",
        -5.150461114220981
      ],
      [
        "0",
        -5.161084131654045
      ],
      [
        "1",
        -5.24670020538184
      ],
      [
        "-",
        -5.304975056498545
      ],
      [
        "Ġare",
        -5.337471437817943
      ],
      [
        ":",
        -5.376984739599184
      ],
      [
        "Ġyou",
        -5.385359616057235
      ],
      [
        "Ġbe",
        -5.401323377054458
      ],
      [
        "Ġit",
        -5.415453670274175
      ],
      [
        ".ĊĊ",
        -5.424776641675209
      ],
      [
        "a",
        -5.425338582263384
      ],
      [
        ".Ċ",
        -5.462256084052624
      ],
      [
        "Ġwith",
        -5.480479864875466
      ],
      [
        "2",
        -5.488895283574109
      ],
      [
        "Ċ",
        -5.49133385589816
      ],
      [
        "Ġon",
        -5.546904212800502
      ],
      [
        "Ġcan",
        -5.604173263221725
      ],
      [
        "Ġor",
        -5.6093183948190735
      ],
      [
        "ĊĊ",
        -5.630851291408904
      ],
      [
        "n",
        -5.634812184189741
      ],
      [
        "er",
        -5.726183635393987
      ],
      [
        "o",
        -5.733281369495796
      ],
      [
        "Ġyour",
        -5.801522824210643
      ],
      [
        "Ġ(",
        -5.813551937554642
      ],
      [
        "i",
        -5.8393691747667855
      ],
      [
        "r",
        -5.845218942413011
      ],
      [
        "Ġas",
        -5.847927858112071
      ],
      [
        "\"",
        -5.892616112279516
      ],
      [
        "ĠThe",
        -5.9493984925232315
      ],
      [
        "Ġhave",
        -5.974148687791269
      ],
      [
        "Ġfrom",
        -5.994748696519286
      ],
      [
        "ĠI",
        -6.0228615388303
      ],
      [
        "?",
        -6.044287101963416
      ],
      [
        "Ġby",
        -6.050422255785886
      ],
      [
        "Ġan",
        -6.068974071693431
      ],
      [
        "al",
        -6.07926726599076
      ],
      [
        ")",
        -6.1062416612152095
      ],
      [
        "3",
        -6.134759362044713
      ],
      [
        "l",
        -6.143167833068942
      ],
      [
        "Ġthis",
        -6.178834940883748
      ],
      [
        "5",
        -6.1864670501758585
      ],
      [
        "m",
        -6.215645098655429
      ],
      [
        "Ġnot",
        -6.226936720734095
      ],
      [
        "Ġat",
        -6.2637554349577425
      ],
      [
        "c",
        -6.279760489999795
      ],
      [
        "Ġwill",
        -6.307562896960851
      ],
      [
        "Ġtheir",
        -6.326318301088335
      ],
      [
        "on",
        -6.338174038914088
      ],
      [
        "4",
        -6.342628800544416
      ],
      [
        "h",
        -6.375239143010937
      ],
      [
        "in",
        -6.423406115127673
      ],
      [
        "g",
        -6.429473041038385
      ],
      [
        "ĠA",
        -6.436628319140858
      ],
      [
        "9",
        -6.437181787447573
      ],
      [
        "Ġwas",
        -6.438106461751186
      ],
      [
        "Ġmore",
        -6.4383467079498775
      ],
      [
        "Ġthey",
        -6.5009284801200184
      ],
      [
        "re",
        -6.526660553791311
      ],
      [
        "ies",
        -6.554841808529217
      ],
      [
        "The",
        -6.5555781844005185
      ],
      [
        "Ġwe",
        -6.57892364761698
      ],
      [
        "6",
        -6.588661494370967
      ],
      [
        "Ġwhich",
        -6.5919391357600805
      ],
      [
        "Ġhas",
        -6.597622395587694
      ],
      [
        "p",
        -6.598451704053886
      ],
      [
        "Ġbut",
        -6.599365413093603
      ],
      [
        "or",
        -6.608075979527266
      ],
      [
        "8",
        -6.671798410580326
      ],
      [
        "A",
        -6.680623687406859
      ],
      [
        "b",
        -6.681068248429739
      ],
      [
        "Ġone",
        -6.700703502606695
      ],
      [
        "f",
        -6.701118712562243
      ],
      [
        "Ġalso",
        -6.701240919794374
      ],
      [
        "Question",
        -6.701646071817212
      ],
      [
        "ĠAnswer",
        -6.737962502395282
      ],
      [
        "S",
        -6.744508058496702
      ],
      [
        "7",
        -6.7636387598968195
      ],
      [
        "Ġall",
        -6.773290579973862
      ],
      [
        "Ġlike",
        -6.788453447111751
      ],
      [
        "Ġother",
        -6.7898826106221986
      ],
      [
        "Ġabout",
        -6.797165233828363
      ],
      [
        "Ġwhen",
        -6.836385514333539
      ],
      [
        "ĠIt",
        -6.8406484192942205
      ],
      [
        "le",
        -6.845139191113907
      ],
      [
        "Ġso",
        -6.857043087604717
      ],
      [
        "Ġdo",
        -6.864142053114417
      ],
      [
        "u",
        -6.87035790984365
      ],
      [
        "Ġtime",
        -6.883417504310643
      ],
      [
        "Ġup",
        -6.885899176351117
      ],
      [
        "Ġthem",
        -6.899611229018193
      ],
      [
        "Ġinto",
        -6.907033284680793
      ],
      [
        "Ġif",
        -6.916455524509292
      ],
      [
        "Ġuse",
        -6.930991257332892
      ],
      [
        "ĠS",
        -6.934680157945303
      ],
      [
        "ic",
        -6.952390858565234
      ],
      [
        "Ġsome",
        -6.953119965266236
      ],
      [
        "Ġmay",
        -6.95733940574714
      ],
      [
        "ĠThis",
        -6.963059939161887
      ],
      [
        "able",
        -6.9653798257603
      ],
      [
        "ĠIn",
        -6.967460676764732
      ],
      [
        "ion",
        -6.969515150148451
      ],
      [
        "Ġout",
        -6.989607861556632
      ],
      [
        "Ġhow",
        -6.998581037367501
      ],
      [
        "ation",
        -6.99947248248677
      ],
      [
        "ce",
        -7.019686664215218
      ],
      [
        "Ġthan",
        -7.024574108545622
      ],
      [
        "Ġwater",
        -7.0410992692243966
      ],
      [
        "ĠWhat",
        -7.05347777920559
      ],
      [
        "/",
        -7.055466279829554
      ],
      [
        "I",
        -7.063123440890736
      ],
      [
        "Ġhelp",
        -7.0700297554623415
      ],
      [
        "Ġthese",
        -7.079360911261826
      ],
      [
        "Ġus",
        -7.0886427052575485
      ],
      [
        "Ġneed",
        -7.0912055571235815
      ],
      [
        "ĠB",
        -7.097044043072529
      ],
      [
        "is",
        -7.102970152724467
      ],
      [
        "it",
        -7.11208605029606
      ],
      [
        "th",
        -7.112244750415018
      ],
      [
        "Ġthere",
        -7.12622998156772
      ],
      [
        "Ġwere",
        -7.142006311616363
      ],
      [
        "Ġwhat",
        -7.155272461438772
      ],
      [
        "Ġmake",
        -7.160562947188497
      ],
      [
        "Ġmost",
        -7.163018564006707
      ],
      [
        "Ġour",
        -7.172581796387043
      ],
      [
        "Ġused",
        -7.176065632640849
      ],
      [
        "en",
        -7.179690790098055
      ],
      [
        "ĠC",
        -7.185079507869904
      ],
      [
        ";",
        -7.190759630320073
      ],
      [
        "an",
        -7.193131323546373
      ],
      [
        "ity",
        -7.1993196941990405
      ],
      [
        "Ġsuch",
        -7.200354551247566
      ],
      [
        "C",
        -7.219193524382028
      ],
      [
        "k",
        -7.239284017465595
      ],
      [
        "Ġover",
        -7.241275742034457
      ],
      [
        "Ġnew",
        -7.278576383520576
      ],
      [
        "Ġget",
        -7.283919471670606
      ],
      [
        "Ġany",
        -7.287629972695779
      ],
      [
        "Ġthrough",
        -7.289540228753047
      ],
      [
        "P",
        -7.290473016742492
      ],
      [
        "Ġwho",
        -7.291959094928696
      ],
      [
        "Ġbeen",
        -7.299462468903307
      ],
      [
        "D",
        -7.30006390305763
      ],
      [
        "Ġhigh",
        -7.307339707004537
      ],
      [
        "B",
        -7.315784695182591
      ],
      [
        "Ġpeople",
        -7.3219648498569665
      ],
      [
        "Ġshould",
        -7.322198570977859
      ],
      [
        "ers",
        -7.33332951744425
      ],
      [
        "Ġwork",
        -7.338352999523265
      ],
      [
        "Ġfirst",
        -7.344871231442971
      ],
      [
        "ve",
        -7.3507353698620275
      ],
      [
        "ive",
        -7.354844455450031
      ],
      [
        "ar",
        -7.36278717728424
      ],
      [
        "Ġwould",
        -7.370207656141023
      ],
      [
        "Ġsystem",
        -7.396179544003042
      ],
      [
        "T",
        -7.399904720602421
      ],
      [
        "?Ċ",
        -7.40291738760329
      ],
      [
        "Ġits",
        -7.403619373145334
      ],
      [
        "Ġonly",
        -7.403834912294288
      ],
      [
        "cause",
        -7.413760474355373
      ],
      [
        "x",
        -7.4180769447237775
      ],
      [
        "um",
        -7.420748077532608
      ],
      [
        "Ġmany",
        -7.422216652827986
      ],
      [
        "Ġwell",
        -7.422673982556091
      ],
      [
        "Ġjust",
        -7.425929720958033
      ],
      [
        "Ġtake",
        -7.440320314072041
      ],
      [
        "Ġno",
        -7.444885703214348
      ],
      [
        "ĠT",
        -7.445700845792276
      ],
      [
        "Ġdifferent",
        -7.462158429140247
      ],
      [
        "!",
        -7.466629929332884
      ],
      [
        "Ġtwo",
        -7.472446029280249
      ],
      [
        "at",
        -7.479579130751679
      ],
      [
        "w",
        -7.482377332398569
      ],
      [
        "us",
        -7.484690466664226
      ],
      [
        "Ġhe",
        -7.485848480431688
      ],
      [
        "ever",
        -7.487126992036382
      ],
      [
        "Ġbetween",
        -7.489104521078174
      ],
      [
        "Ġway",
        -7.4899731507723555
      ],
      [
        "Ġsee",
        -7.499185949608197
      ],
      [
        "Ġmy",
        -7.500052129055327
      ],
      [
        "M",
        -7.506320902184697
      ],
      [
        "Ġre",
        -7.516608658085961
      ],
      [
        "ĠP",
        -7.516957006817444
      ],
      [
        "F",
        -7.519612370366701
      ],
      [
        "Ġwhere",
        -7.530855679491177
      ],
      [
        "ch",
        -7.5459648673354
      ],
      [
        "Ġpart",
        -7.551695583363211
      ],
      [
        "G",
        -7.558853198166584
      ],
      [
        "In",
        -7.564850331086703
      ],
      [
        "est",
        -7.572861612797661
      ],
      [
        "Ġknow",
        -7.574650811926764
      ],
      [
        "ĠE",
        -7.577101936722258
      ],
      [
        "ll",
        -7.577688149978561
      ],
      [
        "ment",
        -7.578034231924807
      ],
      [
        "Ġeven",
        -7.591207855024162
      ],
      [
        "Ġchange",
        -7.604362240963827
      ],
      [
        "Ġlook",
        -7.604492700984311
      ],
      [
        "ĠM",
        -7.606412828697723
      ],
      [
        "Ġhis",
        -7.613715327094567
      ],
      [
        "Ġcould",
        -7.616245466991602
      ],
      [
        "ĠIf",
        -7.623240824119772
      ],
      [
        "Ġcell",
        -7.630018286952726
      ],
      [
        "Ġvery",
        -7.637981074770122
      ],
      [
        "Ġun",
        -7.645636097641711
      ],
      [
        "ĠHow",
        -7.655118176752573
      ],
      [
        ").",
        -7.655153917460577
      ],
      [
        "Ġmean",
        -7.667983635608877
      ],
      [
        "Ġhealth",
        -7.675821002849664
      ],
      [
        "Ġhad",
        -7.676319230469941
      ],
      [
        "ur",
        -7.680494393816621
      ],
      [
        "Ġgood",
        -7.685353257338466
      ],
      [
        "Ġwant",
        -7.686320798772966
      ],
      [
        "E",
        -7.686602150420335
      ],
      [
        "Ġsmall",
        -7.690398834458493
      ],
      [
        "ĠâĢĵ",
        -7.695462484727644
      ],
      [
        "il",
        -7.696362804620218
      ],
      [
        "Ġeach",
        -7.701729285422097
      ],
      [
        "Ġmuc",
        -7.713154274687477
      ],
      [
        "Ġwhile",
        -7.71506342621946
      ],
      [
        "ent",
        -7.715253587239568
      ],
      [
        "v",
        -7.729575761447863
      ],
      [
        "Ġlong",
        -7.730174811973331
      ],
      [
        "Ġprocess",
        -7.736502300766074
      ],
      [
        "Ġimportant",
        -7.742013267924952
      ],
      [
        "ĠD",
        -7.743517431802978
      ],
      [
        "ĠThey",
        -7.753545928955562
      ],
      [
        "Ġdesign",
        -7.757169489597157
      ],
      [
        "Ġenergy",
        -7.760519707641733
      ],
      [
        "Ġw",
        -7.765809777130826
      ],
      [
        "Ġprovide",
        -7.766259018245143
      ],
      [
        "Ġdoes",
        -7.76968683148802
      ],
      [
        "and",
        -7.771391459078972
      ],
      [
        "ĠYou",
        -7.773744944097976
      ],
      [
        "Ġyears",
        -7.778073234198517
      ],
      [
        "Ġafter",
        -7.780107242428341
      ],
      [
        "Ġreal",
        -7.790730277071662
      ],
      [
        "Ġdon",
        -7.795196021125578
      ],
      [
        "Ġthing",
        -7.796563493559443
      ],
      [
        "Ġdown",
        -7.806475804207756
      ],
      [
        "ry",
        -7.808872067241738
      ],
      [
        "Ġthen",
        -7.809372676738544
      ],
      [
        "ĠFor",
        -7.811247755558731
      ],
      [
        "Ġworld",
        -7.811571577554876
      ],
      [
        "Ġfood",
        -7.815394561831658
      ],
      [
        "Ġlight",
        -7.82709393106384
      ],
      [
        "made",
        -7.830349031258484
      ],
      [
        "Ġlife",
        -7.832759346494941
      ],
      [
        "Ġbefore",
        -7.841143372301702
      ],
      [
        "ĠF",
        -7.846845736924288
      ],
      [
        "Ġduring",
        -7.847667995947698
      ],
      [
        "Ġallow",
        -7.848441209200803
      ],
      [
        "ate",
        -7.851919717992977
      ],
      [
        "Ġlevel",
        -7.852119032739524
      ],
      [
        "Ġcome",
        -7.853188662990869
      ],
      [
        "%",
        -7.854242669312646
      ],
      [
        "z",
        -7.856402882155084
      ],
      [
        "ness",
        -7.859811710888347
      ],
      [
        "Ġaround",
        -7.86026471882541
      ],
      [
        "ĠWe",
        -7.863229790686035
      ],
      [
        "ter",
        -7.8656143841284445
      ],
      [
        "Ġbody",
        -7.86626871327651
      ],
      [
        "li",
        -7.874620778418661
      ],
      [
        "ĠG",
        -7.877170799336038
      ],
      [
        "ul",
        -7.882680736873343
      ],
      [
        "Ġback",
        -7.890256153793072
      ],
      [
        "Ġcreate",
        -7.900767752695456
      ],
      [
        "Ġme",
        -7.902788764019554
      ],
      [
        "W",
        -7.903683576493122
      ],
      [
        "),",
        -7.904263056638177
      ],
      [
        "Ġcar",
        -7.9116721998421236
      ],
      [
        "age",
        -7.912149799820452
      ],
      [
        "Ġshow",
        -7.915026295733298
      ],
      [
        "H",
        -7.918003743278692
      ],
      [
        "Ġhuman",
        -7.920835462685035
      ],
      [
        "Ġform",
        -7.921407107480238
      ],
      [
        "Ġsame",
        -7.9219038173903265
      ],
      [
        "Ġfound",
        -7.9291501790440835
      ],
      [
        "Ġkeep",
        -7.931021390879535
      ],
      [
        "Ġgreat",
        -7.932304916075577
      ],
      [
        "ĠTo",
        -7.934692638791272
      ],
      [
        "Ġinclude",
        -7.934921285452753
      ],
      [
        "Ġbeing",
        -7.934983404819022
      ],
      [
        "ĠH",
        -7.9380902455986515
      ],
      [
        "Ġplace",
        -7.939087066964442
      ],
      [
        "Ġstudent",
        -7.942213165060783
      ],
      [
        "Ġfind",
        -7.944728738345572
      ],
      [
        "Ġcolor",
        -7.9455469490481425
      ],
      [
        "Ġthose",
        -7.94560644588844
      ],
      [
        "Ġboth",
        -7.945857625225974
      ],
      [
        "Ġright",
        -7.9470244847174385
      ],
      [
        "Ġyear",
        -7.949239965006429
      ],
      [
        "Ġhome",
        -7.950063468614913
      ],
      [
        "Ġday",
        -7.951750340910553
      ],
      [
        "Ġdata",
        -7.954907580088534
      ],
      [
        "Ġoften",
        -7.955297068784209
      ],
      [
        "Ġgo",
        -7.955881179543368
      ],
      [
        "Ġbest",
        -7.956979641329093
      ],
      [
        "Ġnumber",
        -7.96712978484742
      ],
      [
        "Ġexample",
        -7.969834356389133
      ],
      [
        "Ġunder",
        -7.973098568941499
      ],
      [
        "Ġde",
        -7.97453862930319
      ],
      [
        "Ġb",
        -7.983147309767306
      ],
      [
        "ally",
        -7.985301801956836
      ],
      [
        ":Ċ",
        -7.985305948303974
      ],
      [
        "Ġstudy",
        -7.988084903672124
      ],
      [
        "Ġend",
        -7.988923001949952
      ],
      [
        "(",
        -7.991968587533472
      ],
      [
        "ĠN",
        -7.994989426968546
      ],
      [
        "Ġexperience",
        -7.995405655584484
      ],
      [
        "Ġthink",
        -7.997192879059946
      ],
      [
        "Ġinformation",
        -8.000999529015484
      ],
      [
        "Ġper",
        -8.001077860306301
      ],
      [
        "What",
        -8.008781099168134
      ],
      [
        "Ġcause",
        -8.010281092869791
      ],
      [
        "Ġstart",
        -8.011173083159472
      ],
      [
        "Ġher",
        -8.01231065029877
      ],
      [
        "Ġlead",
        -8.018560245601446
      ],
      [
        "Ġpower",
        -8.020600589467472
      ],
      [
        "Ġcommon",
        -8.02518238740863
      ],
      [
        "Ġrequire",
        -8.04070894077892
      ],
      [
        "Ġdevelop",
        -8.042422528512937
      ],
      [
        "Ġmight",
        -8.044502637014356
      ],
      [
        "Ġresearch",
        -8.04565837278365
      ],
      [
        "V",
        -8.046913675767907
      ],
      [
        "How",
        -8.047557731258891
      ],
      [
        "Ġinclud",
        -8.058330926031239
      ],
      [
        "to",
        -8.05918187496982
      ],
      [
        "...",
        -8.059698925666822
      ],
      [
        "Ġair",
        -8.064517973035937
      ],
      [
        "ability",
        -8.064775741010063
      ],
      [
        "Ġoff",
        -8.074708377732378
      ],
      [
        "ĠThese",
        -8.079390269179285
      ],
      [
        "Ġown",
        -8.081450067069271
      ],
      [
        "Ġanimal",
        -8.082325922631977
      ],
      [
        "ĠRe",
        -8.083995012099098
      ],
      [
        "Ġlarge",
        -8.085344554974332
      ],
      [
        "Ġproduct",
        -8.09234819230517
      ],
      [
        "R",
        -8.09820162062087
      ],
      [
        "Ġbetter",
        -8.099385511329643
      ],
      [
        "Ġgrow",
        -8.100409859885094
      ],
      [
        "Ġnow",
        -8.103878180004468
      ],
      [
        "ĠU",
        -8.104330437793637
      ],
      [
        "Ġsize",
        -8.106803382592513
      ],
      [
        "N",
        -8.110090063239738
      ],
      [
        "Ġconsider",
        -8.1176136031665
      ],
      [
        "Ġbecome",
        -8.118229316515876
      ],
      [
        "ĠV",
        -8.121358812537984
      ],
      [
        "Ġsupport",
        -8.126674139439118
      ],
      [
        "Ġsaid",
        -8.130309184213214
      ],
      [
        "Ġwithout",
        -8.132132027121205
      ],
      [
        "ut",
        -8.13706307577897
      ],
      [
        "This",
        -8.137480259655575
      ],
      [
        "Ġplay",
        -8.141972529166333
      ],
      [
        "Ġfew",
        -8.143548695888287
      ],
      [
        "Ġtemperature",
        -8.14356668472455
      ],
      [
        "Ġevery",
        -8.145284467013553
      ],
      [
        "the",
        -8.146640685137449
      ],
      [
        "Ġsay",
        -8.147061381518025
      ],
      [
        "co",
        -8.147134736706057
      ],
      [
        "Ġbase",
        -8.150657873618293
      ],
      [
        "Ġplant",
        -8.15450213654119
      ],
      [
        "Ġpoint",
        -8.156781345235611
      ],
      [
        "Ġincrease",
        -8.16035043063265
      ],
      [
        "If",
        -8.161815375625988
      ],
      [
        "Ġp",
        -8.162524261177175
      ],
      [
        "]",
        -8.163832154192313
      ],
      [
        "Ġresult",
        -8.166430215012
      ],
      [
        "Ġtype",
        -8.16723668953928
      ],
      [
        "O",
        -8.168600541251536
      ],
      [
        "im",
        -8.17283057462849
      ],
      [
        "ĠR",
        -8.174105969842149
      ],
      [
        "Ġset",
        -8.176744413298316
      ],
      [
        "Ġstill",
        -8.182108052617204
      ],
      [
        "L",
        -8.182994392685941
      ],
      [
        "Ġmaking",
        -8.183765017423838
      ],
      [
        "ĠK",
        -8.186539632056293
      ],
      [
        "Ġheat",
        -8.188811021161055
      ],
      [
        "less",
        -8.18889220731332
      ],
      [
        "Ġchildren",
        -8.189707895143346
      ],
      [
        "ian",
        -8.18982855537866
      ],
      [
        "ĠW",
        -8.191485408373957
      ],
      [
        "It",
        -8.193265391376496
      ],
      [
        "Ġfish",
        -8.194756905380341
      ],
      [
        "ary",
        -8.19526869620395
      ],
      [
        "Ġspecific",
        -8.19575795132264
      ],
      [
        "Ġadd",
        -8.197344045900362
      ],
      [
        ":ĊĊ",
        -8.200376601111712
      ],
      [
        "Ġagain",
        -8.202008140430703
      ],
      [
        "ĠSo",
        -8.20896002524341
      ],
      [
        "Ġcase",
        -8.210371301047477
      ],
      [
        "Ġcat",
        -8.214629011127396
      ],
      [
        "ĠBut",
        -8.220916564476434
      ],
      [
        "Ġthree",
        -8.221204660352475
      ],
      [
        "Ġissue",
        -8.22310146289966
      ],
      [
        "Ġdog",
        -8.225754199766586
      ],
      [
        "be",
        -8.23148009219858
      ],
      [
        "Ġcalled",
        -8.232413360907145
      ],
      [
        "Ġgroup",
        -8.233566973522482
      ],
      [
        "Ġhard",
        -8.233605942278391
      ],
      [
        "Ġspecies",
        -8.234740089384037
      ],
      [
        "ant",
        -8.23940189364071
      ],
      [
        "Ġless",
        -8.246616437351348
      ],
      [
        "Ġeffect",
        -8.248124677585723
      ],
      [
        "Ġlot",
        -8.252743114977626
      ],
      [
        "Ġmethod",
        -8.257456589671488
      ],
      [
        "Ġgive",
        -8.261350482432547
      ],
      [
        "Ġmain",
        -8.264931354821059
      ],
      [
        "ĠHe",
        -8.266336017289856
      ],
      [
        "Ġwithin",
        -8.267323413623487
      ],
      [
        "ĠO",
        -8.268174541655558
      ],
      [
        "Ġspace",
        -8.26989646104121
      ],
      [
        "ĠAnd",
        -8.270047830970663
      ],
      [
        "Ġindividual",
        -8.27117127043278
      ],
      [
        "Ġcost",
        -8.272238999110815
      ],
      [
        "ish",
        -8.272576743752282
      ],
      [
        "Ġschool",
        -8.272623574622887
      ],
      [
        "Ġplants",
        -8.274578378482047
      ],
      [
        "Ġpotential",
        -8.274678132636225
      ],
      [
        "Ġcon",
        -8.278254243412913
      ],
      [
        "Ġproject",
        -8.288200494895964
      ],
      [
        "op",
        -8.28971700265083
      ],
      [
        "ĠBe",
        -8.291216584178702
      ],
      [
        "am",
        -8.295162477973594
      ],
      [
        "Ġcontrol",
        -8.295404743376203
      ],
      [
        "ous",
        -8.297604140526822
      ],
      [
        "Ġoffer",
        -8.313552700241134
      ],
      [
        "Ġlow",
        -8.31786631779597
      ],
      [
        "Ġear",
        -8.318153186309692
      ],
      [
        "Ġarea",
        -8.31860807236339
      ],
      [
        "Ġsomething",
        -8.318915626042568
      ],
      [
        "Ġlearn",
        -8.323743299242926
      ],
      [
        "Ġnatural",
        -8.325266326464913
      ],
      [
        "ance",
        -8.325884116711546
      ],
      [
        "Ġsure",
        -8.326935794746428
      ],
      [
        "un",
        -8.327544182668028
      ],
      [
        "known",
        -8.329956236484502
      ],
      [
        "out",
        -8.332233534538378
      ],
      [
        "me",
        -8.334867991567386
      ],
      [
        "Ġsecond",
        -8.336946479821336
      ],
      [
        "Ġmust",
        -8.336946843896289
      ],
      [
        "Ġwhy",
        -8.339253164849032
      ],
      [
        "Ġsource",
        -8.339396840137232
      ],
      [
        "Ġtoo",
        -8.349559791798336
      ],
      [
        "ver",
        -8.350650467155946
      ],
      [
        "Ġsignificant",
        -8.35231635260344
      ],
      [
        "Ġgoing",
        -8.35265672266777
      ],
      [
        "ĠL",
        -8.353318115459167
      ],
      [
        "Ġtest",
        -8.353570549188813
      ],
      [
        "ful",
        -8.356678949127923
      ],
      [
        "K",
        -8.359745167338964
      ],
      [
        "Ġ[",
        -8.360109923227661
      ],
      [
        "Ġquestion",
        -8.36319730062747
      ],
      [
        "ĠSt",
        -8.363587683081537
      ],
      [
        "Ġrisk",
        -8.363766517692707
      ],
      [
        "Ġensure",
        -8.370138040385417
      ],
      [
        "Ġfactor",
        -8.371939188706051
      ],
      [
        "Ġreduce",
        -8.37596307325613
      ],
      [
        "Ġimpact",
        -8.377370096842697
      ],
      [
        "ĠWhen",
        -8.387838063675364
      ],
      [
        "Ġprevent",
        -8.388098710894674
      ],
      [
        "Ġline",
        -8.38942329421429
      ],
      [
        "Ġcurrent",
        -8.392303207454447
      ],
      [
        "Ġpossible",
        -8.396798421137582
      ],
      [
        "Ġfull",
        -8.397742012222473
      ],
      [
        "tic",
        -8.397753157370524
      ],
      [
        "Ġco",
        -8.39878643004008
      ],
      [
        "Ġbenefit",
        -8.39893847697821
      ],
      [
        "Ġreason",
        -8.400926351050211
      ],
      [
        "Ġdue",
        -8.405628357102676
      ],
      [
        "ĠThere",
        -8.407678667410561
      ],
      [
        "Ġfield",
        -8.411274086916599
      ],
      [
        "Ġvarious",
        -8.414984397923845
      ],
      [
        "Ġshe",
        -8.417902947342657
      ],
      [
        "Ġdevice",
        -8.419661530125355
      ],
      [
        "Ġblood",
        -8.419662097280778
      ],
      [
        "ence",
        -8.425302467389118
      ],
      [
        "U",
        -8.425518105385692
      ],
      [
        "Ġhere",
        -8.426407302153514
      ],
      [
        "Ġamount",
        -8.42696100208444
      ],
      [
        "Ġeffective",
        -8.43061698453019
      ],
      [
        "Ġgeneral",
        -8.433983843390187
      ],
      [
        "Ġmaterial",
        -8.435368267249821
      ],
      [
        "ĠAs",
        -8.43669618714564
      ],
      [
        "Ġqualit",
        -8.443593294403383
      ],
      [
        "Ġrange",
        -8.449420837185004
      ],
      [
        "Ġalway",
        -8.449773257188543
      ],
      [
        "Ġanother",
        -8.451161115464307
      ],
      [
        "Ġfollowing",
        -8.457348786000663
      ],
      [
        "Ġeasi",
        -8.46330875861223
      ],
      [
        "Ġfeel",
        -8.466540710874904
      ],
      [
        "Ġcare",
        -8.467929169219762
      ],
      [
        "Ġlittle",
        -8.468810682195112
      ],
      [
        "Ġhand",
        -8.470118198913745
      ],
      [
        "Ġlast",
        -8.473476218676801
      ],
      [
        "ial",
        -8.474188091548202
      ],
      [
        "Ġtreatment",
        -8.474883199684424
      ],
      [
        "Ġdisease",
        -8.476264464221378
      ],
      [
        "Ġstate",
        -8.477651205950213
      ],
      [
        "Ġidea",
        -8.47765983737735
      ],
      [
        "Ġdevelopment",
        -8.47770398881633
      ],
      [
        "Ġnon",
        -8.480285318150308
      ],
      [
        "Ġtext",
        -8.484384496148714
      ],
      [
        "vi",
        -8.485194535747155
      ],
      [
        "Ġside",
        -8.487166868858619
      ],
      [
        "Ġdid",
        -8.487273276816731
      ],
      [
        "Ġorder",
        -8.489296433734284
      ],
      [
        "Ġproblem",
        -8.494601977771769
      ],
      [
        "up",
        -8.496970676918046
      ],
      [
        "ated",
        -8.500204029274265
      ],
      [
        "qu",
        -8.501876611145804
      ],
      [
        "ph",
        -8.504295516112068
      ],
      [
        "ge",
        -8.505099452733287
      ],
      [
        "Ġal",
        -8.519377638958435
      ],
      [
        "Ġpaper",
        -8.519777580423444
      ],
      [
        "Ġavailable",
        -8.520042780737878
      ],
      [
        "Ġcontain",
        -8.520707074970137
      ],
      [
        "Ġpre",
        -8.522536689594395
      ],
      [
        "Ġservice",
        -8.525032539478005
      ],
      [
        ",\"",
        -8.525388982353324
      ],
      [
        "Ġdi",
        -8.526436102443999
      ],
      [
        "no",
        -8.527562804312458
      ],
      [
        "Ġname",
        -8.527584298130158
      ],
      [
        "Ġteam",
        -8.529879406392148
      ],
      [
        "Ġactual",
        -8.531034771758017
      ],
      [
        "ha",
        -8.533041603844172
      ],
      [
        "Ġseveral",
        -8.534040884243634
      ],
      [
        "one",
        -8.538144149628629
      ],
      [
        "Ġweek",
        -8.543135648660245
      ],
      [
        "Ġsurface",
        -8.543593028049784
      ],
      [
        "if",
        -8.545941616289522
      ],
      [
        "Ġtypes",
        -8.548347018364472
      ],
      [
        "Ġopen",
        -8.549912076962253
      ],
      [
        "Ġcomplete",
        -8.550142033822087
      ],
      [
        "Ġfocus",
        -8.550408830595472
      ],
      [
        "Ġfunction",
        -8.551386123770149
      ],
      [
        "line",
        -8.553623392930865
      ],
      [
        "Ġsoil",
        -8.55487260809242
      ],
      [
        "Ġusually",
        -8.555332571607611
      ],
      [
        "Ġenvironment",
        -8.556005375573495
      ],
      [
        "ating",
        -8.556230604134921
      ],
      [
        "Ġrole",
        -8.562496518870063
      ],
      [
        "ite",
        -8.56497888947204
      ],
      [
        "Ġmonth",
        -8.568058222061106
      ],
      [
        "Ġstructure",
        -8.568217076264157
      ],
      [
        "Ġ$",
        -8.569384637563015
      ],
      [
        "Ġpro",
        -8.570433276659582
      ],
      [
        "Ġtechnology",
        -8.571458126164632
      ],
      [
        "Ġpost",
        -8.572933976677737
      ],
      [
        "Ġenough",
        -8.574994927490568
      ],
      [
        "Ġage",
        -8.575237820704292
      ],
      [
        "ĠWhich",
        -8.575752148357846
      ],
      [
        "ical",
        -8.57627901020145
      ],
      [
        "ma",
        -8.576359737934524
      ],
      [
        "We",
        -8.576539089830382
      ],
      [
        "Ġmodel",
        -8.579711985381895
      ],
      [
        "Ġunderstand",
        -8.58321503526911
      ],
      [
        "Ġcreat",
        -8.583812737711655
      ],
      [
        "Ġdifference",
        -8.586134860476648
      ],
      [
        "Ġlearning",
        -8.588121356203558
      ],
      [
        "Ġoption",
        -8.589715062894136
      ],
      [
        "Ġunti",
        -8.59031224318349
      ],
      [
        "Ġ&",
        -8.590518231945687
      ],
      [
        "Ġparticular",
        -8.590913587723925
      ],
      [
        "Ġdamage",
        -8.592180983867486
      ],
      [
        "Ġwide",
        -8.59378730838472
      ],
      [
        "Ġweight",
        -8.594938876443704
      ],
      [
        "Ġanswer",
        -8.595722961212541
      ],
      [
        "Ġessential",
        -8.598140158364464
      ],
      [
        "having",
        -8.60021148333568
      ],
      [
        "When",
        -8.601455410678376
      ],
      [
        "Ġeye",
        -8.604033631876232
      ],
      [
        "Ġfree",
        -8.604287073568502
      ],
      [
        "Ġimprove",
        -8.604559281399197
      ],
      [
        "Ġlive",
        -8.605310774494665
      ],
      [
        "ĠAn",
        -8.606904361459222
      ],
      [
        "Ġapplication",
        -8.609508407007258
      ],
      [
        "Ġvalue",
        -8.611402255327807
      ],
      [
        "Ġprotein",
        -8.61393719498264
      ],
      [
        "Ġcertain",
        -8.614420519616502
      ],
      [
        "Ġhead",
        -8.61500249374107
      ],
      [
        "Ġshort",
        -8.615711178249185
      ],
      [
        "Ġcover",
        -8.617952334916783
      ],
      [
        "Ġpresent",
        -8.620678981399275
      ],
      [
        "Ġcourse",
        -8.623296905285022
      ],
      [
        "Ġleave",
        -8.623491170844876
      ],
      [
        "Ġconditions",
        -8.623750476721078
      ],
      [
        "ĠBy",
        -8.624720840643585
      ],
      [
        "ves",
        -8.624757287787144
      ],
      [
        "Ġterm",
        -8.625191668126678
      ],
      [
        "*",
        -8.632278106552693
      ],
      [
        "Ġmaterials",
        -8.632533065571085
      ],
      [
        "Ġinvolve",
        -8.632648104792372
      ],
      [
        "Ġalong",
        -8.636335952699714
      ],
      [
        "Ġcheck",
        -8.636832903433778
      ],
      [
        "Ġflow",
        -8.636895321847256
      ],
      [
        "pe",
        -8.638293650913475
      ],
      [
        "Ġsun",
        -8.638389490441142
      ],
      [
        "Ġmarket",
        -8.639381717693704
      ],
      [
        "Ġtechnique",
        -8.640190755502035
      ],
      [
        "Ġfamily",
        -8.640190828699271
      ],
      [
        "Ġold",
        -8.641150516402224
      ],
      [
        "Ġareas",
        -8.641992123587158
      ],
      [
        "Ġperiod",
        -8.644410332306618
      ],
      [
        "ĠMa",
        -8.645734065505799
      ],
      [
        "Ġkey",
        -8.646892450087103
      ],
      [
        "Ġnear",
        -8.64966852972066
      ],
      [
        "Ġlocal",
        -8.65127137498104
      ],
      [
        "Ġsince",
        -8.652063702553352
      ],
      [
        "Ġcr",
        -8.65208182763605
      ],
      [
        "Ġmaintain",
        -8.653024033042296
      ],
      [
        "Ġnext",
        -8.654612049962122
      ],
      [
        "man",
        -8.65576056078202
      ],
      [
        "ill",
        -8.656334657221166
      ],
      [
        "Ġaway",
        -8.659707603976855
      ],
      [
        "Ġvariet",
        -8.659764355215383
      ],
      [
        "Ġtop",
        -8.661360164412264
      ],
      [
        "You",
        -8.66310054665641
      ],
      [
        "Ġhour",
        -8.665073947519808
      ],
      [
        "ke",
        -8.66796735709227
      ],
      [
        "Ġput",
        -8.668326603733533
      ],
      [
        "Ġcommunit",
        -8.669240356614749
      ],
      [
        "Ġ=",
        -8.669951672766087
      ],
      [
        "ĠOn",
        -8.670477698432682
      ],
      [
        "Ġpressure",
        -8.672795668995965
      ],
      [
        "Ġfact",
        -8.672896918764408
      ],
      [
        "Ġresults",
        -8.675909395004236
      ],
      [
        "Ġperson",
        -8.677470578788363
      ],
      [
        "tra",
        -8.6779994383657
      ],
      [
        "ĠNew",
        -8.67893240072286
      ],
      [
        "ĠUniversity",
        -8.679817705428555
      ],
      [
        "hi",
        -8.68010824671517
      ],
      [
        "self",
        -8.6802384702137
      ],
      [
        "Ġrate",
        -8.687126294455496
      ],
      [
        "Ġstrong",
        -8.687628565851883
      ],
      [
        "ĠJ",
        -8.687711959918122
      ],
      [
        "Ġtogether",
        -8.690293141894731
      ],
      [
        "Ġlet",
        -8.692569381779172
      ],
      [
        "Ġeasy",
        -8.692928473186129
      ],
      [
        "Ġfollow",
        -8.695632732501304
      ],
      [
        "Ġdirect",
        -8.697390290916275
      ],
      [
        "Ġbatter",
        -8.697534608091527
      ],
      [
        "Ġdepend",
        -8.698490768645549
      ],
      [
        "Y",
        -8.69892853187855
      ],
      [
        "Ġread",
        -8.699119392740801
      ],
      [
        "Ġkind",
        -8.69929035624914
      ],
      [
        "Ġaccording",
        -8.700067241872333
      ],
      [
        "Ġproduce",
        -8.700904623216811
      ],
      [
        "Ġprotect",
        -8.702103503812985
      ],
      [
        "Ġclean",
        -8.702248631485897
      ],
      [
        "Ġneeds",
        -8.70407659774374
      ],
      [
        "Ġturn",
        -8.70453127314628
      ],
      [
        "Ġlower",
        -8.706414707985463
      ],
      [
        "ĠWith",
        -8.708200829233943
      ],
      [
        "Ġaffect",
        -8.7088373415492
      ],
      [
        "Ġgas",
        -8.711350959626545
      ],
      [
        "Ġunit",
        -8.712395717028393
      ],
      [
        "Ġquick",
        -8.712652392270119
      ],
      [
        "Ġposition",
        -8.714033087507483
      ],
      [
        "her",
        -8.714226820988898
      ],
      [
        "not",
        -8.71751451308197
      ],
      [
        "iv",
        -8.71815299598621
      ],
      [
        "ĠThat",
        -8.719725104914481
      ],
      [
        "Ġrun",
        -8.719824232782493
      ],
      [
        "ism",
        -8.72052039383503
      ],
      [
        "Ġoil",
        -8.722128950285757
      ],
      [
        "Ġfast",
        -8.72215530199909
      ],
      [
        "ized",
        -8.72283668324245
      ],
      [
        "land",
        -8.725559245645638
      ],
      [
        "ure",
        -8.727684630814391
      ],
      [
        "Ġproblems",
        -8.729181111646609
      ],
      [
        "Ġgame",
        -8.73267964212561
      ],
      [
        "Ġgrowth",
        -8.732720134143108
      ],
      [
        "ling",
        -8.734404189828679
      ],
      [
        "Ġlove",
        -8.734560859650877
      ],
      [
        "ĠCo",
        -8.734856503547284
      ],
      [
        "Ġmakes",
        -8.73832618353003
      ],
      [
        "Ġgarden",
        -8.739256482065713
      ],
      [
        "ex",
        -8.740468793381865
      ],
      [
        "Ġskin",
        -8.741957710117795
      ],
      [
        "Ġsimilar",
        -8.742048623057446
      ],
      [
        ".\"",
        -8.742954810538567
      ],
      [
        "Ġplan",
        -8.743031114657853
      ],
      [
        "Ġphysical",
        -8.744650585953273
      ],
      [
        "Ġunique",
        -8.745873377036158
      ],
      [
        "J",
        -8.747526081502802
      ],
      [
        "Ġbit",
        -8.748690816485098
      ],
      [
        "Ġworking",
        -8.748841620644354
      ],
      [
        "Ġtypical",
        -8.749347431054527
      ],
      [
        "per",
        -8.749370474381642
      ],
      [
        "Ġdays",
        -8.74958013113324
      ],
      [
        "Ġsafe",
        -8.750645028028135
      ],
      [
        "Ġhealthy",
        -8.751485033201684
      ],
      [
        "âĢĵ",
        -8.75223827720776
      ],
      [
        "To",
        -8.75276125891886
      ],
      [
        "Ġsea",
        -8.755012370289474
      ],
      [
        "stead",
        -8.755189244129397
      ],
      [
        "Ġgiven",
        -8.755327946506448
      ],
      [
        "Ġdiet",
        -8.755808437737219
      ],
      [
        "Ġstep",
        -8.756147873181444
      ],
      [
        "Ġclose",
        -8.756635751895683
      ],
      [
        "Ġlimit",
        -8.758393620200188
      ],
      [
        "ory",
        -8.758575918625475
      ],
      [
        "Ġmachine",
        -8.759258273971632
      ],
      [
        "Ġavoid",
        -8.760445465370825
      ],
      [
        "mm",
        -8.761128045460378
      ],
      [
        "Ġseem",
        -8.761578731162732
      ],
      [
        "Ġsimple",
        -8.762952163571535
      ],
      [
        "Ġcomputer",
        -8.763035756193997
      ],
      [
        "ak",
        -8.763333221483315
      ],
      [
        "ard",
        -8.763334687784202
      ],
      [
        "Ġtreat",
        -8.764183495171501
      ],
      [
        "ten",
        -8.767683809802588
      ],
      [
        "Ġprogram",
        -8.767972506497614
      ],
      [
        "Ġfuture",
        -8.769479828160254
      ],
      [
        "âĢĶ",
        -8.773366642641058
      ],
      [
        "Ġamong",
        -8.774317417868547
      ],
      [
        "Ġmove",
        -8.777946515743674
      ],
      [
        "Ġaccess",
        -8.779009759274535
      ],
      [
        "Ġwhite",
        -8.781228740450098
      ],
      [
        "Ġarticle",
        -8.781997895271761
      ],
      [
        "Ġbusiness",
        -8.782003403089101
      ],
      [
        "ide",
        -8.782327574563222
      ],
      [
        "Ġdone",
        -8.785214201963377
      ],
      [
        "Ġstore",
        -8.787658207619788
      ],
      [
        "Ġsingle",
        -8.788006396816582
      ],
      [
        "end",
        -8.789749779487806
      ],
      [
        "Ġbook",
        -8.790257329431391
      ],
      [
        "Ġleast",
        -8.792748017515796
      ],
      [
        "Ġsocial",
        -8.793745505081267
      ],
      [
        "Ġprofessional",
        -8.793947397881102
      ],
      [
        "ca",
        -8.79422688309003
      ],
      [
        "There",
        -8.794551142577593
      ],
      [
        "Ġcontinue",
        -8.795295310513605
      ],
      [
        "Ġtraining",
        -8.795669719458434
      ],
      [
        "Ġdifficult",
        -8.795675635272943
      ],
      [
        "Ġdoesn",
        -8.79568317010202
      ],
      [
        "Ġsound",
        -8.796382897770139
      ],
      [
        "ĠDo",
        -8.796995163114177
      ],
      [
        "Ġchild",
        -8.798599133189708
      ],
      [
        "Ġproduction",
        -8.79933062236254
      ],
      [
        "light",
        -8.79985422075196
      ],
      [
        "act",
        -8.800949344276226
      ],
      [
        "Ġsuggest",
        -8.801910984927872
      ],
      [
        "ĠCon",
        -8.803179893916427
      ],
      [
        "ize",
        -8.803757964011979
      ],
      [
        "Ġnecessar",
        -8.804569001270423
      ],
      [
        "ow",
        -8.80458427087802
      ],
      [
        "Ġeat",
        -8.809046186716309
      ],
      [
        "Ġregion",
        -8.815441807041728
      ],
      [
        "Ġhim",
        -8.81653935803677
      ],
      [
        "Ġpopulation",
        -8.81656145967948
      ],
      [
        ".\"Ċ",
        -8.816740989576445
      ],
      [
        "Ġabove",
        -8.81744877186257
      ],
      [
        "Ġground",
        -8.817825461419496
      ],
      [
        "min",
        -8.822722592560988
      ],
      [
        "Ġbasic",
        -8.82281059146394
      ],
      [
        ")Ċ",
        -8.823370410089723
      ],
      [
        "ative",
        -8.823823898076057
      ],
      [
        "Ġface",
        -8.824641674566735
      ],
      [
        "ĠLi",
        -8.825438029161623
      ],
      [
        "Ġresource",
        -8.82669412626625
      ],
      [
        "Ġelectric",
        -8.827319144429868
      ],
      [
        "Ġwarm",
        -8.833806302965337
      ],
      [
        "Ġview",
        -8.83464450415893
      ],
      [
        "ture",
        -8.837706189926694
      ],
      [
        "Ġclimate",
        -8.838445002483553
      ],
      [
        "Ġexist",
        -8.839028018476158
      ],
      [
        "Ġbuilding",
        -8.83930493206344
      ],
      [
        "Ġmajor",
        -8.840307317699676
      ],
      [
        "X",
        -8.840837560589655
      ],
      [
        "For",
        -8.841435557735227
      ],
      [
        "Ġmetal",
        -8.841791479009288
      ],
      [
        "ĠSome",
        -8.841879287959738
      ],
      [
        "Ġlayer",
        -8.84285580928542
      ],
      [
        "Ġyoung",
        -8.843267030721304
      ],
      [
        "Ġnever",
        -8.843484445280573
      ],
      [
        "Ġregular",
        -8.8439200083113
      ],
      [
        "Ġdogs",
        -8.844456606853331
      ],
      [
        "Ġpopular",
        -8.845090710584032
      ],
      [
        ")ĊĊ",
        -8.846619727573774
      ],
      [
        "Ġred",
        -8.847530112174699
      ],
      [
        "go",
        -8.848617483114243
      ],
      [
        "Ġmind",
        -8.849772881886556
      ],
      [
        "ĠPa",
        -8.849832674762201
      ],
      [
        "Ġdiscover",
        -8.851354251017218
      ],
      [
        "Ġdeep",
        -8.851561245512844
      ],
      [
        "across",
        -8.851791057309596
      ],
      [
        "Ġcorrect",
        -8.852342457672512
      ],
      [
        "Ġrecommend",
        -8.852466322442053
      ],
      [
        "ĠâĢĶ",
        -8.855025226720954
      ],
      [
        "gen",
        -8.855300354115231
      ],
      [
        "Ġimage",
        -8.855506890721307
      ],
      [
        "!Ċ",
        -8.85656681098847
      ],
      [
        "Ġresearcher",
        -8.858051208823788
      ],
      [
        "Ġcontent",
        -8.858617836580063
      ],
      [
        "hether",
        -8.858716037166515
      ],
      [
        "Ġespecially",
        -8.86070639474365
      ],
      [
        "Ġcomponent",
        -8.860868438060077
      ],
      [
        "by",
        -8.86238030642351
      ],
      [
        "ber",
        -8.86357389779901
      ],
      [
        "Ġask",
        -8.86415129614462
      ],
      [
        "Ġclear",
        -8.864735074258395
      ],
      [
        "Ġsign",
        -8.867664368531749
      ],
      [
        "Ġdetermine",
        -8.871260460966273
      ],
      [
        "Ġpattern",
        -8.874448819195406
      ],
      [
        "Ġsignal",
        -8.874743358633737
      ],
      [
        "Ġperform",
        -8.874926507254099
      ],
      [
        "ĠDe",
        -8.875914489412288
      ],
      [
        "Ġbring",
        -8.875983438699102
      ],
      [
        "Ġtoday",
        -8.876420248426822
      ],
      [
        "Ġfour",
        -8.87804904486794
      ],
      [
        "Ġscience",
        -8.878360201625245
      ],
      [
        "Ġheart",
        -8.87899436555754
      ],
      [
        "Ġbrain",
        -8.879431083884235
      ],
      [
        "Ġcancer",
        -8.880139436877856
      ],
      [
        "Ġremove",
        -8.88179276356443
      ],
      [
        "Ġtry",
        -8.882553526878784
      ],
      [
        "Ġpiece",
        -8.885305340487502
      ],
      [
        "Ġinterest",
        -8.886581988099987
      ],
      [
        "Ġsub",
        -8.886703045065111
      ],
      [
        "Ġleft",
        -8.887215420894021
      ],
      [
        "Ġmatter",
        -8.887330301239816
      ],
      [
        "Ġsite",
        -8.887526284679673
      ],
      [
        "Ġdry",
        -8.888764102249183
      ],
      [
        "ring",
        -8.888889278790025
      ],
      [
        "Ġshape",
        -8.889287470272189
      ],
      [
        "Ġdis",
        -8.890121041180159
      ],
      [
        "either",
        -8.89264989338745
      ],
      [
        "Ġtoward",
        -8.892689389644826
      ],
      [
        "ĠState",
        -8.893470781236942
      ],
      [
        "ĠNo",
        -8.894246593605093
      ],
      [
        "j",
        -8.897629440073626
      ],
      [
        "ions",
        -8.897962968793985
      ],
      [
        "Ġstudie",
        -8.899234210019772
      ],
      [
        "Ġca",
        -8.902018825918475
      ],
      [
        "Ġtotal",
        -8.902065153664623
      ],
      [
        "Q",
        -8.902180364124536
      ],
      [
        "_",
        -8.90239100685838
      ],
      [
        "Ġspeed",
        -8.904807578182412
      ],
      [
        "Ġland",
        -8.906545028295483
      ],
      [
        "Ġcountry",
        -8.90659529544699
      ],
      [
        "Ġaddition",
        -8.908472557551296
      ],
      [
        "Ġsp",
        -8.908874538215874
      ],
      [
        "Ġchemical",
        -8.909175812323365
      ],
      [
        "ĠLa",
        -8.909180997894845
      ],
      [
        "Ġcall",
        -8.909687615728899
      ],
      [
        "Ġcondition",
        -8.91009361571686
      ],
      [
        "ium",
        -8.910653565400452
      ],
      [
        "ĠAmerican",
        -8.910664373453223
      ],
      [
        "Ġfar",
        -8.911323387267476
      ],
      [
        "che",
        -8.912201364245451
      ],
      [
        "Ġclass",
        -8.913428579343776
      ],
      [
        "Ġtimes",
        -8.91365132991982
      ],
      [
        "tro",
        -8.914332860917892
      ],
      [
        "ect",
        -8.914503439870789
      ],
      [
        "ĠMo",
        -8.914990617569657
      ],
      [
        "cy",
        -8.915153986558959
      ],
      [
        "Ġchoice",
        -8.915767913554504
      ],
      [
        "Ġunderstanding",
        -8.917599225944059
      ],
      [
        "Ġbig",
        -8.919111887199376
      ],
      [
        "ub",
        -8.9195267088908
      ],
      [
        "Ġbelow",
        -8.920433906379161
      ],
      [
        "ile",
        -8.920773923845822
      ],
      [
        "Ġenjoy",
        -8.92129801324392
      ],
      [
        "va",
        -8.922951380441544
      ],
      [
        "Ġsolar",
        -8.923026306794863
      ],
      [
        "Ġseed",
        -8.923668287263592
      ],
      [
        "Ġpast",
        -8.924117829218268
      ],
      [
        "Ġart",
        -8.92490628081881
      ],
      [
        "Ġparent",
        -8.925685849392272
      ],
      [
        "Ġrecent",
        -8.927440705466967
      ],
      [
        "[",
        -8.928057599130662
      ],
      [
        "Ġcut",
        -8.928741136199411
      ],
      [
        "Ġauthor",
        -8.930736770683072
      ],
      [
        "ĠYour",
        -8.932146843713609
      ],
      [
        "Ġliv",
        -8.933612216968806
      ],
      [
        "Ġinside",
        -8.93535756170613
      ],
      [
        "Ġbelieve",
        -8.935937317821619
      ],
      [
        "mp",
        -8.936755758684296
      ],
      [
        "Ġnormal",
        -8.939103380543747
      ],
      [
        "Ġfeatures",
        -8.939674615194601
      ],
      [
        "Ġspecial",
        -8.942007166690015
      ],
      [
        "Ġcold",
        -8.942669650301522
      ],
      [
        "Ġperformance",
        -8.94328921997716
      ],
      [
        "Ġapproach",
        -8.94340160183814
      ],
      [
        "ready",
        -8.948241425765834
      ],
      [
        "Ġtree",
        -8.951664526946487
      ],
      [
        "Ġmillion",
        -8.952214534935798
      ],
      [
        "Ġgreen",
        -8.955178558364988
      ],
      [
        "Ġhistory",
        -8.955339945324972
      ],
      [
        "Ġgenetic",
        -8.956740030876789
      ],
      [
        "Ġassociate",
        -8.957663885562166
      ],
      [
        "Ġgoal",
        -8.958175980013788
      ],
      [
        "Ġdream",
        -8.95880311473702
      ],
      [
        "Ġshare",
        -8.959971430036369
      ],
      [
        "Ġtell",
        -8.96139638762282
      ],
      [
        "Ġchallenge",
        -8.96228263676284
      ],
      [
        "Ġconcern",
        -8.963445488966943
      ],
      [
        "Ġremain",
        -8.96461194480234
      ],
      [
        "Ġengine",
        -8.964980316607868
      ],
      [
        "Ġloss",
        -8.965557248219788
      ],
      [
        "taking",
        -8.96579430140128
      ],
      [
        "Ġfurther",
        -8.965799120915353
      ],
      [
        "Ġmix",
        -8.968106367713567
      ],
      [
        "ell",
        -8.96995817816956
      ],
      [
        "he",
        -8.970063529358718
      ],
      [
        "Ġcode",
        -8.970239770133011
      ],
      [
        "Ġreach",
        -8.971611207917487
      ],
      [
        "ization",
        -8.971645094205208
      ],
      [
        "Ġgett",
        -8.975770669889837
      ],
      [
        "Ġappear",
        -8.976087651453035
      ],
      [
        "Ġpersonal",
        -8.976335385815418
      ],
      [
        "Ġreport",
        -8.976910824648765
      ],
      [
        "Ġhouse",
        -8.980492215049622
      ],
      [
        "Ġskills",
        -8.981997884706857
      ],
      [
        "Ġmention",
        -8.982433779692979
      ],
      [
        "Ġstandard",
        -8.984691772096493
      ],
      [
        "Re",
        -8.985928365324636
      ],
      [
        "ĠRo",
        -8.986472648554003
      ],
      [
        "Ġthought",
        -8.987024410608353
      ],
      [
        "Ġlist",
        -8.990065803793614
      ],
      [
        "Ġpurpose",
        -8.99105320101841
      ],
      [
        "Ġtalk",
        -8.99177692542506
      ],
      [
        "Ġlate",
        -8.995406107854787
      ],
      [
        "Ġstress",
        -8.995645739862484
      ],
      [
        "As",
        -8.996469459723015
      ],
      [
        "Ġperfect",
        -8.996610813527026
      ],
      [
        "Ġfall",
        -8.999372175393994
      ],
      [
        "Ġtravel",
        -9.000227903423317
      ],
      [
        "Ġpain",
        -9.000555011390443
      ],
      [
        "ĠRa",
        -9.00086784855836
      ],
      [
        "ĠAl",
        -9.001064522001474
      ],
      [
        "ok",
        -9.002688399207576
      ],
      [
        "So",
        -9.004782242885447
      ],
      [
        "Ġcompany",
        -9.006232884229915
      ],
      [
        "ĠOne",
        -9.007643880056156
      ],
      [
        "bility",
        -9.008416062798332
      ],
      [
        "Ġhot",
        -9.008510485672112
      ],
      [
        "Ġwood",
        -9.009680430425869
      ],
      [
        "Ġcarbon",
        -9.010035457109844
      ],
      [
        "ĠLe",
        -9.010717954312938
      ],
      [
        "Ġmedical",
        -9.012332190406068
      ],
      [
        "Ġvideo",
        -9.01233488780344
      ],
      [
        "Ġsomeone",
        -9.012748855821703
      ],
      [
        "side",
        -9.015509152695742
      ],
      [
        "Ġways",
        -9.017904743017692
      ],
      [
        "Ġmo",
        -9.018029390008854
      ],
      [
        "Ġbuild",
        -9.019193613263766
      ],
      [
        "Ġact",
        -9.019649907914731
      ],
      [
        "Ġactivities",
        -9.01968034959577
      ],
      [
        "Ġforce",
        -9.020321142686107
      ],
      [
        "ĠAll",
        -9.020535142299504
      ],
      [
        "ack",
        -9.020952980827593
      ],
      [
        "âĢ¦",
        -9.021491178996037
      ],
      [
        "Ġoperation",
        -9.02399503790741
      ],
      [
        "âĢĻs",
        -9.025179521830218
      ],
      [
        "Ġblack",
        -9.02586504089173
      ],
      [
        "ĠAI",
        -9.026136708628254
      ],
      [
        "we",
        -9.026474188894984
      ],
      [
        "Ġindustry",
        -9.028333043563473
      ],
      [
        "Ġflower",
        -9.029932929745934
      ],
      [
        "ĠBo",
        -9.02998311499202
      ],
      [
        "Ġslow",
        -9.030971710806526
      ],
      [
        "ĠDr",
        -9.03357818530031
      ],
      [
        "Ġcomplex",
        -9.034317719667984
      ],
      [
        "Ġrelationship",
        -9.034584867095514
      ],
      [
        "Ġdescribe",
        -9.039066188202789
      ],
      [
        "Ġfun",
        -9.039398169951063
      ],
      [
        "our",
        -9.041301405267372
      ],
      [
        "Ġfill",
        -9.042384673713528
      ],
      [
        "Ġbehavior",
        -9.044555130322705
      ],
      [
        "Ġeffort",
        -9.045866365140288
      ],
      [
        "Ġcrucial",
        -9.045866401192352
      ],
      [
        "Ġknowledge",
        -9.047130662923143
      ],
      [
        "Ġman",
        -9.04881780430061
      ],
      [
        "ick",
        -9.049533255469456
      ],
      [
        "Ġlocation",
        -9.049674560581098
      ],
      [
        "Ġwhole",
        -9.04979554989024
      ],
      [
        "Ġsimpl",
        -9.050213286460131
      ],
      [
        "Ġstay",
        -9.050843370176391
      ],
      [
        "Ġsolution",
        -9.051824835443924
      ],
      [
        "Ġuser",
        -9.05211202938784
      ],
      [
        "Ġpractice",
        -9.052401780428394
      ],
      [
        "âĢĻ",
        -9.054171391840963
      ],
      [
        "Ġetc",
        -9.054877939263474
      ],
      [
        "Ġaction",
        -9.055019410045286
      ],
      [
        "Ġfit",
        -9.05544241715754
      ],
      [
        "Ġseason",
        -9.05615974976943
      ],
      [
        "ice",
        -9.058225779146172
      ],
      [
        "Ġlanguage",
        -9.05840501427926
      ],
      [
        "Ġmeasure",
        -9.060377909816992
      ],
      [
        "Ġrecord",
        -9.063916825182028
      ],
      [
        ">",
        -9.06496460337959
      ],
      [
        "Ġentire",
        -9.06628872476668
      ],
      [
        "Ġreceive",
        -9.066813880995536
      ],
      [
        "Ġsense",
        -9.067275769240272
      ],
      [
        "uc",
        -9.067340745977688
      ],
      [
        "ight",
        -9.069130932534453
      ],
      [
        "Ġmoney",
        -9.071528489229422
      ],
      [
        "Ġoverall",
        -9.073511278683297
      ],
      [
        "Ġdoing",
        -9.077055887769436
      ],
      [
        "Ġlonger",
        -9.07757949949131
      ],
      [
        "Ġroom",
        -9.07826281685715
      ],
      [
        "und",
        -9.0797222754615
      ],
      [
        "afety",
        -9.080672567770936
      ],
      [
        "ble",
        -9.08137916191492
      ],
      [
        "ible",
        -9.083567770393437
      ],
      [
        "Ġself",
        -9.083975897030363
      ],
      [
        "Ġnetwork",
        -9.08453167966287
      ],
      [
        "Ġsleep",
        -9.086908014482038
      ],
      [
        "ze",
        -9.087053333032504
      ],
      [
        "Ġlater",
        -9.087829465465042
      ],
      [
        "Ġpet",
        -9.08824218478965
      ],
      [
        "Ġpublic",
        -9.088715260246063
      ],
      [
        "+",
        -9.09155845085007
      ],
      [
        "ĠZ",
        -9.09232347372964
      ],
      [
        "Ġla",
        -9.093313166072456
      ],
      [
        "Ġenvironmental",
        -9.09436129403436
      ],
      [
        "Ġtarget",
        -9.09640017643448
      ],
      [
        "all",
        -9.096426457194465
      ],
      [
        "Ġactivity",
        -9.096516484934073
      ],
      [
        "Ġbreak",
        -9.100675725631582
      ],
      [
        "ĠHa",
        -9.101670884749272
      ],
      [
        "Ġselect",
        -9.10288803058779
      ],
      [
        "Ġbalance",
        -9.103038663109327
      ],
      [
        "Ġwinter",
        -9.10342963256111
      ],
      [
        "Ġbuy",
        -9.104257302552346
      ],
      [
        "Ġpositive",
        -9.104490406636431
      ],
      [
        "Ġtraditional",
        -9.106397671348793
      ],
      [
        "Ġexercise",
        -9.106884386808836
      ],
      [
        "ĠAt",
        -9.109043090275945
      ],
      [
        "Ġthough",
        -9.109740654089531
      ],
      [
        "higher",
        -9.110346363804226
      ],
      [
        "fer",
        -9.110854127029317
      ],
      [
        "Ġscientist",
        -9.111132628169509
      ],
      [
        "ka",
        -9.11379927541346
      ],
      [
        "ĠCan",
        -9.114833328117296
      ],
      [
        "Ġhold",
        -9.11662416239012
      ],
      [
        "Ġpage",
        -9.11782325500948
      ],
      [
        "Ġbreed",
        -9.118758275056033
      ],
      [
        "Ġaddress",
        -9.119257285826873
      ],
      [
        "tion",
        -9.119819075474563
      ],
      [
        "Ġchoose",
        -9.121468400089562
      ],
      [
        "Ġproper",
        -9.122169602755312
      ],
      [
        "An",
        -9.12230299105632
      ],
      [
        "Ġwomen",
        -9.126069002600442
      ],
      [
        "Ġglobal",
        -9.127436902176877
      ],
      [
        "ĠWhile",
        -9.129073887127229
      ],
      [
        "lin",
        -9.130244840295752
      ],
      [
        "Ġfeed",
        -9.130851194666718
      ],
      [
        "Ġopportunit",
        -9.131557746823988
      ],
      [
        "ivity",
        -9.131912283717575
      ],
      [
        "Ġbegin",
        -9.13198234059976
      ],
      [
        "Ġnature",
        -9.132935848612838
      ],
      [
        "Ġfruit",
        -9.132936280927137
      ],
      [
        "Ġcycle",
        -9.13315140800156
      ],
      [
        "ities",
        -9.133313779439126
      ],
      [
        "Ġfee",
        -9.134271651300018
      ],
      [
        "}",
        -9.13431446751349
      ],
      [
        "ĠSa",
        -9.134465003934285
      ],
      [
        "ĠShe",
        -9.13447626200104
      ],
      [
        "Ġprimar",
        -9.13538451006689
      ],
      [
        "Ġpatients",
        -9.13614877693309
      ],
      [
        "Ġfuel",
        -9.139874045312492
      ],
      [
        "ner",
        -9.140529699298837
      ],
      [
        "Ġfront",
        -9.140751318132692
      ],
      [
        "Ġeggs",
        -9.140756381575898
      ],
      [
        "Ġstage",
        -9.140925446735082
      ],
      [
        "Ġvehicle",
        -9.141239702207017
      ],
      [
        "Ġexpert",
        -9.141249656837545
      ],
      [
        "Ġfire",
        -9.142301030732485
      ],
      [
        "ach",
        -9.142639213890604
      ],
      [
        "pl",
        -9.144219962902458
      ],
      [
        "Ġsummer",
        -9.146817080974907
      ],
      [
        "ĠScience",
        -9.14772614425777
      ],
      [
        "Ġtask",
        -9.14821360701458
      ],
      [
        "Ġfresh",
        -9.148214331642842
      ],
      [
        "Ġpay",
        -9.149617570845876
      ],
      [
        "Ġlength",
        -9.150076749574424
      ],
      [
        "cor",
        -9.15116192473534
      ],
      [
        "Ġexplain",
        -9.151514611211155
      ],
      [
        "low",
        -9.151575120422788
      ],
      [
        "ran",
        -9.153082255277212
      ],
      [
        "que",
        -9.15476875494362
      ],
      [
        "Ġtissue",
        -9.15666073730772
      ],
      [
        "Ġlarger",
        -9.158033291979578
      ],
      [
        "ier",
        -9.158657913991902
      ],
      [
        "Ġrelative",
        -9.158788616905628
      ],
      [
        "Ġmu",
        -9.16085596679748
      ],
      [
        "Ġsymptoms",
        -9.162002525145544
      ],
      [
        "Ġcool",
        -9.164290973546738
      ],
      [
        "Ġgot",
        -9.16461569476995
      ],
      [
        "ĠCar",
        -9.16567416262322
      ],
      [
        "Ġwalk",
        -9.16627008082819
      ],
      [
        "Ġmanagement",
        -9.16696106857639
      ],
      [
        "Ġscreen",
        -9.170431505463224
      ],
      [
        "=",
        -9.171118210970342
      ],
      [
        "\\",
        -9.171923547644258
      ],
      [
        "Ġrelated",
        -9.172065472171408
      ],
      [
        "Ġrule",
        -9.175376893701522
      ],
      [
        "Ġma",
        -9.17707742158446
      ],
      [
        "Ġtools",
        -9.177310856550683
      ],
      [
        "Ġsuccessful",
        -9.178226818422154
      ],
      [
        "Ġstrateg",
        -9.178794546976713
      ],
      [
        "Ġwaste",
        -9.179914113900132
      ],
      [
        "Ġfat",
        -9.180896550384308
      ],
      [
        "Ġresponse",
        -9.180933071163606
      ],
      [
        "Ġrest",
        -9.181098525156395
      ],
      [
        "uch",
        -9.182174892356052
      ],
      [
        "ster",
        -9.183384322298563
      ],
      [
        "Ġcenter",
        -9.18422776988614
      ],
      [
        "Ġwall",
        -9.18440081280729
      ],
      [
        "Ġblock",
        -9.18545027551926
      ],
      [
        "form",
        -9.186690912532356
      ],
      [
        "Ġtri",
        -9.187079321742653
      ],
      [
        "for",
        -9.187795802320682
      ],
      [
        "ĠNational",
        -9.18914955656484
      ],
      [
        "Ġidentify",
        -9.189647740441089
      ],
      [
        "Ġminutes",
        -9.18992158681312
      ],
      [
        "Ġam",
        -9.190214319706032
      ],
      [
        "Ġfive",
        -9.191614301165458
      ],
      [
        "Ġoriginal",
        -9.192665704662383
      ],
      [
        "Ġpass",
        -9.193315248304891
      ],
      [
        "where",
        -9.193964987507757
      ],
      [
        "Ġmodern",
        -9.194038078641306
      ],
      [
        "-base",
        -9.194540205728952
      ],
      [
        "Ġdirection",
        -9.19533905499294
      ],
      [
        "Ġaccount",
        -9.19550531360001
      ],
      [
        "Ġharm",
        -9.195566292756544
      ],
      [
        "Ġreturn",
        -9.197117207319508
      ],
      [
        "Ġprobabl",
        -9.197939587678604
      ],
      [
        "Ġconcept",
        -9.198436700480832
      ],
      [
        "Ġblue",
        -9.19843930089586
      ],
      [
        "Ġaverage",
        -9.19845231373237
      ],
      [
        "Ġguide",
        -9.19957179651739
      ],
      [
        "Ġproperties",
        -9.199924418069209
      ],
      [
        "Ġstyle",
        -9.200050754457056
      ],
      [
        "Ġsubject",
        -9.201386689958024
      ],
      [
        "Ġwild",
        -9.201404454945942
      ],
      [
        "ĠDi",
        -9.20192999139503
      ],
      [
        "Ġefficient",
        -9.202882711321555
      ],
      [
        "Ġplastic",
        -9.20374121449137
      ],
      [
        "Ġitem",
        -9.203797570824314
      ],
      [
        "Ġanalysis",
        -9.204346614100976
      ],
      [
        "ping",
        -9.206896494772597
      ],
      [
        "Ġhappen",
        -9.208041201747708
      ],
      [
        "Ġstop",
        -9.208588365033634
      ],
      [
        "Ġthemsel",
        -9.208898769028584
      ],
      [
        "Ġtend",
        -9.209600167820325
      ],
      [
        "Ġothers",
        -9.210196704421955
      ],
      [
        "Ġexplore",
        -9.211265288634603
      ],
      [
        "ĠHere",
        -9.211923088562934
      ],
      [
        "Ġmilk",
        -9.213264514483164
      ],
      [
        "Ġconduct",
        -9.213931533503915
      ],
      [
        "Ġregard",
        -9.214765357181
      ],
      [
        ").Ċ",
        -9.217162019757136
      ],
      [
        "way",
        -9.217563315279907
      ],
      [
        "rate",
        -9.217711616881708
      ],
      [
        "Ġattention",
        -9.22076183135507
      ],
      [
        "Ġsometime",
        -9.221552479862872
      ],
      [
        "Ġdegree",
        -9.222293416839571
      ],
      [
        "Ġhalf",
        -9.223474470928494
      ],
      [
        "Ġreview",
        -9.22356953677363
      ],
      [
        "Ġrat",
        -9.2244146814637
      ],
      [
        "Ġmovement",
        -9.224580431014235
      ],
      [
        "Ġgene",
        -9.224824774082345
      ],
      [
        "Ġfinal",
        -9.226331615730835
      ],
      [
        "Ġnight",
        -9.227526042899914
      ],
      [
        "Ġincreasing",
        -9.2283142417463
      ],
      [
        "Ġenhance",
        -9.230012079081504
      ],
      [
        "Ġbad",
        -9.23006588707849
      ],
      [
        "Ġinter",
        -9.230110111387988
      ],
      [
        "Ġeducation",
        -9.23053515718426
      ],
      [
        "Ġweather",
        -9.230756337938768
      ],
      [
        "wa",
        -9.231437728882796
      ],
      [
        "ember",
        -9.231650289146431
      ],
      [
        "Ġrepresent",
        -9.23189456042726
      ],
      [
        "mic",
        -9.23262797872197
      ],
      [
        "Ġjob",
        -9.23289102200652
      ],
      [
        "ward",
        -9.233116445427148
      ],
      [
        "Ġkill",
        -9.234091294539766
      ],
      [
        "Ġsta",
        -9.23416545405033
      ],
      [
        "Ġactive",
        -9.234306246064596
      ],
      [
        "Ġgear",
        -9.235964867464718
      ],
      [
        "Ġcap",
        -9.236701245822124
      ],
      [
        "ĠHo",
        -9.236993320345348
      ],
      [
        "Ġtank",
        -9.237561044699072
      ],
      [
        "Ġwind",
        -9.238290179735294
      ],
      [
        "ĠDNA",
        -9.238769495722996
      ],
      [
        "Ġmass",
        -9.23902924522305
      ],
      [
        "of",
        -9.239878538407863
      ],
      [
        "Ġcharacter",
        -9.240839470010105
      ],
      [
        "Ġapp",
        -9.242464972252836
      ],
      [
        "ru",
        -9.243322069460628
      ],
      [
        "ĠOr",
        -9.243977220581083
      ],
      [
        "Ġadditional",
        -9.244675319842733
      ],
      [
        "ug",
        -9.245630295472903
      ],
      [
        "Ġsalt",
        -9.24698121133769
      ],
      [
        "bi",
        -9.246982974889246
      ],
      [
        "ĠSouth",
        -9.247280290632927
      ],
      [
        "ov",
        -9.24756552887652
      ],
      [
        "Ġcontact",
        -9.24977425151604
      ],
      [
        "Ġliquid",
        -9.25128947875797
      ],
      [
        "ade",
        -9.254500958207318
      ],
      [
        "Ġmultiple",
        -9.254599844081524
      ],
      [
        "art",
        -9.255208737423736
      ],
      [
        "Ġdrive",
        -9.255311623343474
      ],
      [
        "Ġnegative",
        -9.255987139515714
      ],
      [
        "Ġvisit",
        -9.25624679753188
      ],
      [
        "Ġelements",
        -9.258454822603891
      ],
      [
        "Ġreading",
        -9.25874521633278
      ],
      [
        "Ġrelease",
        -9.25881420715113
      ],
      [
        "Ġever",
        -9.258899883661552
      ],
      [
        "Ġsugar",
        -9.259146532807613
      ],
      [
        "Ġalmost",
        -9.259248146779314
      ],
      [
        "ĠBa",
        -9.259385405938431
      ],
      [
        "Ġstorage",
        -9.259386386887972
      ],
      [
        "Ġcollect",
        -9.260301543722813
      ],
      [
        "ship",
        -9.261563916165493
      ],
      [
        "Ġgovernment",
        -9.262121199057756
      ],
      [
        "Ġsetting",
        -9.262604667286691
      ],
      [
        "bu",
        -9.263066715182084
      ],
      [
        "ler",
        -9.26333979037566
      ],
      [
        "Ġtable",
        -9.263504817548569
      ],
      [
        "ang",
        -9.26458976713178
      ],
      [
        "Ġoutside",
        -9.26509369537228
      ],
      [
        "ĠEarth",
        -9.265388101756772
      ],
      [
        "Ġtool",
        -9.26560626371061
      ],
      [
        "Ġreduc",
        -9.265781113459663
      ],
      [
        "Ġculture",
        -9.26590415163081
      ],
      [
        "Ġexperiment",
        -9.2661233918413
      ],
      [
        "ĠSp",
        -9.268194006965146
      ],
      [
        "Many",
        -9.268362463031202
      ],
      [
        "Ġmodels",
        -9.268609063573658
      ],
      [
        "Ġcommunication",
        -9.270288073106745
      ],
      [
        "Ġanti",
        -9.271950015732724
      ],
      [
        "Ġfinding",
        -9.27392351384312
      ],
      [
        "Ġdigital",
        -9.27409629043065
      ],
      [
        "Ġdark",
        -9.274875982857136
      ],
      [
        "pp",
        -9.275148973214034
      ],
      [
        "Ġconnect",
        -9.27590431215063
      ],
      [
        "hu",
        -9.277439296772265
      ],
      [
        "Ġgain",
        -9.27807647350662
      ],
      [
        "Ġquite",
        -9.279664370965069
      ],
      [
        "Ġwon",
        -9.28000687439614
      ],
      [
        "Ġspot",
        -9.280991090570517
      ],
      [
        "Ġinfluence",
        -9.281245994671258
      ],
      [
        "Ġmental",
        -9.28235550449052
      ],
      [
        "Ġprovid",
        -9.282476889014458
      ],
      [
        "Ġice",
        -9.282729998123417
      ],
      [
        "Ġinsect",
        -9.285316259275003
      ],
      [
        "Ġsample",
        -9.2864740417662
      ],
      [
        "Ġscientific",
        -9.288766485822318
      ],
      [
        "Ġbacteria",
        -9.290453289771136
      ],
      [
        "set",
        -9.290775395257471
      ],
      [
        "Ġpercent",
        -9.290811627202263
      ],
      [
        "ĠPo",
        -9.291365851582192
      ],
      [
        "Ġdetail",
        -9.293083067113354
      ],
      [
        "Ġbar",
        -9.293130525215112
      ],
      [
        "chi",
        -9.293202243373589
      ],
      [
        "Ġpaint",
        -9.29393129853189
      ],
      [
        "Ġserve",
        -9.294543710505176
      ],
      [
        "ything",
        -9.295176460196648
      ],
      [
        "ther",
        -9.297443825664558
      ],
      [
        "cu",
        -9.298817718733128
      ],
      [
        "Ġdeliver",
        -9.298990611273087
      ],
      [
        "Ġcity",
        -9.299110704064915
      ],
      [
        "Ġseparate",
        -9.299337720150916
      ],
      [
        "Ġstarted",
        -9.300057634420634
      ],
      [
        "Ġfemale",
        -9.300616082335914
      ],
      [
        "Ġsave",
        -9.30100949410506
      ],
      [
        "Why",
        -9.301652134326892
      ],
      [
        "Ġmedia",
        -9.302146979473356
      ],
      [
        "Ġorganization",
        -9.3024986634199
      ],
      [
        "Ġbirds",
        -9.303087185320075
      ],
      [
        "Ġgenerate",
        -9.303156850663449
      ],
      [
        "Ġplayer",
        -9.304059732166904
      ],
      [
        "Ġleg",
        -9.30491259520809
      ],
      [
        "Ġprevious",
        -9.30551810783846
      ],
      [
        "Ġachieve",
        -9.306640564255671
      ],
      [
        "Ġbehind",
        -9.30715876636246
      ],
      [
        "ĠPro",
        -9.308980743915116
      ],
      [
        "Ġmusic",
        -9.309452747726365
      ],
      [
        "Ġspread",
        -9.309693217442504
      ],
      [
        "water",
        -9.310143342108322
      ],
      [
        "Ġwords",
        -9.31062570733383
      ],
      [
        "Ġextra",
        -9.312238276940366
      ],
      [
        "Ġstory",
        -9.312661873905562
      ],
      [
        "Ġadvance",
        -9.313225850953495
      ],
      [
        "ĠMe",
        -9.313917769349946
      ],
      [
        "Ġadvantage",
        -9.31539452940661
      ],
      [
        "Ġinstruction",
        -9.315405770923174
      ],
      [
        "ĠUnited",
        -9.31726990514676
      ],
      [
        "Ġwar",
        -9.317408457594563
      ],
      [
        "bl",
        -9.318096785530406
      ],
      [
        "daily",
        -9.320441488153502
      ],
      [
        "ese",
        -9.320657007060635
      ],
      [
        "ĠCa",
        -9.320699961133572
      ],
      [
        "Ġprice",
        -9.321544850845982
      ],
      [
        "Ġeyes",
        -9.321896310221987
      ],
      [
        "tri",
        -9.32363035584441
      ],
      [
        "Ġvegetable",
        -9.323700225781458
      ],
      [
        "ious",
        -9.323753039086744
      ],
      [
        "Ġvi",
        -9.32447784109512
      ],
      [
        "Ġbio",
        -9.328553311543857
      ],
      [
        "Ġenter",
        -9.32857093509445
      ],
      [
        "Ġspring",
        -9.329217798901665
      ],
      [
        "Ġhear",
        -9.33086353674205
      ],
      [
        "day",
        -9.331570528714684
      ],
      [
        "port",
        -9.332440400456187
      ],
      [
        "Ġwatch",
        -9.332468982352404
      ],
      [
        "Ġacid",
        -9.33342762432348
      ],
      [
        "Ġequipment",
        -9.333781245797145
      ],
      [
        "Ġsupply",
        -9.335445621157945
      ],
      [
        "Ġcamera",
        -9.335466900958364
      ],
      [
        "Ġportion",
        -9.336297824968351
      ],
      [
        "Ġsection",
        -9.33639901478537
      ],
      [
        "Ġbi",
        -9.336810521052044
      ],
      [
        "Ġmeet",
        -9.336939826791117
      ],
      [
        "red",
        -9.338006773241087
      ],
      [
        "Ġfarm",
        -9.339623973409024
      ],
      [
        "Ġsearch",
        -9.34053344545019
      ],
      [
        "Ġprotection",
        -9.340725020622456
      ],
      [
        "ĠX",
        -9.343170412816082
      ],
      [
        "over",
        -9.343645109676473
      ],
      [
        "let",
        -9.343696445980532
      ],
      [
        "Ġtrees",
        -9.344276988656851
      ],
      [
        "Ġevent",
        -9.3451828344177
      ],
      [
        "Ġevidence",
        -9.34562352075498
      ],
      [
        "Ġcapacit",
        -9.345626603479026
      ],
      [
        "ology",
        -9.34758306845186
      ],
      [
        "Ġindicate",
        -9.347657035679353
      ],
      [
        "online",
        -9.3489825193889
      ],
      [
        "lthough",
        -9.349103242528365
      ],
      [
        "ĠUse",
        -9.35010667779078
      ],
      [
        "Ġwebsite",
        -9.350759404493914
      ],
      [
        "Ġyet",
        -9.350942445216669
      ],
      [
        "Ġsoft",
        -9.351276444089802
      ],
      [
        "Ġglass",
        -9.354187029600864
      ],
      [
        "Ġfilm",
        -9.354188322877096
      ],
      [
        "Ġcook",
        -9.35462202789941
      ],
      [
        "Ġteacher",
        -9.355293970305922
      ],
      [
        "Ġdistance",
        -9.355909862029977
      ],
      [
        "ER",
        -9.356313200305378
      ],
      [
        "Ġroot",
        -9.357598165082631
      ],
      [
        "Ġcount",
        -9.35893829654882
      ],
      [
        "ace",
        -9.35927589833637
      ],
      [
        "ĠAfter",
        -9.3596982254206
      ],
      [
        "Ġdeal",
        -9.361354194980306
      ],
      [
        "Be",
        -9.362360975588878
      ],
      [
        "Ġcountr",
        -9.3623893770675
      ],
      [
        "Ġearth",
        -9.365562633976786
      ],
      [
        "Ġvisual",
        -9.366296696955636
      ],
      [
        "Ġkids",
        -9.366636372293543
      ],
      [
        "ĠUS",
        -9.367260939452567
      ],
      [
        "Ġbrand",
        -9.368066969462763
      ],
      [
        "One",
        -9.36920654054726
      ],
      [
        "Ġdocument",
        -9.36978403555213
      ],
      [
        "ĠAr",
        -9.371196659483608
      ],
      [
        "Ġefficienc",
        -9.3715316978497
      ],
      [
        "Ġeverything",
        -9.3716930917045
      ],
      [
        "{",
        -9.373178814854937
      ],
      [
        "Ġdisorder",
        -9.373326569203227
      ],
      [
        "izing",
        -9.374969558603784
      ],
      [
        "Ġrunn",
        -9.375041264240709
      ],
      [
        "Ġeveryone",
        -9.37575728936291
      ],
      [
        "ĠCh",
        -9.376043287370434
      ],
      [
        "ĠWorld",
        -9.377530634282127
      ],
      [
        "Ġmeat",
        -9.377685502361452
      ],
      [
        "Ġj",
        -9.37819150112653
      ],
      [
        "Ġgl",
        -9.379660396248235
      ],
      [
        "Ġdisplay",
        -9.380052882372366
      ],
      [
        "Ġdidn",
        -9.38023761641628
      ],
      [
        "Ġtopic",
        -9.381198486787875
      ],
      [
        "yourself",
        -9.381531809377451
      ],
      [
        "Ġtrue",
        -9.38221359003198
      ],
      [
        "Ġlack",
        -9.382277309715256
      ],
      [
        "Ġexpect",
        -9.38347529737425
      ],
      [
        "air",
        -9.383565097350171
      ],
      [
        "ĠOf",
        -9.384705047539777
      ],
      [
        "ĠMay",
        -9.384891993461332
      ],
      [
        "ome",
        -9.385230763968712
      ],
      [
        "ĠCO",
        -9.385883025491758
      ],
      [
        "Ġsoftware",
        -9.385902861491868
      ],
      [
        "Ġnote",
        -9.386176745408717
      ],
      [
        "Ġtrack",
        -9.387671551279665
      ],
      [
        "work",
        -9.387693927895794
      ],
      [
        "Ġdraw",
        -9.387759082563226
      ],
      [
        "Ġcharge",
        -9.38914600006818
      ],
      [
        "ĠWar",
        -9.389788995185787
      ],
      [
        "Ġcritical",
        -9.392229017210187
      ],
      [
        "Ġextend",
        -9.392811002977233
      ],
      [
        "Ġaim",
        -9.39286701617639
      ],
      [
        "-c",
        -9.393469285940654
      ],
      [
        "kin",
        -9.3934889502461
      ],
      [
        "ign",
        -9.393566765406195
      ],
      [
        "Ġinstall",
        -9.393636734666934
      ],
      [
        "ĠVi",
        -9.394494641381076
      ],
      [
        "Ġcompare",
        -9.39510729609334
      ],
      [
        "Ġroad",
        -9.395536488677712
      ],
      [
        "ng",
        -9.395849547681737
      ],
      [
        "Ġswitch",
        -9.398039994575566
      ],
      [
        "Ġlaw",
        -9.399110294660144
      ],
      [
        "-in",
        -9.399537708217116
      ],
      [
        "Ġelectrical",
        -9.39994004329278
      ],
      [
        "Ġexact",
        -9.40008722195662
      ],
      [
        "ĠHealth",
        -9.400559296532611
      ],
      [
        "Ġcontribute",
        -9.401003214674391
      ],
      [
        "Ġmath",
        -9.40128524348027
      ],
      [
        "Ġjoint",
        -9.40205251098872
      ],
      [
        "av",
        -9.402281079545055
      ],
      [
        "Ġago",
        -9.402295139318529
      ],
      [
        "Ġsteps",
        -9.402998742390343
      ],
      [
        "amp",
        -9.40383802171499
      ],
      [
        "head",
        -9.404235584458686
      ],
      [
        "Ġsix",
        -9.404462302404248
      ],
      [
        "RE",
        -9.40480011615562
      ],
      [
        "tain",
        -9.407314241457026
      ],
      [
        "Ġconstant",
        -9.40896963937182
      ],
      [
        "Ġfund",
        -9.409369662575594
      ],
      [
        "Ġisn",
        -9.40959246613158
      ],
      [
        "Ġprocesses",
        -9.409907156306012
      ],
      [
        "Ġstrength",
        -9.409991862430015
      ],
      [
        "Ġaspect",
        -9.410638731831874
      ],
      [
        "Ġimmun",
        -9.410787900999976
      ],
      [
        "time",
        -9.41199772980611
      ],
      [
        "Ġdemand",
        -9.414444067108857
      ],
      [
        "Ġex",
        -9.415227046163732
      ],
      [
        "Ġprovided",
        -9.41681094171247
      ],
      [
        "Ġmulti",
        -9.419212489449045
      ],
      [
        "...ĊĊ",
        -9.419733692153237
      ],
      [
        "cent",
        -9.421001089039953
      ],
      [
        "Ġcompar",
        -9.421226129937082
      ],
      [
        "ware",
        -9.425270233466552
      ],
      [
        "Ġcustomer",
        -9.425452863030294
      ],
      [
        "Ġfilter",
        -9.425453687514295
      ],
      [
        "fish",
        -9.426581067551972
      ],
      [
        "Ġhorse",
        -9.427303081603611
      ],
      [
        "Ġha",
        -9.427395443309184
      ],
      [
        "Ġmale",
        -9.428059464187715
      ],
      [
        "ĠSchool",
        -9.428244669043147
      ],
      [
        "Ġproduced",
        -9.429651377239622
      ],
      [
        "Ġpick",
        -9.431539537250426
      ],
      [
        "lan",
        -9.431955338285022
      ],
      [
        "On",
        -9.433140397748588
      ],
      [
        "ric",
        -9.434847730272852
      ],
      [
        "ĠCr",
        -9.435157819266184
      ],
      [
        "Ġnotice",
        -9.435737689822702
      ],
      [
        "ES",
        -9.436199739102648
      ],
      [
        "Ġsuccess",
        -9.43635984457148
      ],
      [
        "Ġremember",
        -9.436596695824518
      ],
      [
        "Ġinitial",
        -9.436624698771174
      ],
      [
        "Ġequal",
        -9.440346878615967
      ],
      [
        "ĠEx",
        -9.440512804473306
      ],
      [
        "Ġeating",
        -9.441226272319454
      ],
      [
        "Ġcross",
        -9.442281031778512
      ],
      [
        "ore",
        -9.442603266656857
      ],
      [
        "Ġadapt",
        -9.443208286594448
      ],
      [
        "Ġbuilt",
        -9.444093108005765
      ],
      [
        "Ġelse",
        -9.444096654139273
      ],
      [
        "Ġattack",
        -9.444118652796387
      ],
      [
        "Ġalternative",
        -9.444220220513785
      ],
      [
        "ists",
        -9.444950872316472
      ],
      [
        "ĠResearch",
        -9.445533188642989
      ],
      [
        "But",
        -9.445560331072404
      ],
      [
        "Ġwriting",
        -9.445976389211522
      ],
      [
        "like",
        -9.44716089136765
      ],
      [
        "Ġtrying",
        -9.44801539551575
      ],
      [
        "Ġbike",
        -9.448274774189748
      ],
      [
        "Ġhope",
        -9.448514589124104
      ],
      [
        "Ġfeature",
        -9.44932966574929
      ],
      [
        "Can",
        -9.45137594515016
      ],
      [
        "Ġapply",
        -9.451996202953683
      ],
      [
        "Ġpublished",
        -9.452451385901243
      ],
      [
        "Ġcl",
        -9.45362683750586
      ],
      [
        "own",
        -9.45407052104842
      ],
      [
        "Ġwrite",
        -9.454757219760245
      ],
      [
        "har",
        -9.45532019030503
      ],
      [
        "Ġspend",
        -9.455648858637929
      ],
      [
        "Ġestablish",
        -9.45683352556773
      ],
      [
        "Ġwear",
        -9.457549907901752
      ],
      [
        "atch",
        -9.45776279846966
      ],
      [
        "Ġobtain",
        -9.459259247258668
      ],
      [
        "Ġoutput",
        -9.459622074948978
      ],
      [
        "rac",
        -9.462566435410317
      ],
      [
        "ped",
        -9.463751291813097
      ],
      [
        "Ġpoor",
        -9.465024509995336
      ],
      [
        "Ġfine",
        -9.465771420950862
      ],
      [
        "Ġshift",
        -9.466929583303251
      ],
      [
        "Ġdoctor",
        -9.468881990237058
      ],
      [
        "Ġrequirement",
        -9.469073918593557
      ],
      [
        "Ġpoints",
        -9.46933367652305
      ],
      [
        "-to",
        -9.4703043806783
      ],
      [
        "Ġstem",
        -9.473717495740772
      ],
      [
        "bra",
        -9.47446456365902
      ],
      [
        "row",
        -9.475067946762456
      ],
      [
        "Ġmemory",
        -9.477225240564412
      ],
      [
        "lar",
        -9.47776155472272
      ],
      [
        "gar",
        -9.478137846210757
      ],
      [
        "ĠMore",
        -9.479284215179174
      ],
      [
        "Ġra",
        -9.480111475591071
      ],
      [
        "Ġsoon",
        -9.48018550814406
      ],
      [
        "Ġseries",
        -9.48060352507978
      ],
      [
        "Ġlocate",
        -9.482802311976052
      ],
      [
        "#",
        -9.484970796436915
      ],
      [
        "ĠLo",
        -9.485184800941806
      ],
      [
        "Ġfoods",
        -9.486774213433163
      ],
      [
        "ĠMost",
        -9.487771051057749
      ],
      [
        "Do",
        -9.490257195927452
      ],
      [
        "Ġmaintenance",
        -9.490312476049256
      ],
      [
        "ĠNe",
        -9.491401669262814
      ],
      [
        "Ġflavor",
        -9.492271822655734
      ],
      [
        "Ġhandle",
        -9.492609347331218
      ],
      [
        "Ġfeeling",
        -9.494162273567865
      ],
      [
        "Ġcauses",
        -9.494250400549266
      ],
      [
        "Ġarm",
        -9.495201054587262
      ],
      [
        "Ġload",
        -9.495950567681492
      ],
      [
        "Ġtouch",
        -9.496241396089168
      ],
      [
        "Ġstick",
        -9.496254694088735
      ],
      [
        "care",
        -9.496921212125562
      ],
      [
        "nia",
        -9.49740949311423
      ],
      [
        "rop",
        -9.497837233536588
      ],
      [
        "Ġtaste",
        -9.497896496671157
      ],
      [
        "Ġcontainer",
        -9.497917699116368
      ],
      [
        "Ġnutrient",
        -9.498113979246265
      ],
      [
        "Ġparticle",
        -9.498219893552516
      ],
      [
        "nder",
        -9.498299311545718
      ],
      [
        "Ġtrain",
        -9.498623153801296
      ],
      [
        "Ġclaim",
        -9.500486601383557
      ],
      [
        "Ġeconomic",
        -9.500487675021676
      ],
      [
        "Ġmanage",
        -9.50136078012736
      ],
      [
        "Ġcame",
        -9.502450819690209
      ],
      [
        "Ġideal",
        -9.502718556380566
      ],
      [
        "ki",
        -9.503703448874449
      ],
      [
        "Ġappropriate",
        -9.504966056293108
      ],
      [
        "ĠUn",
        -9.505237243838147
      ],
      [
        "Ġsequence",
        -9.506822652256442
      ],
      [
        "Ġstar",
        -9.507511833828428
      ],
      [
        "Ġ--",
        -9.507548692552245
      ],
      [
        "Ġcoat",
        -9.50915072970975
      ],
      [
        "Ġword",
        -9.509754149752442
      ],
      [
        "Ġdrop",
        -9.509769305413078
      ],
      [
        "Ġcur",
        -9.510020899858318
      ],
      [
        "Ġimmediate",
        -9.510200585248931
      ],
      [
        "Ġdecrease",
        -9.51020066946831
      ],
      [
        "Ġserious",
        -9.510206889380754
      ],
      [
        "Ġmoving",
        -9.510211814921732
      ],
      [
        "Ġchance",
        -9.51024819339062
      ],
      [
        "more",
        -9.510718364524942
      ],
      [
        "Ġfloor",
        -9.510982840732408
      ],
      [
        "Ġworks",
        -9.511120361700373
      ],
      [
        "Ġcircuit",
        -9.511465479830507
      ],
      [
        "Ġimportanc",
        -9.511786768950044
      ],
      [
        "Ġcamp",
        -9.511788850484166
      ],
      [
        "Ġfigure",
        -9.51203722372536
      ],
      [
        "Ġrock",
        -9.512934735745546
      ],
      [
        "ose",
        -9.51294486180451
      ],
      [
        "Ġmin",
        -9.514152679851776
      ],
      [
        "Ġfrequent",
        -9.51422878608663
      ],
      [
        "Ġinput",
        -9.51467480426266
      ],
      [
        "Ġcombination",
        -9.514740257794411
      ],
      [
        "ĠPre",
        -9.5157417903979
      ],
      [
        "He",
        -9.516501903055351
      ],
      [
        "**",
        -9.51668743441071
      ],
      [
        "Ġreplace",
        -9.516693095724772
      ],
      [
        "Ġplann",
        -9.517288702444397
      ],
      [
        "âĢĿ",
        -9.518276645101867
      ],
      [
        "AR",
        -9.518757971849531
      ],
      [
        "Ġprogress",
        -9.519617369105182
      ],
      [
        "Ġyellow",
        -9.520301741133231
      ],
      [
        "Ġmonitor",
        -9.520302235713675
      ],
      [
        "Ġgenes",
        -9.521112903724893
      ],
      [
        "Ġcharacteristic",
        -9.522397040860854
      ],
      [
        "Ġmatch",
        -9.522556562716495
      ],
      [
        "Ġenable",
        -9.5236482065252
      ],
      [
        "app",
        -9.523758187396838
      ],
      [
        "Ġpatient",
        -9.524793849365729
      ],
      [
        "Ġapplie",
        -9.524841738847403
      ],
      [
        "Ġmembers",
        -9.526022903492263
      ],
      [
        "Ġdeath",
        -9.526609835467594
      ],
      [
        "Ġuseful",
        -9.52755830453172
      ],
      [
        "Ġbottom",
        -9.530505857883623
      ],
      [
        "Ġpen",
        -9.531585836787688
      ],
      [
        "ĠMar",
        -9.53177227041228
      ],
      [
        "Ġbasi",
        -9.532119677267607
      ],
      [
        "Ġingredient",
        -9.532559259627742
      ],
      [
        "friendly",
        -9.532868825501057
      ],
      [
        "Ġlives",
        -9.533336074471062
      ],
      [
        "Ġscale",
        -9.534077145316466
      ],
      [
        "ck",
        -9.534205580478815
      ],
      [
        "Ġfabric",
        -9.534616844371286
      ],
      [
        "ĠMy",
        -9.534662074668818
      ],
      [
        "Ġmineral",
        -9.535207633204973
      ],
      [
        "Ġdiseases",
        -9.53570175854112
      ],
      [
        "Ġfinish",
        -9.536760333610392
      ],
      [
        "Ġ+",
        -9.537584131295064
      ],
      [
        "ock",
        -9.538076546637503
      ],
      [
        "Ġoccur",
        -9.538813509793108
      ],
      [
        "Ġconnection",
        -9.53903494049978
      ],
      [
        "Ġdefine",
        -9.53946797544532
      ],
      [
        "Ġpair",
        -9.54061864316254
      ],
      [
        "ĠWho",
        -9.541847223588071
      ],
      [
        "Ġsensor",
        -9.542190553930334
      ],
      [
        "Ġcouple",
        -9.542892310718898
      ],
      [
        "ĠSu",
        -9.544849369215282
      ],
      [
        "Ġrapid",
        -9.544971031669675
      ],
      [
        "king",
        -9.545382859954408
      ],
      [
        "Ġtherapy",
        -9.546179834347324
      ],
      [
        "Ġvolume",
        -9.5470527769426
      ],
      [
        "Ma",
        -9.547693482765409
      ],
      [
        "Z",
        -9.547898944920728
      ],
      [
        "ĠYes",
        -9.548045859935074
      ],
      [
        "Ġslight",
        -9.54830423105286
      ],
      [
        "Ġtips",
        -9.548609501756903
      ],
      [
        "ttle",
        -9.54881818619453
      ],
      [
        "nother",
        -9.548866468194047
      ],
      [
        "Ġmolecule",
        -9.549139950661193
      ],
      [
        "Ġwave",
        -9.549322621499543
      ],
      [
        "net",
        -9.549906698490693
      ],
      [
        "Ġresponsibl",
        -9.550087836226767
      ],
      [
        "Ġsituation",
        -9.550136727604478
      ],
      [
        "Ġvitamin",
        -9.551232032810104
      ],
      [
        "den",
        -9.551511409443666
      ],
      [
        "Ġevents",
        -9.55156639960105
      ],
      [
        "Ġaccept",
        -9.553328449070143
      ],
      [
        "Ġocean",
        -9.553329322847253
      ],
      [
        "ĠMi",
        -9.553512610841304
      ],
      [
        "ĠNorth",
        -9.554222152317042
      ],
      [
        "Ġmanufactur",
        -9.55478296680272
      ],
      [
        "rus",
        -9.555209160445331
      ],
      [
        "my",
        -9.555316234741614
      ],
      [
        "Ġusers",
        -9.55656802123977
      ],
      [
        "Ġframe",
        -9.557470967513744
      ],
      [
        "aught",
        -9.558372910096814
      ],
      [
        "Ġdetect",
        -9.55939515752592
      ],
      [
        "gra",
        -9.559536304710663
      ],
      [
        "ĠTa",
        -9.559959915689852
      ],
      [
        "ĠAmerica",
        -9.560130767875854
      ],
      [
        "Ġburn",
        -9.56013175775077
      ],
      [
        "Al",
        -9.56093058195481
      ],
      [
        "tes",
        -9.560981268851553
      ],
      [
        "ĠFrom",
        -9.561197570515072
      ],
      [
        "Ġbird",
        -9.561291837088364
      ],
      [
        "$",
        -9.563456822902072
      ],
      [
        "Ġgoe",
        -9.563780636458896
      ],
      [
        "ĠSaudi",
        -9.5638719138942
      ],
      [
        "Ġencourage",
        -9.563877019206467
      ],
      [
        "Ġpretty",
        -9.563878476236258
      ],
      [
        "Ġemission",
        -9.563989845806958
      ],
      [
        "Ġcrop",
        -9.56459861905661
      ],
      [
        "Ġworth",
        -9.564947326770575
      ],
      [
        "Ġplatform",
        -9.566000164663016
      ],
      [
        "use",
        -9.566181427415518
      ],
      [
        "pro",
        -9.566767289652256
      ],
      [
        "Ġmark",
        -9.566973373962
      ],
      [
        "âĢ¢",
        -9.567398755073013
      ],
      [
        "Ġshows",
        -9.568339550485394
      ],
      [
        "mat",
        -9.56873955533203
      ],
      [
        "ĠWhy",
        -9.569027263500637
      ],
      [
        "Ġdate",
        -9.569402917639351
      ],
      [
        "Ġpull",
        -9.570409854123891
      ],
      [
        "Ġdecision",
        -9.572545231526792
      ],
      [
        "Co",
        -9.573322544412148
      ],
      [
        "life",
        -9.573415292525064
      ],
      [
        "cal",
        -9.573893540326456
      ],
      [
        "Ġrefer",
        -9.574032610025114
      ],
      [
        "Ġteeth",
        -9.574538333907986
      ],
      [
        "ult",
        -9.57478065194434
      ],
      [
        "Ġmeasurement",
        -9.57540156243322
      ],
      [
        ".S",
        -9.577599547646788
      ],
      [
        "While",
        -9.578422622562751
      ],
      [
        "Ġobject",
        -9.57870734644845
      ],
      [
        "companie",
        -9.578844453410348
      ],
      [
        "Ġhair",
        -9.578914003027691
      ],
      [
        "Ġimages",
        -9.578996417190416
      ],
      [
        "Ġsuper",
        -9.57955995029996
      ],
      [
        "Ġmen",
        -9.579771018819294
      ],
      [
        "qua",
        -9.579875708826648
      ],
      [
        "Ġprint",
        -9.579921548947985
      ],
      [
        "Ġorganic",
        -9.581534758733888
      ],
      [
        "Ġmis",
        -9.581751718238802
      ],
      [
        "cha",
        -9.582882426529938
      ],
      [
        "Ġchain",
        -9.583198075444232
      ],
      [
        "ĠâĢ¦",
        -9.58323160180288
      ],
      [
        "ition",
        -9.583834439518569
      ],
      [
        "Ġelectronic",
        -9.583961984834112
      ],
      [
        "Ġrich",
        -9.584416381376082
      ],
      [
        "Ġsuitabl",
        -9.585343169314466
      ],
      [
        "Ġstring",
        -9.585979041828208
      ],
      [
        "Ġcareful",
        -9.58605513045784
      ],
      [
        "Ġnothing",
        -9.586107433247456
      ],
      [
        "val",
        -9.58703049421381
      ],
      [
        "With",
        -9.587341838028204
      ],
      [
        "Ġpump",
        -9.58740692225474
      ],
      [
        "Ġcarry",
        -9.589888603830229
      ],
      [
        "Ġmotor",
        -9.589957152065104
      ],
      [
        "%)",
        -9.59064300427643
      ],
      [
        "Con",
        -9.591500726024393
      ],
      [
        "cur",
        -9.592857882142878
      ],
      [
        "Ġedge",
        -9.59310219407078
      ],
      [
        "ST",
        -9.59325451009994
      ],
      [
        "ĠAre",
        -9.593886439266882
      ],
      [
        "Ġhost",
        -9.595117256401885
      ],
      [
        "Ġcleaning",
        -9.595488121433837
      ],
      [
        "ĠY",
        -9.595668125583412
      ],
      [
        "Ġdec",
        -9.59682942068676
      ],
      [
        "Ġbone",
        -9.59744019054287
      ],
      [
        "ĠMin",
        -9.597545546367758
      ],
      [
        "Ġversion",
        -9.598409118598893
      ],
      [
        "Ġnumbers",
        -9.59842341798213
      ],
      [
        "Ġsolid",
        -9.598455420971652
      ],
      [
        "Ġdoor",
        -9.59885380920193
      ],
      [
        "ification",
        -9.599092554551213
      ],
      [
        "Ġbeautiful",
        -9.600598193396662
      ],
      [
        "ĠPri",
        -9.601983276437611
      ],
      [
        "Ġsnow",
        -9.602815890141972
      ],
      [
        "Ġpurchase",
        -9.603077233768566
      ],
      [
        "Ġmicro",
        -9.603420691069164
      ],
      [
        "ami",
        -9.60417487761239
      ],
      [
        "Ġprograms",
        -9.605007719411873
      ],
      [
        "Ġexcellen",
        -9.605046927359131
      ],
      [
        "Ġgeneration",
        -9.60504997488022
      ],
      [
        "Ġfluid",
        -9.605100315809525
      ],
      [
        "ĠFa",
        -9.605400721759365
      ],
      [
        "Ġfr",
        -9.60573803304738
      ],
      [
        "Ġcomput",
        -9.605865036034224
      ],
      [
        "Ġadjust",
        -9.606740906871371
      ],
      [
        "raw",
        -9.608107728273854
      ],
      [
        "Ġsustainabl",
        -9.608311955470054
      ],
      [
        "By",
        -9.608486905377331
      ],
      [
        "ĠOur",
        -9.6086044647558
      ],
      [
        "Using",
        -9.608658995792393
      ],
      [
        "Ġvary",
        -9.609595482954532
      ],
      [
        "Ġconstruction",
        -9.61008887248614
      ],
      [
        "Ġcup",
        -9.610181710384952
      ],
      [
        "ĠNot",
        -9.610193188619744
      ],
      [
        "Ġpush",
        -9.611671108568617
      ],
      [
        "Ġdiscuss",
        -9.611866462857243
      ],
      [
        "are",
        -9.612352621084243
      ],
      [
        "Ġseat",
        -9.61283118235393
      ],
      [
        "ja",
        -9.613045386912528
      ],
      [
        "Ġprocedure",
        -9.61388743210339
      ],
      [
        "came",
        -9.613894750558298
      ],
      [
        "Ġphotograph",
        -9.614467214104351
      ],
      [
        "van",
        -9.61483771536647
      ],
      [
        "oid",
        -9.616592758708247
      ],
      [
        "mor",
        -9.618923393474986
      ],
      [
        "ash",
        -9.61919152011492
      ],
      [
        "ĠSe",
        -9.61975152758117
      ],
      [
        "Ġaccurate",
        -9.620598867581272
      ],
      [
        "Ġbrown",
        -9.620602803204072
      ],
      [
        "ĠJo",
        -9.620862777782552
      ],
      [
        "Ġestimate",
        -9.621108686203126
      ],
      [
        "Ġfrequenc",
        -9.622261409442256
      ],
      [
        "ĠGo",
        -9.622350577555068
      ],
      [
        "mar",
        -9.623172164019334
      ],
      [
        "Ġrain",
        -9.624777202760066
      ],
      [
        "ily",
        -9.624916274088218
      ],
      [
        "Ġsmooth",
        -9.625098447047256
      ],
      [
        "Ġchang",
        -9.625303201725616
      ],
      [
        "Ġcoast",
        -9.625695461831755
      ],
      [
        "-b",
        -9.626015034439927
      ],
      [
        "Ġflat",
        -9.626844789590118
      ],
      [
        "ather",
        -9.62823114008572
      ],
      [
        "Ġmoment",
        -9.6282939079587
      ],
      [
        "Ġextract",
        -9.628594868910746
      ],
      [
        "Ġbox",
        -9.629933745684106
      ],
      [
        "Ġheavy",
        -9.63189099218248
      ],
      [
        "Ġfile",
        -9.63209401998171
      ],
      [
        "Ġfeeding",
        -9.632671304047792
      ],
      [
        "ritten",
        -9.63644292322807
      ],
      [
        "-term",
        -9.636586437297575
      ],
      [
        "ction",
        -9.637328965327178
      ],
      [
        "ified",
        -9.637378888967625
      ],
      [
        "ged",
        -9.638426220811189
      ],
      [
        "Ġriver",
        -9.638769570802062
      ],
      [
        "Ġreflect",
        -9.639589116546176
      ],
      [
        "ĠPh",
        -9.640973525393044
      ],
      [
        "Ġbathroom",
        -9.641024102477758
      ],
      [
        "Ġensur",
        -9.64144886792061
      ],
      [
        "ĠAdditional",
        -9.64301522146859
      ],
      [
        "ger",
        -9.643070092408744
      ],
      [
        "Ġegg",
        -9.64411079759072
      ],
      [
        "Ġobjects",
        -9.64504446197595
      ],
      [
        "Ġconnected",
        -9.645153236422034
      ],
      [
        "han",
        -9.645895473613171
      ],
      [
        "MS",
        -9.646649508842875
      ],
      [
        "Ġbaby",
        -9.647818619432991
      ],
      [
        "Ġprinciple",
        -9.647904290712098
      ],
      [
        "Ġboard",
        -9.648511642386405
      ],
      [
        "Ġstone",
        -9.649188170605024
      ],
      [
        "Ġcolour",
        -9.650686761520896
      ],
      [
        "board",
        -9.651755791255006
      ],
      [
        "rap",
        -9.65271100489679
      ],
      [
        "lost",
        -9.652713018194977
      ],
      [
        "Ġresistance",
        -9.652841027867062
      ],
      [
        "Ġsort",
        -9.653181017315507
      ],
      [
        "Ġphoto",
        -9.654093052015051
      ],
      [
        "Ġcontroll",
        -9.654226921189355
      ],
      [
        "Ġrare",
        -9.654474680319424
      ],
      [
        "Ġspin",
        -9.654755289609454
      ],
      [
        "Ġpromote",
        -9.656024962610672
      ],
      [
        "Ġvision",
        -9.656181155223656
      ],
      [
        "ĠAls",
        -9.656281405999056
      ],
      [
        "Ġvalues",
        -9.656850476446287
      ],
      [
        "Ġrecognize",
        -9.658205614834635
      ],
      [
        "Ġteaching",
        -9.661837069891687
      ],
      [
        "Ġsevere",
        -9.66230327396088
      ],
      [
        "Ġpot",
        -9.663292697825783
      ],
      [
        "ĠGa",
        -9.663694932001892
      ],
      [
        "Ġcommand",
        -9.66442369416929
      ],
      [
        "Ġthousand",
        -9.666531170614466
      ],
      [
        "Ġwire",
        -9.667465093147012
      ],
      [
        "Ġstand",
        -9.667708332834543
      ],
      [
        "TE",
        -9.6692054263141
      ],
      [
        "Ġpan",
        -9.669462668093306
      ],
      [
        "ants",
        -9.670705419118637
      ],
      [
        "ĠEven",
        -9.670990192114324
      ],
      [
        "Ġhole",
        -9.671836592443416
      ],
      [
        "Ġball",
        -9.672728645768585
      ],
      [
        "Ġplate",
        -9.672847142980988
      ],
      [
        "Ġforward",
        -9.673314755658977
      ],
      [
        "Ġmap",
        -9.673430122578834
      ],
      [
        "Ġwait",
        -9.67367464137589
      ],
      [
        "Ġgra",
        -9.674312718680216
      ],
      [
        "Ġsell",
        -9.67463703236202
      ],
      [
        "Ġinteraction",
        -9.67492615163086
      ],
      [
        "Ġcausing",
        -9.675995056666398
      ],
      [
        "Br",
        -9.676858337675569
      ],
      [
        "Ġpowerful",
        -9.677213075912778
      ],
      [
        "Ġaid",
        -9.678050895518616
      ],
      [
        "Ġreveal",
        -9.678365529671506
      ],
      [
        "Ġnoise",
        -9.678437800362383
      ],
      [
        "Ġconsist",
        -9.678515558310998
      ],
      [
        "ĠNa",
        -9.67925644663309
      ],
      [
        "old",
        -9.679376158462873
      ],
      [
        "los",
        -9.67976258343066
      ],
      [
        "Ġpath",
        -9.680103512272224
      ],
      [
        "Ġadding",
        -9.681043768032437
      ],
      [
        "Ġpicture",
        -9.68252256750914
      ],
      [
        "vol",
        -9.684626026456709
      ],
      [
        "nic",
        -9.68530221202472
      ],
      [
        "vin",
        -9.685491759053187
      ],
      [
        "-p",
        -9.68551840698976
      ],
      [
        "Ġconvert",
        -9.685526505661764
      ],
      [
        "Ġfiber",
        -9.685621340513547
      ],
      [
        "Ġvaluable",
        -9.685799743887896
      ],
      [
        "Ġreference",
        -9.688155231770644
      ],
      [
        "giving",
        -9.690372738564694
      ],
      [
        "Ġfight",
        -9.6903782342353
      ],
      [
        "back",
        -9.691710621867887
      ],
      [
        "ĠArt",
        -9.692535301189755
      ],
      [
        "Ġwrong",
        -9.692724302303606
      ],
      [
        "Ġadult",
        -9.69290750126649
      ],
      [
        "Ġopening",
        -9.693284697560898
      ],
      [
        "Ġinsight",
        -9.693844276504969
      ],
      [
        "Ġoxygen",
        -9.695139461225796
      ],
      [
        "Ġrecover",
        -9.695443554914366
      ],
      [
        "ĠRi",
        -9.695699488270431
      ],
      [
        "went",
        -9.695810941573212
      ],
      [
        "Ġemploy",
        -9.697353082631782
      ],
      [
        "â",
        -9.697500660658877
      ],
      [
        "Ġmechanism",
        -9.697559858777735
      ],
      [
        "men",
        -9.697651152975537
      ],
      [
        "ĠCenter",
        -9.697821718489529
      ],
      [
        "Ġtesting",
        -9.698219255634651
      ],
      [
        "Ġhappens",
        -9.698372983888634
      ],
      [
        "Di",
        -9.698662405508308
      ],
      [
        "Ġexpens",
        -9.69913153016694
      ],
      [
        "These",
        -9.699432470017893
      ],
      [
        "efore",
        -9.700308894204866
      ],
      [
        "Ġinfection",
        -9.700899352290772
      ],
      [
        "ham",
        -9.701526034540658
      ],
      [
        "Ġinternational",
        -9.702420178806232
      ],
      [
        "Ġrepair",
        -9.702476129122072
      ],
      [
        "Ġhunt",
        -9.702480898265392
      ],
      [
        "Ġgrass",
        -9.702715209764609
      ],
      [
        "Ġcooking",
        -9.702810163639176
      ],
      [
        "Now",
        -9.70321050764286
      ],
      [
        "par",
        -9.70420795754394
      ],
      [
        "Ġinstance",
        -9.704878619300338
      ],
      [
        "Ġcutting",
        -9.7051116256007
      ],
      [
        "Ġmuscle",
        -9.7055890588614
      ],
      [
        "Ġrec",
        -9.706920893663344
      ],
      [
        "And",
        -9.707901192400218
      ],
      [
        "Ġready",
        -9.708284297770955
      ],
      [
        "Ġrise",
        -9.71059897527601
      ],
      [
        "Ġthird",
        -9.714675227756732
      ],
      [
        "Ġequation",
        -9.714676027181328
      ],
      [
        "older",
        -9.714761143898802
      ],
      [
        "Ġexpand",
        -9.714928812724342
      ],
      [
        "Step",
        -9.715904740796146
      ],
      [
        "Ġpractices",
        -9.716262995008057
      ],
      [
        "ĠNow",
        -9.716865618548354
      ],
      [
        "ĠWater",
        -9.718451578739554
      ],
      [
        "Ġphone",
        -9.718611233256308
      ],
      [
        "comp",
        -9.718647951452107
      ],
      [
        "ĠEach",
        -9.71937852175432
      ],
      [
        "car",
        -9.719646353079517
      ],
      [
        "can",
        -9.72022090522956
      ],
      [
        "Ġmouth",
        -9.720427869002265
      ],
      [
        "Ġmiddle",
        -9.722110739423162
      ],
      [
        "Ġbag",
        -9.722630515427774
      ],
      [
        ".com",
        -9.723564518432266
      ],
      [
        "Ġround",
        -9.724050556276014
      ],
      [
        "Ġintroduce",
        -9.724586266986709
      ],
      [
        "Ġhabitat",
        -9.724689968648084
      ],
      [
        "Ġexpress",
        -9.72581285158272
      ],
      [
        "Ġnest",
        -9.7259057733764
      ],
      [
        "right",
        -9.726617667714743
      ],
      [
        "Ġcollection",
        -9.726652879281383
      ],
      [
        "ĠAir",
        -9.727632343069246
      ],
      [
        "Ġoccurs",
        -9.728992225314904
      ],
      [
        "Ġthus",
        -9.729844489186869
      ],
      [
        "Ġbright",
        -9.72995625145604
      ],
      [
        "Ġlesson",
        -9.732688166883138
      ],
      [
        "ĠâĢľ",
        -9.732978216746565
      ],
      [
        "wise",
        -9.733274170400342
      ],
      [
        "Ġwin",
        -9.733518154266536
      ],
      [
        "Ġnational",
        -9.733768065209905
      ],
      [
        "Ġphase",
        -9.734070007717778
      ],
      [
        "Ġled",
        -9.73416803556596
      ],
      [
        "Ġwonder",
        -9.734433522640138
      ],
      [
        "Ġbackground",
        -9.73484366509427
      ],
      [
        "lip",
        -9.73508059636972
      ],
      [
        "Ġmember",
        -9.735176069639335
      ],
      [
        "Ġvirus",
        -9.73641864192415
      ],
      [
        "pol",
        -9.736706387981616
      ],
      [
        "oxide",
        -9.736789431074422
      ],
      [
        "-up",
        -9.736897412100207
      ],
      [
        "Ġsymbol",
        -9.73712001638947
      ],
      [
        "Ġflight",
        -9.737208789682544
      ],
      [
        "haps",
        -9.73738294955651
      ],
      [
        "ĠFirst",
        -9.737732593712382
      ],
      [
        "Ġmid",
        -9.738088540095584
      ],
      [
        "Ġeducational",
        -9.738613761833673
      ],
      [
        "Ġadvi",
        -9.739054366933214
      ],
      [
        "Ġthermal",
        -9.740162554322149
      ],
      [
        "Ġcentury",
        -9.74049342934718
      ],
      [
        "Ġsecurity",
        -9.741592853159986
      ],
      [
        "Ġorganism",
        -9.742284900028576
      ],
      [
        "Ġfan",
        -9.742359328085604
      ],
      [
        "ink",
        -9.74278679572615
      ],
      [
        "SE",
        -9.743419363856331
      ],
      [
        "Some",
        -9.743819208155216
      ],
      [
        "uck",
        -9.743958779898506
      ],
      [
        "Ġdepth",
        -9.743987584403056
      ],
      [
        "Ġgold",
        -9.744088658136672
      ],
      [
        "Ã",
        -9.744590167978094
      ],
      [
        "Ġlink",
        -9.744745250047911
      ],
      [
        "Ġdental",
        -9.747264945326869
      ],
      [
        "Ġconsistent",
        -9.747731745496928
      ],
      [
        "Ġspeak",
        -9.74780318643356
      ],
      [
        "Ġaffected",
        -9.747815358002386
      ],
      [
        "ĠGe",
        -9.747823547038088
      ],
      [
        "rid",
        -9.747910974596271
      ],
      [
        "Ġjoin",
        -9.749390879847248
      ],
      [
        "Ġcompound",
        -9.74981592179262
      ],
      [
        "Ġiron",
        -9.749863795361314
      ],
      [
        "Ġelement",
        -9.75171286653185
      ],
      [
        "Ġweb",
        -9.752283460803156
      ],
      [
        "Ġcomment",
        -9.752743116419245
      ],
      [
        "Ġgr",
        -9.753273348749802
      ],
      [
        "unt",
        -9.753825185364128
      ],
      [
        "Ġreaction",
        -9.754069783021366
      ],
      [
        "ĠMake",
        -9.754268733163752
      ],
      [
        "Ġsend",
        -9.754381122407269
      ],
      [
        "ĠAccording",
        -9.75583878635668
      ],
      [
        "Ġfriends",
        -9.755852020467632
      ],
      [
        "ene",
        -9.756195988483054
      ],
      [
        "diabetes",
        -9.757502873441824
      ],
      [
        "ĠInstitute",
        -9.75750801936401
      ],
      [
        "Ġmessage",
        -9.757662473493468
      ],
      [
        "ĠGra",
        -9.757777555195055
      ],
      [
        "Ġletter",
        -9.758819930164584
      ],
      [
        "aging",
        -9.759349125417678
      ],
      [
        "Ġfoot",
        -9.760039610359328
      ],
      [
        "Ġmedicine",
        -9.760080189376824
      ],
      [
        "Ġconsumption",
        -9.76009164773298
      ],
      [
        "late",
        -9.760754358518444
      ],
      [
        "held",
        -9.760947260761007
      ],
      [
        "Ġheight",
        -9.761210957250276
      ],
      [
        "ĠCha",
        -9.761289625417149
      ],
      [
        "ĠPer",
        -9.761364544079424
      ],
      [
        "ĠTh",
        -9.762043895336024
      ],
      [
        "part",
        -9.762104831550976
      ],
      [
        "Ġvia",
        -9.762279785888015
      ],
      [
        "Ġjournal",
        -9.76248400912079
      ],
      [
        "Ġthin",
        -9.762609218090963
      ],
      [
        "Ġflea",
        -9.762667015589011
      ],
      [
        "Ġcontext",
        -9.762736810782226
      ],
      [
        "Ġgreenhouse",
        -9.76275282625833
      ],
      [
        "Ġtexture",
        -9.763365859935249
      ],
      [
        "Ġlo",
        -9.763673464753058
      ],
      [
        "Ġvital",
        -9.765295623386193
      ],
      [
        "log",
        -9.76533507718285
      ],
      [
        "Ġpredict",
        -9.765484311988953
      ],
      [
        "Ġreferr",
        -9.766846046803677
      ],
      [
        "Ġgrade",
        -9.76870899998866
      ],
      [
        "Ġten",
        -9.768974762737802
      ],
      [
        "inches",
        -9.769004833318526
      ],
      [
        "ong",
        -9.769416602612456
      ],
      [
        "Ġreported",
        -9.770072673350985
      ],
      [
        "q",
        -9.771168535134793
      ],
      [
        "ley",
        -9.772035282760996
      ],
      [
        "lay",
        -9.772035586979126
      ],
      [
        "wide",
        -9.772259823265795
      ],
      [
        "ĠQu",
        -9.773490969098985
      ],
      [
        "Ġobserve",
        -9.773623204667874
      ],
      [
        "Ġwash",
        -9.77409543877848
      ],
      [
        "ries",
        -9.774313507383011
      ],
      [
        "top",
        -9.77470142655822
      ],
      [
        "Ġdrawing",
        -9.775396298629069
      ],
      [
        "ept",
        -9.775697071423217
      ],
      [
        "Ġbin",
        -9.776588059709526
      ],
      [
        "Ġcoming",
        -9.77860329127786
      ],
      [
        "place",
        -9.780310432936384
      ],
      [
        "ĠLet",
        -9.78048767007378
      ],
      [
        "ĠDis",
        -9.781648647920264
      ],
      [
        "Ġdrain",
        -9.78377367713302
      ],
      [
        "Ġprefer",
        -9.784028414991056
      ],
      [
        "Ġappearance",
        -9.785382562055684
      ],
      [
        "Ġsuit",
        -9.785764129947234
      ],
      [
        "duct",
        -9.786392247798224
      ],
      [
        "Ġoutdoor",
        -9.786469165881227
      ],
      [
        "body",
        -9.787678311097684
      ],
      [
        "Ġbirth",
        -9.788793805010071
      ],
      [
        "Ġdouble",
        -9.7888849502063
      ],
      [
        "ĠHigh",
        -9.790083162505557
      ],
      [
        "Â",
        -9.791447229419903
      ],
      [
        "Ġproperty",
        -9.791661404609378
      ],
      [
        "ĠKa",
        -9.792197016259069
      ],
      [
        "tors",
        -9.792511767958798
      ],
      [
        "off",
        -9.792630936643938
      ],
      [
        "ĠOther",
        -9.793419582753218
      ],
      [
        "tting",
        -9.793863963779284
      ],
      [
        "Ġalgorithm",
        -9.794204208609704
      ],
      [
        "Ġerror",
        -9.794210711825032
      ],
      [
        "Ġdriv",
        -9.79428907916339
      ],
      [
        "ĠDec",
        -9.794419093625994
      ],
      [
        "Ġexhibit",
        -9.796878023878012
      ],
      [
        "Ġdetermin",
        -9.797311675356957
      ],
      [
        "ĠPi",
        -9.79744023874954
      ],
      [
        "eel",
        -9.797485170585084
      ],
      [
        "ett",
        -9.797675051892186
      ],
      [
        "itis",
        -9.798078019576575
      ],
      [
        "ĠGu",
        -9.798126681281955
      ],
      [
        "tiny",
        -9.798538927783229
      ],
      [
        "ĠMu",
        -9.798797909693306
      ],
      [
        "Ġattach",
        -9.799146337091951
      ],
      [
        "IT",
        -9.799380163989316
      ],
      [
        "Ġvoltage",
        -9.79963670759339
      ],
      [
        "ĠEl",
        -9.79995052590422
      ],
      [
        "Ġvariable",
        -9.800152368358969
      ],
      [
        "Ġimprov",
        -9.800742513546115
      ],
      [
        "Ġexpression",
        -9.800780055645207
      ],
      [
        "Ġdur",
        -9.800873850587866
      ],
      [
        "ĠSea",
        -9.80197628543618
      ],
      [
        "Ġpress",
        -9.804089221959384
      ],
      [
        "OR",
        -9.805636148887388
      ],
      [
        "Ġmother",
        -9.80652988887909
      ],
      [
        "Ġangle",
        -9.806647369946432
      ],
      [
        "bot",
        -9.806650424986806
      ],
      [
        "Ġcore",
        -9.80800596699536
      ],
      [
        "AN",
        -9.808185771275696
      ],
      [
        "Ġstock",
        -9.80936763761742
      ],
      [
        "ole",
        -9.810274873093803
      ],
      [
        "Ġfavorite",
        -9.810417901228194
      ],
      [
        "Ġlose",
        -9.812102469410991
      ],
      [
        "Ġdesire",
        -9.812545186994464
      ],
      [
        "rat",
        -9.813238438738498
      ],
      [
        "Ġfamili",
        -9.814935583793265
      ],
      [
        "Ġhands",
        -9.815728606037386
      ],
      [
        "Ġsociet",
        -9.815798739036117
      ],
      [
        "Ġinteresting",
        -9.818609956739405
      ],
      [
        "Ġpresen",
        -9.819560218121875
      ],
      [
        "Ġforest",
        -9.819609550076636
      ],
      [
        "Ġtechnologies",
        -9.821269443600205
      ],
      [
        "Ġroof",
        -9.82126994148209
      ],
      [
        "Ġdead",
        -9.82153607267627
      ],
      [
        "Ġhearing",
        -9.822394795400738
      ],
      [
        "Ġfe",
        -9.823050594614788
      ],
      [
        "Ġabsorb",
        -9.823479103869536
      ],
      [
        "Ġjourney",
        -9.824016706041936
      ],
      [
        "Ġcombine",
        -9.824095102922676
      ],
      [
        "ĠJust",
        -9.824673605044056
      ],
      [
        "rod",
        -9.825323831586449
      ],
      [
        "Ġmeaning",
        -9.826058385236877
      ],
      [
        "Ġcomfortabl",
        -9.82605996392182
      ],
      [
        "MA",
        -9.826542981854969
      ],
      [
        "Ã©",
        -9.826782774414845
      ],
      [
        "Ġplug",
        -9.826864911277656
      ],
      [
        "Ġbeginning",
        -9.826871163574944
      ],
      [
        "Ġpreference",
        -9.82700003906674
      ],
      [
        "Ġshade",
        -9.82712439280105
      ],
      [
        "Ġcit",
        -9.827243428452745
      ],
      [
        "Ġsaw",
        -9.827367881566609
      ],
      [
        "ĠEnglish",
        -9.82768503208159
      ],
      [
        "Whether",
        -9.829484577310945
      ],
      [
        "Ġzone",
        -9.829585013307163
      ],
      [
        "Ġ#",
        -9.829630450990354
      ],
      [
        "Ġcontract",
        -9.830797825591814
      ],
      [
        "ĠMan",
        -9.830798564601574
      ],
      [
        "Ġinvestment",
        -9.832695638873544
      ],
      [
        "ĠThei",
        -9.833426212472288
      ],
      [
        "Ġtrip",
        -9.834531048649222
      ],
      [
        "Ġadults",
        -9.83505838046094
      ],
      [
        "ĠNOT",
        -9.835333737288526
      ],
      [
        "Ġpartner",
        -9.836326855695862
      ],
      [
        "Ġimplement",
        -9.836954126136476
      ],
      [
        "ĠIndia",
        -9.837107405663629
      ],
      [
        "ĠSha",
        -9.83770567708576
      ],
      [
        "Ġtransition",
        -9.837930056737976
      ],
      [
        "Ġthick",
        -9.840376576767008
      ],
      [
        "Ġoutcome",
        -9.841136901537586
      ],
      [
        "Ġpassage",
        -9.841364801311984
      ],
      [
        "zz",
        -9.841833851136354
      ],
      [
        "Ġcatch",
        -9.841917926610344
      ],
      [
        "Ġfacilit",
        -9.842199180757657
      ],
      [
        "meter",
        -9.842291405458626
      ],
      [
        "ĠJohn",
        -9.842357712605953
      ],
      [
        "Ġteach",
        -9.843879171171952
      ],
      [
        "No",
        -9.845417908491417
      ],
      [
        "ĠAfrica",
        -9.845529343908195
      ],
      [
        "Ġhuge",
        -9.846282460788792
      ],
      [
        "Ġsurrounding",
        -9.846309069119048
      ],
      [
        "Ġstation",
        -9.846725810745845
      ],
      [
        "Ġdistribution",
        -9.846806627456072
      ],
      [
        "rie",
        -9.846870575128388
      ],
      [
        "Ġplanet",
        -9.846979406953558
      ],
      [
        "Ġchicken",
        -9.849227115608937
      ],
      [
        "Ġcrack",
        -9.849492630721535
      ],
      [
        "Ġupper",
        -9.84950132783583
      ],
      [
        "Ġpi",
        -9.849925246876133
      ],
      [
        "rite",
        -9.850304117741736
      ],
      [
        "Ġformat",
        -9.850346233215848
      ],
      [
        "Here",
        -9.851659782299016
      ],
      [
        "Ġport",
        -9.851817960178726
      ],
      [
        "Ġboil",
        -9.8519242662752
      ],
      [
        "Ġtrigger",
        -9.851962389462
      ],
      [
        "ĠJa",
        -9.852030217555331
      ],
      [
        "properly",
        -9.85279027480388
      ],
      [
        "Ġwheel",
        -9.853264429497292
      ],
      [
        "-like",
        -9.853729253384646
      ],
      [
        "oma",
        -9.85471882528732
      ],
      [
        "Ġpractical",
        -9.854727805764805
      ],
      [
        "Ġcompost",
        -9.854795184478268
      ],
      [
        "Ġclient",
        -9.85480789480517
      ],
      [
        "Ġrecycl",
        -9.855253386718566
      ],
      [
        "Ġmoistur",
        -9.85743532925026
      ],
      [
        "ĠFe",
        -9.85753932906544
      ],
      [
        "`",
        -9.857586251798526
      ],
      [
        "Ġconcentration",
        -9.85758964821499
      ],
      [
        "Ġmarine",
        -9.85780459386116
      ],
      [
        "AL",
        -9.858149059774954
      ],
      [
        "Pro",
        -9.858796744366115
      ],
      [
        "Ġupdate",
        -9.859035985618494
      ],
      [
        "Ġrace",
        -9.859908212699503
      ],
      [
        "Ġratio",
        -9.860780928720974
      ],
      [
        "Ġhighlight",
        -9.86237515896516
      ],
      [
        "Ġextremely",
        -9.862582207120518
      ],
      [
        "Ġdirt",
        -9.863380466084251
      ],
      [
        "ĠDu",
        -9.863637110698608
      ],
      [
        "Ġhit",
        -9.863722932667317
      ],
      [
        "Ġartist",
        -9.864324140084312
      ],
      [
        "led",
        -9.864486605601156
      ],
      [
        "Ġbegan",
        -9.86463605320142
      ],
      [
        "Ġdiamond",
        -9.866158071081486
      ],
      [
        "ĠGerman",
        -9.866162846622627
      ],
      [
        "ility",
        -9.866588460406671
      ],
      [
        "Ġengage",
        -9.868515555232646
      ],
      [
        "About",
        -9.868691908522948
      ],
      [
        "Ġprivate",
        -9.869056119852988
      ],
      [
        "Ġship",
        -9.869187824438296
      ],
      [
        "Ġsit",
        -9.870520007236737
      ],
      [
        "Ġtherefor",
        -9.870718221424635
      ],
      [
        "book",
        -9.871135252953785
      ],
      [
        "Ġdivers",
        -9.871170013241374
      ],
      [
        "len",
        -9.87150943795377
      ],
      [
        "Ġtube",
        -9.87316002633136
      ],
      [
        "Ġmiles",
        -9.873764605631692
      ],
      [
        "Ġradio",
        -9.874617854281407
      ],
      [
        "ook",
        -9.87470190556053
      ],
      [
        "Ġseal",
        -9.875997583816153
      ],
      [
        "Ġhapp",
        -9.876675126054238
      ],
      [
        "Ġorange",
        -9.877836117360324
      ],
      [
        "Ġbak",
        -9.87784600935019
      ],
      [
        "ogen",
        -9.87858292367508
      ],
      [
        "Ġlabel",
        -9.878784150912274
      ],
      [
        "Ġdynamic",
        -9.879938994575737
      ],
      [
        "Ġaccident",
        -9.8806088940717
      ],
      [
        "dium",
        -9.880971188559906
      ],
      [
        "anyone",
        -9.881421343105444
      ],
      [
        "ball",
        -9.881433823449449
      ],
      [
        "Ġaren",
        -9.882525935110008
      ],
      [
        "Ġecosystem",
        -9.883534494305714
      ],
      [
        "Ġthread",
        -9.8835475819365
      ],
      [
        "Ġbreath",
        -9.884243859962607
      ],
      [
        "Ġonto",
        -9.885149207440849
      ],
      [
        "Ġauto",
        -9.88615432449426
      ],
      [
        "Ġsecure",
        -9.886450896269494
      ],
      [
        "Ġobserv",
        -9.88784829169082
      ],
      [
        "ĠUK",
        -9.88787162025212
      ],
      [
        "Ġsolutions",
        -9.8887057587436
      ],
      [
        "ĠYork",
        -9.889385894529443
      ],
      [
        "Ġplease",
        -9.889418435794898
      ],
      [
        "Ġdemonstrate",
        -9.889425206006775
      ],
      [
        "Ġmedium",
        -9.889776455913331
      ],
      [
        "Our",
        -9.889902891299458
      ],
      [
        "zi",
        -9.891018882901342
      ],
      [
        "arr",
        -9.891138066411742
      ],
      [
        "Ġformula",
        -9.891720039559376
      ],
      [
        "Ġrelevan",
        -9.892323290291015
      ],
      [
        "read",
        -9.892382695608225
      ],
      [
        "Ġexposure",
        -9.892410014855276
      ],
      [
        "Ġfriend",
        -9.892988128555276
      ],
      [
        "ĠOver",
        -9.895818376975868
      ],
      [
        "Ġsurger",
        -9.896347627645294
      ],
      [
        "ĠCor",
        -9.897235999533835
      ],
      [
        "Ġbra",
        -9.897863164092676
      ],
      [
        "fic",
        -9.898522692649042
      ],
      [
        "ĠSi",
        -9.898942556359415
      ],
      [
        "Ġcomfort",
        -9.898996588932969
      ],
      [
        "Ġmanufacturer",
        -9.899141672046015
      ],
      [
        "Li",
        -9.899493433245125
      ],
      [
        "ĠWork",
        -9.89999205625566
      ],
      [
        "ĠTherefor",
        -9.900220173606955
      ],
      [
        "eath",
        -9.900988346015946
      ],
      [
        "Ġfinancial",
        -9.901197791761918
      ],
      [
        "Ġattempt",
        -9.90120422859405
      ],
      [
        "Ġsteel",
        -9.901211916928034
      ],
      [
        "Ġboat",
        -9.901226586407532
      ],
      [
        "ological",
        -9.902758184453797
      ],
      [
        "Ġconsumer",
        -9.90343071598546
      ],
      [
        "ĠSan",
        -9.903747023759816
      ],
      [
        "Ġchannel",
        -9.904174012696554
      ],
      [
        "Ġharvest",
        -9.904174089659357
      ],
      [
        "ĠFrench",
        -9.90433528749551
      ],
      [
        "Ġbodie",
        -9.904465240038627
      ],
      [
        "Ġbillion",
        -9.905128541572616
      ],
      [
        "CA",
        -9.905602910752336
      ],
      [
        "Ġstates",
        -9.9058306758653
      ],
      [
        "Ġdu",
        -9.906212481486826
      ],
      [
        "Ġlisten",
        -9.906225701444676
      ],
      [
        "Ġinternal",
        -9.90720874059295
      ],
      [
        "ural",
        -9.908616807680218
      ],
      [
        "lam",
        -9.909451080614083
      ],
      [
        "hen",
        -9.909969394771974
      ],
      [
        "Ġdef",
        -9.910070768255457
      ],
      [
        "Ġcommercial",
        -9.910154186974776
      ],
      [
        "Ġsweet",
        -9.910154764469242
      ],
      [
        "Ġregulation",
        -9.910180577807832
      ],
      [
        "Ġbroad",
        -9.910424000197311
      ],
      [
        "Ġlens",
        -9.911503241490417
      ],
      [
        "rote",
        -9.91158285036926
      ],
      [
        "Ġmotion",
        -9.91165805999681
      ],
      [
        "ĠFi",
        -9.912447644891971
      ],
      [
        "Ġcapture",
        -9.912592863578093
      ],
      [
        "ĠCl",
        -9.912862085288456
      ],
      [
        "Ġsheet",
        -9.913493667462038
      ],
      [
        "ĠDon",
        -9.913585839460971
      ],
      [
        "Ġdriver",
        -9.91440445608061
      ],
      [
        "hose",
        -9.914826143905582
      ],
      [
        "een",
        -9.915673847727671
      ],
      [
        "Ġpool",
        -9.916452675123136
      ],
      [
        "aci",
        -9.916471163451844
      ],
      [
        "Ġblog",
        -9.9166020733402
      ],
      [
        "Ġidentified",
        -9.918100559404042
      ],
      [
        "Ġgrain",
        -9.918298875667864
      ],
      [
        "Ġbudget",
        -9.919214394762957
      ],
      [
        "Ġexamine",
        -9.919812071563882
      ],
      [
        "bit",
        -9.92103222255744
      ],
      [
        "Ġessay",
        -9.922220132068151
      ],
      [
        "Ġrecipe",
        -9.922224682514038
      ],
      [
        "ĠDesign",
        -9.922244938051591
      ],
      [
        "ulation",
        -9.922858050216451
      ],
      [
        "Ġrid",
        -9.927025171511612
      ],
      [
        "ĠBlue",
        -9.92707064615126
      ],
      [
        "ĠSince",
        -9.927853182591772
      ],
      [
        "Ġtwi",
        -9.92793360447842
      ],
      [
        "matic",
        -9.928015573884938
      ],
      [
        "Ġrespond",
        -9.928307990775313
      ],
      [
        "Ġshell",
        -9.93035452111364
      ],
      [
        "but",
        -9.930959721480164
      ],
      [
        "Ġcul",
        -9.9310462501888
      ],
      [
        "Ġapproximate",
        -9.931365969082698
      ],
      [
        "Ġannual",
        -9.931368648780044
      ],
      [
        "coming",
        -9.931643936888586
      ],
      [
        "uary",
        -9.932414981480228
      ],
      [
        "Ġprogramm",
        -9.932622513052426
      ],
      [
        "Ġclinical",
        -9.933735625360072
      ],
      [
        "Ġmedication",
        -9.934433524788725
      ],
      [
        "Ġbrush",
        -9.934436016967474
      ],
      [
        "Ġmaster",
        -9.934755578023983
      ],
      [
        "ĠEuropean",
        -9.93506578045502
      ],
      [
        "They",
        -9.935159336114362
      ],
      [
        "ĠSc",
        -9.936140233244338
      ],
      [
        "Ġraw",
        -9.93674856058418
      ],
      [
        "Ġalthough",
        -9.937395705118243
      ],
      [
        "Ġatmosphere",
        -9.9375103853625
      ],
      [
        "-year",
        -9.937515083839862
      ],
      [
        "Ġancient",
        -9.937814252048428
      ],
      [
        "ON",
        -9.937825417403849
      ],
      [
        "Ġtoilet",
        -9.937999477545556
      ],
      [
        "After",
        -9.940017314990062
      ],
      [
        "Ġassist",
        -9.940405458928309
      ],
      [
        "Ġsession",
        -9.94059886460236
      ],
      [
        "All",
        -9.940639878100209
      ],
      [
        "ĠProgram",
        -9.943694633170482
      ],
      [
        "point",
        -9.945245745628874
      ],
      [
        "ĠCount",
        -9.947007864154497
      ],
      [
        "Ġnative",
        -9.947108605465782
      ],
      [
        "Ġweld",
        -9.947359506940558
      ],
      [
        "Ġelectron",
        -9.947899601175951
      ],
      [
        "ĠPar",
        -9.94798384098202
      ],
      [
        "Ġdrink",
        -9.948319335814592
      ],
      [
        "east",
        -9.948777124457033
      ],
      [
        "Ġselection",
        -9.949445001031558
      ],
      [
        "Ġfail",
        -9.949781222975975
      ],
      [
        "Ġvaccine",
        -9.949913626842076
      ],
      [
        "Ġstuff",
        -9.950079071237024
      ],
      [
        "Ġtight",
        -9.950474247619844
      ],
      [
        "Ġtrans",
        -9.95101126138644
      ],
      [
        "gan",
        -9.951069876907852
      ],
      [
        "ĠPart",
        -9.951723061103715
      ],
      [
        "Ġtire",
        -9.951869875937886
      ],
      [
        "Ġlu",
        -9.952877873993476
      ],
      [
        "Ġnumerous",
        -9.953038634188356
      ],
      [
        "Ġreliabl",
        -9.953466321604736
      ],
      [
        "cid",
        -9.955346886833205
      ],
      [
        "Un",
        -9.95547846576667
      ],
      [
        "Ġgadget",
        -9.956173424355551
      ],
      [
        "Ġsquare",
        -9.956179008053557
      ],
      [
        "lap",
        -9.957585461427964
      ],
      [
        "ĠBar",
        -9.957628908095591
      ],
      [
        "win",
        -9.958546075505565
      ],
      [
        "Ġmechanical",
        -9.958637353455376
      ],
      [
        "ĠEvery",
        -9.95899113499514
      ],
      [
        "Ġclimb",
        -9.95959077282263
      ],
      [
        "osis",
        -9.959601213652732
      ],
      [
        "ik",
        -9.959658680315265
      ],
      [
        "dom",
        -9.959691882236092
      ],
      [
        "Ġearlier",
        -9.960047025620096
      ],
      [
        "pre",
        -9.960362101653704
      ],
      [
        "Ġremov",
        -9.960558948865028
      ],
      [
        "Ġskill",
        -9.961071615396545
      ],
      [
        "RA",
        -9.962285877802344
      ],
      [
        "rry",
        -9.96236288917111
      ],
      [
        "Î",
        -9.962453900131976
      ],
      [
        "ĠCalifornia",
        -9.96247265115234
      ],
      [
        "Ġbottle",
        -9.962475322520223
      ],
      [
        "Ġ|",
        -9.962601305833935
      ],
      [
        "Ġexcit",
        -9.962792703780526
      ],
      [
        "ĠVer",
        -9.96356201559526
      ],
      [
        "Ġconsume",
        -9.963857296809625
      ],
      [
        "uel",
        -9.964471055034284
      ],
      [
        "Ġmiss",
        -9.96489066319214
      ],
      [
        "IC",
        -9.965048564991768
      ],
      [
        "Ġassess",
        -9.96524793209323
      ],
      [
        "AS",
        -9.967739335007687
      ],
      [
        "ĠGreat",
        -9.96862917991156
      ],
      [
        "Ġmembrane",
        -9.968811811319595
      ],
      [
        "Ġpollution",
        -9.96881196747504
      ],
      [
        "Ġtransform",
        -9.968813791810224
      ],
      [
        "Ġcentral",
        -9.968818171336022
      ],
      [
        "Ġclick",
        -9.969014868121544
      ],
      [
        "Ġfear",
        -9.969549897931625
      ],
      [
        "Ġtransport",
        -9.971173380485125
      ],
      [
        "istic",
        -9.971501001288477
      ],
      [
        "Ġmeal",
        -9.971667076970938
      ],
      [
        "Ġho",
        -9.971869747863028
      ],
      [
        "Ġmaximum",
        -9.971996527800629
      ],
      [
        "Ġdedicat",
        -9.972026161892463
      ],
      [
        "ĠRead",
        -9.972056848385122
      ],
      [
        "Figure",
        -9.972125435580804
      ],
      [
        "Ġpack",
        -9.973378850228675
      ],
      [
        "Ġstatement",
        -9.974301625450853
      ],
      [
        "ix",
        -9.974630495710004
      ],
      [
        "lock",
        -9.97493602351787
      ],
      [
        "Ġsupplement",
        -9.975191412867598
      ],
      [
        "Ġquantit",
        -9.975193938125535
      ],
      [
        "Ġfailure",
        -9.975362316774111
      ],
      [
        "alone",
        -9.975683069705228
      ],
      [
        "rig",
        -9.976104628806754
      ],
      [
        "ĠTime",
        -9.976122520971092
      ],
      [
        "ĠPol",
        -9.9764457538053
      ],
      [
        "Ġlab",
        -9.976806387826564
      ],
      [
        "ney",
        -9.977298912881528
      ],
      [
        "Ġmuscles",
        -9.977438057581027
      ],
      [
        "Ġroutine",
        -9.978396592228057
      ],
      [
        "ĠSystem",
        -9.978398730333376
      ],
      [
        "ĠDay",
        -9.978728748119954
      ],
      [
        "Ġne",
        -9.979764410019058
      ],
      [
        "RI",
        -9.979818247787003
      ],
      [
        "ĠClass",
        -9.980039872637144
      ],
      [
        "Ġdisc",
        -9.980847236204191
      ],
      [
        "Ġdivide",
        -9.981138752376332
      ],
      [
        "Ġstain",
        -9.981306691395588
      ],
      [
        "lot",
        -9.98152650540448
      ],
      [
        "Ġbond",
        -9.98174017628494
      ],
      [
        "Ġcast",
        -9.98258797827
      ],
      [
        "ways",
        -9.982880976008818
      ],
      [
        "com",
        -9.983559797258106
      ],
      [
        "lia",
        -9.98356301126347
      ],
      [
        "Ġband",
        -9.98466687101029
      ],
      [
        "ĠWell",
        -9.984686776897131
      ],
      [
        "Ġobvious",
        -9.984837781783972
      ],
      [
        "Ġtransfer",
        -9.984973458476464
      ],
      [
        "Ġroots",
        -9.985192126142902
      ],
      [
        "Ġpanels",
        -9.98560935451259
      ],
      [
        "AT",
        -9.985801838295512
      ],
      [
        "cycl",
        -9.986098790408764
      ],
      [
        "ĠCat",
        -9.986880919314917
      ],
      [
        "pos",
        -9.987036754320004
      ],
      [
        "Ġlaunch",
        -9.98807485414184
      ],
      [
        "Ġcheap",
        -9.988081853054824
      ],
      [
        "wood",
        -9.988250029888643
      ],
      [
        "LE",
        -9.990132787888694
      ],
      [
        "pot",
        -9.990685176905725
      ],
      [
        "Ġstaff",
        -9.991336419196756
      ],
      [
        "Ġtrust",
        -9.991783113604264
      ],
      [
        "IN",
        -9.99327254835833
      ],
      [
        "Ġcreative",
        -9.993982318184964
      ],
      [
        "aking",
        -9.994231644163062
      ],
      [
        "Ġindustrial",
        -9.994578131416477
      ],
      [
        "Ġsustain",
        -9.99503166943785
      ],
      [
        "mark",
        -9.995054399294007
      ],
      [
        "ĠHer",
        -9.99548931522719
      ],
      [
        "Ġtru",
        -9.995804652829754
      ],
      [
        "ama",
        -9.996423628707744
      ],
      [
        "ĠLos",
        -9.996446809340233
      ],
      [
        "PS",
        -9.996621132501248
      ],
      [
        "La",
        -9.996983349359638
      ],
      [
        "ĠArabia",
        -9.99756935315846
      ],
      [
        "Ġindependent",
        -9.997846083652924
      ],
      [
        "âĢĭ",
        -9.99785430019308
      ],
      [
        "Ġscore",
        -9.998318845364492
      ],
      [
        "rain",
        -9.998823457507676
      ],
      [
        "rim",
        -10.000025583525575
      ],
      [
        "Ġcard",
        -10.000212579673995
      ],
      [
        "even",
        -10.000508667475032
      ],
      [
        "ugh",
        -10.001388355790624
      ],
      [
        "Ġsounds",
        -10.001482860021891
      ],
      [
        "Ġherb",
        -10.002046118409474
      ],
      [
        "Ġflu",
        -10.00254703003316
      ],
      [
        "cus",
        -10.00313032665085
      ],
      [
        "ular",
        -10.00313398855842
      ],
      [
        "ĠDepartment",
        -10.004414341590047
      ],
      [
        "Ġstraight",
        -10.004415325220824
      ],
      [
        "Ġscene",
        -10.004423325250432
      ],
      [
        "Ġconsult",
        -10.00443703116077
      ],
      [
        "ung",
        -10.005324035541452
      ],
      [
        "Ġdetailed",
        -10.006804452945383
      ],
      [
        "Ġfi",
        -10.006822584143045
      ],
      [
        "Ġcoffee",
        -10.007714679747773
      ],
      [
        "Ġlake",
        -10.00911928872469
      ],
      [
        "ank",
        -10.009194352468086
      ],
      [
        "Ġintegrat",
        -10.009796784191847
      ],
      [
        "aff",
        -10.009975216910366
      ],
      [
        "Are",
        -10.010021217333408
      ],
      [
        "FA",
        -10.010496837825912
      ],
      [
        "Ġnice",
        -10.01062086697264
      ],
      [
        "how",
        -10.010923181987309
      ],
      [
        "Ġaircraft",
        -10.011240935624542
      ],
      [
        "kept",
        -10.011994543255613
      ],
      [
        "Ġrespect",
        -10.012480187481671
      ],
      [
        "Ġtax",
        -10.01249449961168
      ],
      [
        "Ġvs",
        -10.013253792920075
      ],
      [
        "Ġclasse",
        -10.013358155169698
      ],
      [
        "Ġweak",
        -10.013891456294026
      ],
      [
        "Ġengineering",
        -10.01396958487009
      ],
      [
        "Ġcloth",
        -10.014220896472144
      ],
      [
        "Ġgrown",
        -10.01595502356523
      ],
      [
        "ĠHave",
        -10.01674002958984
      ],
      [
        "Ġdecisions",
        -10.01745131106367
      ],
      [
        "Ġfashion",
        -10.017681479208091
      ],
      [
        "Ġemergenc",
        -10.01802410988978
      ],
      [
        "Ġfunctions",
        -10.018148006624584
      ],
      [
        "...Ċ",
        -10.018192477744703
      ],
      [
        "ĠPe",
        -10.019325249724336
      ],
      [
        "Sho",
        -10.02036941287857
      ],
      [
        "ĠTra",
        -10.021376017918415
      ],
      [
        "loc",
        -10.02240057036507
      ],
      [
        "Ġaware",
        -10.02254617814567
      ],
      [
        "That",
        -10.023151764901918
      ],
      [
        "ĠDur",
        -10.023331984750284
      ],
      [
        "Ġrocks",
        -10.0233611144664
      ],
      [
        "Ġtrial",
        -10.02360486516363
      ],
      [
        "ensive",
        -10.02424281813868
      ],
      [
        "ria",
        -10.02435835589738
      ],
      [
        "Ġaudio",
        -10.024383837465876
      ],
      [
        "Ġmovie",
        -10.024396804583738
      ],
      [
        "Ġnorth",
        -10.024424831677363
      ],
      [
        "Ġeventual",
        -10.024495046805235
      ],
      [
        "NE",
        -10.025340060580149
      ],
      [
        "tage",
        -10.025906590125558
      ],
      [
        "atic",
        -10.02686364530646
      ],
      [
        "formed",
        -10.02767281728082
      ],
      [
        "Ġartificial",
        -10.02774861650272
      ],
      [
        "Ġchronic",
        -10.02774862718562
      ],
      [
        "Ġplent",
        -10.027812636658538
      ],
      [
        "Ġprepare",
        -10.028889420629351
      ],
      [
        "Ġhelpful",
        -10.02891246248924
      ],
      [
        "Ġseven",
        -10.029327741069812
      ],
      [
        "AD",
        -10.029870432889911
      ],
      [
        "flu",
        -10.029911662374476
      ],
      [
        "Ġprepared",
        -10.029989292271878
      ],
      [
        "Ġpoly",
        -10.030256449728236
      ],
      [
        "Ġtrade",
        -10.03036916288944
      ],
      [
        "ĠWi",
        -10.030477567671673
      ],
      [
        "ail",
        -10.030644536770764
      ],
      [
        "Ġeconom",
        -10.030698833274442
      ],
      [
        "Ġbreast",
        -10.031127918634937
      ],
      [
        "wareness",
        -10.031166877627662
      ],
      [
        "Ġattend",
        -10.03125353832418
      ],
      [
        "Ġmold",
        -10.031423167391235
      ],
      [
        "Ġgames",
        -10.031557896569918
      ],
      [
        "pril",
        -10.031566189608393
      ],
      [
        "rib",
        -10.031877114565074
      ],
      [
        "Ġfly",
        -10.032030300405095
      ],
      [
        "Ġstream",
        -10.032976412964794
      ],
      [
        "cut",
        -10.033470720406733
      ],
      [
        "atter",
        -10.033484756340574
      ],
      [
        "ĠEurope",
        -10.033750913235838
      ],
      [
        "Ġconstruct",
        -10.033751704382077
      ],
      [
        "Ġpuppy",
        -10.034084277826848
      ],
      [
        "Ġcomprehensive",
        -10.034516830032436
      ],
      [
        "Ġprecise",
        -10.034516903658233
      ],
      [
        "Ġcultural",
        -10.034517301733096
      ],
      [
        "Ġconclusion",
        -10.034616924438383
      ],
      [
        "Ġmelt",
        -10.034812520598416
      ],
      [
        "ĠPark",
        -10.036544795900154
      ],
      [
        "ĠBra",
        -10.03742091457746
      ],
      [
        "ĠIsrael",
        -10.037716444315873
      ],
      [
        "¤",
        -10.037859178096472
      ],
      [
        "Ġcontrast",
        -10.037918646769286
      ],
      [
        "Ġoptimal",
        -10.037919387630026
      ],
      [
        "ĠIndian",
        -10.038905255035669
      ],
      [
        "Ġallerg",
        -10.040088215042395
      ],
      [
        "Ġcreation",
        -10.040137895873604
      ],
      [
        "ĠBlack",
        -10.040251575847629
      ],
      [
        "Mo",
        -10.040349176493528
      ],
      [
        "Ġlitera",
        -10.040412909848223
      ],
      [
        "Ġschedule",
        -10.04102384793081
      ],
      [
        "Ġwalls",
        -10.04111992188691
      ],
      [
        "Ġinterface",
        -10.041331423264896
      ],
      [
        "ĠThu",
        -10.041414343127922
      ],
      [
        "ĠJuly",
        -10.041963935756602
      ],
      [
        "Ġdie",
        -10.042358212582531
      ],
      [
        "ĠDoes",
        -10.042703499572104
      ],
      [
        "Ġanxiet",
        -10.04322358405384
      ],
      [
        "Ġheal",
        -10.043225412725668
      ],
      [
        "Ġwor",
        -10.04327678086444
      ],
      [
        "Ġgut",
        -10.043912944272366
      ],
      [
        "Ġformation",
        -10.043924052522716
      ],
      [
        "Ġvertical",
        -10.044758308647175
      ],
      [
        "Ġextensive",
        -10.044779838502151
      ],
      [
        "Ġstories",
        -10.04560358666504
      ],
      [
        "ĠPlant",
        -10.0456794942452
      ],
      [
        "ĠAustralia",
        -10.046893242832052
      ],
      [
        "ably",
        -10.04691054863442
      ],
      [
        "zo",
        -10.047621611009816
      ],
      [
        "Ġnation",
        -10.048013545385452
      ],
      [
        "Ġsurvey",
        -10.04819233562038
      ],
      [
        "Ġsouth",
        -10.048245650766974
      ],
      [
        "Ġevolution",
        -10.04834831618604
      ],
      [
        "Ġindoor",
        -10.04844860854007
      ],
      [
        "most",
        -10.048477537122388
      ],
      [
        "ĠJune",
        -10.04860276668703
      ],
      [
        "facing",
        -10.04897367716532
      ],
      [
        "Ġdrug",
        -10.0492195930488
      ],
      [
        "met",
        -10.049807726654253
      ],
      [
        "Ġagree",
        -10.051345985210077
      ],
      [
        "Ġsubstance",
        -10.051365796776723
      ],
      [
        "Ġpark",
        -10.053194987421744
      ],
      [
        "Ġgre",
        -10.053935881769476
      ],
      [
        "Ġnamed",
        -10.054831012341356
      ],
      [
        "Ġhospital",
        -10.055100722295467
      ],
      [
        "ĠHouse",
        -10.0552875789563
      ],
      [
        "ership",
        -10.05621096211581
      ],
      [
        "Ġcable",
        -10.056644059918876
      ],
      [
        "Ġbooks",
        -10.05683834141906
      ],
      [
        "Ġpin",
        -10.057140795553792
      ],
      [
        "Ġconservation",
        -10.058572944775804
      ],
      [
        "Ġhistorical",
        -10.058573087407488
      ],
      [
        "ool",
        -10.059267227260788
      ],
      [
        "ĠFood",
        -10.059653870238137
      ],
      [
        "Ġborn",
        -10.060215383061747
      ],
      [
        "ĠTur",
        -10.060270075231532
      ],
      [
        "Ġph",
        -10.060798980080955
      ],
      [
        "Ġultimate",
        -10.062057275237644
      ],
      [
        "ĠAg",
        -10.062194047835694
      ],
      [
        "Ġcontinuous",
        -10.062273933195035
      ],
      [
        "ĠGreen",
        -10.062602854064377
      ],
      [
        "ari",
        -10.062836042281296
      ],
      [
        "Ġobjective",
        -10.063107043074346
      ],
      [
        "Ġkitchen",
        -10.065554551993124
      ],
      [
        "Ġexchange",
        -10.065595489299316
      ],
      [
        "Ġski",
        -10.065682946078296
      ],
      [
        "Ġorigin",
        -10.065817495593167
      ],
      [
        "Ġradiation",
        -10.06583546551143
      ],
      [
        "Ġexposed",
        -10.066037702468222
      ],
      [
        "Ġsolve",
        -10.066434815933093
      ],
      [
        "ically",
        -10.066837743621358
      ],
      [
        "nel",
        -10.067648910679976
      ],
      [
        "Ġoperate",
        -10.067725670608317
      ],
      [
        "Ġsex",
        -10.06810572590329
      ],
      [
        "Ġcredit",
        -10.06909564424167
      ],
      [
        "Ġpound",
        -10.070668902564227
      ],
      [
        "ĠSun",
        -10.071271742950143
      ],
      [
        "Ġdrugs",
        -10.07153619530691
      ],
      [
        "Ġpriorit",
        -10.071760526764535
      ],
      [
        "^",
        -10.07258366706663
      ],
      [
        "Ġemotional",
        -10.072587053677797
      ],
      [
        "Ro",
        -10.072771711665377
      ],
      [
        "Ġroute",
        -10.07284754762152
      ],
      [
        "Ġpipe",
        -10.073050715105104
      ],
      [
        "Ġextreme",
        -10.073460109279903
      ],
      [
        "Ġoffice",
        -10.074428073600526
      ],
      [
        "Ġfix",
        -10.074442835629428
      ],
      [
        "related",
        -10.075815465524538
      ],
      [
        "Ġhumid",
        -10.076119498686712
      ],
      [
        "cro",
        -10.076200002280077
      ],
      [
        "Conclusion",
        -10.07660905079505
      ],
      [
        "Ġmeeting",
        -10.077206056381923
      ],
      [
        "Ġflood",
        -10.079663570246328
      ],
      [
        "Ġbidet",
        -10.079675795426835
      ],
      [
        "Ġfoundation",
        -10.080395373483787
      ],
      [
        "ĠComp",
        -10.081375294133798
      ],
      [
        "Ġsurvive",
        -10.081459734561802
      ],
      [
        "Ġvirtual",
        -10.083222055151005
      ],
      [
        "Ġhormone",
        -10.083222056139103
      ],
      [
        "Ġapparatus",
        -10.083222056154664
      ],
      [
        "Ġyield",
        -10.083222056848394
      ],
      [
        "Ġsmart",
        -10.083267266037886
      ],
      [
        "Ġtoxic",
        -10.084233935713678
      ],
      [
        "eck",
        -10.08426851876657
      ],
      [
        "Ġsaving",
        -10.084667349925402
      ],
      [
        "Ġthreat",
        -10.085974516583288
      ],
      [
        "].",
        -10.0862491789652
      ],
      [
        "Ġchip",
        -10.086746960976813
      ],
      [
        "Ġexternal",
        -10.086793535566915
      ],
      [
        "||",
        -10.08687893747043
      ],
      [
        "Ġlung",
        -10.086968286229176
      ],
      [
        "ID",
        -10.087940272893896
      ],
      [
        "US",
        -10.088044241723487
      ],
      [
        "Ġbank",
        -10.088084590194844
      ],
      [
        "ĠAct",
        -10.089263156945211
      ],
      [
        "Ġopinion",
        -10.09037827978143
      ],
      [
        "Ġgap",
        -10.090386818983765
      ],
      [
        "Ġsmell",
        -10.090416834863484
      ],
      [
        "Ġdangerous",
        -10.090563121923044
      ],
      [
        "Ġmal",
        -10.09056512588188
      ],
      [
        "Ġpest",
        -10.090914093984305
      ],
      [
        "Ġsector",
        -10.091065588521598
      ],
      [
        "-quali",
        -10.092514948721256
      ],
      [
        "CE",
        -10.093759428665852
      ],
      [
        "ĠChina",
        -10.09389893539008
      ],
      [
        "Ġsecret",
        -10.093974865911076
      ],
      [
        "-free",
        -10.093976869033362
      ],
      [
        "Ġtechnical",
        -10.093978042890027
      ],
      [
        "Ġinjury",
        -10.093979498832532
      ],
      [
        "Ġstrain",
        -10.094203176515975
      ],
      [
        "weight",
        -10.094785294357902
      ],
      [
        "Ġfold",
        -10.094906887467069
      ],
      [
        "cular",
        -10.095670413089554
      ],
      [
        "long",
        -10.096315117231011
      ],
      [
        "Ġalter",
        -10.09691425298919
      ],
      [
        "bin",
        -10.097150773230798
      ],
      [
        "Ġfarmer",
        -10.097281854533104
      ],
      [
        "Ġargument",
        -10.097584944610317
      ],
      [
        "Ġpossibilit",
        -10.0975849889475
      ],
      [
        "ĠGuide",
        -10.097794027916915
      ],
      [
        "ING",
        -10.098077075279877
      ],
      [
        "tract",
        -10.099079828367614
      ],
      [
        "Ġmode",
        -10.099625404848505
      ],
      [
        "acy",
        -10.099831223453268
      ],
      [
        "Ġpainting",
        -10.100401042752669
      ],
      [
        "Ġpar",
        -10.100972070669478
      ],
      [
        "Ġperspective",
        -10.101208142108838
      ],
      [
        "Ġsupplie",
        -10.101936042673312
      ],
      [
        "Ġlie",
        -10.101941565019647
      ],
      [
        "mu",
        -10.102548671825076
      ],
      [
        "Ġoffering",
        -10.102743711633316
      ],
      [
        "ĠWin",
        -10.104075601782837
      ],
      [
        "Ġderive",
        -10.104879630634745
      ],
      [
        "ĠBi",
        -10.10512222359893
      ],
      [
        "EN",
        -10.105294506608328
      ],
      [
        "Ġstrip",
        -10.10567398555816
      ],
      [
        "ĠSept",
        -10.106369702198222
      ],
      [
        "Ġinvest",
        -10.107159972901703
      ],
      [
        "round",
        -10.107519050172662
      ],
      [
        "Ġcombin",
        -10.1077921471753
      ],
      [
        "Ġhousehold",
        -10.108497142786174
      ],
      [
        "Ġdensity",
        -10.108497681413496
      ],
      [
        "Ġengineer",
        -10.108849767525625
      ],
      [
        "Ġoccurr",
        -10.109072298220443
      ],
      [
        "Ġchoos",
        -10.110045595926485
      ],
      [
        "era",
        -10.11056709002445
      ],
      [
        "Ġbeneficia",
        -10.112157157212902
      ],
      [
        "Ġlandscape",
        -10.112205069910775
      ],
      [
        "Ġblend",
        -10.11249431124259
      ],
      [
        "Ġmission",
        -10.11282428008241
      ],
      [
        "ĠPhoto",
        -10.11287791228095
      ],
      [
        "position",
        -10.113120769308612
      ],
      [
        "Ġreceiv",
        -10.114355917632508
      ],
      [
        "Ġmagnetic",
        -10.114386824155764
      ],
      [
        "Ġcheese",
        -10.115842866847249
      ],
      [
        "Ġloose",
        -10.116079261121442
      ],
      [
        "Ġsu",
        -10.11613951636241
      ],
      [
        "some",
        -10.11630151790666
      ],
      [
        "Ġ\\",
        -10.116494684506645
      ],
      [
        "Ġadopt",
        -10.118412209944893
      ],
      [
        "Ġdiscussion",
        -10.11863349242
      ],
      [
        "Ġrear",
        -10.118664267794315
      ],
      [
        "iff",
        -10.11909225592366
      ],
      [
        "ĠGod",
        -10.120056124120008
      ],
      [
        "Ġpromot",
        -10.12021771254833
      ],
      [
        "ĠChe",
        -10.120326849178962
      ],
      [
        "LA",
        -10.120705119517266
      ],
      [
        "rew",
        -10.12080963110417
      ],
      [
        "ĠWest",
        -10.121066129019033
      ],
      [
        "Ġroll",
        -10.122516198871145
      ],
      [
        "ĠAdd",
        -10.12260213316572
      ],
      [
        "ĠOnc",
        -10.12304724724502
      ],
      [
        "Ġthrow",
        -10.123278528746564
      ],
      [
        "ĠInternational",
        -10.123697854371692
      ],
      [
        "Ġleak",
        -10.123701252525532
      ],
      [
        "ĠRiver",
        -10.12371078901668
      ],
      [
        "Ar",
        -10.124001478786347
      ],
      [
        "ou",
        -10.125025154733889
      ],
      [
        "Ġdispos",
        -10.125409823067242
      ],
      [
        "Ra",
        -10.126544988507415
      ],
      [
        "spo",
        -10.126880851040806
      ],
      [
        "Ĥ",
        -10.126944816737865
      ],
      [
        "ĠService",
        -10.12694581216268
      ],
      [
        "Ġjump",
        -10.126957931435474
      ],
      [
        "Ġrough",
        -10.12697352923554
      ],
      [
        "Ġdomain",
        -10.12739161170532
      ],
      [
        "cip",
        -10.12747934118462
      ],
      [
        "Ġwindow",
        -10.127678717996066
      ],
      [
        "Ġrep",
        -10.128826651258578
      ],
      [
        "press",
        -10.129288409786474
      ],
      [
        "ĠDog",
        -10.129738632939128
      ],
      [
        "Ġlock",
        -10.13007494340427
      ],
      [
        "Ġbutton",
        -10.13121059593863
      ],
      [
        "Ġcareer",
        -10.133305524116883
      ],
      [
        "Ġinvestigat",
        -10.133558670729276
      ],
      [
        "Ġspeaker",
        -10.133679881436509
      ],
      [
        "ient",
        -10.13384970515147
      ],
      [
        "ED",
        -10.13424828530982
      ],
      [
        "Ġintelligence",
        -10.134445483607248
      ],
      [
        "Ġvoice",
        -10.134526417007413
      ],
      [
        "Ġimp",
        -10.13605353173426
      ],
      [
        "-be",
        -10.13662183881259
      ],
      [
        "struct",
        -10.137921956137356
      ],
      [
        "char",
        -10.137998796332363
      ],
      [
        "Ġparticipant",
        -10.13818087879535
      ],
      [
        "Ġstatus",
        -10.138194149286486
      ],
      [
        "Ġpropose",
        -10.138350305474678
      ],
      [
        "Ġexcessive",
        -10.138750246499573
      ],
      [
        "&",
        -10.139974065428731
      ],
      [
        "Â°",
        -10.14071600126512
      ],
      [
        "Ġisland",
        -10.14073663795044
      ],
      [
        "Ġdecades",
        -10.14114681095371
      ],
      [
        "del",
        -10.14160233931998
      ],
      [
        "ĠKeep",
        -10.141737016309651
      ],
      [
        "Ġfo",
        -10.141737556609309
      ],
      [
        "Ġacademic",
        -10.141954469659378
      ],
      [
        "Ġmild",
        -10.141973048586724
      ],
      [
        "ÂŃ",
        -10.141975972620523
      ],
      [
        "Ġfinger",
        -10.14208924424018
      ],
      [
        "NO",
        -10.142158284276926
      ],
      [
        "Ġdesir",
        -10.142701764945272
      ],
      [
        "Ġvariation",
        -10.142761304753702
      ],
      [
        "rum",
        -10.142902139837084
      ],
      [
        "ĠKe",
        -10.14328711415078
      ],
      [
        "house",
        -10.143868997109458
      ],
      [
        "Ġinform",
        -10.144047655963591
      ],
      [
        "ju",
        -10.14456570319564
      ],
      [
        "comm",
        -10.144806396183572
      ],
      [
        "|",
        -10.145111161300107
      ],
      [
        "Ġconfirm",
        -10.145797424540609
      ],
      [
        "Ġcomposition",
        -10.14584995008158
      ],
      [
        "Ġchose",
        -10.145895280485458
      ],
      [
        "Ġpercentage",
        -10.146604619324728
      ],
      [
        "Ġtold",
        -10.146737238038142
      ],
      [
        "ĠSal",
        -10.148094456214896
      ],
      [
        "Ġbear",
        -10.14878534987464
      ],
      [
        "\\)",
        -10.149241686878678
      ],
      [
        "Ġrealize",
        -10.149530690374192
      ],
      [
        "Ġgirl",
        -10.149544691620283
      ],
      [
        "Ġmicrowave",
        -10.149544844861056
      ],
      [
        "Ġvessel",
        -10.149550573376713
      ],
      [
        "Ġlifestyle",
        -10.149871988081
      ],
      [
        "ĠStudent",
        -10.15067751454049
      ],
      [
        "Ġseek",
        -10.150861812184363
      ],
      [
        "iness",
        -10.15120741586023
      ],
      [
        "ĠCol",
        -10.151279001148042
      ],
      [
        "Ġlay",
        -10.151792490479451
      ],
      [
        "Ġbro",
        -10.15179438058198
      ],
      [
        "Ġbutter",
        -10.151993499821328
      ],
      [
        "ĠCom",
        -10.154031324607931
      ],
      [
        "Ġplane",
        -10.156041553682783
      ],
      [
        "Ġchallenging",
        -10.15719283346104
      ],
      [
        "Ġboost",
        -10.157193226924292
      ],
      [
        "illa",
        -10.157395727053522
      ],
      [
        "ĠMarch",
        -10.158738593931924
      ],
      [
        "ĠHome",
        -10.160329895587576
      ],
      [
        "ken",
        -10.16066726406302
      ],
      [
        "ĠCanada",
        -10.161048129686012
      ],
      [
        "Ġcapabilit",
        -10.161476438140433
      ],
      [
        "Ġcoach",
        -10.161980950541215
      ],
      [
        "CC",
        -10.163338572249554
      ],
      [
        "Ġfirm",
        -10.163438122940518
      ],
      [
        "According",
        -10.163535480345132
      ],
      [
        "Ġassembl",
        -10.16389996611835
      ],
      [
        "VID",
        -10.164363505470686
      ],
      [
        "pu",
        -10.16476879508765
      ],
      [
        "Ġfossil",
        -10.16490161446454
      ],
      [
        "Ġatom",
        -10.16504350833465
      ],
      [
        "ĠHi",
        -10.16530365969666
      ],
      [
        "Ġgenerator",
        -10.16601850451312
      ],
      [
        "than",
        -10.166148689132743
      ],
      [
        "Ġinstallation",
        -10.166874568509748
      ],
      [
        "My",
        -10.1670124543527
      ],
      [
        "ĠNi",
        -10.167305655005777
      ],
      [
        "Ġcalci",
        -10.167411528719114
      ],
      [
        "Ġchamber",
        -10.168776003005638
      ],
      [
        "ĠEducation",
        -10.168785442723594
      ],
      [
        "Ġdress",
        -10.168806446493466
      ],
      [
        "Ġdivision",
        -10.168897173779063
      ],
      [
        "Ġworry",
        -10.169273255986978
      ],
      [
        "Ġdish",
        -10.169419693594588
      ],
      [
        "ĠLu",
        -10.16965330674686
      ],
      [
        "Ġsaying",
        -10.16997539247482
      ],
      [
        "Ġlegal",
        -10.170032719306713
      ],
      [
        "Ġprey",
        -10.170164054022184
      ],
      [
        "take",
        -10.17029334379885
      ],
      [
        "Answer",
        -10.171540885833796
      ],
      [
        "Most",
        -10.17206691129548
      ],
      [
        "room",
        -10.172487711004049
      ],
      [
        "ologist",
        -10.173005433557911
      ],
      [
        "Ġweigh",
        -10.173083043747395
      ],
      [
        "RO",
        -10.173531250243546
      ],
      [
        "Ġorgan",
        -10.174656085350737
      ],
      [
        "eva",
        -10.174909168824414
      ],
      [
        "RS",
        -10.175317120653984
      ],
      [
        "More",
        -10.175513552743157
      ],
      [
        "-time",
        -10.175520357322505
      ],
      [
        "Ġsteam",
        -10.176575570653595
      ],
      [
        "Äģ",
        -10.176576456142982
      ],
      [
        "ground",
        -10.176653123158058
      ],
      [
        "Ġ\\(",
        -10.176960406610508
      ],
      [
        "Ġprimari",
        -10.177469118594752
      ],
      [
        "Ġagent",
        -10.177479152153714
      ],
      [
        "Ġincreases",
        -10.177677496646226
      ],
      [
        "ĠLook",
        -10.177838619930707
      ],
      [
        "Ġvisibl",
        -10.178185633047724
      ],
      [
        "ĠOut",
        -10.178667514340583
      ],
      [
        "bar",
        -10.178689039621016
      ],
      [
        "dig",
        -10.179382284705271
      ],
      [
        "which",
        -10.179590274866229
      ],
      [
        "Ġdistinct",
        -10.179850122844384
      ],
      [
        "Ġfertil",
        -10.180358380923032
      ],
      [
        "ĠFish",
        -10.180442375645123
      ],
      [
        "Ġchocolate",
        -10.1804948447846
      ],
      [
        "Ġbinocular",
        -10.18049504553662
      ],
      [
        "eek",
        -10.180528633873518
      ],
      [
        "Ġnerve",
        -10.18064675771096
      ],
      [
        "Ġreward",
        -10.18199778833352
      ],
      [
        "Ġpolicy",
        -10.182483329248086
      ],
      [
        "Ġprofessor",
        -10.184431838018932
      ],
      [
        "Ġbrough",
        -10.184584908558364
      ],
      [
        "Ġcom",
        -10.184799245836956
      ],
      [
        "Ġdut",
        -10.185021401439096
      ],
      [
        "Ġstable",
        -10.185048735325612
      ],
      [
        "Ġcris",
        -10.185256667223758
      ],
      [
        "Ġcolon",
        -10.185869958856829
      ],
      [
        "Ġsituations",
        -10.186499449239154
      ],
      [
        "Sp",
        -10.18656428226534
      ],
      [
        "Thank",
        -10.187639511640178
      ],
      [
        "ĠFurther",
        -10.188013578279763
      ],
      [
        "Ġattract",
        -10.18813149744215
      ],
      [
        "ë",
        -10.188384406410046
      ],
      [
        "Ġthorough",
        -10.188384406531751
      ],
      [
        "Ġconcrete",
        -10.188384407840005
      ],
      [
        "Ġaudience",
        -10.188384408808684
      ],
      [
        "Ġrenewable",
        -10.188384875539352
      ],
      [
        "Ġcream",
        -10.188397468864554
      ],
      [
        "Ġinnovation",
        -10.1886042898021
      ],
      [
        "Ġshoes",
        -10.189066755432895
      ],
      [
        "Ġdust",
        -10.189182108923706
      ],
      [
        "aving",
        -10.190432600468146
      ],
      [
        "ĠStep",
        -10.190578952822904
      ],
      [
        "Ġtail",
        -10.190639326043568
      ],
      [
        "pan",
        -10.19081795809807
      ],
      [
        "uring",
        -10.190971188264117
      ],
      [
        "Ġnutrition",
        -10.191518644174025
      ],
      [
        "Ġworse",
        -10.19164562981187
      ],
      [
        "ola",
        -10.192159801283708
      ],
      [
        "PE",
        -10.192202324148388
      ],
      [
        "Ġfertilizer",
        -10.192375755794654
      ],
      [
        "ĠJanuary",
        -10.192376119082056
      ],
      [
        "Ġcorner",
        -10.193214089281469
      ],
      [
        "Ġreact",
        -10.193601615182995
      ],
      [
        "Ġcontinu",
        -10.193644264976154
      ],
      [
        "list",
        -10.19394451302357
      ],
      [
        "ood",
        -10.194901240696932
      ],
      [
        "tail",
        -10.195316044699066
      ],
      [
        "Ġevaluate",
        -10.195839894533712
      ],
      [
        "Ġowners",
        -10.196134548875932
      ],
      [
        "inary",
        -10.196279256435767
      ],
      [
        "Ġremote",
        -10.196336734449725
      ],
      [
        "Ġfundamental",
        -10.196336769756996
      ],
      [
        "Ġevolve",
        -10.196337237060096
      ],
      [
        "Ġmorning",
        -10.19633984002391
      ],
      [
        "Ġmixture",
        -10.196843170079203
      ],
      [
        "ĠTri",
        -10.19737009798428
      ],
      [
        "test",
        -10.197405059438449
      ],
      [
        "sel",
        -10.197903976745373
      ],
      [
        "/or",
        -10.198057617505754
      ],
      [
        "ĠMc",
        -10.198222464333352
      ],
      [
        "Yes",
        -10.19852427425128
      ],
      [
        "Ġbecom",
        -10.19871101528495
      ],
      [
        "Ġshot",
        -10.198918846042544
      ],
      [
        "ĠBrit",
        -10.198970594104722
      ],
      [
        "Ġhomes",
        -10.198972768711222
      ],
      [
        "Ġtooth",
        -10.199056266769034
      ],
      [
        "with",
        -10.200053251058426
      ],
      [
        "Source",
        -10.200428590485872
      ],
      [
        "Ġpets",
        -10.200877410060109
      ],
      [
        "Ġassessment",
        -10.20098911894134
      ],
      [
        "Onc",
        -10.201030561473685
      ],
      [
        "Ġplanting",
        -10.2016103518301
      ],
      [
        "Use",
        -10.201752468763772
      ],
      [
        "Ġmeter",
        -10.201839063668018
      ],
      [
        "Ġinteract",
        -10.201956008164938
      ],
      [
        "ram",
        -10.20215415531507
      ],
      [
        "Ġrub",
        -10.202160555198525
      ],
      [
        "Ġsuffer",
        -10.202346607269952
      ],
      [
        "Ġraise",
        -10.202785362846722
      ],
      [
        "Ġimprovement",
        -10.202883958086016
      ],
      [
        "Ġlinked",
        -10.203102054496034
      ],
      [
        "Ġpara",
        -10.203431749685109
      ],
      [
        "Ġinfections",
        -10.20376627659972
      ],
      [
        "Ġdecide",
        -10.20410142199357
      ],
      [
        "Ġleaving",
        -10.204384576352387
      ],
      [
        "what",
        -10.204484840132022
      ],
      [
        "Ġemail",
        -10.204573202882688
      ],
      [
        "mas",
        -10.20498620087962
      ],
      [
        "type",
        -10.206054294305115
      ],
      [
        "expected",
        -10.206919254885266
      ],
      [
        "Ġwish",
        -10.207432157503364
      ],
      [
        "Ġcompos",
        -10.208140337781986
      ],
      [
        "rine",
        -10.20827714087875
      ],
      [
        "print",
        -10.208298762074511
      ],
      [
        "Ġcrystal",
        -10.208385212459644
      ],
      [
        "Ġinstrument",
        -10.208385359431768
      ],
      [
        "Ġrobot",
        -10.209220135181702
      ],
      [
        "Ġsight",
        -10.209263362886093
      ],
      [
        "Your",
        -10.209907223266198
      ],
      [
        "Ġminimize",
        -10.21134724948454
      ],
      [
        "Ġera",
        -10.2119903686213
      ],
      [
        "ington",
        -10.212184272735444
      ],
      [
        "Ġinflammation",
        -10.212433629474004
      ],
      [
        "Ġstitch",
        -10.212446110269614
      ],
      [
        "Ġstroke",
        -10.212463452830498
      ],
      [
        "Ġsharp",
        -10.212506380214451
      ],
      [
        "SU",
        -10.212638780847907
      ],
      [
        "ĠTechnolog",
        -10.21271122045562
      ],
      [
        "Ġreduction",
        -10.213193487697817
      ],
      [
        "gel",
        -10.213208109744972
      ],
      [
        "Ġsong",
        -10.21355674575148
      ],
      [
        "Ġdecided",
        -10.21383449272605
      ],
      [
        "Ġ<",
        -10.21497786983409
      ],
      [
        "jo",
        -10.215782985015789
      ],
      [
        "ĠApp",
        -10.216306129098948
      ],
      [
        "Ġamazing",
        -10.216499372843051
      ],
      [
        "Ġuniverse",
        -10.21649970558456
      ],
      [
        "Ġleaf",
        -10.216503166406332
      ],
      [
        "Ġappeal",
        -10.21655833254158
      ],
      [
        "Ġgather",
        -10.216579498891802
      ],
      [
        "Ġcloser",
        -10.216722873865226
      ],
      [
        "Ġheavi",
        -10.217003081765563
      ],
      [
        "Ġbelong",
        -10.217636988477055
      ],
      [
        "well",
        -10.217961997245334
      ],
      [
        "cap",
        -10.21831985073355
      ],
      [
        "Ġarrive",
        -10.22061191240892
      ],
      [
        "Ġtrouble",
        -10.220638018760196
      ],
      [
        "Ġemotion",
        -10.22070643805058
      ],
      [
        "pect",
        -10.221042949175146
      ],
      [
        "Ġlenses",
        -10.22128648139682
      ],
      [
        "?\"",
        -10.221388108644089
      ],
      [
        "inter",
        -10.222029307549157
      ],
      [
        "AP",
        -10.222246926899338
      ],
      [
        "ĠYe",
        -10.222873531219506
      ],
      [
        "Ġlift",
        -10.22361375748629
      ],
      [
        "Ġpure",
        -10.22364009194413
      ],
      [
        "Ġeco",
        -10.223694485429574
      ],
      [
        "load",
        -10.224675070176705
      ],
      [
        "Ġdefinition",
        -10.224678821623774
      ],
      [
        "Ġstreet",
        -10.22467938279367
      ],
      [
        "Ġtea",
        -10.225122498136455
      ],
      [
        "Ġexplor",
        -10.225163450562922
      ],
      [
        "Ġcommunicate",
        -10.225334778648644
      ],
      [
        "ĠCare",
        -10.225977385710491
      ],
      [
        "key",
        -10.226190862592336
      ],
      [
        "get",
        -10.226261851628765
      ],
      [
        "ĠTake",
        -10.226849252975502
      ],
      [
        "Ġguy",
        -10.226868827857457
      ],
      [
        "ĠCap",
        -10.22777734462809
      ],
      [
        "Ġdeposit",
        -10.228219829885331
      ],
      [
        "Ġincredibl",
        -10.228794284826286
      ],
      [
        "Ġdestroy",
        -10.228794444076556
      ],
      [
        "ĠOcto",
        -10.228880682196817
      ],
      [
        "Ġcommitment",
        -10.22889570696293
      ],
      [
        "Ġexp",
        -10.229192192767128
      ],
      [
        "Ġbill",
        -10.230940573782348
      ],
      [
        "Ġcoal",
        -10.231169107383964
      ],
      [
        "Ġproduc",
        -10.231689114640496
      ],
      [
        "Ġshar",
        -10.23213095118736
      ],
      [
        "Ġconsideration",
        -10.232205741602032
      ],
      [
        "Ġsold",
        -10.232268873183038
      ],
      [
        "unk",
        -10.232310948898265
      ],
      [
        "Ġspray",
        -10.232931659513651
      ],
      [
        "Introduction",
        -10.232955346569996
      ],
      [
        "Ġclassroom",
        -10.233069250812672
      ],
      [
        "Ġloop",
        -10.233373524682694
      ],
      [
        "ounce",
        -10.233942852701672
      ],
      [
        "Ġassume",
        -10.233952352314436
      ],
      [
        "shore",
        -10.234103674995772
      ],
      [
        "Ġbroken",
        -10.234408146758296
      ],
      [
        "PA",
        -10.235096426220151
      ],
      [
        "Ġmine",
        -10.236261823299092
      ],
      [
        "Ġscar",
        -10.236792202086844
      ],
      [
        "Ġpowder",
        -10.237075547761602
      ],
      [
        "Ġrandom",
        -10.237079916769895
      ],
      [
        "Ġexam",
        -10.237203569270084
      ],
      [
        "ĠIsland",
        -10.237700456382022
      ],
      [
        "ĠInter",
        -10.237857069124845
      ],
      [
        "Ġim",
        -10.23796205246
      ],
      [
        "Ġguideline",
        -10.239296517996284
      ],
      [
        "za",
        -10.239597056137168
      ],
      [
        "Ġsensitive",
        -10.239675935432835
      ],
      [
        "DA",
        -10.239761891851238
      ],
      [
        "PM",
        -10.239970069874303
      ],
      [
        "bas",
        -10.240343070529496
      ],
      [
        "Ġphotos",
        -10.240950917250595
      ],
      [
        "Ġhyper",
        -10.24124477244644
      ],
      [
        "Ġeight",
        -10.242101482130064
      ],
      [
        "Ġple",
        -10.242291525645282
      ],
      [
        "lab",
        -10.24231876065056
      ],
      [
        "]Ċ",
        -10.2426399795213
      ],
      [
        "Ġhabits",
        -10.24267071741961
      ],
      [
        "Ġneuron",
        -10.243438024702428
      ],
      [
        "Ġlarges",
        -10.24442577918504
      ],
      [
        "Ġclassic",
        -10.24470843458743
      ],
      [
        "Ġpanel",
        -10.245596313305573
      ],
      [
        "Ġapart",
        -10.24559783659926
      ],
      [
        "ius",
        -10.24666412757201
      ],
      [
        "Ġpa",
        -10.24774469163008
      ],
      [
        "other",
        -10.248446761002572
      ],
      [
        "mid",
        -10.248829852672449
      ],
      [
        "ĠPeople",
        -10.249112174646852
      ],
      [
        "ula",
        -10.249153882398945
      ],
      [
        "arm",
        -10.249316645557574
      ],
      [
        "Ġinternet",
        -10.24983862265618
      ],
      [
        "Ġtrick",
        -10.250059468615472
      ],
      [
        "Ġmet",
        -10.250669947420567
      ],
      [
        "CI",
        -10.250839672692804
      ],
      [
        "Ġprove",
        -10.250902558633491
      ],
      [
        "Ġtown",
        -10.251080657825
      ],
      [
        "Ġprices",
        -10.25119860470164
      ],
      [
        "TH",
        -10.252046398563442
      ],
      [
        "ĠBur",
        -10.252523160929702
      ],
      [
        "nted",
        -10.252541613247391
      ],
      [
        "Ġnu",
        -10.252827183137365
      ],
      [
        "Ġfunctional",
        -10.252853781230058
      ],
      [
        "Ġapple",
        -10.25310330840016
      ],
      [
        "Ġdigest",
        -10.253803271107776
      ],
      [
        "Ġvector",
        -10.253854095598772
      ],
      [
        "Ġsports",
        -10.25394507408636
      ],
      [
        "Ġstr",
        -10.257614117297166
      ],
      [
        "Ġresident",
        -10.258086213228673
      ],
      [
        "ĠData",
        -10.258889272010832
      ],
      [
        "Ġcreature",
        -10.25898162475394
      ],
      [
        "Ġobservation",
        -10.259401082254875
      ],
      [
        "Ġmice",
        -10.259877152389402
      ],
      [
        "Me",
        -10.261383585881376
      ],
      [
        "Ġcraft",
        -10.261653127132536
      ],
      [
        "Ġexcess",
        -10.261702721518612
      ],
      [
        "Ġmountain",
        -10.26234592601622
      ],
      [
        "ĠCamp",
        -10.262383838150477
      ],
      [
        "Ġcompetition",
        -10.262390835927992
      ],
      [
        "Ġrotat",
        -10.262420778742976
      ],
      [
        "Ġoperat",
        -10.262443079394806
      ],
      [
        "Ġanalyze",
        -10.262573363592464
      ],
      [
        "Ġrelie",
        -10.262946791160758
      ],
      [
        "ĠLike",
        -10.263334122495234
      ],
      [
        "Fig",
        -10.263513917261722
      ],
      [
        "ĠType",
        -10.264133641563353
      ],
      [
        "Ġwriter",
        -10.264562550769432
      ],
      [
        "Ġinner",
        -10.264998404068384
      ],
      [
        "Ġspa",
        -10.26618376415339
      ],
      [
        "ĠKing",
        -10.266380195135792
      ],
      [
        "ì",
        -10.26660228510558
      ],
      [
        "Ġofficial",
        -10.266621932174726
      ],
      [
        "Ġgram",
        -10.267017572178254
      ],
      [
        "Ġbiological",
        -10.267106785839069
      ],
      [
        "tru",
        -10.267261811177477
      ],
      [
        "Ġspecialize",
        -10.267552515130582
      ],
      [
        "stock",
        -10.267905836284934
      ],
      [
        "<",
        -10.268098641786294
      ],
      [
        "ĠWhere",
        -10.268433220299029
      ],
      [
        "Ġclosed",
        -10.26861513418821
      ],
      [
        "Ġutiliz",
        -10.268932780314422
      ],
      [
        "ĠHis",
        -10.269243940847057
      ],
      [
        "Ġnovel",
        -10.26940965358814
      ],
      [
        "Ġedit",
        -10.270379709496645
      ],
      [
        "Ġfloat",
        -10.270597364080707
      ],
      [
        "Ġchapter",
        -10.27090538485279
      ],
      [
        "Ġbridge",
        -10.270905521777728
      ],
      [
        "Ġminimum",
        -10.270906838960707
      ],
      [
        "Ġprompt",
        -10.27091126804985
      ],
      [
        "Ġtitle",
        -10.270919617843736
      ],
      [
        "Ġembryo",
        -10.270925495048589
      ],
      [
        "Ġmistake",
        -10.270984701428455
      ],
      [
        ");",
        -10.2711906588698
      ],
      [
        "Ġtap",
        -10.273054029512938
      ],
      [
        "Pre",
        -10.27312756236052
      ],
      [
        "Ġmeasured",
        -10.274513436625876
      ],
      [
        "Ġcalculate",
        -10.27452247648669
      ],
      [
        "Ġconsequence",
        -10.275217325512145
      ],
      [
        "Ġzero",
        -10.275219894524954
      ],
      [
        "Ġscratch",
        -10.275267803645011
      ],
      [
        "CO",
        -10.277087733127765
      ],
      [
        "that",
        -10.27712287574452
      ],
      [
        "ĠLight",
        -10.27731463741677
      ],
      [
        "Ex",
        -10.277448786296295
      ],
      [
        "Ġsent",
        -10.277816128971237
      ],
      [
        "IL",
        -10.277832343493989
      ],
      [
        "active",
        -10.278578002151503
      ],
      [
        "ĠConsider",
        -10.279293259764252
      ],
      [
        "emia",
        -10.279698728087546
      ],
      [
        "Ġemployee",
        -10.279700515906576
      ],
      [
        "Ġalign",
        -10.279770762924205
      ],
      [
        "Ġpresentation",
        -10.280022583059932
      ],
      [
        "Ġearn",
        -10.28054021308558
      ],
      [
        "Ġcopy",
        -10.28078940470795
      ],
      [
        "Ġgraph",
        -10.281208187625603
      ],
      [
        "Ġtent",
        -10.281433227252997
      ],
      [
        "field",
        -10.281584609896802
      ],
      [
        "Share",
        -10.281957463698427
      ],
      [
        "ĠPC",
        -10.283520700625584
      ],
      [
        "ĠJu",
        -10.283553141064676
      ],
      [
        "Ġtension",
        -10.284006600047888
      ],
      [
        "Ġfelt",
        -10.284047102627808
      ],
      [
        "ĠJew",
        -10.284109961574488
      ],
      [
        "Ġeliminate",
        -10.284584108752014
      ],
      [
        "mate",
        -10.285123223142282
      ],
      [
        "ĠEnergy",
        -10.285340258824506
      ],
      [
        "gone",
        -10.285863706344196
      ],
      [
        "Ġcalm",
        -10.285978746545796
      ],
      [
        "Ġvari",
        -10.28668912757278
      ],
      [
        "ency",
        -10.286812679323289
      ],
      [
        "Ġultra",
        -10.288320111870627
      ],
      [
        "loud",
        -10.288785305155136
      ],
      [
        "Ġprior",
        -10.289282348228548
      ],
      [
        "rich",
        -10.290480104740256
      ],
      [
        "ĠSee",
        -10.29197837250154
      ],
      [
        "Last",
        -10.292378695175486
      ],
      [
        "Ġaccurac",
        -10.292645558195812
      ],
      [
        "Ġassociation",
[...]
