{
  "version": "1.0",
  "truncation": null,
  "padding": null,
  "added_tokens": [
    {
      "id": 0,
      "content": "<|bos|>",
      "single_word": false,
      "lstrip": false,
      "rstrip": false,
      "normalized": false,
      "special": true
    },
    {
      "id": 1,
      "content": "<|user_start|>",
      "single_word": false,
      "lstrip": false,
      "rstrip": false,
      "normalized": false,
      "special": true
    },
    {
      "id": 2,
      "content": "<|user_end|>",
      "single_word": false,
      "lstrip": false,
      "rstrip": false,
      "normalized": false,
      "special": true
    },
    {
      "id": 3,
      "content": "<|assistant_start|>",
      "single_word": false,
      "lstrip": false,
      "rstrip": false,
      "normalized": false,
      "special": true
    },
    {
      "id": 4,
      "content": "<|assistant_end|>",
      "single_word": false,
      "lstrip": false,
      "rstrip": false,
      "normalized": false,
      "special": true
    },
    {
      "id": 5,
      "content": "<|python_start|>",
      "single_word": false,
      "lstrip": false,
      "rstrip": false,
      "normalized": false,
      "special": true
    },
    {
      "id": 6,
      "content": "<|python_end|>",
      "single_word": false,
      "lstrip": false,
      "rstrip": false,
      "normalized": false,
      "special": true
    },
    {
      "id": 7,
      "content": "<|output_start|>",
      "single_word": false,
      "lstrip": false,
      "rstrip": false,
      "normalized": false,
      "special": true
    },
    {
      "id": 8,
      "content": "<|output_end|>",
      "single_word": false,
      "lstrip": false,
      "rstrip": false,
      "normalized": false,
      "special": true
    },
    {
      "id": 9,
      "content": "<|unk|>",
      "single_word": false,
      "lstrip": false,
      "rstrip": false,
      "normalized": false,
      "special": true
    }
  ],
  "normalizer": null,
  "pre_tokenizer": {
    "type": "Sequence",
    "pretokenizers": [
      {
        "type": "Split",
        "pattern": {
          "Regex": "'(?i:[sdmt]|ll|ve|re)|[^\\r\\n\\p{L}\\p{N}]?+\\p{L}+|\\p{N}{1,2}| ?[^\\s\\p{L}\\p{N}]++[\\r\\n]*|\\s*[\\r\\n]|\\s+(?!\\S)|\\s+"
        },
        "behavior": "Isolated",
        "invert": false
      },
      {
        "type": "ByteLevel",
        "add_prefix_space": false,
        "trim_offsets": true,
        "use_regex": false
      }
    ]
  },
  "post_processor": {
    "type": "TemplateProcessing",
    "single": [
      {
        "Sequence": {
          "id": "A",
          "type_id": 0
        }
      }
    ],
    "pair": [
      {
        "Sequence": {
          "id": "A",
          "type_id": 0
        }
      },
      {
        "Sequence": {
          "id": "B",
          "type_id": 1
        }
      }
    ],
    "special_tokens": {}
  },
  "decoder": null,
  "model": {
    "type": "Unigram",
    "unk_id": 9,
    "vocab": [
      [
        "<|bos|>",
        0.0
      ],
      [
        "<|user_start|>",
        0.0
      ],
      [
        "<|user_end|>",
        0.0
      ],
      [
        "<|assistant_start|>",
        0.0
      ],
      [
        "<|assistant_end|>",
        0.0
      ],
      [
        "<|python_start|>",
        0.0
      ],
      [
        "<|python_end|>",
        0.0
      ],
      [
        "<|output_start|>",
        0.0
      ],
      [
        "<|output_end|>",
        0.0
      ],
      [
        "<|unk|>",
        0.0
      ],
      [
        "Ġ",
        -2.0737516705706476
      ],
      [
        "s",
        -3.106168904933943
      ],
      [
        ",",
        -3.5577449282229736
      ],
      [
        "Ġthe",
        -3.62368499291515
      ],
      [
        ".",
        -3.8215193120090376
      ],
      [
        "a",
        -4.008238862116569
      ],
      [
        "Ġof",
        -4.322230486672474
      ],
      [
        "t",
        -4.378965757049526
      ],
      [
        "Ġand",
        -4.458874610922763
      ],
      [
        "d",
        -4.4786541801366315
      ],
      [
        "Ġto",
        -4.538012796705438
      ],
      [
        "o",
        -4.546301642470306
      ],
      [
        "e",
        -4.549949630336478
      ],
      [
        "ing",
        -4.75320856376589
      ],
      [
        "Ġin",
        -4.869651324243552
      ],
      [
        "y",
        -4.9277561168531125
      ],
      [
        "i",
        -4.930487105413352
      ],
      [
        "'",
        -5.0305070632624975
      ],
      [
        "and",
        -5.104508804919153
      ],
      [
        "0",
        -5.1570864119258
      ],
      [
        "Ċ",
        -5.19448251923796
      ],
      [
        "Ġthat",
        -5.202227149144392
      ],
      [
        "n",
        -5.210761208059239
      ],
      [
        "Ġfor",
        -5.233551083819222
      ],
      [
        "1",
        -5.268435420838285
      ],
      [
        ":",
        -5.369517932542337
      ],
      [
        "Ġyou",
        -5.447576067362798
      ],
      [
        ".ĊĊ",
        -5.447591248589273
      ],
      [
        "2",
        -5.504940159483567
      ],
      [
        "Ġwith",
        -5.544422893247429
      ],
      [
        "is",
        -5.594729702958109
      ],
      [
        "r",
        -5.610548467174864
      ],
      [
        "ly",
        -5.616879396008185
      ],
      [
        ".Ċ",
        -5.662445406389272
      ],
      [
        "Ġcan",
        -5.724886599450246
      ],
      [
        "Ġare",
        -5.73703063635498
      ],
      [
        "the",
        -5.7522148744118535
      ],
      [
        "f",
        -5.76074492179939
      ],
      [
        "Ġbe",
        -5.763845918560191
      ],
      [
        "-",
        -5.817941848217798
      ],
      [
        "Ġis",
        -5.8702063258778026
      ],
      [
        "Ġyour",
        -5.87194442168707
      ],
      [
        "ĊĊ",
        -5.892009510422064
      ],
      [
        "to",
        -5.935349317252509
      ],
      [
        "(",
        -5.936689078104399
      ],
      [
        "on",
        -6.0363014720714325
      ],
      [
        "\"",
        -6.038683502218886
      ],
      [
        "I",
        -6.076728325229022
      ],
      [
        "Ġfrom",
        -6.081305787478483
      ],
      [
        "Ġhave",
        -6.084994929086363
      ],
      [
        "in",
        -6.085593799653424
      ],
      [
        "ĠThe",
        -6.137550658604312
      ],
      [
        "3",
        -6.13899532980515
      ],
      [
        ")",
        -6.141946648602124
      ],
      [
        "5",
        -6.1761966085787705
      ],
      [
        "ed",
        -6.200483470523281
      ],
      [
        "?",
        -6.208208983928273
      ],
      [
        "of",
        -6.235544613838444
      ],
      [
        "Ġby",
        -6.260686894626822
      ],
      [
        "Ġthis",
        -6.269829874237786
      ],
      [
        "4",
        -6.3483333261459975
      ],
      [
        "The",
        -6.362413420617534
      ],
      [
        "Ġnot",
        -6.364479879653089
      ],
      [
        "l",
        -6.364499334115525
      ],
      [
        "Ġwill",
        -6.3855741537472355
      ],
      [
        "Ġtheir",
        -6.389247110956493
      ],
      [
        "it",
        -6.403854836660447
      ],
      [
        "9",
        -6.462334990491071
      ],
      [
        "Ġa",
        -6.463224398434395
      ],
      [
        "are",
        -6.504485904194905
      ],
      [
        "or",
        -6.518475153874444
      ],
      [
        "Ġthey",
        -6.525677577510185
      ],
      [
        "Ġwas",
        -6.53647201784265
      ],
      [
        "Ġmore",
        -6.562757434560162
      ],
      [
        "ĠI",
        -6.569734610324009
      ],
      [
        "6",
        -6.590040341524416
      ],
      [
        "Ġan",
        -6.598416505614274
      ],
      [
        "Ġor",
        -6.6018620188612935
      ],
      [
        "m",
        -6.613786192470439
      ],
      [
        "A",
        -6.651071725792045
      ],
      [
        "Ġbut",
        -6.670235824613481
      ],
      [
        "8",
        -6.673028159544684
      ],
      [
        "Ġwhich",
        -6.677692278133133
      ],
      [
        "Question",
        -6.700554878039457
      ],
      [
        "7",
        -6.744471804887684
      ],
      [
        "Ġas",
        -6.749935999732319
      ],
      [
        "Ġalso",
        -6.752726483993989
      ],
      [
        "ĠAnswer",
        -6.82150510903049
      ],
      [
        "Ġhas",
        -6.839586000521484
      ],
      [
        "h",
        -6.856170809301499
      ],
      [
        "Ġwe",
        -6.866744401728518
      ],
      [
        "Ġabout",
        -6.8712272252394815
      ],
      [
        "Ġwhen",
        -6.902838447016718
      ],
      [
        "c",
        -6.903108859146041
      ],
      [
        "Ġthem",
        -6.997007059425027
      ],
      [
        "Ġmay",
        -7.010975833482336
      ],
      [
        "Ġtime",
        -7.011968506776858
      ],
      [
        "Ġinto",
        -7.050187757211214
      ],
      [
        "g",
        -7.063322815492715
      ],
      [
        "Ġlike",
        -7.074359334042324
      ],
      [
        "Ġother",
        -7.079156018238459
      ],
      [
        "an",
        -7.088325500836838
      ],
      [
        "Ġsome",
        -7.125699985540145
      ],
      [
        "Ġall",
        -7.142469686604473
      ],
      [
        "Ġout",
        -7.162729208830946
      ],
      [
        "Ġthere",
        -7.197784095451176
      ],
      [
        "Ġwater",
        -7.207068582830067
      ],
      [
        "ĠThis",
        -7.21987040059976
      ],
      [
        "Ġwhat",
        -7.221667704032447
      ],
      [
        "Ġup",
        -7.228306979525129
      ],
      [
        "Ġthan",
        -7.23026318511574
      ],
      [
        "Ġhelp",
        -7.246506541547374
      ],
      [
        "Ġthese",
        -7.268740311730333
      ],
      [
        "u",
        -7.269498408677912
      ],
      [
        "Ġmake",
        -7.273267797115402
      ],
      [
        "w",
        -7.282412022361632
      ],
      [
        "Ġuse",
        -7.3065916166773555
      ],
      [
        "ĠIt",
        -7.307553005642795
      ],
      [
        "b",
        -7.307676772017443
      ],
      [
        "ĠWhat",
        -7.316804928996767
      ],
      [
        "Ġbeen",
        -7.322797756558312
      ],
      [
        "Ġit",
        -7.323935092252567
      ],
      [
        "Ġwere",
        -7.330164288560173
      ],
      [
        "Ġmost",
        -7.33618061155007
      ],
      [
        ";",
        -7.337617407932933
      ],
      [
        "one",
        -7.343997522259668
      ],
      [
        "Ġhow",
        -7.36120273742366
      ],
      [
        "Ġpeople",
        -7.365099499456555
      ],
      [
        "Ġneed",
        -7.368753484446575
      ],
      [
        "at",
        -7.3805984841345325
      ],
      [
        "Ġwould",
        -7.381445946421863
      ],
      [
        "Ġsuch",
        -7.388421055080771
      ],
      [
        "as",
        -7.39709690426109
      ],
      [
        "ĠA",
        -7.402963659805824
      ],
      [
        "ĠIn",
        -7.403009327256335
      ],
      [
        "Ġshould",
        -7.412579798533709
      ],
      [
        "Ġthrough",
        -7.412913979955526
      ],
      [
        "Ġnew",
        -7.435522411350714
      ],
      [
        "Ġwho",
        -7.445591857197774
      ],
      [
        "our",
        -7.453390796020923
      ],
      [
        "Ġfirst",
        -7.467324210595839
      ],
      [
        "/",
        -7.472800942863266
      ],
      [
        "Ġused",
        -7.480844485390332
      ],
      [
        "Ġdo",
        -7.490106044779312
      ],
      [
        "Ġ(",
        -7.493272669157731
      ],
      [
        "Ġjust",
        -7.495897748871439
      ],
      [
        "Ġover",
        -7.505996886748701
      ],
      [
        "Ġonly",
        -7.509837503167164
      ],
      [
        "Ġon",
        -7.527705710705156
      ],
      [
        "Ġany",
        -7.532130658121726
      ],
      [
        "ies",
        -7.533993768151925
      ],
      [
        "Ġget",
        -7.534562825589696
      ],
      [
        "What",
        -7.534787492506407
      ],
      [
        "Ġmany",
        -7.537900463872164
      ],
      [
        "p",
        -7.551481780457138
      ],
      [
        "Ġdifferent",
        -7.557881485174901
      ],
      [
        "Ġwell",
        -7.575008136384318
      ],
      [
        "Ġwork",
        -7.584057523046674
      ],
      [
        "Ġbetween",
        -7.59248826357379
      ],
      [
        "Ġwhere",
        -7.607131844889022
      ],
      [
        "re",
        -7.621577070212552
      ],
      [
        "This",
        -7.630333824396455
      ],
      [
        "?Ċ",
        -7.665134864232792
      ],
      [
        "Ġhigh",
        -7.666815301190919
      ],
      [
        "!",
        -7.671132986337247
      ],
      [
        "Ġone",
        -7.675874451139389
      ],
      [
        "S",
        -7.678517673252653
      ],
      [
        "able",
        -7.6792560081942
      ],
      [
        "Ġcould",
        -7.681658961280599
      ],
      [
        "for",
        -7.684165445990125
      ],
      [
        "Ġbecause",
        -7.692592339204627
      ],
      [
        "Ġmy",
        -7.693843574099072
      ],
      [
        "Ġyears",
        -7.703389890646866
      ],
      [
        "Ġknow",
        -7.714127958150508
      ],
      [
        "?ĊĊ",
        -7.723405390309788
      ],
      [
        "Ġtwo",
        -7.734141376520933
      ],
      [
        "Ġpart",
        -7.738492441707939
      ],
      [
        "Ġsystem",
        -7.748015173314101
      ],
      [
        "Ġtake",
        -7.755812671393466
      ],
      [
        "Ġlook",
        -7.762247398575804
      ],
      [
        "Ġgood",
        -7.76289103886641
      ],
      [
        "Ġeven",
        -7.77066044221403
      ],
      [
        "Ġmuch",
        -7.772279359039095
      ],
      [
        "Ġprovide",
        -7.7939443283114755
      ],
      [
        "Ġimportant",
        -7.797621367615435
      ],
      [
        ").",
        -7.799299299104288
      ],
      [
        "Ġwant",
        -7.8033236990797885
      ],
      [
        "Ġway",
        -7.813898034181914
      ],
      [
        "Ġdoes",
        -7.817215646574073
      ],
      [
        "all",
        -7.822078752765929
      ],
      [
        "Ġfood",
        -7.835174791755971
      ],
      [
        "Ġi",
        -7.836603468722545
      ],
      [
        "Ġlong",
        -7.871308433485019
      ],
      [
        "Ġafter",
        -7.872000751133834
      ],
      [
        "ĠYou",
        -7.873326531747708
      ],
      [
        "Ġprocess",
        -7.878603650980478
      ],
      [
        "Ġhealth",
        -7.888772975643647
      ],
      [
        "âĢĵ",
        -7.890019624628467
      ],
      [
        "Ġbefore",
        -7.904030504028645
      ],
      [
        "T",
        -7.9055893801950035
      ],
      [
        "Ġwhile",
        -7.908733209879419
      ],
      [
        "its",
        -7.912159504235445
      ],
      [
        "Ġcreate",
        -7.912526786022918
      ],
      [
        "ĠThey",
        -7.918929746124471
      ],
      [
        "D",
        -7.921799877080124
      ],
      [
        "Ġbeing",
        -7.924342519690093
      ],
      [
        "Ġenergy",
        -7.925378075762579
      ],
      [
        "be",
        -7.944923809066683
      ],
      [
        "%",
        -7.951904734020998
      ],
      [
        "Ġaround",
        -7.957563508195506
      ],
      [
        "made",
        -7.960825779028196
      ],
      [
        "In",
        -7.96399230878613
      ],
      [
        "ĠIf",
        -7.968234862878379
      ],
      [
        "Ġduring",
        -7.968689271491577
      ],
      [
        "Ġsame",
        -7.969439601959758
      ],
      [
        "ve",
        -7.972158674104719
      ],
      [
        "How",
        -7.977846975629522
      ],
      [
        "Ġdown",
        -7.978208294009033
      ],
      [
        "Ġthose",
        -7.980010581639098
      ],
      [
        "Ġlife",
        -7.982344785420219
      ],
      [
        "Ġsmall",
        -7.986546817898956
      ],
      [
        "Ġusing",
        -7.989415359108296
      ],
      [
        "Ġworld",
        -8.004034782351045
      ],
      [
        "Ġdata",
        -8.01684320385965
      ],
      [
        "Ġboth",
        -8.01869118478276
      ],
      [
        "Ġbody",
        -8.022710397735464
      ],
      [
        "Ġbest",
        -8.023300925320966
      ],
      [
        "Ġsee",
        -8.025489366159194
      ],
      [
        "Ġfound",
        -8.039148303511205
      ],
      [
        "Ġyear",
        -8.046621559008058
      ],
      [
        "he",
        -8.048572475201627
      ],
      [
        "that",
        -8.053860977472185
      ],
      [
        "Ġback",
        -8.059040404166781
      ],
      [
        "Ġfind",
        -8.061054957585357
      ],
      [
        "Ġcommon",
        -8.064967091251557
      ],
      [
        "Ġinclude",
        -8.069840540840845
      ],
      [
        "Ġstudy",
        -8.075565410495495
      ],
      [
        "),",
        -8.075598366691661
      ],
      [
        "Ġplace",
        -8.076077302765645
      ],
      [
        "Ġinformation",
        -8.07799742578932
      ],
      [
        "Ġoften",
        -8.080294866057356
      ],
      [
        "Ġdon",
        -8.081966789523246
      ],
      [
        "Ġnumber",
        -8.087068173699604
      ],
      [
        "Ġcome",
        -8.093834741319487
      ],
      [
        "C",
        -8.094179029370252
      ],
      [
        "Ġthink",
        -8.095210935074332
      ],
      [
        "Ġcause",
        -8.095539912233457
      ],
      [
        "Ġchange",
        -8.098545914116684
      ],
      [
        "ĠWe",
        -8.108544589347076
      ],
      [
        "ability",
        -8.110192032775275
      ],
      [
        "by",
        -8.111267775347029
      ],
      [
        "Ġmight",
        -8.112405802851912
      ],
      [
        "us",
        -8.113764000496957
      ],
      [
        "Ġhome",
        -8.12088171203474
      ],
      [
        "less",
        -8.12534254795271
      ],
      [
        "Ġpower",
        -8.128090082223851
      ],
      [
        "Ġno",
        -8.136518809603924
      ],
      [
        "al",
        -8.137326722617347
      ],
      [
        "Ġlight",
        -8.14092231051706
      ],
      [
        "Ġcolor",
        -8.142538348064427
      ],
      [
        "Ġhis",
        -8.143321363755035
      ],
      [
        "Ġsaid",
        -8.14442748185093
      ],
      [
        "ĠFor",
        -8.147260830231577
      ],
      [
        ":ĊĊ",
        -8.15778277313711
      ],
      [
        "Ġresearch",
        -8.160771140023364
      ],
      [
        "x",
        -8.162406427071803
      ],
      [
        "Ġevery",
        -8.16249235051196
      ],
      [
        "es",
        -8.170218986341622
      ],
      [
        "Ġbetter",
        -8.175303479449322
      ],
      [
        "can",
        -8.181181273264654
      ],
      [
        "Ġlarge",
        -8.184442851253953
      ],
      [
        "Ġright",
        -8.185483841227743
      ],
      [
        "B",
        -8.186006863110723
      ],
      [
        "Ġbecome",
        -8.187616737079429
      ],
      [
        "Ġdesign",
        -8.193125753625893
      ],
      [
        "ally",
        -8.1976458000133
      ],
      [
        "Ġday",
        -8.197690435813861
      ],
      [
        "ĠB",
        -8.198190190685182
      ],
      [
        "Ġthing",
        -8.200298068603015
      ],
      [
        "Ġwithout",
        -8.20687157632612
      ],
      [
        "Ġits",
        -8.221715725378107
      ],
      [
        "Ġconsider",
        -8.223370114801453
      ],
      [
        "Ġvery",
        -8.223859829138826
      ],
      [
        "Ġstudents",
        -8.226450071257215
      ],
      [
        "Ġplant",
        -8.236230161943432
      ],
      [
        "Ġgrow",
        -8.24477691073615
      ],
      [
        "Ġexample",
        -8.244913023465196
      ],
      [
        "Ġgreat",
        -8.249589926217814
      ],
      [
        "Ġsupport",
        -8.252094844756297
      ],
      [
        "each",
        -8.257485876637041
      ],
      [
        "Ġincrease",
        -8.258259434349856
      ],
      [
        "Ġincluding",
        -8.260192918802062
      ],
      [
        "Ġallow",
        -8.265608507399964
      ],
      [
        "if",
        -8.265891989521728
      ],
      [
        "use",
        -8.276428136409928
      ],
      [
        "Ġbase",
        -8.277573702024684
      ],
      [
        "Ġshow",
        -8.28094924278057
      ],
      [
        "Ġeffect",
        -8.285049887376328
      ],
      [
        "ness",
        -8.285316723959959
      ],
      [
        "Ġresult",
        -8.286312666070666
      ],
      [
        "Ġexperience",
        -8.291218959574627
      ],
      [
        "Ġoff",
        -8.29273732517455
      ],
      [
        "Ġhuman",
        -8.293374839484779
      ],
      [
        "Ġspecies",
        -8.293418490532503
      ],
      [
        "ĠTo",
        -8.301605249512704
      ],
      [
        "Ġlead",
        -8.30226135171502
      ],
      [
        "Ġcase",
        -8.307113103905722
      ],
      [
        "Ġair",
        -8.307416865017132
      ],
      [
        "Ġstill",
        -8.309847411742743
      ],
      [
        "Ġthree",
        -8.310373431950087
      ],
      [
        "other",
        -8.322256981956329
      ],
      [
        "Ġissue",
        -8.324443814647195
      ],
      [
        "...",
        -8.325532283009
      ],
      [
        "Ġkeep",
        -8.329488694208612
      ],
      [
        "ĠC",
        -8.330048666913378
      ],
      [
        "Ġgroup",
        -8.331316814342706
      ],
      [
        "Ġgo",
        -8.333724920186068
      ],
      [
        "Ġcontrol",
        -8.334820782786043
      ],
      [
        "When",
        -8.335621707977397
      ],
      [
        "Ġreduce",
        -8.336143775294568
      ],
      [
        "Ġtype",
        -8.337218202581
      ],
      [
        "Ġdog",
        -8.338927368655423
      ],
      [
        "Ġhad",
        -8.341942352735735
      ],
      [
        "ĠBut",
        -8.343361534601694
      ],
      [
        "Ġunder",
        -8.351056650857112
      ],
      [
        "ll",
        -8.351533222915144
      ],
      [
        "Ġgive",
        -8.35163126420304
      ],
      [
        "Ġfew",
        -8.352257981306224
      ],
      [
        "Ġsize",
        -8.353972743583283
      ],
      [
        "Ġindividual",
        -8.35711030658695
      ],
      [
        "Ġchildren",
        -8.35934191613417
      ],
      [
        "Ġcar",
        -8.359822779595747
      ],
      [
        "k",
        -8.364527154965625
      ],
      [
        "er",
        -8.36730820232943
      ],
      [
        "ĠAnd",
        -8.36923755276997
      ],
      [
        "Ġheat",
        -8.369859538385427
      ],
      [
        "Ġquestion",
        -8.369985382681408
      ],
      [
        "Ġcost",
        -8.370595242528427
      ],
      [
        "Ġcalled",
        -8.374049208527492
      ],
      [
        "Ġwithin",
        -8.376359952149416
      ],
      [
        "known",
        -8.383447937309963
      ],
      [
        "ĠâĢĵ",
        -8.383706274000362
      ],
      [
        "Ġmust",
        -8.383963706810244
      ],
      [
        "used",
        -8.396123065676235
      ],
      [
        "Ġpoint",
        -8.403023248046392
      ],
      [
        "Ġsomething",
        -8.406810373541937
      ],
      [
        "Ġschool",
        -8.40856865553781
      ],
      [
        "ĠThese",
        -8.409522257206792
      ],
      [
        "Ġcell",
        -8.410145377811066
      ],
      [
        "Ġensure",
        -8.417861798596364
      ],
      [
        "more",
        -8.420727729079864
      ],
      [
        "Ġblood",
        -8.424830895307938
      ],
      [
        "very",
        -8.425774674580486
      ],
      [
        "Ġat",
        -8.426954135635457
      ],
      [
        "Ġwhy",
        -8.42775687422101
      ],
      [
        "You",
        -8.439346401131182
      ],
      [
        "Ġlevel",
        -8.440185262493651
      ],
      [
        "Ġfollowing",
        -8.44553386594108
      ],
      [
        "Ġoffer",
        -8.446058119068491
      ],
      [
        "Ġdevelop",
        -8.44681477916798
      ],
      [
        "Ġher",
        -8.450515284969299
      ],
      [
        "with",
        -8.451831477181596
      ],
      [
        "Ġplants",
        -8.453833876962815
      ],
      [
        "Ġspecific",
        -8.454887155102451
      ],
      [
        "Ġform",
        -8.455998446099269
      ],
      [
        "Ġimpact",
        -8.463013492660982
      ],
      [
        "Ġtemperature",
        -8.463692568173276
      ],
      [
        "Ġfactor",
        -8.464984799154188
      ],
      [
        "th",
        -8.469445033349125
      ],
      [
        "from",
        -8.476341396016906
      ],
      [
        "out",
        -8.479098224065869
      ],
      [
        "Ġmaking",
        -8.479876334535973
      ],
      [
        "you",
        -8.480097481322929
      ],
      [
        "ity",
        -8.48044772247425
      ],
      [
        "[",
        -8.483050084130676
      ],
      [
        "v",
        -8.483144256424143
      ],
      [
        "Ġdevice",
        -8.483443986673084
      ],
      [
        "um",
        -8.484108951485524
      ],
      [
        "Ġarea",
        -8.484871089498977
      ],
      [
        "Ġvarious",
        -8.485304597647445
      ],
      [
        "Ġb",
        -8.49049437452953
      ],
      [
        "Ġamount",
        -8.492998851170743
      ],
      [
        "Ġso",
        -8.494758666070684
      ],
      [
        "Ġfish",
        -8.499127212020024
      ],
      [
        "Ġeach",
        -8.505883364989845
      ],
      [
        "Ġmeans",
        -8.505928405760205
      ],
      [
        "Ġanother",
        -8.506607467944981
      ],
      [
        "Ġth",
        -8.506764093269851
      ],
      [
        "using",
        -8.509909548994287
      ],
      [
        "Ġpotential",
        -8.516299876743096
      ],
      [
        "Ġmain",
        -8.51753126054408
      ],
      [
        "Ġgoing",
        -8.519743188172608
      ],
      [
        "Ġlittle",
        -8.52036935841647
      ],
      [
        "have",
        -8.521423023031494
      ],
      [
        "Ġstart",
        -8.522468778234671
      ],
      [
        "Ġtreatment",
        -8.523739779314388
      ],
      [
        "Ġrequire",
        -8.52448496049016
      ],
      [
        "Ġplay",
        -8.526311561510353
      ],
      [
        "Ġnatural",
        -8.52636265728739
      ],
      [
        "not",
        -8.528004449177516
      ],
      [
        "has",
        -8.529180201946179
      ],
      [
        "There",
        -8.529607256575815
      ],
      [
        "Ġsignificant",
        -8.530911041346442
      ],
      [
        "Ġprevent",
        -8.533189424458904
      ],
      [
        "Ġfeel",
        -8.53442156309534
      ],
      [
        "ĠHow",
        -8.543313202565422
      ],
      [
        "Ġalways",
        -8.543961501867852
      ],
      [
        "Ġdue",
        -8.548848096502368
      ],
      [
        "Ġeffective",
        -8.553629302908742
      ],
      [
        "Ġpossible",
        -8.554382594600911
      ],
      [
        "Ġmaterial",
        -8.557325677227352
      ],
      [
        "Ġenvironment",
        -8.557735566759941
      ],
      [
        "Ġour",
        -8.558971109488095
      ],
      [
        "H",
        -8.55898374380094
      ],
      [
        "Ġsecond",
        -8.563153744085618
      ],
      [
        ":Ċ",
        -8.563963565082638
      ],
      [
        "Ġgeneral",
        -8.57357634735427
      ],
      [
        "Ġt",
        -8.575356438662673
      ],
      [
        "$",
        -8.576166331400763
      ],
      [
        "Ġproblem",
        -8.577367791597734
      ],
      [
        "Ġdevelopment",
        -8.577436155531402
      ],
      [
        "âĢĶ",
        -8.57863306780348
      ],
      [
        "Ġnow",
        -8.582177926047613
      ],
      [
        "Ġimprove",
        -8.582566286245324
      ],
      [
        "Ġreason",
        -8.583238706482682
      ],
      [
        "!Ċ",
        -8.589274697591646
      ],
      [
        "Ġspace",
        -8.59136668791732
      ],
      [
        "Ġareas",
        -8.592015569809377
      ],
      [
        "Ġseveral",
        -8.599792751730828
      ],
      [
        "Ġavailable",
        -8.603281713750176
      ],
      [
        "Ġsoil",
        -8.603431731515508
      ],
      [
        "Ġactual",
        -8.603967259134699
      ],
      [
        "ĠSo",
        -8.604242359006232
      ],
      [
        "Ġdisease",
        -8.604296927926086
      ],
      [
        "Ġenough",
        -8.605564213611679
      ],
      [
        "Ġstate",
        -8.606145644862583
      ],
      [
        "Ġcare",
        -8.61296746902911
      ],
      [
        "Ġleave",
        -8.61410337828611
      ],
      [
        "how",
        -8.614190135347133
      ],
      [
        "Ġessential",
        -8.617463414027288
      ],
      [
        "Ġrisk",
        -8.62231952455572
      ],
      [
        "Ġdamage",
        -8.62560369872634
      ],
      [
        "Ġper",
        -8.625703089097005
      ],
      [
        "Ġsurface",
        -8.625867466882038
      ],
      [
        "Ġadd",
        -8.626016955988044
      ],
      [
        "Ġweek",
        -8.628495705486555
      ],
      [
        "Ġcertain",
        -8.632227392534263
      ],
      [
        "Ġlearn",
        -8.634613691418096
      ],
      [
        "Ġcourse",
        -8.639703498352999
      ],
      [
        "Ġfield",
        -8.642387329751761
      ],
      [
        "Ġdays",
        -8.644879826057789
      ],
      [
        "this",
        -8.645068732703677
      ],
      [
        "up",
        -8.645148481370445
      ],
      [
        "Ġcurrent",
        -8.64771099731664
      ],
      [
        "Ġme",
        -8.652549602191305
      ],
      [
        "Ġmean",
        -8.653222976232522
      ],
      [
        "M",
        -8.65568161508212
      ],
      [
        "higher",
        -8.657598674332633
      ],
      [
        "Ġapplication",
        -8.659716698857268
      ],
      [
        "Ġcontain",
        -8.66339897553339
      ],
      [
        "If",
        -8.665372878846906
      ],
      [
        "ĠWhich",
        -8.665529097297314
      ],
      [
        "Ġperson",
        -8.666107119655933
      ],
      [
        "Ġorder",
        -8.669108443840024
      ],
      [
        "cells",
        -8.670008579681314
      ],
      [
        "Ġunderstand",
        -8.670423551446602
      ],
      [
        "Ġtypes",
        -8.6709423301478
      ],
      [
        "Ġfunction",
        -8.6727659072027
      ],
      [
        "early",
        -8.67299192596058
      ],
      [
        "Ġneeds",
        -8.673023528143618
      ],
      [
        "Ġend",
        -8.673967023039937
      ],
      [
        "Ġlearning",
        -8.675305246123012
      ],
      [
        "Ġuntil",
        -8.67735111138157
      ],
      [
        "P",
        -8.677898494364818
      ],
      [
        "Ġusually",
        -8.678596577167902
      ],
      [
        "Ġlocal",
        -8.680711888278548
      ],
      [
        "ĠThere",
        -8.681477319484468
      ],
      [
        "Ġconditions",
        -8.688577570322352
      ],
      [
        "=",
        -8.689197595587123
      ],
      [
        "Ġhard",
        -8.689206276065562
      ],
      [
        "Ġparticular",
        -8.689732164848937
      ],
      [
        "ĠWhen",
        -8.690481489832834
      ],
      [
        "having",
        -8.691022420532684
      ],
      [
        "Ġtogether",
        -8.70477175022176
      ],
      [
        "ĠM",
        -8.710782886034796
      ],
      [
        "Ġsince",
        -8.714240396673603
      ],
      [
        "Ġfree",
        -8.714653747019456
      ],
      [
        "Ġpressure",
        -8.715695974168709
      ],
      [
        "Ġrange",
        -8.719243933185684
      ],
      [
        "Ġquality",
        -8.722006921282361
      ],
      [
        "Ġlive",
        -8.722684064540788
      ],
      [
        "own",
        -8.7256006499368
      ],
      [
        "Ġteam",
        -8.727187422949749
      ],
      [
        "Ġdid",
        -8.727325367634618
      ],
      [
        "Ġresults",
        -8.72780288087744
      ],
      [
        "Ġtext",
        -8.728098751850181
      ],
      [
        "]",
        -8.728319961655378
      ],
      [
        "Ġprotein",
        -8.72838426561312
      ],
      [
        "Ġmethod",
        -8.730437253046276
      ],
      [
        "ĠS",
        -8.733961841298324
      ],
      [
        "Ġmonth",
        -8.735744235600121
      ],
      [
        "ĠAs",
        -8.73788826839678
      ],
      [
        "Ġplan",
        -8.73791815909016
      ],
      [
        "Ġtechnology",
        -8.740210945685753
      ],
      [
        "Ġfamily",
        -8.7410682081927
      ],
      [
        "Ġanswer",
        -8.742172079081268
      ],
      [
        "Ġlot",
        -8.743351185539845
      ],
      [
        "Ġmaintain",
        -8.745902352789837
      ],
      [
        "E",
        -8.749646408549676
      ],
      [
        "For",
        -8.753205484433273
      ],
      [
        "Ġwhite",
        -8.754417566154665
      ],
      [
        "Ġside",
        -8.755564600689507
      ],
      [
        "way",
        -8.761518217325253
      ],
      [
        "Ġmodel",
        -8.762422600812798
      ],
      [
        "ar",
        -8.768234265142274
      ],
      [
        "Answer",
        -8.768642618244774
      ],
      [
        "Ġmaterials",
        -8.768764088345794
      ],
      [
        "like",
        -8.769473549416222
      ],
      [
        "Ġvalue",
        -8.770029846489074
      ],
      [
        "Ġdiet",
        -8.771314166343338
      ],
      [
        "Ġlikely",
        -8.771689184088707
      ],
      [
        "O",
        -8.776471881113768
      ],
      [
        "Ġgame",
        -8.777543413024267
      ],
      [
        "Ġvariet",
        -8.778200079770956
      ],
      [
        "Ġpaper",
        -8.780148036227512
      ],
      [
        "*",
        -8.780691458039033
      ],
      [
        "Ġtechnique",
        -8.781273146724146
      ],
      [
        "Ġmakes",
        -8.781517155156472
      ],
      [
        "ĠUniversity",
        -8.784108824287461
      ],
      [
        "Ġhealthy",
        -8.784979073105044
      ],
      [
        "Ġanimal",
        -8.787909904213816
      ],
      [
        "Ġsimple",
        -8.787973762063345
      ],
      [
        "Ġdirect",
        -8.788033571668754
      ],
      [
        "Ġeasy",
        -8.788736623646901
      ],
      [
        "Ġreal",
        -8.789144134215
      ],
      [
        "Ġagain",
        -8.78927194360319
      ],
      [
        "Ġperiod",
        -8.790075714032874
      ],
      [
        "ĠBy",
        -8.790686504139128
      ],
      [
        "ever",
        -8.792387224768941
      ],
      [
        "Ġnext",
        -8.793949762282974
      ],
      [
        "&",
        -8.798381915843521
      ],
      [
        "Ġopen",
        -8.798968831298367
      ],
      [
        "Ġlevels",
        -8.800447089092572
      ],
      [
        "had",
        -8.802061718794338
      ],
      [
        "Ġkey",
        -8.802858754247342
      ],
      [
        "Ġweight",
        -8.80607385208686
      ],
      [
        "Ġdoesn",
        -8.807411317205236
      ],
      [
        "Ġprotect",
        -8.80748939097445
      ],
      [
        "Ġwide",
        -8.808899807821359
      ],
      [
        "âĢĻ",
        -8.808925464931498
      ],
      [
        "age",
        -8.809306351750795
      ],
      [
        "Ġproducts",
        -8.809702471331136
      ],
      [
        "W",
        -8.816272637169831
      ],
      [
        "ĠHowev",
        -8.819527556497995
      ],
      [
        "ĠHe",
        -8.820574365004523
      ],
      [
        "Ġchanges",
        -8.82139457756256
      ],
      [
        "Ġtest",
        -8.825011636021138
      ],
      [
        "Ġseem",
        -8.828633531334024
      ],
      [
        "Ġsystems",
        -8.829468663810045
      ],
      [
        "Ġpresent",
        -8.831282360404316
      ],
      [
        "Ġavoid",
        -8.831468852343052
      ],
      [
        "Ġlow",
        -8.8327188831794
      ],
      [
        "ĠD",
        -8.833780369669698
      ],
      [
        "Ġtimes",
        -8.837003761044937
      ],
      [
        "ation",
        -8.837059962902144
      ],
      [
        "Ġname",
        -8.837337134302398
      ],
      [
        "than",
        -8.840985832064195
      ],
      [
        "Ġleast",
        -8.841562624853697
      ],
      [
        "Ġstructure",
        -8.842639745189384
      ],
      [
        "ĠP",
        -8.843553045772673
      ],
      [
        "animals",
        -8.844564227931118
      ],
      [
        ".\"Ċ",
        -8.845124256491438
      ],
      [
        "Ġgas",
        -8.84656877661789
      ],
      [
        "Ġdifficult",
        -8.847352571286411
      ],
      [
        "Ġunique",
        -8.847726673753318
      ],
      [
        "Ġalong",
        -8.848062521047689
      ],
      [
        "Ġproblems",
        -8.850870716812924
      ],
      [
        "Ġproject",
        -8.8531683551855
      ],
      [
        "Ġsuggest",
        -8.853813350887487
      ],
      [
        "Ġaccording",
        -8.854289994690314
      ],
      [
        "âĢĻs",
        -8.854401431845705
      ],
      [
        "Ġnon",
        -8.854621251359571
      ],
      [
        "Ġhere",
        -8.855225404258686
      ],
      [
        "where",
        -8.855425615989034
      ],
      [
        ")ĊĊ",
        -8.85655737894876
      ],
      [
        "Ġshe",
        -8.85700619290811
      ],
      [
        "Ġprogram",
        -8.857392687012744
      ],
      [
        "Ġsingle",
        -8.857923283095975
      ],
      [
        "Ġsure",
        -8.859986377516972
      ],
      [
        "Ġproduction",
        -8.860967061644523
      ],
      [
        "Ġhand",
        -8.861012619997151
      ],
      [
        "Ġchild",
        -8.861541690556022
      ],
      [
        "Ġdepend",
        -8.86183339702355
      ],
      [
        "Ġprofessional",
        -8.863323095981695
      ],
      [
        "Ġput",
        -8.866922072591805
      ],
      [
        "ĠThat",
        -8.86792850047088
      ],
      [
        "Ġpopulation",
        -8.869613358590916
      ],
      [
        "Ġremove",
        -8.871684159972705
      ],
      [
        "across",
        -8.874583074588807
      ],
      [
        "Ġbusiness",
        -8.875473207071044
      ],
      [
        "Ġtop",
        -8.882090216015005
      ],
      [
        "F",
        -8.88574851523279
      ],
      [
        "Ġidea",
        -8.885923134607925
      ],
      [
        "Ġeye",
        -8.886326274356028
      ],
      [
        "Ġgiven",
        -8.886850722821318
      ],
      [
        "Ġbook",
        -8.888264008162757
      ],
      [
        "Ġdetermine",
        -8.889146652977153
      ],
      [
        "any",
        -8.889587250506999
      ],
      [
        "Ġabove",
        -8.889846125940494
      ],
      [
        "Ġstep",
        -8.890043783432883
      ],
      [
        "Ġreall",
        -8.891372268528219
      ],
      [
        "Ġfuture",
        -8.891594038064333
      ],
      [
        "most",
        -8.891951260723127
      ],
      [
        "Ġstore",
        -8.892552431831483
      ],
      [
        "Ġespecially",
        -8.895084902225973
      ],
      [
        "Ġclean",
        -8.898341350492066
      ],
      [
        "Ġamong",
        -8.898633761031583
      ],
      [
        "Ġcomputer",
        -8.901997303340714
      ],
      [
        "Ġnever",
        -8.902394947194592
      ],
      [
        "Ġphysical",
        -8.902567336228415
      ],
      [
        "Ġbenefits",
        -8.902665278021509
      ],
      [
        "+",
        -8.903314802193442
      ],
      [
        "Ġgarden",
        -8.904210745146674
      ],
      [
        "Ġsimilar",
        -8.904534986685107
      ],
      [
        "Ġgrowth",
        -8.904721562867131
      ],
      [
        "Ġsocial",
        -8.908194680372766
      ],
      [
        "Ġsource",
        -8.908773038349771
      ],
      [
        "Ġsafe",
        -8.90957611689225
      ],
      [
        "Ġaway",
        -8.912881642573307
      ],
      [
        "Ġcontinue",
        -8.912916996621616
      ],
      [
        "Ġclose",
        -8.912958645994454
      ],
      [
        "Ġfull",
        -8.915042907228024
      ],
      [
        "We",
        -8.9173006724053
      ],
      [
        "Ġdogs",
        -8.917630214186856
      ],
      [
        "thing",
        -8.919280269902277
      ],
      [
        "Ġmove",
        -8.919819716870908
      ],
      [
        ").Ċ",
        -8.921009729835395
      ],
      [
        "Ġshort",
        -8.921846695892468
      ],
      [
        "Ġaccess",
        -8.922134319084549
      ],
      [
        "Ġstrong",
        -8.927200868584515
      ],
      [
        "Ġheart",
        -8.927709751641743
      ],
      [
        "Ġclear",
        -8.930234032990516
      ],
      [
        "Ġrole",
        -8.93069443382736
      ],
      [
        "Ġregular",
        -8.934135799149209
      ],
      [
        "Ġcomponent",
        -8.934915614819598
      ],
      [
        "Ġbasic",
        -8.939432434700944
      ],
      [
        "Ġworking",
        -8.940204940120076
      ],
      [
        "Ġlower",
        -8.941456821815786
      ],
      [
        "Ġresearcher",
        -8.941894367231093
      ],
      [
        "N",
        -8.94202911497531
      ],
      [
        "Ġaddition",
        -8.943269823518255
      ],
      [
        "Ġset",
        -8.944120329878888
      ],
      [
        "These",
        -8.946800664540847
      ],
      [
        "Ġflow",
        -8.94967407725212
      ],
      [
        "Ġsignal",
        -8.952326671599856
      ],
      [
        "Ġskin",
        -8.953192230291135
      ],
      [
        "Ġtoday",
        -8.954069759641266
      ],
      [
        "Ġcheck",
        -8.954222237749615
      ],
      [
        "Ġmatter",
        -8.954580864783908
      ],
      [
        "ĠWith",
        -8.955927889636582
      ],
      [
        "such",
        -8.956151343923366
      ],
      [
        "Ġproduct",
        -8.956729632677561
      ],
      [
        ",\"",
        -8.957295035854774
      ],
      [
        "Ġfocus",
        -8.957675863199235
      ],
      [
        "Ġclimate",
        -8.95941101253031
      ],
      [
        "once",
        -8.959527561676065
      ],
      [
        "we",
        -8.962824080690716
      ],
      [
        "Ġmarket",
        -8.964100079845082
      ],
      [
        "Ġdifference",
        -8.967545255692045
      ],
      [
        "Ġpattern",
        -8.969063657530025
      ],
      [
        "Ġproduce",
        -8.97378524766999
      ],
      [
        "Ġregion",
        -8.974585001495695
      ],
      [
        "Ġfact",
        -8.97540020784416
      ],
      [
        "Ġfurther",
        -8.975572820806171
      ],
      [
        "Ġinterest",
        -8.97633262363295
      ],
      [
        "Ġfour",
        -8.982251477902473
      ],
      [
        "Ġmillion",
        -8.984206350497947
      ],
      [
        "Ġcompare",
        -8.987442621085703
      ],
      [
        "Ġleft",
        -8.987611379021509
      ],
      [
        "Ġwarm",
        -8.989397170418274
      ],
      [
        "Ġchoice",
        -8.990367438157836
      ],
      [
        "Ġown",
        -8.990684929015895
      ],
      [
        "Ġrecent",
        -8.991262029752697
      ],
      [
        "two",
        -8.992019341494167
      ],
      [
        "Ġbelow",
        -8.99203983398713
      ],
      [
        "Ġcontent",
        -8.992264550785656
      ],
      [
        "already",
        -8.992366857846294
      ],
      [
        "Ġground",
        -8.992581157088978
      ],
      [
        "nstead",
        -8.99395490352504
      ],
      [
        "Ġperformance",
        -8.994260489646152
      ],
      [
        "Ġcomplete",
        -8.994609195389351
      ],
      [
        "Ġbring",
        -8.997022193349146
      ],
      [
        "ĠNew",
        -8.998128673270216
      ],
      [
        "Ġimage",
        -8.99854267110857
      ],
      [
        "Ġcondition",
        -9.000058434787823
      ],
      [
        "Ġskills",
        -9.000558102058507
      ],
      [
        "Ġmajor",
        -9.000926671530683
      ],
      [
        "living",
        -9.002339616300535
      ],
      [
        "Ġinside",
        -9.00409405426976
      ],
      [
        "Ġcorrect",
        -9.005235732811954
      ],
      [
        "Ġcancer",
        -9.00535325474788
      ],
      [
        "Ġpopular",
        -9.005902502420426
      ],
      [
        "Ġrun",
        -9.0074576418119
      ],
      [
        "Ġbig",
        -9.009368510578565
      ],
      [
        "time",
        -9.010114929868202
      ],
      [
        "Ġun",
        -9.011675156940232
      ],
      [
        "Ġtoward",
        -9.012636117819008
      ],
      [
        "some",
        -9.013968718834558
      ],
      [
        "R",
        -9.015206720019457
      ],
      [
        "Ġcarbon",
        -9.015648648593842
      ],
      [
        "Ġthen",
        -9.017579936138052
      ],
      [
        "Ġapproach",
        -9.018258601796129
      ],
      [
        "Ġsound",
        -9.019425988440055
      ],
      [
        "Ġchallenge",
        -9.02035580300527
      ],
      [
        "ĠSome",
        -9.021185117023531
      ],
      [
        "his",
        -9.022310382070032
      ],
      [
        "Ġless",
        -9.023000690852736
      ],
      [
        "Ġunderstanding",
        -9.02433421593255
      ],
      [
        "Ġbrain",
        -9.024435887334803
      ],
      [
        "Ġindustry",
        -9.025129089956636
      ],
      [
        "Ġturn",
        -9.02570067234143
      ],
      [
        "Ġbuilding",
        -9.026126761786884
      ],
      [
        "Ġsay",
        -9.02681130530113
      ],
      [
        "Ġdone",
        -9.029462269722668
      ],
      [
        "Ġengine",
        -9.029977738396443
      ],
      [
        "Ġaffect",
        -9.031529477719015
      ],
      [
        "G",
        -9.034024157069592
      ],
      [
        "Ġstudie",
        -9.0347398107899
      ],
      [
        "Ġpiece",
        -9.035147485416111
      ],
      [
        "Ġenjoy",
        -9.03586205321757
      ],
      [
        "Ġsign",
        -9.03612857112586
      ],
      [
        "Ġnormal",
        -9.039423005933212
      ],
      [
        "Ġlast",
        -9.03985373544095
      ],
      [
        "Ġneeded",
        -9.039983037992894
      ],
      [
        "Ġtraining",
        -9.04025298883803
      ],
      [
        "Ġhours",
        -9.042073591718385
      ],
      [
        "Ġpost",
        -9.042338133774852
      ],
      [
        "your",
        -9.042757634792125
      ],
      [
        "Ġfeatures",
        -9.04331295095442
      ],
      [
        "Ġcompany",
        -9.04495174784708
      ],
      [
        "Ġspeed",
        -9.045051553789069
      ],
      [
        "ĠNo",
        -9.045604910909844
      ],
      [
        "Ġline",
        -9.048447032561448
      ],
      [
        "Ġread",
        -9.04877571923361
      ],
      [
        "Ġconcern",
        -9.057326339431874
      ],
      [
        "Ġlove",
        -9.059682998400032
      ],
      [
        "Ġfar",
        -9.060093981381833
      ],
      [
        "Why",
        -9.06035613584503
      ],
      [
        "Ġclass",
        -9.06080455464613
      ],
      [
        "Ġcommunity",
        -9.06461757882326
      ],
      [
        "They",
        -9.06825133185955
      ],
      [
        "Ġnecessary",
        -9.06857411035065
      ],
      [
        "Ġmilk",
        -9.069957854547097
      ],
      [
        "Ġappear",
        -9.07016517206373
      ],
      [
        "Ġcold",
        -9.071170282261878
      ],
      [
        "which",
        -9.071941113521197
      ],
      [
        "Ġblack",
        -9.072635132772383
      ],
      [
        "ĠYour",
        -9.074563289907134
      ],
      [
        "Ġwhole",
        -9.074893289471452
      ],
      [
        "Ġlonger",
        -9.076473702739872
      ],
      [
        "Ġsomeone",
        -9.077342327281322
      ],
      [
        "\"ĊĊ",
        -9.07735730023429
      ],
      [
        "Ġshape",
        -9.078030627353256
      ],
      [
        "Ġthought",
        -9.078583810516292
      ],
      [
        "Ġarticle",
        -9.079221470469328
      ],
      [
        "Ġpurpose",
        -9.080324215632116
      ],
      [
        "Ġgreen",
        -9.081708196535942
      ],
      [
        "Ġpain",
        -9.082778718505082
      ],
      [
        "get",
        -9.085001459645566
      ],
      [
        "Ġseed",
        -9.085253931318436
      ],
      [
        "Ġscience",
        -9.085785310232634
      ],
      [
        "Ġreceive",
        -9.086330191333728
      ],
      [
        "Ġkind",
        -9.091160522873718
      ],
      [
        "Ġhead",
        -9.091231264318283
      ],
      [
        "Ġremain",
        -9.091580781741204
      ],
      [
        "Ġdoing",
        -9.091646169807136
      ],
      [
        "Ġeither",
        -9.092006009329154
      ],
      [
        "Ġsays",
        -9.092239128976562
      ],
      [
        "Ġcountry",
        -9.095174360278332
      ],
      [
        "Ġparent",
        -9.098955261224669
      ],
      [
        "Ġmachine",
        -9.103152150204275
      ],
      [
        "Ġbehavior",
        -9.10453538591142
      ],
      [
        "Ġactivities",
        -9.105515347862312
      ],
      [
        "Ġrequired",
        -9.106118774445882
      ],
      [
        "Ġnear",
        -9.106796719642864
      ],
      [
        "Ġdry",
        -9.107950414639577
      ],
      [
        "Ġoil",
        -9.1090326201449
      ],
      [
        "Ġauthor",
        -9.109105359160113
      ],
      [
        "Ġentire",
        -9.112047802475416
      ],
      [
        "Ġpositive",
        -9.115196136972608
      ],
      [
        "Ġmeasure",
        -9.117900845031588
      ],
      [
        "Ġmind",
        -9.11959381710395
      ],
      [
        "ĠH",
        -9.120020144727713
      ],
      [
        "Ġcrucial",
        -9.12011237919634
      ],
      [
        "Ġmoney",
        -9.12019003774436
      ],
      [
        "Ġvehicle",
        -9.123436923158952
      ],
      [
        "Ġbelieve",
        -9.124202529449825
      ],
      [
        "Ġflower",
        -9.126344140909213
      ],
      [
        "Ġsolution",
        -9.1277089108909
      ],
      [
        "ves",
        -9.129944318671274
      ],
      [
        "however",
        -9.130807601546849
      ],
      [
        "ion",
        -9.132841468039702
      ],
      [
        "Ġexercise",
        -9.133255596675202
      ],
      [
        "gainst",
        -9.133404220906556
      ],
      [
        "Ġtotal",
        -9.133413716670107
      ],
      [
        "Ġnature",
        -9.13554075099525
      ],
      [
        "ng",
        -9.137564129170617
      ],
      [
        "Ġperfect",
        -9.137783537953108
      ],
      [
        "Ġmedical",
        -9.137934926071498
      ],
      [
        "Ġhistory",
        -9.13894942175166
      ],
      [
        "Ġcomplex",
        -9.139015152332728
      ],
      [
        "Ġfuel",
        -9.13933863128448
      ],
      [
        "Ġenvironmental",
        -9.139853948887795
      ],
      [
        "Ġtreat",
        -9.143579066922848
      ],
      [
        "Ġyoung",
        -9.143624193553029
      ],
      [
        "Ġposition",
        -9.144497148835082
      ],
      [
        "Ġdescribe",
        -9.14484451908522
      ],
      [
        "Ġsleep",
        -9.145272689364422
      ],
      [
        "Ġmethods",
        -9.145962012643595
      ],
      [
        "Ġtoo",
        -9.146417992375437
      ],
      [
        "Ġforce",
        -9.14872254577421
      ],
      [
        "Ġbuild",
        -9.148954271104056
      ],
      [
        "Ġthough",
        -9.149567231562502
      ],
      [
        "Ġsense",
        -9.15035041754724
      ],
      [
        "Ġlanguage",
        -9.150712774907367
      ],
      [
        "Ġsymptoms",
        -9.152473535117975
      ],
      [
        "Ġpublic",
        -9.152896042265397
      ],
      [
        "were",
        -9.154363512447103
      ],
      [
        "Ġchoose",
        -9.15474803208098
      ],
      [
        "Ġpractice",
        -9.156178477326309
      ],
      [
        "Ġunit",
        -9.156300447661142
      ],
      [
        "Ġtrees",
        -9.157038043596474
      ],
      [
        "Ġtree",
        -9.161349534347035
      ],
      [
        "Ġhouse",
        -9.161885321466931
      ],
      [
        "Ġpast",
        -9.162284171372464
      ],
      [
        "Ġfollow",
        -9.163599010599151
      ],
      [
        "well",
        -9.164839722182911
      ],
      [
        "these",
        -9.165821260900309
      ],
      [
        "-base",
        -9.165950364246466
      ],
      [
        "ĠE",
        -9.16934006700422
      ],
      [
        "now",
        -9.170311252063822
      ],
      [
        "Ġtask",
        -9.170671156906216
      ],
      [
        "only",
        -9.171544279702111
      ],
      [
        "Ġoverall",
        -9.172185384041452
      ],
      [
        "Ġtarget",
        -9.177726417341017
      ],
      [
        "Ġwomen",
        -9.179923471019752
      ],
      [
        "Ġrather",
        -9.180169613513716
      ],
      [
        "Ġuser",
        -9.180232900864093
      ],
      [
        "ĠOne",
        -9.180992883879547
      ],
      [
        "Ġvideo",
        -9.182859012443595
      ],
      [
        "Ġfruit",
        -9.183066692870096
      ],
      [
        "âĢ¦",
        -9.184446839617443
      ],
      [
        "but",
        -9.184701468169443
      ],
      [
        "yourself",
        -9.187792255040836
      ],
      [
        "Ġgenetic",
        -9.188475879398204
      ],
      [
        "Ġterms",
        -9.189532037161726
      ],
      [
        "Ġchemical",
        -9.19032610499248
      ],
      [
        "V",
        -9.190595685791038
      ],
      [
        "sure",
        -9.191808659008984
      ],
      [
        "It",
        -9.192110473287675
      ],
      [
        "Ġassociated",
        -9.192769509420865
      ],
      [
        "Ġwinter",
        -9.192797546793487
      ],
      [
        "One",
        -9.193908479847025
      ],
      [
        "Ġeffort",
        -9.194036854820483
      ],
      [
        "Ġpatients",
        -9.19589461306694
      ],
      [
        "Ġminutes",
        -9.197042388725642
      ],
      [
        "Ġaverage",
        -9.198002914423864
      ],
      [
        "Ġsample",
        -9.19888808095121
      ],
      [
        "Ġtools",
        -9.200909063743186
      ],
      [
        "Ġdeep",
        -9.202230602508354
      ],
      [
        "Ġstay",
        -9.202248062721916
      ],
      [
        "Ġmetal",
        -9.206419988050088
      ],
      [
        "self",
        -9.207651690073495
      ],
      [
        "L",
        -9.208810566425877
      ],
      [
        "Ġdigital",
        -9.209243428998947
      ],
      [
        "ĠAI",
        -9.210737302812936
      ],
      [
        "ĠAmerican",
        -9.21091211698175
      ],
      [
        "Ġsun",
        -9.211098475214431
      ],
      [
        "will",
        -9.21127301751741
      ],
      [
        "Ġpersonal",
        -9.21145192669514
      ],
      [
        "light",
        -9.21363717900402
      ],
      [
        "Ġdesigne",
        -9.214222762477322
      ],
      [
        "Many",
        -9.21537662418582
      ],
      [
        "Ġfall",
        -9.21796549422216
      ],
      [
        "Ġface",
        -9.218862141566518
      ],
      [
        "Ġprobabl",
        -9.221529129833804
      ],
      [
        "Ġbuy",
        -9.222408890857404
      ],
      [
        "Ġbalance",
        -9.222454933218676
      ],
      [
        "Ġcount",
        -9.223019009744476
      ],
      [
        "Ġothers",
        -9.223593755700492
      ],
      [
        "Ġha",
        -9.2236224564795
      ],
      [
        "Ġquickly",
        -9.224660329172195
      ],
      [
        "Ġrelationship",
        -9.22559407984799
      ],
      [
        "Ġresources",
        -9.225882007920085
      ],
      [
        "Ġmanagement",
        -9.2272893957517
      ],
      [
        "Ġmodern",
        -9.227295300506992
      ],
      [
        "Ġknowledge",
        -9.2283510552531
      ],
      [
        "Ġtravel",
        -9.228795409870916
      ],
      [
        "But",
        -9.228900644473574
      ],
      [
        "Ġspecial",
        -9.230034987030267
      ],
      [
        "ting",
        -9.231767625690638
      ],
      [
        "Ġlarger",
        -9.233880052033246
      ],
      [
        "ic",
        -9.23388872130782
      ],
      [
        "Ġbatter",
        -9.235418017324177
      ],
      [
        "Ġcode",
        -9.235953740850032
      ],
      [
        "Ġbit",
        -9.239374865939991
      ],
      [
        ")Ċ",
        -9.240090176673368
      ],
      [
        "Ġseason",
        -9.24044354860582
      ],
      [
        "ĠOn",
        -9.241229839166737
      ],
      [
        "Ġguide",
        -9.241662120316583
      ],
      [
        "Ġmultiple",
        -9.241937008231163
      ],
      [
        "Ġo",
        -9.244149110233188
      ],
      [
        "Ġcontact",
        -9.24503273155588
      ],
      [
        "Ġglobal",
        -9.247942724872352
      ],
      [
        "Ġfive",
        -9.249585233453672
      ],
      [
        "Ġoutside",
        -9.249626848498956
      ],
      [
        "Ġattention",
        -9.251209248747791
      ],
      [
        "Ġeyes",
        -9.251799237306788
      ],
      [
        "making",
        -9.252095282664776
      ],
      [
        "Ġsimply",
        -9.252574582817669
      ],
      [
        "_",
        -9.252763883056858
      ],
      [
        "Ġtraditional",
        -9.253472129027376
      ],
      [
        "Ġlater",
        -9.255461727714613
      ],
      [
        "line",
        -9.2562981307692
      ],
      [
        "Ġrelease",
        -9.256673325102843
      ],
      [
        "Ġloss",
        -9.261219184885192
      ],
      [
        "Ġcat",
        -9.262258491906742
      ],
      [
        "Ġprimar",
        -9.264921758069384
      ],
      [
        "Ġachieve",
        -9.26530819385693
      ],
      [
        "Ġplastic",
        -9.265667781292636
      ],
      [
        "Ġcut",
        -9.265934757792095
      ],
      [
        "Ġequipment",
        -9.26599931555596
      ],
      [
        "Ġfemale",
        -9.267304434720955
      ],
      [
        "Ġservice",
        -9.26815796354148
      ],
      [
        "Ġstop",
        -9.269675858016493
      ],
      [
        "Ġreport",
        -9.270004498607946
      ],
      [
        "Ġregard",
        -9.271992006922892
      ],
      [
        "typicall",
        -9.272407210566232
      ],
      [
        "Ġactivity",
        -9.273429593506265
      ],
      [
        "Ġonline",
        -9.273698443899882
      ],
      [
        "Ġhumans",
        -9.273862318864992
      ],
      [
        "While",
        -9.276030663394192
      ],
      [
        "Ġlength",
        -9.276809669399196
      ],
      [
        "Ġar",
        -9.276837278825006
      ],
      [
        "Ġstage",
        -9.276945119268522
      ],
      [
        "Ġresponse",
        -9.277132389177847
      ],
      [
        "Ġways",
        -9.280193084320215
      ],
      [
        "body",
        -9.28020547219892
      ],
      [
        "hether",
        -9.28073939729568
      ],
      [
        "Ġmovement",
        -9.281442411172687
      ],
      [
        "Ġconcept",
        -9.28190701996886
      ],
      [
        "ĠScience",
        -9.283679836386924
      ],
      [
        "Ġeducation",
        -9.28541625080448
      ],
      [
        "Ġenhance",
        -9.287629268677916
      ],
      [
        "Ġprovid",
        -9.289327098362314
      ],
      [
        "Ġstress",
        -9.293290201606982
      ],
      [
        "Ġsugar",
        -9.29402952244786
      ],
      [
        "Ġwild",
        -9.29438281496148
      ],
      [
        "Ġperform",
        -9.299898534732634
      ],
      [
        "Ġthemsel",
        -9.30009554352982
      ],
      [
        "Ġalmost",
        -9.302162951231336
      ],
      [
        "Ġexplore",
        -9.303580433601471
      ],
      [
        "Ġhalf",
        -9.304238163135656
      ],
      [
        "To",
        -9.304760858126292
      ],
      [
        "Ġslow",
        -9.305644537606728
      ],
      [
        "le",
        -9.306088918311897
      ],
      [
        "Ġ\"",
        -9.30642996904586
      ],
      [
        "Ġproperties",
        -9.30700027399336
      ],
      [
        "Ġcover",
        -9.307997693293403
      ],
      [
        "Ġmass",
        -9.308332803450732
      ],
      [
        "Ġwaste",
        -9.30848417866343
      ],
      [
        "Ġsometime",
        -9.310735696607969
      ],
      [
        "ĠEarth",
        -9.313238799876528
      ],
      [
        "Ġadditional",
        -9.313521241383214
      ],
      [
        "about",
        -9.313834658173974
      ],
      [
        "ĠU",
        -9.31486933443092
      ],
      [
        "etting",
        -9.315621854684784
      ],
      [
        "Ġself",
        -9.31736826153128
      ],
      [
        "Ġeggs",
        -9.318347351132996
      ],
      [
        "Ġpaint",
        -9.3184495691296
      ],
      [
        "Ġsummer",
        -9.319101379358768
      ],
      [
        "Ġdegree",
        -9.32123671524139
      ],
      [
        "Ġpercent",
        -9.321931025816111
      ],
      [
        "Ġreach",
        -9.322842455530315
      ],
      [
        "Ġtaking",
        -9.322901864695751
      ],
      [
        "Ġtry",
        -9.324069845426102
      ],
      [
        "Ġinvolve",
        -9.324429101131134
      ],
      [
        "Ġsolar",
        -9.326494326393496
      ],
      [
        "Ġaccount",
        -9.327522819390245
      ],
      [
        "last",
        -9.327821243316247
      ],
      [
        "Ġhe",
        -9.330280282764209
      ],
      [
        "Ġelements",
        -9.331473953512464
      ],
      [
        "Ġcamera",
        -9.334425337144872
      ],
      [
        "Ġrepresent",
        -9.334750073657172
      ],
      [
        "Ġoptions",
        -9.335486899920706
      ],
      [
        "old",
        -9.336870806983978
      ],
      [
        "ĠNational",
        -9.337136498560245
      ],
      [
        "#",
        -9.3378303119239
      ],
      [
        "low",
        -9.339326993771866
      ],
      [
        "Ġoriginal",
        -9.34071377505497
      ],
      [
        "Ġfront",
        -9.340824798535936
      ],
      [
        "Ġhim",
        -9.340831126837871
      ],
      [
        "Ġoperation",
        -9.343545326607323
      ],
      [
        "ities",
        -9.345074794174202
      ],
      [
        "while",
        -9.345612858480536
      ],
      [
        "her",
        -9.345656668196815
      ],
      [
        "Ġca",
        -9.345838512049005
      ],
      [
        "Ġservices",
        -9.35036519252273
      ],
      [
        "Ġstarted",
        -9.35117773819306
      ],
      [
        "Ġprevious",
        -9.351675378685698
      ],
      [
        "Ġshare",
        -9.354286357215807
      ],
      [
        "Ġtrying",
        -9.35463438352349
      ],
      [
        "Ġkids",
        -9.354898299409824
      ],
      [
        "ĠUnited",
        -9.356171151176454
      ],
      [
        "Ġrelated",
        -9.356524173751968
      ],
      [
        "Ġweather",
        -9.356719621580392
      ],
      [
        "U",
        -9.356998775962436
      ],
      [
        "ĠDNA",
        -9.358532768385054
      ],
      [
        "ĠAll",
        -9.359734304398836
      ],
      [
        "Ġrule",
        -9.362110362180143
      ],
      [
        "Ġtool",
        -9.363618795508938
      ],
      [
        "Ġbehind",
        -9.364128206891843
      ],
      [
        "Ġvegetable",
        -9.365428470815132
      ],
      [
        "Ġnetwork",
        -9.365942894149804
      ],
      [
        "Ġefficient",
        -9.367620483223057
      ],
      [
        "daily",
        -9.368160568306292
      ],
      [
        "Ġexact",
        -9.369486454343887
      ],
      [
        "Ġwebsite",
        -9.36972879070251
      ],
      [
        "Ġfun",
        -9.371098902524142
      ],
      [
        "Ġfast",
        -9.373474022762087
      ],
      [
        "Ġorganization",
        -9.374074556879822
      ],
      [
        "Ġgenerate",
        -9.374650513135617
      ],
      [
        "ment",
        -9.374686199117528
      ],
      [
        "field",
        -9.37534166833655
      ],
      [
        "Ġvisit",
        -9.37857873636017
      ],
      [
        "\\",
        -9.378611797147176
      ],
      [
        "Ġfoods",
        -9.378692559527344
      ],
      [
        "Ġtalk",
        -9.380426128843016
      ],
      [
        "Ġroom",
        -9.381085201047895
      ],
      [
        "Ġnight",
        -9.38151344161895
      ],
      [
        "Ġcall",
        -9.384537668436815
      ],
      [
        "Ġeverything",
        -9.384821270834776
      ],
      [
        ".\"",
        -9.385276226970907
      ],
      [
        "ĠR",
        -9.385681445192834
      ],
      [
        "Ġrecord",
        -9.385739488179086
      ],
      [
        "Ġcontribute",
        -9.389255889875004
      ],
      [
        "Ġlimit",
        -9.389513392529352
      ],
      [
        "Ġquite",
        -9.39028232772574
      ],
      [
        "Ġsuccessful",
        -9.392503874863651
      ],
      [
        "afety",
        -9.393602651134684
      ],
      [
        "Ġdirection",
        -9.393627644031373
      ],
      [
        "Ġwon",
        -9.396169950763838
      ],
      [
        "Ġtissue",
        -9.396271505858609
      ],
      [
        "Ġnegative",
        -9.396384216997554
      ],
      [
        "Ġcenter",
        -9.397811801262463
      ],
      [
        "Ġindicate",
        -9.400063631270164
      ],
      [
        "ĠAn",
        -9.401136571602574
      ],
      [
        "Ġfresh",
        -9.402939095081372
      ],
      [
        "Ġscientists",
        -9.403607818279715
      ],
      [
        "Ġsetting",
        -9.404343966155835
      ],
      [
        "Ġmentioned",
        -9.40548828728046
      ],
      [
        "ĠHere",
        -9.406723906205904
      ],
      [
        "ĠG",
        -9.407128422802153
      ],
      [
        "Ġpay",
        -9.409105000081867
      ],
      [
        "Ġplayer",
        -9.409860958625536
      ],
      [
        "rate",
        -9.409873973891145
      ],
      [
        "was",
        -9.410453980895394
      ],
      [
        "Ġpre",
        -9.41140240574574
      ],
      [
        "Ġfinding",
        -9.411723309777004
      ],
      [
        "Ġanalysis",
        -9.41178181827889
      ],
      [
        "|",
        -9.412024958351246
      ],
      [
        "Ġaddress",
        -9.41244344924984
      ],
      [
        "Ġstandard",
        -9.413850402892129
      ],
      [
        "ĠDo",
        -9.414410741091327
      ],
      [
        "Ġdevelope",
        -9.416927757446077
      ],
      [
        "Ġcreat",
        -9.417122664118402
      ],
      [
        "quality",
        -9.417944613356958
      ],
      [
        "Ġinfluence",
        -9.41872706049122
      ],
      [
        "Ġcustomer",
        -9.41996164705265
      ],
      [
        "Ġcleaning",
        -9.421540772067406
      ],
      [
        "Ġterm",
        -9.424121829028206
      ],
      [
        "water",
        -9.424509231732454
      ],
      [
        "Ġmeat",
        -9.424685423555086
      ],
      [
        "Ġexperiment",
        -9.425159094088997
      ],
      [
        "Ġadvantage",
        -9.425172869948227
      ],
      [
        "Ġworks",
        -9.427536059348832
      ],
      [
        "Ġcanno",
        -9.427553006558714
      ],
      [
        "Ġtrue",
        -9.42888827577859
      ],
      [
        "Ġsave",
        -9.430385726544468
      ],
      [
        "Ġconstant",
        -9.430520574274489
      ],
      [
        "eating",
        -9.432911291524151
      ],
      [
        "Ġcircuit",
        -9.433569577034454
      ],
      [
        "Ġdrive",
        -9.435647597099496
      ],
      [
        "Ġbad",
        -9.439496249748172
      ],
      [
        "Ġdidn",
        -9.43972692174934
      ],
      [
        "Ġsupply",
        -9.439787973526208
      ],
      [
        "Ġre",
        -9.440780407302094
      ],
      [
        "Ġeveryone",
        -9.441156906913015
      ],
      [
        "Ġreturn",
        -9.44150225924891
      ],
      [
        "Ġseparate",
        -9.441505752129068
      ],
      [
        "Ġcharacter",
        -9.44175180721681
      ],
      [
        "Ġlayer",
        -9.442869240616156
      ],
      [
        "Ġextra",
        -9.443097912584175
      ],
      [
        "Ġapply",
        -9.444170847038894
      ],
      [
        "Ġevidence",
        -9.444260052097723
      ],
      [
        "work",
        -9.444490112385049
      ],
      [
        "life",
        -9.44470496588754
      ],
      [
        "âĢ¢",
        -9.444735055673512
      ],
      [
        "ĠT",
        -9.444841630671537
      ],
      [
        "Ġliquid",
        -9.445751461061704
      ],
      [
        "Ġtell",
        -9.446176312438263
      ],
      [
        "--",
        -9.446387062214905
      ],
      [
        "ĠStates",
        -9.447494897355096
      ],
      [
        "Ġhold",
        -9.447560356353694
      ],
      [
        "Ġjob",
        -9.448639837372683
      ],
      [
        "Ġus",
        -9.45200819456588
      ],
      [
        "Ġcauses",
        -9.45264574984668
      ],
      [
        "Ġinsect",
        -9.455320206630317
      ],
      [
        "Ġwall",
        -9.456230724054572
      ],
      [
        "Ġproper",
        -9.45662234691812
      ],
      [
        "Ġwords",
        -9.457192022995464
      ],
      [
        "Ġstory",
        -9.457223076880542
      ],
      [
        "Ġprotection",
        -9.457829714275892
      ],
      [
        "Ġoption",
        -9.458313426067033
      ],
      [
        "Ġmeet",
        -9.45911100816199
      ],
      [
        "Ġfeet",
        -9.460888687485989
      ],
      [
        "Ġsteps",
        -9.462390949334896
      ],
      [
        "Ġtank",
        -9.46393771918201
      ],
      [
        "Ġspring",
        -9.464427619609788
      ],
      [
        "Ġmodels",
        -9.465213480902513
      ],
      [
        "ĠWhile",
        -9.465862495758014
      ],
      [
        "Ġdistance",
        -9.46705445476508
      ],
      [
        "Ġremember",
        -9.468203161290194
      ],
      [
        "Ġparticle",
        -9.468789486301246
      ],
      [
        "With",
        -9.469017463851388
      ],
      [
        "Ġsoftware",
        -9.472573764824816
      ],
      [
        "Ġaspect",
        -9.472738752997412
      ],
      [
        "K",
        -9.474553703830338
      ],
      [
        "Ġbenefit",
        -9.474864732205
      ],
      [
        "lthough",
        -9.475567973159174
      ],
      [
        "Ġprice",
        -9.476498758427107
      ],
      [
        "Ġmemory",
        -9.47749871971126
      ],
      [
        "ĠV",
        -9.47813871631977
      ],
      [
        "Ġfeed",
        -9.478569167801728
      ],
      [
        "Ġspread",
        -9.479602524181278
      ],
      [
        "Ġobject",
        -9.479703076507215
      ],
      [
        "Ġpet",
        -9.47997626620593
      ],
      [
        "Ġidentify",
        -9.480125824755472
      ],
      [
        "Ġefficienc",
        -9.480195033864426
      ],
      [
        "Ġstrength",
        -9.480604736441991
      ],
      [
        "ĠSouth",
        -9.481814291746034
      ],
      [
        "Ġwave",
        -9.482160243048304
      ],
      [
        "Ġwalk",
        -9.485077235847289
      ],
      [
        "Ġreplace",
        -9.485700096072389
      ],
      [
        "what",
        -9.48623581050797
      ],
      [
        "Ġshows",
        -9.486796615573772
      ],
      [
        "Ġprovided",
        -9.4927729471051
      ],
      [
        "Ġdark",
        -9.492824543384836
      ],
      [
        "Ġlet",
        -9.494549615021054
      ],
      [
        "Can",
        -9.494902954724193
      ],
      [
        "properly",
        -9.49569567335243
      ],
      [
        "Ġbirds",
        -9.496313047811595
      ],
      [
        "Ġsensor",
        -9.496835907595791
      ],
      [
        "Ġfire",
        -9.49691543056187
      ],
      [
        "Ġdream",
        -9.497211768628947
      ],
      [
        "Ġblue",
        -9.499197927395358
      ],
      [
        "Ġrecommended",
        -9.4994810139558
      ],
      [
        "Ġwood",
        -9.499877457700029
      ],
      [
        "ĠDr",
        -9.501069373373271
      ],
      [
        "Ġcollect",
        -9.502025085501018
      ],
      [
        "Ġmanage",
        -9.50367965715284
      ],
      [
        "right",
        -9.504997034300082
      ],
      [
        "Ġoccur",
        -9.505123046428142
      ],
      [
        "Ġdemand",
        -9.506804160331978
      ],
      [
        "Ġacid",
        -9.507298050753665
      ],
      [
        "Ġinstruction",
        -9.508343910065651
      ],
      [
        "ĠAfter",
        -9.510467850026552
      ],
      [
        "Ġelectrical",
        -9.511681621394295
      ],
      [
        "Ġchance",
        -9.512600254262727
      ],
      [
        "Ġstudent",
        -9.513197975081123
      ],
      [
        "Ġingredient",
        -9.51384050890022
      ],
      [
        "over",
        -9.513939474592927
      ],
      [
        "So",
        -9.51497192941494
      ],
      [
        "Ġlist",
        -9.515265517460657
      ],
      [
        "Ġdiscover",
        -9.51645061854714
      ],
      [
        "Ġstorage",
        -9.517064393216703
      ],
      [
        "ything",
        -9.517738617776796
      ],
      [
        "Ġitems",
        -9.518737326337344
      ],
      [
        "Ġcritical",
        -9.519327054234186
      ],
      [
        "Ġscientific",
        -9.519586571381891
      ],
      [
        "Ġgovernment",
        -9.520448705288786
      ],
      [
        "Ġgoal",
        -9.52045745569968
      ],
      [
        "Ġtopic",
        -9.521142050167484
      ],
      [
        "Ġtips",
        -9.522297131271396
      ],
      [
        "And",
        -9.52230678459215
      ],
      [
        "Ġmedia",
        -9.52258298589647
      ],
      [
        "Ġappropriate",
        -9.52320020481714
      ],
      [
        "Ġsmalle",
        -9.523672512050483
      ],
      [
        "Ġsalt",
        -9.524151673267289
      ],
      [
        "Ġsix",
        -9.525199839970783
      ],
      [
        "even",
        -9.526245098941144
      ],
      [
        "Ġelectric",
        -9.526495723467583
      ],
      [
        "Ġprocesses",
        -9.526559414696338
      ],
      [
        "Ġmonitor",
        -9.52709069931267
      ],
      [
        "ce",
        -9.528532908212494
      ],
      [
        "Ġproduced",
        -9.52884931799358
      ],
      [
        "here",
        -9.530197121606603
      ],
      [
        "Ġbreed",
        -9.53312555330724
      ],
      [
        "Ġwind",
        -9.533493983261325
      ],
      [
        "Ġcharacteristic",
        -9.534295435264696
      ],
      [
        "Ġreading",
        -9.53457248295425
      ],
      [
        "Ġdoctor",
        -9.535310509270298
      ],
      [
        "Ġbacteria",
        -9.53657895372423
      ],
      [
        "Ġhappen",
        -9.53713935245194
      ],
      [
        "Ġfeeling",
        -9.537421212351411
      ],
      [
        "Ġfeature",
        -9.53743999887074
      ],
      [
        "Ġteacher",
        -9.53825646073971
      ],
      [
        "Ġexpert",
        -9.5387051386599
      ],
      [
        "Ġetc",
        -9.53874824516708
      ],
      [
        "they",
        -9.53884482629966
      ],
      [
        "Ġcharge",
        -9.53910484455836
      ],
      [
        "Q",
        -9.53948367497834
      ],
      [
        "Ġinvolved",
        -9.539616489177222
      ],
      [
        "ĠWorld",
        -9.542645894463522
      ],
      [
        "ĠSchool",
        -9.545060833003788
      ],
      [
        "Ġpage",
        -9.545555728099702
      ],
      [
        "Ġdecrease",
        -9.545728207385592
      ],
      [
        "ive",
        -9.545846522760446
      ],
      [
        "ĠShe",
        -9.54779413697572
      ],
      [
        "ĠAmerica",
        -9.548090368211156
      ],
      [
        "Some",
        -9.549667441524132
      ],
      [
        "fully",
        -9.551417679635492
      ],
      [
        "nd",
        -9.553143706297067
      ],
      [
        "Ġconnection",
        -9.553206927415244
      ],
      [
        "sources",
        -9.55354891479561
      ],
      [
        "Ġselect",
        -9.554641292211588
      ],
      [
        "Using",
        -9.55481953509545
      ],
      [
        "Ġask",
        -9.555600856363029
      ],
      [
        "Ġfat",
        -9.55603759974927
      ],
      [
        "Ġgene",
        -9.556216191732322
      ],
      [
        "ĠCan",
        -9.556645590040269
      ],
      [
        "there",
        -9.55689042170994
      ],
      [
        "Ġglass",
        -9.557311948840765
      ],
      [
        "Ġoutput",
        -9.558742245409594
      ],
      [
        "Ġw",
        -9.560873134227707
      ],
      [
        "Ġbuilt",
        -9.56186333155723
      ],
      [
        "Ġobserve",
        -9.561938909737671
      ],
      [
        "Ġfinal",
        -9.562228875519192
      ],
      [
        "Ġuseful",
        -9.562880822627376
      ],
      [
        "Ġsite",
        -9.564901352990823
      ],
      [
        "many",
        -9.5650464397036
      ],
      [
        "Ġspot",
        -9.566690869316018
      ],
      [
        "Ġrequirement",
        -9.567384146561876
      ],
      [
        "also",
        -9.567888202715348
      ],
      [
        "Ġdisplay",
        -9.56838271145725
      ],
      [
        "ries",
        -9.569764287218227
      ],
      [
        "Ġtaste",
        -9.570496426137012
      ],
      [
        "Ġbreak",
        -9.570968697008627
      ],
      [
        "Ġstyle",
        -9.572851016904654
      ],
      [
        "Ġinitial",
        -9.573097533550587
      ],
      [
        "Ġmaintenance",
        -9.57342511986817
      ],
      [
        "Ġelse",
        -9.573965139261912
      ],
      [
        "Ġrest",
        -9.574727466020246
      ],
      [
        "Ġfilm",
        -9.574975326726864
      ],
      [
        "don",
        -9.576049318974526
      ],
      [
        "Ġimmediate",
        -9.57649607526234
      ],
      [
        "Ġforest",
        -9.577350000823955
      ],
      [
        "Ġreview",
        -9.577613144969895
      ],
      [
        "make",
        -9.577837427475965
      ],
      [
        "Ġrunning",
        -9.577839049519316
      ],
      [
        "Ġfrequent",
        -9.578437063876557
      ],
      [
        "Ġnotice",
        -9.579377397282888
      ],
      [
        "That",
        -9.581642089372584
      ],
      [
        "Ġcommunication",
        -9.5833331768913
      ],
      [
        "ĠHealth",
        -9.583600603936803
      ],
      [
        "ĠUse",
        -9.584305457672176
      ],
      [
        "Ġideal",
        -9.58456404752208
      ],
      [
        "Ġif",
        -9.586009723807786
      ],
      [
        "Ġrepair",
        -9.586410358876408
      ],
      [
        "Ġmembers",
        -9.58702044418892
      ],
      [
        "their",
        -9.587354763322091
      ],
      [
        "Ġtouch",
        -9.588085226685577
      ],
      [
        "...ĊĊ",
        -9.589772584907577
      ],
      [
        "ance",
        -9.591862962363551
      ],
      [
        "Ġsea",
        -9.593450411959012
      ],
      [
        "Ġseries",
        -9.593476161189717
      ],
      [
        "Ġcarry",
        -9.593612411719654
      ],
      [
        "Ġbegin",
        -9.594408505305909
      ],
      [
        "z",
        -9.595821097940146
      ],
      [
        "Ġimages",
        -9.59585824302042
      ],
      [
        "Ġgain",
        -9.596038467491582
      ],
      [
        "Ġteeth",
        -9.596068781637555
      ],
      [
        "Ġbird",
        -9.596718734306656
      ],
      [
        "Ġsubject",
        -9.598154140415474
      ],
      [
        "Ġcombination",
        -9.598669073736014
      ],
      [
        "Ġobtain",
        -9.59883647983641
      ],
      [
        "Ġdesire",
        -9.599569399887978
      ],
      [
        "Ġreduc",
        -9.599722042450123
      ],
      [
        "Ġview",
        -9.599811754162028
      ],
      [
        "Ġcycle",
        -9.599817439813943
      ],
      [
        "Ġintroduce",
        -9.600042670127268
      ],
      [
        "take",
        -9.600128339818852
      ],
      [
        "Ġdetect",
        -9.603179307893823
      ],
      [
        "Ġserious",
        -9.604185593816382
      ],
      [
        "Ġroot",
        -9.604790559668915
      ],
      [
        "ĠN",
        -9.60688473704283
      ],
      [
        "day",
        -9.607052516091676
      ],
      [
        "Ġword",
        -9.607976359287449
      ],
      [
        "Ġbrand",
        -9.608331060666009
      ],
      [
        "Ġtemperatures",
        -9.60880684115974
      ],
      [
        "Ġcombine",
        -9.610904243531108
      ],
      [
        "ĠNorth",
        -9.612179348363036
      ],
      [
        "Ġdeath",
        -9.61294840147169
      ],
      [
        "Ġever",
        -9.61388082583667
      ],
      [
        "Ġswitch",
        -9.614156083088984
      ],
      [
        "Ġpretty",
        -9.614602181747635
      ],
      [
        "Ġnumbers",
        -9.615512839411984
      ],
      [
        "Ġlives",
        -9.615955994040092
      ],
      [
        "Ġgot",
        -9.617950900583386
      ],
      [
        "through",
        -9.618542765480512
      ],
      [
        "By",
        -9.619225105179048
      ],
      [
        "Ġsuccess",
        -9.619247015576825
      ],
      [
        "Ġcool",
        -9.61943911642638
      ],
      [
        "Ġdiseases",
        -9.619677674701627
      ],
      [
        "Ġnothing",
        -9.621036694535398
      ],
      [
        "Ġhair",
        -9.622605597510036
      ],
      [
        "older",
        -9.622670700397505
      ],
      [
        "Ġsustainabl",
        -9.62280030684744
      ],
      [
        "Ġcontainer",
        -9.622857350553986
      ],
      [
        "Ġdisorder",
        -9.623544202268093
      ],
      [
        "Ġimportanc",
        -9.624188107022814
      ],
      [
        "Ġexcellen",
        -9.6242533272555
      ],
      [
        "Ġsuitabl",
        -9.624969367508845
      ],
      [
        "Ġbottom",
        -9.626593555512118
      ],
      [
        "Ġorganic",
        -9.628210127520203
      ],
      [
        "Ġfigure",
        -9.6286546896906
      ],
      [
        "Ġenable",
        -9.631685388243593
      ],
      [
        "companie",
        -9.633172122127084
      ],
      [
        "Ġmoment",
        -9.63464871514192
      ],
      [
        "Ġearth",
        -9.634745384387507
      ],
      [
        "Ġencourage",
        -9.63530606954839
      ],
      [
        "Ġvisual",
        -9.636219327250542
      ],
      [
        "Ġpump",
        -9.636992120914703
      ],
      [
        "As",
        -9.637501581992112
      ],
      [
        "Ġhope",
        -9.63757662319474
      ],
      [
        "Ġattack",
        -9.638149570138545
      ],
      [
        "Ġresistance",
        -9.638547039392524
      ],
      [
        "Ġred",
        -9.63896300052391
      ],
      [
        "ĠBe",
        -9.639092725515493
      ],
      [
        "Ġpublished",
        -9.63992728270454
      ],
      [
        "Ġusers",
        -9.64032186140015
      ],
      [
        "Ġcontext",
        -9.640863082650576
      ],
      [
        "lot",
        -9.642629676261617
      ],
      [
        "Ġinput",
        -9.644037595028154
      ],
      [
        "Ġnoise",
        -9.64409601540493
      ],
      [
        "ĠMay",
        -9.6444714955343
      ],
      [
        "Ġnote",
        -9.6471529754625
      ],
      [
        "ĠO",
        -9.647861743482265
      ],
      [
        "ĠResearch",
        -9.648368971860478
      ],
      [
        "Ġbaby",
        -9.649134045172604
      ],
      [
        "Ġpatient",
        -9.649461283834764
      ],
      [
        "Ġcame",
        -9.65194928432132
      ],
      [
        "Y",
        -9.652549961992476
      ],
      [
        "Ġplatform",
        -9.65260498802229
      ],
      [
        "Ġprograms",
        -9.653263455898315
      ],
      [
        "Ġpass",
        -9.653623029348232
      ],
      [
        "Ġreaction",
        -9.654330871366708
      ],
      [
        "lines",
        -9.654551422150757
      ],
      [
        "Ġsearch",
        -9.65545465497564
      ],
      [
        "red",
        -9.656066908110496
      ],
      [
        "uses",
        -9.65644849253568
      ],
      [
        "when",
        -9.656639388264612
      ],
      [
        "Ġcouple",
        -9.658040051406772
      ],
      [
        "Here",
        -9.660316998158322
      ],
      [
        "Now",
        -9.660896937530875
      ],
      [
        "Ġwire",
        -9.663407052641883
      ],
      [
        "Ġsection",
        -9.664478743406397
      ],
      [
        "Ġprojects",
        -9.6648926767375
      ],
      [
        "me",
        -9.665091077434006
      ],
      [
        "Ġyellow",
        -9.66825129328149
      ],
      [
        "Ġpractices",
        -9.66833899312802
      ],
      [
        "Ġactive",
        -9.66837952408445
      ],
      [
        "Ġland",
        -9.668621079294768
      ],
      [
        "Ġhappens",
        -9.669634239503338
      ],
      [
        "Ġmineral",
        -9.669667301053138
      ],
      [
        "Ġjoint",
        -9.670018861384667
      ],
      [
        "Ġinteraction",
        -9.670812516477564
      ],
      [
        "keeping",
        -9.671182391107289
      ],
      [
        "Ġmolecule",
        -9.673203292152277
      ],
      [
        "them",
        -9.673597996567349
      ],
      [
        "includes",
        -9.674437629009931
      ],
      [
        "Ġpurchase",
        -9.674549876718686
      ],
      [
        "ecause",
        -9.67496232614554
      ],
      [
        "Ġvitamin",
        -9.675467206594003
      ],
      [
        "Ġmoving",
        -9.67746724804386
      ],
      [
        "Ġfabric",
        -9.678101112270788
      ],
      [
        "Ġeasie",
        -9.678115674536247
      ],
      [
        "applied",
        -9.678501964972114
      ],
      [
        "Ġmusic",
        -9.6790606799844
      ],
      [
        "Ġincreasing",
        -9.67916823178072
      ],
      [
        "Ġresponsible",
        -9.679552079060931
      ],
      [
        "Ġsituation",
        -9.679792349719218
      ],
      [
        "fish",
        -9.68043895932077
      ],
      [
        "Ġcooking",
        -9.681891483693054
      ],
      [
        "ring",
        -9.682730421470527
      ],
      [
        "giving",
        -9.68276406941257
      ],
      [
        "Ġpowerful",
        -9.683209013754452
      ],
      [
        "Ġman",
        -9.683454740371566
      ],
      [
        "Ġconstruction",
        -9.683639305566992
      ],
      [
        "âĢĿ",
        -9.684702836170343
      ],
      [
        "-up",
        -9.685362858329366
      ],
      [
        "Ġfilter",
        -9.686459710357674
      ],
      [
        "Ġstar",
        -9.687432711186926
      ],
      [
        "end",
        -9.688085671385686
      ],
      [
        "Ġsequence",
        -9.68823806850198
      ],
      [
        "Our",
        -9.688448312372834
      ],
      [
        "Ġdecision",
        -9.688593934123109
      ],
      [
        "Ġwear",
        -9.689073927461695
      ],
      [
        "coming",
        -9.68995255029305
      ],
      [
        "ice",
        -9.691111229268564
      ],
      [
        "ĠYes",
        -9.692576685479022
      ],
      [
        "||",
        -9.692862571603968
      ],
      [
        "Ġtend",
        -9.693366103913805
      ],
      [
        "Ġpoints",
        -9.693588098861117
      ],
      [
        "Ġrecognize",
        -9.69375064026844
      ],
      [
        "Ġbeautiful",
        -9.693992394807909
      ],
      [
        "Ġ$",
        -9.694002982299452
      ],
      [
        "Ġpoor",
        -9.695040781879966
      ],
      [
        "Ġelectronic",
        -9.695779020638572
      ],
      [
        "Ġsolid",
        -9.696688700450846
      ],
      [
        "Ġvolume",
        -9.697422517695642
      ],
      [
        "Ġphotograph",
        -9.698808745728105
      ],
      [
        "Ġcapacit",
        -9.700409071330274
      ],
      [
        "Ġoxygen",
        -9.701820255136312
      ],
      [
        "Ġpromote",
        -9.704968440230388
      ],
      [
        "Ġ[",
        -9.705773618807886
      ],
      [
        "Ġgeneration",
        -9.7061449216303
      ],
      [
        "Ġwrite",
        -9.706209710847563
      ],
      [
        "side",
        -9.70686215629295
      ],
      [
        "Ġlesson",
        -9.70689254719845
      ],
      [
        "ĠOf",
        -9.70749006872574
      ],
      [
        "Ġwrong",
        -9.707939161057688
      ],
      [
        "Ġevent",
        -9.708649849104756
      ],
      [
        "Step",
        -9.70878559215961
      ],
      [
        "Ġheavy",
        -9.7089259030362
      ],
      [
        "live",
        -9.709801281389352
      ],
      [
        "Ġwatch",
        -9.710215361253312
      ],
      [
        "Ġobjects",
        -9.71035670345799
      ],
      [
        "Ġready",
        -9.711028384893265
      ],
      [
        "Ġage",
        -9.711461587126884
      ],
      [
        "ĠFrom",
        -9.71159058310305
      ],
      [
        "man",
        -9.7116821419033
      ],
      [
        "Ġinstance",
        -9.71276303503561
      ],
      [
        "Ġworth",
        -9.713114553224171
      ],
      [
        "Ġconsist",
        -9.716854295676317
      ],
      [
        "Ġfile",
        -9.717487116510403
      ],
      [
        "Ġ=",
        -9.71806485328202
      ],
      [
        "Ġfine",
        -9.71818415234574
      ],
      [
        "ous",
        -9.718660555641202
      ],
      [
        "Ġcurrently",
        -9.71994343559056
      ],
      [
        "Ġcompletel",
        -9.72039951161295
      ],
      [
        "Ġsoft",
        -9.72101714504345
      ],
      [
        "Ġportion",
        -9.72147609456951
      ],
      [
        ">",
        -9.721734466138232
      ],
      [
        "Ġcompound",
        -9.723805046402031
      ],
      [
        "just",
        -9.7245361579686
      ],
      [
        "Ġbrown",
        -9.724782234733327
      ],
      [
        "head",
        -9.724937032969647
      ],
      [
        "Ġrefer",
        -9.72500360397486
      ],
      [
        "Ġexplain",
        -9.726123478667231
      ],
      [
        "ĠâĢľ",
        -9.727548779001657
      ],
      [
        "Ġculture",
        -9.728779129947055
      ],
      [
        "Ġdeliver",
        -9.729095493305788
      ],
      [
        "X",
        -9.730471569875736
      ],
      [
        "After",
        -9.73107672879634
      ],
      [
        "Ġmechanism",
        -9.73116927782037
      ],
      [
        "Ġrecommend",
        -9.731264431355076
      ],
      [
        "Ġdocument",
        -9.731575666827228
      ],
      [
        "into",
        -9.732506121505615
      ],
      [
        "Ġago",
        -9.733102988212355
      ],
      [
        "Ġteaching",
        -9.733391488522834
      ],
      [
        "Ġmix",
        -9.738266433777678
      ],
      [
        "Ġadult",
        -9.73868662213663
      ],
      [
        "ritten",
        -9.738966291085651
      ],
      [
        "expected",
        -9.739202147824226
      ],
      [
        "ĠMost",
        -9.739802003072583
      ],
      [
        "Ġcats",
        -9.7400533172632
      ],
      [
        "Ġevents",
        -9.740753271718908
      ],
      [
        "Whether",
        -9.742470342632624
      ],
      [
        "Ġleg",
        -9.742778449795718
      ],
      [
        "Ġgreate",
        -9.743224046937598
      ],
      [
        "ĠF",
        -9.743339425288546
      ],
      [
        "Ġthird",
        -9.74386453275848
      ],
      [
        "Ġclaim",
        -9.744992144878555
      ],
      [
        "Howev",
        -9.745581644922858
      ],
      [
        "-term",
        -9.746595771619262
      ],
      [
        "Ġcomfortabl",
        -9.74730589678403
      ],
      [
        ".com",
        -9.748844787811432
      ],
      [
        "Ġrock",
        -9.748953892944169
      ],
      [
        "Ġscreen",
        -9.749078417283554
      ],
      [
        "Ġcausing",
        -9.750294017724258
      ],
      [
        "aking",
        -9.75100278748727
      ],
      [
        "Ġmuscle",
        -9.751383863511773
      ],
      [
        "Ġlimite",
        -9.75140139371927
      ],
      [
        "asily",
        -9.751814169811446
      ],
      [
        "Ġprinciple",
        -9.752419395167482
      ],
      [
        "ĠWho",
        -9.753104201460868
      ],
      [
        "-to",
        -9.754882257515424
      ],
      [
        "Ġsoon",
        -9.754925906362097
      ],
      [
        ".S",
        -9.755001450988406
      ],
      [
        "Ġalternative",
        -9.756336702447085
      ],
      [
        "Ġreflect",
        -9.756630159131708
      ],
      [
        "Ġsevere",
        -9.756718515328354
      ],
      [
        "Ġhandle",
        -9.756984239610176
      ],
      [
        "Ġold",
        -9.757332085278945
      ],
      [
        "Ġsmooth",
        -9.757818380393926
      ],
      [
        "Ġupon",
        -9.75815189523945
      ],
      [
        "ĠUS",
        -9.758562145367996
      ],
      [
        "Ġstates",
        -9.758564921381597
      ],
      [
        "itsel",
        -9.762540471156598
      ],
      [
        "ĠMore",
        -9.762598061699984
      ],
      [
        "ĠAls",
        -9.76332159407121
      ],
      [
        "ry",
        -9.76453760044489
      ],
      [
        "taken",
        -9.765087083139443
      ],
      [
        "Ġhear",
        -9.765979642219175
      ],
      [
        "Ġexist",
        -9.765983764970382
      ],
      [
        "Ġcollection",
        -9.766929401412584
      ],
      [
        "Ġmeaning",
        -9.770210771360052
      ],
      [
        "do",
        -9.77418751328389
      ],
      [
        "Ġexpensive",
        -9.776382749321463
      ],
      [
        "Ġhot",
        -9.776993346738283
      ],
      [
        "Ġvary",
        -9.77962429068683
      ],
      [
        "Ġvalues",
        -9.780349620638544
      ],
      [
        "Ġbecame",
        -9.78068194696743
      ],
      [
        "Ġvoltage",
        -9.78260504588696
      ],
      [
        "Ġcolour",
        -9.782739494201852
      ],
      [
        "Ġscale",
        -9.7835610263055
      ],
      [
        "Ġdeal",
        -9.784735265879664
      ],
      [
        "ĠL",
        -9.785189016046711
      ],
      [
        "Ġenter",
        -9.785491783380664
      ],
      [
        "Ġforward",
        -9.786071902201355
      ],
      [
        "Ġgames",
        -9.787943033445554
      ],
      [
        "ĠCenter",
        -9.788176327172106
      ],
      [
        "anyone",
        -9.789179079190788
      ],
      [
        "Ġhands",
        -9.790193226122408
      ],
      [
        "ĠMy",
        -9.791526040675516
      ],
      [
        "discovered",
        -9.791937914895628
      ],
      [
        "ĠOur",
        -9.792585533139851
      ],
      [
        "Ġconsumption",
        -9.79512567301284
      ],
      [
        "Ġexposure",
        -9.795212801837357
      ],
      [
        "Ġensur",
        -9.796527351694866
      ],
      [
        "Ġserve",
        -9.797670479218814
      ],
      [
        "Ġmedication",
        -9.797911457112845
      ],
      [
        "covered",
        -9.798517059471276
      ],
      [
        "Ġaccurate",
        -9.798519309012878
      ],
      [
        "Ġstarting",
        -9.798809347015723
      ],
      [
        "Ġinfection",
        -9.799241888791702
      ],
      [
        "Ġelectricity",
        -9.799513169525271
      ],
      [
        "Ġfriends",
        -9.800173135422655
      ],
      [
        "Ġproperty",
        -9.80172043937426
      ],
      [
        "inches",
        -9.801729226461706
      ],
      [
        "driving",
        -9.804077162094108
      ],
      [
        "ĠK",
        -9.80479645025778
      ],
      [
        "Ġemission",
        -9.805283696407612
      ],
      [
        "Ġmiddle",
        -9.806945794267149
      ],
      [
        "took",
        -9.807354771925551
      ],
      [
        "Ġco",
        -9.807440629368376
      ],
      [
        "Ġphoto",
        -9.80769347153808
      ],
      [
        "Ġinteresting",
        -9.80807843668438
      ],
      [
        "Ġestimate",
        -9.80837222832596
      ],
      [
        "ĠâĢĶ",
        -9.80902362995173
      ],
      [
        "Ġlocated",
        -9.810340152055415
      ],
      [
        "Ġexpression",
        -9.811652829824483
      ],
      [
        "Ġwriting",
        -9.811776217646036
      ],
      [
        "Ġhorse",
        -9.8126755746903
      ],
      [
        "Ġequal",
        -9.814010498067503
      ],
      [
        "Ġgear",
        -9.814225174355322
      ],
      [
        "Ġversion",
        -9.8153407278081
      ],
      [
        "lower",
        -9.8159349570133
      ],
      [
        "cause",
        -9.816986875793951
      ],
      [
        "Ġfluid",
        -9.817671696053972
      ],
      [
        "Ġadding",
        -9.817905192604869
      ],
      [
        "Ġvaluable",
        -9.820618214423266
      ],
      [
        "Ġextremely",
        -9.821809009408794
      ],
      [
        "Ġbike",
        -9.82235679660095
      ],
      [
        "Ġmotor",
        -9.822520270212584
      ],
      [
        "Ġjourney",
        -9.823009928056864
      ],
      [
        "ility",
        -9.82306497875373
      ],
      [
        "Ġchain",
        -9.826330865747458
      ],
      [
        "Ġinsight",
        -9.827086829644724
      ],
      [
        "board",
        -9.828282040419932
      ],
      [
        "Ġeasil",
        -9.829725153699712
      ],
      [
        "Ġconnected",
        -9.829847219579042
      ],
      [
        "Ġpicture",
        -9.829925200526652
      ],
      [
        "Ġflight",
        -9.83070702297864
      ],
      [
        "Ġwonder",
        -9.831913260303642
      ],
      [
        "-like",
        -9.832846588674656
      ],
      [
        "Ġtexture",
        -9.833036807740603
      ],
      [
        "Ġc",
        -9.83410063060009
      ],
      [
        "Ġdiscuss",
        -9.834717582117932
      ],
      [
        "-A",
        -9.834925584515748
      ],
      [
        "Ġsolutions",
        -9.834998309760572
      ],
      [
        "ĠInstitute",
        -9.835051842030149
      ],
      [
        "Ġwait",
        -9.836732482813035
      ],
      [
        "Ġconcentration",
        -9.837490832011778
      ],
      [
        "Ġsecurity",
        -9.837549389912036
      ],
      [
        "Yes",
        -9.837676197610712
      ],
      [
        "Ġhuge",
        -9.839629818366994
      ],
      [
        "Ġcommercial",
        -9.842141812145668
      ],
      [
        "Ġcentury",
        -9.844323137378918
      ],
      [
        "Ġmanufacturer",
        -9.847076086869311
      ],
      [
        "Ġdraw",
        -9.8478770191918
      ],
      [
        "Ġhearing",
        -9.848047232054816
      ],
      [
        "Ġvital",
        -9.848279599845233
      ],
      [
        "Ġnutrients",
        -9.848461078844132
      ],
      [
        "Ġadde",
        -9.848737994375176
      ],
      [
        "long",
        -9.84895950640196
      ],
      [
        "Ġmouth",
        -9.849278211746324
      ],
      [
        "Ġmessage",
        -9.849689245749214
      ],
      [
        "Ġpull",
        -9.85057135399799
      ],
      [
        "ĠNOT",
        -9.851158750795712
      ],
      [
        "Ġflavor",
        -9.851167285191131
      ],
      [
        "Ġtesting",
        -9.852258344071586
      ],
      [
        "Ġpath",
        -9.853068652086126
      ],
      [
        "ember",
        -9.85339358102842
      ],
      [
        "Ġpair",
        -9.854025593272569
      ],
      [
        "Ġbag",
        -9.855206961070628
      ],
      [
        "Ġeconomic",
        -9.855568190791708
      ],
      [
        "Ġadvanced",
        -9.855922802054865
      ],
      [
        "Ġreference",
        -9.856215437672828
      ],
      [
        "Ġfoot",
        -9.85659818459062
      ],
      [
        "Ġoccurs",
        -9.85715410849367
      ],
      [
        "Ġaffected",
        -9.858318164612886
      ],
      [
        "Ġthread",
        -9.859242742269142
      ],
      [
        "Ġlocation",
        -9.859896115224691
      ],
      [
        "Ġcoast",
        -9.860773945373593
      ],
      [
        "Ġmath",
        -9.8609453354999
      ],
      [
        "Ġadults",
        -9.861070494634188
      ],
      [
        "Ġbone",
        -9.861757799939936
      ],
      [
        "Ġheight",
        -9.862628266218689
      ],
      [
        "ĠJ",
        -9.866174994077827
      ],
      [
        "Ġsub",
        -9.866366711458667
      ],
      [
        "Ġstrategi",
        -9.868663269596494
      ],
      [
        "Ġtypical",
        -9.869050099948971
      ],
      [
        "let",
        -9.869140520087992
      ],
      [
        "Ġstatement",
        -9.869293238839564
      ],
      [
        "Ġhighl",
        -9.869642012144936
      ],
      [
        "Ġ&",
        -9.87045219943482
      ],
      [
        "Ġphone",
        -9.87106190388915
      ],
      [
        "Ġcapture",
        -9.871184425262255
      ],
      [
        "Ġroof",
        -9.872951384064104
      ],
      [
        "Ġcutting",
        -9.872973766523325
      ],
      [
        "Ġmoistur",
        -9.874265217221735
      ],
      [
        "About",
        -9.874436440692332
      ],
      [
        "existing",
        -9.874829083378524
      ],
      [
        "ĠNot",
        -9.874984986717465
      ],
      [
        "Ġdetails",
        -9.875006293127054
      ],
      [
        "Ġemergenc",
        -9.875678352902607
      ],
      [
        "Ġtransition",
        -9.87614417632789
      ],
      [
        "Ġfamili",
        -9.87660619215228
      ],
      [
        "Ġreported",
        -9.876701948954846
      ],
      [
        "ĠState",
        -9.877792994406075
      ],
      [
        "Ġdouble",
        -9.878075112924083
      ],
      [
        "Ġpush",
        -9.87864431114938
      ],
      [
        "Ġslightl",
        -9.878989152989051
      ],
      [
        "Ġtrack",
        -9.87989716574993
      ],
      [
        "allow",
        -9.881809857568664
      ],
      [
        "takes",
        -9.883026101524193
      ],
      [
        "Ġsurrounding",
        -9.88323831815255
      ],
      [
        "care",
        -9.88324542090951
      ],
      [
        "yond",
        -9.883592314939255
      ],
      [
        "Ġroad",
        -9.88535699665852
      ],
      [
        "Ġfarm",
        -9.885594937273009
      ],
      [
        "Ġcity",
        -9.885699421679709
      ],
      [
        "Ġstick",
        -9.885907798597271
      ],
      [
        "Ġstone",
        -9.886585204440244
      ],
      [
        "Ġbeginning",
        -9.88695782868746
      ],
      [
        "ary",
        -9.887448167025187
      ],
      [
        "Ġlaw",
        -9.88746104155428
      ],
      [
        "Ġappearance",
        -9.887765599169178
      ],
      [
        "Ġtransfer",
        -9.887774449951513
      ],
      [
        "According",
        -9.888483972713892
      ],
      [
        "Ġdistribution",
        -9.888627568676808
      ],
      [
        "ĠMake",
        -9.888752411447992
      ],
      [
        "Ġmedicine",
        -9.889707862154667
      ],
      [
        "Ġopportunit",
        -9.890239016271371
      ],
      [
        "Ġattempt",
        -9.891526533402756
      ],
      [
        "Ġcommand",
        -9.891934175535072
      ],
      [
        "Ġdepth",
        -9.892420013008936
      ],
      [
        "Ġconsistent",
        -9.892996903104962
      ],
      [
        "went",
        -9.893091683432552
      ],
      [
        "On",
        -9.893605161237454
      ],
      [
        "Ġinternational",
        -9.89361491107195
      ],
      [
        "Ġocean",
        -9.894297194667908
      ],
      [
        "Ġrich",
        -9.89488259318288
      ],
      [
        "Most",
        -9.89513030294663
      ],
      [
        "Ġconsume",
        -9.897026200135642
      ],
      [
        "ĠNow",
        -9.897810627959934
      ],
      [
        "Ġball",
        -9.89847028178458
      ],
      [
        "because",
        -9.899766572304218
      ],
      [
        "Ġsort",
        -9.900065455670628
      ],
      [
        "Ġcoat",
        -9.900589061554015
      ],
      [
        "land",
        -9.900973585583625
      ],
      [
        "All",
        -9.90121957514529
      ],
      [
        "Ġp",
        -9.902212518776302
      ],
      [
        "Ġgoals",
        -9.902596146025152
      ],
      [
        "Another",
        -9.90400152109468
      ],
      [
        "defined",
        -9.904214038561076
      ],
      [
        "Ġfavorite",
        -9.904218659540566
      ],
      [
        "place",
        -9.90630984789146
      ],
      [
        "ĠAdditional",
        -9.90711244137024
      ],
      [
        "Your",
        -9.909141059912525
      ],
      [
        "Ġmulti",
        -9.909977967355855
      ],
      [
        "Ġinternal",
        -9.91219300208556
      ],
      [
        "Ġpick",
        -9.91228646557615
      ],
      [
        "Ġrare",
        -9.912482311415031
      ],
      [
        "Ġdiabetes",
        -9.915272537728551
      ],
      [
        "ĠCalifornia",
        -9.915613672970554
      ],
      [
        "Ġadjust",
        -9.91637047373612
      ],
      [
        "Ġtechnologies",
        -9.917101558983653
      ],
      [
        "Ġdifferences",
        -9.917225709514456
      ],
      [
        "rates",
        -9.917762804816054
      ],
      [
        "Ġlack",
        -9.919401020975384
      ],
      [
        "Ġchicken",
        -9.92254748773942
      ],
      [
        "Ġnational",
        -9.922640742694684
      ],
      [
        "Ġrelativel",
        -9.922996130015107
      ],
      [
        "Ġplease",
        -9.923837279734894
      ],
      [
        "Ġwhe",
        -9.92397332080952
      ],
      [
        "Ġengage",
        -9.924412214390596
      ],
      [
        "ĠOnc",
        -9.924975783909186
      ],
      [
        "action",
        -9.926015365305156
      ],
      [
        "ĠGerman",
        -9.926769372391496
      ],
      [
        "Ġstand",
        -9.927257420956137
      ],
      [
        "Ġanti",
        -9.92727673410544
      ],
      [
        "No",
        -9.92874147384797
      ],
      [
        "Ġextract",
        -9.929284326278466
      ],
      [
        "look",
        -9.929451289225486
      ],
      [
        "ways",
        -9.930125973196006
      ],
      [
        "Ġorganism",
        -9.930793972854923
      ],
      [
        "Ġmatch",
        -9.93361138857209
      ],
      [
        "Ġalgorithm",
        -9.934294860199874
      ],
      [
        "Ġmedium",
        -9.934307461005892
      ],
      [
        "eat",
        -9.935413442808027
      ],
      [
        "Ġelectron",
        -9.935494716632183
      ],
      [
        "Ġbox",
        -9.935573482760848
      ],
      [
        "Ġfund",
        -9.935592780287976
      ],
      [
        "Ġapproximate",
        -9.937714669441606
      ],
      [
        "no",
        -9.939147382810562
      ],
      [
        "Ġbasi",
        -9.940697108758869
      ],
      [
        "Ġexperiences",
        -9.941371283490184
      ],
      [
        "Ġframe",
        -9.942055523904614
      ],
      [
        "being",
        -9.943143196903982
      ],
      [
        "Ġelement",
        -9.94405166736768
      ],
      [
        "Ġidentified",
        -9.944396211603411
      ],
      [
        "Ġcheese",
        -9.948234268902082
      ],
      [
        "Ġcross",
        -9.948874759845095
      ],
      [
        "Ġblock",
        -9.950671131122034
      ],
      [
        "Ġrecipe",
        -9.950688167775455
      ],
      [
        "Ġdrawing",
        -9.951124070140066
      ],
      [
        "Ġdemonstrate",
        -9.952118793197211
      ],
      [
        "Ġstuff",
        -9.952686985339692
      ],
      [
        "ĠWater",
        -9.95309693118623
      ],
      [
        "Ġbackground",
        -9.95335159949506
      ],
      [
        "ĠEach",
        -9.953745222606535
      ],
      [
        "Ġgold",
        -9.953789453337569
      ],
      [
        "Ġsquare",
        -9.953974468815929
      ],
      [
        "Ġconnect",
        -9.955463850879685
      ],
      [
        "Ġact",
        -9.955951106821155
      ],
      [
        "Ġcloth",
        -9.956354676155293
      ],
      [
        "Ġupdate",
        -9.956675009798916
      ],
      [
        "size",
        -9.956900429816985
      ],
      [
        "Ġexpand",
        -9.9571601571514
      ],
      [
        "Ġfinancial",
        -9.957658742188077
      ],
      [
        "Ġdriver",
        -9.959044211122595
      ],
      [
        "Ġstem",
        -9.959264060206165
      ],
      [
        "Ġgrain",
        -9.960041178707176
      ],
      [
        "Ġrelative",
        -9.960127977363388
      ],
      [
        "Ġburn",
        -9.96017244455176
      ],
      [
        "Ġancient",
        -9.96104262403018
      ],
      [
        "Ġbillion",
        -9.961320382156307
      ],
      [
        "Ġweb",
        -9.961882377278805
      ],
      [
        "Ġlate",
        -9.962777247292331
      ],
      [
        "Ġexpect",
        -9.963288505875894
      ],
      [
        "Ġmental",
        -9.964872666277415
      ],
      [
        "Ġpresen",
        -9.964968315227049
      ],
      [
        "between",
        -9.965770368811617
      ],
      [
        "Ġopportunities",
        -9.966046060550878
      ],
      [
        "often",
        -9.966442117847413
      ],
      [
        "Ġpreference",
        -9.966490327177867
      ],
      [
        "Ġalthough",
        -9.966632276903418
      ],
      [
        "Ġhost",
        -9.966788804246349
      ],
      [
        "happy",
        -9.968166783111188
      ],
      [
        "ĠAre",
        -9.9688637368297
      ],
      [
        "Ġfeeding",
        -9.969039937739849
      ],
      [
        "Ġse",
        -9.969280813982389
      ],
      [
        "Ġfinish",
        -9.969302198743708
      ],
      [
        "ĠAfrica",
        -9.969744108628324
      ],
      [
        "lost",
        -9.970806354577084
      ],
      [
        "Ġmember",
        -9.97109068897266
      ],
      [
        "Ġplanet",
        -9.971144687882692
      ],
      [
        "Ġquick",
        -9.971480693575142
      ],
      [
        "Ġadvice",
        -9.97216451276853
      ],
      [
        "Ġlandscape",
        -9.97264019124852
      ],
      [
        "Ġprefer",
        -9.973130468082031
      ],
      [
        "Ġeducational",
        -9.973186199635672
      ],
      [
        "Ġhabitat",
        -9.9733362637667
      ],
      [
        "come",
        -9.974351294550754
      ],
      [
        "Use",
        -9.97460638233409
      ],
      [
        "Ġcoffee",
        -9.974969786984172
      ],
      [
        "ther",
        -9.97619512445771
      ],
      [
        "ĠEnglish",
        -9.979174793995115
      ],
      [
        "Ġspend",
        -9.9793546684388
      ],
      [
        "Ġm",
        -9.97954685583153
      ],
      [
        "ĠUK",
        -9.979871638095696
      ],
      [
        "Ġedge",
        -9.980153120918658
      ],
      [
        "ĠTherefor",
        -9.980606108573363
      ],
      [
        "ship",
        -9.981359537175337
      ],
      [
        "ĠIndia",
        -9.981450806631646
      ],
      [
        "Ġpractical",
        -9.981941649788116
      ],
      [
        "Ġflat",
        -9.982437157773395
      ],
      [
        "Ġfloor",
        -9.983571905026505
      ],
      [
        "Ġfrequency",
        -9.983596587352611
      ],
      [
        "Ġinvestment",
        -9.984884490788932
      ],
      [
        "Ġiron",
        -9.98631860944446
      ],
      [
        "Ġincreases",
        -9.987079703249806
      ],
      [
        "Ġstring",
        -9.987707358223334
      ],
      [
        "Which",
        -9.9885343798838
      ],
      [
        "Ġannual",
        -9.98860053609473
      ],
      [
        "him",
        -9.989244695159927
      ],
      [
        "Ġtherefor",
        -9.989323651842165
      ],
      [
        "Ġprogress",
        -9.989540405089157
      ],
      [
        "Ġvision",
        -9.989871777242517
      ],
      [
        "Ġatmosphere",
        -9.990783984254566
      ],
      [
        "Ġbegan",
        -9.992528558453811
      ],
      [
        "Ġmaximum",
        -9.99254119401311
      ],
      [
        "Ġerror",
        -9.994960923041116
      ],
      [
        "ĠEven",
        -9.994975770209606
      ],
      [
        "Ġinstall",
        -9.995298204532236
      ],
      [
        "Ġthermal",
        -9.996490038847885
      ],
      [
        "Ġmarine",
        -9.997059643839382
      ],
      [
        "Onc",
        -9.99726498596504
      ],
      [
        "ideas",
        -9.998502665775352
      ],
      [
        "Ġsounds",
        -9.998925120595551
      ],
      [
        "Ġroots",
        -10.000337822152298
      ],
      [
        "Ġnearly",
        -10.000543723125416
      ],
      [
        "people",
        -10.001078193969974
      ],
      [
        "Ġsecure",
        -10.001728133930197
      ],
      [
        "Ġmale",
        -10.004029350269183
      ],
      [
        "ĠW",
        -10.004564459134595
      ],
      [
        "Ġprivate",
        -10.00501073880356
      ],
      [
        "Ġstrateg",
        -10.005132843844986
      ],
      [
        "Ġdrink",
        -10.00577397120187
      ],
      [
        "ium",
        -10.008317206315724
      ],
      [
        "Ġcomfort",
        -10.00834692436549
      ],
      [
        "Ġdi",
        -10.009329605534038
      ],
      [
        "king",
        -10.010638074993444
      ],
      [
        "Ġobvious",
        -10.011495638548968
      ],
      [
        "Ġtransport",
        -10.012473142496024
      ],
      [
        "Ġopening",
        -10.012674183943506
      ],
      [
        "helps",
        -10.013974893620546
      ],
      [
        "Ġtube",
        -10.01415952128978
      ],
      [
        "Ġsmell",
        -10.01446240964
      ],
      [
        "Ġselection",
        -10.015471438347284
      ],
      [
        "Ġdirt",
        -10.01589333914273
      ],
      [
        "Ġspecifically",
        -10.01661245200486
      ],
      [
        "Ġhighest",
        -10.0178893420231
      ],
      [
        "Ġwa",
        -10.018082255127808
      ],
      [
        "Ġcook",
        -10.018427371159142
      ],
      [
        "Ġgenes",
        -10.01843314280347
      ],
      [
        "Ġfashion",
        -10.018684574134497
      ],
      [
        "Ġmiles",
        -10.02133604327162
      ],
      [
        "<",
        -10.021898018473
      ],
      [
        "Ġexamples",
        -10.021937828684113
      ],
      [
        "ĠFirst",
        -10.021973127440692
      ],
      [
        "Ġcom",
        -10.02208632528734
      ],
      [
        "Ġoutcome",
        -10.02247578463359
      ],
      [
        "Ġpotentially",
        -10.022764433916889
      ],
      [
        "Ġcountr",
        -10.025601386158492
      ],
      [
        "Ġfarmer",
        -10.025642160962786
      ],
      [
        "Ġphase",
        -10.02684914635013
      ],
      [
        "Ġroutine",
        -10.027595163477956
      ],
      [
        "Ġprepare",
        -10.027843245238223
      ],
      [
        "Ġnumerous",
        -10.027877501431885
      ],
      [
        "Ġprint",
        -10.028507956432565
      ],
      [
        "Ġjoin",
        -10.028936188944336
      ],
      [
        "Ġvirus",
        -10.029630844372315
      ],
      [
        "ĠOr",
        -10.031458704492575
      ],
      [
        "Ġdiverse",
        -10.032436326735178
      ],
      [
        "Ġplate",
        -10.034527419958794
      ],
      [
        "bility",
        -10.035357236164504
      ],
      [
        "Ġshift",
        -10.03617911428356
      ],
      [
        "Ġfailure",
        -10.036184856568164
      ],
      [
        "Ġlink",
        -10.037603531655671
      ],
      [
        "Ġboat",
        -10.03772875241958
      ],
      [
        "Ġintelligence",
        -10.038088164737523
      ],
      [
        "part",
        -10.039260802226654
      ],
      [
        "my",
        -10.039571462605416
      ],
      [
        "Ġsteel",
        -10.039994581108935
      ],
      [
        "Ġpainting",
        -10.040653753635835
      ],
      [
        "society",
        -10.04240433553335
      ],
      [
        "Ġartificial",
        -10.04254575885675
      ],
      [
        "Ġload",
        -10.042872928926052
      ],
      [
        "Ġsaw",
        -10.044103293419216
      ],
      [
        "Ġcompost",
        -10.044683239009371
      ],
      [
        "Ġaction",
        -10.04474920316508
      ],
      [
        "Ġearlier",
        -10.044816306549995
      ],
      [
        "Ġconservation",
        -10.045643076012889
      ],
      [
        "ĠDepartment",
        -10.046785558545649
      ],
      [
        "Ġfill",
        -10.047023665932253
      ],
      [
        "Ġrate",
        -10.048022108498714
      ],
      [
        "Ġhelpful",
        -10.048438002508256
      ],
      [
        "Ġwindow",
        -10.048654071863073
      ],
      [
        "Ġdead",
        -10.050196041151448
      ],
      [
        "Ġchannel",
        -10.051576779110857
      ],
      [
        "Ġfollowed",
        -10.052308667669626
      ],
      [
        "Ġsurvey",
        -10.052609662377304
      ],
      [
        "Do",
        -10.053156884488462
      ],
      [
        "Ġjournal",
        -10.054702617107392
      ],
      [
        "Ġresource",
        -10.055257667935216
      ],
      [
        "Ġrobot",
        -10.05527834378424
      ],
      [
        "J",
        -10.055472403447505
      ],
      [
        "Ġdrug",
        -10.05569997795719
      ],
      [
        "-year",
        -10.055928362121612
      ],
      [
        "ĠLet",
        -10.05646335628328
      ],
      [
        "Ġtechnical",
        -10.057460382205246
      ],
      [
        "ish",
        -10.057562119476366
      ],
      [
        "Ġreliabl",
        -10.057630501419515
      ],
      [
        "type",
        -10.059265544781768
      ],
      [
        "Ġindustrial",
        -10.060544557707043
      ],
      [
        "Ġfight",
        -10.06111156432172
      ],
      [
        "Ġsustain",
        -10.061182887183332
      ],
      [
        "ĠIs",
        -10.061522181429565
      ],
      [
        "classes",
        -10.061936079688031
      ],
      [
        "ĠOther",
        -10.062339408217628
      ],
      [
        "Ġtrigger",
        -10.064397314903632
      ],
      [
        "ried",
        -10.064464737009514
      ],
      [
        "Ġoffice",
        -10.065150681348848
      ],
      [
        "Ġoffering",
        -10.065828352567127
      ],
      [
        "Ġowners",
        -10.065976777374782
      ],
      [
        "Ġexamine",
        -10.066378347861916
      ],
      [
        "Ġal",
        -10.066425512151696
      ],
      [
        "immune",
        -10.066680918277369
      ],
      [
        "going",
        -10.0679877330909
      ],
      [
        "Ġcard",
        -10.067996984512575
      ],
      [
        "Ġgreenhouse",
        -10.068130230681184
      ],
      [
        "Ġsweet",
        -10.068166223180786
      ],
      [
        "ĠAt",
        -10.069154972659437
      ],
      [
        "Ġapp",
        -10.069635115843113
      ],
      [
        "ĠEurope",
        -10.0712615630958
      ],
      [
        "around",
        -10.0713616219406
      ],
      [
        "ĠX",
        -10.072659738562963
      ],
      [
        "Ġestablished",
        -10.072979103633148
      ],
      [
        "Ġsnow",
        -10.074008526206349
      ],
      [
        "Are",
        -10.074987728331983
      ],
      [
        "Ġmuscles",
        -10.075091792081004
      ],
      [
        "Ġlisten",
        -10.075600426449668
      ],
      [
        "Ġboard",
        -10.075706521609712
      ],
      [
        "ĠAustralia",
        -10.075710215064372
      ],
      [
        "Ġalone",
        -10.07586041457558
      ],
      [
        "Ġclick",
        -10.076981242277084
      ],
      [
        "system",
        -10.07749303717777
      ],
      [
        "Ġindependent",
        -10.07856510768058
      ],
      [
        "Ġmagnetic",
        -10.078704685689994
      ],
      [
        "Ġmap",
        -10.078754411048775
      ],
      [
        "Ġstaff",
        -10.078948025166516
      ],
      [
        "Ġdivide",
        -10.079014160240773
      ],
      [
        "Ġfaste",
        -10.079135278650591
      ],
      [
        "More",
        -10.07919448320784
      ],
      [
        "Ġhour",
        -10.079542373253684
      ],
      [
        "led",
        -10.079843323354286
      ],
      [
        "Ġhelping",
        -10.079911010321936
      ],
      [
        "chemical",
        -10.080661055503946
      ],
      [
        "keep",
        -10.081700206286383
      ],
      [
        "{",
        -10.082018936902005
      ],
      [
        "Ġadapt",
        -10.082030160881352
      ],
      [
        "structure",
        -10.082388321091749
      ],
      [
        "Ġcontrast",
        -10.083179019872889
      ],
      [
        "Ġbooks",
        -10.083619017099412
      ],
      [
        "Ġdecisions",
        -10.084341284472517
      ],
      [
        "ĠHigh",
        -10.085824369642957
      ],
      [
        "Ġstraight",
        -10.086051354502398
      ],
      [
        "Ġyield",
        -10.08641759256192
      ],
      [
        "First",
        -10.087372324373735
      ],
      [
        "en",
        -10.089002120771829
      ],
      [
        "Ġpool",
        -10.089473017737127
      ],
      [
        "Ġvariation",
        -10.090006081421144
      ],
      [
        "try",
        -10.090992299342757
      ],
      [
        "Ġattract",
        -10.091553846905317
      ],
      [
        "point",
        -10.092543201181622
      ],
      [
        "Ġoperate",
        -10.092606762839644
      ],
      [
        "ĠWar",
        -10.092860044385166
      ],
      [
        "Ġegg",
        -10.093686859628882
      ],
      [
        "Ġtherapy",
        -10.093846265387976
      ],
      [
        "Ġtiny",
        -10.094304645833091
      ],
      [
        "Ġcontinuous",
        -10.094632626203936
      ],
      [
        "Ġsaying",
        -10.09486334430902
      ],
      [
        "Ġgets",
        -10.095036767027576
      ],
      [
        "Ġdoor",
        -10.095967375306444
      ],
      [
        "learned",
        -10.096394586791078
      ],
      [
        "Ġindoor",
        -10.096541059782137
      ],
      [
        "Ġlarges",
        -10.097365074329629
      ],
      [
        "-free",
        -10.09749960300872
      ],
      [
        "Ġprepared",
        -10.098002183562464
      ],
      [
        "Ġassist",
        -10.098278982587704
      ],
      [
        "Ġscene",
        -10.09881567488792
      ],
      [
        "Ġint",
        -10.09894679025539
      ],
      [
        "ĠChina",
        -10.099140335809254
      ],
      [
        "Ġfunctions",
        -10.099427742800266
      ],
      [
        "Ġnative",
        -10.100848105109254
      ],
      [
        "Ġpollution",
        -10.102476710763188
      ],
      [
        "ĠEuropean",
        -10.104147594442672
      ],
      [
        "Ġcomprehensive",
        -10.104567532884916
      ],
      [
        "Ġdrop",
        -10.1046331393345
      ],
      [
        "Ġcreative",
        -10.104731932364192
      ],
      [
        "Ġbu",
        -10.105045504319246
      ],
      [
        "Ġsupplement",
        -10.10579671728436
      ],
      [
        "Ġsurvive",
        -10.105839579312397
      ],
      [
        "Ġformula",
        -10.105876782000628
      ],
      [
        "Ġcentral",
        -10.106387543666678
      ],
      [
        "Ġabsorb",
        -10.107300015075811
      ],
      [
        "ĠWhy",
        -10.109989312712251
      ],
      [
        "ĠJust",
        -10.110020143130384
      ],
      [
        "ha",
        -10.110841673962334
      ],
      [
        "Ġfly",
        -10.110934345913176
      ],
      [
        "Ġonto",
        -10.11119430309611
      ],
      [
        "Ġeventual",
        -10.111800171300082
      ],
      [
        "men",
        -10.112001572929318
      ],
      [
        "range",
        -10.112128151202128
      ],
      [
        "Ġblog",
        -10.11257220255338
      ],
      [
        "ĠAccording",
        -10.113068530770631
      ],
      [
        "Ġrealize",
        -10.113666055864512
      ],
      [
        "Ġdetailed",
        -10.113838458899494
      ],
      [
        "Ġextreme",
        -10.11525314699822
      ],
      [
        "Ġharmful",
        -10.11600319706614
      ],
      [
        "Ġmotion",
        -10.116208056754193
      ],
      [
        "ĠGreat",
        -10.117238208268336
      ],
      [
        "Ġdangerous",
        -10.11726244132451
      ],
      [
        "may",
        -10.117965738533895
      ],
      [
        "llowing",
        -10.118739833259506
      ],
      [
        "Ġkill",
        -10.118873742073369
      ],
      [
        "Ġfiber",
        -10.11972929390804
      ],
      [
        "Ġagree",
        -10.12089809119728
      ],
      [
        "Ġextend",
        -10.120968379339612
      ],
      [
        "Ġaircraft",
        -10.123311950646292
      ],
      [
        "Ġangle",
        -10.123468495961736
      ],
      [
        "Ġinnovation",
        -10.123659694411517
      ],
      [
        "Ġregulation",
        -10.123983065886184
      ],
      [
        "Ġrise",
        -10.124246116115904
      ],
      [
        "Ġopinion",
        -10.124550624510007
      ],
      [
        "Ġmanufacturing",
        -10.125044677056067
      ],
      [
        "Ġupper",
        -10.125506556551134
      ],
      [
        "Ġpest",
        -10.1268491161242
      ],
      [
        "Ġtold",
        -10.127740534081427
      ],
      [
        "Ġsheet",
        -10.12954219237255
      ],
      [
        "referred",
        -10.130176395351464
      ],
      [
        "Ġtha",
        -10.13141131809996
      ],
      [
        "ĠDay",
        -10.131760521517304
      ],
      [
        "put",
        -10.132394181017863
      ],
      [
        "world",
        -10.13250092365685
      ],
      [
        "Ġbrush",
        -10.133312286060072
      ],
      [
        "Ġmother",
        -10.13388089066266
      ],
      [
        "Ġcore",
        -10.134108009219114
      ],
      [
        "Ġfit",
        -10.13413229653494
      ],
      [
        "Ġfundamental",
        -10.134465522468664
      ],
      [
        "Ġimprov",
        -10.13473135990193
      ],
      [
        "Ġsites",
        -10.135979381626584
      ],
      [
        "Ġschedule",
        -10.137171529710637
      ],
      [
        "Ġchoos",
        -10.137583502788424
      ],
      [
        "Ġbright",
        -10.138118134019985
      ],
      [
        "Ġriver",
        -10.138299898354225
      ],
      [
        "Ġrespect",
        -10.138483157120705
      ],
      [
        "âĢ¦Ċ",
        -10.13902849802112
      ],
      [
        "Ġbirth",
        -10.139059565962595
      ],
      [
        "Ġnaturally",
        -10.139979974465342
      ],
      [
        "Ġlens",
        -10.140117892981582
      ],
      [
        "Ġkitchen",
        -10.140911123203322
      ],
      [
        "name",
        -10.14134725786428
      ],
      [
        "Ġutilize",
        -10.141427989221691
      ],
      [
        "uring",
        -10.141634858536529
      ],
      [
        "Ġbathroom",
        -10.141841845341094
      ],
      [
        "Ġrisks",
        -10.14241292070442
      ],
      [
        "Ġleak",
        -10.143392535130598
      ],
      [
        "Ġdrugs",
        -10.14377185516615
      ],
      [
        "Ġharvest",
        -10.143874599207958
      ],
      [
        "Ġtheor",
        -10.14471514537038
      ],
      [
        "away",
        -10.145834399369136
      ],
      [
        "focused",
        -10.146264251418543
      ],
      [
        "Ġemotional",
        -10.146271358379472
      ],
      [
        "cell",
        -10.147528685791324
      ],
      [
        "Ġexternal",
        -10.14829745803318
      ],
      [
        "From",
        -10.14838715662519
      ],
      [
        "Ġoutdoor",
        -10.148402236308602
      ],
      [
        "Ġnest",
        -10.148439323961693
      ],
      [
        "Ġaccident",
        -10.148870107512014
      ],
      [
        "friendly",
        -10.149160072705005
      ],
      [
        "know",
        -10.149264926168907
      ],
      [
        "Ġteach",
        -10.149517131998149
      ],
      [
        "Ġma",
        -10.149565014174978
      ],
      [
        "Ġgrown",
        -10.149883899294846
      ],
      [
        "Ġbodie",
        -10.150171288198887
      ],
      [
        "Ġconclusion",
        -10.150242076960309
      ],
      [
        "Ġgettin",
        -10.150412526054351
      ],
      [
        "Ġoptimal",
        -10.15056693188855
      ],
      [
        "Ġpossibilit",
        -10.15199040689414
      ],
      [
        "create",
        -10.1521426804074
      ],
      [
        "Ġmaster",
        -10.152355069469262
      ],
      [
        "Ġsymbol",
        -10.152461873206269
      ],
      [
        "ĠClass",
        -10.153029903567989
      ],
      [
        "Ġfriend",
        -10.153995792638174
      ],
      [
        "Ġgrass",
        -10.154257343623344
      ],
      [
        "Ġart",
        -10.15465429848339
      ],
      [
        "new",
        -10.154671472939595
      ],
      [
        "Ġultimate",
        -10.154771694696375
      ],
      [
        "Ġdefinition",
        -10.154943638803989
      ],
      [
        "ĠAir",
        -10.155780821493885
      ],
      [
        "Ġbeneficial",
        -10.156765829770128
      ],
      [
        "Ġspray",
        -10.156894611670545
      ],
      [
        "Ġthreat",
        -10.157002239914188
      ],
      [
        "Ġthousands",
        -10.157161394549052
      ],
      [
        "ĠYork",
        -10.157195801750811
      ],
      [
        "Ġvirtual",
        -10.157558628040848
      ],
      [
        "energy",
        -10.15834642531524
      ],
      [
        "visible",
        -10.160362359586385
      ],
      [
        "Ġmechanical",
        -10.16325417793976
      ],
      [
        "Ġhistorical",
        -10.163280006469318
      ],
      [
        "Ġplent",
        -10.16347909602515
      ],
      [
        "ization",
        -10.164553900895148
      ],
      [
        "Ġdynamic",
        -10.164672342342785
      ],
      [
        "Ġextensive",
        -10.164905329952656
      ],
      [
        "Finally",
        -10.16497361466745
      ],
      [
        "Ġspeak",
        -10.165244647182032
      ],
      [
        "forms",
        -10.165510176105888
      ],
      [
        "Ġsector",
        -10.165546369806428
      ],
      [
        "alking",
        -10.166548292218874
      ],
      [
        "Ġbottle",
        -10.1669621400941
      ],
      [
        "am",
        -10.1673673997167
      ],
      [
        "Ġshell",
        -10.167712589365124
      ],
      [
        "Ġdiscussion",
        -10.167886752427805
      ],
      [
        "kept",
        -10.169137841291896
      ],
      [
        "ers",
        -10.170087681981263
      ],
      [
        "air",
        -10.17061619836888
      ],
      [
        "Ġincredibl",
        -10.170708070507777
      ],
      [
        "Ġstories",
        -10.170938126939536
      ],
      [
        "should",
        -10.171443829536608
      ],
      [
        "Ġorigin",
        -10.174028008844695
      ],
      [
        "Ġreality",
        -10.174319613835202
      ],
      [
        "Ġaware",
        -10.17447871005002
      ],
      [
        "Ġinteract",
        -10.174640512013044
      ],
      [
        "Ġengineering",
        -10.175074160228084
      ],
      [
        "Ġanalyze",
        -10.17512945245904
      ],
      [
        "Ġsubstance",
        -10.176103869722136
      ],
      [
        "Ġaim",
        -10.176510578218274
      ],
      [
        "Ġreactions",
        -10.176593364881091
      ],
      [
        "Ġcalculate",
        -10.176686415743587
      ],
      [
        "Ġformed",
        -10.176723611135404
      ],
      [
        "ĠSince",
        -10.177522647644563
      ],
      [
        "Ġmid",
        -10.177708475827815
      ],
      [
        "Ġtable",
        -10.178012430901695
      ],
      [
        "Ġwhose",
        -10.178924149676543
      ],
      [
        "%)",
        -10.180775958780243
      ],
      [
        "Ġstandards",
        -10.180985562045503
      ],
      [
        "Ġmorning",
        -10.181088565909285
      ],
      [
        "Ġmembrane",
        -10.18147795007885
      ],
      [
        "Ġhomes",
        -10.181979001185075
      ],
      [
        "Ġsituations",
        -10.183776275818513
      ],
      [
        "ĠTh",
        -10.184736785449577
      ],
      [
        "/or",
        -10.184894786800845
      ],
      [
        "ĠOver",
        -10.185870818930626
      ],
      [
        "Ġconvert",
        -10.186097128076057
      ],
      [
        "dium",
        -10.186192412085031
      ],
      [
        "Ġbudget",
        -10.186261559035012
      ],
      [
        "oil",
        -10.186891944069425
      ],
      [
        "Ġnamed",
        -10.187900903528371
      ],
      [
        "Ġs",
        -10.188637092415233
      ],
      [
        "Ġexhibit",
        -10.18877613334303
      ],
      [
        "Ġprocedure",
        -10.188863479854664
      ],
      [
        "Ġprimari",
        -10.188931053303085
      ],
      [
        "Ġcomposition",
        -10.19025090682024
      ],
      [
        "@",
        -10.190886485533294
      ],
      [
        "Ġpredict",
        -10.191089111720546
      ],
      [
        "Ġcream",
        -10.19181077171754
      ],
      [
        "lighting",
        -10.192505586483994
      ],
      [
        "Ġdate",
        -10.194311521007307
      ],
      [
        "Ġsurgery",
        -10.195820805957796
      ],
      [
        "Ġmixture",
        -10.195851504860784
      ],
      [
        "ĠFood",
        -10.195995854553544
      ],
      [
        "Ġexposed",
        -10.196047753993598
      ],
      [
        "Ġsolve",
        -10.196128864004384
      ],
      [
        "latest",
        -10.196932478664316
      ],
      [
        "Does",
        -10.197700784853057
      ],
      [
        "Ġthus",
        -10.197920151126818
      ],
      [
        "Ġthorough",
        -10.198099502336138
      ],
      [
        "Ġorange",
        -10.198403580407057
      ],
      [
        "Ġprecise",
        -10.198478905001895
      ],
      [
        "ĠWest",
        -10.198490401850336
      ],
      [
        "Conclusion",
        -10.199607157952826
      ],
      [
        "form",
        -10.200077174603631
      ],
      [
        "Ġradiation",
        -10.20063780843034
      ],
      [
        "Ġmeeting",
        -10.200743003758332
      ],
      [
        "city",
        -10.201001611005369
      ],
      [
        "Ġcarefully",
        -10.201184212039058
      ],
      [
        "Ġspeaker",
        -10.202017968094156
      ],
      [
        "Ġcapabilit",
        -10.20238598468884
      ],
      [
        "Ġbutton",
        -10.20255887180323
      ],
      [
        "Ġbank",
        -10.205031019772935
      ],
      [
        "Ġclinical",
        -10.205032858077946
      ],
      [
        "Ġreduction",
        -10.205943753286974
      ],
      [
        "Ġmelt",
        -10.20655775036011
      ],
      [
        "help",
        -10.207051111057794
      ],
      [
        "ĠSea",
        -10.207816690644334
      ],
      [
        "Ġpanels",
        -10.208181465635166
      ],
      [
        "Ġmajorit",
        -10.208238902216456
      ],
      [
        "Ġatom",
        -10.20841540489437
      ],
      [
        "Ġmeal",
        -10.209040821045171
      ],
      [
        "Ġargument",
        -10.209259557809926
      ],
      [
        "ĠFrench",
        -10.209994054840443
      ],
      [
        "Ġevolution",
        -10.21002557004458
      ],
      [
        "Ġdie",
        -10.210269424167915
      ],
      [
        "Ġdensity",
        -10.210275908450866
      ],
      [
        "Ġcup",
        -10.210620567270317
      ],
      [
        "ĠApri",
        -10.211096597953867
      ],
      [
        "Ġinjury",
        -10.212426739072884
      ],
      [
        "Ġisland",
        -10.213310416195082
      ],
      [
        "ĠWell",
        -10.213634583359225
      ],
      [
        "Ġlifestyle",
        -10.21380201939875
      ],
      [
        "then",
        -10.214350429287308
      ],
      [
        "Ġbreast",
        -10.21435167495647
      ],
      [
        "Ġpropose",
        -10.214740549747948
      ],
      [
        "Ġdecades",
        -10.21480524110929
      ],
      [
        "ver",
        -10.214853386441307
      ],
      [
        "Let",
        -10.214887155101074
      ],
      [
        "Ġcreation",
        -10.21600830054121
      ],
      [
        "Ġinfections",
        -10.216446755388908
      ],
      [
        "Ġlabel",
        -10.216554130158896
      ],
      [
        "ĠEvery",
        -10.216952512483363
      ],
      [
        "children",
        -10.217601566967192
      ],
      [
        "elling",
        -10.218805195134962
      ],
      [
        "ĠAl",
        -10.219227346627626
      ],
      [
        "Figure",
        -10.219957329196149
      ],
      [
        "Ġreveal",
        -10.21997164777163
      ],
      [
        "Ġminimum",
        -10.22040541026443
      ],
      [
        "Ġrelevan",
        -10.220997779242548
      ],
      [
        "Ġvoice",
        -10.2210231874785
      ],
      [
        "owever",
        -10.221529518985452
      ],
      [
        "Ġdust",
        -10.22211138921995
      ],
      [
        "Ġpasse",
        -10.222275504766976
      ],
      [
        "ĠRiver",
        -10.222396464103891
      ],
      [
        "Ġinterface",
        -10.22278522519867
      ],
      [
        "ĠDesign",
        -10.2228450994194
      ],
      [
        "Ġlegal",
        -10.222870560165864
      ],
      [
        "Ġenvironments",
        -10.223026027499117
      ],
      [
        "Ġimplement",
        -10.22306378318773
      ],
      [
        "ĠBlack",
        -10.223638172603124
      ],
      [
        "Ġaudio",
        -10.223743779825584
      ],
      [
        "Ġboost",
        -10.22438621380956
      ],
      [
        "Ġstrain",
        -10.224745326066843
      ],
      [
        "Ġsmart",
        -10.22489192787206
      ],
      [
        "process",
        -10.22496670056241
      ],
      [
        "still",
        -10.224982328222278
      ],
      [
        "Ġassessment",
        -10.225384847022926
      ],
      [
        "Ġwalls",
        -10.22606591569654
      ],
      [
        "Ġguy",
        -10.22617817370007
      ],
      [
        "Ġobservation",
        -10.226210689230834
      ],
      [
        "Ġevaluate",
        -10.226431740901646
      ],
      [
        "Ġassess",
        -10.227189663822095
      ],
      [
        "Ġinvest",
        -10.22720479250204
      ],
      [
        "Ġsaving",
        -10.227414345218088
      ],
      [
        "called",
        -10.227435386057827
      ],
      [
        "Ġdetail",
        -10.227794566986866
      ],
      [
        "Ġemail",
        -10.230958217346211
      ],
      [
        "Ġvertical",
        -10.231338222099662
      ],
      [
        "Ġcreature",
        -10.231665959712911
      ],
      [
        "Ġclassroom",
        -10.23181832506527
      ],
      [
        "Ġchang",
        -10.232336217647047
      ],
      [
        "layers",
        -10.232672930091343
      ],
      [
        "ĠService",
        -10.233749911255568
      ],
      [
        "}",
        -10.233767035959865
      ],
      [
        "Ġcatch",
        -10.233785742578023
      ],
      [
        "heard",
        -10.23393695082915
      ],
      [
        "ne",
        -10.234080900509872
      ],
      [
        "ĠPark",
        -10.234390162331325
      ],
      [
        "Since",
        -10.23485067234564
      ],
      [
        "Ġfossil",
        -10.23620232868734
      ],
      [
        "Ġeconom",
        -10.236622754801049
      ],
      [
        "ĠDon",
        -10.236866705647316
      ],
      [
        "Ġhospital",
        -10.23796660511912
      ],
      [
        "Ġpowder",
        -10.23807701153387
      ],
      [
        "Ġaudience",
        -10.238843419733008
      ],
      [
        "Ġcrack",
        -10.239062466675758
      ],
      [
        "-time",
        -10.23944489908677
      ],
      [
        "Ġsupplie",
        -10.239485740452
      ],
      [
        "Ġformat",
        -10.240101066315487
      ],
      [
        "Ġplanting",
        -10.240413443418346
      ],
      [
        "Ġchallenging",
        -10.240453705726246
      ],
      [
        "se",
        -10.24126632519334
      ],
      [
        "Ġcommunit",
        -10.2413285630019
      ],
      [
        "Ġclimb",
        -10.24248348375406
      ],
      [
        "ĠMarch",
        -10.243186626599153
      ],
      [
        "uary",
        -10.243966250569803
      ],
      [
        "Ġobjective",
        -10.245004304037948
      ],
      [
        "first",
        -10.24536733647388
      ],
      [
        "An",
        -10.246128855503436
      ],
      [
        "ou",
        -10.24639871916795
      ],
      [
        "My",
        -10.24659012370753
      ],
      [
        "Ġvia",
        -10.246737667630114
      ],
      [
        "Ġyet",
        -10.247570087234752
      ],
      [
        "Ġmention",
        -10.247686410284116
      ],
      [
        "Ġimprovement",
        -10.248348557510557
      ],
      [
        "Ġhousehold",
        -10.24850084262912
      ],
      [
        "ĠEducation",
        -10.249330402584716
      ],
      [
        "Ġsession",
        -10.24976551592393
      ],
      [
        "Ġinstallation",
        -10.250777082945376
      ],
      [
        "Ġadvance",
        -10.250779053698793
      ],
      [
        "ĠStudent",
        -10.25086888631376
      ],
      [
        "Ġsurfaces",
        -10.251121482158066
      ],
      [
        "Ġpets",
        -10.251165841649565
      ],
      [
        "Ġthick",
        -10.251276630627125
      ],
      [
        "Ġtrial",
        -10.253153417683103
      ],
      [
        "Ġconduct",
        -10.253515330951304
      ],
      [
        "ĠIsland",
        -10.2541600357965
      ],
      [
        "Ġmode",
        -10.254578040848948
      ],
      [
        "Ġintake",
        -10.254681664099088
      ],
      [
        "ĠInternational",
        -10.255003299990324
      ],
      [
        "Before",
        -10.255115894655972
      ],
      [
        "ĠCanada",
        -10.255134937331956
      ],
      [
        "Ġconsideration",
        -10.25560595955557
      ],
      [
        "Ġessay",
        -10.256246352995014
      ],
      [
        "Ġbiological",
        -10.257561545918364
      ],
      [
        "Ġdecide",
        -10.257958002759011
      ],
      [
        "Ġinternet",
        -10.2581727918392
      ],
      [
        "Ġpolicy",
        -10.258392012411472
      ],
      [
        "Ġmill",
        -10.25871764231426
      ],
      [
        "Ġcompetition",
        -10.260521300161688
      ],
      [
        "Ġbear",
        -10.261311779021934
      ],
      [
        "Ġacademic",
        -10.261835970903068
      ],
      [
        "during",
        -10.262134203257537
      ],
      [
        "back",
        -10.262432380607605
      ],
      [
        "Ġpuppy",
        -10.262793632988458
      ],
      [
        "building",
        -10.262905025571856
      ],
      [
        "Ġassume",
        -10.26312358902421
      ],
      [
        "Ġcreatin",
        -10.263689625055154
      ],
      [
        "Ġfoundation",
        -10.26431220884508
      ],
      [
        "Ġbar",
        -10.265442220799926
      ],
      [
        "Ġremote",
        -10.265676620075824
      ],
      [
        "Ġcredit",
        -10.266821340346963
      ],
      [
        "working",
        -10.267553516228446
      ],
      [
        "Ġamazing",
        -10.268929945255064
      ],
      [
        "Ġbond",
        -10.269866899002237
      ],
      [
        "Ġchapter",
        -10.270708723155458
      ],
      [
        "location",
        -10.27083332093996
      ],
      [
        "ĠKeep",
        -10.271216892380115
      ],
      [
        "Ġgenerator",
        -10.271322471716047
      ],
      [
        "late",
        -10.272241742291245
      ],
      [
        "Ġconducte",
        -10.273778639355626
      ],
      [
        "table",
        -10.274660034704226
      ],
      [
        "Ġeliminate",
        -10.275950974793323
      ],
      [
        "Ġheld",
        -10.27605778350377
      ],
      [
        "Ġbrough",
        -10.276318648767546
      ],
      [
        "Ġcoal",
        -10.27640455775267
      ],
      [
        "Ġcoming",
        -10.27652169465338
      ],
      [
        "Ġconsequence",
        -10.277616532894818
      ],
      [
        "Ġrace",
        -10.277743907051873
      ],
      [
        "Ġletter",
        -10.277815500983458
      ],
      [
        "ĠDog",
        -10.27782125889998
      ],
      [
        "Ġsend",
        -10.278174968444649
      ],
      [
        "Ġproducing",
        -10.278254884943223
      ],
      [
        "much",
        -10.279285443730917
      ],
      [
        "Ġenzyme",
        -10.279673214189494
      ],
      [
        "Ġengineer",
        -10.27986401333533
      ],
      [
        "rich",
        -10.279891928966013
      ],
      [
        "Ġofficial",
        -10.28011049371413
      ],
      [
        "Ġfear",
        -10.281728699334192
      ],
      [
        "Ġincorporate",
        -10.282363965729123
      ],
      [
        "Ġbutter",
        -10.282619446971024
      ],
      [
        "Ġfertilizer",
        -10.28278908738884
      ],
      [
        "think",
        -10.283352784190694
      ],
      [
        "Ġmeasured",
        -10.283449249797789
      ],
      [
        "Ġbee",
        -10.283475881200276
      ],
      [
        "Ġhighlight",
        -10.283592195038358
      ],
      [
        "call",
        -10.284259830084094
      ],
      [
        "ur",
        -10.284437377458575
      ],
      [
        "Ġtests",
        -10.284744349906628
      ],
      [
        "Ġshared",
        -10.285015627670369
      ],
      [
        "Ġcollege",
        -10.285277160872855
      ],
      [
        "Ġtransmission",
        -10.28530407062711
      ],
      [
        "Ġconfirm",
        -10.285428047535737
      ],
      [
        "Ġpound",
        -10.285655349563136
      ],
      [
        "ĠGod",
        -10.2866285599765
      ],
      [
        "Ġshowing",
        -10.28743922437903
      ],
      [
        "Ġinstrument",
        -10.287654891898264
      ],
      [
        "seeing",
        -10.288013092341886
      ],
      [
        "Ġestablish",
        -10.288365579723363
      ],
      [
        "Ġkidney",
        -10.288552960975348
      ],
      [
        "Ġlaser",
        -10.288589859867342
      ],
      [
        "group",
        -10.288741134949472
      ],
      [
        "Ġtrade",
        -10.289432642832525
      ],
      [
        "capabl",
        -10.289732212486252
      ],
      [
        "Ġmeasurement",
        -10.28983777024867
      ],
      [
        "-being",
        -10.289990062200124
      ],
      [
        "Ġtoilet",
        -10.29004489138299
      ],
      [
        "ĠSystem",
        -10.29304568828761
      ],
      [
        "Ġseven",
        -10.294336154237904
      ],
      [
        "Ġrapidly",
        -10.2960031855502
      ],
      [
        "Ġdental",
        -10.29615066090238
      ],
      [
        "Ġguideline",
        -10.296952040419942
      ],
      [
        "Ġuniverse",
        -10.297916710587945
      ],
      [
        "Ġprove",
        -10.298339608552247
      ],
      [
        "Ġcommitment",
        -10.298417700164135
      ],
      [
        "Ġleaf",
        -10.298679130456003
      ],
      [
        "Ġinflammation",
        -10.29891934963415
      ],
      [
        "Ġbulb",
        -10.299617712352106
      ],
      [
        "Ġradio",
        -10.29996285458597
      ],
      [
        "ooking",
        -10.30103354395277
      ],
      [
        "Ġprogramm",
        -10.301298414326403
      ],
      [
        "].",
        -10.301578502878671
      ],
      [
        "Ġapart",
        -10.30272208795184
      ],
      [
        "Ġnerve",
        -10.302746376662546
      ],
      [
        "Ġherb",
        -10.30395370015414
      ],
      [
        "Ġstock",
        -10.305023779802443
      ],
      [
        "Ġbarrier",
        -10.305286350069077
      ],
      [
        "elected",
        -10.305460458584296
      ],
      [
        "Ġrecovery",
        -10.306617281242378
      ],
      [
        "Ġsmoke",
        -10.306998082058012
      ],
      [
        "Ġcable",
        -10.30723253639772
      ],
      [
        "Ġconcrete",
        -10.307985835803365
      ],
      [
        "Ġlinked",
        -10.308222151029272
      ],
      [
        "Ġminimize",
        -10.309232218143126
      ],
      [
        "Ġexcess",
        -10.309961635176306
      ],
      [
        "cooling",
        -10.310635079428174
      ],
      [
        "Ġseek",
        -10.310725749035615
      ],
      [
        "Ġchronic",
        -10.31089116213519
      ],
      [
        "Ġspecialize",
        -10.3112074410071
      ],
      [
        "ating",
        -10.311751151063376
      ],
      [
        "Ġfille",
        -10.312941432206935
      ],
      [
        "Ġquantum",
        -10.313262045052523
      ],
      [
        "Ġconstruct",
        -10.313401095007237
      ],
      [
        "Thus",
        -10.313463300161455
      ],
      [
        "Ġwar",
        -10.313589622884932
      ],
      [
        "Ġbeauty",
        -10.313641772969651
      ],
      [
        "related",
        -10.31374101338671
      ],
      [
        "ĠJune",
        -10.313795487583905
      ],
      [
        "Ġratio",
        -10.31395427789898
      ],
      [
        "Ġskill",
        -10.314228807932924
      ],
      [
        "rhaps",
        -10.314375511682757
      ],
      [
        "ground",
        -10.314403795260189
      ],
      [
        "top",
        -10.315195531674416
      ],
      [
        "position",
        -10.315402761510969
      ],
      [
        "Ġstatus",
        -10.315446447466494
      ],
      [
        "Ġraise",
        -10.316341807579342
      ],
      [
        "Ġcalci",
        -10.316357929875124
      ],
      [
        "otherwise",
        -10.317371497847986
      ],
      [
        "weight",
        -10.318461833907683
      ],
      [
        "Ġderive",
        -10.318526988709262
      ],
      [
        "Ġdish",
        -10.318775689759898
      ],
      [
        "Â°C",
        -10.319445516159078
      ],
      [
        "Ġshade",
        -10.320701322128052
      ],
      [
        "Ġnews",
        -10.321696837191514
      ],
      [
        "Ġpanel",
        -10.322044035812146
      ],
      [
        "Ġcommunicate",
        -10.32463536778231
      ],
      [
        "Ġfixed",
        -10.32630319934276
      ],
      [
        "ted",
        -10.327184469655307
      ],
      [
        "Ġdrain",
        -10.327323490604602
      ],
      [
        "Ġattache",
        -10.327624995062646
      ],
      [
        "Ġhormone",
        -10.328567556650563
      ],
      [
        "Ġwheel",
        -10.328658796347892
      ],
      [
        "Ġstroke",
        -10.329498642648128
      ],
      [
        "Ġallergi",
        -10.329508048565518
      ],
      [
        "ĠJohn",
        -10.32955283077841
      ],
      [
        "Ġparticipants",
        -10.330359123931691
      ],
      [
        "Ġphotos",
        -10.330510892627483
      ],
      [
        "Ġrestaurant",
        -10.330826159270153
      ],
      [
        "carried",
        -10.33096332188254
      ],
      [
        "Ġpassage",
        -10.331716724896063
      ],
      [
        "Other",
        -10.33388217223606
      ],
      [
        "Ġstomach",
        -10.33433525673266
      ],
      [
        "Ġwound",
        -10.33560370227655
      ],
      [
        "see",
        -10.335655487807497
      ],
      [
        "Ġharm",
        -10.33601948530707
      ],
      [
        "Ġreplacement",
        -10.336139499226542
      ],
      [
        "Ġleaving",
        -10.336194678903304
      ],
      [
        "Ġdistribute",
        -10.336280337773877
      ],
      [
        "Ġreache",
        -10.336422072594708
      ],
      [
        "ĠLake",
        -10.33654872804153
      ],
      [
        "Ġshoes",
        -10.33704338671528
      ],
      [
        "Ġlibrary",
        -10.337630749024395
      ],
      [
        "Ġphysic",
        -10.338000046345222
      ],
      [
        "Ġrapid",
        -10.33825518207916
      ],
      [
        "ĠPlant",
        -10.3382939361407
      ],
      [
        "Ġoperat",
        -10.339288933821456
      ],
      [
        "...Ċ",
        -10.339570033737449
      ],
      [
        "room",
        -10.339594871788629
      ],
      [
        "ĠJuly",
        -10.339609479990498
      ],
      [
        "nce",
        -10.33996942459152
      ],
      [
        "ĠProgram",
        -10.340080487896609
      ],
      [
        "Ġemotion",
        -10.340121915060012
      ],
      [
        "Ġsell",
        -10.340151179420433
      ],
      [
        "ĠSaudi",
        -10.340240535540282
      ],
      [
        "Ġawareness",
        -10.340608235162904
      ],
      [
        "Ġprey",
        -10.340909295562296
      ],
      [
        "Ġbecom",
        -10.34091847062588
      ],
      [
        "Ġbrake",
        -10.341065731324337
      ],
      [
        "Ġblend",
        -10.341687629102909
      ],
      [
        "Ġcultural",
        -10.342532123122442
      ],
      [
        "ĠTechnology",
        -10.343144197364364
      ],
      [
        "stock",
        -10.344039743670724
      ],
      [
        "Only",
        -10.34458195542517
      ],
      [
        "-in",
        -10.344979795494677
      ],
      [
        "Ġstarts",
        -10.3458968200944
      ],
      [
        "Ġpercentage",
        -10.34594176433626
      ],
      [
        "Ġdescription",
        -10.3461769992489
      ],
      [
        "Ġcustom",
        -10.346714763202666
      ],
      [
        "Ġrocks",
        -10.34673984422289
      ],
      [
        "Ġcrop",
        -10.347160727528983
      ],
      [
        "\"The",
        -10.347341963164403
      ],
      [
        "Ġfirm",
        -10.347474370197409
      ],
      [
        "Ġexchange",
        -10.34750774215877
      ],
      [
        "Ġsports",
        -10.347680052913065
      ],
      [
        "ism",
        -10.348909013575824
      ],
      [
        "Ġkinds",
        -10.349254258948545
      ],
      [
        "Ġnice",
        -10.349731237777132
      ],
      [
        "Ġnutrition",
        -10.350861487655813
      ],
      [
        "Ġemployee",
        -10.351167984939323
      ],
      [
        "-friendl",
        -10.351270648243492
      ],
      [
        "Ġzero",
        -10.351439312879926
      ],
      [
        "Ġwhale",
        -10.352424785911552
      ],
      [
        "ĠCollege",
        -10.352470361881805
      ],
      [
        "Ġautomatic",
        -10.35273565287141
      ],
      [
        "wise",
        -10.35337208642457
      ],
      [
        "ones",
        -10.35352439455748
      ],
      [
        "Ġsensitive",
        -10.353714867485078
      ],
      [
        "Ġcareer",
        -10.35451582488996
      ],
      [
        "Ġappreciate",
        -10.35652409082138
      ],
      [
        "Ġpark",
        -10.35663766793985
      ],
      [
        "Ġbill",
        -10.357088700359164
      ],
      [
        "Ġprior",
        -10.357526207127565
      ],
      [
        "Ġlenses",
        -10.358385759863722
      ],
      [
        "Ġcoral",
        -10.35883186760368
      ],
      [
        "Ġlab",
        -10.359403541256054
      ],
      [
        "Ġmold",
        -10.360134044013098
      ],
      [
        "Ġequation",
        -10.36022754624717
      ],
      [
        "Ġchocolate",
        -10.362174948953946
      ],
      [
        "ĠGoogle",
        -10.36318519172785
      ],
      [
        "Ġworry",
        -10.3631911170673
      ],
      [
        "Ġrain",
        -10.363577531567088
      ],
      [
        "Ġcalm",
        -10.36569736322146
      ],
      [
        "Ġinspire",
        -10.366047861651944
      ],
      [
        "Ġprofessor",
        -10.366216184100672
      ],
      [
        "Ġplays",
        -10.366383405032112
      ],
      [
        "trained",
        -10.366387883074896
      ],
      [
        "Ġintegrate",
        -10.366706886744971
      ],
      [
        "Ġcopper",
        -10.36671179864128
      ],
      [
        "Ġaccept",
        -10.36816659390318
      ],
      [
        "ĠSan",
        -10.368969793284734
      ],
      [
        "Ġtitle",
        -10.369413138328834
      ],
      [
        "actions",
        -10.369616404433224
      ],
      [
        "ge",
        -10.369724388050114
      ],
      [
        "Ġpot",
        -10.370263407908134
      ],
      [
        "Ġscore",
        -10.370688014075457
      ],
      [
        "Ġtransform",
        -10.370927280251149
      ],
      [
        "Ġdecided",
        -10.371600898444528
      ],
      [
        "Ġroute",
        -10.371675424429403
      ],
      [
        "Ġsediment",
        -10.37188970105057
      ],
      [
        "New",
        -10.371986897738768
      ],
      [
        "Ġraw",
        -10.37305565714498
      ],
      [
        "Ġmixe",
        -10.374546844953803
      ],
      [
        "Ġshowe",
        -10.374842923939536
      ],
      [
        "space",
        -10.37521584112735
      ],
      [
        "Ġdiversity",
        -10.375528882905604
      ],
      [
        "ĠRe",
        -10.375735232441349
      ],
      [
        "power",
        -10.376970287507678
      ],
      [
        "Ġgrade",
        -10.37716796004751
      ],
      [
        "Ġdistinct",
        -10.377253202250468
      ],
      [
        "Ġfoster",
        -10.377334349682126
      ],
      [
        "Ġpossibl",
        -10.377345901654085
      ],
      [
        "Ġwhatever",
        -10.377561932112208
      ],
      [
        "including",
        -10.37761455250418
      ],
      [
        "Ġdecline",
        -10.3777349117509
      ],
      [
        "Ġsuper",
        -10.37806883153332
      ],
      [
        "Ġcloser",
        -10.378340316827243
      ],
      [
        "Ġcorn",
        -10.379079366542468
      ],
      [
        "Over",
        -10.38159439382541
      ],
      [
        "Ġalcohol",
        -10.38164510934456
      ],
      [
        "Ġexplor",
        -10.381982940453264
      ],
      [
        "Ġinnovative",
        -10.381996182019186
      ],
      [
        "Ġdetection",
        -10.382070797336825
      ],
      [
        "Ġreward",
        -10.382590446579671
      ],
      [
        "Ġlake",
        -10.384075917415675
      ],
      [
        "Ġpreparation",
        -10.384463993521797
      ],
      [
        "Ġexpress",
        -10.384968033279517
      ],
      [
        "Even",
        -10.385236595018617
      ],
      [
        "Ġexam",
        -10.385430236057717
      ],
      [
        "ĠAfrican",
        -10.38566448345546
      ],
      [
        "Ġrough",
        -10.385689065655228
      ],
      [
        "Ġdefine",
        -10.386561987170168
      ],
      [
        "could",
        -10.38739482482012
      ],
      [
        "ĠHave",
        -10.387644874332056
      ],
      [
        "Ġprices",
        -10.387788384789731
      ],
      [
        "ber",
        -10.388163582082733
      ],
      [
        "Ġstable",
        -10.388186839210842
      ],
      [
        "Ġencounter",
        -10.38859500400488
      ],
      [
        "Ġperforme",
        -10.3890024095856
      ],
      [
        "Ġdetermin",
        -10.38998942520854
      ],
      [
        "Ġtooth",
        -10.390182247965251
      ],
      [
        "so",
        -10.391533014138036
      ],
      [
        "Ġmanual",
        -10.391873367519516
      ],
      [
        "Ġperspective",
        -10.392299450770068
      ],
      [
        "ĠGuide",
        -10.393661052964289
      ],
      [
        "Ġmen",
        -10.395291649222274
      ],
      [
        "Ġbloom",
        -10.395326532301848
      ],
      [
        "marketing",
        -10.396227346241712
      ],
      [
        "ĠDoes",
        -10.396241364721687
      ],
      [
        "found",
        -10.397948936155943
      ],
      [
        "Ġpilot",
        -10.398093515117484
      ],
      [
        "Ġround",
        -10.398107145237391
      ],
      [
        "ties",
        -10.398377224100068
      ],
      [
        "facing",
        -10.398696940326577
      ],
      [
        "ĠBoth",
        -10.398772299062404
      ],
      [
        "Ġcomment",
        -10.398988350846183
      ],
      [
        "issue",
        -10.399398608539162
      ],
      [
        "Ġvector",
        -10.399456842372588
      ],
      [
        "Ġsufficient",
        -10.40206501967743
      ],
      [
        "Ġconversation",
        -10.402149615241054
      ],
      [
        "ĠFurther",
        -10.402811793825244
      ],
      [
        "ĠCO",
        -10.403434225175335
      ],
      [
        "Ġparticipate",
        -10.403988051447708
      ],
      [
        "mental",
        -10.40467720985176
      ],
      [
        "Ġloose",
        -10.40590426765174
      ],
      [
        "Ġsurvival",
        -10.407092789414325
      ],
      [
        "Ġconsumers",
        -10.407428120268
      ],
      [
        "order",
        -10.40847170335942
      ],
      [
        "Ġmask",
        -10.408904399663085
      ],
      [
        "Not",
        -10.410190780266824
      ],
      [
        "Ġtruck",
        -10.410683461410056
      ],
      [
        "Ġsouth",
        -10.410848019622074
      ],
      [
        "Ġones",
        -10.411033380403218
      ],
      [
        "base",
        -10.411148199327092
      ],
      [
        "Ġboil",
        -10.41146661816342
      ],
      [
        "Ġremov",
        -10.411507734516324
      ],
      [
        "Ġdelicious",
        -10.41212879844884
      ],
      [
        "Where",
        -10.412360769566137
      ],
      [
        "Ġthrive",
        -10.413001533131805
      ],
      [
        "Ġintervention",
        -10.41311835417894
      ],
      [
        "Ġdiscussed",
        -10.415353752064592
      ],
      [
        "ĠEast",
        -10.4161177074009
      ],
      [
        "Ġbroken",
        -10.416206273053684
      ],
      [
        "Ġbones",
        -10.416219022821764
      ],
      [
        "Ġabsolute",
        -10.416745936747043
      ],
      [
        "Ġbowl",
        -10.416949841455487
      ],
      [
        "Ġrespond",
        -10.416994393254807
      ],
      [
        "Ġweigh",
        -10.417420264151415
      ],
      [
        "go",
        -10.41841087765959
      ],
      [
        "Ġtight",
        -10.418891947646426
      ],
      [
        "Ġurban",
        -10.418944762980878
      ],
      [
        "un",
        -10.419023500078492
      ],
      [
        "ĠCounty",
        -10.4208015722361
      ],
      [
        "COVID",
        -10.420902473548445
      ],
      [
        "ble",
        -10.421765129265978
      ],
      [
        "ĠLED",
        -10.421774676045976
      ],
      [
        "Ġworse",
        -10.42198328124326
      ],
      [
        "Ġexcessive",
        -10.42206628292539
      ],
      [
        "ĠChines",
        -10.422092204011424
      ],
      [
        "Ġdefinite",
        -10.422261401553508
      ],
      [
        "Ġsex",
        -10.423404506423282
      ],
      [
        "Ġprompt",
        -10.423410917941563
      ],
      [
        "ĠOcto",
        -10.42351332200865
      ],
      [
        "ĠIndian",
        -10.423555476738258
      ],
      [
        "Ġsilver",
        -10.42388568445426
      ],
      [
        "Ġlose",
        -10.42415428758769
      ],
      [
        "Ġsegment",
        -10.425400222691636
      ],
      [
        "Ġpure",
        -10.425561557680314
      ],
      [
        "Ġthin",
        -10.425801285337725
      ],
      [
        "Ġdiamond",
        -10.425867914633727
      ],
      [
        "Ġjump",
        -10.426212703817022
      ],
      [
        "list",
        -10.426653705532612
      ],
      [
        "Ġpackage",
        -10.4278728441479
      ],
      [
        "Ġmanner",
        -10.428263726164708
      ],
      [
        "Ġdatabase",
        -10.428339304428963
      ],
      [
        "Ġlawn",
        -10.42873641468412
      ],
      [
        "ĠBrit",
        -10.429420684655852
      ],
      [
        "j",
        -10.42955282633585
      ],
      [
        "high",
        -10.429771337171836
      ],
      [
        "Ġflea",
        -10.429973390144388
      ],
      [
        "Ġgift",
        -10.43022450158436
      ],
      [
        "lack",
        -10.430596782754408
      ],
      [
        "Ġrandom",
        -10.431804169432318
      ],
      [
        "Ġroll",
        -10.432747868248844
      ],
      [
        "Ġbiggest",
        -10.432868876918342
      ],
      [
        "Just",
        -10.43287940101908
      ],
      [
        "Ġconfiden",
        -10.43299248724054
      ],
      [
        "Ġeating",
        -10.43349448278916
      ],
      [
        "ĠAdd",
        -10.433638047984772
      ],
      [
        "mm",
        -10.434210929704724
      ],
      [
        "Ġfelt",
        -10.434660495672588
      ],
      [
        "Ġreef",
        -10.43479584197314
      ],
      [
        "Ġtrip",
        -10.434982688538398
      ],
      [
        "Ġsand",
        -10.43576472133008
      ],
      [
        "Ġtoxic",
        -10.436070770919589
      ],
      [
        "Ġarrive",
        -10.436310203608333
      ],
      [
        "Ġtrend",
        -10.436364919589408
      ],
      [
        "wide",
        -10.436760693912646
      ],
      [
        "Ġwindows",
        -10.43693814072987
      ],
      [
        "Ġdiameter",
        -10.438809066871393
      ],
      [
        "important",
        -10.438914230585352
      ],
      [
        "Ġtraffic",
        -10.439116512739895
      ],
      [
        "Ġdimension",
        -10.439516595479432
      ],
      [
        "Ġcontract",
        -10.439756787965916
      ],
      [
        "Ġdirector",
        -10.44055532104015
      ],
      [
        "loss",
        -10.440706790414035
      ],
      [
        "culture",
        -10.441832950340904
      ],
      [
        "Ġhumidit",
        -10.442790837399787
      ],
      [
        "Ġfeedback",
        -10.443238104161974
      ],
      [
        "Ġinner",
        -10.443326936524231
      ],
      [
        "per",
        -10.443783804192206
      ],
      [
        "ĠJanuary",
        -10.44382951144319
      ],
      [
        "Ġworkshop",
        -10.444030609655057
      ],
      [
        "vity",
        -10.444559892444076
      ],
      [
        "Ġbigge",
        -10.444897325130782
      ],
      [
        "**",
        -10.444900540660438
      ],
      [
        "Ġrice",
        -10.445159615161929
      ],
      [
        "Ġ\\(",
        -10.445183025743496
      ],
      [
        "\"I",
        -10.445319708582703
      ],
      [
        "Ġmolecular",
        -10.445380030362356
      ],
      [
        "Ġpictures",
        -10.44578730801418
      ],
      [
        "Ġinjurie",
        -10.445851326155044
      ],
      [
        "Ġnuclear",
        -10.4459193042805
      ],
      [
        "Ġbegins",
        -10.446579814863275
      ],
      [
        "Ġpages",
        -10.446971489485763
      ],
      [
        "âĢľ",
        -10.447113971549058
      ],
      [
        "Ġcomput",
        -10.44720746607322
      ],
      [
        "Ġmeasurements",
        -10.447231298959611
      ],
      [
        "Ġpresentation",
        -10.447616262908388
      ],
      [
        "Ġcomparison",
        -10.44762741679871
      ],
      [
        "ask",
        -10.447798977164124
      ],
      [
        "Ġmountain",
        -10.447928512893304
      ],
      [
        "Ġshapes",
        -10.448742499052226
      ],
      [
        "ĠAssociation",
        -10.44908816283818
      ],
      [
        "Ġaccurac",
        -10.449474223530355
      ],
      [
        "Ġhunting",
        -10.449778142885917
      ],
      [
        "Ġsharp",
        -10.450079962319272
      ],
      [
        "Ġbroad",
        -10.450445940730267
      ],
      [
        "Ġimagine",
        -10.450651986655773
      ],
      [
        "Ġhabits",
        -10.45080065687984
      ],
      [
        "want",
        -10.45112346497492
      ],
      [
        "Ġsubstances",
        -10.451587192151663
      ],
      [
        "^",
        -10.452102395926556
      ],
      [
        "ions",
        -10.452364860911471
      ],
      [
        "Ġowner",
        -10.452991771198448
      ],
      [
        "ĠLook",
        -10.453240648469954
      ],
      [
        "ĠGreen",
        -10.453883070103966
      ],
      [
        "Ġuniversit",
        -10.45442572551678
      ],
      [
        "Share",
        -10.45528864412702
      ],
      [
        "Ġfamous",
        -10.45549341375618
      ],
      [
        "Ġaren",
        -10.455838767880092
      ],
      [
        "Ġintended",
        -10.456327626679917
      ],
      [
        "Ġagricultur",
        -10.456399590304263
      ],
      [
        "Ġtrust",
        -10.456991160944115
      ],
      [
        "Ġvaccine",
        -10.457888977273804
      ],
      [
        "crops",
        -10.45821688576444
      ],
      [
        "Ġcollaboration",
        -10.458863625394557
      ],
      [
        "Ġcareful",
        -10.459152301421836
      ],
      [
        "Ġrenewable",
        -10.459934663777004
      ],
      [
        "Ġworm",
        -10.461490508576397
      ],
      [
        "tion",
        -10.4616147656694
      ],
      [
        "Ġfinishe",
        -10.462057431159064
      ],
      [
        "Ġhidden",
        -10.462127201881916
      ],
      [
        "find",
        -10.463939850228948
      ],
      [
        "Ġmattress",
        -10.464057181434695
      ],
      [
        "aging",
        -10.464235875636003
      ],
      [
        "Ġrecording",
        -10.46551744466619
      ],
      [
        "ĠLike",
        -10.465815320235068
      ],
      [
        "Ġneuron",
        -10.465934494311211
      ],
      [
        "Ġapproache",
        -10.466276805596571
      ],
      [
        "AI",
        -10.466846671794109
      ],
      [
        "ĠHouse",
        -10.466903834614277
      ],
      [
        "site",
        -10.466951528521728
      ],
      [
        "Ġdiagram",
        -10.467663879116172
      ],
      [
        "ely",
        -10.467777364467889
      ],
      [
        "ruly",
        -10.467866475642268
      ],
      [
        "Ġvast",
        -10.468403354438436
      ],
      [
        "Ġclosed",
        -10.468747056958316
      ],
      [
        "Ġpar",
        -10.469055990165216
      ],
      [
        "change",
        -10.469415046082029
      ],
      [
        "ĠArt",
        -10.469512342319083
      ],
      [
        "Ġbreath",
        -10.469783185109078
      ],
      [
        "Fig",
        -10.470254567294148
      ],
      [
        "Ġsauce",
        -10.470261198873027
      ],
      [
        "Ġsurprise",
        -10.47070029016754
      ],
      [
        "Ġthi",
        -10.470727344150571
      ],
      [
        "Ġmassive",
        -10.471149996323051
      ],
      [
        "Ġnitrogen",
        -10.471268374104127
      ],
      [
        "Ġconsult",
        -10.471884710568355
      ],
      [
        "chosen",
        -10.47189684625296
      ],
      [
        "Ġworker",
        -10.472093606514726
      ],
      [
        "Ġauthors",
        -10.472229534927912
      ],
      [
        "Ġfix",
        -10.472513501674587
      ],
      [
        "Ġalter",
        -10.472692251951038
      ],
      [
        "Ġdedicate",
        -10.473141686552497
      ],
      [
        "Ġfunctional",
        -10.47359138935045
      ],
      [
        "Ġspeech",
        -10.47362802503691
      ],
      [
        "Ġvariable",
        -10.47388993352816
      ],
      [
        "ĠJapan",
        -10.474729268891204
      ],
      [
        "role",
        -10.474854311405135
      ],
      [
        "bilities",
        -10.475602302244631
      ],
      [
        "Ġstrengthen",
        -10.47585946825012
      ],
      [
        "Ġfamiliar",
        -10.476358802408464
      ],
      [
        "ear",
        -10.476423957763917
      ],
      [
        "Ġbelief",
        -10.476991953544808
      ],
      [
        "Ġmeals",
        -10.477192400174346
      ],
      [
        "ling",
        -10.47743835817542
      ],
      [
        "spread",
        -10.478007307939311
      ],
      [
        "Ġpresented",
        -10.47844898746328
      ],
      [
        "Ġinvestigate",
        -10.47858820121727
      ],
      [
        "Additional",
        -10.478817199447054
      ],
      [
        "etc",
        -10.479038041266868
      ],
      [
        "Ġmicrowave",
        -10.479601116422115
      ],
      [
        "Ġdepression",
        -10.480011262167285
      ],
      [
        "Ġnovel",
        -10.480561020722176
      ],
      [
        "learning",
        -10.480805841612776
      ],
      [
        "Ġscenario",
        -10.481080104785375
      ],
      [
        "Ġparallel",
        -10.48131335859766
      ],
      [
        "Ġsteam",
        -10.481373356200606
      ],
      [
        "He",
        -10.482723484966948
      ],
      [
        "Ġforget",
        -10.483007420374047
      ],
      [
        "Ġsudden",
        -10.483857479262966
      ],
      [
        "Ġnorth",
        -10.484481058042345
      ],
      [
        "Ġregulate",
        -10.484690365629984
      ],
      [
        "ĠMa",
        -10.484699757966649
      ],
      [
        "acific",
        -10.484752552695907
      ],
      [
        "Ġvalve",
        -10.485376916687176
      ],
      [
        "Ġspin",
        -10.485876693094555
      ],
      [
        "Ġbug",
        -10.486152621636004
      ],
      [
        "gave",
        -10.486175260313448
      ],
      [
        "Ġcircle",
        -10.486244210470192
      ],
      [
        "Ġattend",
        -10.487394552560172
      ],
      [
        "Ġpolicies",
        -10.487701341286323
      ],
      [
        "Ġremaining",
        -10.488266358673854
      ],
      [
        "Ġprofile",
        -10.48935586196081
      ],
      [
        "Ġcars",
        -10.489463245955442
      ],
      [
        "activity",
        -10.49047791118874
      ],
      [
        "Ġsales",
        -10.490536485210802
      ],
      [
        "source",
        -10.490661285668814
      ],
      [
        "Ġorganize",
        -10.490756520571068
      ],
      [
        "Ġtail",
        -10.49101298460385
      ],
      [
        "ĠDec",
        -10.491729638532956
      ],
      [
        "Ġfiles",
        -10.49209341202268
      ],
      [
        "Ġsold",
        -10.492419472273564
      ],
      [
        "q",
        -10.492726789078707
      ],
      [
        "Ġblade",
        -10.492769966058995
      ],
      [
        "ĠAugust",
        -10.49281391961344
      ],
      [
        "Ġborn",
        -10.492830974868244
      ],
      [
        "Ġwash",
        -10.4930634210372
      ],
      [
        "ĠTake",
        -10.493450455483252
      ],
      [
        "Ġexplains",
        -10.49408694923354
      ],
      [
        "Ġtrain",
        -10.49418795402742
      ],
      [
        "Ġdiagnose",
        -10.494258553631033
      ],
      [
        "hat",
        -10.494727584204515
      ],
      [
        "ware",
        -10.494765335488772
      ],
      [
        "Ġemploy",
        -10.495235915562835
      ],
      [
        "Ġbreeding",
        -10.495282109212429
      ],
      [
        "Ġwish",
        -10.495605176251466
      ],
      [
        "would",
        -10.495645372881452
      ],
      [
        "Ġcurve",
        -10.49610420551454
      ],
      [
        "Ġseeking",
        -10.496560570851456
      ],
      [
        "Ġjuice",
        -10.496943415157004
      ],
      [
        "Ġconflict",
        -10.497092877152534
      ],
      [
        "ĠCity",
        -10.498583807536656
      ],
      [
        "Ġinitiative",
        -10.4986235956657
      ],
      [
        "heat",
        -10.49869253473963
      ],
      [
        "Ġhandling",
        -10.498794037981398
      ],
      [
        "Ġexplanation",
        -10.4994823542922
      ],
      [
        "Ġinterior",
        -10.499824321620435
      ],
      [
        "Ġdiffer",
        -10.499974450107745
      ],
      [
        "ĠEnergy",
        -10.499993929468726
      ],
      [
        "Ġmutation",
        -10.500030441174058
      ],
      [
        "Keep",
        -10.5006711308417
      ],
      [
        "Ġbehaviour",
        -10.500680756705725
      ],
      [
        "ending",
        -10.50068449344398
      ],
      [
        "ĠTime",
        -10.5008073441336
      ],
      [
        "ĠPeople",
        -10.501808306708355
      ],
      [
        "Ġformation",
        -10.502192636849438
      ],
      [
        "full",
        -10.503605611835528
      ],
      [
        "holes",
        -10.503637101600107
      ],
      [
        "Ġhydrogen",
        -10.50377994788768
      ],
      [
        "Ġassociation",
        -10.504477669727107
      ],
      [
        "therapy",
        -10.50457372900891
      ],
      [
        "Ġillustrate",
        -10.50461850435036
      ],
      [
        "taking",
        -10.50487887634201
      ],
      [
        "Ġgarlic",
        -10.504958307481646
      ],
      [
        "ĠCheck",
        -10.505010269489844
      ],
      [
        "state",
        -10.50508333503462
      ],
      [
        "Ġcluster",
        -10.505259141585013
      ],
      [
        "ĠTwo",
        -10.506056364669906
      ],
      [
        "ĠGood",
        -10.50626831079542
      ],
      [
        "Ġsuffer",
        -10.506925201835628
      ],
      [
        "Ġpermanent",
        -10.507159731171493
      ],
      [
        "Ġdishe",
        -10.507237348110646
      ],
      [
        "Ġgadget",
        -10.50819267050472
      ],
      [
        "Ġgenome",
        -10.508414394037386
      ],
      [
        "ivity",
        -10.50881437958795
      ],
      [
        "twic",
        -10.509358695093034
      ],
      [
        "Ġguess",
        -10.509539627965315
      ],
      [
        "ĠGroup",
        -10.510400570429152
      ],
      [
        "after",
        -10.51040078828115
      ],
      [
        "Ġtrends",
        -10.51107927112029
      ],
      [
        "locations",
        -10.511350609676777
      ],
      [
        "Ġsides",
        -10.511515574290524
      ],
      [
        "act",
        -10.511531613992895
      ],
      [
        "technology",
        -10.512039860796229
      ],
      [
        "Ġrequest",
        -10.512936445768725
      ],
      [
        "Every",
        -10.512988162718536
      ],
      [
        "Ġinsurance",
        -10.513275370473863
      ],
      [
        "Ġpreserve",
        -10.513460137845566
      ],
      [
        "Ġdownload",
        -10.513893138839483
      ],
      [
        "Ġinstalle",
        -10.515123246870392
      ],
      [
        "need",
        -10.515867288738978
      ],
      [
        "Ġbread",
        -10.515926396200696
      ],
      [
        "ĠWhere",
        -10.516073452992517
      ],
      [
        "DNA",
        -10.517585967431284
      ],
      [
        "everyday",
        -10.517783832787812
      ],
      [
        "Ġsport",
        -10.518126971643076
      ],
      [
        "Ġmild",
        -10.5184462780491
      ],
      [
        "obesity",
        -10.519481137632056
      ],
      [
        "Ġclay",
        -10.519662519548358
      ],
      [
        "Ġgradual",
        -10.519663200931866
      ],
      [
        "Ġluck",
        -10.519962554092428
      ],
      [
        "Ġresident",
        -10.520233978566392
      ],
      [
        "off",
        -10.520446412471308
      ],
      [
        "Ġpeer",
        -10.521400950378672
      ],
      [
        "ĠDur",
        -10.522058097779835
      ],
      [
        "Ġturns",
        -10.522730769176553
      ],
      [
        "Ġsafet",
        -10.522732848098432
      ],
      [
        "reading",
        -10.522821500574842
      ],
      [
        "ages",
        -10.523781876906662
      ],
      [
        "Ġmilitar",
        -10.527452970614831
      ],
      [
        "Ġcontrolle",
        -10.527573552584276
      ],
      [
        "Ġdiagnosi",
        -10.528126111812416
      ],
      [
        "Ġacids",
        -10.528160855514995
      ],
      [
        "Each",
        -10.528746059821792
      ],
      [
        "`",
        -10.529276831515892
      ],
      [
        "ĠRed",
        -10.529279722855089
      ],
      [
        "ĠConsider",
        -10.529328112049043
      ],
      [
        "ĠIts",
        -10.530552798013586
      ],
      [
        "Ġbranch",
        -10.530591747253304
      ],
      [
        "Ġecosystem",
        -10.53059368494269
      ],
      [
        "Ġdanger",
        -10.530841526032567
      ],
      [
        "Ġnames",
        -10.53094179497004
      ],
      [
        "Ġopposite",
        -10.53127995219161
      ],
      [
        "Ġturning",
        -10.531933264409924
      ],
      [
        "Ġpolitical",
        -10.532398202497085
      ],
      [
        "st",
        -10.533174078192811
      ],
      [
        "Ġmobile",
        -10.53333597035014
      ],
      [
        "ĠII",
        -10.533496118589923
      ],
      [
        "ioxide",
        -10.534312551703763
      ],
      [
        "Ġtrouble",
        -10.534977381937416
      ],
      [
        "Ġfeather",
        -10.536028173225777
      ],
      [
        "Ġgoe",
        -10.536223459594192
      ],
      [
        "]Ċ",
        -10.537860636678849
      ],
      [
        "Ġdive",
        -10.537987625482945
      ],
      [
        "Â·",
        -10.538174169590176
      ],
      [
        "Ġzone",
        -10.538199908791348
      ],
      [
        "Als",
        -10.538595662330115
      ],
      [
        "Ġport",
        -10.53927691385294
      ],
      [
        "Ġcolleague",
        -10.539292510429627
      ],
      [
        ";Ċ",
        -10.539490933101415
      ],
      [
        "Ġemerge",
        -10.540454722700384
      ],
      [
        "Ġincreasingly",
        -10.54061622315518
      ],
      [
        "Ġindex",
        -10.541228233819265
      ],
      [
        "Ġseat",
        -10.54152452311778
      ],
      [
        "Ġam",
        -10.542316678217189
      ],
      [
        "Ġpartner",
        -10.543352151843616
      ],
      [
        "Ġfurniture",
        -10.543661678006467
      ],
      [
        "Ġarray",
        -10.544292447046011
      ],
      [
        "Ġmining",
        -10.544368903116665
      ],
      [
        "ĠSociety",
        -10.5447158013769
      ],
      [
        "Ġvegan",
        -10.545317366919807
      ],
      [
        "Ġantibiotic",
        -10.545868483817296
      ],
      [
        "\"We",
        -10.545939179920545
      ],
      [
        "Ġpress",
        -10.546559455228188
      ],
      [
        "Ġdelay",
        -10.546613625632949
      ],
      [
        "tell",
        -10.546685124201677
      ],
      [
        "Ġcement",
        -10.546815544233183
      ],
      [
        "Ġretain",
        -10.54749696499088
      ],
      [
        "fitness",
        -10.548670995884052
      ],
      [
        "Ġdespi",
        -10.548978960214654
      ],
      [
        "rol",
        -10.549001331206885
      ],
      [
        "Ġmainl",
        -10.549491412968418
      ],
      [
        "Ġmark",
        -10.5495367180534
      ],
      [
        "expertise",
        -10.54968534816103
      ],
      [
        "Ġknowing",
        -10.55022114115744
      ],
      [
        "ĠâĢ¦",
        -10.55112419623314
      ],
      [
        "Ġfair",
        -10.551302129631736
      ],
      [
        "ĠMedicine",
        -10.552035680276775
      ],
      [
        "ĠLife",
        -10.552083715475751
      ],
      [
        "Ġclassic",
        -10.552220042035714
      ],
      [
        "Ġtaught",
        -10.552603629964686
      ],
      [
        "Ġhappene",
        -10.552723954247288
      ],
      [
        "Ġthrow",
        -10.553459511868205
      ],
      [
        "Ġsecret",
        -10.554200455290497
      ],
      [
        "Ġevolve",
        -10.554740885328403
      ],
      [
        "Ġcards",
        -10.555063468197178
      ],
      [
        "Ġtransportation",
        -10.55590311573533
      ],
      [
        "Ġneck",
        -10.55602698189086
      ],
      [
        "Ġmetals",
        -10.55626972996606
      ],
      [
        "Ġspaces",
        -10.55665717218557
      ],
      [
        "Ġstream",
        -10.557200839637408
      ],
      [
        "Ġloop",
        -10.557557741384429
      ],
      [
        "ĠHis",
        -10.55760616387822
      ],
      [
        "Ġcopy",
        -10.557806138165889
      ],
      [
        "Ġlaborator",
        -10.558076218215652
      ],
      [
        "Ġaccessib",
        -10.558156918168564
      ],
      [
        "Ġcleaner",
        -10.558958565639175
      ],
      [
        "days",
        -10.559067109137205
      ],
      [
        "Ġprinting",
        -10.559256978706143
      ],
      [
        "ĠFebr",
        -10.559485946894364
      ],
      [
        "ĠKing",
        -10.559831378198748
      ],
      [
        "Ġweed",
        -10.560316864673172
      ],
      [
        "Ġillness",
        -10.560613428808516
      ],
      [
        "Ġstronge",
        -10.560791392666566
      ],
      [
        "Ġbean",
        -10.5624501834191
      ],
      [
        "><",
        -10.563579759431688
      ],
      [
        "Ġframework",
        -10.563938583069882
      ],
      [
        "Ġvideos",
        -10.56395857945908
      ],
      [
        "llowed",
        -10.56398222638239
      ],
      [
        "ĠGet",
        -10.564025179394282
      ],
      [
        "ĠData",
        -10.564080609957175
      ],
      [
        "active",
        -10.565226460049695
      ],
      [
        "Ġdivision",
        -10.565525736481504
      ],
      [
        "Ġmirror",
        -10.565979025263053
      ],
      [
        "example",
        -10.566337094714145
      ],
      [
        "Ġinsulation",
        -10.566413964043376
      ],
      [
        "Ġflying",
        -10.566822614557903
      ],
      [
        "Ġinfrastructure",
        -10.566984472678303
      ],
      [
        "Ġrobust",
        -10.567403713602012
      ],
      [
        "ĠLight",
        -10.567405741453491
      ],
      [
        "Ġintroduction",
        -10.567429941170944
      ],
      [
        "ĠJapanese",
        -10.570484182345794
      ],
      [
        "Ġhoney",
        -10.570600569020373
      ],
      [
        "she",
        -10.570798006135986
      ],
      [
        "Ġmovie",
        -10.571048862262082
      ],
      [
        "Ġcrystal",
        -10.571073239761027
      ],
      [
        "ful",
        -10.571648771160364
      ],
      [
        "Ġrotation",
        -10.573018513391991
      ],
      [
        "Ġunderlying",
        -10.573115268869492
      ],
      [
        "Ġmicro",
        -10.573992150986893
      ],
      [
        "Ġdu",
        -10.574197983396305
      ],
      [
        "Have",
        -10.574375999745676
      ],
      [
        "Ġplane",
        -10.575029824598998
      ],
      [
        "Ġwoman",
        -10.57525137304818
      ],
      [
        "Ġpan",
        -10.575579334193725
      ],
      [
        "say",
        -10.575834457103218
      ],
      [
        "Ġcheap",
        -10.576017714298477
      ],
      [
        "Ġmoved",
        -10.57608439835827
      ],
      [
        "Ġconventional",
        -10.576277337641226
      ],
      [
        "Ġguidance",
        -10.576436054211689
      ],
      [
        "Ġinstitution",
        -10.576608631512112
      ],
      [
        "Ġprocedures",
        -10.57689028380759
      ],
      [
        "Ġpipe",
        -10.576975584425137
      ],
      [
        "Ġpredators",
        -10.577390029147416
      ],
      [
        "loved",
        -10.57755035294269
      ],
      [
        "Ġdeposit",
        -10.578167644746216
      ],
      [
        "Ġde",
        -10.578806761262443
      ],
      [
        "Ġfather",
        -10.57905073801357
      ],
      [
        "Ġprotective",
        -10.57933489925166
      ],
      [
        "Ġstruggle",
        -10.57966455401792
      ],
      [
        "ĠAsia",
        -10.57992103196644
      ],
      [
        "Ġraised",
        -10.580267535987488
      ],
      [
        "Ġdebri",
        -10.581170750021352
      ],
      [
        "Ġappliance",
        -10.581274343072614
      ],
      [
        "ĠPower",
        -10.58171447075586
      ],
      [
        "Understanding",
        -10.582014259599308
      ],
      [
        "Ġcloud",
        -10.58232637536333
      ],
      [
        "Ġprovider",
        -10.582506375585536
      ],
      [
        "Ġhappening",
        -10.583083340240588
      ],
      [
        "Ġcorresponding",
        -10.584178566193865
      ],
      [
        "plant",
        -10.58423591873846
      ],
      [
        "formed",
        -10.584453247569144
      ],
      [
        "Ġvacuum",
        -10.5845868271554
      ],
      [
        "tic",
        -10.585079873298389
      ],
      [
        "Ġdairy",
        -10.585121884824474
      ],
      [
        "]ĊĊ",
        -10.58536174010678
      ],
      [
        "species",
        -10.58578854638982
      ],
      [
        "Ġbreathing",
        -10.586327290826286
      ],
      [
        "Ġaesthetic",
        -10.586439078290898
      ],
      [
        "ĠNature",
        -10.586831370153153
      ],
      [
        "TCG",
        -10.587203022276311
      ],
      [
        "Ġstain",
        -10.58725172425092
      ],
      [
        "Ġlift",
        -10.587350569765936
      ],
      [
        "Ġminute",
        -10.58777013811714
      ],
      [
        "Ġengaging",
        -10.588085267981208
      ],
      [
        "Don",
        -10.588481781600606
      ],
      [
        "orldwide",
        -10.588708367177585
      ],
      [
        "Ġserving",
        -10.58880289100561
      ],
      [
        "Ġequivalent",
        -10.589542189833338
      ],
      [
        "Ġcoil",
        -10.589631777897942
      ],
      [
        "ĠHome",
        -10.590804472487823
      ],
      [
        "Ġweak",
        -10.590985654018954
      ],
      [
        "house",
        -10.591036194139193
      ],
      [
        "science",
        -10.591189967560918
      ],
      [
        "ĠDevelopment",
        -10.591306045241062
      ],
      [
        "products",
        -10.591323895061414
      ],
      [
        "Ġmenu",
        -10.591771033728712
      ],
      [
        "Ġboundar",
        -10.59184213366543
      ],
      [
        "xciting",
        -10.592952349869996
      ],
      [
        "Ġbuffer",
        -10.593302736945798
      ],
      [
        "ĠAC",
        -10.593706192285277
      ],
      [
        "Ġfascinating",
        -10.59412339843573
      ],
      [
        "Ġresponsibilit",
        -10.59440109546192
      ],
      [
        "ought",
        -10.59485008992319
      ],
      [
        "Ġweld",
        -10.594853708952837
      ],
      [
        "Ġlarva",
        -10.595140143900023
      ],
      [
        "Ġassembl",
        -10.595478783732052
      ],
      [
        "Ġtradition",
        -10.59559874704198
      ],
      [
        "ically",
        -10.596003931663306
      ],
      [
        "machines",
        -10.59638397190936
      ],
      [
        "ĠRead",
        -10.596824506299647
      ],
      [
        "Ġresolution",
        -10.598227371131006
      ],
      [
        "Ġproduces",
        -10.598244302499404
      ],
      [
        "ĠIsrael",
        -10.598282014128962
      ],
      [
        "ĠNovember",
        -10.599888453818185
      ],
      [
        "Ġcompose",
        -10.600542326901715
      ],
      [
        "small",
        -10.60105554469754
      ],
      [
        "Ġimmun",
        -10.601090339504182
      ],
      [
        "Researchers",
        -10.602960910169354
      ],
      [
        "Ġswimming",
        -10.604353201320524
      ],
      [
        "Ġg",
        -10.604834237577917
      ],
      [
        "Ġworksheet",
        -10.607322211679724
      ],
      [
        "ĠAct",
        -10.607682151867202
      ],
      [
        "usually",
        -10.60778115530104
      ],
      [
        "Ġvelocity",
        -10.607983975418664
      ],
      [
        "ch",
        -10.60840198989353
      ],
      [
        "Ġinfect",
        -10.60861889232786
      ],
      [
        "Ġpink",
        -10.608831768486878
      ],
      [
        "Ġchamber",
        -10.609196489435837
      ],
      [
        "number",
        -10.60984138431218
      ],
      [
        "Ġfault",
        -10.610643741517888
      ],
      [
        "Ġbranche",
        -10.610690134131662
      ],
      [
        "Ġinteractive",
        -10.610733976561471
      ],
      [
        "Ġnose",
        -10.610845132008809
      ],
      [
        "Ġsubstantial",
        -10.611177960132707
      ],
      [
        ");",
        -10.611482910770436
      ],
      [
        "ĠFlorida",
        -10.612015397157515
      ],
      [
        "ĠBlue",
        -10.612061759620996
      ],
      [
        "Ġplus",
        -10.612269373581949
      ],
      [
        "Ġvibrant",
        -10.612837386711806
      ],
      [
        "Ġexplaine",
        -10.612872217623137
      ],
      [
        "itis",
        -10.612968599949646
      ],
      [
        "ĠSept",
        -10.613090933069008
      ],
      [
[...]
