{
  "version": "1.0",
  "truncation": null,
  "padding": null,
  "added_tokens": [
    {
      "id": 28462,
      "content": "UNKtokenbehere",
      "single_word": false,
      "lstrip": false,
      "rstrip": false,
      "normalized": false,
      "special": true
    },
    {
      "id": 28463,
      "content": "EOStokenbehere",
      "single_word": false,
      "lstrip": false,
      "rstrip": false,
      "normalized": false,
      "special": true
    },
    {
      "id": 28464,
      "content": "PADtokenbehere",
      "single_word": false,
      "lstrip": false,
      "rstrip": false,
      "normalized": false,
      "special": true
    },
    {
      "id": 28465,
      "content": "CLStokenbehere",
      "single_word": false,
      "lstrip": false,
      "rstrip": false,
      "normalized": false,
      "special": true
    },
    {
      "id": 28466,
      "content": "SEPtokenbehere",
      "single_word": false,
      "lstrip": false,
      "rstrip": false,
      "normalized": false,
      "special": true
    },
    {
      "id": 28467,
      "content": "MASKtokenbehere",
      "single_word": false,
      "lstrip": false,
      "rstrip": false,
      "normalized": false,
      "special": true
    }
  ],
  "normalizer": null,
  "pre_tokenizer": {
    "type": "ByteLevel",
    "add_prefix_space": false,
    "trim_offsets": true,
    "use_regex": true
  },
  "post_processor": null,
  "decoder": null,
  "model": {
    "type": "Unigram",
    "unk_id": null,
    "vocab": [
      [
        "Ġmonastery",
        -1.0
      ],
      [
        "ĠPattern",
        -1.0
      ],
      [
        "Ġessentially",
        -1.0
      ],
      [
        "rain",
        -1.0
      ],
      [
        "ĠRobbins",
        -1.0
      ],
      [
        "TB",
        -1.0
      ],
      [
        "Ġutilizing",
        -1.0
      ],
      [
        "Ġaccompanying",
        -1.0
      ],
      [
        "Ġanxieties",
        -1.0
      ],
      [
        "Ġrear",
        -1.0
      ],
      [
        "processed",
        -1.0
      ],
      [
        "ĠAcrobat",
        -1.0
      ],
      [
        "Ġwinding",
        -1.0
      ],
      [
        "Ġwages",
        -1.0
      ],
      [
        "Tropical",
        -1.0
      ],
      [
        "Ġmigrations",
        -1.0
      ],
      [
        "Last",
        -1.0
      ],
      [
        "Ġdiscovering",
        -1.0
      ],
      [
        "Ġmoon",
        -1.0
      ],
      [
        "Ġcondoms",
        -1.0
      ],
      [
        "Ġchecked",
        -1.0
      ],
      [
        "Ġincarceration",
        -1.0
      ],
      [
        "ating",
        -1.0
      ],
      [
        "joined",
        -1.0
      ],
      [
        "Broad",
        -1.0
      ],
      [
        "Ġ1925",
        -1.0
      ],
      [
        "manship",
        -1.0
      ],
      [
        "ĠBasics",
        -1.0
      ],
      [
        "ĠDecision",
        -1.0
      ],
      [
        "Ġamazed",
        -1.0
      ],
      [
        "ĠZone",
        -1.0
      ],
      [
        "Ġmanagement",
        -1.0
      ],
      [
        "correct",
        -1.0
      ],
      [
        "Ġchestnut",
        -1.0
      ],
      [
        "Ġimagine",
        -1.0
      ],
      [
        "hibition",
        -1.0
      ],
      [
        "Yet",
        -1.0
      ],
      [
        "ĠBus",
        -1.0
      ],
      [
        "Ġchallenges",
        -1.0
      ],
      [
        "cycling",
        -1.0
      ],
      [
        "Ġproximity",
        -1.0
      ],
      [
        "Ġthief",
        -1.0
      ],
      [
        "Ġthinks",
        -1.0
      ],
      [
        "Cultural",
        -1.0
      ],
      [
        "Ġblooms",
        -1.0
      ],
      [
        "ĠChange",
        -1.0
      ],
      [
        "ĠPasadena",
        -1.0
      ],
      [
        "ĠIslam",
        -1.0
      ],
      [
        "Ġdiocesan",
        -1.0
      ],
      [
        "Ġphysics",
        -1.0
      ],
      [
        "MYTH",
        -1.0
      ],
      [
        "lit",
        -1.0
      ],
      [
        "Ġfurnish",
        -1.0
      ],
      [
        "ĠFive",
        -1.0
      ],
      [
        "Ġcrack",
        -1.0
      ],
      [
        "ri",
        -1.0
      ],
      [
        "ĠRestoration",
        -1.0
      ],
      [
        "Ġstrand",
        -1.0
      ],
      [
        "Ġcollagen",
        -1.0
      ],
      [
        "Ġclimbed",
        -1.0
      ],
      [
        "had",
        -1.0
      ],
      [
        "Ġpelvic",
        -1.0
      ],
      [
        "Ġlocation",
        -1.0
      ],
      [
        "Ġsupplemental",
        -1.0
      ],
      [
        "Who",
        -1.0
      ],
      [
        "BP",
        -1.0
      ],
      [
        "Ġcloned",
        -1.0
      ],
      [
        "ceptible",
        -1.0
      ],
      [
        "Ġentire",
        -1.0
      ],
      [
        "Ġ51",
        -1.0
      ],
      [
        "Ġanalog",
        -1.0
      ],
      [
        "Ġphysical",
        -1.0
      ],
      [
        "ĠMongolia",
        -1.0
      ],
      [
        "ĠPhysical",
        -1.0
      ],
      [
        "Ġtarget",
        -1.0
      ],
      [
        "Level",
        -1.0
      ],
      [
        "Ġdisproportionate",
        -1.0
      ],
      [
        "ĠStanford",
        -1.0
      ],
      [
        "tale",
        -1.0
      ],
      [
        "Ġmechanical",
        -1.0
      ],
      [
        "Ġreproductive",
        -1.0
      ],
      [
        "Ġtheatre",
        -1.0
      ],
      [
        "Ġviable",
        -1.0
      ],
      [
        "ĠAlphabet",
        -1.0
      ],
      [
        "Ġentropy",
        -1.0
      ],
      [
        "Ġjail",
        -1.0
      ],
      [
        "ation",
        -1.0
      ],
      [
        "Ġholder",
        -1.0
      ],
      [
        "Ġexpansion",
        -1.0
      ],
      [
        "Ġbest",
        -1.0
      ],
      [
        "Ġbelligerent",
        -1.0
      ],
      [
        "Ġdistortion",
        -1.0
      ],
      [
        "Ġunfair",
        -1.0
      ],
      [
        "Ġthirteenth",
        -1.0
      ],
      [
        "Ġnotions",
        -1.0
      ],
      [
        "Ġreceiving",
        -1.0
      ],
      [
        "Ġmixtures",
        -1.0
      ],
      [
        "Bal",
        -1.0
      ],
      [
        "Ġsecondhand",
        -1.0
      ],
      [
        "Ġsimplest",
        -1.0
      ],
      [
        "Ġthwart",
        -1.0
      ],
      [
        "Art",
        -1.0
      ],
      [
        "ĠTropical",
        -1.0
      ],
      [
        "Ġhonor",
        -1.0
      ],
      [
        "ĠCharacteristics",
        -1.0
      ],
      [
        "ĠAustralopithecus",
        -1.0
      ],
      [
        "Ġbuoy",
        -1.0
      ],
      [
        "Ġicy",
        -1.0
      ],
      [
        "enberg",
        -1.0
      ],
      [
        "Ġmechanisms",
        -1.0
      ],
      [
        "laid",
        -1.0
      ],
      [
        "ĠDwarf",
        -1.0
      ],
      [
        "Ġsealing",
        -1.0
      ],
      [
        "Ġben",
        -1.0
      ],
      [
        "Ġorganized",
        -1.0
      ],
      [
        "ĠNov",
        -1.0
      ],
      [
        "Ġindustrialized",
        -1.0
      ],
      [
        "Ġvaries",
        -1.0
      ],
      [
        "imum",
        -1.0
      ],
      [
        "ĠMali",
        -1.0
      ],
      [
        "Ġchain",
        -1.0
      ],
      [
        "Ġbuffalo",
        -1.0
      ],
      [
        "Ġscanned",
        -1.0
      ],
      [
        "Ġrested",
        -1.0
      ],
      [
        "ĠAny",
        -1.0
      ],
      [
        "opsis",
        -1.0
      ],
      [
        "Citation",
        -1.0
      ],
      [
        "tooth",
        -1.0
      ],
      [
        ".[",
        -1.0
      ],
      [
        "ient",
        -1.0
      ],
      [
        "OT",
        -1.0
      ],
      [
        "Ġtermed",
        -1.0
      ],
      [
        "Ġpercentile",
        -1.0
      ],
      [
        "Ġcoil",
        -1.0
      ],
      [
        "ĠNS",
        -1.0
      ],
      [
        "Ġcarefully",
        -1.0
      ],
      [
        "Ġtechnique",
        -1.0
      ],
      [
        "Ġabbreviations",
        -1.0
      ],
      [
        "ĠSandy",
        -1.0
      ],
      [
        "ĠPRO",
        -1.0
      ],
      [
        "Ġmainly",
        -1.0
      ],
      [
        "Ex",
        -1.0
      ],
      [
        "Ġpropel",
        -1.0
      ],
      [
        "Ġassessing",
        -1.0
      ],
      [
        "ĠBrief",
        -1.0
      ],
      [
        "Ġextremes",
        -1.0
      ],
      [
        "ĠParties",
        -1.0
      ],
      [
        "Ġdefended",
        -1.0
      ],
      [
        "Ġdancers",
        -1.0
      ],
      [
        "Ġendometriosis",
        -1.0
      ],
      [
        "Ġtempted",
        -1.0
      ],
      [
        "ĠEerdmans",
        -1.0
      ],
      [
        "ĠChart",
        -1.0
      ],
      [
        "ĠReconnaissance",
        -1.0
      ],
      [
        "Ġdonations",
        -1.0
      ],
      [
        "Scott",
        -1.0
      ],
      [
        "Ġlandscape",
        -1.0
      ],
      [
        "Sec",
        -1.0
      ],
      [
        "á¸",
        -1.0
      ],
      [
        "Ġextraction",
        -1.0
      ],
      [
        "Ġcompiled",
        -1.0
      ],
      [
        "ĠVar",
        -1.0
      ],
      [
        "Ġcage",
        -1.0
      ],
      [
        "Ġadopt",
        -1.0
      ],
      [
        "ĠConventions",
        -1.0
      ],
      [
        "Ġ1983",
        -1.0
      ],
      [
        "Ġseven",
        -1.0
      ],
      [
        "Ġenlightenment",
        -1.0
      ],
      [
        "Ġtorch",
        -1.0
      ],
      [
        "Ġastronomy",
        -1.0
      ],
      [
        "Ġhijack",
        -1.0
      ],
      [
        "care",
        -1.0
      ],
      [
        "ĠFibonacci",
        -1.0
      ],
      [
        "Ġpurported",
        -1.0
      ],
      [
        "23",
        -1.0
      ],
      [
        "Ġneurons",
        -1.0
      ],
      [
        "ĠAV",
        -1.0
      ],
      [
        "ĠCarson",
        -1.0
      ],
      [
        "product",
        -1.0
      ],
      [
        "establish",
        -1.0
      ],
      [
        "Ġfollowing",
        -1.0
      ],
      [
        "ĠWould",
        -1.0
      ],
      [
        "ĠSeal",
        -1.0
      ],
      [
        "ĠEST",
        -1.0
      ],
      [
        "Stage",
        -1.0
      ],
      [
        "entry",
        -1.0
      ],
      [
        "Ġlent",
        -1.0
      ],
      [
        "ĠIG",
        -1.0
      ],
      [
        "ĠADHD",
        -1.0
      ],
      [
        "Ġsusceptible",
        -1.0
      ],
      [
        "ĠMall",
        -1.0
      ],
      [
        "ĠGrass",
        -1.0
      ],
      [
        "ĠShan",
        -1.0
      ],
      [
        "Ġdemand",
        -1.0
      ],
      [
        "ĠEx",
        -1.0
      ],
      [
        "Ġunacceptable",
        -1.0
      ],
      [
        "Ġintimacy",
        -1.0
      ],
      [
        "Ġpetition",
        -1.0
      ],
      [
        "ĠProjects",
        -1.0
      ],
      [
        "Ġmetabolism",
        -1.0
      ],
      [
        "Ġplaster",
        -1.0
      ],
      [
        "Ġrefugees",
        -1.0
      ],
      [
        "Ġinterviewed",
        -1.0
      ],
      [
        "Ġminimized",
        -1.0
      ],
      [
        "Animal",
        -1.0
      ],
      [
        "Ġregimen",
        -1.0
      ],
      [
        "Ġtwist",
        -1.0
      ],
      [
        "Ġdeployed",
        -1.0
      ],
      [
        "Ġion",
        -1.0
      ],
      [
        "Ġ1893",
        -1.0
      ],
      [
        "Ġbreeze",
        -1.0
      ],
      [
        "Ġpets",
        -1.0
      ],
      [
        "piece",
        -1.0
      ],
      [
        "ĠÃī",
        -1.0
      ],
      [
        "Ġhandwriting",
        -1.0
      ],
      [
        "religious",
        -1.0
      ],
      [
        "lim",
        -1.0
      ],
      [
        "Ġdowry",
        -1.0
      ],
      [
        "Ġowe",
        -1.0
      ],
      [
        "Ġhook",
        -1.0
      ],
      [
        "Ġrecourse",
        -1.0
      ],
      [
        "ae",
        -1.0
      ],
      [
        "Ġcurves",
        -1.0
      ],
      [
        "ĠSoft",
        -1.0
      ],
      [
        "Ġrecalls",
        -1.0
      ],
      [
        "ĠArtists",
        -1.0
      ],
      [
        "ĠSpain",
        -1.0
      ],
      [
        "Ġramifications",
        -1.0
      ],
      [
        "Ġpods",
        -1.0
      ],
      [
        "ĠBasilica",
        -1.0
      ],
      [
        "ĠReferences",
        -1.0
      ],
      [
        "ĠCecil",
        -1.0
      ],
      [
        "Ġblade",
        -1.0
      ],
      [
        "Ġseawater",
        -1.0
      ],
      [
        "Ġvoter",
        -1.0
      ],
      [
        "ical",
        -1.0
      ],
      [
        "Ġdealers",
        -1.0
      ],
      [
        "ĠColorado",
        -1.0
      ],
      [
        "Ġconditioned",
        -1.0
      ],
      [
        "write",
        -1.0
      ],
      [
        "pan",
        -1.0
      ],
      [
        "First",
        -1.0
      ],
      [
        "Record",
        -1.0
      ],
      [
        "Subject",
        -1.0
      ],
      [
        "ĠMagazine",
        -1.0
      ],
      [
        "Ġsatisfactory",
        -1.0
      ],
      [
        "shadow",
        -1.0
      ],
      [
        "ĠDigestive",
        -1.0
      ],
      [
        "Ġregimes",
        -1.0
      ],
      [
        "Sat",
        -1.0
      ],
      [
        "ĠEvolutionary",
        -1.0
      ],
      [
        "ĠDebate",
        -1.0
      ],
      [
        "April",
        -1.0
      ],
      [
        "Os",
        -1.0
      ],
      [
        "Ġconstructed",
        -1.0
      ],
      [
        "Ġdisadvantages",
        -1.0
      ],
      [
        "08",
        -1.0
      ],
      [
        "ĠAdministrative",
        -1.0
      ],
      [
        "Ġburns",
        -1.0
      ],
      [
        "Ġgenuinely",
        -1.0
      ],
      [
        "Ġcelestial",
        -1.0
      ],
      [
        "Ġcoffee",
        -1.0
      ],
      [
        "Ġfeeders",
        -1.0
      ],
      [
        "ĠCall",
        -1.0
      ],
      [
        "Love",
        -1.0
      ],
      [
        "Ġpity",
        -1.0
      ],
      [
        "ĠNever",
        -1.0
      ],
      [
        "Ġhence",
        -1.0
      ],
      [
        "legal",
        -1.0
      ],
      [
        "Ġvisitor",
        -1.0
      ],
      [
        "Ġunconstitutional",
        -1.0
      ],
      [
        "SOURCE",
        -1.0
      ],
      [
        "Ġholders",
        -1.0
      ],
      [
        "ĠUnits",
        -1.0
      ],
      [
        "Ġtennis",
        -1.0
      ],
      [
        "Ġslowed",
        -1.0
      ],
      [
        "BI",
        -1.0
      ],
      [
        "Ġkeeper",
        -1.0
      ],
      [
        "Ġseafood",
        -1.0
      ],
      [
        "Ġpediatric",
        -1.0
      ],
      [
        "Ġhabitat",
        -1.0
      ],
      [
        "Ġlinguistics",
        -1.0
      ],
      [
        "Ġlymphoma",
        -1.0
      ],
      [
        "Ġartillery",
        -1.0
      ],
      [
        "Ġoperate",
        -1.0
      ],
      [
        "Ġunquestion",
        -1.0
      ],
      [
        "ĠPalestinians",
        -1.0
      ],
      [
        "Ġcorporate",
        -1.0
      ],
      [
        "Ġphotographs",
        -1.0
      ],
      [
        "Mor",
        -1.0
      ],
      [
        "Ġscattering",
        -1.0
      ],
      [
        "ĠArchbishop",
        -1.0
      ],
      [
        "Ġsmiling",
        -1.0
      ],
      [
        "Ġpor",
        -1.0
      ],
      [
        "Ġascribed",
        -1.0
      ],
      [
        "Ġmechanism",
        -1.0
      ],
      [
        "Ġmigraines",
        -1.0
      ],
      [
        "Ġruler",
        -1.0
      ],
      [
        "Ġalignment",
        -1.0
      ],
      [
        "uch",
        -1.0
      ],
      [
        "Ġdisappointment",
        -1.0
      ],
      [
        "ĠIUCN",
        -1.0
      ],
      [
        "Ġfresco",
        -1.0
      ],
      [
        "Ġproximal",
        -1.0
      ],
      [
        "14",
        -1.0
      ],
      [
        "Ġentity",
        -1.0
      ],
      [
        "Ġscans",
        -1.0
      ],
      [
        "Ġplenty",
        -1.0
      ],
      [
        "Ġmobile",
        -1.0
      ],
      [
        "ĠRhodes",
        -1.0
      ],
      [
        "Media",
        -1.0
      ],
      [
        "Ġminutes",
        -1.0
      ],
      [
        "Ġdirectories",
        -1.0
      ],
      [
        "Ġproduct",
        -1.0
      ],
      [
        "ĠVM",
        -1.0
      ],
      [
        "ĠWelfare",
        -1.0
      ],
      [
        "Ġboosts",
        -1.0
      ],
      [
        "Ġpredominate",
        -1.0
      ],
      [
        "sel",
        -1.0
      ],
      [
        "ĠPeople",
        -1.0
      ],
      [
        "Ġdrafting",
        -1.0
      ],
      [
        "Ġeg",
        -1.0
      ],
      [
        "rin",
        -1.0
      ],
      [
        "Ġsearching",
        -1.0
      ],
      [
        "ĠBarack",
        -1.0
      ],
      [
        "ĠSurviv",
        -1.0
      ],
      [
        "Ġcharged",
        -1.0
      ],
      [
        "ga",
        -1.0
      ],
      [
        "Ġaversion",
        -1.0
      ],
      [
        "ĠDepartment",
        -1.0
      ],
      [
        "Ġquantify",
        -1.0
      ],
      [
        "cke",
        -1.0
      ],
      [
        "Ġaggregation",
        -1.0
      ],
      [
        "Ġpaleo",
        -1.0
      ],
      [
        "Ġtuberculosis",
        -1.0
      ],
      [
        "ĠActivity",
        -1.0
      ],
      [
        "star",
        -1.0
      ],
      [
        "Ġsporting",
        -1.0
      ],
      [
        "Ġwit",
        -1.0
      ],
      [
        "Ġliterature",
        -1.0
      ],
      [
        "Ġimports",
        -1.0
      ],
      [
        "Ġinsists",
        -1.0
      ],
      [
        "Ġcalculate",
        -1.0
      ],
      [
        "FP",
        -1.0
      ],
      [
        "ĠGreen",
        -1.0
      ],
      [
        "ĠUlster",
        -1.0
      ],
      [
        "Ġhandful",
        -1.0
      ],
      [
        "ĠDSM",
        -1.0
      ],
      [
        "os",
        -1.0
      ],
      [
        "Ġabsurd",
        -1.0
      ],
      [
        "based",
        -1.0
      ],
      [
        "Ġsyndrome",
        -1.0
      ],
      [
        "Ġbuilder",
        -1.0
      ],
      [
        "ĠDemocrats",
        -1.0
      ],
      [
        "ĠBor",
        -1.0
      ],
      [
        "Ġimporting",
        -1.0
      ],
      [
        "ĠPOW",
        -1.0
      ],
      [
        "Ġlistening",
        -1.0
      ],
      [
        "Anyone",
        -1.0
      ],
      [
        "Ġoutside",
        -1.0
      ],
      [
        "god",
        -1.0
      ],
      [
        "ĠColumbus",
        -1.0
      ],
      [
        "Ġarmour",
        -1.0
      ],
      [
        "ĠLao",
        -1.0
      ],
      [
        "ĠLu",
        -1.0
      ],
      [
        "ett",
        -1.0
      ],
      [
        "Ġ1795",
        -1.0
      ],
      [
        "equal",
        -1.0
      ],
      [
        "along",
        -1.0
      ],
      [
        "Ġreads",
        -1.0
      ],
      [
        "Ġthere",
        -1.0
      ],
      [
        "Ġlatitude",
        -1.0
      ],
      [
        "Ġdoctrine",
        -1.0
      ],
      [
        "Ġwarnings",
        -1.0
      ],
      [
        "Ġfiber",
        -1.0
      ],
      [
        "Ġmisunderstood",
        -1.0
      ],
      [
        "About",
        -1.0
      ],
      [
        "Ġenemy",
        -1.0
      ],
      [
        "ĠBoston",
        -1.0
      ],
      [
        "Ġsupporters",
        -1.0
      ],
      [
        "Ko",
        -1.0
      ],
      [
        "Ġvaluable",
        -1.0
      ],
      [
        "Ġbat",
        -1.0
      ],
      [
        "friend",
        -1.0
      ],
      [
        "Ġsubjective",
        -1.0
      ],
      [
        "Ġwaterproof",
        -1.0
      ],
      [
        "giving",
        -1.0
      ],
      [
        "Ġsank",
        -1.0
      ],
      [
        "Ġexplosions",
        -1.0
      ],
      [
        "Ġhealthful",
        -1.0
      ],
      [
        "Ġapproval",
        -1.0
      ],
      [
        "Ġfilm",
        -1.0
      ],
      [
        "Ġpreserves",
        -1.0
      ],
      [
        "ĠBio",
        -1.0
      ],
      [
        "ARS",
        -1.0
      ],
      [
        "ĠKhartoum",
        -1.0
      ],
      [
        "ĠJacobs",
        -1.0
      ],
      [
        "Ġrouted",
        -1.0
      ],
      [
        "Ġdefenses",
        -1.0
      ],
      [
        "elli",
        -1.0
      ],
      [
        "ĠLithuania",
        -1.0
      ],
      [
        "ĠJen",
        -1.0
      ],
      [
        "Ġretire",
        -1.0
      ],
      [
        "Ġ1940",
        -1.0
      ],
      [
        "118",
        -1.0
      ],
      [
        "ĠAllergy",
        -1.0
      ],
      [
        "Ġ1855",
        -1.0
      ],
      [
        "Ġcraft",
        -1.0
      ],
      [
        "Ġinserts",
        -1.0
      ],
      [
        "Columbia",
        -1.0
      ],
      [
        "Ġchassis",
        -1.0
      ],
      [
        "Ġexpectations",
        -1.0
      ],
      [
        "Something",
        -1.0
      ],
      [
        "Ġships",
        -1.0
      ],
      [
        "Ġnocturnal",
        -1.0
      ],
      [
        "Ġjustification",
        -1.0
      ],
      [
        "ĠPharisees",
        -1.0
      ],
      [
        "Ġfairness",
        -1.0
      ],
      [
        "Ġminority",
        -1.0
      ],
      [
        "Ġneutrino",
        -1.0
      ],
      [
        "Ġunintentional",
        -1.0
      ],
      [
        "Ġuncorrected",
        -1.0
      ],
      [
        "ĠInvestment",
        -1.0
      ],
      [
        "ĠKidney",
        -1.0
      ],
      [
        "ĠPh",
        -1.0
      ],
      [
        "Ġtongue",
        -1.0
      ],
      [
        "Ġscientific",
        -1.0
      ],
      [
        "Baby",
        -1.0
      ],
      [
        "ĠCensus",
        -1.0
      ],
      [
        "Ġkillings",
        -1.0
      ],
      [
        "ĠExpedition",
        -1.0
      ],
      [
        "Ġmarital",
        -1.0
      ],
      [
        "Ġcreatinine",
        -1.0
      ],
      [
        "Ġordering",
        -1.0
      ],
      [
        "Ġcursor",
        -1.0
      ],
      [
        "Ġimpacting",
        -1.0
      ],
      [
        "Ġcases",
        -1.0
      ],
      [
        "Ġnewer",
        -1.0
      ],
      [
        "Ġkiln",
        -1.0
      ],
      [
        "Ġreadiness",
        -1.0
      ],
      [
        "Ġroyal",
        -1.0
      ],
      [
        "ĠRoss",
        -1.0
      ],
      [
        "Ġscanning",
        -1.0
      ],
      [
        "Ġhandbook",
        -1.0
      ],
      [
        "Ġhost",
        -1.0
      ],
      [
        "Ġhose",
        -1.0
      ],
      [
        "Ġneo",
        -1.0
      ],
      [
        "Ġracism",
        -1.0
      ],
      [
        "à¤",
        -1.0
      ],
      [
        "Ġeggs",
        -1.0
      ],
      [
        "IT",
        -1.0
      ],
      [
        "nucleotide",
        -1.0
      ],
      [
        "Ġsymbolic",
        -1.0
      ],
      [
        "Ġpeat",
        -1.0
      ],
      [
        "Ġauthoritarian",
        -1.0
      ],
      [
        "Ġshalt",
        -1.0
      ],
      [
        "Ġscrub",
        -1.0
      ],
      [
        "Ġmeasuring",
        -1.0
      ],
      [
        "fiction",
        -1.0
      ],
      [
        "Ġpolio",
        -1.0
      ],
      [
        "Ġowner",
        -1.0
      ],
      [
        "Ġsynchron",
        -1.0
      ],
      [
        "ĠGERD",
        -1.0
      ],
      [
        "Ġoppressed",
        -1.0
      ],
      [
        "Ġhorizon",
        -1.0
      ],
      [
        "Ġof",
        -1.0
      ],
      [
        "Ġeclectic",
        -1.0
      ],
      [
        "Ġadvertisements",
        -1.0
      ],
      [
        "1902",
        -1.0
      ],
      [
        "Ġmothers",
        -1.0
      ],
      [
        "ĠBerlin",
        -1.0
      ],
      [
        "Ġsharing",
        -1.0
      ],
      [
        "Ġelements",
        -1.0
      ],
      [
        "ĠIreland",
        -1.0
      ],
      [
        "Ġhydroelectric",
        -1.0
      ],
      [
        "ĠPCBs",
        -1.0
      ],
      [
        "Ġlegendary",
        -1.0
      ],
      [
        "just",
        -1.0
      ],
      [
        "according",
        -1.0
      ],
      [
        "ID",
        -1.0
      ],
      [
        "Ġprenatal",
        -1.0
      ],
      [
        "124",
        -1.0
      ],
      [
        "en",
        -1.0
      ],
      [
        "ĠSemitic",
        -1.0
      ],
      [
        "dez",
        -1.0
      ],
      [
        "ĠNE",
        -1.0
      ],
      [
        "ĠGuantÃ¡namo",
        -1.0
      ],
      [
        "tor",
        -1.0
      ],
      [
        "ĠCCD",
        -1.0
      ],
      [
        "Ġinteresting",
        -1.0
      ],
      [
        "Ġ5000",
        -1.0
      ],
      [
        "Ġconcentrations",
        -1.0
      ],
      [
        "Ġfertilization",
        -1.0
      ],
      [
        "ĠInsect",
        -1.0
      ],
      [
        "period",
        -1.0
      ],
      [
        "ĠDescription",
        -1.0
      ],
      [
        "balls",
        -1.0
      ],
      [
        "OS",
        -1.0
      ],
      [
        "Ġprejudices",
        -1.0
      ],
      [
        "Ġinlet",
        -1.0
      ],
      [
        "Ġdeteriorated",
        -1.0
      ],
      [
        "ĠâĢĿ",
        -1.0
      ],
      [
        "ĠWatch",
        -1.0
      ],
      [
        "ĠAthens",
        -1.0
      ],
      [
        "forming",
        -1.0
      ],
      [
        "essential",
        -1.0
      ],
      [
        "Ġshowers",
        -1.0
      ],
      [
        "Ġshowing",
        -1.0
      ],
      [
        "Ġattrition",
        -1.0
      ],
      [
        "Ġflew",
        -1.0
      ],
      [
        "Ġdes",
        -1.0
      ],
      [
        "Ġwithdraw",
        -1.0
      ],
      [
        "Ġadjustment",
        -1.0
      ],
      [
        "Ġrises",
        -1.0
      ],
      [
        "Ġsuperficial",
        -1.0
      ],
      [
        "Bo",
        -1.0
      ],
      [
        "Ġsacrifice",
        -1.0
      ],
      [
        "Ġwant",
        -1.0
      ],
      [
        "Six",
        -1.0
      ],
      [
        "Ġpottery",
        -1.0
      ],
      [
        "president",
        -1.0
      ],
      [
        "Ġbelow",
        -1.0
      ],
      [
        "Ġrestricted",
        -1.0
      ],
      [
        "ĠMonitor",
        -1.0
      ],
      [
        "ĠGary",
        -1.0
      ],
      [
        "Ġpharmaceuticals",
        -1.0
      ],
      [
        "Ġdetermination",
        -1.0
      ],
      [
        "ĠChristian",
        -1.0
      ],
      [
        "Ġdancing",
        -1.0
      ],
      [
        "Ġcradle",
        -1.0
      ],
      [
        "Ġrobotic",
        -1.0
      ],
      [
        "Original",
        -1.0
      ],
      [
        "climate",
        -1.0
      ],
      [
        "located",
        -1.0
      ],
      [
        "Ġprobability",
        -1.0
      ],
      [
        "Ġversatile",
        -1.0
      ],
      [
        "Ġtraded",
        -1.0
      ],
      [
        "Ġknot",
        -1.0
      ],
      [
        "Ġexpresses",
        -1.0
      ],
      [
        "ĠGlobal",
        -1.0
      ],
      [
        "Ġmainland",
        -1.0
      ],
      [
        "ĠVedic",
        -1.0
      ],
      [
        "Ġmilligrams",
        -1.0
      ],
      [
        "Ġrepressive",
        -1.0
      ],
      [
        "Ġoffspring",
        -1.0
      ],
      [
        "Ġpoorer",
        -1.0
      ],
      [
        "ĠRepublican",
        -1.0
      ],
      [
        "Jacob",
        -1.0
      ],
      [
        "Ġsecretion",
        -1.0
      ],
      [
        "ager",
        -1.0
      ],
      [
        "Ġrespect",
        -1.0
      ],
      [
        "Ġambiguous",
        -1.0
      ],
      [
        "ĠâĤ¬",
        -1.0
      ],
      [
        "Ġadvantageous",
        -1.0
      ],
      [
        "ĠTranslation",
        -1.0
      ],
      [
        "LB",
        -1.0
      ],
      [
        "Ġdecorated",
        -1.0
      ],
      [
        "ĠControl",
        -1.0
      ],
      [
        "Ġadvisor",
        -1.0
      ],
      [
        "Ġvein",
        -1.0
      ],
      [
        "Ġstreams",
        -1.0
      ],
      [
        "Bu",
        -1.0
      ],
      [
        "í",
        -1.0
      ],
      [
        "ĠStalin",
        -1.0
      ],
      [
        "ĠUNEP",
        -1.0
      ],
      [
        "Ten",
        -1.0
      ],
      [
        "Just",
        -1.0
      ],
      [
        "degree",
        -1.0
      ],
      [
        "Ġbecause",
        -1.0
      ],
      [
        "Ġbutterflies",
        -1.0
      ],
      [
        "Ġimmoral",
        -1.0
      ],
      [
        "Ġferal",
        -1.0
      ],
      [
        "ĠHold",
        -1.0
      ],
      [
        "Ġinjections",
        -1.0
      ],
      [
        "Ġinterview",
        -1.0
      ],
      [
        "ĠAmong",
        -1.0
      ],
      [
        "ĠHome",
        -1.0
      ],
      [
        "Ġselections",
        -1.0
      ],
      [
        "ĠHypertension",
        -1.0
      ],
      [
        "Ġsensitive",
        -1.0
      ],
      [
        "Ġpuberty",
        -1.0
      ],
      [
        "Ã©s",
        -1.0
      ],
      [
        "epinephrine",
        -1.0
      ],
      [
        "ĠLesson",
        -1.0
      ],
      [
        "Explain",
        -1.0
      ],
      [
        "Ġ''",
        -1.0
      ],
      [
        "Ġdiffering",
        -1.0
      ],
      [
        "Ġsimplify",
        -1.0
      ],
      [
        "ĠLazar",
        -1.0
      ],
      [
        "Table",
        -1.0
      ],
      [
        "ĠRussia",
        -1.0
      ],
      [
        "Multiple",
        -1.0
      ],
      [
        "Ġoccupations",
        -1.0
      ],
      [
        "ISBN",
        -1.0
      ],
      [
        "Ġdesk",
        -1.0
      ],
      [
        "ening",
        -1.0
      ],
      [
        "ĠManhattan",
        -1.0
      ],
      [
        "Ġlingering",
        -1.0
      ],
      [
        "dry",
        -1.0
      ],
      [
        "Ġfriends",
        -1.0
      ],
      [
        "Ġconsultation",
        -1.0
      ],
      [
        "Ġwise",
        -1.0
      ],
      [
        "tension",
        -1.0
      ],
      [
        "Ġavoided",
        -1.0
      ],
      [
        "Ġpublished",
        -1.0
      ],
      [
        "ĠIll",
        -1.0
      ],
      [
        "Posted",
        -1.0
      ],
      [
        "ĠSue",
        -1.0
      ],
      [
        "Ġexplained",
        -1.0
      ],
      [
        "ĠWH",
        -1.0
      ],
      [
        "ĠMajor",
        -1.0
      ],
      [
        "Ġtruths",
        -1.0
      ],
      [
        "Did",
        -1.0
      ],
      [
        "Ġpianist",
        -1.0
      ],
      [
        "turn",
        -1.0
      ],
      [
        "Ġparticles",
        -1.0
      ],
      [
        "Ġforests",
        -1.0
      ],
      [
        "ĠManufacturing",
        -1.0
      ],
      [
        "ĠFA",
        -1.0
      ],
      [
        "Ġdetached",
        -1.0
      ],
      [
        "ĠAdditionally",
        -1.0
      ],
      [
        "Ġelemental",
        -1.0
      ],
      [
        "Many",
        -1.0
      ],
      [
        "Ġadministrator",
        -1.0
      ],
      [
        "Ġreport",
        -1.0
      ],
      [
        "Ġchunk",
        -1.0
      ],
      [
        "Ġprinters",
        -1.0
      ],
      [
        "Ġevenly",
        -1.0
      ],
      [
        "Ġsmokers",
        -1.0
      ],
      [
        "Ġdegeneration",
        -1.0
      ],
      [
        "90",
        -1.0
      ],
      [
        "Ġmeat",
        -1.0
      ],
      [
        "ĠCC",
        -1.0
      ],
      [
        "Ġdried",
        -1.0
      ],
      [
        "ĠKubrick",
        -1.0
      ],
      [
        "Ġcompression",
        -1.0
      ],
      [
        "208",
        -1.0
      ],
      [
        "Ġmetastatic",
        -1.0
      ],
      [
        "Ġample",
        -1.0
      ],
      [
        "ĠDNA",
        -1.0
      ],
      [
        "PU",
        -1.0
      ],
      [
        "Ġcruel",
        -1.0
      ],
      [
        "ĠCoal",
        -1.0
      ],
      [
        "Ġpedestal",
        -1.0
      ],
      [
        "Ġcommonplace",
        -1.0
      ],
      [
        "Ġdiamond",
        -1.0
      ],
      [
        "Ġresearched",
        -1.0
      ],
      [
        "Ġattractions",
        -1.0
      ],
      [
        "Ġpad",
        -1.0
      ],
      [
        "Ġoverfishing",
        -1.0
      ],
      [
        "Ġ1946",
        -1.0
      ],
      [
        "Ġessence",
        -1.0
      ],
      [
        "ĠDolphin",
        -1.0
      ],
      [
        ")||",
        -1.0
      ],
      [
        "ĠBudget",
        -1.0
      ],
      [
        "holding",
        -1.0
      ],
      [
        ".'\"",
        -1.0
      ],
      [
        "flu",
        -1.0
      ],
      [
        "ĠWednesday",
        -1.0
      ],
      [
        "dicated",
        -1.0
      ],
      [
        "Ġimmortality",
        -1.0
      ],
      [
        "Ġreservation",
        -1.0
      ],
      [
        "salt",
        -1.0
      ],
      [
        "Ķ",
        -1.0
      ],
      [
        "Ġweeks",
        -1.0
      ],
      [
        "Ġlongest",
        -1.0
      ],
      [
        "Ġbounty",
        -1.0
      ],
      [
        "Ġ156",
        -1.0
      ],
      [
        "ĠDictionary",
        -1.0
      ],
      [
        "ĠBuddha",
        -1.0
      ],
      [
        "Ġcaps",
        -1.0
      ],
      [
        "Ġdisregard",
        -1.0
      ],
      [
        "Ġcom",
        -1.0
      ],
      [
        "iser",
        -1.0
      ],
      [
        "ĠShelf",
        -1.0
      ],
      [
        "Ġfrequency",
        -1.0
      ],
      [
        "ĠYour",
        -1.0
      ],
      [
        "ĠAnnie",
        -1.0
      ],
      [
        "ĠRutgers",
        -1.0
      ],
      [
        "ĠQuetzalcoatl",
        -1.0
      ],
      [
        "ĠEucharist",
        -1.0
      ],
      [
        "alis",
        -1.0
      ],
      [
        "ĠSoc",
        -1.0
      ],
      [
        "Ġ330",
        -1.0
      ],
      [
        "Ġav",
        -1.0
      ],
      [
        "Ġfraction",
        -1.0
      ],
      [
        "WC",
        -1.0
      ],
      [
        "ĠDartmouth",
        -1.0
      ],
      [
        "Ġburrow",
        -1.0
      ],
      [
        "Ġhospitalization",
        -1.0
      ],
      [
        "Ġirritation",
        -1.0
      ],
      [
        "mi",
        -1.0
      ],
      [
        "Ġlawns",
        -1.0
      ],
      [
        "Ġquestionable",
        -1.0
      ],
      [
        "Ġdefendant",
        -1.0
      ],
      [
        "Ġarmies",
        -1.0
      ],
      [
        "derived",
        -1.0
      ],
      [
        "ce",
        -1.0
      ],
      [
        "Ġapt",
        -1.0
      ],
      [
        "ĠGiven",
        -1.0
      ],
      [
        "Ġgraduating",
        -1.0
      ],
      [
        "Ġtreasures",
        -1.0
      ],
      [
        "Ġaid",
        -1.0
      ],
      [
        "ids",
        -1.0
      ],
      [
        "view",
        -1.0
      ],
      [
        "ĠEnter",
        -1.0
      ],
      [
        "mouth",
        -1.0
      ],
      [
        "Ġgrandfather",
        -1.0
      ],
      [
        "return",
        -1.0
      ],
      [
        "Ġsh",
        -1.0
      ],
      [
        "ĠJo",
        -1.0
      ],
      [
        "Ġplatoon",
        -1.0
      ],
      [
        "ĠExpansion",
        -1.0
      ],
      [
        "ta",
        -1.0
      ],
      [
        "treatment",
        -1.0
      ],
      [
        "sk",
        -1.0
      ],
      [
        "Ġanalyzes",
        -1.0
      ],
      [
        "Ġclients",
        -1.0
      ],
      [
        "Ġcitizens",
        -1.0
      ],
      [
        "Ġconsolidated",
        -1.0
      ],
      [
        "Ġstored",
        -1.0
      ],
      [
        "ĠCalhoun",
        -1.0
      ],
      [
        "Ġstock",
        -1.0
      ],
      [
        "Ġcultivars",
        -1.0
      ],
      [
        "Ġdrought",
        -1.0
      ],
      [
        "Ġseizure",
        -1.0
      ],
      [
        "ĠNJ",
        -1.0
      ],
      [
        "chief",
        -1.0
      ],
      [
        "ĠRajasthan",
        -1.0
      ],
      [
        "ĠLegislation",
        -1.0
      ],
      [
        "Ġscientifically",
        -1.0
      ],
      [
        "Ġconstruct",
        -1.0
      ],
      [
        "ĠScott",
        -1.0
      ],
      [
        "ĠGu",
        -1.0
      ],
      [
        "ĠABS",
        -1.0
      ],
      [
        "Ġliquids",
        -1.0
      ],
      [
        "Ġcyclists",
        -1.0
      ],
      [
        "Ġnotes",
        -1.0
      ],
      [
        "Ġillustrative",
        -1.0
      ],
      [
        "Ġexceptionally",
        -1.0
      ],
      [
        "Ġprohibited",
        -1.0
      ],
      [
        "Ġhypocrisy",
        -1.0
      ],
      [
        "ĠCB",
        -1.0
      ],
      [
        "together",
        -1.0
      ],
      [
        "ô",
        -1.0
      ],
      [
        "Ġrailroad",
        -1.0
      ],
      [
        "Ġacceleration",
        -1.0
      ],
      [
        "ĠPrepare",
        -1.0
      ],
      [
        "Ġdiscriminated",
        -1.0
      ],
      [
        "Ġprecautions",
        -1.0
      ],
      [
        "ĠClay",
        -1.0
      ],
      [
        "ĠOl",
        -1.0
      ],
      [
        "olo",
        -1.0
      ],
      [
        "Ġelectric",
        -1.0
      ],
      [
        "Ġaction",
        -1.0
      ],
      [
        "ĠOwen",
        -1.0
      ],
      [
        "pub",
        -1.0
      ],
      [
        "ĠNow",
        -1.0
      ],
      [
        "Ġglass",
        -1.0
      ],
      [
        "Ġexceptions",
        -1.0
      ],
      [
        "hem",
        -1.0
      ],
      [
        "ĠCherry",
        -1.0
      ],
      [
        "ĠMarsh",
        -1.0
      ],
      [
        "ĠNumbers",
        -1.0
      ],
      [
        "ĠBabylon",
        -1.0
      ],
      [
        "aw",
        -1.0
      ],
      [
        "organ",
        -1.0
      ],
      [
        "Ġathlete",
        -1.0
      ],
      [
        "ĠMapping",
        -1.0
      ],
      [
        "them",
        -1.0
      ],
      [
        "ckle",
        -1.0
      ],
      [
        "ĠJE",
        -1.0
      ],
      [
        "Ġreceives",
        -1.0
      ],
      [
        "parent",
        -1.0
      ],
      [
        "Ġassault",
        -1.0
      ],
      [
        "ĠWorld",
        -1.0
      ],
      [
        "Oklahoma",
        -1.0
      ],
      [
        "Ġritual",
        -1.0
      ],
      [
        "Comments",
        -1.0
      ],
      [
        "Ġtreatment",
        -1.0
      ],
      [
        "ĠPremier",
        -1.0
      ],
      [
        "Ġ230",
        -1.0
      ],
      [
        "Ġcues",
        -1.0
      ],
      [
        "Ġcompensated",
        -1.0
      ],
      [
        "Ġessential",
        -1.0
      ],
      [
        "ĠUrban",
        -1.0
      ],
      [
        "ĠDrew",
        -1.0
      ],
      [
        "pson",
        -1.0
      ],
      [
        "Ġconsistently",
        -1.0
      ],
      [
        "Ġ---",
        -1.0
      ],
      [
        "Ġnucleic",
        -1.0
      ],
      [
        "Ġleisure",
        -1.0
      ],
      [
        "metre",
        -1.0
      ],
      [
        "Ġlieutenant",
        -1.0
      ],
      [
        "Ġcured",
        -1.0
      ],
      [
        "Ġgracious",
        -1.0
      ],
      [
        "nails",
        -1.0
      ],
      [
        "ĠCompact",
        -1.0
      ],
      [
        "Ġmentioning",
        -1.0
      ],
      [
        "Ġconstants",
        -1.0
      ],
      [
        "Ġincubation",
        -1.0
      ],
      [
        "Ġkits",
        -1.0
      ],
      [
        "Ġammunition",
        -1.0
      ],
      [
        "Ġconfiscated",
        -1.0
      ],
      [
        "ĠKashubian",
        -1.0
      ],
      [
        "ĠCup",
        -1.0
      ],
      [
        "ĠAugustine",
        -1.0
      ],
      [
        "hl",
        -1.0
      ],
      [
        "Medical",
        -1.0
      ],
      [
        "ĠPsychiatry",
        -1.0
      ],
      [
        "Ġswords",
        -1.0
      ],
      [
        "Ġcreek",
        -1.0
      ],
      [
        "Ġlumps",
        -1.0
      ],
      [
        "Ġvisitors",
        -1.0
      ],
      [
        "Ġtoo",
        -1.0
      ],
      [
        "ĠSanctuary",
        -1.0
      ],
      [
        "Ġvent",
        -1.0
      ],
      [
        "ĠCancer",
        -1.0
      ],
      [
        "Ġmoss",
        -1.0
      ],
      [
        "Ġ!",
        -1.0
      ],
      [
        "Ġoverseas",
        -1.0
      ],
      [
        "Ġadvertised",
        -1.0
      ],
      [
        "dia",
        -1.0
      ],
      [
        "ĠWesley",
        -1.0
      ],
      [
        "Ġinspector",
        -1.0
      ],
      [
        "ĠIan",
        -1.0
      ],
      [
        "Ġseated",
        -1.0
      ],
      [
        "Ġbiodegradable",
        -1.0
      ],
      [
        "www",
        -1.0
      ],
      [
        "Ġgraphics",
        -1.0
      ],
      [
        "Ġexcellence",
        -1.0
      ],
      [
        "Ġhumankind",
        -1.0
      ],
      [
        "Ġscholars",
        -1.0
      ],
      [
        "Ġwarts",
        -1.0
      ],
      [
        "Ġworth",
        -1.0
      ],
      [
        "Ġspecialty",
        -1.0
      ],
      [
        "Ġbiodiversity",
        -1.0
      ],
      [
        "ĠLanding",
        -1.0
      ],
      [
        "ĠJanet",
        -1.0
      ],
      [
        "Ġirregular",
        -1.0
      ],
      [
        "Ġlimitations",
        -1.0
      ],
      [
        "Ġenzyme",
        -1.0
      ],
      [
        "Ġbet",
        -1.0
      ],
      [
        "mation",
        -1.0
      ],
      [
        "ĠBoys",
        -1.0
      ],
      [
        "\"",
        -1.0
      ],
      [
        "Ġrolls",
        -1.0
      ],
      [
        "Ġexclusion",
        -1.0
      ],
      [
        "Ġcylindrical",
        -1.0
      ],
      [
        "Ġdroughts",
        -1.0
      ],
      [
        "Ġtherapies",
        -1.0
      ],
      [
        "Ġpartially",
        -1.0
      ],
      [
        "Ġcrushing",
        -1.0
      ],
      [
        "Ġcumbersome",
        -1.0
      ],
      [
        "Ġcalc",
        -1.0
      ],
      [
        "Ġflaw",
        -1.0
      ],
      [
        "Ġpowdered",
        -1.0
      ],
      [
        "ĠHair",
        -1.0
      ],
      [
        "ples",
        -1.0
      ],
      [
        "Ġpossession",
        -1.0
      ],
      [
        "Ġwool",
        -1.0
      ],
      [
        "Ġinformative",
        -1.0
      ],
      [
        "Ġsurvive",
        -1.0
      ],
      [
        "Ġnegatively",
        -1.0
      ],
      [
        "Ġcloud",
        -1.0
      ],
      [
        "ĠRobin",
        -1.0
      ],
      [
        "Ġliver",
        -1.0
      ],
      [
        "Ġdemolition",
        -1.0
      ],
      [
        "Ġaccident",
        -1.0
      ],
      [
        "ĠBulgarian",
        -1.0
      ],
      [
        "Ru",
        -1.0
      ],
      [
        "Ġ86",
        -1.0
      ],
      [
        "Ġimplement",
        -1.0
      ],
      [
        "Health",
        -1.0
      ],
      [
        "ĠXII",
        -1.0
      ],
      [
        "Ġdestinies",
        -1.0
      ],
      [
        "ĠChannel",
        -1.0
      ],
      [
        "equipped",
        -1.0
      ],
      [
        "Father",
        -1.0
      ],
      [
        "ĠIS",
        -1.0
      ],
      [
        "ĠMojave",
        -1.0
      ],
      [
        "Ġ1789",
        -1.0
      ],
      [
        "Ġtorrent",
        -1.0
      ],
      [
        "ĠDBY",
        -1.0
      ],
      [
        "Ġindistinguishable",
        -1.0
      ],
      [
        "ĠYLT",
        -1.0
      ],
      [
        "Ġresidues",
        -1.0
      ],
      [
        "Ġpackaging",
        -1.0
      ],
      [
        "ĠIF",
        -1.0
      ],
      [
        "Ġv",
        -1.0
      ],
      [
        "Arab",
        -1.0
      ],
      [
        "ĠSudan",
        -1.0
      ],
      [
        "Ġshortness",
        -1.0
      ],
      [
        "Ġtilt",
        -1.0
      ],
      [
        "Camp",
        -1.0
      ],
      [
        "ĠLuc",
        -1.0
      ],
      [
        "Ġ:",
        -1.0
      ],
      [
        "Ġverses",
        -1.0
      ],
      [
        "ĠKent",
        -1.0
      ],
      [
        "Ġprofits",
        -1.0
      ],
      [
        "Ġ2030",
        -1.0
      ],
      [
        "ĠPrinciples",
        -1.0
      ],
      [
        "Ġevils",
        -1.0
      ],
      [
        "han",
        -1.0
      ],
      [
        "ĠEskimo",
        -1.0
      ],
      [
        "ĠXi",
        -1.0
      ],
      [
        "Ġinvites",
        -1.0
      ],
      [
        "ĠRings",
        -1.0
      ],
      [
        "ĠSadducees",
        -1.0
      ],
      [
        "Ġhomogeneous",
        -1.0
      ],
      [
        "Follow",
        -1.0
      ],
      [
        "ulin",
        -1.0
      ],
      [
        "Ġinstruction",
        -1.0
      ],
      [
        "Ġcircuits",
        -1.0
      ],
      [
        "Ġthird",
        -1.0
      ],
      [
        "Ġ141",
        -1.0
      ],
      [
        "Hu",
        -1.0
      ],
      [
        "Ġbrood",
        -1.0
      ],
      [
        "Ġtelling",
        -1.0
      ],
      [
        "Ġdrying",
        -1.0
      ],
      [
        "car",
        -1.0
      ],
      [
        "Sen",
        -1.0
      ],
      [
        "ĠBiomedical",
        -1.0
      ],
      [
        "Ġlocking",
        -1.0
      ],
      [
        "Deposited",
        -1.0
      ],
      [
        "ĠCosta",
        -1.0
      ],
      [
        "Can",
        -1.0
      ],
      [
        "Ġprairies",
        -1.0
      ],
      [
        "Ġtoss",
        -1.0
      ],
      [
        "ĠHighway",
        -1.0
      ],
      [
        "Ġarthritis",
        -1.0
      ],
      [
        "esque",
        -1.0
      ],
      [
        "ĠJuvenile",
        -1.0
      ],
      [
        "Ġjuveniles",
        -1.0
      ],
      [
        "Typically",
        -1.0
      ],
      [
        "ĠAdults",
        -1.0
      ],
      [
        "Ġtrajectories",
        -1.0
      ],
      [
        "Ġwatershed",
        -1.0
      ],
      [
        "Ġentitled",
        -1.0
      ],
      [
        "Ġparticipation",
        -1.0
      ],
      [
        "Ġpromptly",
        -1.0
      ],
      [
        "ĠPolicies",
        -1.0
      ],
      [
        "Ġprism",
        -1.0
      ],
      [
        "sley",
        -1.0
      ],
      [
        "1974",
        -1.0
      ],
      [
        "Ġdefects",
        -1.0
      ],
      [
        "ily",
        -1.0
      ],
      [
        "Ġexplores",
        -1.0
      ],
      [
        "Ġnovel",
        -1.0
      ],
      [
        "Ġdeterminant",
        -1.0
      ],
      [
        "Z",
        -1.0
      ],
      [
        "129",
        -1.0
      ],
      [
        "phobic",
        -1.0
      ],
      [
        "cultural",
        -1.0
      ],
      [
        "Ġmined",
        -1.0
      ],
      [
        "Ġproceeded",
        -1.0
      ],
      [
        "Ġquicker",
        -1.0
      ],
      [
        "Figure",
        -1.0
      ],
      [
        "ĠWhile",
        -1.0
      ],
      [
        "Ġdebug",
        -1.0
      ],
      [
        "Ġairlines",
        -1.0
      ],
      [
        "Ġblooming",
        -1.0
      ],
      [
        "Ġexperimental",
        -1.0
      ],
      [
        "Ġacute",
        -1.0
      ],
      [
        "Ġbill",
        -1.0
      ],
      [
        "Whatever",
        -1.0
      ],
      [
        "Question",
        -1.0
      ],
      [
        "Over",
        -1.0
      ],
      [
        "Within",
        -1.0
      ],
      [
        "PINSKY",
        -1.0
      ],
      [
        "ĠDivision",
        -1.0
      ],
      [
        "Ġdys",
        -1.0
      ],
      [
        "Ġbrakes",
        -1.0
      ],
      [
        "Ġsensitivities",
        -1.0
      ],
      [
        "Ġmodalities",
        -1.0
      ],
      [
        "Ġtranslates",
        -1.0
      ],
      [
        "ĠChinese",
        -1.0
      ],
      [
        "Ġonions",
        -1.0
      ],
      [
        "Ġcolder",
        -1.0
      ],
      [
        "SA",
        -1.0
      ],
      [
        "Ġdigitized",
        -1.0
      ],
      [
        "Ġdelicious",
        -1.0
      ],
      [
        "Ġepistem",
        -1.0
      ],
      [
        "Ġshort",
        -1.0
      ],
      [
        "Ġvowels",
        -1.0
      ],
      [
        "Ġriding",
        -1.0
      ],
      [
        "Ġlandings",
        -1.0
      ],
      [
        "Ġ135",
        -1.0
      ],
      [
        "Ġheard",
        -1.0
      ],
      [
        "Ġlaparoscopic",
        -1.0
      ],
      [
        "ĠExecutive",
        -1.0
      ],
      [
        "ĠCommissioners",
        -1.0
      ],
      [
        "Ġtowers",
        -1.0
      ],
      [
        "Ġplasma",
        -1.0
      ],
      [
        "Ġdiuretic",
        -1.0
      ],
      [
        "ĠToward",
        -1.0
      ],
      [
        "Ġfreedoms",
        -1.0
      ],
      [
        "Ġstimuli",
        -1.0
      ],
      [
        "Ġcluster",
        -1.0
      ],
      [
        "Ġformulation",
        -1.0
      ],
      [
        "Ġlava",
        -1.0
      ],
      [
        "Ġextent",
        -1.0
      ],
      [
        "Ġchewing",
        -1.0
      ],
      [
        "Ġginger",
        -1.0
      ],
      [
        "Ġstating",
        -1.0
      ],
      [
        "Ġmarch",
        -1.0
      ],
      [
        "ACE",
        -1.0
      ],
      [
        "Ġharmonious",
        -1.0
      ],
      [
        "Ġcomposting",
        -1.0
      ],
      [
        "Ġglue",
        -1.0
      ],
      [
        "ĠFletcher",
        -1.0
      ],
      [
        "ĠTemple",
        -1.0
      ],
      [
        "Ġirrigation",
        -1.0
      ],
      [
        "ĠWill",
        -1.0
      ],
      [
        "ĠOrthodox",
        -1.0
      ],
      [
        "Ġaffected",
        -1.0
      ],
      [
        "scape",
        -1.0
      ],
      [
        "ĠSpinoza",
        -1.0
      ],
      [
        "Ġremove",
        -1.0
      ],
      [
        "Ġ1903",
        -1.0
      ],
      [
        "Ġhottest",
        -1.0
      ],
      [
        "Ġadded",
        -1.0
      ],
      [
        "Ġribs",
        -1.0
      ],
      [
        "Ġrouting",
        -1.0
      ],
      [
        "Ġglad",
        -1.0
      ],
      [
        "ĠFrench",
        -1.0
      ],
      [
        "ĠFew",
        -1.0
      ],
      [
        "Ġbrigade",
        -1.0
      ],
      [
        "Ġflush",
        -1.0
      ],
      [
        "ĠDef",
        -1.0
      ],
      [
        "library",
        -1.0
      ],
      [
        "Ġclomipramine",
        -1.0
      ],
      [
        "ĠBiofuels",
        -1.0
      ],
      [
        "ĠUniverse",
        -1.0
      ],
      [
        "Ġspare",
        -1.0
      ],
      [
        "Ġbehaves",
        -1.0
      ],
      [
        "Ġdepressed",
        -1.0
      ],
      [
        "Ġclothing",
        -1.0
      ],
      [
        "original",
        -1.0
      ],
      [
        "Ġ208",
        -1.0
      ],
      [
        "Ġhooks",
        -1.0
      ],
      [
        "Ġprevailing",
        -1.0
      ],
      [
        "AIDS",
        -1.0
      ],
      [
        "ĠTS",
        -1.0
      ],
      [
        "Ġcommissioners",
        -1.0
      ],
      [
        "Ġinstructor",
        -1.0
      ],
      [
        "Ġcavities",
        -1.0
      ],
      [
        "Ġweight",
        -1.0
      ],
      [
        "ĠGloucester",
        -1.0
      ],
      [
        "Ġcounterfeit",
        -1.0
      ],
      [
        "Ġconfuse",
        -1.0
      ],
      [
        "ĠFY",
        -1.0
      ],
      [
        "Ġ1905",
        -1.0
      ],
      [
        "ĠEmotional",
        -1.0
      ],
      [
        "ĠForms",
        -1.0
      ],
      [
        "Hepatitis",
        -1.0
      ],
      [
        "Ġad",
        -1.0
      ],
      [
        "ĠInstructor",
        -1.0
      ],
      [
        "Disclaimer",
        -1.0
      ],
      [
        "Ġcat",
        -1.0
      ],
      [
        "Ġsubtypes",
        -1.0
      ],
      [
        "ĠCountry",
        -1.0
      ],
      [
        "Ġstabil",
        -1.0
      ],
      [
        "Ġexplains",
        -1.0
      ],
      [
        "Ġskepticism",
        -1.0
      ],
      [
        "Ġelse",
        -1.0
      ],
      [
        "Ġunited",
        -1.0
      ],
      [
        "g",
        -1.0
      ],
      [
        "Oxford",
        -1.0
      ],
      [
        "ĠAachen",
        -1.0
      ],
      [
        "Ġdomestic",
        -1.0
      ],
      [
        "Ġrobust",
        -1.0
      ],
      [
        "meter",
        -1.0
      ],
      [
        "ĠReporting",
        -1.0
      ],
      [
        "Ġdecreased",
        -1.0
      ],
      [
        "DM",
        -1.0
      ],
      [
        "Ġcontents",
        -1.0
      ],
      [
        "Ġprintable",
        -1.0
      ],
      [
        "Ġtargeted",
        -1.0
      ],
      [
        "1865",
        -1.0
      ],
      [
        "Ġsame",
        -1.0
      ],
      [
        "Ġminors",
        -1.0
      ],
      [
        "ĠPath",
        -1.0
      ],
      [
        "ĠKin",
        -1.0
      ],
      [
        "Ġconducive",
        -1.0
      ],
      [
        "ĠHale",
        -1.0
      ],
      [
        "Ġexamined",
        -1.0
      ],
      [
        "Ġdeeply",
        -1.0
      ],
      [
        "Ġsees",
        -1.0
      ],
      [
        "Ġlooked",
        -1.0
      ],
      [
        "ĠActive",
        -1.0
      ],
      [
        "empt",
        -1.0
      ],
      [
        "Ġassisting",
        -1.0
      ],
      [
        "Ġprototype",
        -1.0
      ],
      [
        "Ġbones",
        -1.0
      ],
      [
        "ĠTransmission",
        -1.0
      ],
      [
        "ĠStone",
        -1.0
      ],
      [
        "opoulos",
        -1.0
      ],
      [
        "ĠDynamics",
        -1.0
      ],
      [
        "Ġancient",
        -1.0
      ],
      [
        "ĠMRSA",
        -1.0
      ],
      [
        "Ġcontinuation",
        -1.0
      ],
      [
        "Ġshouldn",
        -1.0
      ],
      [
        "ĠHaitian",
        -1.0
      ],
      [
        "âĢĿ:",
        -1.0
      ],
      [
        "ĠKimber",
        -1.0
      ],
      [
        "Ġoutdoors",
        -1.0
      ],
      [
        "Ġle",
        -1.0
      ],
      [
        "Ġego",
        -1.0
      ],
      [
        "eller",
        -1.0
      ],
      [
        "Ġoperators",
        -1.0
      ],
      [
        "Like",
        -1.0
      ],
      [
        "ĠHy",
        -1.0
      ],
      [
        "Ġdelete",
        -1.0
      ],
      [
        "hearted",
        -1.0
      ],
      [
        "ĠBeth",
        -1.0
      ],
      [
        "Ġcause",
        -1.0
      ],
      [
        "Ġdisturb",
        -1.0
      ],
      [
        "Ġdegenerative",
        -1.0
      ],
      [
        "Ġabnormalities",
        -1.0
      ],
      [
        "der",
        -1.0
      ],
      [
        "Ġray",
        -1.0
      ],
      [
        "ĠThis",
        -1.0
      ],
      [
        "Ġcilia",
        -1.0
      ],
      [
        "mother",
        -1.0
      ],
      [
        "Ġinvertebrates",
        -1.0
      ],
      [
        "Ġfailure",
        -1.0
      ],
      [
        "ĠBronx",
        -1.0
      ],
      [
        "Ġcontra",
        -1.0
      ],
      [
        "foo",
        -1.0
      ],
      [
        "ĠAdvisory",
        -1.0
      ],
      [
        "ĠScandinavia",
        -1.0
      ],
      [
        "ĠAccessed",
        -1.0
      ],
      [
        "map",
        -1.0
      ],
      [
        "Ġhelpful",
        -1.0
      ],
      [
        "Ġborough",
        -1.0
      ],
      [
        "Ġfamily",
        -1.0
      ],
      [
        "Ġregards",
        -1.0
      ],
      [
        "ĠISO",
        -1.0
      ],
      [
        "Ġdehydrogenase",
        -1.0
      ],
      [
        "ĠRama",
        -1.0
      ],
      [
        "Ġeverything",
        -1.0
      ],
      [
        "ĠImportance",
        -1.0
      ],
      [
        "Ġspread",
        -1.0
      ],
      [
        "Ġbroiler",
        -1.0
      ],
      [
        "ĠReasons",
        -1.0
      ],
      [
        "Ġprosperity",
        -1.0
      ],
      [
        "ĠNA",
        -1.0
      ],
      [
        "Ġreconcile",
        -1.0
      ],
      [
        "ĠHamburg",
        -1.0
      ],
      [
        "ĠEvidence",
        -1.0
      ],
      [
        "Ļ",
        -1.0
      ],
      [
        "Members",
        -1.0
      ],
      [
        "copy",
        -1.0
      ],
      [
        "Ġ1859",
        -1.0
      ],
      [
        "ĠTypically",
        -1.0
      ],
      [
        "ĠAugust",
        -1.0
      ],
      [
        "ĠApart",
        -1.0
      ],
      [
        "ur",
        -1.0
      ],
      [
        "Ġdefinitely",
        -1.0
      ],
      [
        "ĠGandhi",
        -1.0
      ],
      [
        "Ġneonatal",
        -1.0
      ],
      [
        "Ġpolarity",
        -1.0
      ],
      [
        "Ġvoice",
        -1.0
      ],
      [
        "Ġomega",
        -1.0
      ],
      [
        "ĠHe",
        -1.0
      ],
      [
        "Ġoperated",
        -1.0
      ],
      [
        "Ġlargest",
        -1.0
      ],
      [
        "Ġventures",
        -1.0
      ],
      [
        "Ġremarkable",
        -1.0
      ],
      [
        "enriched",
        -1.0
      ],
      [
        "Ġinfrastructure",
        -1.0
      ],
      [
        "Category",
        -1.0
      ],
      [
        "pur",
        -1.0
      ],
      [
        "Ġflare",
        -1.0
      ],
      [
        "Ġrats",
        -1.0
      ],
      [
        "Ġlimited",
        -1.0
      ],
      [
        "Ġdrowsiness",
        -1.0
      ],
      [
        "eous",
        -1.0
      ],
      [
        "ĠGeological",
        -1.0
      ],
      [
        "Ġgentlemen",
        -1.0
      ],
      [
        "ĠEast",
        -1.0
      ],
      [
        "ĠPM",
        -1.0
      ],
      [
        "Ġunclean",
        -1.0
      ],
      [
        "ĠRiver",
        -1.0
      ],
      [
        "Ġ75",
        -1.0
      ],
      [
        "Ġtownship",
        -1.0
      ],
      [
        "Evaluation",
        -1.0
      ],
      [
        "Ġpositive",
        -1.0
      ],
      [
        "ĠGreg",
        -1.0
      ],
      [
        "ĠSusquehanna",
        -1.0
      ],
      [
        "Ġirrational",
        -1.0
      ],
      [
        "Ġmayor",
        -1.0
      ],
      [
        "mark",
        -1.0
      ],
      [
        "Ġenlargement",
        -1.0
      ],
      [
        "ĠBacon",
        -1.0
      ],
      [
        "su",
        -1.0
      ],
      [
        "become",
        -1.0
      ],
      [
        "att",
        -1.0
      ],
      [
        "Ġcriticism",
        -1.0
      ],
      [
        "Ġswimmers",
        -1.0
      ],
      [
        "Ġdemographic",
        -1.0
      ],
      [
        "HABITAT",
        -1.0
      ],
      [
        "Ġcartridge",
        -1.0
      ],
      [
        "ĠPHP",
        -1.0
      ],
      [
        "Ġobligation",
        -1.0
      ],
      [
        "ĠTed",
        -1.0
      ],
      [
        "ĠBang",
        -1.0
      ],
      [
        "Qu",
        -1.0
      ],
      [
        "Ġinterpreters",
        -1.0
      ],
      [
        "Still",
        -1.0
      ],
      [
        "ĠLast",
        -1.0
      ],
      [
        "Ġrelated",
        -1.0
      ],
      [
        "iant",
        -1.0
      ],
      [
        "</",
        -1.0
      ],
      [
        "Jack",
        -1.0
      ],
      [
        "Ġpyramids",
        -1.0
      ],
      [
        "existence",
        -1.0
      ],
      [
        "ĠAbu",
        -1.0
      ],
      [
        "Compared",
        -1.0
      ],
      [
        "ĠCooperation",
        -1.0
      ],
      [
        "Ġsunshine",
        -1.0
      ],
      [
        "ald",
        -1.0
      ],
      [
        "Ġpeoples",
        -1.0
      ],
      [
        "Ġuterus",
        -1.0
      ],
      [
        "Ġplural",
        -1.0
      ],
      [
        "Em",
        -1.0
      ],
      [
        "ĠMexican",
        -1.0
      ],
      [
        "Ġfundamentals",
        -1.0
      ],
      [
        "Latest",
        -1.0
      ],
      [
        "Ġapproximately",
        -1.0
      ],
      [
        "Ġbarrel",
        -1.0
      ],
      [
        "Ġpencil",
        -1.0
      ],
      [
        "ĠChristine",
        -1.0
      ],
      [
        "Ġcompiling",
        -1.0
      ],
      [
        "Ġpredictable",
        -1.0
      ],
      [
        "ĠNa",
        -1.0
      ],
      [
        "Forest",
        -1.0
      ],
      [
        "Ġrash",
        -1.0
      ],
      [
        "mer",
        -1.0
      ],
      [
        "ĠMind",
        -1.0
      ],
      [
        "Ġaims",
        -1.0
      ],
      [
        "Ġ1909",
        -1.0
      ],
      [
        "ĠTiger",
        -1.0
      ],
      [
        "Ġstays",
        -1.0
      ],
      [
        "Ġanswer",
        -1.0
      ],
      [
        "Ġextinguish",
        -1.0
      ],
      [
        "ĠWinter",
        -1.0
      ],
      [
        "Ġgrinding",
        -1.0
      ],
      [
        "ĠIdentity",
        -1.0
      ],
      [
        "ĠOC",
        -1.0
      ],
      [
        "Ġculturally",
        -1.0
      ],
      [
        "Ġvivo",
        -1.0
      ],
      [
        "Ġprogressively",
        -1.0
      ],
      [
        "ĠOg",
        -1.0
      ],
      [
        "Ġalready",
        -1.0
      ],
      [
        "Ġscrotum",
        -1.0
      ],
      [
        "Ġeditors",
        -1.0
      ],
      [
        "ĠKoreans",
        -1.0
      ],
      [
        "Ġnomenclature",
        -1.0
      ],
      [
        "Ġflags",
        -1.0
      ],
      [
        "Ġacademy",
        -1.0
      ],
      [
        "ĠChain",
        -1.0
      ],
      [
        "ĠLynn",
        -1.0
      ],
      [
        "Ġglossary",
        -1.0
      ],
      [
        "ĠBrewster",
        -1.0
      ],
      [
        "||",
        -1.0
      ],
      [
        "Ġng",
        -1.0
      ],
      [
        "Ġimmense",
        -1.0
      ],
      [
        "Ġminimizing",
        -1.0
      ],
      [
        "153",
        -1.0
      ],
      [
        "Ġmeeting",
        -1.0
      ],
      [
        "Ġvast",
        -1.0
      ],
      [
        "Ġvalid",
        -1.0
      ],
      [
        "ĠHayes",
        -1.0
      ],
      [
        "Ġmushrooms",
        -1.0
      ],
      [
        "ĠSeas",
        -1.0
      ],
      [
        "Ġsubtle",
        -1.0
      ],
      [
        "Ġaware",
        -1.0
      ],
      [
        "ĠVolcano",
        -1.0
      ],
      [
        "Ġprosecution",
        -1.0
      ],
      [
        "calorie",
        -1.0
      ],
      [
        "gt",
        -1.0
      ],
      [
        "Ġdiscovers",
        -1.0
      ],
      [
        "Ġgrip",
        -1.0
      ],
      [
        "ĠForbidden",
        -1.0
      ],
      [
        "ĠSaw",
        -1.0
      ],
      [
        "Ġcampus",
        -1.0
      ],
      [
        "wave",
        -1.0
      ],
      [
        "ĠNAACP",
        -1.0
      ],
      [
        "Ġarrogance",
        -1.0
      ],
      [
        "ĠWin",
        -1.0
      ],
      [
        "Ġabsorbed",
        -1.0
      ],
      [
        "Ġexcess",
        -1.0
      ],
      [
        "ĠMiller",
        -1.0
      ],
      [
        "Ġbinge",
        -1.0
      ],
      [
        "Ġbog",
        -1.0
      ],
      [
        "dollar",
        -1.0
      ],
      [
        "Ġmyocardial",
        -1.0
      ],
      [
        "ĠPractitioner",
        -1.0
      ],
      [
        "Ġrelaxation",
        -1.0
      ],
      [
        "Ġpapal",
        -1.0
      ],
      [
        "Ġantecedent",
        -1.0
      ],
      [
        "ĠBatista",
        -1.0
      ],
      [
        "Ġ978",
        -1.0
      ],
      [
        "Ġglove",
        -1.0
      ],
      [
        "Ġanimal",
        -1.0
      ],
      [
        "Ġbrought",
        -1.0
      ],
      [
        "ĠOppenheimer",
        -1.0
      ],
      [
        "ĠKim",
        -1.0
      ],
      [
        "Ġstages",
        -1.0
      ],
      [
        "ĠMuscle",
        -1.0
      ],
      [
        "ĠJames",
        -1.0
      ],
      [
        "ĠBody",
        -1.0
      ],
      [
        "Ġsmear",
        -1.0
      ],
      [
        "Ġcollected",
        -1.0
      ],
      [
        "Ġborder",
        -1.0
      ],
      [
        "Ġcutter",
        -1.0
      ],
      [
        "Ġovershadowed",
        -1.0
      ],
      [
        "Ġ44",
        -1.0
      ],
      [
        "Ġoriginates",
        -1.0
      ],
      [
        "Ġrequires",
        -1.0
      ],
      [
        "ĠPont",
        -1.0
      ],
      [
        "Ġaccelerator",
        -1.0
      ],
      [
        "Ġenormous",
        -1.0
      ],
      [
        "Ġadjustable",
        -1.0
      ],
      [
        "Ġmadness",
        -1.0
      ],
      [
        "Ġdigested",
        -1.0
      ],
      [
        "cap",
        -1.0
      ],
      [
        "ĠCanberra",
        -1.0
      ],
      [
        "ĠNavigation",
        -1.0
      ],
      [
        "Ġfalsely",
        -1.0
      ],
      [
        "Ġoccupancy",
        -1.0
      ],
      [
        "ĠLucy",
        -1.0
      ],
      [
        "Ġcommitments",
        -1.0
      ],
      [
        "âĢĳ",
        -1.0
      ],
      [
        "Japanese",
        -1.0
      ],
      [
        "ĠSchool",
        -1.0
      ],
      [
        "1932",
        -1.0
      ],
      [
        "iness",
        -1.0
      ],
      [
        "Ġunsuccessful",
        -1.0
      ],
      [
        "Ġvoid",
        -1.0
      ],
      [
        "anti",
        -1.0
      ],
      [
        "Ġ235",
        -1.0
      ],
      [
        "ĠElsewhere",
        -1.0
      ],
      [
        "Ġexperimenting",
        -1.0
      ],
      [
        "virus",
        -1.0
      ],
      [
        "mate",
        -1.0
      ],
      [
        "Ġway",
        -1.0
      ],
      [
        "Ġ1969",
        -1.0
      ],
      [
        "Ġchlorine",
        -1.0
      ],
      [
        "adult",
        -1.0
      ],
      [
        "big",
        -1.0
      ],
      [
        "Ġboat",
        -1.0
      ],
      [
        "Ġrequiring",
        -1.0
      ],
      [
        "sal",
        -1.0
      ],
      [
        "Ì",
        -1.0
      ],
      [
        "1938",
        -1.0
      ],
      [
        "Ġbranch",
        -1.0
      ],
      [
        "Ġdual",
        -1.0
      ],
      [
        "ĠKrishna",
        -1.0
      ],
      [
        "Ġequivalence",
        -1.0
      ],
      [
        "Ġflesh",
        -1.0
      ],
      [
        "Ġantibacterial",
        -1.0
      ],
      [
        "ĠASTM",
        -1.0
      ],
      [
        "Ġchip",
        -1.0
      ],
      [
        "Ġbattles",
        -1.0
      ],
      [
        "Ġdiode",
        -1.0
      ],
      [
        "Ġ253",
        -1.0
      ],
      [
        "Above",
        -1.0
      ],
      [
        "borough",
        -1.0
      ],
      [
        "Ġexhaustion",
        -1.0
      ],
      [
        "ĠCow",
        -1.0
      ],
      [
        "Ġhumid",
        -1.0
      ],
      [
        "ml",
        -1.0
      ],
      [
        "Ġsergeant",
        -1.0
      ],
      [
        "Ġcabin",
        -1.0
      ],
      [
        "AGE",
        -1.0
      ],
      [
        "Na",
        -1.0
      ],
      [
        "Ġproficient",
        -1.0
      ],
      [
        "ĠPlateau",
        -1.0
      ],
      [
        "ĠInquiry",
        -1.0
      ],
      [
        "ier",
        -1.0
      ],
      [
        "Ġopaque",
        -1.0
      ],
      [
        "Ġlogs",
        -1.0
      ],
      [
        "written",
        -1.0
      ],
      [
        "Ġlikelihood",
        -1.0
      ],
      [
        "ĠThousands",
        -1.0
      ],
      [
        "Ġon",
        -1.0
      ],
      [
        "Ġrejection",
        -1.0
      ],
      [
        "DOE",
        -1.0
      ],
      [
        "Ġpartition",
        -1.0
      ],
      [
        "ĠNEW",
        -1.0
      ],
      [
        "OA",
        -1.0
      ],
      [
        "Ġbeast",
        -1.0
      ],
      [
        "Ġextracts",
        -1.0
      ],
      [
        "Ġlocations",
        -1.0
      ],
      [
        "Ġdo",
        -1.0
      ],
      [
        "Ġcochlear",
        -1.0
      ],
      [
        "Si",
        -1.0
      ],
      [
        "Flu",
        -1.0
      ],
      [
        "Ġbone",
        -1.0
      ],
      [
        "Ġscholar",
        -1.0
      ],
      [
        "ĠOCLC",
        -1.0
      ],
      [
        "Ġpasture",
        -1.0
      ],
      [
        "Ġtons",
        -1.0
      ],
      [
        "ĠPi",
        -1.0
      ],
      [
        "weed",
        -1.0
      ],
      [
        "Ġtricky",
        -1.0
      ],
      [
        "Ġplane",
        -1.0
      ],
      [
        "Ġaffecting",
        -1.0
      ],
      [
        "ĠLiberation",
        -1.0
      ],
      [
        "stadt",
        -1.0
      ],
      [
        "Ġunnatural",
        -1.0
      ],
      [
        "Ġmissionaries",
        -1.0
      ],
      [
        "Initial",
        -1.0
      ],
      [
        "Ġheap",
        -1.0
      ],
      [
        "arily",
        -1.0
      ],
      [
        "ckey",
        -1.0
      ],
      [
        "ĠMik",
        -1.0
      ],
      [
        "Site",
        -1.0
      ],
      [
        "Ġbanana",
        -1.0
      ],
      [
        "Ġthinking",
        -1.0
      ],
      [
        "Ġnewspapers",
        -1.0
      ],
      [
        "Ġrecognizable",
        -1.0
      ],
      [
        "Ġinvaluable",
        -1.0
      ],
      [
        "Call",
        -1.0
      ],
      [
        "ĠGOP",
        -1.0
      ],
      [
        "Ġauspicious",
        -1.0
      ],
      [
        "Ġdiscount",
        -1.0
      ],
      [
        "ĠOil",
        -1.0
      ],
      [
        "ĠYe",
        -1.0
      ],
      [
        "NOAA",
        -1.0
      ],
      [
        "Ġoffshore",
        -1.0
      ],
      [
        "ĠFIRST",
        -1.0
      ],
      [
        "128",
        -1.0
      ],
      [
        "Ġreasonably",
        -1.0
      ],
      [
        "ĠIllustrated",
        -1.0
      ],
      [
        "Ġrefusal",
        -1.0
      ],
      [
        "ĠFemale",
        -1.0
      ],
      [
        "Ġapprehension",
        -1.0
      ],
      [
        "Ġassert",
        -1.0
      ],
      [
        "ĠRebecca",
        -1.0
      ],
      [
        "Ġallegiance",
        -1.0
      ],
      [
        "users",
        -1.0
      ],
      [
        "ĠChapters",
        -1.0
      ],
      [
        "Ġbans",
        -1.0
      ],
      [
        "ĠFay",
        -1.0
      ],
      [
        "Satellite",
        -1.0
      ],
      [
        "ior",
        -1.0
      ],
      [
        "Ġgang",
        -1.0
      ],
      [
        "Ġvaried",
        -1.0
      ],
      [
        "Ġeffects",
        -1.0
      ],
      [
        "Gar",
        -1.0
      ],
      [
        "Ġculminating",
        -1.0
      ],
      [
        "Ġfrontiers",
        -1.0
      ],
      [
        "FE",
        -1.0
      ],
      [
        "Î¼",
        -1.0
      ],
      [
        "ĠMun",
        -1.0
      ],
      [
        "ĠBrotherhood",
        -1.0
      ],
      [
        "ĠSpeed",
        -1.0
      ],
      [
        "Ġenvironmentalists",
        -1.0
      ],
      [
        "nn",
        -1.0
      ],
      [
        "ĠMozart",
        -1.0
      ],
      [
        "Ġsprawl",
        -1.0
      ],
      [
        "Ġrecursive",
        -1.0
      ],
      [
        "ĠBedford",
        -1.0
      ],
      [
        "ĠProduct",
        -1.0
      ],
      [
        "di",
        -1.0
      ],
      [
        "Ġ2007",
        -1.0
      ],
      [
        "Ġprocessing",
        -1.0
      ],
      [
        "Ġsurprise",
        -1.0
      ],
      [
        "2000",
        -1.0
      ],
      [
        "Ġthrive",
        -1.0
      ],
      [
        "Ġburnt",
        -1.0
      ],
      [
        "Ġlate",
        -1.0
      ],
      [
        "Ġamendments",
        -1.0
      ],
      [
        "Ġcircular",
        -1.0
      ],
      [
        "HR",
        -1.0
      ],
      [
        "cy",
        -1.0
      ],
      [
        "hid",
        -1.0
      ],
      [
        "Ġpsychology",
        -1.0
      ],
      [
        "Ġharvesting",
        -1.0
      ],
      [
        "when",
        -1.0
      ],
      [
        "Ġpurpose",
        -1.0
      ],
      [
        "sensitivity",
        -1.0
      ],
      [
        "ĠBenjamin",
        -1.0
      ],
      [
        "ĠSalvador",
        -1.0
      ],
      [
        "distance",
        -1.0
      ],
      [
        "ĠHittite",
        -1.0
      ],
      [
        "Ġconvenience",
        -1.0
      ],
      [
        "ĠInvasive",
        -1.0
      ],
      [
        "Ġcounted",
        -1.0
      ],
      [
        "Ġhunger",
        -1.0
      ],
      [
        "Ġideas",
        -1.0
      ],
      [
        "hausen",
        -1.0
      ],
      [
        "black",
        -1.0
      ],
      [
        "ĠEleanor",
        -1.0
      ],
      [
        "Hispanic",
        -1.0
      ],
      [
        "ĠHus",
        -1.0
      ],
      [
        "Ġaw",
        -1.0
      ],
      [
        "ject",
        -1.0
      ],
      [
        "ĠWen",
        -1.0
      ],
      [
        "Ġ41",
        -1.0
      ],
      [
        "Ġdeveloped",
        -1.0
      ],
      [
        "Measuring",
        -1.0
      ],
      [
        "Ã¢",
        -1.0
      ],
      [
        "wash",
        -1.0
      ],
      [
        "available",
        -1.0
      ],
      [
        "Ġthrew",
        -1.0
      ],
      [
        "So",
        -1.0
      ],
      [
        "ĠBoeing",
        -1.0
      ],
      [
        "Ġluck",
        -1.0
      ],
      [
        "Ġthematic",
        -1.0
      ],
      [
        "Ġanomaly",
        -1.0
      ],
      [
        "Ġtrend",
        -1.0
      ],
      [
        "TE",
        -1.0
      ],
      [
        "Ġwheat",
        -1.0
      ],
      [
        "ney",
        -1.0
      ],
      [
        "ĠHumanities",
        -1.0
      ],
      [
        "pronounced",
        -1.0
      ],
      [
        "Ġmovements",
        -1.0
      ],
      [
        "ĠThat",
        -1.0
      ],
      [
        "Ġrebels",
        -1.0
      ],
      [
        "Ġlin",
        -1.0
      ],
      [
        "Ġdonated",
        -1.0
      ],
      [
        "HI",
        -1.0
      ],
      [
        "ĠSony",
        -1.0
      ],
      [
        "Ġreproduce",
        -1.0
      ],
      [
        "Ġlesion",
        -1.0
      ],
      [
        "Ġ1600",
        -1.0
      ],
      [
        "nds",
        -1.0
      ],
      [
        "Ġrenounce",
        -1.0
      ],
      [
        "ĠNy",
        -1.0
      ],
      [
        "Ġfashion",
        -1.0
      ],
      [
        "ĠKarnataka",
        -1.0
      ],
      [
        "Ġreturned",
        -1.0
      ],
      [
        "Issue",
        -1.0
      ],
      [
        "Ġpsoriasis",
        -1.0
      ],
      [
        "ĠGaribaldi",
        -1.0
      ],
      [
        "ĠAbdominal",
        -1.0
      ],
      [
        "Ġhomemade",
        -1.0
      ],
      [
        "ignment",
        -1.0
      ],
      [
        "Ġbiologist",
        -1.0
      ],
      [
        "Ġstarted",
        -1.0
      ],
      [
        "Ġgrace",
        -1.0
      ],
      [
        "ĠErie",
        -1.0
      ],
      [
        "ĠRefer",
        -1.0
      ],
      [
        "ĠWood",
        -1.0
      ],
      [
        "Ġsuperiority",
        -1.0
      ],
      [
        "ĠCoriolis",
        -1.0
      ],
      [
        "President",
        -1.0
      ],
      [
        "Ġmar",
        -1.0
      ],
      [
        "Ġqueen",
        -1.0
      ],
      [
        "ĠLo",
        -1.0
      ],
      [
        "yes",
        -1.0
      ],
      [
        "Ġfilmed",
        -1.0
      ],
      [
        "Ġunparalleled",
        -1.0
      ],
      [
        "Ġakin",
        -1.0
      ],
      [
        "ĠPet",
        -1.0
      ],
      [
        "Ġspacecraft",
        -1.0
      ],
      [
        "Ġbean",
        -1.0
      ],
      [
        "Ġcarotenoids",
        -1.0
      ],
      [
        "Ġwhy",
        -1.0
      ],
      [
        "Ġphosphate",
        -1.0
      ],
      [
        "ĠKenneth",
        -1.0
      ],
      [
        "Ġequivalents",
        -1.0
      ],
      [
        "ĠSisters",
        -1.0
      ],
      [
        "Ġpamphlets",
        -1.0
      ],
      [
        "Ïģ",
        -1.0
      ],
      [
        "Ġempires",
        -1.0
      ],
      [
        "ĠNBC",
        -1.0
      ],
      [
        "ĠAlbany",
        -1.0
      ],
      [
        "Ġrespective",
        -1.0
      ],
      [
        "Ġresolution",
        -1.0
      ],
      [
        "Ġkilling",
        -1.0
      ],
      [
        "Ġcantaloupe",
        -1.0
      ],
      [
        "Ġartificially",
        -1.0
      ],
      [
        "eMedicineHealth",
        -1.0
      ],
      [
        "ĠOhio",
        -1.0
      ],
      [
        "Ġdementia",
        -1.0
      ],
      [
        "Ġretrieval",
        -1.0
      ],
      [
        "ĠEnforcement",
        -1.0
      ],
      [
        "Ġbroaden",
        -1.0
      ],
      [
        "Ġcigarettes",
        -1.0
      ],
      [
        "Ġolds",
        -1.0
      ],
      [
        "ĠAttorney",
        -1.0
      ],
      [
        "ĠWein",
        -1.0
      ],
      [
        "forced",
        -1.0
      ],
      [
        "Fs",
        -1.0
      ],
      [
        "!âĢĿ",
        -1.0
      ],
      [
        "vable",
        -1.0
      ],
      [
        "Ġitalic",
        -1.0
      ],
      [
        "Ġadjectives",
        -1.0
      ],
      [
        "ĠHume",
        -1.0
      ],
      [
        "ĠTransparency",
        -1.0
      ],
      [
        "Ġgrowth",
        -1.0
      ],
      [
        ":-",
        -1.0
      ],
      [
        "Diagnosis",
        -1.0
      ],
      [
        "ĠCur",
        -1.0
      ],
      [
        "Ġlong",
        -1.0
      ],
      [
        "ĠImagination",
        -1.0
      ],
      [
        "Ġstimulate",
        -1.0
      ],
      [
        "ë",
        -1.0
      ],
      [
        "ĠAntioch",
        -1.0
      ],
      [
        "Ġlimit",
        -1.0
      ],
      [
        "Ġcarcinogens",
        -1.0
      ],
      [
        "West",
        -1.0
      ],
      [
        "ĠBow",
        -1.0
      ],
      [
        "RT",
        -1.0
      ],
      [
        "ĠGreenwich",
        -1.0
      ],
      [
        "Ġhardness",
        -1.0
      ],
      [
        "ended",
        -1.0
      ],
      [
        "Ġcharming",
        -1.0
      ],
      [
        "Ġforeign",
        -1.0
      ],
      [
        "Ġdemonstrations",
        -1.0
      ],
      [
        "ĠGuru",
        -1.0
      ],
      [
        "San",
        -1.0
      ],
      [
        "Ġgeometrical",
        -1.0
      ],
      [
        "Ġlaptops",
        -1.0
      ],
      [
        "Ġpredispose",
        -1.0
      ],
      [
        "Ġdegrading",
        -1.0
      ],
      [
        "Ġsad",
        -1.0
      ],
      [
        "ĠStart",
        -1.0
      ],
      [
        "ĠBiol",
        -1.0
      ],
      [
        "Ġlakes",
        -1.0
      ],
      [
        "tion",
        -1.0
      ],
      [
        "ĠArlington",
        -1.0
      ],
      [
        "ĠElephant",
        -1.0
      ],
      [
        "Ġproportion",
        -1.0
      ],
      [
        "Ġcave",
        -1.0
      ],
      [
        "don",
        -1.0
      ],
      [
        "ĠMah",
        -1.0
      ],
      [
        "Ġconsulting",
        -1.0
      ],
      [
        "ĠPractical",
        -1.0
      ],
      [
        "Ġeras",
        -1.0
      ],
      [
        "Ġvehicles",
        -1.0
      ],
      [
        "ĠWeather",
        -1.0
      ],
      [
        "Ġeosinophil",
        -1.0
      ],
      [
        "dynamic",
        -1.0
      ],
      [
        "ĠOctober",
        -1.0
      ],
      [
        "Ġspeeding",
        -1.0
      ],
      [
        "Ġdisgrace",
        -1.0
      ],
      [
        "Ġfar",
        -1.0
      ],
      [
        "Ġdissent",
        -1.0
      ],
      [
        "ĠInjury",
        -1.0
      ],
      [
        "Ġromantic",
        -1.0
      ],
      [
        "Ġpump",
        -1.0
      ],
      [
        "Acupuncture",
        -1.0
      ],
      [
        "Ġbacked",
        -1.0
      ],
      [
        "ĠS",
        -1.0
      ],
      [
        "ĠCelsius",
        -1.0
      ],
      [
        "Ġsimulations",
        -1.0
      ],
      [
        "prone",
        -1.0
      ],
      [
        "Ġundertake",
        -1.0
      ],
      [
        "nai",
        -1.0
      ],
      [
        "Ġflowers",
        -1.0
      ],
      [
        "ch",
        -1.0
      ],
      [
        "Ġpicks",
        -1.0
      ],
      [
        "hundred",
        -1.0
      ],
      [
        "Ġgovernors",
        -1.0
      ],
      [
        "Ġol",
        -1.0
      ],
      [
        "Ġlos",
        -1.0
      ],
      [
        "Ġpsalm",
        -1.0
      ],
      [
        "ses",
        -1.0
      ],
      [
        "organization",
        -1.0
      ],
      [
        "ene",
        -1.0
      ],
      [
        "Margaret",
        -1.0
      ],
      [
        "Ġpresumably",
        -1.0
      ],
      [
        "Ġthreatens",
        -1.0
      ],
      [
        "Ġreconsider",
        -1.0
      ],
      [
        "Solar",
        -1.0
      ],
      [
        "09",
        -1.0
      ],
      [
        "Ġpetroleum",
        -1.0
      ],
      [
        "Ġpath",
        -1.0
      ],
      [
        "Ġdistinguishes",
        -1.0
      ],
      [
        "Ġintegrate",
        -1.0
      ],
      [
        "Ġ1787",
        -1.0
      ],
      [
        "Ġdocumenting",
        -1.0
      ],
      [
        "ĠHiroshima",
        -1.0
      ],
      [
        "Ġextinction",
        -1.0
      ],
      [
        "Ġschemes",
        -1.0
      ],
      [
        "Ġmausoleum",
        -1.0
      ],
      [
        "Ġaffiliated",
        -1.0
      ],
      [
        "Ġfostering",
        -1.0
      ],
      [
        "ĠHope",
        -1.0
      ],
      [
        "ĠMorse",
        -1.0
      ],
      [
        "Queen",
        -1.0
      ],
      [
        "Learning",
        -1.0
      ],
      [
        "ĠTuesday",
        -1.0
      ],
      [
        "Ġconstructing",
        -1.0
      ],
      [
        "cl",
        -1.0
      ],
      [
        "ĠNovel",
        -1.0
      ],
      [
        "Ġcloudy",
        -1.0
      ],
      [
        "Ġvicinity",
        -1.0
      ],
      [
        "ĠTex",
        -1.0
      ],
      [
        "Ġanniversary",
        -1.0
      ],
      [
        "ĠLC",
        -1.0
      ],
      [
        "Ġnoticed",
        -1.0
      ],
      [
        "ĠIndividual",
        -1.0
      ],
      [
        "Ġviolence",
        -1.0
      ],
      [
        "Ġavailable",
        -1.0
      ],
      [
        "Emergency",
        -1.0
      ],
      [
        "Ġsummative",
        -1.0
      ],
      [
        "Ġdrawn",
        -1.0
      ],
      [
        "Ġfist",
        -1.0
      ],
      [
        "Ġmethods",
        -1.0
      ],
      [
        "Ġmega",
        -1.0
      ],
      [
        "almost",
        -1.0
      ],
      [
        "Ġinsight",
        -1.0
      ],
      [
        "Ġ1952",
        -1.0
      ],
      [
        "Ġfull",
        -1.0
      ],
      [
        "Ġagrarian",
        -1.0
      ],
      [
        "ĠDefense",
        -1.0
      ],
      [
        "com",
        -1.0
      ],
      [
        "Ġfoil",
        -1.0
      ],
      [
        "Ġmicroprocessor",
        -1.0
      ],
      [
        "ĠPlaza",
        -1.0
      ],
      [
        "Ġvibration",
        -1.0
      ],
      [
        "Ġassociations",
        -1.0
      ],
      [
        "icular",
        -1.0
      ],
      [
        "Ġbuses",
        -1.0
      ],
      [
        "ĠEven",
        -1.0
      ],
      [
        "Ġward",
        -1.0
      ],
      [
        "ĠSchopenhauer",
        -1.0
      ],
      [
        "Ġinvitation",
        -1.0
      ],
      [
        "Ġcontrasting",
        -1.0
      ],
      [
        "Ġconsum",
        -1.0
      ],
      [
        "Richard",
        -1.0
      ],
      [
        "Ġminus",
        -1.0
      ],
      [
        "360",
        -1.0
      ],
      [
        "Ġunethical",
        -1.0
      ],
      [
        "ĠMoney",
        -1.0
      ],
      [
        "Ġdisturbing",
        -1.0
      ],
      [
        "Ġfans",
        -1.0
      ],
      [
        "ĠBiological",
        -1.0
      ],
      [
        "Ġexpand",
        -1.0
      ],
      [
        "Ġcontracted",
        -1.0
      ],
      [
        "Ġkarma",
        -1.0
      ],
      [
        "ĠView",
        -1.0
      ],
      [
        "Ġuniquely",
        -1.0
      ],
      [
        "off",
        -1.0
      ],
      [
        "ĠMichel",
        -1.0
      ],
      [
        "Ġerupt",
        -1.0
      ],
      [
        "Ġdialects",
        -1.0
      ],
      [
        "Ġavian",
        -1.0
      ],
      [
        "ĠTao",
        -1.0
      ],
      [
        "ĠThomson",
        -1.0
      ],
      [
        "Ġmanuals",
        -1.0
      ],
      [
        "Ġaccess",
        -1.0
      ],
      [
        "Ġscent",
        -1.0
      ],
      [
        "ĠForestry",
        -1.0
      ],
      [
        "ĠDR",
        -1.0
      ],
      [
        "ĠRN",
        -1.0
      ],
      [
        "Ġstructure",
        -1.0
      ],
      [
        "Ġballistic",
        -1.0
      ],
      [
        "Publication",
        -1.0
      ],
      [
        "ĠDescartes",
        -1.0
      ],
      [
        "ĠAlzheimer",
        -1.0
      ],
      [
        "ack",
        -1.0
      ],
      [
        "ĠEighth",
        -1.0
      ],
      [
        "Again",
        -1.0
      ],
      [
        "Ġmarkings",
        -1.0
      ],
      [
        "Ġwestward",
        -1.0
      ],
      [
        "Ġmillion",
        -1.0
      ],
      [
        "Ġrigid",
        -1.0
      ],
      [
        "âĤ¬",
        -1.0
      ],
      [
        "Ġsabotage",
        -1.0
      ],
      [
        "ĠSimon",
        -1.0
      ],
      [
        "Ġjunction",
        -1.0
      ],
      [
        "ĠIbn",
        -1.0
      ],
      [
        "Ġonce",
        -1.0
      ],
      [
        "ĠKindergarten",
        -1.0
      ],
      [
        "Ġcomputational",
        -1.0
      ],
      [
        "Ġhelp",
        -1.0
      ],
      [
        "ĠUlysses",
        -1.0
      ],
      [
        "ĠX",
        -1.0
      ],
      [
        "Ġguarantee",
        -1.0
      ],
      [
        "ĠSeparate",
        -1.0
      ],
      [
        "function",
        -1.0
      ],
      [
        "ĠValley",
        -1.0
      ],
      [
        "ĠPeri",
        -1.0
      ],
      [
        "Ġinsulation",
        -1.0
      ],
      [
        "Read",
        -1.0
      ],
      [
        "Ġnetworking",
        -1.0
      ],
      [
        "Ġprior",
        -1.0
      ],
      [
        "ĠHopkins",
        -1.0
      ],
      [
        "ĠMaster",
        -1.0
      ],
      [
        "Ġfacilities",
        -1.0
      ],
      [
        "Ġflocks",
        -1.0
      ],
      [
        "Ġswear",
        -1.0
      ],
      [
        "Ġsunlight",
        -1.0
      ],
      [
        "Ġmaturation",
        -1.0
      ],
      [
        "ĠIron",
        -1.0
      ],
      [
        "ĠTheater",
        -1.0
      ],
      [
        "ĠMilan",
        -1.0
      ],
      [
        "berry",
        -1.0
      ],
      [
        "tain",
        -1.0
      ],
      [
        "Ġupbringing",
        -1.0
      ],
      [
        "Ġloud",
        -1.0
      ],
      [
        "Ġparchment",
        -1.0
      ],
      [
        "Ġenduring",
        -1.0
      ],
      [
        "Start",
        -1.0
      ],
      [
        "Ġsynapses",
        -1.0
      ],
      [
        "Ġidolatry",
        -1.0
      ],
      [
        "Ġhandsome",
        -1.0
      ],
      [
        "ĠIdentifier",
        -1.0
      ],
      [
        "Ġhospitals",
        -1.0
      ],
      [
        "illary",
        -1.0
      ],
      [
        "ĠForum",
        -1.0
      ],
      [
        "Ġcontrary",
        -1.0
      ],
      [
        "Ġembarrassing",
        -1.0
      ],
      [
        "Ġupward",
        -1.0
      ],
      [
        "ĠConqueror",
        -1.0
      ],
      [
        "Ġcosting",
        -1.0
      ],
      [
        "SCO",
        -1.0
      ],
      [
        "Ġinexpensive",
        -1.0
      ],
      [
        "Ġaging",
        -1.0
      ],
      [
        "Ġrecombination",
        -1.0
      ],
      [
        "patient",
        -1.0
      ],
      [
        "Ġanimated",
        -1.0
      ],
      [
        "Ġnoodles",
        -1.0
      ],
      [
        "Ġpredictions",
        -1.0
      ],
      [
        "ĠRecord",
        -1.0
      ],
      [
        "Ġnest",
        -1.0
      ],
      [
        "Ġ165",
        -1.0
      ],
      [
        "threatening",
        -1.0
      ],
      [
        "Ġthesis",
        -1.0
      ],
      [
        "Ġlabel",
        -1.0
      ],
      [
        "ĠTravel",
        -1.0
      ],
      [
        "Ġepi",
        -1.0
      ],
      [
        "exposure",
        -1.0
      ],
      [
        "listed",
        -1.0
      ],
      [
        "ĠLGBT",
        -1.0
      ],
      [
        "Ġsway",
        -1.0
      ],
      [
        "Ġmiddle",
        -1.0
      ],
      [
        "NIH",
        -1.0
      ],
      [
        "Ġdocking",
        -1.0
      ],
      [
        "Ġalcoholic",
        -1.0
      ],
      [
        "ĠAntarctica",
        -1.0
      ],
      [
        "azole",
        -1.0
      ],
      [
        "ĠSacred",
        -1.0
      ],
      [
        "ĠReport",
        -1.0
      ],
      [
        "Ġangles",
        -1.0
      ],
      [
        "NG",
        -1.0
      ],
      [
        "Ġlongstanding",
        -1.0
      ],
      [
        "Ġatherosclerosis",
        -1.0
      ],
      [
        "Every",
        -1.0
      ],
      [
        "Ġlawyer",
        -1.0
      ],
      [
        "moon",
        -1.0
      ],
      [
        "Ġtrading",
        -1.0
      ],
      [
        "religion",
        -1.0
      ],
      [
        "ĠCraft",
        -1.0
      ],
      [
        "ĠAfter",
        -1.0
      ],
      [
        "ĠSalmon",
        -1.0
      ],
      [
        "Science",
        -1.0
      ],
      [
        "ĠKe",
        -1.0
      ],
      [
        "Ġsheds",
        -1.0
      ],
      [
        "modern",
        -1.0
      ],
      [
        "ops",
        -1.0
      ],
      [
        "Ġsignature",
        -1.0
      ],
      [
        "Ġfetus",
        -1.0
      ],
      [
        "Ġoffice",
        -1.0
      ],
      [
        "ĠPositive",
        -1.0
      ],
      [
        "Ġplotted",
        -1.0
      ],
      [
        "ĠKoch",
        -1.0
      ],
      [
        "ĠMo",
        -1.0
      ],
      [
        "Ġoverwhelming",
        -1.0
      ],
      [
        "Ġapparently",
        -1.0
      ],
      [
        "Ġpacking",
        -1.0
      ],
      [
        "Ġfamilies",
        -1.0
      ],
      [
        "ĠXVI",
        -1.0
      ],
      [
        "Ġcontain",
        -1.0
      ],
      [
        "Ġcapitalism",
        -1.0
      ],
      [
        "ĠClimate",
        -1.0
      ],
      [
        "Ġunclear",
        -1.0
      ],
      [
        "Ġindividualized",
        -1.0
      ],
      [
        "Ġscreening",
        -1.0
      ],
      [
        "ĠPurpose",
        -1.0
      ],
      [
        "Ġproxies",
        -1.0
      ],
      [
        "ĠAmsterdam",
        -1.0
      ],
      [
        "Ġinject",
        -1.0
      ],
      [
        "Ġciting",
        -1.0
      ],
      [
        "Ġfield",
        -1.0
      ],
      [
        "ĠVia",
        -1.0
      ],
      [
        "ĠTC",
        -1.0
      ],
      [
        "Ġexercises",
        -1.0
      ],
      [
        "Ø§Ø",
        -1.0
      ],
      [
        "Ġcredentials",
        -1.0
      ],
      [
        "Ġcatching",
        -1.0
      ],
      [
        "Ġun",
        -1.0
      ],
      [
        "ĠAsian",
        -1.0
      ],
      [
        "ĠWright",
        -1.0
      ],
      [
        "ĠInterestingly",
        -1.0
      ],
      [
        "Ġdiagrams",
        -1.0
      ],
      [
        "Ġwasteful",
        -1.0
      ],
      [
        "Ġfactual",
        -1.0
      ],
      [
        "Ġinjunction",
        -1.0
      ],
      [
        "Ġdoctor",
        -1.0
      ],
      [
        "ĠInstruction",
        -1.0
      ],
      [
        "Ġcomment",
        -1.0
      ],
      [
        "ĠProvides",
        -1.0
      ],
      [
        "ĠTibet",
        -1.0
      ],
      [
        "ĠTdap",
        -1.0
      ],
      [
        "Ġlaughed",
        -1.0
      ],
      [
        "..",
        -1.0
      ],
      [
        "ĠEarl",
        -1.0
      ],
      [
        "Genesis",
        -1.0
      ],
      [
        "ĠReconstruction",
        -1.0
      ],
      [
        "ĠSpecialist",
        -1.0
      ],
      [
        "ĠActs",
        -1.0
      ],
      [
        "ĠInca",
        -1.0
      ],
      [
        "Ġapproximate",
        -1.0
      ],
      [
        "Ġabstract",
        -1.0
      ],
      [
        "ĠPrefecture",
        -1.0
      ],
      [
        "Ġreptile",
        -1.0
      ],
      [
        "Ġpanic",
        -1.0
      ],
      [
        "ĠSupport",
        -1.0
      ],
      [
        "Ġhoping",
        -1.0
      ],
      [
        "Ġwill",
        -1.0
      ],
      [
        "Ġnorthward",
        -1.0
      ],
      [
        "ĠH",
        -1.0
      ],
      [
        "Ġestimated",
        -1.0
      ],
      [
        "Ġcharter",
        -1.0
      ],
      [
        "Ġconsuming",
        -1.0
      ],
      [
        "Ġglimpse",
        -1.0
      ],
      [
        "ADACEL",
        -1.0
      ],
      [
        "Ġrite",
        -1.0
      ],
      [
        "Ġsuperior",
        -1.0
      ],
      [
        "ĠSomeone",
        -1.0
      ],
      [
        "Ġcouncils",
        -1.0
      ],
      [
        "help",
        -1.0
      ],
      [
        "Ġcattle",
        -1.0
      ],
      [
        "Ġendothelial",
        -1.0
      ],
      [
        "Dictionary",
        -1.0
      ],
      [
        "ĠCourses",
        -1.0
      ],
      [
        "Ġapplication",
        -1.0
      ],
      [
        "beta",
        -1.0
      ],
      [
        "link",
        -1.0
      ],
      [
        "ĠArmed",
        -1.0
      ],
      [
        "Ġregistering",
        -1.0
      ],
      [
        "flower",
        -1.0
      ],
      [
        "ĠEscherichia",
        -1.0
      ],
      [
        "Ġna",
        -1.0
      ],
      [
        "Ġasteroid",
        -1.0
      ],
      [
        "Ġlatex",
        -1.0
      ],
      [
        "Ġbounded",
        -1.0
      ],
      [
        "Ġinterface",
        -1.0
      ],
      [
        "Ġperception",
        -1.0
      ],
      [
        "Ġelderly",
        -1.0
      ],
      [
        "eb",
        -1.0
      ],
      [
        "Ġlegislation",
        -1.0
      ],
      [
        "Ġdistinguish",
        -1.0
      ],
      [
        "Ġfanatic",
        -1.0
      ],
      [
        "ĠDirective",
        -1.0
      ],
      [
        "Ġcontinuously",
        -1.0
      ],
      [
        "Regardless",
        -1.0
      ],
      [
        "ĠHistorians",
        -1.0
      ],
      [
        "Ġcoronary",
        -1.0
      ],
      [
        "ĠReagan",
        -1.0
      ],
      [
        "Besides",
        -1.0
      ],
      [
        "ĠGC",
        -1.0
      ],
      [
        "ĠOsteoporosis",
        -1.0
      ],
      [
        "Ġaspects",
        -1.0
      ],
      [
        "Ġconstellations",
        -1.0
      ],
      [
        "ĠJosephus",
        -1.0
      ],
      [
        "Ġvengeance",
        -1.0
      ],
      [
        "Ġsimultaneous",
        -1.0
      ],
      [
        "ĠParliament",
        -1.0
      ],
      [
        "Ġlandmark",
        -1.0
      ],
      [
        "Ġcomplement",
        -1.0
      ],
      [
        "Ġcloser",
        -1.0
      ],
      [
        "Ġtheaters",
        -1.0
      ],
      [
        "Ġmagnitude",
        -1.0
      ],
      [
        "Ġhierarchies",
        -1.0
      ],
      [
        "ĠExcessive",
        -1.0
      ],
      [
        "Ġveins",
        -1.0
      ],
      [
        "Ġdone",
        -1.0
      ],
      [
        "Ġmitral",
        -1.0
      ],
      [
        "Ġphilosophy",
        -1.0
      ],
      [
        "Ġmismatch",
        -1.0
      ],
      [
        "Ġendorsement",
        -1.0
      ],
      [
        "ĠShuttle",
        -1.0
      ],
      [
        "year",
        -1.0
      ],
      [
        "Ġdismiss",
        -1.0
      ],
      [
        "|âĢľ||",
        -1.0
      ],
      [
        "Ġeardrum",
        -1.0
      ],
      [
        "fossil",
        -1.0
      ],
      [
        "Ġuninterrupted",
        -1.0
      ],
      [
        "Ġboundary",
        -1.0
      ],
      [
        "Ġdermatitis",
        -1.0
      ],
      [
        "Ġassists",
        -1.0
      ],
      [
        "Ġpredecessor",
        -1.0
      ],
      [
        "ĠImagine",
        -1.0
      ],
      [
        "ĠFill",
        -1.0
      ],
      [
        "ables",
        -1.0
      ],
      [
        "Ġfocus",
        -1.0
      ],
      [
        "Ġiii",
        -1.0
      ],
      [
        "Ġ1966",
        -1.0
      ],
      [
        "Ġgenerated",
        -1.0
      ],
      [
        "10",
        -1.0
      ],
      [
        "210",
        -1.0
      ],
      [
        "Ġtreaties",
        -1.0
      ],
      [
        "Ġcreates",
        -1.0
      ],
      [
        "Ġmonitor",
        -1.0
      ],
      [
        "ĠIT",
        -1.0
      ],
      [
        "ana",
        -1.0
      ],
      [
        "Ġoverweight",
        -1.0
      ],
      [
        "Information",
        -1.0
      ],
      [
        "Ġbays",
        -1.0
      ],
      [
        "Ġtrivial",
        -1.0
      ],
      [
        "Ġescort",
        -1.0
      ],
      [
        "Ġbacterium",
        -1.0
      ],
      [
        "Ġrecords",
        -1.0
      ],
      [
        "Ġemergencies",
        -1.0
      ],
      [
        "ĠMifflin",
        -1.0
      ],
      [
        "ĠDiscrimination",
        -1.0
      ],
      [
        "ĠSel",
        -1.0
      ],
      [
        "ĠBal",
        -1.0
      ],
      [
        "Ġrestriction",
        -1.0
      ],
      [
        "rooms",
        -1.0
      ],
      [
        "Ġchildbirth",
        -1.0
      ],
      [
        "ĠAz",
        -1.0
      ],
      [
        "ĠFried",
        -1.0
      ],
      [
        "Ġdraining",
        -1.0
      ],
      [
        "Ġfounding",
        -1.0
      ],
      [
        "ĠStrike",
        -1.0
      ],
      [
        "Ġinfluential",
        -1.0
      ],
      [
        "ĠApr",
        -1.0
      ],
      [
        "acy",
        -1.0
      ],
      [
        "Ġnotified",
        -1.0
      ],
      [
        "Ġassessments",
        -1.0
      ],
      [
        "Ġappealed",
        -1.0
      ],
      [
        "day",
        -1.0
      ],
      [
        "Ġstrings",
        -1.0
      ],
      [
        "Ġevolutionists",
        -1.0
      ],
      [
        "Ġ1912",
        -1.0
      ],
      [
        "È",
        -1.0
      ],
      [
        "ĠIntellectual",
        -1.0
      ],
      [
        "ĠUn",
        -1.0
      ],
      [
        "Ġrehabilit",
        -1.0
      ],
      [
        "ĠRoad",
        -1.0
      ],
      [
        "Common",
        -1.0
      ],
      [
        "ĠLucas",
        -1.0
      ],
      [
        "FranÃ§ois",
        -1.0
      ],
      [
        "Ġgestation",
        -1.0
      ],
      [
        "ĠCapitol",
        -1.0
      ],
      [
        "Ġexistential",
        -1.0
      ],
      [
        "Ġgratitude",
        -1.0
      ],
      [
        "Ġ24",
        -1.0
      ],
      [
        "Ġ1923",
        -1.0
      ],
      [
        "ĠBomb",
        -1.0
      ],
      [
        "ĠFederation",
        -1.0
      ],
      [
        "ĠJoin",
        -1.0
      ],
      [
        "Roman",
        -1.0
      ],
      [
        "Ġlocale",
        -1.0
      ],
      [
        "Ġautomation",
        -1.0
      ],
      [
        "ĠLang",
        -1.0
      ],
      [
        "Ġbrown",
        -1.0
      ],
      [
        "Ġsubsidized",
        -1.0
      ],
      [
        "Ġgalaxy",
        -1.0
      ],
      [
        "ĠSurgery",
        -1.0
      ],
      [
        "ĠCycl",
        -1.0
      ],
      [
        "Ġplayed",
        -1.0
      ],
      [
        "Ġ98",
        -1.0
      ],
      [
        "=",
        -1.0
      ],
      [
        "Ġinfertility",
        -1.0
      ],
      [
        "Certain",
        -1.0
      ],
      [
        "Ġevacuate",
        -1.0
      ],
      [
        "people",
        -1.0
      ],
      [
        "Ġdisappears",
        -1.0
      ],
      [
        "Ġmembranes",
        -1.0
      ],
      [
        "ĠSutton",
        -1.0
      ],
      [
        "?âĢĿ",
        -1.0
      ],
      [
        "Ġhorn",
        -1.0
      ],
      [
        "ens",
        -1.0
      ],
      [
        "ern",
        -1.0
      ],
      [
        "Ġenthusiast",
        -1.0
      ],
      [
        "Ġsymbolism",
        -1.0
      ],
      [
        "Ġsaves",
        -1.0
      ],
      [
        "Ġdwell",
        -1.0
      ],
      [
        "ĠHBV",
        -1.0
      ],
      [
        "ĠBrush",
        -1.0
      ],
      [
        "Ġneurological",
        -1.0
      ],
      [
        "Ġgardens",
        -1.0
      ],
      [
        "Ġcomrades",
        -1.0
      ],
      [
        "ographic",
        -1.0
      ],
      [
        "Ġdynamically",
        -1.0
      ],
      [
        "va",
        -1.0
      ],
      [
        "ĠDistinguished",
        -1.0
      ],
      [
        "Ġstains",
        -1.0
      ],
      [
        "growing",
        -1.0
      ],
      [
        "64",
        -1.0
      ],
      [
        "large",
        -1.0
      ],
      [
        "milk",
        -1.0
      ],
      [
        "Ġtourist",
        -1.0
      ],
      [
        "Ġasset",
        -1.0
      ],
      [
        "think",
        -1.0
      ],
      [
        "ases",
        -1.0
      ],
      [
        "Ġrecommends",
        -1.0
      ],
      [
        "ĠWy",
        -1.0
      ],
      [
        "ĠPaint",
        -1.0
      ],
      [
        "Ġactivist",
        -1.0
      ],
      [
        "STER",
        -1.0
      ],
      [
        "African",
        -1.0
      ],
      [
        "Dec",
        -1.0
      ],
      [
        "process",
        -1.0
      ],
      [
        "Ġhatching",
        -1.0
      ],
      [
        "Ġwildlife",
        -1.0
      ],
      [
        "Ġoutlined",
        -1.0
      ],
      [
        "dong",
        -1.0
      ],
      [
        "ĠÂ£",
        -1.0
      ],
      [
        "ĠIndonesia",
        -1.0
      ],
      [
        "ĠMicrobiology",
        -1.0
      ],
      [
        "Ġenrolled",
        -1.0
      ],
      [
        "ĠMid",
        -1.0
      ],
      [
        "Ġflourished",
        -1.0
      ],
      [
        "Ġready",
        -1.0
      ],
      [
        "Not",
        -1.0
      ],
      [
        "Ġintelligible",
        -1.0
      ],
      [
        "Ġsteroids",
        -1.0
      ],
      [
        "smoking",
        -1.0
      ],
      [
        "Ġresponsibility",
        -1.0
      ],
      [
        "sufficient",
        -1.0
      ],
      [
        "Ġeasiest",
        -1.0
      ],
      [
        "Ġcompetitiveness",
        -1.0
      ],
      [
        "Ġdecline",
        -1.0
      ],
      [
        "ĠCorona",
        -1.0
      ],
      [
        "remember",
        -1.0
      ],
      [
        "Ġplayground",
        -1.0
      ],
      [
        "Ġhitting",
        -1.0
      ],
      [
        "ĠUnion",
        -1.0
      ],
      [
        "design",
        -1.0
      ],
      [
        "BA",
        -1.0
      ],
      [
        "Ġspelling",
        -1.0
      ],
      [
        "ddle",
        -1.0
      ],
      [
        "ĠStories",
        -1.0
      ],
      [
        "Ġhurricanes",
        -1.0
      ],
      [
        "Ġ1997",
        -1.0
      ],
      [
        "security",
        -1.0
      ],
      [
        "ino",
        -1.0
      ],
      [
        "Ġinadequate",
        -1.0
      ],
      [
        "ĠBelgium",
        -1.0
      ],
      [
        "Ġcatalysts",
        -1.0
      ],
      [
        "Ġcold",
        -1.0
      ],
      [
        "duction",
        -1.0
      ],
      [
        "yle",
        -1.0
      ],
      [
        ":|",
        -1.0
      ],
      [
        "ĠEnvironment",
        -1.0
      ],
      [
        "Ġsalmonella",
        -1.0
      ],
      [
        "Ġdefeated",
        -1.0
      ],
      [
        "Ġspeech",
        -1.0
      ],
      [
        "Ġentanglement",
        -1.0
      ],
      [
        "ĠSimilar",
        -1.0
      ],
      [
        "Ġrequire",
        -1.0
      ],
      [
        "Ġaroma",
        -1.0
      ],
      [
        "Ġperish",
        -1.0
      ],
      [
        "regular",
        -1.0
      ],
      [
        "Ġflat",
        -1.0
      ],
      [
        "Age",
        -1.0
      ],
      [
        "Ġrendering",
        -1.0
      ],
      [
        "positive",
        -1.0
      ],
      [
        "Ġtypically",
        -1.0
      ],
      [
        "Ġregard",
        -1.0
      ],
      [
        "Ġprune",
        -1.0
      ],
      [
        "Ġisolate",
        -1.0
      ],
      [
        "Ġmagnificent",
        -1.0
      ],
      [
        "ĠV",
        -1.0
      ],
      [
        "Ġdespair",
        -1.0
      ],
      [
        "Ġpredator",
        -1.0
      ],
      [
        "Ġdisasters",
        -1.0
      ],
      [
        "ĠWords",
        -1.0
      ],
      [
        "Ġtransistors",
        -1.0
      ],
      [
        "Ġowns",
        -1.0
      ],
      [
        "two",
        -1.0
      ],
      [
        "Ka",
        -1.0
      ],
      [
        "Ã°",
        -1.0
      ],
      [
        "Ġgave",
        -1.0
      ],
      [
        "why",
        -1.0
      ],
      [
        "Michel",
        -1.0
      ],
      [
        "ĠIndies",
        -1.0
      ],
      [
        "Ġscholarly",
        -1.0
      ],
      [
        "Ġreplacements",
        -1.0
      ],
      [
        "ĠMoravia",
        -1.0
      ],
      [
        "mes",
        -1.0
      ],
      [
        "Ġ1854",
        -1.0
      ],
      [
        "Ġ56",
        -1.0
      ],
      [
        "Ġbaptism",
        -1.0
      ],
      [
        "Ġ1922",
        -1.0
      ],
      [
        "Ġrunning",
        -1.0
      ],
      [
        "3",
        -1.0
      ],
      [
        "ĠLock",
        -1.0
      ],
      [
        "ĠBraun",
        -1.0
      ],
      [
        "ĠNeuroscience",
        -1.0
      ],
      [
        "Ġworkpiece",
        -1.0
      ],
      [
        "EU",
        -1.0
      ],
      [
        "Ġstops",
        -1.0
      ],
      [
        "Ġallocation",
        -1.0
      ],
      [
        "Ġinterested",
        -1.0
      ],
      [
        "Ġnorth",
        -1.0
      ],
      [
        "Ġecho",
        -1.0
      ],
      [
        "Ġviewer",
        -1.0
      ],
      [
        "Ġeffected",
        -1.0
      ],
      [
        "ĠWichita",
        -1.0
      ],
      [
        "ĠGH",
        -1.0
      ],
      [
        "ĠCherokee",
        -1.0
      ],
      [
        "kara",
        -1.0
      ],
      [
        "Ġcreeping",
        -1.0
      ],
      [
        "Ġorganic",
        -1.0
      ],
      [
        "Ġsouthwest",
        -1.0
      ],
      [
        "ĠMessiah",
        -1.0
      ],
      [
        "Ġacquisition",
        -1.0
      ],
      [
        "Ġdestabil",
        -1.0
      ],
      [
        "Ġshoot",
        -1.0
      ],
      [
        "Ġdisk",
        -1.0
      ],
      [
        "Ġproclamation",
        -1.0
      ],
      [
        "Ġrecurrence",
        -1.0
      ],
      [
        "Ġrewrite",
        -1.0
      ],
      [
        "á¹",
        -1.0
      ],
      [
        "Browse",
        -1.0
      ],
      [
        "Ġleagues",
        -1.0
      ],
      [
        "Personal",
        -1.0
      ],
      [
        "Ġadjusted",
        -1.0
      ],
      [
        "Ġarctic",
        -1.0
      ],
      [
        "Ġautoimmune",
        -1.0
      ],
      [
        "Ġresume",
        -1.0
      ],
      [
        "Ġbasically",
        -1.0
      ],
      [
        "Ġkittens",
        -1.0
      ],
      [
        "Data",
        -1.0
      ],
      [
        "Ġhammer",
        -1.0
      ],
      [
        "Ġintricate",
        -1.0
      ],
      [
        "Statistics",
        -1.0
      ],
      [
        "Ġnerves",
        -1.0
      ],
      [
        "Ġbayonet",
        -1.0
      ],
      [
        "Ġclockwise",
        -1.0
      ],
      [
        "Ġrarity",
        -1.0
      ],
      [
        "they",
        -1.0
      ],
      [
        "Ġimplants",
        -1.0
      ],
      [
        "ĠGlen",
        -1.0
      ],
      [
        "Wind",
        -1.0
      ],
      [
        "Ġchosen",
        -1.0
      ],
      [
        "Ġsenators",
        -1.0
      ],
      [
        "caused",
        -1.0
      ],
      [
        "Ġundeniable",
        -1.0
      ],
      [
        "Ġsulfate",
        -1.0
      ],
      [
        "Ġhousehold",
        -1.0
      ],
      [
        "Ġpirates",
        -1.0
      ],
      [
        "ĠFactory",
        -1.0
      ],
      [
        "FIG",
        -1.0
      ],
      [
        "Ġdoubtless",
        -1.0
      ],
      [
        "Ġevaporation",
        -1.0
      ],
      [
        "Ġ(?),",
        -1.0
      ],
      [
        "ĠNN",
        -1.0
      ],
      [
        "Ġstabilization",
        -1.0
      ],
      [
        "Ġskyscraper",
        -1.0
      ],
      [
        "Ġcontribute",
        -1.0
      ],
      [
        "Ġcrusade",
        -1.0
      ],
      [
        "Į",
        -1.0
      ],
      [
        "Ġslogan",
        -1.0
      ],
      [
        "sef",
        -1.0
      ],
      [
        "ĠEconomic",
        -1.0
      ],
      [
        "gay",
        -1.0
      ],
      [
        "es",
        -1.0
      ],
      [
        "Ġsynonymous",
        -1.0
      ],
      [
        "ĠPractices",
        -1.0
      ],
      [
        "ĠKuwait",
        -1.0
      ],
      [
        "Ġforgotten",
        -1.0
      ],
      [
        "Ġfeedstock",
        -1.0
      ],
      [
        "Ġreturn",
        -1.0
      ],
      [
        "Ġ30",
        -1.0
      ],
      [
        "Ġlikely",
        -1.0
      ],
      [
        "Ġstorage",
        -1.0
      ],
      [
        "Ġalgebra",
        -1.0
      ],
      [
        "**",
        -1.0
      ],
      [
        "Ġracial",
        -1.0
      ],
      [
        "Ġrelativity",
        -1.0
      ],
      [
        "eville",
        -1.0
      ],
      [
        "ĠMat",
        -1.0
      ],
      [
        "Ġunveil",
        -1.0
      ],
      [
        "Ġpatronage",
        -1.0
      ],
      [
        "Ġdesignated",
        -1.0
      ],
      [
        "dal",
        -1.0
      ],
      [
        "fresh",
        -1.0
      ],
      [
        "ĠWildlife",
        -1.0
      ],
      [
        "Ġsteadfast",
        -1.0
      ],
      [
        "Ġban",
        -1.0
      ],
      [
        "Ġspirituality",
        -1.0
      ],
      [
        "Ġbeings",
        -1.0
      ],
      [
        "Ġsemiconductor",
        -1.0
      ],
      [
        "Ġvessels",
        -1.0
      ],
      [
        "Dear",
        -1.0
      ],
      [
        "Ġcancel",
        -1.0
      ],
      [
        "Ġrelieve",
        -1.0
      ],
      [
        "Ġspin",
        -1.0
      ],
      [
        "Ġbark",
        -1.0
      ],
      [
        "Ġfacilitator",
        -1.0
      ],
      [
        "Best",
        -1.0
      ],
      [
        "Ġdeserts",
        -1.0
      ],
      [
        "Ġchairman",
        -1.0
      ],
      [
        "ĠClara",
        -1.0
      ],
      [
        "Ġtransmitters",
        -1.0
      ],
      [
        "Ġstatewide",
        -1.0
      ],
      [
        "ĠZoroastrian",
        -1.0
      ],
      [
        "Ġharvested",
        -1.0
      ],
      [
        "leaf",
        -1.0
      ],
      [
        "inus",
        -1.0
      ],
      [
        "ĠNichol",
        -1.0
      ],
      [
        "ĠCornell",
        -1.0
      ],
      [
        "Ġrev",
        -1.0
      ],
      [
        "Ġanalyst",
        -1.0
      ],
      [
        "FR",
        -1.0
      ],
      [
        "ĠArsenic",
        -1.0
      ],
      [
        "ef",
        -1.0
      ],
      [
        "ĠAround",
        -1.0
      ],
      [
        "Ġstill",
        -1.0
      ],
      [
        "Ġfabrics",
        -1.0
      ],
      [
        "Ġclo",
        -1.0
      ],
      [
        "Ġyield",
        -1.0
      ],
      [
        "Ġtribes",
        -1.0
      ],
      [
        "Ġcredited",
        -1.0
      ],
      [
        "Ġreactive",
        -1.0
      ],
      [
        "ĠDirectors",
        -1.0
      ],
      [
        "Ġdefendants",
        -1.0
      ],
      [
        "ĠRS",
        -1.0
      ],
      [
        "ĠCases",
        -1.0
      ],
      [
        "ĠSubsequently",
        -1.0
      ],
      [
        "ĠTesla",
        -1.0
      ],
      [
        "stein",
        -1.0
      ],
      [
        "math",
        -1.0
      ],
      [
        "ĠNews",
        -1.0
      ],
      [
        "Ġblamed",
        -1.0
      ],
      [
        "Ġrelying",
        -1.0
      ],
      [
        "ĠAlice",
        -1.0
      ],
      [
        "ĠIntelligence",
        -1.0
      ],
      [
        "ĠBul",
        -1.0
      ],
      [
        "Ġpoised",
        -1.0
      ],
      [
        "ĠAS",
        -1.0
      ],
      [
        "present",
        -1.0
      ],
      [
        "Ġsymptoms",
        -1.0
      ],
      [
        "Ġfolly",
        -1.0
      ],
      [
        "Ġvoting",
        -1.0
      ],
      [
        "Ġconditional",
        -1.0
      ],
      [
        "Improving",
        -1.0
      ],
      [
        "ĠVoyage",
        -1.0
      ],
      [
        "Ġcollaborative",
        -1.0
      ],
      [
        "Ġorphans",
        -1.0
      ],
      [
        "ĠArt",
        -1.0
      ],
      [
        "ĠCypri",
        -1.0
      ],
      [
        ".âĢĻ",
        -1.0
      ],
      [
        "ference",
        -1.0
      ],
      [
        "Ġbreak",
        -1.0
      ],
      [
        "Ġhyster",
        -1.0
      ],
      [
        "Ã§",
        -1.0
      ],
      [
        "Ġintersection",
        -1.0
      ],
      [
        "ÏĢ",
        -1.0
      ],
      [
        "Ġ(=",
        -1.0
      ],
      [
        "Ġwanting",
        -1.0
      ],
      [
        "ĠWalt",
        -1.0
      ],
      [
        "Ġinternet",
        -1.0
      ],
      [
        "Ġlabelled",
        -1.0
      ],
      [
        "Ġ50",
        -1.0
      ],
      [
        "Ġcautioned",
        -1.0
      ],
      [
        "1774",
        -1.0
      ],
      [
        "ĠPrinting",
        -1.0
      ],
      [
        "Ġvision",
        -1.0
      ],
      [
        "Ġsites",
        -1.0
      ],
      [
        "Ġdeprivation",
        -1.0
      ],
      [
        "outside",
        -1.0
      ],
      [
        "Ġcapsule",
        -1.0
      ],
      [
        "ting",
        -1.0
      ],
      [
        "Ġshareholders",
        -1.0
      ],
      [
        "ĠFriedrich",
        -1.0
      ],
      [
        "B",
        -1.0
      ],
      [
        "Ġjournalists",
        -1.0
      ],
      [
        "Ġpurchases",
        -1.0
      ],
      [
        "Ġabundant",
        -1.0
      ],
      [
        "Ġutilization",
        -1.0
      ],
      [
        "educated",
        -1.0
      ],
      [
        "SH",
        -1.0
      ],
      [
        "Ġobservational",
        -1.0
      ],
      [
        "Ġrenewable",
        -1.0
      ],
      [
        "Ġzip",
        -1.0
      ],
      [
        "resources",
        -1.0
      ],
      [
        "Ġresort",
        -1.0
      ],
      [
        "Ġmeats",
        -1.0
      ],
      [
        "Ġcareful",
        -1.0
      ],
      [
        "Visual",
        -1.0
      ],
      [
        "ĠQuest",
        -1.0
      ],
      [
        "ure",
        -1.0
      ],
      [
        "ĠjÄ«va",
        -1.0
      ],
      [
        "Ġcontroller",
        -1.0
      ],
      [
        "Ġdiagnoses",
        -1.0
      ],
      [
        "ĠLt",
        -1.0
      ],
      [
        "Ġdevelopments",
        -1.0
      ],
      [
        "Ġappearance",
        -1.0
      ],
      [
        "ĠHISTORY",
        -1.0
      ],
      [
        "âĢĿ,",
        -1.0
      ],
      [
        "Lewis",
        -1.0
      ],
      [
        "Adult",
        -1.0
      ],
      [
        "Ġsolvent",
        -1.0
      ],
      [
        "patients",
        -1.0
      ],
      [
        "Ġalso",
        -1.0
      ],
      [
        "ics",
        -1.0
      ],
      [
        "Ġoneself",
        -1.0
      ],
      [
        "Ġchalk",
        -1.0
      ],
      [
        "Ġoffering",
        -1.0
      ],
      [
        "Ġdirection",
        -1.0
      ],
      [
        "Ġfluid",
        -1.0
      ],
      [
        "ĠWOR",
        -1.0
      ],
      [
        "Ġstage",
        -1.0
      ],
      [
        "inter",
        -1.0
      ],
      [
        "ĠBerry",
        -1.0
      ],
      [
        "Ġshower",
        -1.0
      ],
      [
        "ĠInternet",
        -1.0
      ],
      [
        "ĠCoral",
        -1.0
      ],
      [
        "Ġinnovation",
        -1.0
      ],
      [
        "Ġhull",
        -1.0
      ],
      [
        "ĠDevices",
        -1.0
      ],
      [
        "covered",
        -1.0
      ],
      [
        "EN",
        -1.0
      ],
      [
        "Ġreveal",
        -1.0
      ],
      [
        "ĠDuke",
        -1.0
      ],
      [
        "used",
        -1.0
      ],
      [
        "Ġbifida",
        -1.0
      ],
      [
        "Ġtravelers",
        -1.0
      ],
      [
        "Ġfiles",
        -1.0
      ],
      [
        "Ġsolving",
        -1.0
      ],
      [
        "Ø",
        -1.0
      ],
      [
        "Ġmobilization",
        -1.0
      ],
      [
        "Ġconcentrates",
        -1.0
      ],
      [
        "Ġevacuated",
        -1.0
      ],
      [
        "Ġtriangular",
        -1.0
      ],
      [
        "Ġslate",
        -1.0
      ],
      [
        "Ġphenotype",
        -1.0
      ],
      [
        "Ġfight",
        -1.0
      ],
      [
        "ĠRecovery",
        -1.0
      ],
      [
        "ĠAssyria",
        -1.0
      ],
      [
        "Add",
        -1.0
      ],
      [
        "ĠDream",
        -1.0
      ],
      [
        "ĠElizabeth",
        -1.0
      ],
      [
        "mar",
        -1.0
      ],
      [
        "Ġstrenuous",
        -1.0
      ],
      [
        "Ġcompletion",
        -1.0
      ],
      [
        "Ġpneumoniae",
        -1.0
      ],
      [
        "Ġmisuse",
        -1.0
      ],
      [
        "ĠContinental",
        -1.0
      ],
      [
        "Ġ204",
        -1.0
      ],
      [
        "Ġpixel",
        -1.0
      ],
      [
        "Ġoccupied",
        -1.0
      ],
      [
        "Ġfluency",
        -1.0
      ],
      [
        "Ġ1792",
        -1.0
      ],
      [
        "Travel",
        -1.0
      ],
      [
        "ĠThan",
        -1.0
      ],
      [
        "1955",
        -1.0
      ],
      [
        "Ġmistake",
        -1.0
      ],
      [
        "ĠMetropolitan",
        -1.0
      ],
      [
        "Ġdozen",
        -1.0
      ],
      [
        "NT",
        -1.0
      ],
      [
        "confidence",
        -1.0
      ],
      [
        "Ġep",
        -1.0
      ],
      [
        "Ġtube",
        -1.0
      ],
      [
        "ĠFalk",
        -1.0
      ],
      [
        "Saint",
        -1.0
      ],
      [
        "Ġserving",
        -1.0
      ],
      [
        "ĠGarden",
        -1.0
      ],
      [
        "Ġaudit",
        -1.0
      ],
      [
        "ĠWhy",
        -1.0
      ],
      [
        "Ġbarge",
        -1.0
      ],
      [
        "Ġroyalty",
        -1.0
      ],
      [
        "Ġliteracy",
        -1.0
      ],
      [
        "Ġcoup",
        -1.0
      ],
      [
        "ĠCha",
        -1.0
      ],
      [
        "Garden",
        -1.0
      ],
      [
        "length",
        -1.0
      ],
      [
        "Ġupgrading",
        -1.0
      ],
      [
        "Ġattaining",
        -1.0
      ],
      [
        "Ġdefine",
        -1.0
      ],
      [
        "page",
        -1.0
      ],
      [
        "ĠCDC",
        -1.0
      ],
      [
        "Ġpressure",
        -1.0
      ],
      [
        "ĠJesuit",
        -1.0
      ],
      [
        "Ġfanciful",
        -1.0
      ],
      [
        "Ġsponges",
        -1.0
      ],
      [
        "Ġmechanics",
        -1.0
      ],
      [
        "ĠAmerican",
        -1.0
      ],
      [
        "Ġhath",
        -1.0
      ],
      [
        "Math",
        -1.0
      ],
      [
        "Ġcomposed",
        -1.0
      ],
      [
        "ĠSnyder",
        -1.0
      ],
      [
        "ĠGaza",
        -1.0
      ],
      [
        "February",
        -1.0
      ],
      [
        "Ġdebris",
        -1.0
      ],
      [
        "Ġrestore",
        -1.0
      ],
      [
        "Ġliaison",
        -1.0
      ],
      [
        "OUND",
        -1.0
      ],
      [
        "Ġhe",
        -1.0
      ],
      [
        "ĠYounger",
        -1.0
      ],
      [
        "Ġcomb",
        -1.0
      ],
      [
        "Ġboots",
        -1.0
      ],
      [
        "Ġdictates",
        -1.0
      ],
      [
        "ĠCub",
        -1.0
      ],
      [
        "complete",
        -1.0
      ],
      [
        "ĠEver",
        -1.0
      ],
      [
        "ĠIDF",
        -1.0
      ],
      [
        "Ġceilings",
        -1.0
      ],
      [
        "Ġoperas",
        -1.0
      ],
      [
        "Ġdrivers",
        -1.0
      ],
      [
        "Ġcoupled",
        -1.0
      ],
      [
        "mad",
        -1.0
      ],
      [
        "Ġmentions",
        -1.0
      ],
      [
        "NEW",
        -1.0
      ],
      [
        "Ġtimes",
        -1.0
      ],
      [
        "ĠPennsylvania",
        -1.0
      ],
      [
        "SQL",
        -1.0
      ],
      [
        "²",
        -1.0
      ],
      [
        "Ġlining",
        -1.0
      ],
      [
        "GC",
        -1.0
      ],
      [
        "Ġusage",
        -1.0
      ],
      [
        "ĠFacility",
        -1.0
      ],
      [
        "Ġresearchers",
        -1.0
      ],
      [
        "Ġeruption",
        -1.0
      ],
      [
        "ĠAssistive",
        -1.0
      ],
      [
        "Me",
        -1.0
      ],
      [
        "ĠEco",
        -1.0
      ],
      [
        "ĠBerkeley",
        -1.0
      ],
      [
        "Ġfunnel",
        -1.0
      ],
      [
        "kov",
        -1.0
      ],
      [
        "ĠAcademy",
        -1.0
      ],
      [
        "Ġblow",
        -1.0
      ],
      [
        "Ġachieves",
        -1.0
      ],
      [
        "Ġ1840",
        -1.0
      ],
      [
        "ĠKnights",
        -1.0
      ],
      [
        "Ġforecasting",
        -1.0
      ],
      [
        "Ġconduct",
        -1.0
      ],
      [
        "Ġfumes",
        -1.0
      ],
      [
        "ĠSettlers",
        -1.0
      ],
      [
        "ĠSeminar",
        -1.0
      ],
      [
        "Ġrelating",
        -1.0
      ],
      [
        "Ġrealms",
        -1.0
      ],
      [
        "Ġglobalization",
        -1.0
      ],
      [
        "Ġending",
        -1.0
      ],
      [
        "Ġshore",
        -1.0
      ],
      [
        "Ġinterpretation",
        -1.0
      ],
      [
        "Ġcostume",
        -1.0
      ],
      [
        "Ġgenuine",
        -1.0
      ],
      [
        "Ġequation",
        -1.0
      ],
      [
        "object",
        -1.0
      ],
      [
        "Ġsecretions",
        -1.0
      ],
      [
        "ĠDB",
        -1.0
      ],
      [
        "Ġmetropolitan",
        -1.0
      ],
      [
        "share",
        -1.0
      ],
      [
        "rich",
        -1.0
      ],
      [
        "Ġfought",
        -1.0
      ],
      [
        "Ġuniforms",
        -1.0
      ],
      [
        "Ġguests",
        -1.0
      ],
      [
        "ĠBermuda",
        -1.0
      ],
      [
        "ĠThen",
        -1.0
      ],
      [
        "Ġheterogeneous",
        -1.0
      ],
      [
        "ĠLady",
        -1.0
      ],
      [
        "Ġclass",
        -1.0
      ],
      [
        "Ġrestrict",
        -1.0
      ],
      [
        "ĠAustro",
        -1.0
      ],
      [
        "ĠFuller",
        -1.0
      ],
      [
        "Ġcrashed",
        -1.0
      ],
      [
        "Home",
        -1.0
      ],
      [
        "ĠNew",
        -1.0
      ],
      [
        "Ġmanners",
        -1.0
      ],
      [
        "ĠGet",
        -1.0
      ],
      [
        "lets",
        -1.0
      ],
      [
        "Ġastro",
        -1.0
      ],
      [
        "ĠInterior",
        -1.0
      ],
      [
        "ĠProduction",
        -1.0
      ],
      [
        "ĠAudio",
        -1.0
      ],
      [
        "Ġnebula",
        -1.0
      ],
      [
        "Ġpacif",
        -1.0
      ],
      [
        "Ġsmaller",
        -1.0
      ],
      [
        "Ġhernia",
        -1.0
      ],
      [
        "ĠATP",
        -1.0
      ],
      [
        "Low",
        -1.0
      ],
      [
        "ĠInstruments",
        -1.0
      ],
      [
        "Ġdenotes",
        -1.0
      ],
      [
        "Ġchanging",
        -1.0
      ],
      [
        "Ġshedding",
        -1.0
      ],
      [
        "Ġmusician",
        -1.0
      ],
      [
        "Ġjust",
        -1.0
      ],
      [
        "ĠChina",
        -1.0
      ],
      [
        "Ġjudgement",
        -1.0
      ],
      [
        "Ġliberties",
        -1.0
      ],
      [
        "Ġbequeathed",
        -1.0
      ],
      [
        "Ġallocated",
        -1.0
      ],
      [
        "Ġproposed",
        -1.0
      ],
      [
        "ĠVenus",
        -1.0
      ],
      [
        "ĠForbes",
        -1.0
      ],
      [
        "Ġparasit",
        -1.0
      ],
      [
        "testing",
        -1.0
      ],
      [
        "Ġheats",
        -1.0
      ],
      [
        "Ġworking",
        -1.0
      ],
      [
        "heavy",
        -1.0
      ],
      [
        "Ġbureaucratic",
        -1.0
      ],
      [
        "Ġpillars",
        -1.0
      ],
      [
        "Ġseventh",
        -1.0
      ],
      [
        "NL",
        -1.0
      ],
      [
        "Ġnumerous",
        -1.0
      ],
      [
        "ĠCover",
        -1.0
      ],
      [
        "Ġconservation",
        -1.0
      ],
      [
        "ĠLines",
        -1.0
      ],
      [
        "Ġgames",
        -1.0
      ],
      [
        "Ġprotracted",
        -1.0
      ],
      [
        "Ġanalyses",
        -1.0
      ],
      [
        "Ġoffsets",
        -1.0
      ],
      [
        "Ġtransmit",
        -1.0
      ],
      [
        "ESS",
        -1.0
      ],
      [
        "ĠRise",
        -1.0
      ],
      [
        "going",
        -1.0
      ],
      [
        "Ġsurpass",
        -1.0
      ],
      [
        "Ġindicative",
        -1.0
      ],
      [
        "Ġfuel",
        -1.0
      ],
      [
        "Ġproviding",
        -1.0
      ],
      [
        "Ġdeclining",
        -1.0
      ],
      [
        "ĠReality",
        -1.0
      ],
      [
        "Ġbrowser",
        -1.0
      ],
      [
        "ĠProgramming",
        -1.0
      ],
      [
        "Ġinflamed",
        -1.0
      ],
      [
        "Ġcrustaceans",
        -1.0
      ],
      [
        "Ġcalibrate",
        -1.0
      ],
      [
        "Ġlady",
        -1.0
      ],
      [
        "ĠString",
        -1.0
      ],
      [
        "Ġamygdala",
        -1.0
      ],
      [
        "tight",
        -1.0
      ],
      [
        "zier",
        -1.0
      ],
      [
        "ĠPress",
        -1.0
      ],
      [
        "Ġconquered",
        -1.0
      ],
      [
        "Ġselection",
        -1.0
      ],
      [
        "Type",
        -1.0
      ],
      [
        "ided",
        -1.0
      ],
      [
        "Unknown",
        -1.0
      ],
      [
        "Ġspecify",
        -1.0
      ],
      [
        "lock",
        -1.0
      ],
      [
        "ru",
        -1.0
      ],
      [
        "way",
        -1.0
      ],
      [
        "ĠMMWR",
        -1.0
      ],
      [
        "33",
        -1.0
      ],
      [
        "ĠPlot",
        -1.0
      ],
      [
        "ĠAmbassador",
        -1.0
      ],
      [
        "ĠSpringfield",
        -1.0
      ],
      [
        "Architect",
        -1.0
      ],
      [
        "ĠRisk",
        -1.0
      ],
      [
        "Ġfootsteps",
        -1.0
      ],
      [
        "aldehyde",
        -1.0
      ],
      [
        "ĠLabour",
        -1.0
      ],
      [
        "finding",
        -1.0
      ],
      [
        "Ġdramatic",
        -1.0
      ],
      [
        "ĠA",
        -1.0
      ],
      [
        "ai",
        -1.0
      ],
      [
        "Ġtransports",
        -1.0
      ],
      [
        "discrimination",
        -1.0
      ],
      [
        "ĠFAQs",
        -1.0
      ],
      [
        "Ġpeers",
        -1.0
      ],
      [
        "Ġbachelor",
        -1.0
      ],
      [
        "kind",
        -1.0
      ],
      [
        "Ġ53",
        -1.0
      ],
      [
        "Ġredundant",
        -1.0
      ],
      [
        "Ġaverage",
        -1.0
      ],
      [
        "pass",
        -1.0
      ],
      [
        "unsaturated",
        -1.0
      ],
      [
        "Ġprivacy",
        -1.0
      ],
      [
        "historical",
        -1.0
      ],
      [
        "ĠHebrews",
        -1.0
      ],
      [
        "Ġrelaxed",
        -1.0
      ],
      [
        "ĠGreeks",
        -1.0
      ],
      [
        "Ġrewritten",
        -1.0
      ],
      [
        "Ġcourt",
        -1.0
      ],
      [
        "Ġbiogas",
        -1.0
      ],
      [
        "Ġpairs",
        -1.0
      ],
      [
        "Ġdu",
        -1.0
      ],
      [
        "ĠSeries",
        -1.0
      ],
      [
        "Ġa",
        -1.0
      ],
      [
        "ĠLatter",
        -1.0
      ],
      [
        "Ġ",
        -1.0
      ],
      [
        "must",
        -1.0
      ],
      [
        "ĠTunguska",
        -1.0
      ],
      [
        "Ġadmixture",
        -1.0
      ],
      [
        "Ġnavigator",
        -1.0
      ],
      [
        "ĠRockies",
        -1.0
      ],
      [
        "ĠUnit",
        -1.0
      ],
      [
        "Ġnanoparticles",
        -1.0
      ],
      [
        "TION",
        -1.0
      ],
      [
        "Ġforgive",
        -1.0
      ],
      [
        "ĠBuilding",
        -1.0
      ],
      [
        "ĠAkhmatova",
        -1.0
      ],
      [
        "WS",
        -1.0
      ],
      [
        "ĠCorsica",
        -1.0
      ],
      [
        "ĠR",
        -1.0
      ],
      [
        "ĠJourney",
        -1.0
      ],
      [
        "Ġfinding",
        -1.0
      ],
      [
        "ĠJudge",
        -1.0
      ],
      [
        "Ġautumn",
        -1.0
      ],
      [
        "Oh",
        -1.0
      ],
      [
        "Pill",
        -1.0
      ],
      [
        "Ġconcluded",
        -1.0
      ],
      [
        "Ġjellyfish",
        -1.0
      ],
      [
        "Ġdifferentiation",
        -1.0
      ],
      [
        "Ġprofessions",
        -1.0
      ],
      [
        "biology",
        -1.0
      ],
      [
        "Ġidentifying",
        -1.0
      ],
      [
        "Ġcharcoal",
        -1.0
      ],
      [
        "Ġgrooves",
        -1.0
      ],
      [
        "Ġ59",
        -1.0
      ],
      [
        "Ġimpart",
        -1.0
      ],
      [
        "ĠPotomac",
        -1.0
      ],
      [
        "98",
        -1.0
      ],
      [
        "ĠAntoine",
        -1.0
      ],
      [
        "gun",
        -1.0
      ],
      [
        "Ġletters",
        -1.0
      ],
      [
        "Ġ70",
        -1.0
      ],
      [
        "Ġoutcomes",
        -1.0
      ],
      [
        "ura",
        -1.0
      ],
      [
        "Ġbreeding",
        -1.0
      ],
      [
        "ĠCopy",
        -1.0
      ],
      [
        "Ġborne",
        -1.0
      ],
      [
        "Ġpainting",
        -1.0
      ],
      [
        "Ġhomes",
        -1.0
      ],
      [
        "Ġinvestigates",
        -1.0
      ],
      [
        "Ġcol",
        -1.0
      ],
      [
        "Ġnymph",
        -1.0
      ],
      [
        "tribution",
        -1.0
      ],
      [
        "Ġsomeday",
        -1.0
      ],
      [
        "ĠCommittee",
        -1.0
      ],
      [
        "Ġadvisers",
        -1.0
      ],
      [
        "ĠVenezuela",
        -1.0
      ],
      [
        "burgh",
        -1.0
      ],
      [
        "Ġpsychotic",
        -1.0
      ],
      [
        "ĠSouthampton",
        -1.0
      ],
      [
        "pipe",
        -1.0
      ],
      [
        "ĠSeattle",
        -1.0
      ],
      [
        "ĠSA",
        -1.0
      ],
      [
        "AC",
        -1.0
      ],
      [
        "Ġplatypus",
        -1.0
      ],
      [
        "Ġasbestos",
        -1.0
      ],
      [
        "Ġ126",
        -1.0
      ],
      [
        "Ġdisrupt",
        -1.0
      ],
      [
        "Ġpossibly",
        -1.0
      ],
      [
        "Ġvoiced",
        -1.0
      ],
      [
        "Ġcorona",
        -1.0
      ],
      [
        "Ġadvisable",
        -1.0
      ],
      [
        "Ġopening",
        -1.0
      ],
      [
        "able",
        -1.0
      ],
      [
        "Ġhunting",
        -1.0
      ],
      [
        "fts",
        -1.0
      ],
      [
        "Ġpromoted",
        -1.0
      ],
      [
        "vot",
        -1.0
      ],
      [
        "Ġdry",
        -1.0
      ],
      [
        "Ġkernel",
        -1.0
      ],
      [
        "ĠAccreditation",
        -1.0
      ],
      [
        "ĠImam",
        -1.0
      ],
      [
        "Ġroll",
        -1.0
      ],
      [
        "Ġtherapeutic",
        -1.0
      ],
      [
        "Ġcanoes",
        -1.0
      ],
      [
        "Ġscripts",
        -1.0
      ],
      [
        "Ġinjuring",
        -1.0
      ],
      [
        "ĠKnow",
        -1.0
      ],
      [
        "ĠVocabulary",
        -1.0
      ],
      [
        "Ġtin",
        -1.0
      ],
      [
        "Ġcommandment",
        -1.0
      ],
      [
        "Ġblueprint",
        -1.0
      ],
      [
        "ĠDisorder",
        -1.0
      ],
      [
        "Ġdove",
        -1.0
      ],
      [
        "ĠLaurence",
        -1.0
      ],
      [
        "Ġmarketed",
        -1.0
      ],
      [
        "Ġcircle",
        -1.0
      ],
      [
        "Ġpizza",
        -1.0
      ],
      [
        "ĠSR",
        -1.0
      ],
      [
        "ĠSelect",
        -1.0
      ],
      [
        "keeper",
        -1.0
      ],
      [
        "Ġcarrier",
        -1.0
      ],
      [
        "ĠStephanie",
        -1.0
      ],
      [
        "Hey",
        -1.0
      ],
      [
        "Ġcost",
        -1.0
      ],
      [
        "âĢ¢",
        -1.0
      ],
      [
        "Ġarriving",
        -1.0
      ],
      [
        "Ġwonderful",
        -1.0
      ],
      [
        "Ġcompulsory",
        -1.0
      ],
      [
        "Ġimproper",
        -1.0
      ],
      [
        "Ġ1950",
        -1.0
      ],
      [
        "ĠKra",
        -1.0
      ],
      [
        "ĠSocialism",
        -1.0
      ],
      [
        "Phone",
        -1.0
      ],
      [
        "Ġrivers",
        -1.0
      ],
      [
        "Ġ==",
        -1.0
      ],
      [
        "Ġadopting",
        -1.0
      ],
      [
        "Ġfinance",
        -1.0
      ],
      [
        "),",
        -1.0
      ],
      [
        "Ġpregnancies",
        -1.0
      ],
      [
        "Ġrounded",
        -1.0
      ],
      [
        "Ġlarvae",
        -1.0
      ],
      [
        "Ġimage",
        -1.0
      ],
      [
        "Ġcontemplate",
        -1.0
      ],
      [
        "matic",
        -1.0
      ],
      [
        "Ġfarmer",
        -1.0
      ],
      [
        "Ġpat",
        -1.0
      ],
      [
        "ĠReed",
        -1.0
      ],
      [
        "ĠKnown",
        -1.0
      ],
      [
        "Ġbug",
        -1.0
      ],
      [
        "ĠIQ",
        -1.0
      ],
      [
        "Ġprocedures",
        -1.0
      ],
      [
        "Ġmarriages",
        -1.0
      ],
      [
        "GS",
        -1.0
      ],
      [
        "Environment",
        -1.0
      ],
      [
        "Ġphotos",
        -1.0
      ],
      [
        "ĠBalkans",
        -1.0
      ],
      [
        "Ġpreferable",
        -1.0
      ],
      [
        "Ġboasts",
        -1.0
      ],
      [
        "Ġranging",
        -1.0
      ],
      [
        "Ġcrater",
        -1.0
      ],
      [
        "Ġbravery",
        -1.0
      ],
      [
        "Ġidentity",
        -1.0
      ],
      [
        "Ġignition",
        -1.0
      ],
      [
        "Ġenamel",
        -1.0
      ],
      [
        "Ġdegrade",
        -1.0
      ],
      [
        "()",
        -1.0
      ],
      [
        "Ġcontroversies",
        -1.0
      ],
      [
        "Ġgout",
        -1.0
      ],
      [
        "Ġidentify",
        -1.0
      ],
      [
        "ĠFerdinand",
        -1.0
      ],
      [
        "Ġmanifold",
        -1.0
      ],
      [
        "Ġhop",
        -1.0
      ],
      [
        "ĠCanyon",
        -1.0
      ],
      [
        "Ġleftover",
        -1.0
      ],
      [
        "Ġoccupies",
        -1.0
      ],
      [
        "ĠOrganizations",
        -1.0
      ],
      [
        "Ġslower",
        -1.0
      ],
      [
        "Ġtitles",
        -1.0
      ],
      [
        "ĠLove",
        -1.0
      ],
      [
        "Ġduct",
        -1.0
      ],
      [
        "Ġgas",
        -1.0
      ],
      [
        "Ġmounds",
        -1.0
      ],
      [
        "ĠEm",
        -1.0
      ],
      [
        "ĠKepler",
        -1.0
      ],
      [
        "ĠTesting",
        -1.0
      ],
      [
        "Ġparticipants",
        -1.0
      ],
      [
        "Ġseparating",
        -1.0
      ],
      [
        "Ġconstituent",
        -1.0
      ],
      [
        "Ġideological",
        -1.0
      ],
      [
        "ĠMaj",
        -1.0
      ],
      [
        "ĠEmancipation",
        -1.0
      ],
      [
        "Ġdecrease",
        -1.0
      ],
      [
        "Ġmotors",
        -1.0
      ],
      [
        "Ġechoed",
        -1.0
      ],
      [
        "Ġenvisaged",
        -1.0
      ],
      [
        "like",
        -1.0
      ],
      [
        "Ġbid",
        -1.0
      ],
      [
        "ĠCu",
        -1.0
      ],
      [
        "Ġbishops",
        -1.0
      ],
      [
        "ĠComplete",
        -1.0
      ],
      [
        "Ġparties",
        -1.0
      ],
      [
        "76",
        -1.0
      ],
      [
        "Ġviolent",
        -1.0
      ],
      [
        "Ġoxygen",
        -1.0
      ],
      [
        "Ġslept",
        -1.0
      ],
      [
        "Ġlifestyle",
        -1.0
      ],
      [
        "ĠWillamette",
        -1.0
      ],
      [
        "ĠNet",
        -1.0
      ],
      [
        "Ġnon",
        -1.0
      ],
      [
        "Mary",
        -1.0
      ],
      [
        "Ġproblems",
        -1.0
      ],
      [
        "Ġvirulent",
        -1.0
      ],
      [
        "ĠDes",
        -1.0
      ],
      [
        "Ġeu",
        -1.0
      ],
      [
        "Ġaccumulate",
        -1.0
      ],
      [
        "=\"",
        -1.0
      ],
      [
        "ĠNe",
        -1.0
      ],
      [
        "Ġtungsten",
        -1.0
      ],
      [
        "An",
        -1.0
      ],
      [
        "Ġroam",
        -1.0
      ],
      [
        "Ġill",
        -1.0
      ],
      [
        "ĠMalawi",
        -1.0
      ],
      [
        "Ġnow",
        -1.0
      ],
      [
        "ĠSobibor",
        -1.0
      ],
      [
        "Ġperforms",
        -1.0
      ],
      [
        "ĠChu",
        -1.0
      ],
      [
        "Ġreaders",
        -1.0
      ],
      [
        "Ġberries",
        -1.0
      ],
      [
        "ĠEdward",
        -1.0
      ],
      [
        "Ġeczema",
        -1.0
      ],
      [
        "Eds",
        -1.0
      ],
      [
        "lin",
        -1.0
      ],
      [
        "ĠMcPherson",
        -1.0
      ],
      [
        "Ġcastle",
        -1.0
      ],
      [
        "Ġdominate",
        -1.0
      ],
      [
        "Ġannounces",
        -1.0
      ],
      [
        "ĠFL",
        -1.0
      ],
      [
        "Ġturbines",
        -1.0
      ],
      [
        "Ġsource",
        -1.0
      ],
      [
        "Ġwi",
        -1.0
      ],
      [
        "ĠJPL",
        -1.0
      ],
      [
        "Ġpresents",
        -1.0
      ],
      [
        "Ġmask",
        -1.0
      ],
      [
        "ĠBu",
        -1.0
      ],
      [
        "Ġnational",
        -1.0
      ],
      [
        "%,",
        -1.0
      ],
      [
        "Ġcomfortably",
        -1.0
      ],
      [
        "ĠVision",
        -1.0
      ],
      [
        "Ġrights",
        -1.0
      ],
      [
        "Ġsight",
        -1.0
      ],
      [
        "T",
        -1.0
      ],
      [
        "Ġeloquent",
        -1.0
      ],
      [
        "Ġupheaval",
        -1.0
      ],
      [
        "Ġalligator",
        -1.0
      ],
      [
        "Ġauxiliary",
        -1.0
      ],
      [
        "eat",
        -1.0
      ],
      [
        "ĠMarshal",
        -1.0
      ],
      [
        "Ġsocks",
        -1.0
      ],
      [
        "ux",
        -1.0
      ],
      [
        "worm",
        -1.0
      ],
      [
        "ĠJan",
        -1.0
      ],
      [
        "cept",
        -1.0
      ],
      [
        "ising",
        -1.0
      ],
      [
        "Ġæ",
        -1.0
      ],
      [
        "Ġconcludes",
        -1.0
      ],
      [
        "yu",
        -1.0
      ],
      [
        "Ġaward",
        -1.0
      ],
      [
        "Look",
        -1.0
      ],
      [
        "Ġbandwidth",
        -1.0
      ],
      [
        "ĠMonticello",
        -1.0
      ],
      [
        "ĠPast",
        -1.0
      ],
      [
        "Ġcandid",
        -1.0
      ],
      [
        "ĠDr",
        -1.0
      ],
      [
        "EST",
        -1.0
      ],
      [
        "Ġveterinarians",
        -1.0
      ],
      [
        "Ġsurfaced",
        -1.0
      ],
      [
        "ĠVI",
        -1.0
      ],
      [
        "Ġ42",
        -1.0
      ],
      [
        "Obesity",
        -1.0
      ],
      [
        "ĠHutchinson",
        -1.0
      ],
      [
        "ĠGods",
        -1.0
      ],
      [
        "Ġcit",
        -1.0
      ],
      [
        "Ġagricultural",
        -1.0
      ],
      [
        "Ġdenial",
        -1.0
      ],
      [
        "um",
        -1.0
      ],
      [
        "Estimated",
        -1.0
      ],
      [
        "Î²",
        -1.0
      ],
      [
        "ĠRenewable",
        -1.0
      ],
      [
        "ĠTypes",
        -1.0
      ],
      [
        "Ġfinite",
        -1.0
      ],
      [
        "Ġconstituencies",
        -1.0
      ],
      [
        "Ġwin",
        -1.0
      ],
      [
        "Ġassays",
        -1.0
      ],
      [
        "Ġviewing",
        -1.0
      ],
      [
        "Ġspecialties",
        -1.0
      ],
      [
        "Ġwelcome",
        -1.0
      ],
      [
        "ĠÏĦ",
        -1.0
      ],
      [
        "ĠWireless",
        -1.0
      ],
      [
        "ĠPhysician",
        -1.0
      ],
      [
        "Ġavocado",
        -1.0
      ],
      [
        "AN",
        -1.0
      ],
      [
        "Ġinvesting",
        -1.0
      ],
      [
        "Ġpneumonia",
        -1.0
      ],
      [
        "Ġprogressed",
        -1.0
      ],
      [
        "Ġissuing",
        -1.0
      ],
      [
        "RI",
        -1.0
      ],
      [
        "fted",
        -1.0
      ],
      [
        "ĠMemorial",
        -1.0
      ],
      [
        "ĠThreat",
        -1.0
      ],
      [
        "Ġremoval",
        -1.0
      ],
      [
        "Ġawarded",
        -1.0
      ],
      [
        "Q",
        -1.0
      ],
      [
        "algebra",
        -1.0
      ],
      [
        "Ġposed",
        -1.0
      ],
      [
        "Ġwatching",
        -1.0
      ],
      [
        "ĠDiocese",
        -1.0
      ],
      [
        "ER",
        -1.0
      ],
      [
        "Ġvisited",
        -1.0
      ],
      [
        "Ġpants",
        -1.0
      ],
      [
        "ĠHelen",
        -1.0
      ],
      [
        "Ġaerosols",
        -1.0
      ],
      [
        "ĠJupiter",
        -1.0
      ],
      [
        "Note",
        -1.0
      ],
      [
        "Ġhappened",
        -1.0
      ],
      [
        "bolic",
        -1.0
      ],
      [
        "ĠPrinciple",
        -1.0
      ],
      [
        "Additionally",
        -1.0
      ],
      [
        "Ġstrict",
        -1.0
      ],
      [
        "Ġsmall",
        -1.0
      ],
      [
        "ĠSpring",
        -1.0
      ],
      [
        "Ġoutlining",
        -1.0
      ],
      [
        "Ġclarinet",
        -1.0
      ],
      [
        "Out",
        -1.0
      ],
      [
        "Ġinaugurated",
        -1.0
      ],
      [
        "Ġglory",
        -1.0
      ],
      [
        "ĠAmazon",
        -1.0
      ],
      [
        "Ġdictionaries",
        -1.0
      ],
      [
        "Ġdetailed",
        -1.0
      ],
      [
        "Ġdistances",
        -1.0
      ],
      [
        "Ġcannibal",
        -1.0
      ],
      [
        "Ġhadith",
        -1.0
      ],
      [
        "conduct",
        -1.0
      ],
      [
        "Ġillnesses",
        -1.0
      ],
      [
        "á¹ĩ",
        -1.0
      ],
      [
        "Basic",
        -1.0
      ],
      [
        "Ġwired",
        -1.0
      ],
      [
        "Ġillicit",
        -1.0
      ],
      [
        "ĠCrucifixion",
        -1.0
      ],
      [
        "Ġauto",
        -1.0
      ],
      [
        "ĠEmma",
        -1.0
      ],
      [
        "ĠKh",
        -1.0
      ],
      [
        "Ġnurseries",
        -1.0
      ],
      [
        "eners",
        -1.0
      ],
      [
        "Ġoceans",
        -1.0
      ],
      [
        "Ly",
        -1.0
      ],
      [
        "Ġbiopsies",
        -1.0
      ],
      [
        "consuming",
        -1.0
      ],
      [
        "ĠIntervention",
        -1.0
      ],
      [
        "co",
        -1.0
      ],
      [
        "Ġguided",
        -1.0
      ],
      [
        "Ġarts",
        -1.0
      ],
      [
        "Ġelectorate",
        -1.0
      ],
      [
        "Ġdisabilities",
        -1.0
      ],
      [
        "Ġword",
        -1.0
      ],
      [
        "Ġ450",
        -1.0
      ],
      [
        "ĠBefore",
        -1.0
      ],
      [
        "ĠRetrieved",
        -1.0
      ],
      [
        "Ġ170",
        -1.0
      ],
      [
        "Ġhygiene",
        -1.0
      ],
      [
        "Ġamazing",
        -1.0
      ],
      [
        "Ġsoup",
        -1.0
      ],
      [
        "ĠProper",
        -1.0
      ],
      [
        "mic",
        -1.0
      ],
      [
        "ography",
        -1.0
      ],
      [
        "floor",
        -1.0
      ],
      [
        "Ġmultidisciplinary",
        -1.0
      ],
      [
        "Ġdreams",
        -1.0
      ],
      [
        "ĠBehavior",
        -1.0
      ],
      [
        "Ġpeasants",
        -1.0
      ],
      [
        "Ġopenly",
        -1.0
      ],
      [
        "Ġlax",
        -1.0
      ],
      [
        "Ġcra",
        -1.0
      ],
      [
        "Ġdecorate",
        -1.0
      ],
      [
        "Ġprecision",
        -1.0
      ],
      [
        "ĠVostok",
        -1.0
      ],
      [
        "ĠGarcÃŃa",
        -1.0
      ],
      [
        "Ġredeem",
        -1.0
      ],
      [
        "ĠLowell",
        -1.0
      ],
      [
        "Determin",
        -1.0
      ],
      [
        "Ġjudgment",
        -1.0
      ],
      [
        "Ġawake",
        -1.0
      ],
      [
        "Baltimore",
        -1.0
      ],
      [
        "Ġquotes",
        -1.0
      ],
      [
        "Ġcontraception",
        -1.0
      ],
      [
        "ĠMugabe",
        -1.0
      ],
      [
        "Ġroofing",
        -1.0
      ],
      [
        "Ġbudget",
        -1.0
      ],
      [
        "Ġdoubtful",
        -1.0
      ],
      [
        "ĠEmissions",
        -1.0
      ],
      [
        "grade",
        -1.0
      ],
      [
        "Ġspeculative",
        -1.0
      ],
      [
        "ĠAnswers",
        -1.0
      ],
      [
        "DE",
        -1.0
      ],
      [
        "Ġadds",
        -1.0
      ],
      [
        "pe",
        -1.0
      ],
      [
        "Ġaftermath",
        -1.0
      ],
      [
        "Ġ116",
        -1.0
      ],
      [
        "Ġspokesperson",
        -1.0
      ],
      [
        "Ġcrimes",
        -1.0
      ],
      [
        "Ġzenith",
        -1.0
      ],
      [
        "ĠQuaker",
        -1.0
      ],
      [
        "Ġreaction",
        -1.0
      ],
      [
        "VM",
        -1.0
      ],
      [
        "Ġlend",
        -1.0
      ],
      [
        "Ġlowered",
        -1.0
      ],
      [
        "ÅŁ",
        -1.0
      ],
      [
        "Ġevaluated",
        -1.0
      ],
      [
        "Ġbite",
        -1.0
      ],
      [
        "nan",
        -1.0
      ],
      [
        "Ġlearning",
        -1.0
      ],
      [
        "Ġorganizers",
        -1.0
      ],
      [
        "Ġreplaced",
        -1.0
      ],
      [
        "Ġimmigrants",
        -1.0
      ],
      [
        "openxmlformats",
        -1.0
      ],
      [
        "tolerant",
        -1.0
      ],
      [
        "Ġunprotected",
        -1.0
      ],
      [
        "Ġflowed",
        -1.0
      ],
      [
        "Ġinfluences",
        -1.0
      ],
      [
        "ĠRaw",
        -1.0
      ],
      [
        "ĠAFP",
        -1.0
      ],
      [
        "ably",
        -1.0
      ],
      [
        "Ġshifted",
        -1.0
      ],
      [
        "KE",
        -1.0
      ],
      [
        "Ġcharacterized",
        -1.0
      ],
      [
        "Ġmanipulation",
        -1.0
      ],
      [
        "ĠPresbyterian",
        -1.0
      ],
      [
        "Ġauthorities",
        -1.0
      ],
      [
        "Ġbiodiesel",
        -1.0
      ],
      [
        "Ġanswered",
        -1.0
      ],
      [
        "ĠProcess",
        -1.0
      ],
      [
        "Ġsegments",
        -1.0
      ],
      [
        "Ġarchitecture",
        -1.0
      ],
      [
        "Ġmorning",
        -1.0
      ],
      [
        "ĠElectrical",
        -1.0
      ],
      [
        "ĠCitizen",
        -1.0
      ],
      [
        "Ġintroduced",
        -1.0
      ],
      [
        "Ġmeteorites",
        -1.0
      ],
      [
        "cysteine",
        -1.0
      ],
      [
        "friendly",
        -1.0
      ],
      [
        "Ġserotonin",
        -1.0
      ],
      [
        "Ġburned",
        -1.0
      ],
      [
        "Ġcompositions",
        -1.0
      ],
      [
        "Ġ58",
        -1.0
      ],
      [
        "Ġvertebrates",
        -1.0
      ],
      [
        "ĠNorthumberland",
        -1.0
      ],
      [
        "Ġexecuting",
        -1.0
      ],
      [
        "ĠSala",
        -1.0
      ],
      [
        "Ġconvert",
        -1.0
      ],
      [
        "ĠEngland",
        -1.0
      ],
      [
        "saving",
        -1.0
      ],
      [
        "ð",
        -1.0
      ],
      [
        "Ġthrust",
        -1.0
      ],
      [
        "bio",
        -1.0
      ],
      [
        "Ġautomatic",
        -1.0
      ],
      [
        "ĠPuritans",
        -1.0
      ],
      [
        "Ġdefence",
        -1.0
      ],
      [
        "Ġflag",
        -1.0
      ],
      [
        "Ġanxiety",
        -1.0
      ],
      [
        "sper",
        -1.0
      ],
      [
        "Ġdoes",
        -1.0
      ],
      [
        "Ġpots",
        -1.0
      ],
      [
        "appropriate",
        -1.0
      ],
      [
        "Ġaccept",
        -1.0
      ],
      [
        "Ġreplaces",
        -1.0
      ],
      [
        "Cra",
        -1.0
      ],
      [
        "Ġimmuno",
        -1.0
      ],
      [
        "Ġadjusting",
        -1.0
      ],
      [
        "ĠBoulder",
        -1.0
      ],
      [
        "ĠMeans",
        -1.0
      ],
      [
        "Ġhighest",
        -1.0
      ],
      [
        "Ġanalyzed",
        -1.0
      ],
      [
        "standard",
        -1.0
      ],
      [
        "ESA",
        -1.0
      ],
      [
        "Ġlessen",
        -1.0
      ],
      [
        "Ġcockpit",
        -1.0
      ],
      [
        "Ġmaintained",
        -1.0
      ],
      [
        "Ġcreationist",
        -1.0
      ],
      [
        "Wiktionary",
        -1.0
      ],
      [
        "ĠPhilippine",
        -1.0
      ],
      [
        "Ġcensus",
        -1.0
      ],
      [
        "Ġlinked",
        -1.0
      ],
      [
        "Ġepithelium",
        -1.0
      ],
      [
        "ache",
        -1.0
      ],
      [
        "Ġlaunch",
        -1.0
      ],
      [
        "Ġ1899",
        -1.0
      ],
      [
        "Ġrebellious",
        -1.0
      ],
      [
        "Ġheaters",
        -1.0
      ],
      [
        "New",
        -1.0
      ],
      [
        "Ġnickel",
        -1.0
      ],
      [
        "Ġpuzzles",
        -1.0
      ],
      [
        "Ġpur",
        -1.0
      ],
      [
        "Ġpanorama",
        -1.0
      ],
      [
        "Ġquickly",
        -1.0
      ],
      [
        "Primary",
        -1.0
      ],
      [
        "Ġvaccin",
        -1.0
      ],
      [
        "Ġamplify",
        -1.0
      ],
      [
        "...",
        -1.0
      ],
      [
        "Ġdata",
        -1.0
      ],
      [
        "ĠMara",
        -1.0
      ],
      [
        "Ġelite",
        -1.0
      ],
      [
        "ĠFOR",
        -1.0
      ],
      [
        "Ġ91",
        -1.0
      ],
      [
        "78",
        -1.0
      ],
      [
        "Ġbowls",
        -1.0
      ],
      [
        "Ġalign",
        -1.0
      ],
      [
        "Ġcacao",
        -1.0
      ],
      [
        "Volume",
        -1.0
      ],
      [
        "ĠDavidson",
        -1.0
      ],
      [
        "Ġimitation",
        -1.0
      ],
      [
        "Ġrethink",
        -1.0
      ],
      [
        "ĠToo",
        -1.0
      ],
      [
        "aspx",
        -1.0
      ],
      [
        "Ġpaved",
        -1.0
      ],
      [
        "ĠExchange",
        -1.0
      ],
      [
        "Ġseats",
        -1.0
      ],
      [
        "ĠNauvoo",
        -1.0
      ],
      [
        "Ġcorpse",
        -1.0
      ],
      [
        "Ġinfrared",
        -1.0
      ],
      [
        "ĠArctic",
        -1.0
      ],
      [
        "ĠTour",
        -1.0
      ],
      [
        "ĠCapt",
        -1.0
      ],
      [
        "ĠHugo",
        -1.0
      ],
      [
        "ĠResource",
        -1.0
      ],
      [
        "Ġdf",
        -1.0
      ],
      [
        "ÙĨ",
        -1.0
      ],
      [
        "ĠAero",
        -1.0
      ],
      [
        "Gs",
        -1.0
      ],
      [
        "Ġveteran",
        -1.0
      ],
      [
        "Ġportrait",
        -1.0
      ],
      [
        "ĠMonthly",
        -1.0
      ],
      [
        "Ġequality",
        -1.0
      ],
      [
        "documented",
        -1.0
      ],
      [
        "ĠDev",
        -1.0
      ],
      [
        "Ġresonance",
        -1.0
      ],
      [
        "ality",
        -1.0
      ],
      [
        "ĠCommunication",
        -1.0
      ],
      [
        "Ġwindows",
        -1.0
      ],
      [
        "Ġglow",
        -1.0
      ],
      [
        "Ġshaping",
        -1.0
      ],
      [
        "ometer",
        -1.0
      ],
      [
        "Ġdeclaring",
        -1.0
      ],
      [
        "topic",
        -1.0
      ],
      [
        "old",
        -1.0
      ],
      [
        "ĠGore",
        -1.0
      ],
      [
        "ĠSecondary",
        -1.0
      ],
      [
        "Ġspends",
        -1.0
      ],
      [
        "Ġvulnerable",
        -1.0
      ],
      [
        "e",
        -1.0
      ],
      [
        "Ġassimilation",
        -1.0
      ],
      [
        "Ġ110",
        -1.0
      ],
      [
        "Ġintolerance",
        -1.0
      ],
      [
        "Ġ($",
        -1.0
      ],
      [
        "Ġsurface",
        -1.0
      ],
      [
        "Ġimagined",
        -1.0
      ],
      [
        "Ġinterval",
        -1.0
      ],
      [
        "Ġendowment",
        -1.0
      ],
      [
        "Ġalphabet",
        -1.0
      ],
      [
        "Ġfins",
        -1.0
      ],
      [
        "ĠGriffith",
        -1.0
      ],
      [
        "Ġdisc",
        -1.0
      ],
      [
        "ĠMol",
        -1.0
      ],
      [
        "Ġenvisioned",
        -1.0
      ],
      [
        "ĠRico",
        -1.0
      ],
      [
        "204",
        -1.0
      ],
      [
        "Ġproceed",
        -1.0
      ],
      [
        "Ġlivelihood",
        -1.0
      ],
      [
        "Ġdepression",
        -1.0
      ],
      [
        "ĠTigris",
        -1.0
      ],
      [
        "Ġflux",
        -1.0
      ],
      [
        "Ġrattlesnake",
        -1.0
      ],
      [
        "ĠPost",
        -1.0
      ],
      [
        "Ġfracking",
        -1.0
      ],
      [
        "Ġnitrogen",
        -1.0
      ],
      [
        "Ġov",
        -1.0
      ],
      [
        "1903",
        -1.0
      ],
      [
        "Ġinteracting",
        -1.0
      ],
      [
        "Ġconfinement",
        -1.0
      ],
      [
        "ĠPrime",
        -1.0
      ],
      [
        "Ġjurors",
        -1.0
      ],
      [
        "control",
        -1.0
      ],
      [
        "Ġsavanna",
        -1.0
      ],
      [
        "Ġpotentially",
        -1.0
      ],
      [
        "Ġsunny",
        -1.0
      ],
      [
        "Ġmal",
        -1.0
      ],
      [
        "Ġ142",
        -1.0
      ],
      [
        "ful",
        -1.0
      ],
      [
        "Ġcushion",
        -1.0
      ],
      [
        "ĠBeach",
        -1.0
      ],
      [
        "ĠLaos",
        -1.0
      ],
      [
        "Ġsapiens",
        -1.0
      ],
      [
        "Ġpolicy",
        -1.0
      ],
      [
        "ĠJohannes",
        -1.0
      ],
      [
        "Ġcoverage",
        -1.0
      ],
      [
        "ĠMemory",
        -1.0
      ],
      [
        "ĠStern",
        -1.0
      ],
      [
        "Ġdecoding",
        -1.0
      ],
      [
        "ĠOperating",
        -1.0
      ],
      [
        "ĠStockholm",
        -1.0
      ],
      [
        "ĠPCR",
        -1.0
      ],
      [
        "Ġhabit",
        -1.0
      ],
      [
        "ĠPeer",
        -1.0
      ],
      [
        "lee",
        -1.0
      ],
      [
        "ĠMechanism",
        -1.0
      ],
      [
        "Ġinspected",
        -1.0
      ],
      [
        "Ġstalks",
        -1.0
      ],
      [
        "Ġtransplant",
        -1.0
      ],
      [
        "42",
        -1.0
      ],
      [
        "Ġregulates",
        -1.0
      ],
      [
        "ĠWarming",
        -1.0
      ],
      [
        "frames",
        -1.0
      ],
      [
        "Ġlovely",
        -1.0
      ],
      [
        "Ġlupus",
        -1.0
      ],
      [
        "Ġprotagonist",
        -1.0
      ],
      [
        "Ġrainfall",
        -1.0
      ],
      [
        "dale",
        -1.0
      ],
      [
        "dom",
        -1.0
      ],
      [
        "ĠElements",
        -1.0
      ],
      [
        "ĠProc",
        -1.0
      ],
      [
        "Ġdynamic",
        -1.0
      ],
      [
        "Ġwarmed",
        -1.0
      ],
      [
        "flying",
        -1.0
      ],
      [
        "Ġupstream",
        -1.0
      ],
      [
        "ĠRDF",
        -1.0
      ],
      [
        "1984",
        -1.0
      ],
      [
        "breaking",
        -1.0
      ],
      [
        "ĠClaudius",
        -1.0
      ],
      [
        "âĢĻ,",
        -1.0
      ],
      [
        "Ġcompetitive",
        -1.0
      ],
      [
        "Ġanthropo",
        -1.0
      ],
      [
        "ĠUNDP",
        -1.0
      ],
      [
        "circumcised",
        -1.0
      ],
      [
        "Ġdownloading",
        -1.0
      ],
      [
        "ines",
        -1.0
      ],
      [
        "word",
        -1.0
      ],
      [
        "Ġrebuilt",
        -1.0
      ],
      [
        "1861",
        -1.0
      ],
      [
        "Ġloading",
        -1.0
      ],
      [
        "ĠShore",
        -1.0
      ],
      [
        "might",
        -1.0
      ],
      [
        "ĠHarry",
        -1.0
      ],
      [
        "Ġmackerel",
        -1.0
      ],
      [
        "Location",
        -1.0
      ],
      [
        "Ġclandestine",
        -1.0
      ],
      [
        "OUT",
        -1.0
      ],
      [
        "ĠGross",
        -1.0
      ],
      [
        "ĠHR",
        -1.0
      ],
      [
        "ĠWayne",
        -1.0
      ],
      [
        "Ġsphere",
        -1.0
      ],
      [
        "Ġrecur",
        -1.0
      ],
      [
        ".),",
        -1.0
      ],
      [
        "Ġâ",
        -1.0
      ],
      [
        "Ġdeficiency",
        -1.0
      ],
      [
        "Ġcholesterol",
        -1.0
      ],
      [
        "Ġimmersion",
        -1.0
      ],
      [
        "works",
        -1.0
      ],
      [
        "political",
        -1.0
      ],
      [
        "Ġ1908",
        -1.0
      ],
      [
        "Ġgoats",
        -1.0
      ],
      [
        "sand",
        -1.0
      ],
      [
        "ĠKal",
        -1.0
      ],
      [
        "Ġfragmented",
        -1.0
      ],
      [
        "Ġpowder",
        -1.0
      ],
      [
        "Ġfamiliar",
        -1.0
      ],
      [
        "16",
        -1.0
      ],
      [
        "Ġdesert",
        -1.0
      ],
      [
        "Ġ1917",
        -1.0
      ],
      [
        "ey",
        -1.0
      ],
      [
        "Ġtherefore",
        -1.0
      ],
      [
        "Ġport",
        -1.0
      ],
      [
        "Ġsuperintendent",
        -1.0
      ],
      [
        "Ġdamage",
        -1.0
      ],
      [
        "RF",
        -1.0
      ],
      [
        "ĠRAM",
        -1.0
      ],
      [
        "Ġimaginative",
        -1.0
      ],
      [
        "Ġflex",
        -1.0
      ],
      [
        "Ġinfarction",
        -1.0
      ],
      [
        "Ġ1300",
        -1.0
      ],
      [
        "Ġinstitutes",
        -1.0
      ],
      [
        "Ġhypertension",
        -1.0
      ],
      [
        "Ġscore",
        -1.0
      ],
      [
        "icus",
        -1.0
      ],
      [
        "ĠKatherine",
        -1.0
      ],
      [
        "Ġsynapse",
        -1.0
      ],
      [
        "Ġmaximal",
        -1.0
      ],
      [
        "ĠÃ©",
        -1.0
      ],
      [
        "Ġcollector",
        -1.0
      ],
      [
        "Ġwasps",
        -1.0
      ],
      [
        "Ġdiscomfort",
        -1.0
      ],
      [
        "Ġunite",
        -1.0
      ],
      [
        "Ġ192",
        -1.0
      ],
      [
        "Ġprofessor",
        -1.0
      ],
      [
        "Ġ1794",
        -1.0
      ],
      [
        "Ġpower",
        -1.0
      ],
      [
        "Ġfestivals",
        -1.0
      ],
      [
        "ĠCoordinator",
        -1.0
      ],
      [
        "Ġaddresses",
        -1.0
      ],
      [
        "ĠDahl",
        -1.0
      ],
      [
        "ĠPest",
        -1.0
      ],
      [
        "Ġpolarization",
        -1.0
      ],
      [
        "Ġpregnancy",
        -1.0
      ],
      [
        "Ġbelieves",
        -1.0
      ],
      [
        "Ġyesterday",
        -1.0
      ],
      [
        "ĠPhilistines",
        -1.0
      ],
      [
        "Ĵ",
        -1.0
      ],
      [
        "IC",
        -1.0
      ],
      [
        "Ġmorality",
        -1.0
      ],
      [
        "Ġzidovudine",
        -1.0
      ],
      [
        "employed",
        -1.0
      ],
      [
        "Ġmosque",
        -1.0
      ],
      [
        "Ġgained",
        -1.0
      ],
      [
        "Ġpaintings",
        -1.0
      ],
      [
        "Ġfonts",
        -1.0
      ],
      [
        "Ġhops",
        -1.0
      ],
      [
        "ĠArchaeological",
        -1.0
      ],
      [
        "Ġadditive",
        -1.0
      ],
      [
        "Ġclocks",
        -1.0
      ],
      [
        "Ġamphibians",
        -1.0
      ],
      [
        "Ġplagued",
        -1.0
      ],
      [
        "cost",
        -1.0
      ],
      [
        "generally",
        -1.0
      ],
      [
        "Ġelder",
        -1.0
      ],
      [
        "Ġshot",
        -1.0
      ],
      [
        "Ġexploration",
        -1.0
      ],
      [
        "Ġcities",
        -1.0
      ],
      [
        "Ġperennial",
        -1.0
      ],
      [
        "renewable",
        -1.0
      ],
      [
        "Ġshielding",
        -1.0
      ],
      [
        "Ġoptional",
        -1.0
      ],
      [
        "Ġheat",
        -1.0
      ],
      [
        "ĠHACCP",
        -1.0
      ],
      [
        "units",
        -1.0
      ],
      [
        "Ġerection",
        -1.0
      ],
      [
        "³",
        -1.0
      ],
      [
        "ĠAmericans",
        -1.0
      ],
      [
        "Ġ1790",
        -1.0
      ],
      [
        "Ġordained",
        -1.0
      ],
      [
        "Ġtank",
        -1.0
      ],
      [
        "Ġweaker",
        -1.0
      ],
      [
        "ĠScreen",
        -1.0
      ],
      [
        "ĠAnatomy",
        -1.0
      ],
      [
        "Ġcatalyze",
        -1.0
      ],
      [
        "Ġinsult",
        -1.0
      ],
      [
        "Ġchimney",
        -1.0
      ],
      [
        "ĠMap",
        -1.0
      ],
      [
        "Ġrainwater",
        -1.0
      ],
      [
        "Ġpalate",
        -1.0
      ],
      [
        "Ġchromosomal",
        -1.0
      ],
      [
        "Ġbeard",
        -1.0
      ],
      [
        "possible",
        -1.0
      ],
      [
        "Nor",
        -1.0
      ],
      [
        "Ġmorphological",
        -1.0
      ],
      [
        "Ġbackwards",
        -1.0
      ],
      [
        "Ġroutine",
        -1.0
      ],
      [
        "Ø±",
        -1.0
      ],
      [
        "ĠMRI",
        -1.0
      ],
      [
        "Ġscan",
        -1.0
      ],
      [
        "Ġprovinces",
        -1.0
      ],
      [
        "Ġpredation",
        -1.0
      ],
      [
        "Ġspices",
        -1.0
      ],
      [
        "Ġconsole",
        -1.0
      ],
      [
        "Ġsal",
        -1.0
      ],
      [
        "Ġbathroom",
        -1.0
      ],
      [
        "Ġpoll",
        -1.0
      ],
      [
        "Ġmarijuana",
        -1.0
      ],
      [
        "Ġfamously",
        -1.0
      ],
      [
        "Ġtransformed",
        -1.0
      ],
      [
        "Ġdonor",
        -1.0
      ],
      [
        "icillin",
        -1.0
      ],
      [
        "Ġoverhead",
        -1.0
      ],
      [
        "ose",
        -1.0
      ],
      [
        "pet",
        -1.0
      ],
      [
        "fit",
        -1.0
      ],
      [
        "Ġunthinkable",
        -1.0
      ],
      [
        "ĠIndeed",
        -1.0
      ],
      [
        "Ġrestaurants",
        -1.0
      ],
      [
        "Ġnobility",
        -1.0
      ],
      [
        "Ġclear",
        -1.0
      ],
      [
        "cam",
        -1.0
      ],
      [
        "Ġforum",
        -1.0
      ],
      [
        "Ġ1863",
        -1.0
      ],
      [
        "kal",
        -1.0
      ],
      [
        "Ġvoices",
        -1.0
      ],
      [
        "Ġliter",
        -1.0
      ],
      [
        "ĠPowhatan",
        -1.0
      ],
      [
        "super",
        -1.0
      ],
      [
        "Ġposters",
        -1.0
      ],
      [
        "Ġabyss",
        -1.0
      ],
      [
        "Ġnorthern",
        -1.0
      ],
      [
        "ĠWas",
        -1.0
      ],
      [
        "ĠApostolic",
        -1.0
      ],
      [
        "ĠCave",
        -1.0
      ],
      [
        "ĠPatients",
        -1.0
      ],
      [
        "ĠUP",
        -1.0
      ],
      [
        "Ġpoets",
        -1.0
      ],
      [
        "ĠAmericas",
        -1.0
      ],
      [
        "Ġinvested",
        -1.0
      ],
      [
        "Ġrightly",
        -1.0
      ],
      [
        "Ġconveniently",
        -1.0
      ],
      [
        "Ġrecent",
        -1.0
      ],
      [
        "creating",
        -1.0
      ],
      [
        "build",
        -1.0
      ],
      [
        "Would",
        -1.0
      ],
      [
        "ĠAirlines",
        -1.0
      ],
      [
        "Ġdetect",
        -1.0
      ],
      [
        "ĠProposal",
        -1.0
      ],
      [
        "ĠMonterey",
        -1.0
      ],
      [
        "surgery",
        -1.0
      ],
      [
        "Ġcamera",
        -1.0
      ],
      [
        "Ġpatriotism",
        -1.0
      ],
      [
        "Ġinsulin",
        -1.0
      ],
      [
        "ĠRecently",
        -1.0
      ],
      [
        "Ġhelmet",
        -1.0
      ],
      [
        "Ġmurmur",
        -1.0
      ],
      [
        "Ġadventurous",
        -1.0
      ],
      [
        "JPL",
        -1.0
      ],
      [
        "Ŀ",
        -1.0
      ],
      [
        "ĠHistory",
        -1.0
      ],
      [
        "ĠParkinson",
        -1.0
      ],
      [
        "Ġdisposal",
        -1.0
      ],
      [
        "Ġraces",
        -1.0
      ],
      [
        "Ġmanifested",
        -1.0
      ],
      [
        "Ġdough",
        -1.0
      ],
      [
        "Ġpagan",
        -1.0
      ],
      [
        "Ġminimize",
        -1.0
      ],
      [
        "ĠStat",
        -1.0
      ],
      [
        "Ġcries",
        -1.0
      ],
      [
        "winter",
        -1.0
      ],
      [
        "produce",
        -1.0
      ],
      [
        "Ġimprove",
        -1.0
      ],
      [
        "Ġconfess",
        -1.0
      ],
      [
        "ĠIOM",
        -1.0
      ],
      [
        "Ġobliged",
        -1.0
      ],
      [
        "Conservation",
        -1.0
      ],
      [
        "Ġsitu",
        -1.0
      ],
      [
        "root",
        -1.0
      ],
      [
        "lie",
        -1.0
      ],
      [
        "ĠSketch",
        -1.0
      ],
      [
        "Ġasymptomatic",
        -1.0
      ],
      [
        "Ġcatapult",
        -1.0
      ],
      [
        "ĠBread",
        -1.0
      ],
      [
        "Ġfantasies",
        -1.0
      ],
      [
        "Ġdiscontinu",
        -1.0
      ],
      [
        "ĠMÃ©xico",
        -1.0
      ],
      [
        "ĠLeo",
        -1.0
      ],
      [
        "Ġpolymerase",
        -1.0
      ],
      [
        "Microsoft",
        -1.0
      ],
      [
        "ĠStewart",
        -1.0
      ],
      [
        "Ġunmanned",
        -1.0
      ],
      [
        "ĠSus",
        -1.0
      ],
      [
        "Ġcloning",
        -1.0
      ],
      [
        "ĠSometimes",
        -1.0
      ],
      [
        "Ġdevout",
        -1.0
      ],
      [
        "Avoid",
        -1.0
      ],
      [
        "JA",
        -1.0
      ],
      [
        "ĠId",
        -1.0
      ],
      [
        "ĠSport",
        -1.0
      ],
      [
        "Ġresultant",
        -1.0
      ],
      [
        "Ġduty",
        -1.0
      ],
      [
        "Ġonwards",
        -1.0
      ],
      [
        "Ġnavigable",
        -1.0
      ],
      [
        "Ġreversal",
        -1.0
      ],
      [
        "zzle",
        -1.0
      ],
      [
        "Ġhired",
        -1.0
      ],
      [
        "ĠAsimov",
        -1.0
      ],
      [
        "esteem",
        -1.0
      ],
      [
        "Ġdug",
        -1.0
      ],
      [
        "Ġpassion",
        -1.0
      ],
      [
        "Ġdisorders",
        -1.0
      ],
      [
        "backed",
        -1.0
      ],
      [
        "Ġmarsh",
        -1.0
      ],
      [
        "Ġfigured",
        -1.0
      ],
      [
        "Ġsunscreen",
        -1.0
      ],
      [
        "Ġdeflect",
        -1.0
      ],
      [
        "ĠOs",
        -1.0
      ],
      [
        "ĠBranch",
        -1.0
      ],
      [
        "ĠFailure",
        -1.0
      ],
      [
        "Ġservices",
        -1.0
      ],
      [
        "Ġconvictions",
        -1.0
      ],
      [
        "Poly",
        -1.0
      ],
      [
        "weight",
        -1.0
      ],
      [
        "Ġreformers",
        -1.0
      ],
      [
        "Ġsplendor",
        -1.0
      ],
      [
        "Calc",
        -1.0
      ],
      [
        "Ġkm",
        -1.0
      ],
      [
        "Ġdeclared",
        -1.0
      ],
      [
        "Ġprotected",
        -1.0
      ],
      [
        "ĠConsciousness",
        -1.0
      ],
      [
        "Ġdestroys",
        -1.0
      ],
      [
        "Ġpopulation",
        -1.0
      ],
      [
        "Ġprofessors",
        -1.0
      ],
      [
        "ĠSteel",
        -1.0
      ],
      [
        "Ġobscure",
        -1.0
      ],
      [
        "Ġbeaver",
        -1.0
      ],
      [
        "ĠErnst",
        -1.0
      ],
      [
        "Ġbreeds",
        -1.0
      ],
      [
        "Ġpotency",
        -1.0
      ],
      [
        "Ġarchaic",
        -1.0
      ],
      [
        "Ġhomeschool",
        -1.0
      ],
      [
        "ĠiPod",
        -1.0
      ],
      [
        "Ġstartling",
        -1.0
      ],
      [
        "ĠMeeting",
        -1.0
      ],
      [
        "ÅĽ",
        -1.0
      ],
      [
        "ĠFlow",
        -1.0
      ],
      [
        "Ġ02",
        -1.0
      ],
      [
        "Ġeducation",
        -1.0
      ],
      [
        "shu",
        -1.0
      ],
      [
        "Ġspeed",
        -1.0
      ],
      [
        "Ġp",
        -1.0
      ],
      [
        "notes",
        -1.0
      ],
      [
        "ĠHan",
        -1.0
      ],
      [
        "Ġsprout",
        -1.0
      ],
      [
        "Ġextend",
        -1.0
      ],
      [
        "cases",
        -1.0
      ],
      [
        "Ġladder",
        -1.0
      ],
      [
        "Ġlength",
        -1.0
      ],
      [
        "Ġcrayfish",
        -1.0
      ],
      [
        "Ġnotorious",
        -1.0
      ],
      [
        "ĠBD",
        -1.0
      ],
      [
        "Ġanalysing",
        -1.0
      ],
      [
        "ye",
        -1.0
      ],
      [
        "ĠGnostic",
        -1.0
      ],
      [
        "Ġrefined",
        -1.0
      ],
      [
        "Myth",
        -1.0
      ],
      [
        "Ġinanimate",
        -1.0
      ],
      [
        "Ġconclusions",
        -1.0
      ],
      [
        "Ġshine",
        -1.0
      ],
      [
        "ĠJay",
        -1.0
      ],
      [
        "Ġmessaging",
        -1.0
      ],
      [
        "Smithsonian",
        -1.0
      ],
      [
        "Ġsanitation",
        -1.0
      ],
      [
        "Ġtop",
        -1.0
      ],
      [
        "ĠIncome",
        -1.0
      ],
      [
        "ĠAtlas",
        -1.0
      ],
      [
        "Ġcompared",
        -1.0
      ],
      [
        "Ġextravagant",
        -1.0
      ],
      [
        "ĠResearch",
        -1.0
      ],
      [
        "et",
        -1.0
      ],
      [
        "Ġconquer",
        -1.0
      ],
      [
        "Ġcrisp",
        -1.0
      ],
      [
        "separate",
        -1.0
      ],
      [
        "Ġproliferation",
        -1.0
      ],
      [
        "Ġataxia",
        -1.0
      ],
      [
        "ĠSingh",
        -1.0
      ],
      [
        "Ġpathology",
        -1.0
      ],
      [
        "Ġfilling",
        -1.0
      ],
      [
        "ĠJeremiah",
        -1.0
      ],
      [
        "ĠKellogg",
        -1.0
      ],
      [
        "Ġveto",
        -1.0
      ],
      [
        "Ġact",
        -1.0
      ],
      [
        "Ġvegan",
        -1.0
      ],
      [
        "Ġtile",
        -1.0
      ],
      [
        "Ġemergent",
        -1.0
      ],
      [
        "Ġsewing",
        -1.0
      ],
      [
        "Ġtenth",
        -1.0
      ],
      [
        "ĠField",
        -1.0
      ],
      [
        "ĠSocial",
        -1.0
      ],
      [
        "Ġl",
        -1.0
      ],
      [
        "action",
        -1.0
      ],
      [
        "Ġadministered",
        -1.0
      ],
      [
        "Ġ375",
        -1.0
      ],
      [
        "Ġstepped",
        -1.0
      ],
      [
        "Ġfootprints",
        -1.0
      ],
      [
        "Ġsalvage",
        -1.0
      ],
      [
        "Ġdeter",
        -1.0
      ],
      [
        "Ġobservable",
        -1.0
      ],
      [
        "Ġwidth",
        -1.0
      ],
      [
        "faith",
        -1.0
      ],
      [
        "Ġplaywright",
        -1.0
      ],
      [
        "Mercury",
        -1.0
      ],
      [
        "ĠEgyptian",
        -1.0
      ],
      [
        "Ġdeacon",
        -1.0
      ],
      [
        "Ġaeruginosa",
        -1.0
      ],
      [
        "Ġrelapse",
        -1.0
      ],
      [
        "Ġfamilial",
        -1.0
      ],
      [
        "ĠVaccination",
        -1.0
      ],
      [
        "Ġunidentified",
        -1.0
      ],
      [
        "Ġendings",
        -1.0
      ],
      [
        "Ġglutathione",
        -1.0
      ],
      [
        "Ġstrictly",
        -1.0
      ],
      [
        "Ġexhibit",
        -1.0
      ],
      [
        "Reviewed",
        -1.0
      ],
      [
        "Ġdisillusion",
        -1.0
      ],
      [
        "Ġ400",
        -1.0
      ],
      [
        "Ġrhyming",
        -1.0
      ],
      [
        "Ġadherents",
        -1.0
      ],
      [
        "families",
        -1.0
      ],
      [
        "ĠBrand",
        -1.0
      ],
      [
        "Ġdependent",
        -1.0
      ],
      [
        "orum",
        -1.0
      ],
      [
        "Explore",
        -1.0
      ],
      [
        "Ġinterstellar",
        -1.0
      ],
      [
        "Ġ1931",
        -1.0
      ],
      [
        "ĠWheat",
        -1.0
      ],
      [
        "ĠShadow",
        -1.0
      ],
      [
        "tall",
        -1.0
      ],
      [
        "`",
        -1.0
      ],
      [
        "270",
        -1.0
      ],
      [
        "Ġfired",
        -1.0
      ],
      [
        "ft",
        -1.0
      ],
      [
        "ĠIo",
        -1.0
      ],
      [
        "Ġbeen",
        -1.0
      ],
      [
        "Ġsummoned",
        -1.0
      ],
      [
        "Ġobligatory",
        -1.0
      ],
      [
        "ĠBay",
        -1.0
      ],
      [
        "Ã¦",
        -1.0
      ],
      [
        "ĠCreole",
        -1.0
      ],
      [
        "ĠHorses",
        -1.0
      ],
      [
        "mills",
        -1.0
      ],
      [
        "Ġpermeability",
        -1.0
      ],
      [
        "Remember",
        -1.0
      ],
      [
        "ĠIO",
        -1.0
      ],
      [
        "ĠBaghdad",
        -1.0
      ],
      [
        "Ġsusceptibility",
        -1.0
      ],
      [
        "Ġhopefully",
        -1.0
      ],
      [
        "Ġcalling",
        -1.0
      ],
      [
        "ĠMs",
        -1.0
      ],
      [
        "Ġmiss",
        -1.0
      ],
      [
        "dging",
        -1.0
      ],
      [
        "Ġserpent",
        -1.0
      ],
      [
        "ĠQU",
        -1.0
      ],
      [
        "Ġfatalities",
        -1.0
      ],
      [
        "ĠMiddle",
        -1.0
      ],
      [
        "Ġmidst",
        -1.0
      ],
      [
        "ĠUSPSTF",
        -1.0
      ],
      [
        "Ġcolony",
        -1.0
      ],
      [
        "Ġindication",
        -1.0
      ],
      [
        "LINE",
        -1.0
      ],
      [
        "Ġheated",
        -1.0
      ],
      [
        "ĠFoot",
        -1.0
      ],
      [
        "Ġvandalism",
        -1.0
      ],
      [
        "Ġfinancial",
        -1.0
      ],
      [
        "Ġmodule",
        -1.0
      ],
      [
        "Ġshoes",
        -1.0
      ],
      [
        "Ġdiploma",
        -1.0
      ],
      [
        "Week",
        -1.0
      ],
      [
        "TY",
        -1.0
      ],
      [
        "Ġtrapped",
        -1.0
      ],
      [
        "Ġreserve",
        -1.0
      ],
      [
        "Ġbow",
        -1.0
      ],
      [
        "Ġlogo",
        -1.0
      ],
      [
        "Ġthunderstorms",
        -1.0
      ],
      [
        "Ġdistribute",
        -1.0
      ],
      [
        "ĠSlavic",
        -1.0
      ],
      [
        "Ġinefficient",
        -1.0
      ],
      [
        "ĠWindow",
        -1.0
      ],
      [
        "tails",
        -1.0
      ],
      [
        "same",
        -1.0
      ],
      [
        "ĠXML",
        -1.0
      ],
      [
        "ĠIntegrated",
        -1.0
      ],
      [
        "Ġrepeatedly",
        -1.0
      ],
      [
        "ĠRs",
        -1.0
      ],
      [
        "natural",
        -1.0
      ],
      [
        "zen",
        -1.0
      ],
      [
        "ĠApplication",
        -1.0
      ],
      [
        "Ġinnumerable",
        -1.0
      ],
      [
        "Ġextrem",
        -1.0
      ],
      [
        "ĠPlate",
        -1.0
      ],
      [
        "earth",
        -1.0
      ],
      [
        "ĠInter",
        -1.0
      ],
      [
        "Ġterribly",
        -1.0
      ],
      [
        "Ġinfluenza",
        -1.0
      ],
      [
        "Ġeasier",
        -1.0
      ],
      [
        "Ġpaints",
        -1.0
      ],
      [
        "Ġaged",
        -1.0
      ],
      [
        "Ġcoloured",
        -1.0
      ],
      [
        "Ġpack",
        -1.0
      ],
      [
        "ĠBahamas",
        -1.0
      ],
      [
        "band",
        -1.0
      ],
      [
        "ĠApostle",
        -1.0
      ],
      [
        "Ġintroduce",
        -1.0
      ],
      [
        "ĠTheodore",
        -1.0
      ],
      [
        "Ġfaiths",
        -1.0
      ],
      [
        "ĠTABLE",
        -1.0
      ],
      [
        "Ġdevice",
        -1.0
      ],
      [
        "Ġfeminine",
        -1.0
      ],
      [
        "Ġjaundice",
        -1.0
      ],
      [
        "Ġcared",
        -1.0
      ],
      [
        "Ġmarginalized",
        -1.0
      ],
      [
        "Ġvault",
        -1.0
      ],
      [
        "ĠLAN",
        -1.0
      ],
      [
        "ĠTheoretical",
        -1.0
      ],
      [
        "ĠJesus",
        -1.0
      ],
      [
        "Ġgone",
        -1.0
      ],
      [
        "Ġmobility",
        -1.0
      ],
      [
        "Ġfun",
        -1.0
      ],
      [
        "ĠAnthropology",
        -1.0
      ],
      [
        "Ġreplica",
        -1.0
      ],
      [
        "Ġcypress",
        -1.0
      ],
      [
        "Ġkindergarten",
        -1.0
      ],
      [
        "888",
        -1.0
      ],
      [
        "TR",
        -1.0
      ],
      [
        "Ġcelebration",
        -1.0
      ],
      [
        "alpha",
        -1.0
      ],
      [
        "ĠMix",
        -1.0
      ],
      [
        "ĠBradford",
        -1.0
      ],
      [
        "Ġmiraculous",
        -1.0
      ],
      [
        "Ġhardest",
        -1.0
      ],
      [
        "country",
        -1.0
      ],
      [
        "Ġlily",
        -1.0
      ],
      [
        "Ġresemblance",
        -1.0
      ],
      [
        "1993",
        -1.0
      ],
      [
        "Ġlinkages",
        -1.0
      ],
      [
        "ĠDetails",
        -1.0
      ],
      [
        "Ġ94",
        -1.0
      ],
      [
        "Ġanarch",
        -1.0
      ],
      [
        "from",
        -1.0
      ],
      [
        "BO",
        -1.0
      ],
      [
        "ĠViews",
        -1.0
      ],
      [
        "chen",
        -1.0
      ],
      [
        "Ġmonsters",
        -1.0
      ],
      [
        "morphism",
        -1.0
      ],
      [
        "Astronomers",
        -1.0
      ],
      [
        "Ġwomen",
        -1.0
      ],
      [
        "Ġenvironmentally",
        -1.0
      ],
      [
        "Ġrating",
        -1.0
      ],
      [
        "Ġriver",
        -1.0
      ],
      [
        "Ġbother",
        -1.0
      ],
      [
        "having",
        -1.0
      ],
      [
        "ĠEastern",
        -1.0
      ],
      [
        "Ġinterstate",
        -1.0
      ],
      [
        "Ġdisparity",
        -1.0
      ],
      [
        "Ġdosage",
        -1.0
      ],
      [
        "Ġdialect",
        -1.0
      ],
      [
        "ĠNeed",
        -1.0
      ],
      [
        "Ġtone",
        -1.0
      ],
      [
        "Ġinclined",
        -1.0
      ],
      [
        "ĠFreedom",
        -1.0
      ],
      [
        "pid",
        -1.0
      ],
      [
        "Ġ1878",
        -1.0
      ],
      [
        "Ġcomma",
        -1.0
      ],
      [
        "ĠMarketing",
        -1.0
      ],
      [
        "Ġrelations",
        -1.0
      ],
      [
        "he",
        -1.0
      ],
      [
        "Ġearthly",
        -1.0
      ],
      [
        "Ġlasting",
        -1.0
      ],
      [
        "ĠVesta",
        -1.0
      ],
      [
        "Ġprefers",
        -1.0
      ],
      [
        "Ġanguish",
        -1.0
      ],
      [
        "Ġfarming",
        -1.0
      ],
      [
        "Ġdung",
        -1.0
      ],
      [
        "Ġreign",
        -1.0
      ],
      [
        "ĠWatson",
        -1.0
      ],
      [
        "eling",
        -1.0
      ],
      [
        "ĠPlants",
        -1.0
      ],
      [
        "ĠFact",
        -1.0
      ],
      [
        "Ġburdens",
        -1.0
      ],
      [
        "ĠUSC",
        -1.0
      ],
      [
        "Ġrecovery",
        -1.0
      ],
      [
        "ington",
        -1.0
      ],
      [
        "Ġchemist",
        -1.0
      ],
      [
        "ĠDu",
        -1.0
      ],
      [
        "ĠMiles",
        -1.0
      ],
      [
        "ĠBattle",
        -1.0
      ],
      [
        "Ġretain",
        -1.0
      ],
      [
        "gs",
        -1.0
      ],
      [
        "roy",
        -1.0
      ],
      [
        "Ġconverse",
        -1.0
      ],
      [
        "Ġcommunications",
        -1.0
      ],
      [
        "ĠAlgebra",
        -1.0
      ],
      [
        "sometimes",
        -1.0
      ],
      [
        "ĠFeast",
        -1.0
      ],
      [
        "ado",
        -1.0
      ],
      [
        "Ġneeded",
        -1.0
      ],
      [
        "Ġconversions",
        -1.0
      ],
      [
        "ĠPsychiatric",
        -1.0
      ],
      [
        "ĠDesigned",
        -1.0
      ],
      [
        "chlor",
        -1.0
      ],
      [
        "ĠHead",
        -1.0
      ],
      [
        "Ġflooded",
        -1.0
      ],
      [
        "lon",
        -1.0
      ],
      [
        "anda",
        -1.0
      ],
      [
        "ĠPrint",
        -1.0
      ],
      [
        "Ġarray",
        -1.0
      ],
      [
        "ĠRich",
        -1.0
      ],
      [
        "law",
        -1.0
      ],
      [
        "kers",
        -1.0
      ],
      [
        "ĠTrumbull",
        -1.0
      ],
      [
        "Ġmutation",
        -1.0
      ],
      [
        "Ġcircumference",
        -1.0
      ],
      [
        "Ġwatercolor",
        -1.0
      ],
      [
        "Ġruminants",
        -1.0
      ],
      [
        "Ġglaciers",
        -1.0
      ],
      [
        "Ġsyphilis",
        -1.0
      ],
      [
        "Ġ1750",
        -1.0
      ],
      [
        "Ġquotient",
        -1.0
      ],
      [
        "Ġsimultaneously",
        -1.0
      ],
      [
        "Ã¨",
        -1.0
      ],
      [
        "Ġyoungest",
        -1.0
      ],
      [
        "ĠNeuro",
        -1.0
      ],
      [
        "owitz",
        -1.0
      ],
      [
        "ĠCleveland",
        -1.0
      ],
      [
        "ĠMalaysian",
        -1.0
      ],
      [
        "ĠGraph",
        -1.0
      ],
      [
        "Ġsoaring",
        -1.0
      ],
      [
        "Ġ::",
        -1.0
      ],
      [
        "Ġknots",
        -1.0
      ],
      [
        "Ġintake",
        -1.0
      ],
      [
        "Ġlowland",
        -1.0
      ],
      [
        "Ġsomething",
        -1.0
      ],
      [
        "Ġart",
        -1.0
      ],
      [
        "ĠEnvironmental",
        -1.0
      ],
      [
        "Ġinfants",
        -1.0
      ],
      [
        "ĠLahore",
        -1.0
      ],
      [
        "Ġlist",
        -1.0
      ],
      [
        "Ġkernels",
        -1.0
      ],
      [
        "Ġintended",
        -1.0
      ],
      [
        "Ġbreaking",
        -1.0
      ],
      [
        "Ã¶",
        -1.0
      ],
      [
        "Ġinterest",
        -1.0
      ],
      [
        "Ġanterior",
        -1.0
      ],
      [
        "ĠHerodotus",
        -1.0
      ],
      [
        ".âĢĶ",
        -1.0
      ],
      [
        "Ah",
        -1.0
      ],
      [
        "Ġheed",
        -1.0
      ],
      [
        "Ġmyth",
        -1.0
      ],
      [
        "§",
        -1.0
      ],
      [
        "Ġsturgeon",
        -1.0
      ],
      [
        "Ġcooling",
        -1.0
      ],
      [
        "Ġfundamentally",
        -1.0
      ],
      [
        "Ġunofficial",
        -1.0
      ],
      [
        "ĠEngineers",
        -1.0
      ],
      [
        "Ġantioxidants",
        -1.0
      ],
      [
        "Ġromance",
        -1.0
      ],
      [
        "Ġemancipated",
        -1.0
      ],
      [
        "Ġpriority",
        -1.0
      ],
      [
        "Ġhabitats",
        -1.0
      ],
      [
        "ĠCreative",
        -1.0
      ],
      [
        "Ġglider",
        -1.0
      ],
      [
        "*,",
        -1.0
      ],
      [
        "Ġcivilized",
        -1.0
      ],
      [
        "ĠBishops",
        -1.0
      ],
      [
        "ĠIA",
        -1.0
      ],
      [
        "Ġpossible",
        -1.0
      ],
      [
        "Ġfitness",
        -1.0
      ],
      [
        "rest",
        -1.0
      ],
      [
        "Ġmathematically",
        -1.0
      ],
      [
        "ĠJain",
        -1.0
      ],
      [
        "á¸įa",
        -1.0
      ],
      [
        "ĠChar",
        -1.0
      ],
      [
        "Ġelectricity",
        -1.0
      ],
      [
        "Ġkeys",
        -1.0
      ],
      [
        "Ġultrasound",
        -1.0
      ],
      [
        "Henry",
        -1.0
      ],
      [
        "ĠEuropa",
        -1.0
      ],
      [
        "Ġwasted",
        -1.0
      ],
      [
        "Ġpoisoning",
        -1.0
      ],
      [
        "Ġgrassland",
        -1.0
      ],
      [
        "Ġrectangular",
        -1.0
      ],
      [
        "1002",
        -1.0
      ],
      [
        "ĠSummit",
        -1.0
      ],
      [
        "ĠGreenwood",
        -1.0
      ],
      [
        "tter",
        -1.0
      ],
      [
        "Massachusetts",
        -1.0
      ],
      [
        "Nearly",
        -1.0
      ],
      [
        "Ġprojection",
        -1.0
      ],
      [
        "Ġdiscourse",
        -1.0
      ],
      [
        "Ġcommentators",
        -1.0
      ],
      [
        "comp",
        -1.0
      ],
      [
        "Soil",
        -1.0
      ],
      [
        "Ġfinal",
        -1.0
      ],
      [
        "Ġpracticable",
        -1.0
      ],
      [
        "tip",
        -1.0
      ],
      [
        "Ġrestrictive",
        -1.0
      ],
      [
        "Ġlazy",
        -1.0
      ],
      [
        "Ġrefresh",
        -1.0
      ],
      [
        "wd",
        -1.0
      ],
      [
        "Ġsmelt",
        -1.0
      ],
      [
        "Ġspecialised",
        -1.0
      ],
      [
        "ĠKaufman",
        -1.0
      ],
      [
        "LI",
        -1.0
      ],
      [
        "Ġdizziness",
        -1.0
      ],
      [
        "Ġdome",
        -1.0
      ],
      [
        "Ġqualitative",
        -1.0
      ],
      [
        "Ġaverages",
        -1.0
      ],
      [
        "Ġrefrain",
        -1.0
      ],
      [
        "Ġflap",
        -1.0
      ],
      [
        "Ġfoxes",
        -1.0
      ],
      [
        "Ġisotopes",
        -1.0
      ],
      [
        "Ġtandem",
        -1.0
      ],
      [
        "Ġoriginal",
        -1.0
      ],
      [
        "Ġworthless",
        -1.0
      ],
      [
        "Ġcivic",
        -1.0
      ],
      [
        "matter",
        -1.0
      ],
      [
        "Ġcolon",
        -1.0
      ],
      [
        "Ġtetra",
        -1.0
      ],
      [
        "linguistic",
        -1.0
      ],
      [
        "Ġbelts",
        -1.0
      ],
      [
        "ow",
        -1.0
      ],
      [
        "print",
        -1.0
      ],
      [
        "hole",
        -1.0
      ],
      [
        "ĠInfants",
        -1.0
      ],
      [
        "ĠFrederick",
        -1.0
      ],
      [
        "doing",
        -1.0
      ],
      [
        "Ġitem",
        -1.0
      ],
      [
        "ĠPeters",
        -1.0
      ],
      [
        "NI",
        -1.0
      ],
      [
        "âĢĿ).",
        -1.0
      ],
      [
        "ĠTehran",
        -1.0
      ],
      [
        "Ġrelationships",
        -1.0
      ],
      [
        "ui",
        -1.0
      ],
      [
        "Ġstimulated",
        -1.0
      ],
      [
        "Ġfrontier",
        -1.0
      ],
      [
        "Ġbush",
        -1.0
      ],
      [
        "ĠMotor",
        -1.0
      ],
      [
        "kan",
        -1.0
      ],
      [
        "Ġlengths",
        -1.0
      ],
      [
        "Ġleave",
        -1.0
      ],
      [
        "Ġapple",
        -1.0
      ],
      [
        "Ġi",
        -1.0
      ],
      [
        "paper",
        -1.0
      ],
      [
        "nasa",
        -1.0
      ],
      [
        "Ġelevations",
        -1.0
      ],
      [
        "Ġdevoid",
        -1.0
      ],
      [
        "ICS",
        -1.0
      ],
      [
        "Ġvir",
        -1.0
      ],
      [
        "Ġdoubly",
        -1.0
      ],
      [
        "Ġcongressional",
        -1.0
      ],
      [
        "Ġfood",
        -1.0
      ],
      [
        "Ġliquor",
        -1.0
      ],
      [
        "Ġdispersal",
        -1.0
      ],
      [
        "ĠMathematical",
        -1.0
      ],
      [
        "particip",
        -1.0
      ],
      [
        "six",
        -1.0
      ],
      [
        "2002",
        -1.0
      ],
      [
        "ĠRoy",
        -1.0
      ],
      [
        "Ġbasin",
        -1.0
      ],
      [
        "ĠAug",
        -1.0
      ],
      [
        "ĠSouth",
        -1.0
      ],
      [
        "Ġperiodic",
        -1.0
      ],
      [
        "Ġlicense",
        -1.0
      ],
      [
        "Ġheavier",
        -1.0
      ],
      [
        "Ġpendulum",
        -1.0
      ],
      [
        "ĠSandra",
        -1.0
      ],
      [
        "ĠWestern",
        -1.0
      ],
      [
        "Ġfills",
        -1.0
      ],
      [
        "iya",
        -1.0
      ],
      [
        "ĠJude",
        -1.0
      ],
      [
        "Ġ360",
        -1.0
      ],
      [
        "gas",
        -1.0
      ],
      [
        "Ġsmartphone",
        -1.0
      ],
      [
        "ĠRepresentation",
        -1.0
      ],
      [
        "Hungarian",
        -1.0
      ],
      [
        "Ġmodels",
        -1.0
      ],
      [
        "Ġstreaming",
        -1.0
      ],
      [
        "oke",
        -1.0
      ],
      [
        "Ġexecutive",
        -1.0
      ],
      [
        "groups",
        -1.0
      ],
      [
        "114",
        -1.0
      ],
      [
        "Ġ60",
        -1.0
      ],
      [
        "ĠAtonement",
        -1.0
      ],
      [
        "Particip",
        -1.0
      ],
      [
        "Ġwhereas",
        -1.0
      ],
      [
        "ĠWorcester",
        -1.0
      ],
      [
        "ĠLecture",
        -1.0
      ],
      [
        "Ġparagraph",
        -1.0
      ],
      [
        "aches",
        -1.0
      ],
      [
        "Ġ1785",
        -1.0
      ],
      [
        "ĠBee",
        -1.0
      ],
      [
        "XT",
        -1.0
      ],
      [
        "Ġaspiration",
        -1.0
      ],
      [
        "Ġhung",
        -1.0
[...]
