{
  "version": "1.0",
  "truncation": null,
  "padding": null,
  "added_tokens": [
    {
      "id": 0,
      "content": "<|bos|>",
      "single_word": false,
      "lstrip": false,
      "rstrip": false,
      "normalized": false,
      "special": true
    },
    {
      "id": 1,
      "content": "<|user_start|>",
      "single_word": false,
      "lstrip": false,
      "rstrip": false,
      "normalized": false,
      "special": true
    },
    {
      "id": 2,
      "content": "<|user_end|>",
      "single_word": false,
      "lstrip": false,
      "rstrip": false,
      "normalized": false,
      "special": true
    },
    {
      "id": 3,
      "content": "<|assistant_start|>",
      "single_word": false,
      "lstrip": false,
      "rstrip": false,
      "normalized": false,
      "special": true
    },
    {
      "id": 4,
      "content": "<|assistant_end|>",
      "single_word": false,
      "lstrip": false,
      "rstrip": false,
      "normalized": false,
      "special": true
    },
    {
      "id": 5,
      "content": "<|python_start|>",
      "single_word": false,
      "lstrip": false,
      "rstrip": false,
      "normalized": false,
      "special": true
    },
    {
      "id": 6,
      "content": "<|python_end|>",
      "single_word": false,
      "lstrip": false,
      "rstrip": false,
      "normalized": false,
      "special": true
    },
    {
      "id": 7,
      "content": "<|output_start|>",
      "single_word": false,
      "lstrip": false,
      "rstrip": false,
      "normalized": false,
      "special": true
    },
    {
      "id": 8,
      "content": "<|output_end|>",
      "single_word": false,
      "lstrip": false,
      "rstrip": false,
      "normalized": false,
      "special": true
    },
    {
      "id": 9,
      "content": "<|unk|>",
      "single_word": false,
      "lstrip": false,
      "rstrip": false,
      "normalized": false,
      "special": true
    }
  ],
  "normalizer": null,
  "pre_tokenizer": {
    "type": "Sequence",
    "pretokenizers": [
      {
        "type": "Split",
        "pattern": {
          "Regex": "'(?i:[sdmt]|ll|ve|re)|[^\\r\\n\\p{L}\\p{N}]?+\\p{L}+|\\p{N}{1,2}| ?[^\\s\\p{L}\\p{N}]++[\\r\\n]*|\\s*[\\r\\n]|\\s+(?!\\S)|\\s+"
        },
        "behavior": "Isolated",
        "invert": false
      },
      {
        "type": "ByteLevel",
        "add_prefix_space": false,
        "trim_offsets": true,
        "use_regex": false
      }
    ]
  },
  "post_processor": {
    "type": "TemplateProcessing",
    "single": [
      {
        "Sequence": {
          "id": "A",
          "type_id": 0
        }
      }
    ],
    "pair": [
      {
        "Sequence": {
          "id": "A",
          "type_id": 0
        }
      },
      {
        "Sequence": {
          "id": "B",
          "type_id": 1
        }
      }
    ],
    "special_tokens": {}
  },
  "decoder": {
    "type": "ByteLevel",
    "add_prefix_space": true,
    "trim_offsets": true,
    "use_regex": true
  },
  "model": {
    "type": "Unigram",
    "unk_id": 9,
    "vocab": [
      [
        "<|bos|>",
        -1.0
      ],
      [
        "<|user_start|>",
        -1.0
      ],
      [
        "<|user_end|>",
        -1.0
      ],
      [
        "<|assistant_start|>",
        -1.0
      ],
      [
        "<|assistant_end|>",
        -1.0
      ],
      [
        "<|python_start|>",
        -1.0
      ],
      [
        "<|python_end|>",
        -1.0
      ],
      [
        "<|output_start|>",
        -1.0
      ],
      [
        "<|output_end|>",
        -1.0
      ],
      [
        "<|unk|>",
        -1.0
      ],
      [
        "!",
        -1.0
      ],
      [
        "\"",
        -1.0
      ],
      [
        "#",
        -1.0
      ],
      [
        "$",
        -1.0
      ],
      [
        "%",
        -1.0
      ],
      [
        "&",
        -1.0
      ],
      [
        "'",
        -1.0
      ],
      [
        "(",
        -1.0
      ],
      [
        ")",
        -1.0
      ],
      [
        "*",
        -1.0
      ],
      [
        "+",
        -1.0
      ],
      [
        ",",
        -1.0
      ],
      [
        "-",
        -1.0
      ],
      [
        ".",
        -1.0
      ],
      [
        "/",
        -1.0
      ],
      [
        "0",
        -1.0
      ],
      [
        "1",
        -1.0
      ],
      [
        "2",
        -1.0
      ],
      [
        "3",
        -1.0
      ],
      [
        "4",
        -1.0
      ],
      [
        "5",
        -1.0
      ],
      [
        "6",
        -1.0
      ],
      [
        "7",
        -1.0
      ],
      [
        "8",
        -1.0
      ],
      [
        "9",
        -1.0
      ],
      [
        ":",
        -1.0
      ],
      [
        ";",
        -1.0
      ],
      [
        "<",
        -1.0
      ],
      [
        "=",
        -1.0
      ],
      [
        ">",
        -1.0
      ],
      [
        "?",
        -1.0
      ],
      [
        "@",
        -1.0
      ],
      [
        "A",
        -1.0
      ],
      [
        "B",
        -1.0
      ],
      [
        "C",
        -1.0
      ],
      [
        "D",
        -1.0
      ],
      [
        "E",
        -1.0
      ],
      [
        "F",
        -1.0
      ],
      [
        "G",
        -1.0
      ],
      [
        "H",
        -1.0
      ],
      [
        "I",
        -1.0
      ],
      [
        "J",
        -1.0
      ],
      [
        "K",
        -1.0
      ],
      [
        "L",
        -1.0
      ],
      [
        "M",
        -1.0
      ],
      [
        "N",
        -1.0
      ],
      [
        "O",
        -1.0
      ],
      [
        "P",
        -1.0
      ],
      [
        "Q",
        -1.0
      ],
      [
        "R",
        -1.0
      ],
      [
        "S",
        -1.0
      ],
      [
        "T",
        -1.0
      ],
      [
        "U",
        -1.0
      ],
      [
        "V",
        -1.0
      ],
      [
        "W",
        -1.0
      ],
      [
        "X",
        -1.0
      ],
      [
        "Y",
        -1.0
      ],
      [
        "Z",
        -1.0
      ],
      [
        "[",
        -1.0
      ],
      [
        "\\",
        -1.0
      ],
      [
        "]",
        -1.0
      ],
      [
        "^",
        -1.0
      ],
      [
        "_",
        -1.0
      ],
      [
        "`",
        -1.0
      ],
      [
        "a",
        -1.0
      ],
      [
        "b",
        -1.0
      ],
      [
        "c",
        -1.0
      ],
      [
        "d",
        -1.0
      ],
      [
        "e",
        -1.0
      ],
      [
        "f",
        -1.0
      ],
      [
        "g",
        -1.0
      ],
      [
        "h",
        -1.0
      ],
      [
        "i",
        -1.0
      ],
      [
        "j",
        -1.0
      ],
      [
        "k",
        -1.0
      ],
      [
        "l",
        -1.0
      ],
      [
        "m",
        -1.0
      ],
      [
        "n",
        -1.0
      ],
      [
        "o",
        -1.0
      ],
      [
        "p",
        -1.0
      ],
      [
        "q",
        -1.0
      ],
      [
        "r",
        -1.0
      ],
      [
        "s",
        -1.0
      ],
      [
        "t",
        -1.0
      ],
      [
        "u",
        -1.0
      ],
      [
        "v",
        -1.0
      ],
      [
        "w",
        -1.0
      ],
      [
        "x",
        -1.0
      ],
      [
        "y",
        -1.0
      ],
      [
        "z",
        -1.0
      ],
      [
        "{",
        -1.0
      ],
      [
        "|",
        -1.0
      ],
      [
        "}",
        -1.0
      ],
      [
        "~",
        -1.0
      ],
      [
        "¡",
        -1.0
      ],
      [
        "¢",
        -1.0
      ],
      [
        "£",
        -1.0
      ],
      [
        "¤",
        -1.0
      ],
      [
        "¥",
        -1.0
      ],
      [
        "¦",
        -1.0
      ],
      [
        "§",
        -1.0
      ],
      [
        "¨",
        -1.0
      ],
      [
        "©",
        -1.0
      ],
      [
        "ª",
        -1.0
      ],
      [
        "«",
        -1.0
      ],
      [
        "¬",
        -1.0
      ],
      [
        "®",
        -1.0
      ],
      [
        "¯",
        -1.0
      ],
      [
        "°",
        -1.0
      ],
      [
        "±",
        -1.0
      ],
      [
        "²",
        -1.0
      ],
      [
        "³",
        -1.0
      ],
      [
        "´",
        -1.0
      ],
      [
        "µ",
        -1.0
      ],
      [
        "¶",
        -1.0
      ],
      [
        "·",
        -1.0
      ],
      [
        "¸",
        -1.0
      ],
      [
        "¹",
        -1.0
      ],
      [
        "º",
        -1.0
      ],
      [
        "»",
        -1.0
      ],
      [
        "¼",
        -1.0
      ],
      [
        "½",
        -1.0
      ],
      [
        "¾",
        -1.0
      ],
      [
        "¿",
        -1.0
      ],
      [
        "À",
        -1.0
      ],
      [
        "Á",
        -1.0
      ],
      [
        "Â",
        -1.0
      ],
      [
        "Ã",
        -1.0
      ],
      [
        "Ä",
        -1.0
      ],
      [
        "Å",
        -1.0
      ],
      [
        "Æ",
        -1.0
      ],
      [
        "Ç",
        -1.0
      ],
      [
        "È",
        -1.0
      ],
      [
        "É",
        -1.0
      ],
      [
        "Ê",
        -1.0
      ],
      [
        "Ë",
        -1.0
      ],
      [
        "Ì",
        -1.0
      ],
      [
        "Í",
        -1.0
      ],
      [
        "Î",
        -1.0
      ],
      [
        "Ï",
        -1.0
      ],
      [
        "Ð",
        -1.0
      ],
      [
        "Ñ",
        -1.0
      ],
      [
        "Ò",
        -1.0
      ],
      [
        "Ó",
        -1.0
      ],
      [
        "Ô",
        -1.0
      ],
      [
        "Õ",
        -1.0
      ],
      [
        "Ö",
        -1.0
      ],
      [
        "×",
        -1.0
      ],
      [
        "Ø",
        -1.0
      ],
      [
        "Ù",
        -1.0
      ],
      [
        "Ú",
        -1.0
      ],
      [
        "Û",
        -1.0
      ],
      [
        "Ü",
        -1.0
      ],
      [
        "Ý",
        -1.0
      ],
      [
        "Þ",
        -1.0
      ],
      [
        "ß",
        -1.0
      ],
      [
        "à",
        -1.0
      ],
      [
        "á",
        -1.0
      ],
      [
        "â",
        -1.0
      ],
      [
        "ã",
        -1.0
      ],
      [
        "ä",
        -1.0
      ],
      [
        "å",
        -1.0
      ],
      [
        "æ",
        -1.0
      ],
      [
        "ç",
        -1.0
      ],
      [
        "è",
        -1.0
      ],
      [
        "é",
        -1.0
      ],
      [
        "ê",
        -1.0
      ],
      [
        "ë",
        -1.0
      ],
      [
        "ì",
        -1.0
      ],
      [
        "í",
        -1.0
      ],
      [
        "î",
        -1.0
      ],
      [
        "ï",
        -1.0
      ],
      [
        "ð",
        -1.0
      ],
      [
        "ñ",
        -1.0
      ],
      [
        "ò",
        -1.0
      ],
      [
        "ó",
        -1.0
      ],
      [
        "ô",
        -1.0
      ],
      [
        "õ",
        -1.0
      ],
      [
        "ö",
        -1.0
      ],
      [
        "÷",
        -1.0
      ],
      [
        "ø",
        -1.0
      ],
      [
        "ù",
        -1.0
      ],
      [
        "ú",
        -1.0
      ],
      [
        "û",
        -1.0
      ],
      [
        "ü",
        -1.0
      ],
      [
        "ý",
        -1.0
      ],
      [
        "þ",
        -1.0
      ],
      [
        "ÿ",
        -1.0
      ],
      [
        "Ā",
        -1.0
      ],
      [
        "ā",
        -1.0
      ],
      [
        "Ă",
        -1.0
      ],
      [
        "ă",
        -1.0
      ],
      [
        "Ą",
        -1.0
      ],
      [
        "ą",
        -1.0
      ],
      [
        "Ć",
        -1.0
      ],
      [
        "ć",
        -1.0
      ],
      [
        "Ĉ",
        -1.0
      ],
      [
        "ĉ",
        -1.0
      ],
      [
        "Ċ",
        -1.0
      ],
      [
        "ċ",
        -1.0
      ],
      [
        "Č",
        -1.0
      ],
      [
        "č",
        -1.0
      ],
      [
        "Ď",
        -1.0
      ],
      [
        "ď",
        -1.0
      ],
      [
        "Đ",
        -1.0
      ],
      [
        "đ",
        -1.0
      ],
      [
        "Ē",
        -1.0
      ],
      [
        "ē",
        -1.0
      ],
      [
        "Ĕ",
        -1.0
      ],
      [
        "ĕ",
        -1.0
      ],
      [
        "Ė",
        -1.0
      ],
      [
        "ė",
        -1.0
      ],
      [
        "Ę",
        -1.0
      ],
      [
        "ę",
        -1.0
      ],
      [
        "Ě",
        -1.0
      ],
      [
        "ě",
        -1.0
      ],
      [
        "Ĝ",
        -1.0
      ],
      [
        "ĝ",
        -1.0
      ],
      [
        "Ğ",
        -1.0
      ],
      [
        "ğ",
        -1.0
      ],
      [
        "Ġ",
        -1.0
      ],
      [
        "ġ",
        -1.0
      ],
      [
        "Ģ",
        -1.0
      ],
      [
        "ģ",
        -1.0
      ],
      [
        "Ĥ",
        -1.0
      ],
      [
        "ĥ",
        -1.0
      ],
      [
        "Ħ",
        -1.0
      ],
      [
        "ħ",
        -1.0
      ],
      [
        "Ĩ",
        -1.0
      ],
      [
        "ĩ",
        -1.0
      ],
      [
        "Ī",
        -1.0
      ],
      [
        "ī",
        -1.0
      ],
      [
        "Ĭ",
        -1.0
      ],
      [
        "ĭ",
        -1.0
      ],
      [
        "Į",
        -1.0
      ],
      [
        "į",
        -1.0
      ],
      [
        "İ",
        -1.0
      ],
      [
        "ı",
        -1.0
      ],
      [
        "Ĳ",
        -1.0
      ],
      [
        "ĳ",
        -1.0
      ],
      [
        "Ĵ",
        -1.0
      ],
      [
        "ĵ",
        -1.0
      ],
      [
        "Ķ",
        -1.0
      ],
      [
        "ķ",
        -1.0
      ],
      [
        "ĸ",
        -1.0
      ],
      [
        "Ĺ",
        -1.0
      ],
      [
        "ĺ",
        -1.0
      ],
      [
        "Ļ",
        -1.0
      ],
      [
        "ļ",
        -1.0
      ],
      [
        "Ľ",
        -1.0
      ],
      [
        "ľ",
        -1.0
      ],
      [
        "Ŀ",
        -1.0
      ],
      [
        "ŀ",
        -1.0
      ],
      [
        "Ł",
        -1.0
      ],
      [
        "ł",
        -1.0
      ],
      [
        "Ń",
        -1.0
      ],
      [
        "Ġthe",
        -1.0
      ],
      [
        "Ġand",
        -1.0
      ],
      [
        "Ġof",
        -1.0
      ],
      [
        "Ġto",
        -1.0
      ],
      [
        "Ġa",
        -1.0
      ],
      [
        "Ġin",
        -1.0
      ],
      [
        "Ġis",
        -1.0
      ],
      [
        "Ġthat",
        -1.0
      ],
      [
        "Ġfor",
        -1.0
      ],
      [
        "Ġare",
        -1.0
      ],
      [
        "Ġyou",
        -1.0
      ],
      [
        ".Ċ",
        -1.0
      ],
      [
        ".ĊĊ",
        -1.0
      ],
      [
        "Ġit",
        -1.0
      ],
      [
        "Ġwith",
        -1.0
      ],
      [
        "Ġon",
        -1.0
      ],
      [
        "Ġor",
        -1.0
      ],
      [
        "Ġcan",
        -1.0
      ],
      [
        "Ġas",
        -1.0
      ],
      [
        "Ġbe",
        -1.0
      ],
      [
        "'s",
        -1.0
      ],
      [
        "Ġyour",
        -1.0
      ],
      [
        "Ġ(",
        -1.0
      ],
      [
        "ĊĊ",
        -1.0
      ],
      [
        "Ġhave",
        -1.0
      ],
      [
        "Ġfrom",
        -1.0
      ],
      [
        "ĠThe",
        -1.0
      ],
      [
        "Ġby",
        -1.0
      ],
      [
        "Ġan",
        -1.0
      ],
      [
        "Ġthis",
        -1.0
      ],
      [
        "ĠI",
        -1.0
      ],
      [
        "Ġat",
        -1.0
      ],
      [
        "Ġnot",
        -1.0
      ],
      [
        "Ġwill",
        -1.0
      ],
      [
        "Ġthey",
        -1.0
      ],
      [
        "Ġtheir",
        -1.0
      ],
      [
        "Ġmore",
        -1.0
      ],
      [
        "Ġwas",
        -1.0
      ],
      [
        "Ġbut",
        -1.0
      ],
      [
        "Ġwhich",
        -1.0
      ],
      [
        "Ġhas",
        -1.0
      ],
      [
        "Ġwe",
        -1.0
      ],
      [
        "Ġ\"",
        -1.0
      ],
      [
        "The",
        -1.0
      ],
      [
        "20",
        -1.0
      ],
      [
        "Ġalso",
        -1.0
      ],
      [
        "'t",
        -1.0
      ],
      [
        "Ġone",
        -1.0
      ],
      [
        "Question",
        -1.0
      ],
      [
        "ĠAnswer",
        -1.0
      ],
      [
        "Ġabout",
        -1.0
      ],
      [
        "Ġall",
        -1.0
      ],
      [
        "Ġother",
        -1.0
      ],
      [
        "Ġwhen",
        -1.0
      ],
      [
        "Ġif",
        -1.0
      ],
      [
        "Ġthem",
        -1.0
      ],
      [
        "ĠIt",
        -1.0
      ],
      [
        "Ġinto",
        -1.0
      ],
      [
        "ĠThis",
        -1.0
      ],
      [
        "Ġdo",
        -1.0
      ],
      [
        "Ġtime",
        -1.0
      ],
      [
        "Ġlike",
        -1.0
      ],
      [
        "Ġso",
        -1.0
      ],
      [
        "Ġmay",
        -1.0
      ],
      [
        "Ġsome",
        -1.0
      ],
      [
        "ĠWhat",
        -1.0
      ],
      [
        "Ġthan",
        -1.0
      ],
      [
        "Ġuse",
        -1.0
      ],
      [
        "Ġup",
        -1.0
      ],
      [
        "Ġthese",
        -1.0
      ],
      [
        "Ġout",
        -1.0
      ],
      [
        "Ġhow",
        -1.0
      ],
      [
        "Ġthere",
        -1.0
      ],
      [
        "Ġits",
        -1.0
      ],
      [
        "Ġused",
        -1.0
      ],
      [
        "Ġwhat",
        -1.0
      ],
      [
        "Ġour",
        -1.0
      ],
      [
        "Ġwater",
        -1.0
      ],
      [
        "Ġsuch",
        -1.0
      ],
      [
        "Ġmost",
        -1.0
      ],
      [
        "Ġmake",
        -1.0
      ],
      [
        "Ġwere",
        -1.0
      ],
      [
        "ĠA",
        -1.0
      ],
      [
        "Ġbeen",
        -1.0
      ],
      [
        "10",
        -1.0
      ],
      [
        "Ġpeople",
        -1.0
      ],
      [
        "ĠIn",
        -1.0
      ],
      [
        "Ġany",
        -1.0
      ],
      [
        "Ġshould",
        -1.0
      ],
      [
        "Ġwould",
        -1.0
      ],
      [
        "Ġonly",
        -1.0
      ],
      [
        "Ġjust",
        -1.0
      ],
      [
        "Ġget",
        -1.0
      ],
      [
        "Ġmany",
        -1.0
      ],
      [
        "Ġhelp",
        -1.0
      ],
      [
        "Ġwho",
        -1.0
      ],
      [
        "Ġneed",
        -1.0
      ],
      [
        "19",
        -1.0
      ],
      [
        "Ġnew",
        -1.0
      ],
      [
        "Ġtwo",
        -1.0
      ],
      [
        "Ġwell",
        -1.0
      ],
      [
        "Ġfirst",
        -1.0
      ],
      [
        "Ġthrough",
        -1.0
      ],
      [
        "Ġway",
        -1.0
      ],
      [
        "Ġdifferent",
        -1.0
      ],
      [
        "Ġbetween",
        -1.0
      ],
      [
        "Ġmy",
        -1.0
      ],
      [
        "Ġover",
        -1.0
      ],
      [
        "Ġthen",
        -1.0
      ],
      [
        "Ġusing",
        -1.0
      ],
      [
        "ĠIf",
        -1.0
      ],
      [
        "Ġwhere",
        -1.0
      ],
      [
        "Ġbecause",
        -1.0
      ],
      [
        "Ġwork",
        -1.0
      ],
      [
        "Ġno",
        -1.0
      ],
      [
        "?Ċ",
        -1.0
      ],
      [
        "00",
        -1.0
      ],
      [
        "Ġcould",
        -1.0
      ],
      [
        "Ġvery",
        -1.0
      ],
      [
        "ĠThey",
        -1.0
      ],
      [
        "'re",
        -1.0
      ],
      [
        "Ġeven",
        -1.0
      ],
      [
        "Ġ-",
        -1.0
      ],
      [
        "Ġhigh",
        -1.0
      ],
      [
        "Ġmuch",
        -1.0
      ],
      [
        "Ġeach",
        -1.0
      ],
      [
        "Ġsystem",
        -1.0
      ],
      [
        "?ĊĊ",
        -1.0
      ],
      [
        "Ġyears",
        -1.0
      ],
      [
        "ĠYou",
        -1.0
      ],
      [
        "Ġimportant",
        -1.0
      ],
      [
        "ĠâĢĵ",
        -1.0
      ],
      [
        ").",
        -1.0
      ],
      [
        "Ġhad",
        -1.0
      ],
      [
        "Ġdoes",
        -1.0
      ],
      [
        "Ġhe",
        -1.0
      ],
      [
        "Ġwhile",
        -1.0
      ],
      [
        "Ġhis",
        -1.0
      ],
      [
        "Ġgood",
        -1.0
      ],
      [
        "Ġknow",
        -1.0
      ],
      [
        "Ġfood",
        -1.0
      ],
      [
        "Ġtake",
        -1.0
      ],
      [
        "Ġlong",
        -1.0
      ],
      [
        "Ġbeing",
        -1.0
      ],
      [
        "Ġdon",
        -1.0
      ],
      [
        "Ġafter",
        -1.0
      ],
      [
        "Ġduring",
        -1.0
      ],
      [
        "Ġaround",
        -1.0
      ],
      [
        "Ġbefore",
        -1.0
      ],
      [
        "Ġsame",
        -1.0
      ],
      [
        "),",
        -1.0
      ],
      [
        "In",
        -1.0
      ],
      [
        "Ġsee",
        -1.0
      ],
      [
        "Ġthose",
        -1.0
      ],
      [
        "Ġhealth",
        -1.0
      ],
      [
        "Ġoften",
        -1.0
      ],
      [
        "Ġboth",
        -1.0
      ],
      [
        "Ġenergy",
        -1.0
      ],
      [
        "Ġlife",
        -1.0
      ],
      [
        "Ġdata",
        -1.0
      ],
      [
        "Ġwant",
        -1.0
      ],
      [
        "Ġbest",
        -1.0
      ],
      [
        "Ġworld",
        -1.0
      ],
      [
        "Ġprocess",
        -1.0
      ],
      [
        "Ġbody",
        -1.0
      ],
      [
        "Ġmade",
        -1.0
      ],
      [
        "Ġfound",
        -1.0
      ],
      [
        "12",
        -1.0
      ],
      [
        "Ġsmall",
        -1.0
      ],
      [
        "Ġ'",
        -1.0
      ],
      [
        "Ġright",
        -1.0
      ],
      [
        "Ġfind",
        -1.0
      ],
      [
        "Ġback",
        -1.0
      ],
      [
        "Ġpart",
        -1.0
      ],
      [
        "Ġinformation",
        -1.0
      ],
      [
        ":Ċ",
        -1.0
      ],
      [
        "Ġdown",
        -1.0
      ],
      [
        "Ġsaid",
        -1.0
      ],
      [
        "Ġspecies",
        -1.0
      ],
      [
        "What",
        -1.0
      ],
      [
        "Ġlight",
        -1.0
      ],
      [
        "Ġday",
        -1.0
      ],
      [
        "Ġus",
        -1.0
      ],
      [
        "ĠFor",
        -1.0
      ],
      [
        "Ġyear",
        -1.0
      ],
      [
        "Ġnumber",
        -1.0
      ],
      [
        "ĠWe",
        -1.0
      ],
      [
        "Ġmight",
        -1.0
      ],
      [
        "Ġprovide",
        -1.0
      ],
      [
        "ĠThese",
        -1.0
      ],
      [
        "Ġnow",
        -1.0
      ],
      [
        "Ġbetter",
        -1.0
      ],
      [
        "Ġoff",
        -1.0
      ],
      [
        "Ġwithout",
        -1.0
      ],
      [
        "Ġtoo",
        -1.0
      ],
      [
        "Ġresearch",
        -1.0
      ],
      [
        "Ġstudents",
        -1.0
      ],
      [
        "Ġgo",
        -1.0
      ],
      [
        "15",
        -1.0
      ],
      [
        ",\"",
        -1.0
      ],
      [
        "Ġstill",
        -1.0
      ],
      [
        "Ġplants",
        -1.0
      ],
      [
        "Ġhome",
        -1.0
      ],
      [
        "Ġpower",
        -1.0
      ],
      [
        "Ġincluding",
        -1.0
      ],
      [
        "Ġchange",
        -1.0
      ],
      [
        "Ġexample",
        -1.0
      ],
      [
        "Ġevery",
        -1.0
      ],
      [
        "Ġmaking",
        -1.0
      ],
      [
        "Ġher",
        -1.0
      ],
      [
        "Ġair",
        -1.0
      ],
      [
        "Ġplant",
        -1.0
      ],
      [
        "Ġme",
        -1.0
      ],
      [
        "Ġkeep",
        -1.0
      ],
      [
        ":ĊĊ",
        -1.0
      ],
      [
        "Ġthink",
        -1.0
      ],
      [
        "Ġstudy",
        -1.0
      ],
      [
        "Ġown",
        -1.0
      ],
      [
        "Ġfew",
        -1.0
      ],
      [
        "Ġtype",
        -1.0
      ],
      [
        "18",
        -1.0
      ],
      [
        "Ġless",
        -1.0
      ],
      [
        "30",
        -1.0
      ],
      [
        "Ġcommon",
        -1.0
      ],
      [
        "Ġknown",
        -1.0
      ],
      [
        "Ġcreate",
        -1.0
      ],
      [
        "Ġlook",
        -1.0
      ],
      [
        "This",
        -1.0
      ],
      [
        "Ġthree",
        -1.0
      ],
      [
        "Ġdog",
        -1.0
      ],
      [
        "ĠTo",
        -1.0
      ],
      [
        "ĠBut",
        -1.0
      ],
      [
        "Ġlarge",
        -1.0
      ],
      [
        "11",
        -1.0
      ],
      [
        "Ġthings",
        -1.0
      ],
      [
        "If",
        -1.0
      ],
      [
        "Ġcause",
        -1.0
      ],
      [
        "'ll",
        -1.0
      ],
      [
        "Ġchildren",
        -1.0
      ],
      [
        "Ġarea",
        -1.0
      ],
      [
        "ĠHowever",
        -1.0
      ],
      [
        "ĠAnd",
        -1.0
      ],
      [
        "Ġwithin",
        -1.0
      ],
      [
        "Ġmust",
        -1.0
      ],
      [
        "Ġcalled",
        -1.0
      ],
      [
        "Ġsure",
        -1.0
      ],
      [
        "Ġcontrol",
        -1.0
      ],
      [
        "ĠWhen",
        -1.0
      ],
      [
        "Ġhuman",
        -1.0
      ],
      [
        "Ġplace",
        -1.0
      ],
      [
        "Ġgreat",
        -1.0
      ],
      [
        "How",
        -1.0
      ],
      [
        "Ġset",
        -1.0
      ],
      [
        "'ve",
        -1.0
      ],
      [
        "ĠHow",
        -1.0
      ],
      [
        "Ġwhy",
        -1.0
      ],
      [
        "Ġreally",
        -1.0
      ],
      [
        "Ġexperience",
        -1.0
      ],
      [
        "Ġinclude",
        -1.0
      ],
      [
        "Ġsomething",
        -1.0
      ],
      [
        "50",
        -1.0
      ],
      [
        "It",
        -1.0
      ],
      [
        "Ġfollowing",
        -1.0
      ],
      [
        "ĠThere",
        -1.0
      ],
      [
        "Ġable",
        -1.0
      ],
      [
        "Ġpossible",
        -1.0
      ],
      [
        "Ġanother",
        -1.0
      ],
      [
        "Ġdue",
        -1.0
      ],
      [
        "Ġgoing",
        -1.0
      ],
      [
        "ĠAs",
        -1.0
      ],
      [
        "Ġlow",
        -1.0
      ],
      [
        "Ġcells",
        -1.0
      ],
      [
        "Ġnatural",
        -1.0
      ],
      [
        "Ġbecome",
        -1.0
      ],
      [
        "Ġform",
        -1.0
      ],
      [
        "Ġhere",
        -1.0
      ],
      [
        "Ġvarious",
        -1.0
      ],
      [
        "Ġalways",
        -1.0
      ],
      [
        "Ġlittle",
        -1.0
      ],
      [
        "Ġcome",
        -1.0
      ],
      [
        "Ġmeans",
        -1.0
      ],
      [
        "Ġlevel",
        -1.0
      ],
      [
        "Ġpoint",
        -1.0
      ],
      [
        "Ġneeds",
        -1.0
      ],
      [
        "Ġunder",
        -1.0
      ],
      [
        "Ġlot",
        -1.0
      ],
      [
        "Ġstart",
        -1.0
      ],
      [
        "Ġspecific",
        -1.0
      ],
      [
        "Ġdid",
        -1.0
      ],
      [
        "Ġcare",
        -1.0
      ],
      [
        "ĠSo",
        -1.0
      ],
      [
        "Ġtemperature",
        -1.0
      ],
      [
        "16",
        -1.0
      ],
      [
        "Ġsize",
        -1.0
      ],
      [
        "Ġend",
        -1.0
      ],
      [
        "Ġblood",
        -1.0
      ],
      [
        "Ġavailable",
        -1.0
      ],
      [
        "Ġtypes",
        -1.0
      ],
      [
        "14",
        -1.0
      ],
      [
        "Ġsupport",
        -1.0
      ],
      [
        "Ġshe",
        -1.0
      ],
      [
        "Ġdesign",
        -1.0
      ],
      [
        "Ġareas",
        -1.0
      ],
      [
        "Ġseveral",
        -1.0
      ],
      [
        "Ġpotential",
        -1.0
      ],
      [
        "Ġlearning",
        -1.0
      ],
      [
        "Ġspace",
        -1.0
      ],
      [
        "Ġrange",
        -1.0
      ],
      [
        "Ġenvironment",
        -1.0
      ],
      [
        "Ġsoil",
        -1.0
      ],
      [
        "Ġbased",
        -1.0
      ],
      [
        "Ġproblem",
        -1.0
      ],
      [
        "Ġmain",
        -1.0
      ],
      [
        "Ġensure",
        -1.0
      ],
      [
        "Ġdisease",
        -1.0
      ],
      [
        "Ġsystems",
        -1.0
      ],
      [
        "Ġtimes",
        -1.0
      ],
      [
        "Ġenough",
        -1.0
      ],
      [
        "'m",
        -1.0
      ],
      [
        "Ġheat",
        -1.0
      ],
      [
        "Ġusually",
        -1.0
      ],
      [
        "ĠC",
        -1.0
      ],
      [
        "ĠWhich",
        -1.0
      ],
      [
        "Ġgive",
        -1.0
      ],
      [
        "Ġanimals",
        -1.0
      ],
      [
        "13",
        -1.0
      ],
      [
        "Ġmakes",
        -1.0
      ],
      [
        "Ġquality",
        -1.0
      ],
      [
        "Ġconditions",
        -1.0
      ],
      [
        "Ġdevelopment",
        -1.0
      ],
      [
        "Ġsurface",
        -1.0
      ],
      [
        "Ġlearn",
        -1.0
      ],
      [
        "Ġcar",
        -1.0
      ],
      [
        "Ġschool",
        -1.0
      ],
      [
        "Ġ=",
        -1.0
      ],
      [
        "Ġper",
        -1.0
      ],
      [
        "Ġrisk",
        -1.0
      ],
      [
        "Ġmaterials",
        -1.0
      ],
      [
        "Ġtechnology",
        -1.0
      ],
      [
        "...",
        -1.0
      ],
      [
        "Ġlast",
        -1.0
      ],
      [
        "Ġcolor",
        -1.0
      ],
      [
        "Ġtext",
        -1.0
      ],
      [
        "17",
        -1.0
      ],
      [
        "Ġorder",
        -1.0
      ],
      [
        "Ġsince",
        -1.0
      ],
      [
        "Ġlevels",
        -1.0
      ],
      [
        "Ġtogether",
        -1.0
      ],
      [
        "Ġuntil",
        -1.0
      ],
      [
        "Ġpressure",
        -1.0
      ],
      [
        "Ġunderstand",
        -1.0
      ],
      [
        "Ġ&",
        -1.0
      ],
      [
        "Ġproblems",
        -1.0
      ],
      [
        "Ġside",
        -1.0
      ],
      [
        "Ġfeel",
        -1.0
      ],
      [
        "Ġfamily",
        -1.0
      ],
      [
        "Ġgroup",
        -1.0
      ],
      [
        "Ġamount",
        -1.0
      ],
      [
        "Ġaway",
        -1.0
      ],
      [
        "Ġstate",
        -1.0
      ],
      [
        "Ġfish",
        -1.0
      ],
      [
        "Ġperson",
        -1.0
      ],
      [
        "Ġresults",
        -1.0
      ],
      [
        "Ġcase",
        -1.0
      ],
      [
        "Ġcurrent",
        -1.0
      ],
      [
        "Ġ$",
        -1.0
      ],
      [
        "Ġsay",
        -1.0
      ],
      [
        "Ġhaving",
        -1.0
      ],
      [
        "ĠBy",
        -1.0
      ],
      [
        "Ġincrease",
        -1.0
      ],
      [
        "Ġresult",
        -1.0
      ],
      [
        "Ġnext",
        -1.0
      ],
      [
        "Ġtop",
        -1.0
      ],
      [
        "Ġproducts",
        -1.0
      ],
      [
        "Ġlead",
        -1.0
      ],
      [
        "Ġessential",
        -1.0
      ],
      [
        "Ġmaterial",
        -1.0
      ],
      [
        "Ġdays",
        -1.0
      ],
      [
        "Ġworking",
        -1.0
      ],
      [
        "ĠThat",
        -1.0
      ],
      [
        "Ġcomes",
        -1.0
      ],
      [
        "Ġoil",
        -1.0
      ],
      [
        "Ġput",
        -1.0
      ],
      [
        "When",
        -1.0
      ],
      [
        "Ġsecond",
        -1.0
      ],
      [
        "Ġhigher",
        -1.0
      ],
      [
        "Ġearly",
        -1.0
      ],
      [
        "Ġothers",
        -1.0
      ],
      [
        "25",
        -1.0
      ],
      [
        "Ġlikely",
        -1.0
      ],
      [
        "Ġeasy",
        -1.0
      ],
      [
        "Ġchanges",
        -1.0
      ],
      [
        "Ġprevent",
        -1.0
      ],
      [
        "Ġkey",
        -1.0
      ],
      [
        "Ġname",
        -1.0
      ],
      [
        "Ġgrowth",
        -1.0
      ],
      [
        "Ġtreatment",
        -1.0
      ],
      [
        "Ġreduce",
        -1.0
      ],
      [
        "âĢĻs",
        -1.0
      ],
      [
        "Ġcourse",
        -1.0
      ],
      [
        "ĠB",
        -1.0
      ],
      [
        "Ġactually",
        -1.0
      ],
      [
        "40",
        -1.0
      ],
      [
        "Ġleast",
        -1.0
      ],
      [
        "ĠUniversity",
        -1.0
      ],
      [
        "Ġhealthy",
        -1.0
      ],
      [
        "Ġ[",
        -1.0
      ],
      [
        "Ġimpact",
        -1.0
      ],
      [
        "Ġchild",
        -1.0
      ],
      [
        ".,",
        -1.0
      ],
      [
        "Ġweight",
        -1.0
      ],
      [
        "Ġvalue",
        -1.0
      ],
      [
        "Ġdoesn",
        -1.0
      ],
      [
        "the",
        -1.0
      ],
      [
        "Ġmethod",
        -1.0
      ],
      [
        "Ġissues",
        -1.0
      ],
      [
        "Ġfree",
        -1.0
      ],
      [
        "Ġrole",
        -1.0
      ],
      [
        "Ġteam",
        -1.0
      ],
      [
        "Ġfull",
        -1.0
      ],
      [
        "Ġdogs",
        -1.0
      ],
      [
        "Ġsimple",
        -1.0
      ],
      [
        "Ġprogram",
        -1.0
      ],
      [
        "Ġfuture",
        -1.0
      ],
      [
        "Ġlocal",
        -1.0
      ],
      [
        "Ġespecially",
        -1.0
      ],
      [
        "Ġalong",
        -1.0
      ],
      [
        "Ġproject",
        -1.0
      ],
      [
        "You",
        -1.0
      ],
      [
        "Ġways",
        -1.0
      ],
      [
        "Ġproduction",
        -1.0
      ],
      [
        "Ġhand",
        -1.0
      ],
      [
        "Ġshow",
        -1.0
      ],
      [
        "Ġline",
        -1.0
      ],
      [
        "ĠWith",
        -1.0
      ],
      [
        "Ġacross",
        -1.0
      ],
      [
        "Ġthing",
        -1.0
      ],
      [
        "Ġabove",
        -1.0
      ],
      [
        "Ġlower",
        -1.0
      ],
      [
        "Ġopen",
        -1.0
      ],
      [
        "Ġdone",
        -1.0
      ],
      [
        "Ġtest",
        -1.0
      ],
      [
        "ĠHe",
        -1.0
      ],
      [
        "Ġagainst",
        -1.0
      ],
      [
        "Ġcertain",
        -1.0
      ],
      [
        "Ġgiven",
        -1.0
      ],
      [
        "Ġfield",
        -1.0
      ],
      [
        "Ġunique",
        -1.0
      ],
      [
        "Ġnon",
        -1.0
      ],
      [
        "Ġage",
        -1.0
      ],
      [
        "Ġplay",
        -1.0
      ],
      [
        "Ġcell",
        -1.0
      ],
      [
        "Ġfunction",
        -1.0
      ],
      [
        "Ġdamage",
        -1.0
      ],
      [
        "Ġnever",
        -1.0
      ],
      [
        "Ġcost",
        -1.0
      ],
      [
        "Ġeffects",
        -1.0
      ],
      [
        "Ġgrow",
        -1.0
      ],
      [
        "Ġmodel",
        -1.0
      ],
      [
        "Ġsingle",
        -1.0
      ],
      [
        "Ġsays",
        -1.0
      ],
      [
        "Ġlet",
        -1.0
      ],
      [
        "Ġadd",
        -1.0
      ],
      [
        "21",
        -1.0
      ],
      [
        "Ġold",
        -1.0
      ],
      [
        "Ġhelps",
        -1.0
      ],
      [
        "Ġbenefits",
        -1.0
      ],
      [
        "Ġlive",
        -1.0
      ],
      [
        "Ġparts",
        -1.0
      ],
      [
        "Ġsocial",
        -1.0
      ],
      [
        "Ġphysical",
        -1.0
      ],
      [
        "Ġlooking",
        -1.0
      ],
      [
        "Ġtry",
        -1.0
      ],
      [
        "ĠYour",
        -1.0
      ],
      [
        "ĠSome",
        -1.0
      ],
      [
        "There",
        -1.0
      ],
      [
        "Ġskin",
        -1.0
      ],
      [
        "Ġfactors",
        -1.0
      ],
      [
        "Ġunderstanding",
        -1.0
      ],
      [
        "Ġsimilar",
        -1.0
      ],
      [
        "Ġsignificant",
        -1.0
      ],
      [
        "Ġsource",
        -1.0
      ],
      [
        "Ġeye",
        -1.0
      ],
      [
        "Ġpaper",
        -1.0
      ],
      [
        "Ġstep",
        -1.0
      ],
      [
        "Ġimprove",
        -1.0
      ],
      [
        "Ġdesigned",
        -1.0
      ],
      [
        "Ġtraining",
        -1.0
      ],
      [
        "Ġeither",
        -1.0
      ],
      [
        "Ġwhite",
        -1.0
      ],
      [
        "We",
        -1.0
      ],
      [
        "Ġhard",
        -1.0
      ],
      [
        "Ġclimate",
        -1.0
      ],
      [
        ")Ċ",
        -1.0
      ],
      [
        ".\"",
        -1.0
      ],
      [
        "Ġreal",
        -1.0
      ],
      [
        "ĠâĢĶ",
        -1.0
      ],
      [
        "Ġonce",
        -1.0
      ],
      [
        "!ĊĊ",
        -1.0
      ],
      [
        "Ġproduce",
        -1.0
      ],
      [
        "Ġaccording",
        -1.0
      ],
      [
        "Ġbook",
        -1.0
      ],
      [
        "Ġallows",
        -1.0
      ],
      [
        "Ġfact",
        -1.0
      ],
      [
        "Ġprovides",
        -1.0
      ],
      [
        "Ġtoday",
        -1.0
      ],
      [
        "As",
        -1.0
      ],
      [
        "Ġfour",
        -1.0
      ],
      [
        "Ġability",
        -1.0
      ],
      [
        "Ġwhether",
        -1.0
      ],
      [
        "Ġconsider",
        -1.0
      ],
      [
        "Ġleft",
        -1.0
      ],
      [
        "24",
        -1.0
      ],
      [
        "Ġfurther",
        -1.0
      ],
      [
        "Ġanimal",
        -1.0
      ],
      [
        "Ġgetting",
        -1.0
      ],
      [
        "Ġeffective",
        -1.0
      ],
      [
        "Ġhim",
        -1.0
      ],
      [
        "Ġpresent",
        -1.0
      ],
      [
        "Ġscience",
        -1.0
      ],
      [
        "Ġskills",
        -1.0
      ],
      [
        "60",
        -1.0
      ],
      [
        "Ġnecessary",
        -1.0
      ],
      [
        "Ġfar",
        -1.0
      ],
      [
        "Ġvariety",
        -1.0
      ],
      [
        "Ġbelow",
        -1.0
      ],
      [
        "Ġcomputer",
        -1.0
      ],
      [
        "th",
        -1.0
      ],
      [
        "Ġaddition",
        -1.0
      ],
      [
        "Ġdifference",
        -1.0
      ],
      [
        "Ġoffer",
        -1.0
      ],
      [
        "22",
        -1.0
      ],
      [
        "Ġgas",
        -1.0
      ],
      [
        "ĠNew",
        -1.0
      ],
      [
        "Ġproduct",
        -1.0
      ],
      [
        "Ġloss",
        -1.0
      ],
      [
        "Ġeat",
        -1.0
      ],
      [
        "Ġperformance",
        -1.0
      ],
      [
        "Ġhours",
        -1.0
      ],
      [
        "Ġalready",
        -1.0
      ],
      [
        "ĠOne",
        -1.0
      ],
      [
        "Ġdoing",
        -1.0
      ],
      [
        "Ġneeded",
        -1.0
      ],
      [
        "Ġgame",
        -1.0
      ],
      [
        "Ġshort",
        -1.0
      ],
      [
        "Ġcommunity",
        -1.0
      ],
      [
        "Ġeffect",
        -1.0
      ],
      [
        "Ġbig",
        -1.0
      ],
      [
        "Ġfeatures",
        -1.0
      ],
      [
        "Ġsafety",
        -1.0
      ],
      [
        "Ġamong",
        -1.0
      ],
      [
        "Ġspeed",
        -1.0
      ],
      [
        "Ġhistory",
        -1.0
      ],
      [
        "Ġ.",
        -1.0
      ],
      [
        ",Ċ",
        -1.0
      ],
      [
        "Ġmove",
        -1.0
      ],
      [
        "Ġimage",
        -1.0
      ],
      [
        "Ġdiet",
        -1.0
      ],
      [
        "Ġtree",
        -1.0
      ],
      [
        "Ġindustry",
        -1.0
      ],
      [
        "Ġheart",
        -1.0
      ],
      [
        "Ġthough",
        -1.0
      ],
      [
        "Ġrate",
        -1.0
      ],
      [
        "Ġaccess",
        -1.0
      ],
      [
        "Ġsafe",
        -1.0
      ],
      [
        "Ġcontent",
        -1.0
      ],
      [
        "Ġleaves",
        -1.0
      ],
      [
        "Ġallow",
        -1.0
      ],
      [
        "Ġseen",
        -1.0
      ],
      [
        "Ġsymptoms",
        -1.0
      ],
      [
        "Ġrequired",
        -1.0
      ],
      [
        "Ġrequire",
        -1.0
      ],
      [
        "Ġonline",
        -1.0
      ],
      [
        "Ġknowledge",
        -1.0
      ],
      [
        "Ġclean",
        -1.0
      ],
      [
        "Ġdevelop",
        -1.0
      ],
      [
        "Ġreason",
        -1.0
      ],
      [
        "Ġactivities",
        -1.0
      ],
      [
        "Ġquestion",
        -1.0
      ],
      [
        "Ġbrain",
        -1.0
      ],
      [
        "Ġinside",
        -1.0
      ],
      [
        "Ġrun",
        -1.0
      ],
      [
        "Ġtools",
        -1.0
      ],
      [
        "Ġquestions",
        -1.0
      ],
      [
        "Ġcat",
        -1.0
      ],
      [
        "Ġground",
        -1.0
      ],
      [
        "To",
        -1.0
      ],
      [
        "Ġcarbon",
        -1.0
      ],
      [
        "Ġdry",
        -1.0
      ],
      [
        "Ġuser",
        -1.0
      ],
      [
        ")ĊĊ",
        -1.0
      ],
      [
        "Ġarticle",
        -1.0
      ],
      [
        "Ġlonger",
        -1.0
      ],
      [
        "Ġindividual",
        -1.0
      ],
      [
        "Ġturn",
        -1.0
      ],
      [
        "Ġstructure",
        -1.0
      ],
      [
        "Ġpublic",
        -1.0
      ],
      [
        "Ġmethods",
        -1.0
      ],
      [
        "ĠIs",
        -1.0
      ],
      [
        "Ġavoid",
        -1.0
      ],
      [
        "Ġagain",
        -1.0
      ],
      [
        "Ġread",
        -1.0
      ],
      [
        "Ġbuilding",
        -1.0
      ],
      [
        "Ġresearchers",
        -1.0
      ],
      [
        "Ġhumans",
        -1.0
      ],
      [
        "Ġmajor",
        -1.0
      ],
      [
        "Ġcheck",
        -1.0
      ],
      [
        "Ġactivity",
        -1.0
      ],
      [
        "!Ċ",
        -1.0
      ],
      [
        "Ġpain",
        -1.0
      ],
      [
        "Ġidea",
        -1.0
      ],
      [
        "Ġfocus",
        -1.0
      ],
      [
        "Ġmean",
        -1.0
      ],
      [
        "Ġgarden",
        -1.0
      ],
      [
        "Ġbusiness",
        -1.0
      ],
      [
        "ĠD",
        -1.0
      ],
      [
        "For",
        -1.0
      ],
      [
        "Ġpopular",
        -1.0
      ],
      [
        "Ġcompany",
        -1.0
      ],
      [
        "Ġlove",
        -1.0
      ],
      [
        "ĠAmerican",
        -1.0
      ],
      [
        "Ġtaking",
        -1.0
      ],
      [
        "Ġliving",
        -1.0
      ],
      [
        "ĠAI",
        -1.0
      ],
      [
        "Ġhead",
        -1.0
      ],
      [
        "Ġblack",
        -1.0
      ],
      [
        "Ġwhole",
        -1.0
      ],
      [
        "Ġindividuals",
        -1.0
      ],
      [
        "Ġapproach",
        -1.0
      ],
      [
        "Ġsomeone",
        -1.0
      ],
      [
        "Ġam",
        -1.0
      ],
      [
        "Ġtrees",
        -1.0
      ],
      [
        "Ġmonths",
        -1.0
      ],
      [
        "Ġtypically",
        -1.0
      ],
      [
        "Ġnature",
        -1.0
      ],
      [
        "Ġbit",
        -1.0
      ],
      [
        "Ġenvironmental",
        -1.0
      ],
      [
        "Ġeasily",
        -1.0
      ],
      [
        "Ġcases",
        -1.0
      ],
      [
        "80",
        -1.0
      ],
      [
        "Ġmatter",
        -1.0
      ],
      [
        "Ġself",
        -1.0
      ],
      [
        "Ġkind",
        -1.0
      ],
      [
        "Ġworks",
        -1.0
      ],
      [
        "Ġever",
        -1.0
      ],
      [
        "Ġgrowing",
        -1.0
      ],
      [
        "Ġassociated",
        -1.0
      ],
      [
        "Ġred",
        -1.0
      ],
      [
        "Ġisn",
        -1.0
      ],
      [
        "Ġclass",
        -1.0
      ],
      [
        "Ġi",
        -1.0
      ],
      [
        "Ġgreen",
        -1.0
      ],
      [
        "Ġtechniques",
        -1.0
      ],
      [
        "Ġmanagement",
        -1.0
      ],
      [
        "Ġconsidered",
        -1.0
      ],
      [
        "Ġmoney",
        -1.0
      ],
      [
        "Ġsound",
        -1.0
      ],
      [
        "Ġperiod",
        -1.0
      ],
      [
        "23",
        -1.0
      ],
      [
        "Ġminutes",
        -1.0
      ],
      [
        "Ġvideo",
        -1.0
      ],
      [
        "Ġoverall",
        -1.0
      ],
      [
        "Ġstrong",
        -1.0
      ],
      [
        ".\"ĊĊ",
        -1.0
      ],
      [
        "Ġresources",
        -1.0
      ],
      [
        "and",
        -1.0
      ],
      [
        "Ġmind",
        -1.0
      ],
      [
        "Ġrather",
        -1.0
      ],
      [
        "Ġroom",
        -1.0
      ],
      [
        "Ġetc",
        -1.0
      ],
      [
        "Ġsolution",
        -1.0
      ],
      [
        "Ġcrucial",
        -1.0
      ],
      [
        "Ġpatients",
        -1.0
      ],
      [
        "Ġdifficult",
        -1.0
      ],
      [
        "Ġdevice",
        -1.0
      ],
      [
        "Ġcancer",
        -1.0
      ],
      [
        "Ġmedical",
        -1.0
      ],
      [
        "ĠWhile",
        -1.0
      ],
      [
        "Ġmillion",
        -1.0
      ],
      [
        "Ġcreating",
        -1.0
      ],
      [
        "Ġgeneral",
        -1.0
      ],
      [
        "Ġprimary",
        -1.0
      ],
      [
        "Ġuses",
        -1.0
      ],
      [
        "ĠNo",
        -1.0
      ],
      [
        "Ġhowever",
        -1.0
      ],
      [
        "-based",
        -1.0
      ],
      [
        "Ġpopulation",
        -1.0
      ],
      [
        "Ġchoose",
        -1.0
      ],
      [
        "Ġcomplex",
        -1.0
      ],
      [
        "Ġquickly",
        -1.0
      ],
      [
        "Ġwomen",
        -1.0
      ],
      [
        "Ġthroughout",
        -1.0
      ],
      [
        "Ġweek",
        -1.0
      ],
      [
        "Ġyourself",
        -1.0
      ],
      [
        "Ġaverage",
        -1.0
      ],
      [
        "Ġanswer",
        -1.0
      ],
      [
        "Ġpositive",
        -1.0
      ],
      [
        "Ġsense",
        -1.0
      ],
      [
        "Ġbuild",
        -1.0
      ],
      [
        "Ġincludes",
        -1.0
      ],
      [
        "Ġyoung",
        -1.0
      ],
      [
        "Ġservice",
        -1.0
      ],
      [
        "Ġclose",
        -1.0
      ],
      [
        "Ġengine",
        -1.0
      ],
      [
        "Ġcold",
        -1.0
      ],
      [
        "Ġprotein",
        -1.0
      ],
      [
        "Ġoutside",
        -1.0
      ],
      [
        "Ġoptions",
        -1.0
      ],
      [
        "Ġincreased",
        -1.0
      ],
      [
        "Ġpractice",
        -1.0
      ],
      [
        "Ġclear",
        -1.0
      ],
      [
        "Ġtakes",
        -1.0
      ],
      [
        "Ġsimply",
        -1.0
      ],
      [
        "Ġmarket",
        -1.0
      ],
      [
        "Ġprobably",
        -1.0
      ],
      [
        "Ġdeveloped",
        -1.0
      ],
      [
        "Ġbirds",
        -1.0
      ],
      [
        "Ġprofessional",
        -1.0
      ],
      [
        "Ġpast",
        -1.0
      ],
      [
        "Ġcreated",
        -1.0
      ],
      [
        "Ġstress",
        -1.0
      ],
      [
        "Ġmultiple",
        -1.0
      ],
      [
        "Ġcannot",
        -1.0
      ],
      [
        "Ġrelated",
        -1.0
      ],
      [
        ").Ċ",
        -1.0
      ],
      [
        "Ġplan",
        -1.0
      ],
      [
        "Ġfeet",
        -1.0
      ],
      [
        "Ġcondition",
        -1.0
      ],
      [
        "Ġcut",
        -1.0
      ],
      [
        "Ġstudies",
        -1.0
      ],
      [
        "Ġissue",
        -1.0
      ],
      [
        "Ġnear",
        -1.0
      ],
      [
        "Ġservices",
        -1.0
      ],
      [
        "Ġcauses",
        -1.0
      ],
      [
        "Ġhot",
        -1.0
      ],
      [
        "Ġgot",
        -1.0
      ],
      [
        "Ġalmost",
        -1.0
      ],
      [
        "Ġmachine",
        -1.0
      ],
      [
        ".\"Ċ",
        -1.0
      ],
      [
        "Ġeducation",
        -1.0
      ],
      [
        "Ġelements",
        -1.0
      ],
      [
        "Ġhouse",
        -1.0
      ],
      [
        "ĠUnited",
        -1.0
      ],
      [
        "Ġfoods",
        -1.0
      ],
      [
        "Ġparticular",
        -1.0
      ],
      [
        "Ġinstead",
        -1.0
      ],
      [
        "Ġlayer",
        -1.0
      ],
      [
        "Ġcontact",
        -1.0
      ],
      [
        "Ġlarger",
        -1.0
      ],
      [
        "Ġspecial",
        -1.0
      ],
      [
        "Ġattention",
        -1.0
      ],
      [
        "Ġhalf",
        -1.0
      ],
      [
        "Ġfive",
        -1.0
      ],
      [
        "Ġart",
        -1.0
      ],
      [
        "Ġbehavior",
        -1.0
      ],
      [
        "Ġwaste",
        -1.0
      ],
      [
        "Ġthought",
        -1.0
      ],
      [
        "Ġtraditional",
        -1.0
      ],
      [
        "Ġshows",
        -1.0
      ],
      [
        "Ġeyes",
        -1.0
      ],
      [
        "Ġnormal",
        -1.0
      ],
      [
        "90",
        -1.0
      ],
      [
        "Ġapplications",
        -1.0
      ],
      [
        "Ġdetermine",
        -1.0
      ],
      [
        "Ġlater",
        -1.0
      ],
      [
        "Ġshape",
        -1.0
      ],
      [
        "Ġposition",
        -1.0
      ],
      [
        "ĠU",
        -1.0
      ],
      [
        "Ġscientists",
        -1.0
      ],
      [
        "Ġsite",
        -1.0
      ],
      [
        "Ġcompared",
        -1.0
      ],
      [
        "Ġpet",
        -1.0
      ],
      [
        "Ġprotect",
        -1.0
      ],
      [
        "Ġpost",
        -1.0
      ],
      [
        "Ġlist",
        -1.0
      ],
      [
        "Ġtool",
        -1.0
      ],
      [
        "Ġwide",
        -1.0
      ],
      [
        "Ġmodern",
        -1.0
      ],
      [
        "Ġshown",
        -1.0
      ],
      [
        "Ġsometimes",
        -1.0
      ],
      [
        "Ġglobal",
        -1.0
      ],
      [
        "ĠNational",
        -1.0
      ],
      [
        "Ġtotal",
        -1.0
      ],
      [
        "ĠHere",
        -1.0
      ],
      [
        "Ġproviding",
        -1.0
      ],
      [
        "Ġpersonal",
        -1.0
      ],
      [
        "Ġbasic",
        -1.0
      ],
      [
        "Ġchoice",
        -1.0
      ],
      [
        "Ġanything",
        -1.0
      ],
      [
        "Ġyet",
        -1.0
      ],
      [
        "Ġeverything",
        -1.0
      ],
      [
        "Ġremove",
        -1.0
      ],
      [
        "Ġflow",
        -1.0
      ],
      [
        "Ġchemical",
        -1.0
      ],
      [
        "Ġdevices",
        -1.0
      ],
      [
        "70",
        -1.0
      ],
      [
        "Ġoffers",
        -1.0
      ],
      [
        "Ġbattery",
        -1.0
      ],
      [
        "Ġcaused",
        -1.0
      ],
      [
        "Ġtrue",
        -1.0
      ],
      [
        "Ġpercent",
        -1.0
      ],
      [
        "Ġcall",
        -1.0
      ],
      [
        "Ġtaken",
        -1.0
      ],
      [
        "Ġcomponents",
        -1.0
      ],
      [
        "Ġcountry",
        -1.0
      ],
      [
        "Ġwinter",
        -1.0
      ],
      [
        "Ġgenerally",
        -1.0
      ],
      [
        "Ġauthor",
        -1.0
      ],
      [
        "Ġquite",
        -1.0
      ],
      [
        "Ġwon",
        -1.0
      ],
      [
        "Ġdeep",
        -1.0
      ],
      [
        "Ġmaintain",
        -1.0
      ],
      [
        "Ġregular",
        -1.0
      ],
      [
        "Ġterms",
        -1.0
      ],
      [
        "Ġbacteria",
        -1.0
      ],
      [
        "Ġfuel",
        -1.0
      ],
      [
        "Ġanalysis",
        -1.0
      ],
      [
        "ĠAll",
        -1.0
      ],
      [
        "Ġland",
        -1.0
      ],
      [
        "Ġstarted",
        -1.0
      ],
      [
        "ĠAt",
        -1.0
      ],
      [
        "Ġsoftware",
        -1.0
      ],
      [
        "Ġcomplete",
        -1.0
      ],
      [
        "Ġgroups",
        -1.0
      ],
      [
        "Ġface",
        -1.0
      ],
      [
        "Ġequipment",
        -1.0
      ],
      [
        "Ġlanguage",
        -1.0
      ],
      [
        "Ġmetal",
        -1.0
      ],
      [
        "âĢĵ",
        -1.0
      ],
      [
        "Ġweather",
        -1.0
      ],
      [
        "Ġtrying",
        -1.0
      ],
      [
        "So",
        -1.0
      ],
      [
        "Ġitself",
        -1.0
      ],
      [
        "Ġprovided",
        -1.0
      ],
      [
        "Ġago",
        -1.0
      ],
      [
        "Ġwords",
        -1.0
      ],
      [
        "Ġthemselves",
        -1.0
      ],
      [
        "Ġbad",
        -1.0
      ],
      [
        ").ĊĊ",
        -1.0
      ],
      [
        "Ġbelieve",
        -1.0
      ],
      [
        "Ġproperties",
        -1.0
      ],
      [
        "Ġkids",
        -1.0
      ],
      [
        "Ġsteps",
        -1.0
      ],
      [
        "Ġreading",
        -1.0
      ],
      [
        "Ġcode",
        -1.0
      ],
      [
        "Ġrequires",
        -1.0
      ],
      [
        "Ġperfect",
        -1.0
      ],
      [
        "Ġmentioned",
        -1.0
      ],
      [
        "Ġshare",
        -1.0
      ],
      [
        "Ġbring",
        -1.0
      ],
      [
        "Ġdaily",
        -1.0
      ],
      [
        "ĠDNA",
        -1.0
      ],
      [
        "Ġdigital",
        -1.0
      ],
      [
        "Ġones",
        -1.0
      ],
      [
        "Ġsummer",
        -1.0
      ],
      [
        "Ġresponse",
        -1.0
      ],
      [
        "ĠEarth",
        -1.0
      ],
      [
        "Ġaffect",
        -1.0
      ],
      [
        ".S",
        -1.0
      ],
      [
        "Ġproper",
        -1.0
      ],
      [
        "Ġadded",
        -1.0
      ],
      [
        "Ġadditional",
        -1.0
      ],
      [
        "Ġsmaller",
        -1.0
      ],
      [
        "Ġeating",
        -1.0
      ],
      [
        "ĠStates",
        -1.0
      ],
      [
        "Ġparticularly",
        -1.0
      ],
      [
        "Ġbehind",
        -1.0
      ],
      [
        "ĠAfter",
        -1.0
      ],
      [
        "One",
        -1.0
      ],
      [
        "ĠOn",
        -1.0
      ],
      [
        "Ġterm",
        -1.0
      ],
      [
        "Ġstop",
        -1.0
      ],
      [
        "Ġtell",
        -1.0
      ],
      [
        "Ġdiseases",
        -1.0
      ],
      [
        "Ġpurpose",
        -1.0
      ],
      [
        "Ġstay",
        -1.0
      ],
      [
        "'d",
        -1.0
      ],
      [
        "Ġfollow",
        -1.0
      ],
      [
        "Ġdirectly",
        -1.0
      ],
      [
        "Ġaction",
        -1.0
      ],
      [
        "Ġmass",
        -1.0
      ],
      [
        "Ġpoints",
        -1.0
      ],
      [
        "Ġregion",
        -1.0
      ],
      [
        "Ġtowards",
        -1.0
      ],
      [
        "Ġparents",
        -1.0
      ],
      [
        "Ġleading",
        -1.0
      ],
      [
        "Ġoption",
        -1.0
      ],
      [
        "Ġforce",
        -1.0
      ],
      [
        "Ġhighly",
        -1.0
      ],
      [
        "Ġevidence",
        -1.0
      ],
      [
        "Ġcolors",
        -1.0
      ],
      [
        "Ġcontinue",
        -1.0
      ],
      [
        "Ġfun",
        -1.0
      ],
      [
        "Ġinvolved",
        -1.0
      ],
      [
        "Ġplastic",
        -1.0
      ],
      [
        "Ġice",
        -1.0
      ],
      [
        "Ġjob",
        -1.0
      ],
      [
        "Ġvehicle",
        -1.0
      ],
      [
        "Ġcats",
        -1.0
      ],
      [
        "Ġstudent",
        -1.0
      ],
      [
        "Ġcover",
        -1.0
      ],
      [
        "ĠAn",
        -1.0
      ],
      [
        "Ġal",
        -1.0
      ],
      [
        "Ġmodels",
        -1.0
      ],
      [
        "Ġsignal",
        -1.0
      ],
      [
        "Ġmeat",
        -1.0
      ],
      [
        "Ġweeks",
        -1.0
      ],
      [
        "Ġfront",
        -1.0
      ],
      [
        "Ġproduced",
        -1.0
      ],
      [
        "Ġstandard",
        -1.0
      ],
      [
        "Ġstory",
        -1.0
      ],
      [
        "Ġlength",
        -1.0
      ],
      [
        "Ġreach",
        -1.0
      ],
      [
        "Ġeveryone",
        -1.0
      ],
      [
        "Ġet",
        -1.0
      ],
      [
        "Ġsea",
        -1.0
      ],
      [
        "Ġapplication",
        -1.0
      ],
      [
        "Ġseason",
        -1.0
      ],
      [
        "ĠâĢľ",
        -1.0
      ],
      [
        "Ġsources",
        -1.0
      ],
      [
        "Ġsugar",
        -1.0
      ],
      [
        "Ġidentify",
        -1.0
      ],
      [
        "Ġexplore",
        -1.0
      ],
      [
        "ĠCan",
        -1.0
      ],
      [
        "Ġnight",
        -1.0
      ],
      [
        "Ġimages",
        -1.0
      ],
      [
        "Ġlives",
        -1.0
      ],
      [
        "Ġwarm",
        -1.0
      ],
      [
        "Ġentire",
        -1.0
      ],
      [
        "Ġeggs",
        -1.0
      ],
      [
        "Ġsolar",
        -1.0
      ],
      [
        "Ġgenetic",
        -1.0
      ],
      [
        "Ġrecommended",
        -1.0
      ],
      [
        "01",
        -1.0
      ],
      [
        "Ġteeth",
        -1.0
      ],
      [
        "Ġeasier",
        -1.0
      ],
      [
        "Ġelectric",
        -1.0
      ],
      [
        "Ġrecent",
        -1.0
      ],
      [
        "Ġevents",
        -1.0
      ],
      [
        "Ġ+",
        -1.0
      ],
      [
        "ĠDr",
        -1.0
      ],
      [
        "Ġmilk",
        -1.0
      ],
      [
        "Ġfall",
        -1.0
      ],
      [
        "Ġitems",
        -1.0
      ],
      [
        "Why",
        -1.0
      ],
      [
        "Ġevent",
        -1.0
      ],
      [
        "ĠYes",
        -1.0
      ],
      [
        "Ġobject",
        -1.0
      ],
      [
        "Ġsleep",
        -1.0
      ],
      [
        "Ġexercise",
        -1.0
      ],
      [
        "Ġdidn",
        -1.0
      ],
      [
        "Ġtips",
        -1.0
      ],
      [
        "Ġcountries",
        -1.0
      ],
      [
        "Ġbase",
        -1.0
      ],
      [
        "Ġguide",
        -1.0
      ],
      [
        "Ġview",
        -1.0
      ],
      [
        "Ġlines",
        -1.0
      ],
      [
        "Ġnumbers",
        -1.0
      ],
      [
        "ĠDo",
        -1.0
      ],
      [
        "Ġwebsite",
        -1.0
      ],
      [
        "Ġprocesses",
        -1.0
      ],
      [
        "Ġgoal",
        -1.0
      ],
      [
        "Ġrunning",
        -1.0
      ],
      [
        "Ġwood",
        -1.0
      ],
      [
        "Ġtemperatures",
        -1.0
      ],
      [
        "Ġcompletely",
        -1.0
      ],
      [
        "Ġenjoy",
        -1.0
      ],
      [
        "Ġseeds",
        -1.0
      ],
      [
        "Ġstore",
        -1.0
      ],
      [
        "Ġacid",
        -1.0
      ],
      [
        "Ġgreater",
        -1.0
      ],
      [
        "Ġflowers",
        -1.0
      ],
      [
        "Ġmovement",
        -1.0
      ],
      [
        "Ġreport",
        -1.0
      ],
      [
        "Ġsupply",
        -1.0
      ],
      [
        "Ġbalance",
        -1.0
      ],
      [
        "Ġword",
        -1.0
      ],
      [
        "Ġactive",
        -1.0
      ],
      [
        "Ġ,",
        -1.0
      ],
      [
        "Ġproperly",
        -1.0
      ],
      [
        "Ġmedia",
        -1.0
      ],
      [
        "Ġbuy",
        -1.0
      ],
      [
        "Ġseries",
        -1.0
      ],
      [
        "Ġoccur",
        -1.0
      ],
      [
        "Ġfast",
        -1.0
      ],
      [
        "Ġstyle",
        -1.0
      ],
      [
        "Ġvalues",
        -1.0
      ],
      [
        "Ġmembers",
        -1.0
      ],
      [
        "Ġchallenges",
        -1.0
      ],
      [
        "Ġunit",
        -1.0
      ],
      [
        "Ġextra",
        -1.0
      ],
      [
        "Ġuseful",
        -1.0
      ],
      [
        "Ġpiece",
        -1.0
      ],
      [
        "Ġefficiency",
        -1.0
      ],
      [
        "Ġpatient",
        -1.0
      ],
      [
        "Ġcommunication",
        -1.0
      ],
      [
        "Ġcontains",
        -1.0
      ],
      [
        "Ġcamera",
        -1.0
      ],
      [
        "Ġmoving",
        -1.0
      ],
      [
        "35",
        -1.0
      ],
      [
        "Ġgoes",
        -1.0
      ],
      [
        "Ġscientific",
        -1.0
      ],
      [
        "Ġorganic",
        -1.0
      ],
      [
        "ĠMost",
        -1.0
      ],
      [
        "ĠFrom",
        -1.0
      ],
      [
        "Ġprograms",
        -1.0
      ],
      [
        "Ġusers",
        -1.0
      ],
      [
        "Ġlocation",
        -1.0
      ],
      [
        "Ġprojects",
        -1.0
      ],
      [
        "Ġforms",
        -1.0
      ],
      [
        "Ġcritical",
        -1.0
      ],
      [
        "Ġblue",
        -1.0
      ],
      [
        "Ġrest",
        -1.0
      ],
      [
        "Ġaddress",
        -1.0
      ],
      [
        "Ġpatterns",
        -1.0
      ],
      [
        "Ġbuilt",
        -1.0
      ],
      [
        "Ġcosts",
        -1.0
      ],
      [
        "Ġcompanies",
        -1.0
      ],
      [
        "Ġdepending",
        -1.0
      ],
      [
        "But",
        -1.0
      ],
      [
        "Ġmemory",
        -1.0
      ],
      [
        "Ġbenefit",
        -1.0
      ],
      [
        "Ġtheory",
        -1.0
      ],
      [
        "Ġreasons",
        -1.0
      ],
      [
        "Ġcontain",
        -1.0
      ],
      [
        "Ġnegative",
        -1.0
      ],
      [
        "Ġdeveloping",
        -1.0
      ],
      [
        "Ġhold",
        -1.0
      ],
      [
        "ĠAmerica",
        -1.0
      ],
      [
        "Ġoutput",
        -1.0
      ],
      [
        "Ġallowing",
        -1.0
      ],
      [
        "Ġsun",
        -1.0
      ],
      [
        "Ġleave",
        -1.0
      ],
      [
        "Ġseems",
        -1.0
      ],
      [
        "ĠMany",
        -1.0
      ],
      [
        "Ġhands",
        -1.0
      ],
      [
        "ĠShe",
        -1.0
      ],
      [
        "Ġhappens",
        -1.0
      ],
      [
        "Ġgets",
        -1.0
      ],
      [
        "Ġappropriate",
        -1.0
      ],
      [
        "Ġask",
        -1.0
      ],
      [
        "Ġgovernment",
        -1.0
      ],
      [
        "ĠNorth",
        -1.0
      ],
      [
        "Ġlimited",
        -1.0
      ],
      [
        "Ġcommonly",
        -1.0
      ],
      [
        "Ġprotection",
        -1.0
      ],
      [
        "ĠWhy",
        -1.0
      ],
      [
        "ĠScience",
        -1.0
      ],
      [
        "Ġfeed",
        -1.0
      ],
      [
        "Ġspring",
        -1.0
      ],
      [
        "ĠThen",
        -1.0
      ],
      [
        "Ġmaintenance",
        -1.0
      ],
      [
        "Ġdistance",
        -1.0
      ],
      [
        "Ġachieve",
        -1.0
      ],
      [
        "Ġimportance",
        -1.0
      ],
      [
        "-to",
        -1.0
      ],
      [
        "Ġresistance",
        -1.0
      ],
      [
        "27",
        -1.0
      ],
      [
        "Ġbecomes",
        -1.0
      ],
      [
        "Ġprice",
        -1.0
      ],
      [
        "ĠUse",
        -1.0
      ],
      [
        "Ġsigns",
        -1.0
      ],
      [
        "Ġmental",
        -1.0
      ],
      [
        "Ġfresh",
        -1.0
      ],
      [
        "Ġpretty",
        -1.0
      ],
      [
        "Ġpage",
        -1.0
      ],
      [
        "Ġwear",
        -1.0
      ],
      [
        "28",
        -1.0
      ],
      [
        "or",
        -1.0
      ],
      [
        "Ġoriginal",
        -1.0
      ],
      [
        "Ġpublished",
        -1.0
      ],
      [
        "Ġtable",
        -1.0
      ],
      [
        "26",
        -1.0
      ],
      [
        "Ġstates",
        -1.0
      ],
      [
        "Ġupon",
        -1.0
      ],
      [
        "Ġcooking",
        -1.0
      ],
      [
        "Ġobjects",
        -1.0
      ],
      [
        "45",
        -1.0
      ],
      [
        "ĠHealth",
        -1.0
      ],
      [
        "Ġideas",
        -1.0
      ],
      [
        "Ġcame",
        -1.0
      ],
      [
        "ĠResearch",
        -1.0
      ],
      [
        "Ġsave",
        -1.0
      ],
      [
        "Ġnetwork",
        -1.0
      ],
      [
        "Ġfruit",
        -1.0
      ],
      [
        "Ġsuccess",
        -1.0
      ],
      [
        "Ġinfection",
        -1.0
      ],
      [
        "Ġpractices",
        -1.0
      ],
      [
        "Ġcorrect",
        -1.0
      ],
      [
        "ĠOf",
        -1.0
      ],
      [
        "Ġbegin",
        -1.0
      ],
      [
        "Ġbaby",
        -1.0
      ],
      [
        "Ġelectrical",
        -1.0
      ],
      [
        "Ġspread",
        -1.0
      ],
      [
        "Ġefficient",
        -1.0
      ],
      [
        "Ġinterest",
        -1.0
      ],
      [
        "Ġstrength",
        -1.0
      ],
      [
        "ĠUS",
        -1.0
      ],
      [
        "Ġbreak",
        -1.0
      ],
      [
        "Ġvision",
        -1.0
      ],
      [
        "Ġ/",
        -1.0
      ],
      [
        "ĠSchool",
        -1.0
      ],
      [
        "Ġbottom",
        -1.0
      ],
      [
        "Ġseem",
        -1.0
      ],
      [
        "Ġgives",
        -1.0
      ],
      [
        "Ġcool",
        -1.0
      ],
      [
        "32",
        -1.0
      ],
      [
        "ĠWorld",
        -1.0
      ],
      [
        "Ġelse",
        -1.0
      ],
      [
        "Ġwriting",
        -1.0
      ],
      [
        "Ġsustainable",
        -1.0
      ],
      [
        "Ġdirection",
        -1.0
      ],
      [
        "Ġready",
        -1.0
      ],
      [
        "Ġcity",
        -1.0
      ],
      [
        "Ġinvolves",
        -1.0
      ],
      [
        "Ġincreasing",
        -1.0
      ],
      [
        "Ġcenter",
        -1.0
      ],
      [
        "Ġreducing",
        -1.0
      ],
      [
        "Ġremember",
        -1.0
      ],
      [
        "Ġimmune",
        -1.0
      ],
      [
        "Ġdrive",
        -1.0
      ],
      [
        "Ġcycle",
        -1.0
      ],
      [
        "Ġsolutions",
        -1.0
      ],
      [
        "Ġsix",
        -1.0
      ],
      [
        "Ġthinking",
        -1.0
      ],
      [
        "Ġmeasure",
        -1.0
      ],
      [
        "Ġmusic",
        -1.0
      ],
      [
        "Ġresponsible",
        -1.0
      ],
      [
        "Ġhearing",
        -1.0
      ],
      [
        "Ġsearch",
        -1.0
      ],
      [
        "Ġtesting",
        -1.0
      ],
      [
        "Ġmeet",
        -1.0
      ],
      [
        "While",
        -1.0
      ],
      [
        "Ġdark",
        -1.0
      ],
      [
        "Ġfriends",
        -1.0
      ],
      [
        "Ġsuitable",
        -1.0
      ],
      [
        "Ġbird",
        -1.0
      ],
      [
        "Ġrequirements",
        -1.0
      ],
      [
        "Ġfine",
        -1.0
      ],
      [
        "Ġhair",
        -1.0
      ],
      [
        "Ġsection",
        -1.0
      ],
      [
        "ĠSouth",
        -1.0
      ],
      [
        "Ġfile",
        -1.0
      ],
      [
        "Ġcleaning",
        -1.0
      ],
      [
        "Ġsubject",
        -1.0
      ],
      [
        "Ġstorage",
        -1.0
      ],
      [
        "ĠAlso",
        -1.0
      ],
      [
        "Ġsignificantly",
        -1.0
      ],
      [
        "Ġensuring",
        -1.0
      ],
      [
        "Ġx",
        -1.0
      ],
      [
        "Ġstage",
        -1.0
      ],
      [
        "Ġinput",
        -1.0
      ],
      [
        "Ġideal",
        -1.0
      ],
      [
        "Ġlate",
        -1.0
      ],
      [
        "Ġoxygen",
        -1.0
      ],
      [
        "Ġhappen",
        -1.0
      ],
      [
        "Ġfit",
        -1.0
      ],
      [
        "Ġfat",
        -1.0
      ],
      [
        "Ġcircuit",
        -1.0
      ],
      [
        "Ġwild",
        -1.0
      ],
      [
        "Ġstarting",
        -1.0
      ],
      [
        "09",
        -1.0
      ],
      [
        "Ġtreat",
        -1.0
      ],
      [
        "Ġnutrients",
        -1.0
      ],
      [
        "ĠOur",
        -1.0
      ],
      [
        "Ġnothing",
        -1.0
      ],
      [
        "Ġtalk",
        -1.0
      ],
      [
        "Ġenhance",
        -1.0
      ],
      [
        "08",
        -1.0
      ],
      [
        "Ġtook",
        -1.0
      ],
      [
        "Ġconstruction",
        -1.0
      ],
      [
        "Ġgames",
        -1.0
      ],
      [
        "Ġtechnique",
        -1.0
      ],
      [
        "Ġadding",
        -1.0
      ],
      [
        "Ġapplied",
        -1.0
      ],
      [
        "Ġbox",
        -1.0
      ],
      [
        "Ġrelationship",
        -1.0
      ],
      [
        "Ġingredients",
        -1.0
      ],
      [
        "Ġthird",
        -1.0
      ],
      [
        "Ġpay",
        -1.0
      ],
      [
        "Ġdirect",
        -1.0
      ],
      [
        "Ġglass",
        -1.0
      ],
      [
        "Ġpowerful",
        -1.0
      ],
      [
        "Ġtravel",
        -1.0
      ],
      [
        "Ġ--",
        -1.0
      ],
      [
        "Ġreaction",
        -1.0
      ],
      [
        "Ġlack",
        -1.0
      ],
      [
        "Ġfactor",
        -1.0
      ],
      [
        "Ġsetting",
        -1.0
      ],
      [
        "05",
        -1.0
      ],
      [
        ".com",
        -1.0
      ],
      [
        "ĠT",
        -1.0
      ],
      [
        "Ġfully",
        -1.0
      ],
      [
        "Ġfeature",
        -1.0
      ],
      [
        "Ġplaces",
        -1.0
      ],
      [
        "ĠAre",
        -1.0
      ],
      [
        "Ġman",
        -1.0
      ],
      [
        "Ġcentury",
        -1.0
      ],
      [
        "Ġaren",
        -1.0
      ],
      [
        "Ġcurrently",
        -1.0
      ],
      [
        "Ġheavy",
        -1.0
      ],
      [
        "Ġpieces",
        -1.0
      ],
      [
        "By",
        -1.0
      ],
      [
        "Ġfire",
        -1.0
      ],
      [
        "Ġwind",
        -1.0
      ],
      [
        "Ġsoon",
        -1.0
      ],
      [
        "ĠNot",
        -1.0
      ],
      [
        "ĠTheir",
        -1.0
      ],
      [
        "ĠS",
        -1.0
      ],
      [
        "Ġapply",
        -1.0
      ],
      [
        "Ġliquid",
        -1.0
      ],
      [
        "Ġsituation",
        -1.0
      ],
      [
        "Ġcausing",
        -1.0
      ],
      [
        "Ġappear",
        -1.0
      ],
      [
        "Ġsecurity",
        -1.0
      ],
      [
        "Ġfinal",
        -1.0
      ],
      [
        "Ġlocated",
        -1.0
      ],
      [
        "Ġvegetables",
        -1.0
      ],
      [
        "Ġsuccessful",
        -1.0
      ],
      [
        "Ġfunctions",
        -1.0
      ],
      [
        "Ġinteresting",
        -1.0
      ],
      [
        "ĠOnce",
        -1.0
      ],
      [
        "Ġfaster",
        -1.0
      ],
      [
        "Ġmonth",
        -1.0
      ],
      [
        "ĠNow",
        -1.0
      ],
      [
        "Ġconnected",
        -1.0
      ],
      [
        "Ġfrequency",
        -1.0
      ],
      [
        "02",
        -1.0
      ],
      [
        "\",",
        -1.0
      ],
      [
        "Ġmuscle",
        -1.0
      ],
      [
        "29",
        -1.0
      ],
      [
        "Ġexactly",
        -1.0
      ],
      [
        "ĠE",
        -1.0
      ],
      [
        "Ġwall",
        -1.0
      ],
      [
        "Ġanyone",
        -1.0
      ],
      [
        "Ġvia",
        -1.0
      ],
      [
        "These",
        -1.0
      ],
      [
        "Ġexposure",
        -1.0
      ],
      [
        "Ġtarget",
        -1.0
      ],
      [
        "Ġculture",
        -1.0
      ],
      [
        "Ġoccurs",
        -1.0
      ],
      [
        "Ġopportunity",
        -1.0
      ],
      [
        "Ġdecision",
        -1.0
      ],
      [
        "Ġcoming",
        -1.0
      ],
      [
        "Ġdeath",
        -1.0
      ],
      [
        "ĠM",
        -1.0
      ],
      [
        "Ġdescribed",
        -1.0
      ],
      [
        "Ġserious",
        -1.0
      ],
      [
        "ĠAdditionally",
        -1.0
      ],
      [
        "07",
        -1.0
      ],
      [
        "Ġcapacity",
        -1.0
      ],
      [
        "Ġpattern",
        -1.0
      ],
      [
        "Ġeffectively",
        -1.0
      ],
      [
        "Ġmen",
        -1.0
      ],
      [
        "Ġcharge",
        -1.0
      ],
      [
        "Ġexcellent",
        -1.0
      ],
      [
        ".g",
        -1.0
      ],
      [
        "Ġscale",
        -1.0
      ],
      [
        "Ġprocessing",
        -1.0
      ],
      [
        "Ġstrategies",
        -1.0
      ],
      [
        "Ġmoisture",
        -1.0
      ],
      [
        "Ġreceive",
        -1.0
      ],
      [
        "Ġled",
        -1.0
      ],
      [
        "Ġcombination",
        -1.0
      ],
      [
        "Ġtissue",
        -1.0
      ],
      [
        "Ġtherefore",
        -1.0
      ],
      [
        "ĠWho",
        -1.0
      ],
      [
        "Ġincluded",
        -1.0
      ],
      [
        "Ġwrong",
        -1.0
      ],
      [
        "\".",
        -1.0
      ],
      [
        "Ġcars",
        -1.0
      ],
      [
        "ĠBecause",
        -1.0
      ],
      [
        "Ġreduced",
        -1.0
      ],
      [
        "Ġexamples",
        -1.0
      ],
      [
        "Ġproperty",
        -1.0
      ],
      [
        "Ġlaw",
        -1.0
      ],
      [
        "Ġgene",
        -1.0
      ],
      [
        "Ġboard",
        -1.0
      ],
      [
        "Ġbecame",
        -1.0
      ],
      [
        "Ġmeaning",
        -1.0
      ],
      [
        "Ġvoltage",
        -1.0
      ],
      [
        "-term",
        -1.0
      ],
      [
        "Ġcontribute",
        -1.0
      ],
      [
        "Ġtherapy",
        -1.0
      ],
      [
        "Ġinches",
        -1.0
      ],
      [
        "ĠMy",
        -1.0
      ],
      [
        "Ġlooks",
        -1.0
      ],
      [
        "Ġbeautiful",
        -1.0
      ],
      [
        "Ġtaste",
        -1.0
      ],
      [
        "Ġthus",
        -1.0
      ],
      [
        "Can",
        -1.0
      ],
      [
        "ĠEach",
        -1.0
      ],
      [
        "ĠR",
        -1.0
      ],
      [
        "Ġrich",
        -1.0
      ],
      [
        "Ġroot",
        -1.0
      ],
      [
        "Ġexperiences",
        -1.0
      ],
      [
        "Ġtend",
        -1.0
      ],
      [
        "Ġdetails",
        -1.0
      ],
      [
        "Ġiron",
        -1.0
      ],
      [
        "Ġe",
        -1.0
      ],
      [
        "Ġschools",
        -1.0
      ],
      [
        "Ġbeyond",
        -1.0
      ],
      [
        "Ġjourney",
        -1.0
      ],
      [
        "31",
        -1.0
      ],
      [
        "Ġgiving",
        -1.0
      ],
      [
        "Ġaccount",
        -1.0
      ],
      [
        "Ġwrite",
        -1.0
      ],
      [
        "Ġadvanced",
        -1.0
      ],
      [
        "36",
        -1.0
      ],
      [
        "Ġpresence",
        -1.0
      ],
      [
        "Ġkeeping",
        -1.0
      ],
      [
        "Ġchance",
        -1.0
      ],
      [
        "Ġgain",
        -1.0
      ],
      [
        "Ġextremely",
        -1.0
      ],
      [
        "Ġsoft",
        -1.0
      ],
      [
        "Ġvisual",
        -1.0
      ],
      [
        "Ġrecord",
        -1.0
      ],
      [
        "Ġexpected",
        -1.0
      ],
      [
        "04",
        -1.0
      ],
      [
        "Ġforward",
        -1.0
      ],
      [
        "Ġrecently",
        -1.0
      ],
      [
        "Ġfilm",
        -1.0
      ],
      [
        "Ġexpensive",
        -1.0
      ],
      [
        "Ġmaximum",
        -1.0
      ],
      [
        "Ġparticles",
        -1.0
      ],
      [
        "Ġconcept",
        -1.0
      ],
      [
        "Ġelectricity",
        -1.0
      ],
      [
        "Ġmix",
        -1.0
      ],
      [
        "ĠâĢ¦",
        -1.0
      ],
      [
        "Ġperform",
        -1.0
      ],
      [
        "Ġstructures",
        -1.0
      ],
      [
        "Ġalthough",
        -1.0
      ],
      [
        "Ġsevere",
        -1.0
      ],
      [
        "Ġconsumption",
        -1.0
      ],
      [
        "Ġprevious",
        -1.0
      ],
      [
        "06",
        -1.0
      ],
      [
        "They",
        -1.0
      ],
      [
        "Ġhope",
        -1.0
      ],
      [
        "Ġnative",
        -1.0
      ],
      [
        "Ġtask",
        -1.0
      ],
      [
        "Ġsites",
        -1.0
      ],
      [
        "Ġsalt",
        -1.0
      ],
      [
        "Ġworth",
        -1.0
      ],
      [
        "Ġolder",
        -1.0
      ],
      [
        "Ġgenes",
        -1.0
      ],
      [
        "Ġmiddle",
        -1.0
      ],
      [
        "Ġproteins",
        -1.0
      ],
      [
        "Ġ...",
        -1.0
      ],
      [
        "Ġincreases",
        -1.0
      ],
      [
        "Ġlost",
        -1.0
      ],
      [
        "in",
        -1.0
      ],
      [
        "Ġtank",
        -1.0
      ],
      [
        "Ġtasks",
        -1.0
      ],
      [
        "Ġyellow",
        -1.0
      ],
      [
        "Ġelement",
        -1.0
      ],
      [
        "Ġonto",
        -1.0
      ],
      [
        "Ġslightly",
        -1.0
      ],
      [
        "Ġbooks",
        -1.0
      ],
      [
        "Ġaffected",
        -1.0
      ],
      [
        "Ġtests",
        -1.0
      ],
      [
        "03",
        -1.0
      ],
      [
        "Ġdifferences",
        -1.0
      ],
      [
        "Ġnoise",
        -1.0
      ],
      [
        "Ġrelease",
        -1.0
      ],
      [
        "Ġdegrees",
        -1.0
      ],
      [
        "Ġgoals",
        -1.0
      ],
      [
        "Ġalternative",
        -1.0
      ],
      [
        "Ġ|",
        -1.0
      ],
      [
        "Ġocean",
        -1.0
      ],
      [
        "Ġ#",
        -1.0
      ],
      [
        "Ġlargest",
        -1.0
      ],
      [
        "Ġcommunities",
        -1.0
      ],
      [
        "ĠCenter",
        -1.0
      ],
      [
        "ĠEnglish",
        -1.0
      ],
      [
        "Ġball",
        -1.0
      ],
      [
        "Ġremains",
        -1.0
      ],
      [
        "Ġrelatively",
        -1.0
      ],
      [
        "Ġchanging",
        -1.0
      ],
      [
        "Ġvisit",
        -1.0
      ],
      [
        "Is",
        -1.0
      ],
      [
        "ĠLet",
        -1.0
      ],
      [
        "Ġplaced",
        -1.0
      ],
      [
        "Ġvolume",
        -1.0
      ],
      [
        "Ġcharacteristics",
        -1.0
      ],
      [
        "Ġtrack",
        -1.0
      ],
      [
        "75",
        -1.0
      ],
      [
        "Ġpicture",
        -1.0
      ],
      [
        "Ġmotion",
        -1.0
      ],
      [
        "Ġversion",
        -1.0
      ],
      [
        "Ġopportunities",
        -1.0
      ],
      [
        "Ġteachers",
        -1.0
      ],
      [
        "Ġfemale",
        -1.0
      ],
      [
        "Ġvaluable",
        -1.0
      ],
      [
        "Ġadults",
        -1.0
      ],
      [
        "Ġcutting",
        -1.0
      ],
      [
        "Ġdiscovered",
        -1.0
      ],
      [
        "Ġnote",
        -1.0
      ],
      [
        "Ġscreen",
        -1.0
      ],
      [
        "ĠNOT",
        -1.0
      ],
      [
        "Ġemissions",
        -1.0
      ],
      [
        "With",
        -1.0
      ],
      [
        "Ġslow",
        -1.0
      ],
      [
        "Ġcomfortable",
        -1.0
      ],
      [
        "Ġdepends",
        -1.0
      ],
      [
        "Ġsteel",
        -1.0
      ],
      [
        "Ġreturn",
        -1.0
      ],
      [
        "Ġdriving",
        -1.0
      ],
      [
        "ĠIts",
        -1.0
      ],
      [
        "Ġmeasures",
        -1.0
      ],
      [
        "Ġearth",
        -1.0
      ],
      [
        "Ġhuge",
        -1.0
      ],
      [
        "ĠP",
        -1.0
      ],
      [
        "Ġdoctor",
        -1.0
      ],
      [
        "ĠMake",
        -1.0
      ],
      [
        "Ġmotor",
        -1.0
      ],
      [
        "Ġcarry",
        -1.0
      ],
      [
        "Ġteaching",
        -1.0
      ],
      [
        "Ġsounds",
        -1.0
      ],
      [
        "Ġinstance",
        -1.0
      ],
      [
        "And",
        -1.0
      ],
      [
        "Ġhandle",
        -1.0
      ],
      [
        "Ġphone",
        -1.0
      ],
      [
        "ĠEven",
        -1.0
      ],
      [
        "Ġpaint",
        -1.0
      ],
      [
        "Ġtechnologies",
        -1.0
      ],
      [
        "Ġphase",
        -1.0
      ],
      [
        "Ġbone",
        -1.0
      ],
      [
        "Ġhorse",
        -1.0
      ],
      [
        "Ġconnection",
        -1.0
      ],
      [
        "Ġdeal",
        -1.0
      ],
      [
        "Ġalone",
        -1.0
      ],
      [
        "Ġresulting",
        -1.0
      ],
      [
        "ĠX",
        -1.0
      ],
      [
        "Now",
        -1.0
      ],
      [
        "Ġact",
        -1.0
      ],
      [
        "Ġsolid",
        -1.0
      ],
      [
        "Ġroad",
        -1.0
      ],
      [
        "ĠAlthough",
        -1.0
      ],
      [
        "Ġconservation",
        -1.0
      ],
      [
        "Ġevolution",
        -1.0
      ],
      [
        "Ġsuggest",
        -1.0
      ],
      [
        "Ġtouch",
        -1.0
      ],
      [
        "Ġpoor",
        -1.0
      ],
      [
        "Ġreported",
        -1.0
      ],
      [
        "ĠIndia",
        -1.0
      ],
      [
        "Ġefforts",
        -1.0
      ],
      [
        "Ġmedium",
        -1.0
      ],
      [
        "Ġpopulations",
        -1.0
      ],
      [
        "Ġexplain",
        -1.0
      ],
      [
        "Ġwent",
        -1.0
      ],
      [
        "Ġaspects",
        -1.0
      ],
      [
        "Ġinsects",
        -1.0
      ],
      [
        "Ġremain",
        -1.0
      ],
      [
        "Ġheight",
        -1.0
      ],
      [
        "Ġdisplay",
        -1.0
      ],
      [
        "Ġinfluence",
        -1.0
      ],
      [
        "Ġroots",
        -1.0
      ],
      [
        "Ġdraw",
        -1.0
      ],
      [
        "Ġrules",
        -1.0
      ],
      [
        "ĠMay",
        -1.0
      ],
      [
        "ĠMore",
        -1.0
      ],
      [
        "Ġdiabetes",
        -1.0
      ],
      [
        "Ġbegan",
        -1.0
      ],
      [
        "Ġfeeling",
        -1.0
      ],
      [
        "ĠAccording",
        -1.0
      ],
      [
        "Ġbrown",
        -1.0
      ],
      [
        "Ġexisting",
        -1.0
      ],
      [
        "Ġfluid",
        -1.0
      ],
      [
        "Ġrates",
        -1.0
      ],
      [
        "Ġflight",
        -1.0
      ],
      [
        "Ġnews",
        -1.0
      ],
      [
        "ĠCalifornia",
        -1.0
      ],
      [
        "99",
        -1.0
      ],
      [
        "âĢ¢",
        -1.0
      ],
      [
        "Ġcomponent",
        -1.0
      ],
      [
        "Ġvary",
        -1.0
      ],
      [
        "ĠState",
        -1.0
      ],
      [
        "Ġbed",
        -1.0
      ],
      [
        "Ġsign",
        -1.0
      ],
      [
        "Ġdate",
        -1.0
      ],
      [
        "Ġplanning",
        -1.0
      ],
      [
        "Ġwritten",
        -1.0
      ],
      [
        "Ġinitial",
        -1.0
      ],
      [
        "Ġblock",
        -1.0
      ],
      [
        "Ġdemand",
        -1.0
      ],
      [
        "Ġmale",
        -1.0
      ],
      [
        "Some",
        -1.0
      ],
      [
        "-up",
        -1.0
      ],
      [
        "Ġserve",
        -1.0
      ],
      [
        "Ġchallenge",
        -1.0
      ],
      [
        "Ġmaintaining",
        -1.0
      ],
      [
        "Ġformed",
        -1.0
      ],
      [
        "Ġappearance",
        -1.0
      ],
      [
        "Ġdegree",
        -1.0
      ],
      [
        "ĠInstitute",
        -1.0
      ],
      [
        "Ġpre",
        -1.0
      ],
      [
        "Ġconstant",
        -1.0
      ],
      [
        "Step",
        -1.0
      ],
      [
        "Ġfinding",
        -1.0
      ],
      [
        "Ġsaw",
        -1.0
      ],
      [
        "Ġregions",
        -1.0
      ],
      [
        "Ġbeginning",
        -1.0
      ],
      [
        "Ġrise",
        -1.0
      ],
      [
        "ĠJust",
        -1.0
      ],
      [
        "Ġvirus",
        -1.0
      ],
      [
        "ĠSince",
        -1.0
      ],
      [
        "Ġcollection",
        -1.0
      ],
      [
        "Ġstand",
        -1.0
      ],
      [
        "Ġm",
        -1.0
      ],
      [
        "Ġspecifically",
        -1.0
      ],
      [
        "Ġimmediately",
        -1.0
      ],
      [
        "Ġallowed",
        -1.0
      ],
      [
        "Ġeffort",
        -1.0
      ],
      [
        "Ġsample",
        -1.0
      ],
      [
        "Ġseparate",
        -1.0
      ],
      [
        "Ġinstructions",
        -1.0
      ],
      [
        "Ġhabitat",
        -1.0
      ],
      [
        "Ġde",
        -1.0
      ],
      [
        "to",
        -1.0
      ],
      [
        "Ġfigure",
        -1.0
      ],
      [
        "Ġcustomers",
        -1.0
      ],
      [
        "Ġadvantage",
        -1.0
      ],
      [
        "Ġcovered",
        -1.0
      ],
      [
        "Ġregularly",
        -1.0
      ],
      [
        "Ġaccurate",
        -1.0
      ],
      [
        "Ġcore",
        -1.0
      ],
      [
        "Ġasked",
        -1.0
      ],
      [
        "Ġplanet",
        -1.0
      ],
      [
        "Ġactual",
        -1.0
      ],
      [
        "Ġplease",
        -1.0
      ],
      [
        "Ġfamilies",
        -1.0
      ],
      [
        "Ġrecommend",
        -1.0
      ],
      [
        "Ġcommercial",
        -1.0
      ],
      [
        "Ġoperation",
        -1.0
      ],
      [
        "Ġear",
        -1.0
      ],
      [
        "33",
        -1.0
      ],
      [
        "Ġspend",
        -1.0
      ],
      [
        "ĠTherefore",
        -1.0
      ],
      [
        "Ġcontext",
        -1.0
      ],
      [
        "Ġowners",
        -1.0
      ],
      [
        "Ġhear",
        -1.0
      ],
      [
        "Ġfloor",
        -1.0
      ],
      [
        "Ġselection",
        -1.0
      ],
      [
        "Ġweb",
        -1.0
      ],
      [
        "Ġnearly",
        -1.0
      ],
      [
        "Ġlights",
        -1.0
      ],
      [
        "Ġbrand",
        -1.0
      ],
      [
        "Ġhelping",
        -1.0
      ],
      [
        "Ġvital",
        -1.0
      ],
      [
        "Here",
        -1.0
      ],
      [
        "Ġpets",
        -1.0
      ],
      [
        "Ġpromote",
        -1.0
      ],
      [
        "Do",
        -1.0
      ],
      [
        "Ġmolecules",
        -1.0
      ],
      [
        "Ġbreed",
        -1.0
      ],
      [
        "-like",
        -1.0
      ],
      [
        "Ġcouple",
        -1.0
      ],
      [
        "Ġrisks",
        -1.0
      ],
      [
        "Ġbasis",
        -1.0
      ],
      [
        "An",
        -1.0
      ],
      [
        "ĠEurope",
        -1.0
      ],
      [
        "ĠWater",
        -1.0
      ],
      [
        "Ġmoment",
        -1.0
      ],
      [
        "Ġstandards",
        -1.0
      ],
      [
        "Ġadult",
        -1.0
      ],
      [
        "Ġdistribution",
        -1.0
      ],
      [
        "Ġchicken",
        -1.0
      ],
      [
        "Ġseed",
        -1.0
      ],
      [
        "Ġquick",
        -1.0
      ],
      [
        "ĠFirst",
        -1.0
      ],
      [
        "Ġsuggests",
        -1.0
      ],
      [
        "ĠH",
        -1.0
      ],
      [
        "Ġreview",
        -1.0
      ],
      [
        "ĠUsing",
        -1.0
      ],
      [
        "ĠF",
        -1.0
      ],
      [
        "Ġmanage",
        -1.0
      ],
      [
        "Ġfrequently",
        -1.0
      ],
      [
        "Ġtiny",
        -1.0
      ],
      [
        "Ġgeneration",
        -1.0
      ],
      [
        "Ġmiles",
        -1.0
      ],
      [
        "Ġequal",
        -1.0
      ],
      [
        "However",
        -1.0
      ],
      [
        "Ġlink",
        -1.0
      ],
      [
        "Ġfinancial",
        -1.0
      ],
      [
        "Ġfeeding",
        -1.0
      ],
      [
        "Ġtopic",
        -1.0
      ],
      [
        "Ġlearned",
        -1.0
      ],
      [
        "Ġatmosphere",
        -1.0
      ],
      [
        "Ġnational",
        -1.0
      ],
      [
        "Ġfilter",
        -1.0
      ],
      [
        "Ġeconomic",
        -1.0
      ],
      [
        "Ġbecoming",
        -1.0
      ],
      [
        "Ġinternal",
        -1.0
      ],
      [
        "Ġdrawing",
        -1.0
      ],
      [
        "Ġwanted",
        -1.0
      ],
      [
        "Ġswitch",
        -1.0
      ],
      [
        "Ġmember",
        -1.0
      ],
      [
        "ĠAfrica",
        -1.0
      ],
      [
        "Ġplayers",
        -1.0
      ],
      [
        "Ġwalk",
        -1.0
      ],
      [
        "At",
        -1.0
      ],
      [
        "Ġhappy",
        -1.0
      ],
      [
        "Ġobserved",
        -1.0
      ],
      [
        "Ġload",
        -1.0
      ],
      [
        "ĠGod",
        -1.0
      ],
      [
        "Ġbodies",
        -1.0
      ],
      [
        "Ġmarine",
        -1.0
      ],
      [
        "Ġplaying",
        -1.0
      ],
      [
        "Ġgenerate",
        -1.0
      ],
      [
        "Ġcustomer",
        -1.0
      ],
      [
        "Ġchemicals",
        -1.0
      ],
      [
        "Ġinfections",
        -1.0
      ],
      [
        "Ġidentified",
        -1.0
      ],
      [
        "Ġimproved",
        -1.0
      ],
      [
        "Ġadvice",
        -1.0
      ],
      [
        "Ġmouth",
        -1.0
      ],
      [
        "Ġframe",
        -1.0
      ],
      [
        "Ġregarding",
        -1.0
      ],
      [
        "Ġinterested",
        -1.0
      ],
      [
        "Ġfavorite",
        -1.0
      ],
      [
        "Ġwildlife",
        -1.0
      ],
      [
        "Ġcentral",
        -1.0
      ],
      [
        "Ġexperienced",
        -1.0
      ],
      [
        "Ġspot",
        -1.0
      ],
      [
        "Ġinternational",
        -1.0
      ],
      [
        "Ġsociety",
        -1.0
      ],
      [
        "ĠDepartment",
        -1.0
      ],
      [
        "âĢĻt",
        -1.0
      ],
      [
        "Ġdepth",
        -1.0
      ],
      [
        "Ġpotentially",
        -1.0
      ],
      [
        "95",
        -1.0
      ],
      [
        "Ġpath",
        -1.0
      ],
      [
        "Ġfruits",
        -1.0
      ],
      [
        "Ġmuscles",
        -1.0
      ],
      [
        "Ġflavor",
        -1.0
      ],
      [
        "Ġgrass",
        -1.0
      ],
      [
        "Ġlighting",
        -1.0
      ],
      [
        "Ġfields",
        -1.0
      ],
      [
        "Ġdoor",
        -1.0
      ],
      [
        "Ġchanged",
        -1.0
      ],
      [
        "Ġlose",
        -1.0
      ],
      [
        "Ġedge",
        -1.0
      ],
      [
        "Ġhour",
        -1.0
      ],
      [
        "Ġrare",
        -1.0
      ],
      [
        "Ġstem",
        -1.0
      ],
      [
        ".e",
        -1.0
      ],
      [
        "Ġcross",
        -1.0
      ],
      [
        "Ġdiverse",
        -1.0
      ],
      [
        "Ġaudio",
        -1.0
      ],
      [
        "Ġreplace",
        -1.0
      ],
      [
        "Ġamounts",
        -1.0
      ],
      [
        "Ġworked",
        -1.0
      ],
      [
        "...ĊĊ",
        -1.0
      ],
      [
        "Ġfoot",
        -1.0
      ],
      [
        "Ġlayers",
        -1.0
      ],
      [
        "Ġwindow",
        -1.0
      ],
      [
        "ĠUK",
        -1.0
      ],
      [
        "Ġdrug",
        -1.0
      ],
      [
        "Ġhelpful",
        -1.0
      ],
      [
        "Ġnumerous",
        -1.0
      ],
      [
        "Ġstaff",
        -1.0
      ],
      [
        "Ġremoved",
        -1.0
      ],
      [
        "Ġorganization",
        -1.0
      ],
      [
        "Ġnotice",
        -1.0
      ],
      [
        "Ġaware",
        -1.0
      ],
      [
        "Ġcreative",
        -1.0
      ],
      [
        "Ġvehicles",
        -1.0
      ],
      [
        "Ġdouble",
        -1.0
      ],
      [
        "Ġmaybe",
        -1.0
      ],
      [
        "ĠAustralia",
        -1.0
      ],
      [
        "Ġfriend",
        -1.0
      ],
      [
        "-free",
        -1.0
      ],
      [
        "Ġreality",
        -1.0
      ],
      [
        "Ġhealthcare",
        -1.0
      ],
      [
        "Ġstraight",
        -1.0
      ],
      [
        "Ġexperiment",
        -1.0
      ],
      [
        "Ġanxiety",
        -1.0
      ],
      [
        "Ġpractical",
        -1.0
      ],
      [
        "Ġestablished",
        -1.0
      ],
      [
        "Ġdangerous",
        -1.0
      ],
      [
        "Ġconcerns",
        -1.0
      ],
      [
        "Ġbackground",
        -1.0
      ],
      [
        "Ġheld",
        -1.0
      ],
      [
        "Ġstuff",
        -1.0
      ],
      [
        "Ġrock",
        -1.0
      ],
      [
        "Ġwatch",
        -1.0
      ],
      [
        "Ġsurgery",
        -1.0
      ],
      [
        "Ġdefined",
        -1.0
      ],
      [
        "Ġreference",
        -1.0
      ],
      [
        "Ġfashion",
        -1.0
      ],
      [
        "Ġapproximately",
        -1.0
      ],
      [
        "Ġdiscuss",
        -1.0
      ],
      [
        "Ġcharacter",
        -1.0
      ],
      [
        "Ġdesired",
        -1.0
      ],
      [
        "Ġsignals",
        -1.0
      ],
      [
        "Ġcomprehensive",
        -1.0
      ],
      [
        "Ġpollution",
        -1.0
      ],
      [
        "Ġlandscape",
        -1.0
      ],
      [
        "Ġprogress",
        -1.0
      ],
      [
        "Ġenvironments",
        -1.0
      ],
      [
        "Ġwire",
        -1.0
      ],
      [
        "On",
        -1.0
      ],
      [
        "ĠWhether",
        -1.0
      ],
      [
        "Ġteacher",
        -1.0
      ],
      [
        "Ġreceived",
        -1.0
      ],
      [
        "Ġoperations",
        -1.0
      ],
      [
        "ĠDuring",
        -1.0
      ],
      [
        "Ġbusinesses",
        -1.0
      ],
      [
        "Ġselect",
        -1.0
      ],
      [
        "Ġmostly",
        -1.0
      ],
      [
        "Ġlots",
        -1.0
      ],
      [
        "Ġpass",
        -1.0
      ],
      [
        "Ġgrown",
        -1.0
      ],
      [
        "Ġdecisions",
        -1.0
      ],
      [
        "Ġshowed",
        -1.0
      ],
      [
        "42",
        -1.0
      ],
      [
        "Ġsurfaces",
        -1.0
      ],
      [
        "Ġtransfer",
        -1.0
      ],
      [
        "Ġtold",
        -1.0
      ],
      [
        "Ġsmooth",
        -1.0
      ],
      [
        "ĠYork",
        -1.0
      ],
      [
        "Ġheating",
        -1.0
      ],
      [
        "ĠChina",
        -1.0
      ],
      [
        "Ġapp",
        -1.0
      ],
      [
        "65",
        -1.0
      ],
      [
        "Ġsettings",
        -1.0
      ],
      [
        "/or",
        -1.0
      ],
      [
        "Ġhighest",
        -1.0
      ],
      [
        "Ġengineering",
        -1.0
      ],
      [
        "Ġplans",
        -1.0
      ],
      [
        "Ġflat",
        -1.0
      ],
      [
        "Ġchain",
        -1.0
      ],
      [
        "ĠN",
        -1.0
      ],
      [
        "Ġunits",
        -1.0
      ],
      [
        "Ġlimit",
        -1.0
      ],
      [
        "Ġbeneficial",
        -1.0
      ],
      [
        "Ġexpect",
        -1.0
      ],
      [
        "Ġ:",
        -1.0
      ],
      [
        "Ġhit",
        -1.0
      ],
      [
        "âĢ¦",
        -1.0
      ],
      [
        "Ġheard",
        -1.0
      ],
      [
        "Ġancient",
        -1.0
      ],
      [
        "Ġexperts",
        -1.0
      ],
      [
        "Ġraw",
        -1.0
      ],
      [
        "Ġanti",
        -1.0
      ],
      [
        "Ġwidely",
        -1.0
      ],
      [
        "Ġforest",
        -1.0
      ],
      [
        "34",
        -1.0
      ],
      [
        "Ġdental",
        -1.0
      ],
      [
        "Ġtalking",
        -1.0
      ],
      [
        "Ġconcrete",
        -1.0
      ],
      [
        "Ġearlier",
        -1.0
      ],
      [
        "Ġfabric",
        -1.0
      ],
      [
        "48",
        -1.0
      ],
      [
        "Ġinjury",
        -1.0
      ],
      [
        "Ġegg",
        -1.0
      ],
      [
        "Ġtypical",
        -1.0
      ],
      [
        "55",
        -1.0
      ],
      [
        "Ġstarts",
        -1.0
      ],
      [
        "Ġdrop",
        -1.0
      ],
      [
        "Ġresource",
        -1.0
      ],
      [
        "Ġprimarily",
        -1.0
      ],
      [
        "Another",
        -1.0
      ],
      [
        "Ġaircraft",
        -1.0
      ],
      [
        "Ġalcohol",
        -1.0
      ],
      [
        "Ġdesigns",
        -1.0
      ],
      [
        "Ġexposed",
        -1.0
      ],
      [
        "Ġsaying",
        -1.0
      ],
      [
        "Ġsquare",
        -1.0
      ],
      [
        "Ġrelationships",
        -1.0
      ],
      [
        "Ġreleased",
        -1.0
      ],
      [
        "Ġharmful",
        -1.0
      ],
      [
        "Ġhomes",
        -1.0
      ],
      [
        "Ġangle",
        -1.0
      ],
      [
        "38",
        -1.0
      ],
      [
        "Ġclasses",
        -1.0
      ],
      [
        "Ġmachines",
        -1.0
      ],
      [
        "Ġsand",
        -1.0
      ],
      [
        "of",
        -1.0
      ],
      [
        "ĠâĢ¢",
        -1.0
      ],
      [
        "Ġtexture",
        -1.0
      ],
      [
        "Ġnamed",
        -1.0
      ],
      [
        "Ġbirth",
        -1.0
      ],
      [
        "ĠBe",
        -1.0
      ],
      [
        "Ġemotional",
        -1.0
      ],
      [
        "ĠDay",
        -1.0
      ],
      [
        "Ġnaturally",
        -1.0
      ],
      [
        "Ġdrugs",
        -1.0
      ],
      [
        "Ġkill",
        -1.0
      ],
      [
        "Ġupper",
        -1.0
      ],
      [
        "Ġteach",
        -1.0
      ],
      [
        "Ġp",
        -1.0
      ],
      [
        "Ġeventually",
        -1.0
      ],
      [
        "Ġcultural",
        -1.0
      ],
      [
        "Ġdie",
        -1.0
      ],
      [
        "Ġplays",
        -1.0
      ],
      [
        "Ġorganisms",
        -1.0
      ],
      [
        ".)",
        -1.0
      ],
      [
        "After",
        -1.0
      ],
      [
        "Ġleads",
        -1.0
      ],
      [
        "Ġgold",
        -1.0
      ],
      [
        "Ġprefer",
        -1.0
      ],
      [
        "Ġfindings",
        -1.0
      ],
      [
        "Ġrice",
        -1.0
      ],
      [
        "Ġfly",
        -1.0
      ],
      [
        "ĠOther",
        -1.0
      ],
      [
        "Ġwalls",
        -1.0
      ],
      [
        "ĠHigh",
        -1.0
      ],
      [
        "Ġmorning",
        -1.0
      ],
      [
        "Ġstrategy",
        -1.0
      ],
      [
        "Ġpick",
        -1.0
      ],
      [
        "Ġmeal",
        -1.0
      ],
      [
        "Ġwaves",
        -1.0
      ],
      [
        "ĠL",
        -1.0
      ],
      [
        "Ġrelevant",
        -1.0
      ],
      [
        "Ġlatest",
        -1.0
      ],
      [
        "Ġconnect",
        -1.0
      ],
      [
        "Ġattack",
        -1.0
      ],
      [
        "Ġadvantages",
        -1.0
      ],
      [
        "Ġdetailed",
        -1.0
      ],
      [
        "Ġartificial",
        -1.0
      ],
      [
        "Ġpurchase",
        -1.0
      ],
      [
        "Ġtoward",
        -1.0
      ],
      [
        "ĠOr",
        -1.0
      ],
      [
        "Ġfollowed",
        -1.0
      ],
      [
        "Ġquantum",
        -1.0
      ],
      [
        "Ġtreated",
        -1.0
      ],
      [
        "-in",
        -1.0
      ],
      [
        "Ġtransmission",
        -1.0
      ],
      [
        "ĠDon",
        -1.0
      ],
      [
        "Ġsensor",
        -1.0
      ],
      [
        "Ġsets",
        -1.0
      ],
      [
        "Ġflower",
        -1.0
      ],
      [
        "Ġsamples",
        -1.0
      ],
      [
        "Ġprofessionals",
        -1.0
      ],
      [
        "ĠEuropean",
        -1.0
      ],
      [
        "Ġencourage",
        -1.0
      ],
      [
        "Ġrule",
        -1.0
      ],
      [
        "Ġpolicy",
        -1.0
      ],
      [
        "Ġrepair",
        -1.0
      ],
      [
        "Ġplatform",
        -1.0
      ],
      [
        "That",
        -1.0
      ],
      [
        "Ġoffice",
        -1.0
      ],
      [
        "Ġcarefully",
        -1.0
      ],
      [
        "Ġfishing",
        -1.0
      ],
      [
        "Ġoperating",
        -1.0
      ],
      [
        "ĠK",
        -1.0
      ],
      [
        "Ġcomfort",
        -1.0
      ],
      [
        "ĠDoes",
        -1.0
      ],
      [
        "Ġsports",
        -1.0
      ],
      [
        "Ġphoto",
        -1.0
      ],
      [
        "Ġratio",
        -1.0
      ],
      [
        "Ġactions",
        -1.0
      ],
      [
        "Ġthin",
        -1.0
      ],
      [
        "Ġthousands",
        -1.0
      ],
      [
        "Ġsituations",
        -1.0
      ],
      [
        "37",
        -1.0
      ],
      [
        "Ġindicate",
        -1.0
      ],
      [
        "Ġmixture",
        -1.0
      ],
      [
        "Ġtreatments",
        -1.0
      ],
      [
        "Ġwave",
        -1.0
      ],
      [
        "Ġstored",
        -1.0
      ],
      [
        "Ġ*",
        -1.0
      ],
      [
        "Ġexist",
        -1.0
      ],
      [
        "Ġmother",
        -1.0
      ],
      [
        "Ġkitchen",
        -1.0
      ],
      [
        "Ġintroduced",
        -1.0
      ],
      [
        "Ġappears",
        -1.0
      ],
      [
        "Ġstories",
        -1.0
      ],
      [
        "Ġdead",
        -1.0
      ],
      [
        "Ġreliable",
        -1.0
      ],
      [
        "-quality",
        -1.0
      ],
      [
        "ĠCanada",
        -1.0
      ],
      [
        "Ġlegal",
        -1.0
      ],
      [
        "Ġorganizations",
        -1.0
      ],
      [
        "-year",
        -1.0
      ],
      [
        "Ġbeauty",
        -1.0
      ],
      [
        "Ġconsistent",
        -1.0
      ],
      [
        "Ġsunlight",
        -1.0
      ],
      [
        "Ġsort",
        -1.0
      ],
      [
        "Ġmanufacturing",
        -1.0
      ],
      [
        "Ġmedicine",
        -1.0
      ],
      [
        "Ġmagnetic",
        -1.0
      ],
      [
        "Ġchoosing",
        -1.0
      ],
      [
        "Ġfarmers",
        -1.0
      ],
      [
        "Ġdetermined",
        -1.0
      ],
      [
        "Ġplanting",
        -1.0
      ],
      [
        "Ġbike",
        -1.0
      ],
      [
        "Ġexternal",
        -1.0
      ],
      [
        "Ġoptimal",
        -1.0
      ],
      [
        "Ġwet",
        -1.0
      ],
      [
        "Ġlegs",
        -1.0
      ],
      [
        "Ġbrought",
        -1.0
      ],
      [
        "Ġextreme",
        -1.0
      ],
      [
        "Ġbatteries",
        -1.0
      ],
      [
        "Ġmode",
        -1.0
      ],
      [
        "Ġlens",
        -1.0
      ],
      [
        "Ġmonitoring",
        -1.0
      ],
      [
        "Ġelectronic",
        -1.0
      ],
      [
        "Ġdescribe",
        -1.0
      ],
      [
        "Ġchoices",
        -1.0
      ],
      [
        "Ġprepared",
        -1.0
      ],
      [
        "Ġpair",
        -1.0
      ],
      [
        "Ġprepare",
        -1.0
      ],
      [
        "ĠJ",
        -1.0
      ],
      [
        "Ġmessage",
        -1.0
      ],
      [
        "Ġexpression",
        -1.0
      ],
      [
        "Ġperformed",
        -1.0
      ],
      [
        "Ġmainly",
        -1.0
      ],
      [
        "Ġbreeding",
        -1.0
      ],
      [
        "Ġcheese",
        -1.0
      ],
      [
        "-being",
        -1.0
      ],
      [
        "Ġkept",
        -1.0
      ],
      [
        "Ġcombined",
        -1.0
      ],
      [
        "Ġre",
        -1.0
      ],
      [
        "Ġbiological",
        -1.0
      ],
      [
        "ĠJune",
        -1.0
      ],
      [
        "ĠGoogle",
        -1.0
      ],
      [
        "ĠBritish",
        -1.0
      ],
      [
        "Ġoutdoor",
        -1.0
      ],
      [
        "Ġprivate",
        -1.0
      ],
      [
        "Ġvitamin",
        -1.0
      ],
      [
        "39",
        -1.0
      ],
      [
        "Ġco",
        -1.0
      ],
      [
        "Ġformation",
        -1.0
      ],
      [
        "ĠFrench",
        -1.0
      ],
      [
        "Ġimpacts",
        -1.0
      ],
      [
        "Ġreduction",
        -1.0
      ],
      [
        "Ġclaim",
        -1.0
      ],
      [
        "Ġensures",
        -1.0
      ],
      [
        "Ġhole",
        -1.0
      ],
      [
        "Ġdensity",
        -1.0
      ],
      [
        "Ġrelative",
        -1.0
      ],
      [
        "Ġcrops",
        -1.0
      ],
      [
        "Ġdish",
        -1.0
      ],
      [
        "44",
        -1.0
      ],
      [
        "Ġoffering",
        -1.0
      ],
      [
        "Answer",
        -1.0
      ],
      [
        "Ġroof",
        -1.0
      ],
      [
        "Ġconcentration",
        -1.0
      ],
      [
        "Ġcreates",
        -1.0
      ],
      [
        "Ġforces",
        -1.0
      ],
      [
        "Ġawareness",
        -1.0
      ],
      [
        "Ġcard",
        -1.0
      ],
      [
        "Ġcoffee",
        -1.0
      ],
      [
        "Ġintelligence",
        -1.0
      ],
      [
        "Ġpool",
        -1.0
      ],
      [
        "Ġturned",
        -1.0
      ],
      [
        "Ġshared",
        -1.0
      ],
      [
        "Ġround",
        -1.0
      ],
      [
        "Ġvs",
        -1.0
      ],
      [
        "Ġindustrial",
        -1.0
      ],
      [
        "Ġshapes",
        -1.0
      ],
      [
        "Our",
        -1.0
      ],
      [
        "Ġroutine",
        -1.0
      ],
      [
        "Ġmeasured",
        -1.0
      ],
      [
        "Ġhost",
        -1.0
      ],
      [
        "Ġstatus",
        -1.0
      ],
      [
        "Ġminimum",
        -1.0
      ],
      [
        "Ġsizes",
        -1.0
      ],
      [
        "Ġgrade",
        -1.0
      ],
      [
        "-friendly",
        -1.0
      ],
      [
        "Ġeducational",
        -1.0
      ],
      [
        "Ġchallenging",
        -1.0
      ],
      [
        "ĠApril",
        -1.0
      ],
      [
        "Ġfiber",
        -1.0
      ],
      [
        "Ġblog",
        -1.0
      ],
      [
        "Ġcontainer",
        -1.0
      ],
      [
        "Ġprocedure",
        -1.0
      ],
      [
        "Ġimproving",
        -1.0
      ],
      [
        "Ġkinds",
        -1.0
      ],
      [
        "Ġphotos",
        -1.0
      ],
      [
        "ĠMarch",
        -1.0
      ],
      [
        "Ġpump",
        -1.0
      ],
      [
        "41",
        -1.0
      ],
      [
        "ĠFood",
        -1.0
      ],
      [
        "Ġclick",
        -1.0
      ],
      [
        "Ġstone",
        -1.0
      ],
      [
        "Ġshowing",
        -1.0
      ],
      [
        "..",
        -1.0
      ],
      [
        "Ġprint",
        -1.0
      ],
      [
        "Ġapart",
        -1.0
      ],
      [
        "-time",
        -1.0
      ],
      [
        "Ġemail",
        -1.0
      ],
      [
        "ĠPeople",
        -1.0
      ],
      [
        "Ġrepresent",
        -1.0
      ],
      [
        "Ġfocused",
        -1.0
      ],
      [
        "Ġconclusion",
        -1.0
      ],
      [
        "Ġbutton",
        -1.0
      ],
      [
        "Ġplayer",
        -1.0
      ],
      [
        "Ġbag",
        -1.0
      ],
      [
        "Ġsweet",
        -1.0
      ],
      [
        "Ġaspect",
        -1.0
      ],
      [
        "Ġmonitor",
        -1.0
      ],
      [
        "Ġcapable",
        -1.0
      ],
      [
        "Ġtruly",
        -1.0
      ],
      [
        "Ġmobile",
        -1.0
      ],
      [
        "Ġsensitive",
        -1.0
      ],
      [
        "Ġhydrogen",
        -1.0
      ],
      [
        "ĠRiver",
        -1.0
      ],
      [
        "Ġbillion",
        -1.0
      ],
      [
        "Ġperhaps",
        -1.0
      ],
      [
        "].",
        -1.0
      ],
      [
        "Ġdetail",
        -1.0
      ],
      [
        "Ġsurrounding",
        -1.0
      ],
      [
        "Ġplenty",
        -1.0
      ],
      [
        "Ġjoint",
        -1.0
      ],
      [
        "Ġsecure",
        -1.0
      ],
      [
        "No",
        -1.0
      ],
      [
        "Ġbones",
        -1.0
      ],
      [
        "Ġzero",
        -1.0
      ],
      [
        "Ġcontinues",
        -1.0
      ],
      [
        "Ġbright",
        -1.0
      ],
      [
        "Ġwait",
        -1.0
      ],
      [
        "ĠInternational",
        -1.0
      ],
      [
        "Ġdrink",
        -1.0
      ],
      [
        "Ġwhose",
        -1.0
      ],
      [
        "Ġmajority",
        -1.0
      ],
      [
        "Ġpurposes",
        -1.0
      ],
      [
        "Ġprinting",
        -1.0
      ],
      [
        "All",
        -1.0
      ],
      [
        "Ġreactions",
        -1.0
      ],
      [
        "Ġleaving",
        -1.0
      ],
      [
        "Ġmatch",
        -1.0
      ],
      [
        "ĠBoth",
        -1.0
      ],
      [
        "Your",
        -1.0
      ],
      [
        "Ġaffects",
        -1.0
      ],
      [
        "Ġcrop",
        -1.0
      ],
      [
        "85",
        -1.0
      ],
      [
        "Ġfailure",
        -1.0
      ],
      [
        "Ġpreviously",
        -1.0
      ],
      [
        "Ġestimated",
        -1.0
      ],
      [
        "Yes",
        -1.0
      ],
      [
        "Ġrefers",
        -1.0
      ],
      [
        "Ġerror",
        -1.0
      ],
      [
        "Ġplane",
        -1.0
      ],
      [
        "Ġgenerated",
        -1.0
      ],
      [
        "Ġtransport",
        -1.0
      ],
      [
        "Ġminerals",
        -1.0
      ],
      [
        "Ġamazing",
        -1.0
      ],
      [
        "Ġfilled",
        -1.0
      ],
      [
        "Ġuniverse",
        -1.0
      ],
      [
        "ĠCO",
        -1.0
      ],
      [
        "Ġclinical",
        -1.0
      ],
      [
        "Ġfill",
        -1.0
      ],
      [
        "ĠGreat",
        -1.0
      ],
      [
        "Ġreferred",
        -1.0
      ],
      [
        "ĠV",
        -1.0
      ],
      [
        "Ġaid",
        -1.0
      ],
      [
        "Once",
        -1.0
      ],
      [
        "Ġdecrease",
        -1.0
      ],
      [
        "Ġtooth",
        -1.0
      ],
      [
        "Ġlifestyle",
        -1.0
      ],
      [
        "Ġradio",
        -1.0
      ],
      [
        "âĢĿ",
        -1.0
      ],
      [
        "Ġselected",
        -1.0
      ],
      [
        "Ġconcern",
        -1.0
      ],
      [
        "Ġvisible",
        -1.0
      ],
      [
        "Ġborn",
        -1.0
      ],
      [
        "43",
        -1.0
      ],
      [
        "Ġsend",
        -1.0
      ],
      [
        "ĠSystem",
        -1.0
      ],
      [
        "ĠEnergy",
        -1.0
      ],
      [
        "Ġconcepts",
        -1.0
      ],
      [
        "Ġsurvive",
        -1.0
      ],
      [
        "Ġstatement",
        -1.0
      ],
      [
        "Ġmechanism",
        -1.0
      ],
      [
        "Ġsides",
        -1.0
      ],
      [
        "98",
        -1.0
      ],
      [
        "Ġsequence",
        -1.0
      ],
      [
        "Ġtried",
        -1.0
      ],
      [
        "ĠAir",
        -1.0
      ],
      [
        "Ġpictures",
        -1.0
      ],
      [
        "Ġclothing",
        -1.0
      ],
      [
        "Most",
        -1.0
      ],
      [
        "Ġconducted",
        -1.0
      ],
      [
        "Ġowner",
        -1.0
      ],
      [
        "Ġdisorders",
        -1.0
      ],
      [
        "Ġconsidering",
        -1.0
      ],
      [
        "Ġcompounds",
        -1.0
      ],
      [
        "Ġclassroom",
        -1.0
      ],
      [
        "ĠEducation",
        -1.0
      ],
      [
        "Ġnice",
        -1.0
      ],
      [
        "Ġcertainly",
        -1.0
      ],
      [
        "Ġdetect",
        -1.0
      ],
      [
        "Ġproducing",
        -1.0
      ],
      [
        "Are",
        -1.0
      ],
      [
        "which",
        -1.0
      ],
      [
        "Ġatoms",
        -1.0
      ],
      [
        "Ġpresented",
        -1.0
      ],
      [
        "Ġradiation",
        -1.0
      ],
      [
        "Ġparticipants",
        -1.0
      ],
      [
        "Ġperiods",
        -1.0
      ],
      [
        "Ġcomposition",
        -1.0
      ],
      [
        "Ġelectrons",
        -1.0
      ],
      [
        "Ġannual",
        -1.0
      ],
      [
        "Ġspeaker",
        -1.0
      ],
      [
        "Ġcomputers",
        -1.0
      ],
      [
        "-related",
        -1.0
      ],
      [
        "Ġplate",
        -1.0
      ],
      [
        "Ġcook",
        -1.0
      ],
      [
        "Ġacids",
        -1.0
      ],
      [
        "ĠWell",
        -1.0
      ],
      [
        "Ġbees",
        -1.0
      ],
      [
        "Ġphotography",
        -1.0
      ],
      [
        "Ġotherwise",
        -1.0
      ],
      [
        "Ġleaf",
        -1.0
      ],
      [
        "Ġportion",
        -1.0
      ],
      [
        "Ġenter",
        -1.0
      ],
      [
        "Ġwouldn",
        -1.0
      ],
      [
        "ĠJohn",
        -1.0
      ],
      [
        "Ġcapture",
        -1.0
      ],
      [
        "Ġvideos",
        -1.0
      ],
      [
        "Ġslowly",
        -1.0
      ],
      [
        "Ġcontrolled",
        -1.0
      ],
      [
        "Ġlab",
        -1.0
      ],
      [
        "for",
        -1.0
      ],
      [
        "Ġrecovery",
        -1.0
      ],
      [
        "Ġpainting",
        -1.0
      ],
      [
        "Ġ)",
        -1.0
      ],
      [
        "Ġtechnical",
        -1.0
      ],
      [
        ".[",
        -1.0
      ],
      [
        "ĠJuly",
        -1.0
      ],
      [
        "Ġconsists",
        -1.0
      ],
      [
        "Ġcareer",
        -1.0
      ],
      [
        "Ġseeing",
        -1.0
      ],
      [
        "Ġfeedback",
        -1.0
      ],
      [
        "Ġchronic",
        -1.0
      ],
      [
        "Ġprinciples",
        -1.0
      ],
      [
        "Ġcup",
        -1.0
      ],
      [
        "Ġnames",
        -1.0
      ],
      [
        "Ġcooling",
        -1.0
      ],
      [
        "Ġstable",
        -1.0
      ],
      [
        "Ġemergency",
        -1.0
      ],
      [
        "Ġmechanical",
        -1.0
      ],
      [
        "Ġrespect",
        -1.0
      ],
      [
        "Ġinternet",
        -1.0
      ],
      [
        "Ġvarieties",
        -1.0
      ],
      [
        "Ġtopics",
        -1.0
      ],
      [
        "Ġsnow",
        -1.0
      ],
      [
        "Ġholes",
        -1.0
      ],
      [
        "Ġcolour",
        -1.0
      ],
      [
        "Ġwalking",
        -1.0
      ],
      [
        "Ġcontrast",
        -1.0
      ],
      [
        "Ġessay",
        -1.0
      ],
      [
        "Ġnormally",
        -1.0
      ],
      [
        "Ġfiles",
        -1.0
      ],
      [
        "Ġdamaged",
        -1.0
      ],
      [
        "Ġinflammation",
        -1.0
      ],
      [
        "Ġrain",
        -1.0
      ],
      [
        "Ġwhatever",
        -1.0
      ],
      [
        "Ġdiversity",
        -1.0
      ],
      [
        "Ġcm",
        -1.0
      ],
      [
        "64",
        -1.0
      ],
      [
        "Ġwants",
        -1.0
      ],
      [
        "Ġdecades",
        -1.0
      ],
      [
        "Ġchocolate",
        -1.0
      ],
      [
        "Ġwarming",
        -1.0
      ],
      [
        "Ġprices",
        -1.0
      ],
      [
        "Ġclosely",
        -1.0
      ],
      [
        "Ġproduces",
        -1.0
      ],
      [
        "Ġseconds",
        -1.0
      ],
      [
        "Ġinsights",
        -1.0
      ],
      [
        "ĠHis",
        -1.0
      ],
      [
        "Ġmap",
        -1.0
      ],
      [
        "Ġsurvival",
        -1.0
      ],
      [
        "ĠSeptember",
        -1.0
      ],
      [
        "ĠCity",
        -1.0
      ],
      [
        "Ġsmart",
        -1.0
      ],
      [
        "Ġspaces",
        -1.0
      ],
      [
        "Ġmixed",
        -1.0
      ],
      [
        "Ġunless",
        -1.0
      ],
      [
        "Ġturns",
        -1.0
      ],
      [
        "Ġriver",
        -1.0
      ],
      [
        "Ġadjust",
        -1.0
      ],
      [
        "Ġrepresents",
        -1.0
      ],
      [
        "Ġfight",
        -1.0
      ],
      [
        "Ġvirtual",
        -1.0
      ],
      [
        "Ġcarried",
        -1.0
      ],
      [
        "97",
        -1.0
      ],
      [
        "Ġnutrition",
        -1.0
      ],
      [
        "Ġintake",
        -1.0
      ],
      [
        "Many",
        -1.0
      ],
      [
        "Ġseek",
        -1.0
      ],
      [
        "Ġcontaining",
        -1.0
      ],
      [
        "Ġtested",
        -1.0
      ],
      [
        "Ġmid",
        -1.0
      ],
      [
        "ĠAfrican",
        -1.0
      ],
      [
        "Ġdefinition",
        -1.0
      ],
      [
        "Ġpages",
        -1.0
      ],
      [
        "Ġdishes",
        -1.0
      ],
      [
        "Ġlocations",
        -1.0
      ],
      [
        "Ġlinked",
        -1.0
      ],
      [
        "Ġthick",
        -1.0
      ],
      [
        "Ġspent",
        -1.0
      ],
      [
        "Ġrights",
        -1.0
      ],
      [
        "Ġassessment",
        -1.0
      ],
      [
        "Ġwasn",
        -1.0
      ],
      [
        "Ġtube",
        -1.0
      ],
      [
        "):",
        -1.0
      ],
      [
        "51",
        -1.0
      ],
      [
        "Ġpush",
        -1.0
      ],
      [
        "46",
        -1.0
      ],
      [
        "Ġenable",
        -1.0
      ],
      [
        "Ġcatch",
        -1.0
      ],
      [
        "Ġpull",
        -1.0
      ],
      [
        "Ġfoundation",
        -1.0
      ],
      [
        "Ġfarm",
        -1.0
      ],
      [
        "Ġdecided",
        -1.0
      ],
      [
        "Ġfear",
        -1.0
      ],
      [
        "Ġlaws",
        -1.0
      ],
      [
        "Ġprior",
        -1.0
      ],
      [
        "ĠAbout",
        -1.0
      ],
      [
        "Ġcorrectly",
        -1.0
      ],
      [
        "Ġexcess",
        -1.0
      ],
      [
        "Ġclearly",
        -1.0
      ],
      [
        "Ġgear",
        -1.0
      ],
      [
        "Ġcreation",
        -1.0
      ],
      [
        "ĠKeep",
        -1.0
      ],
      [
        "Ġtrade",
        -1.0
      ],
      [
        "Ġdust",
        -1.0
      ],
      [
        "Ġsolve",
        -1.0
      ],
      [
        "52",
        -1.0
      ],
      [
        "Ġputting",
        -1.0
      ],
      [
        "ĠInstead",
        -1.0
      ],
      [
        "Ġanswers",
        -1.0
      ],
      [
        "Ġahead",
        -1.0
      ],
      [
        "Ġpregnancy",
        -1.0
      ],
      [
        "My",
        -1.0
      ],
      [
        "Ġtail",
        -1.0
      ],
      [
        "Ġhunting",
        -1.0
      ],
      [
        "Ġpot",
        -1.0
      ],
      [
        "Ġcopper",
        -1.0
      ],
      [
        "Ġpercentage",
        -1.0
      ],
      [
        "Ġeight",
        -1.0
      ],
      [
        "Ġcreatures",
        -1.0
      ],
      [
        "Ġstock",
        -1.0
      ],
      [
        "Ġwheel",
        -1.0
      ],
      [
        "Ġattached",
        -1.0
      ],
      [
        "Ġbegins",
        -1.0
      ],
      [
        "Ġmolecular",
        -1.0
      ],
      [
        "Ġvoice",
        -1.0
      ],
      [
        "Ġcloser",
        -1.0
      ],
      [
        "Ġinner",
        -1.0
      ],
      [
        "Ġmarketing",
        -1.0
      ],
      [
        "ĠPark",
        -1.0
      ],
      [
        "Ġcalcium",
        -1.0
      ],
      [
        "Ġcollege",
        -1.0
      ],
      [
        "Ġskill",
        -1.0
      ],
      [
        "Ġguidelines",
        -1.0
      ],
      [
        "Ġsit",
        -1.0
      ],
      [
        "Ġbigger",
        -1.0
      ],
      [
        "Ġphysics",
        -1.0
      ],
      [
        "Ġtraffic",
        -1.0
      ],
      [
        "Ġreduces",
        -1.0
      ],
      [
        "ĠThus",
        -1.0
      ],
      [
        "ĠG",
        -1.0
      ],
      [
        "Ġaccuracy",
        -1.0
      ],
      [
        "Ġhelped",
        -1.0
      ],
      [
        "Ġinvestment",
        -1.0
      ],
      [
        "Ġmeals",
        -1.0
      ],
      [
        "Ġdecide",
        -1.0
      ],
      [
        "Ġinteractions",
        -1.0
      ],
      [
        "Ġbuying",
        -1.0
      ],
      [
        "Ġs",
        -1.0
      ],
      [
        "Ġturning",
        -1.0
      ],
      [
        "Ġhappened",
        -1.0
      ],
      [
        "Ġpounds",
        -1.0
      ],
      [
        "Ġdistinct",
        -1.0
      ],
      [
        "Conclusion",
        -1.0
      ],
      [
        "Ġaudience",
        -1.0
      ],
      [
        "ĠOctober",
        -1.0
      ],
      [
        "Ġreports",
        -1.0
      ],
      [
        "Ġexpert",
        -1.0
      ],
      [
        "Ġdefinitely",
        -1.0
      ],
      [
        "Ġformula",
        -1.0
      ],
      [
        "Ġapproaches",
        -1.0
      ],
      [
        "Ġlooked",
        -1.0
      ],
      [
        "ĠCounty",
        -1.0
      ],
      [
        "Ġshot",
        -1.0
      ],
      [
        "Ġbuildings",
        -1.0
      ],
      [
        "Ġstages",
        -1.0
      ],
      [
        "Ġbalanced",
        -1.0
      ],
      [
        "--",
        -1.0
      ],
      [
        "Ġhorses",
        -1.0
      ],
      [
        "Ġmeeting",
        -1.0
      ],
      [
        "Ġbroken",
        -1.0
      ],
      [
        "ĠpH",
        -1.0
      ],
      [
        "Ġinteraction",
        -1.0
      ],
      [
        "ĠIndian",
        -1.0
      ],
      [
        "Ġobtained",
        -1.0
      ],
      [
        "Ġsell",
        -1.0
      ],
      [
        "Ġcareful",
        -1.0
      ],
      [
        "Ġfixed",
        -1.0
      ],
      [
        "Ġpassed",
        -1.0
      ],
      [
        "ĠTake",
        -1.0
      ],
      [
        "Ġinstalled",
        -1.0
      ],
      [
        "Ġintended",
        -1.0
      ],
      [
        "Ġdisorder",
        -1.0
      ],
      [
        "Ġprotected",
        -1.0
      ],
      [
        "Ġparent",
        -1.0
      ],
      [
        "Ġindependent",
        -1.0
      ],
      [
        "Ġworry",
        -1.0
      ],
      [
        "Ġeconomy",
        -1.0
      ],
      [
        "Ġpress",
        -1.0
      ],
      [
        "Ġprey",
        -1.0
      ],
      [
        "ĠJanuary",
        -1.0
      ],
      [
        "Ġsharing",
        -1.0
      ],
      [
        "ĠBlack",
        -1.0
      ],
      [
        "Ġcooked",
        -1.0
      ],
      [
        "Ġshift",
        -1.0
      ],
      [
        "Ġperspective",
        -1.0
      ],
      [
        "Ġworkers",
        -1.0
      ],
      [
        "Ġhabits",
        -1.0
      ],
      [
        "Ġdioxide",
        -1.0
      ],
      [
        "ĠWar",
        -1.0
      ],
      [
        "ĠWhere",
        -1.0
      ],
      [
        "Ġworldwide",
        -1.0
      ],
      [
        "Ġclosed",
        -1.0
      ],
      [
        "Ġtoxic",
        -1.0
      ],
      [
        "Ġlaser",
        -1.0
      ],
      [
        "Ġraised",
        -1.0
      ],
      [
        "Ġsold",
        -1.0
      ],
      [
        "Ġten",
        -1.0
      ],
      [
        "Ġsuggested",
        -1.0
      ],
      [
        "Ġrapidly",
        -1.0
      ],
      [
        "Ġcredit",
        -1.0
      ],
      [
        "Ġdeeper",
        -1.0
      ],
      [
        "Ġengage",
        -1.0
      ],
      [
        "Ġpreventing",
        -1.0
      ],
      [
        "Ġtwice",
        -1.0
      ],
      [
        "Ġcollected",
        -1.0
      ],
      [
        "Ġurban",
        -1.0
      ],
      [
        "Ġadds",
        -1.0
      ],
      [
        "Ġfossil",
        -1.0
      ],
      [
        "Ġaim",
        -1.0
      ],
      [
        "ĠII",
        -1.0
      ],
      [
        "Ġlesson",
        -1.0
      ],
      [
        "ĠLike",
        -1.0
      ],
      [
        "Ġwoman",
        -1.0
      ],
      [
        "Ġpests",
        -1.0
      ],
      [
        "Ġagriculture",
        -1.0
      ],
      [
        "Ġshoes",
        -1.0
      ],
      [
        "Ġwar",
        -1.0
      ],
      [
        "Ġdiscussion",
        -1.0
      ],
      [
        "47",
        -1.0
      ],
      [
        "Ġinjuries",
        -1.0
      ],
      [
        "Ġthoughts",
        -1.0
      ],
      [
        "Ġinnovative",
        -1.0
      ],
      [
        "96",
        -1.0
      ],
      [
        "Ġmedication",
        -1.0
      ],
      [
        "Ġseven",
        -1.0
      ],
      [
        "Ġmedications",
        -1.0
      ],
      [
        "mm",
        -1.0
      ],
      [
        "ĠChinese",
        -1.0
      ],
      [
        "Ġwindows",
        -1.0
      ],
      [
        "ĠCOVID",
        -1.0
      ],
      [
        "Ġopening",
        -1.0
      ],
      [
        "Ġconnections",
        -1.0
      ],
      [
        "Ġfurniture",
        -1.0
      ],
      [
        "Ġmulti",
        -1.0
      ],
      [
        "Ġdiscover",
        -1.0
      ],
      [
        "Ġbaking",
        -1.0
      ],
      [
        "Ġremoving",
        -1.0
      ],
      [
        "ĠO",
        -1.0
      ],
      [
        "Ġoffered",
        -1.0
      ],
      [
        "Ġtransition",
        -1.0
      ],
      [
        "ĠTechnology",
        -1.0
      ],
      [
        "Ġrespond",
        -1.0
      ],
      [
        "ĠLearning",
        -1.0
      ],
      [
        "Ġship",
        -1.0
      ],
      [
        "Ġhardware",
        -1.0
      ],
      [
        "Ġgreenhouse",
        -1.0
      ],
      [
        "Ġtrip",
        -1.0
      ],
      [
        "Ġtrust",
        -1.0
      ],
      [
        "Ġtall",
        -1.0
      ],
      [
        "Ġsubstance",
        -1.0
      ],
      [
        "ĠAnother",
        -1.0
      ],
      [
        "Ġfundamental",
        -1.0
      ],
      [
        "Ġcharacters",
        -1.0
      ],
      [
        "Ġ<",
        -1.0
      ],
      [
        "Ġwaters",
        -1.0
      ],
      [
        "Ġfelt",
        -1.0
      ],
      [
        "Ġraise",
        -1.0
      ],
      [
        "Ġexperiments",
        -1.0
      ],
      [
        "Ġdepression",
        -1.0
      ],
      [
        "Ġstability",
        -1.0
      ],
      [
        "Ġbiggest",
        -1.0
      ],
      [
        "Ġschedule",
        -1.0
      ],
      [
        "Ġexact",
        -1.0
      ],
      [
        "Ġdiagnosis",
        -1.0
      ],
      [
        "According",
        -1.0
      ],
      [
        "Ġsent",
        -1.0
      ],
      [
        "Ġsustainability",
        -1.0
      ],
      [
        "Ġsubstances",
        -1.0
      ],
      [
        "Ġmold",
        -1.0
      ],
      [
        "Ġmovements",
        -1.0
      ],
      [
        "Ġdiscovery",
        -1.0
      ],
      [
        "Ġbiology",
        -1.0
      ],
      [
        "Ġcoat",
        -1.0
      ],
      [
        "Ġcommunicate",
        -1.0
      ],
      [
        "ĠCollege",
        -1.0
      ],
      [
        "Ġtrained",
        -1.0
      ],
      [
        "Ġexplains",
        -1.0
      ],
      [
        "Ġincreasingly",
        -1.0
      ],
      [
        "Ġcompleted",
        -1.0
      ],
      [
        "Ġstick",
        -1.0
      ],
      [
        "Ġrecognize",
        -1.0
      ],
      [
        "Ġmoved",
        -1.0
      ],
      [
        "Ġmath",
        -1.0
      ],
      [
        "Ġfunctional",
        -1.0
      ],
      [
        "Ġlessons",
        -1.0
      ],
      [
        "\"The",
        -1.0
      ],
      [
        "Ġsheet",
        -1.0
      ],
      [
        "Ġharm",
        -1.0
      ],
      [
        "ĠAugust",
        -1.0
      ],
      [
        "ĠFlorida",
        -1.0
      ],
      [
        "Ġmanner",
        -1.0
      ],
      [
        "Ġblocks",
        -1.0
      ],
      [
        "Ġlawn",
        -1.0
      ],
      [
        "Ġnitrogen",
        -1.0
      ],
      [
        "Ġbelieved",
        -1.0
      ],
      [
        "Ġflying",
        -1.0
      ],
      [
        "Ġecosystem",
        -1.0
      ],
      [
        "Ġregulations",
        -1.0
      ],
      [
        "Ġexciting",
        -1.0
      ],
      [
        "Ġsmell",
        -1.0
      ],
      [
        "49",
        -1.0
      ],
      [
        "Ġtrain",
        -1.0
      ],
      [
        "Ġdespite",
        -1.0
      ],
      [
        "Ġliver",
        -1.0
      ],
      [
        "ĠStudents",
        -1.0
      ],
      [
        "Ġthermal",
        -1.0
      ],
      [
        "72",
        -1.0
      ],
      [
        "Ġfinish",
        -1.0
      ],
      [
        "Ġhaven",
        -1.0
      ],
      [
        "Ġprofessor",
        -1.0
      ],
      [
        "Ġdiscussed",
        -1.0
      ],
      [
        "Ġworse",
        -1.0
      ],
      [
        "Ġnotes",
        -1.0
      ],
      [
        "Ġinstallation",
        -1.0
      ],
      [
        "Ġstomach",
        -1.0
      ],
      [
        "Ġdedicated",
        -1.0
      ],
      [
        "Ġpowder",
        -1.0
      ],
      [
        "Ġarray",
        -1.0
      ],
      [
        "53",
        -1.0
      ],
      [
        "Ġindustries",
        -1.0
      ],
      [
        "Ġcapabilities",
        -1.0
      ],
      [
        "Ġseeking",
        -1.0
      ],
      [
        "Ġfriendly",
        -1.0
      ],
      [
        "Ġexcessive",
        -1.0
      ],
      [
        "Ġdrinking",
        -1.0
      ],
      [
        "Ġrapid",
        -1.0
      ],
      [
        "Ġemployees",
        -1.0
      ],
      [
        "Ġfix",
        -1.0
      ],
      [
        "Ġbudget",
        -1.0
      ],
      [
        "Ġemotions",
        -1.0
      ],
      [
        "Ġexplained",
        -1.0
      ],
      [
        "Ġboat",
        -1.0
      ],
      [
        "Ġconsumers",
        -1.0
      ],
      [
        "Ġdocument",
        -1.0
      ],
      [
        "Ġstores",
        -1.0
      ],
      [
        "Ġsuccessfully",
        -1.0
      ],
      [
        "Ġprocedures",
        -1.0
      ],
      [
        "Ġpreferences",
        -1.0
      ],
      [
        "Ġinformed",
        -1.0
      ],
      [
        "ĠOver",
        -1.0
      ],
      [
        "Ġexploring",
        -1.0
      ],
      [
        "Ġvariable",
        -1.0
      ],
      [
        "Ġitem",
        -1.0
      ],
      [
        "Ġn",
        -1.0
      ],
      [
        "Ġoutcomes",
        -1.0
      ],
      [
        "Ġconfidence",
        -1.0
      ],
      [
        "Ġdetection",
        -1.0
      ],
      [
        "Ġopposite",
        -1.0
      ],
      [
        "Ġpanel",
        -1.0
      ],
      [
        "Ġgave",
        -1.0
      ],
      [
        "Ġfamous",
        -1.0
      ],
      [
        "Ġrecipe",
        -1.0
      ],
      [
        "Ġformat",
        -1.0
      ],
      [
        "Ġspots",
        -1.0
      ],
      [
        "Ġcompetition",
        -1.0
      ],
      [
        "Ġcream",
        -1.0
      ],
      [
        "Ġinsurance",
        -1.0
      ],
      [
        "Ġforests",
        -1.0
      ],
      [
        "Ġlibrary",
        -1.0
      ],
      [
        "ĠCheck",
        -1.0
      ],
      [
        "Ġclothes",
        -1.0
      ],
      [
        "91",
        -1.0
      ],
      [
        "Ġhistorical",
        -1.0
      ],
      [
        "Ġreplaced",
        -1.0
      ],
      [
        "Ġcalories",
        -1.0
      ],
      [
        "Ġbehaviors",
        -1.0
      ],
      [
        "Ġagricultural",
        -1.0
      ],
      [
        "Ġprogramming",
        -1.0
      ],
      [
        "Ġassist",
        -1.0
      ],
      [
        "56",
        -1.0
      ],
      [
        "Ġoven",
        -1.0
      ],
      [
        "Ġmetals",
        -1.0
      ],
      [
        "ĠProgram",
        -1.0
      ],
      [
        "Ġconsequences",
        -1.0
      ],
      [
        "ĠWest",
        -1.0
      ],
      [
        "||",
        -1.0
      ],
      [
        "Ġrecords",
        -1.0
      ],
      [
        "Ġpossibly",
        -1.0
      ],
      [
        "Ġears",
        -1.0
      ],
      [
        "Ġknows",
        -1.0
      ],
      [
        "Ġequation",
        -1.0
      ],
      [
        "Ġcovers",
        -1.0
      ],
      [
        "Ġbutter",
        -1.0
      ],
      [
        "Ġstudying",
        -1.0
      ],
      [
        "Ġrocks",
        -1.0
      ],
      [
        "Ġsensors",
        -1.0
      ],
      [
        "Ġbond",
        -1.0
      ],
      [
        "-of",
        -1.0
      ],
      [
        "ĠRed",
        -1.0
      ],
      [
        "Ġcompare",
        -1.0
      ],
      [
        "Ġagree",
        -1.0
      ],
      [
        "Ġmeasurement",
        -1.0
      ],
      [
        "ĠSociety",
        -1.0
      ],
      [
        "Ġunderlying",
        -1.0
      ],
      [
        "54",
        -1.0
      ],
      [
        "ĠToday",
        -1.0
      ],
      [
        "ĠTexas",
        -1.0
      ],
      [
        "Ġplayed",
        -1.0
      ],
      [
        "Ġwearing",
        -1.0
      ],
      [
        "Ġfamiliar",
        -1.0
      ],
      [
        "Ġdriver",
        -1.0
      ],
      [
        "Ġillness",
        -1.0
      ],
      [
        "Ġdelicious",
        -1.0
      ],
      [
        "Ġsouth",
        -1.0
      ],
      [
        "Ġconstantly",
        -1.0
      ],
      [
        "ĠLED",
        -1.0
      ],
      [
        "Ġruns",
        -1.0
      ],
      [
        "ĠTwo",
        -1.0
      ],
      [
        "Ġpanels",
        -1.0
      ],
      [
        "Ġthreat",
        -1.0
      ],
      [
        "Ġguidance",
        -1.0
      ],
      [
        "Ġmembrane",
        -1.0
      ],
      [
        "ĠAsia",
        -1.0
      ],
      [
        "...Ċ",
        -1.0
      ],
      [
        "Use",
        -1.0
      ],
      [
        "Let",
        -1.0
      ],
      [
        "Ġtip",
        -1.0
      ],
      [
        "Ġoperate",
        -1.0
      ],
      [
        "Ġhandling",
        -1.0
      ],
      [
        "Ġbreast",
        -1.0
      ],
      [
        "Ġconventional",
        -1.0
      ],
      [
        "Ġages",
        -1.0
      ],
      [
        "Ġswimming",
        -1.0
      ],
      [
        "Ġmechanisms",
        -1.0
      ],
      [
        "Ġnutrient",
        -1.0
      ],
      [
        "Ġusage",
        -1.0
      ],
      [
        "Ġdiagram",
        -1.0
      ],
      [
        "Ġt",
        -1.0
      ],
      [
        "Ġzone",
        -1.0
      ],
      [
        "Ġrecorded",
        -1.0
      ],
      [
        "Ġneck",
        -1.0
      ],
      [
        "Ġnorth",
        -1.0
      ],
      [
        "ĠHave",
        -1.0
      ],
      [
        "Ġindoor",
        -1.0
      ],
      [
        "Ġbrush",
        -1.0
      ],
      [
        "Ġrace",
        -1.0
      ],
      [
        "Ġends",
        -1.0
      ],
      [
        "ĠControl",
        -1.0
      ],
      [
        "Although",
        -1.0
      ],
      [
        "Ġmanufacturer",
        -1.0
      ],
      [
        "Ġbasically",
        -1.0
      ],
      [
        "Ġcontinued",
        -1.0
      ],
      [
        ";Ċ",
        -1.0
      ],
      [
        "ĠAssociation",
        -1.0
      ],
      [
        "Ġcompound",
        -1.0
      ],
      [
        "that",
        -1.0
      ],
      [
        "Ġmanual",
        -1.0
      ],
      [
        "Ġmoves",
        -1.0
      ],
      [
        "Ġsupports",
        -1.0
      ],
      [
        "ĠRemember",
        -1.0
      ],
      [
        "Ġvast",
        -1.0
      ],
      [
        "Ġstands",
        -1.0
      ],
      [
        "Ġcount",
        -1.0
      ],
      [
        "Ġinvolve",
        -1.0
      ],
      [
        "ĠGet",
        -1.0
      ],
      [
        "Ġdynamic",
        -1.0
      ],
      [
        "Ġoral",
        -1.0
      ],
      [
        "Ġelectron",
        -1.0
      ],
      [
        "92",
        -1.0
      ],
      [
        "Ġremaining",
        -1.0
      ],
      [
        "Ġring",
        -1.0
      ],
      [
        "Ġnerve",
        -1.0
      ],
      [
        "Ġcards",
        -1.0
      ],
      [
        "Ġpolitical",
        -1.0
      ],
      [
        "Ġhumidity",
        -1.0
      ],
      [
        "Ġproposed",
        -1.0
      ],
      [
        "Ġteams",
        -1.0
      ],
      [
        "Ġacademic",
        -1.0
      ],
      [
        "Ġdelivery",
        -1.0
      ],
      [
        "Ġcalls",
        -1.0
      ],
      [
        "Ġnetworks",
        -1.0
      ],
      [
        "Ġsecondary",
        -1.0
      ],
      [
        "Ġcourses",
        -1.0
      ],
      [
        "Ġspeech",
        -1.0
      ],
      [
        "Ġwrote",
        -1.0
      ],
      [
        "ĠGerman",
        -1.0
      ],
      [
        "ĠNovember",
        -1.0
      ],
      [
        "Ġfacts",
        -1.0
      ],
      [
        "Ġentirely",
        -1.0
      ],
      [
        "Ġsupporting",
        -1.0
      ],
      [
        "Ġmining",
        -1.0
      ],
      [
        "Ġconsume",
        -1.0
      ],
      [
        "Ġjournal",
        -1.0
      ],
      [
        "Ġextensive",
        -1.0
      ],
      [
        "Ġmice",
        -1.0
      ],
      [
        "Ġsession",
        -1.0
      ],
      [
        "Ġfollows",
        -1.0
      ],
      [
        "Ġbreathing",
        -1.0
      ],
      [
        "Ġremote",
        -1.0
      ],
      [
        "Ġtrends",
        -1.0
      ],
      [
        "Ġmission",
        -1.0
      ],
      [
        "Ġlinks",
        -1.0
      ],
      [
        "Â°C",
        -1.0
      ],
      [
        "Ġcities",
        -1.0
      ],
      [
        "Ġrecycling",
        -1.0
      ],
      [
        "Ġshade",
        -1.0
      ],
      [
        "Ġrobot",
        -1.0
      ],
      [
        "ĠService",
        -1.0
      ],
      [
        "Ġfeelings",
        -1.0
      ],
      [
        "Ġmyself",
        -1.0
      ],
      [
        "ĠLife",
        -1.0
      ],
      [
        "Ġmissing",
        -1.0
      ],
      [
        "Ġanywhere",
        -1.0
      ],
      [
        "Ġvaccine",
        -1.0
      ],
      [
        "as",
        -1.0
      ],
      [
        "Ġwash",
        -1.0
      ],
      [
        "Ġedges",
        -1.0
      ],
      [
        "-on",
        -1.0
      ],
      [
        "Ġimagine",
        -1.0
      ],
      [
        "Ġinterface",
        -1.0
      ],
      [
        "Ġstudied",
        -1.0
      ],
      [
        "Ġindicates",
        -1.0
      ],
      [
        "Ġscene",
        -1.0
      ],
      [
        "Ġachieved",
        -1.0
      ],
      [
        "Ġapplying",
        -1.0
      ],
      [
        "Ġmassive",
        -1.0
      ],
      [
        "Ġfinally",
        -1.0
      ],
      [
        "ĠDecember",
        -1.0
      ],
      [
        "ĠEast",
        -1.0
      ],
      [
        "Ġhundreds",
        -1.0
      ],
      [
        "Ġinnovation",
        -1.0
      ],
      [
        "Ġtransportation",
        -1.0
      ],
      [
        "Ġcontinuous",
        -1.0
      ],
      [
        "Ġassess",
        -1.0
      ],
      [
        "Ġmeasurements",
        -1.0
      ],
      [
        "Ġarticles",
        -1.0
      ],
      [
        "Ġlisted",
        -1.0
      ],
      [
        "Ġengaging",
        -1.0
      ],
      [
        "Ġrandom",
        -1.0
      ],
      [
        "Ġinteract",
        -1.0
      ],
      [
        "Ġfacilities",
        -1.0
      ],
      [
        "Ġdebris",
        -1.0
      ],
      [
        "Ġfemales",
        -1.0
      ],
      [
        "Ġbranches",
        -1.0
      ],
      [
        "Ġaccessible",
        -1.0
      ],
      [
        "Ġdrain",
        -1.0
      ],
      [
        "Ġgravity",
        -1.0
      ],
      [
        "From",
        -1.0
      ],
      [
        "Ġauthors",
        -1.0
      ],
      [
        "Ġcreativity",
        -1.0
      ],
      [
        "ĠDesign",
        -1.0
      ],
      [
        "Ġmeant",
        -1.0
      ],
      [
        "Ġexcept",
        -1.0
      ],
      [
        "Ġmillions",
        -1.0
      ],
      [
        "Ġexercises",
        -1.0
      ],
      [
        "Ġstronger",
        -1.0
      ],
      [
        "Ġorigin",
        -1.0
      ],
      [
        "Ġtissues",
        -1.0
      ],
      [
        "Ġparameters",
        -1.0
      ],
      [
        "Ġbreeds",
        -1.0
      ],
      [
        "Ġreplacement",
        -1.0
      ],
      [
        "Ġride",
        -1.0
      ],
      [
        "Ġtitle",
        -1.0
      ],
      [
        "Ġcameras",
        -1.0
      ],
      [
        "Ġmilitary",
        -1.0
      ],
      [
        "Ġpuppy",
        -1.0
      ],
      [
        "ĠRead",
        -1.0
      ],
      [
        "Ġextended",
        -1.0
      ],
      [
        "Ġsupported",
        -1.0
      ],
      [
        "57",
        -1.0
      ],
      [
        "Ġgardens",
        -1.0
      ],
      [
        "Ġfarming",
        -1.0
      ],
      [
        "Ġtea",
        -1.0
      ],
      [
        "Ġsufficient",
        -1.0
      ],
      [
        "86",
        -1.0
      ],
      [
        "Ġb",
        -1.0
      ],
      [
        "Ġbar",
        -1.0
      ],
      [
        "Ġinch",
        -1.0
      ],
      [
        "Ġjobs",
        -1.0
      ],
      [
        "88",
        -1.0
      ],
      [
        "Ġthrive",
        -1.0
      ],
      [
        "Ġkeeps",
        -1.0
      ],
      [
        "Ġknowing",
        -1.0
      ],
      [
        "Ġvegetable",
        -1.0
      ],
      [
        "Ġcommand",
        -1.0
      ],
      [
        "Ġvalve",
        -1.0
      ],
      [
        "Ġchannel",
        -1.0
      ],
      [
        "Ġlenses",
        -1.0
      ],
      [
        "',",
        -1.0
      ],
      [
        "ĠPlease",
        -1.0
      ],
      [
        "Ġcoal",
        -1.0
      ],
      [
        "Ġsector",
        -1.0
      ],
      [
        "ĠThrough",
        -1.0
      ],
      [
        "Ġnose",
        -1.0
      ],
      [
        "ĠGuide",
        -1.0
      ],
      [
        "Ġtropical",
        -1.0
      ],
      [
        "Figure",
        -1.0
      ],
      [
        "Ġsafely",
        -1.0
      ],
      [
        "Ġholds",
        -1.0
      ],
      [
        "Ġobtain",
        -1.0
      ],
      [
        "Ġsharp",
        -1.0
      ],
      [
        "Ġserves",
        -1.0
      ],
      [
        "62",
        -1.0
      ],
      [
        "Ġimprovement",
        -1.0
      ],
      [
        "Ġbeans",
        -1.0
      ],
      [
        "Ġinfected",
        -1.0
      ],
      [
        "Ġboost",
        -1.0
      ],
      [
        "Ġbread",
        -1.0
      ],
      [
        "ĠTV",
        -1.0
      ],
      [
        "Ġgardening",
        -1.0
      ],
      [
        "Ġexpand",
        -1.0
      ],
      [
        "Ġpreparation",
        -1.0
      ],
      [
        "Ġgone",
        -1.0
      ],
      [
        "Ġserved",
        -1.0
      ],
      [
        "Ġdepend",
        -1.0
      ],
      [
        "Ġprotective",
        -1.0
      ],
      [
        "Ġbags",
        -1.0
      ],
      [
        "Ġinstall",
        -1.0
      ],
      [
        "Ġhoney",
        -1.0
      ],
      [
        "ĠFebruary",
        -1.0
      ],
      [
        "Ġwish",
        -1.0
      ],
      [
        "Ġresponses",
        -1.0
      ],
      [
        "Ġforget",
        -1.0
      ],
      [
        "Ġimpossible",
        -1.0
      ],
      [
        "First",
        -1.0
      ],
      [
        "Ġcommitment",
        -1.0
      ],
      [
        "Ġspecialized",
        -1.0
      ],
      [
        "Ġvelocity",
        -1.0
      ],
      [
        "ĠEngland",
        -1.0
      ],
      [
        "Ġstyles",
        -1.0
      ],
      [
        "Ġ...ĊĊ",
        -1.0
      ],
      [
        "Ġspeak",
        -1.0
      ],
      [
        "Ġorange",
        -1.0
      ],
      [
        "Ġminimize",
        -1.0
      ],
      [
        "Ġasking",
        -1.0
      ],
      [
        "ĠJapanese",
        -1.0
      ],
      [
        "Ġeveryday",
        -1.0
      ],
      [
        "Ġchapter",
        -1.0
      ],
      [
        "66",
        -1.0
      ],
      [
        "ĠPacific",
        -1.0
      ],
      [
        "ĠTime",
        -1.0
      ],
      [
        "Ġefficiently",
        -1.0
      ],
      [
        "Ġdiameter",
        -1.0
      ],
      [
        "58",
        -1.0
      ],
      [
        "Ġvitamins",
        -1.0
      ],
      [
        "Ġdirt",
        -1.0
      ],
      [
        "ĠLook",
        -1.0
      ],
      [
        "Ġgrows",
        -1.0
      ],
      [
        "Ġsauce",
        -1.0
      ],
      [
        "ĠPlant",
        -1.0
      ],
      [
        "Ġassistance",
        -1.0
      ],
      [
        "Ġwashing",
        -1.0
      ],
      [
        "Ġestablish",
        -1.0
      ],
      [
        "Ġchosen",
        -1.0
      ],
      [
        "Ġbite",
        -1.0
      ],
      [
        "Ġmeasuring",
        -1.0
      ],
      [
        "Ġminute",
        -1.0
      ],
      [
        "Ġmales",
        -1.0
      ],
      [
        "Ġengines",
        -1.0
      ],
      [
        "Ġsales",
        -1.0
      ],
      [
        "Ġparty",
        -1.0
      ],
      [
        "ĠWhite",
        -1.0
      ],
      [
        "ĠNature",
        -1.0
      ],
      [
        "Ġprecise",
        -1.0
      ],
      [
        "Ġcontrols",
        -1.0
      ],
      [
        "Ġgreatly",
        -1.0
      ],
      [
        "Ġrenewable",
        -1.0
      ],
      [
        "Ġtaught",
        -1.0
      ],
      [
        "Ġhabitats",
        -1.0
      ],
      [
        "Ġchemistry",
        -1.0
      ],
      [
        "Ġwhereas",
        -1.0
      ],
      [
        "Ġopinion",
        -1.0
      ],
      [
        "Ġattempt",
        -1.0
      ],
      [
        "Ġsex",
        -1.0
      ],
      [
        "Ġbrings",
        -1.0
      ],
      [
        "Ġsurvey",
        -1.0
      ],
      [
        "94",
        -1.0
      ],
      [
        "ĠChildren",
        -1.0
      ],
      [
        "Ġsuper",
        -1.0
      ],
      [
        "Ġresponsibility",
        -1.0
      ],
      [
        "Ġcognitive",
        -1.0
      ],
      [
        "Ġfrequent",
        -1.0
      ],
      [
        "Ġouter",
        -1.0
      ],
      [
        "Ġartists",
        -1.0
      ],
      [
        "Ġfinished",
        -1.0
      ],
      [
        "Ġintroduction",
        -1.0
      ],
      [
        "Ġrely",
        -1.0
      ],
      [
        "Ġstructural",
        -1.0
      ],
      [
        "Ġdescription",
        -1.0
      ],
      [
        "Ġalgorithms",
        -1.0
      ],
      [
        "is",
        -1.0
      ],
      [
        "Ġplus",
        -1.0
      ],
      [
        "ĠGreen",
        -1.0
      ],
      [
        "Ġobvious",
        -1.0
      ],
      [
        "Ġcollaboration",
        -1.0
      ],
      [
        "Ġexpertise",
        -1.0
      ],
      [
        "Ġloved",
        -1.0
      ],
      [
        "Ġmeters",
        -1.0
      ],
      [
        "Ġmineral",
        -1.0
      ],
      [
        "82",
        -1.0
      ],
      [
        "Ġthanks",
        -1.0
      ],
      [
        "Ġremoval",
        -1.0
      ],
      [
        "Ġmanufacturers",
        -1.0
      ],
      [
        "Ġsport",
        -1.0
      ],
      [
        "Ġequivalent",
        -1.0
      ],
      [
        "Ġorgans",
        -1.0
      ],
      [
        "Ġpromoting",
        -1.0
      ],
      [
        "Ġinstruction",
        -1.0
      ],
      [
        "Ġhappening",
        -1.0
      ],
      [
        "Ġstrain",
        -1.0
      ],
      [
        "Ġfascinating",
        -1.0
      ],
      [
        "Ġnovel",
        -1.0
      ],
      [
        "61",
        -1.0
      ],
      [
        "Ġfewer",
        -1.0
      ],
      [
        "Ġguess",
        -1.0
      ],
      [
        "Ġinterior",
        -1.0
      ],
      [
        "Ġconcerned",
        -1.0
      ],
      [
        "68",
        -1.0
      ],
      [
        "ĠManagement",
        -1.0
      ],
      [
        "Ġstanding",
        -1.0
      ],
      [
        "ĠAct",
        -1.0
      ],
      [
        "Ġecosystems",
        -1.0
      ],
      [
        "Before",
        -1.0
      ],
      [
        "Ġthread",
        -1.0
      ],
      [
        "59",
        -1.0
      ],
      [
        "Ġjoin",
        -1.0
      ],
      [
        "Ġcable",
        -1.0
      ],
      [
        "Ġcompost",
        -1.0
      ],
      [
        "ĠHistory",
        -1.0
      ],
      [
        "Ġvertical",
        -1.0
      ],
      [
        "Ġpredators",
        -1.0
      ],
      [
        "Ġsitting",
        -1.0
      ],
      [
        "Ġreflect",
        -1.0
      ],
      [
        "Ġdatabase",
        -1.0
      ],
      [
        "ĠLearn",
        -1.0
      ],
      [
        "Ġrefer",
        -1.0
      ],
      [
        "Ġcomparison",
        -1.0
      ],
      [
        "Ġnoted",
        -1.0
      ],
      [
        "Ġvessels",
        -1.0
      ],
      [
        "Ġcharging",
        -1.0
      ],
      [
        "Ġmanaging",
        -1.0
      ],
      [
        "ĠAmericans",
        -1.0
      ],
      [
        "ĠBefore",
        -1.0
      ],
      [
        "Ġparallel",
        -1.0
      ],
      [
        "ĠNatural",
        -1.0
      ],
      [
        "Ġletter",
        -1.0
      ],
      [
        "Ġultimately",
        -1.0
      ],
      [
        "93",
        -1.0
      ],
      [
        "ĠSea",
        -1.0
      ],
      [
        "Ġstring",
        -1.0
      ],
      [
        "Ġnorthern",
        -1.0
      ],
      [
        "Ġsouthern",
        -1.0
      ],
      [
        "?\"",
        -1.0
      ],
      [
        "Ġdivided",
        -1.0
      ],
      [
        "Ġfeels",
        -1.0
      ],
      [
        "ĠArt",
        -1.0
      ],
      [
        "Ġbowl",
        -1.0
      ],
      [
        "Ġstars",
        -1.0
      ],
      [
        "Ġease",
        -1.0
      ],
      [
        "Ġsuffer",
        -1.0
      ],
      [
        "ĠTHE",
        -1.0
      ],
      [
        "Ġmolecule",
        -1.0
      ],
      [
        "Ġnet",
        -1.0
      ],
      [
        "with",
        -1.0
      ],
      [
        "Ġwatching",
        -1.0
      ],
      [
        "ĠMexico",
        -1.0
      ],
      [
        "Ġmild",
        -1.0
      ],
      [
        "Ġlaboratory",
        -1.0
      ],
      [
        "Ġflavors",
        -1.0
      ],
      [
        "-the",
        -1.0
      ],
      [
        "Ġsupplies",
        -1.0
      ],
      [
        "ĠFoundation",
        -1.0
      ],
      [
        "Ġchances",
        -1.0
      ],
      [
        "Ġburn",
        -1.0
      ],
      [
        "Ġtrouble",
        -1.0
      ],
      [
        "Ġsignificance",
        -1.0
      ],
      [
        "ĠIsland",
        -1.0
      ],
      [
        "Ġrecognition",
        -1.0
      ],
      [
        "Ġdairy",
        -1.0
      ],
      [
        "Ġalgorithm",
        -1.0
      ],
      [
        "Ġstar",
        -1.0
      ],
      [
        "Ġinsulation",
        -1.0
      ],
      [
        "Ġplatforms",
        -1.0
      ],
      [
        "Ġprinciple",
        -1.0
      ],
      [
        "Ġperfectly",
        -1.0
      ],
      [
        "Ġbacterial",
        -1.0
      ],
      [
        "Ġdeliver",
        -1.0
      ],
      [
        "Ġreached",
        -1.0
      ],
      [
        "Ġbear",
        -1.0
      ],
      [
        "ĠDevelopment",
        -1.0
      ],
      [
        "Ġresistant",
        -1.0
      ],
      [
        "Ġmenu",
        -1.0
      ],
      [
        "ĠEvery",
        -1.0
      ],
      [
        "ĠData",
        -1.0
      ],
      [
        "Ġindex",
        -1.0
      ],
      [
        "Ġbroad",
        -1.0
      ],
      [
        "Ġcouldn",
        -1.0
      ],
      [
        "Ġharder",
        -1.0
      ],
      [
        "Ġautomatically",
        -1.0
      ],
      [
        "63",
        -1.0
      ],
      [
        "Ġtruth",
        -1.0
      ],
      [
        "ĠPower",
        -1.0
      ],
      [
        "Ġparticle",
        -1.0
      ],
      [
        "Ġclassic",
        -1.0
      ],
      [
        "Ġinfrastructure",
        -1.0
      ],
      [
        "Ġpark",
        -1.0
      ],
      [
        "Ġc",
        -1.0
      ],
      [
        "Ġyield",
        -1.0
      ],
      [
        "Ġsmoke",
        -1.0
      ],
      [
        "Ġsessions",
        -1.0
      ],
      [
        "Ġhousehold",
        -1.0
      ],
      [
        "ĠLake",
        -1.0
      ],
      [
        "Ġfairly",
        -1.0
      ],
      [
        "Ġyes",
        -1.0
      ],
      [
        "from",
        -1.0
      ],
      [
        "Ġsubjects",
        -1.0
      ],
      [
        "Ġrealize",
        -1.0
      ],
      [
        "Ġloose",
        -1.0
      ],
      [
        "Ġtown",
        -1.0
      ],
      [
        "Ġpossibility",
        -1.0
      ],
      [
        "77",
        -1.0
      ],
      [
        "ĠSt",
        -1.0
      ],
      [
        "74",
        -1.0
      ],
      [
        "Ġextent",
        -1.0
      ],
      [
        "ĠAdd",
        -1.0
      ],
      [
        "81",
        -1.0
      ],
      [
        "Since",
        -1.0
      ],
      [
        "Ġstation",
        -1.0
      ],
      [
        "71",
        -1.0
      ],
      [
        "Ġleg",
        -1.0
      ],
      [
        "Ġpipe",
        -1.0
      ],
      [
        "Ġcorn",
        -1.0
      ],
      [
        "Ġpolicies",
        -1.0
      ],
      [
        "Ġvacuum",
        -1.0
      ],
      [
        "ĠSometimes",
        -1.0
      ],
      [
        "Ġnutritional",
        -1.0
      ],
      [
        "Ġnecessarily",
        -1.0
      ],
      [
        "Ġhealing",
        -1.0
      ],
      [
        "Ġintensity",
        -1.0
      ],
      [
        "ĠProject",
        -1.0
      ],
      [
        "Ġexchange",
        -1.0
      ],
      [
        "Ġviruses",
        -1.0
      ],
      [
        "Ġplanted",
        -1.0
      ],
      [
        "73",
        -1.0
      ],
      [
        "Ġhospital",
        -1.0
      ],
      [
        "Ġleaders",
        -1.0
      ],
      [
        "Ġprecision",
        -1.0
      ],
      [
        "Ġserving",
        -1.0
      ],
      [
        "Ġrecipes",
        -1.0
      ],
      [
        "Ġpest",
        -1.0
      ],
      [
        "Ġproductivity",
        -1.0
      ],
      [
        "Ġnoticed",
        -1.0
      ],
      [
        "Ġflexible",
        -1.0
      ],
      [
        "Ġisland",
        -1.0
      ],
      [
        "Ġfan",
        -1.0
      ],
      [
        "><",
        -1.0
      ],
      [
        "Ġaluminum",
        -1.0
      ],
      [
        "Ġflexibility",
        -1.0
      ],
      [
        "Ġenables",
        -1.0
      ],
      [
        "Ġfertilizer",
        -1.0
      ],
      [
        "He",
        -1.0
      ],
      [
        "Ġ>",
        -1.0
      ],
      [
        "Ġholding",
        -1.0
      ],
      [
        "76",
        -1.0
      ],
      [
        "Using",
        -1.0
      ],
      [
        "ĠConsider",
        -1.0
      ],
      [
        "84",
        -1.0
      ],
      [
        "Ġrecommendations",
        -1.0
      ],
      [
        "ĠSan",
        -1.0
      ],
      [
        "Ġarm",
        -1.0
      ],
      [
        "Ġgenerations",
        -1.0
      ],
      [
        "ĠJapan",
        -1.0
      ],
      [
        "ĠFurthermore",
        -1.0
      ],
      [
        "Ġeffectiveness",
        -1.0
      ],
      [
        "Ġknew",
        -1.0
      ],
      [
        "ĠCare",
        -1.0
      ],
      [
        "Ġcoast",
        -1.0
      ],
      [
        "Ġevolved",
        -1.0
      ],
      [
        "Ġlies",
        -1.0
      ],
      [
        "Ġsymbol",
        -1.0
      ],
      [
        "Ġcontainers",
        -1.0
      ],
      [
        "ĠMuseum",
        -1.0
      ],
      [
        "Ġfunding",
        -1.0
      ],
      [
        "Ġfacing",
        -1.0
      ],
      [
        "Ġpure",
        -1.0
      ],
      [
        "Ġspectrum",
        -1.0
      ],
      [
        "Ġlived",
        -1.0
      ],
      [
        "Ġclients",
        -1.0
      ],
      [
        "Ġlimits",
        -1.0
      ],
      [
        "Ġband",
        -1.0
      ],
      [
        "Ġprevention",
        -1.0
      ],
      [
        "Ġvibrant",
        -1.0
      ],
      [
        "Ġlay",
        -1.0
      ],
      [
        "Ġdive",
        -1.0
      ],
      [
        "Ġantibiotics",
        -1.0
      ],
      [
        "Ġhidden",
        -1.0
      ],
      [
        "ĠWashington",
        -1.0
      ],
      [
        "Ġselecting",
        -1.0
      ],
      [
        "Ġpaid",
        -1.0
      ],
      [
        "Ġmark",
        -1.0
      ],
      [
        "78",
        -1.0
      ],
      [
        "Ġspray",
        -1.0
      ],
      [
        "Ġyard",
        -1.0
      ],
      [
        "Ġcopy",
        -1.0
      ],
      [
        "Ġlogic",
        -1.0
      ],
      [
        "Ġeliminate",
        -1.0
      ],
      [
        "Ġderived",
        -1.0
      ],
      [
        "Ġhealthier",
        -1.0
      ],
      [
        "ĠInternet",
        -1.0
      ],
      [
        "Ġfitness",
        -1.0
      ],
      [
        "Ġconversation",
        -1.0
      ],
      [
        "Ġnuclear",
        -1.0
      ],
      [
        "Ġvariation",
        -1.0
      ],
      [
        "Ġresolution",
        -1.0
      ],
      [
        "Ġstroke",
        -1.0
      ],
      [
        "Ġburning",
        -1.0
      ],
      [
        "Ġtires",
        -1.0
      ],
      [
        "Ġmm",
        -1.0
      ],
      [
        "Ġdefine",
        -1.0
      ],
      [
        "Ġintegrated",
        -1.0
      ],
      [
        "Ġwonder",
        -1.0
      ],
      [
        "st",
        -1.0
      ],
      [
        "see",
        -1.0
      ],
      [
        "Ġrecognized",
        -1.0
      ],
      [
        "ĠEnvironmental",
        -1.0
      ],
      [
        "Ġappreciate",
        -1.0
      ],
      [
        "Ġwonderful",
        -1.0
      ],
      [
        "Ġattacks",
        -1.0
      ],
      [
        "Ġcalculate",
        -1.0
      ],
      [
        "Ġcoastal",
        -1.0
      ],
      [
        "Ġcomplicated",
        -1.0
      ],
      [
        "89",
        -1.0
      ],
      [
        "Ġd",
        -1.0
      ],
      [
        "Ġdigestive",
        -1.0
      ],
      [
        "ĠAny",
        -1.0
      ],
      [
        "87",
        -1.0
      ],
      [
        "Ġargument",
        -1.0
      ],
      [
        "Ġbabies",
        -1.0
      ],
      [
        "Ġshell",
        -1.0
      ],
      [
        "Ġgradually",
        -1.0
      ],
      [
        "Ġcustom",
        -1.0
      ],
      [
        "Ġtire",
        -1.0
      ],
      [
        "Ġatom",
        -1.0
      ],
      [
        "Ġconsult",
        -1.0
      ],
      [
        "it",
        -1.0
      ],
      [
        "Ġmovie",
        -1.0
      ],
      [
        "Ġversatile",
        -1.0
      ],
      [
        "Ġcollect",
        -1.0
      ],
      [
        "Ġadvance",
        -1.0
      ],
      [
        "Ġtraits",
        -1.0
      ],
      [
        "Ġnest",
        -1.0
      ],
      [
        "Ġdied",
        -1.0
      ],
      [
        "Ġextend",
        -1.0
      ],
      [
        "Ġ{",
        -1.0
      ],
      [
        "Ġ\\",
        -1.0
      ],
      [
        "Ġmaster",
        -1.0
      ],
      [
        "Ġpan",
        -1.0
      ],
      [
        "ĠLondon",
        -1.0
      ],
      [
        "Ġabilities",
        -1.0
      ],
      [
        "Ġacts",
        -1.0
      ],
      [
        "Ġtrigger",
        -1.0
      ],
      [
        "67",
        -1.0
      ],
      [
        "Ġrobots",
        -1.0
      ],
      [
        "ĠWestern",
        -1.0
      ],
      [
        "Ġgases",
        -1.0
      ],
      [
        "Ġassume",
        -1.0
      ],
      [
        "Ġarms",
        -1.0
      ],
      [
        "Ġaims",
        -1.0
      ],
      [
        "Ġrespectively",
        -1.0
      ],
      [
        "Ġdrivers",
        -1.0
      ],
      [
        "Ġkilled",
        -1.0
      ],
      [
        "Ġongoing",
        -1.0
      ],
      [
        "Ġincome",
        -1.0
      ],
      [
        "Ġexperiencing",
        -1.0
      ],
      [
        "Ġwaiting",
        -1.0
      ],
      [
        "ĠHome",
        -1.0
      ],
      [
        "ĠAND",
        -1.0
      ],
      [
        "Ġsky",
        -1.0
      ],
      [
        "Ġsyndrome",
        -1.0
      ],
      [
        "Ġgenome",
        -1.0
      ],
      [
        "Ġbehaviour",
        -1.0
      ],
      [
        "Ġdifficulty",
        -1.0
      ],
      [
        "Ġvariations",
        -1.0
      ],
      [
        "Ġcomments",
        -1.0
      ],
      [
        "ĠSee",
        -1.0
      ],
      [
        "Ġvariables",
        -1.0
      ],
      [
        "Ġattract",
        -1.0
      ],
      [
        "83",
        -1.0
      ],
      [
        "Ġartist",
        -1.0
      ],
      [
        "Ġpermanent",
        -1.0
      ],
      [
        "Ġpartner",
        -1.0
      ],
      [
        "Ġfocuses",
        -1.0
      ],
      [
        "Ġwin",
        -1.0
      ],
      [
        "Ġdealing",
        -1.0
      ],
      [
        "Ġdescribes",
        -1.0
      ],
      [
        "Ġpotatoes",
        -1.0
      ],
      [
        "Ġpresentation",
        -1.0
      ],
      [
        "ĠInformation",
        -1.0
      ],
      [
        "Ġinteractive",
        -1.0
      ],
      [
        "Ġrespiratory",
        -1.0
      ],
      [
        "Ġadequate",
        -1.0
      ],
      [
        "Ġadapt",
        -1.0
      ],
      [
        "Ġpackaging",
        -1.0
      ],
      [
        "Ġcircle",
        -1.0
      ],
      [
        "Ġsub",
        -1.0
      ],
      [
        "Ġwatering",
        -1.0
      ],
      [
        "Ġmanaged",
        -1.0
      ],
      [
        "ĠGroup",
        -1.0
      ],
      [
        "Ġimmediate",
        -1.0
      ],
      [
        "Ġnearby",
        -1.0
      ],
      [
        "Ġbugs",
        -1.0
      ],
      [
        "Ġpreferred",
        -1.0
      ],
      [
        "ĠMedical",
        -1.0
      ],
      [
        "Ġbiodiversity",
        -1.0
      ],
      [
        "Ġg",
        -1.0
      ],
      [
        "ĠCentral",
        -1.0
      ],
      [
        "Ġspeaking",
        -1.0
      ],
      [
        "Ġmammals",
        -1.0
      ],
      [
        "Not",
        -1.0
      ],
      [
        "Ġparticipate",
        -1.0
      ],
      [
        "Ġcurriculum",
        -1.0
      ],
      [
        "ĠDog",
        -1.0
      ],
      [
        "Ġdecline",
        -1.0
      ],
      [
        "Ġoccurred",
        -1.0
      ],
      [
        "Ġmention",
        -1.0
      ],
      [
        "Ġgut",
        -1.0
      ],
      [
        "Ġdemonstrate",
        -1.0
      ],
      [
        "Ġcaught",
        -1.0
      ],
      [
        "Ġduration",
        -1.0
      ],
      [
        "Ġloop",
        -1.0
      ],
      [
        "During",
        -1.0
      ],
      [
        "ĠProfessor",
        -1.0
      ],
      [
        "Ġdurable",
        -1.0
      ],
      [
        "Ġserver",
        -1.0
      ],
      [
        "if",
        -1.0
      ],
      [
        "Ġgrid",
        -1.0
      ],
      [
        "Ġimplementation",
        -1.0
      ],
      [
        "Ġmountain",
        -1.0
      ],
      [
        "Ġblend",
        -1.0
      ],
      [
        "Ġbreaking",
        -1.0
      ],
      [
        "Ġpairs",
        -1.0
      ],
      [
        "Ġbottle",
        -1.0
      ],
      [
        "Ġsodium",
        -1.0
      ],
      [
        "-level",
        -1.0
      ],
      [
        "ĠOnly",
        -1.0
      ],
      [
        "âĢĻ",
        -1.0
      ],
      [
        "Ġfederal",
        -1.0
      ],
      [
        "Ġrid",
        -1.0
      ],
      [
        "ĠMoreover",
        -1.0
      ],
      [
        "Ġcomputing",
        -1.0
      ],
      [
        "Ġfrozen",
        -1.0
      ],
      [
        "Ġformer",
        -1.0
      ],
      [
        "Ġfunctionality",
        -1.0
      ],
      [
        "Ġdrops",
        -1.0
      ],
      [
        "Ġkg",
        -1.0
      ],
      [
        "ĠAustralian",
        -1.0
      ],
      [
        "Ġjoints",
        -1.0
      ],
      [
        "Ġsuffering",
        -1.0
      ],
      [
        "Ġsections",
        -1.0
      ],
      [
        "Ġcorresponding",
        -1.0
      ],
      [
        "Ġframework",
        -1.0
      ],
      [
        "Ġvulnerable",
        -1.0
      ],
      [
        "Ġprofile",
        -1.0
      ],
      [
        "Ġscore",
        -1.0
      ],
      [
        "ĠGood",
        -1.0
      ],
      [
        "-day",
        -1.0
      ],
      [
        "Ġgrain",
        -1.0
      ],
      [
        "Ġweak",
        -1.0
      ],
      [
        "not",
        -1.0
      ],
      [
        "\"We",
        -1.0
      ],
      [
        "Ġshorter",
        -1.0
      ],
      [
        "Ġclay",
        -1.0
      ],
      [
        "Ġstated",
        -1.0
      ],
      [
        "ĠOF",
        -1.0
      ],
      [
        "ĠUnderstanding",
        -1.0
      ],
      [
        "-old",
        -1.0
      ],
      [
        "Ġpeak",
        -1.0
      ],
      [
        "Ġfocusing",
        -1.0
      ],
      [
        "Ġnervous",
        -1.0
      ],
      [
        ".org",
        -1.0
      ],
      [
        "Ġdetermining",
        -1.0
      ],
      [
        "Ġpossibilities",
        -1.0
      ],
      [
        "Ġoils",
        -1.0
      ],
      [
        "Ġdirector",
        -1.0
      ],
      [
        "ĠW",
        -1.0
      ],
      [
        "Ġabsorb",
        -1.0
      ],
      [
        "Ġleader",
        -1.0
      ],
      [
        "Ġforming",
        -1.0
      ],
      [
        "Ġinsect",
        -1.0
      ],
      [
        "Ġvet",
        -1.0
      ],
      [
        "Ġcolleagues",
        -1.0
      ],
      [
        "Ġconsumer",
        -1.0
      ],
      [
        "Ġsoap",
        -1.0
      ],
      [
        "Ġtoys",
        -1.0
      ],
      [
        "Ġcategory",
        -1.0
      ],
      [
        "Ġwings",
        -1.0
      ],
      [
        "Ġdietary",
        -1.0
      ],
      [
        "Ġprotecting",
        -1.0
      ],
      [
        "Ġy",
        -1.0
      ],
      [
        "Ġourselves",
        -1.0
      ],
      [
        "Ġunknown",
        -1.0
      ],
      [
        "Ġpink",
        -1.0
      ],
      [
        "Ġcomment",
        -1.0
      ],
      [
        "Ġentry",
        -1.0
      ],
      [
        "Ġviews",
        -1.0
      ],
      [
        "Ġnation",
        -1.0
      ],
      [
        "Ġliterature",
        -1.0
      ],
      [
        ",âĢĿ",
        -1.0
      ],
      [
        "Ġdoctors",
        -1.0
      ],
      [
        "Ġassembly",
        -1.0
      ],
      [
        "Ġveterinarian",
        -1.0
      ],
      [
        "Ġprocessed",
        -1.0
      ],
      [
        "Ġfair",
        -1.0
      ],
      [
        "Ġthoroughly",
        -1.0
      ],
      [
        "Ġstems",
        -1.0
      ],
      [
        "Ġlargely",
        -1.0
      ],
      [
        "ĠGermany",
        -1.0
      ],
      [
        "Ġgoods",
        -1.0
      ],
      [
        "Ġobserve",
        -1.0
      ],
      [
        "Ġevaluate",
        -1.0
      ],
      [
        "Ġdurability",
        -1.0
      ],
      [
        "Ġwidth",
        -1.0
      ],
      [
        "Ġdoors",
        -1.0
      ],
      [
        "ĠBest",
        -1.0
      ],
      [
        "Ġbeef",
        -1.0
      ],
      [
        "Ġcultures",
        -1.0
      ],
      [
        "ĠAmazon",
        -1.0
      ],
      [
        "Ġlabel",
        -1.0
      ],
      [
        "Ġharvest",
        -1.0
      ],
      [
        "Ġsilver",
        -1.0
      ],
      [
        "ĠCommon",
        -1.0
      ],
      [
        "ĠSuch",
        -1.0
      ],
      [
        "Ġbank",
        -1.0
      ],
      [
        "Ġdeer",
        -1.0
      ],
      [
        "Ġconvert",
        -1.0
      ],
      [
        "Ġclock",
        -1.0
      ],
      [
        "More",
        -1.0
      ],
      [
        "Ġtells",
        -1.0
      ],
      [
        "Ġpack",
        -1.0
      ],
      [
        "Ġexistence",
        -1.0
      ],
      [
        "Ġreceiving",
        -1.0
      ],
      [
        "ĠThose",
        -1.0
      ],
      [
        "Ġidentifying",
        -1.0
      ],
      [
        "Ġherbs",
        -1.0
      ],
      [
        "]ĊĊ",
        -1.0
      ],
      [
        "Ġintroduce",
        -1.0
      ],
      [
        "Ġbrands",
        -1.0
      ],
      [
        "Ġnavigate",
        -1.0
      ],
      [
        "Ġbringing",
        -1.0
      ],
      [
        "Ġprove",
        -1.0
      ],
      [
        "Ġaffecting",
        -1.0
      ],
      [
        "]Ċ",
        -1.0
      ],
      [
        "ĠFind",
        -1.0
      ],
      [
        "Ġbreath",
        -1.0
      ],
      [
        "Ġclient",
        -1.0
      ],
      [
        "Ġdiscomfort",
        -1.0
      ],
      [
        "Ġexpress",
        -1.0
      ],
      [
        "Ġclaims",
        -1.0
      ],
      [
        "Ġstream",
        -1.0
      ],
      [
        "Ġtrend",
        -1.0
      ],
      [
        "Ġrevealed",
        -1.0
      ],
      [
        "'.",
        -1.0
      ],
      [
        "Ġcholesterol",
        -1.0
      ],
      [
        "Ġaffordable",
        -1.0
      ],
      [
        "Ġlifespan",
        -1.0
      ],
      [
        "-by",
        -1.0
      ],
      [
        "Ġquantity",
        -1.0
      ],
      [
        "ĠAC",
        -1.0
      ],
      [
        "Ġfibers",
        -1.0
      ],
      [
        "Ġlisten",
        -1.0
      ],
      [
        "Also",
        -1.0
      ],
      [
        "Ġoptical",
        -1.0
      ],
      [
        "Ġroll",
        -1.0
      ],
      [
        "Ġdownload",
        -1.0
      ],
      [
        "Ġgreatest",
        -1.0
      ],
      [
        "Ġidentity",
        -1.0
      ],
      [
        "Ġjuice",
        -1.0
      ],
      [
        "Ġexists",
        -1.0
      ],
      [
        "ĠFigure",
        -1.0
      ],
      [
        "Ġavailability",
        -1.0
      ],
      [
        "Ġengagement",
        -1.0
      ],
      [
        "ĠSpace",
        -1.0
      ],
      [
        "Ġaggressive",
        -1.0
      ],
      [
        "Ġsupplements",
        -1.0
      ],
      [
        "Ġseat",
        -1.0
      ],
      [
        "Ġbrake",
        -1.0
      ],
      [
        "Ġimplement",
        -1.0
      ],
      [
        "Ġlistening",
        -1.0
      ],
      [
        "Ġleadership",
        -1.0
      ],
      [
        "Ġmouse",
        -1.0
      ],
      [
        "Ġfilters",
        -1.0
      ],
      [
        "Ġrecording",
        -1.0
      ],
      [
        "Ġsynthetic",
        -1.0
      ],
      [
        "Ġobesity",
        -1.0
      ],
      [
        "Ġtheme",
        -1.0
      ],
      [
        "69",
        -1.0
      ],
      [
        "ĠFinally",
        -1.0
      ],
      [
        "Ġmood",
        -1.0
      ],
      [
        "Ġprinter",
        -1.0
      ],
      [
        "Ġsexual",
        -1.0
      ],
      [
        "Ġexamine",
        -1.0
      ],
      [
        "Ġshouldn",
        -1.0
      ],
      [
        "79",
        -1.0
      ],
      [
        "Ġshop",
        -1.0
      ],
      [
        "Ġbought",
        -1.0
      ],
      [
        "Ġheads",
        -1.0
      ],
      [
        "Ġroles",
        -1.0
      ],
      [
        "Ġmet",
        -1.0
      ],
      [
        "ĠFrance",
        -1.0
      ],
      [
        "Ġexplanation",
        -1.0
      ],
      [
        "Ġkm",
        -1.0
      ],
      [
        "Ġmarks",
        -1.0
      ],
      [
        "Ġbreaks",
        -1.0
      ],
      [
        "Ġcorner",
        -1.0
      ],
      [
        "Other",
        -1.0
      ],
      [
        "ĠOcean",
        -1.0
      ],
      [
        "Ġanalyze",
        -1.0
      ],
      [
        "ĠMedicine",
        -1.0
      ],
      [
        "Ġrubber",
        -1.0
      ],
      [
        "Ġessentially",
        -1.0
      ],
      [
        "Ġboxes",
        -1.0
      ],
      [
        "Ġconsideration",
        -1.0
      ],
      [
        "Ġpersonality",
        -1.0
      ],
      [
        "ĠFalse",
        -1.0
      ],
      [
        "ĠClimate",
        -1.0
      ],
      [
        "Ġpregnant",
        -1.0
      ],
      [
        "Ġcotton",
        -1.0
      ],
      [
        "Ġevaluation",
        -1.0
      ],
      [
        "Ġvector",
        -1.0
      ],
      [
        "Ġresidents",
        -1.0
      ],
      [
        "Ġsick",
        -1.0
      ],
      [
        "Ġevolutionary",
        -1.0
      ],
      [
        "Ġunusual",
        -1.0
      ],
      [
        "Ġtreating",
        -1.0
      ],
      [
        "Dr",
        -1.0
      ],
      [
        "=\"",
        -1.0
      ],
      [
        "ĠHuman",
        -1.0
      ],
      [
        "Ġexpansion",
        -1.0
      ],
      [
        "Ġkidney",
        -1.0
      ],
      [
        "Ġidentification",
        -1.0
      ],
      [
        "Ġtape",
        -1.0
      ],
      [
        "Ġchannels",
        -1.0
      ],
      [
        "Ġnuts",
        -1.0
      ],
      [
        "Ġcloud",
        -1.0
      ],
      [
        "Ġinvolving",
        -1.0
      ],
      [
        "Ġdomain",
        -1.0
      ],
      [
        "Ġcategories",
        -1.0
      ],
      [
        "Ġlinear",
        -1.0
      ],
      [
        "Ġpredict",
        -1.0
      ],
      [
        "Ġregardless",
        -1.0
      ],
      [
        "Ġintense",
        -1.0
      ],
      [
        "Ġdried",
        -1.0
      ],
      [
        "Ġaccept",
        -1.0
      ],
      [
        "Ġreaders",
        -1.0
      ],
      [
        "Ġaccurately",
        -1.0
      ],
      [
        "Ġcolumn",
        -1.0
      ],
      [
        "Ġagent",
        -1.0
      ],
      [
        "Does",
        -1.0
      ],
      [
        "Ġestimate",
        -1.0
      ],
      [
        "ĠJournal",
        -1.0
      ],
      [
        "Ġusual",
        -1.0
      ],
      [
        "Ġflour",
        -1.0
      ],
      [
        "Ġplug",
        -1.0
      ],
      [
        "Ġunable",
        -1.0
      ],
      [
        "Ġabsolutely",
        -1.0
      ],
      [
        "Ġwheels",
        -1.0
      ],
      [
        "Ġinterests",
        -1.0
      ],
      [
        "Ġdemonstrated",
        -1.0
      ],
      [
        "Ġcomposed",
        -1.0
      ],
      [
        "Ġeco",
        -1.0
      ],
      [
        "Ġcomplexity",
        -1.0
      ],
      [
        "Ġcompetitive",
        -1.0
      ],
      [
        "Ġrestaurant",
        -1.0
      ],
      [
        "Ġequipped",
        -1.0
      ],
      [
        "Ġminimal",
        -1.0
      ],
      [
        "-shaped",
        -1.0
      ],
      [
        "Ġcircumstances",
        -1.0
      ],
      [
        "Ġcrystal",
        -1.0
      ],
      [
        "Ġgarlic",
        -1.0
      ],
      [
        "Ġempty",
        -1.0
      ],
      [
        "Ġcloth",
        -1.0
      ],
      [
        "Ġinitially",
        -1.0
      ],
      [
        "ĠWindows",
        -1.0
      ],
      [
        "Ġenhancing",
        -1.0
      ],
      [
        "Ġmoist",
        -1.0
      ],
      [
        "-and",
        -1.0
      ],
      [
        "Ġarchitecture",
        -1.0
      ],
      [
        "Ġcovering",
        -1.0
      ],
      [
        "Where",
        -1.0
      ],
      [
        "Ġproven",
        -1.0
      ],
      [
        "Ġcheap",
        -1.0
      ],
      [
        "....",
        -1.0
      ],
      [
        "Ġstreet",
        -1.0
      ],
      [
        "Ġincorporating",
        -1.0
      ],
      [
        "Ġconvenient",
        -1.0
      ],
      [
        "Ġunderstood",
        -1.0
      ],
      [
        "Ġyouth",
        -1.0
      ],
      [
        "Ġcharacterized",
        -1.0
      ],
      [
        ">Ċ",
        -1.0
      ],
      [
        "Ġgiant",
        -1.0
      ],
      [
        "Ġinvention",
        -1.0
      ],
      [
        "Ġgently",
        -1.0
      ],
      [
        "Ġgrains",
        -1.0
      ],
      [
        "âĢ¦ĊĊ",
        -1.0
      ],
      [
        "Ġattractive",
        -1.0
      ],
      [
        "Ġbulbs",
        -1.0
      ],
      [
        "ĠStart",
        -1.0
      ],
      [
        "Ġincorporate",
        -1.0
      ],
      [
        "Don",
        -1.0
      ],
      [
        "Ġfather",
        -1.0
      ],
      [
        "Ġminor",
        -1.0
      ],
      [
        "Ġofficial",
        -1.0
      ],
      [
        "Ġprovider",
        -1.0
      ],
      [
        "Ġgap",
        -1.0
      ],
      [
        "Ġglucose",
        -1.0
      ],
      [
        "Ġcharged",
        -1.0
      ],
      [
        "ĠQuestions",
        -1.0
      ],
      [
        "Ġdocuments",
        -1.0
      ],
      [
        "Ġmodule",
        -1.0
      ],
      [
        "Ġsaving",
        -1.0
      ],
      [
        "Ġsnake",
        -1.0
      ],
      [
        "Ġriding",
        -1.0
      ],
      [
        "Understanding",
        -1.0
      ],
      [
        "Ġmature",
        -1.0
      ],
      [
        "Because",
        -1.0
      ],
      [
        "Ġpilot",
        -1.0
      ],
      [
        "Ġexam",
        -1.0
      ],
      [
        "Ġhimself",
        -1.0
      ],
      [
        "ĠDogs",
        -1.0
      ],
      [
        "Ġcarrying",
        -1.0
      ],
      [
        "Ġsensitivity",
        -1.0
      ],
      [
        "ĠRight",
        -1.0
      ],
      [
        "ĠAtlantic",
        -1.0
      ],
      [
        "ĠGarden",
        -1.0
      ],
      [
        "Ġmixing",
        -1.0
      ],
      [
        "Ġconduct",
        -1.0
      ],
      [
        "Ġdimensions",
        -1.0
      ],
      [
        "Ġsmoking",
        -1.0
      ],
      [
        "Ġgentle",
        -1.0
      ],
      [
        "Ġreaching",
        -1.0
      ],
      [
        "ĠShould",
        -1.0
      ],
      [
        "ĠTry",
        -1.0
      ],
      [
        "Ġcurve",
        -1.0
      ],
      [
        "Ġingredient",
        -1.0
      ],
      [
        "ĠBlue",
        -1.0
      ],
      [
        "Ġagents",
        -1.0
      ],
      [
        "Share",
        -1.0
      ],
      [
        "Ġranging",
        -1.0
      ],
      [
        "Ġwires",
        -1.0
      ],
      [
        "Ġsteam",
        -1.0
      ],
      [
        "Ġpipes",
        -1.0
      ],
      [
        "Ġerrors",
        -1.0
      ],
      [
        "Ġcoral",
        -1.0
      ],
      [
        "Ġgift",
        -1.0
      ],
      [
        "Ġrequest",
        -1.0
      ],
      [
        "ĠBay",
        -1.0
      ],
      [
        "Ġphenomenon",
        -1.0
      ],
      [
        "Ġperforming",
        -1.0
      ],
      [
        "Ġappeal",
        -1.0
      ],
      [
        "Ġdetected",
        -1.0
      ],
      [
        "Ġthickness",
        -1.0
      ],
      [
        "Ġoutcome",
        -1.0
      ],
      [
        "Ġtight",
        -1.0
      ],
      [
        "About",
        -1.0
      ],
      [
        "Ġdirections",
        -1.0
      ],
      [
        "Ġecological",
        -1.0
      ],
      [
        "Ġshall",
        -1.0
      ],
      [
        "Ġfalls",
        -1.0
      ],
      [
        "Ġrelief",
        -1.0
      ],
      [
        "Ġmessages",
        -1.0
      ],
      [
        "Ġculinary",
        -1.0
      ],
      [
        "Ġexpressed",
        -1.0
      ],
      [
        "Ġsoils",
        -1.0
      ],
      [
        "Ġpackage",
        -1.0
      ],
      [
        "Ġlift",
        -1.0
      ],
      [
        "Ġrobust",
        -1.0
      ],
      [
        "Ġroute",
        -1.0
      ],
      [
        "Ġyounger",
        -1.0
      ],
      [
        "Ġfed",
        -1.0
      ],
      [
        "Ġbits",
        -1.0
      ],
      [
        "Ġdrainage",
        -1.0
      ],
      [
        "Ġstorm",
        -1.0
      ],
      [
        "Ġspeeds",
        -1.0
      ],
      [
        "Ġcalculated",
        -1.0
      ],
      [
        "Ġexploration",
        -1.0
      ],
      [
        "Ġnor",
        -1.0
      ],
      [
        "Ġbarrier",
        -1.0
      ],
      [
        "ĠHouse",
        -1.0
      ],
      [
        "Ġdelicate",
        -1.0
      ],
      [
        "Ġrising",
        -1.0
      ],
      [
        "Ġdrought",
        -1.0
      ],
      [
        "Ġdanger",
        -1.0
      ],
      [
        "Ġcake",
        -1.0
      ],
      [
        "Ġspending",
        -1.0
      ],
      [
        "Ġnarrow",
        -1.0
      ],
      [
        "Ġmirror",
        -1.0
      ],
      [
        "Ġsomewhat",
        -1.0
      ],
      [
        "Ġexcited",
        -1.0
      ],
      [
        "Ġobservations",
        -1.0
      ],
      [
        "Ġpositions",
        -1.0
      ],
      [
        "Ġexhibit",
        -1.0
      ],
      [
        "Ġselling",
        -1.0
      ],
      [
        "ĠWildlife",
        -1.0
      ],
      [
        "ĠPublic",
        -1.0
      ],
      [
        "Ġdriven",
        -1.0
      ],
      [
        "Ġfacility",
        -1.0
      ],
      [
        "Ġallergies",
        -1.0
      ],
      [
        "ĠUp",
        -1.0
      ],
      [
        "Ġreviews",
        -1.0
      ],
      [
        "Ġdream",
        -1.0
      ],
      [
        "Ġanimation",
        -1.0
      ],
      [
        "New",
        -1.0
      ],
      [
        "Ġglasses",
        -1.0
      ],
      [
        "ĠY",
        -1.0
      ],
      [
        "-scale",
        -1.0
      ],
      [
        "Ġbonds",
        -1.0
      ],
      [
        "Ġtough",
        -1.0
      ],
      [
        "Ġcellular",
        -1.0
      ],
      [
        "Ġwestern",
        -1.0
      ],
      [
        "\":",
        -1.0
      ],
      [
        "ĠNASA",
        -1.0
      ],
      [
        "Ġf",
        -1.0
      ],
      [
        "Ġfunctioning",
        -1.0
      ],
      [
        "Ġtransform",
        -1.0
      ],
      [
        "Ġuniversity",
        -1.0
      ],
      [
        "Ġcenturies",
        -1.0
      ],
      [
        "Ġrivers",
        -1.0
      ],
      [
        "Ġvaries",
        -1.0
      ],
      [
        "Ġworn",
        -1.0
      ],
      [
        "Ġsuit",
        -1.0
      ],
      [
        "Ġjump",
        -1.0
      ],
      [
        "ĠConservation",
        -1.0
      ],
      [
        "Ġimplications",
        -1.0
      ],
      [
        "Ġtruck",
        -1.0
      ],
      [
        "Ġalgae",
        -1.0
      ],
      [
        "Ġlabor",
        -1.0
      ],
      [
        "Ġvisitors",
        -1.0
      ],
      [
        "Ġincredible",
        -1.0
      ],
      [
        "Ġcombine",
        -1.0
      ],
      [
        "Ġera",
        -1.0
      ],
      [
        "Ġhormone",
        -1.0
      ],
      [
        "Ġfail",
        -1.0
      ],
      [
        "Ġprevents",
        -1.0
      ],
      [
        "Ġdistributed",
        -1.0
      ],
      [
        "ĠClass",
        -1.0
      ],
      [
        "Ġconversion",
        -1.0
      ],
      [
        "Ġwiring",
        -1.0
      ],
      [
        "Ġdomestic",
        -1.0
      ],
      [
        "Ġcontributing",
        -1.0
      ],
      [
        "Ġtomatoes",
        -1.0
      ],
      [
        "ĠSafety",
        -1.0
      ],
      [
        "Ġmodified",
        -1.0
      ],
      [
        "Ġcoverage",
        -1.0
      ],
      [
        "Ġprobability",
        -1.0
      ],
      [
        "Ġtons",
        -1.0
      ],
      [
        "Ġpassing",
        -1.0
      ],
      [
        "Ġprone",
        -1.0
      ],
      [
        "Ġpopularity",
        -1.0
      ],
      [
        "Ġrarely",
        -1.0
      ],
      [
        "Ġrear",
        -1.0
      ],
      [
        "Ġthreats",
        -1.0
      ],
      [
        "ĠRNA",
        -1.0
      ],
      [
        "ĠUSA",
        -1.0
      ],
      [
        "Ġtax",
        -1.0
      ],
      [
        "you",
        -1.0
      ],
      [
        "ĠChange",
        -1.0
      ],
      [
        "Ġtension",
        -1.0
      ],
      [
        "Ġlosing",
        -1.0
      ],
      [
        "ĠDavid",
        -1.0
      ],
      [
        "Ġincredibly",
        -1.0
      ],
      [
        "Which",
        -1.0
      ],
      [
        "Ġscientist",
        -1.0
      ],
      [
        "Ġoxide",
        -1.0
      ],
      [
        "Ġregional",
        -1.0
      ],
      [
        "Ġtracking",
        -1.0
      ],
      [
        "Ġamino",
        -1.0
      ],
      [
        "Ġdesire",
        -1.0
      ],
      [
        "Ġoriginally",
        -1.0
      ],
      [
        "Ġalternatives",
        -1.0
      ],
      [
        "Ġposts",
        -1.0
      ],
      [
        "Ġtone",
        -1.0
      ],
      [
        "ĠCouncil",
        -1.0
      ],
      [
        "Ġcontrolling",
        -1.0
      ],
      [
        "Ġsupposed",
        -1.0
      ],
      [
        "Ġcharacteristic",
        -1.0
      ],
      [
        "Ġendangered",
        -1.0
      ],
      [
        "Ġtreats",
        -1.0
      ],
      [
        "Ġ**",
        -1.0
      ],
      [
        "Ġfreedom",
        -1.0
      ],
      [
        "ĠSocial",
        -1.0
      ],
      [
        "Ġdrawn",
        -1.0
      ],
      [
        "Ġprinted",
        -1.0
      ],
      [
        "Ġreaches",
        -1.0
      ],
      [
        "Ġethical",
        -1.0
      ],
      [
        "Ġgained",
        -1.0
      ],
      [
        "Ġsplit",
        -1.0
      ],
      [
        "Ġdiamond",
        -1.0
      ],
      [
        "Ġremarkable",
        -1.0
      ],
      [
        "Ġimplemented",
        -1.0
      ],
      [
        "Ġwarning",
        -1.0
      ],
      [
        "Ġpeace",
        -1.0
      ],
      [
        "Ġovercome",
        -1.0
      ],
      [
        "Ġwider",
        -1.0
      ],
      [
        "Ġdecade",
        -1.0
      ],
      [
        "such",
        -1.0
      ],
      [
        "Ġblade",
        -1.0
      ],
      [
        "Ġdense",
        -1.0
      ],
      [
        "Ġthrow",
        -1.0
      ],
      [
        "Ġwilling",
        -1.0
      ],
      [
        "Have",
        -1.0
      ],
      [
        "Ġmine",
        -1.0
      ],
      [
        "Ġmoon",
        -1.0
      ],
      [
        "Ġobjective",
        -1.0
      ],
      [
        "ĠUV",
        -1.0
      ],
      [
        "Ġletters",
        -1.0
      ],
      [
        "Ġpersonalized",
        -1.0
      ],
      [
        "ĠLight",
        -1.0
      ],
      [
        "ĠApple",
        -1.0
      ],
      [
        "Ġorganized",
        -1.0
      ],
      [
        "Ġsight",
        -1.0
      ],
      [
        "Ġrepresented",
        -1.0
      ],
      [
        "Ġchest",
        -1.0
      ],
      [
        "ĠQ",
        -1.0
      ],
      [
        "Ġintegration",
        -1.0
      ],
      [
        "Ġintricate",
        -1.0
      ],
      [
        "Ġplates",
        -1.0
      ],
      [
        "Ġoutdoors",
        -1.0
      ],
      [
        "ĠTrue",
        -1.0
      ],
      [
        "Ġkit",
        -1.0
      ],
      [
        "Ġboundaries",
        -1.0
      ],
      [
        "ĠKing",
        -1.0
      ],
      [
        "Ġfilling",
        -1.0
      ],
      [
        "ĠSciences",
        -1.0
      ],
      [
        "Even",
        -1.0
      ],
      [
        "like",
        -1.0
      ],
      [
        "Ġopened",
        -1.0
      ],
      [
        "Ġapps",
        -1.0
      ],
      [
        "Ġpreparing",
        -1.0
      ],
      [
        "Ġfatty",
        -1.0
      ],
      [
        "Ġforeign",
        -1.0
      ],
      [
        "Ġaddressing",
        -1.0
      ],
      [
        "(s",
        -1.0
      ],
      [
        "Ġcomplications",
        -1.0
      ],
      [
        "Ġpreserve",
        -1.0
      ],
      [
        "ĠChoose",
        -1.0
      ],
      [
        "Ġions",
        -1.0
      ],
      [
        "Ġsomewhere",
        -1.0
      ],
      [
        "ĠType",
        -1.0
      ],
      [
        "Ġpartners",
        -1.0
      ],
      [
        "Ġorganism",
        -1.0
      ],
      [
        "Ġinspired",
        -1.0
      ],
      [
        "Ġdoubt",
        -1.0
      ],
      [
        "Ġexperimental",
        -1.0
      ],
      [
        "ĠGeneral",
        -1.0
      ],
      [
        "Ġfats",
        -1.0
      ],
      [
        "Ġgenerator",
        -1.0
      ],
      [
        "ĠYear",
        -1.0
      ],
      [
        "Ġrelation",
        -1.0
      ],
      [
        "ĠWork",
        -1.0
      ],
      [
        "ĠLong",
        -1.0
      ],
      [
        "Ġrow",
        -1.0
      ],
      [
        "Ġworkshop",
        -1.0
      ],
      [
        "Ġrotation",
        -1.0
      ],
      [
        "ĠPlants",
        -1.0
      ],
      [
        "Ġchips",
        -1.0
      ],
      [
        "Ġcraft",
        -1.0
      ],
      [
        "Just",
        -1.0
      ],
      [
        ";ĊĊ",
        -1.0
      ],
      [
        "Ġfalse",
        -1.0
      ],
      [
        "Ġenabling",
        -1.0
      ],
      [
        "Ġsalmon",
        -1.0
      ],
      [
        "Ġtiming",
        -1.0
      ],
      [
        ".m",
        -1.0
      ],
      [
        "Ġmask",
        -1.0
      ],
      [
        "Ġchildhood",
        -1.0
      ],
      [
        ",ĊĊ",
        -1.0
      ],
      [
        "Ġguy",
        -1.0
      ],
      [
        "Ġtargets",
        -1.0
      ],
      [
        "Ġbranch",
        -1.0
      ],
      [
        "Ġenhanced",
        -1.0
      ],
      [
        "Ġcalm",
        -1.0
      ],
      [
        "Ġengineers",
        -1.0
      ],
      [
        "Ġbeach",
        -1.0
      ],
      [
        "Ġlimitations",
        -1.0
      ],
      [
        "Ġcattle",
        -1.0
      ],
      [
        "Ġmatrix",
        -1.0
      ],
      [
        "Ġneural",
        -1.0
      ],
      [
        "Ġsong",
        -1.0
      ],
      [
        "Ġindeed",
        -1.0
      ],
      [
        "Ġwebsites",
        -1.0
      ],
      [
        "Ġson",
        -1.0
      ],
      [
        "Ġneutral",
        -1.0
      ],
      [
        "Ġtotally",
        -1.0
      ],
      [
        "ĠâĢĺ",
        -1.0
      ],
      [
        "Ġescape",
        -1.0
      ],
      [
        ");",
        -1.0
      ],
      [
        "ĠFish",
        -1.0
      ],
      [
        "Ġconsumed",
        -1.0
      ],
      [
        "Ġinsulin",
        -1.0
      ],
      [
        "Ġfarms",
        -1.0
      ],
      [
        "Ġdiffer",
        -1.0
      ],
      [
        "Ġaids",
        -1.0
      ],
      [
        "Ġintervention",
        -1.0
      ],
      [
        "ĠPlace",
        -1.0
      ],
      [
        "Ġcombat",
        -1.0
      ],
      [
        "Ġhundred",
        -1.0
      ],
      [
        "Ġjewelry",
        -1.0
      ],
      [
        "Ġhouses",
        -1.0
      ],
      [
        "\"I",
        -1.0
      ],
      [
        "Ġcirculation",
        -1.0
      ],
      [
        "ĠEngineering",
        -1.0
      ],
      [
        "Ġswim",
        -1.0
      ],
      [
        "Ġvarying",
        -1.0
      ],
      [
        "\"Ċ",
        -1.0
      ],
      [
        "Ġdating",
        -1.0
      ],
      [
        "Ġpresents",
        -1.0
      ],
      [
        "Ġshock",
        -1.0
      ],
      [
        "Ġachieving",
        -1.0
      ],
      [
        "Ġpandemic",
        -1.0
      ],
      [
        "Ġflows",
        -1.0
      ],
      [
        "Ġsleeping",
        -1.0
      ],
      [
        "ĠFree",
        -1.0
      ],
      [
        "Ġfalling",
        -1.0
      ],
      [
        "Ġgun",
        -1.0
      ],
      [
        "Ġvegan",
        -1.0
      ],
      [
        "Ġenzymes",
        -1.0
      ],
      [
        "Ġlighter",
        -1.0
      ],
      [
        "Ġelectronics",
        -1.0
      ],
      [
        "ĠMr",
        -1.0
      ],
      [
        "Ġfuels",
        -1.0
      ],
      [
        "Ġchecking",
        -1.0
      ],
      [
        "Ġwidespread",
        -1.0
      ],
      [
        "Ġdependent",
        -1.0
      ],
      [
        "Ġstones",
        -1.0
      ],
      [
        "Ġfirm",
        -1.0
      ],
      [
        "Ġdecreased",
        -1.0
      ],
      [
        "\":\"",
        -1.0
      ],
      [
        "Ġgirls",
        -1.0
      ],
      [
        "Ġlanguages",
        -1.0
      ],
      [
        "Ġcuts",
        -1.0
      ],
      [
        "Ġinvasive",
        -1.0
      ],
      [
        "Ġsale",
        -1.0
      ],
      [
        "Ġdiagnosed",
        -1.0
      ],
      [
        "Ġoccurring",
        -1.0
      ],
      [
        "Ġstuck",
        -1.0
      ],
      [
        "ĠMaybe",
        -1.0
      ],
      [
        "Ġdepartment",
        -1.0
      ],
      [
        "ĠChristmas",
        -1.0
      ],
      [
        "Ġguys",
        -1.0
      ],
      [
        "Ġpose",
        -1.0
      ],
      [
        "Ġvegetation",
        -1.0
      ],
      [
        "ĠNews",
        -1.0
      ],
      [
        "Ġcord",
        -1.0
      ],
      [
        "Ġtrial",
        -1.0
      ],
      [
        ".The",
        -1.0
      ],
      [
        "Ġfur",
        -1.0
      ],
      [
        "ĠServices",
        -1.0
      ],
      [
        "Ġheater",
        -1.0
      ],
      [
        "Ġpaying",
        -1.0
      ],
      [
        "Ġbears",
        -1.0
      ],
      [
        "Ġlake",
        -1.0
      ],
      [
        "Ġcenters",
        -1.0
      ],
      [
        "Ġheavily",
        -1.0
      ],
      [
        "Ġcounter",
        -1.0
      ],
      [
        "Ġoceans",
        -1.0
      ],
      [
        "Ġdollars",
        -1.0
      ],
      [
        "Ġbelief",
        -1.0
      ],
      [
        "Ġcycles",
        -1.0
      ],
      [
        "Ġport",
        -1.0
[...]
