{
  "version": "1.0",
  "truncation": null,
  "padding": null,
  "added_tokens": [
    {
      "id": 205,
      "content": "[EOS]",
      "single_word": false,
      "lstrip": false,
      "rstrip": false,
      "normalized": false,
      "special": true
    },
    {
      "id": 411,
      "content": "[MASK]",
      "single_word": false,
      "lstrip": false,
      "rstrip": false,
      "normalized": false,
      "special": true
    },
    {
      "id": 422,
      "content": "[UNK]",
      "single_word": false,
      "lstrip": false,
      "rstrip": false,
      "normalized": false,
      "special": true
    },
    {
      "id": 438,
      "content": "[PAD]",
      "single_word": false,
      "lstrip": false,
      "rstrip": false,
      "normalized": false,
      "special": true
    },
    {
      "id": 529,
      "content": "[CLS]",
      "single_word": false,
      "lstrip": false,
      "rstrip": false,
      "normalized": false,
      "special": true
    },
    {
      "id": 1024,
      "content": "[SEP]",
      "single_word": false,
      "lstrip": false,
      "rstrip": false,
      "normalized": false,
      "special": true
    }
  ],
  "normalizer": null,
  "pre_tokenizer": {
    "type": "ByteLevel",
    "add_prefix_space": false,
    "trim_offsets": true,
    "use_regex": true
  },
  "post_processor": null,
  "decoder": null,
  "model": {
    "type": "Unigram",
    "unk_id": null,
    "vocab": [
      [
        "Ü",
        -1.0
      ],
      [
        "el",
        -1.0
      ],
      [
        "king",
        -1.0
      ],
      [
        "ad",
        -1.0
      ],
      [
        "Ġsu",
        -1.0
      ],
      [
        "Ġone",
        -1.0
      ],
      [
        "Ï",
        -1.0
      ],
      [
        "Ġwater",
        -1.0
      ],
      [
        "Ġim",
        -1.0
      ],
      [
        "¾",
        -1.0
      ],
      [
        "Ġch",
        -1.0
      ],
      [
        "ĠAl",
        -1.0
      ],
      [
        "Ġour",
        -1.0
      ],
      [
        "Ġchildren",
        -1.0
      ],
      [
        "ĠE",
        -1.0
      ],
      [
        "Ġli",
        -1.0
      ],
      [
        "nu",
        -1.0
      ],
      [
        "ied",
        -1.0
      ],
      [
        "Ġright",
        -1.0
      ],
      [
        "Ġbr",
        -1.0
      ],
      [
        "£",
        -1.0
      ],
      [
        "io",
        -1.0
      ],
      [
        "nt",
        -1.0
      ],
      [
        "ion",
        -1.0
      ],
      [
        "Ġincreas",
        -1.0
      ],
      [
        "x",
        -1.0
      ],
      [
        "ĠMa",
        -1.0
      ],
      [
        "Ġway",
        -1.0
      ],
      [
        "mes",
        -1.0
      ],
      [
        "½",
        -1.0
      ],
      [
        ".\"",
        -1.0
      ],
      [
        "Õ",
        -1.0
      ],
      [
        "f",
        -1.0
      ],
      [
        "pl",
        -1.0
      ],
      [
        "æ",
        -1.0
      ],
      [
        "í",
        -1.0
      ],
      [
        "ss",
        -1.0
      ],
      [
        "la",
        -1.0
      ],
      [
        "ug",
        -1.0
      ],
      [
        "ible",
        -1.0
      ],
      [
        "ti",
        -1.0
      ],
      [
        "mo",
        -1.0
      ],
      [
        "ex",
        -1.0
      ],
      [
        "´",
        -1.0
      ],
      [
        "Ġperiod",
        -1.0
      ],
      [
        "ê",
        -1.0
      ],
      [
        "Ġst",
        -1.0
      ],
      [
        "#",
        -1.0
      ],
      [
        "ĠV",
        -1.0
      ],
      [
        "Ġal",
        -1.0
      ],
      [
        "Ġnew",
        -1.0
      ],
      [
        "Ġthe",
        -1.0
      ],
      [
        "ons",
        -1.0
      ],
      [
        "Ĵ",
        -1.0
      ],
      [
        "Ġcurrent",
        -1.0
      ],
      [
        "ra",
        -1.0
      ],
      [
        "Ġgr",
        -1.0
      ],
      [
        "J",
        -1.0
      ],
      [
        "ine",
        -1.0
      ],
      [
        "Ġo",
        -1.0
      ],
      [
        "Ġwork",
        -1.0
      ],
      [
        "res",
        -1.0
      ],
      [
        ".",
        -1.0
      ],
      [
        "ft",
        -1.0
      ],
      [
        "This",
        -1.0
      ],
      [
        "ĠâĢĵ",
        -1.0
      ],
      [
        "son",
        -1.0
      ],
      [
        "ath",
        -1.0
      ],
      [
        "use",
        -1.0
      ],
      [
        "ay",
        -1.0
      ],
      [
        "owever",
        -1.0
      ],
      [
        "ut",
        -1.0
      ],
      [
        "Ç",
        -1.0
      ],
      [
        "Ġcould",
        -1.0
      ],
      [
        "Ġuse",
        -1.0
      ],
      [
        "),",
        -1.0
      ],
      [
        "ful",
        -1.0
      ],
      [
        "Ġonly",
        -1.0
      ],
      [
        "up",
        -1.0
      ],
      [
        "ĩ",
        -1.0
      ],
      [
        "Ŀ",
        -1.0
      ],
      [
        "Ġpo",
        -1.0
      ],
      [
        "na",
        -1.0
      ],
      [
        "do",
        -1.0
      ],
      [
        "e",
        -1.0
      ],
      [
        "M",
        -1.0
      ],
      [
        "Ħ",
        -1.0
      ],
      [
        "pe",
        -1.0
      ],
      [
        "T",
        -1.0
      ],
      [
        "Ġhigh",
        -1.0
      ],
      [
        "Ġre",
        -1.0
      ],
      [
        "Î",
        -1.0
      ],
      [
        "Ġthem",
        -1.0
      ],
      [
        "Ġschool",
        -1.0
      ],
      [
        "Ġs",
        -1.0
      ],
      [
        "Ġand",
        -1.0
      ],
      [
        "000",
        -1.0
      ],
      [
        "ì",
        -1.0
      ],
      [
        "Ġcondition",
        -1.0
      ],
      [
        "Ġown",
        -1.0
      ],
      [
        "ics",
        -1.0
      ],
      [
        "ok",
        -1.0
      ],
      [
        "di",
        -1.0
      ],
      [
        "6",
        -1.0
      ],
      [
        "Ġwill",
        -1.0
      ],
      [
        "Ġthere",
        -1.0
      ],
      [
        "ĠP",
        -1.0
      ],
      [
        "sed",
        -1.0
      ],
      [
        "ha",
        -1.0
      ],
      [
        "om",
        -1.0
      ],
      [
        "7",
        -1.0
      ],
      [
        "Ġhuman",
        -1.0
      ],
      [
        "ľ",
        -1.0
      ],
      [
        "Ġd",
        -1.0
      ],
      [
        "ty",
        -1.0
      ],
      [
        "ys",
        -1.0
      ],
      [
        "'t",
        -1.0
      ],
      [
        "Ġeffect",
        -1.0
      ],
      [
        "ta",
        -1.0
      ],
      [
        "r",
        -1.0
      ],
      [
        "Ġhis",
        -1.0
      ],
      [
        "oo",
        -1.0
      ],
      [
        "Ñ",
        -1.0
      ],
      [
        "ings",
        -1.0
      ],
      [
        "ec",
        -1.0
      ],
      [
        "Ġon",
        -1.0
      ],
      [
        "Ġtemperature",
        -1.0
      ],
      [
        "the",
        -1.0
      ],
      [
        "er",
        -1.0
      ],
      [
        "ial",
        -1.0
      ],
      [
        "re",
        -1.0
      ],
      [
        "fe",
        -1.0
      ],
      [
        "Ġfl",
        -1.0
      ],
      [
        "ting",
        -1.0
      ],
      [
        "Ġyears",
        -1.0
      ],
      [
        ">",
        -1.0
      ],
      [
        "ĠAn",
        -1.0
      ],
      [
        "Ì",
        -1.0
      ],
      [
        "Ġinformation",
        -1.0
      ],
      [
        "ĠL",
        -1.0
      ],
      [
        "c",
        -1.0
      ],
      [
        "ĠAfrica",
        -1.0
      ],
      [
        "cr",
        -1.0
      ],
      [
        "ically",
        -1.0
      ],
      [
        "ng",
        -1.0
      ],
      [
        "ring",
        -1.0
      ],
      [
        "ind",
        -1.0
      ],
      [
        "de",
        -1.0
      ],
      [
        "Ġdata",
        -1.0
      ],
      [
        "Ġ6",
        -1.0
      ],
      [
        "Ġfound",
        -1.0
      ],
      [
        "Ġduring",
        -1.0
      ],
      [
        "Ë",
        -1.0
      ],
      [
        "§",
        -1.0
      ],
      [
        "Ġover",
        -1.0
      ],
      [
        "Ġsystem",
        -1.0
      ],
      [
        "et",
        -1.0
      ],
      [
        "ust",
        -1.0
      ],
      [
        "×",
        -1.0
      ],
      [
        "Ġvery",
        -1.0
      ],
      [
        "Ġquestion",
        -1.0
      ],
      [
        "Ġtr",
        -1.0
      ],
      [
        "'",
        -1.0
      ],
      [
        "ian",
        -1.0
      ],
      [
        "ps",
        -1.0
      ],
      [
        "Ġwhen",
        -1.0
      ],
      [
        "cu",
        -1.0
      ],
      [
        "Ġca",
        -1.0
      ],
      [
        "lic",
        -1.0
      ],
      [
        "Ġ1",
        -1.0
      ],
      [
        "Ġcon",
        -1.0
      ],
      [
        "Ġ2",
        -1.0
      ],
      [
        "ard",
        -1.0
      ],
      [
        "bi",
        -1.0
      ],
      [
        "pr",
        -1.0
      ],
      [
        "Ġ-",
        -1.0
      ],
      [
        "<",
        -1.0
      ],
      [
        "D",
        -1.0
      ],
      [
        "ation",
        -1.0
      ],
      [
        "ves",
        -1.0
      ],
      [
        "ĠChrist",
        -1.0
      ],
      [
        "Ġpre",
        -1.0
      ],
      [
        "ear",
        -1.0
      ],
      [
        "Ġresult",
        -1.0
      ],
      [
        "ĠAs",
        -1.0
      ],
      [
        "ĵ",
        -1.0
      ],
      [
        "ĠS",
        -1.0
      ],
      [
        "pi",
        -1.0
      ],
      [
        "lt",
        -1.0
      ],
      [
        "ap",
        -1.0
      ],
      [
        "ĠCalifornia",
        -1.0
      ],
      [
        "id",
        -1.0
      ],
      [
        "Ġlevel",
        -1.0
      ],
      [
        "Ń",
        -1.0
      ],
      [
        "ep",
        -1.0
      ],
      [
        "or",
        -1.0
      ],
      [
        "ç",
        -1.0
      ],
      [
        "em",
        -1.0
      ],
      [
        "Ġ4",
        -1.0
      ],
      [
        ",",
        -1.0
      ],
      [
        "Ġgroup",
        -1.0
      ],
      [
        "Ġcomp",
        -1.0
      ],
      [
        "ĥ",
        -1.0
      ],
      [
        "Ġmillion",
        -1.0
      ],
      [
        "ze",
        -1.0
      ],
      [
        "[EOS]",
        -1.0
      ],
      [
        "Ġwas",
        -1.0
      ],
      [
        "Ġproblem",
        -1.0
      ],
      [
        "Ġ200",
        -1.0
      ],
      [
        "Ġresearch",
        -1.0
      ],
      [
        "qui",
        -1.0
      ],
      [
        "es",
        -1.0
      ],
      [
        "Ġunderstand",
        -1.0
      ],
      [
        "av",
        -1.0
      ],
      [
        "at",
        -1.0
      ],
      [
        "Ġthey",
        -1.0
      ],
      [
        "gn",
        -1.0
      ],
      [
        "da",
        -1.0
      ],
      [
        "ograph",
        -1.0
      ],
      [
        "Â",
        -1.0
      ],
      [
        "H",
        -1.0
      ],
      [
        "rm",
        -1.0
      ],
      [
        "Ê",
        -1.0
      ],
      [
        "Ġhave",
        -1.0
      ],
      [
        "ħ",
        -1.0
      ],
      [
        "ĠJ",
        -1.0
      ],
      [
        "hy",
        -1.0
      ],
      [
        "Ġbefore",
        -1.0
      ],
      [
        "Ġthemselves",
        -1.0
      ],
      [
        "ass",
        -1.0
      ],
      [
        "Ġmuch",
        -1.0
      ],
      [
        "¸",
        -1.0
      ],
      [
        "ï",
        -1.0
      ],
      [
        "ry",
        -1.0
      ],
      [
        "gr",
        -1.0
      ],
      [
        "Ġbut",
        -1.0
      ],
      [
        "Ġtime",
        -1.0
      ],
      [
        "le",
        -1.0
      ],
      [
        "Ġpeople",
        -1.0
      ],
      [
        "Ġbecause",
        -1.0
      ],
      [
        "Ġcontinu",
        -1.0
      ],
      [
        "tory",
        -1.0
      ],
      [
        "to",
        -1.0
      ],
      [
        "ro",
        -1.0
      ],
      [
        "vi",
        -1.0
      ],
      [
        "rt",
        -1.0
      ],
      [
        "rn",
        -1.0
      ],
      [
        "ĠF",
        -1.0
      ],
      [
        "im",
        -1.0
      ],
      [
        "1",
        -1.0
      ],
      [
        "no",
        -1.0
      ],
      [
        "Ġconc",
        -1.0
      ],
      [
        "ai",
        -1.0
      ],
      [
        "Ġph",
        -1.0
      ],
      [
        "nvironment",
        -1.0
      ],
      [
        "Ġpa",
        -1.0
      ],
      [
        "der",
        -1.0
      ],
      [
        "Ġbo",
        -1.0
      ],
      [
        "ĠW",
        -1.0
      ],
      [
        "Ġgo",
        -1.0
      ],
      [
        "ff",
        -1.0
      ],
      [
        "des",
        -1.0
      ],
      [
        "ges",
        -1.0
      ],
      [
        "Ġ18",
        -1.0
      ],
      [
        "mi",
        -1.0
      ],
      [
        "Ġalso",
        -1.0
      ],
      [
        "Ġestablish",
        -1.0
      ],
      [
        "en",
        -1.0
      ],
      [
        "est",
        -1.0
      ],
      [
        "sc",
        -1.0
      ],
      [
        "ant",
        -1.0
      ],
      [
        "d",
        -1.0
      ],
      [
        "Ġfollow",
        -1.0
      ],
      [
        "nc",
        -1.0
      ],
      [
        "âĢĻ",
        -1.0
      ],
      [
        "land",
        -1.0
      ],
      [
        "ð",
        -1.0
      ],
      [
        "pa",
        -1.0
      ],
      [
        "Z",
        -1.0
      ],
      [
        "Ġother",
        -1.0
      ],
      [
        "Ġh",
        -1.0
      ],
      [
        "lo",
        -1.0
      ],
      [
        "Ġfa",
        -1.0
      ],
      [
        "Ġinclude",
        -1.0
      ],
      [
        "ls",
        -1.0
      ],
      [
        "ral",
        -1.0
      ],
      [
        "ar",
        -1.0
      ],
      [
        "ite",
        -1.0
      ],
      [
        "Ġsi",
        -1.0
      ],
      [
        "Ġgovernment",
        -1.0
      ],
      [
        "5",
        -1.0
      ],
      [
        "Ġ201",
        -1.0
      ],
      [
        "all",
        -1.0
      ],
      [
        "R",
        -1.0
      ],
      [
        "2",
        -1.0
      ],
      [
        "Ġthat",
        -1.0
      ],
      [
        "ct",
        -1.0
      ],
      [
        "3",
        -1.0
      ],
      [
        "âĢ",
        -1.0
      ],
      [
        "nd",
        -1.0
      ],
      [
        "Ġwere",
        -1.0
      ],
      [
        "rr",
        -1.0
      ],
      [
        "ir",
        -1.0
      ],
      [
        "eg",
        -1.0
      ],
      [
        "Ġbu",
        -1.0
      ],
      [
        "Ġdevelop",
        -1.0
      ],
      [
        "Ĩ",
        -1.0
      ],
      [
        "/",
        -1.0
      ],
      [
        "³",
        -1.0
      ],
      [
        "ĠIn",
        -1.0
      ],
      [
        "form",
        -1.0
      ],
      [
        "ttle",
        -1.0
      ],
      [
        "È",
        -1.0
      ],
      [
        "(",
        -1.0
      ],
      [
        "Ġman",
        -1.0
      ],
      [
        "Ġdifferent",
        -1.0
      ],
      [
        "ure",
        -1.0
      ],
      [
        "Ġdr",
        -1.0
      ],
      [
        "Ġdesign",
        -1.0
      ],
      [
        "Í",
        -1.0
      ],
      [
        "%",
        -1.0
      ],
      [
        "Ġits",
        -1.0
      ],
      [
        "ther",
        -1.0
      ],
      [
        "ice",
        -1.0
      ],
      [
        "Ġsuch",
        -1.0
      ],
      [
        "Ġunder",
        -1.0
      ],
      [
        "@",
        -1.0
      ],
      [
        "19",
        -1.0
      ],
      [
        "rp",
        -1.0
      ],
      [
        "tal",
        -1.0
      ],
      [
        "gu",
        -1.0
      ],
      [
        "ab",
        -1.0
      ],
      [
        "Ġbeen",
        -1.0
      ],
      [
        "red",
        -1.0
      ],
      [
        "Ġho",
        -1.0
      ],
      [
        "Ġ5",
        -1.0
      ],
      [
        "İ",
        -1.0
      ],
      [
        "Ġyear",
        -1.0
      ],
      [
        "ke",
        -1.0
      ],
      [
        "Ġhas",
        -1.0
      ],
      [
        "ts",
        -1.0
      ],
      [
        "Ġlanguage",
        -1.0
      ],
      [
        "nn",
        -1.0
      ],
      [
        "ĠLi",
        -1.0
      ],
      [
        "ĠU",
        -1.0
      ],
      [
        "Ġm",
        -1.0
      ],
      [
        "ility",
        -1.0
      ],
      [
        "Ġseveral",
        -1.0
      ],
      [
        "Ġ(",
        -1.0
      ],
      [
        "Ġcan",
        -1.0
      ],
      [
        "|",
        -1.0
      ],
      [
        "]",
        -1.0
      ],
      [
        ")",
        -1.0
      ],
      [
        "Ġcentury",
        -1.0
      ],
      [
        "¤",
        -1.0
      ],
      [
        "ŀ",
        -1.0
      ],
      [
        "bu",
        -1.0
      ],
      [
        "¯",
        -1.0
      ],
      [
        "ĠI",
        -1.0
      ],
      [
        "ll",
        -1.0
      ],
      [
        "00",
        -1.0
      ],
      [
        "ĳ",
        -1.0
      ],
      [
        "si",
        -1.0
      ],
      [
        "K",
        -1.0
      ],
      [
        "Ø",
        -1.0
      ],
      [
        "ck",
        -1.0
      ],
      [
        "br",
        -1.0
      ],
      [
        "ast",
        -1.0
      ],
      [
        "Ġlong",
        -1.0
      ],
      [
        "Ġn",
        -1.0
      ],
      [
        "ins",
        -1.0
      ],
      [
        "N",
        -1.0
      ],
      [
        "â",
        -1.0
      ],
      [
        "Ġw",
        -1.0
      ],
      [
        "ved",
        -1.0
      ],
      [
        "mp",
        -1.0
      ],
      [
        "ue",
        -1.0
      ],
      [
        "Ġgl",
        -1.0
      ],
      [
        "+",
        -1.0
      ],
      [
        "Ġna",
        -1.0
      ],
      [
        "Ġeach",
        -1.0
      ],
      [
        "Ġenergy",
        -1.0
      ],
      [
        "ĠSe",
        -1.0
      ],
      [
        "og",
        -1.0
      ],
      [
        "Ġe",
        -1.0
      ],
      [
        "iv",
        -1.0
      ],
      [
        "Æ",
        -1.0
      ],
      [
        "Ġup",
        -1.0
      ],
      [
        "ow",
        -1.0
      ],
      [
        "art",
        -1.0
      ],
      [
        "ess",
        -1.0
      ],
      [
        "yc",
        -1.0
      ],
      [
        "ted",
        -1.0
      ],
      [
        "us",
        -1.0
      ],
      [
        "au",
        -1.0
      ],
      [
        "ou",
        -1.0
      ],
      [
        "¬",
        -1.0
      ],
      [
        "Ġmade",
        -1.0
      ],
      [
        "ge",
        -1.0
      ],
      [
        "ĠLa",
        -1.0
      ],
      [
        "Ġmost",
        -1.0
      ],
      [
        ":",
        -1.0
      ],
      [
        "^",
        -1.0
      ],
      [
        "Ġare",
        -1.0
      ],
      [
        "z",
        -1.0
      ],
      [
        "ie",
        -1.0
      ],
      [
        "Ġbe",
        -1.0
      ],
      [
        "mb",
        -1.0
      ],
      [
        "Ĭ",
        -1.0
      ],
      [
        "A",
        -1.0
      ],
      [
        "Ġcontrol",
        -1.0
      ],
      [
        "[MASK]",
        -1.0
      ],
      [
        "W",
        -1.0
      ],
      [
        "Ġtrans",
        -1.0
      ],
      [
        "Ġeven",
        -1.0
      ],
      [
        "Ġex",
        -1.0
      ],
      [
        "Ġg",
        -1.0
      ],
      [
        "ew",
        -1.0
      ],
      [
        "Ġsp",
        -1.0
      ],
      [
        "Ġespecially",
        -1.0
      ],
      [
        "V",
        -1.0
      ],
      [
        "ks",
        -1.0
      ],
      [
        "[UNK]",
        -1.0
      ],
      [
        "ĠSh",
        -1.0
      ],
      [
        "ĠHe",
        -1.0
      ],
      [
        "Ġinter",
        -1.0
      ],
      [
        "Ú",
        -1.0
      ],
      [
        "Ġindividual",
        -1.0
      ],
      [
        "Ġpublished",
        -1.0
      ],
      [
        "Ġcancer",
        -1.0
      ],
      [
        "!",
        -1.0
      ],
      [
        "ree",
        -1.0
      ],
      [
        "S",
        -1.0
      ],
      [
        "ĠHo",
        -1.0
      ],
      [
        "ated",
        -1.0
      ],
      [
        "Ġno",
        -1.0
      ],
      [
        "Ġse",
        -1.0
      ],
      [
        "Ġle",
        -1.0
      ],
      [
        "[PAD]",
        -1.0
      ],
      [
        "Ó",
        -1.0
      ],
      [
        "Ġcause",
        -1.0
      ],
      [
        "ķ",
        -1.0
      ],
      [
        "oy",
        -1.0
      ],
      [
        "sk",
        -1.0
      ],
      [
        "go",
        -1.0
      ],
      [
        "ize",
        -1.0
      ],
      [
        "ub",
        -1.0
      ],
      [
        "Ġne",
        -1.0
      ],
      [
        "oi",
        -1.0
      ],
      [
        "ds",
        -1.0
      ],
      [
        "g",
        -1.0
      ],
      [
        "ĠG",
        -1.0
      ],
      [
        "Ġif",
        -1.0
      ],
      [
        "Ġstudy",
        -1.0
      ],
      [
        "Ġbi",
        -1.0
      ],
      [
        "in",
        -1.0
      ],
      [
        "and",
        -1.0
      ],
      [
        "Ġwhat",
        -1.0
      ],
      [
        "Ġcre",
        -1.0
      ],
      [
        "ł",
        -1.0
      ],
      [
        "ses",
        -1.0
      ],
      [
        "Ġta",
        -1.0
      ],
      [
        "ĠK",
        -1.0
      ],
      [
        "Ġhe",
        -1.0
      ],
      [
        "cc",
        -1.0
      ],
      [
        "lu",
        -1.0
      ],
      [
        "Ķ",
        -1.0
      ],
      [
        "ĠCom",
        -1.0
      ],
      [
        "Ġpotential",
        -1.0
      ],
      [
        "ia",
        -1.0
      ],
      [
        "Ġincluding",
        -1.0
      ],
      [
        "ns",
        -1.0
      ],
      [
        "¥",
        -1.0
      ],
      [
        "Ġused",
        -1.0
      ],
      [
        "Ġmethod",
        -1.0
      ],
      [
        "Ġlea",
        -1.0
      ],
      [
        "ef",
        -1.0
      ],
      [
        "Ġmon",
        -1.0
      ],
      [
        "ture",
        -1.0
      ],
      [
        "ĠSt",
        -1.0
      ],
      [
        "Ġag",
        -1.0
      ],
      [
        "è",
        -1.0
      ],
      [
        "dy",
        -1.0
      ],
      [
        "¼",
        -1.0
      ],
      [
        "Ġwould",
        -1.0
      ],
      [
        "bs",
        -1.0
      ],
      [
        "ĠH",
        -1.0
      ],
      [
        "ģ",
        -1.0
      ],
      [
        "tu",
        -1.0
      ],
      [
        "ĠC",
        -1.0
      ],
      [
        "Ġ\"",
        -1.0
      ],
      [
        "Ġbecome",
        -1.0
      ],
      [
        "dr",
        -1.0
      ],
      [
        "li",
        -1.0
      ],
      [
        "ĠYo",
        -1.0
      ],
      [
        "I",
        -1.0
      ],
      [
        "Ġro",
        -1.0
      ],
      [
        "oc",
        -1.0
      ],
      [
        "ĠThe",
        -1.0
      ],
      [
        ").",
        -1.0
      ],
      [
        "²",
        -1.0
      ],
      [
        "ology",
        -1.0
      ],
      [
        "tions",
        -1.0
      ],
      [
        "wi",
        -1.0
      ],
      [
        "ĠSp",
        -1.0
      ],
      [
        "&",
        -1.0
      ],
      [
        "ĠA",
        -1.0
      ],
      [
        "Ł",
        -1.0
      ],
      [
        "ly",
        -1.0
      ],
      [
        "ĠUniversity",
        -1.0
      ],
      [
        "Ġbl",
        -1.0
      ],
      [
        "ions",
        -1.0
      ],
      [
        "gi",
        -1.0
      ],
      [
        "*",
        -1.0
      ],
      [
        "Ġhelp",
        -1.0
      ],
      [
        "Ġworld",
        -1.0
      ],
      [
        "h",
        -1.0
      ],
      [
        "s",
        -1.0
      ],
      [
        "ter",
        -1.0
      ],
      [
        "Ġpopulation",
        -1.0
      ],
      [
        "Ġboth",
        -1.0
      ],
      [
        "ĠâĢľ",
        -1.0
      ],
      [
        "ĠPr",
        -1.0
      ],
      [
        "Ġyour",
        -1.0
      ],
      [
        "å",
        -1.0
      ],
      [
        "sis",
        -1.0
      ],
      [
        "Ġchange",
        -1.0
      ],
      [
        "·",
        -1.0
      ],
      [
        "Ġprovide",
        -1.0
      ],
      [
        "[CLS]",
        -1.0
      ],
      [
        "pt",
        -1.0
      ],
      [
        "X",
        -1.0
      ],
      [
        "ve",
        -1.0
      ],
      [
        "Ġout",
        -1.0
      ],
      [
        "tt",
        -1.0
      ],
      [
        "Ġ199",
        -1.0
      ],
      [
        "Ġen",
        -1.0
      ],
      [
        "Ð",
        -1.0
      ],
      [
        "ome",
        -1.0
      ],
      [
        "Ġthis",
        -1.0
      ],
      [
        "Ġuntil",
        -1.0
      ],
      [
        "co",
        -1.0
      ],
      [
        "Ġinto",
        -1.0
      ],
      [
        "º",
        -1.0
      ],
      [
        "Ġthen",
        -1.0
      ],
      [
        "a",
        -1.0
      ],
      [
        "Ġpr",
        -1.0
      ],
      [
        "ĠEurope",
        -1.0
      ],
      [
        "Ġdoes",
        -1.0
      ],
      [
        "vo",
        -1.0
      ],
      [
        "ed",
        -1.0
      ],
      [
        ";",
        -1.0
      ],
      [
        "Ġun",
        -1.0
      ],
      [
        "Ġma",
        -1.0
      ],
      [
        "ī",
        -1.0
      ],
      [
        "Å",
        -1.0
      ],
      [
        "ni",
        -1.0
      ],
      [
        "ving",
        -1.0
      ],
      [
        "C",
        -1.0
      ],
      [
        "ĠCh",
        -1.0
      ],
      [
        "Ġjust",
        -1.0
      ],
      [
        "ĠFor",
        -1.0
      ],
      [
        "Ġte",
        -1.0
      ],
      [
        "ces",
        -1.0
      ],
      [
        "Ġpla",
        -1.0
      ],
      [
        "Ġus",
        -1.0
      ],
      [
        "Ġc",
        -1.0
      ],
      [
        "dd",
        -1.0
      ],
      [
        "ten",
        -1.0
      ],
      [
        "tive",
        -1.0
      ],
      [
        "w",
        -1.0
      ],
      [
        "ĠIt",
        -1.0
      ],
      [
        "In",
        -1.0
      ],
      [
        "ized",
        -1.0
      ],
      [
        "ical",
        -1.0
      ],
      [
        "Ġshould",
        -1.0
      ],
      [
        "Ġtheir",
        -1.0
      ],
      [
        "Ġco",
        -1.0
      ],
      [
        "Ġdi",
        -1.0
      ],
      [
        "ot",
        -1.0
      ],
      [
        "ries",
        -1.0
      ],
      [
        "Ġla",
        -1.0
      ],
      [
        "ent",
        -1.0
      ],
      [
        "Ġparticular",
        -1.0
      ],
      [
        "nes",
        -1.0
      ],
      [
        "Ĺ",
        -1.0
      ],
      [
        "Ġfu",
        -1.0
      ],
      [
        "sion",
        -1.0
      ],
      [
        "Ġmore",
        -1.0
      ],
      [
        "L",
        -1.0
      ],
      [
        "ors",
        -1.0
      ],
      [
        "tion",
        -1.0
      ],
      [
        "ĠRe",
        -1.0
      ],
      [
        "Ġthose",
        -1.0
      ],
      [
        "st",
        -1.0
      ],
      [
        "lf",
        -1.0
      ],
      [
        "ĠTh",
        -1.0
      ],
      [
        "source",
        -1.0
      ],
      [
        "ĠRo",
        -1.0
      ],
      [
        "~",
        -1.0
      ],
      [
        "E",
        -1.0
      ],
      [
        "ch",
        -1.0
      ],
      [
        "nk",
        -1.0
      ],
      [
        "Ġfirst",
        -1.0
      ],
      [
        "ates",
        -1.0
      ],
      [
        "Ġsecond",
        -1.0
      ],
      [
        "ĠCo",
        -1.0
      ],
      [
        "Ġwe",
        -1.0
      ],
      [
        "ers",
        -1.0
      ],
      [
        "Ġob",
        -1.0
      ],
      [
        "ib",
        -1.0
      ],
      [
        "sa",
        -1.0
      ],
      [
        "Ġbetween",
        -1.0
      ],
      [
        "rd",
        -1.0
      ],
      [
        "Ġmay",
        -1.0
      ],
      [
        "Ġconsider",
        -1.0
      ],
      [
        "n",
        -1.0
      ],
      [
        "Ġear",
        -1.0
      ],
      [
        "u",
        -1.0
      ],
      [
        ".,",
        -1.0
      ],
      [
        "4",
        -1.0
      ],
      [
        "Ġper",
        -1.0
      ],
      [
        "am",
        -1.0
      ],
      [
        "ide",
        -1.0
      ],
      [
        "Ġan",
        -1.0
      ],
      [
        "ea",
        -1.0
      ],
      [
        "ev",
        -1.0
      ],
      [
        "ded",
        -1.0
      ],
      [
        "Ġpl",
        -1.0
      ],
      [
        "p",
        -1.0
      ],
      [
        "į",
        -1.0
      ],
      [
        "Ġqu",
        -1.0
      ],
      [
        "j",
        -1.0
      ],
      [
        "Ġwho",
        -1.0
      ],
      [
        "ations",
        -1.0
      ],
      [
        "Ġ3",
        -1.0
      ],
      [
        "Ġmaterial",
        -1.0
      ],
      [
        "¡",
        -1.0
      ],
      [
        "ick",
        -1.0
      ],
      [
        "Ġabout",
        -1.0
      ],
      [
        "mm",
        -1.0
      ],
      [
        "The",
        -1.0
      ],
      [
        "ous",
        -1.0
      ],
      [
        "Ġsymptoms",
        -1.0
      ],
      [
        "af",
        -1.0
      ],
      [
        "Ġdescrib",
        -1.0
      ],
      [
        "9",
        -1.0
      ],
      [
        "Ĥ",
        -1.0
      ],
      [
        "ally",
        -1.0
      ],
      [
        "Ġth",
        -1.0
      ],
      [
        "¢",
        -1.0
      ],
      [
        "Ġcl",
        -1.0
      ],
      [
        "ive",
        -1.0
      ],
      [
        "Ġher",
        -1.0
      ],
      [
        "be",
        -1.0
      ],
      [
        "eld",
        -1.0
      ],
      [
        "ĠBa",
        -1.0
      ],
      [
        "Ġb",
        -1.0
      ],
      [
        "ary",
        -1.0
      ],
      [
        "il",
        -1.0
      ],
      [
        "`",
        -1.0
      ],
      [
        "Ġorigin",
        -1.0
      ],
      [
        "op",
        -1.0
      ],
      [
        "-",
        -1.0
      ],
      [
        "it",
        -1.0
      ],
      [
        "ative",
        -1.0
      ],
      [
        "Ġspec",
        -1.0
      ],
      [
        "les",
        -1.0
      ],
      [
        "Ġsa",
        -1.0
      ],
      [
        "¶",
        -1.0
      ],
      [
        "ike",
        -1.0
      ],
      [
        "y",
        -1.0
      ],
      [
        "»",
        -1.0
      ],
      [
        ",\"",
        -1.0
      ],
      [
        "±",
        -1.0
      ],
      [
        "Ġt",
        -1.0
      ],
      [
        "ac",
        -1.0
      ],
      [
        "eb",
        -1.0
      ],
      [
        "Ġp",
        -1.0
      ],
      [
        "Ī",
        -1.0
      ],
      [
        "man",
        -1.0
      ],
      [
        "Ġwomen",
        -1.0
      ],
      [
        "ol",
        -1.0
      ],
      [
        "bility",
        -1.0
      ],
      [
        "min",
        -1.0
      ],
      [
        "Ġfrom",
        -1.0
      ],
      [
        "0",
        -1.0
      ],
      [
        "Ġlarge",
        -1.0
      ],
      [
        "Ġas",
        -1.0
      ],
      [
        "Ġany",
        -1.0
      ],
      [
        "ence",
        -1.0
      ],
      [
        "Ġam",
        -1.0
      ],
      [
        "Ġback",
        -1.0
      ],
      [
        "ce",
        -1.0
      ],
      [
        "m",
        -1.0
      ],
      [
        "ĠSo",
        -1.0
      ],
      [
        "ment",
        -1.0
      ],
      [
        "wa",
        -1.0
      ],
      [
        "ag",
        -1.0
      ],
      [
        "ud",
        -1.0
      ],
      [
        "b",
        -1.0
      ],
      [
        "Ġdis",
        -1.0
      ],
      [
        "sh",
        -1.0
      ],
      [
        "ning",
        -1.0
      ],
      [
        "Ġtake",
        -1.0
      ],
      [
        "®",
        -1.0
      ],
      [
        "ish",
        -1.0
      ],
      [
        "ace",
        -1.0
      ],
      [
        "ness",
        -1.0
      ],
      [
        "tic",
        -1.0
      ],
      [
        "Ġra",
        -1.0
      ],
      [
        "so",
        -1.0
      ],
      [
        "_",
        -1.0
      ],
      [
        "Ġga",
        -1.0
      ],
      [
        "v",
        -1.0
      ],
      [
        "ing",
        -1.0
      ],
      [
        "Ġdisease",
        -1.0
      ],
      [
        "Ġvi",
        -1.0
      ],
      [
        "Ġcar",
        -1.0
      ],
      [
        "Ġba",
        -1.0
      ],
      [
        "Ġknow",
        -1.0
      ],
      [
        "ĺ",
        -1.0
      ],
      [
        "fi",
        -1.0
      ],
      [
        "ood",
        -1.0
      ],
      [
        "age",
        -1.0
      ],
      [
        "po",
        -1.0
      ],
      [
        "Ġr",
        -1.0
      ],
      [
        "ª",
        -1.0
      ],
      [
        "Ġstate",
        -1.0
      ],
      [
        "Ġrec",
        -1.0
      ],
      [
        "eo",
        -1.0
      ],
      [
        "o",
        -1.0
      ],
      [
        "Ĳ",
        -1.0
      ],
      [
        "Ġsmall",
        -1.0
      ],
      [
        "B",
        -1.0
      ],
      [
        "âĢĶ",
        -1.0
      ],
      [
        "ach",
        -1.0
      ],
      [
        "va",
        -1.0
      ],
      [
        "P",
        -1.0
      ],
      [
        "ë",
        -1.0
      ],
      [
        "Ġwith",
        -1.0
      ],
      [
        "Ġcr",
        -1.0
      ],
      [
        "um",
        -1.0
      ],
      [
        "rb",
        -1.0
      ],
      [
        "Ġhim",
        -1.0
      ],
      [
        "me",
        -1.0
      ],
      [
        "µ",
        -1.0
      ],
      [
        "our",
        -1.0
      ],
      [
        "se",
        -1.0
      ],
      [
        "¿",
        -1.0
      ],
      [
        "ate",
        -1.0
      ],
      [
        "sts",
        -1.0
      ],
      [
        "pp",
        -1.0
      ],
      [
        "ments",
        -1.0
      ],
      [
        "ose",
        -1.0
      ],
      [
        "Q",
        -1.0
      ],
      [
        "«",
        -1.0
      ],
      [
        "Ġwell",
        -1.0
      ],
      [
        "ĠR",
        -1.0
      ],
      [
        "ul",
        -1.0
      ],
      [
        "ah",
        -1.0
      ],
      [
        "O",
        -1.0
      ],
      [
        "F",
        -1.0
      ],
      [
        "qu",
        -1.0
      ],
      [
        "sp",
        -1.0
      ],
      [
        "ui",
        -1.0
      ],
      [
        "if",
        -1.0
      ],
      [
        "G",
        -1.0
      ],
      [
        "ĠCa",
        -1.0
      ],
      [
        "Ġfo",
        -1.0
      ],
      [
        "tor",
        -1.0
      ],
      [
        "Ġad",
        -1.0
      ],
      [
        "du",
        -1.0
      ],
      [
        "\"",
        -1.0
      ],
      [
        "on",
        -1.0
      ],
      [
        "Ġafter",
        -1.0
      ],
      [
        "ĠJohn",
        -1.0
      ],
      [
        "ä",
        -1.0
      ],
      [
        "rg",
        -1.0
      ],
      [
        "ĠNo",
        -1.0
      ],
      [
        "q",
        -1.0
      ],
      [
        "Ġdo",
        -1.0
      ],
      [
        "ur",
        -1.0
      ],
      [
        "tch",
        -1.0
      ],
      [
        "Ļ",
        -1.0
      ],
      [
        "Ġit",
        -1.0
      ],
      [
        "||",
        -1.0
      ],
      [
        "Ġde",
        -1.0
      ],
      [
        "ĠAr",
        -1.0
      ],
      [
        "l",
        -1.0
      ],
      [
        "aw",
        -1.0
      ],
      [
        "ak",
        -1.0
      ],
      [
        "tes",
        -1.0
      ],
      [
        "Ġat",
        -1.0
      ],
      [
        "Ġwhere",
        -1.0
      ],
      [
        "bo",
        -1.0
      ],
      [
        "k",
        -1.0
      ],
      [
        "uc",
        -1.0
      ],
      [
        "th",
        -1.0
      ],
      [
        "Ġ",
        -1.0
      ],
      [
        "Ġto",
        -1.0
      ],
      [
        "ise",
        -1.0
      ],
      [
        "Ċ",
        -1.0
      ],
      [
        "Ġj",
        -1.0
      ],
      [
        "are",
        -1.0
      ],
      [
        "ei",
        -1.0
      ],
      [
        "Ġapp",
        -1.0
      ],
      [
        "ĠM",
        -1.0
      ],
      [
        "Ġso",
        -1.0
      ],
      [
        "out",
        -1.0
      ],
      [
        "ne",
        -1.0
      ],
      [
        "Ġsignificant",
        -1.0
      ],
      [
        "ain",
        -1.0
      ],
      [
        "Ġsub",
        -1.0
      ],
      [
        "ig",
        -1.0
      ],
      [
        "ĠD",
        -1.0
      ],
      [
        "?",
        -1.0
      ],
      [
        "ba",
        -1.0
      ],
      [
        "Ġri",
        -1.0
      ],
      [
        "cial",
        -1.0
      ],
      [
        "ã",
        -1.0
      ],
      [
        "Ġ19",
        -1.0
      ],
      [
        "ho",
        -1.0
      ],
      [
        "Ġthan",
        -1.0
      ],
      [
        "Ġmany",
        -1.0
      ],
      [
        "ı",
        -1.0
      ],
      [
        "ĠWe",
        -1.0
      ],
      [
        "ga",
        -1.0
      ],
      [
        "ca",
        -1.0
      ],
      [
        "Ò",
        -1.0
      ],
      [
        "other",
        -1.0
      ],
      [
        "ory",
        -1.0
      ],
      [
        "ĠPro",
        -1.0
      ],
      [
        "ĠUnited",
        -1.0
      ],
      [
        "ism",
        -1.0
      ],
      [
        "ference",
        -1.0
      ],
      [
        "Ġmajor",
        -1.0
      ],
      [
        "Ġpart",
        -1.0
      ],
      [
        "¨",
        -1.0
      ],
      [
        "Ġlife",
        -1.0
      ],
      [
        "ance",
        -1.0
      ],
      [
        "un",
        -1.0
      ],
      [
        "Ġac",
        -1.0
      ],
      [
        "yp",
        -1.0
      ],
      [
        "Ġsee",
        -1.0
      ],
      [
        "ĸ",
        -1.0
      ],
      [
        "Ġthese",
        -1.0
      ],
      [
        "ity",
        -1.0
      ],
      [
        "os",
        -1.0
      ],
      [
        "ĠNew",
        -1.0
      ],
      [
        "Ģ",
        -1.0
      ],
      [
        "i",
        -1.0
      ],
      [
        "ļ",
        -1.0
      ],
      [
        "Ġreg",
        -1.0
      ],
      [
        "ld",
        -1.0
      ],
      [
        "cl",
        -1.0
      ],
      [
        "ling",
        -1.0
      ],
      [
        "Ġcertain",
        -1.0
      ],
      [
        "ort",
        -1.0
      ],
      [
        "Ġha",
        -1.0
      ],
      [
        "oa",
        -1.0
      ],
      [
        "Ġv",
        -1.0
      ],
      [
        "Ġk",
        -1.0
      ],
      [
        "Ġor",
        -1.0
      ],
      [
        "al",
        -1.0
      ],
      [
        "Ġpublic",
        -1.0
      ],
      [
        "ov",
        -1.0
      ],
      [
        "U",
        -1.0
      ],
      [
        "able",
        -1.0
      ],
      [
        "Ġme",
        -1.0
      ],
      [
        "Ġimp",
        -1.0
      ],
      [
        "Ġnot",
        -1.0
      ],
      [
        "nce",
        -1.0
      ],
      [
        "Ġprogram",
        -1.0
      ],
      [
        "ile",
        -1.0
      ],
      [
        "Ġelectr",
        -1.0
      ],
      [
        "Ġtechn",
        -1.0
      ],
      [
        "ru",
        -1.0
      ],
      [
        "als",
        -1.0
      ],
      [
        "Ġrequire",
        -1.0
      ],
      [
        "8",
        -1.0
      ],
      [
        "Į",
        -1.0
      ],
      [
        "Ġall",
        -1.0
      ],
      [
        "ject",
        -1.0
      ],
      [
        "per",
        -1.0
      ],
      [
        "ĠDe",
        -1.0
      ],
      [
        "Ġavailable",
        -1.0
      ],
      [
        "Ġsaid",
        -1.0
      ],
      [
        "he",
        -1.0
      ],
      [
        "Û",
        -1.0
      ],
      [
        "su",
        -1.0
      ],
      [
        "á",
        -1.0
      ],
      [
        "Ġgreat",
        -1.0
      ],
      [
        "Ġneed",
        -1.0
      ],
      [
        "Ľ",
        -1.0
      ],
      [
        "Ġsc",
        -1.0
      ],
      [
        "=",
        -1.0
      ],
      [
        "Ö",
        -1.0
      ],
      [
        "ph",
        -1.0
      ],
      [
        "sy",
        -1.0
      ],
      [
        "tr",
        -1.0
      ],
      [
        "ens",
        -1.0
      ],
      [
        "Ġi",
        -1.0
      ],
      [
        "'s",
        -1.0
      ],
      [
        "Ġrel",
        -1.0
      ],
      [
        "Ġauthor",
        -1.0
      ],
      [
        "Ġmo",
        -1.0
      ],
      [
        "ill",
        -1.0
      ],
      [
        "is",
        -1.0
      ],
      [
        "Ã",
        -1.0
      ],
      [
        "Ä",
        -1.0
      ],
      [
        "Ġcount",
        -1.0
      ],
      [
        "Ġhow",
        -1.0
      ],
      [
        "Ġlo",
        -1.0
      ],
      [
        "ci",
        -1.0
      ],
      [
        "ri",
        -1.0
      ],
      [
        "ies",
        -1.0
      ],
      [
        "Ġtreat",
        -1.0
      ],
      [
        "ip",
        -1.0
      ],
      [
        "Ġexample",
        -1.0
      ],
      [
        "Ġeducation",
        -1.0
      ],
      [
        "one",
        -1.0
      ],
      [
        "ĭ",
        -1.0
      ],
      [
        "ost",
        -1.0
      ],
      [
        "Ġsame",
        -1.0
      ],
      [
        "Ġdirect",
        -1.0
      ],
      [
        "[",
        -1.0
      ],
      [
        "hi",
        -1.0
      ],
      [
        "âĢĿ",
        -1.0
      ],
      [
        "Ġprocess",
        -1.0
      ],
      [
        "à",
        -1.0
      ],
      [
        "Ġthrough",
        -1.0
      ],
      [
        "tter",
        -1.0
      ],
      [
        "ong",
        -1.0
      ],
      [
        "Ġl",
        -1.0
      ],
      [
        "ack",
        -1.0
      ],
      [
        "ĠCon",
        -1.0
      ],
      [
        "Ġcalled",
        -1.0
      ],
      [
        "¦",
        -1.0
      ],
      [
        "ĠPa",
        -1.0
      ],
      [
        "ĠHa",
        -1.0
      ],
      [
        "Ġin",
        -1.0
      ],
      [
        "nds",
        -1.0
      ],
      [
        "cent",
        -1.0
      ],
      [
        "Ġar",
        -1.0
      ],
      [
        "te",
        -1.0
      ],
      [
        "led",
        -1.0
      ],
      [
        "é",
        -1.0
      ],
      [
        "Ġyou",
        -1.0
      ],
      [
        "Ġdifficult",
        -1.0
      ],
      [
        "of",
        -1.0
      ],
      [
        "Ġsh",
        -1.0
      ],
      [
        "lli",
        -1.0
      ],
      [
        "¹",
        -1.0
      ],
      [
        "Ġwhich",
        -1.0
      ],
      [
        "ob",
        -1.0
      ],
      [
        "Ġevery",
        -1.0
      ],
      [
        "Ġtwo",
        -1.0
      ],
      [
        "Ù",
        -1.0
      ],
      [
        "ĠO",
        -1.0
      ],
      [
        "Ġhealth",
        -1.0
      ],
      [
        "ey",
        -1.0
      ],
      [
        "ore",
        -1.0
      ],
      [
        "Ġbeing",
        -1.0
      ],
      [
        "Ġfamil",
        -1.0
      ],
      [
        "ma",
        -1.0
      ],
      [
        "Ġa",
        -1.0
      ],
      [
        "Ġnumber",
        -1.0
      ],
      [
        "ĠMo",
        -1.0
      ],
      [
        "ĠN",
        -1.0
      ],
      [
        "ist",
        -1.0
      ],
      [
        "Ġmi",
        -1.0
      ],
      [
        "Ġimportant",
        -1.0
      ],
      [
        "Ġby",
        -1.0
      ],
      [
        "ating",
        -1.0
      ],
      [
        "Ġfe",
        -1.0
      ],
      [
        "ee",
        -1.0
      ],
      [
        "$",
        -1.0
      ],
      [
        "Ġperson",
        -1.0
      ],
      [
        "an",
        -1.0
      ],
      [
        "ĠT",
        -1.0
      ],
      [
        "Ġcharacter",
        -1.0
      ],
      [
        "od",
        -1.0
      ],
      [
        "ic",
        -1.0
      ],
      [
        "\\",
        -1.0
      ],
      [
        "}",
        -1.0
      ],
      [
        "©",
        -1.0
      ],
      [
        "Ġlike",
        -1.0
      ],
      [
        "Ġsome",
        -1.0
      ],
      [
        "Ġmake",
        -1.0
      ],
      [
        "ans",
        -1.0
      ],
      [
        "ists",
        -1.0
      ],
      [
        "Y",
        -1.0
      ],
      [
        "Ġget",
        -1.0
      ],
      [
        "ms",
        -1.0
      ],
      [
        "t",
        -1.0
      ],
      [
        "thing",
        -1.0
      ],
      [
        "°",
        -1.0
      ],
      [
        "ver",
        -1.0
      ],
      [
        "Ġstudents",
        -1.0
      ],
      [
        "Ġis",
        -1.0
      ],
      [
        "Ġpower",
        -1.0
      ],
      [
        "ĠThis",
        -1.0
      ],
      [
        "as",
        -1.0
      ],
      [
        "Ġind",
        -1.0
      ],
      [
        "Ġfor",
        -1.0
      ],
      [
        "ĠTo",
        -1.0
      ],
      [
        "ities",
        -1.0
      ],
      [
        "É",
        -1.0
      ],
      [
        "ell",
        -1.0
      ],
      [
        "ough",
        -1.0
      ],
      [
        "ven",
        -1.0
      ],
      [
        "ĠB",
        -1.0
      ],
      [
        "ight",
        -1.0
      ],
      [
        "Ġof",
        -1.0
      ],
      [
        "Ġf",
        -1.0
      ],
      [
        "Ġfi",
        -1.0
      ],
      [
        "Ġhad",
        -1.0
      ],
      [
        "...",
        -1.0
      ],
      [
        "ord",
        -1.0
      ],
      [
        "rs",
        -1.0
      ],
      [
        "Ġpro",
        -1.0
      ],
      [
        "graph",
        -1.0
      ],
      [
        "ious",
        -1.0
      ]
    ],
    "byte_fallback": false
  }
}