{
  "version": "1.0",
  "truncation": null,
  "padding": null,
  "added_tokens": [
    {
      "id": 0,
      "content": "<|bos|>",
      "single_word": false,
      "lstrip": false,
      "rstrip": false,
      "normalized": false,
      "special": true
    },
    {
      "id": 1,
      "content": "<|user_start|>",
      "single_word": false,
      "lstrip": false,
      "rstrip": false,
      "normalized": false,
      "special": true
    },
    {
      "id": 2,
      "content": "<|user_end|>",
      "single_word": false,
      "lstrip": false,
      "rstrip": false,
      "normalized": false,
      "special": true
    },
    {
      "id": 3,
      "content": "<|assistant_start|>",
      "single_word": false,
      "lstrip": false,
      "rstrip": false,
      "normalized": false,
      "special": true
    },
    {
      "id": 4,
      "content": "<|assistant_end|>",
      "single_word": false,
      "lstrip": false,
      "rstrip": false,
      "normalized": false,
      "special": true
    },
    {
      "id": 5,
      "content": "<|python_start|>",
      "single_word": false,
      "lstrip": false,
      "rstrip": false,
      "normalized": false,
      "special": true
    },
    {
      "id": 6,
      "content": "<|python_end|>",
      "single_word": false,
      "lstrip": false,
      "rstrip": false,
      "normalized": false,
      "special": true
    },
    {
      "id": 7,
      "content": "<|output_start|>",
      "single_word": false,
      "lstrip": false,
      "rstrip": false,
      "normalized": false,
      "special": true
    },
    {
      "id": 8,
      "content": "<|output_end|>",
      "single_word": false,
      "lstrip": false,
      "rstrip": false,
      "normalized": false,
      "special": true
    },
    {
      "id": 9,
      "content": "<|unk|>",
      "single_word": false,
      "lstrip": false,
      "rstrip": false,
      "normalized": false,
      "special": true
    }
  ],
  "normalizer": null,
  "pre_tokenizer": {
    "type": "Sequence",
    "pretokenizers": [
      {
        "type": "Split",
        "pattern": {
          "Regex": "'(?i:[sdmt]|ll|ve|re)|[^\\r\\n\\p{L}\\p{N}]?+\\p{L}+|\\p{N}{1,2}| ?[^\\s\\p{L}\\p{N}]++[\\r\\n]*|\\s*[\\r\\n]|\\s+(?!\\S)|\\s+"
        },
        "behavior": "Isolated",
        "invert": false
      },
      {
        "type": "ByteLevel",
        "add_prefix_space": false,
        "trim_offsets": true,
        "use_regex": false
      }
    ]
  },
  "post_processor": {
    "type": "TemplateProcessing",
    "single": [
      {
        "Sequence": {
          "id": "A",
          "type_id": 0
        }
      }
    ],
    "pair": [
      {
        "Sequence": {
          "id": "A",
          "type_id": 0
        }
      },
      {
        "Sequence": {
          "id": "B",
          "type_id": 1
        }
      }
    ],
    "special_tokens": {}
  },
  "decoder": null,
  "model": {
    "type": "Unigram",
    "unk_id": 9,
    "vocab": [
      [
        "<|bos|>",
        0.0
      ],
      [
        "<|user_start|>",
        0.0
      ],
      [
        "<|user_end|>",
        0.0
      ],
      [
        "<|assistant_start|>",
        0.0
      ],
      [
        "<|assistant_end|>",
        0.0
      ],
      [
        "<|python_start|>",
        0.0
      ],
      [
        "<|python_end|>",
        0.0
      ],
      [
        "<|output_start|>",
        0.0
      ],
      [
        "<|output_end|>",
        0.0
      ],
      [
        "<|unk|>",
        0.0
      ],
      [
        "s",
        -2.9928901220881095
      ],
      [
        "Ġthe",
        -3.4001016526244427
      ],
      [
        "Ġ",
        -3.4206799134138617
      ],
      [
        ",",
        -3.455954103336836
      ],
      [
        ".",
        -3.7307679792379513
      ],
      [
        "Ġand",
        -3.9351815901068505
      ],
      [
        "Ġof",
        -3.9854733151513777
      ],
      [
        "Ġto",
        -3.986307161473057
      ],
      [
        "Ġa",
        -4.201901088375035
      ],
      [
        "ing",
        -4.307197645119768
      ],
      [
        "Ġin",
        -4.483135853820011
      ],
      [
        "Ġis",
        -4.616083753346951
      ],
      [
        "d",
        -4.781312555414024
      ],
      [
        "y",
        -4.879974291051717
      ],
      [
        "ed",
        -4.882811493058188
      ],
      [
        "'",
        -4.929502449160893
      ],
      [
        "0",
        -5.009697188009756
      ],
      [
        "Ġthat",
        -5.032401347305592
      ],
      [
        "ly",
        -5.034902501772507
      ],
      [
        "Ġfor",
        -5.046833119264626
      ],
      [
        "Ċ",
        -5.15292870840711
      ],
      [
        "1",
        -5.184664614241981
      ],
      [
        ":",
        -5.219249828023457
      ],
      [
        "e",
        -5.239837208662735
      ],
      [
        "Ġare",
        -5.2404760013735885
      ],
      [
        "Ġwith",
        -5.281285977744796
      ],
      [
        ".Ċ",
        -5.2979599602500596
      ],
      [
        "Ġbe",
        -5.312973967034761
      ],
      [
        "Ġyou",
        -5.330640408618125
      ],
      [
        ".ĊĊ",
        -5.339551004162093
      ],
      [
        "Ġit",
        -5.3535012140485865
      ],
      [
        "2",
        -5.408944208682501
      ],
      [
        "Ġor",
        -5.511405452604393
      ],
      [
        "Ġcan",
        -5.525546435289579
      ],
      [
        "t",
        -5.529434036645561
      ],
      [
        "ĊĊ",
        -5.552914293562933
      ],
      [
        "Ġon",
        -5.564142946796535
      ],
      [
        "Ġas",
        -5.648751370022751
      ],
      [
        "Ġyour",
        -5.662650657411289
      ],
      [
        "-",
        -5.689714530431782
      ],
      [
        "Ġ(",
        -5.773976312449891
      ],
      [
        "\"",
        -5.86171421262933
      ],
      [
        "Ġfrom",
        -5.874367483978856
      ],
      [
        "Ġhave",
        -5.8825478837480265
      ],
      [
        "a",
        -5.884357018566503
      ],
      [
        "ĠThe",
        -5.887099520916111
      ],
      [
        "Ġby",
        -5.963098575293898
      ],
      [
        "?",
        -5.963555817687487
      ],
      [
        ")",
        -6.015438065451498
      ],
      [
        "ĠI",
        -6.029819571149032
      ],
      [
        "Ġan",
        -6.03146367362973
      ],
      [
        "3",
        -6.06829792480678
      ],
      [
        "Ġthis",
        -6.073213077264311
      ],
      [
        "n",
        -6.076538895104354
      ],
      [
        "5",
        -6.07994155092749
      ],
      [
        "Ġnot",
        -6.121512076124517
      ],
      [
        "Ġat",
        -6.167645498205596
      ],
      [
        "Ġwill",
        -6.200077380133603
      ],
      [
        "Ġtheir",
        -6.223881402923762
      ],
      [
        "4",
        -6.251861637212276
      ],
      [
        "9",
        -6.316592334885046
      ],
      [
        "on",
        -6.372435159143182
      ],
      [
        "Ġmore",
        -6.372752356722845
      ],
      [
        "Ġwas",
        -6.376401714562892
      ],
      [
        "Ġthey",
        -6.38633235064129
      ],
      [
        "The",
        -6.391905889579991
      ],
      [
        "ies",
        -6.4385444172845645
      ],
      [
        "r",
        -6.456483634359566
      ],
      [
        "Ġbut",
        -6.464972591515497
      ],
      [
        "Ġhas",
        -6.476554174639194
      ],
      [
        "Ġwhich",
        -6.489223487020542
      ],
      [
        "Ġwe",
        -6.520128032193581
      ],
      [
        "6",
        -6.529090837569953
      ],
      [
        "Question",
        -6.555195957538263
      ],
      [
        "Ġalso",
        -6.568219377582723
      ],
      [
        "8",
        -6.587510677624067
      ],
      [
        "ĠAnswer",
        -6.590561115227402
      ],
      [
        "Ġone",
        -6.615476388022268
      ],
      [
        "about",
        -6.648929296776933
      ],
      [
        "7",
        -6.652693672962201
      ],
      [
        "Ġall",
        -6.6934443701884625
      ],
      [
        "Ġother",
        -6.727588972957276
      ],
      [
        "ĠIt",
        -6.741178400773281
      ],
      [
        "Ġwhen",
        -6.752035825252575
      ],
      [
        "Ġsome",
        -6.771224919136172
      ],
      [
        "Ġif",
        -6.81016583280705
      ],
      [
        "Ġuse",
        -6.814068229109473
      ],
      [
        "Ġthem",
        -6.817336196798669
      ],
      [
        "Ġmay",
        -6.824832951754248
      ],
      [
        "Ġtime",
        -6.825515583184838
      ],
      [
        "Ġinto",
        -6.832283565480788
      ],
      [
        "Ġlike",
        -6.845927861530525
      ],
      [
        "Ġdo",
        -6.847845564695522
      ],
      [
        "Ġhow",
        -6.8495330545900455
      ],
      [
        "Ġup",
        -6.8619184152774615
      ],
      [
        "Ġso",
        -6.868801411897582
      ],
      [
        "ĠThis",
        -6.8832328192601615
      ],
      [
        "Ġthan",
        -6.919032289525926
      ],
      [
        "ĠWhat",
        -6.9232866908068775
      ],
      [
        "ĠA",
        -6.9369873785125264
      ],
      [
        "Ġthese",
        -6.940376933246602
      ],
      [
        "o",
        -6.957906273265465
      ],
      [
        "i",
        -6.960321477728641
      ],
      [
        "A",
        -6.964740983360366
      ],
      [
        "Ġout",
        -6.976211378226116
      ],
      [
        "Ġwhat",
        -6.981709988242729
      ],
      [
        "Ġthere",
        -6.995558477907519
      ],
      [
        "Ġwater",
        -7.007508801715353
      ],
      [
        "m",
        -7.008452708355829
      ],
      [
        "able",
        -7.029764703708771
      ],
      [
        "Ġused",
        -7.038421877954349
      ],
      [
        "Ġour",
        -7.059528395392398
      ],
      [
        "Ġsuch",
        -7.085871188418155
      ],
      [
        "Ġmost",
        -7.089325753961889
      ],
      [
        "Ġneed",
        -7.097864887356534
      ],
      [
        "Ġmake",
        -7.098147997241453
      ],
      [
        "Ġany",
        -7.116360439338939
      ],
      [
        "Ġwere",
        -7.122119805021496
      ],
      [
        "ĠIn",
        -7.128323126784954
      ],
      [
        "Ġbeen",
        -7.13671144652429
      ],
      [
        "Ġpeople",
        -7.162727706568701
      ],
      [
        "Ġget",
        -7.194776848279389
      ],
      [
        "Ġnew",
        -7.202761373764069
      ],
      [
        "Ġits",
        -7.211847604986735
      ],
      [
        "Ġhelp",
        -7.219049801285259
      ],
      [
        "cause",
        -7.221384326382353
      ],
      [
        "Ġsystem",
        -7.2248704422325165
      ],
      [
        "l",
        -7.227680353825937
      ],
      [
        "Ġshould",
        -7.232948155721612
      ],
      [
        "Ġonly",
        -7.236021435217204
      ],
      [
        "?Ċ",
        -7.240955827572035
      ],
      [
        "re",
        -7.241041352496064
      ],
      [
        "Ġjust",
        -7.254382476619734
      ],
      [
        "Ġwould",
        -7.255028224989976
      ],
      [
        ";",
        -7.262833989028641
      ],
      [
        "Ġwho",
        -7.274673295516079
      ],
      [
        "Ġover",
        -7.2787488001234255
      ],
      [
        "Ġmany",
        -7.283089809028855
      ],
      [
        "Ġhigh",
        -7.302568745263469
      ],
      [
        "Ġtwo",
        -7.311563302648844
      ],
      [
        "ity",
        -7.324456301030493
      ],
      [
        "Ġwell",
        -7.334642209273468
      ],
      [
        "al",
        -7.348621274858788
      ],
      [
        "er",
        -7.350617832282543
      ],
      [
        "Ġfirst",
        -7.360700981322106
      ],
      [
        "Ġway",
        -7.371504380121118
      ],
      [
        "Ġbetween",
        -7.37994462790288
      ],
      [
        "I",
        -7.385136723574876
      ],
      [
        "ever",
        -7.387609337317556
      ],
      [
        "Ġthrough",
        -7.394823016726773
      ],
      [
        "/",
        -7.396311605783769
      ],
      [
        "Ġno",
        -7.411155168586028
      ],
      [
        "Ġprovide",
        -7.419501508862652
      ],
      [
        "Ġwhere",
        -7.433450053622341
      ],
      [
        "Ġdifferent",
        -7.436915908298133
      ],
      [
        "Ġsee",
        -7.438669900306465
      ],
      [
        "Ġmy",
        -7.442411908065397
      ],
      [
        "Ġevery",
        -7.45303468196968
      ],
      [
        "Ġwork",
        -7.453681719448864
      ],
      [
        "Ġtake",
        -7.461411681840314
      ],
      [
        "Ġcould",
        -7.468864909927506
      ],
      [
        "Ġusing",
        -7.473384554016112
      ],
      [
        "very",
        -7.480882232387477
      ],
      [
        "c",
        -7.481175588212501
      ],
      [
        "Ġlong",
        -7.490334664906072
      ],
      [
        "Ġgo",
        -7.492878558147344
      ],
      [
        "!",
        -7.5003937456557885
      ],
      [
        "ĠIf",
        -7.505912271594454
      ],
      [
        "Ġeven",
        -7.516673589757959
      ],
      [
        "ĠHow",
        -7.526878642664936
      ],
      [
        "ĠThey",
        -7.531865174730818
      ],
      [
        "Ġhe",
        -7.53442299391471
      ],
      [
        "Ġmuch",
        -7.555796020250651
      ],
      [
        "is",
        -7.596130751508899
      ],
      [
        ").",
        -7.602438720675853
      ],
      [
        "Ġchange",
        -7.6050198566444465
      ],
      [
        "while",
        -7.605408349306176
      ],
      [
        "Ġwant",
        -7.612851526893748
      ],
      [
        "ve",
        -7.614933611538814
      ],
      [
        "Ġimportant",
        -7.61557888559014
      ],
      [
        "Ġgood",
        -7.61982557126014
      ],
      [
        "Ġhad",
        -7.624057311725862
      ],
      [
        "in",
        -7.624178881758224
      ],
      [
        "In",
        -7.63531695674569
      ],
      [
        "Ġdoes",
        -7.637281369911053
      ],
      [
        "ĠâĢĵ",
        -7.641623030306571
      ],
      [
        "Ġyears",
        -7.642593746175009
      ],
      [
        "Ġhis",
        -7.642730844617493
      ],
      [
        "Ġknow",
        -7.645871866236046
      ],
      [
        "Ġprocess",
        -7.6481846900601
      ],
      [
        "and",
        -7.651958147185211
      ],
      [
        "Ġfood",
        -7.654828002052984
      ],
      [
        "Ġeach",
        -7.655143139304367
      ],
      [
        "ĠYou",
        -7.665362819635959
      ],
      [
        "Ġcause",
        -7.6685519422207085
      ],
      [
        "Ġhealth",
        -7.670024011465925
      ],
      [
        "Ġafter",
        -7.691608423466745
      ],
      [
        "Ġcreate",
        -7.69349605377311
      ],
      [
        "around",
        -7.693698297891008
      ],
      [
        "Ġlevel",
        -7.706134132621019
      ],
      [
        "Ġstart",
        -7.706956093561592
      ],
      [
        "Ġworld",
        -7.722002696969366
      ],
      [
        "Ġarea",
        -7.736799885669643
      ],
      [
        "out",
        -7.738760645632849
      ],
      [
        "Ġsmall",
        -7.740032634329878
      ],
      [
        "Ġlarge",
        -7.745377804874279
      ],
      [
        "Ġdata",
        -7.747465252359533
      ],
      [
        "Ġfound",
        -7.7517099623840275
      ],
      [
        "made",
        -7.752826200040968
      ],
      [
        "um",
        -7.755394401468075
      ],
      [
        "Ġbefore",
        -7.763539615014094
      ],
      [
        "Ġoften",
        -7.771446873822642
      ],
      [
        "Ġlife",
        -7.772059569893427
      ],
      [
        "ĠC",
        -7.7731683818230435
      ],
      [
        "Ġproblem",
        -7.7781637598325615
      ],
      [
        "Ġthose",
        -7.778432073394597
      ],
      [
        "Ġdon",
        -7.785936716996458
      ],
      [
        "Ġboth",
        -7.79581888469953
      ],
      [
        "(",
        -7.801073340580064
      ],
      [
        "Ġmaterial",
        -7.809977492910389
      ],
      [
        "Ġdesign",
        -7.814138861188482
      ],
      [
        "during",
        -7.81474100534489
      ],
      [
        "Ġhuman",
        -7.821279201083415
      ],
      [
        "%",
        -7.828548385589142
      ],
      [
        "us",
        -7.829327944900645
      ],
      [
        "What",
        -7.83154400389321
      ],
      [
        "Ġenergy",
        -7.832648474531392
      ],
      [
        "Ġallow",
        -7.833703302282808
      ],
      [
        "Ġbody",
        -7.839389056172177
      ],
      [
        "Ġplace",
        -7.839426250680222
      ],
      [
        "Ġpart",
        -7.839791776071182
      ],
      [
        "Ġbeing",
        -7.843479968905391
      ],
      [
        "Ġlook",
        -7.844909443346489
      ],
      [
        "Ġlight",
        -7.845242681375269
      ],
      [
        "Ġnumber",
        -7.846133829863748
      ],
      [
        "Ġcommon",
        -7.85900398037224
      ],
      [
        "Ġinformation",
        -7.866677395378551
      ],
      [
        "Ġback",
        -7.872548337256751
      ],
      [
        "Ġdown",
        -7.872655406912551
      ],
      [
        "),",
        -7.874079409862821
      ],
      [
        "Ġexample",
        -7.875422131099966
      ],
      [
        "Ġright",
        -7.877645820002064
      ],
      [
        "ce",
        -7.877659278126286
      ],
      [
        "Ġyear",
        -7.894379958767894
      ],
      [
        "Ġbest",
        -7.895217567381605
      ],
      [
        "Ġincrease",
        -7.896433209924003
      ],
      [
        "Ġfind",
        -7.900354072425845
      ],
      [
        "ness",
        -7.9040784687394865
      ],
      [
        "Ġinclude",
        -7.917200677619812
      ],
      [
        "h",
        -7.918570845253956
      ],
      [
        "f",
        -7.926412660227146
      ],
      [
        "Ġlead",
        -7.927788782289813
      ],
      [
        "Ġform",
        -7.928040753107494
      ],
      [
        "Ġshow",
        -7.937601954960638
      ],
      [
        ":Ċ",
        -7.941865793418493
      ],
      [
        "ĠB",
        -7.941995665303737
      ],
      [
        "How",
        -7.949087616609487
      ],
      [
        "Ġsam",
        -7.952008293416748
      ],
      [
        "Ġexperience",
        -7.954995346581168
      ],
      [
        "Ġresearch",
        -7.956358571403973
      ],
      [
        "Ġplant",
        -7.962721559794391
      ],
      [
        "Ġday",
        -7.964938496144737
      ],
      [
        "ĠFor",
        -7.968444708772969
      ],
      [
        "ĠWe",
        -7.97076314814076
      ],
      [
        "Ġtest",
        -7.970954164454167
      ],
      [
        "Ġsaid",
        -7.975001812093452
      ],
      [
        "Ġpower",
        -7.989028105400097
      ],
      [
        "Ġmight",
        -7.989380572927546
      ],
      [
        "Ġunder",
        -7.990063661826717
      ],
      [
        "Ġkeep",
        -7.99051985675045
      ],
      [
        "Ġspecies",
        -7.991167638793232
      ],
      [
        "S",
        -7.992157134068504
      ],
      [
        "Ġstudy",
        -7.996082691224509
      ],
      [
        "ĠThese",
        -8.001990384063149
      ],
      [
        "Ġnow",
        -8.011077916584409
      ],
      [
        "Ġfew",
        -8.013737121305063
      ],
      [
        "Ġsupport",
        -8.016084210315128
      ],
      [
        "g",
        -8.018920828830273
      ],
      [
        "Ġbetter",
        -8.024061747840395
      ],
      [
        "ll",
        -8.03375177784289
      ],
      [
        "Ġown",
        -8.035618813368574
      ],
      [
        "Ġstill",
        -8.036463903322918
      ],
      [
        "self",
        -8.037415761580654
      ],
      [
        "Ġhome",
        -8.040122301766711
      ],
      [
        "Ġgreat",
        -8.040606215291204
      ],
      [
        "Ġher",
        -8.044856741632085
      ],
      [
        "Ġplants",
        -8.044983962577184
      ],
      [
        "Ġproduct",
        -8.04557628074275
      ],
      [
        "Ġgrow",
        -8.04713521935467
      ],
      [
        "This",
        -8.048761936209473
      ],
      [
        "Ġcase",
        -8.048982667444825
      ],
      [
        "Ġus",
        -8.050770344284382
      ],
      [
        "Ġincluding",
        -8.05787073063889
      ],
      [
        "Ġbase",
        -8.068686858774065
      ],
      [
        "ĠTo",
        -8.071136352878174
      ],
      [
        "Ġme",
        -8.072496095811347
      ],
      [
        "Ġnatural",
        -8.076241858589842
      ],
      [
        "one",
        -8.076419101411448
      ],
      [
        "D",
        -8.076831409069271
      ],
      [
        "Ġcontrol",
        -8.08060654481497
      ],
      [
        "Ġoff",
        -8.080613303624222
      ],
      [
        "Ġstudents",
        -8.080716436317651
      ],
      [
        "C",
        -8.086643191389646
      ],
      [
        "If",
        -8.088351658202011
      ],
      [
        "Ġrisk",
        -8.090313642423975
      ],
      [
        "Ġset",
        -8.092225026337017
      ],
      [
        "Ġthink",
        -8.097689744432195
      ],
      [
        "ability",
        -8.099488615073138
      ],
      [
        "Ġadd",
        -8.105759283239866
      ],
      [
        "Ġagain",
        -8.106629034644339
      ],
      [
        "Ġissue",
        -8.10670282078146
      ],
      [
        "Ġeffect",
        -8.110362811690806
      ],
      [
        "Ġanimal",
        -8.11297824261181
      ],
      [
        "...",
        -8.116531287756219
      ],
      [
        "Ġsay",
        -8.11668687864449
      ],
      [
        "Ġknown",
        -8.117371156332545
      ],
      [
        "Ġun",
        -8.118749040870163
      ],
      [
        "Ġmethod",
        -8.121139034357327
      ],
      [
        "Ġtype",
        -8.128098155174962
      ],
      [
        "Ġtemperature",
        -8.128552640976483
      ],
      [
        "Ġmaking",
        -8.130157323309156
      ],
      [
        "Ġcurrent",
        -8.134553864381115
      ],
      [
        "Ġchildren",
        -8.136016818593031
      ],
      [
        "Ġdog",
        -8.138664141376193
      ],
      [
        "Ġsize",
        -8.139771113844812
      ],
      [
        "Ġless",
        -8.140272255649657
      ],
      [
        "ic",
        -8.143054308922839
      ],
      [
        "Ġresult",
        -8.14362001992101
      ],
      [
        "the",
        -8.14616877634205
      ],
      [
        "It",
        -8.146523643098643
      ],
      [
        "ĠBut",
        -8.147282868751642
      ],
      [
        "Ġend",
        -8.147478196078978
      ],
      [
        "Ġpotential",
        -8.152639120545299
      ],
      [
        "Ġindividual",
        -8.154397437211806
      ],
      [
        "ation",
        -8.159575776407234
      ],
      [
        "Ġgive",
        -8.164488626791702
      ],
      [
        "Ġtoo",
        -8.164538530885252
      ],
      [
        "Ġmain",
        -8.16744844373525
      ],
      [
        "Ġcar",
        -8.17514662070851
      ],
      [
        "Ġgroup",
        -8.175709603237213
      ],
      [
        "Ġper",
        -8.17587904932492
      ],
      [
        "Ġmust",
        -8.180763688692956
      ],
      [
        "Ġair",
        -8.18240340360288
      ],
      [
        "Ġprevent",
        -8.183036569822924
      ],
      [
        "Ġmodel",
        -8.183160622935388
      ],
      [
        "or",
        -8.185861876603582
      ],
      [
        "Ġthree",
        -8.18745180683231
      ],
      [
        "Ġsurface",
        -8.190218335932983
      ],
      [
        "Ġprogram",
        -8.192279722486546
      ],
      [
        "Ġvalue",
        -8.194701777934174
      ],
      [
        "Ġsoil",
        -8.196203613647757
      ],
      [
        "Ġheat",
        -8.19877133820257
      ],
      [
        "Ġfish",
        -8.19967388354482
      ],
      [
        "Ġoffer",
        -8.200294949503995
      ],
      [
        "Ġreduce",
        -8.206497573567848
      ],
      [
        "Ġthing",
        -8.21244800738448
      ],
      [
        "Ġlow",
        -8.216692511719106
      ],
      [
        ":ĊĊ",
        -8.216876630101574
      ],
      [
        "Ġsure",
        -8.216943959367693
      ],
      [
        "Ġpoint",
        -8.218087281840141
      ],
      [
        "Ġdue",
        -8.226453399281171
      ],
      [
        "âĢĻ",
        -8.227058803111799
      ],
      [
        "Ġwithin",
        -8.228119438152536
      ],
      [
        "Ġcome",
        -8.232922356358356
      ],
      [
        "Ġblood",
        -8.233413762195955
      ],
      [
        "Ġproject",
        -8.236706275406085
      ],
      [
        "Ġwhy",
        -8.252122832529329
      ],
      [
        "Ġlearn",
        -8.253701554318159
      ],
      [
        "an",
        -8.25489737293508
      ],
      [
        "Ġbecome",
        -8.256257469681376
      ],
      [
        "Ġspace",
        -8.262452367335834
      ],
      [
        "Ġensure",
        -8.264602894254137
      ],
      [
        "Ġvarious",
        -8.265464818756467
      ],
      [
        "Ġweek",
        -8.266776384742323
      ],
      [
        "it",
        -8.270442924494859
      ],
      [
        "Ġfunction",
        -8.272307709059447
      ],
      [
        "Ġspecific",
        -8.275966373970515
      ],
      [
        "Ġcost",
        -8.276115720280444
      ],
      [
        "Ġschool",
        -8.28009518460322
      ],
      [
        "Ġrange",
        -8.281883716303765
      ],
      [
        "ĠWhen",
        -8.281893893137902
      ],
      [
        "Ġfield",
        -8.282215084006422
      ],
      [
        "Ġcalled",
        -8.282967288145166
      ],
      [
        "ĠThere",
        -8.283504520963458
      ],
      [
        "Ġdisease",
        -8.285906487461624
      ],
      [
        "Ġusual",
        -8.288331676212199
      ],
      [
        "Ġreally",
        -8.289886765339554
      ],
      [
        "Ġal",
        -8.290530470387681
      ],
      [
        "ĠAnd",
        -8.295913055767503
      ],
      [
        "ary",
        -8.297928766288797
      ],
      [
        "le",
        -8.298212361774283
      ],
      [
        "ĠP",
        -8.298947242024997
      ],
      [
        "Ġplay",
        -8.299724661291668
      ],
      [
        "Ġamount",
        -8.300529590023851
      ],
      [
        "Ġbenefit",
        -8.301997594809698
      ],
      [
        "Ġimpact",
        -8.302262121828274
      ],
      [
        "Ġclose",
        -8.304359243291213
      ],
      [
        "Ġline",
        -8.305358161008114
      ],
      [
        "x",
        -8.31759909418973
      ],
      [
        "Ġstate",
        -8.32501654651367
      ],
      [
        "Ġfollowing",
        -8.325164536444268
      ],
      [
        "Ġcolor",
        -8.326202568744408
      ],
      [
        "Ġpossible",
        -8.326917756598805
      ],
      [
        "Ġenvironment",
        -8.328885658915336
      ],
      [
        "Ġdevice",
        -8.329404741113196
      ],
      [
        "Ġcare",
        -8.334104603074998
      ],
      [
        "Ġtry",
        -8.334426911636516
      ],
      [
        "ĠS",
        -8.337154056891544
      ],
      [
        "Ġhere",
        -8.337952058172014
      ],
      [
        "est",
        -8.338634726533542
      ],
      [
        "Ġmeans",
        -8.344036549281036
      ],
      [
        "th",
        -8.348623085855337
      ],
      [
        "Ġlot",
        -8.349515674454793
      ],
      [
        "Ġtreatment",
        -8.350055839528281
      ],
      [
        "Ġactual",
        -8.355885162324338
      ],
      [
        "day",
        -8.356857414584377
      ],
      [
        "Ġcells",
        -8.35833813150635
      ],
      [
        "another",
        -8.361199861588249
      ],
      [
        "something",
        -8.361277870778498
      ],
      [
        "Ġrequire",
        -8.365071439276097
      ],
      [
        "Ġsignificant",
        -8.366577998795123
      ],
      [
        "alway",
        -8.367285626117026
      ],
      [
        "ĠSo",
        -8.367797636264122
      ],
      [
        "less",
        -8.369164569930906
      ],
      [
        "Ġorder",
        -8.37176084886033
      ],
      [
        "Ġdid",
        -8.372235143878445
      ],
      [
        "Ġlearning",
        -8.374948222352618
      ],
      [
        "Ġlittle",
        -8.383780257034218
      ],
      [
        "Ġ$",
        -8.390397407235078
      ],
      [
        "Ġimprove",
        -8.390810094643797
      ],
      [
        "Ġimage",
        -8.39100268186712
      ],
      [
        "ĠD",
        -8.392235593563456
      ],
      [
        "Ġshe",
        -8.394566816256209
      ],
      [
        "Ġcontain",
        -8.394703920407398
      ],
      [
        "Ġlast",
        -8.396190425505575
      ],
      [
        ",\"",
        -8.396225028312728
      ],
      [
        "Ġnear",
        -8.399201617896189
      ],
      [
        "Ġopen",
        -8.399259616365939
      ],
      [
        "Ġsource",
        -8.399523438965325
      ],
      [
        "Ġavailable",
        -8.401501442424511
      ],
      [
        "Ġoption",
        -8.405116352042068
      ],
      [
        "Ġname",
        -8.410010543202873
      ],
      [
        "technology",
        -8.410124041563325
      ],
      [
        "Ġleave",
        -8.4103401618897
      ],
      [
        "Ġhard",
        -8.412374649161372
      ],
      [
        "ĠWhich",
        -8.41414981917875
      ],
      [
        "Ġperson",
        -8.422527909673095
      ],
      [
        "Ġoil",
        -8.422618980162834
      ],
      [
        "Ġdevelopment",
        -8.427938526347226
      ],
      [
        "Ġgeneral",
        -8.430396279104414
      ],
      [
        "Ġcomplete",
        -8.439607345965726
      ],
      [
        "Ġessential",
        -8.441906017407582
      ],
      [
        "Ġdevelop",
        -8.44443002005421
      ],
      [
        "Ġfeel",
        -8.445458714456596
      ],
      [
        "Ġcertain",
        -8.446661900880082
      ],
      [
        "Ġuntil",
        -8.449001852359157
      ],
      [
        "Ġseveral",
        -8.452853619423138
      ],
      [
        "Ġquality",
        -8.454744372601272
      ],
      [
        "Ġeffective",
        -8.45779651592828
      ],
      [
        "ĠUniversity",
        -8.466648094077044
      ],
      [
        "Ġlive",
        -8.470622088653464
      ],
      [
        "Ġcourse",
        -8.472298912853235
      ],
      [
        "enough",
        -8.477374660185056
      ],
      [
        "Ġgarden",
        -8.478717414331557
      ],
      [
        "Ġside",
        -8.479877541799212
      ],
      [
        "ĠAs",
        -8.48166246904253
      ],
      [
        "Ġcommunit",
        -8.484934763833031
      ],
      [
        "Ġpressure",
        -8.48516313754871
      ],
      [
        "Ġparticular",
        -8.485488893328467
      ],
      [
        "ĠM",
        -8.489017673758312
      ],
      [
        "Ġpatient",
        -8.490648331668137
      ],
      [
        "Ġ=",
        -8.490829904447638
      ],
      [
        "ĠE",
        -8.491985854601486
      ],
      [
        "Ġunderstand",
        -8.493983408364656
      ],
      [
        "Ġconsider",
        -8.494752274769768
      ],
      [
        "Ġneeds",
        -8.496091845145568
      ],
      [
        "Ġconditions",
        -8.496416739304122
      ],
      [
        "Ġfree",
        -8.496507503490577
      ],
      [
        "ion",
        -8.498213885819574
      ],
      [
        "Ġdifference",
        -8.499861593004383
      ],
      [
        "Ġtext",
        -8.504790536609523
      ],
      [
        "Ġlocal",
        -8.505167870371686
      ],
      [
        "When",
        -8.506396308694146
      ],
      [
        "Ġgrowth",
        -8.506986036539962
      ],
      [
        "Ġpresent",
        -8.508905791760757
      ],
      [
        "Ġsolution",
        -8.51203520800705
      ],
      [
        "Ġteam",
        -8.514938469543669
      ],
      [
        "Ġterm",
        -8.518267729221265
      ],
      [
        "Ġfamily",
        -8.519966170004249
      ],
      [
        "Ġtypes",
        -8.520147250276601
      ],
      [
        "Ġwide",
        -8.52723005101538
      ],
      [
        "ĠHe",
        -8.529602082637716
      ],
      [
        "Ġchild",
        -8.529903074420595
      ],
      [
        "!Ċ",
        -8.531113715877364
      ],
      [
        "Ġear",
        -8.531470018973739
      ],
      [
        "Ġdiet",
        -8.534313772927973
      ],
      [
        "Ġput",
        -8.541930221539797
      ],
      [
        "Ġmeasure",
        -8.543836648438782
      ],
      [
        "Ġkey",
        -8.548071646534702
      ],
      [
        "Ġevent",
        -8.550978598169092
      ],
      [
        "Ġproper",
        -8.55159234937632
      ],
      [
        "Ġtop",
        -8.551725498711015
      ],
      [
        "Ġnon",
        -8.552240651121153
      ],
      [
        "Ġsince",
        -8.552586098974885
      ],
      [
        "Ġalong",
        -8.55290584319444
      ],
      [
        "Ġrate",
        -8.55448271937715
      ],
      [
        "Ġhappen",
        -8.555811731826047
      ],
      [
        "Ġaway",
        -8.557281953606838
      ],
      [
        "Ġlower",
        -8.56125959083601
      ],
      [
        "ĠBy",
        -8.56262935371873
      ],
      [
        "T",
        -8.564625784760182
      ],
      [
        "You",
        -8.568906798254291
      ],
      [
        "Ġstructure",
        -8.569622209593348
      ],
      [
        "ĠWith",
        -8.573493548388328
      ],
      [
        "Ġfocus",
        -8.573904422495854
      ],
      [
        "Ġhigher",
        -8.576315127589481
      ],
      [
        "Ġobject",
        -8.576640099280732
      ],
      [
        "Ġeye",
        -8.576864937343712
      ],
      [
        "b",
        -8.579032081010695
      ],
      [
        "Ġhand",
        -8.581019884312315
      ],
      [
        "Ġtree",
        -8.582302650213926
      ],
      [
        "Ġvariet",
        -8.583925213275077
      ],
      [
        "B",
        -8.584295996573536
      ],
      [
        "Ġnature",
        -8.584750693170209
      ],
      [
        "hether",
        -8.584792315379211
      ],
      [
        "Ġremain",
        -8.585402000070747
      ],
      [
        "Ġrole",
        -8.586568381465217
      ],
      [
        "Ġcover",
        -8.587532663751649
      ],
      [
        "Ġprotect",
        -8.591118615693333
      ],
      [
        "Ġmakes",
        -8.592759947108044
      ],
      [
        "ĠThat",
        -8.6007649632371
      ],
      [
        "Ġmarket",
        -8.602293002897781
      ],
      [
        "Ġpopulation",
        -8.602818364977484
      ],
      [
        "though",
        -8.603769108619451
      ],
      [
        "Ġunique",
        -8.605304097903169
      ],
      [
        "Ġturn",
        -8.605328379576767
      ],
      [
        "Ġsimple",
        -8.605955792994928
      ],
      [
        "Ġtogether",
        -8.606107120075944
      ],
      [
        "Ġaffect",
        -8.607105978950429
      ],
      [
        "Ġ&",
        -8.60714837552635
      ],
      [
        "Ġweight",
        -8.609416189859655
      ],
      [
        "*",
        -8.609470012506613
      ],
      [
        "Ġcheck",
        -8.612575600157463
      ],
      [
        "Ġtypical",
        -8.6132378878189
      ],
      [
        "p",
        -8.613784867164071
      ],
      [
        "Ġdays",
        -8.615497353475323
      ],
      [
        "Ġfuture",
        -8.616788748087595
      ],
      [
        "next",
        -8.621503155103973
      ],
      [
        "Ġnormal",
        -8.621900522798262
      ],
      [
        "Ġlet",
        -8.62231184976993
      ],
      [
        "Ġworking",
        -8.622890598194818
      ],
      [
        "Ġclear",
        -8.623207682506013
      ],
      [
        "Ġsimilar",
        -8.624471036495015
      ],
      [
        "Ġcomes",
        -8.625431827782808
      ],
      [
        "Ġseem",
        -8.627508537116139
      ],
      [
        "Ġforce",
        -8.631246268101723
      ],
      [
        "especial",
        -8.63174723674043
      ],
      [
        "having",
        -8.634377759751098
      ],
      [
        "Ġrun",
        -8.635068018008997
      ],
      [
        "Ġage",
        -8.635223127598252
      ],
      [
        "ous",
        -8.635418977634725
      ],
      [
        "Ġsecond",
        -8.637163935479341
      ],
      [
        "Ġshort",
        -8.639854749745762
      ],
      [
        "Ġhim",
        -8.641868849825833
      ],
      [
        "Ġsuggest",
        -8.645947894445925
      ],
      [
        "Ġsafe",
        -8.646007300000328
      ],
      [
        "There",
        -8.646432287924362
      ],
      [
        "to",
        -8.646525309242108
      ],
      [
        "ĠT",
        -8.647371810258301
      ],
      [
        "Ġbalance",
        -8.647588289327004
      ],
      [
        "Ġresults",
        -8.647633502139946
      ],
      [
        "Ġeasy",
        -8.650040915682355
      ],
      [
        "Ġperiod",
        -8.650342405203544
      ],
      [
        "Ġactivit",
        -8.650511981947822
      ],
      [
        "ally",
        -8.651523089909597
      ],
      [
        "Ġcat",
        -8.652233484641936
      ],
      [
        "Ġhealthy",
        -8.65264135506599
      ],
      [
        "Ġdirect",
        -8.653045656085293
      ],
      [
        "Ġcancer",
        -8.65335061426994
      ],
      [
        "Ġchemical",
        -8.658293065311078
      ],
      [
        "Ġlikely",
        -8.658539345596118
      ],
      [
        "ry",
        -8.660131637315075
      ],
      [
        "Ġproduce",
        -8.660302557972804
      ],
      [
        "Ġground",
        -8.66038822188454
      ],
      [
        "Ġfactors",
        -8.661879416595935
      ],
      [
        "Ġphysical",
        -8.661919244689246
      ],
      [
        "Ġdepend",
        -8.663660004873819
      ],
      [
        "ment",
        -8.665884619537742
      ],
      [
        "Ġfull",
        -8.666121975182715
      ],
      [
        "We",
        -8.66733813377573
      ],
      [
        "Ġmove",
        -8.668456717366265
      ],
      [
        "Ġfollow",
        -8.670546077040497
      ],
      [
        "u",
        -8.674383505070644
      ],
      [
        "Ġreal",
        -8.677124304138223
      ],
      [
        "Ġaccess",
        -8.678150076297207
      ],
      [
        "Ġmillion",
        -8.68098908860203
      ],
      [
        "Ġdoesn",
        -8.6820272435221
      ],
      [
        "Ġbuilding",
        -8.682776057891495
      ],
      [
        "Ġdamage",
        -8.683779893690158
      ],
      [
        "Ġgas",
        -8.686516493684557
      ],
      [
        "Ġskin",
        -8.686846680903727
      ],
      [
        "ĠF",
        -8.697824536953778
      ],
      [
        "Ġnever",
        -8.698219092654432
      ],
      [
        "Ġpublic",
        -8.704534584430856
      ],
      [
        "Ġfact",
        -8.705185311641669
      ],
      [
        "Ġclimate",
        -8.705941233425584
      ],
      [
        "Ġdifficult",
        -8.706006945886337
      ],
      [
        "Ġpaper",
        -8.706281791501375
      ],
      [
        "Ġremove",
        -8.708268648203664
      ],
      [
        "Ġlove",
        -8.70835914569605
      ],
      [
        "ĠYour",
        -8.709356832438957
      ],
      [
        "Ġheart",
        -8.713217712099752
      ],
      [
        "Ġabove",
        -8.71345268241079
      ],
      [
        "Ġtimes",
        -8.714280424102736
      ],
      [
        "thing",
        -8.71693107768143
      ],
      [
        "Ġscience",
        -8.719279875825478
      ],
      [
        "Ġproduction",
        -8.720555526238387
      ],
      [
        "Ġinterest",
        -8.720585009120107
      ],
      [
        "Ġclean",
        -8.72065784012667
      ],
      [
        "Ġplan",
        -8.721409609066725
      ],
      [
        "Ġnecessar",
        -8.723257217400551
      ],
      [
        "Ġstep",
        -8.72572873256167
      ],
      [
        "Ġloss",
        -8.726047249698464
      ],
      [
        "Ġacross",
        -8.727455759176976
      ],
      [
        "Ġbatter",
        -8.728697843571137
      ],
      [
        "Ġrecommend",
        -8.732174761735326
      ],
      [
        "Ġkind",
        -8.732719087387036
      ],
      [
        "Ġold",
        -8.737269379132108
      ],
      [
        "Ġstrong",
        -8.737595053020886
      ],
      [
        "Ġdogs",
        -8.737763426475887
      ],
      [
        "least",
        -8.741250142211967
      ],
      [
        "Ġarticle",
        -8.741686483958334
      ],
      [
        "ĠU",
        -8.742991797766912
      ],
      [
        "Ġanswer",
        -8.743783105015257
      ],
      [
        "Ġdry",
        -8.745986885199427
      ],
      [
        "Ġcontinue",
        -8.748605023163684
      ],
      [
        "Ġmatter",
        -8.751118293047943
      ],
      [
        "Ġgiven",
        -8.751400351141337
      ],
      [
        "P",
        -8.753014923627473
      ],
      [
        "Ġreason",
        -8.754740496361407
      ],
      [
        "Ġwhite",
        -8.759503780702431
      ],
      [
        "either",
        -8.760594104701559
      ],
      [
        "ĠNew",
        -8.762457295389623
      ],
      [
        "âĢĶ",
        -8.76300905528916
      ],
      [
        "Ġblack",
        -8.764930444528911
      ],
      [
        "To",
        -8.77156548335756
      ],
      [
        "Ġwarm",
        -8.771914360481237
      ],
      [
        "Ġsocial",
        -8.772392456986113
      ],
      [
        "Ġstore",
        -8.772579405265581
      ],
      [
        "Ġamong",
        -8.7729443453612
      ],
      [
        "Ġaddition",
        -8.775044618271107
      ],
      [
        "Ġsingle",
        -8.776751972387874
      ],
      [
        "Ġfar",
        -8.776832865375207
      ],
      [
        "Ġaccording",
        -8.778331280763275
      ],
      [
        "Ġcell",
        -8.778778452961248
      ],
      [
        "Ġrecent",
        -8.780721660764787
      ],
      [
        "Ġmean",
        -8.780735744063984
      ],
      [
        "Ġdone",
        -8.782512164149416
      ],
      [
        "ĠSome",
        -8.782914692447637
      ],
      [
        "For",
        -8.783598489579319
      ],
      [
        "Ġhead",
        -8.784089318478355
      ],
      [
        "Ġread",
        -8.786767227701446
      ],
      [
        "k",
        -8.789173637097056
      ],
      [
        "Ġquestion",
        -8.793783778492244
      ],
      [
        "Ġbook",
        -8.794133241189677
      ],
      [
        "Ġcondition",
        -8.7949576686188
      ],
      [
        "Ġvideo",
        -8.796582039050659
      ],
      [
        "Ġregion",
        -8.796892027729125
      ],
      [
        "Ġprotein",
        -8.79783344903327
      ],
      [
        "ĠAmerican",
        -8.798363885355899
      ],
      [
        "Ġavoid",
        -8.79902221419
      ],
      [
        "Ġbit",
        -8.7990361284491
      ],
      [
        "Ġcontent",
        -8.802103112900596
      ],
      [
        "Ġsea",
        -8.802131733504517
      ],
      [
        "coming",
        -8.802242042573939
      ],
      [
        "ĠNo",
        -8.80549976394559
      ],
      [
        "Ġposition",
        -8.80775152815577
      ],
      [
        "Ġroom",
        -8.811358174475245
      ],
      [
        "Ġexist",
        -8.811401784081447
      ],
      [
        "Ġenvironmental",
        -8.814037530663146
      ],
      [
        "Ġparent",
        -8.815867386161647
      ],
      [
        "Ġspeed",
        -8.818785105720707
      ],
      [
        "Ġwomen",
        -8.819290867665444
      ],
      [
        "Ġsugar",
        -8.821429229487297
      ],
      [
        "Ġleft",
        -8.82440504354469
      ],
      [
        "Ġappear",
        -8.82446251778478
      ],
      [
        "E",
        -8.827300809182917
      ],
      [
        "Ġtraining",
        -8.828703977787413
      ],
      [
        "Ġstandard",
        -8.829124717298622
      ],
      [
        "online",
        -8.829140993748613
      ],
      [
        "Ġunderstanding",
        -8.829452711071259
      ],
      [
        "Ġbring",
        -8.830006228539062
      ],
      [
        "Ġsignal",
        -8.831412724743426
      ],
      [
        "Ġmajor",
        -8.831736714688155
      ],
      [
        "Ġenjoy",
        -8.8337917825854
      ],
      [
        "Ġshare",
        -8.835480598212431
      ],
      [
        ")ĊĊ",
        -8.835866709346234
      ],
      [
        "Ġminute",
        -8.836717969636641
      ],
      [
        "Ġask",
        -8.83765301505832
      ],
      [
        "Ġcreat",
        -8.840363793907233
      ],
      [
        "Ġpattern",
        -8.840530763445393
      ],
      [
        "Ġw",
        -8.840926917488321
      ],
      [
        "ĠR",
        -8.842142338724933
      ],
      [
        "v",
        -8.842726688224506
      ],
      [
        "Ġmetal",
        -8.844366864146092
      ],
      [
        "F",
        -8.844770888260388
      ],
      [
        "Ġthought",
        -8.846295694712826
      ],
      [
        "Ġfour",
        -8.84685929735462
      ],
      [
        "Ġcomputer",
        -8.847097181416103
      ],
      [
        "ance",
        -8.84830990941174
      ],
      [
        "Ġlist",
        -8.850981523086837
      ],
      [
        "Ġstress",
        -8.852548710859526
      ],
      [
        "Ġgame",
        -8.853041653544121
      ],
      [
        "Ġskills",
        -8.854917642875753
      ],
      [
        "Ġpet",
        -8.856009554815722
      ],
      [
        "Ġmention",
        -8.856012352248502
      ],
      [
        "Ġflower",
        -8.856098655212406
      ],
      [
        "Ġbelieve",
        -8.857367891332506
      ],
      [
        "ĠBe",
        -8.858739198954865
      ],
      [
        "Ġfurther",
        -8.858791874426974
      ],
      [
        "Ġresearcher",
        -8.860122371518381
      ],
      [
        "Ġassociate",
        -8.860947925307862
      ],
      [
        "Ġadult",
        -8.861834665796351
      ],
      [
        "Ġapproach",
        -8.862780783251528
      ],
      [
        "Ġlooking",
        -8.862891861002595
      ],
      [
        "Ġpersonal",
        -8.865053207234332
      ],
      [
        "Ġrequired",
        -8.866394143786202
      ],
      [
        "Ġeat",
        -8.866990976806564
      ],
      [
        "Ġyoung",
        -8.867288902815943
      ],
      [
        "Ġreach",
        -8.86867135116832
      ],
      [
        "Ġmoney",
        -8.869115898662233
      ],
      [
        "Ġmaintain",
        -8.870218304450894
      ],
      [
        "Ġreport",
        -8.870814462014943
      ],
      [
        "things",
        -8.876862225544121
      ],
      [
        "Ġfall",
        -8.878393546918982
      ],
      [
        "Ġreceive",
        -8.878735410605906
      ],
      [
        "Ġstudie",
        -8.8792149758659
      ],
      [
        "Ġbasic",
        -8.87942355478716
      ],
      [
        "Ġbusiness",
        -8.883056814194488
      ],
      [
        "Ġpositive",
        -8.88387228055836
      ],
      [
        "Ġpurpose",
        -8.884059327840061
      ],
      [
        "Ġtoward",
        -8.88490143285724
      ],
      [
        "ĠâĢĶ",
        -8.885948242018305
      ],
      [
        "Ġmonths",
        -8.886605777772413
      ],
      [
        "Ġmachine",
        -8.886738389794232
      ],
      [
        "Ġaverage",
        -8.88861043439831
      ],
      [
        "Ġlayer",
        -8.889583870865224
      ],
      [
        "Ġservice",
        -8.89200472296022
      ],
      [
        "Ġcold",
        -8.892884416065241
      ],
      [
        "Ġorganic",
        -8.893547756243018
      ],
      [
        "Ġtalk",
        -8.894044473144815
      ],
      [
        "Ġinfection",
        -8.895215967579523
      ],
      [
        "Ġliving",
        -8.897074965168123
      ],
      [
        "Ġchallenge",
        -8.898029104800989
      ],
      [
        "Ġbig",
        -8.898149855971969
      ],
      [
        "Ġsymptoms",
        -8.898604670316306
      ],
      [
        "Ġdiscover",
        -8.899826986144166
      ],
      [
        "Ġinput",
        -8.89988011571527
      ],
      [
        ")Ċ",
        -8.900886640089023
      ],
      [
        "Ġgreen",
        -8.90102921062572
      ],
      [
        "Ġindustr",
        -8.901478907771045
      ],
      [
        "Ġfruit",
        -8.901506984672299
      ],
      [
        "Ġface",
        -8.901794502163009
      ],
      [
        "ves",
        -8.904323734987088
      ],
      [
        "Ġbrain",
        -8.905374979266384
      ],
      [
        "Ġtreat",
        -8.906392527509151
      ],
      [
        "Ġaction",
        -8.906928895048136
      ],
      [
        "Ġelectric",
        -8.908363249032044
      ],
      [
        "Ġperformance",
        -8.910888968897162
      ],
      [
        "Ġgetting",
        -8.91289975547484
      ],
      [
        "Ġtell",
        -8.91394182350184
      ],
      [
        "once",
        -8.914670888298986
      ],
      [
        "Ġinside",
        -8.919757317750994
      ],
      [
        "Ġcontact",
        -8.921989419986863
      ],
      [
        "Ġcompare",
        -8.922443786486127
      ],
      [
        "Ġfit",
        -8.922461668208733
      ],
      [
        "Ġscientist",
        -8.922735290259723
      ],
      [
        "ĠH",
        -8.923327750433202
      ],
      [
        "Ġhistor",
        -8.923469357315208
      ],
      [
        "Ġpost",
        -8.923487184604216
      ],
      [
        "Ġbuy",
        -8.925805123436191
      ],
      [
        "Ġcool",
        -8.929962731043307
      ],
      [
        "Ġknowledge",
        -8.933110376998652
      ],
      [
        "Ġ[",
        -8.933375291903907
      ],
      [
        "already",
        -8.934427957167998
      ],
      [
        "Ġcarbon",
        -8.93487162189411
      ],
      [
        "Ġwild",
        -8.935810300170814
      ],
      [
        "Ġbelow",
        -8.936420786719712
      ],
      [
        "Ġred",
        -8.93764749355745
      ],
      [
        "Ġpain",
        -8.939613175422057
      ],
      [
        "Ġsense",
        -8.940919850668344
      ],
      [
        "stead",
        -8.941093578543311
      ],
      [
        "Ġmedical",
        -8.941598060128214
      ],
      [
        "Ġsun",
        -8.941734286664698
      ],
      [
        "Ġplastic",
        -8.943622997256917
      ],
      [
        "taking",
        -8.944499502582609
      ],
      [
        "Ġflow",
        -8.949753136068367
      ],
      [
        "Ġrecord",
        -8.950137557079682
      ],
      [
        "Ġperfect",
        -8.952834363795516
      ],
      [
        "ather",
        -8.954016033146068
      ],
      [
        "Ġidea",
        -8.957878796547758
      ],
      [
        "Ġwalk",
        -8.958706246682638
      ],
      [
        "Ġshape",
        -8.959157746156377
      ],
      [
        "Ġways",
        -8.96179619612575
      ],
      [
        "ĠOne",
        -8.961848152096287
      ],
      [
        "Ġtools",
        -8.962429740439044
      ],
      [
        "ĠAl",
        -8.964982658258519
      ],
      [
        "Ġdescribe",
        -8.964992371686783
      ],
      [
        "Ġparts",
        -8.965564659428082
      ],
      [
        "ive",
        -8.965988358141072
      ],
      [
        "Ġentire",
        -8.967206319866438
      ],
      [
        "Ġunit",
        -8.967294983189909
      ],
      [
        "Ġothers",
        -8.96786081484932
      ],
      [
        "Ġstage",
        -8.968422407499553
      ],
      [
        "Ġfeatures",
        -8.968531667095677
      ],
      [
        "So",
        -8.969680939646464
      ],
      [
        "Ġdeep",
        -8.971059300522615
      ],
      [
        "Ġfuel",
        -8.971146952044958
      ],
      [
        "Ġbehavior",
        -8.971189049410754
      ],
      [
        "Ġitem",
        -8.97158364320416
      ],
      [
        "Ġdoing",
        -8.971647792972218
      ],
      [
        "age",
        -8.971839739388832
      ],
      [
        "Ġprofessional",
        -8.97229769167744
      ],
      [
        "Ġconsidered",
        -8.973418276853515
      ],
      [
        "Ġmanagement",
        -8.975419592075909
      ],
      [
        "Ġselect",
        -8.976107614188285
      ],
      [
        "en",
        -8.977290351990145
      ],
      [
        "Ġhours",
        -8.979708455411625
      ],
      [
        "Ġcompany",
        -8.97975937233965
      ],
      [
        "Ġdetermine",
        -8.98160971851889
      ],
      [
        "Ġbegin",
        -8.982624860466274
      ],
      [
        "Ġcrucial",
        -8.982695194139422
      ],
      [
        "Ġopportunit",
        -8.983372486394046
      ],
      [
        "Ġpercent",
        -8.984387581041368
      ],
      [
        "Ġseason",
        -8.984928564871648
      ],
      [
        "âĢĵ",
        -8.985844956524158
      ],
      [
        "Ġoverall",
        -8.986113721411055
      ],
      [
        "Ġprice",
        -8.986823773422426
      ],
      [
        "Ġbuild",
        -8.988062817583112
      ],
      [
        "Ġclass",
        -8.988298646478242
      ],
      [
        "Ġlanguage",
        -8.988755345407817
      ],
      [
        "Ġcut",
        -8.992543645817445
      ],
      [
        "Ġpopular",
        -8.996405753474274
      ],
      [
        "Ġsound",
        -8.996429391835534
      ],
      [
        "Ġmind",
        -8.996446202989219
      ],
      [
        "Ġglobal",
        -8.996577867819624
      ],
      [
        "Ġperform",
        -8.996968132582488
      ],
      [
        "Ġfarm",
        -8.999737872297912
      ],
      [
        "afety",
        -8.999856249430678
      ],
      [
        "Ġuser",
        -9.000336756113153
      ],
      [
        "Ġpast",
        -9.001129707981516
      ],
      [
        "ful",
        -9.001175366320426
      ],
      [
        "ember",
        -9.001431489796392
      ],
      [
        ".\"ĊĊ",
        -9.002806378504722
      ],
      [
        "Ġauthor",
        -9.005072453085276
      ],
      [
        "Ġinvolve",
        -9.00532016868421
      ],
      [
        ".\"Ċ",
        -9.00560912185154
      ],
      [
        "Ġquickly",
        -9.009373373026047
      ],
      [
        "Ġreturn",
        -9.011083667263383
      ],
      [
        "Ġhouse",
        -9.011464768303007
      ],
      [
        "Ġcorrect",
        -9.011483006902328
      ],
      [
        "w",
        -9.012200283619965
      ],
      [
        "_",
        -9.013913284428089
      ],
      [
        "Ġresponse",
        -9.014940726173524
      ],
      [
        "Ġmovement",
        -9.01540159375872
      ],
      [
        "Ġwhole",
        -9.016976759096073
      ],
      [
        "Ġeducation",
        -9.020378653133797
      ],
      [
        "Ġrelative",
        -9.024552052850446
      ],
      [
        "at",
        -9.02455536227096
      ],
      [
        "Ġtraditional",
        -9.0246990672406
      ],
      [
        "Ġview",
        -9.02517338493219
      ],
      [
        "Ġchoose",
        -9.025177487117071
      ],
      [
        "Ġcall",
        -9.026139789389887
      ],
      [
        "Ġprint",
        -9.027402984011076
      ],
      [
        "]",
        -9.02765375758448
      ],
      [
        "Ġsetting",
        -9.02857885691461
      ],
      [
        "Ġeasily",
        -9.02874958832652
      ],
      [
        "Ġnetwork",
        -9.029017142202532
      ],
      [
        ").Ċ",
        -9.029595901855911
      ],
      [
        "Ġthroughout",
        -9.031182506645628
      ],
      [
        "Ġrelease",
        -9.031693686696393
      ],
      [
        "Ġcomplex",
        -9.034305326545972
      ],
      [
        "ctivities",
        -9.034707597203504
      ],
      [
        "Ġwinter",
        -9.042210540779909
      ],
      [
        "Ġstay",
        -9.042450085970504
      ],
      [
        "ĠL",
        -9.044138899688292
      ],
      [
        "Ġplayer",
        -9.044198133197185
      ],
      [
        "Ġtask",
        -9.044519989177347
      ],
      [
        "Ġprovid",
        -9.0447848752662
      ],
      [
        "hind",
        -9.04624151158754
      ],
      [
        "Ġmonitor",
        -9.04696740045176
      ],
      [
        "where",
        -9.048531793327037
      ],
      [
        "Ġglass",
        -9.049197772595472
      ],
      [
        "Ġself",
        -9.052067894169836
      ],
      [
        "Ġland",
        -9.052567958143689
      ],
      [
        "-base",
        -9.056974465742767
      ],
      [
        "Ġetc",
        -9.057162087859716
      ],
      [
        "Ġbreak",
        -9.057670674644903
      ],
      [
        "Ġengine",
        -9.057871966307484
      ],
      [
        "Ġelements",
        -9.057987594185812
      ],
      [
        "Ġcode",
        -9.058149691744228
      ],
      [
        "Ġrelated",
        -9.061488646838123
      ],
      [
        "Ġstatement",
        -9.063565359803317
      ],
      [
        "Ġvisit",
        -9.063761786164552
      ],
      [
        "Ġgot",
        -9.06438077498682
      ],
      [
        "Ġspecial",
        -9.064552811711096
      ],
      [
        "Ġachieve",
        -9.066624607344204
      ],
      [
        "Ġmultiple",
        -9.067363826094605
      ],
      [
        "Ġrelationship",
        -9.068163669343097
      ],
      [
        "Ġstop",
        -9.068777670324366
      ],
      [
        "Ġaddress",
        -9.069825612259672
      ],
      [
        "z",
        -9.06991046709981
      ],
      [
        "Ġoutside",
        -9.072508311834929
      ],
      [
        "Ġmodern",
        -9.074035749008292
      ],
      [
        "Ġprimary",
        -9.075501577435755
      ],
      [
        "Ġsoftware",
        -9.07732052364425
      ],
      [
        "M",
        -9.077571492838365
      ],
      [
        "Ġactive",
        -9.078807604260684
      ],
      [
        "Ġwaste",
        -9.079184584418446
      ],
      [
        "Ġtechniques",
        -9.08016812126844
      ],
      [
        "ĠWhil",
        -9.08044192925936
      ],
      [
        "Ġhelps",
        -9.081694138058014
      ],
      [
        "Ġprobabl",
        -9.081717165324536
      ],
      [
        "Ġstrateg",
        -9.08373796285558
      ],
      [
        "Ġincreasing",
        -9.08445111648786
      ],
      [
        "Ġwall",
        -9.085526054773208
      ],
      [
        "by",
        -9.08657212832854
      ],
      [
        "Ġoriginal",
        -9.088138599074632
      ],
      [
        "Ġdaily",
        -9.088142911734924
      ],
      [
        "Ġwear",
        -9.08881803862043
      ],
      [
        "Ġbirds",
        -9.089605829301608
      ],
      [
        "Ġcamera",
        -9.09040897671013
      ],
      [
        "Ġpractice",
        -9.091054309639471
      ],
      [
        "Ġsubject",
        -9.091150638360087
      ],
      [
        "+",
        -9.092297365636396
      ],
      [
        "Ġregard",
        -9.094391932555672
      ],
      [
        "Ġwebsite",
        -9.095905646133268
      ],
      [
        "Ġeyes",
        -9.096153467440654
      ],
      [
        "Ġexpert",
        -9.09713838661591
      ],
      [
        "Why",
        -9.09840505988276
      ],
      [
        "Ġtotal",
        -9.099053230693126
      ],
      [
        "Ġequipment",
        -9.099122359322475
      ],
      [
        "Ġexplore",
        -9.100861859115865
      ],
      [
        "Ġcountry",
        -9.101152565111356
      ],
      [
        "Ġfeet",
        -9.101433397433652
      ],
      [
        "Ġattention",
        -9.102305695900464
      ],
      [
        "Ġsensor",
        -9.10232918181281
      ],
      [
        "Ġbad",
        -9.10418090915308
      ],
      [
        "Ġquestions",
        -9.104525079949276
      ],
      [
        "Ġextreme",
        -9.105361700016877
      ],
      [
        "Ġfeed",
        -9.105691210272472
      ],
      [
        "simply",
        -9.107108305680285
      ],
      [
        "ĠEarth",
        -9.10940739400062
      ],
      [
        "Ġthough",
        -9.110509029178347
      ],
      [
        "Ġlength",
        -9.111355172258753
      ],
      [
        "ĠW",
        -9.112806553503964
      ],
      [
        "Ġbreed",
        -9.113626643730496
      ],
      [
        "Ġregular",
        -9.117555118061606
      ],
      [
        "ĠHere",
        -9.119936929967142
      ],
      [
        "Ġsite",
        -9.120386196579254
      ],
      [
        "Ġam",
        -9.123920107326278
      ],
      [
        "ĠAn",
        -9.124965274924826
      ],
      [
        "Ġpay",
        -9.125338576509442
      ],
      [
        "ĠNational",
        -9.125466945531157
      ],
      [
        "Ġdigital",
        -9.125616269924777
      ],
      [
        "Ġrepresent",
        -9.128346876534597
      ],
      [
        "Ġthemsel",
        -9.128400149713109
      ],
      [
        "Ġacid",
        -9.133046214675538
      ],
      [
        "Ġmilk",
        -9.134255169145568
      ],
      [
        "Ġweather",
        -9.135314207803775
      ],
      [
        "Ġice",
        -9.137747081444791
      ],
      [
        "Ġgenerate",
        -9.141251634503464
      ],
      [
        "Ġanalysis",
        -9.143086559834082
      ],
      [
        "Ġexercise",
        -9.144726683089814
      ],
      [
        "Ġtissue",
        -9.14738221084112
      ],
      [
        "Ġadditional",
        -9.148104416573794
      ],
      [
        "Ġidentify",
        -9.149360936759749
      ],
      [
        "Ġprevious",
        -9.149434705563785
      ],
      [
        "ĠDo",
        -9.151093884571637
      ],
      [
        "Ġgain",
        -9.15169541673292
      ],
      [
        "Ġsleep",
        -9.152578880240998
      ],
      [
        "Ġyet",
        -9.154271141244358
      ],
      [
        "quite",
        -9.154784934852133
      ],
      [
        "Ġdrive",
        -9.155603107739024
      ],
      [
        "Ġbaby",
        -9.156125555532167
      ],
      [
        "Ġanything",
        -9.15742938315979
      ],
      [
        "Ġrock",
        -9.160916921035929
      ],
      [
        "Ġorganization",
        -9.161935541291625
      ],
      [
        "Ġact",
        -9.162614268982615
      ],
      [
        "Ġhalf",
        -9.16299630635724
      ],
      [
        "Ġhold",
        -9.16334974543139
      ],
      [
        "Ġfive",
        -9.164490361552303
      ],
      [
        "Ġsummer",
        -9.164961636388751
      ],
      [
        "Ġteeth",
        -9.165491303600731
      ],
      [
        "Ġcustomer",
        -9.166044427424897
      ],
      [
        "Ġblue",
        -9.166092546759836
      ],
      [
        "Ġgenetic",
        -9.168245805911216
      ],
      [
        "Ġspread",
        -9.168536267548877
      ],
      [
        "Ġsometime",
        -9.168820386338098
      ],
      [
        "Ġdecision",
        -9.169045144920895
      ],
      [
        "Ġguide",
        -9.169262954296816
      ],
      [
        "Ġoutput",
        -9.172970319609586
      ],
      [
        "Ġslow",
        -9.174805832242152
      ],
      [
        "Ġlater",
        -9.17599053992193
      ],
      [
        "One",
        -9.17755034462754
      ],
      [
        "Ġcenter",
        -9.178310516535207
      ],
      [
        "Ġtool",
        -9.17853767644164
      ],
      [
        "Ġphase",
        -9.178923403426896
      ],
      [
        "Ġreading",
        -9.180547970096194
      ],
      [
        "Ġexplain",
        -9.181188745683812
      ],
      [
        "Ġstudent",
        -9.183985904590838
      ],
      [
        "Ġserve",
        -9.18442570246014
      ],
      [
        "most",
        -9.184712403273362
      ],
      [
        "Ġexact",
        -9.185219774803876
      ],
      [
        "not",
        -9.185585269887047
      ],
      [
        "Ġfactor",
        -9.190207989268238
      ],
      [
        "Ġago",
        -9.191936901206278
      ],
      [
        "Ġchoice",
        -9.195251231708568
      ],
      [
        "Ġmass",
        -9.19532614297522
      ],
      [
        "Ġadvantage",
        -9.197741967198429
      ],
      [
        "ĠAt",
        -9.197795883123506
      ],
      [
        "ĠCan",
        -9.20209066823843
      ],
      [
        "Ġbrand",
        -9.20297063359346
      ],
      [
        "ĠUnite",
        -9.20325278136164
      ],
      [
        "Ġconcept",
        -9.204473993074217
      ],
      [
        "Ġhear",
        -9.20549898293388
      ],
      [
        "Ġsuccessful",
        -9.20631991773348
      ],
      [
        "ĠOn",
        -9.20817659494502
      ],
      [
        "Ġnegative",
        -9.208541196339985
      ],
      [
        "Ġfemale",
        -9.20973449216876
      ],
      [
        ".S",
        -9.209872291644745
      ],
      [
        "Ġfast",
        -9.210159579656985
      ],
      [
        "Ġhot",
        -9.214017788682543
      ],
      [
        "Ġservices",
        -9.216462621911608
      ],
      [
        "Ġvehicle",
        -9.21714291368128
      ],
      [
        "Ġpre",
        -9.218879908978009
      ],
      [
        "Ġtravel",
        -9.222809248693537
      ],
      [
        "Ġart",
        -9.222963527024104
      ],
      [
        "Ġfile",
        -9.223131786053646
      ],
      [
        "Ġocean",
        -9.225068212391612
      ],
      [
        "Ġdistance",
        -9.225785722145456
      ],
      [
        "DNA",
        -9.226348575621987
      ],
      [
        "Ġwon",
        -9.229618690607436
      ],
      [
        "Ġappropriate",
        -9.229949919339616
      ],
      [
        "ĠStates",
        -9.230329391132203
      ],
      [
        "Ġfresh",
        -9.230982401705983
      ],
      [
        "Ġtarget",
        -9.231400307683586
      ],
      [
        "Ġspring",
        -9.232620501632434
      ],
      [
        "Ġdirection",
        -9.233317198611214
      ],
      [
        "Ġdidn",
        -9.234118816669469
      ],
      [
        "Ġconcern",
        -9.236452379679283
      ],
      [
        "Ġapplications",
        -9.237985685724274
      ],
      [
        "âĢ¦",
        -9.239268961881972
      ],
      [
        "ĠHealth",
        -9.240669516211376
      ],
      [
        "of",
        -9.240864238196872
      ],
      [
        "Ġefficient",
        -9.243312114544224
      ],
      [
        "ĠAll",
        -9.244175613982868
      ],
      [
        "Ġboard",
        -9.24510977729362
      ],
      [
        "Ġbird",
        -9.245696932657625
      ],
      [
        "Ġcommunication",
        -9.246064017800418
      ],
      [
        "ĠâĢľ",
        -9.247305665552537
      ],
      [
        "Ġcircuit",
        -9.247655484094786
      ],
      [
        "Ġapplication",
        -9.248775175984242
      ],
      [
        "Ġdisplay",
        -9.251692540489522
      ],
      [
        "Ġconstant",
        -9.25587133407241
      ],
      [
        "Ġfinal",
        -9.256375625107957
      ],
      [
        "Ġreduc",
        -9.257384196138512
      ],
      [
        "Ġindicate",
        -9.26049714814001
      ],
      [
        "Ġprocesse",
        -9.260899824738493
      ],
      [
        "Ġiron",
        -9.26127568440366
      ],
      [
        "Ġcountr",
        -9.262067982590418
      ],
      [
        "Ġdoctor",
        -9.262604425293866
      ],
      [
        "ĠJapan",
        -9.262689677667325
      ],
      [
        "As",
        -9.26271494351355
      ],
      [
        "Ġfire",
        -9.263297162126928
      ],
      [
        "Ġdrink",
        -9.26597977099858
      ],
      [
        "Ġextra",
        -9.268408519826426
      ],
      [
        "Ġgovernment",
        -9.268787652033936
      ],
      [
        "ĠAfter",
        -9.270016130657815
      ],
      [
        "Ġisn",
        -9.270230443805517
      ],
      [
        "Ġtrue",
        -9.27128827951535
      ],
      [
        "Ġharm",
        -9.271893410607138
      ],
      [
        "ten",
        -9.272095853920934
      ],
      [
        "Ġcharge",
        -9.272538486962508
      ],
      [
        "Ġsustainabl",
        -9.272820834626952
      ],
      [
        "Ġwords",
        -9.27589651068751
      ],
      [
        "Ġcomponents",
        -9.277519378983754
      ],
      [
        "Ġfun",
        -9.277978490806122
      ],
      [
        "Ġliquid",
        -9.279374088553674
      ],
      [
        "Ġteacher",
        -9.279685237231543
      ],
      [
        "Ġmeet",
        -9.280185380341756
      ],
      [
        "Ġbacteria",
        -9.280528188834058
      ],
      [
        "Ġaccount",
        -9.28113139610407
      ],
      [
        "Ġrice",
        -9.282405626826568
      ],
      [
        "Ġapplie",
        -9.284353438371047
      ],
      [
        "Ġnight",
        -9.285314607202311
      ],
      [
        "Ġbank",
        -9.286711737641836
      ],
      [
        "Ġreaction",
        -9.288354083197376
      ],
      [
        "Ġeasie",
        -9.289028250572738
      ],
      [
        "Ġinfluence",
        -9.29071078240394
      ],
      [
        "Ġnoise",
        -9.290725803579171
      ],
      [
        "Ġapply",
        -9.291353602835516
      ],
      [
        "Ġmanage",
        -9.291660315490716
      ],
      [
        "Ġdiseases",
        -9.2921441742096
      ],
      [
        "ers",
        -9.29252120322952
      ],
      [
        "Ġpage",
        -9.294337209768088
      ],
      [
        "Ġkids",
        -9.295402100440384
      ],
      [
        "ĠDr",
        -9.295446191335753
      ],
      [
        "Ġconduct",
        -9.297146012554478
      ],
      [
        "Ġchance",
        -9.29845896649605
      ],
      [
        "Ġcarry",
        -9.298599311030102
      ],
      [
        "Ġsolar",
        -9.299469492313204
      ],
      [
        "ĠAI",
        -9.302716647457878
      ],
      [
        "Ġevidence",
        -9.302938936859874
      ],
      [
        "animals",
        -9.305492921220754
      ],
      [
        "Ġblock",
        -9.305965328543865
      ],
      [
        "Ġmembers",
        -9.308683619470791
      ],
      [
        "Ġload",
        -9.308806323376324
      ],
      [
        "Ġproduced",
        -9.309066668754385
      ],
      [
        "Ġserious",
        -9.309855942434304
      ],
      [
        "Ġoccur",
        -9.310497840686182
      ],
      [
        "Ġbox",
        -9.31050303509678
      ],
      [
        "fish",
        -9.311082569300025
      ],
      [
        "But",
        -9.311288859224303
      ],
      [
        "Ġreview",
        -9.31264015499953
      ],
      [
        "Ġsave",
        -9.31307944888227
      ],
      [
        "Ġequal",
        -9.316526573476724
      ],
      [
        "Ġmoment",
        -9.317242903606807
      ],
      [
        "Ġever",
        -9.317559711666624
      ],
      [
        "Ġmale",
        -9.317940732186402
      ],
      [
        "ĠNorth",
        -9.31926923269738
      ],
      [
        "Ġlack",
        -9.320763302854452
      ],
      [
        "Their",
        -9.320824189127087
      ],
      [
        "Ġp",
        -9.32249706153511
      ],
      [
        "Ġsupply",
        -9.32322049947904
      ],
      [
        "Ġcontribute",
        -9.3241363924822
      ],
      [
        "Ġsuccess",
        -9.325670481628649
      ],
      [
        "ĠMore",
        -9.326206026641444
      ],
      [
        "Ġpromote",
        -9.327139703327829
      ],
      [
        "Ġrunning",
        -9.32775537353845
      ],
      [
        "Ġresource",
        -9.327978183162664
      ],
      [
        "Ġfeature",
        -9.328076362436423
      ],
      [
        "Ġnotice",
        -9.32923252095998
      ],
      [
        "more",
        -9.330492711849248
      ],
      [
        "Ġwave",
        -9.331282754572072
      ],
      [
        "Ġfront",
        -9.33341133278519
      ],
      [
        "Ġmental",
        -9.333953641788632
      ],
      [
        "Ġlimit",
        -9.334161007551671
      ],
      [
        "Ġstyle",
        -9.337427103337374
      ],
      [
        "R",
        -9.337560734116646
      ],
      [
        "Ġfilter",
        -9.338400876318506
      ],
      [
        "Ġalternative",
        -9.33842048462089
      ],
      [
        "Ġcaus",
        -9.3386806004368
      ],
      [
        "Ġattack",
        -9.339031805957388
      ],
      [
        "ĠG",
        -9.339684555122538
      ],
      [
        "Ġpest",
        -9.34047836620724
      ],
      [
        "Ġexperiment",
        -9.34110182531712
      ],
      [
        "Ġlocation",
        -9.341235293891126
      ],
      [
        "Whil",
        -9.342100936531242
      ],
      [
        "Ġelse",
        -9.343140889932112
      ],
      [
        "Ġtable",
        -9.344002372728864
      ],
      [
        "Ġaspect",
        -9.344078277929563
      ],
      [
        "Ġmonth",
        -9.345098508441936
      ],
      [
        "Ġlives",
        -9.346101694418657
      ],
      [
        "Ġworks",
        -9.346992112225646
      ],
      [
        "ĠUse",
        -9.347598063261817
      ],
      [
        "Ġpoor",
        -9.348049640092164
      ],
      [
        "Ġdeal",
        -9.34821382117606
      ],
      [
        "N",
        -9.348927735630364
      ],
      [
        "Ġfat",
        -9.350065107123031
      ],
      [
        "are",
        -9.350496738064264
      ],
      [
        "Ġculture",
        -9.350677396501755
      ],
      [
        "Ġpiece",
        -9.351014792344303
      ],
      [
        "ĠYes",
        -9.351282955694325
      ],
      [
        "Ġfine",
        -9.352889302848146
      ],
      [
        "Â°",
        -9.353734497557532
      ],
      [
        "Ġcount",
        -9.35441332899886
      ],
      [
        "Ġeggs",
        -9.354448734485707
      ],
      [
        "Ġbuilt",
        -9.354604280648063
      ],
      [
        "Ġ+",
        -9.354774246315364
      ],
      [
        "Ġoperation",
        -9.355045059223126
      ],
      [
        "ĠJ",
        -9.3551730621081
      ],
      [
        "Ġword",
        -9.356160889223355
      ],
      [
        "Ġvisual",
        -9.357047087998632
      ],
      [
        "man",
        -9.358008818001482
      ],
      [
        "ĠCenter",
        -9.358417654533245
      ],
      [
        "Ġmuscle",
        -9.359149747279949
      ],
      [
        "Ġstrength",
        -9.3607949123258
      ],
      [
        "Ġmusic",
        -9.361021113023146
      ],
      [
        "ish",
        -9.361698703848973
      ],
      [
        "Ġcombination",
        -9.363603724883866
      ],
      [
        "Ġvision",
        -9.36417385781966
      ],
      [
        "Ġpass",
        -9.364258611773462
      ],
      [
        "Ġroot",
        -9.368043541106257
      ],
      [
        "life",
        -9.36843996975268
      ],
      [
        "Ġideal",
        -9.371194575747657
      ],
      [
        "Ġsmooth",
        -9.371289579477274
      ],
      [
        "ĠUS",
        -9.371630894633189
      ],
      [
        "Ġaim",
        -9.372381417354545
      ],
      [
        "Ġgreater",
        -9.372442225105162
      ],
      [
        "Ġshows",
        -9.373043067791516
      ],
      [
        "Ġdecrease",
        -9.373089125925349
      ],
      [
        "Ġmedia",
        -9.374011086187998
      ],
      [
        "ĠShe",
        -9.375830049122518
      ],
      [
        "Ġraise",
        -9.376719804652229
      ],
      [
        "Ġtaste",
        -9.377680215996053
      ],
      [
        "Ġrest",
        -9.378837147302924
      ],
      [
        ".\"",
        -9.37887046163468
      ],
      [
        "Ġscientific",
        -9.37934821413112
      ],
      [
        "Ġvitamin",
        -9.379960973898791
      ],
      [
        "ĠAmerica",
        -9.381357411311548
      ],
      [
        "Ġgoe",
        -9.38146876447288
      ],
      [
        "Ġpull",
        -9.381984526610022
      ],
      [
        "Ġspot",
        -9.382218904710252
      ],
      [
        "ame",
        -9.38269569054682
      ],
      [
        "Ġnumbers",
        -9.384621767233508
      ],
      [
        "ok",
        -9.386219469565482
      ],
      [
        "Ġde",
        -9.3889168115946
      ],
      [
        "Ġleg",
        -9.389609714929753
      ],
      [
        "âĢĿ",
        -9.390928942351849
      ],
      [
        "Ġdiscuss",
        -9.391271325772912
      ],
      [
        "Ġmechanism",
        -9.39164849925532
      ],
      [
        "Ġjob",
        -9.39210234315314
      ],
      [
        "Ġdark",
        -9.395387458356248
      ],
      [
        "ĠK",
        -9.395574517256208
      ],
      [
        "ĠResearch",
        -9.396756969644676
      ],
      [
        "Ġgoal",
        -9.396821763097636
      ],
      [
        "Ġdeath",
        -9.396834222476006
      ],
      [
        "Ġemission",
        -9.39716608993382
      ],
      [
        "Ġcompound",
        -9.398142688971577
      ],
      [
        "Ġeating",
        -9.398421846686706
      ],
      [
        "Ġscale",
        -9.399628618539388
      ],
      [
        "With",
        -9.399804823198622
      ],
      [
        "cy",
        -9.400291704162669
      ],
      [
        "Each",
        -9.401607006690629
      ],
      [
        "Ġlink",
        -9.40267217359825
      ],
      [
        "Ġcritical",
        -9.40602039939844
      ],
      [
        "Ġplanet",
        -9.40634388839509
      ],
      [
        "companie",
        -9.406860929716586
      ],
      [
        "Ġdetect",
        -9.407399926713968
      ],
      [
        "Ġwind",
        -9.407637841094717
      ],
      [
        "Ġestimate",
        -9.407942732212812
      ],
      [
        "Ġmix",
        -9.408548282790656
      ],
      [
        "Ġstem",
        -9.408793386631002
      ],
      [
        "Ġclaim",
        -9.411195662286058
      ],
      [
        "Ġensur",
        -9.411582406708446
      ],
      [
        "Ġlate",
        -9.412223165029848
      ],
      [
        "Ġelement",
        -9.412308097238784
      ],
      [
        "Ġvegetables",
        -9.41264947589108
      ],
      [
        "Ġfoot",
        -9.41365084741793
      ],
      [
        "Ġcharacteristic",
        -9.413747361527022
      ],
      [
        "ĠSouth",
        -9.415659493641924
      ],
      [
        "ĠFrom",
        -9.41623481959254
      ],
      [
        "Ġuseful",
        -9.41637258995621
      ],
      [
        "Ġcontainer",
        -9.417301611266412
      ],
      [
        "Ġsoft",
        -9.417714471598806
      ],
      [
        "Ġslight",
        -9.417790300480643
      ],
      [
        "Ġinvolved",
        -9.41836195169871
      ],
      [
        "Ġbag",
        -9.418516010097443
      ],
      [
        "Ġpick",
        -9.419116329224192
      ],
      [
        "Ġhope",
        -9.42077395557979
      ],
      [
        "Ġbottom",
        -9.42151248341782
      ],
      [
        "Ġcolors",
        -9.422103616489297
      ],
      [
        "Ġelectrical",
        -9.423367576664395
      ],
      [
        "Ġrequirements",
        -9.426014041900329
      ],
      [
        "Ġstory",
        -9.426686591403648
      ],
      [
        "Ġfriend",
        -9.427230185113386
      ],
      [
        "aintenance",
        -9.427323347997827
      ],
      [
        "Ġdraw",
        -9.428227277131317
      ],
      [
        "Ġhost",
        -9.428334265400096
      ],
      [
        "Ġgeneration",
        -9.428499950079653
      ],
      [
        "Ġphone",
        -9.429365618327296
      ],
      [
        "Ġdisorder",
        -9.429803759186113
      ],
      [
        "ĠScience",
        -9.432012189642965
      ],
      [
        "Ġseparate",
        -9.432623454234417
      ],
      [
        "Ġdefine",
        -9.432981999307984
      ],
      [
        "Ġsign",
        -9.434501102711897
      ],
      [
        "Can",
        -9.4345171230959
      ],
      [
        "O",
        -9.435027627315042
      ],
      [
        "Ġcycle",
        -9.435057788936206
      ],
      [
        "[",
        -9.435820014604731
      ],
      [
        "taken",
        -9.436202251089917
      ],
      [
        "Ġaccurate",
        -9.437405589845962
      ],
      [
        "Ġcats",
        -9.437676874700951
      ],
      [
        "Ġversion",
        -9.4381976606483
      ],
      [
        "V",
        -9.438854268234111
      ],
      [
        "Ġwatch",
        -9.439778100017437
      ],
      [
        "Ġconsumpti",
        -9.440360371818649
      ],
      [
        "Ġerror",
        -9.440745170217149
      ],
      [
        "Ġpropert",
        -9.441189815953024
      ],
      [
        "Ġfoods",
        -9.441396475114905
      ],
      [
        "Ġman",
        -9.441596306426966
      ],
      [
        "ĠMost",
        -9.441715927162898
      ],
      [
        "Ġsix",
        -9.442976257641895
      ],
      [
        "Ġvary",
        -9.444014746064582
      ],
      [
        "Ġsearch",
        -9.445107679325442
      ],
      [
        "Ġsteps",
        -9.445229536710183
      ],
      [
        "Ġnote",
        -9.446338130024971
      ],
      [
        "Ġmoving",
        -9.44687861120089
      ],
      [
        "Ġflavor",
        -9.447252546912008
      ],
      [
        "Ġsigns",
        -9.448055923429648
      ],
      [
        "Ġearl",
        -9.448290589875054
      ],
      [
        "Ġcollect",
        -9.449057130962355
      ],
      [
        "Ġscreen",
        -9.449147291364334
      ],
      [
        "Ġinitial",
        -9.450603420206754
      ],
      [
        "Ġextend",
        -9.450929834670973
      ],
      [
        "ĠMany",
        -9.451173180009777
      ],
      [
        "ĠSchool",
        -9.4527575028939
      ],
      [
        "Ġtips",
        -9.454206473639744
      ],
      [
        "refore",
        -9.456005439882668
      ],
      [
        "Ġalcohol",
        -9.456733258041664
      ],
      [
        "Ġencourage",
        -9.457178555577611
      ],
      [
        "ĠAdditional",
        -9.460485281509976
      ],
      [
        "nother",
        -9.4614330581274
      ],
      [
        "Ġfeeling",
        -9.461442275631436
      ],
      [
        "\\",
        -9.462448229758008
      ],
      [
        "Ġinstruction",
        -9.46367185182677
      ],
      [
        "Ġadjust",
        -9.463827865422113
      ],
      [
        "Ġresponsibl",
        -9.465317148733307
      ],
      [
        "Ġoxygen",
        -9.465658198563135
      ],
      [
        "Ġinteresting",
        -9.466121014486353
      ],
      [
        "Ġconsist",
        -9.46695255201298
      ],
      [
        "Ġvariable",
        -9.467633405134364
      ],
      [
        "Ġfrequent",
        -9.468219181399668
      ],
      [
        "Ġcharacter",
        -9.468782261187672
      ],
      [
        "Ġforest",
        -9.469802753038785
      ],
      [
        "ĠWorld",
        -9.470900796852256
      ],
      [
        "Ġlandscape",
        -9.471126671462294
      ],
      [
        "Ġsevere",
        -9.472267657673305
      ],
      [
        "H",
        -9.473144302629414
      ],
      [
        "Ġmeal",
        -9.473609850167104
      ],
      [
        "Ġwood",
        -9.4760365819813
      ],
      [
        "-to",
        -9.47745055847214
      ],
      [
        "Ġheavy",
        -9.477489715621832
      ],
      [
        "Ġpoints",
        -9.47811909734732
      ],
      [
        "Ġresistance",
        -9.47837719989005
      ],
      [
        "An",
        -9.47915865243912
      ],
      [
        "Ġhandle",
        -9.479646392797385
      ],
      [
        "Ġmeasurement",
        -9.480911634553202
      ],
      [
        "Ġcrop",
        -9.481422692140036
      ],
      [
        "Ġprotection",
        -9.482611120073384
      ],
      [
        "Ġtank",
        -9.484092339945816
      ],
      [
        "Ġenable",
        -9.484326182811229
      ],
      [
        "Ġenter",
        -9.485040966133536
      ],
      [
        "Ġcareful",
        -9.485189634737836
      ],
      [
        "Ġstand",
        -9.48607308281676
      ],
      [
        "Ġcity",
        -9.486411596821313
      ],
      [
        "Ġpair",
        -9.486501986658489
      ],
      [
        "Ġefficienc",
        -9.487246885941644
      ],
      [
        "Ġwire",
        -9.487668250685218
      ],
      [
        "Ġsection",
        -9.488555946235214
      ],
      [
        "Ġprett",
        -9.489393465411954
      ],
      [
        "Ġrise",
        -9.489681154684304
      ],
      [
        "Ġhair",
        -9.490218549525174
      ],
      [
        "Ġimmun",
        -9.490974103061166
      ],
      [
        "Ġdate",
        -9.491276081329318
      ],
      [
        "Ġfigure",
        -9.491434827699548
      ],
      [
        "limited",
        -9.491726275480785
      ],
      [
        "Ġrepair",
        -9.49205408940577
      ],
      [
        "These",
        -9.492890326265918
      ],
      [
        "ĠV",
        -9.494985212027164
      ],
      [
        "side",
        -9.496469797913775
      ],
      [
        "Ġrich",
        -9.496847189512398
      ],
      [
        "Ġtend",
        -9.496953413255556
      ],
      [
        "Ġpublished",
        -9.49833069654397
      ],
      [
        "Ġdeveloping",
        -9.498902380272668
      ],
      [
        "Ġtransport",
        -9.4989263844098
      ],
      [
        "Ġvolume",
        -9.499512679638858
      ],
      [
        "ĠWho",
        -9.499586836923118
      ],
      [
        "ĠN",
        -9.4999544656542
      ],
      [
        "Ġmeat",
        -9.501261858717587
      ],
      [
        "=",
        -9.502252297099318
      ],
      [
        "Ġrefer",
        -9.504139077786464
      ],
      [
        ">",
        -9.50510783494478
      ],
      [
        "Ġconstruction",
        -9.507765218103366
      ],
      [
        "Ġnutrients",
        -9.507969414435326
      ],
      [
        "Ġstick",
        -9.50799019346883
      ],
      [
        "be",
        -9.508055895338464
      ],
      [
        "-term",
        -9.508386958049751
      ],
      [
        "Ġburn",
        -9.509011389066048
      ],
      [
        "L",
        -9.509272806668108
      ],
      [
        "Ġimplement",
        -9.509863457929914
      ],
      [
        "resources",
        -9.510551281215664
      ],
      [
        "Ġstorage",
        -9.5106317731597
      ],
      [
        "Ġobserve",
        -9.51078982568018
      ],
      [
        "Ġaccept",
        -9.511783200013308
      ],
      [
        "By",
        -9.512205286732376
      ],
      [
        "Ġideas",
        -9.51317837241253
      ],
      [
        "mm",
        -9.513435162589625
      ],
      [
        "light",
        -9.51416905370159
      ],
      [
        "Ġhole",
        -9.514672370571663
      ],
      [
        "Ġmessage",
        -9.515689334845549
      ],
      [
        "Ġsituation",
        -9.51651902610056
      ],
      [
        "Ġseeds",
        -9.516543163289224
      ],
      [
        "Ġingredients",
        -9.516606834588476
      ],
      [
        "Ġwait",
        -9.516788056715228
      ],
      [
        "Ġlaw",
        -9.517986065777489
      ],
      [
        "Ġdesire",
        -9.518112606955428
      ],
      [
        "Ġpractices",
        -9.519038020621174
      ],
      [
        "Ġnothing",
        -9.519716913744396
      ],
      [
        "Ġsteel",
        -9.519783124662576
      ],
      [
        "Ġseek",
        -9.521114986238
      ],
      [
        "Ġyellow",
        -9.52178248190884
      ],
      [
        "Ġinstance",
        -9.522170542358053
      ],
      [
        "Ġremember",
        -9.523259803393127
      ],
      [
        "Ġusers",
        -9.524944347603256
      ],
      [
        "Ġexcellent",
        -9.525865386236507
      ],
      [
        "Ġtouch",
        -9.52664110813302
      ],
      [
        "Ġready",
        -9.527399305609231
      ],
      [
        "ĠOf",
        -9.527579015312313
      ],
      [
        "And",
        -9.52781523135063
      ],
      [
        "Ġtechnique",
        -9.529018003527462
      ],
      [
        "ĠX",
        -9.529076930034256
      ],
      [
        "Ġmedication",
        -9.529386369252734
      ],
      [
        "Ġball",
        -9.53020313565412
      ],
      [
        "Ġbigge",
        -9.531290648347849
      ],
      [
        "Ġjourney",
        -9.531585858879122
      ],
      [
        "Ġwriting",
        -9.53223091988406
      ],
      [
        "Ġmotor",
        -9.533120729085631
      ],
      [
        "Ġdemand",
        -9.534629150679203
      ],
      [
        "Ġrare",
        -9.536616803388624
      ],
      [
        "Ġcombine",
        -9.536910294974131
      ],
      [
        "Ġwonder",
        -9.538109298053415
      ],
      [
        "Ġenhance",
        -9.538695937766784
      ],
      [
        "Ġfund",
        -9.540491176599016
      ],
      [
        "if",
        -9.54177901482086
      ],
      [
        "Ġpurchase",
        -9.542702066601809
      ],
      [
        "Ġhearing",
        -9.54401938113715
      ],
      [
        "Ġobtain",
        -9.546648408761005
      ],
      [
        "Ġserie",
        -9.546745665838817
      ],
      [
        "Ġanti",
        -9.54707431910857
      ],
      [
        "Ġfriends",
        -9.547553209635293
      ],
      [
        "ĠNow",
        -9.548039843144172
      ],
      [
        "time",
        -9.553172297530049
      ],
      [
        "Ġexposure",
        -9.5532765314286
      ],
      [
        "Ġbeautiful",
        -9.553693957624926
      ],
      [
        "Ġchicken",
        -9.555301428855472
      ],
      [
        "land",
        -9.557575730415946
      ],
      [
        "Ġfilm",
        -9.557606620929894
      ],
      [
        "Ġprinciple",
        -9.557671682376018
      ],
      [
        "Ġcame",
        -9.55797772485597
      ],
      [
        "therapy",
        -9.560030397186242
      ],
      [
        "ĠOur",
        -9.561174946195674
      ],
      [
        "ĠInstitute",
        -9.56133920482294
      ],
      [
        "Ġforward",
        -9.56225390810432
      ],
      [
        "Ġreasons",
        -9.56353265454797
      ],
      [
        "Ġwrong",
        -9.564634719905293
      ],
      [
        "ĠO",
        -9.56507601419228
      ],
      [
        "Some",
        -9.56516318421804
      ],
      [
        "lost",
        -9.56650302389069
      ],
      [
        "Ġpath",
        -9.566630497030587
      ],
      [
        "Ġoutdoor",
        -9.566723289277808
      ],
      [
        "Ġmeaning",
        -9.566906928288208
      ],
      [
        "Ġphoto",
        -9.567440904617316
      ],
      [
        "W",
        -9.567447720126562
      ],
      [
        "Ġgiv",
        -9.567976864477345
      ],
      [
        "ĠWhy",
        -9.570674992869517
      ],
      [
        "Ġpicture",
        -9.573190498188955
      ],
      [
        "Ġanyone",
        -9.573294030189205
      ],
      [
        "Ġmagnetic",
        -9.573301904164186
      ],
      [
        "Ġfloor",
        -9.573353178430754
      ],
      [
        "Ġreplace",
        -9.57344657523995
      ],
      [
        "Ġcapacit",
        -9.57600069254562
      ],
      [
        "Ġseed",
        -9.576297077823083
      ],
      [
        "Ġconvert",
        -9.576829402611144
      ],
      [
        "Ġmen",
        -9.57748192601425
      ],
      [
        "Ġsubstance",
        -9.58058706171411
      ],
      [
        "inches",
        -9.580968006158969
      ],
      [
        "ĠOr",
        -9.581494381613322
      ],
      [
        "Ġpredict",
        -9.582386066232788
      ],
      [
        "Ġintroduce",
        -9.582849468980523
      ],
      [
        "Ġhands",
        -9.58288229495069
      ],
      [
        "Ġheight",
        -9.583918444547646
      ],
      [
        "Ġangle",
        -9.584044882833537
      ],
      [
        "Ġbrown",
        -9.585474996764844
      ],
      [
        "Ġcoast",
        -9.586159447278987
      ],
      [
        "Ġframe",
        -9.58652609340933
      ],
      [
        "ities",
        -9.58777224059832
      ],
      [
        "Ġsample",
        -9.590382191517696
      ],
      [
        "Ġaid",
        -9.593395369845478
      ],
      [
        "Ġflight",
        -9.593606914502908
      ],
      [
        "iabetes",
        -9.593728438461898
      ],
      [
        "Ġsolid",
        -9.595019686944005
      ],
      [
        "-up",
        -9.595569007533904
      ],
      [
        "Ġswitch",
        -9.59580466089712
      ],
      [
        "Ġimportan",
        -9.596468569123118
      ],
      [
        "Ġfill",
        -9.596789494368432
      ],
      [
        "Ġoccurs",
        -9.597267529687082
      ],
      [
        "Ġthousand",
        -9.597313671059958
      ],
      [
        "Ġadapt",
        -9.59776312236007
      ],
      [
        "Ġinteraction",
        -9.597819810379049
      ],
      [
        "Ġcooking",
        -9.5981428791121
      ],
      [
        "Ġclick",
        -9.598650958068774
      ],
      [
        "expensive",
        -9.598802901569574
      ],
      [
        "Ġconsumer",
        -9.60037257461709
      ],
      [
        "Ġsort",
        -9.600373745412504
      ],
      [
        "Ġdegrees",
        -9.600389699903603
      ],
      [
        "Ġmaximum",
        -9.602242570237562
      ],
      [
        "Ġ--",
        -9.60239860146212
      ],
      [
        "Ġpowerful",
        -9.603095094402972
      ],
      [
        "Ġcloth",
        -9.60353549628213
      ],
      [
        "ĠSystem",
        -9.60453180552734
      ],
      [
        "Ġbone",
        -9.604606646469016
      ],
      [
        "ĠNot",
        -9.60490712667611
      ],
      [
        "$",
        -9.605297532952804
      ],
      [
        "Ġthird",
        -9.605435658841728
      ],
      [
        "Ġfaster",
        -9.605776060379792
      ],
      [
        "Ġcoat",
        -9.605999339759062
      ],
      [
        "Ġelectronic",
        -9.606783138337908
      ],
      [
        "Ġreflect",
        -9.611152027481054
      ],
      [
        "Ġcentury",
        -9.61181246949096
      ],
      [
        "Ġsend",
        -9.611851884831504
      ],
      [
        "body",
        -9.613135109493385
      ],
      [
        "Ġconnection",
        -9.61354831555438
      ],
      [
        "Ġlonge",
        -9.61363809546868
      ],
      [
        "Ġcolour",
        -9.614057832573431
      ],
      [
        "On",
        -9.61418691896152
      ],
      [
        "Ġwrite",
        -9.614378806733365
      ],
      [
        "Ġrecognize",
        -9.614519805990009
      ],
      [
        "Ġmeter",
        -9.614666912577704
      ],
      [
        "Ġpaint",
        -9.61595841318386
      ],
      [
        "Ġconnect",
        -9.616986772505852
      ],
      [
        "Ġvia",
        -9.618418573554631
      ],
      [
        "Ġlegal",
        -9.619236137452296
      ],
      [
        "Ġeconomic",
        -9.620260109580755
      ],
      [
        "thus",
        -9.621792425284957
      ],
      [
        "Ġfamilies",
        -9.6220093929389
      ],
      [
        "Ġcleaning",
        -9.622543486736848
      ],
      [
        "Ġsalt",
        -9.624565600997824
      ],
      [
        "Ġlocated",
        -9.624641313948418
      ],
      [
        "Ġfully",
        -9.625504776015823
      ],
      [
        "K",
        -9.625681700260504
      ],
      [
        "Ġmotion",
        -9.626459191539135
      ],
      [
        "ization",
        -9.6276456588731
      ],
      [
        "Ġb",
        -9.628439488951082
      ],
      [
        "Ġplatform",
        -9.628551664914715
      ],
      [
        "Ġearth",
        -9.62915119189169
      ],
      [
        "Ġdeliver",
        -9.62915583068206
      ],
      [
        "Ġpush",
        -9.63253842916166
      ],
      [
        "Step",
        -9.632579859500227
      ],
      [
        "Ġpractical",
        -9.632688862720547
      ],
      [
        "Ġpieces",
        -9.632989383252625
      ],
      [
        "ĠMy",
        -9.633317231040616
      ],
      [
        "Ġreported",
        -9.63338698383571
      ],
      [
        "Ġmulti",
        -9.633960760172824
      ],
      [
        "ĠNOT",
        -9.635073711969106
      ],
      [
        "ĠGo",
        -9.635632536657535
      ],
      [
        "Ġhuge",
        -9.636796234189417
      ],
      [
        "Ġfrequenc",
        -9.638120847303352
      ],
      [
        "Ġinstall",
        -9.638398505706276
      ],
      [
        "Ġled",
        -9.640946908518478
      ],
      [
        "Ġspend",
        -9.641235050867271
      ],
      [
        "Ġcap",
        -9.642653620726191
      ],
      [
        "ese",
        -9.644794919782695
      ],
      [
        "Ġbeyond",
        -9.64505750676596
      ],
      [
        "About",
        -9.645452816644651
      ],
      [
        "Ġstone",
        -9.645663736255251
      ],
      [
        "Now",
        -9.645990519807295
      ],
      [
        "Ġstates",
        -9.646617745428111
      ],
      [
        "Ġfarmer",
        -9.647256210157405
      ],
      [
        "ism",
        -9.647530064209624
      ],
      [
        "Ġsaw",
        -9.64757905514644
      ],
      [
        "Ġcutting",
        -9.64763816602715
      ],
      [
        "ĠIndia",
        -9.650485420167849
      ],
      [
        "Ġreveal",
        -9.650705202138116
      ],
      [
        "Ġmatch",
        -9.652470522714644
      ],
      [
        "Ġmarine",
        -9.654086215800476
      ],
      [
        "ĠOther",
        -9.654171798000853
      ],
      [
        "Ġgenes",
        -9.654336574484397
      ],
      [
        "Ġtrack",
        -9.654906846331496
      ],
      [
        "Ġpark",
        -9.655428000654512
      ],
      [
        "Ġtexture",
        -9.655869567250477
      ],
      [
        "gan",
        -9.655963825395231
      ],
      [
        "Ġsell",
        -9.656722523962548
      ],
      [
        "Ġshoe",
        -9.658725658709702
      ],
      [
        "Ġpool",
        -9.659565054754545
      ],
      [
        "Ġmouth",
        -9.66006672052366
      ],
      [
        "Ġinternational",
        -9.662246350212593
      ],
      [
        "for",
        -9.662332153543826
      ],
      [
        "Ġmemor",
        -9.664161798447408
      ],
      [
        "Ġcouple",
        -9.665269285904778
      ],
      [
        "Ġidentifie",
        -9.66619336508846
      ],
      [
        "Ġhit",
        -9.666197551235786
      ],
      [
        "ĠState",
        -9.666444916555832
      ],
      [
        "Ġsweet",
        -9.666533099232408
      ],
      [
        "Ġgold",
        -9.666875176802415
      ],
      [
        "Ġdetails",
        -9.667053807227
      ],
      [
        "Ġgenome",
        -9.66782162651659
      ],
      [
        "society",
        -9.668996845300864
      ],
      [
        "ĠAls",
        -9.67130991459205
      ],
      [
        "Our",
        -9.67180128215556
      ],
      [
        "Ġstation",
        -9.67239647732872
      ],
      [
        "Ġworth",
        -9.673155232712428
      ],
      [
        "haps",
        -9.675111006555284
      ],
      [
        "ĠBlack",
        -9.676501186696871
      ],
      [
        "Ġsustain",
        -9.676555408972668
      ],
      [
        "Ġdegree",
        -9.677788335035933
      ],
      [
        "Ġcontext",
        -9.677798136162238
      ],
      [
        "Ġadvanced",
        -9.67798878796102
      ],
      [
        "Ġplanning",
        -9.678351990440753
      ],
      [
        "Ġfashion",
        -9.679336555860496
      ],
      [
        "Ġdecade",
        -9.681119354831058
      ],
      [
        "Ġdur",
        -9.681767751097738
      ],
      [
        "Ġfluid",
        -9.681964176000466
      ],
      [
        "Ġinsects",
        -9.681997047696385
      ],
      [
        "Ġkill",
        -9.682457310184718
      ],
      [
        "Ġbecomes",
        -9.685366517689433
      ],
      [
        "#",
        -9.685602622896988
      ],
      [
        "Ġgrass",
        -9.686219444030115
      ],
      [
        "Do",
        -9.689832783749774
      ],
      [
        "Ġfavorite",
        -9.6907430430835
      ],
      [
        "Be",
        -9.69156843665279
      ],
      [
        "Ġpump",
        -9.692054009696276
      ],
      [
        "Ġsuitabl",
        -9.692130577652987
      ],
      [
        "Ġspeak",
        -9.69223835596478
      ],
      [
        "Ġnational",
        -9.693547798693324
      ],
      [
        "Ġincluded",
        -9.694050154530434
      ],
      [
        "Ġsquare",
        -9.694117048189646
      ],
      [
        "Ġexpand",
        -9.694821652295763
      ],
      [
        "Ġvoltage",
        -9.69639770938974
      ],
      [
        "ĠAre",
        -9.697470715008867
      ],
      [
        "Ġfair",
        -9.69831185847967
      ],
      [
        "Ġgene",
        -9.698706955007374
      ],
      [
        "ĠEurope",
        -9.698845305698557
      ],
      [
        "G",
        -9.699443513222544
      ],
      [
        "ĠUs",
        -9.69955971577406
      ],
      [
        "Ġbutton",
        -9.699963669421402
      ],
      [
        "Ġcommercial",
        -9.700931524959916
      ],
      [
        "Ġoutcome",
        -9.702040549531118
      ],
      [
        "Ġcollection",
        -9.703763484651056
      ],
      [
        "older",
        -9.703885925256046
      ],
      [
        "Ġdocument",
        -9.70404559100714
      ],
      [
        "Ġalone",
        -9.704287567396625
      ],
      [
        "Ġexpect",
        -9.705927708603191
      ],
      [
        "Ġdrawing",
        -9.706860413086751
      ],
      [
        "Ġchang",
        -9.70721249416594
      ],
      [
        "Ġschedule",
        -9.707682561781397
      ],
      [
        "Ġshift",
        -9.70792657052091
      ],
      [
        "Ġdi",
        -9.70832948981158
      ],
      [
        "Ġsurger",
        -9.70873420100213
      ],
      [
        "-free",
        -9.70875936787559
      ],
      [
        "Ġarm",
        -9.70898925171742
      ],
      [
        "Ġplease",
        -9.709445607595711
      ],
      [
        ".com",
        -9.710709252444268
      ],
      [
        "Ġradio",
        -9.711941444450853
      ],
      [
        "Ġtechnologie",
        -9.71281617487465
      ],
      [
        "Ġthinking",
        -9.713451493099315
      ],
      [
        "Ġsurrounding",
        -9.713567109944083
      ],
      [
        "Ġestablish",
        -9.714203187063916
      ],
      [
        "Ġ#",
        -9.714409140386152
      ],
      [
        "Ġannual",
        -9.716457256448663
      ],
      [
        "Ġdivers",
        -9.716831155323128
      ],
      [
        "Ġlesson",
        -9.71768934694191
      ],
      [
        "Ġround",
        -9.719101232753411
      ],
      [
        "Ġstaff",
        -9.719732360801125
      ],
      [
        "Ġquick",
        -9.7216966187664
      ],
      [
        "Ġtrain",
        -9.722398351491265
      ],
      [
        "Ġlargest",
        -9.72409163413985
      ],
      [
        "Ġco",
        -9.724180367692403
      ],
      [
        "Ġfix",
        -9.724586881399212
      ],
      [
        "Ġpresen",
        -9.724909431297805
      ],
      [
        "Ġ|",
        -9.725228897775771
      ],
      [
        "expected",
        -9.725694814340777
      ],
      [
        "came",
        -9.727000373333428
      ],
      [
        "affected",
        -9.728280256897271
      ],
      [
        "over",
        -9.72833480455616
      ],
      [
        "Ġevolution",
        -9.72906600433922
      ],
      [
        "Ġbreath",
        -9.729087595162367
      ],
      [
        "Ġsoon",
        -9.729358164669176
      ],
      [
        "Ġhabitat",
        -9.72970560949645
      ],
      [
        "Ġengage",
        -9.729968914583198
      ],
      [
        "Ġvital",
        -9.730161809881965
      ],
      [
        "went",
        -9.730961968469298
      ],
      [
        "Ġmiddle",
        -9.731457431877718
      ],
      [
        "Ġroad",
        -9.731874506743248
      ],
      [
        "Ġorganism",
        -9.73252634557948
      ],
      [
        "Ġmolecule",
        -9.734065744725063
      ],
      [
        "ĠLet",
        -9.73650531588726
      ],
      [
        "Ġpound",
        -9.737676677960398
      ],
      [
        "Ġstuff",
        -9.737820311526928
      ],
      [
        "Ġvoice",
        -9.737873738028814
      ],
      [
        "-like",
        -9.738533754993298
      ],
      [
        "Ġconnected",
        -9.74009095599025
      ],
      [
        "Ġteaching",
        -9.740377452111527
      ],
      [
        "Ġtiny",
        -9.74038272738918
      ],
      [
        "Ġapproximate",
        -9.740668790625302
      ],
      [
        "Ġfabric",
        -9.740790633048594
      ],
      [
        "Ġletter",
        -9.74095109488421
      ],
      [
        "Ġï¿½",
        -9.741289375384092
      ],
      [
        "almos",
        -9.741343383958476
      ],
      [
        "Ġvaluable",
        -9.741675723537618
      ],
      [
        "Answer",
        -9.741962360482315
      ],
      [
        "theory",
        -9.74282263804989
      ],
      [
        "says",
        -9.743099677259496
      ],
      [
        "They",
        -9.744267155436352
      ],
      [
        "Ġdriv",
        -9.746065616722664
      ],
      [
        "Ġsecure",
        -9.746427360082125
      ],
      [
        "ĠAccording",
        -9.747361628852207
      ],
      [
        "Ġmoistur",
        -9.747377615266032
      ],
      [
        "Ġformat",
        -9.747441342163958
      ],
      [
        "ĠLearn",
        -9.752684723698849
      ],
      [
        "aught",
        -9.753179701894451
      ],
      [
        "Ġfight",
        -9.753416653938306
      ],
      [
        "Ġcheckbook",
        -9.753458404928631
      ],
      [
        "Ġsites",
        -9.755961911578977
      ],
      [
        "held",
        -9.756440454540437
      ],
      [
        "Ġflat",
        -9.756777687107046
      ],
      [
        "Al",
        -9.757023479421138
      ],
      [
        "Ġproperty",
        -9.757869477335383
      ],
      [
        "Ġmold",
        -9.75892960773154
      ],
      [
        "Ġcomment",
        -9.76121610528153
      ],
      [
        "Ġcomfort",
        -9.761282699661653
      ],
      [
        "Ġhabit",
        -9.761442107743004
      ],
      [
        "Ġeffort",
        -9.763387316987444
      ],
      [
        "Y",
        -9.763959045145985
      ],
      [
        "Ġleaf",
        -9.764188118291615
      ],
      [
        "ĠWater",
        -9.764318499250908
      ],
      [
        "Ġcapture",
        -9.764835930629374
      ],
      [
        "Ġbackground",
        -9.767105334341345
      ],
      [
        "ĠMay",
        -9.768411698867652
      ],
      [
        "Ġcream",
        -9.76894696745715
      ],
      [
        "Ġcomponent",
        -9.76980959620457
      ],
      [
        "Ġhapp",
        -9.769901087191007
      ],
      [
        "ĠOnc",
        -9.770237477740608
      ],
      [
        "Ġrace",
        -9.770329691752067
      ],
      [
        "Ġvirus",
        -9.770596791381951
      ],
      [
        "Ġdemonstrate",
        -9.771762008637356
      ],
      [
        "Ġfinding",
        -9.772811017006507
      ],
      [
        "itis",
        -9.773793206492371
      ],
      [
        "ĠCalifornia",
        -9.775558457004731
      ],
      [
        "Ġfeeding",
        -9.778027167881346
      ],
      [
        "Ġhour",
        -9.778524679457314
      ],
      [
        "Here",
        -9.77907786715866
      ],
      [
        "Ġoptimal",
        -9.77928464615227
      ],
      [
        "ĠJust",
        -9.779353348827025
      ],
      [
        "Ġquant",
        -9.779378335951211
      ],
      [
        "Ġexternal",
        -9.780307933990493
      ],
      [
        "Ġfacilit",
        -9.781041116053007
      ],
      [
        "Ġbar",
        -9.782319544355843
      ],
      [
        "Ġinjur",
        -9.78262476035933
      ],
      [
        "Ġfertilizer",
        -9.782972376940616
      ],
      [
        "Ġskate",
        -9.783746366505676
      ],
      [
        "Ġregularly",
        -9.784198830310814
      ],
      [
        "Ġshot",
        -9.78778938479681
      ],
      [
        "Ġdriver",
        -9.788158452107272
      ],
      [
        "Ġpanel",
        -9.790023381629709
      ],
      [
        "Ġbasi",
        -9.791762322762406
      ],
      [
        "ĠAustralia",
        -9.793347903178049
      ],
      [
        "ĠAfrica",
        -9.793351151492375
      ],
      [
        "Ġdie",
        -9.793594156866195
      ],
      [
        "Ġinternal",
        -9.794101020978204
      ],
      [
        "Ġmap",
        -9.794974223742727
      ],
      [
        "Ġcable",
        -9.795119578130263
      ],
      [
        "Ġconsistent",
        -9.796114499040202
      ],
      [
        "Ġcup",
        -9.796394250123887
      ],
      [
        "Ġhorse",
        -9.796522879941904
      ],
      [
        "go",
        -9.796891471137515
      ],
      [
        "Ġmedium",
        -9.798364436415218
      ],
      [
        "Ġbond",
        -9.798519319108
      ],
      [
        "Ġboat",
        -9.798633104914272
      ],
      [
        "Ġthin",
        -9.800377977398554
      ],
      [
        "Ġcareer",
        -9.801232811924477
      ],
      [
        "ar",
        -9.801725234257423
      ],
      [
        "Ġblade",
        -9.801815091436657
      ],
      [
        "Ġloop",
        -9.801830612162792
      ],
      [
        "Ġaren",
        -9.801990442323572
      ],
      [
        "Ġtube",
        -9.802273183203408
      ],
      [
        "Ġbright",
        -9.806511648727982
      ],
      [
        "Ġfinancial",
        -9.80713058540942
      ],
      [
        "Ġtransfer",
        -9.807547770372423
      ],
      [
        "Ġdangerous",
        -9.808326976414602
      ],
      [
        "ecurity",
        -9.8093147447692
      ],
      [
        "Ġefforts",
        -9.809459084235804
      ],
      [
        "Ġedge",
        -9.810335847285929
      ],
      [
        "Ġcreative",
        -9.81174554846399
      ],
      [
        "ĠDepartment",
        -9.811780631791986
      ],
      [
        "Ġatmosphere",
        -9.812338388236563
      ],
      [
        "Ġdental",
        -9.81237131713715
      ],
      [
        "efore",
        -9.813009247495543
      ],
      [
        "Ġcentral",
        -9.813347291370672
      ],
      [
        "âĢ¢",
        -9.813675521622653
      ],
      [
        "Ġpress",
        -9.81601301895795
      ],
      [
        "Ġartist",
        -9.816657849810666
      ],
      [
        "Ġcross",
        -9.817165195664431
      ],
      [
        "Ġbeginning",
        -9.817437087787251
      ],
      [
        "Ġmember",
        -9.818348905856578
      ],
      [
        "Ġbeauty",
        -9.820374568202263
      ],
      [
        "Ġyield",
        -9.82106859420646
      ],
      [
        "ĠPark",
        -9.821164593891613
      ],
      [
        "Ġhighlight",
        -9.821493398821003
      ],
      [
        "water",
        -9.821718512650737
      ],
      [
        "Ġcomfortable",
        -9.822151142395946
      ],
      [
        "Ġfinish",
        -9.822183245869144
      ],
      [
        "ĠGerman",
        -9.822727575427496
      ],
      [
        "Ġtrip",
        -9.82299590941986
      ],
      [
        "Ġcomprehensive",
        -9.823100622385391
      ],
      [
        "Ġalgorithm",
        -9.82410454933837
      ],
      [
        "Ġstock",
        -9.825798577616766
      ],
      [
        "Ġgames",
        -9.826261705165756
      ],
      [
        "Ġratio",
        -9.82915879331176
      ],
      [
        "Ġlose",
        -9.829281984055196
      ],
      [
        "Ġbeneficial",
        -9.830219618251974
      ],
      [
        "Ġselection",
        -9.83070455696302
      ],
      [
        "Ġconservation",
        -9.831397243155743
      ],
      [
        "ĠEnglish",
        -9.832452110192188
      ],
      [
        "Ġvalve",
        -9.833253679915869
      ],
      [
        "Ġdouble",
        -9.83362047489721
      ],
      [
        "Ġsurvey",
        -9.83462605047799
      ],
      [
        "ĠMake",
        -9.835187586288416
      ],
      [
        "Ġsmart",
        -9.836358264690505
      ],
      [
        "Ġcore",
        -9.836439552001352
      ],
      [
        "Ġappearance",
        -9.836755710447909
      ],
      [
        "Ġplate",
        -9.837643691386766
      ],
      [
        "Ġseal",
        -9.838030004500991
      ],
      [
        "Ġtransform",
        -9.840000410274609
      ],
      [
        "Ġdepth",
        -9.840815999594508
      ],
      [
        "Ġmedicine",
        -9.841788373819972
      ],
      [
        "Ġsuit",
        -9.842997740028116
      ],
      [
        "Ġcrops",
        -9.843488579574911
      ],
      [
        "That",
        -9.845546659116668
      ],
      [
        "Ġgrain",
        -9.845676634736066
      ],
      [
        "Ġreference",
        -9.845730998447529
      ],
      [
        "ĠFood",
        -9.84657311753078
      ],
      [
        "ĠFirst",
        -9.847468335357163
      ],
      [
        "Ġassess",
        -9.847715040698876
      ],
      [
        "care",
        -9.848547096991236
      ],
      [
        "Ġcoffee",
        -9.849136099679594
      ],
      [
        "Ġthreat",
        -9.84968826177337
      ],
      [
        "Ġheal",
        -9.850031177866033
      ],
      [
        "ĠChina",
        -9.850564678990253
      ],
      [
        "Ġpollution",
        -9.8506913551597
      ],
      [
        "Ġcanno",
        -9.851245834354252
      ],
      [
        "ory",
        -9.851765207957836
      ],
      [
        "Ġweigh",
        -9.85210667000085
      ],
      [
        "Ġmuscles",
        -9.852225840518626
      ],
      [
        "Ġlabel",
        -9.853128437948808
      ],
      [
        "Ġdistribution",
        -9.853338834588516
      ],
      [
        "ĠSince",
        -9.853682607176992
      ],
      [
        "Ġaware",
        -9.8537028946441
      ],
      [
        "Ġfail",
        -9.853714464799577
      ],
      [
        "Ġnative",
        -9.853814882988251
      ],
      [
        "Ġparameter",
        -9.854211359989195
      ],
      [
        "Ġonto",
        -9.85424707212392
      ],
      [
        "Ġchannel",
        -9.85476074257362
      ],
      [
        "Ġemail",
        -9.855080993982968
      ],
      [
        "Ġattempt",
        -9.857722418762911
      ],
      [
        "Ġstatus",
        -9.859434551757396
      ],
      [
        "Ġroutine",
        -9.8601414369753
      ],
      [
        "Ġinsight",
        -9.8610436650977
      ],
      [
        "Ġoperate",
        -9.86172992341596
      ],
      [
        "Ġconcentration",
        -9.862396798693856
      ],
      [
        "ĠEvery",
        -9.863482727938106
      ],
      [
        "tic",
        -9.863878438452652
      ],
      [
        "ĠUK",
        -9.864094801723812
      ],
      [
        "Ġhelpful",
        -9.86478756585666
      ],
      [
        "ĠâĢ¢",
        -9.86480270203568
      ],
      [
        "Ġminerals",
        -9.865504291533483
      ],
      [
        "Ġcarrie",
        -9.86592356460406
      ],
      [
        "Ġindependent",
        -9.86656920310154
      ],
      [
        "ĠEven",
        -9.86696206084824
      ],
      [
        "Ġcorn",
        -9.867695209494595
      ],
      [
        "ĠNature",
        -9.868140549978152
      ],
      [
        "Ġemploy",
        -9.86897043170617
      ],
      [
        "Ġmaintaining",
        -9.869528662522546
      ],
      [
        "-year",
        -9.87031246924279
      ],
      [
        "Ġrain",
        -9.870733195139708
      ],
      [
        "Ġpack",
        -9.871011972087608
      ],
      [
        "Ġmiles",
        -9.871039064224536
      ],
      [
        "Ġperspective",
        -9.873811115346031
      ],
      [
        "Ġsmalle",
        -9.873978558743408
      ],
      [
        "up",
        -9.87535739215674
      ],
      [
        "Ġnitrogen",
        -9.876161743474558
      ],
      [
        "Ġharvest",
        -9.876529100508998
      ],
      [
        "Ġcurve",
        -9.876621383577916
      ],
      [
        "Ġspeaker",
        -9.87692318139537
      ],
      [
        "Ġlisten",
        -9.878258085958027
      ],
      [
        "Ġinsulati",
        -9.878662538322503
      ],
      [
        "Ġapp",
        -9.8786979547856
      ],
      [
        "Ġagricultur",
        -9.879574585932282
      ],
      [
        "Ġpossibilit",
        -9.879801276187184
      ],
      [
        "Ġsub",
        -9.879812045557276
      ],
      [
        "Ġdoor",
        -9.881525077373254
      ],
      [
        "Ġpolicy",
        -9.881752994191098
      ],
      [
        "Ġfiber",
        -9.882076419394046
      ],
      [
        "After",
        -9.882177565448467
      ],
      [
        "ship",
        -9.882655873762836
      ],
      [
        "related",
        -9.883497557807306
      ],
      [
        "Ġtrigger",
        -9.884160383561444
      ],
      [
        "Ġclient",
        -9.884531017738272
      ],
      [
        "Ġnerve",
        -9.88740773890254
      ],
      [
        "Ġpipe",
        -9.887770689910296
      ],
      [
        "Ġdecline",
        -9.887773775828755
      ],
      [
        "ĠAir",
        -9.887977802786867
      ],
      [
        "Ġprepared",
        -9.888537189419148
      ],
      [
        "Ġprogress",
        -9.889031308634843
      ],
      [
        "Ġengineering",
        -9.890013051708358
      ],
      [
        "Ġadvice",
        -9.89062206366013
      ],
      [
        "No",
        -9.89129139236478
      ],
      [
        "Ġprefer",
        -9.8916106147051
      ],
      [
        "Ġatom",
        -9.893396085622218
      ],
      [
        "that",
        -9.89398087192387
      ],
      [
        "Ġprivate",
        -9.895287422640052
      ],
      [
        "Ġdrain",
        -9.89587398748489
      ],
      [
        "Ġnutrient",
        -9.895934811701704
      ],
      [
        "Q",
        -9.896853906998045
      ],
      [
        "Ġdrop",
        -9.897005185131295
      ],
      [
        "Ġroots",
        -9.899053562512837
      ],
      [
        "Ġeconom",
        -9.899265653471447
      ],
      [
        "Ġeducational",
        -9.899532296790362
      ],
      [
        "Ġstain",
        -9.899928828430728
      ],
      [
        "ence",
        -9.900002979618831
      ],
      [
        "Ġtrust",
        -9.90064324381451
      ],
      [
        "Ġgoals",
        -9.900650747100904
      ],
      [
        "Ġtitle",
        -9.90182176055766
      ],
      [
        "Ġtechnical",
        -9.902209638246587
      ],
      [
        "ĠHigh",
        -9.903265133762126
      ],
      [
        "ĠSea",
        -9.904348017057066
      ],
      [
        "Ġbodie",
        -9.90514607112663
      ],
      [
        "Ġdead",
        -9.90550234914866
      ],
      [
        "Ġtopic",
        -9.90650996002617
      ],
      [
        "Ġfunctional",
        -9.906708071896126
      ],
      [
        "ĠEuropean",
        -9.90685368038724
      ],
      [
        "ian",
        -9.90797626424828
      ],
      [
        "Ġcalculate",
        -9.90853564799998
      ],
      [
        "Ġlay",
        -9.909280307313022
      ],
      [
        "Ġgear",
        -9.910068398327226
      ],
      [
        "Ġcultural",
        -9.910667441267332
      ],
      [
        "ma",
        -9.910915742377078
      ],
      [
        "Ġpets",
        -9.9119580609687
      ],
      [
        "wide",
        -9.912567199199614
      ],
      [
        "Ġrespond",
        -9.912652740067257
      ],
      [
        "Ġgrown",
        -9.91282183501652
      ],
      [
        "My",
        -9.91287427411106
      ],
      [
        "Ġagree",
        -9.9128840264771
      ],
      [
        "Ġupper",
        -9.913339299249916
      ],
      [
        "Ġgrade",
        -9.913928537125642
      ],
      [
        "ĠInternational",
        -9.913998664367766
      ],
      [
        "Ġparticipant",
        -9.914416717822087
      ],
      [
        "Ġdiscussion",
        -9.915742465663968
      ],
      [
        "Ġmixture",
        -9.915858646131834
      ],
      [
        "ĠIsland",
        -9.916520586896606
      ],
      [
        "Ġbiological",
        -9.916750393491332
      ],
      [
        "Ġsession",
        -9.91742818673491
      ],
      [
        "ĠDon",
        -9.917502883859145
      ],
      [
        "ber",
        -9.917503200109373
      ],
      [
        "Ġwindow",
        -9.91779550202833
      ],
      [
        "ĠEducation",
        -9.918797998106005
      ],
      [
        "Ġweed",
        -9.919167944772042
      ],
      [
        "Ġmode",
        -9.919171294279314
      ],
      [
        "Ġprimari",
        -9.920408234832053
      ],
      [
        "Ġstorm",
        -9.92171008523444
      ],
      [
        "Ġconsume",
        -9.922427988406085
      ],
      [
        "Ġmark",
        -9.922482292332866
      ],
      [
        "Ġjoint",
        -9.922988042962793
      ],
      [
        "Ġbirth",
        -9.92308926946962
      ],
      [
        "Ġfundamental",
        -9.923994766781956
      ],
      [
        "Ġbear",
        -9.924139446013884
      ],
      [
        "Ġrules",
        -9.92433258699915
      ],
      [
        "Ġoven",
        -9.92439882631394
      ],
      [
        "Ġstraight",
        -9.92529045744675
      ],
      [
        "Ġwrit",
        -9.92538188418629
      ],
      [
        "Ġbillion",
        -9.925847783796534
      ],
      [
        "ĠWar",
        -9.926013619659772
      ],
      [
        "Ġdivide",
        -9.926524004430982
      ],
      [
        "Ġimprovement",
        -9.927733355126904
      ],
      [
        "what",
        -9.928091322383256
      ],
      [
        "Ġportion",
        -9.928603815341004
      ],
      [
        "Ġblend",
        -9.92923744610193
      ],
      [
        "Ġjoin",
        -9.929655363923349
      ],
      [
        "Ġartificial",
        -9.929974296857246
      ],
      [
        "Ġsurvive",
        -9.930113252686308
      ],
      [
        "Ġcollege",
        -9.930188541979003
      ],
      [
        "Ġimprov",
        -9.93085731330571
      ],
      [
        "Ġreferr",
        -9.932915685853864
      ],
      [
        "Ġancient",
        -9.93409263430641
      ],
      [
        "Ġbooks",
        -9.934463580395375
      ],
      [
        "Ġpregnancy",
        -9.935198111257275
      ],
      [
        "Ġpilot",
        -9.93596493475142
      ],
      [
        "ĠDuring",
        -9.936038215773536
      ],
      [
        "-friendl",
        -9.93642553640838
      ],
      [
        "ĠMarch",
        -9.936933861968448
      ],
      [
        "Ġtransition",
        -9.93763761481685
      ],
      [
        "Ġradiation",
        -9.938017925882516
      ],
      [
        "Ġcm",
        -9.939189994155743
      ],
      [
        "Ġaudio",
        -9.93997086268314
      ],
      [
        "Ġowners",
        -9.940203677970905
      ],
      [
        "Ġmid",
        -9.94108287760561
      ],
      [
        "Ġsuffer",
        -9.941705405615345
      ],
      [
        "Ġprovider",
        -9.94175705470614
      ],
      [
        "Ġdrug",
        -9.9428235656789
      ],
      [
        "Ġstrain",
        -9.942995943310349
      ],
      [
        "Ġdefinition",
        -9.943456523444995
      ],
      [
        "Ġbones",
        -9.943576520686136
      ],
      [
        "Ġconclusion",
        -9.94417656298058
      ],
      [
        "bility",
        -9.9462141369782
      ],
      [
        "Ġrequest",
        -9.946334814719927
      ],
      [
        "ĠDay",
        -9.947176387191682
      ],
      [
        "Ġsequence",
        -9.947215319069016
      ],
      [
        "Ġbreeding",
        -9.947794609010844
      ],
      [
        "Ġknee",
        -9.948788773705882
      ],
      [
        "Ġprocedure",
        -9.950548346515262
      ],
      [
        "Ġsounds",
        -9.950706557842675
      ],
      [
        "Ġbill",
        -9.951442201227962
      ],
      [
        "Ġfindings",
        -9.952274238591762
      ],
      [
        "Ġcompost",
        -9.952328688333644
      ],
      [
        "Ġemployee",
        -9.952632413751036
      ],
      [
        "Ġenzyme",
        -9.953095105660834
      ],
      [
        "J",
        -9.954513450420457
      ],
      [
        "Ġcommand",
        -9.95503625667057
      ],
      [
        "Ġdetail",
        -9.955120040026047
      ],
      [
        "ĠGreen",
        -9.955408532898606
      ],
      [
        "Ġcompar",
        -9.955494204006804
      ],
      [
        "Ġconfirm",
        -9.955672892819711
      ],
      [
        "Ġadopt",
        -9.95577448398154
      ],
      [
        "Ġeventually",
        -9.956047772556367
      ],
      [
        "Ġimmediate",
        -9.956467732414415
      ],
      [
        "with",
        -9.956760258836171
      ],
      [
        "Ġelectron",
        -9.957056238433426
      ],
      [
        "Ġrespect",
        -9.957718359349546
      ],
      [
        "Ġvariation",
        -9.95869644344139
      ],
      [
        "/or",
        -9.958831184436155
      ],
      [
        "Ġoffice",
        -9.958977200877191
      ],
      [
        "ĠâĢ¦",
        -9.958986218692132
      ],
      [
        "Ġattract",
        -9.961679038595058
      ],
      [
        "Ġpropose",
        -9.9617473261403
      ],
      [
        "ĠRe",
        -9.962095186266268
      ],
      [
        "Ġindoor",
        -9.962146197430048
      ],
      [
        "Ġblog",
        -9.96215153034058
      ],
      [
        "-in",
        -9.962444783845744
      ],
      [
        "Ġthrow",
        -9.963133215775272
      ],
      [
        "Ġfinger",
        -9.963439972745054
      ],
      [
        "Ġvirtual",
        -9.96354201506922
      ],
      [
        "Ġprepare",
        -9.96420451620856
      ],
      [
        "line",
        -9.964474092219625
      ],
      [
        "Ġsports",
        -9.965167214935288
      ],
      [
        "Ġdigesti",
        -9.966528852432798
      ],
      [
        "Ġpercentage",
        -9.96712484439464
      ],
      [
        "Ġborn",
        -9.967125202791618
      ],
      [
        "Ġexamine",
        -9.968714150204484
      ],
      [
        "Ġexcessive",
        -9.970029330218452
      ],
      [
        "-quality",
        -9.970113542774142
      ],
      [
        "Ġcontinuous",
        -9.97058075128014
      ],
      [
        "Ġraw",
        -9.971607073267618
      ],
      [
        "Ġnice",
        -9.972760904530311
      ],
      [
        "therefore",
        -9.973448432535198
      ],
      [
        "ture",
        -9.97416299935837
      ],
      [
        "field",
        -9.974287721690636
      ],
      [
        "Ġsnake",
        -9.974938009983388
      ],
      [
        "Ġport",
        -9.97598936614963
      ],
      [
        "Ġowner",
        -9.976607268682402
      ],
      [
        "Ġcreature",
        -9.977554328266752
      ],
      [
        "ĠApri",
        -9.977878609428087
      ],
      [
        "Ġleak",
        -9.978082381211625
      ],
      [
        "Ġoffering",
        -9.978495824739298
      ],
      [
        "Ġbusinesses",
        -9.978662864700476
      ],
      [
        "Ġzone",
        -9.979657577259736
      ],
      [
        "Ġemergenc",
        -9.979811058253109
      ],
      [
        "Ġship",
        -9.980464178510196
      ],
      [
        "Ġengineer",
        -9.980940548157074
      ],
      [
        "Ġnumerou",
        -9.981059828292
      ],
      [
        "Ġnest",
        -9.981343637027887
      ],
      [
        "ĠChine",
        -9.981617200097553
      ],
      [
        "Ġphotograph",
        -9.982510982367828
      ],
      [
        "Ġworked",
        -9.983250624217646
      ],
      [
        "ĠSept",
        -9.98335244445846
      ],
      [
        "ĠProgram",
        -9.983958402735713
      ],
      [
        "Ġlung",
        -9.985318090046697
      ],
      [
        "Ġrid",
        -9.985320607294698
      ],
      [
        "Ġcredit",
        -9.985827044617302
      ],
      [
        "Ġsuper",
        -9.986186372075208
      ],
      [
        "Ġpot",
        -9.986894699653966
      ],
      [
        "Ġformation",
        -9.987649179710804
      ],
      [
        "Ġweb",
        -9.98824844205816
      ],
      [
        "Ġafford",
        -9.989736152705436
      ],
      [
        "Ġmorning",
        -9.990209230322872
      ],
      [
        "Ġfoundation",
        -9.990383371600664
      ],
      [
        "way",
        -9.99097878728194
      ],
      [
        "Ġclasse",
        -9.991052332130089
      ],
      [
        "Ġtooth",
        -9.991726830854343
      ],
      [
        "Ġreduction",
        -9.992022072496797
      ],
      [
        "Ġreliabl",
        -9.99203801524811
      ],
      [
        "Ġroof",
        -9.99224193053514
      ],
      [
        "Ġsupplement",
        -9.994014374291003
      ],
      [
        "ification",
        -9.994360945498505
      ],
      [
        "Ġlens",
        -9.995938300699285
      ],
      [
        "Ġlatest",
        -9.996482761427206
      ],
      [
        "Ġassessment",
        -9.996811549216002
      ],
      [
        "Ġbread",
        -9.99827126544404
      ],
      [
        "diversity",
        -9.998281514100812
      ],
      [
        "Ġmechanical",
        -9.9983707401563
      ],
      [
        "ĠHave",
        -10.001307703840697
      ],
      [
        "Ġcomposition",
        -10.00329657405617
      ],
      [
        "Ġrelax",
        -10.00430353938786
      ],
      [
        "Ġworry",
        -10.00452036364618
      ],
      [
        "Ġjournal",
        -10.004795283429743
      ],
      [
        "Ġobvious",
        -10.005197692782666
      ],
      [
        "Ġawarenes",
        -10.006149402413923
      ],
      [
        "Ġrelevan",
        -10.006701619148869
      ],
      [
        "Ġexhibit",
        -10.00737346737696
      ],
      [
        "Ġillness",
        -10.008077994255816
      ],
      [
        "Ġexpression",
        -10.008194023843329
      ],
      [
        "Ġprofessionals",
        -10.008459186460602
      ],
      [
        "Ġtraffic",
        -10.009318623918746
      ],
      [
        "which",
        -10.011200248646002
      ],
      [
        "ĠYork",
        -10.011349427494096
      ],
      [
        "Ġmin",
        -10.011414366505829
      ],
      [
        "Ġhormone",
        -10.012296113298431
      ],
      [
        "Ġmission",
        -10.012311675604384
      ],
      [
        "Many",
        -10.012412976947864
      ],
      [
        "brough",
        -10.01270135232399
      ],
      [
        "Ġwhose",
        -10.014157769205225
      ],
      [
        "Ġcook",
        -10.014562801253277
      ],
      [
        "X",
        -10.014625198427217
      ],
      [
        "Ġmanufactur",
        -10.015067337972184
      ],
      [
        "kept",
        -10.015530638759737
      ],
      [
        "Conclusion",
        -10.01562689540904
      ],
      [
        "Januar",
        -10.015649369369754
      ],
      [
        "Are",
        -10.016065124813103
      ],
      [
        "Ġassist",
        -10.016082920403353
      ],
      [
        "Your",
        -10.016321586390374
      ],
      [
        "ĠService",
        -10.017033441736784
      ],
      [
        "aging",
        -10.017295799027169
      ],
      [
        "Ġabsorb",
        -10.018762734988725
      ],
      [
        "exposed",
        -10.01877944412589
      ],
      [
        "Ġorigin",
        -10.019192100443751
      ],
      [
        "Ġremov",
        -10.019216593330873
      ],
      [
        "Ġmeeting",
        -10.019507404410934
      ],
      [
        "Ġrule",
        -10.019812477852684
      ],
      [
        "Ġextract",
        -10.020244903802928
      ],
      [
        "particles",
        -10.020258196664823
      ],
      [
        "Ġencounter",
        -10.020668015696051
      ],
      [
        "Ġnation",
        -10.021589369077828
      ],
      [
        "Ġskill",
        -10.021619078272074
      ],
      [
        "||",
        -10.022608598876
      ],
      [
        "Ġcatch",
        -10.02368006700288
      ],
      [
        "like",
        -10.02371694733935
      ],
      [
        "Ġsentence",
        -10.023901816521164
      ],
      [
        "Ġnutrition",
        -10.024490940188407
      ],
      [
        "ĠAsia",
        -10.024567108471
      ],
      [
        "ge",
        -10.024813174293
      ],
      [
        "Ġregulation",
        -10.024867568615822
      ],
      [
        "Ġremote",
        -10.025149084165273
      ],
      [
        "Ġinnovation",
        -10.025244992922772
      ],
      [
        "Ġsport",
        -10.0253439418597
      ],
      [
        "Ġstorie",
        -10.025619157939936
      ],
      [
        "Ġchanged",
        -10.02614123401054
      ],
      [
        "Most",
        -10.026192853888356
      ],
      [
        "Ġtight",
        -10.026792716051864
      ],
      [
        "Ġegg",
        -10.02706739194968
      ],
      [
        "Ġimplant",
        -10.027811054201822
      ],
      [
        "Ġchalleng",
        -10.02806299482263
      ],
      [
        "ĠCanada",
        -10.028082468775128
      ],
      [
        "ĠDog",
        -10.028302000503302
      ],
      [
        "ĠRiver",
        -10.029800374485324
      ],
      [
        "Ġsaying",
        -10.029818179320245
      ],
      [
        "Ġteach",
        -10.031573658137535
      ],
      [
        "Ġearlier",
        -10.03288404856712
      ],
      [
        "Ġdevelope",
        -10.035963056037268
      ],
      [
        "Ġreplacement",
        -10.036952840564382
      ],
      [
        "Ġinvestment",
        -10.038429409851451
      ],
      [
        "Ġzero",
        -10.040319699112528
      ],
      [
        "Ġdepression",
        -10.040425225956524
      ],
      [
        "ĠWell",
        -10.040585644400744
      ],
      [
        "Ġmanual",
        -10.04088603785164
      ],
      [
        "All",
        -10.043501002136118
      ],
      [
        "Ġisland",
        -10.043780584143928
      ],
      [
        "Ġinternet",
        -10.044303204343915
      ],
      [
        "ĠGreat",
        -10.045267463469608
      ],
      [
        "Ġchoos",
        -10.04531916662193
      ],
      [
        "Ġoperat",
        -10.045978488131947
      ],
      [
        "U",
        -10.046583722668682
      ],
      [
        "Ġclassroom",
        -10.048051422774607
      ],
      [
        "Ġpreference",
        -10.048066847435908
      ],
      [
        "Ġlibrar",
        -10.049198922354975
      ],
      [
        "Ġultimate",
        -10.04928151304872
      ],
      [
        "Ġtrend",
        -10.04928944501208
      ],
      [
        "Ġobservation",
        -10.049705136207429
      ],
      [
        "Ġtru",
        -10.050052538987163
      ],
      [
        "Ġtrie",
        -10.05051547941132
      ],
      [
        "Ġemotional",
        -10.05059282672908
      ],
      [
        "ï¿½",
        -10.050621525519755
      ],
      [
        "Ġones",
        -10.050848549503408
      ],
      [
        "formed",
        -10.051263263253858
      ],
      [
        "how",
        -10.051427022852817
      ],
      [
        "ĠLife",
        -10.05182276530922
      ],
      [
        "ĠType",
        -10.0523221711812
      ],
      [
        "Ġfirm",
        -10.052467972069971
      ],
      [
        "Ġtumor",
        -10.05389533447497
      ],
      [
        "ĠDoes",
        -10.054361135860484
      ],
      [
        "ley",
        -10.054694946120946
      ],
      [
        "ĠCity",
        -10.05565104311496
      ],
      [
        "Ġadvance",
        -10.055884043954212
      ],
      [
        "Ġsensitive",
        -10.056612759350312
      ],
      [
        "Ġhundred",
        -10.057046683637338
      ],
      [
        "Ġinteract",
        -10.057430813916952
      ],
      [
        "Ġaircraft",
        -10.057850421107648
      ],
      [
        "Ġstable",
        -10.05815378106941
      ],
      [
        "Ġparticle",
        -10.058437975950824
      ],
      [
        "Ġmineral",
        -10.058517296360348
      ],
      [
        "Ġthick",
        -10.058637759475722
      ],
      [
        "ĠFurther",
        -10.059462629402898
      ],
      [
        "Ġcreation",
        -10.059817187859297
      ],
      [
        "Ġdetailed",
        -10.063137652413737
      ],
      [
        "Ġdensity",
        -10.064577658431762
      ],
      [
        "Ġboost",
        -10.064779668864093
      ],
      [
        "Ġmelt",
        -10.06536063094434
      ],
      [
        "Ġconsideration",
        -10.065937566882956
      ],
      [
        "ĠStart",
        -10.066614187308176
      ],
      [
        "Ġdetermined",
        -10.06739980373546
      ],
      [
        "Ġlift",
        -10.067426741431644
      ],
      [
        "our",
        -10.068661321062503
      ],
      [
        "Ġdrugs",
        -10.069096725144966
      ],
      [
        "Ġchronic",
        -10.069659439572256
      ],
      [
        "ver",
        -10.070560326218349
      ],
      [
        "Ġincredibl",
        -10.071097391418846
      ],
      [
        "Ġcard",
        -10.071352583126426
      ],
      [
        "Ġtreated",
        -10.071500848933884
      ],
      [
        "Ġwar",
        -10.07186834135602
      ],
      [
        "Ġroll",
        -10.07199686376346
      ],
      [
        "Ġopinion",
        -10.07272883751586
      ],
      [
        "Ġeliminate",
        -10.07290180569876
      ],
      [
        "Ġminimum",
        -10.074111901591442
      ],
      [
        "Ġsolve",
        -10.074211506038983
      ],
      [
        "Ġregister",
        -10.075004604273404
      ],
      [
        "}",
        -10.075022005612716
      ],
      [
        "ĠKeep",
        -10.076462698099231
      ],
      [
        "&",
        -10.076792718419998
      ],
      [
        "Ġapart",
        -10.077071398688092
      ],
      [
        "Ġplent",
        -10.07789689805101
      ],
      [
        "Ġrubber",
        -10.078023099894356
      ],
      [
        "Ġfiles",
        -10.07815870460766
      ],
      [
        "Ġpeak",
        -10.078295012130688
      ],
      [
        "Yes",
        -10.078357136117678
      ],
      [
        "Ġinterface",
        -10.078874473213885
      ],
      [
        "Ġsurvival",
        -10.07900178092572
      ],
      [
        "ĠDec",
        -10.08059645976292
      ],
      [
        "Ġmother",
        -10.080659257974109
      ],
      [
        "Ġcapabilit",
        -10.080671625400974
      ],
      [
        "Ġfear",
        -10.080693710301276
      ],
      [
        "Ġvaccine",
        -10.08158298951652
      ],
      [
        "Ġcheese",
        -10.081675631238458
      ],
      [
        "Ġrealize",
        -10.082085261473123
      ],
      [
        "trees",
        -10.082358346379646
      ],
      [
        "<",
        -10.084195810795514
      ],
      [
        "Ġenvironments",
        -10.084584898077884
      ],
      [
        "Ġlaunch",
        -10.084660153643783
      ],
      [
        "**",
        -10.084844730832852
      ],
      [
        "Ġcalm",
        -10.084980116026616
      ],
      [
        "Ġequation",
        -10.08535498218532
      ],
      [
        "Ġdeposit",
        -10.085358441591165
      ],
      [
        "Ġaccident",
        -10.0856037876114
      ],
      [
        "Ġlarva",
        -10.085758089770692
      ],
      [
        "Ġvertical",
        -10.087122324702486
      ],
      [
        "Ġforests",
        -10.08754992040795
      ],
      [
        "Ġminimize",
        -10.090113737596734
      ],
      [
        "Ġurban",
        -10.09059716024564
      ],
      [
        "Ġbottle",
        -10.090693636842795
      ],
      [
        "Ġlifestyle",
        -10.09113287845848
      ],
      [
        "twic",
        -10.091169237316157
      ],
      [
        "Ġspecialize",
        -10.092268064555435
      ],
      [
        "Ġwet",
        -10.09240462422128
      ],
      [
        "from",
        -10.093934780455974
      ],
      [
        "Ġkitchen",
        -10.094719673540684
      ],
      [
        "Ġvehicles",
        -10.094956434974224
      ],
      [
        "Ġcalci",
        -10.095118288102285
      ],
      [
        "Ġdamaged",
        -10.098075935533217
      ],
      [
        "Ġhousehold",
        -10.09827071649208
      ],
      [
        "Ġpowder",
        -10.098927040576092
      ],
      [
        "Ġargument",
        -10.100634000041405
      ],
      [
        "Ġdish",
        -10.101188022318446
      ],
      [
        "Ġguideline",
        -10.101381086294804
      ],
      [
        "Ġconsequence",
        -10.102100212588873
      ],
      [
        "Ġpainting",
        -10.1026229897426
      ],
      [
        "Ġamazing",
        -10.10268520778161
      ],
      [
        "ĠLED",
        -10.102812021792552
      ],
      [
        "Ġextensive",
        -10.103258453981791
      ],
      [
        "âĢĻt",
        -10.103390227933964
      ],
      [
        "Ġchose",
        -10.103400422163542
      ],
      [
        "Ġband",
        -10.10443724573895
      ],
      [
        "Ġprogramming",
        -10.104571561506788
      ],
      [
        "upon",
        -10.105223428279611
      ],
      [
        "Ġdirt",
        -10.105430472346828
      ],
      [
        "Ġspecifical",
        -10.105504598971889
      ],
      [
        "Ġcontrast",
        -10.105735500088894
      ],
      [
        "Ġsamples",
        -10.105739639748702
      ],
      [
        "Ġmaster",
        -10.106026521325042
      ],
      [
        "ĠTexas",
        -10.107108286585984
      ],
      [
        "ng",
        -10.107172755302235
      ],
      [
        "Ġexpress",
        -10.107527176006876
      ],
      [
        "Ġbudget",
        -10.107596129008677
      ],
      [
        "Ġbees",
        -10.107873714594866
      ],
      [
        "Ġprompt",
        -10.108173065208527
      ],
      [
        "Ġuniversit",
        -10.108236882193031
      ],
      [
        "Ġconventional",
        -10.110865087238391
      ],
      [
        "Ġpesticide",
        -10.110945575402646
      ],
      [
        "According",
        -10.111070298816214
      ],
      [
        "Ġsufficient",
        -10.111170104566623
      ],
      [
        "Ġleaving",
        -10.111550613128514
      ],
      [
        "ĠCO",
        -10.111642187931784
      ],
      [
        "ĠPeople",
        -10.111968622810412
      ],
      [
        "Ġguy",
        -10.112831247795164
      ],
      [
        "Ġcontrolle",
        -10.11544882079392
      ],
      [
        "Ġstomach",
        -10.115461194346375
      ],
      [
        "Ġgum",
        -10.115807304022612
      ],
      [
        "Ġsituations",
        -10.11624219231104
      ],
      [
        "Ġjump",
        -10.116435185381878
      ],
      [
        "Ġspray",
        -10.117931948885118
      ],
      [
        "Ġlayers",
        -10.118341881876283
      ],
      [
        "Ġshade",
        -10.118660642587669
      ],
      [
        "Ġphotos",
        -10.119072859798576
      ],
      [
        "ĠFlorida",
        -10.12051432410274
      ],
      [
        "Ġabsolute",
        -10.121343733016172
      ],
      [
        "Ġsmell",
        -10.121516945928455
      ],
      [
        "Ġexplor",
        -10.12179676385318
      ],
      [
        "accurac",
        -10.122035091203257
      ],
      [
        "Ġshowing",
        -10.123121912450673
      ],
      [
        "Use",
        -10.12383454527578
      ],
      [
        "Ġplanting",
        -10.124080887281163
      ],
      [
        "Ġdesigne",
        -10.124349775117192
      ],
      [
        "Ġflour",
        -10.124564535071531
      ],
      [
        "Ġfailure",
        -10.12512201860864
      ],
      [
        "Ġeight",
        -10.126146370393176
      ],
      [
        "Ġbug",
        -10.126458125531087
      ],
      [
        "Ġcomputers",
        -10.127317722565184
      ],
      [
        "Ġgravit",
        -10.127669103859546
      ],
      [
        "Ġprofessor",
        -10.128254901952412
      ],
      [
        "Ġcompetition",
        -10.128851944411291
      ],
      [
        "Ġintake",
        -10.12928330933223
      ],
      [
        "Onc",
        -10.129388330011764
      ],
      [
        "resistant",
        -10.129630164593522
      ],
      [
        "Ġdownload",
        -10.129769634880155
      ],
      [
        "Ġcloud",
        -10.13046552959991
      ],
      [
        "Ġoral",
        -10.130516013992771
      ],
      [
        "he",
        -10.131007251477822
      ],
      [
        "Ġsaving",
        -10.131722039414012
      ],
      [
        "hildren",
        -10.132026216917245
      ],
      [
        "Ġhospital",
        -10.132302364589275
      ],
      [
        "{",
        -10.132325849722507
      ],
      [
        "Ġkg",
        -10.132568005054264
      ],
      [
        "More",
        -10.13326190387967
      ],
      [
        "Ġappreciate",
        -10.1335966743211
      ],
      [
        "Ġlots",
        -10.134134469443223
      ],
      [
        "Ġcomparison",
        -10.134537996741855
      ],
      [
        "ĠSt",
        -10.135275757143678
      ],
      [
        "Ġgreenhouse",
        -10.135306937758829
      ],
      [
        "Ġrough",
        -10.135542260519664
      ],
      [
        "ne",
        -10.135693073832403
      ],
      [
        "Ġahead",
        -10.137688226540634
      ],
      [
        "Ġseat",
        -10.138024762136544
      ],
      [
        "Ġfeather",
        -10.138244686329196
      ],
      [
        "work",
        -10.138273383023884
      ],
      [
        "Ġsheet",
        -10.138381489856242
      ],
      [
        "Ġchain",
        -10.139973935963791
      ],
      [
        "Ġspin",
        -10.1403263168677
      ],
      [
        "Ġproduc",
        -10.14154387076168
      ],
      [
        "Ġthread",
        -10.1419453692531
      ],
      [
        "Ġinitiative",
        -10.142338419514756
      ],
      [
        "Ġprecise",
        -10.142576157247206
      ],
      [
        "Ġassembl",
        -10.143349494302353
      ],
      [
        "ĠOver",
        -10.144479273671514
      ],
      [
        "|",
        -10.145446554514256
      ],
      [
        "Ġshar",
        -10.14562795350808
      ],
      [
        "ĠGod",
        -10.147333405047023
      ],
      [
        "-time",
        -10.148897469139602
      ],
      [
        "Ġindustrial",
        -10.150112952408486
      ],
      [
        "ĠGarden",
        -10.150272021126565
      ],
      [
        "Ġvarie",
        -10.1508040681418
      ],
      [
        "Ġclimb",
        -10.151161565283964
      ],
      [
        "ĠBoth",
        -10.151584879676504
      ],
      [
        "Ġthorough",
        -10.151695262253652
      ],
      [
        "wise",
        -10.152257558123468
      ],
      [
        "pH",
        -10.153080881748409
      ],
      [
        "ĠAdd",
        -10.153428583712676
      ],
      [
        "Ġcreativ",
        -10.153560768026209
      ],
      [
        "Ġedit",
        -10.154979501754692
      ],
      [
        "Ġquantit",
        -10.156445778165786
      ],
      [
        "Ġflood",
        -10.156460198423709
      ],
      [
        "...Ċ",
        -10.156854797319411
      ],
      [
        "Ġdistinct",
        -10.159565356911791
      ],
      [
        "definitely",
        -10.160190556213124
      ],
      [
        "keeping",
        -10.160366762541669
      ],
      [
        "Ġincorporate",
        -10.161560073739697
      ],
      [
        "Ġreward",
        -10.16172995984554
      ],
      [
        "ĠTE",
        -10.161804913227549
      ],
      [
        "Ġbite",
        -10.16550931251312
      ],
      [
        "Ġbroad",
        -10.165727024318052
      ],
      [
        "ĠSociet",
        -10.165974270458204
      ],
      [
        "Ġshop",
        -10.16794937647235
      ],
      [
        "tely",
        -10.169006033261535
      ],
      [
        "@",
        -10.169794480629667
      ],
      [
        "iness",
        -10.171129773192606
      ],
      [
        "ĠNov",
        -10.17336491519904
      ],
      [
        "Ġcalories",
        -10.173624030947796
      ],
      [
        "Ġupdate",
        -10.174027874304706
      ],
      [
        "Ġstructural",
        -10.174240840866103
      ],
      [
        "Ġorange",
        -10.17480232783585
      ],
      [
        "Ġexchange",
        -10.175149403878477
      ],
      [
        "Ġvisibl",
        -10.176412305702671
      ],
      [
        "Ġstroke",
        -10.177987984771583
      ],
      [
        "Ġtrial",
        -10.178329738906534
      ],
      [
        "Ġacademic",
        -10.17854532258667
      ],
      [
        "Ġboil",
        -10.178617008674344
      ],
      [
        "Ġhistorical",
        -10.179242384427296
      ],
      [
        "Ġmolecular",
        -10.180035135904632
      ],
      [
        "Ġbean",
        -10.180218768778438
      ],
      [
        "ĠJune",
        -10.180535391004506
      ],
      [
        "Ġhelping",
        -10.181349067753631
      ],
      [
        "Ġsit",
        -10.18213779482259
      ],
      [
        "Ġofficial",
        -10.182815440847298
      ],
      [
        "Ġcopy",
        -10.183744076800746
      ],
      [
        "Pro",
        -10.185308451605628
      ],
      [
        "Ġhydrogen",
        -10.185444789458552
      ],
      [
        "ĠBritish",
        -10.186960855789962
      ],
      [
        "Ġtear",
        -10.187305857283665
      ],
      [
        "Ġplus",
        -10.18789790746299
      ],
      [
        "Ġbelt",
        -10.1878986937188
      ],
      [
        "Ġimport",
        -10.187962910023751
      ],
      [
        "Ġteams",
        -10.188345849632697
      ],
      [
        "Ġlawn",
        -10.188538303487114
      ],
      [
        "Ġattribute",
        -10.1887160772126
      ],
      [
        "ĠGood",
        -10.188901702976269
      ],
      [
        "Ġimagine",
        -10.18921936894942
      ],
      [
        "Ġsong",
        -10.189993662964008
      ],
      [
        "ible",
        -10.19041785583953
      ],
      [
        "Ġbike",
        -10.192536598777252
      ],
      [
        "ĠAugust",
        -10.192805396996032
      ],
      [
        "Ġherb",
        -10.193700642031343
      ],
      [
        "ĠFrench",
        -10.193866623543045
      ],
      [
        "ĠSan",
        -10.193916617376452
      ],
      [
        "Ġmistake",
        -10.1945179130734
      ],
      [
        "Ġtire",
        -10.194745618386222
      ],
      [
        "ĠQ",
        -10.195421714448148
      ],
      [
        "Ġtrace",
        -10.19578264872798
      ],
      [
        "ĠEnergy",
        -10.196774164681733
      ],
      [
        "Ġsediment",
        -10.197055128371076
      ],
      [
        "Ġplane",
        -10.197203693880033
      ],
      [
        "Ġinnovative",
        -10.1976979958993
      ],
      [
        "systems",
        -10.19821578932492
      ],
      [
        "Ġmammal",
        -10.198346693062422
      ],
      [
        "Ġmobile",
        -10.198718911003256
      ],
      [
        "Ġoxidati",
        -10.199681126659726
      ],
      [
        "Ġpictures",
        -10.202066008922454
      ],
      [
        "Ġconstruct",
        -10.202478386697308
      ],
      [
        "Ġbroken",
        -10.202662420353196
      ],
      [
        "Ġfamiliar",
        -10.202696673841364
      ],
      [
        "Ġkidney",
        -10.202797228699067
      ],
      [
        "Ġrecovery",
        -10.20355756461641
      ],
      [
        "Ġvelocit",
        -10.20453119622758
      ],
      [
        "biology",
        -10.204972305877083
      ],
      [
        "Ġpackage",
        -10.205273980080738
      ],
      [
        "Ġwouldn",
        -10.206089669315183
      ],
      [
        "Ġclinical",
        -10.206551647964282
      ],
      [
        "Ġfly",
        -10.207504758874794
      ],
      [
        "Ġidentit",
        -10.207826625354766
      ],
      [
        "Ġscene",
        -10.208210614237036
      ],
      [
        "Ġequivalent",
        -10.20875239038854
      ],
      [
        "Ġtrade",
        -10.210014041091046
      ],
      [
        "ĠSun",
        -10.21054615259585
      ],
      [
        "Ġpin",
        -10.211895940475934
      ],
      [
        "Ġlock",
        -10.212057339127943
      ],
      [
        "Ġchocolate",
        -10.212407055384872
      ],
      [
        "Ġcooked",
        -10.21241072444144
      ],
      [
        "ural",
        -10.212652975019028
      ],
      [
        "Ġdecided",
        -10.213108801461908
      ],
      [
        "Ġspaces",
        -10.213236597739913
      ],
      [
        "Ġdecide",
        -10.213998947201304
      ],
      [
        "Ġinstrument",
        -10.21447580479332
      ],
      [
        "-of",
        -10.21481198009677
      ],
      [
        "Ġrecipe",
        -10.215879609040025
      ],
      [
        "Ġsurprise",
        -10.216174855217304
      ],
      [
        "Ġformula",
        -10.21625331379715
      ],
      [
        "Ġpredator",
        -10.217792050876692
      ],
      [
        "Ġbreast",
        -10.219654384277971
      ],
      [
        "Ġprotective",
        -10.220155759175164
      ],
      [
        "Ġfossil",
        -10.221139119626718
      ],
      [
        "Ġbath",
        -10.221434773617066
      ],
      [
        "Ġbutter",
        -10.22160640862216
      ],
      [
        "Ġnorth",
        -10.221642122242104
      ],
      [
        "Ġprior",
        -10.222110172902973
      ],
      [
        "Ġbowl",
        -10.222607064489818
      ],
      [
        "ical",
        -10.223153909292144
      ],
      [
        "Ġinvest",
        -10.223878263801623
      ],
      [
        "ĠTake",
        -10.224456519391634
      ],
      [
        "ĠAny",
        -10.224830695558488
      ],
      [
        "Ġbarrier",
        -10.22554429306923
      ],
      [
        "Ġfurni",
        -10.22558030134034
      ],
      [
        "ĠGet",
        -10.226115539091644
      ],
      [
        "Ġattend",
        -10.227051867768068
      ],
      [
        "ĠJul",
        -10.227101023430546
      ],
      [
        "Ġstream",
        -10.227178677571937
      ],
      [
        "ware",
        -10.227601219698258
      ],
      [
        "Ġmodule",
        -10.227640271424423
      ],
      [
        "Ġreache",
        -10.228061603138189
      ],
      [
        "Ġphysics",
        -10.228414980436009
      ],
      [
        "Ġriver",
        -10.229174766495658
      ],
      [
        "Ġcontract",
        -10.229364569196044
      ],
      [
        "Ġshell",
        -10.229370370674026
      ],
      [
        "ized",
        -10.229568549258182
      ],
      [
        "Ġexcit",
        -10.22993173685954
      ],
      [
        "Ġpink",
        -10.23138931471806
      ],
      [
        "Ġsudden",
        -10.231495540731206
      ],
      [
        "otherwise",
        -10.231737934651504
      ],
      [
        "ĠThu",
        -10.23206418906673
      ],
      [
        "Ġguid",
        -10.2321845265309
      ],
      [
        "Ġdiagnose",
        -10.233020359382138
      ],
      [
        "Ġspen",
        -10.233901184319215
      ],
      [
        "Ġliver",
        -10.234563931995432
      ],
      [
        "no",
        -10.234664444756389
      ],
      [
        "Ġwash",
        -10.2348927218554
      ],
      [
        "Ġparticipate",
        -10.234956723896545
      ],
      [
        "Ġplays",
        -10.235274201572311
      ],
      [
        "Ġintervention",
        -10.235277534535138
      ],
      [
        "uch",
        -10.235288605002612
      ],
      [
        "History",
        -10.23544786991988
      ],
      [
        "Ġuniverse",
        -10.235827601827175
      ],
      [
        "ĠGuide",
        -10.236372068176646
      ],
      [
        "Ġten",
        -10.237042217882818
      ],
      [
        "Ġfault",
        -10.237068294153875
      ],
      [
        "Ġhazard",
        -10.237144443671465
      ],
      [
        "ĠIndian",
        -10.23788269274594
      ],
      [
        "Ġinner",
        -10.238628927762113
      ],
      [
        "Ġconsult",
        -10.238690019099904
      ],
      [
        "Ġvast",
        -10.238889842809748
      ],
      [
        "ĠWhere",
        -10.239099737729708
      ],
      [
        "ĠTechnology",
        -10.239901007591197
      ],
      [
        "Ġagent",
        -10.240265624389457
      ],
      [
        "Ġwheel",
        -10.240721087983928
      ],
      [
        "ĠEast",
        -10.24306461407777
      ],
      [
        "Ġecosystem",
        -10.24342173171681
      ],
      [
        "ING",
        -10.24436629729272
      ],
      [
        "Ġchoices",
        -10.244407119995948
      ],
      [
        "Ġspirit",
        -10.24572654458778
      ],
      [
        "He",
        -10.24585976292937
      ],
      [
        "Ġfocuse",
        -10.246188340617303
      ],
      [
        "Ġsupplie",
        -10.246296039495595
      ],
      [
        "ĠOcto",
        -10.248641747632515
      ],
      [
        "ways",
        -10.248832736441408
      ],
      [
        "ĠCollege",
        -10.249066265738596
      ],
      [
        "Ġlaser",
        -10.249562193968938
      ],
      [
        "Ġthreaten",
        -10.25028525872937
      ],
      [
        "Ġlab",
        -10.250437180987486
      ],
      [
        "Ġevaluate",
        -10.250485231115086
      ],
      [
        "Ġturtle",
        -10.250895007897276
      ],
      [
        "Ġroute",
        -10.251385382299327
      ],
      [
        "Ġstar",
        -10.251727679149344
      ],
      [
        "intended",
        -10.251990681048866
      ],
      [
        "Ġfeedback",
        -10.25216967406506
      ],
      [
        "Ġpolitical",
        -10.252671427318573
      ],
      [
        "Ġlaws",
        -10.253644441632598
      ],
      [
        "Ġgradual",
        -10.2554868997728
      ],
      [
        "Ġintelligence",
        -10.255898970586832
      ],
      [
        "Ġwish",
        -10.257071856360271
      ],
      [
        "Ġusage",
        -10.257593541311325
      ],
      [
        "ĠAfrican",
        -10.258121400175892
      ],
      [
        "Ġdust",
        -10.25830312098817
      ],
      [
        "Ġloose",
        -10.259000386081366
      ],
      [
        "ĠCheck",
        -10.259469282569349
      ],
      [
        "Ġtrail",
        -10.260112349876517
      ],
      [
        "Ġyouth",
        -10.260943326868276
      ],
      [
        "Ġminimal",
        -10.261015966653918
      ],
      [
        "Ġdiagnosis",
        -10.261223481149464
      ],
      [
        "Ġhardware",
        -10.261825639919111
      ],
      [
        "adding",
        -10.261998646083288
      ],
      [
        "Ġplug",
        -10.262204707874112
      ],
      [
        "ĠPower",
        -10.262301111472595
      ],
      [
        "Ġbulb",
        -10.262668654567902
      ],
      [
        "Ġderive",
        -10.26401619990835
      ],
      [
        "ĠWashington",
        -10.26522123433812
      ],
      [
        "Ġrapid",
        -10.26574008933415
      ],
      [
        "osis",
        -10.265773265104569
      ],
      [
        "Ġtoxic",
        -10.266112510505508
      ],
      [
        "Ġpond",
        -10.266295218044345
      ],
      [
        "Ġedges",
        -10.266548516932248
      ],
      [
        "Ġtransmission",
        -10.266626964109294
      ],
      [
        "Ġdirector",
        -10.266785913844622
      ],
      [
        "Ġmild",
        -10.266818807906375
      ],
      [
        "Ġsnow",
        -10.267171290460483
      ],
      [
        "Ġalter",
        -10.267338100907931
      ],
      [
        "Ġfan",
        -10.267339358945463
      ],
      [
        "Ġopening",
        -10.267453145859974
      ],
      [
        "Ġgap",
        -10.26758584165538
      ],
      [
        "Ġsecret",
        -10.26776814950388
      ],
      [
        "Ġpermanent",
        -10.268883970583696
      ],
      [
        "Ġlinked",
        -10.26903510471674
      ],
      [
        "Ġcrack",
        -10.269124662775155
      ],
      [
        "Ġrealit",
        -10.269810409401831
      ],
      [
        "Ġtopics",
        -10.270268522000784
      ],
      [
        "Ġcommunicate",
        -10.270450701418508
      ],
      [
        "Ġvegetable",
        -10.270469764961572
      ],
      [
        "Ġmajorit",
        -10.270888179130168
      ],
      [
        "Ġdelicious",
        -10.271032645760952
      ],
      [
        "Ġsent",
        -10.271314922464972
      ],
      [
        "ant",
        -10.271389492851725
      ],
      [
        "Ġinstallation",
        -10.271455206802765
      ],
      [
        "Ġswimming",
        -10.271764417866622
      ],
      [
        "Ġnode",
        -10.272546281340537
      ],
      [
        "Ġcolumn",
        -10.272709631312242
      ],
      [
        "Ġdiffer",
        -10.272781197441969
      ],
      [
        "Ġgase",
        -10.272933388376988
      ],
      [
        "Ġfoster",
        -10.27543159107371
      ],
      [
        "Ġadequate",
        -10.275437254558296
      ],
      [
        "Ġsymbol",
        -10.276060511337857
      ],
      [
        "From",
        -10.276254549190892
      ],
      [
        "ĠSpace",
        -10.276623875970063
      ],
      [
        "Ġdesigner",
        -10.278384684997707
      ],
      [
        "ĠGoogle",
        -10.27864398572091
      ],
      [
        "Ġtrouble",
        -10.279083586171168
      ],
      [
        "Ġincome",
        -10.279095520990111
      ],
      [
        "Researchers",
        -10.27910197752896
      ],
      [
        "ĠPlant",
        -10.279857136971684
      ],
      [
        "Ġnutritional",
        -10.280393694641631
      ],
      [
        "Ġguess",
        -10.280861557018426
      ],
      [
        "Ġaudience",
        -10.28194077907306
      ],
      [
        "Ġsmoke",
        -10.28234098263179
      ],
      [
        "ĠAssociation",
        -10.28236918748378
      ],
      [
        "Ġsharp",
        -10.28266043560174
      ],
      [
        "Ġscore",
        -10.282914154401254
      ],
      [
        "Ġrapidly",
        -10.282969829195784
      ],
      [
        "Ġpreparation",
        -10.28341363793713
      ],
      [
        "Let",
        -10.28366504544033
      ],
      [
        "Ġstretch",
        -10.28550550863354
      ],
      [
        "ebru",
        -10.285648928254936
      ],
      [
        "ĠRed",
        -10.286041292471335
      ],
      [
        "Ġdiagram",
        -10.28609588414768
      ],
      [
        "Ġadventure",
        -10.286596726364127
      ],
      [
        "Ġbathroom",
        -10.286731030069038
      ],
      [
        "ĠLook",
        -10.286887763282582
      ],
      [
        "].",
        -10.287005972562437
      ],
      [
        "group",
        -10.287081060951143
      ],
      [
        "Ġinflammation",
        -10.287350996944364
      ],
      [
        "Ġcustom",
        -10.287627565290208
      ],
      [
        "ĠY",
        -10.28780419979995
      ],
      [
        "Ġworse",
        -10.287953634181443
      ],
      [
        "Ġseven",
        -10.288488752035692
      ],
      [
        "Ġarrive",
        -10.288726131718798
      ],
      [
        "Ġevolve",
        -10.289558085956344
      ],
      [
        "Ġthrive",
        -10.289568826952491
      ],
      [
        "Ġtrait",
        -10.291493387689917
      ],
      [
        "Ġmeasuring",
        -10.292016478539493
      ],
      [
        "Ġanalyze",
        -10.293197359324571
      ],
      [
        "Ġboundar",
        -10.2935428682038
      ],
      [
        "ĠHuman",
        -10.294298856653755
      ],
      [
        "Ġwasn",
        -10.294835659604306
      ],
      [
        "Ġtall",
        -10.295024023247391
      ],
      [
        "Ġassume",
        -10.295222262861678
      ],
      [
        "Ġmountain",
        -10.295653215996914
      ],
      [
        "ĠStudent",
        -10.29602584964694
      ],
      [
        "Ġbleed",
        -10.296051566092238
      ],
      [
        "Ġdedicate",
        -10.296506551649935
      ],
      [
        "Ġmanner",
        -10.296529641401564
      ],
      [
        "Ġsouth",
        -10.296606647150805
      ],
      [
        "ĠBlue",
        -10.29704752982738
      ],
      [
        "Ġagricultural",
        -10.29735819298064
      ],
      [
        "Since",
        -10.297370053293696
      ],
      [
        "ĠRemember",
        -10.298194976757918
      ],
      [
        "Ġthermal",
        -10.299507743043325
      ],
      [
        "ĠThrough",
        -10.299590510959938
      ],
      [
        "ĠPhotoshop",
        -10.300135433673985
      ],
      [
        "Ġbrush",
        -10.300609108966096
      ],
      [
        "mixed",
        -10.30071449518114
      ],
      [
        "Ġindustrie",
        -10.301380155923296
      ],
      [
        "ĠWest",
        -10.30142448261696
      ],
      [
        "all",
        -10.30187265238651
      ],
      [
        "Ġdiameter",
        -10.303047013996448
      ],
      [
        "Ġdose",
        -10.303577680910331
      ],
      [
        "ĠCare",
        -10.30376277443061
      ],
      [
        "Ġcavit",
        -10.303828697482649
      ],
      [
        "Ġprey",
        -10.305144032188966
      ],
      [
        "Ġintegrate",
        -10.305668495944309
      ],
      [
        "Ġga",
        -10.305856343396153
      ],
      [
        "Ġinstitution",
        -10.30604417625512
      ],
      [
        "Ġgift",
        -10.30629463396417
      ],
      [
        "Ġmassive",
        -10.306467057847744
      ],
      [
        "Ġspider",
        -10.306601787774516
      ],
      [
        "Ġworkshop",
        -10.307345207336525
      ],
      [
        "Ġimmediatel",
        -10.30740170895277
      ],
      [
        "Ġengaging",
        -10.30767741903816
      ],
      [
        "Ġtropical",
        -10.309066056876848
      ],
      [
        "rising",
        -10.30906984816436
      ],
      [
        "Ġinjuries",
        -10.310272108241774
      ],
      [
        "Ġkm",
        -10.310490579967684
      ],
      [
        "ĠMedica",
        -10.310551634885854
      ],
      [
        "wood",
        -10.311022347987098
      ],
      [
        "Ġparasite",
        -10.311546901523462
      ],
      [
        "ĠLike",
        -10.31186258169173
      ],
      [
        "Ġanimation",
        -10.312927976183426
      ],
      [
        "Ġpotato",
        -10.312973043618747
      ],
      [
        "Ġpossibl",
        -10.31306489531137
      ],
      [
        "Ġcoal",
        -10.313811195492434
      ],
      [
        "Ġquote",
        -10.314053390770257
      ],
      [
        "Ġbelief",
        -10.314829749382527
      ],
      [
        "ĠTime",
        -10.315389915292172
      ],
      [
        "Ġbab",
        -10.31571673756727
      ],
      [
        "Ġmanag",
        -10.315933918166234
      ],
      [
        "ĠHome",
        -10.316434177346974
      ],
      [
        "Ġmicro",
        -10.316831545008055
      ],
      [
        "Ġexcess",
        -10.31742617606937
      ],
      [
        "Ġcrystal",
        -10.317938765966254
      ],
      [
        "Ġrestaurant",
        -10.318365132679578
      ],
      [
        "Ġdynamic",
        -10.319074294955891
      ],
      [
        "Ġestablishe",
        -10.321210002639152
      ],
      [
        ".[",
        -10.321825984933744
      ],
      [
        "Ġhi",
        -10.32241457769736
      ],
      [
        "Ġcollaboration",
        -10.323635677857895
      ],
      [
        "ĠLondon",
        -10.32566771632434
      ],
      [
        "ĠEngl",
        -10.326166002795954
      ],
      [
        "ier",
        -10.327010603529285
      ],
      [
        "Ġputt",
        -10.327836130691296
      ],
      [
        "Ġrely",
        -10.328047218794534
      ],
      [
        "Ġwings",
        -10.328384503235418
      ],
      [
        "Ġopposite",
        -10.328584473072604
      ],
      [
        "ĠOcean",
        -10.3288578548597
      ],
      [
        "Ġsector",
        -10.329068874943845
      ],
      [
        "Ġadjustment",
        -10.329807548498696
      ],
      [
        "Ġfelt",
        -10.330230748862466
      ],
      [
        "nstead",
        -10.33036828565512
      ],
      [
        "Ġdelay",
        -10.33101652514991
      ],
      [
        "ĠCommon",
        -10.33106902863851
      ],
      [
        "Ġforget",
        -10.331151054359784
      ],
      [
        "ought",
        -10.331847249383706
      ],
      [
        "Ġbat",
        -10.331946925154512
      ],
      [
        "Â·",
        -10.33276704300694
      ],
      [
        "we",
        -10.333613391686525
      ],
      [
        "Ġnervous",
        -10.33367621826986
      ],
      [
        "you",
        -10.333707632300708
      ],
      [
        "ĠSee",
        -10.33407715101273
      ],
      [
        "ĠEl",
        -10.334148865397031
      ],
      [
        "Ġorgans",
        -10.334835919646729
      ],
      [
        "Ġgraph",
        -10.33554568939417
      ],
      [
        "Ġstring",
        -10.335955958379577
      ],
      [
        "Ġauthors",
        -10.336988187493729
      ],
      [
        "Ġformer",
        -10.336998177720922
      ],
      [
        "Ġreverse",
        -10.337331282237514
      ],
      [
        "Ġsauce",
        -10.337988671268707
      ],
      [
        "Ġrepeat",
        -10.338946593818529
      ],
      [
        "Ġvibrant",
        -10.339091794907391
      ],
      [
        "Ġalert",
        -10.339164549058708
      ],
      [
        "Ġpose",
        -10.339246475806032
      ],
      [
        "Ġdanger",
        -10.339793109866257
      ],
      [
        "gone",
        -10.33987944578891
      ],
      [
        "ĠHis",
        -10.34062872350749
      ],
      [
        "Ġpresentation",
        -10.341118825072163
      ],
      [
        "Ġgender",
        -10.341570057193955
      ],
      [
        "Ġlitter",
        -10.341943656731711
      ],
      [
        "Ġgrant",
        -10.342064714270348
      ],
      [
        "Ġmanufacturers",
        -10.342786248720742
      ],
      [
        "Ġperception",
        -10.343188487365438
      ],
      [
        "Ġcord",
        -10.343571041391488
      ],
      [
        "Ġlake",
        -10.343618364276107
      ],
      [
        "--",
        -10.343962596202644
      ],
      [
        "Ġalign",
        -10.34509304459748
      ],
      [
        "Ġfence",
        -10.345444320197911
      ],
      [
        "\"The",
        -10.346014223086446
      ],
      [
        "Ġwoman",
        -10.346566409298426
      ],
      [
        "-be",
        -10.347199671429372
      ],
      [
        "ĠNatural",
        -10.34827173789638
      ],
      [
        "ĠGreek",
        -10.348303636151712
      ],
      [
        "Ġneck",
        -10.348340671920855
      ],
      [
        "but",
        -10.348890599421242
      ],
      [
        "being",
        -10.348898935572034
      ],
      [
        "Ġserver",
        -10.349624235580247
      ],
      [
        "Ġfacing",
        -10.349694298346389
      ],
      [
        "ĠGeneral",
        -10.35046286547182
      ],
      [
        "Ġsteam",
        -10.35057755949424
      ],
      [
        "Ġsex",
        -10.350635527269072
      ],
      [
        "Ġmissing",
        -10.351190569962714
      ],
      [
        "Ġlimitation",
        -10.35181942695923
      ],
      [
        "First",
        -10.35206750336351
      ],
      [
        "Ġincorporat",
        -10.352660491865503
      ],
      [
        "Ġmovie",
        -10.352668039531975
      ],
      [
        "ĠEngineer",
        -10.353149884412286
      ],
      [
        "Ġrandom",
        -10.35430658390607
      ],
      [
        "Ġorganize",
        -10.356162479360382
      ],
      [
        "Ġpathway",
        -10.356509343320711
      ],
      [
        "Ġnews",
        -10.356523939483422
      ],
      [
        "ĠAnimal",
        -10.356895338519926
      ],
      [
        "low",
        -10.356930529799095
      ],
      [
        "Ġsales",
        -10.35698250658926
      ],
      [
        "ĠWild",
        -10.358312501245097
      ],
      [
        "?\"",
        -10.35858222926991
      ],
      [
        "Ġcircle",
        -10.35906964119839
      ],
      [
        "Ġrecover",
        -10.360029907079046
      ],
      [
        "Ġprogramme",
        -10.360469289834144
      ],
      [
        "ĠDisease",
        -10.360540999642948
      ],
      [
        "Ġdistribute",
        -10.361319026802793
      ],
      [
        "Ġecosystems",
        -10.361790607827375
      ],
      [
        "oxide",
        -10.362115919379002
      ],
      [
        "Ġshapes",
        -10.36366080995623
      ],
      [
        "-size",
        -10.364246524341764
      ],
      [
        "Ġhunting",
        -10.364348343754369
      ],
      [
        "Ġlense",
        -10.365094032231406
      ],
      [
        "ĠInterne",
        -10.365682234294823
      ],
      [
        "Ġunlike",
        -10.36588998972436
      ],
      [
        "Ġsexual",
        -10.365956697403217
      ],
      [
        "Ġnarrow",
        -10.367443622318484
      ],
      [
        "Ġcraft",
        -10.36788170264833
      ],
      [
        "ĠDesign",
        -10.367930996888775
      ],
      [
        "ĠConsider",
        -10.36816661131306
      ],
      [
        "Â",
        -10.368181515020172
      ],
      [
        "Ġinspire",
        -10.36950884817018
      ],
      [
        "Ġinterior",
        -10.37012315135336
      ],
      [
        "Ġcomput",
        -10.370126075796126
      ],
      [
        "Ġdishe",
        -10.37160246737577
      ],
      [
        "Ġlights",
        -10.372166641131574
      ],
      [
        "Ġpolic",
        -10.37235742287531
      ],
      [
        "Ġconversation",
        -10.372768513157109
      ],
      [
        "Ġborder",
        -10.373178135908738
      ],
      [
        "Ġantibiotic",
        -10.373535070598416
      ],
      [
        "some",
        -10.374123628631544
      ],
      [
        "ĠControl",
        -10.374828714588691
      ],
      [
        "Ġconfidence",
        -10.375433377906951
      ],
      [
        "Ġbridge",
        -10.375581581639135
      ],
      [
        "Ġgather",
        -10.37685302720056
      ],
      [
        "Ġapproache",
        -10.377015006658874
      ],
      [
        "Ġmutation",
        -10.378077330477147
      ],
      [
        "Ġchapter",
        -10.378444467293948
      ],
      [
        "Ġcoral",
        -10.378985136648769
      ],
      [
        "Ġdescription",
        -10.379247648843878
      ],
      [
        "Ġinsect",
        -10.380325458464078
      ],
      [
        "Ġaggressive",
        -10.380446303747602
      ],
      [
        "Ġecological",
        -10.381507764567743
      ],
      [
        "Ġemotion",
        -10.381946092073491
      ],
      [
        "Ġcalls",
        -10.38349763567838
      ],
      [
        "making",
        -10.385524841482788
      ],
      [
        "Ġmayb",
        -10.38566059036207
      ],
      [
        "Ġsatellite",
        -10.385962088674084
      ],
      [
        "ill",
        -10.387226843559644
      ],
      [
        "Ġnose",
        -10.387728061061065
      ],
      [
        "Ġkilogram",
        -10.388551599950413
      ],
      [
        "Ġlifespan",
        -10.389363876325165
      ],
      [
        "Ġvolunteer",
        -10.390159692493686
      ],
      [
        "Ġsmok",
        -10.390339529560872
      ],
      [
        "Ġrecommendation",
        -10.39037154180505
      ],
      [
        "Ġsecurit",
        -10.39082986529268
      ],
      [
        "Not",
        -10.391349000354282
      ],
      [
        "Ġ...Ċ",
        -10.391409953991182
      ],
      [
        "Ġdetermin",
        -10.391689820279533
      ],
      [
        "Ġcharacterize",
        -10.392231775204158
      ],
      [
        "ĠProject",
        -10.392995162708278
      ],
      [
        "AND",
        -10.39306165442422
      ],
      [
        "Ġvessels",
        -10.394499252170943
      ],
      [
        "Ġpure",
        -10.394538711884412
      ],
      [
        "Central",
        -10.394812592758228
      ],
      [
        "Ġcompose",
        -10.395194224722442
      ],
      [
        "Ġpasse",
        -10.396135670090189
      ],
      [
        "Ġmath",
        -10.396632287532784
      ],
      [
        "Ġprofit",
        -10.39665373270702
      ],
      [
        "Ġconvenient",
        -10.396654316975242
      ],
      [
        "Ġpromoting",
        -10.399641797354672
      ],
      [
        "Ġexam",
        -10.400039620702891
      ],
      [
        "Ġcouldn",
        -10.40010596058269
      ],
      [
        "Ġeffectiveness",
        -10.401160768772346
      ],
      [
        "Ġcoating",
        -10.401959351397135
      ],
      [
        "Ġshoulder",
        -10.4020148595698
      ],
      [
        "Ġbiodiversity",
        -10.402486950276714
      ],
      [
        "ĠJohn",
        -10.40255144944016
      ],
      [
        "ĠWork",
        -10.403478389182672
      ],
      [
        "Ġcow",
        -10.403869665873897
      ],
      [
        "Ġconcerned",
        -10.40398307809042
      ],
      [
        "ble",
        -10.40415042007569
      ],
      [
        "lines",
        -10.405907204559336
      ],
      [
        "Ġdied",
        -10.406149783692062
      ],
      [
        "Ġ{",
        -10.406226444741378
      ],
      [
        "âĢĺ",
        -10.406409622411775
      ],
      [
        "Ġknowing",
        -10.406680676312678
      ],
      [
        "Ġextent",
        -10.407152072127255
      ],
      [
        "Ġexplanation",
        -10.40722234806328
      ],
      [
        "Ġstrengthen",
        -10.407249242735467
      ],
      [
        "Ġsides",
        -10.40787295007658
      ],
      [
        "Ġeco",
        -10.408139956892148
      ],
      [
        "Ġstands",
        -10.408968999052938
      ],
      [
        "Ġminor",
        -10.40900633128901
      ],
      [
        "Ġattitude",
        -10.40943699642785
      ],
      [
        "Ġabilit",
        -10.410439759092462
      ],
      [
        "Ġneutral",
        -10.41076237622048
      ],
      [
        "Ġstability",
        -10.410933654080656
      ],
      [
        "Ġparty",
        -10.410933807076171
      ],
      [
        "Ġfamous",
        -10.41182057922722
      ],
      [
        "Ġvet",
        -10.411910079245576
      ],
      [
        "Ġshoot",
        -10.412306710536456
      ],
      [
        "Source",
        -10.412814118452513
      ],
      [
        "Ġconcrete",
        -10.412976009886693
      ],
      [
        "Ġtip",
        -10.41367229326228
      ],
      [
        "Ġchromosome",
        -10.413810419308916
      ],
      [
        "Ġbak",
        -10.414514725971172
      ],
      [
        "ĠYear",
        -10.414893832485031
      ],
      [
        "ility",
        -10.415292637083208
      ],
      [
        "Ġfather",
        -10.415693330019383
      ],
      [
        "Ġsold",
        -10.416644660905472
      ],
      [
        "Ġdrill",
        -10.417052960664977
      ],
      [
        "Ġpreserve",
        -10.418190193927176
      ],
      [
        "Ġantenna",
        -10.418295282064314
      ],
      [
        "Ġblind",
        -10.418344775796792
      ],
      [
        "ĠMexic",
        -10.419530178454352
      ],
      [
        "Ġheater",
        -10.420578227338916
      ],
      [
        "Ġbranche",
        -10.420608270670652
      ],
      [
        "ĠII",
        -10.423016853048328
      ],
      [
        "ĠFarming",
        -10.423020447571991
      ],
      [
        "Ġjobs",
        -10.424702200809309
      ],
      [
        "Ġcategori",
        -10.425991357819653
      ],
      [
        "Ġintense",
        -10.426140202673553
      ],
      [
        "Keep",
        -10.426288999853076
      ],
      [
        "Ġneuron",
        -10.427816393029232
      ],
      [
        "Ġwor",
        -10.42817711770672
      ],
      [
        "Ġhomes",
        -10.429294275901578
      ],
      [
        "Ġsyndrome",
        -10.430025024199972
      ],
      [
        "Ġexperienc",
        -10.431507941658792
      ],
      [
        "ĠWindows",
        -10.43182327582976
      ],
      [
        "Ġaward",
        -10.433568553541036
      ],
      [
        "ĠAM",
        -10.433654379457336
      ],
      [
        "Ġsink",
        -10.43458844007914
      ],
      [
        "Ġnet",
        -10.434857951049938
      ],
      [
        "Ġtough",
        -10.434862087738496
      ],
      [
        "een",
        -10.43609613348982
      ],
      [
        "Ġtea",
        -10.436574097329126
      ],
      [
        "Ġsnack",
        -10.43671415892285
      ],
      [
        "Ġcure",
        -10.436719762405096
      ],
      [
        "Ġworkers",
        -10.437674852733094
      ],
      [
        "Ġhabitats",
        -10.437815460877744
      ],
      [
        "Ġrestore",
        -10.438056975207202
      ],
      [
        "Ġregulate",
        -10.438106409396712
      ],
      [
        "Ġwin",
        -10.438121355694246
      ],
      [
        "Ġdepartment",
        -10.438334700395432
      ],
      [
        "Ġendanger",
        -10.438374334175968
      ],
      [
        "Ġwrote",
        -10.438380238957492
      ],
      [
        "Ġspeech",
        -10.438709074396368
      ],
      [
        "ership",
        -10.438756065910386
      ],
      [
        "\"We",
        -10.43891251686836
      ],
      [
        "Ġequipp",
        -10.438972906375035
      ],
      [
        "Ġouter",
        -10.439393895643576
      ],
      [
        "Ġbutterfly",
        -10.43954597155641
      ],
      [
        "Ġweak",
        -10.439917037743715
      ],
      [
        "Ġhandl",
        -10.440017616617506
      ],
      [
        "Ġdebri",
        -10.440985542738506
      ],
      [
        "Ġdistinctive",
        -10.442549343900474
      ],
      [
        "Ġstreet",
        -10.443392649767995
      ],
      [
        "acific",
        -10.443456515172375
      ],
      [
        "Ġpepper",
        -10.443522421562886
      ],
      [
        "Ġindicator",
        -10.443663210738409
      ],
      [
        "Ġphotography",
        -10.444023303363617
      ],
      [
        "Ġabuse",
        -10.444378744902531
      ],
      [
        "Ġtax",
        -10.444987875131078
      ],
      [
        "Ġversatile",
        -10.445023226727407
      ],
      [
        "Ġha",
        -10.445076922511312
      ],
      [
        "Ġvector",
        -10.44519058134924
      ],
      [
        "Ġbio",
        -10.44521682731034
      ],
      [
        "Ġrecording",
        -10.44633710557882
      ],
      [
        "ĠPython",
        -10.446521322826296
      ],
      [
        "Ġprinter",
        -10.447122561577984
      ],
      [
        "Ġseconds",
        -10.4478748027332
      ],
      [
        "ĠRegular",
        -10.44827082107773
      ],
      [
        "Ġembryo",
        -10.449993995305086
      ],
      [
        "Ġfederal",
        -10.45020966845519
      ],
      [
        "Ġunusual",
        -10.45096227453605
      ],
      [
        "Ġallerg",
        -10.451047320337029
      ],
      [
        "Ġprove",
        -10.451278659934918
      ],
      [
        "Ġprofile",
        -10.451595470838775
      ],
      [
        "Ġgraduate",
        -10.45308654698314
      ],
      [
        "Ġcontribut",
        -10.453879034331958
      ],
      [
        "Ġresolution",
        -10.453916785713416
      ],
      [
        "Ġinvestigate",
        -10.45391759843011
      ],
      [
        "Ġswim",
        -10.45455474913542
      ],
      [
        "Ġsuspect",
        -10.454577888940737
      ],
      [
        "Ġgentle",
        -10.455013928315356
      ],
      [
        "Ġresident",
        -10.45524201372099
      ],
      [
        "Ġdentist",
        -10.455381444086877
      ],
      [
        "Ġmirror",
        -10.455713448595862
      ],
      [
        "Ġpaid",
        -10.45588488279702
      ],
      [
        "Ġcategory",
        -10.456676284337334
      ],
      [
        "Ġstronger",
        -10.456892716189024
      ],
      [
        "Ġrobot",
        -10.456993396134816
      ],
      [
        "Ġreaders",
        -10.457280720091504
      ],
      [
        "):",
        -10.457555672121618
      ],
      [
        "ĠLight",
        -10.45840230824492
      ],
      [
        "Ġacids",
        -10.458893826904434
      ],
      [
        "Ġpriorit",
        -10.459427790897358
      ],
      [
        "Ġgel",
        -10.4600195961011
      ],
      [
        "Ġaesthetic",
        -10.46017298181382
      ],
      [
        "Ġrat",
        -10.460233032498987
      ],
      [
        "ĠZ",
        -10.460576405643408
      ],
      [
        "Ġtransaction",
        -10.460807418049905
      ],
      [
        "Ġremarkabl",
        -10.460871349068828
      ],
      [
        "ĠChrist",
        -10.46095614582505
      ],
      [
        "ĠTHE",
        -10.461302978680934
      ],
      [
        "Safety",
        -10.461697158781911
      ],
      [
        "Ġauto",
        -10.462161334702088
      ],
      [
        "Ġthanks",
        -10.462899975391723
      ],
      [
        "dministration",
        -10.463172001573122
      ],
      [
        "Ġrotation",
        -10.463507676683854
      ],
      [
        "Ġmanager",
        -10.46370925483348
      ],
      [
        "Ġisolate",
        -10.463717314984676
      ],
      [
        "ĠStep",
        -10.465071708458275
      ],
      [
        "Ġjuice",
        -10.465843946224345
      ],
      [
        "Ġreef",
        -10.466488685747477
      ],
      [
        "ĠPlease",
        -10.466943977007332
      ],
      [
        "Ġhorizontal",
        -10.467261081800816
      ],
      [
        "Figure",
        -10.467296530938407
      ],
      [
        "-level",
        -10.467579710009378
      ],
      [
        "Ġexploration",
        -10.467603908859893
      ],
      [
        "Ġkelp",
        -10.467608523699612
      ],
      [
        "Ġvulnerab",
        -10.46802297909912
      ],
      [
        "Ġwonderful",
        -10.468380170024233
      ],
      [
        "Ġregulator",
        -10.469020521006122
      ],
      [
        "Ġexcept",
        -10.46913261049724
      ],
      [
        "Ġphotographer",
        -10.469388932638877
      ],
      [
        "Ġhoney",
        -10.470113242214708
      ],
      [
        "Make",
        -10.470827017011736
      ],
      [
        "right",
        -10.471721288531825
      ],
      [
        "Ġchemist",
        -10.47197924354446
      ],
      [
        "Us",
        -10.47203434790673
      ],
      [
        "Every",
        -10.472150357867807
      ],
      [
        "Ġpartial",
        -10.472455080363956
      ],
      [
        "Ġwound",
        -10.47304239465402
      ],
      [
        "Ġsky",
        -10.474352849197242
      ],
      [
        "Ġautomatical",
        -10.474540792353626
      ],
      [
        "Ġpartner",
        -10.474655444286444
      ],
      [
        "Ġdistrict",
        -10.474908627437546
      ],
      [
        "ions",
        -10.47521038349466
      ],
      [
        "Ġorbit",
        -10.47640872264721
      ],
      [
        "Ġdimension",
        -10.47768088567295
      ],
      [
        "stone",
        -10.47829063899759
      ],
      [
        "-shape",
        -10.478356834334754
      ],
      [
        "Ġbeginner",
        -10.479007508279956
      ],
      [
        "Ġfascinat",
        -10.479375703435622
      ],
      [
        "Ġsubstantial",
        -10.47946285471478
      ],
      [
        "Ġclothes",
        -10.479848920878966
      ],
      [
        "Ġdelivery",
        -10.480159292093
      ],
      [
        "ĠFoundation",
        -10.480989488535831
      ],
      [
        "Ġremoval",
        -10.481053521524274
      ],
      [
        "Ġmask",
        -10.481206380311695
      ],
      [
        "Ġtruth",
        -10.481261564939796
      ],
      [
        "Ġtrick",
        -10.481411073934533
      ],
      [
        "Ġfroze",
        -10.481454091336357
      ],
      [
        "Ġdollar",
        -10.481534356251045
      ],
      [
        "ĠTV",
        -10.483045032611074
      ],
      [
        "Ġpad",
        -10.483103762900624
      ],
      [
        "dden",
        -10.483138532364537
      ],
      [
        "Ġdischarge",
        -10.48322858864038
      ],
      [
        "ibility",
        -10.483271024438164
      ],
      [
        "Ġyes",
        -10.483713566808682
      ],
      [
        "ard",
        -10.484598735830913
      ],
      [
        "ĠBird",
        -10.48528050481204
      ],
      [
        "standing",
        -10.485369372347687
      ],
      [
        "Ġcampaign",
        -10.48558923377519
      ],
      [
        "Ġveterinarian",
        -10.485629618084724
      ],
      [
        "Ġinch",
        -10.485937027218384
      ],
      [
        "Ġthreshold",
        -10.486019893376143
      ],
      [
        "Ġpartnership",
        -10.486499906392444
      ],
      [
        "well",
        -10.48656209366624
      ],
      [
        "Ġsouthern",
        -10.486895114503042
      ],
      [
        "Ġmood",
        -10.486928549416415
      ],
      [
        "ĠGrow",
        -10.48738913013046
      ],
      [
        "ĠTwo",
        -10.487748016914974
      ],
      [
        "Ġvisitor",
        -10.488231417963092
      ],
      [
        "stream",
        -10.48829911710353
      ],
      [
        "Ġreli",
        -10.488371200945505
      ],
      [
        "Ġbranch",
        -10.488377437402194
      ],
      [
        "ĠMedicine",
        -10.489009436781943
      ],
      [
        "Ġcharg",
        -10.489147127626412
      ],
      [
        "Ġwindows",
        -10.489292723751532
      ],
      [
        "Understand",
        -10.489303239405846
      ],
      [
        "Ġinter",
        -10.489528244812334
      ],
      [
        "Ġachiev",
        -10.49071060578068
      ],
      [
        "Ġdiamond",
        -10.492369149466365
      ],
      [
        "Ġcentre",
        -10.49305920935905
      ],
      [
        "Ġturns",
        -10.493431771982715
      ],
      [
        "Ġimplementation",
        -10.493901369710969
      ],
      [
        "Ġingredient",
        -10.494193362309147
      ],
      [
        "Ġleader",
        -10.49464045047609
      ],
      [
        "Ġcompetitive",
        -10.495460468476494
      ],
      [
        "Ġmanufacturer",
        -10.49578905152656
      ],
      [
        "Ġcarrier",
        -10.49706637411522
      ],
      [
        "Ġtrends",
        -10.497207686006728
      ],
      [
        "Ġgenerat",
        -10.497461714492502
      ],
      [
        "Ġinterview",
        -10.49766228993768
      ],
      [
        "Other",
        -10.4978436191027
      ],
      [
        "Ġmere",
        -10.497923439233816
      ],
      [
        "Ġrenewable",
        -10.4980805318475
      ],
      [
        ";Ċ",
        -10.498527265597977
      ],
      [
        "Ġclub",
        -10.498728159712128
      ],
      [
        "Even",
        -10.498773880964787
      ],
      [
        "Ġcoordinate",
        -10.49884545507059
      ],
      [
        "Ġbough",
        -10.49929902878444
      ],
      [
        "Ġdealing",
        -10.49938945100316
      ],
      [
        "Ġarray",
        -10.499427191718468
      ],
      [
        "ĠWeb",
        -10.500367781527537
      ],
      [
        "Ġcompact",
        -10.500515318598731
      ],
      [
        "ĠCounty",
        -10.501027487884691
      ],
      [
        "Ġresponsibility",
        -10.5017547661248
      ],
      [
        "Ġrose",
        -10.502563307091863
      ],
      [
        "-on",
        -10.50290238720395
      ],
      [
        "other",
        -10.503631500523367
      ],
      [
        "Ġhealthie",
        -10.50451243731302
      ],
      [
        "Ġhumid",
        -10.505270017180086
      ],
      [
        "Ġexception",
        -10.505367322135706
      ],
      [
        "ĠDevelopment",
        -10.5058566490606
      ],
      [
        "Ġstrip",
        -10.505905502340582
      ],
      [
        "Ġutilize",
        -10.506378652758157
      ],
      [
        "live",
        -10.50779847107458
      ],
      [
        "Ġduration",
        -10.507805099412654
      ],
      [
        "Ġimpossib",
        -10.5084188186757
      ],
      [
        "Ġfloat",
        -10.508499524613333
      ],
      [
        "Ġfraction",
        -10.508600017049456
      ],
      [
        "Ġphilosoph",
        -10.508730432255897
      ],
      [
        "pm",
        -10.508805500700133
      ],
      [
        "Ġdense",
        -10.508866677083184
      ],
      [
        "Ġproven",
        -10.509068009779249
      ],
      [
        "ĠðŁ¤įĊ",
        -10.509603889354828
      ],
      [
        "Ġtail",
        -10.509987234778212
      ],
      [
        "Ġguarantee",
        -10.510413743142871
      ],
      [
        "ĠEnvironmental",
        -10.511293660473145
      ],
      [
        "Ġfilling",
        -10.511758002402797
      ],
      [
        "Ġvacuum",
        -10.51197191197306
      ],
      [
        "Ġmoderate",
        -10.51218106694718
      ],
      [
        "ch",
        -10.512470460563664
      ],
      [
        "Ġlaboratory",
        -10.512492410600125
      ],
      [
        "Don",
        -10.512726064771922
      ],
      [
        "Ġgland",
        -10.51310042531519
      ],
      [
        "Ġchew",
        -10.513155693236197
      ],
      [
        "Ġexplains",
        -10.513167943811608
      ],
      [
        "Ġbeach",
        -10.514822988520246
      ],
      [
        "ĠRead",
        -10.51506101989682
      ],
      [
        "ther",
        -10.51519780030626
      ],
      [
        "Ġserving",
        -10.51538046724402
      ],
      [
        "Â¬ÃĿ",
        -10.515497834774438
      ],
      [
        "Ġsupposed",
        -10.515833378540211
      ],
      [
        "Ġsick",
        -10.515965277216182
      ],
      [
        "Ġoccurred",
        -10.51601831944619
      ],
      [
        "ĠClean",
        -10.516618864201504
      ],
      [
        "Ġbuyer",
        -10.517336018892092
      ],
      [
        "Ġluck",
        -10.517561047672936
      ],
      [
        "Ġflying",
        -10.517775552891123
      ],
      [
        "Ġprocedures",
        -10.518081988612082
      ],
      [
        "Related",
        -10.518245635060296
      ],
      [
        "Ġintensity",
        -10.51846928737325
      ],
      [
        "Ġcurriculum",
        -10.518556217492826
      ],
      [
        "Ġgiant",
        -10.51904178984539
      ],
      [
        "Ġarchitecture",
        -10.51906124230909
      ],
      [
        "Ġattache",
        -10.51937483931902
      ],
      [
        "Ġperceive",
        -10.519443567015202
      ],
      [
        "ĠSometime",
        -10.520157253037318
      ],
      [
        "Ġtransformation",
        -10.520575798034702
      ],
      [
        "Ġbehaviour",
        -10.520652030975455
      ],
      [
        "Ġerosion",
        -10.52067934495826
      ],
      [
        "ĠAct",
        -10.521139176577456
[...]
