{
  "version": "1.0",
  "truncation": null,
  "padding": null,
  "added_tokens": [
    {
      "id": 0,
      "content": "<|bos|>",
      "single_word": false,
      "lstrip": false,
      "rstrip": false,
      "normalized": false,
      "special": true
    },
    {
      "id": 1,
      "content": "<|user_start|>",
      "single_word": false,
      "lstrip": false,
      "rstrip": false,
      "normalized": false,
      "special": true
    },
    {
      "id": 2,
      "content": "<|user_end|>",
      "single_word": false,
      "lstrip": false,
      "rstrip": false,
      "normalized": false,
      "special": true
    },
    {
      "id": 3,
      "content": "<|assistant_start|>",
      "single_word": false,
      "lstrip": false,
      "rstrip": false,
      "normalized": false,
      "special": true
    },
    {
      "id": 4,
      "content": "<|assistant_end|>",
      "single_word": false,
      "lstrip": false,
      "rstrip": false,
      "normalized": false,
      "special": true
    },
    {
      "id": 5,
      "content": "<|python_start|>",
      "single_word": false,
      "lstrip": false,
      "rstrip": false,
      "normalized": false,
      "special": true
    },
    {
      "id": 6,
      "content": "<|python_end|>",
      "single_word": false,
      "lstrip": false,
      "rstrip": false,
      "normalized": false,
      "special": true
    },
    {
      "id": 7,
      "content": "<|output_start|>",
      "single_word": false,
      "lstrip": false,
      "rstrip": false,
      "normalized": false,
      "special": true
    },
    {
      "id": 8,
      "content": "<|output_end|>",
      "single_word": false,
      "lstrip": false,
      "rstrip": false,
      "normalized": false,
      "special": true
    },
    {
      "id": 9,
      "content": "<|unk|>",
      "single_word": false,
      "lstrip": false,
      "rstrip": false,
      "normalized": false,
      "special": true
    }
  ],
  "normalizer": null,
  "pre_tokenizer": {
    "type": "Sequence",
    "pretokenizers": [
      {
        "type": "Split",
        "pattern": {
          "Regex": "'(?i:[sdmt]|ll|ve|re)|[^\\r\\n\\p{L}\\p{N}]?+\\p{L}+|\\p{N}{1,2}| ?[^\\s\\p{L}\\p{N}]++[\\r\\n]*|\\s*[\\r\\n]|\\s+(?!\\S)|\\s+"
        },
        "behavior": "Isolated",
        "invert": false
      },
      {
        "type": "ByteLevel",
        "add_prefix_space": false,
        "trim_offsets": true,
        "use_regex": false
      }
    ]
  },
  "post_processor": {
    "type": "TemplateProcessing",
    "single": [
      {
        "Sequence": {
          "id": "A",
          "type_id": 0
        }
      }
    ],
    "pair": [
      {
        "Sequence": {
          "id": "A",
          "type_id": 0
        }
      },
      {
        "Sequence": {
          "id": "B",
          "type_id": 1
        }
      }
    ],
    "special_tokens": {}
  },
  "decoder": null,
  "model": {
    "type": "Unigram",
    "unk_id": 9,
    "vocab": [
      [
        "<|bos|>",
        0.0
      ],
      [
        "<|user_start|>",
        0.0
      ],
      [
        "<|user_end|>",
        0.0
      ],
      [
        "<|assistant_start|>",
        0.0
      ],
      [
        "<|assistant_end|>",
        0.0
      ],
      [
        "<|python_start|>",
        0.0
      ],
      [
        "<|python_end|>",
        0.0
      ],
      [
        "<|output_start|>",
        0.0
      ],
      [
        "<|output_end|>",
        0.0
      ],
      [
        "<|unk|>",
        0.0
      ],
      [
        "s",
        -3.1277554219730064
      ],
      [
        "Ġ",
        -3.185209706374522
      ],
      [
        "Ġthe",
        -3.4058227359848505
      ],
      [
        ",",
        -3.453027061151772
      ],
      [
        ".",
        -3.740454870701466
      ],
      [
        "Ġand",
        -3.941720797388978
      ],
      [
        "Ġof",
        -3.9886704256392385
      ],
      [
        "Ġto",
        -3.9946804213044462
      ],
      [
        "a",
        -4.01963539260402
      ],
      [
        "ing",
        -4.364147288414573
      ],
      [
        "Ġin",
        -4.498728674816771
      ],
      [
        "Ġis",
        -4.619621529474767
      ],
      [
        "ed",
        -4.756581585260475
      ],
      [
        "'",
        -4.904787835065427
      ],
      [
        "0",
        -5.004906535226837
      ],
      [
        "Ġthat",
        -5.0223537467436525
      ],
      [
        "Ġfor",
        -5.058283919179244
      ],
      [
        "y",
        -5.092807135911427
      ],
      [
        "d",
        -5.136796294854635
      ],
      [
        "e",
        -5.139931313844851
      ],
      [
        "Ċ",
        -5.153366041706834
      ],
      [
        "1",
        -5.167951242076944
      ],
      [
        ":",
        -5.19290359910069
      ],
      [
        "Ġare",
        -5.241840671031671
      ],
      [
        "ly",
        -5.256566320703133
      ],
      [
        ".Ċ",
        -5.287505999267907
      ],
      [
        "Ġyou",
        -5.318591541885166
      ],
      [
        ".ĊĊ",
        -5.328137535601073
      ],
      [
        "Ġit",
        -5.330444818315989
      ],
      [
        "2",
        -5.349165671941554
      ],
      [
        "Ġwith",
        -5.372400782950631
      ],
      [
        "t",
        -5.463128938664289
      ],
      [
        "Ġbe",
        -5.464533750597104
      ],
      [
        "Ġon",
        -5.497822264038909
      ],
      [
        "Ġcan",
        -5.517963563759881
      ],
      [
        "Ġor",
        -5.534415785822416
      ],
      [
        "Ġas",
        -5.540281660753974
      ],
      [
        "-",
        -5.568879548421158
      ],
      [
        "ĊĊ",
        -5.714234682592924
      ],
      [
        "Ġyour",
        -5.729755218618482
      ],
      [
        "Ġ(",
        -5.7557723408647306
      ],
      [
        "Ġhave",
        -5.872862084531537
      ],
      [
        "\"",
        -5.8847377735194435
      ],
      [
        "Ġfrom",
        -5.906796286031311
      ],
      [
        "ĠI",
        -5.917022967198697
      ],
      [
        "ĠThe",
        -5.931428647891698
      ],
      [
        "Ġby",
        -5.990683704022121
      ],
      [
        "Ġan",
        -6.004612762353528
      ],
      [
        ")",
        -6.010092388763809
      ],
      [
        "3",
        -6.017174217554194
      ],
      [
        "Ġthis",
        -6.04635807297603
      ],
      [
        "5",
        -6.064676457332149
      ],
      [
        "?",
        -6.104286717228309
      ],
      [
        "Ġnot",
        -6.105891069886393
      ],
      [
        "Ġat",
        -6.132296762759966
      ],
      [
        "Ġwill",
        -6.188409839019021
      ],
      [
        "4",
        -6.199673549315468
      ],
      [
        "Ġtheir",
        -6.22162744816101
      ],
      [
        "Ġthey",
        -6.33433505579459
      ],
      [
        "Ġmore",
        -6.345522101465203
      ],
      [
        "9",
        -6.354071772424616
      ],
      [
        "Ġwas",
        -6.383166522662469
      ],
      [
        "The",
        -6.403850308196468
      ],
      [
        "n",
        -6.4444060688042875
      ],
      [
        "6",
        -6.473995910852333
      ],
      [
        "Ġwe",
        -6.479347185995399
      ],
      [
        "Ġbut",
        -6.496213350382421
      ],
      [
        "Ġwhich",
        -6.506879957638045
      ],
      [
        "Ġhas",
        -6.512628231243598
      ],
      [
        "8",
        -6.534340225757687
      ],
      [
        "Ġone",
        -6.560749405551077
      ],
      [
        "Ġother",
        -6.570847387658464
      ],
      [
        "er",
        -6.575364915265933
      ],
      [
        "Question",
        -6.596563060528888
      ],
      [
        "Ġalso",
        -6.600694584199683
      ],
      [
        "ĠAnswer",
        -6.618213631159026
      ],
      [
        "7",
        -6.631578544217424
      ],
      [
        "Ġall",
        -6.666440590480622
      ],
      [
        "Ġabout",
        -6.667485772577464
      ],
      [
        "i",
        -6.6728634914813
      ],
      [
        "ĠA",
        -6.7001634115447555
      ],
      [
        "Ġwhen",
        -6.739054843279993
      ],
      [
        "ies",
        -6.745259503467228
      ],
      [
        "ĠIt",
        -6.747200278559525
      ],
      [
        "Ġdo",
        -6.760377288132993
      ],
      [
        "o",
        -6.765642858131477
      ],
      [
        "Ġif",
        -6.777670069770995
      ],
      [
        "Ġtime",
        -6.784840184332108
      ],
      [
        "Ġuse",
        -6.786570149426909
      ],
      [
        "Ġinto",
        -6.792008063645275
      ],
      [
        "Ġthem",
        -6.806394560290231
      ],
      [
        "Ġlike",
        -6.809897220254166
      ],
      [
        "Ġso",
        -6.835204696041298
      ],
      [
        "Ġhow",
        -6.854359801864817
      ],
      [
        "Ġmay",
        -6.857311437499197
      ],
      [
        "ĠThis",
        -6.866877601039379
      ],
      [
        "Ġup",
        -6.868631612465059
      ],
      [
        "on",
        -6.883280588888207
      ],
      [
        "Ġsome",
        -6.903796938443437
      ],
      [
        "Ġout",
        -6.916151686055896
      ],
      [
        "ĠWhat",
        -6.918380022250396
      ],
      [
        "Ġthan",
        -6.924879744973984
      ],
      [
        "r",
        -6.9250176659569345
      ],
      [
        "re",
        -6.936384364321645
      ],
      [
        "Ġthese",
        -6.955328335825053
      ],
      [
        "Ġthere",
        -6.97637235589494
      ],
      [
        "m",
        -6.978419853677053
      ],
      [
        "A",
        -6.978958681993193
      ],
      [
        "Ġwater",
        -6.984638458194224
      ],
      [
        "Ġwhat",
        -6.9899655354785
      ],
      [
        "Ġany",
        -7.002272143578992
      ],
      [
        "Ġused",
        -7.018637892585337
      ],
      [
        "Ġget",
        -7.034572214081232
      ],
      [
        "Ġneed",
        -7.035181305545262
      ],
      [
        "Ġour",
        -7.036138034624173
      ],
      [
        "Ġmake",
        -7.05681645464899
      ],
      [
        "If",
        -7.065045568401924
      ],
      [
        "Ġmost",
        -7.107829248778517
      ],
      [
        "Ġwere",
        -7.12002032953993
      ],
      [
        "ĠIn",
        -7.125066682272733
      ],
      [
        "Ġsuch",
        -7.130233007773162
      ],
      [
        "able",
        -7.162632940512854
      ],
      [
        "Ġbeen",
        -7.167773403356685
      ],
      [
        "Ġhelp",
        -7.167957131688361
      ],
      [
        "Ġpeople",
        -7.1682557116419865
      ],
      [
        "Ġnew",
        -7.169286288751108
      ],
      [
        "Ġshould",
        -7.178001478624575
      ],
      [
        "/",
        -7.1842663813014145
      ],
      [
        "Ġwho",
        -7.216891875270498
      ],
      [
        "Ġwould",
        -7.217905664530926
      ],
      [
        "Ġits",
        -7.232862241493226
      ],
      [
        "Ġonly",
        -7.248580655164931
      ],
      [
        "Ġjust",
        -7.258636566559618
      ],
      [
        "Ġmany",
        -7.277697523574533
      ],
      [
        "I",
        -7.288474824984632
      ],
      [
        "Ġtwo",
        -7.296580113856969
      ],
      [
        "Ġhigh",
        -7.297056889414881
      ],
      [
        "al",
        -7.309955680712628
      ],
      [
        "Ġover",
        -7.326208080129218
      ],
      [
        "Ġwell",
        -7.328144190520289
      ],
      [
        "Ġwork",
        -7.331324132892174
      ],
      [
        ";",
        -7.3387083219613345
      ],
      [
        "c",
        -7.345486177745697
      ],
      [
        "l",
        -7.350567837582062
      ],
      [
        "Ġmy",
        -7.353487044338085
      ],
      [
        "ity",
        -7.356798425826591
      ],
      [
        "Ġway",
        -7.35701608803968
      ],
      [
        "Ġbetween",
        -7.370526327378149
      ],
      [
        "?Ċ",
        -7.373539352395669
      ],
      [
        "Ġfirst",
        -7.378406040325224
      ],
      [
        "Ġdifferent",
        -7.379496848996956
      ],
      [
        "Ġthrough",
        -7.392406138399636
      ],
      [
        "Ġwhere",
        -7.407690877074378
      ],
      [
        "Ġusing",
        -7.4262323786233395
      ],
      [
        "Ġlong",
        -7.426241741544153
      ],
      [
        "ever",
        -7.43135060758298
      ],
      [
        "!",
        -7.440496838764963
      ],
      [
        "Ġno",
        -7.445145054936813
      ],
      [
        "Ġcould",
        -7.481041205405614
      ],
      [
        "Ġbecaus",
        -7.492193021956861
      ],
      [
        "Ġlook",
        -7.498957876378274
      ],
      [
        "Ġvery",
        -7.51046921567511
      ],
      [
        "Ġeven",
        -7.520239533594832
      ],
      [
        "Ġthen",
        -7.539804291370595
      ],
      [
        "in",
        -7.550661002315515
      ],
      [
        "p",
        -7.556553264608999
      ],
      [
        "ĠHow",
        -7.5643825223791
      ],
      [
        "ĠThey",
        -7.564462627262877
      ],
      [
        "Ġsystem",
        -7.566017159252988
      ],
      [
        "Ġeach",
        -7.57015203610524
      ],
      [
        "Ġmuch",
        -7.576771546034015
      ],
      [
        "Ġhad",
        -7.5867659753502
      ],
      [
        "Ġimportant",
        -7.587281018304825
      ],
      [
        "Ġknow",
        -7.589751461866607
      ],
      [
        "Ġhealth",
        -7.591428262524659
      ],
      [
        "Ġhe",
        -7.597261716929037
      ],
      [
        "ĠC",
        -7.599123831487828
      ],
      [
        "Ġprovide",
        -7.599937635759767
      ],
      [
        "g",
        -7.608789697640811
      ],
      [
        "Ġdoes",
        -7.617391947282115
      ],
      [
        "In",
        -7.617471921929162
      ],
      [
        "?ĊĊ",
        -7.618903952169756
      ],
      [
        "Ġgood",
        -7.622487534466902
      ],
      [
        "Ġfood",
        -7.62852343378335
      ],
      [
        "ĠâĢĵ",
        -7.63221787091177
      ],
      [
        "ĠYou",
        -7.636981439082708
      ],
      [
        "Ġtake",
        -7.643775116468698
      ],
      [
        "Ġsee",
        -7.653199501699808
      ],
      [
        "Ġhis",
        -7.655689421903224
      ],
      [
        "ve",
        -7.657884828452184
      ],
      [
        "Ġdon",
        -7.6652551249297876
      ],
      [
        "Ġwhile",
        -7.668802325478875
      ],
      [
        "Ġbefore",
        -7.6860742457009135
      ],
      [
        "Ġyears",
        -7.6877975979049396
      ],
      [
        "Ġcause",
        -7.697350541987495
      ],
      [
        ").",
        -7.6974691381178335
      ],
      [
        "Ġworld",
        -7.70385759545489
      ],
      [
        "us",
        -7.715639548271971
      ],
      [
        "Ġafter",
        -7.727803206103667
      ],
      [
        "Ġwant",
        -7.735960224363481
      ],
      [
        "Ġduring",
        -7.7482712313192845
      ],
      [
        "h",
        -7.753180129616048
      ],
      [
        "Ġcome",
        -7.756761966099665
      ],
      [
        "Ġaround",
        -7.759143004194103
      ],
      [
        "Ġevery",
        -7.76004712889441
      ],
      [
        "Ġenergy",
        -7.761885484477762
      ],
      [
        "is",
        -7.763823189143023
      ],
      [
        "Ġsame",
        -7.764588014367556
      ],
      [
        "Ġallow",
        -7.771145886682763
      ],
      [
        "Ġlife",
        -7.776505328520159
      ],
      [
        "Ġboth",
        -7.781493210739605
      ],
      [
        "Ġgreat",
        -7.786733016479134
      ],
      [
        "Ġbeing",
        -7.793635889903964
      ],
      [
        "Ġright",
        -7.7967614939852705
      ],
      [
        "Ġthose",
        -7.797774836221711
      ],
      [
        "Ġarea",
        -7.800657583289068
      ],
      [
        "Ġback",
        -7.804573672955842
      ],
      [
        "(",
        -7.808243136777817
      ],
      [
        "Ġdata",
        -7.810563349914151
      ],
      [
        "Ġoften",
        -7.81781139645943
      ],
      [
        "f",
        -7.818202349005988
      ],
      [
        "Ġpart",
        -7.821377576520575
      ],
      [
        "Ġdesign",
        -7.824843110709908
      ],
      [
        "ic",
        -7.824942283422054
      ],
      [
        "What",
        -7.836781314656218
      ],
      [
        "ĠB",
        -7.838633518709882
      ],
      [
        "Ġbody",
        -7.83948441108441
      ],
      [
        "Ġprocess",
        -7.839928724364256
      ],
      [
        "Ġdown",
        -7.841679006361629
      ],
      [
        "Ġkeep",
        -7.843453003449845
      ],
      [
        "Ġinclude",
        -7.843664051365938
      ],
      [
        "),",
        -7.845829809447402
      ],
      [
        "Ġfind",
        -7.8487457409135235
      ],
      [
        "Ġsmall",
        -7.852184237192773
      ],
      [
        "%",
        -7.856818750355618
      ],
      [
        "Ġday",
        -7.857592795111868
      ],
      [
        "Ġfound",
        -7.857612487252895
      ],
      [
        "Ġlight",
        -7.864328814706214
      ],
      [
        "Ġbest",
        -7.86603965862259
      ],
      [
        "ĠWe",
        -7.87400303922222
      ],
      [
        "Ġmade",
        -7.883930346305343
      ],
      [
        "S",
        -7.887233934715578
      ],
      [
        "ll",
        -7.892612804017508
      ],
      [
        "x",
        -7.904762272803177
      ],
      [
        "Ġmean",
        -7.9120851463767
      ],
      [
        "Ġyear",
        -7.923341936629923
      ],
      [
        "Ġcreate",
        -7.92704933794052
      ],
      [
        "Ġincrease",
        -7.927275999598095
      ],
      [
        "ĠS",
        -7.928157098212088
      ],
      [
        "Ġhome",
        -7.928401377214323
      ],
      [
        "or",
        -7.933467509912203
      ],
      [
        "ĠFor",
        -7.946654905215073
      ],
      [
        "Ġsaid",
        -7.947439581206632
      ],
      [
        "Ġinformation",
        -7.948716986302895
      ],
      [
        "Ġrequire",
        -7.951832766863211
      ],
      [
        "Ġnumber",
        -7.95392656400754
      ],
      [
        "Ġplace",
        -7.956478435725272
      ],
      [
        "ness",
        -7.95651164133473
      ],
      [
        "Ġus",
        -7.9597740441731535
      ],
      [
        "How",
        -7.963415776558723
      ],
      [
        "Ġinclud",
        -7.967677071677357
      ],
      [
        "b",
        -7.969515762094959
      ],
      [
        ":Ċ",
        -7.9705416083728515
      ],
      [
        "Ġtemperature",
        -7.970715362031557
      ],
      [
        "Ġcondition",
        -7.978948767779711
      ],
      [
        "C",
        -7.980650955955657
      ],
      [
        "Ġplant",
        -7.9880300723861986
      ],
      [
        "Ġoff",
        -7.989386135076124
      ],
      [
        "Ġstudents",
        -7.992636722928481
      ],
      [
        "This",
        -7.992887906687539
      ],
      [
        "Ġpower",
        -7.99799713040515
      ],
      [
        "Ġnow",
        -8.000743271102516
      ],
      [
        "ability",
        -8.00233826309211
      ],
      [
        "Ġform",
        -8.002621562838035
      ],
      [
        "based",
        -8.003006831741846
      ],
      [
        "Ġlarge",
        -8.005571724488727
      ],
      [
        "Ġspecies",
        -8.006776123271672
      ],
      [
        "Ġgo",
        -8.007194806240378
      ],
      [
        "Ġplants",
        -8.009097360008571
      ],
      [
        "Ġresearch",
        -8.012046757195105
      ],
      [
        "Ġhuman",
        -8.018065646411786
      ],
      [
        "Ġstart",
        -8.018560279675736
      ],
      [
        "Ġmight",
        -8.018741634331679
      ],
      [
        "D",
        -8.019145553155303
      ],
      [
        "ĠThese",
        -8.023282110477254
      ],
      [
        "Ġstudy",
        -8.027243799551643
      ],
      [
        "Ġwithout",
        -8.029537398614634
      ],
      [
        "Ġbetter",
        -8.03190989526909
      ],
      [
        "Ġfew",
        -8.034150668755064
      ],
      [
        "Ġdog",
        -8.035882750455471
      ],
      [
        "um",
        -8.037338144951892
      ],
      [
        "Ġair",
        -8.038437541940272
      ],
      [
        "Ġthink",
        -8.040872501939969
      ],
      [
        "Ġbecome",
        -8.043105757679536
      ],
      [
        "Ġlead",
        -8.044124238580295
      ],
      [
        "Ġchange",
        -8.048509916482097
      ],
      [
        "Ġexample",
        -8.049018684733719
      ],
      [
        "Ġme",
        -8.05039393438412
      ],
      [
        "est",
        -8.052875811253756
      ],
      [
        "Ġown",
        -8.056231891487728
      ],
      [
        "ation",
        -8.057310180287981
      ],
      [
        "Ġstill",
        -8.060798298377275
      ],
      [
        "Ġunder",
        -8.065516445170378
      ],
      [
        "ĠTo",
        -8.084326797302811
      ],
      [
        "ĠE",
        -8.085756192716714
      ],
      [
        "Ġgroup",
        -8.090196233301194
      ],
      [
        "Ġsupport",
        -8.09177626936754
      ],
      [
        "Ġcommon",
        -8.094035527619349
      ],
      [
        "Ġcontrol",
        -8.094040740369413
      ],
      [
        "...",
        -8.097455103303881
      ],
      [
        "Ġtoo",
        -8.098896709598836
      ],
      [
        "Ġpotential",
        -8.108238581039858
      ],
      [
        "Ġtype",
        -8.113084020912193
      ],
      [
        "Ġher",
        -8.118785910772111
      ],
      [
        "It",
        -8.121479091476132
      ],
      [
        "Ġend",
        -8.122230164462149
      ],
      [
        "Ġun",
        -8.127607948731228
      ],
      [
        "Ġmaking",
        -8.129486639961218
      ],
      [
        "Ġchildren",
        -8.13084133077445
      ],
      [
        "Ġthree",
        -8.140484489691845
      ],
      [
        "Ġgive",
        -8.142149219986898
      ],
      [
        "Ġless",
        -8.143293618584773
      ],
      [
        "and",
        -8.143988828646208
      ],
      [
        "ĠBut",
        -8.14476885934685
      ],
      [
        "an",
        -8.144954030487199
      ],
      [
        "Ġlot",
        -8.147272328087109
      ],
      [
        "âĢĻ",
        -8.150240563330366
      ],
      [
        "Ġexperience",
        -8.152816384818816
      ],
      [
        "Ġwithin",
        -8.153725302908985
      ],
      [
        "Ġgrow",
        -8.155158130968474
      ],
      [
        "Ġknown",
        -8.155709737814055
      ],
      [
        "Ġschool",
        -8.156038095222469
      ],
      [
        "Ġnatural",
        -8.156208069382881
      ],
      [
        "th",
        -8.157751070178087
      ],
      [
        "Ġdisease",
        -8.15917120178899
      ],
      [
        "Ġmust",
        -8.167686144167012
      ],
      [
        "ĠAnd",
        -8.168191437668488
      ],
      [
        "Ġset",
        -8.172725658194066
      ],
      [
        "ĠM",
        -8.17301456809828
      ],
      [
        "Ġdevelop",
        -8.177701681395666
      ],
      [
        "Ġindividual",
        -8.178627962232836
      ],
      [
        "Ġthings",
        -8.186482396923292
      ],
      [
        "Ġrisk",
        -8.18910378447817
      ],
      [
        ":ĊĊ",
        -8.193187255172015
      ],
      [
        "Ġsure",
        -8.21025261494677
      ],
      [
        "Ġspecific",
        -8.215955022461577
      ],
      [
        "Ġenvironment",
        -8.217505783268866
      ],
      [
        "Ġdue",
        -8.220306627447082
      ],
      [
        "Ġpoint",
        -8.22390746851095
      ],
      [
        "ion",
        -8.22550208095389
      ],
      [
        "ĠWhen",
        -8.225865179618218
      ],
      [
        "Ġwhy",
        -8.227266245446376
      ],
      [
        "the",
        -8.228534332563811
      ],
      [
        "B",
        -8.228600485402977
      ],
      [
        "Ġcalled",
        -8.229747527442646
      ],
      [
        "Ġreally",
        -8.23169724995183
      ],
      [
        "Ġadd",
        -8.232395552457573
      ],
      [
        "Ġplay",
        -8.236000912434173
      ],
      [
        "Ġcar",
        -8.242782900487734
      ],
      [
        "ĠD",
        -8.253444498742017
      ],
      [
        "Ġlow",
        -8.25366269443646
      ],
      [
        "ĠSo",
        -8.256190402165911
      ],
      [
        "Ġproject",
        -8.25656958365011
      ],
      [
        "Ġrange",
        -8.257299204801466
      ],
      [
        "Ġmain",
        -8.26145663553151
      ],
      [
        "Ġhere",
        -8.264710662954663
      ],
      [
        "Ġprevent",
        -8.266223703064176
      ],
      [
        "Ġanother",
        -8.268824569041387
      ],
      [
        "Ġblood",
        -8.269376397201674
      ],
      [
        "Ġlevel",
        -8.269670004964297
      ],
      [
        "Ġensure",
        -8.270352819678978
      ],
      [
        "Ġvalue",
        -8.270762563400076
      ],
      [
        "Ġreduce",
        -8.279412713358317
      ],
      [
        "Ġper",
        -8.281154985176684
      ],
      [
        "Ġbenefit",
        -8.281974291577345
      ],
      [
        "Ġcolor",
        -8.285144342190716
      ],
      [
        "Ġconsider",
        -8.286055863197026
      ],
      [
        "Ġpossible",
        -8.29010865129824
      ],
      [
        "Ġtry",
        -8.291597520017984
      ],
      [
        "u",
        -8.29625249808366
      ],
      [
        "Ġgoing",
        -8.300082812438921
      ],
      [
        "Ġcare",
        -8.30205548969021
      ],
      [
        "Ġcurrent",
        -8.303488844217394
      ],
      [
        "Ġalways",
        -8.305159832421502
      ],
      [
        "Ġheat",
        -8.305350601181704
      ],
      [
        "Ġfollowing",
        -8.306011325495005
      ],
      [
        "Ġsomething",
        -8.307224255218351
      ],
      [
        "Ġvarious",
        -8.318036390270159
      ],
      [
        "ĠT",
        -8.318205788114863
      ],
      [
        "Ġamount",
        -8.318642504897856
      ],
      [
        "Ġproblem",
        -8.321789303812764
      ],
      [
        "Ġturn",
        -8.322611834208669
      ],
      [
        "ĠThere",
        -8.323353455239788
      ],
      [
        "Ġfactor",
        -8.32377817093699
      ],
      [
        "Ġfish",
        -8.330477529396976
      ],
      [
        "Ġsource",
        -8.330682480103025
      ],
      [
        "Ġtree",
        -8.335262305221157
      ],
      [
        "Ġtest",
        -8.336624849877124
      ],
      [
        "Ġdid",
        -8.33747454714208
      ],
      [
        "Ġusual",
        -8.34169338451932
      ],
      [
        "v",
        -8.34599573388332
      ],
      [
        "Ġpresent",
        -8.35011041108355
      ],
      [
        "Ġlast",
        -8.358883724929566
      ],
      [
        "Ġshow",
        -8.360159930296938
      ],
      [
        "Ġresult",
        -8.365883998881309
      ],
      [
        "Ġsize",
        -8.36751480869768
      ],
      [
        "Ġsoil",
        -8.369179823174909
      ],
      [
        "Ġlittle",
        -8.375902003834408
      ],
      [
        "Ġlearn",
        -8.379885217631246
      ],
      [
        "Ġorder",
        -8.381607341854076
      ],
      [
        "less",
        -8.38181292444306
      ],
      [
        "Ġteam",
        -8.386309300671392
      ],
      [
        "Ġspace",
        -8.389608832087825
      ],
      [
        "+",
        -8.395232484496141
      ],
      [
        "k",
        -8.395643901428832
      ],
      [
        "Ġquality",
        -8.402587518341276
      ],
      [
        "Ġdevelopment",
        -8.406107007685355
      ],
      [
        "Ġavailable",
        -8.406177460688886
      ],
      [
        "Ġtext",
        -8.406452943638417
      ],
      [
        "Ġopen",
        -8.40693117102597
      ],
      [
        "Ġanimals",
        -8.407427543282903
      ],
      [
        "Ġgeneral",
        -8.414100776206382
      ],
      [
        "Ġlive",
        -8.417559372963696
      ],
      [
        "ally",
        -8.42190327077883
      ],
      [
        "Ġcells",
        -8.426259286435329
      ],
      [
        "ĠAs",
        -8.430859883878501
      ],
      [
        "Ġlearning",
        -8.443823259995579
      ],
      [
        "Ġenough",
        -8.444572390473477
      ],
      [
        "Ġcertain",
        -8.44484837672772
      ],
      [
        "Ġsolution",
        -8.446258596294768
      ],
      [
        ",\"",
        -8.447041496098478
      ],
      [
        "Ġshe",
        -8.449151100893419
      ],
      [
        "Ġessential",
        -8.451773592701874
      ],
      [
        "Ġpressure",
        -8.4531298720253
      ],
      [
        "Ġseveral",
        -8.453524554025105
      ],
      [
        "Ġmodel",
        -8.455719032275095
      ],
      [
        "Ġname",
        -8.457553084648433
      ],
      [
        "Ġterm",
        -8.461560478729137
      ],
      [
        "Ġtogether",
        -8.465767020017195
      ],
      [
        "ĠP",
        -8.471803485874812
      ],
      [
        "Ġsurface",
        -8.472695037151507
      ],
      [
        "Ġnear",
        -8.473784025628587
      ],
      [
        "Ġfeel",
        -8.473911082746291
      ],
      [
        "Ġweek",
        -8.475356207928634
      ],
      [
        "Ġfunction",
        -8.477601193171628
      ],
      [
        "Ġleave",
        -8.478220914213232
      ],
      [
        "Ġacid",
        -8.478922731924394
      ],
      [
        "Ġweight",
        -8.4791733656191
      ],
      [
        "ĠWhich",
        -8.481123573596424
      ],
      [
        "le",
        -8.481346720576814
      ],
      [
        "Ġtypes",
        -8.482294998653956
      ],
      [
        "Ġ&",
        -8.484624306208232
      ],
      [
        "Ġnon",
        -8.485256574935798
      ],
      [
        "Ġprotein",
        -8.48610625074718
      ],
      [
        "Ġoil",
        -8.487795127828285
      ],
      [
        "Ġage",
        -8.488504192480319
      ],
      [
        "When",
        -8.488558248817828
      ],
      [
        "Ġhappen",
        -8.489367262918787
      ],
      [
        "Ġrole",
        -8.490089622886718
      ],
      [
        "Ġdifference",
        -8.490563315017093
      ],
      [
        "T",
        -8.49436028585296
      ],
      [
        "Ġhard",
        -8.494397380586628
      ],
      [
        "Ġunderstand",
        -8.494768789655112
      ],
      [
        "Ġdamage",
        -8.496731189210916
      ],
      [
        "Ġstate",
        -8.498904816217237
      ],
      [
        "Ġtreatment",
        -8.499942660108765
      ],
      [
        "Ġ$",
        -8.500824171895763
      ],
      [
        "Ġput",
        -8.50151785750342
      ],
      [
        "Ġtechnology",
        -8.504048276866403
      ],
      [
        "Ġsay",
        -8.505810200585277
      ],
      [
        "Ġlocal",
        -8.506322549577213
      ],
      [
        "ce",
        -8.513517742670937
      ],
      [
        "Ġimpact",
        -8.519819639192576
      ],
      [
        "thing",
        -8.520773668904525
      ],
      [
        "Ġaway",
        -8.521596540235336
      ],
      [
        "Ġproduce",
        -8.522475689508452
      ],
      [
        "Ġmaterial",
        -8.525365129722921
      ],
      [
        "Ġgarden",
        -8.525446921527774
      ],
      [
        "Ġside",
        -8.526058574241848
      ],
      [
        "Ġal",
        -8.528083150013867
      ],
      [
        "Ġperson",
        -8.528127635652949
      ],
      [
        "Ġfree",
        -8.529445602666268
      ],
      [
        "Ġproblems",
        -8.5296069838977
      ],
      [
        "Ġdirect",
        -8.529944082626223
      ],
      [
        "Ġsystems",
        -8.530737612159433
      ],
      [
        "Ġhand",
        -8.531942053128207
      ],
      [
        "Ġcase",
        -8.532193419938928
      ],
      [
        "Ġmethod",
        -8.533788518842757
      ],
      [
        "z",
        -8.53994627293704
      ],
      [
        "Ġ=",
        -8.540074777122815
      ],
      [
        "Ġsince",
        -8.540809762970941
      ],
      [
        "Ġcost",
        -8.541676612029725
      ],
      [
        "You",
        -8.544864974015326
      ],
      [
        "Ġtop",
        -8.545083915917443
      ],
      [
        "w",
        -8.545923822742457
      ],
      [
        "Ġalong",
        -8.547370212826948
      ],
      [
        "Ġfield",
        -8.552448078095129
      ],
      [
        "Ġresults",
        -8.552914902497058
      ],
      [
        "Ġfast",
        -8.555647130779455
      ],
      [
        "Ġshort",
        -8.55579774735551
      ],
      [
        "Ġfocus",
        -8.558146872300899
      ],
      [
        "We",
        -8.559651263751856
      ],
      [
        "Ġpractice",
        -8.560305284246919
      ],
      [
        "Ġmaterials",
        -8.562797525123713
      ],
      [
        "Ġneeds",
        -8.564773006824037
      ],
      [
        "Ġproper",
        -8.566469822569129
      ],
      [
        "Ġlove",
        -8.571244295720014
      ],
      [
        "Ġmaintain",
        -8.571308484473294
      ],
      [
        "Ġlet",
        -8.572338408074089
      ],
      [
        "Ġlevels",
        -8.57296410459735
      ],
      [
        "Ġdiet",
        -8.57378118601442
      ],
      [
        "ĠThat",
        -8.575431478703104
      ],
      [
        "Ġprogram",
        -8.577319082973386
      ],
      [
        "Ġobject",
        -8.577834362288286
      ],
      [
        "Ġhaving",
        -8.579006940800685
      ],
      [
        "least",
        -8.580092693931178
      ],
      [
        "it",
        -8.58076678094502
      ],
      [
        "Ġuntil",
        -8.58123462358618
      ],
      [
        "Ġfamily",
        -8.58143416025235
      ],
      [
        "Ġphysical",
        -8.584760200220487
      ],
      [
        "Ġcomputer",
        -8.585385482586744
      ],
      [
        "Ġsecond",
        -8.58564636863283
      ],
      [
        "ĠBy",
        -8.585897426955215
      ],
      [
        "Ġearly",
        -8.588031835544367
      ],
      [
        "Ġproducts",
        -8.58863004306418
      ],
      [
        "Ġgrowth",
        -8.590959588174782
      ],
      [
        "Ġpopulation",
        -8.595727912750867
      ],
      [
        "Ġcheck",
        -8.601245156903609
      ],
      [
        "Ġkind",
        -8.60154197434846
      ],
      [
        "Ġoffer",
        -8.605964624780057
      ],
      [
        "Ġnext",
        -8.61178786584166
      ],
      [
        "Ġworking",
        -8.612936542145707
      ],
      [
        "Ġdogs",
        -8.61337909615989
      ],
      [
        "Ġkey",
        -8.619123974795032
      ],
      [
        ")Ċ",
        -8.620123935972707
      ],
      [
        "!Ċ",
        -8.62029516397794
      ],
      [
        "Ġhigher",
        -8.621234295791513
      ],
      [
        "Ġbusiness",
        -8.622706548691276
      ],
      [
        "ĠHe",
        -8.622775822532132
      ],
      [
        "E",
        -8.622799019211232
      ],
      [
        "ers",
        -8.62307815709413
      ],
      [
        "Ġcourse",
        -8.624963383126802
      ],
      [
        "Ġmakes",
        -8.628350712380993
      ],
      [
        "Ġeasy",
        -8.632257277842577
      ],
      [
        "Ġsimilar",
        -8.632263399798992
      ],
      [
        "Ġvariet",
        -8.632280336372833
      ],
      [
        "Ġprotect",
        -8.633154829585377
      ],
      [
        "Ġreal",
        -8.636259924629805
      ],
      [
        "Ġline",
        -8.636718246005568
      ],
      [
        "Ġwide",
        -8.637261363300397
      ],
      [
        "Ġthing",
        -8.642200508232705
      ],
      [
        "Ġchanges",
        -8.643614004690669
      ],
      [
        "Ġ[",
        -8.643707559772233
      ],
      [
        "Ġdepend",
        -8.645255933725526
      ],
      [
        "Ġgiven",
        -8.645952216613239
      ],
      [
        "Ġlower",
        -8.647442811266028
      ],
      [
        "Ġavoid",
        -8.648415186397035
      ],
      [
        "Ġold",
        -8.649999881177399
      ],
      [
        "Ġlikely",
        -8.651208086802086
      ],
      [
        "ther",
        -8.6524384271547
      ],
      [
        "There",
        -8.655333647308941
      ],
      [
        "ĠWith",
        -8.656409891123857
      ],
      [
        "Ġdoesn",
        -8.65668526864751
      ],
      [
        "Ġplan",
        -8.659033502145443
      ],
      [
        "Ġcover",
        -8.659682073276235
      ],
      [
        "Ġfull",
        -8.660110377612597
      ],
      [
        "ĠâĢĶ",
        -8.660652324160335
      ],
      [
        "Ġdays",
        -8.663136247283092
      ],
      [
        "Ġsimple",
        -8.664087628366342
      ],
      [
        "ĠUniversity",
        -8.664150498603249
      ],
      [
        "*",
        -8.665925728966075
      ],
      [
        "Ġsafe",
        -8.666271480372961
      ],
      [
        "Ġskin",
        -8.669417133067554
      ],
      [
        "Ġfollow",
        -8.670734346666613
      ],
      [
        "Ġnever",
        -8.671117654149166
      ],
      [
        "Ġissues",
        -8.674853063248005
      ],
      [
        "Ġactually",
        -8.678752127815542
      ],
      [
        "Ġbuilding",
        -8.679669230406061
      ],
      [
        "Ġunique",
        -8.682352941599309
      ],
      [
        "Ġacross",
        -8.686895229358823
      ],
      [
        "Ġeffective",
        -8.686911256496748
      ],
      [
        "not",
        -8.68822746357649
      ],
      [
        "Ġespecially",
        -8.688733939879022
      ],
      [
        "ĠSome",
        -8.689655758735533
      ],
      [
        "ĠG",
        -8.692287273391184
      ],
      [
        "ĠW",
        -8.694927829225637
      ],
      [
        "]",
        -8.696089863978653
      ],
      [
        "Ġprofessional",
        -8.69669742978952
      ],
      [
        "ĠAmerican",
        -8.697152250517824
      ],
      [
        "Ġeye",
        -8.697882112402343
      ],
      [
        "Ġask",
        -8.698318377062197
      ],
      [
        "Ġexist",
        -8.698817509183591
      ],
      [
        "Ġfuture",
        -8.701282933973289
      ],
      [
        "Ġproduction",
        -8.702678492525209
      ],
      [
        "ĠO",
        -8.703511655472813
      ],
      [
        "to",
        -8.703952102136448
      ],
      [
        "To",
        -8.70710564575608
      ],
      [
        "ĠR",
        -8.707985555766994
      ],
      [
        "Ġfact",
        -8.70850464509055
      ],
      [
        "Ġsocial",
        -8.708668058358711
      ],
      [
        "Ġhealthy",
        -8.71111771354154
      ],
      [
        "Ġdone",
        -8.716256011977901
      ],
      [
        "Ġimage",
        -8.716946514613475
      ],
      [
        "Ġclose",
        -8.717012149885146
      ],
      [
        "Ġfar",
        -8.718038988387649
      ],
      [
        "Ġstep",
        -8.718134765475591
      ],
      [
        "Ġarticle",
        -8.720031233534339
      ],
      [
        "ive",
        -8.720444035223277
      ],
      [
        "Ġdry",
        -8.720878392205236
      ],
      [
        "Ġpaper",
        -8.721486774590733
      ],
      [
        "Ġminute",
        -8.721816739739268
      ],
      [
        "ous",
        -8.72551326074261
      ],
      [
        "Ġheart",
        -8.725552849154893
      ],
      [
        "Ġsingle",
        -8.726410051272028
      ],
      [
        "Ġanimal",
        -8.726880748036782
      ],
      [
        "Ġcell",
        -8.727312495770601
      ],
      [
        "Ġsuggest",
        -8.730540762749879
      ],
      [
        "Ġground",
        -8.730943482358619
      ],
      [
        "Ġclean",
        -8.732361914086509
      ],
      [
        "one",
        -8.732690286033463
      ],
      [
        "Ġmillion",
        -8.73479186201612
      ],
      [
        "against",
        -8.73536796190771
      ],
      [
        "ary",
        -8.735762797696472
      ],
      [
        "Ġvideo",
        -8.740751934926877
      ],
      [
        "Ġchild",
        -8.741207167710055
      ],
      [
        "Ġclear",
        -8.741764388551061
      ],
      [
        "Ġaccording",
        -8.743452386047066
      ],
      [
        "Ġdifficult",
        -8.74475649825828
      ],
      [
        "Ġspeed",
        -8.745426015754347
      ],
      [
        "Ġregular",
        -8.746983924824107
      ],
      [
        ")ĊĊ",
        -8.748492811152836
      ],
      [
        "Ġoccur",
        -8.749898792478579
      ],
      [
        "Ġtoday",
        -8.751851548581772
      ],
      [
        "Ġclimate",
        -8.751857042320031
      ],
      [
        "Ġabove",
        -8.752058075198477
      ],
      [
        "Ġtimes",
        -8.752925255583065
      ],
      [
        "Ġstore",
        -8.75725636052631
      ],
      [
        "Ġpet",
        -8.757829345038541
      ],
      [
        "Ġimprove",
        -8.759262997337412
      ],
      [
        "Ġloss",
        -8.75969633294112
      ],
      [
        "P",
        -8.763785297970664
      ],
      [
        "Ġquestion",
        -8.767052846804443
      ],
      [
        "Ġrecommend",
        -8.769860839768736
      ],
      [
        "Ġbook",
        -8.769965720808552
      ],
      [
        "Ġwhite",
        -8.770687085728756
      ],
      [
        "Ġdeep",
        -8.771768234597221
      ],
      [
        "Ġsignificant",
        -8.772659110967052
      ],
      [
        "Ġelectric",
        -8.772786108999071
      ],
      [
        "ĠN",
        -8.775537908482193
      ],
      [
        "Ġproduct",
        -8.77595708349996
      ],
      [
        "ry",
        -8.77658423121877
      ],
      [
        "Ġbring",
        -8.778278635984812
      ],
      [
        "F",
        -8.778568335704225
      ],
      [
        "age",
        -8.779936202097334
      ],
      [
        "Ġcontent",
        -8.782873705922597
      ],
      [
        "âĢĵ",
        -8.783192837974875
      ],
      [
        "Ġsays",
        -8.78704113633519
      ],
      [
        "Ġtraining",
        -8.78777761878834
      ],
      [
        "M",
        -8.788311417541975
      ],
      [
        "Ġsign",
        -8.791376364100403
      ],
      [
        "Ġfour",
        -8.793710968464541
      ],
      [
        "ĠNew",
        -8.79495608693075
      ],
      [
        "Ġleft",
        -8.796227149661867
      ],
      [
        "Ġonce",
        -8.800878843525952
      ],
      [
        "ĠYour",
        -8.800981253001773
      ],
      [
        "Ġaccess",
        -8.801848402385481
      ],
      [
        "Ġcreat",
        -8.801918707419603
      ],
      [
        "Ġvehicle",
        -8.802314748004285
      ],
      [
        "ĠL",
        -8.803034120267561
      ],
      [
        "Ġgas",
        -8.803685454380195
      ],
      [
        "Ġeither",
        -8.804595568917058
      ],
      [
        "Ġface",
        -8.804736274716355
      ],
      [
        "Ġrun",
        -8.805017999500063
      ],
      [
        "For",
        -8.80551782006328
      ],
      [
        "Ġenvironmental",
        -8.805965404515916
      ],
      [
        "Ġrecent",
        -8.807012237773911
      ],
      [
        "Ġapproach",
        -8.807109593018405
      ],
      [
        "Ġstudie",
        -8.808806916915561
      ],
      [
        "Ġeat",
        -8.809195204387366
      ],
      [
        "Ġpost",
        -8.809726317017176
      ],
      [
        "Ġeffects",
        -8.810905638889054
      ],
      [
        "Ġmove",
        -8.814736392257606
      ],
      [
        "Ġunderstanding",
        -8.815962813199302
      ],
      [
        "Ġbasic",
        -8.816681327697097
      ],
      [
        "Ġmatter",
        -8.817088338528606
      ],
      [
        "Ġread",
        -8.818548002978826
      ],
      [
        "Ġstrong",
        -8.8205782872086
      ],
      [
        "Ġparts",
        -8.82197279578256
      ],
      [
        "Ġfuel",
        -8.823232805145821
      ],
      [
        "Ġtreat",
        -8.824082037435698
      ],
      [
        "activity",
        -8.82895275342205
      ],
      [
        "Ġamong",
        -8.829240688968909
      ],
      [
        "Ġstructure",
        -8.830005115688596
      ],
      [
        "ĠNo",
        -8.83201563582713
      ],
      [
        "Ġhim",
        -8.832224570666153
      ],
      [
        "ĠH",
        -8.835756104845824
      ],
      [
        "Ġperformance",
        -8.835771257451112
      ],
      [
        "Ġengine",
        -8.8357858172855
      ],
      [
        "Ġsound",
        -8.835881527728237
      ],
      [
        "Ġcat",
        -8.838835816401055
      ],
      [
        "Ġeffect",
        -8.83909778189128
      ],
      [
        "Ġskills",
        -8.84033362792563
      ],
      [
        "Ġbelieve",
        -8.841337877056567
      ],
      [
        "Ġfurther",
        -8.843757465653525
      ],
      [
        "Ġenjoy",
        -8.843994752263796
      ],
      [
        "Ġaddition",
        -8.844359397622721
      ],
      [
        "Ġposition",
        -8.851032936894608
      ],
      [
        "ment",
        -8.852384270955621
      ],
      [
        "Ġpattern",
        -8.852524661384916
      ],
      [
        "Ġbig",
        -8.853841783311719
      ],
      [
        "_",
        -8.856701952225851
      ],
      [
        "Ġreason",
        -8.857704671579366
      ],
      [
        "Ġscience",
        -8.85913921905086
      ],
      [
        "Ġalready",
        -8.86063319441789
      ],
      [
        "Ġbehavior",
        -8.860982578704022
      ],
      [
        "Ġbit",
        -8.861866645157
      ],
      [
        "Ġwhe",
        -8.864452146454479
      ],
      [
        "Ġways",
        -8.864585928163972
      ],
      [
        "Ġfeatures",
        -8.864738083262257
      ],
      [
        "Ġcommunity",
        -8.865276900626466
      ],
      [
        "Ġcarbon",
        -8.865562300088921
      ],
      [
        "âĢĶ",
        -8.866319576979086
      ],
      [
        "Ġindustry",
        -8.866473117430562
      ],
      [
        "ĠU",
        -8.86766856663889
      ],
      [
        "Ġmarket",
        -8.86814952510052
      ],
      [
        "Ġaction",
        -8.86820080142506
      ],
      [
        "Ġhours",
        -8.870760576901791
      ],
      [
        "Ġinside",
        -8.871796812090231
      ],
      [
        "Ġlist",
        -8.871815833049222
      ],
      [
        "Ġdiscover",
        -8.874026314782661
      ],
      [
        "Ġbelow",
        -8.875327785658843
      ],
      [
        "Ġpopular",
        -8.876065787886345
      ],
      [
        "Ġhead",
        -8.877738382490762
      ],
      [
        "Ġam",
        -8.879912428979338
      ],
      [
        "Ġflower",
        -8.880105517884012
      ],
      [
        "necessary",
        -8.88044740429456
      ],
      [
        "Ġrate",
        -8.881420357601046
      ],
      [
        "Ġthought",
        -8.881687665794324
      ],
      [
        "Ġhistory",
        -8.88190484488435
      ],
      [
        "G",
        -8.882883777018074
      ],
      [
        "Ġwaste",
        -8.885856456552427
      ],
      [
        "Ġparent",
        -8.886134272611748
      ],
      [
        "Ġred",
        -8.886716989730502
      ],
      [
        "Ġexplain",
        -8.889267999426833
      ],
      [
        "Ġremain",
        -8.889724700913781
      ],
      [
        "Ġcomplex",
        -8.89236440809118
      ],
      [
        "most",
        -8.893478222586229
      ],
      [
        "Ġsafety",
        -8.893896483113059
      ],
      [
        "Ġmention",
        -8.895536469668649
      ],
      [
        "Ġstay",
        -8.896400865452273
      ],
      [
        "Ġidea",
        -8.897377534878173
      ],
      [
        "As",
        -8.897923594445443
      ],
      [
        "Ġslow",
        -8.899043834702177
      ],
      [
        "Ġshape",
        -8.901179565712283
      ],
      [
        "Ġthough",
        -8.901899614606204
      ],
      [
        "Ġpublic",
        -8.902017421484086
      ],
      [
        "Ġeasi",
        -8.903237205946132
      ],
      [
        "Ġissue",
        -8.905710543894052
      ],
      [
        "So",
        -8.906181148537218
      ],
      [
        "Ġseen",
        -8.907593729252971
      ],
      [
        "Ġsense",
        -8.908270529587229
      ],
      [
        "Ġblack",
        -8.910255929502839
      ],
      [
        "Ġmajor",
        -8.912812344583527
      ],
      [
        "Ġagain",
        -8.913027844713024
      ],
      [
        "Ġmanagement",
        -8.914157888405096
      ],
      [
        "Ġtoward",
        -8.917543643194904
      ],
      [
        "Ġcook",
        -8.918804587259881
      ],
      [
        "ĠOne",
        -8.91941287572601
      ],
      [
        "Ġuser",
        -8.919472099984507
      ],
      [
        "Ġpain",
        -8.920762863719254
      ],
      [
        "Ġcompany",
        -8.92146894526698
      ],
      [
        "Ġreach",
        -8.921619969132529
      ],
      [
        "Ġaddress",
        -8.923615881017295
      ],
      [
        "Ġfall",
        -8.924382125673258
      ],
      [
        "Ġwarm",
        -8.92557207452048
      ],
      [
        "Ġappear",
        -8.927393973889941
      ],
      [
        "Ġstress",
        -8.927431694012903
      ],
      [
        "Ġactivities",
        -8.92750046886103
      ],
      [
        "Ġliving",
        -8.927986366760504
      ],
      [
        "Ġanswer",
        -8.928098168500348
      ],
      [
        "Ġknowledge",
        -8.929807571505886
      ],
      [
        "Ġconcern",
        -8.934442467841066
      ],
      [
        "Ġtotal",
        -8.936497221276346
      ],
      [
        "be",
        -8.93650651043551
      ],
      [
        "Ġtools",
        -8.936802023620357
      ],
      [
        "Ġbuild",
        -8.939353627991444
      ],
      [
        "ĠF",
        -8.94098339537759
      ],
      [
        "Ġpositive",
        -8.941468497817521
      ],
      [
        "Ġperiod",
        -8.942802563444264
      ],
      [
        "Ġpersonal",
        -8.945519825292934
      ],
      [
        "Ġresearchers",
        -8.946138430349752
      ],
      [
        "Ġnature",
        -8.947080113608187
      ],
      [
        "Ġcold",
        -8.94994685547071
      ],
      [
        "Ġroom",
        -8.950566210631578
      ],
      [
        "âĢ¦",
        -8.951526894038274
      ],
      [
        "Ġmind",
        -8.951917438842184
      ],
      [
        "Ġmedical",
        -8.955963666602882
      ],
      [
        "Ġgame",
        -8.95699182874067
      ],
      [
        "Ġscientist",
        -8.957537029316395
      ],
      [
        "Ġbrain",
        -8.95805843913844
      ],
      [
        "N",
        -8.958549417075918
      ],
      [
        "ach",
        -8.959302793119377
      ],
      [
        "Ġauthor",
        -8.960063175385738
      ],
      [
        "Ġcancer",
        -8.96120641745405
      ],
      [
        "O",
        -8.961775074358176
      ],
      [
        "Ġtypically",
        -8.96269895817758
      ],
      [
        "Ġresponse",
        -8.963295463765444
      ],
      [
        "Ġhouse",
        -8.96407128391261
      ],
      [
        "Ġland",
        -8.965847914514335
      ],
      [
        "Ġgenetic",
        -8.968112081898791
      ],
      [
        "Ġwhole",
        -8.969674883840657
      ],
      [
        "ĠWhil",
        -8.970027271984929
      ],
      [
        "Ġaverage",
        -8.97224321750214
      ],
      [
        "Ġcamera",
        -8.972634760752712
      ],
      [
        "R",
        -8.973877511911406
      ],
      [
        "Ġassociated",
        -8.975055369664211
      ],
      [
        "Ġtell",
        -8.97948724306795
      ],
      [
        "Ġdoing",
        -8.979838101605978
      ],
      [
        "Ġsomeone",
        -8.981058935915607
      ],
      [
        "Ġcool",
        -8.981348483047999
      ],
      [
        "Ġcorrect",
        -8.984211601859272
      ],
      [
        "Ġmethods",
        -8.984398261170808
      ],
      [
        "man",
        -8.984969014415068
      ],
      [
        "Ġadult",
        -8.985293523959612
      ],
      [
        "Ġmachine",
        -8.985690168111457
      ],
      [
        "Ġaffect",
        -8.98722252722181
      ],
      [
        "Ġperform",
        -8.987558815643116
      ],
      [
        "Ġmonths",
        -8.987694872897784
      ],
      [
        "Ġcode",
        -8.990715182253101
      ],
      [
        "Ġgreen",
        -8.994647309034853
      ],
      [
        "Ġmovement",
        -8.994963478458882
      ],
      [
        "Ġsymptoms",
        -8.9958618401417
      ],
      [
        "Ġrepresent",
        -8.995875124957514
      ],
      [
        "Ġhelps",
        -8.997055300587153
      ],
      [
        "Ġcontact",
        -8.997588266326604
      ],
      [
        "ĠAn",
        -8.998383085177409
      ],
      [
        "rather",
        -9.001932116506177
      ],
      [
        "taking",
        -9.004360673363507
      ],
      [
        "Ġsimpl",
        -9.006949210608262
      ],
      [
        "Ġpercent",
        -9.008475622445223
      ],
      [
        "Ġhumans",
        -9.008821502137756
      ],
      [
        "Ġtraditional",
        -9.009565256666349
      ],
      [
        "Ġcut",
        -9.011851848920465
      ],
      [
        "Ġseason",
        -9.012404899028914
      ],
      [
        "Ġshare",
        -9.012831138519417
      ],
      [
        "Ġbuy",
        -9.01293060278496
      ],
      [
        "Ġonline",
        -9.014347131171014
      ],
      [
        "Ġexercise",
        -9.015099440719368
      ],
      [
        "Ġservice",
        -9.01608970953221
      ],
      [
        "Ġdetermine",
        -9.01800242018591
      ],
      [
        "Ġchoose",
        -9.0192180660961
      ],
      [
        "Ġchemical",
        -9.021892843446729
      ],
      [
        "Ġhold",
        -9.022625477534737
      ],
      [
        "Ġsite",
        -9.025816390473196
      ],
      [
        "Ġforce",
        -9.0258458305889
      ],
      [
        "W",
        -9.026143624625568
      ],
      [
        "Ġyoung",
        -9.026448179773578
      ],
      [
        "Ġapplications",
        -9.029286085041072
      ],
      [
        "Ġperfect",
        -9.029994231158092
      ],
      [
        "Ġidentify",
        -9.03181125071882
      ],
      [
        "Ġwomen",
        -9.033915038208844
      ],
      [
        "Ġquickly",
        -9.035532281954133
      ],
      [
        "Ġclass",
        -9.03702352280988
      ],
      [
        "Ġinvolve",
        -9.037567284586103
      ],
      [
        "Ġflow",
        -9.039509763989445
      ],
      [
        "Ġentire",
        -9.040811616152268
      ],
      [
        "Ġprimar",
        -9.040957123750612
      ],
      [
        ".\"ĊĊ",
        -9.041657319808335
      ],
      [
        "Ġresources",
        -9.0419350131897
      ],
      [
        "Ġquestions",
        -9.042242998066431
      ],
      [
        "Ġcrucial",
        -9.042639562250432
      ],
      [
        "Ġgot",
        -9.042940821437018
      ],
      [
        "Ġanalysis",
        -9.044377066557594
      ],
      [
        "Ġmuscle",
        -9.045462850788605
      ],
      [
        "Ġnormal",
        -9.045683879339103
      ],
      [
        "Ġwinter",
        -9.04624191682142
      ],
      [
        ".\"Ċ",
        -9.047791830064815
      ],
      [
        "K",
        -9.047820544725257
      ],
      [
        "H",
        -9.04804731371293
      ],
      [
        "Ġoutside",
        -9.048205201588132
      ],
      [
        "Ġtechniques",
        -9.04880008768198
      ],
      [
        "Ġisn",
        -9.04922782156736
      ],
      [
        "Ġoverall",
        -9.050549977276848
      ],
      [
        "Ġcontinue",
        -9.05079555630035
      ],
      [
        "Ġmoney",
        -9.05314011519224
      ],
      [
        "ĠAI",
        -9.054637593080384
      ],
      [
        "Ġcases",
        -9.054900090450843
      ],
      [
        "Ġwear",
        -9.05665563196941
      ],
      [
        "Ġspecial",
        -9.057065034966206
      ],
      [
        "Ġrelationship",
        -9.057075974814126
      ],
      [
        "Ġcall",
        -9.05753567136186
      ],
      [
        "Ġdevice",
        -9.057775973153896
      ],
      [
        "Ġproperties",
        -9.06030124992402
      ],
      [
        "Ġpast",
        -9.06063356433354
      ],
      [
        "Ġsugar",
        -9.060804381825204
      ],
      [
        "ĠDNA",
        -9.061827008701716
      ],
      [
        "Ġrelated",
        -9.061839932650544
      ],
      [
        "Ġmodern",
        -9.062603521652765
      ],
      [
        "ĠDo",
        -9.063596756501608
      ],
      [
        "Ġlocation",
        -9.064979555678017
      ],
      [
        "Ġb",
        -9.065512757360151
      ],
      [
        "Ġetc",
        -9.066230694992624
      ],
      [
        "Ġbalance",
        -9.067026120260348
      ],
      [
        "Ġremove",
        -9.070827590550495
      ],
      [
        "instead",
        -9.0737435371815
      ],
      [
        "|",
        -9.074915917749408
      ],
      [
        "Ġtool",
        -9.07622837699261
      ],
      [
        "\\",
        -9.076938002401528
      ],
      [
        "Ġsometime",
        -9.07801123264614
      ],
      [
        "Ġinfection",
        -9.080585295882646
      ],
      [
        "Ġrelative",
        -9.080744020176406
      ],
      [
        "Ġglobal",
        -9.08184581917818
      ],
      [
        "Ġbase",
        -9.08225386382209
      ],
      [
        "Ġfive",
        -9.084507775029913
      ],
      [
        "Ġhot",
        -9.08482496069029
      ],
      [
        "probably",
        -9.084984273683872
      ],
      [
        "throughout",
        -9.08754919775583
      ],
      [
        "Ġplastic",
        -9.088191498805417
      ],
      [
        "Ġsleep",
        -9.088747226234696
      ],
      [
        "Ġlayer",
        -9.090220046806827
      ],
      [
        "Ġguide",
        -9.090250796419951
      ],
      [
        "Ġhear",
        -9.090395354806578
      ],
      [
        "Ġmilk",
        -9.09217066932318
      ],
      [
        "Ġever",
        -9.093224036861482
      ],
      [
        "Ġeffort",
        -9.093635679901343
      ],
      [
        "ĠNational",
        -9.093719092253146
      ],
      [
        "Ġpre",
        -9.09421689806587
      ],
      [
        "Ġmultiple",
        -9.099663131541927
      ],
      [
        "ance",
        -9.10042149338872
      ],
      [
        "Ġsoftware",
        -9.101513950451944
      ],
      [
        ").Ċ",
        -9.105021234761722
      ],
      [
        "Ġparticular",
        -9.105447180142068
      ],
      [
        "Ġcomponents",
        -9.10556858476483
      ],
      [
        "Ġself",
        -9.106082459296816
      ],
      [
        "ship",
        -9.106247372757869
      ],
      [
        "Ġwood",
        -9.10978093397734
      ],
      [
        "Ġactive",
        -9.11021134464636
      ],
      [
        "Ġweather",
        -9.110833155100146
      ],
      [
        "Ġfeet",
        -9.111813656297484
      ],
      [
        "V",
        -9.112514014192689
      ],
      [
        "Ġbad",
        -9.113015816917471
      ],
      [
        "ĠK",
        -9.114270750005716
      ],
      [
        "Ġcompared",
        -9.115424092915738
      ],
      [
        "Ġsignal",
        -9.11543902754051
      ],
      [
        "Ġmix",
        -9.116115216043127
      ],
      [
        "Ġmetal",
        -9.117848600539318
      ],
      [
        "ĠAll",
        -9.117958635443967
      ],
      [
        "Ġelements",
        -9.117998247281758
      ],
      [
        "Ġexplore",
        -9.118600878242072
      ],
      [
        "Ġdetail",
        -9.118631984358675
      ],
      [
        "by",
        -9.118902884356698
      ],
      [
        "Ġmonitor",
        -9.119577090845803
      ],
      [
        "Ġextreme",
        -9.11976006418756
      ],
      [
        "Ġcomplete",
        -9.122505807748208
      ],
      [
        "Ġlength",
        -9.12334122229463
      ],
      [
        "Ġdigital",
        -9.12590960522777
      ],
      [
        "ĠUnited",
        -9.12722103669477
      ],
      [
        "Ġchoice",
        -9.12854668589062
      ],
      [
        "Ġview",
        -9.129804434145605
      ],
      [
        "Ġart",
        -9.130597921222922
      ],
      [
        "Ġcontain",
        -9.13305930544775
      ],
      [
        "Ġnight",
        -9.133984802913254
      ],
      [
        "ĠCan",
        -9.13496010734347
      ],
      [
        "Ġeducation",
        -9.13712592413372
      ],
      [
        "Ġact",
        -9.137723001771503
      ],
      [
        "Ġreport",
        -9.137907188129912
      ],
      [
        "Ġvisit",
        -9.13991595342503
      ],
      [
        "Ġcountry",
        -9.139942382118075
      ],
      [
        "Ġreaction",
        -9.140928000217656
      ],
      [
        "yourself",
        -9.142775856035207
      ],
      [
        "Ġprice",
        -9.144209269883405
      ],
      [
        "Ġpatients",
        -9.14769806718641
      ],
      [
        "Ġwon",
        -9.148402587347002
      ],
      [
        "Ġsummer",
        -9.149406502838229
      ],
      [
        "Ġbattery",
        -9.150644555883996
      ],
      [
        "Ġnetwork",
        -9.151160599809494
      ],
      [
        "Ġstop",
        -9.151864526156702
      ],
      [
        "Ġbirds",
        -9.152686334593042
      ],
      [
        "Ġeating",
        -9.15297479570259
      ],
      [
        "Ġincreasing",
        -9.153135999861776
      ],
      [
        "Ġoptions",
        -9.153237272345113
      ],
      [
        "Ġsuccessful",
        -9.155967992451297
      ],
      [
        "Ġequipment",
        -9.157688199825364
      ],
      [
        "ĠAt",
        -9.159404250157271
      ],
      [
        "Ġcycle",
        -9.160698351877873
      ],
      [
        "Ġprovid",
        -9.160745096421728
      ],
      [
        "yet",
        -9.162848002901368
      ],
      [
        "Ġrelease",
        -9.163177044981689
      ],
      [
        "Ġmeat",
        -9.16658073692706
      ],
      [
        "Ġtrue",
        -9.168140566424832
      ],
      [
        "Ġshown",
        -9.172496667566117
      ],
      [
        "Ġhalf",
        -9.173708830640027
      ],
      [
        "Ġdivers",
        -9.174067656522856
      ],
      [
        "Ġsubject",
        -9.175721550973822
      ],
      [
        "Ġexperiment",
        -9.178948000236986
      ],
      [
        "Ġregion",
        -9.17971346185059
      ],
      [
        "Ġtaken",
        -9.181055191510683
      ],
      [
        "Ġservices",
        -9.181725273780753
      ],
      [
        "Ġwebsite",
        -9.18188740158691
      ],
      [
        "Ġlater",
        -9.185554387261805
      ],
      [
        "Ġnutrient",
        -9.18636924784698
      ],
      [
        "Ġpurpose",
        -9.186761997942911
      ],
      [
        "Ġreturn",
        -9.188005942299124
      ],
      [
        "Why",
        -9.188108558431152
      ],
      [
        "Ġcaus",
        -9.188170887117144
      ],
      [
        "One",
        -9.188467739060489
      ],
      [
        "Ġstarted",
        -9.19028648250244
      ],
      [
        "Ġenhance",
        -9.191047004629976
      ],
      [
        "Ġunit",
        -9.192639372406957
      ],
      [
        "Ġinvolved",
        -9.193563711072915
      ],
      [
        "Ġefficient",
        -9.194805475938953
      ],
      [
        "Ġsave",
        -9.1962970919213
      ],
      [
        "Ġago",
        -9.196557531226103
      ],
      [
        "ĠJ",
        -9.197488985858186
      ],
      [
        "Ġblock",
        -9.199477659836846
      ],
      [
        "ĠSchool",
        -9.200792322737076
      ],
      [
        "Ġattention",
        -9.201924544471476
      ],
      [
        "ĠHealth",
        -9.20668627157144
      ],
      [
        "Ġsea",
        -9.20740999773652
      ],
      [
        "Ġmeasure",
        -9.208392663082288
      ],
      [
        "Ġchicken",
        -9.20839428148015
      ],
      [
        "quite",
        -9.210509033621893
      ],
      [
        "Ġstudent",
        -9.211306511650108
      ],
      [
        "Ġshows",
        -9.212142436932249
      ],
      [
        "Ġeggs",
        -9.21229566996263
      ],
      [
        "Ġbreak",
        -9.212308548456756
      ],
      [
        "Ġadditional",
        -9.212378178815436
      ],
      [
        "ĠHere",
        -9.215039973483282
      ],
      [
        "Ġingredient",
        -9.215767905147215
      ],
      [
        "Ġachieve",
        -9.217272418009294
      ],
      [
        "Ġlanguage",
        -9.21782168938605
      ],
      [
        "ĠâĢľ",
        -9.217906873807657
      ],
      [
        "Ġfinal",
        -9.218496769578596
      ],
      [
        "Ġplayer",
        -9.218883649588031
      ],
      [
        "Ġapply",
        -9.223441828944765
      ],
      [
        "Ġdistance",
        -9.224179140151737
      ],
      [
        "Ġconcept",
        -9.224633689297203
      ],
      [
        "Ġpoints",
        -9.22637772046008
      ],
      [
        "Ġitself",
        -9.229124981886772
      ],
      [
        "Ġsolar",
        -9.230755613745366
      ],
      [
        "larger",
        -9.23298487105923
      ],
      [
        "Ġthemselves",
        -9.236482135452231
      ],
      [
        "Ġnegative",
        -9.236697575580102
      ],
      [
        "Ġfoods",
        -9.237018754666334
      ],
      [
        "Ġaspect",
        -9.237026962848445
      ],
      [
        "Ġbacteria",
        -9.23775312496718
      ],
      [
        "Ġoriginal",
        -9.23800441390053
      ],
      [
        "ism",
        -9.238430713994656
      ],
      [
        "Ġmale",
        -9.240110922691397
      ],
      [
        "Ġspread",
        -9.241611428771794
      ],
      [
        "Ġoffers",
        -9.241842108453678
      ],
      [
        "Ġprocesses",
        -9.243715024124471
      ],
      [
        "Ġfile",
        -9.245028684161824
      ],
      [
        "Ġbehind",
        -9.245462363529327
      ],
      [
        "Ġoption",
        -9.245912061385214
      ],
      [
        "Ġseem",
        -9.246476736839906
      ],
      [
        "Ġreduc",
        -9.24679456954848
      ],
      [
        "Ġcompound",
        -9.25077850496345
      ],
      [
        "Ġinjur",
        -9.251098923913522
      ],
      [
        "Ġdrink",
        -9.251440619874668
      ],
      [
        "Ġstory",
        -9.251738498686604
      ],
      [
        "Ġadded",
        -9.25191348960672
      ],
      [
        "Â°",
        -9.253740353252898
      ],
      [
        "Ġsample",
        -9.254179116691638
      ],
      [
        "Ġgain",
        -9.25444647095495
      ],
      [
        "But",
        -9.255178147088015
      ],
      [
        "where",
        -9.255684850272525
      ],
      [
        "Ġapplication",
        -9.257298328480726
      ],
      [
        "Ġfat",
        -9.259322084735482
      ],
      [
        "Ġworks",
        -9.259509743281576
      ],
      [
        "Ġinfluence",
        -9.26181673000006
      ],
      [
        ".\"",
        -9.261869618016163
      ],
      [
        "Ġtrack",
        -9.262595859294876
      ],
      [
        "Ġfront",
        -9.262774288051968
      ],
      [
        "Ġstandard",
        -9.26306274295894
      ],
      [
        "Ġde",
        -9.263272836511153
      ],
      [
        "Ġice",
        -9.26442358674427
      ],
      [
        "Ġman",
        -9.26446342511896
      ],
      [
        "land",
        -9.266278619793264
      ],
      [
        "Ġpatient",
        -9.2662813972144
      ],
      [
        "=",
        -9.266624288869586
      ],
      [
        "Ġtarget",
        -9.266762100824304
      ],
      [
        "ĠOn",
        -9.268017572473749
      ],
      [
        "Ġglass",
        -9.26842387851918
      ],
      [
        "Ġinsect",
        -9.268754208480082
      ],
      [
        "Ġjob",
        -9.269280001797954
      ],
      [
        "Ġlink",
        -9.271368920484594
      ],
      [
        "Ġlimit",
        -9.271900338317709
      ],
      [
        "Ġcontribute",
        -9.272121571042437
      ],
      [
        "Ġfill",
        -9.272407336740072
      ],
      [
        "wise",
        -9.2743233074251
      ],
      [
        "Ġreading",
        -9.274613478101532
      ],
      [
        "Ġdirection",
        -9.274732328921164
      ],
      [
        "Ġrest",
        -9.276682164427928
      ],
      [
        "Ġparticularly",
        -9.277075820303333
      ],
      [
        "Ġsalt",
        -9.278320076322384
      ],
      [
        "Ġsection",
        -9.278906157325732
      ],
      [
        "Ġconnection",
        -9.27892758295922
      ],
      [
        "Ġdevices",
        -9.279030477525914
      ],
      [
        "Ġeyes",
        -9.279725184483148
      ],
      [
        "Ġgoal",
        -9.281132247826116
      ],
      [
        "Ġappropriate",
        -9.281802108046982
      ],
      [
        "Ġenter",
        -9.282898388088604
      ],
      [
        "Ġconduct",
        -9.284980199425204
      ],
      [
        "Ġdiscuss",
        -9.2853473646913
      ],
      [
        "out",
        -9.28601375623568
      ],
      [
        "Ġfemale",
        -9.287274084700982
      ],
      [
        "Ġtakes",
        -9.28738058822989
      ],
      [
        "Ġevidence",
        -9.288239049268388
      ],
      [
        "Ġdidn",
        -9.288483189769297
      ],
      [
        "Ġdark",
        -9.288766053675444
      ],
      [
        "Ġdrive",
        -9.289166763514633
      ],
      [
        ">",
        -9.290014240415704
      ],
      [
        "Ġfun",
        -9.290767183635245
      ],
      [
        "Ġsmaller",
        -9.292122865968745
      ],
      [
        "Ġtend",
        -9.293080337397647
      ],
      [
        "ĠDr",
        -9.294820978660123
      ],
      [
        "Ġfresh",
        -9.29495950095503
      ],
      [
        "running",
        -9.294970868754437
      ],
      [
        "ĠV",
        -9.29558119929095
      ],
      [
        "Ġaccount",
        -9.295607793227848
      ],
      [
        "ĠStates",
        -9.2960049202405
      ],
      [
        "Ġestablish",
        -9.29621871710405
      ],
      [
        "Ġwords",
        -9.297438429933466
      ],
      [
        "Ġextra",
        -9.300360624391706
      ],
      [
        "Ġinput",
        -9.300987387254324
      ],
      [
        "Ġadvance",
        -9.303100281838791
      ],
      [
        "Ġsearch",
        -9.30321495235236
      ],
      [
        "Ġmental",
        -9.303445780011929
      ],
      [
        "Ġdescribe",
        -9.30475574470447
      ],
      [
        "Ġcharge",
        -9.306094865411612
      ],
      [
        "Ġfeed",
        -9.306531333973243
      ],
      [
        "Ġseparate",
        -9.306543624831548
      ],
      [
        "ĠYes",
        -9.307033219502904
      ],
      [
        "Ġinstall",
        -9.316131602590604
      ],
      [
        "Ġmeet",
        -9.316142696722387
      ],
      [
        "Ġspring",
        -9.316171955973372
      ],
      [
        "Ġoutput",
        -9.318510901469306
      ],
      [
        "Ġtalk",
        -9.318987148476822
      ],
      [
        "Ġmonth",
        -9.319025096071744
      ],
      [
        "Ġextend",
        -9.319510991278822
      ],
      [
        "Ġmanage",
        -9.320768321348371
      ],
      [
        "âĢĿ",
        -9.32085975107987
      ],
      [
        "Ġattack",
        -9.322542952703184
      ],
      [
        "Ġstyle",
        -9.322854336223523
      ],
      [
        "Ġcrop",
        -9.323161358211994
      ],
      [
        "ĠEarth",
        -9.3238033129268
      ],
      [
        "Ġprovided",
        -9.32427063173495
      ],
      [
        "Ġtravel",
        -9.32509644088935
      ],
      [
        "Ġword",
        -9.3263972143282
      ],
      [
        "Ġconstant",
        -9.326432179364406
      ],
      [
        "Ġspot",
        -9.326709354037948
      ],
      [
        "Ġsupply",
        -9.327139868720725
      ],
      [
        "Ġtips",
        -9.328695852721406
      ],
      [
        "Ġsun",
        -9.328742201654482
      ],
      [
        "Ġmodels",
        -9.328989345585589
      ],
      [
        "Ġcritical",
        -9.329550763400617
      ],
      [
        "Ġcats",
        -9.33022739394612
      ],
      [
        "Ġstrength",
        -9.33033474790321
      ],
      [
        "Ġdail",
        -9.330675725529758
      ],
      [
        "Ġuseful",
        -9.330978260285816
      ],
      [
        "Ġcircuit",
        -9.333431328462554
      ],
      [
        "Ġwatch",
        -9.334337665375203
      ],
      [
        "Ġgovernment",
        -9.3344872508464
      ],
      [
        "ch",
        -9.335379768220031
      ],
      [
        "Ġsix",
        -9.33659422018157
      ],
      [
        "ar",
        -9.337633546103632
      ],
      [
        "Ġseries",
        -9.33883133085363
      ],
      [
        "Ġcompletely",
        -9.339282380061665
      ],
      [
        "ĠUse",
        -9.340940480236622
      ],
      [
        "Ġculture",
        -9.342276881763588
      ],
      [
        "more",
        -9.345788269853305
      ],
      [
        "Ġcenter",
        -9.347736917486433
      ],
      [
        "ĠMore",
        -9.348578105217092
      ],
      [
        "-to",
        -9.34860903859756
      ],
      [
        "Ġgeneration",
        -9.349168377452925
      ],
      [
        "Ġmass",
        -9.350126922202431
      ],
      [
        "Can",
        -9.350704585094489
      ],
      [
        "Ġeveryone",
        -9.35109266987323
      ],
      [
        "Ġorganic",
        -9.351105136740845
      ],
      [
        "Ġgenerate",
        -9.352525346316286
      ],
      [
        "ĠAfter",
        -9.353012188164476
      ],
      [
        "Ġkill",
        -9.353518023465138
      ],
      [
        "Ġserve",
        -9.35533876171953
      ],
      [
        "Ġblue",
        -9.355631260805856
      ],
      [
        "Ġversion",
        -9.355863098031753
      ],
      [
        "Ġelectrical",
        -9.355946905399728
      ],
      [
        "Ġelse",
        -9.356419121776288
      ],
      [
        "ĠNorth",
        -9.356555456577588
      ],
      [
        "Ġvision",
        -9.357244098238828
      ],
      [
        "Ġproduced",
        -9.35770191714553
      ],
      [
        "ĠAmerica",
        -9.358400547292876
      ],
      [
        "ĠMost",
        -9.359675871664187
      ],
      [
        "ĠShe",
        -9.360281158561062
      ],
      [
        "Ġcharacteristic",
        -9.361438604772642
      ],
      [
        "Ġfit",
        -9.361642442204976
      ],
      [
        "And",
        -9.363006384072287
      ],
      [
        "ĠUS",
        -9.36377119206742
      ],
      [
        "Ġmedia",
        -9.363805721051706
      ],
      [
        "Ġeasier",
        -9.364540280831449
      ],
      [
        "Ġpay",
        -9.366447239778076
      ],
      [
        "Because",
        -9.366623543987066
      ],
      [
        "Ġfine",
        -9.36771095856554
      ],
      [
        "Ġmolecule",
        -9.369262850644075
      ],
      [
        "ial",
        -9.370166259163348
      ],
      [
        "Ġpiece",
        -9.37018410214575
      ],
      [
        "ĠX",
        -9.372461144878528
      ],
      [
        "Ġcentur",
        -9.373173042006083
      ],
      [
        "Ġexpert",
        -9.37339601600532
      ],
      [
        "Ġcommunication",
        -9.37398922695891
      ],
      [
        "Ġkids",
        -9.37643633240672
      ],
      [
        "ĠScience",
        -9.376594681182064
      ],
      [
        "These",
        -9.378679615611809
      ],
      [
        "Ġfruit",
        -9.380225340754254
      ],
      [
        "Ġcity",
        -9.381219880550226
      ],
      [
        "Ġgoe",
        -9.381818469253862
      ],
      [
        "Ġdocument",
        -9.382818364297908
      ],
      [
        "Ġinterest",
        -9.383041555012898
      ],
      [
        "companie",
        -9.383277575653857
      ],
      [
        "Ġtissue",
        -9.383900174133888
      ],
      [
        "Ġsteps",
        -9.38494501100251
      ],
      [
        "Ġbegin",
        -9.38546481501486
      ],
      [
        "Ġimages",
        -9.38577374439546
      ],
      [
        "Ġlives",
        -9.385883041649873
      ],
      [
        "Ġapp",
        -9.390242451545394
      ],
      [
        "Ġnotice",
        -9.391104621898194
      ],
      [
        "Ġchallenges",
        -9.392095867477153
      ],
      [
        "Whil",
        -9.3921068780531
      ],
      [
        "Ġefficiency",
        -9.393393854447368
      ],
      [
        "Ġaim",
        -9.39385674209574
      ],
      [
        "Ġhandle",
        -9.394219120532174
      ],
      [
        "Ġtheory",
        -9.39437754609613
      ],
      [
        "Ġfrequent",
        -9.395410385630822
      ],
      [
        ".S",
        -9.39667072470936
      ],
      [
        "Using",
        -9.397745099777785
      ],
      [
        "Ġfeature",
        -9.398104364056344
      ],
      [
        "Ġbird",
        -9.398755436869257
      ],
      [
        "Ġitems",
        -9.399336074557752
      ],
      [
        "Ġremember",
        -9.400335172334817
      ],
      [
        "Ġreceive",
        -9.401471013542825
      ],
      [
        "ful",
        -9.402185645245382
      ],
      [
        "Ġdetect",
        -9.402766201619116
      ],
      [
        "Ġvary",
        -9.403106285579945
      ],
      [
        "Ġcarry",
        -9.403168340927005
      ],
      [
        "Ġlack",
        -9.403319954843688
      ],
      [
        "Ġserious",
        -9.404549989450585
      ],
      [
        "Ġseeds",
        -9.407377951737011
      ],
      [
        "Ġideal",
        -9.408771717932066
      ],
      [
        "Ġimportance",
        -9.408892100846945
      ],
      [
        "Ġpair",
        -9.410438000663966
      ],
      [
        "ĠResearch",
        -9.41074221604402
      ],
      [
        "Ġfeeling",
        -9.411287297188164
      ],
      [
        "Ġcountries",
        -9.411970069878352
      ],
      [
        "Ġdeal",
        -9.412010582957636
      ],
      [
        "Ġsuccess",
        -9.414029417797272
      ],
      [
        "Ġcontains",
        -9.414842372945213
      ],
      [
        "Ġdate",
        -9.414874045149991
      ],
      [
        "Q",
        -9.414909970319124
      ],
      [
        "mm",
        -9.41523647396802
      ],
      [
        "[",
        -9.415492191362496
      ],
      [
        "Ġtable",
        -9.415597571213771
      ],
      [
        "Ġdisplay",
        -9.415814413506055
      ],
      [
        "Ġbaby",
        -9.416279738089475
      ],
      [
        "Ġevent",
        -9.416333186279164
      ],
      [
        "Ġoxygen",
        -9.41926635109198
      ],
      [
        "Ġbag",
        -9.419824468643142
      ],
      [
        "Ġscientific",
        -9.42081684659409
      ],
      [
        "of",
        -9.42086397906339
      ],
      [
        "Ġpump",
        -9.422518784610588
      ],
      [
        "Ġpath",
        -9.4228174927359
      ],
      [
        "ĠMany",
        -9.422863447755953
      ],
      [
        "Ġlimited",
        -9.42430674054117
      ],
      [
        "Ġjoint",
        -9.42476089779366
      ],
      [
        "Ġfluid",
        -9.424957679312817
      ],
      [
        "Ġmeal",
        -9.426244400246096
      ],
      [
        "Another",
        -9.426802449295224
      ],
      [
        "Ġenable",
        -9.42681514562295
      ],
      [
        "Ġdemand",
        -9.426911496114272
      ],
      [
        "Ġwalk",
        -9.427621342359789
      ],
      [
        "ĠWhy",
        -9.428407204078924
      ],
      [
        "Ġmoving",
        -9.430913746491264
      ],
      [
        "Ġpoor",
        -9.431291751888097
      ],
      [
        "Ġphone",
        -9.432483677560349
      ],
      [
        "Ġtaste",
        -9.432966136331334
      ],
      [
        "Ġcolors",
        -9.43408045003456
      ],
      [
        "Ġnote",
        -9.435920429564126
      ],
      [
        "Ġprett",
        -9.436609250785391
      ],
      [
        "Ġfilter",
        -9.436664782509018
      ],
      [
        "Ġegg",
        -9.437333068140756
      ],
      [
        "Ġvolume",
        -9.437992922843051
      ],
      [
        "ĠWorld",
        -9.438768780332946
      ],
      [
        "Ġwall",
        -9.438927066455596
      ],
      [
        "$",
        -9.439052935799914
      ],
      [
        "Ġmaintenanc",
        -9.44027775406569
      ],
      [
        "Ġforest",
        -9.443428151423172
      ],
      [
        "Ġevents",
        -9.443959355635156
      ],
      [
        "Ġpromote",
        -9.445023973640268
      ],
      [
        "Ġaccurate",
        -9.445097269242066
      ],
      [
        "Ġmemory",
        -9.445372771146031
      ],
      [
        "Ġcollect",
        -9.4457878121468
      ],
      [
        "Ġbrand",
        -9.447062728216777
      ],
      [
        "ĠFrom",
        -9.447963482514108
      ],
      [
        "Ġbottom",
        -9.448564146704358
      ],
      [
        "cy",
        -9.44858370507867
      ],
      [
        "Ġbuil",
        -9.448616708312754
      ],
      [
        "Ġinitial",
        -9.448721237227796
      ],
      [
        "Ġframe",
        -9.449137148256938
      ],
      [
        "Ġhope",
        -9.450452430267372
      ],
      [
        "Ġscale",
        -9.45239407720542
      ],
      [
        "Ġprocedure",
        -9.452638685074298
      ],
      [
        "Ġfarm",
        -9.453377949647454
      ],
      [
        "Ġseek",
        -9.454527510470545
      ],
      [
        "An",
        -9.455070847282634
      ],
      [
        "-->",
        -9.455565335668522
      ],
      [
        "L",
        -9.45633498056364
      ],
      [
        "Ġtank",
        -9.456636122282688
      ],
      [
        "ĠBe",
        -9.45678078443516
      ],
      [
        "care",
        -9.457228115367588
      ],
      [
        "Ġtouch",
        -9.45737389500812
      ],
      [
        "Ġrich",
        -9.457730822478991
      ],
      [
        "Ġtrain",
        -9.458693305201802
      ],
      [
        "Ġliquid",
        -9.458912208512553
      ],
      [
        "Ġbone",
        -9.45927777371428
      ],
      [
        "Ġprotection",
        -9.46108661730255
      ],
      [
        "Ġgenes",
        -9.461237203997282
      ],
      [
        "ization",
        -9.46189707690163
      ],
      [
        "Ġsoft",
        -9.463795669081495
      ],
      [
        "-up",
        -9.4648756443966
      ],
      [
        "Ġrare",
        -9.465342525673698
      ],
      [
        "Ġprograms",
        -9.466644791065054
      ],
      [
        "Ġspend",
        -9.468055804504356
      ],
      [
        "Ġtherap",
        -9.469294979723813
      ],
      [
        "Ġvisual",
        -9.469961599345902
      ],
      [
        "Ġco",
        -9.469964756425464
      ],
      [
        "ish",
        -9.471076098409226
      ],
      [
        "Ġequal",
        -9.471333378845356
      ],
      [
        "Ġbrown",
        -9.47179289134644
      ],
      [
        "Ġcommonly",
        -9.472773045701082
      ],
      [
        "Ġconnect",
        -9.472900524228605
      ],
      [
        "Ġcosts",
        -9.473760882295784
      ],
      [
        "gan",
        -9.473801889460756
      ],
      [
        "Ġteeth",
        -9.474784313639468
      ],
      [
        "Ġboard",
        -9.475841425404251
      ],
      [
        "Ġcleaning",
        -9.47767066216051
      ],
      [
        "Ġpage",
        -9.479017606584346
      ],
      [
        "Ġadjust",
        -9.479050909505574
      ],
      [
        "Ġhearing",
        -9.48073870888728
      ],
      [
        "Ġwind",
        -9.48130468820743
      ],
      [
        "Ġlines",
        -9.481537127442929
      ],
      [
        "Ġcloth",
        -9.481797896369518
      ],
      [
        "Ġlate",
        -9.483399783466457
      ],
      [
        "ber",
        -9.48396482559184
      ],
      [
        "ĠAdditional",
        -9.484039072796282
      ],
      [
        "ier",
        -9.484554978521276
      ],
      [
        "Ġcombination",
        -9.48461647233194
      ],
      [
        "Ġleg",
        -9.48545658054636
      ],
      [
        "Ġinstance",
        -9.48559519667006
      ],
      [
        "Ġselect",
        -9.486079397588416
      ],
      [
        "Ġtask",
        -9.486181967951724
      ],
      [
        "Ġcame",
        -9.486450000568036
      ],
      [
        "Ġalgorithm",
        -9.48768656640331
      ],
      [
        "Ġfigure",
        -9.488134666682038
      ],
      [
        "ĠThen",
        -9.489724974226352
      ],
      [
        "Ġelement",
        -9.489909200529087
      ],
      [
        "Ġpublished",
        -9.490675374659048
      ],
      [
        "Ġfire",
        -9.491084794103708
      ],
      [
        "Ġpass",
        -9.492037176829257
      ],
      [
        "Ġgene",
        -9.492067444476811
      ],
      [
        "Ġusers",
        -9.492564140142644
      ],
      [
        "Ġreasons",
        -9.494723203726505
      ],
      [
        "Ġlandscape",
        -9.49548858229258
      ],
      [
        "Ġsituation",
        -9.496332270437382
      ],
      [
        "Ġstone",
        -9.497159345193676
      ],
      [
        "Ġready",
        -9.497339024568715
      ],
      [
        "Ġprint",
        -9.498328202908704
      ],
      [
        "Ġencourage",
        -9.499362150439357
      ],
      [
        "Ġfix",
        -9.499733580941475
      ],
      [
        "Ġstorage",
        -9.502949880079717
      ],
      [
        "Ġyellow",
        -9.50332049794967
      ],
      [
        "Do",
        -9.504245677650491
      ],
      [
        "applied",
        -9.504433362336616
      ],
      [
        "Ġear",
        -9.505242115616852
      ],
      [
        "Ġvia",
        -9.505533085746638
      ],
      [
        "Ġnative",
        -9.506109696621987
      ],
      [
        "Ġdecrease",
        -9.5072663374326
      ],
      [
        "Ġwriting",
        -9.507493890287972
      ],
      [
        "Ġnothing",
        -9.509521278367291
      ],
      [
        "Ġclaim",
        -9.510395030695896
      ],
      [
        "Ġslight",
        -9.510707757126635
      ],
      [
        "Ġconvert",
        -9.510944636454042
      ],
      [
        "Ġsubstance",
        -9.512848588772796
      ],
      [
        "Ġseems",
        -9.513599706673707
      ],
      [
        "Ġmoisture",
        -9.514004905008406
      ],
      [
        "By",
        -9.51402949549151
      ],
      [
        "Ġmembers",
        -9.514053531842094
      ],
      [
        "Ġhair",
        -9.51438942977718
      ],
      [
        "Ġrise",
        -9.5144629854436
      ],
      [
        "Ġexactly",
        -9.51516498717994
      ],
      [
        "Ġalternative",
        -9.515595085863968
      ],
      [
        "Ġensur",
        -9.515722768517213
      ],
      [
        "Ġlaw",
        -9.515848602442665
      ],
      [
        "Ġball",
        -9.515930297596608
      ],
      [
        "Ġwait",
        -9.516043007275256
      ],
      [
        "Ġflavor",
        -9.516345469762047
      ],
      [
        "ĠNot",
        -9.51885473130095
      ],
      [
        "Ġrequirements",
        -9.520223905534914
      ],
      [
        "Ġfund",
        -9.52184863540788
      ],
      [
        "Ġdecision",
        -9.522419653838131
      ],
      [
        "Ġresponsible",
        -9.522507877190067
      ],
      [
        "if",
        -9.523557247212024
      ],
      [
        "Ġleaf",
        -9.524836136095011
      ],
      [
        "Ġmoment",
        -9.525473336242465
      ],
      [
        "Ġtransport",
        -9.52635102222848
      ],
      [
        "Ġcutting",
        -9.526781401399647
      ],
      [
        "ĠMy",
        -9.528272770771832
      ],
      [
        "Ġled",
        -9.528409916937033
      ],
      [
        "ĠâĢ¦",
        -9.528425795402152
      ],
      [
        "Ġtechnique",
        -9.528876694841744
      ],
      [
        "Ġsoon",
        -9.530170192378836
      ],
      [
        "Ġadapt",
        -9.530639604389538
      ],
      [
        "Ġfrequency",
        -9.53145994554187
      ],
      [
        "ĠSouth",
        -9.535514938411534
      ],
      [
        "Y",
        -9.537456418951404
      ],
      [
        "Ġwild",
        -9.537729150646888
      ],
      [
        "Ġstates",
        -9.54062552361282
      ],
      [
        "fish",
        -9.54097628834642
      ],
      [
        "Ġhost",
        -9.54153188744851
      ],
      [
        "Ġreplace",
        -9.542757783175531
      ],
      [
        "Ġstage",
        -9.543576621816444
      ],
      [
        "Ġsetting",
        -9.543701085128536
      ],
      [
        "Ġchance",
        -9.543951560848557
      ],
      [
        "Ġsignificantly",
        -9.544560061697258
      ],
      [
        "Ġreview",
        -9.544600908921506
      ],
      [
        "giving",
        -9.546751508020613
      ],
      [
        "ĠOur",
        -9.546754931824232
      ],
      [
        "Ġcommuniti",
        -9.547989224787766
      ],
      [
        "considered",
        -9.5484563379742
      ],
      [
        "ĠAlso",
        -9.549425938601107
      ],
      [
        "Ġhorse",
        -9.55214407879962
      ],
      [
        "Ġfoot",
        -9.55325499512481
      ],
      [
        "Ġ--",
        -9.553408771834953
      ],
      [
        "Ġimplement",
        -9.554806189729154
      ],
      [
        "Ġmusic",
        -9.555787129360654
      ],
      [
        "Ġthus",
        -9.556319427933625
      ],
      [
        "Ġsecurity",
        -9.55703430658985
      ],
      [
        "Ġplatform",
        -9.557762202890412
      ],
      [
        "Ġpresence",
        -9.5578161079275
      ],
      [
        "Step",
        -9.557826744316412
      ],
      [
        "ian",
        -9.558565120152991
      ],
      [
        "Ġnode",
        -9.558736650884926
      ],
      [
        "Ġideas",
        -9.558935629364532
      ],
      [
        "X",
        -9.560384505632994
      ],
      [
        "Ġiron",
        -9.561623221087936
      ],
      [
        "came",
        -9.56193781077095
      ],
      [
        "Ġhands",
        -9.563039951787134
      ],
      [
        "Ġdoctor",
        -9.563391497081422
      ],
      [
        "Ġlesson",
        -9.56510105507489
      ],
      [
        "Ġconstruction",
        -9.565432026173568
      ],
      [
        "Ġtherefor",
        -9.566176705821544
      ],
      [
        "Ġtesting",
        -9.566733004027778
      ],
      [
        "Ġthird",
        -9.567322200985837
      ],
      [
        "Ġtook",
        -9.567933527703495
      ],
      [
        "Ġfloor",
        -9.568563237261657
      ],
      [
        "ĠTheir",
        -9.569067938953868
      ],
      [
        "Ġocean",
        -9.569377434561492
      ],
      [
        "Ġjourney",
        -9.570168664084136
      ],
      [
        "Ġolder",
        -9.571481446968342
      ],
      [
        "Some",
        -9.571826339152796
      ],
      [
        "Ġsevere",
        -9.572037865501748
      ],
      [
        "Ġdefine",
        -9.572733217228112
      ],
      [
        "âĢ¢",
        -9.572851574607462
      ],
      [
        "ĠAre",
        -9.57287031652782
      ],
      [
        "Ġcollection",
        -9.573309538424464
      ],
      [
        "Ġreflect",
        -9.573412755260437
      ],
      [
        "Ġexpensive",
        -9.573679155495554
      ],
      [
        "-term",
        -9.575482912167775
      ],
      [
        "work",
        -9.575661715565271
      ],
      [
        "Ġeffectively",
        -9.575712422749431
      ],
      [
        "Ġbeautiful",
        -9.57707963967648
      ],
      [
        "Ġmechanism",
        -9.577984950763389
      ],
      [
        "Ġexposure",
        -9.57809729045043
      ],
      [
        "Ġheavy",
        -9.579571503172753
      ],
      [
        "ĠCenter",
        -9.580527511587563
      ],
      [
        "Ġfiber",
        -9.580627543686852
      ],
      [
        "Ġmessage",
        -9.581619640450988
      ],
      [
        "Ġroad",
        -9.581667892102423
      ],
      [
        "Ġpowerful",
        -9.582005419219229
      ],
      [
        "Ġfabric",
        -9.582866738760666
      ],
      [
        "Ġaid",
        -9.583210855614103
      ],
      [
        "line",
        -9.584040585664711
      ],
      [
        "Ġdegrees",
        -9.585010025317269
      ],
      [
        "Ġroot",
        -9.585035037810751
      ],
      [
        "Ġ#",
        -9.58623830450829
      ],
      [
        "Ġcommercial",
        -9.586397435514984
      ],
      [
        "Ġmedication",
        -9.588120060157609
      ],
      [
        "Ġdesire",
        -9.588831245147452
      ],
      [
        "Ġproperty",
        -9.589478959034574
      ],
      [
        "Ġsolid",
        -9.590135131579457
      ],
      [
        "Ġfriends",
        -9.590293379352154
      ],
      [
        "Ġmeaning",
        -9.590379669703946
      ],
      [
        "Ġsmooth",
        -9.590491409864388
      ],
      [
        "Ġdiabetes",
        -9.59074262424578
      ],
      [
        "Ġbox",
        -9.591226326320784
      ],
      [
        "Ġvirus",
        -9.593001580719656
      ],
      [
        "Ġcount",
        -9.593527919578676
      ],
      [
        "Ġstem",
        -9.593887970686268
      ],
      [
        "Ġaccept",
        -9.594867064465983
      ],
      [
        "Ġdriver",
        -9.596511096230271
      ],
      [
        "Ġmeasurement",
        -9.597090275161024
      ],
      [
        "Ġsensor",
        -9.597390656113255
      ],
      [
        "Ġrefer",
        -9.598843479194404
      ],
      [
        "Ġpest",
        -9.598938870104975
      ],
      [
        "Ġtasks",
        -9.598966164351594
      ],
      [
        "Ġthinking",
        -9.599072032854108
      ],
      [
        "Ġwonder",
        -9.599189319144184
      ],
      [
        "ily",
        -9.599398252356622
      ],
      [
        "Ġsend",
        -9.600183731322437
      ],
      [
        "With",
        -9.600542532435828
      ],
      [
        "bility",
        -9.602420166446816
      ],
      [
        "Ġpanel",
        -9.602430148186825
      ],
      [
        "ĠOf",
        -9.60543109082542
      ],
      [
        "Ġparticles",
        -9.60614961512233
      ],
      [
        "Ġresistance",
        -9.607282103949366
      ],
      [
        "Ġearth",
        -9.607355151869104
      ],
      [
        "Ġcard",
        -9.60922315798305
      ],
      [
        "Ġdeath",
        -9.609793138061107
      ],
      [
        "up",
        -9.61161934376894
      ],
      [
        "Ġcontext",
        -9.611882888441531
      ],
      [
        "Ġflight",
        -9.613057247512144
      ],
      [
        "Ġfunctions",
        -9.613206015652448
      ],
      [
        "Ġload",
        -9.61357693466784
      ],
      [
        "Ġphase",
        -9.615257712308658
      ],
      [
        "Ġmotion",
        -9.61585233330456
      ],
      [
        "Ġapproximate",
        -9.615969263381334
      ],
      [
        "Ġopportunity",
        -9.617327813116995
      ],
      [
        "Ġconsistent",
        -9.617696609195352
      ],
      [
        "Ġswitch",
        -9.61781123365073
      ],
      [
        "Ġwrong",
        -9.618467208888209
      ],
      [
        "ĠOr",
        -9.618684760783186
      ],
      [
        "ĠWho",
        -9.61869295343439
      ],
      [
        "Ġworth",
        -9.620827238519873
      ],
      [
        "Ġsuitabl",
        -9.621602018093949
      ],
      [
        "developed",
        -9.621858946505608
      ],
      [
        "Ġpush",
        -9.622758002643447
      ],
      [
        "Ġmen",
        -9.623652024506292
      ],
      [
        "Ġstrategies",
        -9.624126494213204
      ],
      [
        "Ġconnected",
        -9.624297509225151
      ],
      [
        "Ġquick",
        -9.62433303853836
      ],
      [
        "ĠNow",
        -9.624777854518184
      ],
      [
        "Ġcapacity",
        -9.62671460704945
      ],
      [
        "over",
        -9.62678475609059
      ],
      [
        "ter",
        -9.62729258905528
      ],
      [
        "Ġphotograph",
        -9.627298715797266
      ],
      [
        "Ġfully",
        -9.628503296031184
      ],
      [
        "ĠWater",
        -9.629152363144168
      ],
      [
        "Ġdeliver",
        -9.62928227507054
      ],
      [
        "Ġforward",
        -9.630905455096308
      ],
      [
        "Ġcouple",
        -9.63114157966716
      ],
      [
        "Ġpicture",
        -9.631149592872797
      ],
      [
        "Ġmedium",
        -9.63128419473221
      ],
      [
        "Ġindicate",
        -9.631724239233678
      ],
      [
        "Ġconsumption",
        -9.63250639702759
      ],
      [
        "Ġstand",
        -9.633753357512456
      ],
      [
        "Ġinteresting",
        -9.633979127252022
      ],
      [
        "Ġnumbers",
        -9.63483488257727
      ],
      [
        "ĠEnglish",
        -9.6351562383483
      ],
      [
        "tic",
        -9.635432312859296
      ],
      [
        "Ġsort",
        -9.637421194468384
      ],
      [
        "hether",
        -9.639327733393912
      ],
      [
        "Ġforms",
        -9.63988927640095
      ],
      [
        "den",
        -9.640237068086876
      ],
      [
        "Ġrain",
        -9.641186672532584
      ],
      [
        "Ġpark",
        -9.642651687575702
      ],
      [
        "Ġlose",
        -9.64367820632557
      ],
      [
        "Ġpurchase",
        -9.644632755518636
      ],
      [
        "Ġmatch",
        -9.64662564745447
      ],
      [
        "Ġreference",
        -9.646680727540817
      ],
      [
        "Ġinches",
        -9.6469166041083
      ],
      [
        "Ġaren",
        -9.646960249265598
      ],
      [
        "Ġsustainabl",
        -9.647476378413
      ],
      [
        "Ġsub",
        -9.64811307582596
      ],
      [
        "Ġpick",
        -9.648459955850797
      ],
      [
        "Ġmulti",
        -9.648596454484489
      ],
      [
        "beyond",
        -9.650213159119744
      ],
      [
        "Ġdraw",
        -9.65156270016736
      ],
      [
        "lthough",
        -9.653317389424984
      ],
      [
        "Ġrepair",
        -9.653589784081316
      ],
      [
        "alone",
        -9.65363332309876
      ],
      [
        "Now",
        -9.65382144154029
      ],
      [
        "Ġemissions",
        -9.654213680831662
      ],
      [
        "Ġrecord",
        -9.654657683816769
      ],
      [
        "Ġhuge",
        -9.65502033462896
      ],
      [
        "written",
        -9.656327307765476
      ],
      [
        "Ġfair",
        -9.657261103178271
      ],
      [
        "Ġshot",
        -9.658304425380102
      ],
      [
        "co",
        -9.659156476035928
      ],
      [
        "Ġmiddle",
        -9.65944142267238
      ],
      [
        "Ġvital",
        -9.66342824729145
      ],
      [
        "Ġcombine",
        -9.665413193285511
      ],
      [
        "Ġdrawing",
        -9.665611455542985
      ],
      [
        "Ġchang",
        -9.66604957663802
      ],
      [
        "Ġvariable",
        -9.666756735444585
      ],
      [
        "Ġdepth",
        -9.666894606410455
      ],
      [
        "Ġthousand",
        -9.66798976938772
      ],
      [
        "Ġcoming",
        -9.668062145282036
      ],
      [
        "Ġdynamic",
        -9.66812552435546
      ],
      [
        "Ġvitamin",
        -9.668625488243617
      ],
      [
        "Ġleader",
        -9.668863437425058
      ],
      [
        "Ġcontainer",
        -9.669892475228028
      ],
      [
        "ything",
        -9.670612735452812
      ],
      [
        "ĠLet",
        -9.671215717562385
      ],
      [
        "Ġbright",
        -9.671522953595533
      ],
      [
        "**",
        -9.67189675654097
      ],
      [
        "ĠState",
        -9.672865415361205
      ],
      [
        "Ġwrite",
        -9.673175551770663
      ],
      [
        "head",
        -9.6737018016102
      ],
      [
        "Ġfinish",
        -9.674791394799062
      ],
      [
        "Ġstick",
        -9.67506999135071
      ],
      [
        "Ġpieces",
        -9.675614190403682
      ],
      [
        "ate",
        -9.675638050481805
      ],
      [
        "Ġpaint",
        -9.67600146901168
      ],
      [
        "haps",
        -9.67677415592625
      ],
      [
        "ĠOnc",
        -9.677470277772349
      ],
      [
        "Ġcolour",
        -9.677644430880266
      ],
      [
        "Ġprevious",
        -9.678436471239287
      ],
      [
        "On",
        -9.681394314293154
      ],
      [
        "Ġgames",
        -9.682453986512948
      ],
      [
        "Ġexpress",
        -9.682810817704958
      ],
      [
        "They",
        -9.683003323975347
      ],
      [
        "wildlife",
        -9.686688797204118
      ],
      [
        "ĠOther",
        -9.687741906742165
      ],
      [
        "Ġoperat",
        -9.687880659564026
      ],
      [
        "Ġsupplement",
        -9.689486863752682
      ],
      [
        "Ġinternal",
        -9.690058164549722
      ],
      [
        "ĠMake",
        -9.690577437755811
      ],
      [
        "Ġexcellent",
        -9.69095303657688
      ],
      [
        "ĠDay",
        -9.692131264483384
      ],
      [
        "Ġsell",
        -9.693500993020884
      ],
      [
        "Ġvegetables",
        -9.694513939070568
      ],
      [
        "ĠRe",
        -9.69497228960494
      ],
      [
        "Ġplanning",
        -9.695374817735708
      ],
      [
        "Ġnational",
        -9.695756461851104
      ],
      [
        "Ġsecure",
        -9.696413723584158
      ],
      [
        "Ġsociet",
        -9.69754855665433
      ],
      [
        "ur",
        -9.6979677225627
      ],
      [
        "Ġalcohol",
        -9.698202251117682
      ],
      [
        "Ġevolution",
        -9.69835396347987
      ],
      [
        "Ġsurrounding",
        -9.700287684446057
      ],
      [
        "ten",
        -9.701051890006518
      ],
      [
        "That",
        -9.70201646610301
      ],
      [
        "Ġweb",
        -9.702582854217152
      ],
      [
        "Ġchallenge",
        -9.703559304430572
      ],
      [
        "Ġprocessing",
        -9.703684171509824
      ],
      [
        "Ġgrass",
        -9.704101688718527
      ],
      [
        "Ġdead",
        -9.704241904521687
      ],
      [
        "Ġcontroll",
        -9.706526705528866
      ],
      [
        "Ġtexture",
        -9.707204653900284
      ],
      [
        "ĠMay",
        -9.707504140625591
      ],
      [
        "lost",
        -9.708513816597629
      ],
      [
        "Ġmiss",
        -9.710068033006124
      ],
      [
        "went",
        -9.710691775085524
      ],
      [
        "Ġstructures",
        -9.710733248388422
      ],
      [
        "Ġcomfortabl",
        -9.710927462873396
      ],
      [
        "Ġspeak",
        -9.711273413124426
      ],
      [
        "efore",
        -9.71231075223683
      ],
      [
        "Ġmanufacturer",
        -9.713174676499683
      ],
      [
        "Ġbar",
        -9.71321272836292
      ],
      [
        "for",
        -9.713498617842816
      ],
      [
        "Ġexpand",
        -9.71359341723267
      ],
      [
        "Ġpull",
        -9.714490148433452
      ],
      [
        "Ġscreen",
        -9.714726680191696
      ],
      [
        "Ġresulting",
        -9.716826963998098
      ],
      [
        "Ġseed",
        -9.717407603033246
      ],
      [
        "il",
        -9.720074703762071
      ],
      [
        "Ġnoise",
        -9.72060995938796
      ],
      [
        "Ġlocate",
        -9.720698251587365
      ],
      [
        "Ġfamili",
        -9.721148070971978
      ],
      [
        "Ġmouth",
        -9.721744999887155
      ],
      [
        "Ġanti",
        -9.7223022873534
      ],
      [
        "âĪĴ",
        -9.72312642058977
      ],
      [
        "Ġinternational",
        -9.72343533119937
      ],
      [
        "Ġlegal",
        -9.723505833545175
      ],
      [
        "li",
        -9.723522522850304
      ],
      [
        "Ġexpected",
        -9.724158897256828
      ],
      [
        "Ġcomponent",
        -9.724281491606874
      ],
      [
        "Ġlabel",
        -9.725270990610255
      ],
      [
        "Ġmode",
        -9.726082872672515
      ],
      [
        "Ġmiles",
        -9.727134579201092
      ],
      [
        "Ġonto",
        -9.727199770485818
      ],
      [
        "ĠFirst",
        -9.727451137740564
      ],
      [
        "Ġtechnologies",
        -9.728278840205924
      ],
      [
        "ĠHigh",
        -9.72830173961814
      ],
      [
        "Ġsustain",
        -9.729283753742376
      ],
      [
        "Ġattempt",
        -9.72931183883123
      ],
      [
        "Ġhabitat",
        -9.73013256963451
      ],
      [
        "un",
        -9.730412520762751
      ],
      [
        "Ġdriv",
        -9.731581605118045
      ],
      [
        "Ġfriend",
        -9.732527125949035
      ],
      [
        "ĠEven",
        -9.734777332629134
      ],
      [
        "Ġround",
        -9.735414686726871
      ],
      [
        "Ġbackground",
        -9.737952297717625
      ],
      [
        "Ġheight",
        -9.738929337320322
      ],
      [
        "Ġconservation",
        -9.739891814872532
      ],
      [
        "Ġhighlight",
        -9.74001541225191
      ],
      [
        "About",
        -9.7400157038199
      ],
      [
        ".com",
        -9.74018904817661
      ],
      [
        "Ġstuff",
        -9.741083444706303
      ],
      [
        "Ġregions",
        -9.744498067568838
      ],
      [
        "Ġreveal",
        -9.744735598985194
      ],
      [
        "Ġcapture",
        -9.746331137576664
      ],
      [
        "Ġrules",
        -9.746505578662193
      ],
      [
        "Ġblog",
        -9.746801587890548
      ],
      [
        "Ġphoto",
        -9.746875603448943
      ],
      [
        "Ġexpect",
        -9.747649399134922
      ],
      [
        "Ġvaluable",
        -9.748922931524175
      ],
      [
        "Ġsquare",
        -9.74909461374468
      ],
      [
        "Ġexpression",
        -9.7500534941578
      ],
      [
        "Ġaffected",
        -9.750082522834768
      ],
      [
        "Ġfinancial",
        -9.750422979350034
      ],
      [
        "Ġlens",
        -9.751183854938546
      ],
      [
        "Ġplanet",
        -9.751425937104568
      ],
      [
        "Ġmaximum",
        -9.752809780560424
      ],
      [
        "Ġpractical",
        -9.753216220298278
      ],
      [
        "ĠAccording",
        -9.753526158851546
      ],
      [
        "Ġvoltage",
        -9.753720030881452
      ],
      [
        "Ġflat",
        -9.75398637732129
      ],
      [
        "Ġdrug",
        -9.75425618250436
      ],
      [
        "Ġresident",
        -9.754912636675956
      ],
      [
        "Ġbodies",
        -9.754959094539934
      ],
      [
        "Ġpress",
        -9.756339537396784
      ],
      [
        "Ġrecycl",
        -9.756610907462324
      ],
      [
        "ĠGod",
        -9.756819908821807
      ],
      [
        "Ġopportunit",
        -9.756931503455217
      ],
      [
        "upon",
        -9.757626796879972
      ],
      [
        "Ġsaw",
        -9.75786955801981
      ],
      [
        "tiny",
        -9.75885073912836
      ],
      [
        "Ġbreed",
        -9.759236036125374
      ],
      [
        "Ġlibrar",
        -9.759853906304487
      ],
      [
        "Ġsurvey",
        -9.760374408923836
      ],
      [
        "Here",
        -9.760900674235227
      ],
      [
        "ĠNOT",
        -9.761293533154909
      ],
      [
        "Ġhit",
        -9.762145965279869
      ],
      [
        "Ġsequence",
        -9.76233762117864
      ],
      [
        "Ġpredict",
        -9.76360298825259
      ],
      [
        "Ġregard",
        -9.763829898659925
      ],
      [
        "Ġmixture",
        -9.764018460894537
      ],
      [
        "Ġadvantage",
        -9.764042872169114
      ],
      [
        "Ġmeasures",
        -9.766390410023693
      ],
      [
        "time",
        -9.771002818003662
      ],
      [
        "Ġdemonstrate",
        -9.771310963406243
      ],
      [
        "Ġgrade",
        -9.772552161669417
      ],
      [
        "Ġactual",
        -9.772678003942223
      ],
      [
        "ĠUK",
        -9.772772583861205
      ],
      [
        "Ġsuit",
        -9.773161750821847
      ],
      [
        "side",
        -9.77427961497054
      ],
      [
        "Ġmember",
        -9.774673882234008
      ],
      [
        "ence",
        -9.775000693618846
      ],
      [
        "ĠEuropean",
        -9.775627384302314
      ],
      [
        "Ġrecognize",
        -9.776034116187263
      ],
      [
        "Ġreported",
        -9.776210838121626
      ],
      [
        "Ġplease",
        -9.776852755902954
      ],
      [
        "Ġassess",
        -9.777212234517387
      ],
      [
        "Ġdouble",
        -9.777405964781488
      ],
      [
        "No",
        -9.777514038171336
      ],
      [
        "Ġcross",
        -9.778602802796073
      ],
      [
        "Ġimmune",
        -9.778978440138603
      ],
      [
        "Ġsheet",
        -9.779886249199729
      ],
      [
        "-like",
        -9.780031002791354
      ],
      [
        "Ġcomment",
        -9.78054997244903
      ],
      [
        "Ġowner",
        -9.78237716702689
      ],
      [
        "Ġsteel",
        -9.786834293452316
      ],
      [
        "Ġrates",
        -9.787478811013871
      ],
      [
        "Ġclick",
        -9.789375159314393
      ],
      [
        "Ġelectronic",
        -9.790117456374164
      ],
      [
        "Ġdegree",
        -9.790253997224822
      ],
      [
        "Ġmedicine",
        -9.790703299990795
      ],
      [
        "Ġbeginning",
        -9.791561663645568
      ],
      [
        "Ġconcentration",
        -9.7915878645587
      ],
      [
        "Ġrespond",
        -9.791952294113177
      ],
      [
        "Ġmarine",
        -9.792309105321184
      ],
      [
        "Ġcentral",
        -9.792337987751404
      ],
      [
        "Ġselection",
        -9.79358991589386
      ],
      [
        "Ġcoast",
        -9.793961356356135
      ],
      [
        "ĠAlthough",
        -9.794098481225037
      ],
      [
        "Ġroots",
        -9.79420932188962
      ],
      [
        "Ġfeeding",
        -9.794418924727497
      ],
      [
        "Ġhabit",
        -9.7956863560136
      ],
      [
        "Ġequation",
        -9.797116359438776
      ],
      [
        "j",
        -9.797401414086831
      ],
      [
        "Ġannual",
        -9.798947983155196
      ],
      [
        "ĠCO",
        -9.799867200022588
      ],
      [
        "Ġorganization",
        -9.800002606298904
      ],
      [
        "ĠInstitute",
        -9.800058589900049
      ],
      [
        "Ġfavorite",
        -9.801118890643204
      ],
      [
        "Ġwindow",
        -9.804110386309176
      ],
      [
        "Ġcore",
        -9.804990951914265
      ],
      [
        "Ġcomfort",
        -9.80537680436202
      ],
      [
        "Ġstaff",
        -9.805643111778284
      ],
      [
        "Ġobserve",
        -9.80679964055478
      ],
      [
        "Ġmotor",
        -9.80747797893526
      ],
      [
        "Ġstock",
        -9.808491245046898
      ],
      [
        "Ġtri",
        -9.808589779314053
      ],
      [
        "Ġdrop",
        -9.809376717471109
      ],
      [
        "Ġteachers",
        -9.80964305192655
      ],
      [
        "Ġfail",
        -9.810601188630756
      ],
      [
        "Ġdistribution",
        -9.810804320728987
      ],
      [
        "Ġfight",
        -9.81128769759989
      ],
      [
        "ĠOver",
        -9.8121931893664
      ],
      [
        "Ġsurvive",
        -9.812448862881554
      ],
      [
        "Ġdoor",
        -9.81333651765626
      ],
      [
        "Ġgap",
        -9.813567007145204
      ],
      [
        "ge",
        -9.81358299702724
      ],
      [
        "Ġsports",
        -9.814202001362368
      ],
      [
        "Ġprogress",
        -9.814347272856471
      ],
      [
        "Ġtests",
        -9.81436262880047
      ],
      [
        "Ġconsumer",
        -9.815738082310538
      ],
      [
        "ĠDur",
        -9.815769579691397
      ],
      [
        "Ġinsight",
        -9.81589675063923
      ],
      [
        "Ġroll",
        -9.81620200941093
      ],
      [
        "Ġfarmer",
        -9.816365414796929
      ],
      [
        "Ġroof",
        -9.816603748782384
      ],
      [
        "Ġtransfer",
        -9.816894201743237
      ],
      [
        "Ġcategor",
        -9.81697638428026
      ],
      [
        "Ġteaching",
        -9.817260189514244
      ],
      [
        "ĠDepartment",
        -9.817436930386224
      ],
      [
        "Ġpot",
        -9.81788203519122
      ],
      [
        "Ġabsorb",
        -9.818122744539677
      ],
      [
        "Ġadvice",
        -9.819246333949206
      ],
      [
        "Ġsweet",
        -9.819683333894092
      ],
      [
        "Ġdangerous",
        -9.819913360312889
      ],
      [
        "Ġoperation",
        -9.820914152162608
      ],
      [
        "Ġshift",
        -9.821825705434254
      ],
      [
        "Ġangle",
        -9.822978470426824
      ],
      [
        "Ġeconomic",
        -9.823681206701604
      ],
      [
        "Ġappearance",
        -9.824215852184716
      ],
      [
        "am",
        -9.82810200961648
      ],
      [
        "ĠCalifornia",
        -9.828730698489435
      ],
      [
        "Ġoutcome",
        -9.828830202420663
      ],
      [
        "Ġfashion",
        -9.83088433467476
      ],
      [
        "itis",
        -9.831198472559992
      ],
      [
        "ized",
        -9.83125538489141
      ],
      [
        "Ġrule",
        -9.83137676815093
      ],
      [
        "ĠSt",
        -9.83142834518863
      ],
      [
        "Ġintroduce",
        -9.831896955584329
      ],
      [
        "Ġcustomer",
        -9.833036282163109
      ],
      [
        "Ġnest",
        -9.8337841485954
      ],
      [
        "ĠSince",
        -9.834050266334293
      ],
      [
        "Ġemergenc",
        -9.83485170807684
      ],
      [
        "Ġsettings",
        -9.836750800949629
      ],
      [
        "held",
        -9.838211021210276
      ],
      [
        "Ġbillion",
        -9.838527120718233
      ],
      [
        "Ġbasis",
        -9.83978102374894
      ],
      [
        "ĠY",
        -9.84089643216039
      ],
      [
        "Ġdecade",
        -9.84135047401368
      ],
      [
        "Ġmeasur",
        -9.84186704747368
      ],
      [
        "Ġcheap",
        -9.842336038648767
      ],
      [
        "Ġdie",
        -9.84266729938705
      ],
      [
        "Ġexamples",
        -9.842700616283608
      ],
      [
        "Ġhappy",
        -9.842965613308122
      ],
      [
        "Ġattract",
        -9.84345228693828
      ],
      [
        "ĠEnergy",
        -9.843622712923896
      ],
      [
        "Ġregarding",
        -9.843965496390249
      ],
      [
        "Ġdrain",
        -9.846009615346595
      ],
      [
        "Ġroutine",
        -9.846996681550706
      ],
      [
        "Ġshell",
        -9.849783260706886
      ],
      [
        "ĠQ",
        -9.851135264257316
      ],
      [
        "Ġemotional",
        -9.851905923278986
      ],
      [
        "Ġmelt",
        -9.852640026895994
      ],
      [
        "ĠRiver",
        -9.852709971881554
      ],
      [
        "Ġcatch",
        -9.853573282932896
      ],
      [
        "Ġrock",
        -9.853679965372455
      ],
      [
        "Ġbroad",
        -9.854138295522423
      ],
      [
        "Ġchemicals",
        -9.854956602515369
      ],
      [
        "Ġinterested",
        -9.85497192796459
      ],
      [
        "ĠIndia",
        -9.855358177596198
      ],
      [
        "Ġassist",
        -9.855886238669378
      ],
      [
        "Ġsites",
        -9.856766156804577
      ],
      [
        "Ġvoice",
        -9.857482823371573
      ],
      [
        "pite",
        -9.857969369603673
      ],
      [
        "Ġpollution",
        -9.858121586759976
      ],
      [
        "wide",
        -9.858374091028324
      ],
      [
        "Ġarray",
        -9.85840898827579
      ],
      [
        "Ġresource",
        -9.859013031712411
      ],
      [
        "Ġattach",
        -9.859158062913432
      ],
      [
        "Ġlearned",
        -9.859220196491124
      ],
      [
        "water",
        -9.86021074824393
      ],
      [
        "ĠAfrica",
        -9.863720547636952
      ],
      [
        "Ġeventual",
        -9.864420160528171
      ],
      [
        "Our",
        -9.865338162715371
      ],
      [
        "Ġsession",
        -9.865601958367709
      ],
      [
        "Ġhour",
        -9.866476329126073
      ],
      [
        "All",
        -9.867632498934473
      ],
      [
        "Ġartist",
        -9.867947756118374
      ],
      [
        "ĠEducation",
        -9.868278772645397
      ],
      [
        "Ġorgan",
        -9.86852823053604
      ],
      [
        "U",
        -9.868554403542838
      ],
      [
        "Ġsnow",
        -9.8690908473788
      ],
      [
        "Ġoptimal",
        -9.869434126788228
      ],
      [
        "Ġperspective",
        -9.869599117333005
      ],
      [
        "Ġcreative",
        -9.870489028269027
      ],
      [
        "Ġshade",
        -9.871678589894625
      ],
      [
        "Ġchocolate",
        -9.871879993917547
      ],
      [
        "ĠJust",
        -9.872547157619646
      ],
      [
        "Ġcapabilit",
        -9.87504016008263
      ],
      [
        "Ġhundred",
        -9.875075845259673
      ],
      [
        "Ġfinding",
        -9.876322091181647
      ],
      [
        "Ġprefer",
        -9.87725917827254
      ],
      [
        "Ġwar",
        -9.877890533335131
      ],
      [
        "Ġtypical",
        -9.877960288622536
      ],
      [
        "Ġbooks",
        -9.878239851591164
      ],
      [
        "Ġexternal",
        -9.878752640904692
      ],
      [
        "Ġconsume",
        -9.87923766100231
      ],
      [
        "Ġnice",
        -9.87969983330109
      ],
      [
        "Ġearlie",
        -9.880428360408253
      ],
      [
        "Ġmid",
        -9.881835511819588
      ],
      [
        "Ġcomprehensive",
        -9.882165423485416
      ],
      [
        "self",
        -9.882655100726195
      ],
      [
        "ical",
        -9.882788672182478
      ],
      [
        "Ġcustomers",
        -9.883345616435316
      ],
      [
        "which",
        -9.884117196102206
      ],
      [
        "ĠPark",
        -9.884449760247229
      ],
      [
        "Ġtopic",
        -9.884522513206855
      ],
      [
        "Ġplaces",
        -9.884837890577169
      ],
      [
        "Ġbiological",
        -9.884842287686675
      ],
      [
        "Ġbirth",
        -9.885946852554198
      ],
      [
        "Ġinstructions",
        -9.886351742683628
      ],
      [
        "Ġvirtual",
        -9.88794689203174
      ],
      [
        "Ġmother",
        -9.89017366937621
      ],
      [
        "-free",
        -9.890278393981006
      ],
      [
        "Ġlisten",
        -9.89086481759266
      ],
      [
        "After",
        -9.891122393224745
      ],
      [
        "Ġmanual",
        -9.891324964586213
      ],
      [
        "ĠTherefor",
        -9.89172463925171
      ],
      [
        "body",
        -9.8925201924457
      ],
      [
        "Ġparameter",
        -9.89408810946438
      ],
      [
        "Ġburn",
        -9.8948418097144
      ],
      [
        "that",
        -9.895792458759118
      ],
      [
        "#",
        -9.897298595762734
      ],
      [
        "Ġraw",
        -9.897921313594916
      ],
      [
        "Ġtrigger",
        -9.89798142688102
      ],
      [
        "Ġchain",
        -9.899020924646624
      ],
      [
        "Ġportion",
        -9.899244505896675
      ],
      [
        "Ġreceived",
        -9.899497966321771
      ],
      [
        "Ġoffice",
        -9.900723208102145
      ],
      [
        "Ġsurger",
        -9.901115687641315
      ],
      [
        "Ġatmosphere",
        -9.903918621818368
      ],
      [
        "immediately",
        -9.903977920951863
      ],
      [
        "visible",
        -9.904222739679868
      ],
      [
        "ĠâĢ¢",
        -9.905288996336566
      ],
      [
        "Ġedge",
        -9.905300041578688
      ],
      [
        "ĠZ",
        -9.90588319301838
      ],
      [
        "told",
        -9.906259362220345
      ],
      [
        "Ġsport",
        -9.906926115079452
      ],
      [
        "Ġreliabl",
        -9.90773144020098
      ],
      [
        "Ġcarrie",
        -9.907768483102329
      ],
      [
        "Ġnumero",
        -9.90892487768444
      ],
      [
        "Ġvariation",
        -9.909064080623011
      ],
      [
        "Ġvalve",
        -9.910772095136178
      ],
      [
        "rought",
        -9.911663683596462
      ],
      [
        "ring",
        -9.911921358361036
      ],
      [
        "Ġblade",
        -9.912479783355469
      ],
      [
        "Ġrid",
        -9.913314556669183
      ],
      [
        "Ġteacher",
        -9.913360141345969
      ],
      [
        "Ġlab",
        -9.91478531021511
      ],
      [
        "ĠEurope",
        -9.915558432340225
      ],
      [
        "Ġexperiences",
        -9.9169207150124
      ],
      [
        "Ġskill",
        -9.917017198748606
      ],
      [
        "related",
        -9.917150786162043
      ],
      [
        "Ġgoals",
        -9.917963240278796
      ],
      [
        "Ġtrip",
        -9.918618122244991
      ],
      [
        "Ġinform",
        -9.919626811748556
      ],
      [
        "Ġclassroom",
        -9.921090384244447
      ],
      [
        "ions",
        -9.92365124854807
      ],
      [
        "Ġphotos",
        -9.924173830799162
      ],
      [
        "Ġchalleng",
        -9.924397341017684
      ],
      [
        "Ġconclusion",
        -9.924521461157225
      ],
      [
        "ĠAustralia",
        -9.925111803710765
      ],
      [
        "Ġwheel",
        -9.925226557388156
      ],
      [
        "Ġcake",
        -9.925590886085777
      ],
      [
        "Ġraise",
        -9.92871221408388
      ],
      [
        "Ġlayers",
        -9.928743066650007
      ],
      [
        "Ġsounds",
        -9.929465597323098
      ],
      [
        "Ġstandards",
        -9.929624953427057
      ],
      [
        "Ġwalls",
        -9.929766970085348
      ],
      [
        "Ġrespect",
        -9.930226778063076
      ],
      [
        "Ġmorning",
        -9.930378142031527
      ],
      [
        "Ġestimate",
        -9.93123034693713
      ],
      [
        "Ġhydrogen",
        -9.932208542885622
      ],
      [
        "Ġschedule",
        -9.932255235678785
      ],
      [
        "Ġstraight",
        -9.932577653837493
      ],
      [
        "Ġfilm",
        -9.932851530404491
      ],
      [
        "Ġclasses",
        -9.933250995171568
      ],
      [
        "ĠPeople",
        -9.93370764241002
      ],
      [
        "Ġclient",
        -9.934325256935889
      ],
      [
        "Ġtransition",
        -9.934882917629402
      ],
      [
        "Ġowners",
        -9.93488673779472
      ],
      [
        "Ġpolicy",
        -9.935112843519452
      ],
      [
        "Ġoperate",
        -9.935456944909902
      ],
      [
        "ĠGreat",
        -9.93601596762568
      ],
      [
        "Ġwanted",
        -9.93643396230966
      ],
      [
        "Ġbutton",
        -9.936861819634968
      ],
      [
        "Ġofficial",
        -9.937229286562427
      ],
      [
        "Ġhelpful",
        -9.938505558974366
      ],
      [
        "Ġplanting",
        -9.938577915884892
      ],
      [
        "Ġartificial",
        -9.938751074352412
      ],
      [
        "Ġthin",
        -9.938868920636772
      ],
      [
        "Ġinvestment",
        -9.93987266260164
      ],
      [
        "Ġchanged",
        -9.940061913841578
      ],
      [
        "âĢĻt",
        -9.94124686502416
      ],
      [
        "ĠDon",
        -9.941312935049416
      ],
      [
        "im",
        -9.941399292065409
      ],
      [
        "Ġupper",
        -9.941443459390063
      ],
      [
        "Ġconcrete",
        -9.942018741742174
      ],
      [
        "Ġcloud",
        -9.942051120188443
      ],
      [
        "Ġreduction",
        -9.943148149921363
      ],
      [
        "Ġcalculate",
        -9.944043330853532
      ],
      [
        "Ġwet",
        -9.94434532128779
      ],
      [
        "Ġratio",
        -9.945176126263789
      ],
      [
        "Ġcareer",
        -9.945301809597256
      ],
      [
        "ĠFood",
        -9.945490987546767
      ],
      [
        "-in",
        -9.945815773920582
      ],
      [
        "Ġtrust",
        -9.946717304325178
      ],
      [
        "Ġcheese",
        -9.949145968666365
      ],
      [
        "Ġimprovement",
        -9.950455944727132
      ],
      [
        "Answer",
        -9.950568573323876
      ],
      [
        "Ġharvest",
        -9.950883652818494
      ],
      [
        "Ġdetailed",
        -9.95095245542382
      ],
      [
        "ent",
        -9.951651662908514
      ],
      [
        "ĠEvery",
        -9.951868135058916
      ],
      [
        "ul",
        -9.952345463577906
      ],
      [
        "Ġchannel",
        -9.952386724156192
      ],
      [
        "Ġfan",
        -9.952435032877482
      ],
      [
        "Ġfly",
        -9.95313233722768
      ],
      [
        "Ġlay",
        -9.95340386831928
      ],
      [
        "Ġcredit",
        -9.953470139607862
      ],
      [
        "Ġtea",
        -9.953959631320233
      ],
      [
        "Ġmagnetic",
        -9.955959711696991
      ],
      [
        "Ġstorie",
        -9.956932997741168
      ],
      [
        "ĠpH",
        -9.957662761721462
      ],
      [
        "Ġcultural",
        -9.95812278011314
      ],
      [
        "Ġedit",
        -9.958690147662397
      ],
      [
        "Ġbatteries",
        -9.960021099148712
      ],
      [
        "Ġformation",
        -9.9600939846664
      ],
      [
        "Ġcarefully",
        -9.960290843438385
      ],
      [
        "Ġdiscussion",
        -9.962871875353022
      ],
      [
        "Ġfossil",
        -9.963132029863475
      ],
      [
        "Ġillness",
        -9.963438860060204
      ],
      [
        "Ġdur",
        -9.96388792103693
      ],
      [
        "Ġimproved",
        -9.963924148188294
      ],
      [
        "Ġcontrast",
        -9.964023320421251
      ],
      [
        "Ġcreature",
        -9.964151434798197
      ],
      [
        "Ġtechnical",
        -9.964789412670545
      ],
      [
        "Ġyield",
        -9.965612146283949
      ],
      [
        "Ġprior",
        -9.966350377558031
      ],
      [
        "ĠLake",
        -9.966760744153058
      ],
      [
        "Ġcontinuous",
        -9.9671490018446
      ],
      [
        "Ġbottle",
        -9.967780341368464
      ],
      [
        "Ġfirm",
        -9.969878757625008
      ],
      [
        "-being",
        -9.970866886399913
      ],
      [
        "J",
        -9.971167354648763
      ],
      [
        "Ġvector",
        -9.971791254710096
      ],
      [
        "Ġemail",
        -9.972494010730262
      ],
      [
        "Ġsector",
        -9.972557268011288
      ],
      [
        "Ġthick",
        -9.973141340978998
      ],
      [
        "Ġsaving",
        -9.9733240681988
      ],
      [
        "/or",
        -9.973572115307848
      ],
      [
        "Ġnamed",
        -9.97364384006082
      ],
      [
        "Ġemployee",
        -9.97433370494442
      ],
      [
        "Ġinterface",
        -9.976016915304594
      ],
      [
        "Ġremoved",
        -9.976100221433416
      ],
      [
        "Ġoffering",
        -9.977197550674068
      ],
      [
        "Ġfindings",
        -9.98002881655374
      ],
      [
        "Ġstrategy",
        -9.980069949932204
      ],
      [
        "Ġprimari",
        -9.98232645299094
      ],
      [
        "Ġshared",
        -9.982862776666144
      ],
      [
        "Ġinteract",
        -9.983143672307207
      ],
      [
        "Ġguid",
        -9.983558466824755
      ],
      [
        "Ġagree",
        -9.984094926530862
      ],
      [
        "Ġparticipant",
        -9.984140029182624
      ],
      [
        "Ġwave",
        -9.98447055798318
      ],
      [
        "Ġeducational",
        -9.985219315904114
      ],
      [
        "Ġlaser",
        -9.985352082193458
      ],
      [
        "Ġseat",
        -9.98549220618839
      ],
      [
        "Ġoperations",
        -9.985518497460731
      ],
      [
        "we",
        -9.986474307185317
      ],
      [
        "Ġcontract",
        -9.986978773916476
      ],
      [
        "Ġcream",
        -9.987319156261783
      ],
      [
        "Are",
        -9.987332694744415
      ],
      [
        "Ġerror",
        -9.987649229430726
      ],
      [
        "Ġcars",
        -9.9879344040571
      ],
      [
        "Ġteach",
        -9.988867984056167
      ],
      [
        "Ġkitchen",
        -9.989003860288976
      ],
      [
        "Ġindustrial",
        -9.98958481575663
      ],
      [
        "Ġmold",
        -9.990002252072976
      ],
      [
        "Ġtru",
        -9.99023564722284
      ],
      [
        "Most",
        -9.990400394467695
      ],
      [
        "Ġlung",
        -9.991352008345489
      ],
      [
        "-year",
        -9.991407560002989
      ],
      [
        "Ġupdate",
        -9.991513062729958
      ],
      [
        "Ġoutdoor",
        -9.991529979520882
      ],
      [
        "Ġlighting",
        -9.99226510731907
      ],
      [
        "Ġorganisms",
        -9.9947033911745
      ],
      [
        "Ġbike",
        -9.994782381780414
      ],
      [
        "Ġengineering",
        -9.994999503395718
      ],
      [
        "Ġleak",
        -9.995355395162962
      ],
      [
        "Ġemotion",
        -9.995638048723627
      ],
      [
        "Ġcreation",
        -9.995676449709082
      ],
      [
        "ĠYork",
        -9.99574383431353
      ],
      [
        "Ġhistorical",
        -9.997719023295694
      ],
      [
        "Ġthrow",
        -9.998307587902104
      ],
      [
        "ctober",
        -9.998383661471502
      ],
      [
        "Ġstomach",
        -9.998818320145867
      ],
      [
        "capable",
        -9.999102931475583
      ],
      [
        "Ġorigin",
        -10.002718737598702
      ],
      [
        "Ġlift",
        -10.002739418542149
      ],
      [
        "Ġinteractions",
        -10.002968105226104
      ],
      [
        ".[",
        -10.004560748509215
      ],
      [
        "Ġaware",
        -10.006068398934593
      ],
      [
        "Ġplate",
        -10.006355893100888
      ],
      [
        "Ġobvious",
        -10.0069687211786
      ],
      [
        "Ġenzyme",
        -10.007282717332236
      ],
      [
        "ĠKeep",
        -10.007416756455484
      ],
      [
        "Ġbite",
        -10.007616844779118
      ],
      [
        "latest",
        -10.007869596379308
      ],
      [
        "Ġtalking",
        -10.008617753979308
      ],
      [
        "Ġshowed",
        -10.0087390234751
      ],
      [
        "Ġuniverse",
        -10.009562425327111
      ],
      [
        "Ġancient",
        -10.009562803572264
      ],
      [
        "Ġquant",
        -10.009574225372791
      ],
      [
        "Ġisland",
        -10.010479721422964
      ],
      [
        "Ġoccurr",
        -10.011007104652716
      ],
      [
        "Ġblend",
        -10.011826968722914
      ],
      [
        "Ġprepared",
        -10.01183271436602
      ],
      [
        "Ġbeneficial",
        -10.011983100081425
      ],
      [
        "Ġintroduc",
        -10.012392753060016
      ],
      [
        "ĠDoes",
        -10.012662657071084
      ],
      [
        "Ġultimate",
        -10.013346548861996
      ],
      [
        "Ġevolve",
        -10.014766418981
      ],
      [
        "Ġsit",
        -10.015362597799632
      ],
      [
        "Ġheal",
        -10.015522979650031
      ],
      [
        "Ġlaunch",
        -10.016024769925322
      ],
      [
        "Ġthorough",
        -10.017145271291186
      ],
      [
        "Ġunits",
        -10.018108097053126
      ],
      [
        "Ġadopt",
        -10.018434608836325
      ],
      [
        "Ġcalci",
        -10.018630408621227
      ],
      [
        "Ġharmful",
        -10.01959394966932
      ],
      [
        "Be",
        -10.019744774223252
      ],
      [
        "Ġdioxide",
        -10.019752872973587
      ],
      [
        "Many",
        -10.020828657314889
      ],
      [
        "Ġgenerator",
        -10.021294701315622
      ],
      [
        "Ġbill",
        -10.021381121192457
      ],
      [
        "Ġbutter",
        -10.022101171923
      ],
      [
        "Ġgrain",
        -10.022533802187596
      ],
      [
        "Ġfiles",
        -10.02277600268286
      ],
      [
        "My",
        -10.023183677919633
      ],
      [
        "Ġautomatic",
        -10.024172139500443
      ],
      [
        "Ġcharacter",
        -10.02479632623527
      ],
      [
        "-quality",
        -10.024976316611616
      ],
      [
        "Ġmaster",
        -10.02527583259403
      ],
      [
        "ĠPro",
        -10.025448721927727
      ],
      [
        "Ġcable",
        -10.02549069662292
      ],
      [
        "ĠMarch",
        -10.026644003297395
      ],
      [
        "Ġformula",
        -10.026920442605832
      ],
      [
        "ĠAfrican",
        -10.027598813938708
      ],
      [
        "Ġsolve",
        -10.027749791575834
      ],
      [
        "Ġinvest",
        -10.028009951579005
      ],
      [
        "Ġcoat",
        -10.028026588426137
      ],
      [
        "Ġestimated",
        -10.028302169504208
      ],
      [
        "Ġrace",
        -10.028475070433544
      ],
      [
        "Ġconsideration",
        -10.028514411522558
      ],
      [
        "Ġflood",
        -10.029570250506856
      ],
      [
        "Ġmeeting",
        -10.02960192852731
      ],
      [
        "kept",
        -10.03064277313258
      ],
      [
        "Ġprompt",
        -10.032260562924224
      ],
      [
        "Ġjoin",
        -10.032375551541575
      ],
      [
        "Ġtransform",
        -10.03253326440581
      ],
      [
        "Ġpan",
        -10.032948445948866
      ],
      [
        "Ġtransmission",
        -10.033279650256976
      ],
      [
        "Ġopinion",
        -10.033444095521403
      ],
      [
        "Ġgirl",
        -10.0336080841287
      ],
      [
        "Ġprepare",
        -10.035117765452542
      ],
      [
        "Your",
        -10.03544332630154
      ],
      [
        "Ġessay",
        -10.036336425913753
      ],
      [
        "Ġindoor",
        -10.036979645660509
      ],
      [
        "Ġengage",
        -10.03715159781048
      ],
      [
        "Ġbaking",
        -10.037424007358172
      ],
      [
        "Ġdecisions",
        -10.037906841487384
      ],
      [
        "Ġlarges",
        -10.039833403668194
      ],
      [
        "Ġeconom",
        -10.040232118128802
      ],
      [
        "Ġconsequence",
        -10.04024675999618
      ],
      [
        "Ġdatabase",
        -10.040308807489456
      ],
      [
        "Ġhelping",
        -10.041371939192144
      ],
      [
        "Ġband",
        -10.04203998183654
      ],
      [
        "Ġthread",
        -10.042649157777232
      ],
      [
        "ĠBritish",
        -10.04272779201509
      ],
      [
        "Ġobtain",
        -10.04274563953247
      ],
      [
        "Ġpack",
        -10.043048603830902
      ],
      [
        "Ġfailure",
        -10.043090087026624
      ],
      [
        "ĠWar",
        -10.043440510293175
      ],
      [
        "Ġwaves",
        -10.043618191819345
      ],
      [
        "]Ċ",
        -10.044845115893397
      ],
      [
        "Ġintend",
        -10.0452092572256
      ],
      [
        "Ġdimension",
        -10.046011979677967
      ],
      [
        "Ġchoosing",
        -10.046104815145158
      ],
      [
        "Ġamazing",
        -10.046104905091742
      ],
      [
        "Â±",
        -10.046106957634054
      ],
      [
        "Ġplent",
        -10.046113787137704
      ],
      [
        "Ġsymbol",
        -10.046149025763713
      ],
      [
        "ĠLike",
        -10.046175130558511
      ],
      [
        "ĠJohn",
        -10.046371430319198
      ],
      [
        "Ġvessel",
        -10.04733049455836
      ],
      [
        "Ġorganizations",
        -10.047400276768409
      ],
      [
        "Ġgear",
        -10.047434786599776
      ],
      [
        "board",
        -10.047693525256449
      ],
      [
        "Ġagent",
        -10.048110688952402
      ],
      [
        "Ġguidelines",
        -10.049595510073424
      ],
      [
        "Ġgets",
        -10.049897970707256
      ],
      [
        "Ġreward",
        -10.050051390379124
      ],
      [
        "Ġsunlight",
        -10.050157909879962
      ],
      [
        "Re",
        -10.05018087529514
      ],
      [
        "Ġcommand",
        -10.051404118551083
      ],
      [
        "ĠBlack",
        -10.053650846097868
      ],
      [
        "ĠWell",
        -10.054422867069563
      ],
      [
        "Ġcomposition",
        -10.055123881781697
      ],
      [
        "-time",
        -10.055164069743858
      ],
      [
        "ex",
        -10.056169770849053
      ],
      [
        "Ġpregnanc",
        -10.05709886343836
      ],
      [
        "me",
        -10.058118131875665
      ],
      [
        "Ġinnovation",
        -10.058398281674975
      ],
      [
        "Ġidentifie",
        -10.058877539201312
      ],
      [
        "Ġbroke",
        -10.05893683655665
      ],
      [
        "ĠGreen",
        -10.059331408127438
      ],
      [
        "Ġfields",
        -10.060148673215991
      ],
      [
        "Yes",
        -10.060832902508611
      ],
      [
        "ĠPower",
        -10.06133442490114
      ],
      [
        "Ġwash",
        -10.061689685830112
      ],
      [
        "Ġextract",
        -10.06260248702323
      ],
      [
        "Ġallerg",
        -10.062740089856824
      ],
      [
        "ĠFurther",
        -10.064256045327
      ],
      [
        "Ġmammal",
        -10.064836527117317
      ],
      [
        "Ġgrown",
        -10.065021897624923
      ],
      [
        "Ġdrugs",
        -10.065570837634274
      ],
      [
        "Ġantibiotic",
        -10.065907796757513
      ],
      [
        "Ġletter",
        -10.066226796804449
      ],
      [
        "Ġradiation",
        -10.06692042654274
      ],
      [
        "Ġassume",
        -10.06723175221152
      ],
      [
        "Ġoven",
        -10.067897806279966
      ],
      [
        "ver",
        -10.069625997348236
      ],
      [
        "Ġmajority",
        -10.071926615375595
      ],
      [
        "Ġharm",
        -10.072312206604568
      ],
      [
        "Ġgenerat",
        -10.072511810934536
      ],
      [
        "Ġwire",
        -10.0725293437085
      ],
      [
        "He",
        -10.072533087770072
      ],
      [
        "Ġparticle",
        -10.072963668212305
      ],
      [
        "Ġgraph",
        -10.07461162129249
      ],
      [
        "ĠAir",
        -10.075280734230438
      ],
      [
        "Ġapart",
        -10.076036357280309
      ],
      [
        "referred",
        -10.077199495648864
      ],
      [
        "stock",
        -10.077667357808378
      ],
      [
        "ĠDe",
        -10.077988943775932
      ],
      [
        "coming",
        -10.078526539453197
      ],
      [
        "Ġawareness",
        -10.078727990002395
      ],
      [
        "Ġprivate",
        -10.078864110144888
      ],
      [
        "Ġbreast",
        -10.07994320419732
      ],
      [
        "Ġanxiet",
        -10.08011038740712
      ],
      [
        "go",
        -10.080170550113614
      ],
      [
        "Ġimprov",
        -10.0801977726762
      ],
      [
        "Ġcoffee",
        -10.080802625086374
      ],
      [
        "Ġexplor",
        -10.083161579711398
      ],
      [
        "Ġabsolute",
        -10.08361126781744
      ],
      [
        "Ġdomain",
        -10.08440106882238
      ],
      [
        "Ġstation",
        -10.084593581770502
      ],
      [
        "Ġborn",
        -10.084671805335573
      ],
      [
        "Ġaudio",
        -10.084739047062
      ],
      [
        "Ġproduc",
        -10.084792831518198
      ],
      [
        "Ġrelevant",
        -10.084954627132472
      ],
      [
        "Ġapproximation",
        -10.085328946701823
      ],
      [
        "stability",
        -10.08546459291484
      ],
      [
        "Ġseal",
        -10.085535147678485
      ],
      [
        "Ġscore",
        -10.085744159632014
      ],
      [
        "Ġextensive",
        -10.086079414051657
      ],
      [
        "Ġaircraft",
        -10.086217528214153
      ],
      [
        "Ġpreviously",
        -10.087805599479475
      ],
      [
        "Ġdecide",
        -10.088113899637408
      ],
      [
        "Ġresponsibilit",
        -10.08841642930904
      ],
      [
        "Ġfunctional",
        -10.088612080067106
      ],
      [
        "Ġinstallation",
        -10.088800372073646
      ],
      [
        "ĠCanada",
        -10.089747726462493
      ],
      [
        "Ġpro",
        -10.090126344195092
      ],
      [
        "Ġhousehold",
        -10.090269558100356
      ],
      [
        "Ġtight",
        -10.09064808567284
      ],
      [
        "Let",
        -10.090832513699452
      ],
      [
        "Ġmap",
        -10.091282476979949
      ],
      [
        "Ġdetermined",
        -10.09130130305886
      ],
      [
        "Ġbreath",
        -10.091346313483896
      ],
      [
        "Ġsuper",
        -10.091809856488329
      ],
      [
        "Ġincorporate",
        -10.09220590009075
      ],
      [
        "Ġdensit",
        -10.092338652392892
      ],
      [
        "Ġprecise",
        -10.0928686319983
      ],
      [
        "Ġexhibit",
        -10.093764284875364
      ],
      [
        "Ġmembrane",
        -10.094252233005047
      ],
      [
        "Ġminimum",
        -10.094262118472653
      ],
      [
        "Ġleaving",
        -10.09483482845361
      ],
      [
        "ĠInternational",
        -10.095171445389845
      ],
      [
        "Ġheating",
        -10.096970432056253
      ],
      [
        "created",
        -10.097041767293998
      ],
      [
        "Ġforces",
        -10.097773063767171
      ],
      [
        "Conclusion",
        -10.098382078785892
      ],
      [
        "Ġintelligence",
        -10.098388357912755
      ],
      [
        "Ġcompost",
        -10.098896573962689
      ],
      [
        "Ġcomparison",
        -10.099045837852994
      ],
      [
        "Ġmission",
        -10.099173102961508
      ],
      [
        "Ġengineer",
        -10.099708548219336
      ],
      [
        "Ġversatil",
        -10.100459195855215
      ],
      [
        "sharing",
        -10.100660251575128
      ],
      [
        "Ġchronic",
        -10.101672184078575
      ],
      [
        "Ġseven",
        -10.102376045139655
      ],
      [
        "ĠSea",
        -10.104394250825742
      ],
      [
        "Ġhunting",
        -10.104458660169165
      ],
      [
        "ng",
        -10.104523169568708
      ],
      [
        "Ġprofile",
        -10.10555493883771
      ],
      [
        "Ġdelay",
        -10.107001835536323
      ],
      [
        "Ġsaying",
        -10.107453749015516
      ],
      [
        "Ġturning",
        -10.107712073077137
      ],
      [
        "Ġnutrition",
        -10.107713105333758
      ],
      [
        "Ġassessment",
        -10.10887419687038
      ],
      [
        "Ġinternet",
        -10.108959851229276
      ],
      [
        "Ġship",
        -10.109136246937096
      ],
      [
        "Ġclinical",
        -10.1101520036577
      ],
      [
        "Ġfruits",
        -10.11016154740324
      ],
      [
        "Ġdisorders",
        -10.110277563167964
      ],
      [
        "Ġinner",
        -10.111494836213252
      ],
      [
        "Ġindependent",
        -10.111978907059202
      ],
      [
        "Ġbeauty",
        -10.113184180487892
      ],
      [
        "Ġopening",
        -10.114048287409297
      ],
      [
        "ĠUn",
        -10.11491203553787
      ],
      [
        "Ġexcessive",
        -10.115187189683734
      ],
      [
        "Ġtoxic",
        -10.115763115260927
      ],
      [
        "Ġaffects",
        -10.116059022948644
      ],
      [
        "Ġbond",
        -10.116881562216175
      ],
      [
        "ling",
        -10.116926780162736
      ],
      [
        "Ġsmell",
        -10.117126845005084
      ],
      [
        "Ġboat",
        -10.11973094208376
      ],
      [
        "Use",
        -10.119763755882651
      ],
      [
        "Ġbear",
        -10.119804480688824
      ],
      [
        "Ġcircle",
        -10.12028449142315
      ],
      [
        "ĠProgram",
        -10.120584460653642
      ],
      [
        "Ġspeaker",
        -10.120683229780337
      ],
      [
        "Ġrealize",
        -10.122170492671849
      ],
      [
        "Ġgift",
        -10.123277392509088
      ],
      [
        "men",
        -10.123563307506329
      ],
      [
        "Ġradio",
        -10.123630871729985
      ],
      [
        "Ġcurve",
        -10.124224339199596
      ],
      [
        "Ġvaccine",
        -10.125576279196489
      ],
      [
        "Ġconstruct",
        -10.125824195161648
      ],
      [
        "Ġrice",
        -10.12665758484778
      ],
      [
        "Ġsituations",
        -10.12711282527492
      ],
      [
        "Ġdish",
        -10.127460845990282
      ],
      [
        "ĠChina",
        -10.12778486383636
      ],
      [
        "Ġpercentage",
        -10.1281750594841
      ],
      [
        "Ġmatrix",
        -10.128194212570094
      ],
      [
        "ĠCo",
        -10.129213055937289
      ],
      [
        "Ġpowder",
        -10.129395195819122
      ],
      [
        "Ġfundamental",
        -10.129406428142392
      ],
      [
        "Ġweigh",
        -10.129902225673078
      ],
      [
        "Ġexamine",
        -10.129961468597234
      ],
      [
        "Ġexcess",
        -10.13062962743864
      ],
      [
        "Ġarm",
        -10.130671563484686
      ],
      [
        "definitely",
        -10.131278390404727
      ],
      [
        "Ġwouldn",
        -10.131442898131812
      ],
      [
        "Ġcorn",
        -10.131544147977332
      ],
      [
        "Ġconsists",
        -10.131832136688278
      ],
      [
        "Ġsensitive",
        -10.13195575426031
      ],
      [
        "Ġrely",
        -10.132977466868825
      ],
      [
        "Ġurban",
        -10.133761877670208
      ],
      [
        "ĠJune",
        -10.134710683967263
      ],
      [
        "ĠLife",
        -10.135347508585536
      ],
      [
        "Ġinteraction",
        -10.135590418516816
      ],
      [
        "ÂŃ",
        -10.135603287481285
      ],
      [
        "Ġstring",
        -10.136116463013789
      ],
      [
        "Ġdownload",
        -10.137181942479206
      ],
      [
        "Ġcrack",
        -10.137185291774871
      ],
      [
        "Ġcup",
        -10.137677443514594
      ],
      [
        "Ġchose",
        -10.138426324923463
      ],
      [
        "going",
        -10.140111301280896
      ],
      [
        "Ġdepression",
        -10.140602362191824
      ],
      [
        "Ġstable",
        -10.142666879261649
      ],
      [
        "Onc",
        -10.143130514730146
      ],
      [
        "Ġconflict",
        -10.14401455830687
      ],
      [
        "wood",
        -10.14411272124388
      ],
      [
        "Ġmask",
        -10.144161279711804
      ],
      [
        "Ġregister",
        -10.145155937688063
      ],
      [
        "Ġjournal",
        -10.145523308703575
      ],
      [
        "Ġstatus",
        -10.145850010027656
      ],
      [
        "Ġmachines",
        -10.146080601632438
      ],
      [
        "Ġquantit",
        -10.147331227953222
      ],
      [
        "ĠRNA",
        -10.147807936965217
      ],
      [
        "Ġconfirm",
        -10.148048915481606
      ],
      [
        "Ġcommunicate",
        -10.14917477778506
      ],
      [
        "Ġmanufacturing",
        -10.150072947502313
      ],
      [
        "Ġzero",
        -10.150224427644403
      ],
      [
        "Ġassembl",
        -10.150320102248752
      ],
      [
        "Ġwasn",
        -10.150560624628326
      ],
      [
        "Ġdust",
        -10.15065444314427
      ],
      [
        "Ġadvantages",
        -10.150688229267882
      ],
      [
        "ĠTake",
        -10.150798251831452
      ],
      [
        "Ġcompare",
        -10.150835825516356
      ],
      [
        "ĠWhere",
        -10.151229721162132
      ],
      [
        "Ġsmart",
        -10.151328708800548
      ],
      [
        "Ġencounter",
        -10.15135643793995
      ],
      [
        "ĠAdd",
        -10.151477833047409
      ],
      [
        "Ġagriculture",
        -10.151779517392228
      ],
      [
        "Ġtopics",
        -10.152463098661247
      ],
      [
        "ĠHis",
        -10.15277194205884
      ],
      [
        "Ġputt",
        -10.15300171010882
      ],
      [
        "gave",
        -10.153269551479886
      ],
      [
        "Ġtrade",
        -10.153317469048972
      ],
      [
        "ĠAl",
        -10.153711018911356
      ],
      [
        "Ġlaws",
        -10.153813592227523
      ],
      [
        "Ġrecovery",
        -10.15607266496729
      ],
      [
        "ĠRed",
        -10.15615101306727
      ],
      [
        "Ġjump",
        -10.157627749664094
      ],
      [
        "Ġlifestyle",
        -10.157986438333342
      ],
      [
        "Ġappreciate",
        -10.15844827873276
      ],
      [
        "can",
        -10.15882000495212
      ],
      [
        "all",
        -10.15891540637984
      ],
      [
        "Ġminerals",
        -10.159094705256834
      ],
      [
        "Ġrobot",
        -10.159097145423209
      ],
      [
        "Ġexact",
        -10.159279551276857
      ],
      [
        "Ġobserv",
        -10.159551836174703
      ],
      [
        "uary",
        -10.159648841140145
      ],
      [
        "Ġhormone",
        -10.16020507582367
      ],
      [
        "ĠApril",
        -10.161116255619143
      ],
      [
        "Ġtrial",
        -10.161253752704496
      ],
      [
        "Ġmobile",
        -10.161838751518989
      ],
      [
        "Ġagenc",
        -10.162045961317318
      ],
      [
        "Ġconsist",
        -10.162299283678127
      ],
      [
        "Ġinter",
        -10.16235451037385
      ],
      [
        "Ġremov",
        -10.162558926827018
      ],
      [
        "Ġutiliz",
        -10.163579742137982
      ],
      [
        "Ġcloser",
        -10.16431932940684
      ],
      [
        "Although",
        -10.164464292076929
      ],
      [
        "ĠFrench",
        -10.16464036705488
      ],
      [
        "ĠBoth",
        -10.16655389721343
      ],
      [
        "Ġbulb",
        -10.167010621062776
      ],
      [
        "ka",
        -10.167194127123793
      ],
      [
        "Ġbecom",
        -10.167311482492543
      ],
      [
        "Ġcompetition",
        -10.167805189302042
      ],
      [
        "Ġprinciples",
        -10.168472366451091
      ],
      [
        "nstead",
        -10.168598445186532
      ],
      [
        "Ġeight",
        -10.168739546436427
      ],
      [
        "Ġfoundation",
        -10.169927496335031
      ],
      [
        "Ġpounds",
        -10.170192397040356
      ],
      [
        "Ġlie",
        -10.170284503270535
      ],
      [
        "ĠCar",
        -10.170466668961378
      ],
      [
        "Ġdecided",
        -10.170944431271572
      ],
      [
        "Ġaccuracy",
        -10.171250475257068
      ],
      [
        "-friendly",
        -10.171559544704026
      ],
      [
        "Ġuniversit",
        -10.17197454977209
      ],
      [
        "q",
        -10.171988366001369
      ],
      [
        "ĠGoogle",
        -10.172017440501476
      ],
      [
        "ture",
        -10.172346029494417
      ],
      [
        "Ġbloom",
        -10.173359510487888
      ],
      [
        "Ġmechanical",
        -10.177145056634137
      ],
      [
        "Ġpreparation",
        -10.17799472316856
      ],
      [
        "Ġalter",
        -10.17869766600798
      ],
      [
        "ĠWest",
        -10.179157121910777
      ],
      [
        "Ġaudience",
        -10.180056080413246
      ],
      [
        "Ġmutation",
        -10.180069631469376
      ],
      [
        "ĠCounty",
        -10.181271130777512
      ],
      [
        "According",
        -10.181382036888326
      ],
      [
        "ĠJuly",
        -10.18152643877018
      ],
      [
        "Ġsurfaces",
        -10.182331208269131
      ],
      [
        "Ġcombin",
        -10.18278299539569
      ],
      [
        "Ġregulations",
        -10.183534830659449
      ],
      [
        "Ġspray",
        -10.183954622725802
      ],
      [
        "Ġpassed",
        -10.184255244456828
      ],
      [
        "ware",
        -10.184384060544104
      ],
      [
        "but",
        -10.184633028238466
      ],
      [
        "Ġchoices",
        -10.184633843849014
      ],
      [
        "ĠMan",
        -10.184831879042068
      ],
      [
        "Ġminimize",
        -10.185137373304622
      ],
      [
        "Ġdental",
        -10.186058340432734
      ],
      [
        "Ġdream",
        -10.186892039572106
      ],
      [
        "ĠHave",
        -10.187548634941686
      ],
      [
        "Ġapproaches",
        -10.187823152167038
      ],
      [
        "Ġprinter",
        -10.18924282446404
      ],
      [
        "Ġchapter",
        -10.190375388015497
      ],
      [
        "Ġbread",
        -10.191099546578648
      ],
      [
        "Ġpredator",
        -10.191761365877348
      ],
      [
        "Ġrapid",
        -10.192134981639873
      ],
      [
        "Ġclothes",
        -10.192218191973277
      ],
      [
        "Ġport",
        -10.192743020120004
      ],
      [
        "Ġ...Ċ",
        -10.193077111666746
      ],
      [
        "Ġfoster",
        -10.19359149837628
      ],
      [
        "Ġeliminate",
        -10.193795902372798
      ],
      [
        "Ġsharp",
        -10.19408723249088
      ],
      [
        "Ġconventional",
        -10.19418068805492
      ],
      [
        "Ġrecover",
        -10.194261713462424
      ],
      [
        "Ġhomes",
        -10.194700021843603
      ],
      [
        "Ġphysics",
        -10.19508241888648
      ],
      [
        "Ġwish",
        -10.195943400987016
      ],
      [
        "Ġbreeding",
        -10.196383629673456
      ],
      [
        "Ġforget",
        -10.196899032450396
      ],
      [
        "Ġtooth",
        -10.197632961737629
      ],
      [
        "Ġappeal",
        -10.198166443404826
      ],
      [
        "Ġpool",
        -10.198392325035949
      ],
      [
        "Ġcooked",
        -10.199383088734862
      ],
      [
        "Ġcollege",
        -10.19943498782166
      ],
      [
        "Ġrenewable",
        -10.200089732608696
      ],
      [
        "Ġformat",
        -10.200653535250154
      ],
      [
        "ĠGo",
        -10.200822315538693
      ],
      [
        "Ġbrake",
        -10.201029425905364
      ],
      [
        "Ġlense",
        -10.201490657401273
      ],
      [
        "Ġdescription",
        -10.20174946483414
      ],
      [
        "November",
        -10.202788997780369
      ],
      [
        "Ġrestaurant",
        -10.20334944257399
      ],
      [
        "Ġprinting",
        -10.203459117542389
      ],
      [
        "Ġbehaviour",
        -10.203843288596818
      ],
      [
        "}",
        -10.20455428319392
      ],
      [
        "ĠControl",
        -10.20479878725285
      ],
      [
        "Ġtraffic",
        -10.20531203210276
      ],
      [
        "Ġsteam",
        -10.207340876561949
      ],
      [
        "Ġsufficient",
        -10.208907448688906
      ],
      [
        "Ġriver",
        -10.208999214101611
      ],
      [
        "Ġselected",
        -10.209078846545824
      ],
      [
        "Ġthrive",
        -10.209192014025303
      ],
      [
        "Ġdistinct",
        -10.209861255378437
      ],
      [
        "More",
        -10.210283749760126
      ],
      [
        "Ġloop",
        -10.210753166320927
      ],
      [
        "Ġecosystem",
        -10.210781032802368
      ],
      [
        "Ġrecipe",
        -10.21110368702163
      ],
      [
        "Ġhospital",
        -10.212197737076645
      ],
      [
        "Ġregulator",
        -10.213049586661096
      ],
      [
        "Ġprogramm",
        -10.2137748519782
      ],
      [
        "Ġinitiative",
        -10.214256635678083
      ],
      [
        "ler",
        -10.21462672308616
      ],
      [
        "Ġserver",
        -10.2151642655556
      ],
      [
        "Ġdestroy",
        -10.215278646040852
      ],
      [
        "ĠSystem",
        -10.21578623348379
      ],
      [
        "Ġcontinues",
        -10.216108306714776
      ],
      [
        "Ġdefinition",
        -10.216178551102963
      ],
      [
        "Ġwarming",
        -10.216532213703957
      ],
      [
        "Ġvast",
        -10.216591580927233
      ],
      [
        "Ġbigge",
        -10.216783176394609
      ],
      [
        "Ġstorm",
        -10.21749001585252
      ],
      [
        "Ġalign",
        -10.218219345021152
      ],
      [
        "Ġwalking",
        -10.21878645359836
      ],
      [
        "Ġindustries",
        -10.218873605683063
      ],
      [
        "ification",
        -10.219717142399066
      ],
      [
        "-on",
        -10.220648397171692
      ],
      [
        "Ġgenome",
        -10.220826589879389
      ],
      [
        "Ġadequate",
        -10.221272612484944
      ],
      [
        "ĠLook",
        -10.222117239439932
      ],
      [
        "Ġpictures",
        -10.222929213772684
      ],
      [
        "Ġbees",
        -10.22311208132004
      ],
      [
        "ĠPlant",
        -10.223271292957492
      ],
      [
        "ĠThrough",
        -10.223544195708756
      ],
      [
        "Ġshoot",
        -10.224343588522183
      ],
      [
        "Ġprove",
        -10.224391566748718
      ],
      [
        "ĠAny",
        -10.22516400002177
      ],
      [
        "Ġfear",
        -10.225191788118046
      ],
      [
        "Ġdisorder",
        -10.225435206215971
      ],
      [
        "Ġscenario",
        -10.225883082989276
      ],
      [
        "Ġsudden",
        -10.22594859998729
      ],
      [
        "Ġvarie",
        -10.227344064128854
      ],
      [
        "aging",
        -10.22736117125118
      ],
      [
        "Ġscene",
        -10.227415951685389
      ],
      [
        "how",
        -10.227604613548364
      ],
      [
        "Ġheavi",
        -10.22763740310456
      ],
      [
        "Ġsupplie",
        -10.228297354430836
      ],
      [
        "Ġcareful",
        -10.228366766552217
      ],
      [
        "Ġengag",
        -10.228522969647802
      ],
      [
        "Ġpurposes",
        -10.230323273340243
      ],
      [
        "Ġtomato",
        -10.230589958501817
      ],
      [
        "Ġremote",
        -10.231734690031228
      ],
      [
        "Ġperiods",
        -10.23177447387998
      ],
      [
        "Ġintake",
        -10.232363123615157
      ],
      [
        "Ġtube",
        -10.232668948334029
      ],
      [
        "Ġliver",
        -10.233040518037589
      ],
      [
        "ĠAct",
        -10.233490875833285
      ],
      [
        "Ġshapes",
        -10.233837595197537
      ],
      [
        "Ġcraft",
        -10.234723721346054
      ],
      [
        "Ġcontaining",
        -10.235470535345064
      ],
      [
        "Ġdetection",
        -10.235938542387157
      ],
      [
        "Ġfelt",
        -10.236144641411054
      ],
      [
        "Ġequivalent",
        -10.23627588014013
      ],
      [
        "Ġrecorded",
        -10.23641674567839
      ],
      [
        "Ġpure",
        -10.236509563439297
      ],
      [
        "First",
        -10.23668464889024
      ],
      [
        "Ġconsult",
        -10.237012664311044
      ],
      [
        "you",
        -10.237261075763424
      ],
      [
        "Ġimpacts",
        -10.23751396109584
      ],
      [
        "Ġknee",
        -10.237681533087947
      ],
      [
        "ĠAugust",
        -10.238375163441177
      ],
      [
        "Ġdiagnosis",
        -10.239454110546683
      ],
      [
        "low",
        -10.239558671401635
      ],
      [
        "Ġtrait",
        -10.240055439567136
      ],
      [
        "Ġguess",
        -10.24009516402742
      ],
      [
        "Ġpathway",
        -10.24031353131057
      ],
      [
        "Ġutilize",
        -10.240448822359475
      ],
      [
        "chemistry",
        -10.240479063336824
      ],
      [
        "Ġsurvival",
        -10.24128659306528
      ],
      [
        "ĠLight",
        -10.24147490085108
      ],
      [
        "Ġhid",
        -10.242958882750711
      ],
      [
        "Ġacademic",
        -10.243404385903736
      ],
      [
        "ĠNature",
        -10.24385527723991
      ],
      [
        "Ġfamiliar",
        -10.243901436746022
      ],
      [
        "Ġpilot",
        -10.244103459814028
      ],
      [
        "ĠSeptem",
        -10.244186078548182
      ],
      [
        "Ġrequir",
        -10.244423919511345
      ],
      [
        "Ġcolumn",
        -10.244628208416026
      ],
      [
        "Ġmanner",
        -10.244953503666292
      ],
      [
        "Ġnovel",
        -10.245267360499303
      ],
      [
        "Ġtail",
        -10.245385630015155
      ],
      [
        "Ġfacilit",
        -10.24606574312642
      ],
      [
        "Ġtip",
        -10.246206290966196
      ],
      [
        "ĠHuman",
        -10.246908343326249
      ],
      [
        "Ġinnovative",
        -10.247210802374482
      ],
      [
        "Ġsauce",
        -10.247257799586045
      ],
      [
        "Ġprovider",
        -10.24876372789214
      ],
      [
        "ular",
        -10.250672692338018
      ],
      [
        "ĠWork",
        -10.250950029397872
      ],
      [
        "Ġmolecular",
        -10.25158547134163
      ],
      [
        "Ġstarts",
        -10.25396092339038
      ],
      [
        "Ġmath",
        -10.25401688601172
      ],
      [
        "Ġtrouble",
        -10.254577676504466
      ],
      [
        "Ġnorth",
        -10.25517208785046
      ],
      [
        "with",
        -10.25539743135086
      ],
      [
        "Ġrandom",
        -10.25716338276339
      ],
      [
        "Ġten",
        -10.257636085827404
      ],
      [
        "Ġpepper",
        -10.25772509709998
      ],
      [
        "Ġdecline",
        -10.257989429263446
      ],
      [
        "ĠIndian",
        -10.258798987840091
      ],
      [
        "From",
        -10.259281811219026
      ],
      [
        "Ġagricultural",
        -10.259449350574585
      ],
      [
        "Ġframework",
        -10.260402128676866
      ],
      [
        "Ġstructural",
        -10.26092747600306
      ],
      [
        "Ġweak",
        -10.26106148311168
      ],
      [
        "Figure",
        -10.261863579802217
      ],
      [
        "Ġvolunteer",
        -10.262054071044648
      ],
      [
        "way",
        -10.262106888711571
      ],
      [
        "Ġbarrier",
        -10.265222787726827
      ],
      [
        "ĠRead",
        -10.266314571517682
      ],
      [
        "ĠThus",
        -10.267057263795166
      ],
      [
        "Ġdepartment",
        -10.267161300668182
      ],
      [
        "Ġstrain",
        -10.26716978659294
      ],
      [
        "Ġgold",
        -10.267934052010524
      ],
      [
        "Ġstar",
        -10.268222566607012
      ],
      [
        "].",
        -10.268311679306043
      ],
      [
        "made",
        -10.268329710637826
      ],
      [
        "Ġboost",
        -10.269093803359445
      ],
      [
        "accessible",
        -10.269217304983412
      ],
      [
        "Ġbio",
        -10.269217814033556
      ],
      [
        "Ġcalculation",
        -10.269409318755734
      ],
      [
        "Ġpropose",
        -10.269688203654404
      ],
      [
        "Ġpuppy",
        -10.271456024521129
      ],
      [
        "ĠSan",
        -10.27151266743616
      ],
      [
        "Ġcollaboration",
        -10.271517224446118
      ],
      [
        "Ġdi",
        -10.271560158940405
      ],
      [
        "Ġdirector",
        -10.272065903023494
      ],
      [
        "Ġrapidly",
        -10.272209574882003
      ],
      [
        "Ġspider",
        -10.273913612586968
      ],
      [
        "Ġsent",
        -10.274162134199573
      ],
      [
        "Ġnet",
        -10.274864545687343
      ],
      [
        "Ġseconds",
        -10.275155582653564
      ],
      [
        "ities",
        -10.2759854824584
      ],
      [
        "ĠFish",
        -10.276036822435
      ],
      [
        "Ġstream",
        -10.276044752472565
      ],
      [
        "Ġdiffer",
        -10.27627883583968
      ],
      [
        "{",
        -10.2765035777273
      ],
      [
        "ĠIsland",
        -10.276951216858052
      ],
      [
        "Ġbowl",
        -10.277354828934122
      ],
      [
        "Ġinflammation",
        -10.277704079773876
      ],
      [
        "...Ċ",
        -10.277982086285071
      ],
      [
        "Ġsignals",
        -10.27837381458322
      ],
      [
        "Ġwoman",
        -10.279631458688254
      ],
      [
        "Ġinstitution",
        -10.280499822008766
      ],
      [
        "Ġusage",
        -10.280512180199548
      ],
      [
        "Ġtall",
        -10.280546669237328
      ],
      [
        "ĠJanuary",
        -10.280575511150175
      ],
      [
        "Ġgrant",
        -10.281166515963225
      ],
      [
        "Ġstatement",
        -10.28125841710437
      ],
      [
        "Ġstretch",
        -10.281878517051506
      ],
      [
        "Ġnose",
        -10.281993252941705
      ],
      [
        "Ġobtained",
        -10.282275091326046
      ],
      [
        "ĠEngland",
        -10.282984431094851
      ],
      [
        "Ġsuffer",
        -10.283315231529864
      ],
      [
        "Ġworkshop",
        -10.28389911047867
      ],
      [
        "Ġbugs",
        -10.28588445486287
      ],
      [
        "ĠHome",
        -10.28615408220466
      ],
      [
        "Ġopposite",
        -10.286290566290848
      ],
      [
        "Ġbrick",
        -10.287581941857246
      ],
      [
        "Ġrecognition",
        -10.28773848719153
      ],
      [
        "Ġshop",
        -10.287887184760825
      ],
      [
        "Ġpages",
        -10.287995877396389
      ],
      [
        "Ġremaining",
        -10.288001124491217
      ],
      [
        "Ġdiagnose",
        -10.288165162964042
      ],
      [
        "Ġinsurance",
        -10.288788376655829
      ],
      [
        "ĠLong",
        -10.290032028292796
      ],
      [
        "Ġdelicious",
        -10.291282208870216
      ],
      [
        "Ġtradition",
        -10.29273331960954
      ],
      [
        "ĠFoundation",
        -10.29292819611586
      ],
      [
        "twic",
        -10.293050908493573
      ],
      [
        "Ġstroke",
        -10.293097621552237
      ],
      [
        "ĠGood",
        -10.294907105849427
      ],
      [
        "Ġneck",
        -10.295204621001677
      ],
      [
        "ĠDesign",
        -10.295278256390263
      ],
      [
        "ĠTechnology",
        -10.295768271861292
      ],
      [
        "Ġlaborator",
        -10.297255762501742
      ],
      [
        "ĠLED",
        -10.297417495547103
      ],
      [
        "Ġhardware",
        -10.297453077778032
      ],
      [
        "Ġfeedback",
        -10.29763569567264
      ],
      [
        "tion",
        -10.297662581290096
      ],
      [
        "Ġdiagram",
        -10.29772232906786
      ],
      [
        "Ġrotation",
        -10.29816373504109
      ],
      [
        "Ġdivide",
        -10.299570128405149
      ],
      [
        "ĠStudents",
        -10.299659771859275
      ],
      [
        "Ġgraphic",
        -10.299996904833614
      ],
      [
        "back",
        -10.30009318257035
      ],
      [
        "Ġwin",
        -10.300408889469534
      ],
      [
        "Ġbelief",
        -10.300506019020789
      ],
      [
        "Ġhole",
        -10.30089462448946
      ],
      [
        "Ġroute",
        -10.300972246879727
      ],
      [
        "Ġtitle",
        -10.300982627618062
      ],
      [
        "Ġholes",
        -10.302733948857796
      ],
      [
        "Ġlinked",
        -10.302739572042986
      ],
      [
        "City",
        -10.303430540587769
      ],
      [
        "Ġaesthetic",
        -10.303928419501688
      ],
      [
        "ĠCheck",
        -10.30418689487417
      ],
      [
        "Ġwor",
        -10.304566902919976
      ],
      [
        "Ġbiolog",
        -10.304833486651972
      ],
      [
        "Ġpeak",
        -10.305729298611023
      ],
      [
        "Ġsold",
        -10.305746942887636
      ],
      [
        "ĠLi",
        -10.306167361792856
      ],
      [
        "ley",
        -10.306218035442644
      ],
      [
        "Ġsurprise",
        -10.306414233667637
      ],
      [
        "Ġbudget",
        -10.306422517129114
      ],
      [
        "Ġloose",
        -10.30741418113509
      ],
      [
        "Ġprofessor",
        -10.308958749553987
      ],
      [
        "Ġcalorie",
        -10.30913081756992
      ],
      [
        "Ġjuice",
        -10.309568584401138
      ],
      [
        "Ġpreferred",
        -10.309677423800425
      ],
      [
        "Ġcompleted",
        -10.30977235791989
      ],
      [
        "ĠFlorida",
        -10.310772346928363
      ],
      [
        "Ġblow",
        -10.31080440804186
      ],
      [
        "Ġplays",
        -10.310815761005522
      ],
      [
        "Ġkidney",
        -10.311516209581844
      ],
      [
        "ĠCommon",
        -10.311845237280185
      ],
      [
        "Ġdrought",
        -10.311878263159231
      ],
      [
        "Ġenhanc",
        -10.312743345818202
      ],
      [
        "ility",
        -10.313489398426997
      ],
      [
        "Ġrobots",
        -10.313612659184187
      ],
      [
        "Ġrequest",
        -10.314070221302732
      ],
      [
        "ĠNatural",
        -10.314476143475956
      ],
      [
        "Ġmild",
        -10.314555949207788
      ],
      [
        "-of",
        -10.31513119234554
      ],
      [
        "Ġworkers",
        -10.31594992952689
      ],
      [
        "Ġpermanent",
        -10.31622181145586
      ],
      [
        "Ġsecret",
        -10.316597680745575
      ],
      [
        "Ġnecessar",
        -10.31661396678208
      ],
      [
        "@",
        -10.316706422852366
      ],
      [
        "?\"",
        -10.317033944830836
      ],
      [
        "Ġrelax",
        -10.318890441136285
      ],
      [
        "like",
        -10.318939129735558
      ],
      [
        "Ġzone",
        -10.318950408929709
      ],
      [
        "ĠFinal",
        -10.318976204695364
      ],
      [
        "Ġattend",
        -10.319646128394083
      ],
      [
        "PT",
        -10.319678786696937
      ],
      [
        "Ġscratch",
        -10.320682964896807
      ],
      [
        "Ġhorses",
        -10.321185339537688
      ],
      [
        "Ġvertical",
        -10.321891528796492
      ],
      [
        "Ġpartial",
        -10.322595845962212
      ],
      [
        "Ġcoordinate",
        -10.322998403870288
      ],
      [
        "Ġspeech",
        -10.323259367682336
      ],
      [
        "Ġtension",
        -10.3232668307871
      ],
      [
        "Ġstands",
        -10.323599357353851
      ],
      [
        "Ġmistake",
        -10.32360200055231
      ],
      [
        "Ġpainting",
        -10.32461711032003
      ],
      [
        "Ġcitie",
        -10.32499589232562
      ],
      [
        "Ġpromoting",
        -10.325314646605923
      ],
      [
        "Ġpolitical",
        -10.327055897199706
      ],
      [
        "ural",
        -10.327081205930714
      ],
      [
        "Ġreact",
        -10.327282122678724
      ],
      [
        "Ġadjustment",
        -10.327287743210892
      ],
      [
        "ĠHistory",
        -10.327492321026448
      ],
      [
        "Ġbrush",
        -10.327834487344251
      ],
      [
        "Ġsew",
        -10.328031074902816
      ],
      [
        "ĠService",
        -10.328990699051776
      ],
      [
        "Ġatoms",
        -10.329239767276723
      ],
      [
        "Not",
        -10.329385006881742
      ],
      [
        "neath",
        -10.32955549394654
      ],
      [
        "Ġrepeat",
        -10.330423727615944
      ],
      [
        "Ġcounter",
        -10.330684720664902
      ],
      [
        "Ġdirt",
        -10.331244855858444
      ],
      [
        "from",
        -10.332749256708825
      ],
      [
        "ating",
        -10.333792986318612
      ],
      [
        "ill",
        -10.334762547336537
      ],
      [
        "Ġsignificance",
        -10.335010920468418
      ],
      [
        "Ġcommitment",
        -10.335195156749473
      ],
      [
        "aught",
        -10.335395009007904
      ],
      [
        "Ġmountain",
        -10.336186772121977
      ],
      [
        "Ġpossibl",
        -10.33623164593935
      ],
      [
        "Ġrealit",
        -10.33722934817311
      ],
      [
        "Ġneural",
        -10.337313525714327
      ],
      [
        "ard",
        -10.337527567183862
      ],
      [
        "Ġcalls",
        -10.337712181749271
      ],
      [
        "Ġgradual",
        -10.33789545571829
      ],
      [
        "ha",
        -10.338227338893915
      ],
      [
        "anagement",
        -10.338258277036475
      ],
      [
        "Ġcm",
        -10.338544731913371
      ],
      [
        "Ġouter",
        -10.338645770198994
      ],
      [
        "per",
        -10.339146921720753
      ],
      [
        "Ġanalyze",
        -10.339361245671856
      ],
      [
        "see",
        -10.340406335985374
      ],
      [
        "Ġworry",
        -10.340507128571833
      ],
      [
        "ĠProject",
        -10.340577583849647
      ],
      [
        "end",
        -10.340596000626537
      ],
      [
        "Ġsides",
        -10.340912339993151
      ],
      [
        "Ġplug",
        -10.341333395743126
      ],
      [
        "Ġmo",
        -10.342003154708909
      ],
      [
        "ĠStart",
        -10.34346476319658
      ],
      [
        "ĠOpen",
        -10.343509215648176
      ],
      [
        "Ġtax",
        -10.345727866220372
      ],
      [
        "Ġimagine",
        -10.346209259677234
      ],
      [
        "Ġcards",
        -10.346519485452912
      ],
      [
        "Ġfroze",
        -10.34727514771004
      ],
      [
        "Ġfamous",
        -10.3473648099699
      ],
      [
        "Ġmineral",
        -10.347964717069946
      ],
      [
        "Ġprey",
        -10.348397693159717
      ],
      [
        "Ġunlike",
        -10.349885770784478
      ],
      [
        "Ġexpos",
        -10.349963334165729
      ],
      [
        "Ġtutorial",
        -10.350604941316856
      ],
      [
        "iness",
        -10.351379705672938
      ],
      [
        "Ġclosed",
        -10.351678388060774
      ],
      [
        "ĠAsia",
        -10.351805760520907
      ],
      [
        "Ġbigger",
        -10.351821679881764
      ],
      [
        "ĠToday",
        -10.35193188014544
      ],
      [
        "Ġmirror",
        -10.352124050393249
      ],
      [
        "ĠGroup",
        -10.352425252616117
      ],
      [
        "Ġdefin",
        -10.352451216969529
      ],
      [
        "Ġmovie",
        -10.35328355832917
      ],
      [
        "Ġelectrons",
        -10.35367837821182
      ],
      [
        "Ġspen",
        -10.353682146563896
      ],
      [
        "Ġgut",
        -10.354046315701254
      ],
      [
        "Ġstronger",
        -10.354452724405611
      ],
      [
        "Ġreports",
        -10.354746039140938
      ],
      [
        "Ġsouth",
        -10.35510502438191
      ],
      [
        "ĠUp",
        -10.35514425849802
      ],
      [
        "Ġemerg",
        -10.35551219690209
      ],
      [
        "Ġderive",
        -10.35573493918317
      ],
      [
        "Ġsizes",
        -10.356004129898306
      ],
      [
        "ĠOcean",
        -10.356147956615672
      ],
      [
        "Ġraised",
        -10.356314376777572
      ],
      [
        "Ġmoved",
        -10.35717861393222
      ],
      [
        "ought",
        -10.357974344156553
      ],
      [
        "let",
        -10.359749768400167
      ],
      [
        "Since",
        -10.360198863630943
      ],
      [
        "Ġinvestigate",
        -10.360473243577612
      ],
      [
        "Ġmark",
        -10.36121084564154
      ],
      [
        "Ġregulate",
        -10.363041032865317
      ],
      [
        "ĠPlease",
        -10.363672047967164
      ],
      [
        "Ġbrief",
        -10.363946781589805
      ],
      [
        "Ġcampaign",
        -10.363947797798671
      ],
      [
        "Ġcoral",
        -10.3640811895886
      ],
      [
        "Ġpackage",
        -10.365847936145126
      ],
      [
        "Ġexpose",
        -10.366309932670069
      ],
      [
        "ĠPacific",
        -10.36642019985262
      ],
      [
        "Ġdanger",
        -10.366478929504073
      ],
      [
        "Ġshelter",
        -10.366642142556726
      ],
      [
        "Ġthreat",
        -10.366774337307683
      ],
      [
        "bilities",
        -10.367477167858947
      ],
      [
        "Ġwhale",
        -10.36777964669163
      ],
      [
        "Ġweed",
        -10.36877862852237
      ],
      [
        "Ġsensors",
        -10.36941150579214
      ],
      [
        "Ġhandling",
        -10.369639291519018
      ],
      [
        "ĠII",
        -10.36985347158289
      ],
      [
        "Ġwrote",
        -10.370687186359952
      ],
      [
        "Ġturtle",
        -10.372055003388546
      ],
      [
        "Ġnarrow",
        -10.37206789121462
      ],
      [
        "ke",
        -10.37241396428212
      ],
      [
        "ĠWhite",
        -10.372416600402904
      ],
      [
        "Ġunderly",
        -10.37298420930368
      ],
      [
        "Ġevaluate",
        -10.373091569828588
      ],
      [
        "Ġworse",
        -10.373446363656647
      ],
      [
        "Ġwindows",
        -10.373508376795572
      ],
      [
        "Ġbegins",
        -10.373549182518031
      ],
      [
        "Ġconfidence",
        -10.374197047838736
      ],
      [
        "ĠSociety",
        -10.37500110122728
      ],
      [
        "Ġelectron",
        -10.375528459661698
      ],
      [
        "Ġinspire",
        -10.377412486203234
      ],
      [
        "Ġnation",
        -10.3775244502871
      ],
      [
        "Z",
        -10.377830004156587
      ],
      [
        "Ġflying",
        -10.377926031602108
      ],
      [
        "ĠTest",
        -10.378163154639472
      ],
      [
        "weight",
        -10.378166782851
      ],
      [
        "Ġplane",
        -10.378216563943049
      ],
      [
        "Ġenabl",
        -10.379413126886954
      ],
      [
        "ĠEast",
        -10.379526982191411
      ],
      [
        "Ġbreeds",
        -10.379689346566469
      ],
      [
        "Ġgate",
        -10.379776079896386
      ],
      [
        "ĠWestern",
        -10.380149581196
      ],
      [
        "Ġtransformation",
        -10.38031422343594
      ],
      [
        "Ġpartner",
        -10.381626932160096
      ],
      [
        "Ġthreaten",
        -10.383095858838544
      ],
      [
        "Ġorange",
        -10.383393438635869
      ],
      [
        "Ġcalm",
        -10.383417737915924
      ],
      [
        "Ġlawn",
        -10.384040327978123
      ],
      [
        "Ġarchitecture",
        -10.384447657230464
      ],
      [
        "Ġarrive",
        -10.384990003025298
      ],
      [
        "OVID",
        -10.385222583703548
      ],
      [
        "sium",
        -10.385278406127126
      ],
      [
        "Dur",
        -10.385660737877558
      ],
      [
        "ĠPer",
        -10.38569249982581
      ],
      [
        "ĠTV",
        -10.386592528272487
      ],
      [
        "Ġbi",
        -10.386641721953444
      ],
      [
        "ĠAssociation",
        -10.38701256299475
      ],
      [
        "Ġanswers",
        -10.387038855955169
      ],
      [
        "ĠTHE",
        -10.387742429000204
      ],
      [
        "Ġpackag",
        -10.388025370074736
      ],
      [
        "ative",
        -10.388184449317578
      ],
      [
        "Ġcotton",
        -10.388478985384976
      ],
      [
        "Ġcontinu",
        -10.389649073648547
      ],
      [
        "ĠRemember",
        -10.390123305553312
      ],
      [
        "`",
        -10.391511420179532
      ],
      [
        "ĠGarden",
        -10.391534211594864
      ],
      [
        "wimming",
        -10.391715506266843
      ],
      [
        "Ġfed",
        -10.39177444001822
      ],
      [
        "Where",
        -10.391794202527809
      ],
      [
        "Ġfertilizer",
        -10.392244675724406
      ],
      [
        "Ġmanaging",
        -10.393077680147693
      ],
      [
        "Ġhabitats",
        -10.393149577337688
      ],
      [
        "Ġerrors",
        -10.393274937257964
      ],
      [
        "Ġgum",
        -10.393430085001867
      ],
      [
        "Ġprotective",
        -10.394130725536236
      ],
      [
        "Ġparallel",
        -10.394332776446602
      ],
      [
        "Ġthermal",
        -10.39498806169879
      ],
      [
        "org",
        -10.39515722416642
      ],
      [
        "Ġpreserve",
        -10.395614373752055
      ],
      [
        "Ġprinciple",
        -10.395821726070713
      ],
      [
        "Ġedges",
        -10.396219062397236
      ],
      [
        "Ġtruth",
        -10.396446864979112
      ],
      [
        "Unfortunate",
        -10.396781054546768
      ],
      [
        "icrosoft",
        -10.397644296072356
      ],
      [
        "Ġpond",
        -10.39783365773044
      ],
      [
        "ĠGet",
        -10.39803082454031
      ],
      [
        "Ġstruggle",
        -10.398751277762583
      ],
      [
        "Ġdishe",
        -10.399028741107864
      ],
      [
        "Ġpathogen",
        -10.399249980032629
      ],
      [
        "Ġsets",
        -10.399961642802667
      ],
      [
        "Ġwonderful",
        -10.400040306757449
      ],
      [
        "ball",
        -10.400407474825313
      ],
      [
        "Ġprocessor",
        -10.400700442010695
      ],
      [
        "Ġkick",
        -10.40086271904966
      ],
      [
        "]ĊĊ",
        -10.401122400005477
      ],
      [
        "Ġmassive",
        -10.401744564833516
      ],
      [
        "Ġease",
        -10.402515956171644
      ],
      [
        "Ġbeans",
        -10.402954296745936
      ],
      [
        "ated",
        -10.403795567082955
      ],
      [
        "Ġarise",
        -10.405254942147836
      ],
      [
        "ĠLearn",
        -10.407316465713809
      ],
      [
        "--",
        -10.408325039613832
      ],
      [
        "Ġbank",
        -10.40923636557404
      ],
      [
        "Ġbreathing",
        -10.409948727197406
      ],
      [
        "Ġdesigner",
        -10.410232397528862
      ],
      [
        "he",
        -10.41029397775694
      ],
      [
        "Ġtrace",
        -10.410848468426902
      ],
      [
        "Ġintegrate",
        -10.410879509154546
      ],
      [
        "Ġoccasional",
        -10.411366210812918
      ],
      [
        "ĠChange",
        -10.412604571199502
      ],
      [
        "Ġecological",
        -10.413116585424705
      ],
      [
        "Ġglucose",
        -10.413332022068538
      ],
      [
        "ĠEnvironmental",
        -10.413504916530352
      ],
      [
        "Ġinterior",
        -10.413614193609629
      ],
      [
        "Ġstyles",
        -10.414410343432047
      ],
      [
        "Ġshoes",
        -10.414594712416186
      ],
      [
        "Ġlogic",
        -10.41462214697262
      ],
      [
        "Ġspin",
        -10.415266414376651
      ],
      [
        "Ġcharging",
        -10.415335416267643
      ],
      [
        "Ġnitrogen",
        -10.416224156651143
      ],
      [
        "Ġvibrant",
        -10.416444600535602
      ],
      [
        "ĠLearning",
        -10.416667449896234
      ],
      [
        "Ġexcept",
        -10.416880377156538
      ],
      [
        "Ġgreenhouse",
        -10.417554136017785
      ],
      [
        "Ġvisitor",
        -10.417726579535422
      ],
      [
        "Ġride",
        -10.4187701095621
      ],
      [
        "Ġcopy",
        -10.419394889483192
      ],
      [
        "ĠBay",
        -10.41943945656623
      ],
      [
        "Ġpai",
        -10.419441381722692
      ],
      [
        "ĠMichigan",
        -10.420468587634794
      ],
      [
        "Ġdetermining",
        -10.420819940410992
      ],
      [
        "Ġmicro",
        -10.420975494211712
      ],
      [
        "Ġplus",
        -10.4214434223565
      ],
      [
        "ner",
        -10.421918034263406
      ],
      [
        "Ġdebri",
        -10.422135523637028
      ],
      [
        "Ġfascinating",
        -10.422138624691897
      ],
      [
        "Ġtaught",
        -10.422326746195296
      ],
      [
        "ble",
        -10.422848523626708
      ],
      [
        "Ġstages",
        -10.425188034514688
      ],
      [
        "Ġholding",
        -10.42548086423864
      ],
      [
        "Ġreplac",
        -10.425602259658683
      ],
      [
        "Ġlock",
        -10.42669025891511
      ],
      [
        "Ġcouldn",
        -10.429519290827228
      ],
      [
        "Ġexpense",
        -10.430730601579087
      ],
      [
        "ING",
        -10.430741015678372
      ],
      [
        "Ġworksheet",
        -10.430878748230135
      ],
      [
        "Ġnames",
        -10.43114202863029
      ],
      [
        "Ġbranche",
        -10.432496834476218
      ],
      [
        "Ġmilitar",
        -10.432655833471802
      ],
      [
        "Ġleaders",
        -10.433574026314698
      ],
      [
        "Ġchamber",
        -10.433612932020992
      ],
      [
        "Ġtough",
        -10.435435493575802
      ],
      [
        "Ġcopper",
        -10.43581302687632
      ],
      [
        "afety",
        -10.436031842147784
      ],
      [
        "Ġparticipate",
        -10.436056023891812
      ],
      [
        "Ġpresentation",
        -10.4363901787183
      ],
      [
        "Ġmosquito",
        -10.436502562004524
      ],
      [
        "ok",
        -10.436852021859774
      ],
      [
        "Ġcontribution",
        -10.43721593801812
      ],
      [
        "Ġvi",
        -10.437356122152377
      ],
      [
        "Ġsales",
        -10.43739416535334
      ],
      [
        "ĠPlan",
        -10.437415651948877
      ],
      [
        "policies",
        -10.437497413359504
      ],
      [
        "Ġtruck",
        -10.437737011568723
      ],
      [
        "Ġachiev",
        -10.438204663293126
      ],
      [
        "Ġcontribut",
        -10.438458313925777
      ],
      [
        "ĠWindows",
        -10.438850643726564
      ],
      [
        "Ġappliance",
        -10.439401132073638
      ],
      [
        "):",
        -10.439935606739247
      ],
      [
        "ĠBar",
        -10.440631407199122
      ],
      [
        "Ġwine",
        -10.44101634754242
      ],
      [
        "\"The",
        -10.44159549974313
      ],
      [
        "Ġclock",
        -10.441619488731645
      ],
      [
        "Ġstrip",
        -10.44182427010909
      ],
      [
        "Ġheater",
        -10.44188360705424
      ],
      [
        "Ġintricate",
        -10.442308512220116
      ],
      [
        "Ġtown",
        -10.443344795378874
      ],
      [
        "Ġpregnant",
        -10.443375876646677
      ],
      [
        "Ġfacing",
        -10.443661630156704
      ],
      [
        "Ġshock",
        -10.444532761319422
      ],
      [
        "ĠGerman",
        -10.444684806972155
      ],
      [
        "ĠTexas",
        -10.444936792562707
      ],
      [
        "Ġarrow",
        -10.445391034743276
      ],
      [
        "Every",
        -10.446441225590275
      ],
      [
        "Ġamino",
        -10.446876517272614
      ],
      [
        "Ġdedicat",
        -10.447254370247784
      ],
      [
        "Ġcustom",
        -10.447769469772334
      ],
      [
        "Ġsubstantial",
        -10.448147517951655
      ],
      [
        "Ġagreement",
        -10.448374715923933
      ],
      [
        "Ġrecords",
        -10.44866708392738
      ],
      [
        "Ġintervention",
        -10.448719635801018
      ],
      [
        "Ġfather",
        -10.449238644857124
      ],
      [
        "Ġsecondary",
        -10.4495347731555
      ],
      [
        "Ġinsert",
        -10.450185858461603
      ],
      [
        "Ġcorner",
        -10.450792503513323
      ],
      [
        "Ġ<",
        -10.452805004678575
      ],
      [
        "Ġformer",
        -10.452856947786277
      ],
      [
        "Ġclassic",
        -10.453671406588589
      ],
      [
        "Ġdiameter",
        -10.454040710043104
      ],
      [
        "Ġalgae",
        -10.454158843199783
      ],
      [
        "Ġpossibilit",
        -10.4541787717596
      ],
      [
        "Ġsex",
        -10.454214044809174
      ],
      [
        "Ġeveryday",
        -10.454359293924856
      ],
      [
        "ĠWeb",
        -10.45448418031364
      ],
      [
        "Ġlake",
        -10.454944418997506
      ],
      [
        "Ġdescrib",
        -10.455269426534668
      ],
      [
        "well",
        -10.455322824794482
      ],
      [
        "Ġdomestic",
        -10.456024185865123
      ],
      [
        "such",
        -10.456437982682036
      ],
      [
        "ĠEngineer",
        -10.456703007348564
      ],
      [
        "Ġassistance",
        -10.457270157170584
      ],
      [
        "Ġaward",
        -10.457552366524691
      ],
      [
        "Dr",
        -10.45783795468344
      ],
      [
        "ĠCollege",
        -10.458819620716604
      ],
      [
        "Ġitem",
        -10.459024625126506
      ],
      [
        "ĠBlue",
        -10.459538100008304
      ],
      [
        "ĠMuseum",
        -10.461016941147008
      ],
      [
        "Keep",
        -10.463389397709966
      ],
      [
        "Ġcorresponding",
        -10.463419651404765
      ],
      [
        "ĠFree",
        -10.463611604160976
      ],
      [
        "Ġimmediate",
        -10.463629049417104
      ],
      [
        "Ġdelve",
        -10.463966783908536
      ],
      [
        "Ġathlete",
        -10.4647129694997
      ],
      [
        "ĠGuide",
        -10.464798528372928
      ],
      [
        "Ġobes",
        -10.465882947767753
      ],
      [
        "Ġaluminum",
        -10.466078335976324
      ],
      [
        "Ġfisher",
        -10.4676260293854
      ],
      [
        "Ġtrend",
        -10.467948862419233
      ],
      [
        "Ġhazard",
        -10.468696461351524
      ],
      [
        "Ġclay",
        -10.468913015079991
      ],
      [
        "New",
        -10.468987617210848
      ],
      [
        "Ġrelief",
        -10.469075861759425
      ],
      [
        "Ġremarkabl",
        -10.469350182888292
      ],
      [
        "Ġ**",
        -10.469560404744094
      ],
      [
        "Ġtransportation",
        -10.469750517680383
      ],
      [
        "cc",
        -10.470069909089728
      ],
      [
        "Ġduration",
        -10.470353928630798
      ],
      [
        "Ġsilver",
        -10.470427026430093
      ],
      [
        "Ġsenior",
        -10.47059989669049
      ],
      [
        "Ġbleeding",
        -10.47065584843269
      ],
      [
        "Ġbridge",
        -10.470831890893828
      ],
      [
        "ĠInternet",
        -10.471257474466826
      ],
      [
        "Ġmanager",
        -10.471667758641765
      ],
      [
        "Ġinterview",
        -10.471866369795324
      ],
      [
        "Ġtrap",
        -10.472348283798542
      ],
      [
        "Ġguarantee",
        -10.472435270861094
      ],
      [
        "Ġfur",
        -10.473200375600282
      ],
      [
        "Ġconversation",
        -10.47376242380263
      ],
      [
        "Ġtrends",
        -10.473966185079178
      ],
      [
        "ĠConsider",
        -10.474980932697656
      ],
      [
        "Ġengagement",
        -10.47507843476977
      ],
      [
        "Ġmeant",
        -10.475112021958356
      ],
      [
        "Ġtape",
        -10.475135839939435
      ],
      [
        "Ġreplacement",
        -10.47522177432844
      ],
      [
        "Ġcleaner",
        -10.475606066443978
      ],
      [
        "Ġconfiguration",
        -10.475674253329334
      ],
      [
        "Ġintegrat",
        -10.475736463826491
      ],
      [
        "Ġexciting",
        -10.47576807647538
      ],
      [
        "Ġintroduction",
        -10.47602083963702
      ],
      [
        "Ġmining",
        -10.476638478161927
      ],
      [
        "Ġdollar",
        -10.47663992860344
      ],
      [
        "ĠTime",
        -10.477337020064986
      ],
      [
        "Ġaquarium",
        -10.477867367939252
      ],
      [
        "Ġpromise",
        -10.47787607884898
      ],
      [
        "Ġpreferences",
        -10.478328018262143
      ],
      [
        "Ġexchange",
        -10.48056082248196
      ],
      [
        "Ġbathroom",
        -10.48090068340016
      ],
      [
        "Ġcluster",
        -10.481333420462022
      ],
      [
        "ĠUnderstand",
        -10.482485492424209
      ],
      [
        ".)Ċ",
        -10.482488657226842
      ],
      [
        "ĠTwo",
        -10.48273023934167
      ],
      [
        "ĠMar",
        -10.482761762230496
      ],
      [
        "star",
        -10.482867116166831
      ],
      [
        "Ġrecording",
        -10.482943389219365
      ],
      [
        "Ġsmoke",
        -10.483458400456506
      ],
      [
        "ĠDog",
        -10.483863064890304
      ],
      [
        "Ġpayment",
        -10.48435691298894
      ],
      [
        "Ġexperti",
        -10.486524747575894
      ],
      [
        "Ġconsum",
        -10.486948781902134
      ],
      [
        "Ġspaces",
        -10.487126300143244
      ],
      [
        "Ġmanufacture",
        -10.487297278216564
      ],
      [
        "Ã©",
        -10.487321555217145
      ],
      [
        "Ġworm",
        -10.487465923871175
      ],
      [
        "Ġcolon",
        -10.487751882090262
[...]
