{
  "version": "1.0",
  "truncation": null,
  "padding": null,
  "added_tokens": [
    {
      "id": 0,
      "content": "<|bos|>",
      "single_word": false,
      "lstrip": false,
      "rstrip": false,
      "normalized": false,
      "special": true
    },
    {
      "id": 1,
      "content": "<|user_start|>",
      "single_word": false,
      "lstrip": false,
      "rstrip": false,
      "normalized": false,
      "special": true
    },
    {
      "id": 2,
      "content": "<|user_end|>",
      "single_word": false,
      "lstrip": false,
      "rstrip": false,
      "normalized": false,
      "special": true
    },
    {
      "id": 3,
      "content": "<|assistant_start|>",
      "single_word": false,
      "lstrip": false,
      "rstrip": false,
      "normalized": false,
      "special": true
    },
    {
      "id": 4,
      "content": "<|assistant_end|>",
      "single_word": false,
      "lstrip": false,
      "rstrip": false,
      "normalized": false,
      "special": true
    },
    {
      "id": 5,
      "content": "<|python_start|>",
      "single_word": false,
      "lstrip": false,
      "rstrip": false,
      "normalized": false,
      "special": true
    },
    {
      "id": 6,
      "content": "<|python_end|>",
      "single_word": false,
      "lstrip": false,
      "rstrip": false,
      "normalized": false,
      "special": true
    },
    {
      "id": 7,
      "content": "<|output_start|>",
      "single_word": false,
      "lstrip": false,
      "rstrip": false,
      "normalized": false,
      "special": true
    },
    {
      "id": 8,
      "content": "<|output_end|>",
      "single_word": false,
      "lstrip": false,
      "rstrip": false,
      "normalized": false,
      "special": true
    },
    {
      "id": 9,
      "content": "<|unk|>",
      "single_word": false,
      "lstrip": false,
      "rstrip": false,
      "normalized": false,
      "special": true
    }
  ],
  "normalizer": null,
  "pre_tokenizer": {
    "type": "Sequence",
    "pretokenizers": [
      {
        "type": "Split",
        "pattern": {
          "Regex": "'(?i:[sdmt]|ll|ve|re)|[^\\r\\n\\p{L}\\p{N}]?+\\p{L}+|\\p{N}{1,2}| ?[^\\s\\p{L}\\p{N}]++[\\r\\n]*|\\s*[\\r\\n]|\\s+(?!\\S)|\\s+"
        },
        "behavior": "Isolated",
        "invert": false
      },
      {
        "type": "ByteLevel",
        "add_prefix_space": false,
        "trim_offsets": true,
        "use_regex": false
      }
    ]
  },
  "post_processor": {
    "type": "TemplateProcessing",
    "single": [
      {
        "Sequence": {
          "id": "A",
          "type_id": 0
        }
      }
    ],
    "pair": [
      {
        "Sequence": {
          "id": "A",
          "type_id": 0
        }
      },
      {
        "Sequence": {
          "id": "B",
          "type_id": 1
        }
      }
    ],
    "special_tokens": {}
  },
  "decoder": null,
  "model": {
    "type": "Unigram",
    "unk_id": 9,
    "vocab": [
      [
        "<|bos|>",
        0.0
      ],
      [
        "<|user_start|>",
        0.0
      ],
      [
        "<|user_end|>",
        0.0
      ],
      [
        "<|assistant_start|>",
        0.0
      ],
      [
        "<|assistant_end|>",
        0.0
      ],
      [
        "<|python_start|>",
        0.0
      ],
      [
        "<|python_end|>",
        0.0
      ],
      [
        "<|output_start|>",
        0.0
      ],
      [
        "<|output_end|>",
        0.0
      ],
      [
        "<|unk|>",
        0.0
      ],
      [
        "s",
        -2.9571825632553796
      ],
      [
        "Ġthe",
        -3.434834949939974
      ],
      [
        ",",
        -3.486562961983161
      ],
      [
        "Ġ",
        -3.692823136205716
      ],
      [
        ".",
        -3.773661958650695
      ],
      [
        "Ġand",
        -3.9678878736774834
      ],
      [
        "Ġto",
        -4.016749271089825
      ],
      [
        "Ġof",
        -4.026955262530347
      ],
      [
        "Ġa",
        -4.138239120367125
      ],
      [
        "ing",
        -4.221181988234656
      ],
      [
        "Ġin",
        -4.50829620396803
      ],
      [
        "ed",
        -4.642594358719663
      ],
      [
        "Ġis",
        -4.6575559142808665
      ],
      [
        "y",
        -4.83091309176246
      ],
      [
        "e",
        -4.891193365614344
      ],
      [
        "'",
        -4.962201267329968
      ],
      [
        "d",
        -4.986476046765253
      ],
      [
        "Ġthat",
        -5.057524048002119
      ],
      [
        "ly",
        -5.059438325821354
      ],
      [
        "Ġfor",
        -5.089296227718076
      ],
      [
        "0",
        -5.127602728359685
      ],
      [
        "t",
        -5.147852188537138
      ],
      [
        "1",
        -5.218643877742101
      ],
      [
        "Ċ",
        -5.281871219784506
      ],
      [
        ":",
        -5.291595764688942
      ],
      [
        "Ġare",
        -5.301124482520448
      ],
      [
        ".Ċ",
        -5.325895530261267
      ],
      [
        "Ġon",
        -5.335976536323276
      ],
      [
        "Ġit",
        -5.3369113775429255
      ],
      [
        ".ĊĊ",
        -5.34842422067088
      ],
      [
        "Ġyou",
        -5.362254652490856
      ],
      [
        "2",
        -5.392830981539728
      ],
      [
        "Ġwith",
        -5.394312564203959
      ],
      [
        "-",
        -5.408876562101497
      ],
      [
        "Ġbe",
        -5.45732634810042
      ],
      [
        "Ġcan",
        -5.563428107198632
      ],
      [
        "Ġor",
        -5.576594612879143
      ],
      [
        "ĊĊ",
        -5.681625871406139
      ],
      [
        "Ġyour",
        -5.763840854364227
      ],
      [
        "Ġ(",
        -5.7673912243650385
      ],
      [
        "Ġas",
        -5.782345168863664
      ],
      [
        "\"",
        -5.895628835636698
      ],
      [
        "Ġhave",
        -5.90093095606036
      ],
      [
        "ĠI",
        -5.908662275715949
      ],
      [
        "a",
        -5.931849572170822
      ],
      [
        "ĠThe",
        -5.937025407414726
      ],
      [
        "Ġfrom",
        -5.945159676144938
      ],
      [
        ")",
        -5.9759158048552425
      ],
      [
        "Ġan",
        -6.023034846217893
      ],
      [
        "Ġby",
        -6.034163720727207
      ],
      [
        "3",
        -6.074984047125991
      ],
      [
        "Ġthis",
        -6.077744580501415
      ],
      [
        "er",
        -6.123454329708993
      ],
      [
        "Ġnot",
        -6.13007231569876
      ],
      [
        "5",
        -6.133513134380406
      ],
      [
        "?",
        -6.134078141583931
      ],
      [
        "n",
        -6.184692461151748
      ],
      [
        "Ġat",
        -6.197164499348588
      ],
      [
        "Ġwill",
        -6.227161506274349
      ],
      [
        "4",
        -6.253463975860543
      ],
      [
        "Ġtheir",
        -6.269172746259045
      ],
      [
        "r",
        -6.321752306295066
      ],
      [
        "i",
        -6.3518182426467025
      ],
      [
        "Ġmore",
        -6.370582500689203
      ],
      [
        "o",
        -6.381645402602816
      ],
      [
        "9",
        -6.390761051799615
      ],
      [
        "Ġthey",
        -6.4039735597967
      ],
      [
        "Ġwas",
        -6.407854466088024
      ],
      [
        "The",
        -6.476477863334958
      ],
      [
        "Ġbut",
        -6.517418861680582
      ],
      [
        "6",
        -6.518097473901518
      ],
      [
        "Ġwe",
        -6.519744524645134
      ],
      [
        "Ġhas",
        -6.533422132127432
      ],
      [
        "ies",
        -6.533714007722068
      ],
      [
        "Ġwhich",
        -6.5477226570442415
      ],
      [
        "on",
        -6.560739016375839
      ],
      [
        "8",
        -6.57313121227458
      ],
      [
        "ĠA",
        -6.599961069983175
      ],
      [
        "Ġother",
        -6.604581689692585
      ],
      [
        "Ġone",
        -6.60764450550786
      ],
      [
        "m",
        -6.633457845368314
      ],
      [
        "Ġalso",
        -6.643973920709339
      ],
      [
        "Question",
        -6.65447694191206
      ],
      [
        "7",
        -6.668400564563539
      ],
      [
        "ĠAnswer",
        -6.668797427163831
      ],
      [
        "al",
        -6.684193422863444
      ],
      [
        "Ġall",
        -6.697155742642273
      ],
      [
        "Ġabout",
        -6.721876167729478
      ],
      [
        "Ġwhen",
        -6.7571451532061015
      ],
      [
        "A",
        -6.7585156636375014
      ],
      [
        "Ġdo",
        -6.762698676682
      ],
      [
        "ĠIt",
        -6.788447645900414
      ],
      [
        "Ġtime",
        -6.805035099276045
      ],
      [
        "Ġuse",
        -6.810280327435855
      ],
      [
        "Ġif",
        -6.8130121636456344
      ],
      [
        "re",
        -6.816055927911595
      ],
      [
        "Ġup",
        -6.831125060995973
      ],
      [
        "Ġinto",
        -6.831963364094481
      ],
      [
        "Ġthem",
        -6.835187822124885
      ],
      [
        "Ġlike",
        -6.841680070564902
      ],
      [
        "Ġso",
        -6.8466583960015015
      ],
      [
        "c",
        -6.852821371321541
      ],
      [
        "ĠThis",
        -6.877625428919449
      ],
      [
        "Ġhow",
        -6.879174620256084
      ],
      [
        "Ġneed",
        -6.883945524308018
      ],
      [
        "Ġmay",
        -6.891765651543546
      ],
      [
        "Ġsome",
        -6.896163443012085
      ],
      [
        "Ġout",
        -6.920094818815421
      ],
      [
        "ĠWhat",
        -6.947552119068124
      ],
      [
        "Ġthan",
        -6.967975545667191
      ],
      [
        "Ġthere",
        -6.9978117848071975
      ],
      [
        "Ġthese",
        -7.000523054097824
      ],
      [
        "in",
        -7.027675248712537
      ],
      [
        "Ġwhat",
        -7.029278361658374
      ],
      [
        "Ġwater",
        -7.034859489693103
      ],
      [
        "Ġany",
        -7.034900255282039
      ],
      [
        "l",
        -7.042439776637826
      ],
      [
        "ĠIn",
        -7.0477473118271945
      ],
      [
        "Ġused",
        -7.056051980455376
      ],
      [
        "ity",
        -7.0710380254142535
      ],
      [
        "Ġour",
        -7.076480402651882
      ],
      [
        "Ġmake",
        -7.087754072960081
      ],
      [
        "Ġwere",
        -7.125229785778771
      ],
      [
        "/",
        -7.136898666711897
      ],
      [
        "Ġhelp",
        -7.1476112640186695
      ],
      [
        "Ġmost",
        -7.151291863450211
      ],
      [
        "able",
        -7.152853600623908
      ],
      [
        "If",
        -7.1634993330555155
      ],
      [
        "Ġsuch",
        -7.171542770539272
      ],
      [
        "I",
        -7.1724221908420365
      ],
      [
        "Ġnew",
        -7.174876789919304
      ],
      [
        "Ġbeen",
        -7.1909320588945
      ],
      [
        "ĠC",
        -7.197070097877825
      ],
      [
        "g",
        -7.21468605237671
      ],
      [
        "Ġwho",
        -7.215721281311994
      ],
      [
        "Ġwould",
        -7.2183224080048785
      ],
      [
        "Ġpeople",
        -7.218381939262617
      ],
      [
        "Ġshould",
        -7.230355068222348
      ],
      [
        "Ġget",
        -7.233151188541138
      ],
      [
        "Ġover",
        -7.270935125563467
      ],
      [
        "ĠS",
        -7.285966235770326
      ],
      [
        "Ġjust",
        -7.286456982119756
      ],
      [
        "Ġhigh",
        -7.289823661591251
      ],
      [
        "f",
        -7.295191186107443
      ],
      [
        "Ġits",
        -7.299654081395598
      ],
      [
        "Ġmany",
        -7.303147077783615
      ],
      [
        "or",
        -7.326734041639067
      ],
      [
        "Ġhealth",
        -7.333499328879638
      ],
      [
        "Ġwell",
        -7.337364315730703
      ],
      [
        "Ġwork",
        -7.33987869934607
      ],
      [
        "ic",
        -7.3450203335433155
      ],
      [
        "S",
        -7.345634765489235
      ],
      [
        ";",
        -7.345906071654168
      ],
      [
        "Ġplant",
        -7.348458372726851
      ],
      [
        "Ġtwo",
        -7.353245347384004
      ],
      [
        "h",
        -7.360975404246251
      ],
      [
        "Ġbetween",
        -7.376890532753782
      ],
      [
        "Ġmy",
        -7.376928249185374
      ],
      [
        "Ġway",
        -7.385595433648842
      ],
      [
        "is",
        -7.3903157276900355
      ],
      [
        "Ġdifferent",
        -7.391948172969027
      ],
      [
        "ce",
        -7.409121187816222
      ],
      [
        "Ġno",
        -7.411925266016771
      ],
      [
        "Ġfirst",
        -7.414812235436648
      ],
      [
        "Ġlong",
        -7.41759874673974
      ],
      [
        "?Ċ",
        -7.420360513279052
      ],
      [
        "b",
        -7.430200853853249
      ],
      [
        "!",
        -7.441701174205122
      ],
      [
        "p",
        -7.450513674689237
      ],
      [
        "Ġthrough",
        -7.454516969119943
      ],
      [
        "Ġusing",
        -7.464389794140871
      ],
      [
        "Ġwhere",
        -7.466784234884711
      ],
      [
        "Ġday",
        -7.467379079635149
      ],
      [
        "ever",
        -7.480587956940514
      ],
      [
        "Ġprovide",
        -7.488186072189984
      ],
      [
        "Ġbecaus",
        -7.496651735161175
      ],
      [
        "Ġlook",
        -7.518678760372978
      ],
      [
        "ation",
        -7.523232516898345
      ],
      [
        "Ġcould",
        -7.537641129967119
      ],
      [
        "Ġeven",
        -7.5454360703533165
      ],
      [
        "Ġhe",
        -7.555323775004389
      ],
      [
        "Ġhad",
        -7.560102682188685
      ],
      [
        "ĠB",
        -7.56460584967482
      ],
      [
        "ion",
        -7.570279437486352
      ],
      [
        "Ġvery",
        -7.575226109687655
      ],
      [
        "C",
        -7.575334649494691
      ],
      [
        "Ġeach",
        -7.584394385320145
      ],
      [
        "Ġsystem",
        -7.58979586528981
      ],
      [
        "ĠHow",
        -7.590493470560025
      ],
      [
        "Ġthen",
        -7.592639898710827
      ],
      [
        "In",
        -7.593400684134151
      ],
      [
        "Ġknow",
        -7.603307619619132
      ],
      [
        "ĠThey",
        -7.605820856787805
      ],
      [
        "le",
        -7.609978206377635
      ],
      [
        "?ĊĊ",
        -7.6206815304941635
      ],
      [
        "Ġevery",
        -7.623876052040764
      ],
      [
        "Ġmuch",
        -7.63254704747375
      ],
      [
        "ĠâĢĵ",
        -7.635139657936618
      ],
      [
        "Ġfood",
        -7.644558142504098
      ],
      [
        "Ġdoes",
        -7.653247099433192
      ],
      [
        "us",
        -7.657927312712185
      ],
      [
        "Ġtake",
        -7.659069705377107
      ],
      [
        "Ġgood",
        -7.660536731492404
      ],
      [
        "D",
        -7.662857906707949
      ],
      [
        ").",
        -7.665420935632936
      ],
      [
        "Ġimportant",
        -7.6678008228840495
      ],
      [
        "ve",
        -7.670055196912758
      ],
      [
        "ĠYou",
        -7.672194219855325
      ],
      [
        "Ġdon",
        -7.674032864105751
      ],
      [
        "Ġwhile",
        -7.68094787535086
      ],
      [
        "Ġarea",
        -7.681013381017501
      ],
      [
        "Ġsee",
        -7.681377285767152
      ],
      [
        "Ġhis",
        -7.682377358641201
      ],
      [
        "x",
        -7.697102623896507
      ],
      [
        "Ġstart",
        -7.704871245384039
      ],
      [
        "Ġlarge",
        -7.706304794453317
      ],
      [
        "Ġafter",
        -7.7083683259732
      ],
      [
        "Ġbefore",
        -7.711446220536553
      ],
      [
        "ĠE",
        -7.714670502581256
      ],
      [
        "Ġyears",
        -7.721161083569172
      ],
      [
        "Ġlevel",
        -7.73185417906937
      ],
      [
        "Ġhuman",
        -7.741742915719294
      ],
      [
        "Ġthing",
        -7.743685995778634
      ],
      [
        "Ġdesign",
        -7.749212599287677
      ],
      [
        "Ġworld",
        -7.752905528316092
      ],
      [
        "ll",
        -7.765036562743473
      ],
      [
        "ness",
        -7.769924178901241
      ],
      [
        "Ġaround",
        -7.773780932526706
      ],
      [
        "u",
        -7.77385287170633
      ],
      [
        "Ġlight",
        -7.774475415573378
      ],
      [
        "Ġsame",
        -7.778123106209687
      ],
      [
        "Ġcome",
        -7.782176507122238
      ],
      [
        "Ġlife",
        -7.786072673363434
      ],
      [
        "Ġwant",
        -7.787209077827265
      ],
      [
        "Ġcause",
        -7.789537551918184
      ],
      [
        "an",
        -7.791792476526411
      ],
      [
        "Ġfollow",
        -7.792021880312909
      ],
      [
        "Ġboth",
        -7.797479063579884
      ],
      [
        "Ġdata",
        -7.799575561735222
      ],
      [
        "Ġallow",
        -7.799847870165563
      ],
      [
        "B",
        -7.804744503837933
      ],
      [
        "Ġgreat",
        -7.806824242518193
      ],
      [
        "Ġduring",
        -7.808016193207247
      ],
      [
        "Ġdown",
        -7.810265978762074
      ],
      [
        "Ġpart",
        -7.823838486070193
      ],
      [
        "um",
        -7.827168925339636
      ],
      [
        "en",
        -7.828749832318007
      ],
      [
        "(",
        -7.831895120787871
      ],
      [
        "Ġthink",
        -7.832073539765507
      ],
      [
        "Ġright",
        -7.833832939269309
      ],
      [
        "Ġbeing",
        -7.834012981788223
      ],
      [
        "Ġun",
        -7.836095454802284
      ],
      [
        "Ġmaterial",
        -7.838059997307069
      ],
      [
        "Ġback",
        -7.84715631650842
      ],
      [
        "v",
        -7.847310982468145
      ],
      [
        "Ġkeep",
        -7.850947205675858
      ],
      [
        "th",
        -7.854181330992617
      ],
      [
        "Ġbody",
        -7.858464336532263
      ],
      [
        "Ġthose",
        -7.864952691004598
      ],
      [
        "),",
        -7.873991623500098
      ],
      [
        "Ġfound",
        -7.875293155266613
      ],
      [
        "ĠD",
        -7.880543878784096
      ],
      [
        "Ġfind",
        -7.885426010104493
      ],
      [
        "Ġsmall",
        -7.885854250626258
      ],
      [
        "Ġoften",
        -7.887092548064295
      ],
      [
        "What",
        -7.888885504425682
      ],
      [
        "ers",
        -7.890383363094726
      ],
      [
        "Ġenergy",
        -7.893606631475556
      ],
      [
        "Ġprocess",
        -7.894105871705565
      ],
      [
        "Ġbest",
        -7.897896574033804
      ],
      [
        "%",
        -7.901733842505064
      ],
      [
        "Ġcreate",
        -7.906118479132819
      ],
      [
        "Ġmade",
        -7.911060412231984
      ],
      [
        "ĠFor",
        -7.91349093474371
      ],
      [
        "Ġinclude",
        -7.914859675165734
      ],
      [
        "k",
        -7.915740249263459
      ],
      [
        "Ġshow",
        -7.919318203350047
      ],
      [
        "est",
        -7.920753156509535
      ],
      [
        "ĠWe",
        -7.924123104548273
      ],
      [
        "Ġus",
        -7.928149642544277
      ],
      [
        "Ġyear",
        -7.930065162628955
      ],
      [
        "Ġmean",
        -7.9303001880636685
      ],
      [
        "Ġcommon",
        -7.935555255085974
      ],
      [
        "Ġincrease",
        -7.936161383892586
      ],
      [
        "ĠP",
        -7.960305817506793
      ],
      [
        "ĠTo",
        -7.961641500180034
      ],
      [
        "ive",
        -7.964553766083736
      ],
      [
        "Ġgrow",
        -7.968103488829369
      ],
      [
        "Ġhome",
        -7.968170182794616
      ],
      [
        "ance",
        -7.968631842839931
      ],
      [
        "Ġlead",
        -7.971656091263406
      ],
      [
        "Ġchange",
        -7.973149237596235
      ],
      [
        "bility",
        -7.974462582979034
      ],
      [
        "Ġme",
        -7.987156193173875
      ],
      [
        "Ġinformation",
        -7.987263375964499
      ],
      [
        ":Ċ",
        -7.987400510583365
      ],
      [
        "Ġplace",
        -7.989318552836632
      ],
      [
        "ĠT",
        -7.990980075112543
      ],
      [
        "Ġexperience",
        -7.991876334415902
      ],
      [
        "Ġstudents",
        -7.992771175484663
      ],
      [
        "Ġgo",
        -7.99518505964004
      ],
      [
        "Ġrequire",
        -7.996780802633684
      ],
      [
        "T",
        -8.000602010545116
      ],
      [
        "Ġnow",
        -8.005356094053754
      ],
      [
        "âĢĻ",
        -8.006092759073669
      ],
      [
        "Ġtemperature",
        -8.007256459948632
      ],
      [
        "Ġnumber",
        -8.01628346543744
      ],
      [
        "This",
        -8.020725914168047
      ],
      [
        "Ġcondition",
        -8.021138354565824
      ],
      [
        "How",
        -8.02143064404899
      ],
      [
        "Ġsaid",
        -8.022379194752485
      ],
      [
        "Ġinclud",
        -8.024974274836843
      ],
      [
        "ĠM",
        -8.026356017333322
      ],
      [
        "Ġunder",
        -8.026762014093276
      ],
      [
        "Ġspecies",
        -8.027360911742123
      ],
      [
        "Ġbetter",
        -8.028135420998728
      ],
      [
        "and",
        -8.03160097295519
      ],
      [
        "Ġdevelop",
        -8.038067612197782
      ],
      [
        "Ġher",
        -8.03823712182313
      ],
      [
        "Ġre",
        -8.042485834029362
      ],
      [
        "Ġoff",
        -8.043055209171769
      ],
      [
        "Ġfew",
        -8.043483453093113
      ],
      [
        "Ġair",
        -8.043599277979277
      ],
      [
        "Ġresearch",
        -8.04488592471582
      ],
      [
        "Ġchildren",
        -8.048921305923123
      ],
      [
        "Ġdog",
        -8.052265494062024
      ],
      [
        "Ġform",
        -8.054219490233926
      ],
      [
        "Ġbecome",
        -8.054341908989066
      ],
      [
        "based",
        -8.056426042281132
      ],
      [
        "Ġexample",
        -8.056937776814586
      ],
      [
        "ĠThese",
        -8.062303315832333
      ],
      [
        "Ġstudy",
        -8.063155447205165
      ],
      [
        "Ġstill",
        -8.069375335937698
      ],
      [
        "Ġown",
        -8.073527473687237
      ],
      [
        "it",
        -8.07354320325658
      ],
      [
        "Ġsupport",
        -8.074250160263368
      ],
      [
        "Ġcar",
        -8.076181088002492
      ],
      [
        "Ġpotential",
        -8.079382711586845
      ],
      [
        "Ġmethod",
        -8.085586213437526
      ],
      [
        "Ġschool",
        -8.089561418792412
      ],
      [
        "Ġtest",
        -8.095064150774698
      ],
      [
        "one",
        -8.096675725621347
      ],
      [
        "Ġconsider",
        -8.102968730833307
      ],
      [
        "Ġmight",
        -8.125334553011173
      ],
      [
        "Ġissue",
        -8.125919873855985
      ],
      [
        "Ġresult",
        -8.137727413812758
      ],
      [
        "Ġpower",
        -8.138048644808592
      ],
      [
        "Ġtoo",
        -8.138665340713963
      ],
      [
        "Ġcontrol",
        -8.140559298276152
      ],
      [
        "Ġgive",
        -8.143963229397919
      ],
      [
        "Ġgroup",
        -8.147363263641498
      ],
      [
        "Ġheat",
        -8.14987878037682
      ],
      [
        "Ġcase",
        -8.150370351473585
      ],
      [
        "Ġdisease",
        -8.15243533192914
      ],
      [
        "Ġend",
        -8.152658866848533
      ],
      [
        "without",
        -8.158823194522968
      ],
      [
        "It",
        -8.16145286278127
      ],
      [
        "ĠBut",
        -8.162893261107328
      ],
      [
        "Ġknown",
        -8.163068487352874
      ],
      [
        "Ġtype",
        -8.167653969334156
      ],
      [
        "Ġmaking",
        -8.167731749449189
      ],
      [
        "Ġthree",
        -8.172027784706785
      ],
      [
        "Ġset",
        -8.172340215640077
      ],
      [
        "Ġless",
        -8.173430837417277
      ],
      [
        "the",
        -8.175340263651233
      ],
      [
        "Ġlot",
        -8.180069716444283
      ],
      [
        "Ġplay",
        -8.182617068761255
      ],
      [
        "Ġnatural",
        -8.186663525840526
      ],
      [
        "ĠSo",
        -8.193729610791316
      ],
      [
        "...",
        -8.202814254280451
      ],
      [
        "P",
        -8.204784065339126
      ],
      [
        "Ġindividual",
        -8.205279552585804
      ],
      [
        "Ġal",
        -8.210568387044482
      ],
      [
        "Ġrisk",
        -8.212950454413566
      ],
      [
        "Ġwithin",
        -8.217481922375192
      ],
      [
        "Ġenvironment",
        -8.219977730648433
      ],
      [
        "F",
        -8.225430823477936
      ],
      [
        "Ġmust",
        -8.225516617985178
      ],
      [
        "Ġper",
        -8.233909007930382
      ],
      [
        "Ġcolor",
        -8.236079636848498
      ],
      [
        "Ġpoint",
        -8.236281551254097
      ],
      [
        "Ġmain",
        -8.237430759141851
      ],
      [
        "Ġreally",
        -8.237435121101779
      ],
      [
        "ment",
        -8.239563115933393
      ],
      [
        "Ġblood",
        -8.243269289237098
      ],
      [
        "Ġbenefit",
        -8.244134682355439
      ],
      [
        "Ġspecific",
        -8.244348057641245
      ],
      [
        "Ġadd",
        -8.245191215216757
      ],
      [
        "ĠAnd",
        -8.247008985661148
      ],
      [
        "Ġacid",
        -8.247751940242974
      ],
      [
        ":ĊĊ",
        -8.248917364762121
      ],
      [
        "Ġwhy",
        -8.249575028509437
      ],
      [
        "Ġdue",
        -8.251553456159009
      ],
      [
        "Ġquestion",
        -8.251748057178565
      ],
      [
        "Ġreduce",
        -8.251759185599305
      ],
      [
        "Ġlow",
        -8.252468034995946
      ],
      [
        "Ġturn",
        -8.253326361166057
      ],
      [
        "ĠWhen",
        -8.256809272767097
      ],
      [
        "Ġprevent",
        -8.257341444936364
      ],
      [
        "Ġsoil",
        -8.261688787898116
      ],
      [
        "less",
        -8.265332329313447
      ],
      [
        "Ġensure",
        -8.266895464937473
      ],
      [
        "Ġsure",
        -8.267508859220147
      ],
      [
        "Ġcost",
        -8.27112041474562
      ],
      [
        "Ġanother",
        -8.277544027067695
      ],
      [
        "Ġcalled",
        -8.279305424445667
      ],
      [
        "Ġcare",
        -8.28062005637434
      ],
      [
        "ĠG",
        -8.282488539538093
      ],
      [
        "ous",
        -8.283091282390465
      ],
      [
        "Ġtry",
        -8.28843669402162
      ],
      [
        "E",
        -8.294280982546496
      ],
      [
        "Ġpossible",
        -8.296425153832299
      ],
      [
        "w",
        -8.296734686009039
      ],
      [
        "Ġtree",
        -8.304645832421347
      ],
      [
        "Ġvalue",
        -8.305108022944895
      ],
      [
        "Ġrange",
        -8.305224347384762
      ],
      [
        "Ġsource",
        -8.322071716067324
      ],
      [
        "Ġsomething",
        -8.324610709456305
      ],
      [
        "Ġline",
        -8.330126874079081
      ],
      [
        "age",
        -8.332677660446052
      ],
      [
        "Ġamount",
        -8.332736572901286
      ],
      [
        "Ġproject",
        -8.333894783979577
      ],
      [
        "Ġlearn",
        -8.334786094075705
      ],
      [
        "Ġdid",
        -8.336234138943151
      ],
      [
        "Ġshe",
        -8.337512252739815
      ],
      [
        "ĠH",
        -8.337554854780851
      ],
      [
        "Ġhere",
        -8.338195336298739
      ],
      [
        "Ġalways",
        -8.339877438178792
      ],
      [
        "ry",
        -8.341396125584163
      ],
      [
        "Ġlive",
        -8.344192122600983
      ],
      [
        "ally",
        -8.34477114874441
      ],
      [
        "ar",
        -8.346959359602694
      ],
      [
        "Ġteam",
        -8.351129901294325
      ],
      [
        "G",
        -8.35322949588052
      ],
      [
        "ĠThere",
        -8.353503205633519
      ],
      [
        "ary",
        -8.362026501365829
      ],
      [
        "Ġspace",
        -8.363098463775763
      ],
      [
        "Ġproblem",
        -8.363381241769702
      ],
      [
        "Ġlast",
        -8.363613259742877
      ],
      [
        "+",
        -8.364141082175607
      ],
      [
        "Ġvarious",
        -8.364368904949018
      ],
      [
        "Ġanimals",
        -8.374662834816565
      ],
      [
        "ĠN",
        -8.378394744639582
      ],
      [
        "H",
        -8.378426227392719
      ],
      [
        "Ġp",
        -8.38560384105826
      ],
      [
        "Ġcontain",
        -8.386617511163557
      ],
      [
        "Ġcurrent",
        -8.392107629345798
      ],
      [
        "O",
        -8.394323173303277
      ],
      [
        "ĠR",
        -8.397317229458407
      ],
      [
        "Ġpresent",
        -8.399869473234642
      ],
      [
        "Ġpressure",
        -8.402656168058904
      ],
      [
        "Ġsurface",
        -8.402861521773339
      ],
      [
        "Ġusual",
        -8.404973726964274
      ],
      [
        "Ġfish",
        -8.407065155577769
      ],
      [
        "Ġdevelopment",
        -8.407472551300927
      ],
      [
        "Ġopen",
        -8.407817250946188
      ],
      [
        "Ġfactor",
        -8.410776317720991
      ],
      [
        "Ġgoing",
        -8.413826958620728
      ],
      [
        "Ġlittle",
        -8.415652453840178
      ],
      [
        "Ġeasi",
        -8.421423677351207
      ],
      [
        "to",
        -8.422405958532769
      ],
      [
        "ĠF",
        -8.422756836496351
      ],
      [
        "Ġsecond",
        -8.426959058232825
      ],
      [
        "ĠW",
        -8.428985499781783
      ],
      [
        "Ġsignificant",
        -8.430608823539043
      ],
      [
        "Ġlearning",
        -8.432321366732799
      ],
      [
        "Ġavailable",
        -8.435707104235634
      ],
      [
        "Ġw",
        -8.43571379564671
      ],
      [
        "Ġcells",
        -8.440173320201929
      ],
      [
        "Ġorder",
        -8.44124412045598
      ],
      [
        "Ġname",
        -8.443284823502315
      ],
      [
        "Ġrole",
        -8.445202041446205
      ],
      [
        "Ġquality",
        -8.447475476532027
      ],
      [
        "L",
        -8.448284018999212
      ],
      [
        "ĠO",
        -8.451998432717525
      ],
      [
        "Ġgeneral",
        -8.455983148068968
      ],
      [
        "ĠAs",
        -8.456925026039674
      ],
      [
        "Ġenough",
        -8.460485648083388
      ],
      [
        "Ġhand",
        -8.462972652538552
      ],
      [
        "Ġstate",
        -8.463644628893217
      ],
      [
        "Ġfeel",
        -8.466117241342205
      ],
      [
        "ĠHe",
        -8.46722495615677
      ],
      [
        "Ġsolution",
        -8.468618020815406
      ],
      [
        "Ġobject",
        -8.469883154068334
      ],
      [
        "Ġprotect",
        -8.471486750547585
      ],
      [
        "ĠL",
        -8.47217987698173
      ],
      [
        "Ġsize",
        -8.472236932948473
      ],
      [
        "]",
        -8.474158673983636
      ],
      [
        "ch",
        -8.475767405898427
      ],
      [
        "at",
        -8.47632447446746
      ],
      [
        "Ġessential",
        -8.477195678864874
      ],
      [
        "Ġfunction",
        -8.480639465576854
      ],
      [
        ",\"",
        -8.48423475824826
      ],
      [
        "Ġtogether",
        -8.48752720528947
      ],
      [
        "Ġweek",
        -8.489690400790886
      ],
      [
        "Ġperson",
        -8.491860534037166
      ],
      [
        "Ġput",
        -8.495784055045057
      ],
      [
        "Ġtext",
        -8.500416478628921
      ],
      [
        "Ġlocal",
        -8.500944055034736
      ],
      [
        "Ġage",
        -8.503667208672686
      ],
      [
        "Ġproducts",
        -8.50504303592991
      ],
      [
        "Ġimpact",
        -8.506815220397279
      ],
      [
        "Ġunderstand",
        -8.507176852945761
      ],
      [
        "several",
        -8.507307228405574
      ],
      [
        "Ġleave",
        -8.516795556794094
      ],
      [
        "Ġhard",
        -8.517151687779299
      ],
      [
        "Ġhappen",
        -8.519245893438812
      ],
      [
        "Ġsay",
        -8.519678565612562
      ],
      [
        "Ġnon",
        -8.520084889470244
      ],
      [
        "Ġaway",
        -8.521425326220747
      ],
      [
        "Ġfull",
        -8.52200485621874
      ],
      [
        "ĠWhich",
        -8.522031295866114
      ],
      [
        "W",
        -8.52402924839713
      ],
      [
        "Ġcertain",
        -8.525530163955159
      ],
      [
        "Ġproduce",
        -8.52679219049179
      ],
      [
        "ĠU",
        -8.527152005130667
      ],
      [
        "Ġtechnolog",
        -8.527425091172034
      ],
      [
        "having",
        -8.528257735775568
      ],
      [
        "Ġgrowth",
        -8.53152475630225
      ],
      [
        "Ġde",
        -8.531567779005934
      ],
      [
        "Ġweight",
        -8.534587297386327
      ],
      [
        "Ġdifference",
        -8.535752100525887
      ],
      [
        "Ġterm",
        -8.53601510141902
      ],
      [
        "Ġside",
        -8.53643233258303
      ],
      [
        "Ġmodel",
        -8.540421086759
      ],
      [
        "Ġnear",
        -8.541175572487198
      ],
      [
        "Ġproblems",
        -8.54178073156428
      ],
      [
        "Ġparticular",
        -8.541975831270271
      ],
      [
        "Ġimprove",
        -8.54526259365825
      ],
      [
        "You",
        -8.545764792391997
      ],
      [
        "Ġfree",
        -8.547448202744267
      ],
      [
        "Ġtechnique",
        -8.548998583324828
      ],
      [
        "Ġleas",
        -8.553142652487601
      ],
      [
        "Ġpractice",
        -8.55581342853094
      ],
      [
        "V",
        -8.556342986404493
      ],
      [
        "ĠSome",
        -8.5590449605222
      ],
      [
        "Ġoil",
        -8.559194579602092
      ],
      [
        "Ġpatient",
        -8.55929723614733
      ],
      [
        "Ġgarden",
        -8.559420641291549
      ],
      [
        "Ġtypes",
        -8.559624991016427
      ],
      [
        "Ġshort",
        -8.560141017106766
      ],
      [
        "hether",
        -8.561667026588385
      ],
      [
        "Ġdiet",
        -8.563617915523494
      ],
      [
        "Ġfocus",
        -8.56957598908971
      ],
      [
        "Ġcourse",
        -8.572013612309561
      ],
      [
        "Ġtop",
        -8.57236653380977
      ],
      [
        "Ġfast",
        -8.574161450274172
      ],
      [
        "Ġ[",
        -8.574430108709329
      ],
      [
        "Ġtreatment",
        -8.574488138144797
      ],
      [
        "M",
        -8.575991472720016
      ],
      [
        "z",
        -8.57863104560347
      ],
      [
        "When",
        -8.581813133980521
      ],
      [
        "N",
        -8.58207415830627
      ],
      [
        "Ġlet",
        -8.582730268785628
      ],
      [
        "To",
        -8.584823964842677
      ],
      [
        "Ġword",
        -8.58495156474078
      ],
      [
        "Ġprogram",
        -8.585969828241936
      ],
      [
        "Ġmaintain",
        -8.58934741880067
      ],
      [
        "thing",
        -8.589605069917422
      ],
      [
        "K",
        -8.591525101820555
      ],
      [
        "Ġsince",
        -8.591983208192865
      ],
      [
        "Ġdirect",
        -8.594497179732445
      ],
      [
        "ĠThat",
        -8.596740809489463
      ],
      [
        "Ġcheck",
        -8.597769280741431
      ],
      [
        "Ġdamage",
        -8.59795022252121
      ],
      [
        "Ġrun",
        -8.599297701918074
      ],
      [
        "Ġsystems",
        -8.599341224244723
      ],
      [
        "Ġprotein",
        -8.603150624165261
      ],
      [
        "We",
        -8.60359781665383
      ],
      [
        "Ġ&",
        -8.603764624720615
      ],
      [
        "Ġuntil",
        -8.606653075181223
      ],
      [
        "not",
        -8.608626329624865
      ],
      [
        "ĠBy",
        -8.610899489773553
      ],
      [
        "Ġlove",
        -8.614988864168218
      ],
      [
        "Ġphysical",
        -8.616360046540027
      ],
      [
        "Ġkey",
        -8.617060951978743
      ],
      [
        "Ġalong",
        -8.617826920718793
      ],
      [
        "Ġearly",
        -8.617979145960325
      ],
      [
        "R",
        -8.61802458401531
      ],
      [
        "Ġproper",
        -8.618434505679815
      ],
      [
        "Ġresults",
        -8.619817382086211
      ],
      [
        "though",
        -8.623173861774182
      ],
      [
        "Ġfamily",
        -8.623336193795616
      ],
      [
        "Ġreal",
        -8.624102403673803
      ],
      [
        "Ġskin",
        -8.629710783655312
      ],
      [
        "Ġnext",
        -8.63013893867586
      ],
      [
        "ĠWith",
        -8.632745707212575
      ],
      [
        "Ġstrong",
        -8.632837617662572
      ],
      [
        "Ġsafe",
        -8.634135346930321
      ],
      [
        "Ġ=",
        -8.634219878811766
      ],
      [
        "ĠK",
        -8.635396306071915
      ],
      [
        "Ġfield",
        -8.637115388813285
      ],
      [
        "Ġworking",
        -8.638443044332679
      ],
      [
        "Ġkind",
        -8.638637107813254
      ],
      [
        "Ġremain",
        -8.638757300242705
      ],
      [
        "Ġoffer",
        -8.64002255146601
      ],
      [
        "Ġproduction",
        -8.641106842591338
      ],
      [
        "Ġcat",
        -8.642970024379917
      ],
      [
        "Ġ$",
        -8.64753706924122
      ],
      [
        "Ġhigher",
        -8.648208824169426
      ],
      [
        "Ġdogs",
        -8.651607563157654
      ],
      [
        "Ġsite",
        -8.651607574101398
      ],
      [
        "!Ċ",
        -8.652113901565926
      ],
      [
        "Ġmakes",
        -8.657710947643235
      ],
      [
        "Ġcook",
        -8.658762054163574
      ],
      [
        "Ġpost",
        -8.658998977876092
      ],
      [
        "Ġsimilar",
        -8.660961765094175
      ],
      [
        "Ġchild",
        -8.660972276875102
      ],
      [
        "Ġcell",
        -8.661759109348115
      ],
      [
        "Ġb",
        -8.661981973364622
      ],
      [
        "Ġbusiness",
        -8.662955432215758
      ],
      [
        "Ġold",
        -8.666233935570366
      ],
      [
        "Ġeasy",
        -8.67147406675204
      ],
      [
        "Ġwide",
        -8.672342841238963
      ],
      [
        "Ġanimal",
        -8.672677005701109
      ],
      [
        "Ġchanges",
        -8.674467283440634
      ],
      [
        "ter",
        -8.677301943909683
      ],
      [
        "Ġdoesn",
        -8.679104192085596
      ],
      [
        "Ġvariet",
        -8.680462817843699
      ],
      [
        "âĢĶ",
        -8.68067744190584
      ],
      [
        "Ġcreat",
        -8.682242818643878
      ],
      [
        "âĢ¦",
        -8.683373597656711
      ],
      [
        "ĠUniversit",
        -8.68342694836776
      ],
      [
        ")Ċ",
        -8.684361086552425
      ],
      [
        "Ġlower",
        -8.684756889590496
      ],
      [
        "Ġcover",
        -8.68495054509292
      ],
      [
        "There",
        -8.685538486524097
      ],
      [
        "Ġmachine",
        -8.686247966797126
      ],
      [
        "Ġeffective",
        -8.686481410828792
      ],
      [
        "Ġavoid",
        -8.687412646442892
      ],
      [
        "Ġlikely",
        -8.689441259882942
      ],
      [
        "Ġbuilding",
        -8.68992244732804
      ],
      [
        "self",
        -8.690739117129407
      ],
      [
        "Ġbook",
        -8.692342890435658
      ],
      [
        "ite",
        -8.69263767571411
      ],
      [
        "Ġprofessional",
        -8.694214103485983
      ],
      [
        "Ġseem",
        -8.695044891531019
      ],
      [
        "Ġtraining",
        -8.699811550287912
      ],
      [
        "Ġfuel",
        -8.700435547745338
      ],
      [
        "her",
        -8.701599310618295
      ],
      [
        "Ġmarket",
        -8.702529451504974
      ],
      [
        "Ġunique",
        -8.704372257817514
      ],
      [
        "Ġgas",
        -8.714106487565024
      ],
      [
        "Ġfuture",
        -8.71434189166886
      ],
      [
        "Ġnever",
        -8.714410313253836
      ],
      [
        "Ġimage",
        -8.715188776752017
      ],
      [
        "Ġactually",
        -8.716243931945666
      ],
      [
        "Ġsocial",
        -8.716312018046237
      ],
      [
        "Ġnecessar",
        -8.717493296426483
      ],
      [
        "Ġcomponent",
        -8.720638374691045
      ],
      [
        "Ġface",
        -8.720710492595416
      ],
      [
        "Ġpopulation",
        -8.724128227663364
      ],
      [
        "ĠNew",
        -8.724339793392549
      ],
      [
        "Ġacross",
        -8.72437213580574
      ],
      [
        "Ġsimple",
        -8.725358750766194
      ],
      [
        "Ġenvironmental",
        -8.726206580364563
      ],
      [
        "Ġexist",
        -8.726902767493314
      ],
      [
        "Ġeye",
        -8.727806102907842
      ],
      [
        "Ġoccur",
        -8.729543473553779
      ],
      [
        "Ġreason",
        -8.731338621519658
      ],
      [
        "Ġask",
        -8.73187748947646
      ],
      [
        "Ġgiven",
        -8.733946076102288
      ],
      [
        "ĠâĢĶ",
        -8.735223885552777
      ],
      [
        "ĠJ",
        -8.735356062322406
      ],
      [
        "Ġespeciall",
        -8.735628749339913
      ],
      [
        "Ġsuggest",
        -8.735998434941806
      ],
      [
        "against",
        -8.73628540685197
      ],
      [
        "Ġclose",
        -8.737892446491179
      ],
      [
        "Ġtreat",
        -8.739531073341627
      ],
      [
        "Ġdry",
        -8.73998901568854
      ],
      [
        "*",
        -8.740203970501756
      ],
      [
        "stead",
        -8.740818169442361
      ],
      [
        "Ġheart",
        -8.741617032907289
      ],
      [
        "Ġpet",
        -8.741901350296487
      ],
      [
        "be",
        -8.743830874525115
      ],
      [
        "Ġdone",
        -8.750483688251222
      ],
      [
        "Ġresource",
        -8.750621656582602
      ],
      [
        "Ġstep",
        -8.75189054717643
      ],
      [
        "Ġcomputer",
        -8.754334504022726
      ],
      [
        "Ġdepend",
        -8.754773190493829
      ],
      [
        "Ġfact",
        -8.754921915918175
      ],
      [
        "Ġaffect",
        -8.755039776235392
      ],
      [
        "ctivity",
        -8.75583600858511
      ],
      [
        "ĠYour",
        -8.756205457385526
      ],
      [
        "man",
        -8.757759332626058
      ],
      [
        "Ġfar",
        -8.75874368937439
      ],
      [
        "Ġarticle",
        -8.763033794398341
      ],
      [
        "ĠAmerican",
        -8.763838541774437
      ],
      [
        "Ġcall",
        -8.763990388916454
      ],
      [
        "Ġmillion",
        -8.764731097941539
      ],
      [
        "ĠRe",
        -8.766089158414074
      ],
      [
        "il",
        -8.766558874631453
      ],
      [
        "Ġproduct",
        -8.771116155406496
      ],
      [
        "Ġelectric",
        -8.773190638518004
      ],
      [
        "Ġunit",
        -8.777486597103799
      ],
      [
        "Ġstore",
        -8.778588758781915
      ],
      [
        "Ġspeed",
        -8.778853899030631
      ],
      [
        "Ġminute",
        -8.779127859405651
      ],
      [
        "Ġtoday",
        -8.780180543711797
      ],
      [
        "Ġparts",
        -8.781830249204084
      ],
      [
        "Ġleft",
        -8.783389796681831
      ],
      [
        "Ġhead",
        -8.783778043969024
      ],
      [
        "Ġplan",
        -8.78527929771128
      ],
      [
        "Ġrecommend",
        -8.788891488293837
      ],
      [
        "Ġground",
        -8.791508332181442
      ],
      [
        "Ġwhite",
        -8.792066174332913
      ],
      [
        "Ġcarbon",
        -8.792316103715851
      ],
      [
        "ĠNo",
        -8.795077113826194
      ],
      [
        "Ġregular",
        -8.796386393032648
      ],
      [
        "ach",
        -8.797313746672327
      ],
      [
        "Ġaccording",
        -8.799307462670665
      ],
      [
        "Ġvehicle",
        -8.799346574041724
      ],
      [
        "Ġdifficult",
        -8.79937417869058
      ],
      [
        "Ġsign",
        -8.799450479107529
      ],
      [
        "Ġcontent",
        -8.799678455879903
      ],
      [
        "Ġabove",
        -8.804039590990149
      ],
      [
        "Ġclear",
        -8.80418273647562
      ],
      [
        "Ġeffects",
        -8.80476125982059
      ],
      [
        "Ġloss",
        -8.805413449419232
      ],
      [
        "Ġparent",
        -8.80562033954066
      ],
      [
        "most",
        -8.807287360702231
      ],
      [
        "Ġfurther",
        -8.810269105097632
      ],
      [
        "ĠAl",
        -8.810642170556234
      ],
      [
        "Ġclean",
        -8.811070081381104
      ],
      [
        "Ġdeep",
        -8.812528182526993
      ],
      [
        "Ġfour",
        -8.812888955388942
      ],
      [
        "Ġindustry",
        -8.814620754314355
      ],
      [
        "Ġbelieve",
        -8.814902242705063
      ],
      [
        "Ġdetail",
        -8.815479557882913
      ],
      [
        "ĠAn",
        -8.815879369892569
      ],
      [
        "Ġshare",
        -8.819623439821923
      ],
      [
        "Ġengine",
        -8.8219954844107
      ],
      [
        "Ġwarm",
        -8.822146057318163
      ],
      [
        "Ġtimes",
        -8.822806698707282
      ],
      [
        "Ġbig",
        -8.823423789294306
      ],
      [
        "Ġsingle",
        -8.824362291722306
      ],
      [
        "âĢĵ",
        -8.824868288369256
      ],
      [
        "Ġlist",
        -8.827758318680822
      ],
      [
        "Ġsays",
        -8.828393264661234
      ],
      [
        "Ġunderstanding",
        -8.831202055723917
      ],
      [
        "ul",
        -8.831261918576494
      ],
      [
        "Ġactivities",
        -8.83199269747637
      ],
      [
        "Ġread",
        -8.836985055343241
      ],
      [
        "Ġcomplex",
        -8.839658623152868
      ],
      [
        "For",
        -8.84071104852801
      ],
      [
        "Ġrecent",
        -8.842262540506727
      ],
      [
        "tic",
        -8.843213771203567
      ],
      [
        "Ġnetwork",
        -8.845576004581256
      ],
      [
        "Ġvideo",
        -8.84593471638572
      ],
      [
        "Ġstudie",
        -8.846503020473152
      ],
      [
        "Ġfeatures",
        -8.846731443711114
      ],
      [
        "Ġaction",
        -8.847999798742935
      ],
      [
        "Ġhim",
        -8.850778233854008
      ],
      [
        "Ġbasic",
        -8.85083976129497
      ],
      [
        "Ġmanagement",
        -8.85252515912491
      ],
      [
        "Ġaddress",
        -8.853129054927852
      ],
      [
        "Ġscience",
        -8.857621690882228
      ],
      [
        "Ġenjoy",
        -8.858083203187448
      ],
      [
        "Ġhours",
        -8.859468532604627
      ],
      [
        "Ġaccess",
        -8.859618648545997
      ],
      [
        "Ġbring",
        -8.859875509205356
      ],
      [
        "Ġapproach",
        -8.86228670047835
      ],
      [
        "Ġeffect",
        -8.862488153504831
      ],
      [
        "Ġpersonal",
        -8.862794368837669
      ],
      [
        "Ġrate",
        -8.864145891919343
      ],
      [
        "out",
        -8.864411284124818
      ],
      [
        "Ġchoice",
        -8.864437618609795
      ],
      [
        "Ġeat",
        -8.867066324283883
      ],
      [
        "Ġamong",
        -8.867343046982555
      ],
      [
        "Ġuser",
        -8.867726611669845
      ],
      [
        "Ġclimate",
        -8.868171727579833
      ],
      [
        "Ġposition",
        -8.868227724964076
      ],
      [
        "Ġaddition",
        -8.869203288796538
      ],
      [
        "Ġmatter",
        -8.870851370838857
      ],
      [
        "Ġskills",
        -8.871146747041076
      ],
      [
        "Ġdiscover",
        -8.87172279907778
      ],
      [
        "ate",
        -8.872933504855526
      ],
      [
        "Ġpaper",
        -8.873355468388127
      ],
      [
        "Ġstructure",
        -8.87694665631224
      ],
      [
        "ĠDo",
        -8.877643427880832
      ],
      [
        "ur",
        -8.87819782809319
      ],
      [
        "land",
        -8.879237056620127
      ],
      [
        "ent",
        -8.880086565625142
      ],
      [
        "Ġred",
        -8.880255444856614
      ],
      [
        "Ġmove",
        -8.881173463524089
      ],
      [
        "Ġbit",
        -8.88254936802408
      ],
      [
        "Ġeither",
        -8.88391756662049
      ],
      [
        "Ġsafety",
        -8.885176287568335
      ],
      [
        "Ġinside",
        -8.885978235675253
      ],
      [
        "Ġstress",
        -8.888378404549984
      ],
      [
        "Ġmind",
        -8.88855759097667
      ],
      [
        "Ġalready",
        -8.888667284375375
      ],
      [
        "Ġgett",
        -8.889607816147254
      ],
      [
        "Ġrat",
        -8.889935157056648
      ],
      [
        "Ġsense",
        -8.894830698098783
      ],
      [
        "Ġexplain",
        -8.897446696895003
      ],
      [
        "Ġcommunity",
        -8.898033036643312
      ],
      [
        "Ġslow",
        -8.898487844680165
      ],
      [
        "Ġinterest",
        -8.901485074897284
      ],
      [
        "Ġresponse",
        -8.901675664674102
      ],
      [
        "Ġthought",
        -8.901974317152721
      ],
      [
        "Ġstay",
        -8.9029909054968
      ],
      [
        "Ġnormal",
        -8.903645217336734
      ],
      [
        "Ġanswer",
        -8.905803947844468
      ],
      [
        "Ġagain",
        -8.906230494099043
      ],
      [
        "Ġsound",
        -8.906581990975084
      ],
      [
        "Ġbehavior",
        -8.908348200939495
      ],
      [
        "ĠOne",
        -8.910688569485142
      ],
      [
        "cy",
        -8.911531810362288
      ],
      [
        "Ġperiod",
        -8.913141011110627
      ],
      [
        "Ġperformance",
        -8.917623108342655
      ],
      [
        "_",
        -8.918576127988704
      ],
      [
        "Ġpublic",
        -8.920063275663225
      ],
      [
        "Ġshape",
        -8.920118752720528
      ],
      [
        "Ġmilk",
        -8.92182817679869
      ],
      [
        "Ġliving",
        -8.921973837187643
      ],
      [
        "Ġmention",
        -8.922305878853773
      ],
      [
        "Ġtalk",
        -8.923547860346897
      ],
      [
        "Ġmix",
        -8.924744933677896
      ],
      [
        "Ġfall",
        -8.927833724403577
      ],
      [
        "if",
        -8.933169134707299
      ],
      [
        "Ġcool",
        -8.934911384525147
      ],
      [
        "Ġbelow",
        -8.934967399047416
      ],
      [
        "ant",
        -8.937992786180207
      ],
      [
        "am",
        -8.938011357516832
      ],
      [
        "Ġconcern",
        -8.938347726423833
      ],
      [
        "ful",
        -8.938402410968807
      ],
      [
        "Ġcut",
        -8.938445943390375
      ],
      [
        "Ġcompany",
        -8.9392249708152
      ],
      [
        "Ġfee",
        -8.939658223499023
      ],
      [
        "Ġpopular",
        -8.94172448859057
      ],
      [
        "Ġseen",
        -8.945220641874732
      ],
      [
        "Ġbreak",
        -8.946704655140445
      ],
      [
        "Ġbuild",
        -8.947147974168278
      ],
      [
        "Ġbase",
        -8.948075827682114
      ],
      [
        "Ġidea",
        -8.950114934206123
      ],
      [
        "ism",
        -8.951227608209637
      ],
      [
        "Ġthough",
        -8.951377049832983
      ],
      [
        "Ġbrain",
        -8.952334417246748
      ],
      [
        "Ġnature",
        -8.955524501410864
      ],
      [
        "Ġland",
        -8.957253183665244
      ],
      [
        "Ġpositive",
        -8.959402865151606
      ],
      [
        "Ġwomen",
        -8.963125630101256
      ],
      [
        "Ġmajor",
        -8.963546274092455
      ],
      [
        "ĠWhil",
        -8.963724549663215
      ],
      [
        "ĠUnit",
        -8.963827133770915
      ],
      [
        "Ġtoward",
        -8.964418309792729
      ],
      [
        "Ġflower",
        -8.965600224640703
      ],
      [
        "U",
        -8.96995291194936
      ],
      [
        "Ġwaste",
        -8.971786063063465
      ],
      [
        "Ġwhole",
        -8.972420922955852
      ],
      [
        "Ġtotal",
        -8.972600374065479
      ],
      [
        "Ġscientist",
        -8.975390069892605
      ],
      [
        "Ġhistor",
        -8.975574590294904
      ],
      [
        "Ġadult",
        -8.976350749961881
      ],
      [
        "un",
        -8.977456619106952
      ],
      [
        "Ġcode",
        -8.977913710182058
      ],
      [
        "Ġexercise",
        -8.978118299650184
      ],
      [
        "Ġsetting",
        -8.980989798066897
      ],
      [
        "Y",
        -8.982626865963896
      ],
      [
        "Ġmovement",
        -8.983998600327244
      ],
      [
        "Ġresearchers",
        -8.984017383293363
      ],
      [
        "Ġprovid",
        -8.98475096190058
      ],
      [
        "Ġmonths",
        -8.985689612863492
      ],
      [
        "Ġcold",
        -8.985984471735145
      ],
      [
        "Ġtools",
        -8.988025338837364
      ],
      [
        "Ġam",
        -8.994218369011257
      ],
      [
        "Ġever",
        -8.995754996231483
      ],
      [
        "ĠMan",
        -8.996233191060774
      ],
      [
        "Ġgenetic",
        -8.99641898798151
      ],
      [
        "Ġtip",
        -8.998046369853515
      ],
      [
        "Ġcorrect",
        -8.998199064084801
      ],
      [
        "Ġchemical",
        -8.99932673024926
      ],
      [
        "Ġauthor",
        -8.999359431285768
      ],
      [
        "Ġblack",
        -8.999505138702656
      ],
      [
        "ĠAI",
        -9.000409454032638
      ],
      [
        "Ġsugar",
        -9.000747470652483
      ],
      [
        "Ġgame",
        -9.004364660195721
      ],
      [
        "Ġtraditional",
        -9.005065538093369
      ],
      [
        "Ġpercent",
        -9.0058789513593
      ],
      [
        "Ġappear",
        -9.007044156305572
      ],
      [
        "Ġways",
        -9.00757778835159
      ],
      [
        "ĠV",
        -9.008922018224816
      ],
      [
        "Ġview",
        -9.00963477822966
      ],
      [
        "Ġbatter",
        -9.009940857266775
      ],
      [
        "Ġpre",
        -9.012729810975728
      ],
      [
        "Ġplastic",
        -9.013271757040489
      ],
      [
        "co",
        -9.013460312909045
      ],
      [
        "Ġdetermine",
        -9.01425304216678
      ],
      [
        "Ġcancer",
        -9.014877911488773
      ],
      [
        "taking",
        -9.015923035816227
      ],
      [
        "So",
        -9.016359745287373
      ],
      [
        "Ġknowledge",
        -9.018701445196518
      ],
      [
        "Ġflow",
        -9.019117942916814
      ],
      [
        "Ġpattern",
        -9.019425320789598
      ],
      [
        "Ġtell",
        -9.019627244826664
      ],
      [
        "Ġfruit",
        -9.023280225681338
      ],
      [
        "Ġreach",
        -9.023449756667246
      ],
      [
        "Ġbalance",
        -9.024713618984803
      ],
      [
        "by",
        -9.027237649698208
      ],
      [
        "Ġsomeone",
        -9.027481735979912
      ],
      [
        "Ġoutside",
        -9.02814693213628
      ],
      [
        "ĠBe",
        -9.029066251519067
      ],
      [
        "As",
        -9.030250809715824
      ],
      [
        "Ġroom",
        -9.03087227781246
      ],
      [
        "ian",
        -9.030934950262765
      ],
      [
        "Ġforce",
        -9.031792284372996
      ],
      [
        "Ġact",
        -9.03315431124078
      ],
      [
        "Ġhouse",
        -9.034327345971596
      ],
      [
        "li",
        -9.035720142637023
      ],
      [
        "Ġclass",
        -9.035841509473364
      ],
      [
        "Ġdoing",
        -9.036048334344304
      ],
      [
        "Ġrepresent",
        -9.037803223123484
      ],
      [
        "Ġstrateg",
        -9.037971325096544
      ],
      [
        "Ġtypically",
        -9.03825677069661
      ],
      [
        "Ġactive",
        -9.038826667832446
      ],
      [
        "Ġmedical",
        -9.039657204607783
      ],
      [
        "Ġpain",
        -9.04030185246581
      ],
      [
        "Ġspecial",
        -9.040383568306025
      ],
      [
        "Ġsymptoms",
        -9.04074534216199
      ],
      [
        "Ġcontinue",
        -9.042036389763313
      ],
      [
        "Ġonline",
        -9.04470283904936
      ],
      [
        "âĢ¢",
        -9.0453452715471
      ],
      [
        "Ġoverall",
        -9.045873937366654
      ],
      [
        "no",
        -9.046107575379256
      ],
      [
        "Ġaverage",
        -9.046108239566673
      ],
      [
        "Ġyoung",
        -9.047066217674828
      ],
      [
        "Ġwinter",
        -9.047212429583215
      ],
      [
        "Ġwear",
        -9.047601598853802
      ],
      [
        "Ġrule",
        -9.047624946219925
      ],
      [
        "Ġseason",
        -9.04777422829888
      ],
      [
        ".\"ĊĊ",
        -9.047854736023153
      ],
      [
        "Ġsimpl",
        -9.047909431212588
      ],
      [
        "Ġexpect",
        -9.048457975551852
      ],
      [
        "Ġmetal",
        -9.051783537507204
      ],
      [
        "Ġmuscle",
        -9.05228034962589
      ],
      [
        "up",
        -9.0523022203809
      ],
      [
        "Ġapplications",
        -9.052501585342243
      ],
      [
        "Ġguide",
        -9.053156147599342
      ],
      [
        "Ġchoose",
        -9.053281387503237
      ],
      [
        "Ġservice",
        -9.053344667489714
      ],
      [
        "Ġco",
        -9.05730599461968
      ],
      [
        "Ġpast",
        -9.05842120176812
      ],
      [
        "ok",
        -9.061694608663124
      ],
      [
        "=",
        -9.062288408996642
      ],
      [
        "Ġhot",
        -9.063157813890877
      ],
      [
        "Ġcrucial",
        -9.064885319003746
      ],
      [
        "Ġinvolve",
        -9.065140775682895
      ],
      [
        "Ġcamera",
        -9.066325573080164
      ],
      [
        "Ġidentify",
        -9.066710826056738
      ],
      [
        "Ġbirds",
        -9.06758306883762
      ],
      [
        "Ġperfect",
        -9.068111232410756
      ],
      [
        "Ġglobal",
        -9.072613503283511
      ],
      [
        "Ġperform",
        -9.072811740665994
      ],
      [
        "Ġgreen",
        -9.0729934337417
      ],
      [
        "Ġexplore",
        -9.074108891522908
      ],
      [
        "Ġhold",
        -9.08011130261798
      ],
      [
        "Ġtarget",
        -9.080512224939303
      ],
      [
        "Ġentire",
        -9.08194420781243
      ],
      [
        "ĠAt",
        -9.08294236698667
      ],
      [
        "Ġeffort",
        -9.083116113077557
      ],
      [
        "Ġanalysis",
        -9.084653481049696
      ],
      [
        "Ġreaction",
        -9.08517664179455
      ],
      [
        "Ġetc",
        -9.085368158944751
      ],
      [
        "Ġdivers",
        -9.085822639474634
      ],
      [
        "Ġhelps",
        -9.086242548013274
      ],
      [
        "ĠSchool",
        -9.089529188477162
      ],
      [
        "Ġcontact",
        -9.091271988921536
      ],
      [
        "Ġbuy",
        -9.091519940618763
      ],
      [
        "Ġfive",
        -9.091619408252132
      ],
      [
        "Ġmodern",
        -9.09551397939412
      ],
      [
        "Ġrelationship",
        -9.096408423139357
      ],
      [
        "ĠNational",
        -9.09864683119442
      ],
      [
        "Ġhear",
        -9.099478060947288
      ],
      [
        "Ġprimar",
        -9.100653823546658
      ],
      [
        "Ġsituation",
        -9.100757259742068
      ],
      [
        "Ġisn",
        -9.101247489716696
      ],
      [
        "Ġstop",
        -9.102896626024704
      ],
      [
        "Ġchicken",
        -9.103753259307696
      ],
      [
        "Ġmemor",
        -9.105760301044088
      ],
      [
        "Ġrelated",
        -9.107050196721325
      ],
      [
        "Ġmoney",
        -9.108103451402313
      ],
      [
        "Ġtool",
        -9.10869986225132
      ],
      [
        "Q",
        -9.110201641085816
      ],
      [
        "Ġgot",
        -9.110803205423167
      ],
      [
        "Ġinfection",
        -9.110904923423634
      ],
      [
        "Ġbacteria",
        -9.112231827719809
      ],
      [
        "Ġmultiple",
        -9.112537635476562
      ],
      [
        "Ġsometime",
        -9.113340720461116
      ],
      [
        "Ġself",
        -9.113586162590462
      ],
      [
        "\\",
        -9.113911708984912
      ],
      [
        "Ġreceive",
        -9.11523672047002
      ],
      [
        ".\"Ċ",
        -9.116049680355331
      ],
      [
        "Ġlocation",
        -9.11745988911833
      ],
      [
        "ĠCan",
        -9.11791529411518
      ],
      [
        "Ġdevice",
        -9.12052267579579
      ],
      [
        "Ġpass",
        -9.121926325263791
      ],
      [
        "Ġwood",
        -9.123045245573648
      ],
      [
        "Ġserve",
        -9.123782057576967
      ],
      [
        "ial",
        -9.12392011973795
      ],
      [
        "im",
        -9.124835125858894
      ],
      [
        "Ġregion",
        -9.12492418171736
      ],
      [
        "Ġdecision",
        -9.127405665275752
      ],
      [
        "Ġdigital",
        -9.127477365757104
      ],
      [
        "mm",
        -9.128330388353035
      ],
      [
        "Ġcomplete",
        -9.128355112669649
      ],
      [
        "Ġremove",
        -9.13202932639265
      ],
      [
        "ĠDNA",
        -9.132797075594173
      ],
      [
        "Ġsignal",
        -9.136864475013528
      ],
      [
        "Ġproperties",
        -9.137289423358215
      ],
      [
        "Ġbad",
        -9.13731793011724
      ],
      [
        ").Ċ",
        -9.139221107169284
      ],
      [
        "Ġcycle",
        -9.140812968750785
      ],
      [
        "ĠHealth",
        -9.14178490182098
      ],
      [
        "Ġmonitor",
        -9.142523147554147
      ],
      [
        "Ġexpert",
        -9.144048534150308
      ],
      [
        "Ġexact",
        -9.144064961232738
      ],
      [
        "ĠâĢľ",
        -9.14541264875422
      ],
      [
        "Ġlength",
        -9.14554999419494
      ],
      [
        "Ġrelease",
        -9.145855808355646
      ],
      [
        "Ġblock",
        -9.146152318974284
      ],
      [
        "where",
        -9.147048833482849
      ],
      [
        "Ġexperiment",
        -9.147735283178951
      ],
      [
        "Ġsea",
        -9.148206282925576
      ],
      [
        "Ġregard",
        -9.148639928174438
      ],
      [
        "Ġenhance",
        -9.149308281301526
      ],
      [
        "Ġman",
        -9.149950588447776
      ],
      [
        "ĠAll",
        -9.15254219004209
      ],
      [
        "Ġtrue",
        -9.152650219663307
      ],
      [
        "hind",
        -9.153472720253816
      ],
      [
        "ization",
        -9.153853804015696
      ],
      [
        "Ġice",
        -9.156199211102514
      ],
      [
        "Ġrelative",
        -9.156368373447624
      ],
      [
        "ish",
        -9.158106451549804
      ],
      [
        "Ġnutrient",
        -9.158604423743068
      ],
      [
        "Ġcompared",
        -9.160282019715096
      ],
      [
        "Ġgain",
        -9.161082624105363
      ],
      [
        "Ġsample",
        -9.16112826583203
      ],
      [
        "throughout",
        -9.162682474894586
      ],
      [
        "Ġselect",
        -9.163177795430975
      ],
      [
        "Ġinvolved",
        -9.164395506366946
      ],
      [
        "Ġelements",
        -9.165211424508689
      ],
      [
        "Ġlayer",
        -9.16595780737545
      ],
      [
        "Ġtravel",
        -9.16611119318529
      ],
      [
        "Ġimport",
        -9.166411246767408
      ],
      [
        "Ġsuccessful",
        -9.166745445014271
      ],
      [
        "Ġteacher",
        -9.16696152488818
      ],
      [
        "Ġeating",
        -9.168460167457289
      ],
      [
        "Ġnight",
        -9.16985451195363
      ],
      [
        "ĠOn",
        -9.170619093023356
      ],
      [
        "yet",
        -9.171812711741255
      ],
      [
        "Ġfarm",
        -9.171959409510473
      ],
      [
        "ĠX",
        -9.172237983923488
      ],
      [
        "Ġapplication",
        -9.172416137476494
      ],
      [
        "Ġtrack",
        -9.173051221580495
      ],
      [
        "Ġprobabl",
        -9.173072614839755
      ],
      [
        "Ġfat",
        -9.173418552162902
      ],
      [
        "Ġart",
        -9.178618966885876
      ],
      [
        "ĠNorth",
        -9.179130839203149
      ],
      [
        "Ġcontribute",
        -9.18276737263816
      ],
      [
        "Ġlink",
        -9.183726989025113
      ],
      [
        "Ġoptions",
        -9.183989786101598
      ],
      [
        "Ġlanguage",
        -9.18403603637088
      ],
      [
        "Ġsoftware",
        -9.18772562885511
      ],
      [
        "Ġfill",
        -9.189164806008447
      ],
      [
        "ves",
        -9.191182997385972
      ],
      [
        "Ġfeed",
        -9.19521787615456
      ],
      [
        "Ġstory",
        -9.196532309457684
      ],
      [
        "Ġsubject",
        -9.196969688397688
      ],
      [
        "Ġsummer",
        -9.198163194522554
      ],
      [
        "Ġattention",
        -9.198188461963216
      ],
      [
        "Ġequipment",
        -9.19894869576772
      ],
      [
        "Ġrest",
        -9.199937373086447
      ],
      [
        "ĠDr",
        -9.201933795032858
      ],
      [
        "Ġtaken",
        -9.202117758829868
      ],
      [
        "ge",
        -9.202248226378222
      ],
      [
        ">",
        -9.20271599285109
      ],
      [
        "Ġfoods",
        -9.203569444290023
      ],
      [
        "Ġsearch",
        -9.203711401252988
      ],
      [
        "âĢĿ",
        -9.204316520657166
      ],
      [
        "Ġcharge",
        -9.207029418458584
      ],
      [
        "Ġcrop",
        -9.207245684924484
      ],
      [
        "Ġfun",
        -9.20802404792164
      ],
      [
        "ex",
        -9.209389164771428
      ],
      [
        "Ġwon",
        -9.210104506011126
      ],
      [
        "Ġingredient",
        -9.210265527097572
      ],
      [
        "Ġvisit",
        -9.211869352833682
      ],
      [
        "Ġsleep",
        -9.21283118201424
      ],
      [
        "Ġkill",
        -9.213266849459137
      ],
      [
        "Ġreport",
        -9.214085779255104
      ],
      [
        "Ġspread",
        -9.215764592518893
      ],
      [
        "Ġincreasing",
        -9.2159843835183
      ],
      [
        "Ġapply",
        -9.217153835160811
      ],
      [
        "ca",
        -9.217816120071372
      ],
      [
        "Ġoption",
        -9.218174764288095
      ],
      [
        "Ġextreme",
        -9.218974247126468
      ],
      [
        "Ġeggs",
        -9.218992520216531
      ],
      [
        "Ġstudent",
        -9.219069990093471
      ],
      [
        "Ġservices",
        -9.220789753859918
      ],
      [
        "Ġpurpose",
        -9.221061478437615
      ],
      [
        "Ġefficient",
        -9.223444771847984
      ],
      [
        "Ġcaus",
        -9.22429269426478
      ],
      [
        "Ġrecord",
        -9.226266068813809
      ],
      [
        "Ġconnection",
        -9.22843966123336
      ],
      [
        "Ġnegative",
        -9.229658183114708
      ],
      [
        "Ġmeat",
        -9.230801043722998
      ],
      [
        "Ġdrive",
        -9.23150768934588
      ],
      [
        "Ġwatch",
        -9.232425378955297
      ],
      [
        "Ġdistance",
        -9.23247847288809
      ],
      [
        "Ġaccount",
        -9.23332493105055
      ],
      [
        "Why",
        -9.233453985165578
      ],
      [
        "Ġadditional",
        -9.235665129445554
      ],
      [
        "Ġsave",
        -9.235852670604723
      ],
      [
        "J",
        -9.235859757788546
      ],
      [
        "Ġfinding",
        -9.23826178239568
      ],
      [
        "Ġprice",
        -9.239727214211484
      ],
      [
        "One",
        -9.24133093359586
      ],
      [
        "Ġpay",
        -9.241632411814084
      ],
      [
        "Ġcountry",
        -9.242330492460988
      ],
      [
        "Ġshown",
        -9.242747108267052
      ],
      [
        "Ġweather",
        -9.243584933853354
      ],
      [
        "Ġeducation",
        -9.246251274961452
      ],
      [
        "ber",
        -9.246838053888744
      ],
      [
        "Ġfront",
        -9.246887459878272
      ],
      [
        "Ġestablish",
        -9.248009370873792
      ],
      [
        "ten",
        -9.25082239113038
      ],
      [
        "Ġadded",
        -9.251298363918036
      ],
      [
        "ated",
        -9.25297202547222
      ],
      [
        "Ġwebsite",
        -9.25358379964348
      ],
      [
        "fish",
        -9.253608663021192
      ],
      [
        "Ġachieve",
        -9.253838890815157
      ],
      [
        "Ġdrink",
        -9.25530012173887
      ],
      [
        "Ġmonth",
        -9.255646981711775
      ],
      [
        "Ġplayer",
        -9.256698603330037
      ],
      [
        ".\"",
        -9.256954519270444
      ],
      [
        "Ġcompound",
        -9.256979758860137
      ],
      [
        "gan",
        -9.257204471884329
      ],
      [
        "Ġdai",
        -9.260277541242113
      ],
      [
        "Ġsalt",
        -9.260502731700807
      ],
      [
        "quickly",
        -9.261876452936512
      ],
      [
        "Ġsub",
        -9.26188585835724
      ],
      [
        "quite",
        -9.26265085797712
      ],
      [
        "ĠHere",
        -9.263691541449967
      ],
      [
        "Ġattack",
        -9.263839688297004
      ],
      [
        "Ġparticle",
        -9.265090025851151
      ],
      [
        "ĠScience",
        -9.266414663237468
      ],
      [
        "ĠStates",
        -9.266492669052496
      ],
      [
        "Ġfinal",
        -9.268161524335136
      ],
      [
        "Ġevidence",
        -9.270737332067949
      ],
      [
        "But",
        -9.27113327531528
      ],
      [
        "Ġdescribe",
        -9.274380257332684
      ],
      [
        "Ġmolecule",
        -9.275740322176606
      ],
      [
        "ut",
        -9.27597654525362
      ],
      [
        "Ġdark",
        -9.275985935012244
      ],
      [
        "Ġprocesse",
        -9.277974189423237
      ],
      [
        "Ġreduc",
        -9.27874869948338
      ],
      [
        "Ġaspect",
        -9.279474247180564
      ],
      [
        "Ġago",
        -9.280454077746972
      ],
      [
        "ility",
        -9.28054556807523
      ],
      [
        "day",
        -9.28156846082511
      ],
      [
        "Ġassociate",
        -9.28303713430284
      ],
      [
        "Ġmeasure",
        -9.283438681943585
      ],
      [
        "Ġgenes",
        -9.283453996635808
      ],
      [
        "Ġgoal",
        -9.284357479425427
      ],
      [
        "Ġinput",
        -9.28544735197449
      ],
      [
        "Ġlater",
        -9.286094974916104
      ],
      [
        "Ġoutput",
        -9.287809810633703
      ],
      [
        "Ġhalf",
        -9.28934923175019
      ],
      [
        "ical",
        -9.290473791105434
      ],
      [
        "Ġconcept",
        -9.2918153634794
      ],
      [
        "Ġinstall",
        -9.292891196920936
      ],
      [
        "Ġdisplay",
        -9.293517587071186
      ],
      [
        "Ġreturn",
        -9.293548817209013
      ],
      [
        "Ġscale",
        -9.295273311634386
      ],
      [
        "more",
        -9.295919487839347
      ],
      [
        "Ġsensor",
        -9.296665658819997
      ],
      [
        "Ġsection",
        -9.297354149906178
      ],
      [
        "running",
        -9.29759510088534
      ],
      [
        "Ġappropriate",
        -9.2979813525513
      ],
      [
        "Ġthemsel",
        -9.298279113093647
      ],
      [
        "Ġjob",
        -9.30163408969282
      ],
      [
        "Ġconduct",
        -9.301716031311212
      ],
      [
        "care",
        -9.30179274186112
      ],
      [
        "Ġgovernment",
        -9.302094753630287
      ],
      [
        "Ġcenter",
        -9.302608138194625
      ],
      [
        "Ġoffers",
        -9.305429135054684
      ],
      [
        "Ġinfluence",
        -9.305739569391664
      ],
      [
        "ating",
        -9.306133886895854
      ],
      [
        "Ġsuccess",
        -9.307075759967422
      ],
      [
        "Ġproduced",
        -9.307260162562589
      ],
      [
        "Ġindicate",
        -9.308534387149376
      ],
      [
        "Ġhorse",
        -9.308711723227898
      ],
      [
        "Ġdevices",
        -9.309438482957574
      ],
      [
        "Ġenter",
        -9.309718765475164
      ],
      [
        "-to",
        -9.309747268115483
      ],
      [
        "Ġfile",
        -9.310355222750111
      ],
      [
        "Ġvolume",
        -9.311120125670566
      ],
      [
        "Ġdidn",
        -9.311453324812016
      ],
      [
        "Ġspot",
        -9.312659608513144
      ],
      [
        "ma",
        -9.313399163254884
      ],
      [
        "Ġoriginal",
        -9.313495220803098
      ],
      [
        "Ġspring",
        -9.313501100574932
      ],
      [
        "Ġsupply",
        -9.313807914304176
      ],
      [
        "ĠDe",
        -9.313905272971514
      ],
      [
        "Ġdoctor",
        -9.314997468851068
      ],
      [
        "Ġsmaller",
        -9.31879713778174
      ],
      [
        "Ġextend",
        -9.320437705231203
      ],
      [
        "Ġnode",
        -9.32045927832997
      ],
      [
        "Ġstage",
        -9.320741647305416
      ],
      [
        "ĠMore",
        -9.320831356856043
      ],
      [
        "ĠAfter",
        -9.321774117069609
      ],
      [
        "Ġpoints",
        -9.323425449543294
      ],
      [
        "Ġhair",
        -9.324200155373738
      ],
      [
        "Ġinsect",
        -9.324298473293467
      ],
      [
        "ĠAmerica",
        -9.324362096811493
      ],
      [
        "Ġfriend",
        -9.325663976554765
      ],
      [
        "Ġdraw",
        -9.325851246769904
      ],
      [
        "Ġfresh",
        -9.32586694111698
      ],
      [
        "Ġoperation",
        -9.327008622375118
      ],
      [
        "ĠShe",
        -9.328071256643351
      ],
      [
        "Ġmeet",
        -9.329726388384234
      ],
      [
        "Ġkids",
        -9.32976276123602
      ],
      [
        "Ġscientific",
        -9.33021198476138
      ],
      [
        "Ġcommunication",
        -9.330212026946748
      ],
      [
        "Ġphone",
        -9.330609642054473
      ],
      [
        "Ġsix",
        -9.33192493922467
      ],
      [
        "ling",
        -9.331961191115465
      ],
      [
        "Ġreading",
        -9.333534893480133
      ],
      [
        "Ġstandard",
        -9.333916208162355
      ],
      [
        "Ġtank",
        -9.334436332683133
      ],
      [
        "Ġmental",
        -9.335451411449618
      ],
      [
        "Ġwalk",
        -9.337142726901384
      ],
      [
        "Ġversion",
        -9.338474983308782
      ],
      [
        "ĠUse",
        -9.339406139359324
      ],
      [
        "Ġtend",
        -9.340915228699782
      ],
      [
        "ĠUS",
        -9.34098533436424
      ],
      [
        "Ġdiscuss",
        -9.341420387627384
      ],
      [
        "Ġleaf",
        -9.343244179746764
      ],
      [
        "Ġblue",
        -9.343326843848567
      ],
      [
        "Ġtakes",
        -9.34384305106938
      ],
      [
        "Ġlack",
        -9.343929215067812
      ],
      [
        "over",
        -9.344381588280086
      ],
      [
        "Ġextra",
        -9.346001960084266
      ],
      [
        "Ġseparate",
        -9.346835118507588
      ],
      [
        "Ġball",
        -9.347806202473247
      ],
      [
        "ier",
        -9.34959018340971
      ],
      [
        "all",
        -9.349826916171695
      ],
      [
        "Ġlimit",
        -9.351863825199992
      ],
      [
        "Ġdirection",
        -9.352160016359957
      ],
      [
        "ĠYes",
        -9.352556486226849
      ],
      [
        "Ġworks",
        -9.353056074244236
      ],
      [
        "Â°",
        -9.3575225419685
      ],
      [
        "op",
        -9.358617594196726
      ],
      [
        "Ġquick",
        -9.359672937025486
      ],
      [
        "Ġbaby",
        -9.360105176976417
      ],
      [
        "ized",
        -9.360379296545547
      ],
      [
        "Ġcats",
        -9.36087718835782
      ],
      [
        "Ġsun",
        -9.36186083261929
      ],
      [
        "Ġchallenges",
        -9.362396316285489
      ],
      [
        "Ġestimate",
        -9.365885427399386
      ],
      [
        "Ġgene",
        -9.366571742472562
      ],
      [
        "ard",
        -9.366757648282862
      ],
      [
        "Ġplann",
        -9.367926580481246
      ],
      [
        "Ġcity",
        -9.36853035899279
      ],
      [
        "Ġorganic",
        -9.369923378039664
      ],
      [
        "Ġstrength",
        -9.37111387938554
      ],
      [
        "yourself",
        -9.371244631456332
      ],
      [
        "Ġocean",
        -9.371967279468112
      ],
      [
        "Ġstone",
        -9.374160409590932
      ],
      [
        "line",
        -9.375837947007614
      ],
      [
        "Ġcutting",
        -9.37651084669546
      ],
      [
        "Ġfeature",
        -9.376631666535117
      ],
      [
        "Ġmainten",
        -9.376811655606804
      ],
      [
        "Ġeyes",
        -9.378355275826411
      ],
      [
        "An",
        -9.379259906297497
      ],
      [
        "Ġnotice",
        -9.37936248870081
      ],
      [
        "Ġideal",
        -9.37999909124828
      ],
      [
        "X",
        -9.380903874170857
      ],
      [
        "me",
        -9.381081549883246
      ],
      [
        "Ġmedia",
        -9.381584575611509
      ],
      [
        "Ġmodels",
        -9.383168919414835
      ],
      [
        "Ġtaste",
        -9.384309343725825
      ],
      [
        "Ġoxygen",
        -9.385623564470068
      ],
      [
        "Ġbird",
        -9.385891571548758
      ],
      [
        "Ġrepair",
        -9.386290836701956
      ],
      [
        "Ġcompletely",
        -9.386728963185307
      ],
      [
        "Ġdrain",
        -9.388238712254562
      ],
      [
        "companie",
        -9.390132023440316
      ],
      [
        "Ġsubstance",
        -9.390145146721997
      ],
      [
        "Ġemission",
        -9.3901694625136
      ],
      [
        "Can",
        -9.391694670650352
      ],
      [
        "Because",
        -9.392098326794413
      ],
      [
        "Ġhandle",
        -9.3923335711831
      ],
      [
        "Ġfine",
        -9.393927422285902
      ],
      [
        "Ġdeal",
        -9.394000522319043
      ],
      [
        "Ġcritical",
        -9.3940141576318
      ],
      [
        "Ġgoe",
        -9.394840280156552
      ],
      [
        "ture",
        -9.396427864692662
      ],
      [
        "tion",
        -9.396581964613624
      ],
      [
        "ĠResearch",
        -9.397997783018097
      ],
      [
        "Ġelse",
        -9.398030848782147
      ],
      [
        "Ġseeds",
        -9.398660022576864
      ],
      [
        "Ġevent",
        -9.398890620344948
      ],
      [
        "Ġglass",
        -9.400539528006432
      ],
      [
        "Ġconstant",
        -9.400629651080358
      ],
      [
        "Ġbegin",
        -9.40410750041704
      ],
      [
        "ship",
        -9.40443455236402
      ],
      [
        "Ġdate",
        -9.40446633839575
      ],
      [
        "Ġimages",
        -9.40480940314841
      ],
      [
        "Ġmass",
        -9.407103853781395
      ],
      [
        "Ġenable",
        -9.407821069089072
      ],
      [
        "**",
        -9.408150404801624
      ],
      [
        "work",
        -9.408805166838688
      ],
      [
        "Ġear",
        -9.40957053397254
      ],
      [
        "Ġteeth",
        -9.409939434300668
      ],
      [
        "Ġaim",
        -9.412095914189443
      ],
      [
        "head",
        -9.412136147001092
      ],
      [
        "Ġsolar",
        -9.41215295411817
      ],
      [
        "ĠEarth",
        -9.413326022170368
      ],
      [
        "Whil",
        -9.414939869384272
      ],
      [
        "ha",
        -9.41635838567469
      ],
      [
        "Ġtrain",
        -9.416669472867742
      ],
      [
        "Ġdeath",
        -9.416839275587591
      ],
      [
        "ill",
        -9.41836854820986
      ],
      [
        "ĠWhy",
        -9.419750767085944
      ],
      [
        "ĠAdditional",
        -9.419915274202236
      ],
      [
        "ow",
        -9.422795440871049
      ],
      [
        "Ġapp",
        -9.42383733880967
      ],
      [
        "Ġlate",
        -9.424242977641873
      ],
      [
        "ĠZ",
        -9.42508690069371
      ],
      [
        "ĠSouth",
        -9.425408725478029
      ],
      [
        "Ġflight",
        -9.425918138442212
      ],
      [
        "Ġwild",
        -9.426647712112066
      ],
      [
        "Ġfemale",
        -9.426648759470403
      ],
      [
        "Ġstyle",
        -9.427014327548925
      ],
      [
        "hap",
        -9.427505902380808
      ],
      [
        "Ġitems",
        -9.429159763513784
      ],
      [
        "Ġcame",
        -9.429467706605305
      ],
      [
        "Ġlives",
        -9.429619622741612
      ],
      [
        "Ġcircuit",
        -9.430393768759185
      ],
      [
        "Ġbox",
        -9.431092893442012
      ],
      [
        "Ġpump",
        -9.43194284776908
      ],
      [
        "Ġcentur",
        -9.432030468867914
      ],
      [
        "Ġrich",
        -9.432168323909778
      ],
      [
        "Ġfly",
        -9.433013703718489
      ],
      [
        "Ġmeal",
        -9.433290173410107
      ],
      [
        "ĠFrom",
        -9.434957188808225
      ],
      [
        "time",
        -9.435546299620786
      ],
      [
        "Ġaware",
        -9.436225145078067
      ],
      [
        "of",
        -9.436476455522769
      ],
      [
        "Ġuseful",
        -9.438104492433922
      ],
      [
        "Ġmanage",
        -9.4381542278925
      ],
      [
        "Ġdecrease",
        -9.438551473780736
      ],
      [
        "Ġdetect",
        -9.439587211921218
      ],
      [
        "Ġseries",
        -9.440212730543957
      ],
      [
        "Ġinjur",
        -9.440756631884032
      ],
      [
        "ĠMost",
        -9.442636810369285
      ],
      [
        "for",
        -9.446457777554922
      ],
      [
        "Ġresponsibl",
        -9.44672384129715
      ],
      [
        "ĠSt",
        -9.447309702618046
      ],
      [
        "Ġbag",
        -9.447336806013006
      ],
      [
        "Ġprotection",
        -9.449938333582272
      ],
      [
        "Ġmale",
        -9.450101784286108
      ],
      [
        "ĠNot",
        -9.452475674281596
      ],
      [
        "Ġfeeling",
        -9.452683500629773
      ],
      [
        "Ġconvert",
        -9.453581846755766
      ],
      [
        "Ġseek",
        -9.454951656607449
      ],
      [
        "ĠWorld",
        -9.455597484902414
      ],
      [
        "Ġhost",
        -9.456882676730777
      ],
      [
        "Ġdocument",
        -9.45734353786984
      ],
      [
        "ions",
        -9.45759547866692
      ],
      [
        "Ġdiabetes",
        -9.457688874153291
      ],
      [
        "Ġvisual",
        -9.457779626393492
      ],
      [
        "Ġfit",
        -9.458071966878606
      ],
      [
        "Ġliquid",
        -9.45832960479354
      ],
      [
        "Ġconnect",
        -9.46261401193437
      ],
      [
        "Ġencourage",
        -9.46284925362758
      ],
      [
        "Ġreplace",
        -9.46310668457
      ],
      [
        "Ġremember",
        -9.46348809691782
      ],
      [
        "[",
        -9.465306452619894
      ],
      [
        "Ġcharacteristic",
        -9.467206721743924
      ],
      [
        "Ġbuil",
        -9.467530011871702
      ],
      [
        "pe",
        -9.467545731811231
      ],
      [
        "Ġsteps",
        -9.46830844239516
      ],
      [
        "Ġlocate",
        -9.468662495057558
      ],
      [
        "Ġcollect",
        -9.46866921316649
      ],
      [
        "Ġgenerate",
        -9.46885620574799
      ],
      [
        "Ġmoving",
        -9.469124177200268
      ],
      [
        "Ġreview",
        -9.470064779009634
      ],
      [
        "Ġengineer",
        -9.470686131580283
      ],
      [
        "Ġmembers",
        -9.472307517151664
      ],
      [
        "Ġfrequent",
        -9.47240966233586
      ],
      [
        "Ġdi",
        -9.472444518201009
      ],
      [
        "ĠMy",
        -9.472672149600564
      ],
      [
        "we",
        -9.473172322638993
      ],
      [
        "Ġlandscape",
        -9.473206487636988
      ],
      [
        "Ġtable",
        -9.473811317590268
      ],
      [
        "Ġfilter",
        -9.474313379800783
      ],
      [
        "pi",
        -9.474377883289035
      ],
      [
        "vi",
        -9.474813814476946
      ],
      [
        "Ġadvance",
        -9.477653735834872
      ],
      [
        "Ġcarry",
        -9.47883109164738
      ],
      [
        "Ġlimited",
        -9.479219866347009
      ],
      [
        "Ġfire",
        -9.48027695867411
      ],
      [
        "Ġpoor",
        -9.480900498986571
      ],
      [
        "Ġtransport",
        -9.482533057441
      ],
      [
        "Ġegg",
        -9.483231889216013
      ],
      [
        "Ġfix",
        -9.483653443847835
      ],
      [
        "Ġframe",
        -9.484431267823258
      ],
      [
        "Ġcountr",
        -9.484520218171692
      ],
      [
        "Ġculture",
        -9.484532919519069
      ],
      [
        "wise",
        -9.484887087941363
      ],
      [
        "Ġcombination",
        -9.48551327492286
      ],
      [
        "Ġbar",
        -9.485643897628057
      ],
      [
        "Ġsoft",
        -9.48672757147307
      ],
      [
        "Another",
        -9.487105158461766
      ],
      [
        "Ġsequence",
        -9.487931429283496
      ],
      [
        "ver",
        -9.488469411215732
      ],
      [
        "Ġplatform",
        -9.488484147192388
      ],
      [
        "Ġedge",
        -9.4890197912688
      ],
      [
        "Ġbone",
        -9.48932208673592
      ],
      [
        "Ġprett",
        -9.490694088068668
      ],
      [
        "Ġpick",
        -9.490774066210506
      ],
      [
        "Ġ--",
        -9.49182395774224
      ],
      [
        "Ġraise",
        -9.492799771188048
      ],
      [
        "Ġinitial",
        -9.49280964207407
      ],
      [
        "applied",
        -9.492853717742047
      ],
      [
        "Ġcommercial",
        -9.49315889786328
      ],
      [
        "Ġcloth",
        -9.49379385884691
      ],
      [
        "Ġpair",
        -9.49454975634062
      ],
      [
        "Ġrise",
        -9.4950115581342
      ],
      [
        "ence",
        -9.495097749764852
      ],
      [
        "Ġtheory",
        -9.49534456241068
      ],
      [
        "ĠLe",
        -9.49537076545409
      ],
      [
        "Ġdemand",
        -9.495936879358146
      ],
      [
        "Ġnote",
        -9.49635778245289
      ],
      [
        "These",
        -9.496882069850516
      ],
      [
        "ble",
        -9.496917411972811
      ],
      [
        "Ġmineral",
        -9.4973411375997
      ],
      [
        "Ġadjust",
        -9.499063253239893
      ],
      [
        "Ġlose",
        -9.499170416985107
      ],
      [
        "Ġalternative",
        -9.49939254688686
      ],
      [
        "ĠOr",
        -9.499475483583062
      ],
      [
        ".S",
        -9.500085952216669
      ],
      [
        "And",
        -9.50202375075106
      ],
      [
        "ĠPro",
        -9.50242973465291
      ],
      [
        "Ġbottom",
        -9.502517742530795
      ],
      [
        "Ġvary",
        -9.502753865820091
      ],
      [
        "Ġserious",
        -9.503670932708228
      ],
      [
        "Ġbrown",
        -9.504201796710174
      ],
      [
        "Ġvia",
        -9.505566656521824
      ],
      [
        "Ġelectrical",
        -9.50601850448907
      ],
      [
        "Ġelement",
        -9.506481288337596
      ],
      [
        "Ġensur",
        -9.507025212473437
      ],
      [
        "Ġshoot",
        -9.507117609506103
      ],
      [
        "Ġpiece",
        -9.507869660180445
      ],
      [
        "ĠCenter",
        -9.508242750384486
      ],
      [
        "Ġbrand",
        -9.50976141869202
      ],
      [
        "va",
        -9.510158437691947
      ],
      [
        "Ġhope",
        -9.510172458906618
      ],
      [
        "Ġready",
        -9.51056917460949
      ],
      [
        "ip",
        -9.512654238112129
      ],
      [
        "lu",
        -9.513123801334135
      ],
      [
        "Ġpromote",
        -9.513922050230637
      ],
      [
        "Ġsustainabl",
        -9.514403332635013
      ],
      [
        "Ġboard",
        -9.514864584595
      ],
      [
        "-term",
        -9.515090315591294
      ],
      [
        "ything",
        -9.5180306475448
      ],
      [
        "Ġburn",
        -9.519275246718944
      ],
      [
        "Ġtouch",
        -9.519409107344888
      ],
      [
        "Ġinstance",
        -9.521325616414682
      ],
      [
        "Some",
        -9.52357693473592
      ],
      [
        "ring",
        -9.52370174293912
      ],
      [
        "Ġlibrar",
        -9.524079240906818
      ],
      [
        "Ġcapacit",
        -9.52504925620615
      ],
      [
        "Ġsupplement",
        -9.525769151545454
      ],
      [
        "Ġrare",
        -9.525812173914158
      ],
      [
        "Ġgeneration",
        -9.52587217290428
      ],
      [
        "ĠCO",
        -9.526092476031582
      ],
      [
        "Ġwait",
        -9.528014131395306
      ],
      [
        "Ġevents",
        -9.528932569272175
      ],
      [
        "Ġwall",
        -9.530327275066137
      ],
      [
        "Ġmulti",
        -9.530827076204275
      ],
      [
        "Ġforest",
        -9.532216847290394
      ],
      [
        "Ġtissue",
        -9.53249563157269
      ],
      [
        "Al",
        -9.532703838733786
      ],
      [
        "Ġequal",
        -9.53431101473462
      ],
      [
        "Ġiron",
        -9.534765741368474
      ],
      [
        "Ġflavor",
        -9.535056853557087
      ],
      [
        "den",
        -9.535820902738584
      ],
      [
        "Ġidentifi",
        -9.536007882764086
      ],
      [
        "Ġmode",
        -9.53673923398778
      ],
      [
        "Ġrain",
        -9.53753984934717
      ],
      [
        "Ġ#",
        -9.538474956993056
      ],
      [
        "Ġcolors",
        -9.538482717167035
      ],
      [
        "Ġaccurate",
        -9.541535238821844
      ],
      [
        "Ġdesire",
        -9.541536784925649
      ],
      [
        "Ġprocedure",
        -9.541971005350522
      ],
      [
        "board",
        -9.543639010381224
      ],
      [
        "Ġpark",
        -9.544070973822723
      ],
      [
        "Ġshot",
        -9.544183418007057
      ],
      [
        "end",
        -9.545719661685368
      ],
      [
        "Ġnothing",
        -9.54572742300685
      ],
      [
        "Ġcollection",
        -9.54691073493601
      ],
      [
        "ph",
        -9.547129510580897
      ],
      [
        "Ġsoon",
        -9.547284380305982
      ],
      [
        "tra",
        -9.547701529700312
      ],
      [
        "Ġyellow",
        -9.550402318795124
      ],
      [
        "side",
        -9.550677209998565
      ],
      [
        "Ġdie",
        -9.550963855009208
      ],
      [
        "Ġchance",
        -9.553669136830308
      ],
      [
        "Ġwriting",
        -9.553940851210513
      ],
      [
        "Ġcount",
        -9.55409272706516
      ],
      [
        "Ġwind",
        -9.554217681354308
      ],
      [
        "Ġaid",
        -9.55444570329951
      ],
      [
        "Ġvision",
        -9.55638908021685
      ],
      [
        "Ġpest",
        -9.55661801697216
      ],
      [
        "Ġleg",
        -9.557448912755827
      ],
      [
        "Do",
        -9.557742184368124
      ],
      [
        "Ġroad",
        -9.558288195379028
      ],
      [
        "Ġreference",
        -9.5587113857087
      ],
      [
        "Ġchang",
        -9.5588293002683
      ],
      [
        "Ġreasons",
        -9.558851652197138
      ],
      [
        "Ġfloor",
        -9.559473127959532
      ],
      [
        "Ġvitamin",
        -9.560721164261528
      ],
      [
        "Ġprograms",
        -9.561404641243572
      ],
      [
        "$",
        -9.562476141453851
      ],
      [
        "Ġhearing",
        -9.564773660875897
      ],
      [
        "Ġtherefor",
        -9.564947558814882
      ],
      [
        "ĠQ",
        -9.565892465924794
      ],
      [
        "âĪĴ",
        -9.56624534219614
      ],
      [
        "ĠOur",
        -9.566635375372249
      ],
      [
        "Ġpresen",
        -9.567197264327705
      ],
      [
        "Ġpublished",
        -9.56764473267262
      ],
      [
        "Ġcolour",
        -9.568054931314634
      ],
      [
        "Ġspend",
        -9.568114360626952
      ],
      [
        "Ġseed",
        -9.56832881556321
      ],
      [
        "Ġusers",
        -9.568452637497192
      ],
      [
        "Ġfluid",
        -9.570267341776765
      ],
      [
        "Ġlesson",
        -9.570368895301328
      ],
      [
        "Ġpull",
        -9.571515230693898
      ],
      [
        "Ġpicture",
        -9.571773675232569
      ],
      [
        "Ġfriends",
        -9.572692526342625
      ],
      [
        "Ġswitch",
        -9.573438962476429
      ],
      [
        "Ġrecover",
        -9.573904138824652
      ],
      [
        "per",
        -9.5743223008886
      ],
      [
        "Ġmusic",
        -9.574605463078967
      ],
      [
        "Ġalcohol",
        -9.574703209938455
      ],
      [
        "Ġpowerful",
        -9.575045200874875
      ],
      [
        "Ġhands",
        -9.57580378120078
      ],
      [
        "Ġlabel",
        -9.576642827841155
      ],
      [
        "Ġslight",
        -9.57708642667232
      ],
      [
        "Ġsecurity",
        -9.5784968243065
      ],
      [
        "-up",
        -9.578499548530967
      ],
      [
        "low",
        -9.5788915337411
      ],
      [
        "Ġsolid",
        -9.580207183509891
      ],
      [
        "]Ċ",
        -9.581082264582276
      ],
      [
        "Ġefficiency",
        -9.581251182071366
      ],
      [
        "Ġfoot",
        -9.582272209291592
      ],
      [
        "yond",
        -9.584231258385262
      ],
      [
        "Ġrecycl",
        -9.58510404779177
      ],
      [
        "Ġbeautiful",
        -9.585636086584646
      ],
      [
        "Ġrequirements",
        -9.587445104548314
      ],
      [
        "ĠAlso",
        -9.587955487736425
      ],
      [
        "Ġthus",
        -9.588213725955129
      ],
      [
        "ub",
        -9.589122840344906
      ],
      [
        "Ġmoisture",
        -9.590407593787852
      ],
      [
        "went",
        -9.59173345535094
      ],
      [
        "By",
        -9.592519721654666
      ],
      [
        "giving",
        -9.592847054892616
      ],
      [
        "Ġled",
        -9.593429946057128
      ],
      [
        "Ġconsistent",
        -9.593987584954276
      ],
      [
        "Step",
        -9.594097608885642
      ],
      [
        "Ġpush",
        -9.59516551353946
      ],
      [
        "Ġpath",
        -9.595405633304248
      ],
      [
        "Ġpage",
        -9.59547908985073
      ],
      [
        "Ġcleaning",
        -9.596260346168274
      ],
      [
        "Ġeffectively",
        -9.59659941431072
      ],
      [
        "Ġopportunity",
        -9.596826967790555
      ],
      [
        "Ġtherap",
        -9.597003394515438
      ],
      [
        "Ġwrong",
        -9.59755946777868
      ],
      [
        "Ġthird",
        -9.597561131245616
      ],
      [
        "Ġrock",
        -9.597869830442884
      ],
      [
        "Ġconstruction",
        -9.597888403155125
      ],
      [
        "Ġroof",
        -9.598150937932484
      ],
      [
        "Ġjourney",
        -9.598450057629496
      ],
      [
        "ging",
        -9.59966124080422
      ],
      [
        "Ġresistance",
        -9.602632084807366
      ],
      [
        "Ġroot",
        -9.60305422646776
      ],
      [
        "ĠCon",
        -9.60399757374352
      ],
      [
        "Ġmoment",
        -9.604490611670652
      ],
      [
        "Ġfigure",
        -9.606130901958746
      ],
      [
        "go",
        -9.607022730720896
      ],
      [
        "Ġrapid",
        -9.607209629272674
      ],
      [
        "Ġfrequency",
        -9.60854912162827
      ],
      [
        "Ġmessage",
        -9.61054616388213
      ],
      [
        "Ġmother",
        -9.612617356068302
      ],
      [
        "Ġvariable",
        -9.613018903530476
      ],
      [
        "ĠTheir",
        -9.61310383241948
      ],
      [
        "Ġmedication",
        -9.616962111672308
      ],
      [
        "Ġforward",
        -9.617098876038842
      ],
      [
        "Ġalgorithm",
        -9.61723603747178
      ],
      [
        "Ġobtain",
        -9.617611499395032
      ],
      [
        "he",
        -9.617980195713468
      ],
      [
        "Ġpro",
        -9.618645120434625
      ],
      [
        "Ġtask",
        -9.618898468588172
      ],
      [
        "Ġstem",
        -9.6196408593877
      ],
      [
        "Ġvirus",
        -9.62001341546756
      ],
      [
        "Ġtri",
        -9.620322811652082
      ],
      [
        "Ġdead",
        -9.62059150884243
      ],
      [
        "Ġworth",
        -9.622036093773294
      ],
      [
        "Ġexpression",
        -9.622560262361802
      ],
      [
        "Ġsend",
        -9.623351634027934
      ],
      [
        "min",
        -9.625537400020814
      ],
      [
        "Ġpaint",
        -9.626411325084996
      ],
      [
        "Ġconsumption",
        -9.6267939257211
      ],
      [
        "Ġmiddle",
        -9.62679964625014
      ],
      [
        "Ġcombine",
        -9.62743025495665
      ],
      [
        "Ġinteresting",
        -9.627529792734956
      ],
      [
        "ĠHigh",
        -9.627838758623824
      ],
      [
        "Z",
        -9.629458767296017
      ],
      [
        "Ġlaw",
        -9.630371835304476
      ],
      [
        "Ġconnected",
        -9.63082401803998
      ],
      [
        "Ġreflect",
        -9.63155027735025
      ],
      [
        "Ġstick",
        -9.632207034995918
      ],
      [
        "Ġhighlight",
        -9.632255624859958
      ],
      [
        "Re",
        -9.632608883815651
      ],
      [
        "aught",
        -9.633604091412078
      ],
      [
        "ĠWho",
        -9.634033019236966
      ],
      [
        "storage",
        -9.634500668910707
      ],
      [
        "Ġadapt",
        -9.635270408590811
      ],
      [
        "ĠAre",
        -9.635287269616146
      ],
      [
        "ĠY",
        -9.635896505550445
      ],
      [
        "Ġexposure",
        -9.636764648989924
      ],
      [
        "Ġfiber",
        -9.636771013224005
      ],
      [
        "Ġprint",
        -9.638899994352904
      ],
      [
        "Ġnative",
        -9.638906879599272
      ],
      [
        "iv",
        -9.639146169189823
      ],
      [
        "Ġcontext",
        -9.639246692656474
      ],
      [
        "Ġwrite",
        -9.640670821384967
      ],
      [
        "Ġvital",
        -9.641749289937604
      ],
      [
        "Ġinternal",
        -9.641784647770988
      ],
      [
        "Ġimplement",
        -9.643710902383088
      ],
      [
        "ng",
        -9.644297752063752
      ],
      [
        "ĠGod",
        -9.64519350914588
      ],
      [
        "Ġnumbers",
        -9.645281601518626
      ],
      [
        "Ġcouple",
        -9.645377383476262
      ],
      [
        "Ġcheese",
        -9.646769687927764
      ],
      [
        "Ġtasks",
        -9.64731021629478
      ],
      [
        "Ġdeliver",
        -9.649613025036144
      ],
      [
        "written",
        -9.649896308499748
      ],
      [
        "Now",
        -9.650109425584194
      ],
      [
        "Ġsevere",
        -9.65013640220004
      ],
      [
        "Ġvegetables",
        -9.65148326191631
      ],
      [
        "Ġweb",
        -9.651579758364976
      ],
      [
        "Ġdrawing",
        -9.651916357565892
      ],
      [
        "Ġcatch",
        -9.652055055657412
      ],
      [
        "ĠNow",
        -9.65235362326933
      ],
      [
        "Ġround",
        -9.652578727608756
      ],
      [
        "Ġfinish",
        -9.652839043302322
      ],
      [
        "Ġsweet",
        -9.653281759074776
      ],
      [
        "Ġmouth",
        -9.653391993373823
      ],
      [
        "ĠState",
        -9.653600032311337
      ],
      [
        "ĠCo",
        -9.653993065122354
      ],
      [
        "ure",
        -9.654103260771242
      ],
      [
        "cal",
        -9.654778410059112
      ],
      [
        "ĠLa",
        -9.655184050111004
      ],
      [
        "Ġpanel",
        -9.655388278067264
      ],
      [
        "Ġsuitabl",
        -9.655849636789352
      ],
      [
        "ĠPlant",
        -9.656812211157192
      ],
      [
        "Ġconcentration",
        -9.65817042724956
      ],
      [
        "Ġjoint",
        -9.65847465580778
      ],
      [
        "ĠLet",
        -9.658484788468009
      ],
      [
        "Ġwonder",
        -9.658828145068274
      ],
      [
        "Ġmechanism",
        -9.65946011002029
      ],
      [
        "ĠMay",
        -9.659549021486344
      ],
      [
        "Ġideas",
        -9.660503331605168
      ],
      [
        "Ġanti",
        -9.661279706918286
      ],
      [
        "Ġdynamic",
        -9.661351006030532
      ],
      [
        "Ġcommunit",
        -9.66224920326087
      ],
      [
        "alone",
        -9.662267767044654
      ],
      [
        "ru",
        -9.66253913847597
      ],
      [
        "Ġforms",
        -9.66275072798531
      ],
      [
        "With",
        -9.664932527539069
      ],
      [
        "Ġolder",
        -9.66547239220521
      ],
      [
        "Ġclaim",
        -9.665929627000049
      ],
      [
        "Ġoperat",
        -9.666590922298084
      ],
      [
        "ĠLake",
        -9.666657524236498
      ],
      [
        "Ġattempt",
        -9.667154629362797
      ],
      [
        "ler",
        -9.667329709359038
      ],
      [
        "Ġscreen",
        -9.668767087318637
      ],
      [
        "Ġfund",
        -9.668897833555944
      ],
      [
        "Ġerror",
        -9.669730806963964
      ],
      [
        "water",
        -9.670723016813067
      ],
      [
        "ily",
        -9.670980280047738
      ],
      [
        "Ġexpress",
        -9.671260249343534
      ],
      [
        "Ġexpensive",
        -9.67232127004019
      ],
      [
        "Ġpredict",
        -9.672411837570865
      ],
      [
        "Ġcross",
        -9.672491640167426
      ],
      [
        "ĠMake",
        -9.676757367791492
      ],
      [
        "Ġfair",
        -9.67752045294398
      ],
      [
        "Ġtexture",
        -9.677732104097
      ],
      [
        "Ġsort",
        -9.677830689559514
      ],
      [
        "Ġheavy",
        -9.678400430713047
      ],
      [
        "Ġpurchase",
        -9.679380896217204
      ],
      [
        "Be",
        -9.680222014048269
      ],
      [
        "ought",
        -9.685148302632015
      ],
      [
        "Ġstuff",
        -9.685338438011769
      ],
      [
        "No",
        -9.68557068420084
      ],
      [
        "came",
        -9.685782626694651
      ],
      [
        "ĠOf",
        -9.686075298960745
      ],
      [
        "Ġlens",
        -9.68701683394582
      ],
      [
        "Ġaccept",
        -9.688109505550258
      ],
      [
        "Ġcomfortabl",
        -9.688997584104548
      ],
      [
        "Ġdefine",
        -9.689213622743484
      ],
      [
        "Ġflat",
        -9.68922052031605
      ],
      [
        "Ġsport",
        -9.68938679608518
      ],
      [
        "Ġmedium",
        -9.69073705745981
      ],
      [
        "Ġwire",
        -9.692039209496787
      ],
      [
        "Ġthousand",
        -9.693229572635213
      ],
      [
        "ĠCar",
        -9.69412124941072
      ],
      [
        "Ġprevious",
        -9.694798357950075
      ],
      [
        "way",
        -9.695222350765718
      ],
      [
        "Ġmeaning",
        -9.696407120094673
      ],
      [
        "uc",
        -9.696717561777024
      ],
      [
        "Ġdepth",
        -9.696987269694636
      ],
      [
        "Ġcard",
        -9.697245001866609
      ],
      [
        "Ġfamili",
        -9.698080224439906
      ],
      [
        "ĠWater",
        -9.699586521667218
      ],
      [
        "Ġsteel",
        -9.701188529957328
      ],
      [
        "mp",
        -9.70296924443007
      ],
      [
        "Ġpropert",
        -9.703588105450214
      ],
      [
        "Ġrefer",
        -9.705427989878784
      ],
      [
        "Ġphase",
        -9.705524069749805
      ],
      [
        "hi",
        -9.705656394373417
      ],
      [
        "Ġdriv",
        -9.7061515470028
      ],
      [
        "Ġreported",
        -9.70631027673631
      ],
      [
        "ĠDay",
        -9.708166648140285
      ],
      [
        "Ġload",
        -9.711253671881863
      ],
      [
        "ĠFirst",
        -9.712936937639018
      ],
      [
        "Ġdrop",
        -9.714419800524071
      ],
      [
        "Ġonto",
        -9.71453280214368
      ],
      [
        "ize",
        -9.714581915391944
      ],
      [
        "ĠEnglish",
        -9.714851440635067
      ],
      [
        "Ġearth",
        -9.715622154532843
      ],
      [
        "Ġtechnologies",
        -9.71666876552674
      ],
      [
        "Ġsociet",
        -9.717300921179126
      ],
      [
        "Ġcoming",
        -9.71905390931238
      ],
      [
        "Ġwindow",
        -9.71954269171473
      ],
      [
        "Ġstand",
        -9.721217775850342
      ],
      [
        "Ġcarrie",
        -9.721700724690765
      ],
      [
        "Ġpot",
        -9.722620624941005
      ],
      [
        "Ġfail",
        -9.72268477476203
      ],
      [
        "Ġmatch",
        -9.72281666532859
      ],
      [
        "Ġstates",
        -9.723627067120848
      ],
      [
        "ĠâĢ¦",
        -9.723862608258088
      ],
      [
        "Ġsuit",
        -9.724728012386642
      ],
      [
        "Ġsuper",
        -9.725574623061092
      ],
      [
        "ĠOnc",
        -9.725991694000566
      ],
      [
        "Ġnoise",
        -9.727491913812305
      ],
      [
        "ĠCa",
        -9.727614921091812
      ],
      [
        "Ġsurrounding",
        -9.727872252390956
      ],
      [
        "Ġfinancial",
        -9.728179306108968
      ],
      [
        "Ġreveal",
        -9.728184720054225
      ],
      [
        "Ġblade",
        -9.72822132931428
      ],
      [
        "They",
        -9.728315426139217
      ],
      [
        "Ġaren",
        -9.728462961767985
      ],
      [
        "Ġsmooth",
        -9.728597516543168
      ],
      [
        "-in",
        -9.729742700173691
      ],
      [
        "Ġsell",
        -9.73156324368492
      ],
      [
        "Ġplanet",
        -9.734402936502704
      ],
      [
        "Ġgrass",
        -9.73467617107238
      ],
      [
        "ĠMo",
        -9.735804920254886
      ],
      [
        "Ġroll",
        -9.73603068380404
      ],
      [
        "can",
        -9.736139612362082
      ],
      [
        "Ġsmell",
        -9.73644550315295
      ],
      [
        "Ġbasi",
        -9.737566885776278
      ],
      [
        "ĠAccording",
        -9.74180548735585
      ],
      [
        "Ġinsight",
        -9.74238208621708
      ],
      [
        "Ġmiss",
        -9.742601064292046
      ],
      [
        "Ġhapp",
        -9.745848375744686
      ],
      [
        "Ġbroad",
        -9.746328536123515
      ],
      [
        "Ġdrug",
        -9.747266427924384
      ],
      [
        "Ġhydrogen",
        -9.747539442906074
      ],
      [
        "Ġsymbol",
        -9.74796323071966
      ],
      [
        "Ġwar",
        -9.749547972104365
      ],
      [
        "Ġevolution",
        -9.749663625939233
      ],
      [
        "Ġoutcome",
        -9.750588833049154
      ],
      [
        "Ġca",
        -9.750663385434573
      ],
      [
        "gen",
        -9.75216791307527
      ],
      [
        "Ġhit",
        -9.754487077187878
      ],
      [
        "Ġfight",
        -9.754994740172233
      ],
      [
        "Ġcontainer",
        -9.756106623199884
      ],
      [
        "ĠEx",
        -9.75627084011094
      ],
      [
        "Ġphotograph",
        -9.756734361127265
      ],
      [
        "About",
        -9.757255608806116
      ],
      [
        "Ġchallenge",
        -9.757575199768672
      ],
      [
        "ĠUs",
        -9.757631681263696
      ],
      [
        "Ġmen",
        -9.761010217034729
      ],
      [
        "za",
        -9.761158880898428
      ],
      [
        "ĠOver",
        -9.761183218065511
      ],
      [
        "Ġmotion",
        -9.761359488586002
      ],
      [
        "ĠEven",
        -9.761565381110287
      ],
      [
        "Ġvoltage",
        -9.761599948195974
      ],
      [
        "held",
        -9.762114782939085
      ],
      [
        "Ġconsumer",
        -9.762865854094198
      ],
      [
        "Ġassessment",
        -9.764632078109472
      ],
      [
        "Ġimmune",
        -9.765422005349585
      ],
      [
        "Ġabsorb",
        -9.765738396896632
      ],
      [
        "Ġupdate",
        -9.76576421810352
      ],
      [
        "Ġorganization",
        -9.766620174749406
      ],
      [
        "Ġcontroll",
        -9.766990108241853
      ],
      [
        "Ġspeak",
        -9.76764063763991
      ],
      [
        "Ġhuge",
        -9.76788253244202
      ],
      [
        "Ġdouble",
        -9.768106251414093
      ],
      [
        "Ġrecognize",
        -9.76848870649608
      ],
      [
        "Ġfunctions",
        -9.770973287946884
      ],
      [
        "Ġattach",
        -9.772802915466896
      ],
      [
        "On",
        -9.77306345746145
      ],
      [
        "ern",
        -9.773613995450017
      ],
      [
        "Ġdegrees",
        -9.773769614017418
      ],
      [
        "body",
        -9.77412294283074
      ],
      [
        "Ġbright",
        -9.775937203380934
      ],
      [
        "Ġhabitat",
        -9.77711164168466
      ],
      [
        "Ġexpand",
        -9.778720659873354
      ],
      [
        "Ġbiological",
        -9.778945915300287
      ],
      [
        "Ġgames",
        -9.779680580956253
      ],
      [
        "Ġauto",
        -9.780063770835284
      ],
      [
        "Ġprogress",
        -9.780675572230752
      ],
      [
        "Ġpractical",
        -9.781552694148024
      ],
      [
        "efore",
        -9.784042837739785
      ],
      [
        "ĠRNA",
        -9.78415342756373
      ],
      [
        "Ġrespond",
        -9.785607741565055
      ],
      [
        "Ġregions",
        -9.786769837032065
      ],
      [
        "ĠNOT",
        -9.787214028356106
      ],
      [
        "Ġperspective",
        -9.78735145603314
      ],
      [
        "ĠWar",
        -9.788275339117895
      ],
      [
        "Ġpieces",
        -9.789673118061197
      ],
      [
        "Ġmeasures",
        -9.789762534747227
      ],
      [
        "Ġheight",
        -9.790236213055936
      ],
      [
        "Ġadvantage",
        -9.79032543749532
      ],
      [
        "ists",
        -9.792171868028149
      ],
      [
        "ĠOther",
        -9.792670954135096
      ],
      [
        ".com",
        -9.793584152371144
      ],
      [
        "Ġnational",
        -9.793779615639544
      ],
      [
        "Ġclick",
        -9.79444045760819
      ],
      [
        "Ġsecure",
        -9.795206666118302
      ],
      [
        "Ġcon",
        -9.795853719975096
      ],
      [
        "Ġsurvey",
        -9.79609787482009
      ],
      [
        "Ġsaw",
        -9.796619776174776
      ],
      [
        "ang",
        -9.797252400745364
      ],
      [
        "Ġdemonstrate",
        -9.797999349037124
      ],
      [
        "Ġimprov",
        -9.798976092215678
      ],
      [
        "fully",
        -9.799586433536405
      ],
      [
        "ĠService",
        -9.800346115523968
      ],
      [
        "Ġsp",
        -9.800680601229558
      ],
      [
        "Ġmedicine",
        -9.800857354386494
      ],
      [
        "tiny",
        -9.801987997864265
      ],
      [
        "ĠDi",
        -9.802194215161457
      ],
      [
        "Ġsurvive",
        -9.803156499506125
      ],
      [
        "ke",
        -9.803597466164623
      ],
      [
        "Ġtransform",
        -9.803859051442588
      ],
      [
        "ĠUK",
        -9.804765661534152
      ],
      [
        "Ġcategor",
        -9.804853934484775
      ],
      [
        "Ġbackground",
        -9.805169607014829
      ],
      [
        "Ġteaching",
        -9.805213577772104
      ],
      [
        "Ġmaximu",
        -9.805605603976442
      ],
      [
        "Ġlearned",
        -9.805707002173436
      ],
      [
        "Ġcapture",
        -9.806901970521466
      ],
      [
        "Ġinternational",
        -9.807883728172246
      ],
      [
        "Ġvoice",
        -9.807895997486671
      ],
      [
        "|",
        -9.808064369080125
      ],
      [
        "Ġaffected",
        -9.808547846468652
      ],
      [
        "Ġopportunit",
        -9.80881948466413
      ],
      [
        "Ġappearance",
        -9.809547608730991
      ],
      [
        "Ġhole",
        -9.81010773623493
      ],
      [
        "ĠSa",
        -9.81045798229151
      ],
      [
        "ious",
        -9.810618859045029
      ],
      [
        "Ġnumer",
        -9.810642697082304
      ],
      [
        "Ġmeasurement",
        -9.81129866724458
      ],
      [
        "Ġcommand",
        -9.812261341196358
      ],
      [
        "Ġinches",
        -9.812628160085843
      ],
      [
        "Ġstructures",
        -9.812806325902056
      ],
      [
        "Ġwanted",
        -9.813288041458112
      ],
      [
        "Ġbirth",
        -9.813304473919768
      ],
      [
        "Ġexcellent",
        -9.813823603065192
      ],
      [
        "pro",
        -9.81531992453512
      ],
      [
        "ĠGo",
        -9.815328438518812
      ],
      [
        "Ġmember",
        -9.815457252119046
      ],
      [
        "Ġgrade",
        -9.815635386305516
      ],
      [
        "That",
        -9.815879634045498
      ],
      [
        "Ġmixture",
        -9.817012995176611
      ],
      [
        "Ġchain",
        -9.817091888681064
      ],
      [
        "Ġvi",
        -9.818985890534162
      ],
      [
        ".[",
        -9.819110699059088
      ],
      [
        "Ġconservation",
        -9.81921522730537
      ],
      [
        "Ġcit",
        -9.81980831767163
      ],
      [
        "Ġecosystem",
        -9.819811090670887
      ],
      [
        "Ġfarmer",
        -9.820091459623209
      ],
      [
        "Ġdriver",
        -9.820428377409783
      ],
      [
        "ĠInstitute",
        -9.820531905434317
      ],
      [
        "Ġex",
        -9.821143520242297
      ],
      [
        ".)Ċ",
        -9.82138608244635
      ],
      [
        "Ġassist",
        -9.821563641859193
      ],
      [
        "ward",
        -9.822291458639931
      ],
      [
        "Ġmanual",
        -9.822814447741417
      ],
      [
        "Ġshade",
        -9.823171195970978
      ],
      [
        "ĠCalifornia",
        -9.82438415691809
      ],
      [
        "ĠDur",
        -9.82676907578714
      ],
      [
        "Ġselection",
        -9.827031346455168
      ],
      [
        "Ġcup",
        -9.827206576301176
      ],
      [
        "ities",
        -9.827435798346707
      ],
      [
        "ĠPa",
        -9.828080038640476
      ],
      [
        "Ġ|",
        -9.829329004439444
      ],
      [
        "der",
        -9.830137036796833
      ],
      [
        "pp",
        -9.8306381507952
      ],
      [
        "Ġstock",
        -9.830820516420989
      ],
      [
        "let",
        -9.831144966290426
      ],
      [
        "Ġcore",
        -9.831319303065335
      ],
      [
        "Ġbottle",
        -9.831880621415817
      ],
      [
        "Ġcapabilit",
        -9.831891019481416
      ],
      [
        "Ġstaff",
        -9.832918097706806
      ],
      [
        "Ġvaluable",
        -9.83532990064026
      ],
      [
        "Ġenzyme",
        -9.835804851514109
      ],
      [
        "are",
        -9.836148839799858
      ],
      [
        "Ġmotor",
        -9.83625267654348
      ],
      [
        "Ġshell",
        -9.836426784773268
      ],
      [
        "Ġeconomic",
        -9.837799203291809
      ],
      [
        "Ġsession",
        -9.837958048914889
      ],
      [
        "ative",
        -9.838271837858128
      ],
      [
        "ĠPer",
        -9.842765495583844
      ],
      [
        "Ġinform",
        -9.84276597491426
      ],
      [
        "Ġexamples",
        -9.84469052023438
      ],
      [
        "Ġcoast",
        -9.845242958093618
      ],
      [
        "Ġoffice",
        -9.845626738443071
      ],
      [
        "ctober",
        -9.847272207004073
      ],
      [
        "Ġroutine",
        -9.847842768538293
      ],
      [
        "Ġclasses",
        -9.848045658017078
      ],
      [
        "Ġlegal",
        -9.84914450200838
      ],
      [
        "ile",
        -9.849444247184575
      ],
      [
        "Ġbodie",
        -9.849923887695786
      ],
      [
        "ran",
        -9.85018011208345
      ],
      [
        "Ġequation",
        -9.850246400798811
      ],
      [
        "ĠLi",
        -9.85255322721356
      ],
      [
        "ĠMicro",
        -9.853090270397674
      ],
      [
        "Ġbillion",
        -9.85391911620216
      ],
      [
        "bi",
        -9.854120093432606
      ],
      [
        "Ġplease",
        -9.8541661545885
      ],
      [
        "Ġshift",
        -9.855288277270027
      ],
      [
        "Ġpossibilit",
        -9.85644795121867
      ],
      [
        "Ġwildlif",
        -9.85705708473331
      ],
      [
        "Ġannual",
        -9.857364147812405
      ],
      [
        "Ġoptimal",
        -9.857793346956344
      ],
      [
        "men",
        -9.858037854054402
      ],
      [
        "Ġblog",
        -9.858366625496656
      ],
      [
        "Ġparticipant",
        -9.85956321544289
      ],
      [
        "Ġflood",
        -9.859566325977408
      ],
      [
        "ĠTherefor",
        -9.859567573136143
      ],
      [
        "Ġdangerous",
        -9.859711792668053
      ],
      [
        "ĠPark",
        -9.86068981076567
      ],
      [
        "Ġemergenc",
        -9.860719891197842
      ],
      [
        "Ġyield",
        -9.861041090647582
      ],
      [
        "Ġcreative",
        -9.861061811477429
      ],
      [
        "Ġactual",
        -9.86114437152525
      ],
      [
        "Ġsports",
        -9.862042235393382
      ],
      [
        "ĠNa",
        -9.862325553383611
      ],
      [
        "Ġeventual",
        -9.86271302503832
      ],
      [
        "Ġapproximate",
        -9.862714656829615
      ],
      [
        "Ġfabric",
        -9.862739927649065
      ],
      [
        "-free",
        -9.86345553196958
      ],
      [
        "Ġhabit",
        -9.863721290061688
      ],
      [
        "ĠBa",
        -9.864612573951204
      ],
      [
        "Ġbreed",
        -9.86535304019817
      ],
      [
        "Ġbooks",
        -9.865423511405425
      ],
      [
        "Ġcentral",
        -9.865949410844346
      ],
      [
        "-like",
        -9.867001546160743
      ],
      [
        "Ġraw",
        -9.867983755794418
      ],
      [
        "Ġthin",
        -9.868153327996254
      ],
      [
        "Ġagent",
        -9.869153594916188
      ],
      [
        "Here",
        -9.869161939445998
      ],
      [
        "Ġtru",
        -9.86920489434064
      ],
      [
        "Ġcoat",
        -9.869268609969623
      ],
      [
        "Ġisland",
        -9.869495327533446
      ],
      [
        "Ġlisten",
        -9.871661928100888
      ],
      [
        "ĠPh",
        -9.871851560765716
      ],
      [
        "Ġcheap",
        -9.872123086915783
      ],
      [
        "Ġcustomer",
        -9.872140353304149
      ],
      [
        "Ġbi",
        -9.873655148352816
      ],
      [
        "ĠLife",
        -9.873966528498354
      ],
      [
        "Ġorgan",
        -9.874061097810564
      ],
      [
        "Man",
        -9.874299271333904
      ],
      [
        "Ġassess",
        -9.875102296805666
      ],
      [
        "Ġstrain",
        -9.875835374213782
      ],
      [
        "Ġmembrane",
        -9.877681746155496
      ],
      [
        "Ġfashion",
        -9.878461409042156
      ],
      [
        "Ġdecade",
        -9.878461910386669
      ],
      [
        "Ġbeginning",
        -9.878510283740262
      ],
      [
        "Ġmanufacturer",
        -9.87937799302923
      ],
      [
        "Ġcomment",
        -9.87984329920968
      ],
      [
        "j",
        -9.879885398208517
      ],
      [
        "ka",
        -9.880650939310373
      ],
      [
        "izing",
        -9.880839211018504
      ],
      [
        "âĢĻt",
        -9.88135640418391
      ],
      [
        "Ġconcrete",
        -9.881646113214764
      ],
      [
        "Ġsquare",
        -9.881647857148796
      ],
      [
        "ĠDepartment",
        -9.88250362630712
      ],
      [
        "Ġfeeding",
        -9.882569654373384
      ],
      [
        "ĠDon",
        -9.88336097836026
      ],
      [
        "Ġpress",
        -9.884012483981252
      ],
      [
        "Ġatmosphere",
        -9.88459006999554
      ],
      [
        "Ġadvice",
        -9.884841139320162
      ],
      [
        "Ġreduction",
        -9.885132120208358
      ],
      [
        "Ġatom",
        -9.88521068186633
      ],
      [
        "king",
        -9.88557621675593
      ],
      [
        "ology",
        -9.886268971713797
      ],
      [
        "Ġprocessing",
        -9.887022374677835
      ],
      [
        "lin",
        -9.887161184595003
      ],
      [
        "Ġhour",
        -9.887453412641625
      ],
      [
        "Ġobserve",
        -9.887785324432087
      ],
      [
        "Ġcomprehensive",
        -9.888047436934997
      ],
      [
        "Ġtransfer",
        -9.88805260824505
      ],
      [
        "Ġartist",
        -9.88842468713728
      ],
      [
        "ĠJust",
        -9.888896956149432
      ],
      [
        "Ġchemicals",
        -9.889671734343192
      ],
      [
        "Ġearlie",
        -9.89066589591306
      ],
      [
        "Ġobserv",
        -9.891223168373129
      ],
      [
        "Ġangle",
        -9.891607826328425
      ],
      [
        "After",
        -9.892124086468352
      ],
      [
        "Ġroots",
        -9.893335686916195
      ],
      [
        "Ġskill",
        -9.893810549001936
      ],
      [
        "ĠSince",
        -9.894179070967866
      ],
      [
        "Ġrid",
        -9.894778163238996
      ],
      [
        "Our",
        -9.89606119743785
      ],
      [
        "Ġlung",
        -9.89776634207319
      ],
      [
        "ĠAfrica",
        -9.898099741854624
      ],
      [
        "Ġstandards",
        -9.898489070532577
      ],
      [
        "related",
        -9.898730093201737
      ],
      [
        "Ġschedule",
        -9.898978080562893
      ],
      [
        "Ġmiles",
        -9.89930099694266
      ],
      [
        "ĠIndia",
        -9.89937858479914
      ],
      [
        "Ġrates",
        -9.90052657945918
      ],
      [
        "Ġclassroom",
        -9.90102419297402
      ],
      [
        "ĠRa",
        -9.901028332540104
      ],
      [
        "off",
        -9.901454406743438
      ],
      [
        "Ġnice",
        -9.9018216908553
      ],
      [
        "con",
        -9.90289888640125
      ],
      [
        "stock",
        -9.903171638585428
      ],
      [
        "like",
        -9.90379598115987
      ],
      [
        "Ġhundred",
        -9.904227701553866
      ],
      [
        "Ġantibiotic",
        -9.904240714510024
      ],
      [
        "Ġfilm",
        -9.904362717161296
      ],
      [
        "Ġdoor",
        -9.904550185185837
      ],
      [
        "our",
        -9.905270971722151
      ],
      [
        "ĠpH",
        -9.905345038261856
      ],
      [
        "#",
        -9.905370648012076
      ],
      [
        "Ġplaces",
        -9.90580752783885
      ],
      [
        "Ġcomfort",
        -9.907417539114764
      ],
      [
        "ĠFood",
        -9.907734317572707
      ],
      [
        "qua",
        -9.908746368493336
      ],
      [
        "Ġfossil",
        -9.910774502946357
      ],
      [
        "Ġlaunch",
        -9.91077476566716
      ],
      [
        "Ġsounds",
        -9.911158531336476
      ],
      [
        "Ġcloud",
        -9.911994821781697
      ],
      [
        "Ġresident",
        -9.9122676611787
      ],
      [
        "ide",
        -9.912616675739484
      ],
      [
        "Ġtea",
        -9.913365158843613
      ],
      [
        "Ġphotos",
        -9.91347974574062
      ],
      [
        "Ġexternal",
        -9.914063934321469
      ],
      [
        "Ġbroke",
        -9.914146499489457
      ],
      [
        "Ġintroduce",
        -9.916280400399993
      ],
      [
        "Ġemotion",
        -9.916509168144078
      ],
      [
        "wide",
        -9.916699429488856
      ],
      [
        "ner",
        -9.916972578851656
      ],
      [
        "Ġrace",
        -9.91718809705625
      ],
      [
        "Ġfavorite",
        -9.917430431267878
      ],
      [
        "Ġmarine",
        -9.917494632875512
      ],
      [
        "Ġphoto",
        -9.918361023543254
      ],
      [
        "Ġtrip",
        -9.918853324499077
      ],
      [
        "Ġprefer",
        -9.91937082712334
      ],
      [
        "ĠRo",
        -9.919670714340567
      ],
      [
        "q",
        -9.920308146071733
      ],
      [
        "Ġdistribution",
        -9.920870311819735
      ],
      [
        "ER",
        -9.921633550482165
      ],
      [
        "Ġmid",
        -9.922385854061217
      ],
      [
        "Ġtopic",
        -9.922658061439762
      ],
      [
        "Ġstraight",
        -9.923574225488828
      ],
      [
        "Ġassociat",
        -9.925368602344296
      ],
      [
        "ible",
        -9.926974888006674
      ],
      [
        "Ġdiagram",
        -9.927331103803866
      ],
      [
        "Ġblend",
        -9.927793247495089
      ],
      [
        "Ġartificial",
        -9.927812123078144
      ],
      [
        "Ġinstructions",
        -9.927946769053587
      ],
      [
        "Ġbio",
        -9.928198001040236
      ],
      [
        "Ġsolve",
        -9.928485270470652
      ],
      [
        "Ġvirtual",
        -9.93067549677114
      ],
      [
        "Ġaudio",
        -9.930679271020423
      ],
      [
        "Ġreliabl",
        -9.93076004007718
      ],
      [
        "Ġsnow",
        -9.93089406860447
      ],
      [
        "lost",
        -9.93105766990858
      ],
      [
        "Ġlab",
        -9.933787745652156
      ],
      [
        "ĠAustralia",
        -9.933806515127436
      ],
      [
        "ĠRiver",
        -9.934035656561116
      ],
      [
        "Ġtransition",
        -9.934256299621612
      ],
      [
        "He",
        -9.934597655888084
      ],
      [
        "Ġnest",
        -9.93466970691183
      ],
      [
        "Ġchalleng",
        -9.934974110796826
      ],
      [
        "which",
        -9.936069122414686
      ],
      [
        "light",
        -9.93700852589993
      ],
      [
        "ĠStudent",
        -9.93836895864288
      ],
      [
        "Ġindustrial",
        -9.93865041843733
      ],
      [
        "Ġdimension",
        -9.939255313214185
      ],
      [
        "Ġcontrast",
        -9.940776608751982
      ],
      [
        "Ã©",
        -9.94207691066855
      ],
      [
        "ĠYork",
        -9.94345459129232
      ],
      [
        "Ġinterface",
        -9.944166506589632
      ],
      [
        "Ġsheet",
        -9.94424974828586
      ],
      [
        "Ġbutton",
        -9.944435902478531
      ],
      [
        "Ġbike",
        -9.94611302107657
      ],
      [
        "ification",
        -9.947286594528483
      ],
      [
        "ak",
        -9.947567050671982
      ],
      [
        "Ġconclusion",
        -9.94756777421982
      ],
      [
        "Ġinternet",
        -9.947607337178596
      ],
      [
        "Ġdegree",
        -9.947677728168358
      ],
      [
        "Ġemotional",
        -9.948498629753509
      ],
      [
        "Ġpack",
        -9.948774097325488
      ],
      [
        "Ġinter",
        -9.949402585275667
      ],
      [
        "Ġelectronic",
        -9.94948420485972
      ],
      [
        "Ġcustomers",
        -9.949568273748149
      ],
      [
        "Ġboat",
        -9.950768675735311
      ],
      [
        "Ġinvestment",
        -9.95123234575113
      ],
      [
        "ĠEvery",
        -9.951701193465649
      ],
      [
        "All",
        -9.951851125125923
      ],
      [
        "Ġcalculate",
        -9.953808712988408
      ],
      [
        "Ġfan",
        -9.954138328471483
      ],
      [
        "Ġbeneficial",
        -9.954405401033014
      ],
      [
        "Ġchocolate",
        -9.954405404863683
      ],
      [
        "Ġsnail",
        -9.954406958430624
      ],
      [
        "Ġfear",
        -9.954602067639428
      ],
      [
        "Ġsector",
        -9.954657530918608
      ],
      [
        "Ġtypical",
        -9.954910023123713
      ],
      [
        "Ġdiscussion",
        -9.956387104945458
      ],
      [
        "nd",
        -9.956846463062243
      ],
      [
        "Ġmeasur",
        -9.959422073969714
      ],
      [
        "-be",
        -9.960589259325833
      ],
      [
        "ĠEuropean",
        -9.963754439576483
      ],
      [
        "ĠEducation",
        -9.96381021141582
      ],
      [
        "Ġspin",
        -9.963923632250795
      ],
      [
        "Ġeducational",
        -9.964110667477856
      ],
      [
        "Ġorganisms",
        -9.964520829424814
      ],
      [
        "Ġindependent",
        -9.964750784502364
      ],
      [
        "ĠAir",
        -9.96667283766804
      ],
      [
        "Ġcharacter",
        -9.967216190009507
      ],
      [
        "Ġthick",
        -9.967404738115665
      ],
      [
        "Ġmelt",
        -9.968317864107236
      ],
      [
        "itis",
        -9.96909083539894
      ],
      [
        "hu",
        -9.969973771019225
      ],
      [
        "Ġthreat",
        -9.971280367164963
      ],
      [
        "Ġshar",
        -9.971282818440407
      ],
      [
        "Ġallerg",
        -9.971328030802898
      ],
      [
        "Ġsit",
        -9.971446837413788
      ],
      [
        "Ġstorie",
        -9.971771427824471
      ],
      [
        "kept",
        -9.971880423627892
      ],
      [
        "Ġrespect",
        -9.972061718731345
      ],
      [
        "Ġtrust",
        -9.97206796786071
      ],
      [
        "Ġoperate",
        -9.972078456918748
      ],
      [
        "Ġformation",
        -9.972579063742524
      ],
      [
        "Ġhazard",
        -9.973002889788267
      ],
      [
        "Ġremoved",
        -9.978475696845509
      ],
      [
        "Ġstation",
        -9.978799866841486
      ],
      [
        "ĠHa",
        -9.97954723656313
      ],
      [
        "Ġten",
        -9.98051260067458
      ],
      [
        "Ġgoals",
        -9.981502626682929
      ],
      [
        "Ġvariation",
        -9.982233495953276
      ],
      [
        "Ġlake",
        -9.982300237470223
      ],
      [
        "Ġfailure",
        -9.9823183878327
      ],
      [
        "how",
        -9.982539149846216
      ],
      [
        "visible",
        -9.982831809132096
      ],
      [
        "Ġguid",
        -9.983499730905027
      ],
      [
        "ĠSea",
        -9.98633594836614
      ],
      [
        "wa",
        -9.986501642862724
      ],
      [
        "Ġportion",
        -9.986610639541905
      ],
      [
        "Ġdis",
        -9.988611577690026
      ],
      [
        "ium",
        -9.989272743858308
      ],
      [
        "Ġgear",
        -9.989304942060086
      ],
      [
        "Ġtrigger",
        -9.98931300062193
      ],
      [
        "Ġcomposition",
        -9.989366400504348
      ],
      [
        "ster",
        -9.989373961812303
      ],
      [
        "Ġharmful",
        -9.989430261666875
      ],
      [
        "Ġweld",
        -9.989538647866258
      ],
      [
        "ze",
        -9.989900300400638
      ],
      [
        "Ġratio",
        -9.990301427862342
      ],
      [
        "Ġbreast",
        -9.990760879120604
      ],
      [
        "Ġoutdoor",
        -9.990767182061312
      ],
      [
        "har",
        -9.990843165171096
      ],
      [
        "Ġarrow",
        -9.99182720933639
      ],
      [
        "Ġattract",
        -9.992660831430676
      ],
      [
        "Ġheal",
        -9.992765454366175
      ],
      [
        "Ġgenome",
        -9.992872552669713
      ],
      [
        "Ġkitchen",
        -9.992876197409318
      ],
      [
        "Ġzone",
        -9.992908166121028
      ],
      [
        "Ġoffering",
        -9.993236207998194
      ],
      [
        "ĠFurther",
        -9.994089167722592
      ],
      [
        "ory",
        -9.994456373248005
      ],
      [
        "Ġcompost",
        -9.994729593813528
      ],
      [
        "che",
        -9.996160272346843
      ],
      [
        "Ġtransmission",
        -9.996466283998998
      ],
      [
        "Ġmold",
        -9.996518852661866
      ],
      [
        "Ġtooth",
        -9.996729174982818
      ],
      [
        "Ġextract",
        -9.997027060727085
      ],
      [
        "Ġpregnanc",
        -9.997130399538555
      ],
      [
        "gu",
        -9.99780631877844
      ],
      [
        "Ġlay",
        -9.998842164437985
      ],
      [
        "Ġcultural",
        -9.99905788827648
      ],
      [
        "ĠRead",
        -9.999331159668916
      ],
      [
        "Ġinnovation",
        -10.000027307469164
      ],
      [
        "Ġharvest",
        -10.000027334388404
      ],
      [
        "Ġgenerat",
        -10.000035671095253
      ],
      [
        "Ġpolluti",
        -10.00045678028842
      ],
      [
        "Ġteach",
        -10.000647491335048
      ],
      [
        "Ġmanag",
        -10.000752057063032
      ],
      [
        "Ġwalls",
        -10.001155632065672
      ],
      [
        "Ġprivate",
        -10.002515637733318
      ],
      [
        "AR",
        -10.003704930268723
      ],
      [
        "what",
        -10.004048924034691
      ],
      [
        "Ġobvious",
        -10.004316715734676
      ],
      [
        "but",
        -10.005002737784856
      ],
      [
        "Ġinvest",
        -10.005049604815866
      ],
      [
        "tely",
        -10.006395849423184
      ],
      [
        "Ġcreation",
        -10.006461930912913
      ],
      [
        "RE",
        -10.00777806002295
      ],
      [
        "oid",
        -10.008700704961717
      ],
      [
        "Ġaircraft",
        -10.009377017631016
      ],
      [
        "ĠPeople",
        -10.010695947304296
      ],
      [
        "Ġcarefully",
        -10.011928981211074
      ],
      [
        "ose",
        -10.012175352265768
      ],
      [
        "ong",
        -10.01248628732217
      ],
      [
        "that",
        -10.012617270850663
      ],
      [
        "Ġregulator",
        -10.012726105144448
      ],
      [
        "Ġwave",
        -10.012818800535197
      ],
      [
        "Ġmap",
        -10.012972049706098
      ],
      [
        "Ġflu",
        -10.013224958728207
      ],
      [
        "Ġultimate",
        -10.014494083305326
      ],
      [
        "ĠKeep",
        -10.01479372748657
      ],
      [
        "Ġrelevan",
        -10.015441164913977
      ],
      [
        "Ġinstallation",
        -10.01561583404892
      ],
      [
        "fer",
        -10.015651971335435
      ],
      [
        "Ġcream",
        -10.015688284668157
      ],
      [
        "latest",
        -10.019140705050344
      ],
      [
        "mas",
        -10.019430431420895
      ],
      [
        "Ġlitera",
        -10.020169249145692
      ],
      [
        "Ġjump",
        -10.021808313925892
      ],
      [
        "Are",
        -10.021827121249723
      ],
      [
        "ger",
        -10.022137263999491
      ],
      [
        "Ġedit",
        -10.022253281928702
      ],
      [
        "Ġcable",
        -10.022375143626356
      ],
      [
        "Ġletter",
        -10.022672700472851
      ],
      [
        "Ġdigest",
        -10.02294406275493
      ],
      [
        "ĠJohn",
        -10.025358463202425
      ],
      [
        "Ġagriculture",
        -10.025483236380126
      ],
      [
        "Ġgirl",
        -10.025486861015676
      ],
      [
        "ĠUn",
        -10.025876742911985
      ],
      [
        "Ġreward",
        -10.025912872967464
      ],
      [
        "Ġgap",
        -10.026661547379984
      ],
      [
        "Ġurban",
        -10.027499614145484
      ],
      [
        "Ġband",
        -10.027718559790909
      ],
      [
        "ight",
        -10.028181296280358
      ],
      [
        "Ġinteract",
        -10.028426665402186
      ],
      [
        "told",
        -10.028677468284222
      ],
      [
        "-quality",
        -10.029173234195712
      ],
      [
        "Ġpounds",
        -10.029626035791328
      ],
      [
        "Ġwaves",
        -10.030812810207854
      ],
      [
        "ĠWell",
        -10.031352113311344
      ],
      [
        "Ġpad",
        -10.031430252524537
      ],
      [
        "Ġscore",
        -10.031483466451276
      ],
      [
        "ick",
        -10.031630472628816
      ],
      [
        "Ġowner",
        -10.032872244349669
      ],
      [
        "Ġmorning",
        -10.032876998847106
      ],
      [
        "Ġfundamental",
        -10.03287707632568
      ],
      [
        "Ġdioxide",
        -10.03290837383355
      ],
      [
        "Ġcreature",
        -10.03313433535708
      ],
      [
        "cation",
        -10.03358716829026
      ],
      [
        "Ġlift",
        -10.034062588683224
      ],
      [
        "Ġjoin",
        -10.035762740600733
      ],
      [
        "Ġagree",
        -10.036426610521886
      ],
      [
        "Ġmaster",
        -10.0364337372408
      ],
      [
        "-friendly",
        -10.036600471486404
      ],
      [
        "Ġhunting",
        -10.03863033643947
      ],
      [
        "ST",
        -10.039099644700038
      ],
      [
        "ĠCh",
        -10.039451005488116
      ],
      [
        "Ġarm",
        -10.039903411063928
      ],
      [
        "Ġamazing",
        -10.04032589341622
      ],
      [
        "Ġupper",
        -10.040340922783322
      ],
      [
        "Ġhelpful",
        -10.04047038993454
      ],
      [
        "Ġbleed",
        -10.040767011389748
      ],
      [
        "Ġimprovement",
        -10.041510825121463
      ],
      [
        "Ġdish",
        -10.041856212273665
      ],
      [
        "ell",
        -10.042320388285503
      ],
      [
        "Ġexplor",
        -10.042704771042173
      ],
      [
        "Ġwheel",
        -10.04318126179669
      ],
      [
        "Ġbecom",
        -10.043290591157993
      ],
      [
        "Ġchannel",
        -10.044071087747094
      ],
      [
        "ck",
        -10.04470200761028
      ],
      [
        "Ġbreath",
        -10.046131255795837
      ],
      [
        "ĠAdd",
        -10.046980698823184
      ],
      [
        "ĠMe",
        -10.047103206510704
      ],
      [
        "ĠEurope",
        -10.047419081101612
      ],
      [
        "Ġlie",
        -10.047605736690564
      ],
      [
        "Ġtechnical",
        -10.04783155582659
      ],
      [
        "Ġconsequence",
        -10.047834132157378
      ],
      [
        "Ġabsolute",
        -10.047834832717973
      ],
      [
        "Ġbaking",
        -10.047900777985449
      ],
      [
        "ug",
        -10.04812274657188
      ],
      [
        "Ġrestaurant",
        -10.04836142140664
      ],
      [
        "AL",
        -10.04850185552404
      ],
      [
        "rop",
        -10.048828788716246
      ],
      [
        "-time",
        -10.049108265470691
      ],
      [
        "Ġautomatic",
        -10.050987732513317
      ],
      [
        "Ġdefinition",
        -10.051622874161492
      ],
      [
        "Ġspray",
        -10.051628447173035
      ],
      [
        "immediately",
        -10.052741950714204
      ],
      [
        "ĠBritish",
        -10.05310526945603
      ],
      [
        "Ġengage",
        -10.053575004327222
      ],
      [
        "ja",
        -10.053594656596442
      ],
      [
        "Ġorigin",
        -10.05457551472713
      ],
      [
        "Ġfiles",
        -10.055273525929463
      ],
      [
        "Ġthorough",
        -10.055391935819824
      ],
      [
        "Ġdedicat",
        -10.05540573040513
      ],
      [
        "Ġfirm",
        -10.055407968988089
      ],
      [
        "Ġstomach",
        -10.055492938239489
      ],
      [
        "ular",
        -10.05553552058348
      ],
      [
        "/or",
        -10.056012473954905
      ],
      [
        "Ġregulations",
        -10.056181810100206
      ],
      [
        "Ġassume",
        -10.056222345118304
      ],
      [
        "Ġinteractions",
        -10.05630810982236
      ],
      [
        "Ġstring",
        -10.056777109130806
      ],
      [
        "coming",
        -10.057130643108358
      ],
      [
        "Ġwash",
        -10.057920613434934
      ],
      [
        "ĠWeb",
        -10.057973862294045
      ],
      [
        "Ġexhibit",
        -10.058242466913692
      ],
      [
        "Ġrenewable",
        -10.058267932643808
      ],
      [
        "Ġdetermined",
        -10.059395566652675
      ],
      [
        "Ġcontinuous",
        -10.059395772312453
      ],
      [
        "Ġbatteries",
        -10.059545718520932
      ],
      [
        "ĠKa",
        -10.060116621894434
      ],
      [
        "cognition",
        -10.060240899681876
      ],
      [
        "ham",
        -10.060318424464135
      ],
      [
        "Ġtrial",
        -10.0610576693891
      ],
      [
        "My",
        -10.061152077030606
      ],
      [
        "Ġship",
        -10.062746901352044
      ],
      [
        "ĠEnergy",
        -10.063052502486308
      ],
      [
        "Ġcurve",
        -10.06334473371248
      ],
      [
        "Ġformula",
        -10.064332093664037
      ],
      [
        "Ġconsideration",
        -10.066869711603378
      ],
      [
        "Ġmutation",
        -10.0669522415485
      ],
      [
        "Ġindoor",
        -10.066958694148408
      ],
      [
        "Ġconsist",
        -10.067024836795872
      ],
      [
        "Ġpan",
        -10.068148856225472
      ],
      [
        "rate",
        -10.070071714122893
      ],
      [
        "Ġcontract",
        -10.070337396786698
      ],
      [
        "Ġleak",
        -10.070487509010825
      ],
      [
        "Ġopinion",
        -10.070688913012
      ],
      [
        "Ġplent",
        -10.070693102952136
      ],
      [
        "Ġtwi",
        -10.071459468791248
      ],
      [
        "Ġplanting",
        -10.071468354436853
      ],
      [
        "-year",
        -10.0714958804307
      ],
      [
        "Ġprimari",
        -10.071832662391571
      ],
      [
        "Ġprepare",
        -10.07188008812948
      ],
      [
        "ĠChina",
        -10.072028312046625
      ],
      [
        "Ġpreviously",
        -10.0722570328129
      ],
      [
        "Ġclinical",
        -10.072321709991073
      ],
      [
        "Ġsaving",
        -10.072342456588872
      ],
      [
        "Ġleav",
        -10.072925781015837
      ],
      [
        "ĠTri",
        -10.073146059705918
      ],
      [
        "Ġinner",
        -10.073240063917204
      ],
      [
        "Ġmajority",
        -10.073271723763185
      ],
      [
        "Ġeconom",
        -10.073416025253124
      ],
      [
        "Ġtopics",
        -10.073623096725388
      ],
      [
        "que",
        -10.074048826390646
      ],
      [
        "Ġpainting",
        -10.074607176799784
      ],
      [
        "Ġborder",
        -10.07463753836895
      ],
      [
        "port",
        -10.0746776874018
      ],
      [
        "Ġscene",
        -10.07478073618368
      ],
      [
        "Ġhistorical",
        -10.075215087411571
      ],
      [
        "Ġbill",
        -10.075495366586123
      ],
      [
        "Ġwish",
        -10.075766160536345
      ],
      [
        "Ġconsume",
        -10.076322104633562
      ],
      [
        "ida",
        -10.076642023899772
      ],
      [
        "nflammation",
        -10.078425602126066
      ],
      [
        "Ġvessel",
        -10.078426499558056
      ],
      [
        "Ġsmart",
        -10.078436782862717
      ],
      [
        "Ġmeeting",
        -10.078467876112132
      ],
      [
        "Ġversatil",
        -10.07847511847172
      ],
      [
        "Ġprior",
        -10.078836087260113
      ],
      [
        "Ġweed",
        -10.079413212685756
      ],
      [
        "Ġmo",
        -10.080747465989164
      ],
      [
        "ĠHis",
        -10.082053011407446
      ],
      [
        "ĠMarch",
        -10.08247944672956
      ],
      [
        "Ġcalci",
        -10.083188762326309
      ],
      [
        "ĠGoogle",
        -10.083257475834593
      ],
      [
        "Ġformat",
        -10.084450231808493
      ],
      [
        "ĠAfrican",
        -10.084809779437128
      ],
      [
        "Ġnutrition",
        -10.085308965093676
      ],
      [
        "Ġgift",
        -10.086225434582246
      ],
      [
        "Yes",
        -10.086368728366072
      ],
      [
        "Ġeight",
        -10.08667573758684
      ],
      [
        "kin",
        -10.087183475639169
      ],
      [
        "Ġwouldn",
        -10.087371494233375
      ],
      [
        "ĠCanada",
        -10.087375868271426
      ],
      [
        "Ġminimum",
        -10.090147442967696
      ],
      [
        "Ġmath",
        -10.092127353349976
      ],
      [
        "ĠProgram",
        -10.092134998354815
      ],
      [
        "Ġhormone",
        -10.092619768344132
      ],
      [
        "Ġowners",
        -10.093759334837598
      ],
      [
        "Ġuniverse",
        -10.094088148584056
      ],
      [
        "Ġgrain",
        -10.094106595929896
      ],
      [
        "Ġemployee",
        -10.09413508199776
      ],
      [
        "Ġguidelines",
        -10.094155378117335
      ],
      [
        "Ġexcessive",
        -10.094401237640277
      ],
      [
        "being",
        -10.09495365606437
      ],
      [
        "Ġlayers",
        -10.096167947861789
      ],
      [
        "Ġprinciples",
        -10.096220198741982
      ],
      [
        "Ġsauce",
        -10.096653272296992
      ],
      [
        "ĠGreat",
        -10.097273644813695
      ],
      [
        "Your",
        -10.097399925540309
      ],
      [
        "row",
        -10.0998191325498
      ],
      [
        "Ġfuse",
        -10.1000996615814
      ],
      [
        "rap",
        -10.100301015808766
      ],
      [
        "Ġinstitution",
        -10.102002248911075
      ],
      [
        "Ġpathogen",
        -10.102835516572584
      ],
      [
        "Ġstatement",
        -10.103370349762343
      ],
      [
        "Ġoccurr",
        -10.103806664503916
      ],
      [
        "Ġnamed",
        -10.104042108599929
      ],
      [
        "Ġharm",
        -10.10417902016227
      ],
      [
        "ĠVi",
        -10.10564574410009
      ],
      [
        "Ġgraphic",
        -10.105828606432002
      ],
      [
        "Ġresponsibilit",
        -10.10598631264878
      ],
      [
        "Ġintelligence",
        -10.105995624755035
      ],
      [
        "Ġlaser",
        -10.10617101679384
      ],
      [
        "ĠTake",
        -10.106486959142169
      ],
      [
        "uk",
        -10.10750981763019
      ],
      [
        "ĠMar",
        -10.108492753290603
      ],
      [
        "Ġanxiet",
        -10.10941366598251
      ],
      [
        "Ġmission",
        -10.10989127952286
      ],
      [
        "Ġcoffee",
        -10.109986314561034
      ],
      [
        "Ġglucos",
        -10.111684335514104
      ],
      [
        "Ġpreserv",
        -10.111711149411828
      ],
      [
        "ĠChrist",
        -10.111753278203524
      ],
      [
        "Ġobjective",
        -10.11178666484177
      ],
      [
        "Ġconstruct",
        -10.111860238721937
      ],
      [
        "Ġseven",
        -10.112343126970584
      ],
      [
        "ĠPi",
        -10.112459995010946
      ],
      [
        "{",
        -10.112588878658734
      ],
      [
        "ĠApril",
        -10.112605835975522
      ],
      [
        "Ġradio",
        -10.112645034549727
      ],
      [
        "Ma",
        -10.112682652183892
      ],
      [
        "Ġcraft",
        -10.113881451860763
      ],
      [
        "Ġdefinite",
        -10.114169796939027
      ],
      [
        "Ġsurvival",
        -10.114240058873968
      ],
      [
        "Ġcu",
        -10.115288492623336
      ],
      [
        "IC",
        -10.116031177109129
      ],
      [
        "Ġseal",
        -10.11624824700505
      ],
      [
        "spec",
        -10.11689804033237
      ],
      [
        "Ġborn",
        -10.117291221003567
      ],
      [
        "Ġexamine",
        -10.117570293412452
      ],
      [
        "Ġbeauty",
        -10.118034852284875
      ],
      [
        "Ġillness",
        -10.118056068548016
      ],
      [
        "ley",
        -10.118131105789022
      ],
      [
        "Ġdecide",
        -10.119337147750688
      ],
      [
        "Ġintroduc",
        -10.12024287366077
      ],
      [
        "Ġwet",
        -10.12092578164489
      ],
      [
        "Ġadopt",
        -10.121596565680814
      ],
      [
        "Ġconfirm",
        -10.122083242966808
      ],
      [
        "Ġofficial",
        -10.122083876792596
      ],
      [
        "Ġkidney",
        -10.122092737191732
      ],
      [
        "Ġcircle",
        -10.122163877963974
      ],
      [
        "Ġplate",
        -10.12280630602476
      ],
      [
        "Ġcompetition",
        -10.122869196949384
      ],
      [
        "Ġutiliz",
        -10.123532983797071
      ],
      [
        "ĠJune",
        -10.123718743471668
      ],
      [
        "Ġremov",
        -10.124136921717511
      ],
      [
        "ĠHer",
        -10.124179296138443
      ],
      [
        "Ġpromot",
        -10.12422756532985
      ],
      [
        "Ġproduc",
        -10.124442123056744
      ],
      [
        "Ġsong",
        -10.125325703730748
      ],
      [
        "Ġwasn",
        -10.125748352062914
      ],
      [
        "Ġcommunicate",
        -10.12614839209878
      ],
      [
        "ather",
        -10.127407223634194
      ],
      [
        "Ġbr",
        -10.127426615001642
      ],
      [
        "Ġtube",
        -10.12818264244937
      ],
      [
        "Answer",
        -10.129855912789344
      ],
      [
        "Let",
        -10.129928198852788
      ],
      [
        "Ġla",
        -10.13003370821216
      ],
      [
        "Most",
        -10.13010821388792
      ],
      [
        "Ġextensive",
        -10.130229893795654
      ],
      [
        "Ġdestroy",
        -10.130230791308652
      ],
      [
        "Ġprepared",
        -10.130981584074
      ],
      [
        "Ġfoundation",
        -10.131317982040672
      ],
      [
        "Ġshark",
        -10.131813369406714
      ],
      [
        "Ġtitle",
        -10.132992436506326
      ],
      [
        "Ġintend",
        -10.133154028567656
      ],
      [
        "Use",
        -10.13330907479622
      ],
      [
        "rought",
        -10.133432191970634
      ],
      [
        "ĠLike",
        -10.133629284615452
      ],
      [
        "Ġcomparison",
        -10.134328721029329
      ],
      [
        "Ġnerve",
        -10.134368612158529
      ],
      [
        "ĠInternational",
        -10.135645605541932
      ],
      [
        "set",
        -10.136077412446731
      ],
      [
        "Ġassembl",
        -10.13625850569592
      ],
      [
        "ula",
        -10.137668364134267
      ],
      [
        "Conclusion",
        -10.13844347829535
      ],
      [
        "Ġchronic",
        -10.138443486058272
      ],
      [
        "with",
        -10.138456214080522
      ],
      [
        "Ġsunlight",
        -10.138549280622705
      ],
      [
        "Ġpathway",
        -10.138551422998972
      ],
      [
        "Ġdesp",
        -10.139117405891124
      ],
      [
        "Ġstar",
        -10.141166874821083
      ],
      [
        "mobile",
        -10.141873476342589
      ],
      [
        "Ġseat",
        -10.142130722142262
      ],
      [
        "ĠCat",
        -10.143404327863689
      ],
      [
        "-on",
        -10.143824002070446
      ],
      [
        "Ġmine",
        -10.1452077835837
      ],
      [
        "Ġtight",
        -10.146375434571766
      ],
      [
        "Ġminimize",
        -10.146444179294068
      ],
      [
        "Ġfoster",
        -10.146748851613436
      ],
      [
        "Ġemploy",
        -10.147165702091204
      ],
      [
        "ries",
        -10.14824456465987
      ],
      [
        "ĠMa",
        -10.148453348494613
      ],
      [
        "Ġconventional",
        -10.149383433935018
      ],
      [
        "Ġrequir",
        -10.150018652870486
      ],
      [
        "ĠThrough",
        -10.150506468313178
      ],
      [
        "Ġinnovative",
        -10.150891754659614
      ],
      [
        "Ġclient",
        -10.15091022402683
      ],
      [
        "Ġcrack",
        -10.150927666893208
      ],
      [
        "ĠClass",
        -10.152066212610713
      ],
      [
        "Ġmicro",
        -10.152473708174526
      ],
      [
        "Ġderive",
        -10.1525448570539
      ],
      [
        "Ġprinter",
        -10.15349542470582
      ],
      [
        "Ġcareer",
        -10.154394018079136
      ],
      [
        "ade",
        -10.154485617087378
      ],
      [
        "Ġfields",
        -10.154579405783338
      ],
      [
        "Ġalign",
        -10.155126607483243
      ],
      [
        "Ġsteam",
        -10.15520203095318
      ],
      [
        "According",
        -10.155299802583889
      ],
      [
        "Ġlaws",
        -10.155311327492305
      ],
      [
        "Ġdental",
        -10.155331268822248
      ],
      [
        "ĠNe",
        -10.155337619889222
      ],
      [
        "Ġport",
        -10.155444586944252
      ],
      [
        "Ġparameter",
        -10.15664420186513
      ],
      [
        "Ġwoman",
        -10.15706526435269
      ],
      [
        "Ġgets",
        -10.157520252212857
      ],
      [
        "Ġpin",
        -10.15761929372622
      ],
      [
        "Ġenhanc",
        -10.158361109819545
      ],
      [
        "ĠHo",
        -10.1592088225001
      ],
      [
        "Ġbehaviour",
        -10.159277735621052
      ],
      [
        "Ġstroke",
        -10.159521914710169
      ],
      [
        "Ġdomain",
        -10.15970732387547
      ],
      [
        "Ġliver",
        -10.159773722663456
      ],
      [
        "ural",
        -10.160127512453734
      ],
      [
        "Ġattend",
        -10.16093713733884
      ],
      [
        "Ġtown",
        -10.16182286963441
      ],
      [
        "Ġha",
        -10.161836910854207
      ],
      [
        "Ġaudience",
        -10.16349739086123
      ],
      [
        "Ġthrow",
        -10.163530100426858
      ],
      [
        "Ġbrick",
        -10.163638154034253
      ],
      [
        "ĠTa",
        -10.163705055414033
      ],
      [
        "ĠTime",
        -10.164652508772782
      ],
      [
        "com",
        -10.164815361246228
      ],
      [
        "Ġprofile",
        -10.166075283975456
      ],
      [
        "mer",
        -10.166189953522524
      ],
      [
        "Ġvarie",
        -10.16653494694453
      ],
      [
        "Ġcloser",
        -10.167255563343716
      ],
      [
        "Ġmask",
        -10.167774734590614
      ],
      [
        "Ġemail",
        -10.167797101956925
      ],
      [
        "Pro",
        -10.168668398605972
      ],
      [
        "Ġcap",
        -10.169696251457353
      ],
      [
        "Ġreceiv",
        -10.17026664731167
      ],
      [
        "ign",
        -10.1713421665183
      ],
      [
        "Ġfisher",
        -10.171569061961002
      ],
      [
        "Ġinteraction",
        -10.171735528665954
      ],
      [
        "Ġradiation",
        -10.171989572021552
      ],
      [
        "Ġworksheet",
        -10.17209667000861
      ],
      [
        "Ġprecise",
        -10.172107434522054
      ],
      [
        "Ġrandom",
        -10.172481080520289
      ],
      [
        "ĠDesign",
        -10.172806019637928
      ],
      [
        "Ġbug",
        -10.172925734838447
      ],
      [
        "Ġorganizations",
        -10.173363501182648
      ],
      [
        "ED",
        -10.17374270105564
      ],
      [
        "mar",
        -10.174407415288156
      ],
      [
        "Ġtests",
        -10.174519033908645
      ],
      [
        "times",
        -10.174606505289844
      ],
      [
        "ari",
        -10.175479903047664
      ],
      [
        "Ġexcess",
        -10.175918450857608
      ],
      [
        "Ġhorses",
        -10.176175629869624
      ],
      [
        "Ġarchitecture",
        -10.177101207307787
      ],
      [
        "}",
        -10.177289824621436
      ],
      [
        "Ġpackag",
        -10.178452280242336
      ],
      [
        "Ġdecided",
        -10.178798251342297
      ],
      [
        "ox",
        -10.17899691165199
      ],
      [
        "ice",
        -10.179118676743467
      ],
      [
        "Ġdensit",
        -10.17932515761817
      ],
      [
        "ĠGreen",
        -10.179412433357845
      ],
      [
        "ĠAct",
        -10.179734028086587
      ],
      [
        "ĠSan",
        -10.180518501130852
      ],
      [
        "Ġarray",
        -10.1805720877708
      ],
      [
        "Ġappeal",
        -10.180575464371998
      ],
      [
        "Ġopening",
        -10.181287630195374
      ],
      [
        "Ġtrade",
        -10.182174823821136
      ],
      [
        "Ġchose",
        -10.182416415180402
      ],
      [
        "More",
        -10.18256724147576
      ],
      [
        "Ġapart",
        -10.18315910029351
      ],
      [
        "iness",
        -10.183602657774964
      ],
      [
        "Ġconsult",
        -10.183955461770722
      ],
      [
        "Ġadvantages",
        -10.184380717696444
      ],
      [
        "press",
        -10.184500644808718
      ],
      [
        "Ġworm",
        -10.184867864841443
      ],
      [
        "Ġtrouble",
        -10.184892229350408
      ],
      [
        "referred",
        -10.184973340069158
      ],
      [
        "Ġbond",
        -10.185047320421994
      ],
      [
        "ou",
        -10.185160390250132
      ],
      [
        "Ġeliminate",
        -10.185364923565569
      ],
      [
        "ĠâĢĺ",
        -10.187023923287084
      ],
      [
        "ĠSp",
        -10.187206119740914
      ],
      [
        "lan",
        -10.188442546652505
      ],
      [
        "ung",
        -10.188618580308296
      ],
      [
        "Ġprinting",
        -10.188849856223802
      ],
      [
        "net",
        -10.188881526254097
      ],
      [
        "ĠBlack",
        -10.189206449308402
      ],
      [
        "Ġhousehold",
        -10.189269032623198
      ],
      [
        "Ġsaying",
        -10.189324989343303
      ],
      [
        "Ġutilize",
        -10.189477352187868
      ],
      [
        "Ġgate",
        -10.18990571043384
      ],
      [
        "Ġmanufacturing",
        -10.19002807736614
      ],
      [
        "wood",
        -10.190195868881055
      ],
      [
        "ĠHave",
        -10.190598920735075
      ],
      [
        "Ġdefin",
        -10.191848289934688
      ],
      [
        "Ġzero",
        -10.192252542933442
      ],
      [
        "Ġcustom",
        -10.194616553885586
      ],
      [
        "ĠBoth",
        -10.197491471492985
      ],
      [
        "Ġ...Ċ",
        -10.197746431243509
      ],
      [
        "Ġhospital",
        -10.197803565971151
      ],
      [
        "November",
        -10.197909160451683
      ],
      [
        "ĠWork",
        -10.198017340929455
      ],
      [
        "Ġpane",
        -10.198391157662163
      ],
      [
        "Ġchoos",
        -10.199176403961683
      ],
      [
        "Ġputt",
        -10.199326301510006
      ],
      [
        "istic",
        -10.199376690361415
      ],
      [
        "some",
        -10.199537250988548
      ],
      [
        "ping",
        -10.19978220741086
      ],
      [
        "Ġrely",
        -10.20052904904187
      ],
      [
        "Ġpool",
        -10.203228661664085
      ],
      [
        "ĠDoes",
        -10.204252415719768
      ],
      [
        "Ġnovel",
        -10.204255392919196
      ],
      [
        "Ġusage",
        -10.204723463298995
      ],
      [
        "chi",
        -10.206707650708044
      ],
      [
        "Ġdatabase",
        -10.206760718797543
      ],
      [
        "Ġ**",
        -10.206775400189503
      ],
      [
        "Ġpreparation",
        -10.207047633645391
      ],
      [
        "Ġroute",
        -10.207070344487288
      ],
      [
        "book",
        -10.20752086289614
      ],
      [
        "Ġquantit",
        -10.208236371362052
      ],
      [
        "ĠLight",
        -10.209262988113435
      ],
      [
        "gave",
        -10.20937090092175
      ],
      [
        "Ġwor",
        -10.209739669979747
      ],
      [
        "Ġencounter",
        -10.211127052610872
      ],
      [
        "Ġriver",
        -10.212169130803945
      ],
      [
        "Ġstable",
        -10.212372129877686
      ],
      [
        "Ġinstrument",
        -10.213847406013564
      ],
      [
        "Ġancient",
        -10.214277407263292
      ],
      [
        "Ġrealize",
        -10.214722300576204
      ],
      [
        "Ġagricultural",
        -10.215569396678545
      ],
      [
        "Ġbarrier",
        -10.215569829808668
      ],
      [
        "Ġsnake",
        -10.215571988067513
      ],
      [
        "Ġfe",
        -10.215871856218138
      ],
      [
        "ĠBio",
        -10.21602228290616
      ],
      [
        "Ġboost",
        -10.21654177106629
      ],
      [
        "Ġalter",
        -10.217035791357327
      ],
      [
        "Ġmagnetic",
        -10.217107844783175
      ],
      [
        "und",
        -10.217407041718758
      ],
      [
        "Ġconsists",
        -10.217867309805754
      ],
      [
        "Ġnet",
        -10.217990846327414
      ],
      [
        "ĠControl",
        -10.21814014883494
      ],
      [
        "Ġpolicy",
        -10.2184373446526
      ],
      [
        "Ġweigh",
        -10.218736135990971
      ],
      [
        "ĠLong",
        -10.219034271771063
      ],
      [
        "Ġrecorded",
        -10.21939282031901
      ],
      [
        "Ġpictures",
        -10.219508792216777
      ],
      [
        "ack",
        -10.219893621132076
      ],
      [
        "ola",
        -10.220018950707866
      ],
      [
        "ĠSA",
        -10.22123895596432
      ],
      [
        "ĠGa",
        -10.2222322325357
      ],
      [
        "Ġsharp",
        -10.222411025776566
      ],
      [
        "ĠII",
        -10.222876123710318
      ],
      [
        "org",
        -10.222931260968071
      ],
      [
        "Ġtoxic",
        -10.223181128704628
      ],
      [
        "Mo",
        -10.2232444205234
      ],
      [
        "Ġherb",
        -10.22328828790687
      ],
      [
        "Ġvaccine",
        -10.2245179545795
      ],
      [
        "Ġthread",
        -10.22453420113712
      ],
      [
        "Ġpropose",
        -10.224559394414923
      ],
      [
        "Ġspen",
        -10.22468594345044
      ],
      [
        "Ġtail",
        -10.224792834718311
      ],
      [
        "ple",
        -10.225794305929842
      ],
      [
        "red",
        -10.226343979801944
      ],
      [
        "Figure",
        -10.226567029369086
      ],
      [
        "US",
        -10.228043301020822
      ],
      [
        "Ġsex",
        -10.228102652311986
      ],
      [
        "Ġinitiative",
        -10.229071074644311
      ],
      [
        "Ġframework",
        -10.229196323627049
      ],
      [
        "Ġtax",
        -10.22928360026244
      ],
      [
        "Ġfamiliar",
        -10.229533121175216
      ],
      [
        "ĠOpen",
        -10.229688066504076
      ],
      [
        "Ġpill",
        -10.229943557035185
      ],
      [
        "Ġbrush",
        -10.230663225809792
      ],
      [
        "VCA",
        -10.230882449974668
      ],
      [
        "Ġsensitive",
        -10.231843904030072
      ],
      [
        "Ġheavi",
        -10.232028486505156
      ],
      [
        "Ġtomato",
        -10.233575493652916
      ],
      [
        "Ġdownload",
        -10.23375916806905
      ],
      [
        "Ġstatus",
        -10.233831336256742
      ],
      [
        "ĠIndian",
        -10.233932683617894
      ],
      [
        "Ġprogramm",
        -10.234041224536195
      ],
      [
        "ĠWest",
        -10.234053105820555
      ],
      [
        "anagement",
        -10.234524530837206
      ],
      [
        "Ġprove",
        -10.234639316940612
      ],
      [
        "Ġclothes",
        -10.234896374576156
      ],
      [
        "Ġboundar",
        -10.235247625048691
      ],
      [
        "Ġengag",
        -10.235402949518722
      ],
      [
        "ock",
        -10.235762178468232
      ],
      [
        "ĠBar",
        -10.23601222746803
      ],
      [
        "tri",
        -10.236495889031348
      ],
      [
        "Ġjournal",
        -10.23691861284171
      ],
      [
        "Ġshapes",
        -10.236961923583284
      ],
      [
        "Ġdistinct",
        -10.23779582080919
      ],
      [
        "ĠHar",
        -10.237798931148074
      ],
      [
        "Ġsufficient",
        -10.23809279987357
      ],
      [
        "Ġpowder",
        -10.238092839983723
      ],
      [
        "ĠFoundation",
        -10.238237094392678
      ],
      [
        "sium",
        -10.238504461609129
      ],
      [
        "PT",
        -10.23855220281438
      ],
      [
        "wimming",
        -10.239850457008227
      ],
      [
        "Ġbulb",
        -10.239876049388888
      ],
      [
        "going",
        -10.240325190608324
      ],
      [
        "Ġbutter",
        -10.241331275578323
      ],
      [
        "well",
        -10.241596981475352
      ],
      [
        "Ġindustries",
        -10.242659021907514
      ],
      [
        "Ġrequest",
        -10.242659134805765
      ],
      [
        "Ġamino",
        -10.242718112579478
      ],
      [
        "Ġblow",
        -10.243053456254357
      ],
      [
        "Ġrice",
        -10.243172278779433
      ],
      [
        "Ġgold",
        -10.243581205253744
      ],
      [
        "Ġwindows",
        -10.24360464589676
      ],
      [
        "Ġwarming",
        -10.244185186993551
      ],
      [
        "top",
        -10.244233295235627
      ],
      [
        "Ġclock",
        -10.244265783392024
      ],
      [
        "my",
        -10.245238834954169
      ],
      [
        "ĠHuman",
        -10.245524412141636
      ],
      [
        "Ġrepeat",
        -10.246741691753048
      ],
      [
        "Ġelevate",
        -10.247246177143396
      ],
      [
        "Ġmammal",
        -10.24724625725763
      ],
      [
        "Ġwrot",
        -10.247381518412698
      ],
      [
        "Ġantibod",
        -10.24855493513664
      ],
      [
        "ake",
        -10.248866473112644
      ],
      [
        "Ġstream",
        -10.249361121001789
      ],
      [
        "ĠAny",
        -10.249813678206268
      ],
      [
        "ches",
        -10.251649177901566
      ],
      [
        "Over",
        -10.251789120087654
      ],
      [
        "Ġcollege",
        -10.25185448281597
      ],
      [
        "Ġpredator",
        -10.251858166864194
      ],
      [
        "Ġforget",
        -10.252501732586886
      ],
      [
        "Ġbreeding",
        -10.253561353751332
      ],
      [
        "ball",
        -10.254615945109624
      ],
      [
        "From",
        -10.254857386220063
      ],
      [
        "dom",
        -10.25537316651068
      ],
      [
        "Ġoven",
        -10.255580347721098
      ],
      [
        "Ġworkshop",
        -10.25668589338881
      ],
      [
        "Ġstabilit",
        -10.256693493910436
      ],
      [
        "use",
        -10.256955140224186
      ],
      [
        "Ġcalculation",
        -10.25717450082444
      ],
      [
        "Ġnose",
        -10.257537402410154
      ],
      [
        "qui",
        -10.257887483753482
      ],
      [
        "Ġforces",
        -10.258806558967
      ],
      [
        "Ġcorn",
        -10.258983502266624
      ],
      [
        "IS",
        -10.259728146236183
      ],
      [
        "ric",
        -10.260392970026482
      ],
      [
        "soft",
        -10.261617013178329
      ],
      [
        "ĠPo",
        -10.26297149979028
      ],
      [
        "Ġmis",
        -10.263010526068214
      ],
      [
        "Ġsignals",
        -10.263205355335456
      ],
      [
        "Ġgraph",
        -10.26362908591148
      ],
      [
        "you",
        -10.264281870732024
      ],
      [
        "Ġsurger",
        -10.264305988964848
      ],
      [
        "Ġchi",
        -10.264374705984098
      ],
      [
        "Ġanalyze",
        -10.264658673978785
      ],
      [
        "Ġcombin",
        -10.264855209709092
      ],
      [
        "Ġspeech",
        -10.265142372428466
      ],
      [
        "Ġsurprise",
        -10.265808150479296
      ],
      [
        "Ġtrait",
        -10.265824856529438
      ],
      [
        "Ġperiods",
        -10.265909718548867
      ],
      [
        "Ġcredit",
        -10.266130977341303
      ],
      [
        "ĠWhere",
        -10.266380216951635
      ],
      [
        "ĠFind",
        -10.267402530423988
      ],
      [
        "Ġcompare",
        -10.267624532155974
      ],
      [
        "ect",
        -10.267976278792675
      ],
      [
        "ĠPre",
        -10.268172890860647
      ],
      [
        "mic",
        -10.269263272360934
      ],
      [
        "from",
        -10.269507852840585
      ],
      [
        "CH",
        -10.270199104473672
      ],
      [
        "Ġuniversit",
        -10.2705031424782
      ],
      [
        "Ġcollaboration",
        -10.27060529051103
      ],
      [
        "Ġmanner",
        -10.270718233084327
      ],
      [
        "Ġworry",
        -10.270773725547595
      ],
      [
        "pen",
        -10.27212464017527
      ],
      [
        "ix",
        -10.273040846920177
      ],
      [
        "ĠJanuary",
        -10.273953468542857
      ],
      [
        "Ġintake",
        -10.274684176597445
      ],
      [
        "Ġthrive",
        -10.274951219093245
      ],
      [
        "Ġguess",
        -10.275230236094718
      ],
      [
        "Ġdust",
        -10.275374681675654
      ],
      [
        "Ġpound",
        -10.27551551104744
      ],
      [
        "Ġcl",
        -10.27577002784889
      ],
      [
        "ĠIsland",
        -10.275797960834954
      ],
      [
        "Ġtraffic",
        -10.276734682005436
      ],
      [
        "Not",
        -10.277181618375316
      ],
      [
        "cent",
        -10.27727059965724
      ],
      [
        "AP",
        -10.278286808293757
      ],
      [
        "Ġplane",
        -10.279097758163635
      ],
      [
        "back",
        -10.279549464997086
      ],
      [
        "Â",
        -10.279836020819278
      ],
      [
        "Ġfault",
        -10.279959480687053
      ],
      [
        "Ġinfect",
        -10.28006232766487
      ],
      [
        "Ġpercentage",
        -10.28082272571836
      ],
      [
        "Ġadequate",
        -10.281316904238803
      ],
      [
        "ĠAugust",
        -10.282205688998406
      ],
      [
        "Ġprovider",
        -10.282308859305836
      ],
      [
        "Ġcake",
        -10.28340800110167
      ],
      [
        "Ġspeaker",
        -10.283571397738692
      ],
      [
        "log",
        -10.283929950223484
      ],
      [
        "Ġsuffer",
        -10.284089652278496
      ],
      [
        "Ġappreciate",
        -10.284431238735928
      ],
      [
        "å",
        -10.284704385697596
      ],
      [
        "Ġmolecular",
        -10.285142064094336
      ],
      [
        "Ġsent",
        -10.28521156932458
      ],
      [
        "ĠNatural",
        -10.285299515919268
      ],
      [
        "afety",
        -10.286678767359009
      ],
      [
        "bar",
        -10.287739050883168
      ],
      [
        "Ġcapabl",
        -10.287938862703449
      ],
      [
        "Ġsharks",
        -10.28817237901608
      ],
      [
        "Ġsustainab",
        -10.288259851780609
      ],
      [
        "Ġwalking",
        -10.289378084234617
      ],
      [
        "Ġfac",
        -10.289407807204288
      ],
      [
        "Ġmild",
        -10.289623151933302
      ],
      [
        "Ġsignificance",
        -10.289652327440493
      ],
      [
        "ĠMac",
        -10.290056330894892
      ],
      [
        "Ġlinked",
        -10.290150427708207
      ],
      [
        "ĠCheck",
        -10.290311811017766
      ],
      [
        "Ġlaborator",
        -10.290333996771944
      ],
      [
        "pl",
        -10.290819040909224
      ],
      [
        "Ġpepper",
        -10.2943137511702
      ],
      [
        "Ġlifestyle",
        -10.294390460598052
      ],
      [
        "Ġopposite",
        -10.29443575927786
      ],
      [
        "Ġexpos",
        -10.29487579961678
      ],
      [
        "Ġeco",
        -10.294903152437229
      ],
      [
        "Ġsecret",
        -10.29496578113596
      ],
      [
        "Ġdescription",
        -10.29553230840238
      ],
      [
        "ĠAgricultur",
        -10.296229289907645
      ],
      [
        "ĠCounty",
        -10.296590345162093
      ],
      [
        "Ġrecommendation",
        -10.296761508539632
      ],
      [
        "ĠWild",
        -10.297071452152975
      ],
      [
        "Ġregulate",
        -10.297208098656023
      ],
      [
        "lic",
        -10.297470085528008
      ],
      [
        "ĠFish",
        -10.29760994511161
      ],
      [
        "Ġincorporate",
        -10.297901057839542
      ],
      [
        "Ġlock",
        -10.298422105115671
      ],
      [
        "Ġbite",
        -10.29868349486147
      ],
      [
        "Ġkg",
        -10.298718495832414
      ],
      [
        "Ġshop",
        -10.298735015612916
      ],
      [
        "Ġscenario",
        -10.29914450766713
      ],
      [
        "Ġexpense",
        -10.299144563545417
      ],
      [
        "Ġdepartment",
        -10.299172158596727
      ],
      [
        "ĠGroup",
        -10.299480461954175
      ],
      [
        "ĠApple",
        -10.29953054270272
      ],
      [
        "Ġhid",
        -10.300100465783716
      ],
      [
        "ren",
        -10.300444859626118
      ],
      [
        "Ġapproaches",
        -10.300800929793596
      ],
      [
        "Ġorange",
        -10.30080932509792
      ],
      [
        "ĠStart",
        -10.301649064894235
      ],
      [
        "ĠPacific",
        -10.301938401160438
      ],
      [
        "Ġbeans",
        -10.30251908092513
      ],
      [
        "cul",
        -10.302885927241618
      ],
      [
        "Ġrelax",
        -10.303453820816744
      ],
      [
        "Ġcontinues",
        -10.303500089655946
      ],
      [
        "ĠLearn",
        -10.303785866446084
      ],
      [
        "Ġplot",
        -10.303975770240251
      ],
      [
        "Ġvolunteer",
        -10.303998876592672
      ],
      [
        "Ġvast",
        -10.304015785736274
      ],
      [
        "Ġstands",
        -10.304292561551572
      ],
      [
        "Ġengagement",
        -10.30434172765642
      ],
      [
        "Ġcontinu",
        -10.304376979911735
      ],
      [
        "Ġadjustment",
        -10.30459200984986
      ],
      [
        "Ġstructural",
        -10.304809842160434
      ],
      [
        "Ġessay",
        -10.305170766477804
      ],
      [
        "ĠLook",
        -10.30601299042333
      ],
      [
        "Ġpoly",
        -10.306613200278438
      ],
      [
        "life",
        -10.306817957936875
      ],
      [
        "accessible",
        -10.307635771864842
      ],
      [
        "ĠUp",
        -10.308159249090677
      ],
      [
        "ĉ",
        -10.308876925372418
      ],
      [
        "Ġprompt",
        -10.308878173874849
      ],
      [
        "Ġquant",
        -10.308917237231208
      ],
      [
        "Ġbloom",
        -10.30891958392159
      ],
      [
        "Ġmechanical",
        -10.309177554995792
      ],
      [
        "ĠThus",
        -10.309254159367605
      ],
      [
        "Ġrelation",
        -10.309294538974514
      ],
      [
        "ĠSystem",
        -10.309809377618969
      ],
      [
        "Ġgum",
        -10.30995994949242
      ],
      [
        "ĠRed",
        -10.31011125040925
      ],
      [
        "Ġdetection",
        -10.3101792307361
      ],
      [
        "Ġpure",
        -10.310576968055363
      ],
      [
        "Ġweak",
        -10.31064855865012
      ],
      [
        "Ġimmediate",
        -10.312301852115803
      ],
      [
        "Ġcamp",
        -10.31329308803059
      ],
      [
        "rising",
        -10.313696406552992
      ],
      [
        "Ġwhale",
        -10.313780054321658
      ],
      [
        "Ġregister",
        -10.313780893190234
      ],
      [
        "Ġshirt",
        -10.31378120437786
      ],
      [
        "Ġcalm",
        -10.313906618212224
      ],
      [
        "bra",
        -10.31401231291854
      ],
      [
        "Ġsmoke",
        -10.314638251439735
      ],
      [
        "Ġaccurac",
        -10.314849545187188
      ],
      [
        "Ġpermanent",
        -10.315101606422443
      ],
      [
        "Ġfunctional",
        -10.315766079656246
      ],
      [
        "Ġreact",
        -10.31582793856006
      ],
      [
        "Ġacademic",
        -10.31636671221879
      ],
      [
        "rich",
        -10.317079409249311
      ],
      [
        "ĠIP",
        -10.317461307989555
      ],
      [
        "AN",
        -10.317571837518658
      ],
      [
        "weight",
        -10.317859791063064
      ],
      [
        "Ġconfidence",
        -10.318707799004695
      ],
      [
        "Ġfelt",
        -10.318765701003436
      ],
      [
        "Ġscratch",
        -10.319826653545372
      ],
      [
        "chemistry",
        -10.319871693107238
      ],
      [
        "Ġyouth",
        -10.320237857475067
      ],
      [
        "ĠOut",
        -10.320830852342043
      ],
      [
        "Ġrecipe",
        -10.321013948845495
      ],
      [
        "ĠFree",
        -10.321577468668895
      ],
      [
        "Ġtract",
        -10.322814813261918
      ],
      [
        "Ġnarrow",
        -10.323672894063842
      ],
      [
        "Ġease",
        -10.323701611293307
      ],
      [
        "Ġhandl",
        -10.323829882960576
      ],
      [
        "pre",
        -10.324818883960496
      ],
      [
        "Ġfroze",
        -10.324873597753594
      ],
      [
        "sistance",
        -10.325271650958426
      ],
      [
        "IN",
        -10.326342578807475
      ],
      [
        "Ġpurposes",
        -10.327024474449193
      ],
      [
        "New",
        -10.32751467711098
      ],
      [
        "act",
        -10.327908694055688
      ],
      [
        "Ġremote",
        -10.328630678590272
      ],
      [
        "Ġdream",
        -10.328631398148405
      ],
      [
        "Ġkick",
        -10.32864381362998
      ],
      [
        "].",
        -10.32898591326152
      ],
      [
        "gar",
        -10.33006739147498
      ],
      [
        "Ġouter",
        -10.330921406919757
      ],
      [
        "ĠRu",
        -10.330929983854816
      ],
      [
        "cra",
        -10.331376137916305
      ],
      [
        "ĠNatur",
        -10.331599955441742
      ],
      [
        "ĠSeptem",
        -10.332726117890545
      ],
      [
        "Ġprey",
        -10.333628674745086
      ],
      [
        "Ġspider",
        -10.3336313307404
      ],
      [
        "Ġloop",
        -10.333697201265032
      ],
      [
        "ants",
        -10.334412407087976
      ],
      [
        "Ġpossibl",
        -10.334637117371315
      ],
      [
        "cut",
        -10.335041435229844
      ],
      [
        "Ġbreastfeed",
        -10.335421955812414
      ],
      [
        "Ġcompos",
        -10.33585976524962
      ],
      [
        "Ġdishe",
        -10.335877550841134
      ],
      [
        "Ġfamous",
        -10.336136944523162
      ],
      [
        "Ġprocessor",
        -10.336221487180456
      ],
      [
        "Ġne",
        -10.33629290333334
      ],
      [
        "Ġbigge",
        -10.336323995287348
      ],
      [
        "Ġbinding",
        -10.33636086230689
      ],
      [
        "Ġconversation",
        -10.336623032211488
      ],
      [
        "Ġcompleted",
        -10.33716018005368
      ],
      [
        "Ġcontribut",
        -10.337329168842867
      ],
      [
        "Ġreports",
        -10.337812573017771
      ],
      [
        "Ġrecording",
        -10.33812518390864
      ],
      [
        "Ġdelicious",
        -10.338655766793616
      ],
      [
        "Ġgradual",
        -10.338658273096485
      ],
      [
        "Ġmovie",
        -10.33866231225257
      ],
      [
        "ĠPC",
        -10.338743145760729
      ],
      [
        "Ġbread",
        -10.338776870793849
      ],
      [
        "ĠArt",
        -10.339114818692195
      ],
      [
        "Ġintegrate",
        -10.33932773796182
      ],
      [
        "ĠSer",
        -10.340626945399311
      ],
      [
        "ground",
        -10.341500857963204
      ],
      [
        "Ġpond",
        -10.342127830465325
      ],
      [
        "Ġstorm",
        -10.342881711288296
      ],
      [
        "ĠMin",
        -10.343151128912798
      ],
      [
        "view",
        -10.343227688558954
      ],
      [
        "Ġworkers",
        -10.343417055582258
      ],
      [
        "OVID",
        -10.343548147989846
      ],
      [
        "Ġexplanation",
        -10.343706262924584
      ],
      [
        "Ġterminal",
        -10.343715910589504
      ],
      [
        "form",
        -10.34378215256256
      ],
      [
        "Ġgreenhouse",
        -10.343786863859142
      ],
      [
        "@",
        -10.343997029401237
      ],
      [
        "osis",
        -10.34407495967849
      ],
      [
        "Ġunlike",
        -10.344326591157667
      ],
      [
        "ĠWhite",
        -10.345063721289216
      ],
      [
        "ĠGet",
        -10.345100554832866
      ],
      [
        "Ġpartial",
        -10.345484144831564
      ],
      [
        "ĠPu",
        -10.345640333704711
      ],
      [
        "Ġfold",
        -10.345672233281984
      ],
      [
        "Ġbegins",
        -10.345789215438696
      ],
      [
        "ĠNi",
        -10.346876450602942
      ],
      [
        "Ġdrugs",
        -10.346950706292509
      ],
      [
        "Ġbreathing",
        -10.348349675734507
      ],
      [
        "Ġchapter",
        -10.348782459410856
      ],
      [
        "Florida",
        -10.348783906733749
      ],
      [
        "Ġbelief",
        -10.34878394003948
      ],
      [
        "car",
        -10.3487881506622
      ],
      [
        "Ex",
        -10.348816942489623
      ],
      [
        "Ġdelay",
        -10.348925125357196
      ],
      [
        "Ġnucle",
        -10.349117744217256
      ],
      [
        "Since",
        -10.349307705233976
      ],
      [
        "ĠAssociation",
        -10.34963060821842
      ],
      [
        "led",
        -10.349896176239891
      ],
      [
        "Ġdecline",
        -10.349912144746382
      ],
      [
        "Ġboil",
        -10.350502203811857
      ],
      [
        "Ġfertilizer",
        -10.351021469917631
      ],
      [
        "made",
        -10.351192280570665
      ],
      [
        "ĠHelp",
        -10.351851330163605
      ],
      [
        "rad",
        -10.351957512486017
      ],
      [
        "Ġmilitar",
        -10.353884977614351
      ],
      [
        "Ġvalve",
        -10.35390697906504
      ],
      [
        "Ġdiffer",
        -10.354216464204884
      ],
      [
        "Ġexcit",
        -10.35463862668714
      ],
      [
        "ĠGr",
        -10.355931485770956
      ],
      [
        "Ġshadow",
        -10.355939364834647
      ],
      [
        "ĠPlease",
        -10.356298115983044
      ],
      [
        "Ġcolon",
        -10.356386447255248
      ],
      [
        "ĠAsia",
        -10.357112037344978
      ],
      [
        "Ġcoating",
        -10.357786459862236
      ],
      [
        "^",
        -10.358971355873718
      ],
      [
        "Texas",
        -10.359019953152918
      ],
      [
        "Ġtutorial",
        -10.359055911369571
      ],
      [
        "ĠFrench",
        -10.35908469640918
      ],
      [
        "Ġcommitment",
        -10.359089916301834
      ],
      [
        "Ġcement",
        -10.35914055952368
      ],
      [
        "Ġclosed",
        -10.360226500039612
      ],
      [
        "ĠJuly",
        -10.360296211528397
      ],
      [
        "Ġvertical",
        -10.36035254935952
      ],
      [
        "Ġtrans",
        -10.36059743936023
      ],
      [
        "Ġride",
        -10.36152429360001
      ],
      [
        "ĠRemember",
        -10.361570033141843
      ],
      [
        "Ġdelve",
        -10.361846506388307
      ],
      [
        "Ġpop",
        -10.361965363605812
      ],
      [
        "Ġintricate",
        -10.36416840860975
      ],
      [
        "Ġdivide",
        -10.364228474917631
      ],
      [
        "old",
        -10.364843325868048
      ],
      [
        "Ġcounter",
        -10.366115085926376
      ],
      [
        "Ġjuice",
        -10.366873293820031
      ],
      [
        "ES",
        -10.36778566019996
      ],
      [
        "Ġlogic",
        -10.367851389945963
      ],
      [
        "Ġstretch",
        -10.367865954917688
      ],
      [
        "ivity",
        -10.368013718309406
      ],
      [
        "Ġcouldn",
        -10.368087689264332
      ],
      [
        "cat",
        -10.368218207045004
      ],
      [
        "Ġbear",
        -10.36918721906175
      ],
      [
        "Ġgun",
        -10.369346874751969
      ],
      [
        "Ġsegment",
        -10.369348679508075
      ],
      [
        "Ġcolumn",
        -10.369348981914325
      ],
      [
        "Ġpuppy",
        -10.369352445119569
      ],
      [
        "Ġcoral",
        -10.369357931716864
      ],
      [
        "dding",
        -10.37029652045898
      ],
      [
        "Ġbigger",
        -10.37146111426065
      ],
      [
        "Ġlense",
        -10.372142319750084
      ],
      [
        "Ġmining",
        -10.372392346278891
      ],
      [
        "Ġsupplie",
        -10.374014378236357
      ],
      [
        "Ġemerg",
        -10.37428972345574
      ],
      [
        "Ġcluster",
        -10.374565548841105
      ],
      [
        "Ġfeedback",
        -10.374670564884338
      ],
      [
        "nal",
        -10.375609324680076
      ],
      [
        "?\"",
        -10.37576449237038
      ],
      [
        "han",
        -10.376514384649752
      ],
      [
        "Ġworse",
        -10.376536847859333
      ],
      [
        "Ġnitrogen",
        -10.376550796119382
      ],
      [
        "Ġtour",
        -10.376614243047474
      ],
      [
        "Ġarrive",
        -10.376728235563458
      ],
      [
        "ĠFeb",
        -10.376792590271624
      ],
      [
        "ĠChildren",
        -10.377174529482716
      ],
      [
        "Ġtall",
        -10.37830027332683
      ],
      [
        "ware",
        -10.37856795122996
      ],
      [
        "hose",
        -10.378683466755756
      ],
      [
        "Ġinfant",
        -10.37989335692438
      ],
      [
        "Ġpose",
        -10.380541852611104
      ],
      [
        "Ġthermal",
        -10.381193133517224
      ],
      [
        "Ġdiagnosi",
        -10.381673280797546
      ],
      [
        "Ġstrip",
        -10.381959136467602
      ],
      [
        "ncy",
        -10.38248754165112
      ],
      [
        "Ġtrends",
        -10.38278813702961
      ],
      [
        "Ġmistake",
        -10.383006112834488
      ],
      [
        "Dr",
        -10.38307424873036
      ],
      [
        "--",
        -10.383575422506466
      ],
      [
        "ĠColor",
        -10.383900358040206
      ],
      [
        "Ġdiagnose",
        -10.383965642416914
      ],
      [
        "ET",
        -10.38418097869242
      ],
      [
        "Ġpages",
        -10.384255745840662
      ],
      [
        "Unfortuna",
        -10.385055712424244
      ],
      [
        "Ġcareful",
        -10.385058513311517
      ],
      [
        "Onc",
        -10.385864004341691
      ],
      [
        "Ġparticipate",
        -10.385966844160247
      ],
      [
        "Ġclub",
        -10.38668773318189
      ],
      [
        "Ġholding",
        -10.386876192372084
      ],
      [
        "Ġaward",
        -10.386944072021738
      ],
      [
        "Ġdisorders",
        -10.387021160166103
      ],
      [
        "ĺ",
        -10.387171941282729
      ],
      [
        "Ġfed",
        -10.388518791914535
      ],
      [
        "ĠFinal",
        -10.388816958452257
      ],
      [
        "ĠDog",
        -10.38955287454828
      ],
      [
        "Ġevaluate",
        -10.389609088882407
      ],
      [
        "Ġprofessor",
        -10.390346724631282
      ],
      [
        "Ġcharging",
        -10.390346794278232
      ],
      [
        "Ġfascinating",
        -10.390351870119671
      ],
      [
        "Ġbowl",
        -10.39154279227765
      ],
      [
        "Ġsick",
        -10.391810220794325
      ],
      [
        "ĠWindow",
        -10.393433009136013
      ],
      [
        "Ġgut",
        -10.393495502965258
      ],
      [
        "Ġinspire",
        -10.393612596399771
      ],
      [
        "AC",
        -10.395027804072722
      ],
      [
        "Ã",
        -10.395473244620868
      ],
      [
        "Ġenabl",
        -10.396047648110024
      ],
      [
        "Ġhoney",
        -10.39650843159749
      ],
      [
        "box",
        -10.397025001214644
      ],
      [
        "Ġparticipat",
        -10.39715635479992
      ],
      [
        "Ġdirector",
        -10.397499386866418
      ],
      [
        "Ġpen",
        -10.398487734215012
      ],
      [
        "Ġmenu",
        -10.399209276307936
      ],
      [
        "vity",
        -10.40007190156432
      ],
      [
        "Ġmark",
        -10.400339718095449
      ],
      [
        "Ġintervention",
        -10.40101346463285
      ],
      [
        "Ġexhaust",
        -10.401014151698773
      ],
      [
        "Ġhelmet",
        -10.401017735712268
      ],
      [
        "Ġlifespan",
        -10.401028988640965
      ],
      [
        "Ġdepression",
        -10.401140136461812
      ],
      [
        "ĠPower",
        -10.401359813862696
      ],
      [
        "ories",
        -10.402086499453224
      ],
      [
        "Ġserver",
        -10.402143615977266
      ],
      [
        "uff",
        -10.402459873169333
      ],
      [
        "Ġcopper",
        -10.402732475014329
      ],
      [
        "Ġsight",
        -10.403247391499566
      ],
      [
        "ĠTHE",
        -10.404280946853437
      ],
      [
        "Ġaesthetic",
        -10.40491552638338
      ],
      [
        "Ġmoved",
        -10.405647078113418
      ],
      [
        "Ġdanger",
        -10.406200884450165
      ],
      [
        "Ġplac",
        -10.406559009161317
      ],
      [
        "Ġdescrib",
        -10.406763140926016
      ],
      [
        "Ġgrant",
        -10.407358720455832
      ],
      [
        "Ġneck",
        -10.407390208532608
      ],
      [
        "live",
        -10.408428379954104
      ],
      [
        "air",
        -10.410382793968225
      ],
      [
        "%)",
        -10.411262455972205
      ],
      [
        "-of",
        -10.411588472820766
      ],
      [
        "Ġvibrant",
        -10.411795234258909
      ],
      [
        "Ġextent",
        -10.411798144492646
      ],
      [
        "Ġmetabolism",
        -10.411800107766837
      ],
      [
        "ĠJesu",
        -10.41208242393204
      ],
      [
        "Ġcompressor",
[...]
