{
  "version": "1.0",
  "truncation": null,
  "padding": null,
  "added_tokens": [
    {
      "id": 13993,
      "content": "[CLS]",
      "single_word": false,
      "lstrip": false,
      "rstrip": false,
      "normalized": false,
      "special": true
    },
    {
      "id": 21109,
      "content": "[PAD]",
      "single_word": false,
      "lstrip": false,
      "rstrip": false,
      "normalized": false,
      "special": true
    },
    {
      "id": 35223,
      "content": "[UNK]",
      "single_word": false,
      "lstrip": false,
      "rstrip": false,
      "normalized": false,
      "special": true
    },
    {
      "id": 38204,
      "content": "[MASK]",
      "single_word": false,
      "lstrip": false,
      "rstrip": false,
      "normalized": false,
      "special": true
    },
    {
      "id": 51258,
      "content": "[EOS]",
      "single_word": false,
      "lstrip": false,
      "rstrip": false,
      "normalized": false,
      "special": true
    },
    {
      "id": 65536,
      "content": "[SEP]",
      "single_word": false,
      "lstrip": false,
      "rstrip": false,
      "normalized": false,
      "special": true
    }
  ],
  "normalizer": null,
  "pre_tokenizer": {
    "type": "ByteLevel",
    "add_prefix_space": false,
    "trim_offsets": true,
    "use_regex": true
  },
  "post_processor": null,
  "decoder": null,
  "model": {
    "type": "Unigram",
    "unk_id": null,
    "vocab": [
      [
        "reaching",
        -1.0
      ],
      [
        "Instead",
        -1.0
      ],
      [
        "Ġnewfound",
        -1.0
      ],
      [
        "ĠMotion",
        -1.0
      ],
      [
        "Jupiter",
        -1.0
      ],
      [
        "Ġoblong",
        -1.0
      ],
      [
        "ĠparietoÃ¶ccipital",
        -1.0
      ],
      [
        "Ġtanning",
        -1.0
      ],
      [
        "Ġkilometre",
        -1.0
      ],
      [
        "Ġgrit",
        -1.0
      ],
      [
        "Ġ1540",
        -1.0
      ],
      [
        "Ġ212",
        -1.0
      ],
      [
        "Ġrotary",
        -1.0
      ],
      [
        "Ġbow",
        -1.0
      ],
      [
        "ĠCondor",
        -1.0
      ],
      [
        "ĠUSEPA",
        -1.0
      ],
      [
        "Sac",
        -1.0
      ],
      [
        "ĠPecos",
        -1.0
      ],
      [
        "Perth",
        -1.0
      ],
      [
        "ĠPatient",
        -1.0
      ],
      [
        "trude",
        -1.0
      ],
      [
        "Ġâ",
        -1.0
      ],
      [
        "ĠPowerPoint",
        -1.0
      ],
      [
        "Ġbatter",
        -1.0
      ],
      [
        "Ġexcerpt",
        -1.0
      ],
      [
        "Female",
        -1.0
      ],
      [
        "Ġendorsed",
        -1.0
      ],
      [
        "ĠDTaP",
        -1.0
      ],
      [
        "millimeter",
        -1.0
      ],
      [
        "Ġrigors",
        -1.0
      ],
      [
        "ĠSalmon",
        -1.0
      ],
      [
        "Ġeuphoria",
        -1.0
      ],
      [
        "Gee",
        -1.0
      ],
      [
        "Ġdigital",
        -1.0
      ],
      [
        "ĠFal",
        -1.0
      ],
      [
        "ĠClarke",
        -1.0
      ],
      [
        "color",
        -1.0
      ],
      [
        "Bryan",
        -1.0
      ],
      [
        "ĠDele",
        -1.0
      ],
      [
        "Ġunresolved",
        -1.0
      ],
      [
        "Rachel",
        -1.0
      ],
      [
        "Ġmechan",
        -1.0
      ],
      [
        "Ġamounted",
        -1.0
      ],
      [
        "Another",
        -1.0
      ],
      [
        "Ġbro",
        -1.0
      ],
      [
        "Ġporous",
        -1.0
      ],
      [
        "ĠFeeding",
        -1.0
      ],
      [
        "Gregory",
        -1.0
      ],
      [
        "Ġmedicines",
        -1.0
      ],
      [
        "Ġvoltages",
        -1.0
      ],
      [
        "ĠGros",
        -1.0
      ],
      [
        "Dairy",
        -1.0
      ],
      [
        "Ġkn",
        -1.0
      ],
      [
        "ĠOste",
        -1.0
      ],
      [
        "Ġ317",
        -1.0
      ],
      [
        "ĠHaven",
        -1.0
      ],
      [
        "Start",
        -1.0
      ],
      [
        "Straw",
        -1.0
      ],
      [
        "Nutritional",
        -1.0
      ],
      [
        "ny",
        -1.0
      ],
      [
        "Ġperched",
        -1.0
      ],
      [
        "ĠScholastic",
        -1.0
      ],
      [
        ")]",
        -1.0
      ],
      [
        "Ctrl",
        -1.0
      ],
      [
        "Ġvariant",
        -1.0
      ],
      [
        "ĠJE",
        -1.0
      ],
      [
        "Ġpleasant",
        -1.0
      ],
      [
        "Ġaccompanied",
        -1.0
      ],
      [
        "Ġrubbish",
        -1.0
      ],
      [
        "kken",
        -1.0
      ],
      [
        "Deer",
        -1.0
      ],
      [
        "plasmosis",
        -1.0
      ],
      [
        "vra",
        -1.0
      ],
      [
        "striking",
        -1.0
      ],
      [
        "Ġsty",
        -1.0
      ],
      [
        "Ġautosuspend",
        -1.0
      ],
      [
        "ĠSurface",
        -1.0
      ],
      [
        "Ġbristles",
        -1.0
      ],
      [
        "Video",
        -1.0
      ],
      [
        "Ġsubtle",
        -1.0
      ],
      [
        "Ġswampy",
        -1.0
      ],
      [
        "Ġunsure",
        -1.0
      ],
      [
        "behavior",
        -1.0
      ],
      [
        "Ġthallium",
        -1.0
      ],
      [
        "Ġdispersion",
        -1.0
      ],
      [
        "Ġhazy",
        -1.0
      ],
      [
        "Ġderail",
        -1.0
      ],
      [
        "Ħ",
        -1.0
      ],
      [
        "Ġpronoun",
        -1.0
      ],
      [
        "ĠHF",
        -1.0
      ],
      [
        "Ġanalytics",
        -1.0
      ],
      [
        "HL",
        -1.0
      ],
      [
        "ĠOo",
        -1.0
      ],
      [
        "Storage",
        -1.0
      ],
      [
        "Ġcoax",
        -1.0
      ],
      [
        "Ġ22",
        -1.0
      ],
      [
        "Ġeggplant",
        -1.0
      ],
      [
        "ĠGO",
        -1.0
      ],
      [
        "pc",
        -1.0
      ],
      [
        "ĠPicchu",
        -1.0
      ],
      [
        "Yale",
        -1.0
      ],
      [
        "ĠMillions",
        -1.0
      ],
      [
        "Ġbivouac",
        -1.0
      ],
      [
        "Ġbetrayed",
        -1.0
      ],
      [
        "ĠATSDR",
        -1.0
      ],
      [
        "ĠDakar",
        -1.0
      ],
      [
        "ĠFeinstein",
        -1.0
      ],
      [
        "792",
        -1.0
      ],
      [
        "Ġapplications",
        -1.0
      ],
      [
        "ĠAqua",
        -1.0
      ],
      [
        "Ġ311",
        -1.0
      ],
      [
        "Ġsvn",
        -1.0
      ],
      [
        "morphic",
        -1.0
      ],
      [
        "ĠEnglish",
        -1.0
      ],
      [
        "ĠP",
        -1.0
      ],
      [
        "Ġjoking",
        -1.0
      ],
      [
        "ĠImproving",
        -1.0
      ],
      [
        "glot",
        -1.0
      ],
      [
        "Ġsnaps",
        -1.0
      ],
      [
        "HIP",
        -1.0
      ],
      [
        "period",
        -1.0
      ],
      [
        "Ġrecipients",
        -1.0
      ],
      [
        "Ġbanquet",
        -1.0
      ],
      [
        "ratio",
        -1.0
      ],
      [
        "Ġbike",
        -1.0
      ],
      [
        "nÃ¡",
        -1.0
      ],
      [
        "ĠHighly",
        -1.0
      ],
      [
        "Ġlowland",
        -1.0
      ],
      [
        "Side",
        -1.0
      ],
      [
        "ĠVatican",
        -1.0
      ],
      [
        "ĠTM",
        -1.0
      ],
      [
        "ĠTu",
        -1.0
      ],
      [
        "Agency",
        -1.0
      ],
      [
        "ĠOscar",
        -1.0
      ],
      [
        "Ġpush",
        -1.0
      ],
      [
        "National",
        -1.0
      ],
      [
        "ament",
        -1.0
      ],
      [
        "á¹",
        -1.0
      ],
      [
        "Ġdisconcerting",
        -1.0
      ],
      [
        "Ġshame",
        -1.0
      ],
      [
        "Ġnightmares",
        -1.0
      ],
      [
        "Technically",
        -1.0
      ],
      [
        "ĠHO",
        -1.0
      ],
      [
        "Ġinteroperability",
        -1.0
      ],
      [
        "Hair",
        -1.0
      ],
      [
        "ĠQueequeg",
        -1.0
      ],
      [
        "bases",
        -1.0
      ],
      [
        "ĠVA",
        -1.0
      ],
      [
        "Ġdeceit",
        -1.0
      ],
      [
        "ĠRSV",
        -1.0
      ],
      [
        "Ġlang",
        -1.0
      ],
      [
        "ĠOVER",
        -1.0
      ],
      [
        "ĠMaathai",
        -1.0
      ],
      [
        "worker",
        -1.0
      ],
      [
        "ĠHU",
        -1.0
      ],
      [
        "243",
        -1.0
      ],
      [
        "ĠSight",
        -1.0
      ],
      [
        "aev",
        -1.0
      ],
      [
        "ulism",
        -1.0
      ],
      [
        "âĢĵâĢĵ",
        -1.0
      ],
      [
        "§",
        -1.0
      ],
      [
        "Ġcystic",
        -1.0
      ],
      [
        "Ġqueer",
        -1.0
      ],
      [
        "Hope",
        -1.0
      ],
      [
        "ĠMolina",
        -1.0
      ],
      [
        "Ġsupport",
        -1.0
      ],
      [
        "ĠPaleolithic",
        -1.0
      ],
      [
        "ĠWhe",
        -1.0
      ],
      [
        "RGE",
        -1.0
      ],
      [
        "Buffer",
        -1.0
      ],
      [
        "ĠBorders",
        -1.0
      ],
      [
        "dad",
        -1.0
      ],
      [
        "ĠScribner",
        -1.0
      ],
      [
        "rose",
        -1.0
      ],
      [
        "Ġisotope",
        -1.0
      ],
      [
        "ffer",
        -1.0
      ],
      [
        "ĠPollock",
        -1.0
      ],
      [
        "ĠÅļ",
        -1.0
      ],
      [
        "WW",
        -1.0
      ],
      [
        "Ġquell",
        -1.0
      ],
      [
        "Ġanalytic",
        -1.0
      ],
      [
        "Ġvanishes",
        -1.0
      ],
      [
        "Ġtilting",
        -1.0
      ],
      [
        "Ġpicnic",
        -1.0
      ],
      [
        "Bur",
        -1.0
      ],
      [
        "Vis",
        -1.0
      ],
      [
        "Ġtavern",
        -1.0
      ],
      [
        ").|",
        -1.0
      ],
      [
        "Ġreflecting",
        -1.0
      ],
      [
        "08",
        -1.0
      ],
      [
        "Ġsculptor",
        -1.0
      ],
      [
        "Inf",
        -1.0
      ],
      [
        "late",
        -1.0
      ],
      [
        "Ġrepresenting",
        -1.0
      ],
      [
        "Ġbead",
        -1.0
      ],
      [
        "ĠVikram",
        -1.0
      ],
      [
        "ETT",
        -1.0
      ],
      [
        "ĠDairy",
        -1.0
      ],
      [
        "Ġrevising",
        -1.0
      ],
      [
        "ĠJF",
        -1.0
      ],
      [
        "Ġinit",
        -1.0
      ],
      [
        "Ġoffline",
        -1.0
      ],
      [
        "Ġconserving",
        -1.0
      ],
      [
        "miller",
        -1.0
      ],
      [
        "Ġrevolves",
        -1.0
      ],
      [
        "YO",
        -1.0
      ],
      [
        "Ġindependently",
        -1.0
      ],
      [
        "Ġfurnace",
        -1.0
      ],
      [
        "Ġadversity",
        -1.0
      ],
      [
        "Ġsterilized",
        -1.0
      ],
      [
        "Ġcharacterizes",
        -1.0
      ],
      [
        "Ġdefunct",
        -1.0
      ],
      [
        "ĠMohamed",
        -1.0
      ],
      [
        "ĠLAW",
        -1.0
      ],
      [
        "Ġsculpt",
        -1.0
      ],
      [
        "Ġ[...],",
        -1.0
      ],
      [
        "Ġwelcoming",
        -1.0
      ],
      [
        "Ġtypographical",
        -1.0
      ],
      [
        "utter",
        -1.0
      ],
      [
        "ĠHeracl",
        -1.0
      ],
      [
        "Ġtoolbar",
        -1.0
      ],
      [
        "ĠBrowning",
        -1.0
      ],
      [
        "ĠAlder",
        -1.0
      ],
      [
        "ĠCray",
        -1.0
      ],
      [
        "oud",
        -1.0
      ],
      [
        "ĠProtestants",
        -1.0
      ],
      [
        "Ġsunburns",
        -1.0
      ],
      [
        "ĠCITY",
        -1.0
      ],
      [
        "sure",
        -1.0
      ],
      [
        "ĠDesk",
        -1.0
      ],
      [
        "eeded",
        -1.0
      ],
      [
        "RICH",
        -1.0
      ],
      [
        "TRACT",
        -1.0
      ],
      [
        "le",
        -1.0
      ],
      [
        "Ġarrangement",
        -1.0
      ],
      [
        "mechanics",
        -1.0
      ],
      [
        "nlightened",
        -1.0
      ],
      [
        "Ġsimulate",
        -1.0
      ],
      [
        "procedure",
        -1.0
      ],
      [
        "ĠTai",
        -1.0
      ],
      [
        "Summa",
        -1.0
      ],
      [
        "Ġhabitable",
        -1.0
      ],
      [
        "Ġdiminishing",
        -1.0
      ],
      [
        "Ġplayground",
        -1.0
      ],
      [
        "ĠEO",
        -1.0
      ],
      [
        "Ġneurologic",
        -1.0
      ],
      [
        "Ġbowl",
        -1.0
      ],
      [
        "ĠdB",
        -1.0
      ],
      [
        "ĠBibles",
        -1.0
      ],
      [
        "hydrotestosterone",
        -1.0
      ],
      [
        "Ġsuffix",
        -1.0
      ],
      [
        "Around",
        -1.0
      ],
      [
        "Ġshowcased",
        -1.0
      ],
      [
        "ĠControlled",
        -1.0
      ],
      [
        "345",
        -1.0
      ],
      [
        "Ġalphabets",
        -1.0
      ],
      [
        "Ġjournalist",
        -1.0
      ],
      [
        "Ġunconsciousness",
        -1.0
      ],
      [
        "Ġshunt",
        -1.0
      ],
      [
        "Ġoccipital",
        -1.0
      ],
      [
        "rian",
        -1.0
      ],
      [
        "Ġmaid",
        -1.0
      ],
      [
        "Ġlinguistic",
        -1.0
      ],
      [
        "Ġassignments",
        -1.0
      ],
      [
        "Ġkiln",
        -1.0
      ],
      [
        "Ġamplifies",
        -1.0
      ],
      [
        "ĠJesse",
        -1.0
      ],
      [
        "Ġapart",
        -1.0
      ],
      [
        "ĠVar",
        -1.0
      ],
      [
        "Ġseq",
        -1.0
      ],
      [
        "Ġinsufficiently",
        -1.0
      ],
      [
        "ĠAmericans",
        -1.0
      ],
      [
        "onto",
        -1.0
      ],
      [
        "183",
        -1.0
      ],
      [
        "Ġdisintegrating",
        -1.0
      ],
      [
        "Ġbeet",
        -1.0
      ],
      [
        "aceae",
        -1.0
      ],
      [
        "Ġmanatee",
        -1.0
      ],
      [
        "No",
        -1.0
      ],
      [
        "ĠISSN",
        -1.0
      ],
      [
        "Ġcurve",
        -1.0
      ],
      [
        "Whenever",
        -1.0
      ],
      [
        "ĠStudio",
        -1.0
      ],
      [
        "Ġlosses",
        -1.0
      ],
      [
        "Ġdioramas",
        -1.0
      ],
      [
        "dick",
        -1.0
      ],
      [
        "Ġpassing",
        -1.0
      ],
      [
        "Ġabate",
        -1.0
      ],
      [
        "ĠBeatles",
        -1.0
      ],
      [
        "Ġsalary",
        -1.0
      ],
      [
        "ĠISON",
        -1.0
      ],
      [
        "ĠUranus",
        -1.0
      ],
      [
        "vas",
        -1.0
      ],
      [
        "Ġil",
        -1.0
      ],
      [
        "Ġalmanac",
        -1.0
      ],
      [
        "ĠGCOS",
        -1.0
      ],
      [
        "partisan",
        -1.0
      ],
      [
        "cam",
        -1.0
      ],
      [
        "Ġcoded",
        -1.0
      ],
      [
        "ĠPete",
        -1.0
      ],
      [
        "Church",
        -1.0
      ],
      [
        "Ġdevelop",
        -1.0
      ],
      [
        "Ġsomato",
        -1.0
      ],
      [
        "ĠInquisitor",
        -1.0
      ],
      [
        "Ġwrongs",
        -1.0
      ],
      [
        "Ġexecution",
        -1.0
      ],
      [
        "yed",
        -1.0
      ],
      [
        "ĠDowns",
        -1.0
      ],
      [
        "Ġboard",
        -1.0
      ],
      [
        "ĠRoutine",
        -1.0
      ],
      [
        "Ġpostpone",
        -1.0
      ],
      [
        "terrestrial",
        -1.0
      ],
      [
        "Multiple",
        -1.0
      ],
      [
        "Ġbeg",
        -1.0
      ],
      [
        "Ġradically",
        -1.0
      ],
      [
        "Ġallele",
        -1.0
      ],
      [
        "72",
        -1.0
      ],
      [
        "ĠPoly",
        -1.0
      ],
      [
        "discovery",
        -1.0
      ],
      [
        "Ġ1745",
        -1.0
      ],
      [
        "stimulating",
        -1.0
      ],
      [
        "ĠAlto",
        -1.0
      ],
      [
        "OU",
        -1.0
      ],
      [
        "Ġwh",
        -1.0
      ],
      [
        "Ġnoxious",
        -1.0
      ],
      [
        "ĠFlemish",
        -1.0
      ],
      [
        "1847",
        -1.0
      ],
      [
        "Ġmistress",
        -1.0
      ],
      [
        "ĠBrowne",
        -1.0
      ],
      [
        "Ġ1001",
        -1.0
      ],
      [
        "xanthin",
        -1.0
      ],
      [
        "Ġinner",
        -1.0
      ],
      [
        "ĠPalestinians",
        -1.0
      ],
      [
        "Ġtemblor",
        -1.0
      ],
      [
        "ĠÐĳÐµÐ¾Ð³ÑĢÐ°Ð´",
        -1.0
      ],
      [
        "Methods",
        -1.0
      ],
      [
        "Ġoverwhelmed",
        -1.0
      ],
      [
        "SE",
        -1.0
      ],
      [
        "Ġbrowsing",
        -1.0
      ],
      [
        "ĠCorrection",
        -1.0
      ],
      [
        "Need",
        -1.0
      ],
      [
        "ĠPlain",
        -1.0
      ],
      [
        "ĠEcho",
        -1.0
      ],
      [
        "dg",
        -1.0
      ],
      [
        "ĠChamberlain",
        -1.0
      ],
      [
        "Ġnine",
        -1.0
      ],
      [
        "Ġbristle",
        -1.0
      ],
      [
        "Ġcondemning",
        -1.0
      ],
      [
        "ĠUSER",
        -1.0
      ],
      [
        "Local",
        -1.0
      ],
      [
        "ĠENUM",
        -1.0
      ],
      [
        "Ġhousekeeping",
        -1.0
      ],
      [
        "ĠItalians",
        -1.0
      ],
      [
        "bies",
        -1.0
      ],
      [
        "Ġfissile",
        -1.0
      ],
      [
        "Ġseveral",
        -1.0
      ],
      [
        "oked",
        -1.0
      ],
      [
        "Ġtotalitarianism",
        -1.0
      ],
      [
        "141",
        -1.0
      ],
      [
        "Ġpunishing",
        -1.0
      ],
      [
        "180",
        -1.0
      ],
      [
        "England",
        -1.0
      ],
      [
        "?\"",
        -1.0
      ],
      [
        "Ġincapacity",
        -1.0
      ],
      [
        "eudepigraph",
        -1.0
      ],
      [
        "Au",
        -1.0
      ],
      [
        "ÑĤÐ¾",
        -1.0
      ],
      [
        "Ġpersons",
        -1.0
      ],
      [
        "ĠSphere",
        -1.0
      ],
      [
        "Ġinsightful",
        -1.0
      ],
      [
        "Ġpipeline",
        -1.0
      ],
      [
        "Ġdemands",
        -1.0
      ],
      [
        "Ġcyborg",
        -1.0
      ],
      [
        "Tree",
        -1.0
      ],
      [
        "Ġhumanely",
        -1.0
      ],
      [
        "mphigus",
        -1.0
      ],
      [
        "Ġflatter",
        -1.0
      ],
      [
        "Ġexpulsion",
        -1.0
      ],
      [
        "Ġcows",
        -1.0
      ],
      [
        "Ġresurgence",
        -1.0
      ],
      [
        "Ġcharting",
        -1.0
      ],
      [
        "ĠAmazon",
        -1.0
      ],
      [
        "Ġsmaller",
        -1.0
      ],
      [
        "Ġurinating",
        -1.0
      ],
      [
        "Sexual",
        -1.0
      ],
      [
        "Ġseating",
        -1.0
      ],
      [
        "ĠGuideline",
        -1.0
      ],
      [
        "Ġrewritten",
        -1.0
      ],
      [
        "Ġhopeless",
        -1.0
      ],
      [
        "ĠTNG",
        -1.0
      ],
      [
        "aá¹Ń",
        -1.0
      ],
      [
        "2001",
        -1.0
      ],
      [
        "ĠJoaquin",
        -1.0
      ],
      [
        "ĠForrest",
        -1.0
      ],
      [
        "ĠApology",
        -1.0
      ],
      [
        "Ġale",
        -1.0
      ],
      [
        "ĠChoice",
        -1.0
      ],
      [
        "ran",
        -1.0
      ],
      [
        "ĠAjdabiya",
        -1.0
      ],
      [
        "raf",
        -1.0
      ],
      [
        "Ġcholecyst",
        -1.0
      ],
      [
        "mutation",
        -1.0
      ],
      [
        "Ġstand",
        -1.0
      ],
      [
        "ĠRegina",
        -1.0
      ],
      [
        "Ġomitting",
        -1.0
      ],
      [
        "contract",
        -1.0
      ],
      [
        "ĠFlower",
        -1.0
      ],
      [
        "Ġupgrade",
        -1.0
      ],
      [
        "ĠPliciloricus",
        -1.0
      ],
      [
        "Ġtrickle",
        -1.0
      ],
      [
        "Ġimplicit",
        -1.0
      ],
      [
        "subjects",
        -1.0
      ],
      [
        "WP",
        -1.0
      ],
      [
        "ĠArchives",
        -1.0
      ],
      [
        "ĠBRCA",
        -1.0
      ],
      [
        "Ġprolactin",
        -1.0
      ],
      [
        "pdf",
        -1.0
      ],
      [
        "Ġvacation",
        -1.0
      ],
      [
        "ĠBurzynski",
        -1.0
      ],
      [
        "ĠMabel",
        -1.0
      ],
      [
        "ĠSow",
        -1.0
      ],
      [
        "Ġactivates",
        -1.0
      ],
      [
        "Ġinterbreeding",
        -1.0
      ],
      [
        "Ġphenylketonuria",
        -1.0
      ],
      [
        "Study",
        -1.0
      ],
      [
        "Ġmes",
        -1.0
      ],
      [
        "Ġdidnt",
        -1.0
      ],
      [
        "Ġhypothesized",
        -1.0
      ],
      [
        "Ġtram",
        -1.0
      ],
      [
        "Ġmindless",
        -1.0
      ],
      [
        "ĠTyre",
        -1.0
      ],
      [
        "Ġcomputers",
        -1.0
      ],
      [
        "ĠDLL",
        -1.0
      ],
      [
        "ĠAinu",
        -1.0
      ],
      [
        "Ġhorseshoe",
        -1.0
      ],
      [
        "765",
        -1.0
      ],
      [
        "ĠFishes",
        -1.0
      ],
      [
        "Ġnoted",
        -1.0
      ],
      [
        "ĠGrim",
        -1.0
      ],
      [
        "Nielsen",
        -1.0
      ],
      [
        "Ġmaintained",
        -1.0
      ],
      [
        "yu",
        -1.0
      ],
      [
        "Ġpretreatment",
        -1.0
      ],
      [
        "Ġexpository",
        -1.0
      ],
      [
        "Ġvaluable",
        -1.0
      ],
      [
        "pala",
        -1.0
      ],
      [
        "ĠPET",
        -1.0
      ],
      [
        "Ġblocker",
        -1.0
      ],
      [
        "Ġpowerless",
        -1.0
      ],
      [
        "ĠMordechai",
        -1.0
      ],
      [
        "ĠExtension",
        -1.0
      ],
      [
        "Ġashes",
        -1.0
      ],
      [
        "ĠSpain",
        -1.0
      ],
      [
        "Ġpeaches",
        -1.0
      ],
      [
        "ĠPuritan",
        -1.0
      ],
      [
        "Ġsearched",
        -1.0
      ],
      [
        "fluoro",
        -1.0
      ],
      [
        "Regulation",
        -1.0
      ],
      [
        "Ġsweeps",
        -1.0
      ],
      [
        "ĠPabna",
        -1.0
      ],
      [
        "Ġideologically",
        -1.0
      ],
      [
        "rnobyl",
        -1.0
      ],
      [
        "ĠPalo",
        -1.0
      ],
      [
        "Ġgas",
        -1.0
      ],
      [
        "ĠEmily",
        -1.0
      ],
      [
        "ĠNORTH",
        -1.0
      ],
      [
        "ĠDra",
        -1.0
      ],
      [
        "private",
        -1.0
      ],
      [
        "ĠKÃ¼",
        -1.0
      ],
      [
        "Ġfavors",
        -1.0
      ],
      [
        "ĠParsons",
        -1.0
      ],
      [
        "wound",
        -1.0
      ],
      [
        "Ġhatching",
        -1.0
      ],
      [
        "Ġlakes",
        -1.0
      ],
      [
        "âĢ¦..",
        -1.0
      ],
      [
        "Fest",
        -1.0
      ],
      [
        "1812",
        -1.0
      ],
      [
        "card",
        -1.0
      ],
      [
        "Ġdrape",
        -1.0
      ],
      [
        "Ġbreadth",
        -1.0
      ],
      [
        "Vaginal",
        -1.0
      ],
      [
        "ĠBei",
        -1.0
      ],
      [
        "Ġreactionary",
        -1.0
      ],
      [
        "ĠCompass",
        -1.0
      ],
      [
        "proved",
        -1.0
      ],
      [
        "Trichosirocalus",
        -1.0
      ],
      [
        "Ġfavourite",
        -1.0
      ],
      [
        "Ġsandpiper",
        -1.0
      ],
      [
        "Ġcheek",
        -1.0
      ],
      [
        "Ġpacify",
        -1.0
      ],
      [
        "Ġinsomnia",
        -1.0
      ],
      [
        "Ġrecommendations",
        -1.0
      ],
      [
        "Ġenormously",
        -1.0
      ],
      [
        "ĠSon",
        -1.0
      ],
      [
        "Ġassuring",
        -1.0
      ],
      [
        "Ġreverence",
        -1.0
      ],
      [
        "hala",
        -1.0
      ],
      [
        "ĠSerum",
        -1.0
      ],
      [
        "hor",
        -1.0
      ],
      [
        "hypopituitarism",
        -1.0
      ],
      [
        "Ġmodelled",
        -1.0
      ],
      [
        "Correct",
        -1.0
      ],
      [
        "Ġreunited",
        -1.0
      ],
      [
        "ĠGall",
        -1.0
      ],
      [
        "zl",
        -1.0
      ],
      [
        "Ġchilled",
        -1.0
      ],
      [
        "Ġprecocious",
        -1.0
      ],
      [
        "Ġmeasurements",
        -1.0
      ],
      [
        "Post",
        -1.0
      ],
      [
        "Ġoverseeing",
        -1.0
      ],
      [
        "Ġtrench",
        -1.0
      ],
      [
        "Ġinterviewed",
        -1.0
      ],
      [
        "ĠLebesgue",
        -1.0
      ],
      [
        "ĠTreblinka",
        -1.0
      ],
      [
        "Ġbill",
        -1.0
      ],
      [
        "Ġtentatively",
        -1.0
      ],
      [
        "ĠShelby",
        -1.0
      ],
      [
        "Ġbycatch",
        -1.0
      ],
      [
        "Ġhone",
        -1.0
      ],
      [
        "Ġtank",
        -1.0
      ],
      [
        "248",
        -1.0
      ],
      [
        "ĠRoles",
        -1.0
      ],
      [
        "Science",
        -1.0
      ],
      [
        "ĠfranÃ§ais",
        -1.0
      ],
      [
        "ĠCompany",
        -1.0
      ],
      [
        "erva",
        -1.0
      ],
      [
        "ĠAlter",
        -1.0
      ],
      [
        "Ġinaudible",
        -1.0
      ],
      [
        "Ġcustomized",
        -1.0
      ],
      [
        "ĠCrash",
        -1.0
      ],
      [
        "ĠVijay",
        -1.0
      ],
      [
        "Ġpromoted",
        -1.0
      ],
      [
        "ĠHol",
        -1.0
      ],
      [
        "Ġfraternal",
        -1.0
      ],
      [
        "Ġhandwritten",
        -1.0
      ],
      [
        "SOL",
        -1.0
      ],
      [
        "ovitch",
        -1.0
      ],
      [
        "ĠDT",
        -1.0
      ],
      [
        "Ġcrunch",
        -1.0
      ],
      [
        "Ġtrilogy",
        -1.0
      ],
      [
        "Ġ(~",
        -1.0
      ],
      [
        "Ġaggrieved",
        -1.0
      ],
      [
        "Routine",
        -1.0
      ],
      [
        "Ġbones",
        -1.0
      ],
      [
        "ĠHomes",
        -1.0
      ],
      [
        "Ġhonor",
        -1.0
      ],
      [
        "Ġfront",
        -1.0
      ],
      [
        "460",
        -1.0
      ],
      [
        "ĠHernandez",
        -1.0
      ],
      [
        "GE",
        -1.0
      ],
      [
        "ĠCourage",
        -1.0
      ],
      [
        "players",
        -1.0
      ],
      [
        "Ġviolated",
        -1.0
      ],
      [
        "Ġrequisite",
        -1.0
      ],
      [
        "Ġconvex",
        -1.0
      ],
      [
        "ĠDischarge",
        -1.0
      ],
      [
        "ĠDC",
        -1.0
      ],
      [
        "Ġviv",
        -1.0
      ],
      [
        "Ġexcavators",
        -1.0
      ],
      [
        "Ġadvancement",
        -1.0
      ],
      [
        "Ġcranium",
        -1.0
      ],
      [
        "Ġinherited",
        -1.0
      ],
      [
        "Ġtolterodine",
        -1.0
      ],
      [
        "Popular",
        -1.0
      ],
      [
        "ĠSteiner",
        -1.0
      ],
      [
        "frequent",
        -1.0
      ],
      [
        "ĠIberia",
        -1.0
      ],
      [
        "Ġcornmeal",
        -1.0
      ],
      [
        "Ġobtained",
        -1.0
      ],
      [
        "Ġvaluables",
        -1.0
      ],
      [
        "Ġsquea",
        -1.0
      ],
      [
        "Ġunnatural",
        -1.0
      ],
      [
        "ĠAppellate",
        -1.0
      ],
      [
        "Ġinvaders",
        -1.0
      ],
      [
        "Ġexpectation",
        -1.0
      ],
      [
        "Behind",
        -1.0
      ],
      [
        "ĠZeitung",
        -1.0
      ],
      [
        "Gla",
        -1.0
      ],
      [
        "Ġmutin",
        -1.0
      ],
      [
        "Ġacidification",
        -1.0
      ],
      [
        "Width",
        -1.0
      ],
      [
        "Ġendowment",
        -1.0
      ],
      [
        "ific",
        -1.0
      ],
      [
        "ĠCadmus",
        -1.0
      ],
      [
        "Ġdialect",
        -1.0
      ],
      [
        "Ġfortress",
        -1.0
      ],
      [
        "Ġconceptually",
        -1.0
      ],
      [
        "drink",
        -1.0
      ],
      [
        "Ġpearl",
        -1.0
      ],
      [
        "Ġempire",
        -1.0
      ],
      [
        "nad",
        -1.0
      ],
      [
        "Discussion",
        -1.0
      ],
      [
        "Ġwider",
        -1.0
      ],
      [
        "gio",
        -1.0
      ],
      [
        "Ġkissing",
        -1.0
      ],
      [
        "Ġhatred",
        -1.0
      ],
      [
        "Inter",
        -1.0
      ],
      [
        "Ġfer",
        -1.0
      ],
      [
        "shman",
        -1.0
      ],
      [
        "Ġappealed",
        -1.0
      ],
      [
        "Ġhum",
        -1.0
      ],
      [
        "ĠExt",
        -1.0
      ],
      [
        "ĠPurgatory",
        -1.0
      ],
      [
        "Ġpulp",
        -1.0
      ],
      [
        "Libya",
        -1.0
      ],
      [
        "Ġhappening",
        -1.0
      ],
      [
        "ĠNewtonian",
        -1.0
      ],
      [
        "Alice",
        -1.0
      ],
      [
        "Ġgauge",
        -1.0
      ],
      [
        "Ġ1764",
        -1.0
      ],
      [
        "Ġcruelty",
        -1.0
      ],
      [
        "ĠDeV",
        -1.0
      ],
      [
        "Ġthermostat",
        -1.0
      ],
      [
        "plicated",
        -1.0
      ],
      [
        "Ġduplex",
        -1.0
      ],
      [
        "Ġvictor",
        -1.0
      ],
      [
        "ĠLead",
        -1.0
      ],
      [
        "courage",
        -1.0
      ],
      [
        "ĠUPI",
        -1.0
      ],
      [
        "Ġrecount",
        -1.0
      ],
      [
        "purchase",
        -1.0
      ],
      [
        "Chen",
        -1.0
      ],
      [
        "Independent",
        -1.0
      ],
      [
        "Ġesophagus",
        -1.0
      ],
      [
        "Ġfu",
        -1.0
      ],
      [
        "Ġpsilocybin",
        -1.0
      ],
      [
        "Ġhazardous",
        -1.0
      ],
      [
        "ĠValidation",
        -1.0
      ],
      [
        "Ġoscillator",
        -1.0
      ],
      [
        "ammar",
        -1.0
      ],
      [
        "DV",
        -1.0
      ],
      [
        "Ġepitaph",
        -1.0
      ],
      [
        "ĠINF",
        -1.0
      ],
      [
        "ĠGoodrich",
        -1.0
      ],
      [
        "Ġhealthy",
        -1.0
      ],
      [
        "Ġreign",
        -1.0
      ],
      [
        "Ġartificial",
        -1.0
      ],
      [
        "Ġ422",
        -1.0
      ],
      [
        "Ġbroad",
        -1.0
      ],
      [
        "Ġfiring",
        -1.0
      ],
      [
        "ĠWarbler",
        -1.0
      ],
      [
        "Ġsimmer",
        -1.0
      ],
      [
        "Lawrence",
        -1.0
      ],
      [
        "bags",
        -1.0
      ],
      [
        "Ġlays",
        -1.0
      ],
      [
        "Ġsubstantiate",
        -1.0
      ],
      [
        "human",
        -1.0
      ],
      [
        "Ġeuro",
        -1.0
      ],
      [
        "Ġchop",
        -1.0
      ],
      [
        "Publications",
        -1.0
      ],
      [
        "Ġhovering",
        -1.0
      ],
      [
        "Ġalliterative",
        -1.0
      ],
      [
        "ĠHerrera",
        -1.0
      ],
      [
        "Ġexternal",
        -1.0
      ],
      [
        "Ġformant",
        -1.0
      ],
      [
        "Chiropractic",
        -1.0
      ],
      [
        "Ġcoherent",
        -1.0
      ],
      [
        "Ġcooker",
        -1.0
      ],
      [
        "Ġchloride",
        -1.0
      ],
      [
        "erm",
        -1.0
      ],
      [
        "ĠARTICLE",
        -1.0
      ],
      [
        ")=",
        -1.0
      ],
      [
        "Ġevaporates",
        -1.0
      ],
      [
        "Ġallocating",
        -1.0
      ],
      [
        "Ġdrummer",
        -1.0
      ],
      [
        "å®",
        -1.0
      ],
      [
        "Ġdocumentaries",
        -1.0
      ],
      [
        "ĠCopernican",
        -1.0
      ],
      [
        "Ġharvested",
        -1.0
      ],
      [
        "ĠHieromonk",
        -1.0
      ],
      [
        "ĠUCSD",
        -1.0
      ],
      [
        "mediated",
        -1.0
      ],
      [
        "Ġmigration",
        -1.0
      ],
      [
        "leg",
        -1.0
      ],
      [
        "Visit",
        -1.0
      ],
      [
        "Ġrecordings",
        -1.0
      ],
      [
        "Ġanswering",
        -1.0
      ],
      [
        "ĠHitchhiker",
        -1.0
      ],
      [
        "estro",
        -1.0
      ],
      [
        "Physical",
        -1.0
      ],
      [
        "Ġmisconception",
        -1.0
      ],
      [
        "ĠVisiting",
        -1.0
      ],
      [
        "Ġprecipitated",
        -1.0
      ],
      [
        "Ġcoaches",
        -1.0
      ],
      [
        "arius",
        -1.0
      ],
      [
        "ĠMonongahela",
        -1.0
      ],
      [
        "hine",
        -1.0
      ],
      [
        "ĠSpa",
        -1.0
      ],
      [
        "Ġendocrine",
        -1.0
      ],
      [
        "pies",
        -1.0
      ],
      [
        "ĠCi",
        -1.0
      ],
      [
        "ĠThus",
        -1.0
      ],
      [
        "Ġtrue",
        -1.0
      ],
      [
        "Ġâī¤",
        -1.0
      ],
      [
        ".)",
        -1.0
      ],
      [
        "Ġdiscrepancy",
        -1.0
      ],
      [
        "Ġpasteur",
        -1.0
      ],
      [
        "Introducing",
        -1.0
      ],
      [
        "Ġpups",
        -1.0
      ],
      [
        "Ġrammed",
        -1.0
      ],
      [
        "Ġretrace",
        -1.0
      ],
      [
        "Ġdistraught",
        -1.0
      ],
      [
        "ĠTheme",
        -1.0
      ],
      [
        "Ġmonastery",
        -1.0
      ],
      [
        "Ġaccepted",
        -1.0
      ],
      [
        "equilibrium",
        -1.0
      ],
      [
        "Ġminuscule",
        -1.0
      ],
      [
        "Ġwalrus",
        -1.0
      ],
      [
        "ĠNS",
        -1.0
      ],
      [
        "guns",
        -1.0
      ],
      [
        "Ġcephal",
        -1.0
      ],
      [
        "Ġavoiding",
        -1.0
      ],
      [
        "Ġnucleic",
        -1.0
      ],
      [
        "Ġautomation",
        -1.0
      ],
      [
        "Ġhandlers",
        -1.0
      ],
      [
        "Ġdeserved",
        -1.0
      ],
      [
        "Ġrooftops",
        -1.0
      ],
      [
        "Team",
        -1.0
      ],
      [
        "ĠOpens",
        -1.0
      ],
      [
        "Ġpalladium",
        -1.0
      ],
      [
        "long",
        -1.0
      ],
      [
        "ĠPlug",
        -1.0
      ],
      [
        "Ġspermato",
        -1.0
      ],
      [
        "ĠPharmaceutical",
        -1.0
      ],
      [
        "Ġblockages",
        -1.0
      ],
      [
        "Ġmultidimensional",
        -1.0
      ],
      [
        "ĠBundesverfassungsgericht",
        -1.0
      ],
      [
        "ĠFramingham",
        -1.0
      ],
      [
        "ĠTurnpike",
        -1.0
      ],
      [
        "Ġasynchronous",
        -1.0
      ],
      [
        "eb",
        -1.0
      ],
      [
        "Ġmix",
        -1.0
      ],
      [
        "tinguish",
        -1.0
      ],
      [
        "Ġsafely",
        -1.0
      ],
      [
        "rural",
        -1.0
      ],
      [
        "anas",
        -1.0
      ],
      [
        "Ġlacking",
        -1.0
      ],
      [
        "Ġcervical",
        -1.0
      ],
      [
        "ĠManning",
        -1.0
      ],
      [
        "CPR",
        -1.0
      ],
      [
        "Ġmarvels",
        -1.0
      ],
      [
        "ĠInsulin",
        -1.0
      ],
      [
        "Ġmeticulous",
        -1.0
      ],
      [
        "ĠMagna",
        -1.0
      ],
      [
        "Ġthus",
        -1.0
      ],
      [
        "Ġdecompose",
        -1.0
      ],
      [
        "dies",
        -1.0
      ],
      [
        "ĠWesley",
        -1.0
      ],
      [
        "ĠUNC",
        -1.0
      ],
      [
        "Assistive",
        -1.0
      ],
      [
        "ĠXIII",
        -1.0
      ],
      [
        "Ġferro",
        -1.0
      ],
      [
        "ĠShame",
        -1.0
      ],
      [
        "Ġsmelters",
        -1.0
      ],
      [
        "Ġkingdom",
        -1.0
      ],
      [
        "ĠTer",
        -1.0
      ],
      [
        "calib",
        -1.0
      ],
      [
        "ĠIsland",
        -1.0
      ],
      [
        "ĠMinutes",
        -1.0
      ],
      [
        "ish",
        -1.0
      ],
      [
        "ĠGenocide",
        -1.0
      ],
      [
        "Ġpeopling",
        -1.0
      ],
      [
        "ĠLauderdale",
        -1.0
      ],
      [
        "rac",
        -1.0
      ],
      [
        "aryng",
        -1.0
      ],
      [
        "Ġrupees",
        -1.0
      ],
      [
        "nching",
        -1.0
      ],
      [
        "Ġdrowsy",
        -1.0
      ],
      [
        "ĠCLIMATE",
        -1.0
      ],
      [
        "ĠErdogan",
        -1.0
      ],
      [
        "Ġcondominium",
        -1.0
      ],
      [
        "Ġinhaled",
        -1.0
      ],
      [
        "Ġidem",
        -1.0
      ],
      [
        "Ġexcludes",
        -1.0
      ],
      [
        "ĠBorges",
        -1.0
      ],
      [
        "Ġunscientific",
        -1.0
      ],
      [
        "would",
        -1.0
      ],
      [
        "stol",
        -1.0
      ],
      [
        "Ġunavoidable",
        -1.0
      ],
      [
        "ĠRensselaer",
        -1.0
      ],
      [
        "handle",
        -1.0
      ],
      [
        "Prepare",
        -1.0
      ],
      [
        "Ġflavours",
        -1.0
      ],
      [
        "wers",
        -1.0
      ],
      [
        "Ġeuphemism",
        -1.0
      ],
      [
        "narrative",
        -1.0
      ],
      [
        "Arm",
        -1.0
      ],
      [
        "ĠParramatta",
        -1.0
      ],
      [
        "Ġesteem",
        -1.0
      ],
      [
        "itÃ©",
        -1.0
      ],
      [
        "Ġadministers",
        -1.0
      ],
      [
        "Fourth",
        -1.0
      ],
      [
        "Ġsteamer",
        -1.0
      ],
      [
        "ĠPractically",
        -1.0
      ],
      [
        "Ġ1994",
        -1.0
      ],
      [
        "Ġdemolished",
        -1.0
      ],
      [
        "Ġpedagogy",
        -1.0
      ],
      [
        "ĠCivic",
        -1.0
      ],
      [
        "Ġpapers",
        -1.0
      ],
      [
        "ĠHab",
        -1.0
      ],
      [
        "ĠFel",
        -1.0
      ],
      [
        "Ġspasms",
        -1.0
      ],
      [
        "Ġdirectors",
        -1.0
      ],
      [
        "Ġsubordination",
        -1.0
      ],
      [
        "Ġculverts",
        -1.0
      ],
      [
        "Ġdisruptors",
        -1.0
      ],
      [
        "Ġsigmoid",
        -1.0
      ],
      [
        "Ġencoding",
        -1.0
      ],
      [
        "auto",
        -1.0
      ],
      [
        "Os",
        -1.0
      ],
      [
        "ĠNicene",
        -1.0
      ],
      [
        "Ġobservatory",
        -1.0
      ],
      [
        "ĠSnyatyn",
        -1.0
      ],
      [
        "Ġdoorknob",
        -1.0
      ],
      [
        "horned",
        -1.0
      ],
      [
        "Ġepigenetic",
        -1.0
      ],
      [
        "Ġdrawing",
        -1.0
      ],
      [
        "Ġwild",
        -1.0
      ],
      [
        "ĠCoon",
        -1.0
      ],
      [
        "ĠDenis",
        -1.0
      ],
      [
        "Ġscratched",
        -1.0
      ],
      [
        "Ġlevee",
        -1.0
      ],
      [
        "ĠIEP",
        -1.0
      ],
      [
        "Ġrelapses",
        -1.0
      ],
      [
        "Thus",
        -1.0
      ],
      [
        "371",
        -1.0
      ],
      [
        "Universal",
        -1.0
      ],
      [
        "ĠHastings",
        -1.0
      ],
      [
        "ĠRomeo",
        -1.0
      ],
      [
        "otherapy",
        -1.0
      ],
      [
        "Ġpico",
        -1.0
      ],
      [
        "ĠEMP",
        -1.0
      ],
      [
        "Findings",
        -1.0
      ],
      [
        "qualified",
        -1.0
      ],
      [
        "Ġcurved",
        -1.0
      ],
      [
        "Ġappeal",
        -1.0
      ],
      [
        "Ġawarded",
        -1.0
      ],
      [
        "Deposited",
        -1.0
      ],
      [
        "Ġ",
        -1.0
      ],
      [
        "ĠPlaza",
        -1.0
      ],
      [
        "SEA",
        -1.0
      ],
      [
        "ĠHIS",
        -1.0
      ],
      [
        "ĠNF",
        -1.0
      ],
      [
        "ĠSyphilis",
        -1.0
      ],
      [
        "rity",
        -1.0
      ],
      [
        "ĠSwaziland",
        -1.0
      ],
      [
        "described",
        -1.0
      ],
      [
        "Ġturfgrass",
        -1.0
      ],
      [
        "Ġcartographer",
        -1.0
      ],
      [
        "Ġprimaries",
        -1.0
      ],
      [
        "Ġvirtually",
        -1.0
      ],
      [
        "-(",
        -1.0
      ],
      [
        "Site",
        -1.0
      ],
      [
        "Ġdiaries",
        -1.0
      ],
      [
        "ĠSer",
        -1.0
      ],
      [
        "Ġfins",
        -1.0
      ],
      [
        "ĠGravity",
        -1.0
      ],
      [
        "Current",
        -1.0
      ],
      [
        "ä¸",
        -1.0
      ],
      [
        "Ġgalvanizing",
        -1.0
      ],
      [
        "ĠMaud",
        -1.0
      ],
      [
        "ĠJosephine",
        -1.0
      ],
      [
        "instant",
        -1.0
      ],
      [
        "ĠHip",
        -1.0
      ],
      [
        "ĠSUM",
        -1.0
      ],
      [
        "Î³",
        -1.0
      ],
      [
        "ckets",
        -1.0
      ],
      [
        "Ġadhere",
        -1.0
      ],
      [
        "ĠCats",
        -1.0
      ],
      [
        "Ġbars",
        -1.0
      ],
      [
        "sonance",
        -1.0
      ],
      [
        "Ġrh",
        -1.0
      ],
      [
        "Ġdiminution",
        -1.0
      ],
      [
        "Ġinactivation",
        -1.0
      ],
      [
        "ĠSwitching",
        -1.0
      ],
      [
        "Ġomissions",
        -1.0
      ],
      [
        "ĠBoone",
        -1.0
      ],
      [
        "Ġkidding",
        -1.0
      ],
      [
        "Ġmagazine",
        -1.0
      ],
      [
        "Ġships",
        -1.0
      ],
      [
        "Hi",
        -1.0
      ],
      [
        "Ġdetachment",
        -1.0
      ],
      [
        "Ġacademics",
        -1.0
      ],
      [
        "ĠStick",
        -1.0
      ],
      [
        "ĠRodrÃŃguez",
        -1.0
      ],
      [
        "ĠSpartans",
        -1.0
      ],
      [
        "Ġbelieved",
        -1.0
      ],
      [
        "Ġimagine",
        -1.0
      ],
      [
        "ĠSeeking",
        -1.0
      ],
      [
        "Ġunalienable",
        -1.0
      ],
      [
        "Ġaccumulated",
        -1.0
      ],
      [
        "ĠYama",
        -1.0
      ],
      [
        "ĠDelayed",
        -1.0
      ],
      [
        "Ġpocket",
        -1.0
      ],
      [
        "ĠGwalior",
        -1.0
      ],
      [
        "Ġhardy",
        -1.0
      ],
      [
        "Ġmop",
        -1.0
      ],
      [
        "acy",
        -1.0
      ],
      [
        "Ġcups",
        -1.0
      ],
      [
        "Ġacc",
        -1.0
      ],
      [
        "ĠSenate",
        -1.0
      ],
      [
        "Ġemotion",
        -1.0
      ],
      [
        "Ġmotto",
        -1.0
      ],
      [
        "ĠEos",
        -1.0
      ],
      [
        "ĠWebsites",
        -1.0
      ],
      [
        "onder",
        -1.0
      ],
      [
        "Ġposition",
        -1.0
      ],
      [
        "ĠMe",
        -1.0
      ],
      [
        "ãĤ",
        -1.0
      ],
      [
        "Ġabortions",
        -1.0
      ],
      [
        "ĠLiving",
        -1.0
      ],
      [
        "ĠAfterward",
        -1.0
      ],
      [
        "ĠSCR",
        -1.0
      ],
      [
        "Ġadhered",
        -1.0
      ],
      [
        "Those",
        -1.0
      ],
      [
        "examining",
        -1.0
      ],
      [
        "expansion",
        -1.0
      ],
      [
        "Ġstamens",
        -1.0
      ],
      [
        "Ġcockroaches",
        -1.0
      ],
      [
        "ĠCPV",
        -1.0
      ],
      [
        "ĠBender",
        -1.0
      ],
      [
        "centre",
        -1.0
      ],
      [
        "ĠNev",
        -1.0
      ],
      [
        "Ġsalaried",
        -1.0
      ],
      [
        "filling",
        -1.0
      ],
      [
        "amount",
        -1.0
      ],
      [
        "ĠSickle",
        -1.0
      ],
      [
        "Ġcompliance",
        -1.0
      ],
      [
        "ĠBrussels",
        -1.0
      ],
      [
        "Ġfewer",
        -1.0
      ],
      [
        "gravity",
        -1.0
      ],
      [
        "ĠNy",
        -1.0
      ],
      [
        "Ġdraping",
        -1.0
      ],
      [
        "ĠPharmacology",
        -1.0
      ],
      [
        "activate",
        -1.0
      ],
      [
        "Ġ(?)",
        -1.0
      ],
      [
        "ĠDict",
        -1.0
      ],
      [
        "arianism",
        -1.0
      ],
      [
        "ĠFishing",
        -1.0
      ],
      [
        "Ġtoothed",
        -1.0
      ],
      [
        "ĠEmail",
        -1.0
      ],
      [
        "ĠFlor",
        -1.0
      ],
      [
        "ĠAnalog",
        -1.0
      ],
      [
        "521",
        -1.0
      ],
      [
        "ger",
        -1.0
      ],
      [
        "Ġmalaise",
        -1.0
      ],
      [
        "Ġreceives",
        -1.0
      ],
      [
        "Illustration",
        -1.0
      ],
      [
        "Ġwrinkles",
        -1.0
      ],
      [
        "ĠGuinea",
        -1.0
      ],
      [
        "Ġtransformed",
        -1.0
      ],
      [
        "ri",
        -1.0
      ],
      [
        "ĠHumphries",
        -1.0
      ],
      [
        "Ġcondemn",
        -1.0
      ],
      [
        "Ġliteral",
        -1.0
      ],
      [
        "Ġshallower",
        -1.0
      ],
      [
        "Ġ+-",
        -1.0
      ],
      [
        "ĠmSv",
        -1.0
      ],
      [
        "ĠFertil",
        -1.0
      ],
      [
        "Ġchampionships",
        -1.0
      ],
      [
        "ĠVishá¹ĩu",
        -1.0
      ],
      [
        "ĠInvolving",
        -1.0
      ],
      [
        "ĠDescendants",
        -1.0
      ],
      [
        "seconds",
        -1.0
      ],
      [
        "Ġgrosbeak",
        -1.0
      ],
      [
        "initis",
        -1.0
      ],
      [
        "Ġimmanent",
        -1.0
      ],
      [
        "HDL",
        -1.0
      ],
      [
        "Ġconsumable",
        -1.0
      ],
      [
        "ĠMahdi",
        -1.0
      ],
      [
        "ĠHartford",
        -1.0
      ],
      [
        "ĠThirteen",
        -1.0
      ],
      [
        "Ġcongressional",
        -1.0
      ],
      [
        "Ġailing",
        -1.0
      ],
      [
        "ĠNegro",
        -1.0
      ],
      [
        "Ġhallways",
        -1.0
      ],
      [
        "Ġprematurely",
        -1.0
      ],
      [
        "ĠBarriers",
        -1.0
      ],
      [
        "Ġarticulation",
        -1.0
      ],
      [
        "Ġbipedal",
        -1.0
      ],
      [
        "Ġnor",
        -1.0
      ],
      [
        "ĠHuron",
        -1.0
      ],
      [
        "Ġstationary",
        -1.0
      ],
      [
        "ĠCFL",
        -1.0
      ],
      [
        "oracle",
        -1.0
      ],
      [
        "Ġ431",
        -1.0
      ],
      [
        "Ġowner",
        -1.0
      ],
      [
        "DS",
        -1.0
      ],
      [
        "tland",
        -1.0
      ],
      [
        "obacter",
        -1.0
      ],
      [
        "Amazing",
        -1.0
      ],
      [
        "ĠUNFPA",
        -1.0
      ],
      [
        "Ġgrounding",
        -1.0
      ],
      [
        "Ġrhino",
        -1.0
      ],
      [
        "Ġlatter",
        -1.0
      ],
      [
        "kit",
        -1.0
      ],
      [
        "Las",
        -1.0
      ],
      [
        "bola",
        -1.0
      ],
      [
        "ĠThrust",
        -1.0
      ],
      [
        "ĠEy",
        -1.0
      ],
      [
        "ĠRoa",
        -1.0
      ],
      [
        "Ġfigs",
        -1.0
      ],
      [
        "yama",
        -1.0
      ],
      [
        "hurricane",
        -1.0
      ],
      [
        "bear",
        -1.0
      ],
      [
        "Ġpreservation",
        -1.0
      ],
      [
        "Ġvasculitis",
        -1.0
      ],
      [
        "Ġ1661",
        -1.0
      ],
      [
        "JÄĢTAKA",
        -1.0
      ],
      [
        "(),",
        -1.0
      ],
      [
        "Ġwrite",
        -1.0
      ],
      [
        "Department",
        -1.0
      ],
      [
        "Ġhalting",
        -1.0
      ],
      [
        "Ġwreck",
        -1.0
      ],
      [
        "ĠAnacostia",
        -1.0
      ],
      [
        "capita",
        -1.0
      ],
      [
        "ĠEnemies",
        -1.0
      ],
      [
        "ĠSusp",
        -1.0
      ],
      [
        "Fine",
        -1.0
      ],
      [
        "Ġlocation",
        -1.0
      ],
      [
        "Ġphloem",
        -1.0
      ],
      [
        "Ġlicking",
        -1.0
      ],
      [
        "monds",
        -1.0
      ],
      [
        "ĠHarsh",
        -1.0
      ],
      [
        "ĠShapiro",
        -1.0
      ],
      [
        "ĠNicanor",
        -1.0
      ],
      [
        "Ġhotspot",
        -1.0
      ],
      [
        "Dis",
        -1.0
      ],
      [
        "Ġeradicating",
        -1.0
      ],
      [
        "ĠTramway",
        -1.0
      ],
      [
        "ĠMore",
        -1.0
      ],
      [
        "basin",
        -1.0
      ],
      [
        "Sept",
        -1.0
      ],
      [
        "Ġenhance",
        -1.0
      ],
      [
        "ĠPreviously",
        -1.0
      ],
      [
        "Ġrepressive",
        -1.0
      ],
      [
        "Ġnaturalist",
        -1.0
      ],
      [
        "ĠBuilders",
        -1.0
      ],
      [
        "Ġdisposable",
        -1.0
      ],
      [
        "Ġhoneybees",
        -1.0
      ],
      [
        "Ġcooks",
        -1.0
      ],
      [
        "Ġmuzzle",
        -1.0
      ],
      [
        "Ġpurview",
        -1.0
      ],
      [
        "Ġcheckup",
        -1.0
      ],
      [
        "ĠLansdowne",
        -1.0
      ],
      [
        "sufficient",
        -1.0
      ],
      [
        "Ġdevotees",
        -1.0
      ],
      [
        "ĠHT",
        -1.0
      ],
      [
        "Ġextensive",
        -1.0
      ],
      [
        "ĠReston",
        -1.0
      ],
      [
        "ĠMAGAZINE",
        -1.0
      ],
      [
        "logic",
        -1.0
      ],
      [
        "hungry",
        -1.0
      ],
      [
        "ious",
        -1.0
      ],
      [
        "Ġgraft",
        -1.0
      ],
      [
        "ĠEngels",
        -1.0
      ],
      [
        "Ġ447",
        -1.0
      ],
      [
        "wet",
        -1.0
      ],
      [
        "ĠEnviron",
        -1.0
      ],
      [
        "Ġloop",
        -1.0
      ],
      [
        "iousness",
        -1.0
      ],
      [
        "Ġreduce",
        -1.0
      ],
      [
        "ĠCruz",
        -1.0
      ],
      [
        "Ġ1946",
        -1.0
      ],
      [
        "Screening",
        -1.0
      ],
      [
        "doctor",
        -1.0
      ],
      [
        "ĠHallstatt",
        -1.0
      ],
      [
        "Ġpeculiar",
        -1.0
      ],
      [
        "ĠKali",
        -1.0
      ],
      [
        "ĠAcrobat",
        -1.0
      ],
      [
        "ĠNGOs",
        -1.0
      ],
      [
        "Ġfowl",
        -1.0
      ],
      [
        "Ġbulls",
        -1.0
      ],
      [
        "Ġ383",
        -1.0
      ],
      [
        "Ġsynthesizer",
        -1.0
      ],
      [
        "Ġcelebrated",
        -1.0
      ],
      [
        "LINE",
        -1.0
      ],
      [
        "reality",
        -1.0
      ],
      [
        "Ġhumiliated",
        -1.0
      ],
      [
        "ĠDivinity",
        -1.0
      ],
      [
        "ĠSchultz",
        -1.0
      ],
      [
        "Ġfinally",
        -1.0
      ],
      [
        "ĠHaemophilus",
        -1.0
      ],
      [
        "Ġadvantage",
        -1.0
      ],
      [
        "ĠLun",
        -1.0
      ],
      [
        "Ġradioactive",
        -1.0
      ],
      [
        "Ġephemera",
        -1.0
      ],
      [
        "ĠEva",
        -1.0
      ],
      [
        "ĠMarquette",
        -1.0
      ],
      [
        "AAAS",
        -1.0
      ],
      [
        "ĠSEO",
        -1.0
      ],
      [
        "announced",
        -1.0
      ],
      [
        "Session",
        -1.0
      ],
      [
        "mes",
        -1.0
      ],
      [
        "Ġcalculate",
        -1.0
      ],
      [
        "ress",
        -1.0
      ],
      [
        "Photograph",
        -1.0
      ],
      [
        "Ġwafers",
        -1.0
      ],
      [
        "bia",
        -1.0
      ],
      [
        "ĠSparta",
        -1.0
      ],
      [
        "Ġdisintegrate",
        -1.0
      ],
      [
        "Õ",
        -1.0
      ],
      [
        "ĠJu",
        -1.0
      ],
      [
        "moving",
        -1.0
      ],
      [
        "Cook",
        -1.0
      ],
      [
        "Ġassistant",
        -1.0
      ],
      [
        "Ġlinen",
        -1.0
      ],
      [
        "phonic",
        -1.0
      ],
      [
        "ĠRape",
        -1.0
      ],
      [
        "Ġnavigating",
        -1.0
      ],
      [
        "Giving",
        -1.0
      ],
      [
        "Ġdimmed",
        -1.0
      ],
      [
        "Ġmethionine",
        -1.0
      ],
      [
        "ĠHoo",
        -1.0
      ],
      [
        "Ġepidemics",
        -1.0
      ],
      [
        "ÑĢÐ°",
        -1.0
      ],
      [
        "Ġsprouted",
        -1.0
      ],
      [
        "iring",
        -1.0
      ],
      [
        "Ġhegemony",
        -1.0
      ],
      [
        "ĠJon",
        -1.0
      ],
      [
        "Ġchartered",
        -1.0
      ],
      [
        "Ġaccordingly",
        -1.0
      ],
      [
        "ĠKris",
        -1.0
      ],
      [
        "Ġhomogen",
        -1.0
      ],
      [
        "ĠLegal",
        -1.0
      ],
      [
        "ĠGujarat",
        -1.0
      ],
      [
        "ĠITU",
        -1.0
      ],
      [
        "J",
        -1.0
      ],
      [
        "ĠASTRONOMY",
        -1.0
      ],
      [
        "Ġgondola",
        -1.0
      ],
      [
        "patient",
        -1.0
      ],
      [
        "Ġtechnologically",
        -1.0
      ],
      [
        "gun",
        -1.0
      ],
      [
        "ĠApplied",
        -1.0
      ],
      [
        "Ġwork",
        -1.0
      ],
      [
        "ĠReally",
        -1.0
      ],
      [
        "Ġdeficit",
        -1.0
      ],
      [
        "projects",
        -1.0
      ],
      [
        "ĠBuildings",
        -1.0
      ],
      [
        "Ġbirding",
        -1.0
      ],
      [
        "671",
        -1.0
      ],
      [
        "Ġrestructuring",
        -1.0
      ],
      [
        "Avogadro",
        -1.0
      ],
      [
        "Ġoutspoken",
        -1.0
      ],
      [
        "Ġanchoring",
        -1.0
      ],
      [
        "Using",
        -1.0
      ],
      [
        "Compete",
        -1.0
      ],
      [
        "ĠParticipate",
        -1.0
      ],
      [
        "Ġordinarily",
        -1.0
      ],
      [
        "Ġporosity",
        -1.0
      ],
      [
        "Ri",
        -1.0
      ],
      [
        "ĠNisqually",
        -1.0
      ],
      [
        "Ġcould",
        -1.0
      ],
      [
        "Ġpracticed",
        -1.0
      ],
      [
        "Ġwartime",
        -1.0
      ],
      [
        "Ġdangerous",
        -1.0
      ],
      [
        "Ġ[âĢ¦]",
        -1.0
      ],
      [
        "Ġchariot",
        -1.0
      ],
      [
        "Ġsol",
        -1.0
      ],
      [
        "ĠCP",
        -1.0
      ],
      [
        "GDP",
        -1.0
      ],
      [
        "Ġnil",
        -1.0
      ],
      [
        "ĠBrahm",
        -1.0
      ],
      [
        "Ġreception",
        -1.0
      ],
      [
        "ĠDerrida",
        -1.0
      ],
      [
        "lower",
        -1.0
      ],
      [
        "Ġcontemporary",
        -1.0
      ],
      [
        "Ġhenselae",
        -1.0
      ],
      [
        "190",
        -1.0
      ],
      [
        "Ġallied",
        -1.0
      ],
      [
        "ĠWarning",
        -1.0
      ],
      [
        "ĠArchaeopteryx",
        -1.0
      ],
      [
        "means",
        -1.0
      ],
      [
        "ĠTertullian",
        -1.0
      ],
      [
        "Ġmetabolize",
        -1.0
      ],
      [
        "Chapel",
        -1.0
      ],
      [
        "Ġ1010",
        -1.0
      ],
      [
        "ĠLESS",
        -1.0
      ],
      [
        "Ġmiscellaneous",
        -1.0
      ],
      [
        "Ġdecommissioning",
        -1.0
      ],
      [
        "Ġscimitar",
        -1.0
      ],
      [
        "Kal",
        -1.0
      ],
      [
        "ĠRoscoe",
        -1.0
      ],
      [
        "Ġproselyt",
        -1.0
      ],
      [
        "society",
        -1.0
      ],
      [
        "ĠAmericas",
        -1.0
      ],
      [
        "AMS",
        -1.0
      ],
      [
        "ĠFellow",
        -1.0
      ],
      [
        "ĠEditorial",
        -1.0
      ],
      [
        "ĠSimplify",
        -1.0
      ],
      [
        "EIA",
        -1.0
      ],
      [
        "Ġgro",
        -1.0
      ],
      [
        "Area",
        -1.0
      ],
      [
        "rank",
        -1.0
      ],
      [
        "hrs",
        -1.0
      ],
      [
        "ĠHumpback",
        -1.0
      ],
      [
        "ĠMcDermott",
        -1.0
      ],
      [
        "Ġmagnitude",
        -1.0
      ],
      [
        "Ġquoted",
        -1.0
      ],
      [
        "Ġimmuno",
        -1.0
      ],
      [
        "Ġmediocrity",
        -1.0
      ],
      [
        "Ġtangible",
        -1.0
      ],
      [
        "ĠCoronado",
        -1.0
      ],
      [
        "ĠSCSI",
        -1.0
      ],
      [
        "Coming",
        -1.0
      ],
      [
        "Dorothy",
        -1.0
      ],
      [
        "Fowler",
        -1.0
      ],
      [
        "Sweet",
        -1.0
      ],
      [
        "Ġcom",
        -1.0
      ],
      [
        "ĠLXX",
        -1.0
      ],
      [
        "Ġ1780",
        -1.0
      ],
      [
        "ĠCesar",
        -1.0
      ],
      [
        "Ġviolate",
        -1.0
      ],
      [
        "Ġadjoining",
        -1.0
      ],
      [
        "Ġapical",
        -1.0
      ],
      [
        "Ġpressuring",
        -1.0
      ],
      [
        "stad",
        -1.0
      ],
      [
        "Ġcomplicated",
        -1.0
      ],
      [
        "ĠBrooklyn",
        -1.0
      ],
      [
        "Ġnarrower",
        -1.0
      ],
      [
        "rous",
        -1.0
      ],
      [
        "Ġchert",
        -1.0
      ],
      [
        "ĠNickel",
        -1.0
      ],
      [
        "ĠHashimoto",
        -1.0
      ],
      [
        "ting",
        -1.0
      ],
      [
        "start",
        -1.0
      ],
      [
        "ĠElectrolyte",
        -1.0
      ],
      [
        "ĠLjubljana",
        -1.0
      ],
      [
        "opted",
        -1.0
      ],
      [
        "ĠINTO",
        -1.0
      ],
      [
        "Ibid",
        -1.0
      ],
      [
        "ĠImagery",
        -1.0
      ],
      [
        "ĠBlom",
        -1.0
      ],
      [
        "1938",
        -1.0
      ],
      [
        "become",
        -1.0
      ],
      [
        "Ġpervade",
        -1.0
      ],
      [
        "Ġcloset",
        -1.0
      ],
      [
        "Ãªtre",
        -1.0
      ],
      [
        "ĠBias",
        -1.0
      ],
      [
        "Ġosprey",
        -1.0
      ],
      [
        "ĠPrevent",
        -1.0
      ],
      [
        "ĠDisabled",
        -1.0
      ],
      [
        "Ġoptimally",
        -1.0
      ],
      [
        "ĠHebrew",
        -1.0
      ],
      [
        "Ġfelled",
        -1.0
      ],
      [
        "ĠUN",
        -1.0
      ],
      [
        "Ġtrickery",
        -1.0
      ],
      [
        "Ġsubscribed",
        -1.0
      ],
      [
        "Ġlapses",
        -1.0
      ],
      [
        "Ġscheduled",
        -1.0
      ],
      [
        "Ġ1999",
        -1.0
      ],
      [
        "Ġdeeply",
        -1.0
      ],
      [
        "et",
        -1.0
      ],
      [
        "FC",
        -1.0
      ],
      [
        "ĠEuropeans",
        -1.0
      ],
      [
        "ĠPresented",
        -1.0
      ],
      [
        "901",
        -1.0
      ],
      [
        "ĠUNDP",
        -1.0
      ],
      [
        "Ġperpetrator",
        -1.0
      ],
      [
        "nuts",
        -1.0
      ],
      [
        "spatial",
        -1.0
      ],
      [
        "Ġrebuilt",
        -1.0
      ],
      [
        "Ġfacilitator",
        -1.0
      ],
      [
        "ĠMagdalena",
        -1.0
      ],
      [
        "ĠThessalonians",
        -1.0
      ],
      [
        "Ġblasphemy",
        -1.0
      ],
      [
        "Lower",
        -1.0
      ],
      [
        "ĠBal",
        -1.0
      ],
      [
        "ĠCDs",
        -1.0
      ],
      [
        "ract",
        -1.0
      ],
      [
        "AI",
        -1.0
      ],
      [
        "Ġliteracy",
        -1.0
      ],
      [
        "ĠSacks",
        -1.0
      ],
      [
        "essive",
        -1.0
      ],
      [
        "Br",
        -1.0
      ],
      [
        "meta",
        -1.0
      ],
      [
        "ÑĢÐ¸",
        -1.0
      ],
      [
        "Ġalb",
        -1.0
      ],
      [
        "Ġarch",
        -1.0
      ],
      [
        "ĠOffices",
        -1.0
      ],
      [
        "nde",
        -1.0
      ],
      [
        "Ġcakes",
        -1.0
      ],
      [
        "functioning",
        -1.0
      ],
      [
        "ĠOceanic",
        -1.0
      ],
      [
        "Ġsalmon",
        -1.0
      ],
      [
        "ĠExploitation",
        -1.0
      ],
      [
        "beau",
        -1.0
      ],
      [
        "Ġpulsing",
        -1.0
      ],
      [
        "Until",
        -1.0
      ],
      [
        "taking",
        -1.0
      ],
      [
        "ĠHeidegger",
        -1.0
      ],
      [
        "ĠYoung",
        -1.0
      ],
      [
        "Ġspanned",
        -1.0
      ],
      [
        "ĠBourbon",
        -1.0
      ],
      [
        "Ġjointly",
        -1.0
      ],
      [
        "ĠEmpress",
        -1.0
      ],
      [
        "ĠActiv",
        -1.0
      ],
      [
        "Ġextrapolated",
        -1.0
      ],
      [
        "Ġscaling",
        -1.0
      ],
      [
        "):",
        -1.0
      ],
      [
        "criminal",
        -1.0
      ],
      [
        "Ġrecruited",
        -1.0
      ],
      [
        "Ġprostration",
        -1.0
      ],
      [
        "ĠVivian",
        -1.0
      ],
      [
        "ĠAtchafalaya",
        -1.0
      ],
      [
        "logies",
        -1.0
      ],
      [
        "Ġ7",
        -1.0
      ],
      [
        "compulsive",
        -1.0
      ],
      [
        "ĠTerritory",
        -1.0
      ],
      [
        "Ġdioceses",
        -1.0
      ],
      [
        "Ġly",
        -1.0
      ],
      [
        "Ġloose",
        -1.0
      ],
      [
        "Ġperinatal",
        -1.0
      ],
      [
        "Ġbug",
        -1.0
      ],
      [
        "ĠACC",
        -1.0
      ],
      [
        "Ġphilosophers",
        -1.0
      ],
      [
        "Ġsmiles",
        -1.0
      ],
      [
        "Ġdecorative",
        -1.0
      ],
      [
        "ĠPirates",
        -1.0
      ],
      [
        "Ġspectral",
        -1.0
      ],
      [
        "Ġ58",
        -1.0
      ],
      [
        "Ã³r",
        -1.0
      ],
      [
        "ĠKur",
        -1.0
      ],
      [
        "'-",
        -1.0
      ],
      [
        "ĠSudanese",
        -1.0
      ],
      [
        "Wei",
        -1.0
      ],
      [
        "clarification",
        -1.0
      ],
      [
        "ĠAtlas",
        -1.0
      ],
      [
        "Ġamphibious",
        -1.0
      ],
      [
        "Ġquadrup",
        -1.0
      ],
      [
        "Ġimplications",
        -1.0
      ],
      [
        "ĠChautauqua",
        -1.0
      ],
      [
        "ĠKeeper",
        -1.0
      ],
      [
        "Ġaf",
        -1.0
      ],
      [
        "527",
        -1.0
      ],
      [
        "ĠRum",
        -1.0
      ],
      [
        "Ġ1670",
        -1.0
      ],
      [
        "Ġshrines",
        -1.0
      ],
      [
        "Ġexceeding",
        -1.0
      ],
      [
        "Ġignore",
        -1.0
      ],
      [
        "ĠChondr",
        -1.0
      ],
      [
        "RB",
        -1.0
      ],
      [
        "primarily",
        -1.0
      ],
      [
        "ĠBorough",
        -1.0
      ],
      [
        "ĠHans",
        -1.0
      ],
      [
        "Ġpretence",
        -1.0
      ],
      [
        "facts",
        -1.0
      ],
      [
        "Roger",
        -1.0
      ],
      [
        "Ann",
        -1.0
      ],
      [
        "Ġgovernmental",
        -1.0
      ],
      [
        "Ġ576",
        -1.0
      ],
      [
        "Ġcoastline",
        -1.0
      ],
      [
        "ĠHeavenly",
        -1.0
      ],
      [
        "Indo",
        -1.0
      ],
      [
        "Ġtransducer",
        -1.0
      ],
      [
        "Ö¼",
        -1.0
      ],
      [
        "ĠSno",
        -1.0
      ],
      [
        "Ġreactor",
        -1.0
      ],
      [
        "Ġtelepractice",
        -1.0
      ],
      [
        "ĠPlu",
        -1.0
      ],
      [
        "ĠAll",
        -1.0
      ],
      [
        "Ġextraordinary",
        -1.0
      ],
      [
        "restricted",
        -1.0
      ],
      [
        "til",
        -1.0
      ],
      [
        "Ġpowerfully",
        -1.0
      ],
      [
        "Ġcases",
        -1.0
      ],
      [
        "Ġexploit",
        -1.0
      ],
      [
        "186",
        -1.0
      ],
      [
        "ĠDrag",
        -1.0
      ],
      [
        "Ġmega",
        -1.0
      ],
      [
        "ĠJR",
        -1.0
      ],
      [
        "Ġnewest",
        -1.0
      ],
      [
        "wrong",
        -1.0
      ],
      [
        "Ġmuc",
        -1.0
      ],
      [
        "Ġsupportive",
        -1.0
      ],
      [
        "147",
        -1.0
      ],
      [
        "ĠPalestinian",
        -1.0
      ],
      [
        "Ġmagnetism",
        -1.0
      ],
      [
        "ĠMcKibben",
        -1.0
      ],
      [
        "Dozens",
        -1.0
      ],
      [
        "shirts",
        -1.0
      ],
      [
        "all",
        -1.0
      ],
      [
        "Ġpolyurethane",
        -1.0
      ],
      [
        "Ġthinker",
        -1.0
      ],
      [
        "edit",
        -1.0
      ],
      [
        "Ġconstancy",
        -1.0
      ],
      [
        "Ġku",
        -1.0
      ],
      [
        "Ġbrazen",
        -1.0
      ],
      [
        "ĠBrigade",
        -1.0
      ],
      [
        "Ġhaunt",
        -1.0
      ],
      [
        "ĠBighorn",
        -1.0
      ],
      [
        "ĠDams",
        -1.0
      ],
      [
        "Ġdor",
        -1.0
      ],
      [
        "Ġdespatched",
        -1.0
      ],
      [
        "ĠBautista",
        -1.0
      ],
      [
        "Ġexhibits",
        -1.0
      ],
      [
        "Ġirreducible",
        -1.0
      ],
      [
        "ĠFairchild",
        -1.0
      ],
      [
        "ĠNicholas",
        -1.0
      ],
      [
        "Ġadvances",
        -1.0
      ],
      [
        "Ġacetone",
        -1.0
      ],
      [
        "ORE",
        -1.0
      ],
      [
        "TED",
        -1.0
      ],
      [
        "ĠBUCCANEER",
        -1.0
      ],
      [
        "ĠBass",
        -1.0
      ],
      [
        "iye",
        -1.0
      ],
      [
        "Ġrehabilit",
        -1.0
      ],
      [
        "Lithuanian",
        -1.0
      ],
      [
        "APP",
        -1.0
      ],
      [
        "ĠPle",
        -1.0
      ],
      [
        "Ġoffshoot",
        -1.0
      ],
      [
        "Ġcripple",
        -1.0
      ],
      [
        "dos",
        -1.0
      ],
      [
        "ĠRath",
        -1.0
      ],
      [
        "Ġgrad",
        -1.0
      ],
      [
        "Ġhypodermic",
        -1.0
      ],
      [
        "events",
        -1.0
      ],
      [
        "simply",
        -1.0
      ],
      [
        "Ġretreat",
        -1.0
      ],
      [
        "Ġits",
        -1.0
      ],
      [
        "ĠCascades",
        -1.0
      ],
      [
        "ĠKindle",
        -1.0
      ],
      [
        "ĠFISH",
        -1.0
      ],
      [
        "ĠDISEASE",
        -1.0
      ],
      [
        "Ġdenial",
        -1.0
      ],
      [
        "Details",
        -1.0
      ],
      [
        "Ġanomalous",
        -1.0
      ],
      [
        "Ġreestablished",
        -1.0
      ],
      [
        "seropositive",
        -1.0
      ],
      [
        "Ġsticker",
        -1.0
      ],
      [
        "Ġserv",
        -1.0
      ],
      [
        "Ġeverlasting",
        -1.0
      ],
      [
        "Ġconversion",
        -1.0
      ],
      [
        "ĠSupplementary",
        -1.0
      ],
      [
        "1400",
        -1.0
      ],
      [
        "Ġwithdrew",
        -1.0
      ],
      [
        "Ġsaying",
        -1.0
      ],
      [
        "Evidence",
        -1.0
      ],
      [
        "Synonyms",
        -1.0
      ],
      [
        "Ġgarrison",
        -1.0
      ],
      [
        "Ġcannabis",
        -1.0
      ],
      [
        "ĠDole",
        -1.0
      ],
      [
        "ĠProc",
        -1.0
      ],
      [
        "Ġeutrophication",
        -1.0
      ],
      [
        "Applied",
        -1.0
      ],
      [
        "Ġris",
        -1.0
      ],
      [
        "ĠPatriots",
        -1.0
      ],
      [
        "Ġshines",
        -1.0
      ],
      [
        "Ġcommended",
        -1.0
      ],
      [
        "ĠTadhg",
        -1.0
      ],
      [
        "Ġmassive",
        -1.0
      ],
      [
        "temporal",
        -1.0
      ],
      [
        "ĠRadioactive",
        -1.0
      ],
      [
        "Ġsuspicious",
        -1.0
      ],
      [
        "Ġplayed",
        -1.0
      ],
      [
        "ĠGenerations",
        -1.0
      ],
      [
        "SUB",
        -1.0
      ],
      [
        "Ġreceivable",
        -1.0
      ],
      [
        "ĠGynecologists",
        -1.0
      ],
      [
        "ĠStrachey",
        -1.0
      ],
      [
        "Ġ%",
        -1.0
      ],
      [
        "Ġenumerated",
        -1.0
      ],
      [
        "ĠDaphne",
        -1.0
      ],
      [
        "ĠFriedman",
        -1.0
      ],
      [
        "Ġ1665",
        -1.0
      ],
      [
        "br",
        -1.0
      ],
      [
        "Ġsymphonies",
        -1.0
      ],
      [
        "couraging",
        -1.0
      ],
      [
        "ered",
        -1.0
      ],
      [
        "Ġmerit",
        -1.0
      ],
      [
        "Word",
        -1.0
      ],
      [
        "ĠPsych",
        -1.0
      ],
      [
        "thro",
        -1.0
      ],
      [
        "Ġnations",
        -1.0
      ],
      [
        "Ġmeridians",
        -1.0
      ],
      [
        "Ġjewelry",
        -1.0
      ],
      [
        "ĠHendrik",
        -1.0
      ],
      [
        "ira",
        -1.0
      ],
      [
        "ĠMSCs",
        -1.0
      ],
      [
        "Ġang",
        -1.0
      ],
      [
        "aceous",
        -1.0
      ],
      [
        "Ġbordered",
        -1.0
      ],
      [
        "Ġescaping",
        -1.0
      ],
      [
        "stem",
        -1.0
      ],
      [
        "og",
        -1.0
      ],
      [
        "ĠArun",
        -1.0
      ],
      [
        "Ġpurification",
        -1.0
      ],
      [
        "ĠTanzania",
        -1.0
      ],
      [
        "Ġnoncombatants",
        -1.0
      ],
      [
        "ĠHeight",
        -1.0
      ],
      [
        "ĠHG",
        -1.0
      ],
      [
        "Ġgenes",
        -1.0
      ],
      [
        "ĠGuarantee",
        -1.0
      ],
      [
        "exactly",
        -1.0
      ],
      [
        "shelf",
        -1.0
      ],
      [
        "Ġteller",
        -1.0
      ],
      [
        "connection",
        -1.0
      ],
      [
        "Ġlanterns",
        -1.0
      ],
      [
        "Ġsessile",
        -1.0
      ],
      [
        "Ġlute",
        -1.0
      ],
      [
        "Ġassembled",
        -1.0
      ],
      [
        "Ġworst",
        -1.0
      ],
      [
        "Ġwreath",
        -1.0
      ],
      [
        "Ġdoom",
        -1.0
      ],
      [
        "Ġorganically",
        -1.0
      ],
      [
        "ĠCygnus",
        -1.0
      ],
      [
        "ĠSavior",
        -1.0
      ],
      [
        "Ġtemporal",
        -1.0
      ],
      [
        "metal",
        -1.0
      ],
      [
        "Ġass",
        -1.0
      ],
      [
        "Ġsulphur",
        -1.0
      ],
      [
        "lum",
        -1.0
      ],
      [
        "Ġindoor",
        -1.0
      ],
      [
        "Ġexponentially",
        -1.0
      ],
      [
        "oir",
        -1.0
      ],
      [
        "Ġparlor",
        -1.0
      ],
      [
        "ĠCenters",
        -1.0
      ],
      [
        "âĢ¦.âĢĿ",
        -1.0
      ],
      [
        "Continue",
        -1.0
      ],
      [
        "ĠRevolution",
        -1.0
      ],
      [
        "ĠScrub",
        -1.0
      ],
      [
        "ĠRODEMEYER",
        -1.0
      ],
      [
        "Factory",
        -1.0
      ],
      [
        "Ġemphasised",
        -1.0
      ],
      [
        "try",
        -1.0
      ],
      [
        "Walk",
        -1.0
      ],
      [
        "dam",
        -1.0
      ],
      [
        "Ġmorally",
        -1.0
      ],
      [
        "Ġcaustic",
        -1.0
      ],
      [
        "Ġgonorrhoea",
        -1.0
      ],
      [
        "wat",
        -1.0
      ],
      [
        "Arg",
        -1.0
      ],
      [
        "Ġtrain",
        -1.0
      ],
      [
        "ĠShare",
        -1.0
      ],
      [
        "Ġ.",
        -1.0
      ],
      [
        "ĠAlcohol",
        -1.0
      ],
      [
        "lev",
        -1.0
      ],
      [
        "Ġmetrical",
        -1.0
      ],
      [
        "Ġremember",
        -1.0
      ],
      [
        "cities",
        -1.0
      ],
      [
        "Ġwisely",
        -1.0
      ],
      [
        "Ġscholarly",
        -1.0
      ],
      [
        "Ġmesenchymal",
        -1.0
      ],
      [
        "Ġemphasises",
        -1.0
      ],
      [
        "oit",
        -1.0
      ],
      [
        "Ġtreating",
        -1.0
      ],
      [
        "Ġoccur",
        -1.0
      ],
      [
        "damaged",
        -1.0
      ],
      [
        "rocedural",
        -1.0
      ],
      [
        "ĠTab",
        -1.0
      ],
      [
        "Ġwire",
        -1.0
      ],
      [
        "Ġichthy",
        -1.0
      ],
      [
        "ĠSense",
        -1.0
      ],
      [
        "Ġdrainage",
        -1.0
      ],
      [
        "pho",
        -1.0
      ],
      [
        "worked",
        -1.0
      ],
      [
        "AG",
        -1.0
      ],
      [
        "ĠWHERE",
        -1.0
      ],
      [
        "Ġchaparral",
        -1.0
      ],
      [
        "Ġdrying",
        -1.0
      ],
      [
        "Ġhomemade",
        -1.0
      ],
      [
        "tm",
        -1.0
      ],
      [
        "Sports",
        -1.0
      ],
      [
        "exhibit",
        -1.0
      ],
      [
        "Ableegumooch",
        -1.0
      ],
      [
        "Ġbehold",
        -1.0
      ],
      [
        "pronged",
        -1.0
      ],
      [
        "ĠLuna",
        -1.0
      ],
      [
        "construct",
        -1.0
      ],
      [
        "qa",
        -1.0
      ],
      [
        "ĠHunting",
        -1.0
      ],
      [
        "ĠMinor",
        -1.0
      ],
      [
        "Ġcant",
        -1.0
      ],
      [
        "cholesterol",
        -1.0
      ],
      [
        "Ġhippocampi",
        -1.0
      ],
      [
        "Ġincluding",
        -1.0
      ],
      [
        "ĠNephi",
        -1.0
      ],
      [
        "ĠDramatic",
        -1.0
      ],
      [
        "ĠZealand",
        -1.0
      ],
      [
        "Lisa",
        -1.0
      ],
      [
        "Ġmonopolistic",
        -1.0
      ],
      [
        "Epi",
        -1.0
      ],
      [
        "Ġdisingenuous",
        -1.0
      ],
      [
        "Scientists",
        -1.0
      ],
      [
        "Ġproton",
        -1.0
      ],
      [
        "582",
        -1.0
      ],
      [
        "Ġfoggy",
        -1.0
      ],
      [
        "Ġbracing",
        -1.0
      ],
      [
        "Ġwitnessed",
        -1.0
      ],
      [
        "Logo",
        -1.0
      ],
      [
        "ĠUHF",
        -1.0
      ],
      [
        "Ġrefractive",
        -1.0
      ],
      [
        "Ġabsorption",
        -1.0
      ],
      [
        "Ġsettlements",
        -1.0
      ],
      [
        "Ġgrasped",
        -1.0
      ],
      [
        "Ġlingered",
        -1.0
      ],
      [
        "ĠMarkers",
        -1.0
      ],
      [
        "encing",
        -1.0
      ],
      [
        "Ġshrimps",
        -1.0
      ],
      [
        "LATE",
        -1.0
      ],
      [
        "ĠAnt",
        -1.0
      ],
      [
        "CBS",
        -1.0
      ],
      [
        "Ġmaiden",
        -1.0
      ],
      [
        "Ġevacuating",
        -1.0
      ],
      [
        "rar",
        -1.0
      ],
      [
        "Ġgentamicin",
        -1.0
      ],
      [
        "Ġtrusting",
        -1.0
      ],
      [
        "Summary",
        -1.0
      ],
      [
        "tions",
        -1.0
      ],
      [
        "Doug",
        -1.0
      ],
      [
        "Ġmassacre",
        -1.0
      ],
      [
        "ĠLogin",
        -1.0
      ],
      [
        "Ġdeck",
        -1.0
      ],
      [
        "problem",
        -1.0
      ],
      [
        "Ġjail",
        -1.0
      ],
      [
        "Ġhelical",
        -1.0
      ],
      [
        "ĠContinued",
        -1.0
      ],
      [
        "ĠKarner",
        -1.0
      ],
      [
        "ĠEre",
        -1.0
      ],
      [
        "ĠMahayana",
        -1.0
      ],
      [
        "ĠEthiopians",
        -1.0
      ],
      [
        "prompt",
        -1.0
      ],
      [
        "Ġpendant",
        -1.0
      ],
      [
        "Ġclassification",
        -1.0
      ],
      [
        "sbury",
        -1.0
      ],
      [
        "Ġrotations",
        -1.0
      ],
      [
        "Ġupfront",
        -1.0
      ],
      [
        "ulatory",
        -1.0
      ],
      [
        "ĠMela",
        -1.0
      ],
      [
        "missions",
        -1.0
      ],
      [
        "Slightly",
        -1.0
      ],
      [
        "ĠKeywords",
        -1.0
      ],
      [
        "ĠCaslon",
        -1.0
      ],
      [
        "Ġaxe",
        -1.0
      ],
      [
        "ĠCredit",
        -1.0
      ],
      [
        "Ġem",
        -1.0
      ],
      [
        "ĠBaba",
        -1.0
      ],
      [
        "Ġtable",
        -1.0
      ],
      [
        "Ġlaboratory",
        -1.0
      ],
      [
        "Ġspaghetti",
        -1.0
      ],
      [
        "breaker",
        -1.0
      ],
      [
        "Ġantibacterial",
        -1.0
      ],
      [
        "Ġconv",
        -1.0
      ],
      [
        "Ġslavery",
        -1.0
      ],
      [
        "efficacy",
        -1.0
      ],
      [
        "ĠHilary",
        -1.0
      ],
      [
        "septic",
        -1.0
      ],
      [
        "ĠMenelaus",
        -1.0
      ],
      [
        "ĠHopefully",
        -1.0
      ],
      [
        "ĠStro",
        -1.0
      ],
      [
        "Ġgateway",
        -1.0
      ],
      [
        "NHS",
        -1.0
      ],
      [
        "Produced",
        -1.0
      ],
      [
        "chronology",
        -1.0
      ],
      [
        "lingual",
        -1.0
      ],
      [
        "Eurasian",
        -1.0
      ],
      [
        "sla",
        -1.0
      ],
      [
        "lk",
        -1.0
      ],
      [
        "enz",
        -1.0
      ],
      [
        "ĠPoughkeepsie",
        -1.0
      ],
      [
        "ĠCarduus",
        -1.0
      ],
      [
        "Ġmammogram",
        -1.0
      ],
      [
        "ĠSoy",
        -1.0
      ],
      [
        "Ġuntil",
        -1.0
      ],
      [
        "Ġartisanal",
        -1.0
      ],
      [
        "Ġgal",
        -1.0
      ],
      [
        "Scientific",
        -1.0
      ],
      [
        "mund",
        -1.0
      ],
      [
        "Ġzazen",
        -1.0
      ],
      [
        "Ġpreliminar",
        -1.0
      ],
      [
        "ĠNapoleon",
        -1.0
      ],
      [
        "Ġattack",
        -1.0
      ],
      [
        "nami",
        -1.0
      ],
      [
        "Ġ404",
        -1.0
      ],
      [
        "ĠWired",
        -1.0
      ],
      [
        "ĠInauguration",
        -1.0
      ],
      [
        "ĠTumblr",
        -1.0
      ],
      [
        "Powell",
        -1.0
      ],
      [
        "Ġconvicts",
        -1.0
      ],
      [
        "ĠAkhenaten",
        -1.0
      ],
      [
        "Ġpollinate",
        -1.0
      ],
      [
        "ĠHarlan",
        -1.0
      ],
      [
        "azine",
        -1.0
      ],
      [
        "ĠPortsmouth",
        -1.0
      ],
      [
        "ĠFerguson",
        -1.0
      ],
      [
        "ĠDrainage",
        -1.0
      ],
      [
        "Ġflake",
        -1.0
      ],
      [
        "Library",
        -1.0
      ],
      [
        "ĠValladolid",
        -1.0
      ],
      [
        "ĠMedlinePlus",
        -1.0
      ],
      [
        "Wide",
        -1.0
      ],
      [
        "Ġpolymorphisms",
        -1.0
      ],
      [
        "Ġunattainable",
        -1.0
      ],
      [
        "Adams",
        -1.0
      ],
      [
        "EB",
        -1.0
      ],
      [
        "Ġmarlin",
        -1.0
      ],
      [
        "Cells",
        -1.0
      ],
      [
        "5000",
        -1.0
      ],
      [
        "Ġintensive",
        -1.0
      ],
      [
        "forgotten",
        -1.0
      ],
      [
        "Machine",
        -1.0
      ],
      [
        "Ġdishwasher",
        -1.0
      ],
      [
        "ĠMHT",
        -1.0
      ],
      [
        "understood",
        -1.0
      ],
      [
        "ĠHist",
        -1.0
      ],
      [
        "Ġaccuses",
        -1.0
      ],
      [
        "Ġbubble",
        -1.0
      ],
      [
        "Just",
        -1.0
      ],
      [
        "Ġvalidates",
        -1.0
      ],
      [
        "emic",
        -1.0
      ],
      [
        "Ġchlorobenzilate",
        -1.0
      ],
      [
        "TI",
        -1.0
      ],
      [
        "VEL",
        -1.0
      ],
      [
        "Ġscaly",
        -1.0
      ],
      [
        "Ġkilogram",
        -1.0
      ],
      [
        "Ġpartnering",
        -1.0
      ],
      [
        "ĠSima",
        -1.0
      ],
      [
        "Ġunsightly",
        -1.0
      ],
      [
        "ĠHick",
        -1.0
      ],
      [
        "exact",
        -1.0
      ],
      [
        "ĠTectonics",
        -1.0
      ],
      [
        "Ġexogenous",
        -1.0
      ],
      [
        "Ġmerge",
        -1.0
      ],
      [
        "ĠMean",
        -1.0
      ],
      [
        "ĠZephiraner",
        -1.0
      ],
      [
        "ĠGrumman",
        -1.0
      ],
      [
        "Images",
        -1.0
      ],
      [
        "Ġsynopsis",
        -1.0
      ],
      [
        "ĠHypertens",
        -1.0
      ],
      [
        "Gray",
        -1.0
      ],
      [
        "Ġfamed",
        -1.0
      ],
      [
        "ĠBrewer",
        -1.0
      ],
      [
        "Ġ1690",
        -1.0
      ],
      [
        "ĠBar",
        -1.0
      ],
      [
        "sar",
        -1.0
      ],
      [
        "427",
        -1.0
      ],
      [
        "ĠPolar",
        -1.0
      ],
      [
        "Ġsturdier",
        -1.0
      ],
      [
        "\"?",
        -1.0
      ],
      [
        "ĠSSL",
        -1.0
      ],
      [
        "Ġgenre",
        -1.0
      ],
      [
        "pop",
        -1.0
      ],
      [
        "ĠPriesthood",
        -1.0
      ],
      [
        "ĠWarren",
        -1.0
      ],
      [
        "ĠFantasy",
        -1.0
      ],
      [
        "abouts",
        -1.0
      ],
      [
        "Ġmassacres",
        -1.0
      ],
      [
        "Ð°ÐºÐµÐ´Ð¾Ð½",
        -1.0
      ],
      [
        "ĠGuyana",
        -1.0
      ],
      [
        "Ġknowingly",
        -1.0
      ],
      [
        "Ġmummified",
        -1.0
      ],
      [
        "Ġpropylene",
        -1.0
      ],
      [
        "Ġsounds",
        -1.0
      ],
      [
        "Ġrivet",
        -1.0
      ],
      [
        "Ġbidding",
        -1.0
      ],
      [
        "ulated",
        -1.0
      ],
      [
        "inous",
        -1.0
      ],
      [
        "converting",
        -1.0
      ],
      [
        "Ġwavelengths",
        -1.0
      ],
      [
        "Ġanxiously",
        -1.0
      ],
      [
        "reduced",
        -1.0
      ],
      [
        "ĠInfo",
        -1.0
      ],
      [
        "Ġpatta",
        -1.0
      ],
      [
        "ador",
        -1.0
      ],
      [
        "ĠShift",
        -1.0
      ],
      [
        "ĠLac",
        -1.0
      ],
      [
        "Ġneeding",
        -1.0
      ],
      [
        "Ġdiminishes",
        -1.0
      ],
      [
        "Ġvelocity",
        -1.0
      ],
      [
        "edy",
        -1.0
      ],
      [
        "ĠUNIX",
        -1.0
      ],
      [
        "chord",
        -1.0
      ],
      [
        "Ġbioactive",
        -1.0
      ],
      [
        "ĠGifted",
        -1.0
      ],
      [
        "ĠLaboratory",
        -1.0
      ],
      [
        "Ġspinach",
        -1.0
      ],
      [
        "Ġrework",
        -1.0
      ],
      [
        "Ġxy",
        -1.0
      ],
      [
        "ĠNatl",
        -1.0
      ],
      [
        "ĠQD",
        -1.0
      ],
      [
        "Ġfails",
        -1.0
      ],
      [
        "Allow",
        -1.0
      ],
      [
        "Ġrhythm",
        -1.0
      ],
      [
        "Patri",
        -1.0
      ],
      [
        "dimensional",
        -1.0
      ],
      [
        "induced",
        -1.0
      ],
      [
        "Ġuploaded",
        -1.0
      ],
      [
        "Hol",
        -1.0
      ],
      [
        "1859",
        -1.0
      ],
      [
        "Ġ1903",
        -1.0
      ],
      [
        "Ġvermi",
        -1.0
      ],
      [
        "Ġmysterious",
        -1.0
      ],
      [
        "Ġdrench",
        -1.0
      ],
      [
        "dic",
        -1.0
      ],
      [
        "ĠBland",
        -1.0
      ],
      [
        "Ġrunning",
        -1.0
      ],
      [
        "ĠRosalind",
        -1.0
      ],
      [
        "Ġdusky",
        -1.0
      ],
      [
        "Ġdefining",
        -1.0
      ],
      [
        "Ġmonthly",
        -1.0
      ],
      [
        "Ġmarvellous",
        -1.0
      ],
      [
        "Ġala",
        -1.0
      ],
      [
        "ĠChoir",
        -1.0
      ],
      [
        "affiliated",
        -1.0
      ],
      [
        "Ġaspen",
        -1.0
      ],
      [
        "orium",
        -1.0
      ],
      [
        "Ġinterlocutor",
        -1.0
      ],
      [
        "Ġinventors",
        -1.0
      ],
      [
        "ĠArtists",
        -1.0
      ],
      [
        "ĠDahlia",
        -1.0
      ],
      [
        "Ġlesson",
        -1.0
      ],
      [
        "ĠPersephone",
        -1.0
      ],
      [
        "ĠWatching",
        -1.0
      ],
      [
        "ĠCooper",
        -1.0
      ],
      [
        "ĠWellcome",
        -1.0
      ],
      [
        "Ġloco",
        -1.0
      ],
      [
        "Ġwiki",
        -1.0
      ],
      [
        "Ġmetabol",
        -1.0
      ],
      [
        "ĠSycamore",
        -1.0
      ],
      [
        "Ġideology",
        -1.0
      ],
      [
        "ĠDietary",
        -1.0
      ],
      [
        "Ġ92",
        -1.0
      ],
      [
        "uchi",
        -1.0
      ],
      [
        "ĠSesame",
        -1.0
      ],
      [
        "Ġnarrate",
        -1.0
      ],
      [
        "Ġwatercolors",
        -1.0
      ],
      [
        "ĠLuke",
        -1.0
      ],
      [
        "Ġnonprofit",
        -1.0
      ],
      [
        "Ġsubspecialty",
        -1.0
      ],
      [
        "manufacture",
        -1.0
      ],
      [
        "ĠHewlett",
        -1.0
      ],
      [
        "Ġcousin",
        -1.0
      ],
      [
        "Ġantagonists",
        -1.0
      ],
      [
        "ĠLiturgical",
        -1.0
      ],
      [
        "Ġhalves",
        -1.0
      ],
      [
        "261",
        -1.0
      ],
      [
        "tic",
        -1.0
      ],
      [
        "Ġpredators",
        -1.0
      ],
      [
        "RP",
        -1.0
      ],
      [
        "ĠFishermen",
        -1.0
      ],
      [
        "Ġsymmetrical",
        -1.0
      ],
      [
        "Env",
        -1.0
      ],
      [
        "ĠVi",
        -1.0
      ],
      [
        "ĠShin",
        -1.0
      ],
      [
        "political",
        -1.0
      ],
      [
        "âĢĶ\"",
        -1.0
      ],
      [
        "ahs",
        -1.0
      ],
      [
        "ØŃ",
        -1.0
      ],
      [
        "ĠSuperior",
        -1.0
      ],
      [
        "OVER",
        -1.0
      ],
      [
        "ĠWrap",
        -1.0
      ],
      [
        "prot",
        -1.0
      ],
      [
        "Ġpersonified",
        -1.0
      ],
      [
        "Ġunexploded",
        -1.0
      ],
      [
        "Ġmistake",
        -1.0
      ],
      [
        "Ġdifficile",
        -1.0
      ],
      [
        "Ġcontraption",
        -1.0
      ],
      [
        "Ġrestless",
        -1.0
      ],
      [
        "event",
        -1.0
      ],
      [
        "oj",
        -1.0
      ],
      [
        "ĠExtinction",
        -1.0
      ],
      [
        "Ġincentiv",
        -1.0
      ],
      [
        "Hung",
        -1.0
      ],
      [
        "ĠHermes",
        -1.0
      ],
      [
        "Ġpollination",
        -1.0
      ],
      [
        "ĠPorts",
        -1.0
      ],
      [
        "ĠFederal",
        -1.0
      ],
      [
        "Ġheraldic",
        -1.0
      ],
      [
        "Ġboundary",
        -1.0
      ],
      [
        "ĠCalc",
        -1.0
      ],
      [
        "ĠSad",
        -1.0
      ],
      [
        "ĠThirdly",
        -1.0
      ],
      [
        "ĠOpen",
        -1.0
      ],
      [
        "Nur",
        -1.0
      ],
      [
        "Ġbloat",
        -1.0
      ],
      [
        "ĠAfrikaans",
        -1.0
      ],
      [
        "ĠOf",
        -1.0
      ],
      [
        "1933",
        -1.0
      ],
      [
        "Matt",
        -1.0
      ],
      [
        "ĠStokes",
        -1.0
      ],
      [
        "Ġrecede",
        -1.0
      ],
      [
        "cula",
        -1.0
      ],
      [
        "Ġ371",
        -1.0
      ],
      [
        "ĠINS",
        -1.0
      ],
      [
        "GF",
        -1.0
      ],
      [
        "Ġsummon",
        -1.0
      ],
      [
        "Ġglo",
        -1.0
      ],
      [
        ".âĢĵ",
        -1.0
      ],
      [
        "pharynx",
        -1.0
      ],
      [
        "Ġspyware",
        -1.0
      ],
      [
        "ĠAnatomy",
        -1.0
      ],
      [
        "ĠBooker",
        -1.0
      ],
      [
        "Ġcardamom",
        -1.0
      ],
      [
        "Ġgraphs",
        -1.0
      ],
      [
        "Deli",
        -1.0
      ],
      [
        "Ġtwig",
        -1.0
      ],
      [
        "Ġforeboding",
        -1.0
      ],
      [
        "ĠEst",
        -1.0
      ],
      [
        "few",
        -1.0
      ],
      [
        "ĠBMJ",
        -1.0
      ],
      [
        "diet",
        -1.0
      ],
      [
        "Ġmonocytogenes",
        -1.0
      ],
      [
        "ĠLeroy",
        -1.0
      ],
      [
        "Ġexcursion",
        -1.0
      ],
      [
        "ĠSilver",
        -1.0
      ],
      [
        "Essentially",
        -1.0
      ],
      [
        "ĠHelicopter",
        -1.0
      ],
      [
        "ĠElderly",
        -1.0
      ],
      [
        "Ġspecially",
        -1.0
      ],
      [
        "ĠEnvisat",
        -1.0
      ],
      [
        "ĠTEPCO",
        -1.0
      ],
      [
        "ĠRapid",
        -1.0
      ],
      [
        "Ġinfarction",
        -1.0
      ],
      [
        "ĠBurmese",
        -1.0
      ],
      [
        "Ġdestinies",
        -1.0
      ],
      [
        "Hundreds",
        -1.0
      ],
      [
        "Ġboron",
        -1.0
      ],
      [
        "Ġsnowflake",
        -1.0
      ],
      [
        "ĠProspective",
        -1.0
      ],
      [
        "ĠAgent",
        -1.0
      ],
      [
        "Ġardent",
        -1.0
      ],
      [
        "ĠFro",
        -1.0
      ],
      [
        "ĠBW",
        -1.0
      ],
      [
        "Ġpresided",
        -1.0
      ],
      [
        "Ġug",
        -1.0
      ],
      [
        "ĠSNA",
        -1.0
      ],
      [
        "ĠCindy",
        -1.0
      ],
      [
        "ĠMyst",
        -1.0
      ],
      [
        "ĠIntrigu",
        -1.0
      ],
      [
        "Ġinfects",
        -1.0
      ],
      [
        "lighted",
        -1.0
      ],
      [
        "ĠAntigone",
        -1.0
      ],
      [
        "jpl",
        -1.0
      ],
      [
        "Ġsputum",
        -1.0
      ],
      [
        "dens",
        -1.0
      ],
      [
        "1916",
        -1.0
      ],
      [
        "433",
        -1.0
      ],
      [
        "Ġlabelling",
        -1.0
      ],
      [
        "Ġlustre",
        -1.0
      ],
      [
        "Ġthousand",
        -1.0
      ],
      [
        "ĠFluid",
        -1.0
      ],
      [
        "ĠError",
        -1.0
      ],
      [
        "1926",
        -1.0
      ],
      [
        "Ġpersonalities",
        -1.0
      ],
      [
        "294",
        -1.0
      ],
      [
        "ĠServer",
        -1.0
      ],
      [
        "Ġamphetamines",
        -1.0
      ],
      [
        "Ġestranged",
        -1.0
      ],
      [
        "ĠGuatemalans",
        -1.0
      ],
      [
        "Ġexemption",
        -1.0
      ],
      [
        "ĠWhale",
        -1.0
      ],
      [
        "Ġunduly",
        -1.0
      ],
      [
        "Ġtau",
        -1.0
      ],
      [
        "sions",
        -1.0
      ],
      [
        "ĠCustom",
        -1.0
      ],
      [
        "Ġabalone",
        -1.0
      ],
      [
        "ĠVolta",
        -1.0
      ],
      [
        "ĠMagic",
        -1.0
      ],
      [
        "abu",
        -1.0
      ],
      [
        "Ġpops",
        -1.0
      ],
      [
        "Ġprinting",
        -1.0
      ],
      [
        "ĠNun",
        -1.0
      ],
      [
        "tiered",
        -1.0
      ],
      [
        "ĠJupiter",
        -1.0
      ],
      [
        "Ġcomedies",
        -1.0
      ],
      [
        "ĠCormac",
        -1.0
      ],
      [
        "ĠAmtrak",
        -1.0
      ],
      [
        "Ġpublisher",
        -1.0
      ],
      [
        "distinguished",
        -1.0
      ],
      [
        "Ġvariation",
        -1.0
      ],
      [
        "Ġinsurmountable",
        -1.0
      ],
      [
        "ĠElastic",
        -1.0
      ],
      [
        "Ġjpg",
        -1.0
      ],
      [
        "Ġmisspellings",
        -1.0
      ],
      [
        "Ġ0000",
        -1.0
      ],
      [
        "ĠPastoral",
        -1.0
      ],
      [
        "ĠLaunch",
        -1.0
      ],
      [
        "Colonial",
        -1.0
      ],
      [
        "Ezra",
        -1.0
      ],
      [
        "boom",
        -1.0
      ],
      [
        "ĠFGM",
        -1.0
      ],
      [
        "ĠAgra",
        -1.0
      ],
      [
        "ĠIgor",
        -1.0
      ],
      [
        "Ġarriving",
        -1.0
      ],
      [
        "etz",
        -1.0
      ],
      [
        "Ġresembling",
        -1.0
      ],
      [
        "Ġreg",
        -1.0
      ],
      [
        "Ġexpenditure",
        -1.0
      ],
      [
        "Sen",
        -1.0
      ],
      [
        "ĠHS",
        -1.0
      ],
      [
        "ĠTeachings",
        -1.0
      ],
      [
        "Ġvie",
        -1.0
      ],
      [
        "fro",
        -1.0
      ],
      [
        "Ġirritant",
        -1.0
      ],
      [
        "again",
        -1.0
      ],
      [
        "Ġgirls",
        -1.0
      ],
      [
        "Richard",
        -1.0
      ],
      [
        "Ġastronomical",
        -1.0
      ],
      [
        "OLOGICAL",
        -1.0
      ],
      [
        "Ġretweet",
        -1.0
      ],
      [
        "sharing",
        -1.0
      ],
      [
        "Ġconsumer",
        -1.0
      ],
      [
        "Ġfinds",
        -1.0
      ],
      [
        "Ra",
        -1.0
      ],
      [
        "cong",
        -1.0
      ],
      [
        "Ġenterprising",
        -1.0
      ],
      [
        "ĠLeakey",
        -1.0
      ],
      [
        "ĠFatigue",
        -1.0
      ],
      [
        "fuels",
        -1.0
      ],
      [
        "ĠConservation",
        -1.0
      ],
      [
        "Ġforbidding",
        -1.0
      ],
      [
        "Ġmoderated",
        -1.0
      ],
      [
        "Ġepistle",
        -1.0
      ],
      [
        "Ġcalamity",
        -1.0
      ],
      [
        "Ġseeing",
        -1.0
      ],
      [
        "ĠDinosaur",
        -1.0
      ],
      [
        "Ġsedatives",
        -1.0
      ],
      [
        "Ġundercooked",
        -1.0
      ],
      [
        "ĠEin",
        -1.0
      ],
      [
        "Ġcriss",
        -1.0
      ],
      [
        "ĠParasurama",
        -1.0
      ],
      [
        "Ġdroppings",
        -1.0
      ],
      [
        "ĠÐ¾",
        -1.0
      ],
      [
        "gee",
        -1.0
      ],
      [
        "ĠWoonsocket",
        -1.0
      ],
      [
        "Åį",
        -1.0
      ],
      [
        "ĠEpiscopal",
        -1.0
      ],
      [
        "ĠPieter",
        -1.0
      ],
      [
        "Ġbiochemistry",
        -1.0
      ],
      [
        "founder",
        -1.0
      ],
      [
        "zos",
        -1.0
      ],
      [
        "TIC",
        -1.0
      ],
      [
        "ĠCoordinate",
        -1.0
      ],
      [
        "Tylenol",
        -1.0
      ],
      [
        "ĠGOOD",
        -1.0
      ],
      [
        "Ġsolidly",
        -1.0
      ],
      [
        "ĠDegrees",
        -1.0
      ],
      [
        "Ġatmospheric",
        -1.0
      ],
      [
        "BBC",
        -1.0
      ],
      [
        "Ġtributary",
        -1.0
      ],
      [
        "46",
        -1.0
      ],
      [
        "Ġscenarios",
        -1.0
      ],
      [
        "ĠOtis",
        -1.0
      ],
      [
        "ĠCPU",
        -1.0
      ],
      [
        "ĠSymptoms",
        -1.0
      ],
      [
        "Ġprism",
        -1.0
      ],
      [
        "Ġbreed",
        -1.0
      ],
      [
        "ĠEh",
        -1.0
      ],
      [
        "fty",
        -1.0
      ],
      [
        "Ġfertilization",
        -1.0
      ],
      [
        "Welcome",
        -1.0
      ],
      [
        "Ġreceived",
        -1.0
      ],
      [
        "Ġexample",
        -1.0
      ],
      [
        "Ġrecreated",
        -1.0
      ],
      [
        "express",
        -1.0
      ],
      [
        "Ġsinners",
        -1.0
      ],
      [
        "ĠAcquisition",
        -1.0
      ],
      [
        "party",
        -1.0
      ],
      [
        "ĠKierkegaard",
        -1.0
      ],
      [
        "European",
        -1.0
      ],
      [
        "cti",
        -1.0
      ],
      [
        "Ġadolescence",
        -1.0
      ],
      [
        "Ġupgrades",
        -1.0
      ],
      [
        "Ġslowest",
        -1.0
      ],
      [
        "ĠHelldiver",
        -1.0
      ],
      [
        "IONS",
        -1.0
      ],
      [
        "Ġcomment",
        -1.0
      ],
      [
        "Ġcautiously",
        -1.0
      ],
      [
        "ĠFluor",
        -1.0
      ],
      [
        "Ġentertained",
        -1.0
      ],
      [
        "Ġdifficult",
        -1.0
      ],
      [
        "Ġsponges",
        -1.0
      ],
      [
        "ĠNetwork",
        -1.0
      ],
      [
        "ĠSertoli",
        -1.0
      ],
      [
        "ĠHank",
        -1.0
      ],
      [
        "Spinal",
        -1.0
      ],
      [
        "Ġexhibition",
        -1.0
      ],
      [
        "Point",
        -1.0
      ],
      [
        "Ġwhaling",
        -1.0
      ],
      [
        "Ġtransporting",
        -1.0
      ],
      [
        "Ġtunnelling",
        -1.0
      ],
      [
        "Ġaltruism",
        -1.0
      ],
      [
        "Ġcoronavirus",
        -1.0
      ],
      [
        "Ġprogrammatic",
        -1.0
      ],
      [
        "ĠKerberos",
        -1.0
      ],
      [
        "Ġgraceful",
        -1.0
      ],
      [
        "ramahamsa",
        -1.0
      ],
      [
        "Indiana",
        -1.0
      ],
      [
        "Ġunconformity",
        -1.0
      ],
      [
        "ĠElectr",
        -1.0
      ],
      [
        "Plain",
        -1.0
      ],
      [
        "Ã©l",
        -1.0
      ],
      [
        "139",
        -1.0
      ],
      [
        "Ġenjoyed",
        -1.0
      ],
      [
        "RG",
        -1.0
      ],
      [
        "Ġimprinted",
        -1.0
      ],
      [
        "ĠTerrain",
        -1.0
      ],
      [
        "Ġfibre",
        -1.0
      ],
      [
        "ĠString",
        -1.0
      ],
      [
        "arche",
        -1.0
      ],
      [
        "Ġcriticizing",
        -1.0
      ],
      [
        "ĠOperation",
        -1.0
      ],
      [
        "ĠChildren",
        -1.0
      ],
      [
        "ĠAg",
        -1.0
      ],
      [
        "Ġcompressor",
        -1.0
      ],
      [
        "Ġcountenance",
        -1.0
      ],
      [
        "Ġdispersants",
        -1.0
      ],
      [
        "Ġimmature",
        -1.0
      ],
      [
        "Ġpreferences",
        -1.0
      ],
      [
        "ĠInfect",
        -1.0
      ],
      [
        "ĠPatriarchs",
        -1.0
      ],
      [
        "Ġbuilding",
        -1.0
      ],
      [
        "Ġketamine",
        -1.0
      ],
      [
        "Many",
        -1.0
      ],
      [
        "ĠEnding",
        -1.0
      ],
      [
        "landa",
        -1.0
      ],
      [
        "wara",
        -1.0
      ],
      [
        "Ġdefinitive",
        -1.0
      ],
      [
        "Ġenthalpy",
        -1.0
      ],
      [
        "poor",
        -1.0
      ],
      [
        "ĠMurchison",
        -1.0
      ],
      [
        "ĠCarleton",
        -1.0
      ],
      [
        "tree",
        -1.0
      ],
      [
        "Ð¸ÑĽ",
        -1.0
      ],
      [
        "Ġbeneficiary",
        -1.0
      ],
      [
        "Ġneutrons",
        -1.0
      ],
      [
        "ago",
        -1.0
      ],
      [
        "Ġfeedstock",
        -1.0
      ],
      [
        "tans",
        -1.0
      ],
      [
        "ĠBoth",
        -1.0
      ],
      [
        "ĠGranville",
        -1.0
      ],
      [
        "Ġsurveyors",
        -1.0
      ],
      [
        "Ġgregarious",
        -1.0
      ],
      [
        "ĠMarkets",
        -1.0
      ],
      [
        "Address",
        -1.0
      ],
      [
        "ĠUltra",
        -1.0
      ],
      [
        "Ġworkers",
        -1.0
      ],
      [
        "Ġprogramming",
        -1.0
      ],
      [
        "ĠPhotograph",
        -1.0
      ],
      [
        "LAND",
        -1.0
      ],
      [
        "Ġliterally",
        -1.0
      ],
      [
        "Trials",
        -1.0
      ],
      [
        "...",
        -1.0
      ],
      [
        "OX",
        -1.0
      ],
      [
        "ĠAgents",
        -1.0
      ],
      [
        "Ġsheriffs",
        -1.0
      ],
      [
        "ĠIB",
        -1.0
      ],
      [
        "ĠDryptosaurus",
        -1.0
      ],
      [
        "Ġslim",
        -1.0
      ],
      [
        "ĠAge",
        -1.0
      ],
      [
        "Ġmums",
        -1.0
      ],
      [
        "Ġocc",
        -1.0
      ],
      [
        "Ġadhering",
        -1.0
      ],
      [
        "453",
        -1.0
      ],
      [
        "protected",
        -1.0
      ],
      [
        "Ġmyelin",
        -1.0
      ],
      [
        "ĠMinute",
        -1.0
      ],
      [
        "Ġtweet",
        -1.0
      ],
      [
        "chez",
        -1.0
      ],
      [
        "retto",
        -1.0
      ],
      [
        "rth",
        -1.0
      ],
      [
        "Ġwallabies",
        -1.0
      ],
      [
        "rith",
        -1.0
      ],
      [
        "Ġlimber",
        -1.0
      ],
      [
        "ĠCongolese",
        -1.0
      ],
      [
        "Ġstimulant",
        -1.0
      ],
      [
        "pregnant",
        -1.0
      ],
      [
        "ĠDynasties",
        -1.0
      ],
      [
        "ĠQtpfsgui",
        -1.0
      ],
      [
        "ĠDeepwater",
        -1.0
      ],
      [
        "Ġalgorithms",
        -1.0
      ],
      [
        "ĠRider",
        -1.0
      ],
      [
        "Ġinternalize",
        -1.0
      ],
      [
        "Ġben",
        -1.0
      ],
      [
        "25",
        -1.0
      ],
      [
        "Ġcolli",
        -1.0
      ],
      [
        "Ġmammals",
        -1.0
      ],
      [
        "Ö°",
        -1.0
      ],
      [
        "Ġ1674",
        -1.0
      ],
      [
        "ĠWild",
        -1.0
      ],
      [
        "vulnerable",
        -1.0
      ],
      [
        "climatic",
        -1.0
      ],
      [
        "schedule",
        -1.0
      ],
      [
        "ĠPsychiatry",
        -1.0
      ],
      [
        "Ġdefeating",
        -1.0
      ],
      [
        "Isaiah",
        -1.0
      ],
      [
        "ĠCrohn",
        -1.0
      ],
      [
        "Ġinterpreter",
        -1.0
      ],
      [
        "ĠPl",
        -1.0
      ],
      [
        "Ġmedical",
        -1.0
      ],
      [
        "Ġmute",
        -1.0
      ],
      [
        "ĠBE",
        -1.0
      ],
      [
        "ĠNicaragua",
        -1.0
      ],
      [
        "Ġcritters",
        -1.0
      ],
      [
        "Ġabut",
        -1.0
      ],
      [
        "Ġredemption",
        -1.0
      ],
      [
        "Ġpant",
        -1.0
      ],
      [
        "crates",
        -1.0
      ],
      [
        "ĠSatya",
        -1.0
      ],
      [
        "beams",
        -1.0
      ],
      [
        "ĠRepublics",
        -1.0
      ],
      [
        "Ġcollar",
        -1.0
      ],
      [
        "Ġdetainees",
        -1.0
      ],
      [
        "bra",
        -1.0
      ],
      [
        "Since",
        -1.0
      ],
      [
        "wp",
        -1.0
      ],
      [
        "Ġlatch",
        -1.0
      ],
      [
        "periencing",
        -1.0
      ],
      [
        "Exam",
        -1.0
      ],
      [
        "ĠBenghazi",
        -1.0
      ],
      [
        "ĠAesthetic",
        -1.0
      ],
      [
        "Ġcensorship",
        -1.0
      ],
      [
        "Ġotters",
        -1.0
      ],
      [
        "vain",
        -1.0
      ],
      [
        "Pin",
        -1.0
      ],
      [
        "publish",
        -1.0
      ],
      [
        "Works",
        -1.0
      ],
      [
        "kowski",
        -1.0
      ],
      [
        "Ġlocked",
        -1.0
      ],
      [
        "ĠBrowse",
        -1.0
      ],
      [
        "cortical",
        -1.0
      ],
      [
        "Ġdeserted",
        -1.0
      ],
      [
        "remain",
        -1.0
      ],
      [
        "Ġsummarily",
        -1.0
      ],
      [
        "UP",
        -1.0
      ],
      [
        "ija",
        -1.0
      ],
      [
        "Ġperoxidase",
        -1.0
      ],
      [
        "Ġcrayfish",
        -1.0
      ],
      [
        "Ġphysicalism",
        -1.0
      ],
      [
        "ĠChap",
        -1.0
      ],
      [
        "ĠParalympics",
        -1.0
      ],
      [
        "Elder",
        -1.0
      ],
      [
        "Ġjavelin",
        -1.0
      ],
      [
        "ĠKappa",
        -1.0
      ],
      [
        "ĠProse",
        -1.0
      ],
      [
        "Ġtyrant",
        -1.0
      ],
      [
        "ĠKan",
        -1.0
      ],
      [
        "Ġgreetings",
        -1.0
      ],
      [
        "NB",
        -1.0
      ],
      [
        "ĠPueblo",
        -1.0
      ],
      [
        "ĠUnter",
        -1.0
      ],
      [
        "inine",
        -1.0
      ],
      [
        "Ġnutmeg",
        -1.0
      ],
      [
        "Ġ386",
        -1.0
      ],
      [
        "Ġlawmakers",
        -1.0
      ],
      [
        "642",
        -1.0
      ],
      [
        "topia",
        -1.0
      ],
      [
        "Ġstuds",
        -1.0
      ],
      [
        "Ġand",
        -1.0
      ],
      [
        "Ġ1521",
        -1.0
      ],
      [
        "Spencer",
        -1.0
      ],
      [
        "Dy",
        -1.0
      ],
      [
        "discover",
        -1.0
      ],
      [
        "Ġtypefaces",
        -1.0
      ],
      [
        "ĠHen",
        -1.0
      ],
      [
        "ĠAphrodite",
        -1.0
      ],
      [
        "Ġengravings",
        -1.0
      ],
      [
        "Ġuntouched",
        -1.0
      ],
      [
        "ĠOnegin",
        -1.0
      ],
      [
        "ĠAnthem",
        -1.0
      ],
      [
        "Ġshown",
        -1.0
      ],
      [
        "Ġpermissive",
        -1.0
      ],
      [
        "Ġ1350",
        -1.0
      ],
      [
        "Ġcivilisation",
        -1.0
      ],
      [
        "ĠAgricultural",
        -1.0
      ],
      [
        "Ġhunt",
        -1.0
      ],
      [
        "ĠFlats",
        -1.0
      ],
      [
        "Ġgallant",
        -1.0
      ],
      [
        "origin",
        -1.0
      ],
      [
        "Ġterrible",
        -1.0
      ],
      [
        "ĠStay",
        -1.0
      ],
      [
        "ĠGal",
        -1.0
      ],
      [
        "ĠTry",
        -1.0
      ],
      [
        "Ġcongregate",
        -1.0
      ],
      [
        "Ġoat",
        -1.0
      ],
      [
        "Ġtechnician",
        -1.0
      ],
      [
        "Ġdeflation",
        -1.0
      ],
      [
        "Ġzenith",
        -1.0
      ],
      [
        "Computer",
        -1.0
      ],
      [
        "nze",
        -1.0
      ],
      [
        "Ġduty",
        -1.0
      ],
      [
        "Ġcamel",
        -1.0
      ],
      [
        "ĠProvenÃ§al",
        -1.0
      ],
      [
        "the",
        -1.0
      ],
      [
        "Ġarchetypes",
        -1.0
      ],
      [
        "ĠPosition",
        -1.0
      ],
      [
        "ĠAdo",
        -1.0
      ],
      [
        "Ġamericana",
        -1.0
      ],
      [
        "Ġgeek",
        -1.0
      ],
      [
        "Primary",
        -1.0
      ],
      [
        "Ġapologize",
        -1.0
      ],
      [
        "Ġcherry",
        -1.0
      ],
      [
        "TAR",
        -1.0
      ],
      [
        "emphasis",
        -1.0
      ],
      [
        "Ġimportation",
        -1.0
      ],
      [
        "Ġmatching",
        -1.0
      ],
      [
        "ĠTurf",
        -1.0
      ],
      [
        "Ġseven",
        -1.0
      ],
      [
        "Ġfinishes",
        -1.0
      ],
      [
        "ĠMam",
        -1.0
      ],
      [
        "Ġsolstice",
        -1.0
      ],
      [
        "ĠBo",
        -1.0
      ],
      [
        "ĠPandora",
        -1.0
      ],
      [
        "Ġsustains",
        -1.0
      ],
      [
        "ĠStÃ¶ppler",
        -1.0
      ],
      [
        "Ġconjugation",
        -1.0
      ],
      [
        "Ġpropellant",
        -1.0
      ],
      [
        "Ġlengths",
        -1.0
      ],
      [
        "nks",
        -1.0
      ],
      [
        "Ġatro",
        -1.0
      ],
      [
        "Ku",
        -1.0
      ],
      [
        "ĠInvestigate",
        -1.0
      ],
      [
        "Ġrepurposed",
        -1.0
      ],
      [
        "ĠGambia",
        -1.0
      ],
      [
        "ĠAstrology",
        -1.0
      ],
      [
        "ĠPompey",
        -1.0
      ],
      [
        "Ġautobiographical",
        -1.0
      ],
      [
        "Ö¶",
        -1.0
      ],
      [
        "Ġcoolest",
        -1.0
      ],
      [
        "Ġaerodynamic",
        -1.0
      ],
      [
        "Ġtic",
        -1.0
      ],
      [
        "ĠNvidia",
        -1.0
      ],
      [
        "ĠDust",
        -1.0
      ],
      [
        "Ġsuperpower",
        -1.0
      ],
      [
        "Doctors",
        -1.0
      ],
      [
        "Ġlegalized",
        -1.0
      ],
      [
        "Ġmasks",
        -1.0
      ],
      [
        "Ġboycotts",
        -1.0
      ],
      [
        "skins",
        -1.0
      ],
      [
        "ĠEV",
        -1.0
      ],
      [
        "tore",
        -1.0
      ],
      [
        "Ġbake",
        -1.0
      ],
      [
        "Ġhorizon",
        -1.0
      ],
      [
        "Ġ1",
        -1.0
      ],
      [
        "Ġdisciple",
        -1.0
      ],
      [
        "ĠOmni",
        -1.0
      ],
      [
        "ĠCandle",
        -1.0
      ],
      [
        "netcdf",
        -1.0
      ],
      [
        "Ġdoses",
        -1.0
      ],
      [
        "Ġheld",
        -1.0
      ],
      [
        "James",
        -1.0
      ],
      [
        "Ġupset",
        -1.0
      ],
      [
        "Ġanalogues",
        -1.0
      ],
      [
        "Ġdesserts",
        -1.0
      ],
      [
        "Present",
        -1.0
      ],
      [
        "itudes",
        -1.0
      ],
      [
        "Ġpushed",
        -1.0
      ],
      [
        "Ġ650",
        -1.0
      ],
      [
        "ĠPrefecture",
        -1.0
      ],
      [
        "Ġchickens",
        -1.0
      ],
      [
        ")||",
        -1.0
      ],
      [
        "Origins",
        -1.0
      ],
      [
        "ĠProfit",
        -1.0
      ],
      [
        "Clinton",
        -1.0
      ],
      [
        "diol",
        -1.0
      ],
      [
        "tist",
        -1.0
      ],
      [
        "ĠDavao",
        -1.0
      ],
      [
        "ĠSigrÃŃÃ°",
        -1.0
      ],
      [
        "Ġeccentricity",
        -1.0
      ],
      [
        "Ġgastroesophageal",
        -1.0
      ],
      [
        "Ġseaweeds",
        -1.0
      ],
      [
        "Ġ305",
        -1.0
      ],
      [
        "Ġdampen",
        -1.0
      ],
      [
        "rns",
        -1.0
      ],
      [
        "ĠRak",
        -1.0
      ],
      [
        "Ġmetacarpophalangeal",
        -1.0
      ],
      [
        "Salt",
        -1.0
      ],
      [
        "good",
        -1.0
      ],
      [
        "ĠResearcher",
        -1.0
      ],
      [
        "Ġspectroscopy",
        -1.0
      ],
      [
        "Ġshooting",
        -1.0
      ],
      [
        "ĠSoto",
        -1.0
      ],
      [
        "Ġexperiment",
        -1.0
      ],
      [
        "Ġventure",
        -1.0
      ],
      [
        "ĠCompletion",
        -1.0
      ],
      [
        "ĠGeoffrey",
        -1.0
      ],
      [
        "Ġrinsed",
        -1.0
      ],
      [
        "Myanmar",
        -1.0
      ],
      [
        "Ġ985",
        -1.0
      ],
      [
        "Ġsend",
        -1.0
      ],
      [
        "1845",
        -1.0
      ],
      [
        "drich",
        -1.0
      ],
      [
        "afternoon",
        -1.0
      ],
      [
        ";\"",
        -1.0
      ],
      [
        "Ġsolstices",
        -1.0
      ],
      [
        "ĠKhomeini",
        -1.0
      ],
      [
        "Ġbigger",
        -1.0
      ],
      [
        "ĠLesbian",
        -1.0
      ],
      [
        "ĠPanamanian",
        -1.0
      ],
      [
        "ĠSUB",
        -1.0
      ],
      [
        "ĠDebian",
        -1.0
      ],
      [
        "ĠBozeman",
        -1.0
      ],
      [
        "ĠBurial",
        -1.0
      ],
      [
        ">/",
        -1.0
      ],
      [
        "Ġroyalties",
        -1.0
      ],
      [
        "Ġtowels",
        -1.0
      ],
      [
        "Ġresorting",
        -1.0
      ],
      [
        "Ġpatio",
        -1.0
      ],
      [
        "inging",
        -1.0
      ],
      [
        "Ġerythema",
        -1.0
      ],
      [
        "Ġeasements",
        -1.0
      ],
      [
        "ĠYard",
        -1.0
      ],
      [
        "ĠNJ",
        -1.0
      ],
      [
        "ĠExile",
        -1.0
      ],
      [
        "Ġbronchiolitis",
        -1.0
      ],
      [
        "ĠShun",
        -1.0
      ],
      [
        "ĠIntegral",
        -1.0
      ],
      [
        "ĠClan",
        -1.0
      ],
      [
        "Ġstrangulation",
        -1.0
      ],
      [
        "Ġdevoting",
        -1.0
      ],
      [
        "Ġretirement",
        -1.0
      ],
      [
        "ĠBrennan",
        -1.0
      ],
      [
        "Ġsuzani",
        -1.0
      ],
      [
        "Ġnortheast",
        -1.0
      ],
      [
        "no",
        -1.0
      ],
      [
        "Ġheights",
        -1.0
      ],
      [
        "Ġfluency",
        -1.0
      ],
      [
        ">>",
        -1.0
      ],
      [
        "Ġpersonally",
        -1.0
      ],
      [
        "Lib",
        -1.0
      ],
      [
        "ĠIns",
        -1.0
      ],
      [
        "ĠSolution",
        -1.0
      ],
      [
        "Ġatolls",
        -1.0
      ],
      [
        "Ġmillet",
        -1.0
      ],
      [
        "ĠPopular",
        -1.0
      ],
      [
        "Ġchrome",
        -1.0
      ],
      [
        "ĠCollie",
        -1.0
      ],
      [
        "ĠAdmiralty",
        -1.0
      ],
      [
        "Ġheals",
        -1.0
      ],
      [
        "Past",
        -1.0
      ],
      [
        "pervading",
        -1.0
      ],
      [
        "Ġbrine",
        -1.0
      ],
      [
        "Teachers",
        -1.0
      ],
      [
        "Tropical",
        -1.0
      ],
      [
        "ĠCetacean",
        -1.0
      ],
      [
        "Ġintrauterine",
        -1.0
      ],
      [
        "ĠOÃ±ate",
        -1.0
      ],
      [
        "ĠHooker",
        -1.0
      ],
      [
        "ĠAdm",
        -1.0
      ],
      [
        "Ġgoverned",
        -1.0
      ],
      [
        "ĠEpic",
        -1.0
      ],
      [
        "ĠMSU",
        -1.0
      ],
      [
        "NGOs",
        -1.0
      ],
      [
        "itor",
        -1.0
      ],
      [
        "ĠCrypt",
        -1.0
      ],
      [
        "expanded",
        -1.0
      ],
      [
        "Ġnuptial",
        -1.0
      ],
      [
        "Ġitinerant",
        -1.0
      ],
      [
        "317",
        -1.0
      ],
      [
        "ĠBelieve",
        -1.0
      ],
      [
        "Ġcompose",
        -1.0
      ],
      [
        "Ġfrigate",
        -1.0
      ],
      [
        "Ġ167",
        -1.0
      ],
      [
        "ĠHematology",
        -1.0
      ],
      [
        "Ġdumps",
        -1.0
      ],
      [
        "ĠProduction",
        -1.0
      ],
      [
        "ĠSomething",
        -1.0
      ],
      [
        "Ġscrews",
        -1.0
      ],
      [
        "ĠInvasive",
        -1.0
      ],
      [
        "ĠRus",
        -1.0
      ],
      [
        "Ġ(+",
        -1.0
      ],
      [
        "DER",
        -1.0
      ],
      [
        "ĠmicroRNA",
        -1.0
      ],
      [
        "ĠScript",
        -1.0
      ],
      [
        "ĠCorolla",
        -1.0
      ],
      [
        "ĠMÃ¼nster",
        -1.0
      ],
      [
        "Ġgraphene",
        -1.0
      ],
      [
        "Ġdetail",
        -1.0
      ],
      [
        "ĠNab",
        -1.0
      ],
      [
        "Ġvilla",
        -1.0
      ],
      [
        "Ġdislodge",
        -1.0
      ],
      [
        "421",
        -1.0
      ],
      [
        "viz",
        -1.0
      ],
      [
        "Ġman",
        -1.0
      ],
      [
        "Ġsequencing",
        -1.0
      ],
      [
        "ĠDebris",
        -1.0
      ],
      [
        "Ġunbelievable",
        -1.0
      ],
      [
        "MON",
        -1.0
      ],
      [
        "Ġknobs",
        -1.0
      ],
      [
        "Ġheartbeat",
        -1.0
      ],
      [
        "Ġpretensions",
        -1.0
      ],
      [
        "Ġidentifications",
        -1.0
      ],
      [
        "ĠDj",
        -1.0
      ],
      [
        "Ġforced",
        -1.0
      ],
      [
        "ĠMesser",
        -1.0
      ],
      [
        "ĠDu",
        -1.0
      ],
      [
        "Ġwrath",
        -1.0
      ],
      [
        "Ġarcs",
        -1.0
      ],
      [
        "Ġbuying",
        -1.0
      ],
      [
        "ĠEa",
        -1.0
      ],
      [
        "à¤¦à¤¨",
        -1.0
      ],
      [
        "Ġchaotic",
        -1.0
      ],
      [
        "ĠFredericksburg",
        -1.0
      ],
      [
        "ĠLatvian",
        -1.0
      ],
      [
        "domestic",
        -1.0
      ],
      [
        "Ġresponsibility",
        -1.0
      ],
      [
        "GM",
        -1.0
      ],
      [
        "ĠAllegheny",
        -1.0
      ],
      [
        "Maintenance",
        -1.0
      ],
      [
        "Ġpositive",
        -1.0
      ],
      [
        "Ġbadges",
        -1.0
      ],
      [
        "Ġpayable",
        -1.0
      ],
      [
        "ĠMemory",
        -1.0
      ],
      [
        "039",
        -1.0
      ],
      [
        "Ġpaved",
        -1.0
      ],
      [
        "Ġsyllable",
        -1.0
      ],
      [
        "GAN",
        -1.0
      ],
      [
        "Herzegovina",
        -1.0
      ],
      [
        "ĠEthnic",
        -1.0
      ],
      [
        "ĠHibern",
        -1.0
      ],
      [
        "sense",
        -1.0
      ],
      [
        "ĠIbn",
        -1.0
      ],
      [
        "ĠLaguna",
        -1.0
      ],
      [
        "ĠSurg",
        -1.0
      ],
      [
        "028",
        -1.0
      ],
      [
        "1999",
        -1.0
      ],
      [
        "Ġepistemological",
        -1.0
      ],
      [
        "Ġcaravan",
        -1.0
      ],
      [
        "HS",
        -1.0
      ],
      [
        "Ġwoes",
        -1.0
      ],
      [
        "Ġpointer",
        -1.0
      ],
      [
        "ĠMMWR",
        -1.0
      ],
      [
        "Ġtuberculosis",
        -1.0
      ],
      [
        "Ġreliance",
        -1.0
      ],
      [
        "38",
        -1.0
      ],
      [
        "ĠFW",
        -1.0
      ],
      [
        "ĠOrpheus",
        -1.0
      ],
      [
        "ĠPressure",
        -1.0
      ],
      [
        "Ġinhalants",
        -1.0
      ],
      [
        "Ġ331",
        -1.0
      ],
      [
        "Mi",
        -1.0
      ],
      [
        "ĠBuchanan",
        -1.0
      ],
      [
        "Ġpedestal",
        -1.0
      ],
      [
        "credited",
        -1.0
      ],
      [
        "ĠÂ½",
        -1.0
      ],
      [
        "ĠCorporate",
        -1.0
      ],
      [
        "Ġincreasing",
        -1.0
      ],
      [
        "Participants",
        -1.0
      ],
      [
        "ĠEconomists",
        -1.0
      ],
      [
        "Ġrestores",
        -1.0
      ],
      [
        "Ġaccession",
        -1.0
      ],
      [
        "Ġwhichever",
        -1.0
      ],
      [
        "save",
        -1.0
      ],
      [
        "ĠSmaller",
        -1.0
      ],
      [
        "ĠFactory",
        -1.0
      ],
      [
        "Ġrolled",
        -1.0
      ],
      [
        "Ġdestinations",
        -1.0
      ],
      [
        "tization",
        -1.0
      ],
      [
        "306",
        -1.0
      ],
      [
        "Ġoutlets",
        -1.0
      ],
      [
        "Ġzombie",
        -1.0
      ],
      [
        "Ġaccommodations",
        -1.0
      ],
      [
        "wheel",
        -1.0
      ],
      [
        "Ġup",
        -1.0
      ],
      [
        "ĠVeterans",
        -1.0
      ],
      [
        "ĠChandra",
        -1.0
      ],
      [
        "Ġemployee",
        -1.0
      ],
      [
        "Ġconfronts",
        -1.0
      ],
      [
        "Ġmockery",
        -1.0
      ],
      [
        "Ġaffectionately",
        -1.0
      ],
      [
        "Ġbypassed",
        -1.0
      ],
      [
        "Ġharvests",
        -1.0
      ],
      [
        "ĠGerhard",
        -1.0
      ],
      [
        "meat",
        -1.0
      ],
      [
        "Purchase",
        -1.0
      ],
      [
        "Ġplowing",
        -1.0
      ],
      [
        "Ġexits",
        -1.0
      ],
      [
        "pha",
        -1.0
      ],
      [
        "Ġovate",
        -1.0
      ],
      [
        "Ġlabyrinth",
        -1.0
      ],
      [
        "Ġunearth",
        -1.0
      ],
      [
        "Ġthrows",
        -1.0
      ],
      [
        "Ġboosts",
        -1.0
      ],
      [
        "typ",
        -1.0
      ],
      [
        "Ġtail",
        -1.0
      ],
      [
        "ĠForts",
        -1.0
      ],
      [
        "Lloyd",
        -1.0
      ],
      [
        "Beginning",
        -1.0
      ],
      [
        "Ġsubversive",
        -1.0
      ],
      [
        "Ġsushi",
        -1.0
      ],
      [
        "Ġmemberships",
        -1.0
      ],
      [
        "Variations",
        -1.0
      ],
      [
        "IPCC",
        -1.0
      ],
      [
        "Face",
        -1.0
      ],
      [
        "Ġevanescent",
        -1.0
      ],
      [
        "Ġbuoyancy",
        -1.0
      ],
      [
        "Ġcrests",
        -1.0
      ],
      [
        "ĠDione",
        -1.0
      ],
      [
        "Ġlight",
        -1.0
      ],
      [
        "Ġjitter",
        -1.0
      ],
      [
        "Tobacco",
        -1.0
      ],
      [
        "1875",
        -1.0
      ],
      [
        "Ġfalse",
        -1.0
      ],
      [
        "ĠPointe",
        -1.0
      ],
      [
        "ĠLeÃ³n",
        -1.0
      ],
      [
        "Ġsabot",
        -1.0
      ],
      [
        "habit",
        -1.0
      ],
      [
        "ĠCTRL",
        -1.0
      ],
      [
        "Ġfoams",
        -1.0
      ],
      [
        "619",
        -1.0
      ],
      [
        "gut",
        -1.0
      ],
      [
        "ĠConfederation",
        -1.0
      ],
      [
        "Ġfighter",
        -1.0
      ],
      [
        "Ġprobability",
        -1.0
      ],
      [
        "ĠKnapp",
        -1.0
      ],
      [
        "oy",
        -1.0
      ],
      [
        "Tue",
        -1.0
      ],
      [
        "OID",
        -1.0
      ],
      [
        "tropic",
        -1.0
      ],
      [
        "585",
        -1.0
      ],
      [
        "laying",
        -1.0
      ],
      [
        "coph",
        -1.0
      ],
      [
        "ĠObsolete",
        -1.0
      ],
      [
        "ĠCategories",
        -1.0
      ],
      [
        "Ġ341",
        -1.0
      ],
      [
        "Ġconduct",
        -1.0
      ],
      [
        "ĠSaginaw",
        -1.0
      ],
      [
        "ĠRetirement",
        -1.0
      ],
      [
        "Ġadvertise",
        -1.0
      ],
      [
        "Ġif",
        -1.0
      ],
      [
        "Ġthence",
        -1.0
      ],
      [
        "ĠCopies",
        -1.0
      ],
      [
        "glacial",
        -1.0
      ],
      [
        "ĠZn",
        -1.0
      ],
      [
        "in",
        -1.0
      ],
      [
        "smart",
        -1.0
      ],
      [
        "ĠATK",
        -1.0
      ],
      [
        "ĠInjury",
        -1.0
      ],
      [
        "Ġnightly",
        -1.0
      ],
      [
        "ĠRodin",
        -1.0
      ],
      [
        "sai",
        -1.0
      ],
      [
        "array",
        -1.0
      ],
      [
        "ĠChallenge",
        -1.0
      ],
      [
        "Ġinet",
        -1.0
      ],
      [
        "Ġrelating",
        -1.0
      ],
      [
        "Ġpreviously",
        -1.0
      ],
      [
        "Ġplacing",
        -1.0
      ],
      [
        "Ġ406",
        -1.0
      ],
      [
        "Ġ347",
        -1.0
      ],
      [
        "Ġacclimat",
        -1.0
      ],
      [
        "Wikimedia",
        -1.0
      ],
      [
        "ĠXbox",
        -1.0
      ],
      [
        "olite",
        -1.0
      ],
      [
        "ĠRegrettably",
        -1.0
      ],
      [
        "ĠTahoe",
        -1.0
      ],
      [
        "Ġleaky",
        -1.0
      ],
      [
        "Ġbounded",
        -1.0
      ],
      [
        "ĠAhab",
        -1.0
      ],
      [
        "Ġrelaxation",
        -1.0
      ],
      [
        "Office",
        -1.0
      ],
      [
        "ĠPeano",
        -1.0
      ],
      [
        "ĠProcedures",
        -1.0
      ],
      [
        "Ġthermometers",
        -1.0
      ],
      [
        "Ġpopul",
        -1.0
      ],
      [
        "Ġrepressed",
        -1.0
      ],
      [
        "Ġrobbers",
        -1.0
      ],
      [
        "Ġunderstated",
        -1.0
      ],
      [
        "Ġframers",
        -1.0
      ],
      [
        "Ġopossum",
        -1.0
      ],
      [
        "ĠFollowing",
        -1.0
      ],
      [
        "Asthma",
        -1.0
      ],
      [
        "Ġridges",
        -1.0
      ],
      [
        "Ġpp",
        -1.0
      ],
      [
        "Ġtriangular",
        -1.0
      ],
      [
        "Ġbending",
        -1.0
      ],
      [
        "ĠValley",
        -1.0
      ],
      [
        "Ġpossibilities",
        -1.0
      ],
      [
        "ĠLeavitt",
        -1.0
      ],
      [
        "sid",
        -1.0
      ],
      [
        "Ġretarded",
        -1.0
      ],
      [
        "ĠHosp",
        -1.0
      ],
      [
        "opi",
        -1.0
      ],
      [
        "ĠBevin",
        -1.0
      ],
      [
        "lack",
        -1.0
      ],
      [
        "lution",
        -1.0
      ],
      [
        "Ġphyloge",
        -1.0
      ],
      [
        "ĠMaterials",
        -1.0
      ],
      [
        "municipal",
        -1.0
      ],
      [
        "Ġenvious",
        -1.0
      ],
      [
        "Ġanalysis",
        -1.0
      ],
      [
        "Ġveggie",
        -1.0
      ],
      [
        "Ġvice",
        -1.0
      ],
      [
        "carried",
        -1.0
      ],
      [
        "Ġflawed",
        -1.0
      ],
      [
        "ĠGenius",
        -1.0
      ],
      [
        "ĠQuebec",
        -1.0
      ],
      [
        "oki",
        -1.0
      ],
      [
        "ĠEg",
        -1.0
      ],
      [
        "ĠChair",
        -1.0
      ],
      [
        "ĠBluegrass",
        -1.0
      ],
      [
        "Ġcritical",
        -1.0
      ],
      [
        "Ġchain",
        -1.0
      ],
      [
        "attack",
        -1.0
      ],
      [
        "Ġantithesis",
        -1.0
      ],
      [
        "ĠDakota",
        -1.0
      ],
      [
        "viral",
        -1.0
      ],
      [
        "ĠCattle",
        -1.0
      ],
      [
        "ĠChetumal",
        -1.0
      ],
      [
        "ĠJedi",
        -1.0
      ],
      [
        "ĠThousands",
        -1.0
      ],
      [
        "ĠVeriMed",
        -1.0
      ],
      [
        "Ġsynap",
        -1.0
      ],
      [
        "Ġslowed",
        -1.0
      ],
      [
        "Ġcertification",
        -1.0
      ],
      [
        "inium",
        -1.0
      ],
      [
        "ĠEDS",
        -1.0
      ],
      [
        "Ġopportu",
        -1.0
      ],
      [
        "Ġgoldfish",
        -1.0
      ],
      [
        "ĠWorks",
        -1.0
      ],
      [
        "ĠEase",
        -1.0
      ],
      [
        "Ġatoll",
        -1.0
      ],
      [
        "Ġsucceed",
        -1.0
      ],
      [
        "Ġrouted",
        -1.0
      ],
      [
        "ĠZeppelin",
        -1.0
      ],
      [
        "ĠAOL",
        -1.0
      ],
      [
        "Ġwithholding",
        -1.0
      ],
      [
        "Ġattributed",
        -1.0
      ],
      [
        "Ġdeploying",
        -1.0
      ],
      [
        "ĠRealism",
        -1.0
      ],
      [
        "Ġvote",
        -1.0
      ],
      [
        "Ġsuffocation",
        -1.0
      ],
      [
        "ĠLiberty",
        -1.0
      ],
      [
        "Metro",
        -1.0
      ],
      [
        "Ġavailability",
        -1.0
      ],
      [
        "itra",
        -1.0
      ],
      [
        "ĠRevenue",
        -1.0
      ],
      [
        "Ġmushroom",
        -1.0
      ],
      [
        "Ġchecksum",
        -1.0
      ],
      [
        "Ġseaweed",
        -1.0
      ],
      [
        "Ġiniquities",
        -1.0
      ],
      [
        "Ġtraces",
        -1.0
      ],
      [
        "Ġfootwear",
        -1.0
      ],
      [
        "Ġma",
        -1.0
      ],
      [
        "Ġhazard",
        -1.0
      ],
      [
        "existent",
        -1.0
      ],
      [
        "Ġproclivities",
        -1.0
      ],
      [
        "ĠBoost",
        -1.0
      ],
      [
        "Ġtimeframe",
        -1.0
      ],
      [
        "Ġestate",
        -1.0
      ],
      [
        "ĠKochoilaftiyo",
        -1.0
      ],
      [
        "ĠSoldiers",
        -1.0
      ],
      [
        "Ġsymptomatic",
        -1.0
      ],
      [
        "Ġreactors",
        -1.0
      ],
      [
        "Secret",
        -1.0
      ],
      [
        "Nancy",
        -1.0
      ],
      [
        "Ġlofty",
        -1.0
      ],
      [
        "ĠHunter",
        -1.0
      ],
      [
        "ĠISA",
        -1.0
      ],
      [
        "integrated",
        -1.0
      ],
      [
        "ĠJournal",
        -1.0
      ],
      [
        "Below",
        -1.0
      ],
      [
        "Ġstyled",
        -1.0
      ],
      [
        "ĠFenton",
        -1.0
      ],
      [
        "Ġskirmish",
        -1.0
      ],
      [
        "Ġproteomics",
        -1.0
      ],
      [
        "Ġequinoxes",
        -1.0
      ],
      [
        "ĠCoast",
        -1.0
      ],
      [
        "ĠBurn",
        -1.0
      ],
      [
        "Ġlor",
        -1.0
      ],
      [
        "IAL",
        -1.0
      ],
      [
        "Ġirrational",
        -1.0
      ],
      [
        "legal",
        -1.0
      ],
      [
        "ĠSvetambara",
        -1.0
      ],
      [
        "ĠConfessions",
        -1.0
      ],
      [
        "approximately",
        -1.0
      ],
      [
        "sion",
        -1.0
      ],
      [
        "Ġstumps",
        -1.0
      ],
      [
        "Ġegalitarian",
        -1.0
      ],
      [
        "Ġmodify",
        -1.0
      ],
      [
        "Ġankylosing",
        -1.0
      ],
      [
        "Ġselfish",
        -1.0
      ],
      [
        "Ġgar",
        -1.0
      ],
      [
        "Ä«r",
        -1.0
      ],
      [
        "ĠAmb",
        -1.0
      ],
      [
        "ĠAvalon",
        -1.0
      ],
      [
        "myo",
        -1.0
      ],
      [
        "ĠReims",
        -1.0
      ],
      [
        "Ġpainstaking",
        -1.0
      ],
      [
        "INFO",
        -1.0
      ],
      [
        "ĠACS",
        -1.0
      ],
      [
        "ĠFavorite",
        -1.0
      ],
      [
        "Ġdetermine",
        -1.0
      ],
      [
        "Ġfluke",
        -1.0
      ],
      [
        "ĠHindu",
        -1.0
      ],
      [
        "Ġunknowns",
        -1.0
      ],
      [
        "Wheat",
        -1.0
      ],
      [
        "Ġaccomplishments",
        -1.0
      ],
      [
        "Ġtruss",
        -1.0
      ],
      [
        "Ġhonoured",
        -1.0
      ],
      [
        "ĠMSNBC",
        -1.0
      ],
      [
        "ĠWestphal",
        -1.0
      ],
      [
        "Ġneutralize",
        -1.0
      ],
      [
        "ssi",
        -1.0
      ],
      [
        "Ġhighlight",
        -1.0
      ],
      [
        "nificent",
        -1.0
      ],
      [
        "ĠJeroboam",
        -1.0
      ],
      [
        "longer",
        -1.0
      ],
      [
        "ej",
        -1.0
      ],
      [
        "Ġhandlebars",
        -1.0
      ],
      [
        "Ġvar",
        -1.0
      ],
      [
        "Ġé",
        -1.0
      ],
      [
        "Ġrevision",
        -1.0
      ],
      [
        "pathname",
        -1.0
      ],
      [
        "Ġcooperation",
        -1.0
      ],
      [
        "Ġcleanup",
        -1.0
      ],
      [
        "Ġdeliver",
        -1.0
      ],
      [
        "Ġfrail",
        -1.0
      ],
      [
        "absolute",
        -1.0
      ],
      [
        "ĠExtraordinary",
        -1.0
      ],
      [
        "influenza",
        -1.0
      ],
      [
        "Ġoutlaws",
        -1.0
      ],
      [
        "ĠBaptist",
        -1.0
      ],
      [
        "Treatments",
        -1.0
      ],
      [
        "Ġchills",
        -1.0
      ],
      [
        "Ġcaptivated",
        -1.0
      ],
      [
        "Ġpeptides",
        -1.0
      ],
      [
        "Ġaffected",
        -1.0
      ],
      [
        "VID",
        -1.0
      ],
      [
        "Ġdrachm",
        -1.0
      ],
      [
        "ĠEwing",
        -1.0
      ],
      [
        "Ġsilencing",
        -1.0
      ],
      [
        "<!",
        -1.0
      ],
      [
        "ĠDunes",
        -1.0
      ],
      [
        "continental",
        -1.0
      ],
      [
        "The",
        -1.0
      ],
      [
        "ĠAe",
        -1.0
      ],
      [
        "clo",
        -1.0
      ],
      [
        "ĠRDA",
        -1.0
      ],
      [
        "/~",
        -1.0
      ],
      [
        "opening",
        -1.0
      ],
      [
        "Ġcornucopia",
        -1.0
      ],
      [
        "ĠHonorable",
        -1.0
      ],
      [
        "Ġgrandmother",
        -1.0
      ],
      [
        "Ġmale",
        -1.0
      ],
      [
        "ĠPOW",
        -1.0
      ],
      [
        "NOW",
        -1.0
      ],
      [
        "Ġconsular",
        -1.0
      ],
      [
        ").\"",
        -1.0
      ],
      [
        "ĠSubjects",
        -1.0
      ],
      [
        "ĠOverture",
        -1.0
      ],
      [
        "drops",
        -1.0
      ],
      [
        "ĠPascal",
        -1.0
      ],
      [
        "Ġextrem",
        -1.0
      ],
      [
        "Tuberculosis",
        -1.0
      ],
      [
        "à¤Ĥ",
        -1.0
      ],
      [
        "inspiring",
        -1.0
      ],
      [
        "ĠBaseball",
        -1.0
      ],
      [
        "ahead",
        -1.0
      ],
      [
        "architect",
        -1.0
      ],
      [
        "'\".",
        -1.0
      ],
      [
        "Ġallowed",
        -1.0
      ],
      [
        "Would",
        -1.0
      ],
      [
        "port",
        -1.0
      ],
      [
        "ĠGlance",
        -1.0
      ],
      [
        "281",
        -1.0
      ],
      [
        "google",
        -1.0
      ],
      [
        "zier",
        -1.0
      ],
      [
        "Ġ368",
        -1.0
      ],
      [
        "ĠPei",
        -1.0
      ],
      [
        "bility",
        -1.0
      ],
      [
        "Ġcm",
        -1.0
      ],
      [
        "ĠAndre",
        -1.0
      ],
      [
        "ĠVladimir",
        -1.0
      ],
      [
        "Â®)",
        -1.0
      ],
      [
        "ĠGraphs",
        -1.0
      ],
      [
        "Ġretrofit",
        -1.0
      ],
      [
        "ĠOwn",
        -1.0
      ],
      [
        "Ġalarming",
        -1.0
      ],
      [
        "Ġcottonwood",
        -1.0
      ],
      [
        "ĠMizrahi",
        -1.0
      ],
      [
        "Ġgender",
        -1.0
      ],
      [
        "Ġrosy",
        -1.0
      ],
      [
        "Ġobjects",
        -1.0
      ],
      [
        "fishes",
        -1.0
      ],
      [
        "Ġangle",
        -1.0
      ],
      [
        "onen",
        -1.0
      ],
      [
        "ĠKingdoms",
        -1.0
      ],
      [
        "Ġobjectives",
        -1.0
      ],
      [
        "Ġrhinitis",
        -1.0
      ],
      [
        "Ġensembles",
        -1.0
      ],
      [
        "ĠPrediction",
        -1.0
      ],
      [
        "improvement",
        -1.0
      ],
      [
        "Ġ308",
        -1.0
      ],
      [
        "Ġowed",
        -1.0
      ],
      [
        "Ġsynapse",
        -1.0
      ],
      [
        "ĠDMOs",
        -1.0
      ],
      [
        "ĠPad",
        -1.0
      ],
      [
        "Ġablation",
        -1.0
      ],
      [
        "Ġinstallers",
        -1.0
      ],
      [
        "Ġpromotes",
        -1.0
      ],
      [
        "Ġmilitiamen",
        -1.0
      ],
      [
        "Ġbranding",
        -1.0
      ],
      [
        "Kan",
        -1.0
      ],
      [
        "fruits",
        -1.0
      ],
      [
        "Ġanticipating",
        -1.0
      ],
      [
        "digit",
        -1.0
      ],
      [
        "Male",
        -1.0
      ],
      [
        "Ġpromotional",
        -1.0
      ],
      [
        "Ġorthodontist",
        -1.0
      ],
      [
        "Ġraising",
        -1.0
      ],
      [
        "Ġlurch",
        -1.0
      ],
      [
        "ĠKm",
        -1.0
      ],
      [
        "Ġtu",
        -1.0
      ],
      [
        "Ġ312",
        -1.0
      ],
      [
        "RET",
        -1.0
      ],
      [
        "Ġupbeat",
        -1.0
      ],
      [
        "Ġtroop",
        -1.0
      ],
      [
        "lining",
        -1.0
      ],
      [
        "Ġsitting",
        -1.0
      ],
      [
        "versus",
        -1.0
      ],
      [
        "ĠPNM",
        -1.0
      ],
      [
        "Ġelementary",
        -1.0
      ],
      [
        "Ġsulphate",
        -1.0
      ],
      [
        "Ġimmersing",
        -1.0
      ],
      [
        "attempt",
        -1.0
      ],
      [
        "FACT",
        -1.0
      ],
      [
        "Ġuttering",
        -1.0
      ],
      [
        "Ġfraud",
        -1.0
      ],
      [
        "ĠPaste",
        -1.0
      ],
      [
        "Ð´Ð°",
        -1.0
      ],
      [
        "Ġidolatry",
        -1.0
      ],
      [
        "polymers",
        -1.0
      ],
      [
        "Ġgrieve",
        -1.0
      ],
      [
        "rce",
        -1.0
      ],
      [
        "Ġassign",
        -1.0
      ],
      [
        "ĠMajesty",
        -1.0
      ],
      [
        "rv",
        -1.0
      ],
      [
        "ĠDefinitions",
        -1.0
      ],
      [
        "ĠLeeds",
        -1.0
      ],
      [
        "Ġcigars",
        -1.0
      ],
      [
        "ĠAwareness",
        -1.0
      ],
      [
        "ĠBcf",
        -1.0
      ],
      [
        "Ġabsorbed",
        -1.0
      ],
      [
        "ĠSte",
        -1.0
      ],
      [
        "Ġpredictability",
        -1.0
      ],
      [
        "winter",
        -1.0
      ],
      [
        "Ġbreeder",
        -1.0
      ],
      [
        "Ġredundancy",
        -1.0
      ],
      [
        "Ġnoticing",
        -1.0
      ],
      [
        "Ġinelastic",
        -1.0
      ],
      [
        "Ġmayors",
        -1.0
      ],
      [
        "Ġcosmo",
        -1.0
      ],
      [
        "immigrant",
        -1.0
      ],
      [
        "Ġsweetened",
        -1.0
      ],
      [
        "ĠBatt",
        -1.0
      ],
      [
        "Ġbesieging",
        -1.0
      ],
      [
        "ĠCH",
        -1.0
      ],
      [
        "Ġtragically",
        -1.0
      ],
      [
        "Ġmappings",
        -1.0
      ],
      [
        "ĠDeutsch",
        -1.0
      ],
      [
        "char",
        -1.0
      ],
      [
        "ĠSent",
        -1.0
      ],
      [
        "Ġodor",
        -1.0
      ],
      [
        "Arlington",
        -1.0
      ],
      [
        "Ġschedule",
        -1.0
      ],
      [
        "ĠQuakers",
        -1.0
      ],
      [
        "Ġshrub",
        -1.0
      ],
      [
        "Ġdisproportionately",
        -1.0
      ],
      [
        "ĠProtective",
        -1.0
      ],
      [
        "Ġvictorious",
        -1.0
      ],
      [
        "Assyrian",
        -1.0
      ],
      [
        "Ġamphipods",
        -1.0
      ],
      [
        "ĠRecognition",
        -1.0
      ],
      [
        "__",
        -1.0
      ],
      [
        "Ġcaller",
        -1.0
      ],
      [
        "Ġpredicated",
        -1.0
      ],
      [
        "Ġorganising",
        -1.0
      ],
      [
        "ĠCoastal",
        -1.0
      ],
      [
        "Ġpublicized",
        -1.0
      ],
      [
        "Ġclumsy",
        -1.0
      ],
      [
        "ĠBok",
        -1.0
      ],
      [
        "Ġodds",
        -1.0
      ],
      [
        "ĠGerstenmaier",
        -1.0
      ],
      [
        "ĠAlpha",
        -1.0
      ],
      [
        "Ġwithhold",
        -1.0
      ],
      [
        "Ġconsequently",
        -1.0
      ],
      [
        "Family",
        -1.0
      ],
      [
        "bo",
        -1.0
      ],
      [
        "Ġuncomfortably",
        -1.0
      ],
      [
        "fib",
        -1.0
      ],
      [
        "Ġforeigner",
        -1.0
      ],
      [
        "Ġpresses",
        -1.0
      ],
      [
        "Ġlightning",
        -1.0
      ],
      [
        "128",
        -1.0
      ],
      [
        "Ġloosen",
        -1.0
      ],
      [
        "hier",
        -1.0
      ],
      [
        "ĠBeirut",
        -1.0
      ],
      [
        "Ġmaketh",
        -1.0
      ],
      [
        "335",
        -1.0
      ],
      [
        "Ġaquifer",
        -1.0
      ],
      [
        "ĠM",
        -1.0
      ],
      [
        "Intel",
        -1.0
      ],
      [
        "ĠLing",
        -1.0
      ],
      [
        "Ġcanons",
        -1.0
      ],
      [
        "ĠAspects",
        -1.0
      ],
      [
        "Ġdefiant",
        -1.0
      ],
      [
        "ĠDHCP",
        -1.0
      ],
      [
        "Ġtechnologists",
        -1.0
      ],
      [
        "ĠLynch",
        -1.0
      ],
      [
        "Ġdiploid",
        -1.0
      ],
      [
        "cate",
        -1.0
      ],
      [
        "Lab",
        -1.0
      ],
      [
        "Ġdestination",
        -1.0
      ],
      [
        "Ġexpounded",
        -1.0
      ],
      [
        "Ġgeologic",
        -1.0
      ],
      [
        "Ġregimen",
        -1.0
      ],
      [
        "Ġwayfinding",
        -1.0
      ],
      [
        "Ġmeningitis",
        -1.0
      ],
      [
        "ĠResist",
        -1.0
      ],
      [
        "Ġcue",
        -1.0
      ],
      [
        "ĠReservoir",
        -1.0
      ],
      [
        "Ġparadoxical",
        -1.0
      ],
      [
        "Ġracquet",
        -1.0
      ],
      [
        "Ġsector",
        -1.0
      ],
      [
        "ĠWoody",
        -1.0
      ],
      [
        "Ġmentioned",
        -1.0
      ],
      [
        "Issues",
        -1.0
      ],
      [
        "ĠBelfast",
        -1.0
      ],
      [
        "ĠAlbuquerque",
        -1.0
      ],
      [
        "ĠFortunately",
        -1.0
      ],
      [
        "Ġunpaid",
        -1.0
      ],
      [
        "Ġpersona",
        -1.0
      ],
      [
        "Globally",
        -1.0
      ],
      [
        "ĠEEOC",
        -1.0
      ],
      [
        "Ġinput",
        -1.0
      ],
      [
        "occipital",
        -1.0
      ],
      [
        "Ġdetract",
        -1.0
      ],
      [
        "Ġpurely",
        -1.0
      ],
      [
        "ĠDesert",
        -1.0
      ],
      [
        "Ġinalienable",
        -1.0
      ],
      [
        "Ġfemoral",
        -1.0
      ],
      [
        "Ġnonoriginated",
        -1.0
      ],
      [
        "Ġseat",
        -1.0
      ],
      [
        "Pic",
        -1.0
      ],
      [
        "Holstein",
        -1.0
      ],
      [
        "ĠRainfall",
        -1.0
      ],
      [
        "Ġvulture",
        -1.0
      ],
      [
        "asp",
        -1.0
      ],
      [
        "Ġconstipation",
        -1.0
      ],
      [
        "Ġpoetic",
        -1.0
      ],
      [
        "Ġcentrifugal",
        -1.0
      ],
      [
        "Ġenduring",
        -1.0
      ],
      [
        "ĠCamp",
        -1.0
      ],
      [
        "Ġdocumented",
        -1.0
      ],
      [
        "Ġimproperly",
        -1.0
      ],
      [
        "itus",
        -1.0
      ],
      [
        "ĠClerk",
        -1.0
      ],
      [
        "ĠCinderella",
        -1.0
      ],
      [
        "ĠTypex",
        -1.0
      ],
      [
        "maximum",
        -1.0
      ],
      [
        "ĠOdd",
        -1.0
      ],
      [
        "Ġmoral",
        -1.0
      ],
      [
        "roy",
        -1.0
      ],
      [
        "Ġavailable",
        -1.0
      ],
      [
        "295",
        -1.0
      ],
      [
        "Ġclub",
        -1.0
      ],
      [
        "Ġcenter",
        -1.0
      ],
      [
        "ĠConcerning",
        -1.0
      ],
      [
        "ĠBan",
        -1.0
      ],
      [
        "Ġaverted",
        -1.0
      ],
      [
        "ococci",
        -1.0
      ],
      [
        "Whi",
        -1.0
      ],
      [
        "ĠManitoba",
        -1.0
      ],
      [
        "Publisher",
        -1.0
      ],
      [
        "Strong",
        -1.0
      ],
      [
        "Therefore",
        -1.0
      ],
      [
        "ĠLepto",
        -1.0
      ],
      [
        "ĠComparing",
        -1.0
      ],
      [
        "ĠSatie",
        -1.0
      ],
      [
        "Ġnephews",
        -1.0
      ],
      [
        "ĠMonticello",
        -1.0
      ],
      [
        "cke",
        -1.0
      ],
      [
        "Ã£",
        -1.0
      ],
      [
        "Ġepic",
        -1.0
      ],
      [
        "ĠHartmann",
        -1.0
      ],
      [
        "Ġmolybdenum",
        -1.0
      ],
      [
        "Antonyms",
        -1.0
      ],
      [
        "Ġunfolded",
        -1.0
      ],
      [
        "Ġnovelists",
        -1.0
      ],
      [
        "Ġhydrogen",
        -1.0
      ],
      [
        "Ġcrooked",
        -1.0
      ],
      [
        "Ġbishop",
        -1.0
      ],
      [
        "ĠChukchi",
        -1.0
      ],
      [
        "catheter",
        -1.0
      ],
      [
        "Board",
        -1.0
      ],
      [
        "ĠMobility",
        -1.0
      ],
      [
        "Ġrye",
        -1.0
      ],
      [
        "fee",
        -1.0
      ],
      [
        "Ġalgae",
        -1.0
      ],
      [
        "ĠWarwick",
        -1.0
      ],
      [
        "Tdap",
        -1.0
      ],
      [
        "Ġabandoning",
        -1.0
      ],
      [
        "nha",
        -1.0
      ],
      [
        "sickness",
        -1.0
      ],
      [
        "ĠLeon",
        -1.0
      ],
      [
        "ĠVajra",
        -1.0
      ],
      [
        "rana",
        -1.0
      ],
      [
        "Ġclassifications",
        -1.0
      ],
      [
        "ĠYahweh",
        -1.0
      ],
      [
        "uman",
        -1.0
      ],
      [
        "ĠMukherjee",
        -1.0
      ],
      [
        "ĠGifford",
        -1.0
      ],
      [
        "Ġoccupations",
        -1.0
      ],
      [
        "Turkish",
        -1.0
      ],
      [
        "ĠBarbarossa",
        -1.0
      ],
      [
        "ĠBangkok",
        -1.0
      ],
      [
        "ĠCaesarea",
        -1.0
      ],
      [
        "eke",
        -1.0
      ],
      [
        "ĠByzantium",
        -1.0
      ],
      [
        "ĠMSM",
        -1.0
      ],
      [
        "Serial",
        -1.0
      ],
      [
        "ek",
        -1.0
      ],
      [
        "ĠHearing",
        -1.0
      ],
      [
        "pit",
        -1.0
      ],
      [
        "ĠSalvadoran",
        -1.0
      ],
      [
        "Ġtweak",
        -1.0
      ],
      [
        "views",
        -1.0
      ],
      [
        "tips",
        -1.0
      ],
      [
        "ĠÎ³",
        -1.0
      ],
      [
        "contains",
        -1.0
      ],
      [
        "Ġbewildered",
        -1.0
      ],
      [
        "ĠSaxo",
        -1.0
      ],
      [
        "Ġmigrate",
        -1.0
      ],
      [
        "Ġlibrarians",
        -1.0
      ],
      [
        "Ġmi",
        -1.0
      ],
      [
        "Ġmethodologies",
        -1.0
      ],
      [
        "sv",
        -1.0
      ],
      [
        "Ġdetect",
        -1.0
      ],
      [
        "ĠRELEASE",
        -1.0
      ],
      [
        "ĠRudolf",
        -1.0
      ],
      [
        "ĠWu",
        -1.0
      ],
      [
        "Ġdissociation",
        -1.0
      ],
      [
        "Ġheading",
        -1.0
      ],
      [
        "Ġcomplement",
        -1.0
      ],
      [
        "Ġchastise",
        -1.0
      ],
      [
        "First",
        -1.0
      ],
      [
        "Lycopene",
        -1.0
      ],
      [
        "ĠProvence",
        -1.0
      ],
      [
        "ĠNRDC",
        -1.0
      ],
      [
        "ĠWings",
        -1.0
      ],
      [
        "ĠCarter",
        -1.0
      ],
      [
        "Ġmessaging",
        -1.0
      ],
      [
        "Ġseas",
        -1.0
      ],
      [
        "ĠVisitors",
        -1.0
      ],
      [
        "Fluor",
        -1.0
      ],
      [
        "ĠQuick",
        -1.0
      ],
      [
        "properties",
        -1.0
      ],
      [
        "ĠEC",
        -1.0
      ],
      [
        "ĠmmHg",
        -1.0
      ],
      [
        "wy",
        -1.0
      ],
      [
        "ĠDelegates",
        -1.0
      ],
      [
        "ĠPtolemy",
        -1.0
      ],
      [
        "prene",
        -1.0
      ],
      [
        "575",
        -1.0
      ],
      [
        "aly",
        -1.0
      ],
      [
        "Ġassimilation",
        -1.0
      ],
      [
        "atz",
        -1.0
      ],
      [
        "aha",
        -1.0
      ],
      [
        "Ġownership",
        -1.0
      ],
      [
        "Ġforerunners",
        -1.0
      ],
      [
        "Ġtrampled",
        -1.0
      ],
      [
        "heating",
        -1.0
      ],
      [
        "ĠAustralasia",
        -1.0
      ],
      [
        "Ġvalidated",
        -1.0
      ],
      [
        "ĠCirc",
        -1.0
      ],
      [
        "ĠChickens",
        -1.0
      ],
      [
        "ĠAssa",
        -1.0
      ],
      [
        "Ġsketching",
        -1.0
      ],
      [
        "owner",
        -1.0
      ],
      [
        "tech",
        -1.0
      ],
      [
        "ĠTroop",
        -1.0
      ],
      [
        "Ġwoolen",
        -1.0
      ],
      [
        "JULIET",
        -1.0
      ],
      [
        "Ġtower",
        -1.0
      ],
      [
        "Ġtoll",
        -1.0
      ],
      [
        "logous",
        -1.0
      ],
      [
        "pee",
        -1.0
      ],
      [
        "ĠArithmetic",
        -1.0
      ],
      [
        "Ġphotographs",
        -1.0
      ],
      [
        "ĠDock",
        -1.0
      ],
      [
        "Ġphones",
        -1.0
      ],
      [
        "Ġdelivers",
        -1.0
      ],
      [
        "Ġswayed",
        -1.0
      ],
      [
        "Ġconstruct",
        -1.0
      ],
      [
        "ĠActs",
        -1.0
      ],
      [
        "1992",
        -1.0
      ],
      [
        "ĠBellerophon",
        -1.0
      ],
      [
        "Ġequity",
        -1.0
      ],
      [
        "ĠCybele",
        -1.0
      ],
      [
        "tathione",
        -1.0
      ],
      [
        "scher",
        -1.0
      ],
      [
        "ĠStilwell",
        -1.0
      ],
      [
        "lyte",
        -1.0
      ],
      [
        "ĠPaul",
        -1.0
      ],
      [
        "orrh",
        -1.0
      ],
      [
        "Ġhoneymoon",
        -1.0
      ],
      [
        "Ġunguarded",
        -1.0
      ],
      [
        "ĠShip",
        -1.0
      ],
      [
        "ĠBreathing",
        -1.0
      ],
      [
        "Ġsensing",
        -1.0
      ],
      [
        "dine",
        -1.0
      ],
      [
        "ĠBurg",
        -1.0
      ],
      [
        "gues",
        -1.0
      ],
      [
        "printing",
        -1.0
      ],
      [
        "Ġ269",
        -1.0
      ],
      [
        "ĠInvestigation",
        -1.0
      ],
      [
        "ĠKyrgyzstan",
        -1.0
      ],
      [
        "Ġsuck",
        -1.0
      ],
      [
        "ĠBurton",
        -1.0
      ],
      [
        "Ġarmature",
        -1.0
      ],
      [
        "Ġtold",
        -1.0
      ],
      [
        "Ġhugely",
        -1.0
      ],
      [
        "ĠSpielberg",
        -1.0
      ],
      [
        "ĠAir",
        -1.0
      ],
      [
        "Colonel",
        -1.0
      ],
      [
        "etus",
        -1.0
      ],
      [
        "Ġcontaining",
        -1.0
      ],
      [
        "Ġpassive",
        -1.0
      ],
      [
        "Ġpheasant",
        -1.0
      ],
      [
        "Ġimplo",
        -1.0
      ],
      [
        "ĠDelay",
        -1.0
      ],
      [
        "ĠHatteras",
        -1.0
      ],
      [
        "Ġopposed",
        -1.0
      ],
      [
        "Ġswam",
        -1.0
      ],
      [
        "Ġfocal",
        -1.0
      ],
      [
        "ĠCzech",
        -1.0
      ],
      [
        "Ġsimultaneous",
        -1.0
      ],
      [
        "Ġeverything",
        -1.0
      ],
      [
        "ĠYahoo",
        -1.0
      ],
      [
        "ĠStanford",
        -1.0
      ],
      [
        "Ġcomplained",
        -1.0
      ],
      [
        "Ġequi",
        -1.0
      ],
      [
        "ĠSeychelles",
        -1.0
      ],
      [
        "Ġtetromino",
        -1.0
      ],
      [
        "Ġincontrovertible",
        -1.0
      ],
      [
        "BISHOP",
        -1.0
      ],
      [
        "Ġflexure",
        -1.0
      ],
      [
        "Ġundisclosed",
        -1.0
      ],
      [
        "tine",
        -1.0
      ],
      [
        "DG",
        -1.0
      ],
      [
        "Ġstorm",
        -1.0
      ],
      [
        "ĠJustices",
        -1.0
      ],
      [
        "Ġassorted",
        -1.0
      ],
      [
        "Ġkjv",
        -1.0
      ],
      [
        "Ġtheta",
        -1.0
      ],
      [
        "Ġcarpal",
        -1.0
      ],
      [
        "ĠOffer",
        -1.0
      ],
      [
        "ĠCompounds",
        -1.0
      ],
      [
        "czynski",
        -1.0
      ],
      [
        "Ġtradeoffs",
        -1.0
      ],
      [
        "Ġprofessional",
        -1.0
      ],
      [
        "Ġinsignificant",
        -1.0
      ],
      [
        "352",
        -1.0
      ],
      [
        "Ġmot",
        -1.0
      ],
      [
        "ĠSwan",
        -1.0
      ],
      [
        "ĠTI",
        -1.0
      ],
      [
        "ĠDuration",
        -1.0
      ],
      [
        "Ġroller",
        -1.0
      ],
      [
        "Ġvolatile",
        -1.0
      ],
      [
        "alan",
        -1.0
      ],
      [
        "ĠOkeechobee",
        -1.0
      ],
      [
        "ĠSud",
        -1.0
      ],
      [
        "Ġlun",
        -1.0
      ],
      [
        "ĠClasses",
        -1.0
      ],
      [
        "Ġparenting",
        -1.0
      ],
      [
        "ĠEngineer",
        -1.0
      ],
      [
        "Ġboot",
        -1.0
      ],
      [
        "Ġtoward",
        -1.0
      ],
      [
        "Ġbranches",
        -1.0
      ],
      [
        "ĠIsa",
        -1.0
      ],
      [
        "ĠPretty",
        -1.0
      ],
      [
        "Choosing",
        -1.0
      ],
      [
        "ĠBabbage",
        -1.0
      ],
      [
        "ĠBerman",
        -1.0
      ],
      [
        "Ġpivot",
        -1.0
      ],
      [
        "Ġnostalgia",
        -1.0
      ],
      [
        "Ġfriend",
        -1.0
      ],
      [
        "Ġmaneuver",
        -1.0
      ],
      [
        "Ġdatagram",
        -1.0
      ],
      [
        "ĠDisc",
        -1.0
      ],
      [
        "Ġsubtypes",
        -1.0
      ],
      [
        "1898",
        -1.0
      ],
      [
        "ĠDoe",
        -1.0
      ],
      [
        "Ġimporter",
        -1.0
      ],
      [
        "PUBMED",
        -1.0
      ],
      [
        "Ġcapital",
        -1.0
      ],
      [
        "ĠAntarctica",
        -1.0
      ],
      [
        "pendicular",
        -1.0
      ],
      [
        "ĠSaskatoon",
        -1.0
      ],
      [
        "ĠCassius",
        -1.0
      ],
      [
        "ĠStep",
        -1.0
      ],
      [
        "psycho",
        -1.0
      ],
      [
        "ĠAvraham",
        -1.0
      ],
      [
        "Ġplanting",
        -1.0
      ],
      [
        "rep",
        -1.0
      ],
      [
        "wife",
        -1.0
      ],
      [
        "Ġcreator",
        -1.0
      ],
      [
        "too",
        -1.0
      ],
      [
        "Ġaddicts",
        -1.0
      ],
      [
        "Ġbets",
        -1.0
      ],
      [
        "Ġmonumental",
        -1.0
      ],
      [
        "MES",
        -1.0
      ],
      [
        "beam",
        -1.0
      ],
      [
        "Ã¬",
        -1.0
      ],
      [
        "ĠNr",
        -1.0
      ],
      [
        "497",
        -1.0
      ],
      [
        "Ġcrutches",
        -1.0
      ],
      [
        "ĠMedes",
        -1.0
      ],
      [
        "ĠTargum",
        -1.0
      ],
      [
        "iform",
        -1.0
      ],
      [
        "Ġlyso",
        -1.0
      ],
      [
        "Ġdispassionate",
        -1.0
      ],
      [
        "Ġinstituted",
        -1.0
      ],
      [
        "Ġwounds",
        -1.0
      ],
      [
        "Ġconsumed",
        -1.0
      ],
      [
        "Ġjournalism",
        -1.0
      ],
      [
        "ombie",
        -1.0
      ],
      [
        "ĠPyramids",
        -1.0
      ],
      [
        "ĠDanes",
        -1.0
      ],
      [
        "felt",
        -1.0
      ],
      [
        "killer",
        -1.0
      ],
      [
        "Ġrecurs",
        -1.0
      ],
      [
        "Harry",
        -1.0
      ],
      [
        "luck",
        -1.0
      ],
      [
        "Ġadheres",
        -1.0
      ],
      [
        "Ġconservationists",
        -1.0
      ],
      [
        "Ġcalcitriol",
        -1.0
      ],
      [
        "contained",
        -1.0
      ],
      [
        "ĠClearly",
        -1.0
      ],
      [
        "Ġinstitute",
        -1.0
      ],
      [
        "Ġwatts",
        -1.0
      ],
      [
        "Ġfared",
        -1.0
      ],
      [
        "nmuká¹Ńa",
        -1.0
      ],
      [
        "jah",
        -1.0
      ],
      [
        "ĠJudeo",
        -1.0
      ],
      [
        "ĠInquiry",
        -1.0
      ],
      [
        "Ġambitious",
        -1.0
      ],
      [
        "ĠHoldings",
        -1.0
      ],
      [
        "ĠHimself",
        -1.0
      ],
      [
        "ĠHighness",
        -1.0
      ],
      [
        "ĠTill",
        -1.0
      ],
      [
        "ĠBalkan",
        -1.0
      ],
      [
        "Ġyellowing",
        -1.0
      ],
      [
        "Discovery",
        -1.0
      ],
      [
        "ĠFrancesco",
        -1.0
      ],
      [
        "Ġbiosynthesis",
        -1.0
      ],
      [
        "ĠPPP",
        -1.0
      ],
      [
        "Ġcores",
        -1.0
      ],
      [
        "Bible",
        -1.0
      ],
      [
        "ĠRaleigh",
        -1.0
      ],
      [
        "marriage",
        -1.0
      ],
      [
        "Ġassesses",
        -1.0
      ],
      [
        "location",
        -1.0
      ],
      [
        "ĠAverage",
        -1.0
      ],
      [
        "ĠGul",
        -1.0
      ],
      [
        "eco",
        -1.0
      ],
      [
        "[...]",
        -1.0
      ],
      [
        "ipi",
        -1.0
      ],
      [
        "drawing",
        -1.0
      ],
      [
        "Ġalbumin",
        -1.0
      ],
      [
        "ĠDevelop",
        -1.0
      ],
      [
        "ositis",
        -1.0
      ],
      [
        "ĠBut",
        -1.0
      ],
      [
        "Ġbenefic",
        -1.0
      ],
      [
        "angle",
        -1.0
      ],
      [
        "Ġvandal",
        -1.0
      ],
      [
        "Ġwar",
        -1.0
      ],
      [
        "Ġreasonably",
        -1.0
      ],
      [
        "Ġhurl",
        -1.0
      ],
      [
        "ĠPoultry",
        -1.0
      ],
      [
        "Ġsegregate",
        -1.0
      ],
      [
        "Kil",
        -1.0
      ],
      [
        "Ġwondering",
        -1.0
      ],
      [
        "ĠVietnamese",
        -1.0
      ],
      [
        "ĠPepper",
        -1.0
      ],
      [
        "Ġpoppies",
        -1.0
      ],
      [
        "Ã©rie",
        -1.0
      ],
      [
        "Ġpsychotropic",
        -1.0
      ],
      [
        "ĠRCAF",
        -1.0
      ],
      [
        "Ġopening",
        -1.0
      ],
      [
        "zero",
        -1.0
      ],
      [
        "Mountain",
        -1.0
      ],
      [
        "ĠToulouse",
        -1.0
      ],
      [
        "ĠDesign",
        -1.0
      ],
      [
        "Ġdeterminations",
        -1.0
      ],
      [
        "Ġmisinterpreted",
        -1.0
      ],
      [
        "ĠMarvel",
        -1.0
      ],
      [
        "ĠVTAM",
        -1.0
      ],
      [
        "sanct",
        -1.0
      ],
      [
        "ĠEngaging",
        -1.0
      ],
      [
        "ĠPHOTO",
        -1.0
      ],
      [
        "Ġidling",
        -1.0
      ],
      [
        "rib",
        -1.0
      ],
      [
        "Ġslight",
        -1.0
      ],
      [
        "ĠBenjamin",
        -1.0
      ],
      [
        "Ġclimax",
        -1.0
      ],
      [
        "Ġsterling",
        -1.0
      ],
      [
        "ĠDocumentation",
        -1.0
      ],
      [
        "Ġquote",
        -1.0
      ],
      [
        "ieve",
        -1.0
      ],
      [
        "Ġbrushstrokes",
        -1.0
      ],
      [
        "Ġpractise",
        -1.0
      ],
      [
        "Ġfield",
        -1.0
      ],
      [
        "nist",
        -1.0
      ],
      [
        "Ġpalaeont",
        -1.0
      ],
      [
        "ĠTi",
        -1.0
      ],
      [
        "Ġcompartments",
        -1.0
      ],
      [
        "ĠCounts",
        -1.0
      ],
      [
        "Ġjustices",
        -1.0
      ],
      [
        "aldehyde",
        -1.0
      ],
      [
        "ĠEndeavour",
        -1.0
      ],
      [
        "Ġdye",
        -1.0
      ],
      [
        "rt",
        -1.0
      ],
      [
        "508",
        -1.0
      ],
      [
        "ĠMoss",
        -1.0
      ],
      [
        "ĠNeeds",
        -1.0
      ],
      [
        "ĠAustralopithecus",
        -1.0
      ],
      [
        "Ġdiscounted",
        -1.0
      ],
      [
        "CO",
        -1.0
      ],
      [
        "im",
        -1.0
      ],
      [
        "ĠThereafter",
        -1.0
      ],
      [
        "Ġpressure",
        -1.0
      ],
      [
        "ĠNerica",
        -1.0
      ],
      [
        "Ġinfected",
        -1.0
      ],
      [
        "ĠAvian",
        -1.0
      ],
      [
        "burgh",
        -1.0
      ],
      [
        "ĠHathaway",
        -1.0
      ],
      [
        "Ġclutter",
        -1.0
      ],
      [
        "Ġamniocentesis",
        -1.0
      ],
      [
        "Municipal",
        -1.0
      ],
      [
        "ĠDanger",
        -1.0
      ],
      [
        "Symptoms",
        -1.0
      ],
      [
        "Ġtheorized",
        -1.0
      ],
      [
        "Childhood",
        -1.0
      ],
      [
        "ĠPursuit",
        -1.0
      ],
      [
        "Ġlexical",
        -1.0
      ],
      [
        "nism",
        -1.0
      ],
      [
        "Ġmitigating",
        -1.0
      ],
      [
        "hop",
        -1.0
      ],
      [
        "Prolonged",
        -1.0
      ],
      [
        "Ġglobal",
        -1.0
      ],
      [
        "Ġtypes",
        -1.0
      ],
      [
        "Ġchlorophyll",
        -1.0
      ],
      [
        "ĠMSS",
        -1.0
      ],
      [
        "velocity",
        -1.0
      ],
      [
        "ĠPersonally",
        -1.0
      ],
      [
        "Ġisolates",
        -1.0
      ],
      [
        "ĠSteptoe",
        -1.0
      ],
      [
        "ĠVostok",
        -1.0
      ],
      [
        "Ġharnesses",
        -1.0
      ],
      [
        "BOSTON",
        -1.0
      ],
      [
        "Ġimplantable",
        -1.0
      ],
      [
        "Ġremotely",
        -1.0
      ],
      [
        "ĠSalvador",
        -1.0
      ],
      [
        "Ġlull",
        -1.0
      ],
      [
        "Ġappreciation",
        -1.0
      ],
      [
        "ĠOsama",
        -1.0
      ],
      [
        "ĠBever",
        -1.0
      ],
      [
        "ĠSaqqara",
        -1.0
      ],
      [
        ".âĢľ",
        -1.0
      ],
      [
        "Ġadapted",
        -1.0
      ],
      [
        "Ġcorrespondingly",
        -1.0
      ],
      [
        "ĠMEG",
        -1.0
      ],
      [
        "Ġbrief",
        -1.0
      ],
      [
        "lem",
        -1.0
      ],
      [
        "tonal",
        -1.0
      ],
      [
        "Ġwives",
        -1.0
      ],
      [
        "Ġehrlichiosis",
        -1.0
      ],
      [
        "ĠHazard",
        -1.0
      ],
      [
        "MATERIAL",
        -1.0
      ],
      [
        "Ġfinest",
        -1.0
      ],
      [
        "Ġquiescent",
        -1.0
      ],
      [
        "Ġmimicry",
        -1.0
      ],
      [
        "ĠPhone",
        -1.0
      ],
      [
        "Moderate",
        -1.0
      ],
      [
        "emus",
        -1.0
      ],
      [
        "ĠCircle",
        -1.0
      ],
      [
        "ĠAbnormalities",
        -1.0
      ],
      [
        "ĠCharter",
        -1.0
      ],
      [
        "Ġbailouts",
        -1.0
      ],
      [
        "Ġsolids",
        -1.0
      ],
      [
        "ĠHat",
        -1.0
      ],
      [
        "ĠâĻĤ",
        -1.0
      ],
      [
        "Ġcrowning",
        -1.0
      ],
      [
        "flight",
        -1.0
      ],
      [
        "happy",
        -1.0
      ],
      [
        "ĠMatt",
        -1.0
      ],
      [
        "Ġediting",
        -1.0
      ],
      [
        "Ġnamely",
        -1.0
      ],
      [
        "ĠMongol",
        -1.0
      ],
      [
        "release",
        -1.0
      ],
      [
        "aan",
        -1.0
      ],
      [
        "Ġdepicts",
        -1.0
      ],
      [
        "eon",
        -1.0
      ],
      [
        "igli",
        -1.0
      ],
      [
        "Ġclopidogrel",
        -1.0
      ],
      [
        "Ġhonesty",
        -1.0
      ],
      [
        "ĠUte",
        -1.0
      ],
      [
        "Ġ520",
        -1.0
      ],
      [
        "Color",
        -1.0
      ],
      [
        "Ġanticipatory",
        -1.0
      ],
      [
        "Ġpandemics",
        -1.0
      ],
      [
        "alcohol",
        -1.0
      ],
      [
        "ĠContemporary",
        -1.0
      ],
      [
        "Ġreviewer",
        -1.0
      ],
      [
        "Enjoy",
        -1.0
      ],
      [
        "associate",
        -1.0
      ],
      [
        "ĠHi",
        -1.0
      ],
      [
        "!,",
        -1.0
      ],
      [
        "gett",
        -1.0
      ],
      [
        "mers",
        -1.0
      ],
      [
        "Ġreload",
        -1.0
      ],
      [
        "ĠBarrie",
        -1.0
      ],
      [
        "San",
        -1.0
      ],
      [
        "Ti",
        -1.0
      ],
      [
        "Ġcuttings",
        -1.0
      ],
      [
        "]",
        -1.0
      ],
      [
        "Ġhormones",
        -1.0
      ],
      [
        "Ġshikimic",
        -1.0
      ],
      [
        "ĠColour",
        -1.0
      ],
      [
        "Ġinc",
        -1.0
      ],
      [
        "rit",
        -1.0
      ],
      [
        "Ġpurport",
        -1.0
      ],
      [
        "Ġmodified",
        -1.0
      ],
      [
        "teries",
        -1.0
      ],
      [
        "Ġmicroprocessors",
        -1.0
      ],
      [
        "Ġpenis",
        -1.0
      ],
      [
        "Allergies",
        -1.0
      ],
      [
        "Ġparty",
        -1.0
      ],
      [
        "Ġescalator",
        -1.0
      ],
      [
        "Ġshift",
        -1.0
      ],
      [
        "ĠLennon",
        -1.0
      ],
      [
        "Ġhouses",
        -1.0
      ],
      [
        "Ġpartitioning",
        -1.0
      ],
      [
        "ĠExistential",
        -1.0
      ],
      [
        "Ġspot",
        -1.0
      ],
      [
        "Ġgearing",
        -1.0
      ],
      [
        "Ġdomesticated",
        -1.0
      ],
      [
        "Ġfarmlands",
        -1.0
      ],
      [
        "ĠAzores",
        -1.0
      ],
      [
        "Ġtigris",
        -1.0
      ],
      [
        "Ġpalsy",
        -1.0
      ],
      [
        "Ġfishes",
        -1.0
      ],
      [
        "ĠDial",
        -1.0
      ],
      [
        "adhi",
        -1.0
      ],
      [
        "Ġjustifying",
        -1.0
      ],
      [
        "Ġelevations",
        -1.0
      ],
      [
        "Ġconsecrate",
        -1.0
      ],
      [
        "Ġkilowatt",
        -1.0
      ],
      [
        ",âĢĻâĢĿ",
        -1.0
      ],
      [
        "Ġblackened",
        -1.0
      ],
      [
        "ĠRh",
        -1.0
      ],
      [
        "Ġstole",
        -1.0
      ],
      [
        "tors",
        -1.0
      ],
      [
        "ĠPlays",
        -1.0
      ],
      [
        "Ġdeleted",
        -1.0
      ],
      [
        "Ġdestroyer",
        -1.0
      ],
      [
        "Ġprocession",
        -1.0
      ],
      [
        "Ġstethoscope",
        -1.0
      ],
      [
        "Ġenchant",
        -1.0
      ],
      [
        "Hint",
        -1.0
      ],
      [
        "Ġgracefully",
        -1.0
      ],
      [
        "Christ",
        -1.0
      ],
      [
        "Ġmerciful",
        -1.0
      ],
      [
        "Ġcas",
        -1.0
      ],
      [
        "Ġsurgeons",
        -1.0
      ],
      [
        "Company",
        -1.0
      ],
      [
        "Ġcompression",
        -1.0
      ],
      [
        "ĠBowel",
        -1.0
      ],
      [
        "plays",
        -1.0
      ],
      [
        "Ġrumor",
        -1.0
      ],
      [
        "Tests",
        -1.0
      ],
      [
        "Ġ248",
        -1.0
      ],
      [
        "Ġfluoridated",
        -1.0
      ],
      [
        "ĠExecutive",
        -1.0
      ],
      [
        "Ġcloser",
        -1.0
      ],
      [
        "Ġrecoverable",
        -1.0
      ],
      [
        "Ġcetaceans",
        -1.0
      ],
      [
        "Ġperfected",
        -1.0
      ],
      [
        "ĠLetters",
        -1.0
      ],
      [
        "Ġsignifies",
        -1.0
      ],
      [
        "ĠMycobacterium",
        -1.0
      ],
      [
        "Ġsufferings",
        -1.0
      ],
      [
        "ĠFRANCIS",
        -1.0
      ],
      [
        "Ġfriars",
        -1.0
      ],
      [
        "Ġtidal",
        -1.0
      ],
      [
        "ĠDemonstrations",
        -1.0
      ],
      [
        "osus",
        -1.0
      ],
      [
        "Ġunsafe",
        -1.0
      ],
      [
        "Maintaining",
        -1.0
      ],
      [
        "Turkey",
        -1.0
      ],
      [
        "Ġswims",
        -1.0
      ],
      [
        "Ġcomets",
        -1.0
      ],
      [
        "Am",
        -1.0
      ],
      [
        "Ġepidermal",
        -1.0
      ],
      [
        "Ġauthorizing",
        -1.0
      ],
      [
        "relation",
        -1.0
      ],
      [
        "Ġlasts",
        -1.0
      ],
      [
        "lan",
        -1.0
      ],
      [
        "Ġcoffin",
        -1.0
      ],
      [
        "Ġrangelands",
        -1.0
      ],
      [
        "ĠDesire",
        -1.0
      ],
      [
        "Gan",
        -1.0
      ],
      [
        "Ġboon",
        -1.0
      ],
      [
        "Ġhippopotamus",
        -1.0
      ],
      [
        "ĠHeinz",
        -1.0
      ],
      [
        "Ġsubjection",
        -1.0
      ],
      [
        "Ġherpet",
        -1.0
      ],
      [
        "ĠParliament",
        -1.0
      ],
      [
        "faces",
        -1.0
      ],
      [
        "ĠUPS",
        -1.0
      ],
      [
        "ĠADHD",
        -1.0
      ],
      [
        "Ġgrapheme",
        -1.0
      ],
      [
        "Ġfuels",
        -1.0
      ],
      [
        "Secure",
        -1.0
      ],
      [
        "Ġuntrue",
        -1.0
      ],
      [
        "Ġobjectionable",
        -1.0
      ],
      [
        "Ġspill",
        -1.0
      ],
      [
        "Ġconnected",
        -1.0
      ],
      [
        "ĠGaming",
        -1.0
      ],
      [
        "cm",
        -1.0
      ],
      [
        "Lead",
        -1.0
      ],
      [
        "Ġfixture",
        -1.0
      ],
      [
        "bd",
        -1.0
      ],
      [
        "ĠCOX",
        -1.0
      ],
      [
        "ĠEP",
        -1.0
      ],
      [
        "73",
        -1.0
      ],
      [
        "Ġfeats",
        -1.0
      ],
      [
        "Ġparole",
        -1.0
      ],
      [
        "Ġhistorical",
        -1.0
      ],
      [
        "trigger",
        -1.0
      ],
      [
        "Ġplans",
        -1.0
      ],
      [
        "ĠAzad",
        -1.0
      ],
      [
        "Ġtopics",
        -1.0
      ],
      [
        "ĠYorkers",
        -1.0
      ],
      [
        "Ġgastroenteritis",
        -1.0
      ],
      [
        "ĠWildlife",
        -1.0
      ],
      [
        "Ġdep",
        -1.0
      ],
      [
        "aster",
        -1.0
      ],
      [
        "alis",
        -1.0
      ],
      [
        "Appalachian",
        -1.0
      ],
      [
        "ĠPembroke",
        -1.0
      ],
      [
        "Ġpresumptive",
        -1.0
      ],
      [
        "ĠHoney",
        -1.0
      ],
      [
        "Ġdynamite",
        -1.0
      ],
      [
        "Ġcentred",
        -1.0
      ],
      [
        "torial",
        -1.0
      ],
      [
        "Dem",
        -1.0
      ],
      [
        "\".",
        -1.0
      ],
      [
        "Ġkeeping",
        -1.0
      ],
      [
        "Villa",
        -1.0
      ],
      [
        "RY",
        -1.0
      ],
      [
        "ĠStore",
        -1.0
      ],
      [
        "Ġ370",
        -1.0
      ],
      [
        "ĠPocket",
        -1.0
      ],
      [
        "Ġcavern",
        -1.0
      ],
      [
        "ĠKalimantan",
        -1.0
      ],
      [
        "Ġmic",
        -1.0
      ],
      [
        "une",
        -1.0
      ],
      [
        "Mobile",
        -1.0
      ],
      [
        "Ġmasterpiece",
        -1.0
      ],
      [
        "Ġbereavement",
        -1.0
      ],
      [
        "exe",
        -1.0
      ],
      [
        "ĠMarch",
        -1.0
      ],
      [
        "Ġcontrary",
        -1.0
      ],
      [
        "collections",
        -1.0
      ],
      [
        "ĠPaine",
        -1.0
      ],
      [
        "Ġglasses",
        -1.0
      ],
      [
        "Ġhinterland",
        -1.0
      ],
      [
        "Ġinterferometry",
        -1.0
      ],
      [
        "rica",
        -1.0
      ],
      [
        "Ġhen",
        -1.0
      ],
      [
        "ĠConventions",
        -1.0
      ],
      [
        "Ġtotally",
        -1.0
      ],
      [
        "Ġnominally",
        -1.0
      ],
      [
        "Ġtracked",
        -1.0
      ],
      [
        "557",
        -1.0
      ],
      [
        "Ġreluctance",
        -1.0
      ],
      [
        "Ġcleans",
        -1.0
      ],
      [
        "ologica",
        -1.0
      ],
      [
        "Ġenameled",
        -1.0
      ],
      [
        "ĠColor",
        -1.0
      ],
      [
        "Ġgou",
        -1.0
      ],
      [
        "MH",
        -1.0
      ],
      [
        "Ġtreeless",
        -1.0
      ],
      [
        "ĠMughal",
        -1.0
      ],
      [
        "Ġ1693",
        -1.0
      ],
      [
        "ĠÅĽredniowiecze",
        -1.0
      ],
      [
        "Complex",
        -1.0
      ],
      [
        "Ġquestions",
        -1.0
      ],
      [
        "hallenging",
        -1.0
      ],
      [
        "730",
        -1.0
      ],
      [
        "ĠCypriots",
        -1.0
      ],
      [
        "Ġlique",
        -1.0
      ],
      [
        "Ġestablishing",
        -1.0
      ],
      [
        "ĠRankin",
        -1.0
      ],
      [
        "Ġcoast",
        -1.0
      ],
      [
        "ĠDamascus",
        -1.0
      ],
      [
        "ĠMilitary",
        -1.0
      ],
      [
        "Ġproximity",
        -1.0
      ],
      [
        "Ġwholeheartedly",
        -1.0
      ],
      [
        "Ġdispersed",
        -1.0
      ],
      [
        "ĠModerate",
        -1.0
      ],
      [
        "needle",
        -1.0
      ],
      [
        "uf",
        -1.0
      ],
      [
        "ĠSouthampton",
        -1.0
      ],
      [
        "Ġthermosteric",
        -1.0
      ],
      [
        "MENT",
        -1.0
      ],
      [
        "Ġappreciated",
        -1.0
      ],
      [
        "Play",
        -1.0
      ],
      [
        "ĠSundara",
        -1.0
      ],
      [
        "Ġprovoked",
        -1.0
      ],
      [
        "Ġbiofuels",
        -1.0
      ],
      [
        "Ġdeliveries",
        -1.0
      ],
      [
        "Ġdisorderly",
        -1.0
      ],
      [
        "Ġillusory",
        -1.0
      ],
      [
        "ĠRiots",
        -1.0
      ],
      [
        "codes",
        -1.0
      ],
      [
        "ĠPony",
        -1.0
      ],
      [
        "ĠMeyer",
        -1.0
      ],
      [
        "ĠViewed",
        -1.0
      ],
      [
        "Ġdiscouraged",
        -1.0
      ],
      [
        "fra",
        -1.0
      ],
      [
        "Ġmapped",
        -1.0
      ],
      [
        "belief",
        -1.0
      ],
      [
        "Ġjay",
        -1.0
      ],
      [
        "hair",
        -1.0
      ],
      [
        "pkins",
        -1.0
      ],
      [
        "Ġrefinery",
        -1.0
      ],
      [
        "VER",
        -1.0
      ],
      [
        "Revolution",
        -1.0
      ],
      [
        "ĠSymantec",
        -1.0
      ],
      [
        "Ġeuthanized",
        -1.0
      ],
      [
        "Ġrequesting",
        -1.0
      ],
      [
        "Ġfollows",
        -1.0
      ],
      [
        "Ġsentient",
        -1.0
      ],
      [
        "Lang",
        -1.0
      ],
      [
        "ĠInstructor",
        -1.0
      ],
      [
        "Ġsurge",
        -1.0
      ],
      [
        "ĠSeek",
        -1.0
      ],
      [
        "Ġundigested",
        -1.0
      ],
      [
        "university",
        -1.0
      ],
      [
        "Ġ1907",
        -1.0
      ],
      [
        "By",
        -1.0
      ],
      [
        "Ġhar",
        -1.0
      ],
      [
        "Ġpoisons",
        -1.0
      ],
      [
        "Ġshards",
        -1.0
      ],
      [
        "ĠApollin",
        -1.0
      ],
      [
        "Pala",
        -1.0
      ],
      [
        "1016",
        -1.0
      ],
      [
        "DP",
        -1.0
      ],
      [
        "ĠBha",
        -1.0
      ],
      [
        "ĠMays",
        -1.0
      ],
      [
        "ĠMazar",
        -1.0
      ],
      [
        "Ġtheorizing",
        -1.0
      ],
      [
        "cultural",
        -1.0
      ],
      [
        "ĠExaminer",
        -1.0
      ],
      [
        "ĠKelley",
        -1.0
      ],
      [
        "Ġchaperone",
        -1.0
      ],
      [
        "ĠCreighton",
        -1.0
      ],
      [
        "inations",
        -1.0
      ],
      [
        "locking",
        -1.0
      ],
      [
        "Ġdella",
        -1.0
      ],
      [
        "ĠActually",
        -1.0
      ],
      [
        "Ġ820",
        -1.0
      ],
      [
        "OME",
        -1.0
      ],
      [
        "Ġshook",
        -1.0
      ],
      [
        "ĠAcadians",
        -1.0
      ],
      [
        "Ġmermaid",
        -1.0
      ],
      [
        "Ġhormesis",
        -1.0
      ],
      [
        "Ġfacilitating",
        -1.0
      ],
      [
        "Ġnavigator",
        -1.0
      ],
      [
        "Ġhypertext",
        -1.0
      ],
      [
        "Ġmontgomeriensis",
        -1.0
      ],
      [
        "ĠFund",
        -1.0
      ],
      [
        "ĠHawk",
        -1.0
      ],
      [
        "Ġspecter",
        -1.0
      ],
      [
        "acht",
        -1.0
      ],
      [
        "Ġearn",
        -1.0
      ],
      [
        "Ġcantilever",
        -1.0
      ],
      [
        "Ġamend",
        -1.0
      ],
      [
        "ĠHolistic",
        -1.0
      ],
      [
        "oka",
        -1.0
      ],
      [
        "Ġlesbian",
        -1.0
      ],
      [
        "ĠMonitor",
        -1.0
      ],
      [
        "Ġentertainers",
        -1.0
      ],
      [
        "Ġcoeliac",
        -1.0
      ],
      [
        "ĠâĪĴ",
        -1.0
      ],
      [
        "Ġblacks",
        -1.0
      ],
      [
        "ĠTrypanosoma",
        -1.0
      ],
      [
        "Ġsentence",
        -1.0
      ],
      [
        "Ġvacc",
        -1.0
      ],
      [
        "Ġconsecrated",
        -1.0
      ],
      [
        "ĠDaniels",
        -1.0
      ],
      [
        "civilized",
        -1.0
      ],
      [
        "Plus",
        -1.0
      ],
      [
        "Ġbar",
        -1.0
      ],
      [
        "Ġwhom",
        -1.0
      ],
      [
        "lithography",
        -1.0
      ],
      [
        "behaviour",
        -1.0
      ],
      [
        "ĠMorozov",
        -1.0
      ],
      [
        "ĠKC",
        -1.0
      ],
      [
        "ĠGroovy",
        -1.0
      ],
      [
        "ĠZoos",
        -1.0
      ],
      [
        "Ġ52",
        -1.0
      ],
      [
        "ĠCar",
        -1.0
      ],
      [
        "Ġtransformer",
        -1.0
      ],
      [
        "Ġliquidation",
        -1.0
      ],
      [
        "Ġearning",
        -1.0
      ],
      [
        "ĠBenson",
        -1.0
      ],
      [
        "ĠMegillah",
        -1.0
      ],
      [
        "Ġcurls",
        -1.0
      ],
      [
        "posted",
        -1.0
      ],
      [
        "ĠFarrar",
        -1.0
      ],
      [
        "Ġclomipramine",
        -1.0
      ],
      [
        "QUESTION",
        -1.0
      ],
      [
        "ĠPAP",
        -1.0
      ],
      [
        "motion",
        -1.0
      ],
      [
        "AKES",
        -1.0
      ],
      [
        "Ġstagnated",
        -1.0
      ],
      [
        "rks",
        -1.0
      ],
      [
        "Reflect",
        -1.0
      ],
      [
        ");",
        -1.0
      ],
      [
        "Ġvagaries",
        -1.0
      ],
      [
        "ĠWhenever",
        -1.0
      ],
      [
        "oli",
        -1.0
      ],
      [
        "Ġtease",
        -1.0
      ],
      [
        "Ġrecites",
        -1.0
      ],
      [
        "Ġhydrological",
        -1.0
      ],
      [
        "ĠFavorites",
        -1.0
      ],
      [
        "Ġcover",
        -1.0
      ],
      [
        "ĠLive",
        -1.0
      ],
      [
        "ĠLoe",
        -1.0
      ],
      [
        "235",
        -1.0
      ],
      [
        "ĠEpistle",
        -1.0
      ],
      [
        "ĠWing",
        -1.0
      ],
      [
        "Ġhooves",
        -1.0
      ],
      [
        "eaux",
        -1.0
      ],
      [
        "Ġperturbation",
        -1.0
      ],
      [
        "ĠDuane",
        -1.0
      ],
      [
        "Ġexcision",
        -1.0
      ],
      [
        "ĠCoverage",
        -1.0
      ],
      [
        "idious",
        -1.0
      ],
      [
        "Criticism",
        -1.0
      ],
      [
        "unate",
        -1.0
      ],
      [
        "Ġsouthward",
        -1.0
      ],
      [
        "Ġclung",
        -1.0
      ],
      [
        "Ġdisparity",
        -1.0
      ],
      [
        "ĠSolar",
        -1.0
      ],
      [
        "Ġpayments",
        -1.0
      ],
      [
        "Ġsilage",
        -1.0
      ],
      [
        "Ġsustainability",
        -1.0
      ],
      [
        "ĠStem",
        -1.0
      ],
      [
        "Compulsory",
        -1.0
      ],
      [
        "Ġ101",
        -1.0
      ],
      [
        "ĠPrinted",
        -1.0
      ],
      [
        "PI",
        -1.0
      ],
      [
        "ĠLuk",
        -1.0
      ],
      [
        "Ġdelegated",
        -1.0
      ],
      [
        "Ġchewing",
        -1.0
      ],
      [
        "eal",
        -1.0
      ],
      [
        "Ġng",
        -1.0
      ],
      [
        "Ġchauvin",
        -1.0
      ],
      [
        "ĠWoods",
        -1.0
      ],
      [
        "Ġdecorations",
        -1.0
      ],
      [
        "Ġaudiologist",
        -1.0
      ],
      [
        "Ġstraining",
        -1.0
      ],
      [
        "Ġhellbender",
        -1.0
      ],
      [
        "infected",
        -1.0
      ],
      [
        "inflammatory",
        -1.0
      ],
      [
        "Modern",
        -1.0
      ],
      [
        "Ġpercentage",
        -1.0
      ],
      [
        "osome",
        -1.0
      ],
      [
        "Ġresearching",
        -1.0
      ],
      [
        "Ġcorporal",
        -1.0
      ],
      [
        "Ġminimising",
        -1.0
      ],
      [
        "Ġlamented",
        -1.0
      ],
      [
        "Ġcrowds",
        -1.0
      ],
      [
        "ĠJulio",
        -1.0
      ],
      [
        "Ġheli",
        -1.0
      ],
      [
        "953",
        -1.0
      ],
      [
        "pire",
        -1.0
      ],
      [
        "great",
        -1.0
      ],
      [
        "Ġtranscriptions",
        -1.0
      ],
      [
        "Ġprincesses",
        -1.0
      ],
      [
        "Ġexhausted",
        -1.0
      ],
      [
        "Ġnonexistent",
        -1.0
      ],
      [
        "ĠApparatus",
        -1.0
      ],
      [
        "Ġtides",
        -1.0
      ],
      [
        "ĠDesigned",
        -1.0
      ],
      [
        "yclopentadiene",
        -1.0
      ],
      [
        "Eng",
        -1.0
      ],
      [
        "ÂºF",
        -1.0
      ],
      [
        "Ġscares",
        -1.0
      ],
      [
        "aspartate",
        -1.0
      ],
      [
        "Ġupstate",
        -1.0
      ],
      [
        "Ġcelestial",
        -1.0
      ],
      [
        "Ġcoordinating",
        -1.0
      ],
      [
        "van",
        -1.0
      ],
      [
        "Ġborrower",
        -1.0
      ],
      [
        "ĠGiant",
        -1.0
      ],
      [
        "1073",
        -1.0
      ],
      [
        "Ġintersected",
        -1.0
      ],
      [
        "Ġfare",
        -1.0
      ],
      [
        "Immune",
        -1.0
      ],
      [
        "Ġdoughnut",
        -1.0
      ],
      [
        "ĠGRB",
        -1.0
      ],
      [
        "'ve",
        -1.0
      ],
      [
        "Ġ1701",
        -1.0
      ],
      [
        "ĠCertainly",
        -1.0
      ],
      [
        "ĠDiverse",
        -1.0
      ],
      [
        "ĠWedgwood",
        -1.0
      ],
      [
        "Ġuncircumcised",
        -1.0
      ],
      [
        "ĠSyn",
        -1.0
      ],
      [
        "Ġcomplains",
        -1.0
      ],
      [
        "ĠKarachi",
        -1.0
      ],
      [
        "UNDP",
        -1.0
      ],
      [
        "Ġneutral",
        -1.0
      ],
      [
        "ĠSau",
        -1.0
      ],
      [
        "Ġwatershed",
        -1.0
      ],
      [
        "ĠPon",
        -1.0
      ],
      [
        "ĠPBL",
        -1.0
      ],
      [
        "à¸Ńà¸",
        -1.0
      ],
      [
        "Ġweight",
        -1.0
      ],
      [
        "nik",
        -1.0
      ],
      [
        "asha",
        -1.0
      ],
      [
        "ĠPraise",
        -1.0
      ],
      [
        "ĠCa",
        -1.0
      ],
      [
        "Ġintersexed",
        -1.0
      ],
      [
        "Ġphilosophy",
        -1.0
      ],
      [
        "ĠStandard",
        -1.0
      ],
      [
        "eig",
        -1.0
      ],
      [
        "ĠAstrophysical",
        -1.0
      ],
      [
        "Ġcollating",
        -1.0
      ],
      [
        "Oxygen",
        -1.0
      ],
      [
        "ĠVRE",
        -1.0
      ],
      [
        "ĠKim",
        -1.0
      ],
      [
        "race",
        -1.0
      ],
      [
        "ĠBadoglio",
        -1.0
      ],
      [
        "Ġbraille",
        -1.0
      ],
      [
        "ĠExtremely",
        -1.0
      ],
      [
        "ĠCandy",
        -1.0
      ],
      [
        "Ġanomalies",
        -1.0
      ],
      [
        "ĠApe",
        -1.0
      ],
      [
        "Ġinconspicuous",
        -1.0
      ],
      [
        "Ġstratum",
        -1.0
      ],
      [
        "Ġskulls",
        -1.0
      ],
      [
        "Ġquaint",
        -1.0
      ],
      [
        "ĠPit",
        -1.0
      ],
      [
        "enzyme",
        -1.0
      ],
      [
        "design",
        -1.0
      ],
      [
        "ĠNumerical",
        -1.0
      ],
      [
        "ĠBiotechnology",
        -1.0
      ],
      [
        "Ġfade",
        -1.0
      ],
      [
        "Lebanon",
        -1.0
      ],
      [
        "See",
        -1.0
      ],
      [
        "Socket",
        -1.0
      ],
      [
        "ĠPeloponnese",
        -1.0
      ],
      [
        "Ġbitterly",
        -1.0
      ],
      [
        "Moon",
        -1.0
      ],
      [
        "ĠListed",
        -1.0
      ],
      [
        "ĠJet",
        -1.0
      ],
      [
        "Ġscrapped",
        -1.0
      ],
      [
        "Ġ533",
        -1.0
      ],
      [
        "Ġarmadillo",
        -1.0
      ],
      [
        "tab",
        -1.0
      ],
      [
        "Ġdespised",
        -1.0
      ],
      [
        "Ġareas",
        -1.0
      ],
      [
        "Ġastride",
        -1.0
      ],
      [
        "Ġhereafter",
        -1.0
      ],
      [
        "Ġatheism",
        -1.0
      ],
      [
        "ĠWise",
        -1.0
      ],
      [
        "ĠRarely",
        -1.0
      ],
      [
        "Ġforefathers",
        -1.0
      ],
      [
        "ĠNM",
        -1.0
      ],
      [
        "Ġunforgettable",
        -1.0
      ],
      [
        "Â®.",
        -1.0
      ],
      [
        "PATH",
        -1.0
      ],
      [
        "Ġelites",
        -1.0
      ],
      [
        "Ġgrudge",
        -1.0
      ],
      [
        "ĠAbr",
        -1.0
      ],
      [
        "Ġirreversibly",
        -1.0
      ],
      [
        "Ġtaps",
        -1.0
      ],
      [
        "Ġexplosions",
        -1.0
      ],
      [
        "ĠYiddish",
        -1.0
      ],
      [
        "ĠCartoon",
        -1.0
      ],
      [
        "lock",
        -1.0
      ],
      [
        "Bone",
        -1.0
      ],
      [
        "ho",
        -1.0
      ],
      [
        "Ġactor",
        -1.0
      ],
      [
        "Surely",
        -1.0
      ],
      [
        "Ġlying",
        -1.0
      ],
      [
        "Cambodia",
        -1.0
      ],
      [
        "ĠMacArthur",
        -1.0
      ],
      [
        "Ġcomprehensively",
        -1.0
      ],
      [
        "ĠStol",
        -1.0
      ],
      [
        "ĠNum",
        -1.0
      ],
      [
        "Ġexclamation",
        -1.0
      ],
      [
        "Ġarcade",
        -1.0
      ],
      [
        "Ġgalactosemia",
        -1.0
      ],
      [
        "Ġcoatings",
        -1.0
      ],
      [
        "Ġ475",
        -1.0
      ],
      [
        "ĠGbagbo",
        -1.0
      ],
      [
        "Ġ1718",
        -1.0
      ],
      [
        "Ġdeforested",
        -1.0
      ],
      [
        "ĠBegin",
        -1.0
      ],
      [
        "ĠBeaufort",
        -1.0
      ],
      [
        "ĠChal",
        -1.0
      ],
      [
        "os",
        -1.0
      ],
      [
        "Ġfaecium",
        -1.0
      ],
      [
        "Ġplasm",
        -1.0
      ],
      [
        "Ġhistoriography",
        -1.0
      ],
      [
        "actic",
        -1.0
      ],
      [
        "ĠDick",
        -1.0
      ],
      [
        "Ġdiets",
        -1.0
      ],
      [
        "pamine",
        -1.0
      ],
      [
        "Ġharming",
        -1.0
      ],
      [
        "intro",
        -1.0
      ],
      [
        "ĠOrtiz",
        -1.0
      ],
      [
        "Illustrated",
        -1.0
      ],
      [
        "Ġpulley",
        -1.0
      ],
      [
        "Ġchopped",
        -1.0
      ],
      [
        "NHTSA",
        -1.0
      ],
      [
        "Ġrabbit",
        -1.0
      ],
      [
        "Ġpractitioner",
        -1.0
      ],
      [
        "Ġenemy",
        -1.0
      ],
      [
        "ĠBritannica",
        -1.0
      ],
      [
        "ĠIberian",
        -1.0
      ],
      [
        "Ġtragedies",
        -1.0
      ],
      [
[...]
