{
  "version": "1.0",
  "truncation": null,
  "padding": null,
  "added_tokens": [
    {
      "id": 0,
      "content": "<|bos|>",
      "single_word": false,
      "lstrip": false,
      "rstrip": false,
      "normalized": false,
      "special": true
    },
    {
      "id": 1,
      "content": "<|user_start|>",
      "single_word": false,
      "lstrip": false,
      "rstrip": false,
      "normalized": false,
      "special": true
    },
    {
      "id": 2,
      "content": "<|user_end|>",
      "single_word": false,
      "lstrip": false,
      "rstrip": false,
      "normalized": false,
      "special": true
    },
    {
      "id": 3,
      "content": "<|assistant_start|>",
      "single_word": false,
      "lstrip": false,
      "rstrip": false,
      "normalized": false,
      "special": true
    },
    {
      "id": 4,
      "content": "<|assistant_end|>",
      "single_word": false,
      "lstrip": false,
      "rstrip": false,
      "normalized": false,
      "special": true
    },
    {
      "id": 5,
      "content": "<|python_start|>",
      "single_word": false,
      "lstrip": false,
      "rstrip": false,
      "normalized": false,
      "special": true
    },
    {
      "id": 6,
      "content": "<|python_end|>",
      "single_word": false,
      "lstrip": false,
      "rstrip": false,
      "normalized": false,
      "special": true
    },
    {
      "id": 7,
      "content": "<|output_start|>",
      "single_word": false,
      "lstrip": false,
      "rstrip": false,
      "normalized": false,
      "special": true
    },
    {
      "id": 8,
      "content": "<|output_end|>",
      "single_word": false,
      "lstrip": false,
      "rstrip": false,
      "normalized": false,
      "special": true
    },
    {
      "id": 9,
      "content": "<|unk|>",
      "single_word": false,
      "lstrip": false,
      "rstrip": false,
      "normalized": false,
      "special": true
    }
  ],
  "normalizer": null,
  "pre_tokenizer": {
    "type": "Sequence",
    "pretokenizers": [
      {
        "type": "Split",
        "pattern": {
          "Regex": "'(?i:[sdmt]|ll|ve|re)|[^\\r\\n\\p{L}\\p{N}]?+\\p{L}+|\\p{N}{1,2}| ?[^\\s\\p{L}\\p{N}]++[\\r\\n]*|\\s*[\\r\\n]|\\s+(?!\\S)|\\s+"
        },
        "behavior": "Isolated",
        "invert": false
      },
      {
        "type": "ByteLevel",
        "add_prefix_space": false,
        "trim_offsets": true,
        "use_regex": false
      }
    ]
  },
  "post_processor": {
    "type": "TemplateProcessing",
    "single": [
      {
        "Sequence": {
          "id": "A",
          "type_id": 0
        }
      }
    ],
    "pair": [
      {
        "Sequence": {
          "id": "A",
          "type_id": 0
        }
      },
      {
        "Sequence": {
          "id": "B",
          "type_id": 1
        }
      }
    ],
    "special_tokens": {}
  },
  "decoder": null,
  "model": {
    "type": "Unigram",
    "unk_id": 9,
    "vocab": [
      [
        "<|bos|>",
        0.0
      ],
      [
        "<|user_start|>",
        0.0
      ],
      [
        "<|user_end|>",
        0.0
      ],
      [
        "<|assistant_start|>",
        0.0
      ],
      [
        "<|assistant_end|>",
        0.0
      ],
      [
        "<|python_start|>",
        0.0
      ],
      [
        "<|python_end|>",
        0.0
      ],
      [
        "<|output_start|>",
        0.0
      ],
      [
        "<|output_end|>",
        0.0
      ],
      [
        "<|unk|>",
        0.0
      ],
      [
        "s",
        -2.9119254655106417
      ],
      [
        "Ġthe",
        -3.4360691993383163
      ],
      [
        ",",
        -3.4864803709594696
      ],
      [
        "Ġ",
        -3.6772348090051015
      ],
      [
        ".",
        -3.7911020169526406
      ],
      [
        "Ġand",
        -3.9793946655858488
      ],
      [
        "Ġof",
        -4.009900280149923
      ],
      [
        "Ġto",
        -4.030636138585406
      ],
      [
        "Ġa",
        -4.149466959575108
      ],
      [
        "ing",
        -4.256196455921852
      ],
      [
        "Ġin",
        -4.497109717367506
      ],
      [
        "ed",
        -4.643918308835769
      ],
      [
        "Ġis",
        -4.678472994084489
      ],
      [
        "d",
        -4.845428941170198
      ],
      [
        "y",
        -4.872535528156504
      ],
      [
        "'",
        -4.96823351915285
      ],
      [
        "e",
        -5.026452540972073
      ],
      [
        "ly",
        -5.034703370567776
      ],
      [
        "Ġfor",
        -5.077728363618883
      ],
      [
        "Ġthat",
        -5.0841535013112065
      ],
      [
        "0",
        -5.094796333246148
      ],
      [
        "1",
        -5.180412406973943
      ],
      [
        "t",
        -5.181349557140949
      ],
      [
        "Ġare",
        -5.272103304248324
      ],
      [
        ":",
        -5.320509902640282
      ],
      [
        "Ġyou",
        -5.32502651083071
      ],
      [
        "Ġit",
        -5.34860906651045
      ],
      [
        ".ĊĊ",
        -5.359823508894586
      ],
      [
        "Ġbe",
        -5.371749606943409
      ],
      [
        ".Ċ",
        -5.396771320699017
      ],
      [
        "-",
        -5.407596154452314
      ],
      [
        "Ġwith",
        -5.417104462738706
      ],
      [
        "2",
        -5.422607485166212
      ],
      [
        "Ċ",
        -5.428506195826136
      ],
      [
        "Ġon",
        -5.4899344420887
      ],
      [
        "Ġcan",
        -5.546962242210588
      ],
      [
        "Ġor",
        -5.551094512240287
      ],
      [
        "ĊĊ",
        -5.564178012657559
      ],
      [
        "Ġyour",
        -5.731960817543154
      ],
      [
        "Ġ(",
        -5.74918477589816
      ],
      [
        "Ġas",
        -5.79803997125974
      ],
      [
        "\"",
        -5.834398741509098
      ],
      [
        "a",
        -5.858461427346267
      ],
      [
        "ĠThe",
        -5.891259781275441
      ],
      [
        "Ġhave",
        -5.91663591804652
      ],
      [
        "Ġfrom",
        -5.92841472209976
      ],
      [
        "?",
        -5.9876901777555585
      ],
      [
        "Ġby",
        -5.988314638932444
      ],
      [
        "ĠI",
        -6.012037339295961
      ],
      [
        "Ġan",
        -6.037266283913727
      ],
      [
        "n",
        -6.049157766951293
      ],
      [
        ")",
        -6.064593809576499
      ],
      [
        "3",
        -6.068471563636816
      ],
      [
        "er",
        -6.090339620959147
      ],
      [
        "Ġthis",
        -6.112742890295769
      ],
      [
        "5",
        -6.120179251767961
      ],
      [
        "Ġnot",
        -6.168849444760561
      ],
      [
        "Ġat",
        -6.185467077472303
      ],
      [
        "Ġwill",
        -6.241220606349334
      ],
      [
        "Ġtheir",
        -6.260010910864411
      ],
      [
        "4",
        -6.276341002136519
      ],
      [
        "o",
        -6.276470845973456
      ],
      [
        "i",
        -6.316020247142053
      ],
      [
        "9",
        -6.370893989039676
      ],
      [
        "Ġmore",
        -6.371819804947005
      ],
      [
        "Ġwas",
        -6.386509501837436
      ],
      [
        "Ġthey",
        -6.432920909585723
      ],
      [
        "r",
        -6.456107968408464
      ],
      [
        "The",
        -6.495031315805781
      ],
      [
        "ies",
        -6.519699081586385
      ],
      [
        "6",
        -6.52237369596307
      ],
      [
        "Ġwe",
        -6.523937143573905
      ],
      [
        "Ġwhich",
        -6.525563244257757
      ],
      [
        "Ġbut",
        -6.532877434613669
      ],
      [
        "Ġhas",
        -6.535165515239985
      ],
      [
        "ĠA",
        -6.539430234566444
      ],
      [
        "on",
        -6.562297124418
      ],
      [
        "al",
        -6.564953151346037
      ],
      [
        "8",
        -6.605510612172429
      ],
      [
        "Ġone",
        -6.623104812815992
      ],
      [
        "h",
        -6.626660808115847
      ],
      [
        "m",
        -6.634574234708165
      ],
      [
        "Ġalso",
        -6.634876408668182
      ],
      [
        "l",
        -6.642208722669979
      ],
      [
        "Question",
        -6.646783498502495
      ],
      [
        "ĠAnswer",
        -6.671571947294112
      ],
      [
        "7",
        -6.697350961488922
      ],
      [
        "Ġlike",
        -6.721943905552726
      ],
      [
        "Ġother",
        -6.724332463347791
      ],
      [
        "Ġall",
        -6.72600570331101
      ],
      [
        "Ġabout",
        -6.730835118891756
      ],
      [
        "Ġwhen",
        -6.77026258994513
      ],
      [
        "ĠIt",
        -6.777582280458166
      ],
      [
        "Ġthem",
        -6.820453379210377
      ],
      [
        "Ġdo",
        -6.8311951889971265
      ],
      [
        "A",
        -6.831420667361568
      ],
      [
        "Ġtime",
        -6.831579199163135
      ],
      [
        "Ġinto",
        -6.8393539893306645
      ],
      [
        "Ġso",
        -6.845688560742062
      ],
      [
        "Ġif",
        -6.847557245145456
      ],
      [
        "Ġup",
        -6.86138486626181
      ],
      [
        "Ġuse",
        -6.862547283315498
      ],
      [
        "c",
        -6.874669539383776
      ],
      [
        "Ġsome",
        -6.886343320252694
      ],
      [
        "Ġmay",
        -6.8908036841107645
      ],
      [
        "re",
        -6.8937750802484015
      ],
      [
        "ĠThis",
        -6.896113111421048
      ],
      [
        "Ġhow",
        -6.932586016884008
      ],
      [
        "Ġthan",
        -6.9580734251927865
      ],
      [
        "Ġout",
        -6.959742347303738
      ],
      [
        "ĠWhat",
        -6.985965989215472
      ],
      [
        "Ġwater",
        -6.999743893297893
      ],
      [
        "Ġhelp",
        -7.004036413327025
      ],
      [
        "Ġthese",
        -7.0075079544487195
      ],
      [
        "able",
        -7.022092635128516
      ],
      [
        "Ġneed",
        -7.026361827303681
      ],
      [
        "in",
        -7.033018695386621
      ],
      [
        "ĠIn",
        -7.037946338680316
      ],
      [
        "g",
        -7.038024667414785
      ],
      [
        "Ġthere",
        -7.043044301875851
      ],
      [
        "/",
        -7.079298233170794
      ],
      [
        "Ġwhat",
        -7.088842439294831
      ],
      [
        "Ġwere",
        -7.089191049063681
      ],
      [
        "Ġmost",
        -7.096153418902604
      ],
      [
        "Ġour",
        -7.099793516041338
      ],
      [
        "Ġused",
        -7.106430125383152
      ],
      [
        "Ġmake",
        -7.107503895636173
      ],
      [
        ";",
        -7.124003391839038
      ],
      [
        "Ġsuch",
        -7.1346488837771425
      ],
      [
        "S",
        -7.1682989400753065
      ],
      [
        "Ġget",
        -7.21924306437513
      ],
      [
        "Ġthrough",
        -7.2232077254407265
      ],
      [
        "Ġnew",
        -7.2235469973466575
      ],
      [
        "Ġany",
        -7.225221152052589
      ],
      [
        "Ġbeen",
        -7.230666663425023
      ],
      [
        "ity",
        -7.234302628336136
      ],
      [
        "Ġwho",
        -7.243555551124301
      ],
      [
        "Ġpeople",
        -7.2556500905814865
      ],
      [
        "I",
        -7.263756040624839
      ],
      [
        "Ġus",
        -7.266147156786653
      ],
      [
        "Ġover",
        -7.273355733517665
      ],
      [
        "Ġhigh",
        -7.276134674786045
      ],
      [
        "Ġfirst",
        -7.278517262057619
      ],
      [
        "Ġshould",
        -7.288838936833246
      ],
      [
        "ce",
        -7.291972856828471
      ],
      [
        "Ġwould",
        -7.3052300798702525
      ],
      [
        "Ġwork",
        -7.319295719118314
      ],
      [
        "f",
        -7.319715306635734
      ],
      [
        "Ġits",
        -7.328382105570888
      ],
      [
        "Ġsystem",
        -7.329713953443374
      ],
      [
        "Ġonly",
        -7.339181994803091
      ],
      [
        "?Ċ",
        -7.339225139177213
      ],
      [
        "cause",
        -7.3506206819764675
      ],
      [
        "or",
        -7.351198216556828
      ],
      [
        "Ġmany",
        -7.355499445548775
      ],
      [
        "Ġwell",
        -7.373692815670097
      ],
      [
        "b",
        -7.378447627262615
      ],
      [
        "ic",
        -7.3825171239047105
      ],
      [
        "Ġjust",
        -7.38678724157668
      ],
      [
        "p",
        -7.387684233029434
      ],
      [
        "ĠC",
        -7.390245814863789
      ],
      [
        "Ġdifferent",
        -7.401219653003144
      ],
      [
        "Ġtwo",
        -7.406472848508482
      ],
      [
        "Ġway",
        -7.4222334439745
      ],
      [
        "Ġbetween",
        -7.423047134410629
      ],
      [
        "ĠB",
        -7.430302561939266
      ],
      [
        "!",
        -7.431517846019313
      ],
      [
        "Ġsee",
        -7.4339577313835505
      ],
      [
        "Ġtake",
        -7.447598192857106
      ],
      [
        "Ġno",
        -7.455270024114622
      ],
      [
        "is",
        -7.455930857594705
      ],
      [
        "ion",
        -7.459080141203328
      ],
      [
        "Ġwhere",
        -7.465490281047149
      ],
      [
        "le",
        -7.466906958918145
      ],
      [
        "Ġmy",
        -7.491202694578522
      ],
      [
        "ever",
        -7.504445397189906
      ],
      [
        "Ġpart",
        -7.535282836921805
      ],
      [
        "Ġlook",
        -7.537812684408452
      ],
      [
        "Ġchange",
        -7.539015965712936
      ],
      [
        "Ġhe",
        -7.542780547982915
      ],
      [
        "Ġeven",
        -7.547020259340131
      ],
      [
        "Ġcould",
        -7.55129878036659
      ],
      [
        "ĠIf",
        -7.552475397502015
      ],
      [
        "Ġcell",
        -7.562838519721076
      ],
      [
        "ve",
        -7.57159906177572
      ],
      [
        "Ġvery",
        -7.571612285525548
      ],
      [
        "Ġhis",
        -7.57338684584972
      ],
      [
        "u",
        -7.580210463126058
      ],
      [
        "Ġknow",
        -7.584189037431058
      ],
      [
        "ĠHow",
        -7.586263228206905
      ],
      [
        "In",
        -7.58693767230589
      ],
      [
        ").",
        -7.598065688785843
      ],
      [
        "th",
        -7.60789046808137
      ],
      [
        "Ġhad",
        -7.60879710448112
      ],
      [
        "Ġhealth",
        -7.609485318965787
      ],
      [
        "Ġmuc",
        -7.612291191329774
      ],
      [
        "Ġwant",
        -7.619817330239728
      ],
      [
        "Ġsmall",
        -7.624016327047572
      ],
      [
        "Ġgood",
        -7.625903095543725
      ],
      [
        "ĠâĢĵ",
        -7.627807167506704
      ],
      [
        "Ġeach",
        -7.635979418708125
      ],
      [
        "Ġwhile",
        -7.648536926808703
      ],
      [
        "Ġmean",
        -7.653385764075944
      ],
      [
        "ĠS",
        -7.65884600351891
      ],
      [
        "Ġthen",
        -7.662178329248826
      ],
      [
        "Ġprocess",
        -7.670735739109584
      ],
      [
        "Ġimportant",
        -7.675883670888085
      ],
      [
        "ĠThey",
        -7.686049540725687
      ],
      [
        "C",
        -7.687604784528944
      ],
      [
        "Ġenergy",
        -7.694134006183791
      ],
      [
        "Ġlong",
        -7.700952001383082
      ],
      [
        "Ġprovide",
        -7.701976640497437
      ],
      [
        "Ġdesign",
        -7.702559851451421
      ],
      [
        "Ġdoes",
        -7.704391176982857
      ],
      [
        "x",
        -7.706355119153559
      ],
      [
        "ĠYou",
        -7.707037156887669
      ],
      [
        "Ġyears",
        -7.710875741172772
      ],
      [
        "B",
        -7.717047223930517
      ],
      [
        "um",
        -7.726530220362551
      ],
      [
        "Ġthing",
        -7.729798841778371
      ],
      [
        "ation",
        -7.734617812433304
      ],
      [
        "Ġafter",
        -7.742132022881841
      ],
      [
        "Ġfood",
        -7.749965723039946
      ],
      [
        "Ġworld",
        -7.752708066617102
      ],
      [
        "made",
        -7.763191505314664
      ],
      [
        "Ġreal",
        -7.770516795993578
      ],
      [
        "Ġbefore",
        -7.775069589670526
      ],
      [
        "en",
        -7.776285601883025
      ],
      [
        "Ġlife",
        -7.780308676302648
      ],
      [
        "Ġduring",
        -7.781381189135225
      ],
      [
        "Ġcome",
        -7.784836591390938
      ],
      [
        "Ġdon",
        -7.784954235792074
      ],
      [
        "Ġlevel",
        -7.785829115529384
      ],
      [
        "an",
        -7.787984712506968
      ],
      [
        "Ġdown",
        -7.78832032354439
      ],
      [
        "Ġaround",
        -7.793546545242613
      ],
      [
        "Ġallow",
        -7.794418019233559
      ],
      [
        "ll",
        -7.798126310832961
      ],
      [
        "Ġbody",
        -7.799325618524016
      ],
      [
        "D",
        -7.805383517718887
      ],
      [
        "Ġlight",
        -7.817118171988472
      ],
      [
        "k",
        -7.818193194244509
      ],
      [
        "%",
        -7.821428876985281
      ],
      [
        "Ġcreate",
        -7.840613389178284
      ],
      [
        "Ġform",
        -7.841082712916656
      ],
      [
        "),",
        -7.849095190020406
      ],
      [
        "Ġhuman",
        -7.854427718876142
      ],
      [
        "Ġsame",
        -7.855978823233364
      ],
      [
        "ĠP",
        -7.856026024838388
      ],
      [
        "ive",
        -7.856500488428904
      ],
      [
        "Ġkeep",
        -7.864534968287909
      ],
      [
        "Ġbeing",
        -7.86572402752102
      ],
      [
        "Ġgreat",
        -7.866218752898241
      ],
      [
        "Ġshow",
        -7.871061576959598
      ],
      [
        "Ġplace",
        -7.87110573300814
      ],
      [
        "ness",
        -7.875380758927192
      ],
      [
        "Ġinclude",
        -7.875463101473697
      ],
      [
        "Ġstudent",
        -7.8760947621632145
      ],
      [
        "Ġfind",
        -7.879021735526441
      ],
      [
        "Ġthose",
        -7.879297944699769
      ],
      [
        "ĠWe",
        -7.881448768327998
      ],
      [
        "Ġfound",
        -7.883413488745695
      ],
      [
        "Ġback",
        -7.883896384362165
      ],
      [
        "Ġyear",
        -7.884708001331615
      ],
      [
        "Ġoften",
        -7.885320263215675
      ],
      [
        "Ġbest",
        -7.888413954603326
      ],
      [
        "Ġdata",
        -7.888558316012111
      ],
      [
        "Ġright",
        -7.8906399338724995
      ],
      [
        "ers",
        -7.896150654366152
      ],
      [
        "Ġnumber",
        -7.901793064080123
      ],
      [
        "Ġboth",
        -7.902684962971237
      ],
      [
        "Ġexample",
        -7.904004873668771
      ],
      [
        "Ġun",
        -7.9040267707960705
      ],
      [
        "Ġday",
        -7.905746383511029
      ],
      [
        "ĠFor",
        -7.916688098134578
      ],
      [
        "Ġstudy",
        -7.922080661876441
      ],
      [
        "Ġcolor",
        -7.925083666624061
      ],
      [
        "ĠM",
        -7.928157545824285
      ],
      [
        "us",
        -7.930905155551708
      ],
      [
        "Ġexperience",
        -7.931076240990625
      ],
      [
        "Ġthink",
        -7.931489812316926
      ],
      [
        "ĠD",
        -7.932070979079768
      ],
      [
        "Ġinformation",
        -7.935084541270231
      ],
      [
        "Ġcause",
        -7.939331482728963
      ],
      [
        "What",
        -7.9456607324983475
      ],
      [
        ":Ċ",
        -7.95232109498431
      ],
      [
        "Ġpower",
        -7.9533515771669165
      ],
      [
        "Ġhome",
        -7.955849100540948
      ],
      [
        "Ġcommon",
        -7.959396540215637
      ],
      [
        "Ġunder",
        -7.964650020126557
      ],
      [
        "P",
        -7.972464619983114
      ],
      [
        "(",
        -7.97626487074582
      ],
      [
        "it",
        -7.977393713048489
      ],
      [
        "Ġmight",
        -7.978199723969489
      ],
      [
        "Ġdevelop",
        -7.980125301883773
      ],
      [
        "Ġrequire",
        -7.980155399857774
      ],
      [
        "Ġinclud",
        -7.984208692404102
      ],
      [
        "How",
        -7.984997423147584
      ],
      [
        "Ġresearch",
        -7.985176035496707
      ],
      [
        "est",
        -7.990450700420721
      ],
      [
        "and",
        -8.000538950109467
      ],
      [
        "Ġgo",
        -8.00072147631396
      ],
      [
        "Ġstart",
        -8.007880963910477
      ],
      [
        "Ġown",
        -8.01096525817689
      ],
      [
        "ĠThese",
        -8.011091438661506
      ],
      [
        "Ġcar",
        -8.012294558453226
      ],
      [
        "Ġw",
        -8.015067380356147
      ],
      [
        "Ġanimal",
        -8.016553264963344
      ],
      [
        "Ġlarge",
        -8.021040923191352
      ],
      [
        "Ġlead",
        -8.021175175533362
      ],
      [
        "Ġoff",
        -8.02195705866437
      ],
      [
        "Ġproduct",
        -8.026376824875282
      ],
      [
        "ĠTo",
        -8.027812858226822
      ],
      [
        "Ġbetter",
        -8.033122756050236
      ],
      [
        "Ġme",
        -8.033756846312727
      ],
      [
        "ĠT",
        -8.037710987300354
      ],
      [
        "Ġsize",
        -8.039835572236722
      ],
      [
        "T",
        -8.040692396019315
      ],
      [
        "ability",
        -8.047242372120614
      ],
      [
        "Ġconsider",
        -8.050711660947863
      ],
      [
        "Ġnow",
        -8.051456367460773
      ],
      [
        "Ġbecome",
        -8.051522911039285
      ],
      [
        "Ġsupport",
        -8.060386249948742
      ],
      [
        "Ġair",
        -8.062663609892843
      ],
      [
        "Ġsaid",
        -8.064009543745078
      ],
      [
        "Ġwithout",
        -8.065846193742143
      ],
      [
        "...",
        -8.06586313309844
      ],
      [
        "Ġher",
        -8.068791093885741
      ],
      [
        "Ġgrow",
        -8.071241968749435
      ],
      [
        "This",
        -8.074378927610086
      ],
      [
        "Ġfew",
        -8.077181349055452
      ],
      [
        "Ġtemperature",
        -8.077207494291851
      ],
      [
        "Ġevery",
        -8.080297107180108
      ],
      [
        "Ġsay",
        -8.081127917178094
      ],
      [
        "w",
        -8.086296271065656
      ],
      [
        "F",
        -8.087606914952802
      ],
      [
        "Ġpoint",
        -8.088370056920681
      ],
      [
        "ĠE",
        -8.09354379111862
      ],
      [
        "Ġincrease",
        -8.095247563458514
      ],
      [
        "If",
        -8.096915986264083
      ],
      [
        "Ġtype",
        -8.097989843867724
      ],
      [
        "Ġresult",
        -8.101563649505547
      ],
      [
        "Ġplant",
        -8.103215246536319
      ],
      [
        "Ġend",
        -8.105654065439452
      ],
      [
        "Ġbase",
        -8.109760438805605
      ],
      [
        "Ġheat",
        -8.116049910152533
      ],
      [
        "Ġstill",
        -8.116600171634317
      ],
      [
        "Ġmaking",
        -8.116993830305564
      ],
      [
        "Ġchildren",
        -8.122656432546624
      ],
      [
        "Ġplay",
        -8.123886032343151
      ],
      [
        "Ġset",
        -8.127471948421693
      ],
      [
        "ment",
        -8.128498455195277
      ],
      [
        "Ġadd",
        -8.128925967104518
      ],
      [
        "Ġspecific",
        -8.129869585316115
      ],
      [
        "Ġagain",
        -8.13596357833573
      ],
      [
        ":ĊĊ",
        -8.140526083313016
      ],
      [
        "Ġcase",
        -8.14374057911063
      ],
      [
        "ry",
        -8.15253039939598
      ],
      [
        "It",
        -8.152693193719696
      ],
      [
        "Ġfish",
        -8.154314352087871
      ],
      [
        "Ġthree",
        -8.155354045717203
      ],
      [
        "Ġissue",
        -8.156695070754424
      ],
      [
        "Ġdog",
        -8.15751258321762
      ],
      [
        "Ġper",
        -8.158979157814496
      ],
      [
        "ar",
        -8.165746224327144
      ],
      [
        "Ġcalled",
        -8.166159322934854
      ],
      [
        "Ġgroup",
        -8.166587308559132
      ],
      [
        "Ġspecies",
        -8.168891310890153
      ],
      [
        "Ġless",
        -8.173467377882195
      ],
      [
        "ĠBut",
        -8.175487746837486
      ],
      [
        "Ġeffect",
        -8.181560498760716
      ],
      [
        "ĠG",
        -8.181571118338002
      ],
      [
        "Ġwithin",
        -8.189077691955358
      ],
      [
        "Ġmethod",
        -8.193705820556616
      ],
      [
        "Ġgive",
        -8.196167395294028
      ],
      [
        "Ġlot",
        -8.198734638020266
      ],
      [
        "known",
        -8.200320131838776
      ],
      [
        "Ġtoo",
        -8.204851764847472
      ],
      [
        "Ġindividual",
        -8.205087465944294
      ],
      [
        "Ġschool",
        -8.205174341999246
      ],
      [
        "Ġplants",
        -8.20715698518613
      ],
      [
        "ally",
        -8.208117988628121
      ],
      [
        "Ġpotential",
        -8.208389085962231
      ],
      [
        "ĠAnd",
        -8.223616138564168
      ],
      [
        "Ġarea",
        -8.224098966834706
      ],
      [
        "Ġcost",
        -8.231562206546442
      ],
      [
        "Ġmain",
        -8.234715999612616
      ],
      [
        "Ġcontrol",
        -8.235639633511907
      ],
      [
        "Ġoffer",
        -8.2391522923213
      ],
      [
        "Ġhard",
        -8.242936946328207
      ],
      [
        "Ġre",
        -8.250469846980529
      ],
      [
        "ĠSo",
        -8.25170861706624
      ],
      [
        "Ġsomething",
        -8.252998755091006
      ],
      [
        "ĠH",
        -8.254865661167488
      ],
      [
        "]",
        -8.25819217954972
      ],
      [
        "Ġnatural",
        -8.25881034905196
      ],
      [
        "Ġsure",
        -8.260002212819494
      ],
      [
        "Ġear",
        -8.261069459767704
      ],
      [
        "Ġlearn",
        -8.262473284515353
      ],
      [
        "Ġlow",
        -8.264392745214009
      ],
      [
        "at",
        -8.270524265664704
      ],
      [
        "Ġmust",
        -8.270581485415473
      ],
      [
        "Ġsource",
        -8.27312026688822
      ],
      [
        "Ġwhy",
        -8.273398981395715
      ],
      [
        "less",
        -8.274820896098051
      ],
      [
        "Ġsecond",
        -8.279060482339137
      ],
      [
        "Ġcat",
        -8.281961509280718
      ],
      [
        "Ġproject",
        -8.283521647432957
      ],
      [
        "Ġgoing",
        -8.284328483030436
      ],
      [
        "Ġsignificant",
        -8.285967489853132
      ],
      [
        "G",
        -8.295136993730232
      ],
      [
        "Ġquestion",
        -8.296941799242209
      ],
      [
        "Ġrisk",
        -8.297336993381803
      ],
      [
        "v",
        -8.301114619083659
      ],
      [
        "Ġensure",
        -8.303437545014084
      ],
      [
        "Ġfactor",
        -8.30468017892677
      ],
      [
        "Ġimpact",
        -8.311503035273947
      ],
      [
        "Ġ[",
        -8.31466929100742
      ],
      [
        "ĠWhen",
        -8.318959343504627
      ],
      [
        "Ġcurrent",
        -8.324838876736607
      ],
      [
        "Ġspace",
        -8.326896090970124
      ],
      [
        "Ġfull",
        -8.328562302206851
      ],
      [
        "Ġpossible",
        -8.330165275406152
      ],
      [
        "Ġbenefit",
        -8.332968325122216
      ],
      [
        "Ġtest",
        -8.333762710941944
      ],
      [
        "ĠThere",
        -8.333787977074827
      ],
      [
        "Ġreduce",
        -8.338125584755566
      ],
      [
        "Ġdue",
        -8.338522346566057
      ],
      [
        "Ġprevent",
        -8.344476824505072
      ],
      [
        "Ġfield",
        -8.344496102058745
      ],
      [
        "the",
        -8.346548184652262
      ],
      [
        "Ġvarious",
        -8.348677731452668
      ],
      [
        "Ġdevice",
        -8.353772281820408
      ],
      [
        "Ġblood",
        -8.353908109110758
      ],
      [
        "M",
        -8.35490735724169
      ],
      [
        "ĠN",
        -8.360383844054448
      ],
      [
        "Ġamount",
        -8.360537204007821
      ],
      [
        "Ġhere",
        -8.360563068057047
      ],
      [
        "N",
        -8.360967633163877
      ],
      [
        "Ġeffective",
        -8.364022563672291
      ],
      [
        "Ġreason",
        -8.367416691263058
      ],
      [
        "Ġmaterial",
        -8.36965329121527
      ],
      [
        "age",
        -8.378275936081128
      ],
      [
        "Ġrange",
        -8.380316391627492
      ],
      [
        "ĠU",
        -8.381907392593803
      ],
      [
        "Ġalway",
        -8.382982158445387
      ],
      [
        "Ġanother",
        -8.38505492243705
      ],
      [
        "Ġgeneral",
        -8.38950812354182
      ],
      [
        "ch",
        -8.389574343755656
      ],
      [
        "Ġfollowing",
        -8.391188069506434
      ],
      [
        "Ġcare",
        -8.394388208214984
      ],
      [
        "Ġeasi",
        -8.396936583792042
      ],
      [
        "Ġline",
        -8.39847457512759
      ],
      [
        "Ġfeel",
        -8.400130158320966
      ],
      [
        "Ġlittle",
        -8.402519062415367
      ],
      [
        "Ġqualit",
        -8.405291838862112
      ],
      [
        "Ġlast",
        -8.405839671064022
      ],
      [
        "Ġtreatment",
        -8.409014915081489
      ],
      [
        "Ġdisease",
        -8.41132717610503
      ],
      [
        "Ġidea",
        -8.41198522079744
      ],
      [
        "Ġside",
        -8.41208271299788
      ],
      [
        "Ġdevelopment",
        -8.412643747360868
      ],
      [
        "Ġal",
        -8.413075569190735
      ],
      [
        "ĠR",
        -8.416613912524323
      ],
      [
        "Ġdid",
        -8.418838168816569
      ],
      [
        "Ġorder",
        -8.42016459519525
      ],
      [
        "Ġshe",
        -8.420647759636864
      ],
      [
        "Ġstate",
        -8.424224710752162
      ],
      [
        "out",
        -8.42740001877555
      ],
      [
        "z",
        -8.43397859175572
      ],
      [
        "ĠHe",
        -8.441622926927433
      ],
      [
        "Ġpaper",
        -8.453045685300584
      ],
      [
        "Ġavailable",
        -8.45398362560258
      ],
      [
        "Ġcontain",
        -8.457060349799864
      ],
      [
        "Ġage",
        -8.457368727364969
      ],
      [
        "to",
        -8.45755455647216
      ],
      [
        "Ġservice",
        -8.458875907640428
      ],
      [
        "using",
        -8.458912038988789
      ],
      [
        "Ġproblem",
        -8.461178234558833
      ],
      [
        "Ġactual",
        -8.46536191048689
      ],
      [
        "Ġtext",
        -8.466831598662186
      ],
      [
        "Ġseveral",
        -8.46781715934021
      ],
      [
        "ĠF",
        -8.472544413768706
      ],
      [
        "Ġweek",
        -8.47685803078274
      ],
      [
        "Ġcomplete",
        -8.477631045323871
      ],
      [
        "Ġsurface",
        -8.478163147021913
      ],
      [
        "Ġtypes",
        -8.482613068700092
      ],
      [
        "Ġopen",
        -8.484789240801373
      ],
      [
        "Ġfunction",
        -8.485825877332186
      ],
      [
        ",\"",
        -8.486460349459136
      ],
      [
        "Ġsoil",
        -8.487172530734464
      ],
      [
        "ĠAs",
        -8.487192349884296
      ],
      [
        "E",
        -8.488729596244925
      ],
      [
        "Ġusually",
        -8.49001340233643
      ],
      [
        "Ġenvironment",
        -8.49164685072061
      ],
      [
        "Ġ$",
        -8.500463244346193
      ],
      [
        "Ġstructure",
        -8.501608586365872
      ],
      [
        "Ġmonth",
        -8.502198319019644
      ],
      [
        "V",
        -8.503590592043084
      ],
      [
        "Ġtechnology",
        -8.504799545632284
      ],
      [
        "Ġhand",
        -8.506591309559669
      ],
      [
        "Ġenough",
        -8.508706981312645
      ],
      [
        "ĠWhich",
        -8.509113804940146
      ],
      [
        "Ġunderstand",
        -8.517192197633499
      ],
      [
        "Ġnon",
        -8.518124128913595
      ],
      [
        "Ġunti",
        -8.519523294174082
      ],
      [
        "Ġdifference",
        -8.520358592822372
      ],
      [
        "Ġlearning",
        -8.521818155888491
      ],
      [
        "Ġ&",
        -8.523555100427942
      ],
      [
        "Ġparticular",
        -8.525022366125977
      ],
      [
        "Ġwide",
        -8.525160588856082
      ],
      [
        "Ġweight",
        -8.526960229465924
      ],
      [
        "ĠK",
        -8.529768579974895
      ],
      [
        "Ġanswer",
        -8.529778579737247
      ],
      [
        "Ġdamage",
        -8.53001300519776
      ],
      [
        "Ġessential",
        -8.531852259701509
      ],
      [
        "When",
        -8.538270227496419
      ],
      [
        "Ġmodel",
        -8.542234000486575
      ],
      [
        "Ġp",
        -8.54296703633573
      ],
      [
        "Ġapplication",
        -8.543379659990125
      ],
      [
        "Ġvalue",
        -8.54488298326142
      ],
      [
        "Ġprotein",
        -8.547151001623225
      ],
      [
        "Ġimprove",
        -8.548132388827888
      ],
      [
        "Ġcertain",
        -8.548132623790375
      ],
      [
        "ĠBy",
        -8.548590278843594
      ],
      [
        "Ġpresent",
        -8.552194485966325
      ],
      [
        "Ġconditions",
        -8.552566922328428
      ],
      [
        "Ġteam",
        -8.553548853329403
      ],
      [
        "Ġoption",
        -8.554881938142247
      ],
      [
        "Ġcreat",
        -8.555189907553661
      ],
      [
        "Ġrole",
        -8.555434378433358
      ],
      [
        "Ġcourse",
        -8.556436966253864
      ],
      [
        "Ġleave",
        -8.557201583148121
      ],
      [
        "having",
        -8.559872464731951
      ],
      [
        "Ġtop",
        -8.560579666299297
      ],
      [
        "ary",
        -8.560950791620478
      ],
      [
        "ur",
        -8.56347691112483
      ],
      [
        "Ġmaterials",
        -8.564931839694864
      ],
      [
        "*",
        -8.5659592111559
      ],
      [
        "Ġterm",
        -8.565994284862196
      ],
      [
        "Ġinvolve",
        -8.566354665222118
      ],
      [
        "Ġalong",
        -8.569011351799059
      ],
      [
        "ĠL",
        -8.569536089612242
      ],
      [
        "Ġareas",
        -8.57369800261523
      ],
      [
        "Ġname",
        -8.574027872938231
      ],
      [
        "Ġtechnique",
        -8.574198040649947
      ],
      [
        "Ġfamily",
        -8.574678965344127
      ],
      [
        "Ġkey",
        -8.577003878025055
      ],
      [
        "Ġold",
        -8.577360847572661
      ],
      [
        "Ġfree",
        -8.582284736431216
      ],
      [
        "Ġlocal",
        -8.585472305929505
      ],
      [
        "Ġsince",
        -8.585766975712431
      ],
      [
        "Ġmaintain",
        -8.586661705192018
      ],
      [
        "Ġlive",
        -8.588063981508597
      ],
      [
        "Ġnext",
        -8.588322572627185
      ],
      [
        "Ġaway",
        -8.589350250309584
      ],
      [
        "We",
        -8.592965625459891
      ],
      [
        "Ġvariet",
        -8.593466873945209
      ],
      [
        "Ġnear",
        -8.59606573066143
      ],
      [
        "self",
        -8.597728198957668
      ],
      [
        "Ġhour",
        -8.598673639919458
      ],
      [
        "Ġ=",
        -8.599751870123729
      ],
      [
        "H",
        -8.601688187740539
      ],
      [
        "Ġput",
        -8.602728363705054
      ],
      [
        "Ġcommunit",
        -8.602952433617403
      ],
      [
        "Ġmarket",
        -8.606346801116846
      ],
      [
        "il",
        -8.606471546364029
      ],
      [
        "ous",
        -8.606538342274526
      ],
      [
        "Ġpressure",
        -8.607251299064071
      ],
      [
        "Ġresults",
        -8.6078478846057
      ],
      [
        "Ġperson",
        -8.610929474588026
      ],
      [
        "Ġfocus",
        -8.61244618166654
      ],
      [
        "ĠUniversity",
        -8.613319177196765
      ],
      [
        "Ġrate",
        -8.613451134510235
      ],
      [
        "K",
        -8.616038000657841
      ],
      [
        "Ġcheck",
        -8.618141631982738
      ],
      [
        "Ġeye",
        -8.620785381414183
      ],
      [
        "Ġstrong",
        -8.62207408089472
      ],
      [
        "ĠBe",
        -8.622212795394923
      ],
      [
        "ĠW",
        -8.622680943672144
      ],
      [
        "You",
        -8.622734990082066
      ],
      [
        "Ġtogether",
        -8.625249242069458
      ],
      [
        "Ġeasy",
        -8.626638816370876
      ],
      [
        "Ġfollow",
        -8.62910411837953
      ],
      [
        "Ġdirect",
        -8.629359182045425
      ],
      [
        "Ġshort",
        -8.630385059268459
      ],
      [
        "Ġbatter",
        -8.631122653214224
      ],
      [
        "Ġhead",
        -8.63257830565267
      ],
      [
        "Ġneeds",
        -8.632592156554757
      ],
      [
        "Ġaccording",
        -8.634150278300684
      ],
      [
        "O",
        -8.634644319201492
      ],
      [
        "Ġturn",
        -8.635429733673087
      ],
      [
        "Ġproduce",
        -8.635546264242482
      ],
      [
        "Ġclean",
        -8.637046014161307
      ],
      [
        "ĠRe",
        -8.638463928869637
      ],
      [
        "Ġflow",
        -8.639512054714562
      ],
      [
        "Ġlower",
        -8.63951345756178
      ],
      [
        "ĠV",
        -8.640239239310858
      ],
      [
        "Ġposition",
        -8.643060080612948
      ],
      [
        "W",
        -8.643173806468788
      ],
      [
        "Ġunit",
        -8.643658572153019
      ],
      [
        "Ġquick",
        -8.646360886896566
      ],
      [
        "ĠThat",
        -8.65235301080028
      ],
      [
        "R",
        -8.653416722948513
      ],
      [
        "Ġrun",
        -8.654785296899266
      ],
      [
        "Ġfast",
        -8.65503490647113
      ],
      [
        "Ġdepend",
        -8.658958616791914
      ],
      [
        "Ġproblems",
        -8.659431819024256
      ],
      [
        "Ġlet",
        -8.65963348196907
      ],
      [
        "Ġcover",
        -8.66197497304952
      ],
      [
        "Ġgrowth",
        -8.665648029472155
      ],
      [
        "Ġkind",
        -8.6658635831526
      ],
      [
        "Ġprotect",
        -8.672240701994353
      ],
      [
        "Ġmakes",
        -8.673401724257307
      ],
      [
        "Ġskin",
        -8.674600725794445
      ],
      [
        "Ġgas",
        -8.6748190677202
      ],
      [
        "Ġdays",
        -8.677978658736482
      ],
      [
        "ish",
        -8.67828274893964
      ],
      [
        "Ġphysical",
        -8.679038833802583
      ],
      [
        "Ġunique",
        -8.679531863519404
      ],
      [
        "Ġworking",
        -8.680622930372595
      ],
      [
        "Ġperiod",
        -8.681445052247767
      ],
      [
        "Ġtypical",
        -8.682746305506448
      ],
      [
        "Ġhealthy",
        -8.685003254975221
      ],
      [
        "Ġplan",
        -8.685817781065413
      ],
      [
        "Ġgiven",
        -8.687097138748022
      ],
      [
        "âĢĵ",
        -8.68913010081585
      ],
      [
        "Ġsafe",
        -8.691445953793776
      ],
      [
        "Ġseem",
        -8.691971913096644
      ],
      [
        "Ġlimit",
        -8.69216826798323
      ],
      [
        "Ġmachine",
        -8.693613342446321
      ],
      [
        "Ġavoid",
        -8.69421313563705
      ],
      [
        "Ġcomputer",
        -8.694918480392728
      ],
      [
        "Ġsimple",
        -8.698394391376066
      ],
      [
        "Ġtreat",
        -8.69890895350379
      ],
      [
        "Ġdiet",
        -8.699224550729419
      ],
      [
        "Ġgame",
        -8.700865945314877
      ],
      [
        "ĠWith",
        -8.700911902796626
      ],
      [
        ".\"",
        -8.70128191404827
      ],
      [
        "Ġprogram",
        -8.702320111908483
      ],
      [
        "Ġaccess",
        -8.70268722626561
      ],
      [
        "Ġfuture",
        -8.703177688384
      ],
      [
        "Ġcontinue",
        -8.705270086143827
      ],
      [
        "To",
        -8.706837304559459
      ],
      [
        "Ġamong",
        -8.70800472533466
      ],
      [
        "not",
        -8.708937209249836
      ],
      [
        "Ġdone",
        -8.710294165107992
      ],
      [
        "Ġmove",
        -8.712493200431256
      ],
      [
        "Ġarticle",
        -8.71612498243368
      ],
      [
        "Ġbusiness",
        -8.716152521017193
      ],
      [
        "Ġlove",
        -8.716975642384202
      ],
      [
        "ite",
        -8.720744619410391
      ],
      [
        "be",
        -8.721285516144999
      ],
      [
        "Ġsingle",
        -8.721627330272327
      ],
      [
        "Ġoil",
        -8.724677449963373
      ],
      [
        "li",
        -8.72508505877051
      ],
      [
        "ĠOn",
        -8.72572513374638
      ],
      [
        "There",
        -8.725751793405864
      ],
      [
        "Ġdoesn",
        -8.726119091727632
      ],
      [
        "Ġleast",
        -8.726443019619367
      ],
      [
        "Ġprofessional",
        -8.727875489295336
      ],
      [
        "Ġtraining",
        -8.727920674204917
      ],
      [
        "Ġpost",
        -8.729238462732326
      ],
      [
        "Ġdifficult",
        -8.729656018090166
      ],
      [
        "Ġstore",
        -8.731204786917878
      ],
      [
        "Ġproduction",
        -8.732009776787148
      ],
      [
        "Ġchild",
        -8.732316522133706
      ],
      [
        "her",
        -8.732575760034305
      ],
      [
        "Ġsuggest",
        -8.736965108690065
      ],
      [
        "Ġnecessar",
        -8.738448835052306
      ],
      [
        "Ġwhite",
        -8.741053548661789
      ],
      [
        "Ġbook",
        -8.741897578594983
      ],
      [
        "Ġbit",
        -8.743208384108685
      ],
      [
        "Ġeat",
        -8.744367121924686
      ],
      [
        "Ġground",
        -8.749233932246494
      ],
      [
        "Ġfact",
        -8.750165846367082
      ],
      [
        "Ġregion",
        -8.75086823308591
      ],
      [
        "Ġsocial",
        -8.751084326307433
      ],
      [
        "Ġabove",
        -8.751193734691608
      ],
      [
        "Ġpopulation",
        -8.751244401409068
      ],
      [
        "Ġhim",
        -8.751431221919205
      ],
      [
        ".\"Ċ",
        -8.751466179912589
      ],
      [
        "Ġbasic",
        -8.755821365460314
      ],
      [
        "Ġde",
        -8.756554936250676
      ],
      [
        "Ġsimilar",
        -8.75910066307464
      ],
      [
        "Ġgarden",
        -8.759711464438116
      ],
      [
        "Ġresource",
        -8.7603766964846
      ],
      [
        "ĠNew",
        -8.760840752905471
      ],
      [
        "Ġclose",
        -8.761854366531338
      ],
      [
        "ĠO",
        -8.764318858776095
      ],
      [
        "Ġstep",
        -8.766473869433916
      ],
      [
        "Ġwarm",
        -8.768809082894744
      ],
      [
        "man",
        -8.769444218006385
      ],
      [
        "Ġclimate",
        -8.771879303752357
      ],
      [
        "Ġexist",
        -8.773326946647437
      ],
      [
        "Ġbuilding",
        -8.774233003737688
      ],
      [
        "Ġb",
        -8.774735924217426
      ],
      [
        "Ġmajor",
        -8.775662036621394
      ],
      [
        "Ġlayer",
        -8.775862245166152
      ],
      [
        "Ġdogs",
        -8.776122611318804
      ],
      [
        "Ġnever",
        -8.776950649158497
      ],
      [
        "Ġregular",
        -8.778420209485173
      ],
      [
        "Ġpopular",
        -8.778797154745295
      ],
      [
        "Ġask",
        -8.779451969819117
      ],
      [
        "Ġresearcher",
        -8.779515299372422
      ],
      [
        "ĠâĢĶ",
        -8.78142513096196
      ],
      [
        "Ġsun",
        -8.783592851308393
      ],
      [
        "Ġdeep",
        -8.785809357338412
      ],
      [
        "Ġdiscover",
        -8.785990594429531
      ],
      [
        "Ġrecommend",
        -8.786735304421903
      ],
      [
        ")ĊĊ",
        -8.791129582355923
      ],
      [
        "Ġcontent",
        -8.792906140758802
      ],
      [
        "For",
        -8.793799573129666
      ],
      [
        "Ġcomponent",
        -8.794444671218743
      ],
      [
        "stead",
        -8.79528148019382
      ],
      [
        "ful",
        -8.795599640039182
      ],
      [
        "!Ċ",
        -8.795753046371606
      ],
      [
        "Ġespecially",
        -8.795822459075943
      ],
      [
        "Ġclear",
        -8.796076565978243
      ],
      [
        "ĠSome",
        -8.799228982363783
      ],
      [
        "hether",
        -8.799772953268445
      ],
      [
        "Ġsound",
        -8.800795561590814
      ],
      [
        "Ġelectric",
        -8.803484567975573
      ],
      [
        "Ġtoday",
        -8.804720668810372
      ],
      [
        "Ġperform",
        -8.807679539393792
      ],
      [
        "Ġsignal",
        -8.808053740608415
      ],
      [
        "Ġpattern",
        -8.808160721159975
      ],
      [
        "Ġface",
        -8.808709526314964
      ],
      [
        "Ġbring",
        -8.809371996389132
      ],
      [
        "Ġscience",
        -8.810528054286591
      ],
      [
        "Ġfour",
        -8.811954970522311
      ],
      [
        "Ġread",
        -8.812195945269067
      ],
      [
        "Ġcancer",
        -8.814492783355021
      ],
      [
        "Ġyoung",
        -8.815092382807826
      ],
      [
        "Ġdetermine",
        -8.815545979832777
      ],
      [
        "Ġtry",
        -8.815671078180067
      ],
      [
        "Ġaffect",
        -8.815743375918672
      ],
      [
        "Ġpiece",
        -8.817723452310283
      ],
      [
        "Ġsite",
        -8.819303892224532
      ],
      [
        "Ġred",
        -8.821040451178948
      ],
      [
        "Ġmatter",
        -8.82106362047194
      ],
      [
        ")Ċ",
        -8.821185189502414
      ],
      [
        "Ġinterest",
        -8.821339373129078
      ],
      [
        "ul",
        -8.821560290804932
      ],
      [
        "Ġtoward",
        -8.8215630857881
      ],
      [
        "Ġleft",
        -8.821898268149816
      ],
      [
        "L",
        -8.826675343236403
      ],
      [
        "Ġshape",
        -8.826835400814616
      ],
      [
        "either",
        -8.827042223333205
      ],
      [
        "Ġtotal",
        -8.832289605272045
      ],
      [
        "Ġremove",
        -8.832388840568044
      ],
      [
        "Ġimage",
        -8.832695093731509
      ],
      [
        "Ġstudie",
        -8.833304940414704
      ],
      [
        "Ġbrain",
        -8.837426381200203
      ],
      [
        "Ġmind",
        -8.837975192746143
      ],
      [
        "Ġrat",
        -8.838852852229163
      ],
      [
        "Ġchemical",
        -8.840625892518414
      ],
      [
        "Ġcountry",
        -8.840959220884177
      ],
      [
        "Ġtimes",
        -8.841064110880447
      ],
      [
        "Ġheart",
        -8.841244864471351
      ],
      [
        "Ġcall",
        -8.841550788061024
      ],
      [
        "Ġaddition",
        -8.843871141733253
      ],
      [
        "Ġbig",
        -8.847645367868907
      ],
      [
        "Ġchoice",
        -8.849842706833769
      ],
      [
        "Ġunderstanding",
        -8.85151567694628
      ],
      [
        "Ġbelow",
        -8.852492757741015
      ],
      [
        "Ġseed",
        -8.852503316167397
      ],
      [
        "Ġenjoy",
        -8.855010178806774
      ],
      [
        "Ġdi",
        -8.856645528498227
      ],
      [
        "Ġsolar",
        -8.857118405578213
      ],
      [
        "ant",
        -8.858945436131618
      ],
      [
        "Ġrecent",
        -8.860673974778472
      ],
      [
        "ĠYour",
        -8.860740775235499
      ],
      [
        "Ġcorrect",
        -8.86174347392506
      ],
      [
        "Ġliv",
        -8.861851151099527
      ],
      [
        "Ġsign",
        -8.862596364462432
      ],
      [
        "Ġinside",
        -8.864383642290122
      ],
      [
        "âĢĶ",
        -8.86569961860743
      ],
      [
        "ĠNo",
        -8.8673472407754
      ],
      [
        "Ġfeatures",
        -8.87261888842966
      ],
      [
        "Ġcold",
        -8.87563197430863
      ],
      [
        "Ġperformance",
        -8.876715395051008
      ],
      [
        "Ġparent",
        -8.877932378255355
      ],
      [
        "Ġapproach",
        -8.878643312942824
      ],
      [
        "ready",
        -8.883426986513857
      ],
      [
        "ĠState",
        -8.884425309741406
      ],
      [
        "Ġmillion",
        -8.886452888069638
      ],
      [
        "Ġtree",
        -8.887758238046743
      ],
      [
        "Ġbelieve",
        -8.888056644651973
      ],
      [
        "Ġgoal",
        -8.889047525748541
      ],
      [
        "Ġhistory",
        -8.889104851372892
      ],
      [
        "Ġgenetic",
        -8.8912441737315
      ],
      [
        "Ġdream",
        -8.892514736655638
      ],
      [
        "Ġclass",
        -8.893364083165343
      ],
      [
        "Ġgett",
        -8.8959194044347
      ],
      [
        "Ġchallenge",
        -8.895994838325858
      ],
      [
        "ĠAn",
        -8.89628455403936
      ],
      [
        "Ġnormal",
        -8.897053230205092
      ],
      [
        "Ġconcern",
        -8.89715763294983
      ],
      [
        "Ġauthor",
        -8.897317800584421
      ],
      [
        "ter",
        -8.897912055835576
      ],
      [
        "Ġloss",
        -8.897962072354098
      ],
      [
        "Ġfurther",
        -8.899491741802384
      ],
      [
        "Ġfar",
        -8.901616354740376
      ],
      [
        "Ġengine",
        -8.901664222318274
      ],
      [
        "Ġreach",
        -8.902358882136053
      ],
      [
        "ate",
        -8.90266857571012
      ],
      [
        "Ġcode",
        -8.902823724849776
      ],
      [
        "Ġmix",
        -8.902919971877509
      ],
      [
        "higher",
        -8.903075067920199
      ],
      [
        "_",
        -8.903109657832932
      ],
      [
        "Ġshare",
        -8.905620374830045
      ],
      [
        "ves",
        -8.906304908087396
      ],
      [
        "Ġappear",
        -8.910541282499931
      ],
      [
        "Ġreport",
        -8.91091848475028
      ],
      [
        "ent",
        -8.912153650624806
      ],
      [
        "Ġpre",
        -8.912389801933218
      ],
      [
        "Ġskills",
        -8.914977558675485
      ],
      [
        "Ġmention",
        -8.91602010694543
      ],
      [
        "ism",
        -8.916451343646333
      ],
      [
        "Ġpersonal",
        -8.916644453192557
      ],
      [
        "Ġlist",
        -8.919583703440619
      ],
      [
        "taking",
        -8.92600604930739
      ],
      [
        "Ġtalk",
        -8.92617187339869
      ],
      [
        "across",
        -8.930815809338899
      ],
      [
        "Ġfall",
        -8.932293675392732
      ],
      [
        "ĠOne",
        -8.9342417508059
      ],
      [
        "bility",
        -8.937252593230854
      ],
      [
        "Ġforce",
        -8.939063429213501
      ],
      [
        "Ġcompany",
        -8.939945032510556
      ],
      [
        "Ġcarbon",
        -8.942062307679983
      ],
      [
        "Ġremain",
        -8.942780976150292
      ],
      [
        "Ġways",
        -8.942965293889397
      ],
      [
        "Ġpain",
        -8.943038175794502
      ],
      [
        "Ġsomeone",
        -8.945756679266372
      ],
      [
        "As",
        -8.946213612644668
      ],
      [
        "Ġvideo",
        -8.946405071815018
      ],
      [
        "Ġmedical",
        -8.947075494560396
      ],
      [
        "by",
        -8.947178622595438
      ],
      [
        "âĢ¦",
        -8.947284831675447
      ],
      [
        "Ġcondition",
        -8.949658820747274
      ],
      [
        "ĠDo",
        -8.952817545005633
      ],
      [
        "Ġgreen",
        -8.953009630185427
      ],
      [
        "Ġbuild",
        -8.953188417473875
      ],
      [
        "Ġactivities",
        -8.953392535953173
      ],
      [
        "Ġdry",
        -8.954348799190456
      ],
      [
        "Ġlate",
        -8.954815741777448
      ],
      [
        "Ġstandard",
        -8.954935884984113
      ],
      [
        "Ġflower",
        -8.955244953941126
      ],
      [
        "Ġhouse",
        -8.955403601807337
      ],
      [
        "land",
        -8.955657312670542
      ],
      [
        "line",
        -8.95760624659388
      ],
      [
        "âĢĻs",
        -8.957868192433065
      ],
      [
        "co",
        -8.960494976168606
      ],
      [
        "Ġblack",
        -8.960612015593021
      ],
      [
        "Ġindustry",
        -8.962448318057136
      ],
      [
        "Ġpurpose",
        -8.962946319712248
      ],
      [
        "ĠAI",
        -8.963395912122332
      ],
      [
        "Ġuser",
        -8.96538001639808
      ],
      [
        "ance",
        -8.966456595744951
      ],
      [
        "Ġslow",
        -8.967366332152324
      ],
      [
        "Ġrelationship",
        -8.968294318665514
      ],
      [
        "Ġhot",
        -8.968331073306778
      ],
      [
        "Ġthought",
        -8.972088195389878
      ],
      [
        "Ġdescribe",
        -8.972694029369197
      ],
      [
        "Ġtell",
        -8.973229203648174
      ],
      [
        "Ġperfect",
        -8.973270332286406
      ],
      [
        "Ġsea",
        -8.97344790037366
      ],
      [
        "mm",
        -8.974885960778877
      ],
      [
        "Ġcomplex",
        -8.976269190972163
      ],
      [
        "Ġbehavior",
        -8.979203229740236
      ],
      [
        "if",
        -8.979223530586186
      ],
      [
        "Ġcrucial",
        -8.979578566293494
      ],
      [
        "tic",
        -8.979677167184711
      ],
      [
        "Ġaction",
        -8.980099469364335
      ],
      [
        "Ġknowledge",
        -8.981122087043214
      ],
      [
        "Ġstay",
        -8.982088236006145
      ],
      [
        "U",
        -8.982789745099922
      ],
      [
        "ut",
        -8.983708598020298
      ],
      [
        "Ġspeed",
        -8.983993270193299
      ],
      [
        "Ġsolution",
        -8.984582456414365
      ],
      [
        "Ġlocation",
        -8.985029131157038
      ],
      [
        "ok",
        -8.987129749364978
      ],
      [
        "Ġetc",
        -8.98849164126695
      ],
      [
        "Ġpractice",
        -8.98851207284395
      ],
      [
        "âĢĻ",
        -8.988936148928019
      ],
      [
        "Ġsimpl",
        -8.989509759915439
      ],
      [
        "ory",
        -8.989600697496758
      ],
      [
        "[",
        -8.989930805743096
      ],
      [
        "Ġlanguage",
        -8.991993466488005
      ],
      [
        "Ġmeasure",
        -8.994722895338786
      ],
      [
        "Ġstress",
        -8.997340741325406
      ],
      [
        "Ġrecord",
        -8.998129404424645
      ],
      [
        "Ġentire",
        -9.000001469184358
      ],
      [
        "Ġsense",
        -9.001684992665243
      ],
      [
        "up",
        -9.004941851367901
      ],
      [
        "Ġmoney",
        -9.00518624326547
      ],
      [
        "ĠAmerican",
        -9.00553457362749
      ],
      [
        "Ġoverall",
        -9.006985966187477
      ],
      [
        "Ġlonger",
        -9.00726312207865
      ],
      [
        "Ġroom",
        -9.007898965840456
      ],
      [
        "Ġdoing",
        -9.008120262379506
      ],
      [
        "cy",
        -9.008301443373409
      ],
      [
        "Ġproper",
        -9.00879060524925
      ],
      [
        "Ġself",
        -9.013565278745723
      ],
      [
        "Ġwhole",
        -9.016529867340154
      ],
      [
        "Ġcut",
        -9.018477441951864
      ],
      [
        "Ġnetwork",
        -9.019720249585395
      ],
      [
        "Ġsleep",
        -9.020350688931538
      ],
      [
        "Ġpublic",
        -9.022769981967176
      ],
      [
        "So",
        -9.02538741561943
      ],
      [
        "Ġenvironmental",
        -9.026171299922437
      ],
      [
        "+",
        -9.02841073135005
      ],
      [
        "light",
        -9.029160574768447
      ],
      [
        "Ġtarget",
        -9.030644739540213
      ],
      [
        "Ġview",
        -9.031018220746322
      ],
      [
        "Ġactivity",
        -9.03181434104442
      ],
      [
        "Ġspecial",
        -9.035309489210851
      ],
      [
        "Ġeffort",
        -9.036514569808752
      ],
      [
        "Ġselect",
        -9.0371895766434
      ],
      [
        "Ġwinter",
        -9.037522157104895
      ],
      [
        "Ġpositive",
        -9.038170655061704
      ],
      [
        "Ġtraditional",
        -9.040023791596257
      ],
      [
        "Ġexercise",
        -9.040545687320895
      ],
      [
        "Ġbuy",
        -9.042106033881597
      ],
      [
        "Ġscientist",
        -9.044692294014697
      ],
      [
        "ĠJ",
        -9.044704442484491
      ],
      [
        "Ġwood",
        -9.0448896342823
      ],
      [
        "Ġthough",
        -9.047071475372682
      ],
      [
        "Ġoperation",
        -9.048762431685049
      ],
      [
        "am",
        -9.048916133479128
      ],
      [
        "Ġpage",
        -9.049698892716794
      ],
      [
        "Ġland",
        -9.050010331847034
      ],
      [
        "ian",
        -9.053670589486698
      ],
      [
        "Ġchoose",
        -9.054117205787026
      ],
      [
        "Ġmetal",
        -9.054432012196616
      ],
      [
        "ha",
        -9.05949125802273
      ],
      [
        "Ġwomen",
        -9.060188541153757
      ],
      [
        "ĠWhile",
        -9.06076287124034
      ],
      [
        "Q",
        -9.06083355310504
      ],
      [
        "Ġco",
        -9.061216291346568
      ],
      [
        "Ġglobal",
        -9.06170078196541
      ],
      [
        "Ġlater",
        -9.0624102206887
      ],
      [
        "Ġfee",
        -9.06410532411037
      ],
      [
        "Ġfit",
        -9.06517754603992
      ],
      [
        "Ġopportunit",
        -9.06526994838963
      ],
      [
        "Ġbalance",
        -9.065539840413429
      ],
      [
        "Ġbegin",
        -9.067107239446525
      ],
      [
        "Ġnature",
        -9.067276159787172
      ],
      [
        "Ġfruit",
        -9.067775228702436
      ],
      [
        "Ġpatients",
        -9.06911224037595
      ],
      [
        "ĠCan",
        -9.069185168553828
      ],
      [
        "Ġpast",
        -9.07000315476218
      ],
      [
        "Ġfront",
        -9.07055112397888
      ],
      [
        "Ġeggs",
        -9.07154756402564
      ],
      [
        "afety",
        -9.071556096252678
      ],
      [
        "Ġfuel",
        -9.073571429880506
      ],
      [
        "Ġstage",
        -9.074043995817355
      ],
      [
        "Ġprimar",
        -9.074619169020732
      ],
      [
        "Ġreceive",
        -9.075471943854424
      ],
      [
        "Ġvehicle",
        -9.075475206598052
      ],
      [
        "Ġexpert",
        -9.075476562142477
      ],
      [
        "Ġtravel",
        -9.07870941503072
      ],
      [
        "Ġsummer",
        -9.0805290877477
      ],
      [
        "Ġpay",
        -9.080751128360356
      ],
      [
        "ĠScience",
        -9.081183376443668
      ],
      [
        "Ġfresh",
        -9.082707203094865
      ],
      [
        "Ġtask",
        -9.082924613288466
      ],
      [
        "Ġlength",
        -9.083555127121272
      ],
      [
        "ything",
        -9.084656102176403
      ],
      [
        "Ġexplain",
        -9.086104908907036
      ],
      [
        "Ġlarger",
        -9.087890985874251
      ],
      [
        "Ġgot",
        -9.088765474249303
      ],
      [
        "Ġtissue",
        -9.090367334441442
      ],
      [
        "Ġrelative",
        -9.092305834494166
      ],
      [
        "Ġsymptoms",
        -9.095579925199464
      ],
      [
        "ling",
        -9.096088085573008
      ],
      [
        "Ġwalk",
        -9.099681750388116
      ],
      [
        "Ġmanagement",
        -9.100508901792209
      ],
      [
        "Ġcool",
        -9.100598926390704
      ],
      [
        "ence",
        -9.103534936959525
      ],
      [
        "Ġsub",
        -9.103658854300402
      ],
      [
        "Ġrelated",
        -9.10427934199831
      ],
      [
        "op",
        -9.105034926721643
      ],
      [
        "one",
        -9.10741904077386
      ],
      [
        "ized",
        -9.108108429872068
      ],
      [
        "X",
        -9.109733507417886
      ],
      [
        "Ġtools",
        -9.109765862248342
      ],
      [
        "Ġwaste",
        -9.111435316210098
      ],
      [
        "Ġsuccessful",
        -9.111874289088664
      ],
      [
        "Ġresponse",
        -9.115039614771469
      ],
      [
        "Ġcenter",
        -9.117097159476176
      ],
      [
        "Ġstrateg",
        -9.11769915535946
      ],
      [
        "ĠAll",
        -9.119130696954128
      ],
      [
        "Ġseason",
        -9.119223355379386
      ],
      [
        "Ġwall",
        -9.120379046216035
      ],
      [
        "ĠNational",
        -9.12284461480182
      ],
      [
        "Ġidentify",
        -9.1233599261462
      ],
      [
        "Ġminutes",
        -9.123368315845948
      ],
      [
        "ĠAt",
        -9.12407756098644
      ],
      [
        "Ġfive",
        -9.124975921105897
      ],
      [
        "Ġoriginal",
        -9.125168919339568
      ],
      [
        "Ġart",
        -9.127012586955832
      ],
      [
        "ber",
        -9.1273299930265
      ],
      [
        "Ġmodern",
        -9.127747531821123
      ],
      [
        "-base",
        -9.12783861415239
      ],
      [
        "Ġaccount",
        -9.129213905999856
      ],
      [
        "where",
        -9.130783184104336
      ],
      [
        "Ġdirection",
        -9.130870538268734
      ],
      [
        "Ġreturn",
        -9.131729365998464
      ],
      [
        "Ġprobabl",
        -9.131976458809614
      ],
      [
        "Ġefficient",
        -9.13230794900224
      ],
      [
        "Ġconcept",
        -9.132957221743183
      ],
      [
        "Ġothers",
        -9.13340563968821
      ],
      [
        "Ġproperties",
        -9.13363377945954
      ],
      [
        "Ġaverage",
        -9.134165142774794
      ],
      [
        "Ġsubject",
        -9.135098872727674
      ],
      [
        "Ġaddress",
        -9.13606802852087
      ],
      [
        "Ġplastic",
        -9.136575745389823
      ],
      [
        "Ġitem",
        -9.13700871856181
      ],
      [
        "Ġanalysis",
        -9.138911471267182
      ],
      [
        "ĠHere",
        -9.139052648575865
      ],
      [
        "Ġguide",
        -9.141773384338094
      ],
      [
        "Ġhappen",
        -9.142460895577038
      ],
      [
        "Ġmilk",
        -9.147905451356074
      ],
      [
        "Ġregard",
        -9.148473193022584
      ],
      [
        "Ġact",
        -9.149026083861116
      ],
      [
        "Ġexplore",
        -9.149603398638192
      ],
      [
        "Ġstop",
        -9.152389325001865
      ],
      [
        "Ġhold",
        -9.152449716631985
      ],
      [
        "Ġattention",
        -9.154473653813138
      ],
      [
        "Ġcycle",
        -9.155877359278785
      ],
      [
        "Ġdegree",
        -9.155999854748009
      ],
      [
        "Ġsometime",
        -9.156033189881455
      ],
      [
        "Ġhalf",
        -9.15698552177352
      ],
      [
        ").Ċ",
        -9.157094214418596
      ],
      [
        "Ġmovement",
        -9.157949955495942
      ],
      [
        "Ġfinal",
        -9.159009884361245
      ],
      [
        "go",
        -9.159405097381017
      ],
      [
        "Ġreview",
        -9.161973179107337
      ],
      [
        "Ġincreasing",
        -9.162636779369508
      ],
      [
        "Ġactive",
        -9.163294228275705
      ],
      [
        "Ġweather",
        -9.163952506053668
      ],
      [
        "Ġeducation",
        -9.165125968151736
      ],
      [
        "Ġjob",
        -9.167693232240012
      ],
      [
        "Ġrepresent",
        -9.167693682163154
      ],
      [
        "Ġam",
        -9.168406586480302
      ],
      [
        "ĠDNA",
        -9.170764065741086
      ],
      [
        "Ġtank",
        -9.171189154932492
      ],
      [
        "Ġadditional",
        -9.175908191918008
      ],
      [
        "Ġfun",
        -9.178885980171923
      ],
      [
        "Ġfeed",
        -9.180359688717616
      ],
      [
        "ization",
        -9.180786543816378
      ],
      [
        "Ġcontact",
        -9.183490352872369
      ],
      [
        "Ġliquid",
        -9.184833104480632
      ],
      [
        "Ġmultiple",
        -9.188318899800434
      ],
      [
        "Ġreading",
        -9.188678012332748
      ],
      [
        "Ġthemsel",
        -9.188933848708244
      ],
      [
        "Ġice",
        -9.18982834705272
      ],
      [
        "Ġnegative",
        -9.19103329509689
      ],
      [
        "Ġvisit",
        -9.191110962104
      ],
      [
        "Ġelements",
        -9.19128185280523
      ],
      [
        "Ġpass",
        -9.19181003881638
      ],
      [
        "Ġalmost",
        -9.192917099524712
      ],
      [
        "Ġstorage",
        -9.193014089819137
      ],
      [
        "Ġsugar",
        -9.1939867048687
      ],
      [
        "Ġgovernment",
        -9.195641308384014
      ],
      [
        "Many",
        -9.196796862723067
      ],
      [
        "Ġmodels",
        -9.197103146369328
      ],
      [
        "Ġbreed",
        -9.197267123043387
      ],
      [
        "Ġever",
        -9.197508038630644
      ],
      [
        "Ġtool",
        -9.197755080754126
      ],
      [
        "Ġsetting",
        -9.19787847886552
      ],
      [
        "Ġoutside",
        -9.19824382223354
      ],
      [
        "Ġculture",
        -9.19884848079968
      ],
      [
        "Ġreduc",
        -9.199620949028738
      ],
      [
        "ĠEarth",
        -9.200715948306962
      ],
      [
        "Ġbad",
        -9.201166280956862
      ],
      [
        "ture",
        -9.201986232703184
      ],
      [
        "Ġpet",
        -9.204445220030571
      ],
      [
        "Ġcommunication",
        -9.20474438876158
      ],
      [
        "Ġrule",
        -9.207049539506208
      ],
      [
        "Ġrelease",
        -9.207825636833554
      ],
      [
        "Ġdigital",
        -9.20787240580054
      ],
      [
        "Ġfinding",
        -9.208249280643557
      ],
      [
        "Ġwon",
        -9.210187727742664
      ],
      [
        "Ġgain",
        -9.211768956628203
      ],
      [
        "Ġcharacter",
        -9.212877828173676
      ],
      [
        "ial",
        -9.213201976744212
      ],
      [
        "Ġquite",
        -9.215293146011108
      ],
      [
        "Ġmental",
        -9.215344967090378
      ],
      [
        "online",
        -9.21635247607255
      ],
      [
        "ĠDr",
        -9.218366331463637
      ],
      [
        "Ġsample",
        -9.220762280688822
      ],
      [
        "J",
        -9.22204947643198
      ],
      [
        "Ġprovid",
        -9.222142922132008
      ],
      [
        "Ġscientific",
        -9.222354553831586
      ],
      [
        "Ġseparate",
        -9.223385677386126
      ],
      [
        "Ġplayer",
        -9.224250124934944
      ],
      [
        "Ġpercent",
        -9.22442057138964
      ],
      [
        "no",
        -9.224669347302031
      ],
      [
        "ĠSt",
        -9.225948191157766
      ],
      [
        "Ġdetail",
        -9.22625843017985
      ],
      [
        "Ġserve",
        -9.229532037824562
      ],
      [
        "Ġblock",
        -9.230685870416014
      ],
      [
        "Ġisn",
        -9.23093873962396
      ],
      [
        "Ġbacteria",
        -9.232085238142629
      ],
      [
        "Ġenhance",
        -9.232306597144271
      ],
      [
        "Ġdeliver",
        -9.23270755232465
      ],
      [
        "Ġstarted",
        -9.233112291047505
      ],
      [
        "Ġsave",
        -9.234467143159486
      ],
      [
        "Ġcity",
        -9.23533247883119
      ],
      [
        "Ġbirds",
        -9.235939096535336
      ],
      [
        "Ġsalt",
        -9.2359966147448
      ],
      [
        "Ġorganization",
        -9.236064684741809
      ],
      [
        "Ġnight",
        -9.236934384026004
      ],
      [
        "Why",
        -9.238494931952248
      ],
      [
        "Ġblue",
        -9.238971765688692
      ],
      [
        "Y",
        -9.23906096988091
      ],
      [
        "Ġprevious",
        -9.239889527078123
      ],
      [
        "Ġbehind",
        -9.240877378875629
      ],
      [
        "Ġinfluence",
        -9.241852233591857
      ],
      [
        "Ġrest",
        -9.243519220992628
      ],
      [
        "Ġhear",
        -9.244885291673285
      ],
      [
        "Ġeyes",
        -9.24527514771424
      ],
      [
        "Ġstory",
        -9.246654161220142
      ],
      [
        "Ġwords",
        -9.246784931481264
      ],
      [
        "=",
        -9.248192222470362
      ],
      [
        "Ġinstruction",
        -9.249740290156776
      ],
      [
        "ĠUnited",
        -9.2510808077138
      ],
      [
        "Ġmass",
        -9.252389564608082
      ],
      [
        "Ġachieve",
        -9.252859161783666
      ],
      [
        "daily",
        -9.254116622842036
      ],
      [
        "Ġprice",
        -9.257013962916051
      ],
      [
        "Ġvegetable",
        -9.257412422408985
      ],
      [
        "Ġenter",
        -9.258521389066306
      ],
      [
        "Ġgenerate",
        -9.258671576192778
      ],
      [
        "Ġdark",
        -9.260305877884164
      ],
      [
        "Ġspring",
        -9.2621274079086
      ],
      [
        "Ġconduct",
        -9.263160029962798
      ],
      [
        "Ġacid",
        -9.263315321682915
      ],
      [
        "Ġevent",
        -9.263365369511051
      ],
      [
        "Ġtend",
        -9.263607617175962
      ],
      [
        "Ġequipment",
        -9.267500605719595
      ],
      [
        "Ġwatch",
        -9.268153413042285
      ],
      [
        "Ġsupply",
        -9.269157576775289
      ],
      [
        "Ġcamera",
        -9.26916711535276
      ],
      [
        "Ġportion",
        -9.269621147917231
      ],
      [
        "Ġmeet",
        -9.270284897714571
      ],
      [
        "ier",
        -9.271844542360036
      ],
      [
        "Ġprotection",
        -9.273629439787625
      ],
      [
        "Ġcountr",
        -9.273781131490662
      ],
      [
        "Ġsearch",
        -9.27423645050127
      ],
      [
        "Ġwild",
        -9.274980074307884
      ],
      [
        "Ġexperiment",
        -9.275686965170776
      ],
      [
        "Ġtrees",
        -9.27640548474621
      ],
      [
        "ĠSouth",
        -9.276855780603691
      ],
      [
        "Ġassociate",
        -9.278909797247632
      ],
      [
        "Ġevidence",
        -9.279335721152655
      ],
      [
        "ver",
        -9.281365493330837
      ],
      [
        "Ġglass",
        -9.283486841301707
      ],
      [
        "Ġyet",
        -9.284540900757053
      ],
      [
        "Ġwebsite",
        -9.284847950197932
      ],
      [
        "Ġinsect",
        -9.284877555737754
      ],
      [
        "Ġteacher",
        -9.28602439812549
      ],
      [
        "lthough",
        -9.28629850297417
      ],
      [
        "Ġfill",
        -9.287730478497792
      ],
      [
        "Ġindicate",
        -9.287857710667025
      ],
      [
        "\\",
        -9.288236124044722
      ],
      [
        "Ġdistance",
        -9.291614686578594
      ],
      [
        "ĠAfter",
        -9.291627245274558
      ],
      [
        "Ġaim",
        -9.291654109538554
      ],
      [
        "Ġroot",
        -9.291795117700584
      ],
      [
        "Ġextra",
        -9.2924694713536
      ],
      [
        "Ġman",
        -9.292859938288192
      ],
      [
        "Ġsection",
        -9.296939282485612
      ],
      [
        "Ġkids",
        -9.298451871138592
      ],
      [
        "ĠUS",
        -9.300187903756015
      ],
      [
        "Ġearth",
        -9.301109542607437
      ],
      [
        "Ġadvantage",
        -9.301562724488724
      ],
      [
        "ex",
        -9.301924985007147
      ],
      [
        "One",
        -9.302771204569352
      ],
      [
        "Ġbrand",
        -9.302907852494254
      ],
      [
        "j",
        -9.30504273464462
      ],
      [
        "Ġefficienc",
        -9.305243899439525
      ],
      [
        "Ġharm",
        -9.305306625919751
      ],
      [
        "Ġeverything",
        -9.305410792510749
      ],
      [
        "im",
        -9.305871615288762
      ],
      [
        "Ġdisorder",
        -9.3069987547959
      ],
      [
        "Ġpaint",
        -9.308647896809088
      ],
      [
        "ĠMay",
        -9.308735001170325
      ],
      [
        "Ġeveryone",
        -9.309161396148095
      ],
      [
        "Ġmeat",
        -9.309742975509408
      ],
      [
        "ĠWorld",
        -9.310962887889048
      ],
      [
        "Ġdidn",
        -9.311019665517325
      ],
      [
        "Ġnote",
        -9.311327519979567
      ],
      [
        "Ġdisplay",
        -9.313372026744176
      ],
      [
        "Ġtrue",
        -9.313824785787382
      ],
      [
        "Ġlack",
        -9.31583229595543
      ],
      [
        "Ġmedia",
        -9.31604609339983
      ],
      [
        "Ġspread",
        -9.317546498586497
      ],
      [
        "Ġtrack",
        -9.31941997899131
      ],
      [
        "Ġsoftware",
        -9.319564393683262
      ],
      [
        "ember",
        -9.320467959518956
      ],
      [
        "hi",
        -9.323415445442826
      ],
      [
        "Ġdraw",
        -9.323426526150882
      ],
      [
        "ring",
        -9.323453733152268
      ],
      [
        "Ġcritical",
        -9.32568464602168
      ],
      [
        "Ġanti",
        -9.326467238487965
      ],
      [
        "Ġsteps",
        -9.327150264201734
      ],
      [
        "Ġextend",
        -9.3272911402764
      ],
      [
        "Ġinstall",
        -9.327979512319068
      ],
      [
        "Ġexpect",
        -9.328374209576474
      ],
      [
        "Ġfilm",
        -9.32880089153202
      ],
      [
        "Ġago",
        -9.329041145572225
      ],
      [
        "Ġcharge",
        -9.32915008359863
      ],
      [
        "un",
        -9.329309510137254
      ],
      [
        "ical",
        -9.329624962183942
      ],
      [
        "Ġcontribute",
        -9.329762342855933
      ],
      [
        "Ġswitch",
        -9.331685410687722
      ],
      [
        "Ġelectrical",
        -9.331873084948006
      ],
      [
        "ĠShe",
        -9.332684172276863
      ],
      [
        "ĠX",
        -9.33282029424753
      ],
      [
        "ium",
        -9.333292404424869
      ],
      [
        "Ġexact",
        -9.333657413012268
      ],
      [
        "Ġcollect",
        -9.334635601989367
      ],
      [
        "Ġjoint",
        -9.335634831602984
      ],
      [
        "Ġmath",
        -9.336210207844411
      ],
      [
        "ge",
        -9.338681379933869
      ],
      [
        "all",
        -9.339205598538893
      ],
      [
        "Ġstyle",
        -9.340257427557637
      ],
      [
        "Ġconstant",
        -9.342681577429092
      ],
      [
        "Ġprocesses",
        -9.342766595042054
      ],
      [
        "Ġaspect",
        -9.343601574764028
      ],
      [
        "Ġstrength",
        -9.344063373456256
      ],
      [
        "Ġprovided",
        -9.345228299473993
      ],
      [
        "Ġdemand",
        -9.348148954142268
      ],
      [
        "Ġwind",
        -9.349188750569455
      ],
      [
        "Ġfat",
        -9.349202246435835
      ],
      [
        "ma",
        -9.349587519326429
      ],
      [
        "Ġdrive",
        -9.353603410690232
      ],
      [
        "ship",
        -9.355276034292997
      ],
      [
        "Ġcustomer",
        -9.357653515658422
      ],
      [
        "Ġmale",
        -9.357674873226792
      ],
      [
        "An",
        -9.358014282879935
      ],
      [
        "Ġfilter",
        -9.359165355075625
      ],
      [
        "Ġfire",
        -9.360414291030956
      ],
      [
        "ĠSchool",
        -9.361103787998484
      ],
      [
        "yourself",
        -9.361240952406895
      ],
      [
        "for",
        -9.36236827699409
      ],
      [
        "Ġproduced",
        -9.363085861551408
      ],
      [
        "Ġtopic",
        -9.363903790439824
      ],
      [
        "Ġsix",
        -9.366868763159871
      ],
      [
        "Ġfund",
        -9.368678493230906
      ],
      [
        "Ġcompar",
        -9.369609552621014
      ],
      [
        "Ġsuccess",
        -9.370155840463877
      ],
      [
        "Ġcook",
        -9.370441002241224
      ],
      [
        "Ġinitial",
        -9.370873959424053
      ],
      [
        "Ġremember",
        -9.37110819783113
      ],
      [
        "Ġadvance",
        -9.3736201718043
      ],
      [
        "Ġeating",
        -9.374558033896315
      ],
      [
        "Ġequal",
        -9.375587487746063
      ],
      [
        "Ġgene",
        -9.378488788346932
      ],
      [
        "Ġattack",
        -9.37895946879506
      ],
      [
        "Ġcap",
        -9.379213633071586
      ],
      [
        "ĠUse",
        -9.379314079789449
      ],
      [
        "like",
        -9.379493634189622
      ],
      [
        "Ġcompare",
        -9.37967038310014
      ],
      [
        "Ġbuilt",
        -9.379834357651944
      ],
      [
        "Ġelse",
        -9.380032629970158
      ],
      [
        "But",
        -9.380724903776615
      ],
      [
        "Ġwriting",
        -9.380727645868596
      ],
      [
        "Ġtrying",
        -9.38202639059092
      ],
      [
        "Ġimmun",
        -9.38239579890206
      ],
      [
        "Ġapply",
        -9.38283293158472
      ],
      [
        "ĠResearch",
        -9.382947713628852
      ],
      [
        "Ġhope",
        -9.383290445792367
      ],
      [
        "Ġwear",
        -9.383796333002158
      ],
      [
        "Ġcross",
        -9.3858327521082
      ],
      [
        "Ġpublished",
        -9.386282068223686
      ],
      [
        "Ġfeature",
        -9.38803409160474
      ],
      [
        "Ġspend",
        -9.389150241557129
      ],
      [
        "Ġwrite",
        -9.389577581426105
      ],
      [
        "ĠMa",
        -9.389678317635964
      ],
      [
        "Ġestablish",
        -9.390765737893116
      ],
      [
        "Ġobtain",
        -9.392971339539884
      ],
      [
        "Ġoutput",
        -9.393269239724914
      ],
      [
        "Ġcount",
        -9.396364511878197
      ],
      [
        "Ġbreak",
        -9.3964246791389
      ],
      [
        "Ġpoints",
        -9.399040840190391
      ],
      [
        "Ġpoor",
        -9.400225064046428
      ],
      [
        "Ġfine",
        -9.401215305267492
      ],
      [
        "Ġdoctor",
        -9.40165602943496
      ],
      [
        "Ġrequirement",
        -9.401867487156142
      ],
      [
        "ivity",
        -9.403308190386293
      ],
      [
        "Ġstem",
        -9.405288224238417
      ],
      [
        "tra",
        -9.406735350415584
      ],
      [
        "Ġsoon",
        -9.407648917983956
      ],
      [
        "Can",
        -9.41139809846984
      ],
      [
        "ĠMore",
        -9.411444993211957
      ],
      [
        "Ġmemory",
        -9.411833532420584
      ],
      [
        "me",
        -9.412863377415231
      ],
      [
        "Ġseries",
        -9.414267956520458
      ],
      [
        "Ġfoods",
        -9.415144958895835
      ],
      [
        "Ġnotice",
        -9.4172899704405
      ],
      [
        "Ġworks",
        -9.418199261372305
      ],
      [
        "over",
        -9.41890409862239
      ],
      [
        "ĠCo",
        -9.418988128396204
      ],
      [
        "ĠMost",
        -9.419233396193803
      ],
      [
        "Ġcauses",
        -9.422984185051456
      ],
      [
        "ten",
        -9.423185415103696
      ],
      [
        "Ġcontainer",
        -9.42439676404363
      ],
      [
        "Ġtouch",
        -9.425290400800918
      ],
      [
        ">",
        -9.42557666896953
      ],
      [
        "Ġmaintenance",
        -9.425983233810507
      ],
      [
        "Ġfeeling",
        -9.428276359178106
      ],
      [
        "Ġclaim",
        -9.429940859311833
      ],
      [
        "Ġnutrient",
        -9.431614482714926
      ],
      [
        "Ġtaste",
        -9.431883472323776
      ],
      [
        "Ġword",
        -9.432153695030934
      ],
      [
        ".S",
        -9.43228316857292
      ],
      [
        "of",
        -9.43244660680494
      ],
      [
        "Ġparticle",
        -9.432907831286226
      ],
      [
        "ated",
        -9.433243156367466
      ],
      [
        "Ġideal",
        -9.433779950203489
      ],
      [
        "Ġmanage",
        -9.436295073323777
      ],
      [
        "Ġappropriate",
        -9.43864979881456
      ],
      [
        "Ġgenes",
        -9.439725135975568
      ],
      [
        "ĠOr",
        -9.44024202322586
      ],
      [
        "more",
        -9.442035477884684
      ],
      [
        "Ġimportanc",
        -9.443527575808025
      ],
      [
        "Ġfigure",
        -9.443603144939772
      ],
      [
        "Ġimmediate",
        -9.44391278566139
      ],
      [
        "Ġserious",
        -9.443915234247664
      ],
      [
        "Ġchance",
        -9.443922091835937
      ],
      [
        "ca",
        -9.444965315308082
      ],
      [
        "Ġcircuit",
        -9.445035564268046
      ],
      [
        "Ġmoving",
        -9.44548237480756
      ],
      [
        "Re",
        -9.44619040566079
      ],
      [
        "Ġrock",
        -9.446294967364311
      ],
      [
        "Ġinput",
        -9.447584798653002
      ],
      [
        "Ġrunn",
        -9.448018672757309
      ],
      [
        "Ġcombination",
        -9.448184229494796
      ],
      [
        "Ġfrequent",
        -9.448491519874732
      ],
      [
        "Ġdeal",
        -9.450054567152977
      ],
      [
        "Be",
        -9.450704140461127
      ],
      [
        "ard",
        -9.451008459267523
      ],
      [
        "Ġsequence",
        -9.452466108004534
      ],
      [
        "Ġcapacit",
        -9.452763923723186
      ],
      [
        "#",
        -9.453826532878892
      ],
      [
        "Ġfarm",
        -9.453987326993111
      ],
      [
        "-to",
        -9.45403756790733
      ],
      [
        "Ġ--",
        -9.45405841796392
      ],
      [
        "Ġmonitor",
        -9.4547787592902
      ],
      [
        "Ġyellow",
        -9.455623108091228
      ],
      [
        "Ġcharacteristic",
        -9.456099923935996
      ],
      [
        "ĠCO",
        -9.45643204196788
      ],
      [
        "Ġpatient",
        -9.45709178728868
      ],
      [
        "Ġapplie",
        -9.458242697971908
      ],
      [
        "nother",
        -9.459934579365507
      ],
      [
        "Ġuseful",
        -9.460129298705578
      ],
      [
        "Ġlives",
        -9.46018787060677
      ],
      [
        "Ġdeath",
        -9.460235426633156
      ],
      [
        "Ġleg",
        -9.461561213310464
      ],
      [
        "Ġenable",
        -9.462192181970437
      ],
      [
        "Ġspot",
        -9.462970222410346
      ],
      [
        "Ġbottom",
        -9.465630518262948
      ],
      [
        "Ġingredient",
        -9.466271440469257
      ],
      [
        "Ġdiseases",
        -9.46640799066734
      ],
      [
        "Ġreplace",
        -9.466587942400984
      ],
      [
        "ĠMy",
        -9.467155800574494
      ],
      [
        "Ġscale",
        -9.468068949929018
      ],
      [
        "vi",
        -9.468527468909691
      ],
      [
        "Ġconnect",
        -9.470480864419052
      ],
      [
        "friendly",
        -9.470673521909871
      ],
      [
        "Ġmusic",
        -9.471055737396629
      ],
      [
        "Ġconnection",
        -9.47133364913956
      ],
      [
        "Ġmulti",
        -9.472380735811717
      ],
      [
        "ĠHealth",
        -9.472926438168214
      ],
      [
        "Ġmembers",
        -9.473164763390802
      ],
      [
        "ĠYes",
        -9.473233700095689
      ],
      [
        "Ġpair",
        -9.473484037793794
      ],
      [
        "Ġsoft",
        -9.47406698178776
      ],
      [
        "Ġtherapy",
        -9.475047366880087
      ],
      [
        "Ġcouple",
        -9.476602572349758
      ],
      [
        "Ġmineral",
        -9.478203668281823
      ],
      [
        "Ġrapid",
        -9.478681681903636
      ],
      [
        "Ġkill",
        -9.478812659199845
      ],
      [
        "Ġoccur",
        -9.47920788921677
      ],
      [
        "Ġgoe",
        -9.480315034471833
      ],
      [
        "Ġfinish",
        -9.48059356131706
      ],
      [
        "Ġslight",
        -9.480840230407154
      ],
      [
        "Ġtips",
        -9.481781711885557
      ],
      [
        "Ġvolume",
        -9.482255338436534
      ],
      [
        "ub",
        -9.48318670287896
      ],
      [
        "Ġresponsibl",
        -9.48369323748742
      ],
      [
        "Ġusers",
        -9.483759087120731
      ],
      [
        "Ġevents",
        -9.483809720331022
      ],
      [
        "Ġmolecule",
        -9.483911988778
      ],
      [
        "Ġhandle",
        -9.483952288763524
      ],
      [
        "Ġscreen",
        -9.484436107542791
      ],
      [
        "On",
        -9.484649012317416
      ],
      [
        "Ġsituation",
        -9.484940918043932
      ],
      [
        "}",
        -9.485925261330271
      ],
      [
        "Ġvitamin",
        -9.486331822595169
      ],
      [
        "Ġaccept",
        -9.487831211492516
      ],
      [
        "uch",
        -9.489237444402333
      ],
      [
        "Ġburn",
        -9.48974158229812
      ],
      [
        "Ġgear",
        -9.489949860281277
      ],
      [
        "Ġdecrease",
        -9.490942983247749
      ],
      [
        "ill",
        -9.491762018537628
      ],
      [
        "Ġshows",
        -9.492357240621375
      ],
      [
        "Ġbird",
        -9.492539792598285
      ],
      [
        "ĠFrom",
        -9.493464458593564
      ],
      [
        "Ġdetect",
        -9.49550769250472
      ],
      [
        "Ġworth",
        -9.496123414951937
      ],
      [
        "ĠAmerica",
        -9.49621389449185
      ],
      [
        "Ġencourage",
        -9.497589220752763
      ],
      [
        "Ġpretty",
        -9.49760192700367
      ],
      [
        "Ġemission",
        -9.497615809134375
      ],
      [
        "Ġmen",
        -9.49764970514622
      ],
      [
        "ĠWhy",
        -9.498591094038424
      ],
      [
        "Ġplatform",
        -9.500292191107976
      ],
      [
        "Ġ+",
        -9.501944530361731
      ],
      [
        "âĢ¢",
        -9.504260694483351
      ],
      [
        "head",
        -9.505773460087545
      ],
      [
        "Ġimages",
        -9.505978435133322
      ],
      [
        "Ġdecision",
        -9.50732735866352
      ],
      [
        "Ġteeth",
        -9.508250339950436
      ],
      [
        "Ġmeasurement",
        -9.5087458030819
      ],
      [
        "companie",
        -9.512539915477904
      ],
      [
        "Ġhair",
        -9.512581600419464
      ],
      [
        "Ġorganic",
        -9.513453898319948
      ],
      [
        "Ġdate",
        -9.513729402397962
      ],
      [
        "Ġdocument",
        -9.51433117927712
      ],
      [
        "water",
        -9.514615794572451
      ],
      [
        "Ġobject",
        -9.515025464548916
      ],
      [
        "ĠDe",
        -9.51528339127637
      ],
      [
        "While",
        -9.515310668880575
      ],
      [
        "Ġrich",
        -9.516329523931656
      ],
      [
        "Ġelectronic",
        -9.516681846535926
      ],
      [
        "By",
        -9.517909968417955
      ],
      [
        "Ġcareful",
        -9.519502013510218
      ],
      [
        "Ġnothing",
        -9.519621195380063
      ],
      [
        "Ġpump",
        -9.5211473882975
      ],
      [
        "ware",
        -9.52161901771698
      ],
      [
        "Ġcarry",
        -9.522576645384936
      ],
      [
        "Ġedge",
        -9.526036098976071
      ],
      [
        "care",
        -9.52609732218647
      ],
      [
        "Using",
        -9.526128893145462
      ],
      [
        "ble",
        -9.526397510758628
      ],
      [
        "Ġnumbers",
        -9.527015207892198
      ],
      [
        "qu",
        -9.527332229629629
      ],
      [
        "Ġhost",
        -9.527959882086382
      ],
      [
        "ĠAl",
        -9.528607024727451
      ],
      [
        "Ġcleaning",
        -9.52951749157362
      ],
      [
        "Ġversion",
        -9.53426332846972
      ],
      [
        "Ġbeautiful",
        -9.53431039492893
      ],
      [
        "Ġbone",
        -9.534417893817992
      ],
      [
        "Ġfabric",
        -9.534445515097431
      ],
      [
        "Ġvisual",
        -9.534504882662596
      ],
      [
        "Ġsuitabl",
        -9.535388620312846
      ],
      [
        "air",
        -9.5354760092626
      ],
      [
        "Ġfemale",
        -9.535686057767176
      ],
      [
        "Ġgeneration",
        -9.536098052515522
      ],
      [
        "ĠLa",
        -9.536278746187
      ],
      [
        "Ġprograms",
        -9.53634025177017
      ],
      [
        "Ġplann",
        -9.538154759543804
      ],
      [
        "ĠOur",
        -9.538421125916544
      ],
      [
        "Ġexcellen",
        -9.538733565866169
      ],
      [
        "our",
        -9.540218937340583
      ],
      [
        "Ġcrop",
        -9.540557573974915
      ],
      [
        "Ġadjust",
        -9.540657919356033
      ],
      [
        "ĠWar",
        -9.540962883257858
      ],
      [
        "he",
        -9.54185859388264
      ],
      [
        "per",
        -9.542248589272887
      ],
      [
        "Ġrefer",
        -9.542661026344234
      ],
      [
        "side",
        -9.542681518152232
      ],
      [
        "Ġvary",
        -9.543276214137062
      ],
      [
        "Ġconstruction",
        -9.543499498575391
      ],
      [
        "Ġpush",
        -9.545376113957264
      ],
      [
        "Ġchang",
        -9.545770333288266
      ],
      [
        "Ġwave",
        -9.546744331189029
      ],
      [
        "Ġprocedure",
        -9.547599622377245
      ],
      [
        "Ġshift",
        -9.5478202831978
      ],
      [
        "came",
        -9.54880586000344
      ],
      [
        "ĠAls",
        -9.549022032978838
      ],
      [
        "ĠWho",
        -9.549144296074386
      ],
      [
        "Ġpurchase",
        -9.549433990269144
      ],
      [
        "ng",
        -9.551630096330609
      ],
      [
        "Ġphotograph",
        -9.55165746598484
      ],
      [
        "Ġtable",
        -9.552331939699872
      ],
      [
        "went",
        -9.552649802475289
      ],
      [
        "Ġbrown",
        -9.555161002179643
      ],
      [
        "Ġfrequenc",
        -9.55553514638138
      ],
      [
        "Ġaccurate",
        -9.555681804408396
      ],
      [
        "Ġbox",
        -9.558531827151292
      ],
      [
        "Ġsmooth",
        -9.559250074460014
      ],
      [
        "Ġadapt",
        -9.559689064686928
      ],
      [
        "ĠNorth",
        -9.56041896082978
      ],
      [
        "Ġmoment",
        -9.561290157202382
      ],
      [
        "Ġextract",
        -9.562704195212168
      ],
      [
        "Ġfeeding",
        -9.56399668502129
      ],
      [
        "Ġstar",
        -9.56415181462386
      ],
      [
        "Ġheavy",
        -9.566690702825545
      ],
      [
        "ke",
        -9.567325760252194
      ],
      [
        "âĢĿ",
        -9.567453438781731
      ],
      [
        "Ġsustainabl",
        -9.567496931099624
      ],
      [
        "ĠâĢ¦",
        -9.567859955970428
      ],
      [
        "Ġstring",
        -9.568377883294769
      ],
      [
        "ide",
        -9.568712936799894
      ],
      [
        "Do",
        -9.56890744786553
      ],
      [
        "Ġsolid",
        -9.570506301945526
      ],
      [
        "Ġalternative",
        -9.570818020715857
      ],
      [
        "Ġsensor",
        -9.574318123773208
      ],
      [
        "Ġbathroom",
        -9.574731063439929
      ],
      [
        "Ġboard",
        -9.574962636978404
      ],
      [
        "ĠAdditional",
        -9.575730349824438
      ],
      [
        "ative",
        -9.576138816348973
      ],
      [
        "Ġconnected",
        -9.57624176283043
      ],
      [
        "Ġensur",
        -9.576887838612487
      ],
      [
        "Ġstone",
        -9.577208075483007
      ],
      [
        "Ġload",
        -9.577515717481148
      ],
      [
        "Ġobjects",
        -9.577595410979626
      ],
      [
        "ĠHa",
        -9.578157591082476
      ],
      [
        "ese",
        -9.57997168957738
      ],
      [
        "Ġbike",
        -9.581131977053452
      ],
      [
        "Ġbaby",
        -9.581509802085474
      ],
      [
        "Ġprinciple",
        -9.582006297396818
      ],
      [
        "ĠOf",
        -9.582708946726086
      ],
      [
        "Ġmotor",
        -9.583014222190585
      ],
      [
        "Ġvision",
        -9.583189896646749
      ],
      [
        "Ġcolour",
        -9.584066983010835
      ],
      [
        "Ġpromote",
        -9.585071152018989
      ],
      [
        "fish",
        -9.585365538782089
      ],
      [
        "Ġpull",
        -9.5861958658254
      ],
      [
        "Ġresistance",
        -9.586397038092574
      ],
      [
        "Ġsort",
        -9.58654244980859
      ],
      [
        "Ġeconomic",
        -9.586626138909237
      ],
      [
        "Ġrare",
        -9.586662535674725
      ],
      [
        "Ġvalues",
        -9.587581903610712
      ],
      [
        "Ġsnow",
        -9.58872182162077
      ],
      [
        "ĠNot",
        -9.592080235216512
      ],
      [
        "ĠSaudi",
        -9.592231911021532
      ],
      [
        "-term",
        -9.59303471454112
      ],
      [
        "Ġspin",
        -9.59335756737578
      ],
      [
        "Ġteaching",
        -9.593431547625372
      ],
      [
        "Ġfile",
        -9.595479623382216
      ],
      [
        "Ġcame",
        -9.595700455760523
      ],
      [
        "Ġsevere",
        -9.595938052452151
      ],
      [
        "Ġcommand",
        -9.597969045398871
      ],
      [
        "Ġcup",
        -9.598337631087016
      ],
      [
        "Ġaid",
        -9.59967792022106
      ],
      [
        "Ġwire",
        -9.599959875268732
      ],
      [
        "Ġthousand",
        -9.600243344039113
      ],
      [
        "Ġhole",
        -9.60180707527032
      ],
      [
        "Ġexpens",
        -9.602320943550026
      ],
      [
        "Ġpick",
        -9.602333582336922
      ],
      [
        "Ġprint",
        -9.602600231028743
      ],
      [
        "Ġforward",
        -9.60326874437454
      ],
      [
        "ritten",
        -9.60461655171622
      ],
      [
        "Ġwait",
        -9.607409462644103
      ],
      [
        "With",
        -9.607862243034894
      ],
      [
        "Ġinteraction",
        -9.60797938296842
      ],
      [
        "aught",
        -9.60948333960082
      ],
      [
        "Ġpowerful",
        -9.610484849721368
      ],
      [
        "ize",
        -9.611564705140571
      ],
      [
        "Ġcausing",
        -9.611823954771175
      ],
      [
        "Ġreveal",
        -9.612066984475629
      ],
      [
        "Ġnoise",
        -9.612102325799228
      ],
      [
        "Ġpath",
        -9.612897884107593
      ],
      [
        "Ġcon",
        -9.61395412832938
      ],
      [
        "Ġconsist",
        -9.615048924413149
      ],
      [
        "Ġadding",
        -9.615488014343718
      ],
      [
        "Ġrain",
        -9.615579274411768
      ],
      [
        "Ġrecognize",
        -9.617493124093818
      ],
      [
        "Ġpicture",
        -9.618327957318966
      ],
      [
        "Ġvaluable",
        -9.61894279327898
      ],
      [
        "Ġconvert",
        -9.619225772065162
      ],
      [
        "ĠZ",
        -9.619728819062455
      ],
      [
        "Ġroad",
        -9.620544922977702
      ],
      [
        "Ġfiber",
        -9.620952952859428
      ],
      [
        "Ġflat",
        -9.622574585166584
      ],
      [
        "Ġreference",
        -9.623406799749803
      ],
      [
        "giving",
        -9.62403695827838
      ],
      [
        "ible",
        -9.62618950681152
      ],
      [
        "Ġwrong",
        -9.626435594416954
      ],
      [
        "Ġinsight",
        -9.626928027911973
      ],
      [
        "Ġopening",
        -9.62753621230025
      ],
      [
        "Ġrecover",
        -9.62897004528855
      ],
      [
        "Ġtesting",
        -9.630046143635695
      ],
      [
        "Ġoxygen",
        -9.630199792300775
      ],
      [
        "Ġhappens",
        -9.630352758769074
      ],
      [
        "These",
        -9.631254398331794
      ],
      [
        "Ġmechanism",
        -9.631296022153506
      ],
      [
        "ĠCenter",
        -9.631373309975675
      ],
      [
        "Ġready",
        -9.631885390328494
      ],
      [
        "Ġcooking",
        -9.63516482215026
      ],
      [
        "que",
        -9.635386403180153
      ],
      [
        "Ġflavor",
        -9.635604574530344
      ],
      [
        "Ġstand",
        -9.635849597082448
      ],
      [
        "we",
        -9.635867976051324
      ],
      [
        "Ġinternational",
        -9.636136120527215
      ],
      [
        "Ġrepair",
        -9.636149327374136
      ],
      [
        "Ġinfection",
        -9.63620991801442
      ],
      [
        "Ġdefine",
        -9.636836822799308
      ],
      [
        "Ġadult",
        -9.637289988380545
      ],
      [
        "Ġstick",
        -9.637495024078586
      ],
      [
        "Ġinstance",
        -9.638578063650352
      ],
      [
        "Ġcutting",
        -9.638720981488506
      ],
      [
        "Now",
        -9.638948468474249
      ],
      [
        "Ġrise",
        -9.639575639503978
      ],
      [
        "Ġmuscle",
        -9.641235071465522
      ],
      [
        "Ġwar",
        -9.64272701590656
      ],
      [
        "lost",
        -9.643717720607205
      ],
      [
        "Ġreflect",
        -9.643790716934175
      ],
      [
        "Ġround",
        -9.645318746309176
      ],
      [
        "ĠNow",
        -9.646186521448854
      ],
      [
        "Ġpractices",
        -9.647797020675569
      ],
      [
        "...ĊĊ",
        -9.647902646259343
      ],
      [
        "Ġthird",
        -9.648389259267912
      ],
      [
        "Ġexpand",
        -9.648452679137796
      ],
      [
        "Ġcoast",
        -9.64847419080857
      ],
      [
        "Ġled",
        -9.648649904421944
      ],
      [
        ".com",
        -9.649243721386895
      ],
      [
        "Ġphone",
        -9.65002243651669
      ],
      [
        "Ġphoto",
        -9.650652557724491
      ],
      [
        "ĠEach",
        -9.651406626740744
      ],
      [
        "Ġmatch",
        -9.652125776415977
      ],
      [
        "ect",
        -9.653245563614355
      ],
      [
        "Ġmouth",
        -9.653492012152874
      ],
      [
        "Ġmiddle",
        -9.65681822660106
      ],
      [
        "Ġnest",
        -9.658724492002976
      ],
      [
        "Ġcollection",
        -9.659303683331752
      ],
      [
        "Ġexpress",
        -9.66007472067768
      ],
      [
        "Ġapp",
        -9.66036354016375
      ],
      [
        "Ġoccurs",
        -9.661150161480135
      ],
      [
        "Step",
        -9.662987922923673
      ],
      [
        "Ġthus",
        -9.66337716862925
      ],
      [
        "Ġbright",
        -9.663410304999394
      ],
      [
        "Ġlesson",
        -9.66475338769918
      ],
      [
        "Ġegg",
        -9.665395428415394
      ],
      [
        "$",
        -9.665913046266503
      ],
      [
        "-up",
        -9.66597060873774
      ],
      [
        "ĠâĢľ",
        -9.666028016300915
      ],
      [
        "Ġphase",
        -9.66727677086472
      ],
      [
        "Ġvia",
        -9.667496146449754
      ],
      [
        "Ġbasi",
        -9.66787107006865
      ],
      [
        "Ġnational",
        -9.667937112242443
      ],
      [
        "Ġwonder",
        -9.668199957392414
      ],
      [
        "Ġvirus",
        -9.668437097807596
      ],
      [
        "Ġbackground",
        -9.668500481850185
      ],
      [
        "ĠFirst",
        -9.669683951098865
      ],
      [
        "gen",
        -9.669729588084651
      ],
      [
        "Ġeducational",
        -9.670815418320512
      ],
      [
        "haps",
        -9.670895505119322
      ],
      [
        "Ġthermal",
        -9.672428554093024
      ],
      [
        "ak",
        -9.67263170090636
      ],
      [
        "Ġocean",
        -9.672802821828906
      ],
      [
        "Ġflight",
        -9.672964280013597
      ],
      [
        "Ġcentury",
        -9.673826394309687
      ],
      [
        "Ġsecurity",
        -9.674893984967518
      ],
      [
        "ER",
        -9.67510672782911
      ],
      [
        "Ġorganism",
        -9.675952175845042
      ],
      [
        "Ġdepth",
        -9.67720698994235
      ],
      [
        "Ġgold",
        -9.678062790990966
      ],
      [
        "Ġaffected",
        -9.678471023812309
      ],
      [
        "Ġfloor",
        -9.679999541051243
      ],
      [
        "Ġconsistent",
        -9.681117292076635
      ],
      [
        "Ġdental",
        -9.681193368293265
      ],
      [
        "Ġframe",
        -9.6826630896744
      ],
      [
        "Ġjoin",
        -9.683258008471636
      ],
      [
        "Ġcompound",
        -9.683524804273851
      ],
      [
        "ka",
        -9.683816920870711
      ],
      [
        "Ġspeak",
        -9.684304378714724
      ],
      [
        "end",
        -9.6845488960882
      ],
      [
        "Ġadvi",
        -9.684773749787452
      ],
      [
        "time",
        -9.68525149878083
      ],
      [
        "Ġiron",
        -9.685304655770544
      ],
      [
        "%)",
        -9.68541556372594
      ],
      [
        "ĠAccording",
        -9.687441834495278
      ],
      [
        "And",
        -9.687513058029364
      ],
      [
        "Ġsend",
        -9.687667143097844
      ],
      [
        "Ġreaction",
        -9.68833450505701
      ],
      [
        "inches",
        -9.688479991566982
      ],
      [
        "diabetes",
        -9.691215066039645
      ],
      [
        "ĠInstitute",
        -9.691216303385922
      ],
      [
        "Ġmessage",
        -9.69157304220548
      ],
      [
        "Ġfoot",
        -9.69374305956193
      ],
      [
        "Ġletter",
        -9.693787578974067
      ],
      [
        "Ġconsumption",
        -9.693799695805046
      ],
      [
        "Ġmedicine",
        -9.694384774881918
      ],
      [
        "life",
        -9.695645839979418
      ],
      [
        "Ġbag",
        -9.69636912485469
      ],
      [
        "Ġflea",
        -9.69637681407912
      ],
      [
        "Ġgreenhouse",
        -9.696438557327806
      ],
      [
        "ious",
        -9.696594790325737
      ],
      [
        "Ġtexture",
        -9.696637581233258
      ],
      [
        "Ġelement",
        -9.696991767086196
      ],
      [
        "Ġjournal",
        -9.697269643375904
      ],
      [
        "Ġtrain",
        -9.697758564984609
      ],
      [
        "Ġvital",
        -9.69897970681146
      ],
      [
        "ping",
        -9.699041663287982
      ],
      [
        "work",
        -9.700712791560685
      ],
      [
        "Ġcoming",
        -9.701314473650068
      ],
      [
        "Ġimprov",
        -9.704343787860964
      ],
      [
        "Ġdetermin",
        -9.704516762349163
      ],
      [
        "Ġreported",
        -9.704712189651296
      ],
      [
        "Ġintroduce",
        -9.705525534186512
      ],
      [
        "iv",
        -9.708401839531264
      ],
      [
        "ĠAre",
        -9.708519406454656
      ],
      [
        "Ġcoat",
        -9.709278848215382
      ],
      [
        "Ġdrawing",
        -9.7093629769051
      ],
      [
        "ure",
        -9.71009570366448
      ],
      [
        "ities",
        -9.710988825494322
      ],
      [
        "Ġmid",
        -9.711390926208008
      ],
      [
        "Ġfriends",
        -9.71176351721152
      ],
      [
        "ĠWater",
        -9.713510190745884
      ],
      [
        "ating",
        -9.71358774207831
      ],
      [
        "Some",
        -9.71364957070138
      ],
      [
        "ĠThei",
        -9.715852971268898
      ],
      [
        "Ġdrain",
        -9.717362080079868
      ],
      [
        "Ġfluid",
        -9.718089213020091
      ],
      [
        "Ġsell",
        -9.71844657699912
      ],
      [
        "Ġappearance",
        -9.718875590187238
      ],
      [
        "ang",
        -9.721179838258283
      ],
      [
        "Ġplate",
        -9.72125004863431
      ],
      [
        "Ġcontext",
        -9.723740175790349
      ],
      [
        "Ġbirth",
        -9.72486157650566
      ],
      [
        "held",
        -9.725329300070207
      ],
      [
        "Ġproperty",
        -9.725338304147783
      ],
      [
        "ĠOther",
        -9.725407964752003
      ],
      [
        "Ġca",
        -9.72693835915755
      ],
      [
        "Ġalgorithm",
        -9.727916410201573
      ],
      [
        "Ġhands",
        -9.728319533219391
      ],
      [
        "Ġpresen",
        -9.7283658686556
      ],
      [
        "Ġdur",
        -9.728887758735784
      ],
      [
        "Ġdouble",
        -9.729583778124464
      ],
      [
        "Ġmember",
        -9.729615440432642
      ],
      [
        "efore",
        -9.729906845109817
      ],
      [
        "Ġerror",
        -9.73017117658919
      ],
      [
        "let",
        -9.730850533593866
      ],
      [
        "ĠCa",
        -9.7312754611554
      ],
      [
        "low",
        -9.731988913498355
      ],
      [
        "Ġvoltage",
        -9.73330770216594
      ],
      [
        "Ġexpression",
        -9.733577762539817
      ],
      [
        "tion",
        -9.73445761725511
      ],
      [
        "Ġattach",
        -9.734799113676797
      ],
      [
        "Ġforest",
        -9.734804484634504
      ],
      [
        "Ġdriv",
        -9.735535291121108
      ],
      [
        "Ġangle",
        -9.73562134090228
      ],
      [
        "ĠUn",
        -9.737170694282682
      ],
      [
        "uc",
        -9.737779191562383
      ],
      [
        "Ġseat",
        -9.739407010617938
      ],
      [
        "Ġcomment",
        -9.739435629910432
      ],
      [
        "Ġmother",
        -9.739669867049829
      ],
      [
        "Ġcore",
        -9.741036709404431
      ],
      [
        "Ġstock",
        -9.741158896594438
      ],
      [
        "Ġlink",
        -9.742117069501967
      ],
      [
        "-in",
        -9.742391800248342
      ],
      [
        "Ġlose",
        -9.743450364140006
      ],
      [
        "Ġfavorite",
        -9.744120817365516
      ],
      [
        "Ġestimate",
        -9.74494808794299
      ],
      [
        "ley",
        -9.746072460555098
      ],
      [
        "Ġprefer",
        -9.746828073915797
      ],
      [
        "ner",
        -9.747971781149976
      ],
      [
        "Ġfamili",
        -9.749042093331513
      ],
      [
        "Ġmanufactur",
        -9.749968336304844
      ],
      [
        "Ġinteresting",
        -9.752753692134617
      ],
      [
        "ward",
        -9.753401600840409
      ],
      [
        "Ġport",
        -9.753529025294691
      ],
      [
        "Ġ#",
        -9.754953579407369
      ],
      [
        "Ġtechnologies",
        -9.75498164528802
      ],
      [
        "Ġmeaning",
        -9.755808960501708
      ],
      [
        "way",
        -9.756230666584214
      ],
      [
        "Ġbar",
        -9.756530599448364
      ],
      [
        "Ġhearing",
        -9.75677176168462
      ],
      [
        "Whether",
        -9.756831373810844
      ],
      [
        "Ġabsorb",
        -9.757094412069367
      ],
      [
        "Ġdiscuss",
        -9.757118320713074
      ],
      [
        "Ġjourney",
        -9.757728898921702
      ],
      [
        "Ġbeginning",
        -9.760550835901832
      ],
      [
        "Ġpreference",
        -9.76059672526776
      ],
      [
        "ĠEnglish",
        -9.760985336542648
      ],
      [
        "ph",
        -9.76382133936991
      ],
      [
        "Ġsaw",
        -9.763947137086376
      ],
      [
        "Ġinvestment",
        -9.766241051823611
      ],
      [
        "Ġadults",
        -9.766920896420292
      ],
      [
        "board",
        -9.767970936279673
      ],
      [
        "che",
        -9.770233238335011
      ],
      [
        "Ġsuper",
        -9.77091895849927
      ],
      [
        "Ġimplement",
        -9.771140143305503
      ],
      [
        "Ġtransition",
        -9.771659966219168
      ],
      [
        "Ġpro",
        -9.771977147793487
      ],
      [
        "ĠIndia",
        -9.77400204690904
      ],
      [
        "older",
        -9.774427719760016
      ],
      [
        "Ġoutcome",
        -9.774740738453508
      ],
      [
        "Ġpassage",
        -9.77478746763
      ],
      [
        "Ġwash",
        -9.775350992996298
      ],
      [
        "body",
        -9.777557263812673
      ],
      [
        "Ġfight",
        -9.778461821655792
      ],
      [
        "Ġplanet",
        -9.778711770227108
      ],
      [
        "Ġchain",
        -9.778983436889812
      ],
      [
        "Ġinter",
        -9.779360961000624
      ],
      [
        "Ġsurrounding",
        -9.78009049913569
      ],
      [
        "Ġdistribution",
        -9.780201334536176
      ],
      [
        "anyone",
        -9.780421030220388
      ],
      [
        "Ġstation",
        -9.780427184213398
      ],
      [
        "Ġhuge",
        -9.780548531250082
      ],
      [
        "ĠAfrica",
        -9.780982120273483
      ],
      [
        "Ġprogress",
        -9.781803004859324
      ],
      [
        "Ġcrack",
        -9.782828868603564
      ],
      [
        "fer",
        -9.782869230538855
      ],
      [
        "Ġchicken",
        -9.782876217088315
      ],
      [
        "Ġupper",
        -9.783281534766754
      ],
      [
        "ĠHigh",
        -9.785621684580097
      ],
      [
        "Ġtrigger",
        -9.78563819912789
      ],
      [
        "Ġweb",
        -9.785774517021103
      ],
      [
        "-like",
        -9.786697299448573
      ],
      [
        "Ġcompost",
        -9.7867367682454
      ],
      [
        "Ġmoistur",
        -9.78718006832098
      ],
      [
        "ĠBo",
        -9.78733046648685
      ],
      [
        "Ġgrass",
        -9.78747039794719
      ],
      [
        "Ġpractical",
        -9.787684698076712
      ],
      [
        "Ġclient",
        -9.788473303985157
      ],
      [
        "Here",
        -9.788638207643698
      ],
      [
        "Z",
        -9.789955543009563
      ],
      [
        "Ġtri",
        -9.790009809867447
      ],
      [
        "Ġconcentration",
        -9.791300042978142
      ],
      [
        "No",
        -9.79162394736705
      ],
      [
        "Ġcomfortabl",
        -9.79191449248873
      ],
      [
        "ĠMake",
        -9.792293745318082
      ],
      [
        "tro",
        -9.792318145199072
      ],
      [
        "Ġratio",
        -9.793448153114204
      ],
      [
        "Ġmarine",
        -9.793771587725145
      ],
      [
        "Ġpress",
        -9.79425538142549
      ],
      [
        "Ġlaw",
        -9.795152017438443
      ],
      [
        "Ġcontroll",
        -9.795616011635367
      ],
      [
        "ĠGo",
        -9.795955177722888
      ],
      [
        "Ġreferr",
        -9.796367964464828
      ],
      [
        "Ġextremely",
        -9.796574583585866
      ],
      [
        "Ġbegan",
        -9.796608407732434
      ],
      [
        "Ġcombine",
        -9.79694918817112
      ],
      [
        "Ġdirt",
        -9.797037542347372
      ],
      [
        "Ġhit",
        -9.797626281366682
      ],
      [
        "Ġartist",
        -9.798129422329172
      ],
      [
        "Ġma",
        -9.798720632987632
      ],
      [
        "Ġcomfort",
        -9.799249218392404
      ],
      [
        "ĠNOT",
        -9.799770249031262
      ],
      [
        "Ġdiamond",
        -9.7998700375289
      ],
      [
        "Ġheight",
        -9.799916032934
      ],
      [
        "Ġmicro",
        -9.800541293051795
      ],
      [
        "Ġtherefor",
        -9.80095765191266
      ],
      [
        "Ġemploy",
        -9.801168742621645
      ],
      [
        "ification",
        -9.801284806739046
      ],
      [
        "About",
        -9.801695326877798
      ],
      [
        "ĠGerman",
        -9.801749182517607
      ],
      [
        "Ġengage",
        -9.802447019659787
      ],
      [
        "ĠPro",
        -9.803215525987394
      ],
      [
        "Ġprivate",
        -9.803316920863802
      ],
      [
        "Ġobserve",
        -9.805065278810076
      ],
      [
        "Ġten",
        -9.805777366321138
      ],
      [
        "Ġball",
        -9.806588194652496
      ],
      [
        "Ġcamp",
        -9.807519709441904
      ],
      [
        "ler",
        -9.80831840724738
      ],
      [
        "men",
        -9.808697184036042
      ],
      [
        "Ġmiles",
        -9.81218985105408
      ],
      [
        "ĠEven",
        -9.812443834871884
      ],
      [
        "Ġorange",
        -9.813369516769768
      ],
      [
        "Ġhapp",
        -9.81603888440968
      ],
      [
        "Ġhorse",
        -9.817121478232222
      ],
      [
        "Ġthread",
        -9.817242318549267
      ],
      [
        "Ġmin",
        -9.818979159229858
      ],
      [
        "Ġsolutions",
        -9.81996200605213
      ],
      [
        "Ġsurger",
        -9.82084848002279
      ],
      [
        "Ġroof",
        -9.821754148156014
      ],
      [
        "ĠLe",
        -9.82235114317563
      ],
      [
        "ĠUK",
        -9.822920664001174
      ],
      [
        "Ġmedium",
        -9.823450045540364
      ],
      [
        "Ġbi",
        -9.823489188962164
      ],
      [
        "Ġaren",
        -9.824495593421425
      ],
      [
        "Ġtube",
        -9.824703993334852
      ],
      [
        "ions",
        -9.824739194042586
      ],
      [
        "Our",
        -9.824873519780937
      ],
      [
        "Ġdesire",
        -9.82495821653622
      ],
      [
        "ow",
        -9.825044588551046
      ],
      [
        "Ġexposure",
        -9.826062390469511
      ],
      [
        "ĠOver",
        -9.826114310889563
      ],
      [
        "Ġmanufacturer",
        -9.82678104664746
      ],
      [
        "Ġonto",
        -9.826938254189496
      ],
      [
        "Ġvi",
        -9.827388579217772
      ],
      [
        "are",
        -9.827862001517246
      ],
      [
        "tiny",
        -9.83020874250135
      ],
      [
        "ĠTherefor",
        -9.832824895647487
      ],
      [
        "Ġstates",
        -9.833191537672622
      ],
      [
        "Ġconsumer",
        -9.833997480865088
      ],
      [
        "Ġdivers",
        -9.834084520899468
      ],
      [
        "aging",
        -9.83483518662748
      ],
      [
        "Ġsteel",
        -9.834913156190796
      ],
      [
        "Ġattempt",
        -9.83491366613503
      ],
      [
        "Ġfinancial",
        -9.835412363274212
      ],
      [
        "Ġsymbol",
        -9.835544465252376
      ],
      [
        "Ġraw",
        -9.835853398456742
      ],
      [
        "ight",
        -9.837265913115925
      ],
      [
        "Ġsuit",
        -9.837296776460237
      ],
      [
        "ĠLet",
        -9.837606224554932
      ],
      [
        "Ġharvest",
        -9.83788620701998
      ],
      [
        "Ġboat",
        -9.838055724187129
      ],
      [
        "Ġbodie",
        -9.83809248509252
      ],
      [
        "ile",
        -9.838442583345053
      ],
      [
        "Ġmotion",
        -9.839201507517672
      ],
      [
        "Ġbillion",
        -9.839385711967823
      ],
      [
        "Ġchannel",
        -9.839397267540589
      ],
      [
        "ĠJust",
        -9.839884859119676
      ],
      [
        "Ġcatch",
        -9.840048036822534
      ],
      [
        "Ġsecure",
        -9.840094417888809
      ],
      [
        "Ġinternal",
        -9.840883732026384
      ],
      [
        "Ġdriver",
        -9.840975426918654
      ],
      [
        "Ġrace",
        -9.841418721337035
      ],
      [
        "Ġdemonstrate",
        -9.841452293101147
      ],
      [
        "Ġriver",
        -9.841605315604989
      ],
      [
        "Ġcommercial",
        -9.84386574201821
      ],
      [
        "Ġlens",
        -9.844200086152082
      ],
      [
        "min",
        -9.84557327229733
      ],
      [
        "Ġlocate",
        -9.846229471497717
      ],
      [
        "Ġregulation",
        -9.846765966856584
      ],
      [
        "bl",
        -9.84683079582067
      ],
      [
        "Ġremov",
        -9.848129144676507
      ],
      [
        "Ġsheet",
        -9.849950051517784
      ],
      [
        "Ġgrain",
        -9.850207606682911
      ],
      [
        "wide",
        -9.850641549912284
      ],
      [
        "Ġplease",
        -9.851078131477724
      ],
      [
        "Ġidentified",
        -9.851613764216433
      ],
      [
        "Ġbio",
        -9.852580699323312
      ],
      [
        "Ġbudget",
        -9.852910045683595
      ],
      [
        "Ġpool",
        -9.853041552771485
      ],
      [
        "bi",
        -9.853658938951927
      ],
      [
        "Ġthin",
        -9.85445461460947
      ],
      [
        "ĠDesign",
        -9.855265525496613
      ],
      [
        "ĠAir",
        -9.855410353788065
      ],
      [
        "Ġessay",
        -9.855933263094022
      ],
      [
        "Ġrecipe",
        -9.855947340581102
      ],
      [
        "Ġblog",
        -9.85605513605187
      ],
      [
        "Ġformula",
        -9.856483033607953
      ],
      [
        "ĠSea",
        -9.856944440407736
      ],
      [
        "Ġcapture",
        -9.857196683212631
      ],
      [
        "ĠRo",
        -9.857438544935274
      ],
      [
        "lin",
        -9.857857366601603
      ],
      [
        "ĠSince",
        -9.859888273053476
      ],
      [
        "ĠBlue",
        -9.86023773501002
      ],
      [
        "Ġgrade",
        -9.86209749399087
      ],
      [
        "Ġprogramm",
        -9.862161920152424
      ],
      [
        "ES",
        -9.86237484261633
      ],
      [
        "ĠLi",
        -9.862904371607762
      ],
      [
        "Ġannual",
        -9.866591983510023
      ],
      [
        "Ġhunt",
        -9.867167627441336
      ],
      [
        "Ġapproximate",
        -9.867672511542144
      ],
      [
        "Ġclinical",
        -9.868060390635335
      ],
      [
        "ĠEuropean",
        -9.86812947516356
      ],
      [
        "Ġmedication",
        -9.868147704089498
      ],
      [
        "They",
        -9.8684686420648
      ],
      [
        "Ġupdate",
        -9.86854083942332
      ],
      [
        "Ġsociet",
        -9.869029389838197
      ],
      [
        "ĠLos",
        -9.87019448134186
      ],
      [
        "Ġatmosphere",
        -9.871222865850758
      ],
      [
        "Ġtoilet",
        -9.87136823935125
      ],
      [
        "Ġancient",
        -9.871644785596091
      ],
      [
        "Ġalthough",
        -9.871999697960604
      ],
      [
        "-year",
        -9.872071226628831
      ],
      [
        "taken",
        -9.87220936928114
      ],
      [
        "ology",
        -9.874815726937026
      ],
      [
        "pe",
        -9.875557602072645
      ],
      [
        "Ġsession",
        -9.875647659584216
      ],
      [
        "After",
        -9.876898830254506
      ],
      [
        "Ġcomput",
        -9.877376258950031
      ],
      [
        "chi",
        -9.87837685332137
      ],
      [
        "Ġnative",
        -9.880591087566051
      ],
      [
        "Ġweld",
        -9.88080683008517
      ],
      [
        "Ġradio",
        -9.881273419247687
      ],
      [
        "Ġmiss",
        -9.881353173392604
      ],
      [
        "Ġdrink",
        -9.881859530566112
      ],
      [
        "Ġselection",
        -9.882035360335962
      ],
      [
        "Ġelectron",
        -9.882080079767618
      ],
      [
        "Ġdynamic",
        -9.882954659771563
      ],
      [
        "Ġpredict",
        -9.88319387675819
      ],
      [
        "Ġfail",
        -9.883574958301097
      ],
      [
        "Ġstuff",
        -9.88377310181578
      ],
      [
        "Ġdrop",
        -9.884418045656652
      ],
      [
        "Ġnumerous",
        -9.886750832716224
      ],
      [
        "Ġreliabl",
        -9.886864658890412
      ],
      [
        "ists",
        -9.88743056577642
      ],
      [
        "ĠMe",
        -9.888118731521274
      ],
      [
        "Ġgadget",
        -9.889885624697945
      ],
      [
        "ell",
        -9.890619032346724
      ],
      [
        "Ġsustain",
        -9.891766151101912
      ],
      [
        "Ġsquare",
        -9.891967920172938
      ],
      [
        "Ġ|",
        -9.892577332044509
      ],
      [
        "Ġsit",
        -9.892887898103602
      ],
      [
        "Ġearlier",
        -9.893426181080311
      ],
      [
        "Ġmechanical",
        -9.893427661334098
      ],
      [
        "properly",
        -9.895114850345468
      ],
      [
        "Ġskill",
        -9.896123980284417
      ],
      [
        "Ġpack",
        -9.897041508616098
      ],
      [
        "ĠCalifornia",
        -9.897540295848565
      ],
      [
        "Ġclimb",
        -9.89818289985043
      ],
      [
        "Ġassess",
        -9.89913508924474
      ],
      [
        "ĠPre",
        -9.90015347314053
      ],
      [
        "Ġmap",
        -9.90026816194304
      ],
      [
        "Ġassist",
        -9.900356432663704
      ],
      [
        "ĠGreat",
        -9.901398561164306
      ],
      [
        "Ġpollution",
        -9.902524035455606
      ],
      [
        "Ġclick",
        -9.902554520576787
      ],
      [
        "Ġmembrane",
        -9.903722705891578
      ],
      [
        "ĠYork",
        -9.904124643524208
      ],
      [
        "Ġcentral",
        -9.904540321318954
      ],
      [
        "mp",
        -9.90467033771938
      ],
      [
        "ru",
        -9.905006204428414
      ],
      [
        "Ġtransport",
        -9.905288669489956
      ],
      [
        "Ġdead",
        -9.905457017604022
      ],
      [
        "All",
        -9.905638085227965
      ],
      [
        "Ġdedicat",
        -9.90571755689002
      ],
      [
        "Ġmaximum",
        -9.905765606614256
      ],
      [
        "lip",
        -9.906386172188023
      ],
      [
        "Ġstatement",
        -9.907017163999823
      ],
      [
        "Ġrid",
        -9.908130977968709
      ],
      [
        "itis",
        -9.90842573379538
      ],
      [
        "Ġsupplement",
        -9.908919255397103
      ],
      [
        "Ġfailure",
        -9.908967410766198
      ],
      [
        "Ġmuscles",
        -9.909740207544
      ],
      [
        "Ġstain",
        -9.910672793225562
      ],
      [
        "ĠArt",
        -9.91143811871652
      ],
      [
        "AL",
        -9.911947071971204
      ],
      [
        "Ġassociat",
        -9.91211546707289
      ],
      [
        "Ġband",
        -9.91316809218117
      ],
      [
        "Ġroutine",
        -9.913235496195195
      ],
      [
        "dium",
        -9.914554939165187
      ],
      [
        "ĠWell",
        -9.91551642862501
      ],
      [
        "ĠDon",
        -9.916369446086328
      ],
      [
        "Ġroots",
        -9.917296691095942
      ],
      [
        "Ġfan",
        -9.91798661911466
      ],
      [
        "Ġpanels",
        -9.918496031700553
      ],
      [
        "Ġobvious",
        -9.918549983162242
      ],
      [
        "Ġsounds",
        -9.919527883646646
      ],
      [
        "Ġfriend",
        -9.92020939096789
      ],
      [
        "ĠCar",
        -9.921124300514204
      ],
      [
        "Ġlaunch",
        -9.921793272103866
      ],
      [
        "Are",
        -9.922737191302252
      ],
      [
        "Ġcheap",
        -9.923008668506345
      ],
      [
        "kin",
        -9.92390400576712
      ],
      [
        "Ġexhibit",
        -9.924194025995735
      ],
      [
        "Ġconsume",
        -9.924460520142205
      ],
      [
        "Ġstaff",
        -9.925037914708785
      ],
      [
        "ĠDec",
        -9.925219830866483
      ],
      [
        "Ġtransfer",
        -9.925427468887866
      ],
      [
        "Ġcreative",
        -9.926547617367955
      ],
      [
        "ĠTime",
        -9.92678930400819
      ],
      [
        "Ġindustrial",
        -9.928290316851813
      ],
      [
        "Ġsta",
        -9.930184008577708
      ],
      [
        "ĠDur",
        -9.930689069603323
      ],
      [
        "ĠArabia",
        -9.93246881557356
      ],
      [
        "wise",
        -9.933003161811818
      ],
      [
        "Ġindependent",
        -9.933644251712126
      ],
      [
        "Ġformat",
        -9.933839783134044
      ],
      [
        "Ġthick",
        -9.93404692627534
      ],
      [
        "Ġdie",
        -9.934295750342072
      ],
      [
        "ĠFrench",
        -9.935849198997806
      ],
      [
        "Ġstraight",
        -9.93812692958449
      ],
      [
        "Ġscene",
        -9.93833723828504
      ],
      [
        "Ġclasse",
        -9.938426410630942
      ],
      [
        "Ġvs",
        -9.938613284309495
      ],
      [
        "ĠDepartment",
        -9.938769143764464
      ],
      [
        "Ġgrown",
        -9.93899300278152
      ],
      [
        "ĠSp",
        -9.94087244356393
      ],
      [
        "Ġdetailed",
        -9.941373256732204
      ],
      [
        "Ġcoffee",
        -9.941426788203566
      ],
      [
        "Ġnice",
        -9.942569324160887
      ],
      [
        "ĠJohn",
        -9.94272547589663
      ],
      [
        "Ġsweet",
        -9.942824744677909
      ],
      [
        "ĠEx",
        -9.942950312360278
      ],
      [
        "ĠHave",
        -9.94432060774232
      ],
      [
        "ĠMan",
        -9.944327872682283
      ],
      [
        "ĠNe",
        -9.944580422441618
      ],
      [
        "Ġbottle",
        -9.944734289437804
      ],
      [
        "Ġaircraft",
        -9.944953048933783
      ],
      [
        "Ġfacilit",
        -9.945007944151712
      ],
      [
        "Ġcit",
        -9.94560701567086
      ],
      [
        "Ġfunctions",
        -9.947142195405949
      ],
      [
        "Ġtrial",
        -9.947156998579407
      ],
      [
        "ĠWork",
        -9.949035093883433
      ],
      [
        "Ġengineering",
        -9.949090056548094
      ],
      [
        "Ġcloth",
        -9.949170121396277
      ],
      [
        "Ġdecisions",
        -9.94949490920546
      ],
      [
        "Ġaware",
        -9.94981256693881
      ],
      [
        "Ġemergenc",
        -9.95040713993034
      ],
      [
        "val",
        -9.950849918634344
      ],
      [
        "Ġmo",
        -9.950883776679916
      ],
      [
        "Ġfashion",
        -9.951393635877409
      ],
      [
        "ach",
        -9.952346861964893
      ],
      [
        "Ġbroad",
        -9.954659534261438
      ],
      [
        "Ġgames",
        -9.955027034633911
      ],
      [
        "Ġrocks",
        -9.955277605539138
      ],
      [
        "Ġshell",
        -9.956425086579246
      ],
      [
        "pp",
        -9.95690269734865
      ],
      [
        "Ġdivide",
        -9.957713534317929
      ],
      [
        "Ġlisten",
        -9.958900239535648
      ],
      [
        "Ġmovie",
        -9.959538562499208
      ],
      [
        "That",
        -9.95994992120676
      ],
      [
        "ice",
        -9.959971873548088
      ],
      [
        "coming",
        -9.960016911330346
      ],
      [
        "Ġhelpful",
        -9.961010227960678
      ],
      [
        "Ġeventual",
        -9.96116850454438
      ],
      [
        "Ġseven",
        -9.9620029654781
      ],
      [
        "Ġchronic",
        -9.962221315237052
      ],
      [
        "Ġartificial",
        -9.962293989434247
      ],
      [
        "Ġfly",
        -9.963040575950682
      ],
      [
        "Ġprepare",
        -9.963716603489145
      ],
      [
        "Ġheal",
        -9.963730974209678
      ],
      [
        "Ġprepared",
        -9.963776838926
      ],
      [
        "Ġmold",
        -9.964950944181345
      ],
      [
        "Ġexamine",
        -9.965208045853885
      ],
      [
        "ĠBa",
        -9.965641797744016
      ],
      [
        "Ġcard",
        -9.965769735264798
      ],
      [
        "ham",
        -9.96618951815458
      ],
      [
        "Ġbreast",
        -9.96717190656831
      ],
      [
        "Ġpuppy",
        -9.96733702407833
      ],
      [
        "ĠEurope",
        -9.96780649257527
      ],
      [
        "Ġprecise",
        -9.968229040067689
      ],
      [
        "Ġconclusion",
        -9.968235306976208
      ],
      [
        "Ġcomprehensive",
        -9.968275862960638
      ],
      [
        "Ġmelt",
        -9.96833051735272
      ],
      [
        "Ġcultural",
        -9.970216561180102
      ],
      [
        "ze",
        -9.970915475289218
      ],
      [
        "ĠDay",
        -9.971046857146556
      ],
      [
        "Ġcreation",
        -9.97118175797782
      ],
      [
        "ĠIsrael",
        -9.971463212228407
      ],
      [
        "Ġcontrast",
        -9.971630423271352
      ],
      [
        "Ġwalls",
        -9.97246252224944
      ],
      [
        "Ġformation",
        -9.97273018592805
      ],
      [
        "Ġpan",
        -9.972873746470109
      ],
      [
        "Ġoptimal",
        -9.973082042138396
      ],
      [
        "ĠBlack",
        -9.97331556002547
      ],
      [
        "ĠJuly",
        -9.973703911147457
      ],
      [
        "ĠDoes",
        -9.973737855232338
      ],
      [
        "ki",
        -9.974659419009011
      ],
      [
        "Ġinterface",
        -9.9750501524138
      ],
      [
        "gar",
        -9.975217483927022
      ],
      [
        "Ġdesir",
        -9.976295636186045
      ],
      [
        "Ġanxiet",
        -9.977002758535685
      ],
      [
        "ĠMar",
        -9.977384299525808
      ],
      [
        "Ġextensive",
        -9.978482157064615
      ],
      [
        "Ġmaster",
        -9.97886305521758
      ],
      [
        "Ġvertical",
        -9.979423179595152
      ],
      [
        "Ġstories",
        -9.979619353389998
      ],
      [
        "Ġnamed",
        -9.97991343198778
      ],
      [
        "can",
        -9.980138964788347
      ],
      [
        "Ġeconom",
        -9.980501670922129
      ],
      [
        "ĠNa",
        -9.980944806399512
      ],
      [
        "Ġschedule",
        -9.98142870031959
      ],
      [
        "ĠAustralia",
        -9.981544132317556
      ],
      [
        "Ġnation",
        -9.981845288383663
      ],
      [
        "Ġborn",
        -9.98189378449764
      ],
      [
        "Ġsurvey",
        -9.981905286506656
      ],
      [
        "Ġindoor",
        -9.982094829530364
      ],
      [
        "Ġship",
        -9.982178606552193
      ],
      [
        "Ġdrug",
        -9.98325444395958
      ],
      [
        "Ġagree",
        -9.98515143245357
      ],
      [
        "Ġbooks",
        -9.985233428069671
      ],
      [
        "ility",
        -9.985364008007087
      ],
      [
        "net",
        -9.986075032716084
      ],
      [
        "Ġsubstance",
        -9.986150836591722
      ],
      [
        "ĠJune",
        -9.98785814236781
      ],
      [
        "pril",
        -9.988780268486366
      ],
      [
        "Ġfear",
        -9.988824626411423
      ],
      [
        "Ġhospital",
        -9.988838731016482
      ],
      [
        "Ġpark",
        -9.98935839473456
      ],
      [
        "Ġcable",
        -9.989421527967814
      ],
      [
        "Ġteach",
        -9.989734393596224
      ],
      [
        "ĠProgram",
        -9.991230943173996
      ],
      [
        "Ġallerg",
        -9.9919016232121
      ],
      [
        "ĠFood",
        -9.992215099911157
      ],
      [
        "Ġla",
        -9.99270269181484
      ],
      [
        "Ġrelevan",
        -9.993199085815355
      ],
      [
        "Ġhistorical",
        -9.99370321573674
      ],
      [
        "red",
        -9.993960751768991
      ],
      [
        "Ġdoor",
        -9.994509669221754
      ],
      [
        "Ġevolution",
        -9.99553014996746
      ],
      [
        "Ġultimate",
        -9.9957694670098
      ],
      [
        "Ġcontinuous",
        -9.995817965605593
      ],
      [
        "facing",
        -9.995899568086257
      ],
      [
        "Ġobjective",
        -9.996401435059363
      ],
      [
        "Ġhighlight",
        -9.997255804706947
      ],
      [
        "Ġsex",
        -9.99830519303159
      ],
      [
        "Ġobserv",
        -9.998589215969222
      ],
      [
        "ĠMo",
        -9.99892658017738
      ],
      [
        "Ġkitchen",
        -9.999266148031912
      ],
      [
        "Ġradiation",
        -9.99936026857019
      ],
      [
        "Ġexposed",
        -9.999535891869067
      ],
      [
        "oxide",
        -10.00222449910898
      ],
      [
        "Ġsurvive",
        -10.00279726290933
      ],
      [
        "tri",
        -10.003273959344805
      ],
      [
        "MS",
        -10.003498803973743
      ],
      [
        "Ġpound",
        -10.003841775742371
      ],
      [
        "ĠCon",
        -10.004282320346618
      ],
      [
        "Ġemotional",
        -10.004377785746238
      ],
      [
        "Ġdrugs",
        -10.004915323276888
      ],
      [
        "Ġtransform",
        -10.00574469242124
      ],
      [
        "Ġcredit",
        -10.006535461330294
      ],
      [
        "Ġoperate",
        -10.007853736428675
      ],
      [
        "Ġextreme",
        -10.008065264717644
      ],
      [
        "Ġoffice",
        -10.008712909488748
      ],
      [
        "Ġfoundation",
        -10.009971242978832
      ],
      [
        "ĠTa",
        -10.010918840787582
      ],
      [
        "Ġmeeting",
        -10.011275517060032
      ],
      [
        "Ġfix",
        -10.011402034864492
      ],
      [
        "Ġlabel",
        -10.012616540107846
      ],
      [
        "-b",
        -10.013105007433987
      ],
      [
        "Ġrespond",
        -10.013240068606104
      ],
      [
        "Ġbidet",
        -10.01337736496503
      ],
      [
        "Ġsolve",
        -10.013506286995508
      ],
      [
        "Ġtrust",
        -10.013657626219056
      ],
      [
        "].",
        -10.01428454345876
      ],
      [
        "Ġlitera",
        -10.014642149508314
      ],
      [
        "related",
        -10.01490975540963
      ],
      [
        "Ġhormone",
        -10.01693425596353
      ],
      [
        "Ġyield",
        -10.01693425624471
      ],
      [
        "Ġsmart",
        -10.016942412656784
      ],
      [
        "Ġsaving",
        -10.017421781471118
      ],
      [
        "Ġfarmer",
        -10.017470517727668
      ],
      [
        "Ġvirtual",
        -10.01762975661639
      ],
      [
        "ĠGa",
        -10.017679032979878
      ],
      [
        "Ġapparatus",
        -10.017722395315698
      ],
      [
        "Ġpipe",
        -10.019699497486547
      ],
      [
        "Ġthreat",
        -10.020054503651966
      ],
      [
        "Ġexternal",
        -10.020505689396035
      ],
      [
        "||",
        -10.020603171218347
      ],
      [
        "Ġpest",
        -10.022348277741234
      ],
      [
        "Ġbear",
        -10.02383765326287
      ],
      [
        "Ġbank",
        -10.02395380811056
      ],
      [
        "Ġopinion",
        -10.024090218040367
      ],
      [
        "Ġsmell",
        -10.024105081274053
      ],
      [
        "Ġdangerous",
        -10.024224468959233
      ],
      [
        "Ġsector",
        -10.024580956979776
      ],
      [
        "ene",
        -10.024848647026236
      ],
      [
        "Ġstrain",
        -10.02548690036932
      ],
      [
        "ĠSan",
        -10.0258952129034
      ],
      [
        "ĠHouse",
        -10.02650774929199
      ],
      [
        "off",
        -10.026521139703425
      ],
      [
        "uary",
        -10.028094807982416
      ],
      [
        "ĠY",
        -10.028302432964551
      ],
      [
        "-free",
        -10.028508519680416
      ],
      [
        "Ġtechnical",
        -10.028953182789946
      ],
      [
        "Ġinjury",
        -10.029020901804913
      ],
      [
        "ĠChina",
        -10.029312871633952
      ],
      [
        "Ġengineer",
        -10.031183440656594
      ],
      [
        "Ġpossibilit",
        -10.031297336437714
      ],
      [
        "weight",
        -10.031405697847708
      ],
      [
        "Pro",
        -10.031740397129903
      ],
      [
        "-quali",
        -10.031756274446014
      ],
      [
        "Ġpainting",
        -10.03191234496311
      ],
      [
        "Ġmission",
        -10.031943830896402
      ],
      [
        "Ġargument",
        -10.032515825048666
      ],
      [
        "Ġoccurr",
        -10.033365688075698
      ],
      [
        "Ġplent",
        -10.034969904142812
      ],
      [
        "Ġlab",
        -10.03541474333872
      ],
      [
        "ĠOnc",
        -10.03600072612844
      ],
      [
        "Ġsupplie",
        -10.036975383610416
      ],
      [
        "Ġoffering",
        -10.03763393724842
      ],
      [
        "Ġaudio",
        -10.038090349481774
      ],
      [
        "ĠEl",
        -10.03839420143362
      ],
      [
        "Ġcombin",
        -10.038475075236423
      ],
      [
        "{",
        -10.04012634695916
      ],
      [
        "Ġinvest",
        -10.041520988191582
      ],
      [
        "Ġrespect",
        -10.041667633445249
      ],
      [
        "Ġhousehold",
        -10.042402462934016
      ],
      [
        "Ġdensity",
        -10.042786447988323
      ],
      [
        "kept",
        -10.042887651436544
      ],
      [
        "Ġaccident",
        -10.043877760127708
      ],
      [
        "form",
        -10.044100853992909
      ],
      [
        "Ġlie",
        -10.044220131074317
      ],
      [
        "ily",
        -10.04434837168776
      ],
      [
        "Ġbeneficia",
        -10.045869339080111
      ],
      [
        "den",
        -10.046302419721918
      ],
      [
        "Ġchoos",
        -10.046459175029304
      ],
      [
        "Ġmagnetic",
        -10.046596114823306
      ],
      [
        "ĠSept",
        -10.047009134589684
      ],
      [
        "oid",
        -10.048822315775094
      ],
      [
        "ĠGod",
        -10.048856740980128
      ],
      [
        "Ġcheese",
        -10.049548274895876
      ],
      [
        "ĠPi",
        -10.049750014370591
      ],
      [
        "Ġoutdoor",
        -10.050533510063614
      ],
      [
        "Ġdiscussion",
        -10.050743826155465
      ],
      [
        "He",
        -10.050987945244502
      ],
      [
        "ĠWest",
        -10.051295197492797
      ],
      [
        "Ġroll",
        -10.052165592237388
      ],
      [
        "Ġadopt",
        -10.052617872916018
      ],
      [
        "right",
        -10.053059299846185
      ],
      [
        "cha",
        -10.054137701065642
      ],
      [
        "und",
        -10.05466983524131
      ],
      [
        "Ġlay",
        -10.05493624133207
      ],
      [
        "Ġlandscape",
        -10.056269131718755
      ],
      [
        "ĠInternational",
        -10.056943731237704
      ],
      [
        "Ġcareer",
        -10.057011829370271
      ],
      [
        "ĠRiver",
        -10.057054898398157
      ],
      [
        "ĠThu",
        -10.06037527462654
      ],
      [
        "ĠCount",
        -10.060496740125204
      ],
      [
        "Ġjump",
        -10.060658812382222
      ],
      [
        "ĠService",
        -10.06066057195007
      ],
      [
        "Ġdomain",
        -10.061018590054704
      ],
      [
        "ĠHo",
        -10.061321341752944
      ],
      [
        "Ġwindow",
        -10.062210194907852
      ],
      [
        "Ġmeal",
        -10.062239022681492
      ],
      [
        "Ġattend",
        -10.062700562355314
      ],
      [
        "Ġrough",
        -10.06301747872585
      ],
      [
        "Ġspeaker",
        -10.06350360456566
      ],
      [
        "Ġbutton",
        -10.064679759294918
      ],
      [
        "Ġtru",
        -10.065103055934042
      ],
      [
        "Ġhabitat",
        -10.066115417678937
      ],
      [
        "Ġisland",
        -10.066658375764264
      ],
      [
        "My",
        -10.066907499612013
      ],
      [
        "day",
        -10.066971105263471
      ],
      [
        "Ġintelligence",
        -10.068146949315697
      ],
      [
        "ural",
        -10.068462730999537
      ],
      [
        "ĠPhoto",
        -10.069214769768012
      ],
      [
        "ĠDog",
        -10.069343468858172
      ],
      [
        "Ġpen",
        -10.069718166367124
      ],
      [
        "ik",
        -10.069890993288809
      ],
      [
        "Ġvoice",
        -10.070843758665676
      ],
      [
        "Ġplane",
        -10.071059592703929
      ],
      [
        "Ġconservation",
        -10.071195710621666
      ],
      [
        "Ġparticipant",
        -10.071893078674629
      ],
      [
        "Ġpropose",
        -10.071944835673552
      ],
      [
        "Ġstatus",
        -10.072090651167647
      ],
      [
        "Ġexcessive",
        -10.072236467123687
      ],
      [
        "ĠClass",
        -10.073090418949697
      ],
      [
        "eath",
        -10.073737418389545
      ],
      [
        "ĠKeep",
        -10.073763589308852
      ],
      [
        "Ã©",
        -10.073862762373643
      ],
      [
        "Ġdecades",
        -10.07420572205751
      ],
      [
        "Ġreceiv",
        -10.07439758260239
      ],
      [
        "Ġchose",
        -10.07453373345964
      ],
      [
        "ÂŃ",
        -10.075673393229136
      ],
      [
        "Ġvariation",
        -10.075950585702095
      ],
      [
        "Ġacademic",
        -10.076005779776978
      ],
      [
        "ger",
        -10.07601297749418
      ],
      [
        "Ġtold",
        -10.076366971047207
      ],
      [
        "Ġmild",
        -10.076438033367369
      ],
      [
        "&",
        -10.076872490731336
      ],
      [
        "Ġsp",
        -10.076884009651897
      ],
      [
        "Ġbutter",
        -10.076942886514072
      ],
      [
        "ĠEvery",
        -10.07807065221986
      ],
      [
        "Ġseek",
        -10.079108800285695
      ],
      [
        "Ġhumid",
        -10.079455029591298
      ],
      [
        "Ġconfirm",
        -10.079464097255942
      ],
      [
        "Ġpercentage",
        -10.07999717545136
      ],
      [
        "istic",
        -10.080060356337883
      ],
      [
        "Ġatom",
        -10.080327936258795
      ],
      [
        "how",
        -10.080918384249472
      ],
      [
        "my",
        -10.081010852951067
      ],
      [
        "|",
        -10.081720495663763
      ],
      [
        "Ġ\\",
        -10.082194492215091
      ],
      [
        "Ġgirl",
        -10.083256840853966
      ],
      [
        "Ġvessel",
        -10.083259733475046
      ],
      [
        "Ġmicrowave",
        -10.08326392439677
      ],
      [
        "ĠStudent",
        -10.083409073663098
      ],
      [
        "Ġlifestyle",
        -10.08342738464243
      ],
      [
        "Ġcomposition",
        -10.083645463000408
      ],
      [
        "Ġconstruct",
        -10.086110235598277
      ],
      [
        "late",
        -10.0862823814663
      ],
      [
        "hu",
        -10.086418011981866
      ],
      [
        "dom",
        -10.088835613390708
      ],
      [
        "Ġprey",
        -10.089119674150144
      ],
      [
        "ick",
        -10.089431725793393
      ],
      [
        "ran",
        -10.089880014635266
      ],
      [
        "Ġseal",
        -10.090255725933952
      ],
      [
        "Ġcapabilit",
        -10.090683816376051
      ],
      [
        "Ġchallenging",
        -10.090905035048207
      ],
      [
        "pl",
        -10.09100983142656
      ],
      [
        "Ġequation",
        -10.09138642226536
      ],
      [
        "Ġassembl",
        -10.09305250740486
      ],
      [
        "mat",
        -10.094044151809335
      ],
      [
        "Ġfirm",
        -10.094545511185991
      ],
      [
        "ĠCanada",
        -10.094756572526125
      ],
      [
        "Ġlegal",
        -10.095486979422486
      ],
      [
        "een",
        -10.0956714151896
      ],
      [
        "ĠMarch",
        -10.095880893735616
      ],
      [
        "Ġcalci",
        -10.095901293237116
      ],
      [
        "Ġbrush",
        -10.096777266846589
      ],
      [
        "har",
        -10.097024005947736
      ],
      [
        "Ġorigin",
        -10.097026695865976
      ],
      [
        "Ġprimari",
        -10.098205287607982
      ],
      [
        "Ġfossil",
        -10.0986124791504
      ],
      [
        "ĠPer",
        -10.099084109564377
      ],
      [
        "Ġgenerator",
        -10.099189852812565
      ],
      [
        "Ġinstallation",
        -10.099561070919105
      ],
      [
        "Ġmeter",
        -10.100213161531356
      ],
      [
        "According",
        -10.100426871880352
      ],
      [
        "alone",
        -10.100853519257171
      ],
      [
        "Ġmis",
        -10.10244043908699
      ],
      [
        "Ġchamber",
        -10.102489026630794
      ],
      [
        "Ġhomes",
        -10.102497080877594
      ],
      [
        "Ġdivision",
        -10.10252328400444
      ],
      [
        "^",
        -10.102920378581665
      ],
      [
        "Ġbecom",
        -10.103784508287436
      ],
      [
        "mar",
        -10.104028959461196
      ],
      [
        "Ġincreases",
        -10.104088993264291
      ],
      [
        "rate",
        -10.104378089039136
      ],
      [
        "ĠPa",
        -10.104745354025717
      ],
      [
        "Ġsaying",
        -10.104966059542072
      ],
      [
        "Ġgut",
        -10.105251731528837
      ],
      [
        "back",
        -10.105263220064302
      ],
      [
        "Ġdish",
        -10.10531692392497
      ],
      [
        "-time",
        -10.105426287797272
      ],
      [
        "king",
        -10.105566157103706
      ],
      [
        "Ġtail",
        -10.106009800345898
      ],
      [
        "ĠEducation",
        -10.106280200139652
      ],
      [
        "Ġquantit",
        -10.106576770941098
      ],
      [
        "ĠGra",
        -10.107715338419744
      ],
      [
        "izing",
        -10.10816632057582
      ],
      [
        "Answer",
        -10.108441712218417
      ],
      [
        "Ġbak",
        -10.108503667815103
      ],
      [
        "Ġpets",
        -10.108540434574484
      ],
      [
        "Most",
        -10.10861711930072
      ],
      [
        "Ġdut",
        -10.108732080300117
      ],
      [
        "Ġweigh",
        -10.109041826535478
      ],
      [
        "ĠPo",
        -10.109123919203686
      ],
      [
        "More",
        -10.109681829498289
      ],
      [
        "ĠLook",
        -10.109736486032933
      ],
      [
        "ĠPark",
        -10.10978367572711
      ],
      [
        "Ġtight",
        -10.11003142593598
      ],
      [
        "Ġpot",
        -10.110217846554807
      ],
      [
        "Ġagent",
        -10.111463149675297
      ],
      [
        "ĠGreen",
        -10.113866696179016
      ],
      [
        "ĠAdd",
        -10.11391089156313
      ],
      [
        "/or",
        -10.114201798556058
      ],
      [
        "Ġchocolate",
        -10.114207032987546
      ],
      [
        "Ġbinocular",
        -10.114210096065593
      ],
      [
        "Ġnerve",
        -10.114258676388134
      ],
      [
        "Ġvisibl",
        -10.116080725786263
      ],
      [
        "Ġpolicy",
        -10.116132268134123
      ],
      [
        "which",
        -10.116490470657414
      ],
      [
        "rote",
        -10.117978267647365
      ],
      [
        "Ġprofessor",
        -10.118144047601312
      ],
      [
        "Ġsituations",
        -10.118203461476623
      ],
      [
        "Ġbrough",
        -10.118206878780864
      ],
      [
        "Ġsteam",
        -10.118269044974657
      ],
      [
        "ĠKa",
        -10.119684204654613
      ],
      [
        "ĠFurther",
        -10.120000392195504
      ],
      [
        "Ġattract",
        -10.12125884300366
      ],
      [
        "Ġthorough",
        -10.12209661035982
      ],
      [
        "use",
        -10.12219413701342
      ],
      [
        "Ġinnovation",
        -10.12221343578151
      ],
      [
        "cu",
        -10.122364275189891
      ],
      [
        "Ġshar",
        -10.122627559123943
      ],
      [
        "Ġaudience",
        -10.123044018242393
      ],
      [
        "Ġconcrete",
        -10.123281331443373
      ],
      [
        "Ġcream",
        -10.12390287704624
      ],
      [
        "Ġstable",
        -10.124529825307444
      ],
      [
        "Ġ\\(",
        -10.124601977757518
      ],
      [
        "Ġinform",
        -10.124772334988403
      ],
      [
        "Ġrecycl",
        -10.125668597356572
      ],
      [
        "Ġrenewable",
        -10.125723266814244
      ],
      [
        "Ġdust",
        -10.12572441808192
      ],
      [
        "port",
        -10.126131719488452
      ],
      [
        "Ġfertilizer",
        -10.1271991022661
      ],
      [
        "Ġshot",
        -10.127514986736742
      ],
      [
        "Onc",
        -10.127827822064006
      ],
      [
        "ack",
        -10.127993184141683
      ],
      [
        "ball",
        -10.12799746905814
      ],
      [
        "ĠJanuary",
        -10.128931652687577
      ],
      [
        "Ġarm",
        -10.129423855801074
      ],
      [
        "Ġremote",
        -10.130048926645989
      ],
      [
        "Ġfundamental",
        -10.13004893741962
      ],
      [
        "Ġevolve",
        -10.130049009473694
      ],
      [
        "Ġmorning",
        -10.130049631424614
      ],
      [
        "Ġmixture",
        -10.130395818839103
      ],
      [
        "Ġowners",
        -10.130711423266874
      ],
      [
        "ĠAr",
        -10.13131807356908
      ],
      [
        "ĠGuide",
        -10.13202674209015
      ],
      [
        "âĢĭ",
        -10.132564307609613
      ],
      [
        "Ġrealize",
        -10.133052505009118
      ],
      [
        "Ġplanting",
        -10.13462210431107
      ],
      [
        "Ġimprovement",
        -10.135499600415848
      ],
      [
        "Ġassessment",
        -10.135518831938176
      ],
      [
        "Ġinfections",
        -10.135645580498302
      ],
      [
        "Ġink",
        -10.13570732296731
      ],
      [
        "Ġsuffer",
        -10.135885509836214
      ],
      [
        "ug",
        -10.13607379915294
      ],
      [
        "Yes",
        -10.136152316744631
      ],
      [
        "Ġraise",
        -10.13632394567355
      ],
      [
        "Ġlinked",
        -10.136478125179076
      ],
      [
        "Ġdecide",
        -10.13736776314651
      ],
      [
        "Ġinteract",
        -10.13762364451082
      ],
      [
        "old",
        -10.138064051058493
      ],
      [
        "Ġleaving",
        -10.138070859933556
      ],
      [
        "Ġemail",
        -10.138106804005872
      ],
      [
        "Ġex",
        -10.139023296010173
      ],
      [
        "Ġsight",
        -10.139928760509026
      ],
      [
        "Your",
        -10.14010596120058
      ],
      [
        "Ġwish",
        -10.14046504347358
      ],
      [
        "what",
        -10.141217417863151
      ],
      [
        "Ġevaluate",
        -10.14168552638798
      ],
      [
        "Ġnorth",
        -10.142173987534736
      ],
      [
        "Ġsecret",
        -10.142493634694304
      ],
      [
        "Ġshoes",
        -10.14329722727421
      ],
      [
        "Ġrobot",
        -10.143969486991562
      ],
      [
        "Ġcloser",
        -10.144330918722478
      ],
      [
        "Ġcompos",
        -10.144368977671837
      ],
      [
        "Ġsong",
        -10.145411556763966
      ],
      [
        "Ġminimize",
        -10.145896114076708
      ],
      [
        "ĠTechnolog",
        -10.14595230537126
      ],
      [
        "Ġinflammation",
        -10.146148339757012
      ],
      [
        "ĠGu",
        -10.146208416570712
      ],
      [
        "Ġreduction",
        -10.146466103780398
      ],
      [
        "Ġdecided",
        -10.146629657858718
      ],
      [
        "Ġrear",
        -10.146665821515926
      ],
      [
        "Ġexplor",
        -10.146703366357231
      ],
      [
        "ĠIndian",
        -10.14670453163539
      ],
      [
        "wareness",
        -10.146717340046113
      ],
      [
        "Ġsharp",
        -10.146767475610098
      ],
      [
        "ĠVi",
        -10.148549058053488
      ],
      [
        "Ġstroke",
        -10.15011421006663
      ],
      [
        "Ġamazing",
        -10.150211053805297
      ],
      [
        "Ġuniverse",
        -10.150215136263723
      ],
      [
        "Ġheavi",
        -10.150477359065391
      ],
      [
        "Ġpure",
        -10.150652635570047
      ],
      [
        "Ġcr",
        -10.151880171950332
      ],
      [
        "Ġlift",
        -10.15333991092774
      ],
      [
        "Ġlenses",
        -10.154780313525375
      ],
      [
        "Ġemotion",
        -10.156559413682348
      ],
      [
        "Ġcoal",
        -10.15718441366963
      ],
      [
        "ĠBrit",
        -10.157731852366362
      ],
      [
        "Ġguy",
        -10.157842493468426
      ],
      [
        "rie",
        -10.158963435657515
      ],
      [
        "Ġdefinition",
        -10.15963409630814
      ],
      [
        "ĠStep",
        -10.159716918117704
      ],
      [
        "art",
        -10.159935061882312
      ],
      [
        "ington",
        -10.160413094948268
      ],
      [
        "US",
        -10.16049429712087
      ],
      [
        "Ġcommunicate",
        -10.160528570690568
      ],
      [
        "ĠTake",
        -10.161878319336868
      ],
      [
        "Ġconsideration",
        -10.162011493615765
      ],
      [
        "Ġdestroy",
        -10.16250618730679
      ],
      [
        "Ġincredibl",
        -10.162506191598926
      ],
      [
        "Ġcommitment",
        -10.162564461905564
      ],
      [
        "ĠKing",
        -10.162646053773807
      ],
      [
        "Ġbill",
        -10.162786747842867
      ],
      [
        "Ġtoxic",
        -10.163051392958872
      ],
      [
        "ade",
        -10.163058981540644
      ],
      [
        "Ġtea",
        -10.163233576113932
      ],
      [
        "wood",
        -10.163679683281792
      ],
      [
        "Ġ<",
        -10.164771673436238
      ],
      [
        "Ġspen",
        -10.165256236228736
      ],
      [
        "Ġapart",
        -10.165655427015214
      ],
      [
        "Ġintroduc",
        -10.165655930462774
      ],
      [
        "Ġspray",
        -10.166642470875868
      ],
      [
        "Ġloop",
        -10.166727769786686
      ],
      [
        "Ġclassroom",
        -10.166730854091224
      ],
      [
        "ĠPart",
        -10.16691384928023
      ],
      [
        "Ġsold",
        -10.16695927037523
      ],
      [
        "Ġbroken",
        -10.167300038217697
      ],
      [
        "Ġdis",
        -10.167543620012763
      ],
      [
        "Ġsouth",
        -10.167853048249157
      ],
      [
        "Ġcalculate",
        -10.168209084974908
      ],
      [
        "Ġvaccine",
        -10.170089973307803
      ],
      [
        "Ġzone",
        -10.170449661485817
      ],
      [
        "Ġsensitive",
        -10.171168092978084
      ],
      [
        "Ġwheel",
        -10.17118310994476
      ],
      [
        "ĠIsland",
        -10.171243421401606
      ],
      [
        "ja",
        -10.171442343121862
      ],
      [
        "Ġguideline",
        -10.172059667565383
      ],
      [
        "ttle",
        -10.172168790844273
      ],
      [
        "Ġhabits",
        -10.172343667282512
      ],
      [
        "Ġpowder",
        -10.172464531132276
      ],
      [
        "ĠHome",
        -10.172493370308477
      ],
      [
        "ĠRead",
        -10.174635696144772
      ],
      [
        "Ġproduc",
        -10.175125209961408
      ],
      [
        "Ġeight",
        -10.17518901731736
      ],
      [
        "hen",
        -10.175522472407074
      ],
      [
        "Ġshade",
        -10.17572874929582
      ],
      [
        "Ġtrade",
        -10.175878876374336
      ],
      [
        "Ġneuron",
        -10.176138113028712
      ],
      [
        "Ġlarges",
        -10.176861444849642
      ],
      [
        "ign",
        -10.17799120859506
      ],
      [
        "Ġpanel",
        -10.179908891836936
      ],
      [
        "qua",
        -10.180338245748214
      ],
      [
        "ĠPeople",
        -10.181001310484074
      ],
      [
        "Ġprices",
        -10.182123680371545
      ],
      [
        "Ġinternet",
        -10.18341190771162
      ],
      [
        "Ġtrick",
        -10.184973554069522
      ],
      [
        "Ġfunctional",
        -10.18652792216878
      ],
      [
        "Ġsports",
        -10.186737314977544
      ],
      [
        "Ġvector",
        -10.187562139730524
      ],
      [
        "Ġboil",
        -10.19049686149897
      ],
      [
        "ung",
        -10.191041726143832
      ],
      [
        "Ġleak",
        -10.191665426556892
      ],
      [
        "]Ċ",
        -10.191709342602026
      ],
      [
        "Ġcreature",
        -10.192113404479937
      ],
      [
        "Ġmice",
        -10.192213738810596
      ],
      [
        "act",
        -10.192302424243724
      ],
      [
        "Ġobservation",
        -10.192326184188149
      ],
      [
        "Ġcraft",
        -10.192546435846388
      ],
      [
        "Ġtown",
        -10.194040370842815
      ],
      [
        "ĠLike",
        -10.194320662910222
      ],
      [
        "ĠOcto",
        -10.195005915455296
      ],
      [
        "Ġclosed",
        -10.19510603890471
      ],
      [
        "ĠMu",
        -10.195442988391084
      ],
      [
        "Ġexcess",
        -10.195665800048442
      ],
      [
        "Ġmountain",
        -10.196054253562584
      ],
      [
        "Ġcompetition",
        -10.196059366514117
      ],
      [
        "Ġnutrition",
        -10.19612323007739
      ],
      [
        "Ġlock",
        -10.196153507363451
      ],
      [
        "-c",
        -10.196297512643724
      ],
      [
        "ĠType",
        -10.196671794113094
      ],
      [
        "Ġresident",
        -10.196803145795556
      ],
      [
        "Ra",
        -10.197195517874004
      ],
      [
        "Ġblend",
        -10.197523199749014
      ],
      [
        "stock",
        -10.197723341925634
      ],
      [
        "ius",
        -10.198469740177565
      ],
      [
        "Ġprior",
        -10.199558568326989
      ],
      [
        "pro",
        -10.199682313013792
      ],
      [
        "ĠWhere",
        -10.200053341862295
      ],
      [
        "ĠRed",
        -10.200248111667133
      ],
      [
        "Un",
        -10.200381491029097
      ],
      [
        "Ġbiological",
        -10.200546936617336
      ],
      [
        "Ġtent",
        -10.201286399641946
      ],
      [
        "Ġedit",
        -10.201365004541715
      ],
      [
        "that",
        -10.201715384078051
      ],
      [
        "Ġofficial",
        -10.202501086268544
      ],
      [
        "Ġrelie",
        -10.202807790600648
      ],
      [
        "Ġnovel",
        -10.202872250754346
      ],
      [
        "Ma",
        -10.202893004687567
      ],
      [
        "Ġmark",
        -10.20373470231496
      ],
      [
        "Ġchapter",
        -10.204617522847816
      ],
      [
        "Ġprompt",
        -10.204617961548603
      ],
      [
        "Ġminimum",
        -10.2046207534672
      ],
      [
        "Ġmeasured",
        -10.204868297611153
      ],
      [
        "Ġtooth",
        -10.207088418260742
      ],
      [
        "tes",
        -10.20764810535654
      ],
      [
        "ash",
        -10.208278137093943
      ],
      [
        "Ġtitle",
        -10.208580098206848
      ],
      [
        "Ġconsequence",
        -10.208927896986324
      ],
      [
        "Ġscratch",
        -10.208931242479188
      ],
      [
        "Ġbridge",
        -10.209185645351836
      ],
      [
        "ĠLight",
        -10.209370541378584
      ],
      [
        "Ġtrip",
        -10.20937431669975
      ],
      [
        "VID",
        -10.20945759561203
      ],
      [
        "Ġoperat",
        -10.210261225004896
      ],
      [
        "Ġpresentation",
        -10.211237662890047
      ],
      [
        "Ġinstrument",
        -10.212162432046174
      ],
      [
        "Ġzero",
        -10.212806266783232
      ],
      [
        "Ġemployee",
        -10.21332202775627
      ],
      [
        "Dur",
        -10.21393323218744
      ],
      [
        "Ġcontract",
        -10.213998243525408
      ],
      [
        "gone",
        -10.214741838826887
      ],
      [
        "Ġcl",
        -10.21490342887842
      ],
      [
        ");",
        -10.21510947984206
      ],
      [
        "ĠAct",
        -10.21554448447043
      ],
      [
        "ĠOut",
        -10.21581364212171
      ],
      [
        "ĠHis",
        -10.216389019429611
      ],
      [
        "Ġcolon",
        -10.216861759234762
      ],
      [
        "iness",
        -10.217462507662097
      ],
      [
        "Ġfelt",
        -10.21766064936913
      ],
      [
        "wa",
        -10.217694169958598
      ],
      [
        "Ġboost",
        -10.217839410471058
      ],
      [
        "ĠSystem",
        -10.218164346585423
      ],
      [
        "Ġcalm",
        -10.218208273247466
      ],
      [
        "but",
        -10.218232001970891
      ],
      [
        "Use",
        -10.218238718078084
      ],
      [
        "ĠEnergy",
        -10.218401332186035
      ],
      [
        "field",
        -10.218482572477743
      ],
      [
        "Ġweak",
        -10.219376176487096
      ],
      [
        "Ġbond",
        -10.219709290214428
      ],
      [
        "Ġalign",
        -10.22023924998393
      ],
      [
        "Ġtension",
        -10.220247799871462
      ],
      [
        "Dr",
        -10.22063307872761
      ],
      [
        "Ġgraph",
        -10.22102373002409
      ],
      [
        "Ġappreciate",
        -10.221966974707096
      ],
      [
        "Conclusion",
        -10.22274582980744
      ],
      [
        "<",
        -10.223161226178906
      ],
      [
        "ĠJew",
        -10.223329861584292
      ],
      [
        "ĠâĢ¢",
        -10.225764512909514
      ],
      [
        "Ġaccurac",
        -10.226357489630638
      ],
      [
        "Ġwasn",
        -10.226438598222291
      ],
      [
        "Ġassociation",
        -10.227457341165836
      ],
      [
        "Ġanalyze",
        -10.22791118957549
      ],
      [
        "Ġinner",
        -10.22798244617632
      ],
      [
        "ĠTen",
        -10.228209130642036
      ],
      [
        "innovative",
        -10.228894833222135
      ],
      [
        "Ġeliminate",
        -10.230060612362436
      ],
      [
        "Ġretain",
        -10.231022432673551
      ],
      [
        "expected",
        -10.231362210649142
      ],
      [
        "PS",
        -10.231603382778662
      ],
      [
        "za",
        -10.232000672951726
      ],
      [
        "hose",
        -10.233006997716233
      ],
      [
        "Ġleaf",
        -10.233744366311504
      ],
      [
        "Ġgrant",
        -10.23409523244836
      ],
      [
        "ong",
        -10.234780210851977
      ],
      [
        "Ġherb",
        -10.2351056156564
      ],
      [
        "rich",
        -10.23510963394836
      ],
      [
        "ĠCheck",
        -10.235113678473637
      ],
      [
        "Ġsufficient",
        -10.235187531907275
      ],
      [
        "Ġdescription",
        -10.235187591946111
      ],
      [
        "Ġsnake",
        -10.235190893655776
      ],
      [
        "Ġlaser",
        -10.235436087301888
      ],
      [
        "Ġpar",
        -10.236669817350135
      ],
      [
        "ĠAnimal",
        -10.237159285068673
      ],
      [
        "Ġroute",
        -10.23805037486521
      ],
      [
        "Ġnet",
        -10.24001780149992
      ],
      [
        "Ġgenerat",
        -10.240039054788422
      ],
      [
        "Ġreplacement",
        -10.240275403699686
      ],
      [
        "Ġprove",
        -10.240770634052309
      ],
      [
        "Br",
        -10.240790884437232
      ],
      [
        "ome",
        -10.240931257561869
      ],
      [
        "New",
        -10.241322633210793
      ],
      [
        "Ġlinear",
        -10.24148348258928
      ],
      [
        "Ġutilize",
        -10.24153101475381
      ],
      [
        "Over",
        -10.241542969728709
      ],
      [
        "Ġexchange",
        -10.242517946658104
      ],
      [
        "Ġuniversit",
        -10.244096423387813
      ],
      [
        "Ġbeauty",
        -10.244096626110952
      ],
      [
        "Ġvast",
        -10.244193866512733
      ],
      [
        "Ġenzyme",
        -10.24449615387054
      ],
      [
        "Ġmine",
        -10.244542035685198
      ],
      [
        "Ġphysic",
        -10.244858635066244
      ],
      [
        "Ġstorm",
        -10.246358226231948
      ],
      [
        "Ġchemistr",
        -10.246603720789548
      ],
      [
        "ST",
        -10.24700093086932
      ],
      [
        "Ġrandom",
        -10.247091369233702
      ],
      [
        "Ġscore",
        -10.247424126691152
      ],
      [
        "Ġresponsibilit",
        -10.248580566999417
      ],
      [
        "Ġbloom",
        -10.248580677657896
      ],
      [
        "Ġsnail",
        -10.24858372773648
      ],
      [
        "Ġauto",
        -10.248723727629104
      ],
      [
        "Ġpartner",
        -10.248781527417565
      ],
      [
        "Ġinsurance",
        -10.248789070894516
      ],
      [
        "ĠLearn",
        -10.248793639776348
      ],
      [
        "Ġdepression",
        -10.248874031732855
      ],
      [
        "era",
        -10.24996731552169
      ],
      [
        "Ġthrow",
        -10.250706976332314
      ],
      [
        "ĠÂ·",
        -10.251751172576215
      ],
      [
        "Ġbite",
        -10.25250822570083
      ],
      [
        "ĠCollege",
        -10.253085117720495
      ],
      [
        "Ġpilot",
        -10.253095859029797
      ],
      [
        "Ġunlike",
        -10.253976564856456
      ],
      [
        "Ġassume",
        -10.254496527907412
      ],
      [
        "gra",
        -10.254690983714456
      ],
      [
        "with",
        -10.2547286704417
      ],
      [
        "mu",
        -10.254802854986472
      ],
      [
        "ĠBar",
        -10.255524419853831
      ],
      [
        "book",
        -10.255949470501498
      ],
      [
        "Ġtraffic",
        -10.257609960251628
      ],
      [
        "ric",
        -10.257778454086884
      ],
      [
        "ĠTwo",
        -10.25779994850294
      ],
      [
        "Â°C",
        -10.257956120643009
      ],
      [
        "lan",
        -10.258015797984324
      ],
      [
        "Ġvariable",
        -10.258165176725244
      ],
      [
        "Ġmanual",
        -10.258823404766392
      ],
      [
        "Ġinterior",
        -10.259722429958684
      ],
      [
        "ĠCat",
        -10.26069215684709
      ],
      [
        "Ġlake",
        -10.260794815060558
      ],
      [
        "ĠPlant",
        -10.261206391633074
      ],
      [
        "ĠCamp",
        -10.261424284938665
      ],
      [
        "Let",
        -10.261574764161438
      ],
      [
        "Ġarrive",
        -10.261737437033933
      ],
      [
        "Ġcollaboration",
        -10.262157900268502
      ],
      [
        "Ġdatabase",
        -10.262254399015571
      ],
      [
        "ĠExcel",
        -10.262590304672557
      ],
      [
        "Ġdimension",
        -10.26281500636447
      ],
      [
        "First",
        -10.264233796188147
      ],
      [
        "Ġmolecular",
        -10.264235366196823
      ],
      [
        "Ġbones",
        -10.264262909479672
      ],
      [
        "Ġautomatic",
        -10.264463658667388
      ],
      [
        "Ġfair",
        -10.264783456736172
      ],
      [
        "Ġrely",
        -10.265238850229688
      ],
      [
        "Ġfixed",
        -10.265545827604832
      ],
      [
        "otherwise",
        -10.265866648044437
      ],
      [
        "Ġbrief",
        -10.266721768976277
      ],
      [
        "Ġbarrier",
        -10.266743767708792
      ],
      [
        "Ġbreeding",
        -10.267044643820997
      ],
      [
        "ĠWi",
        -10.267048586169691
      ],
      [
        "ĠRa",
        -10.267401324096934
      ],
      [
        "Ġarray",
        -10.267797502062503
      ],
      [
        "**",
        -10.267949478018316
      ],
      [
        "Ġdecline",
        -10.268111302169302
      ],
      [
        "Ġshop",
        -10.268890115148633
      ],
      [
        "most",
        -10.268990406423091
      ],
      [
        "Ġpoly",
        -10.268990562792352
      ],
      [
        "Ġplus",
        -10.269146682739624
      ],
      [
        "ĠCh",
        -10.269672743934612
      ],
      [
        "Ġperspective",
        -10.27165833938557
      ],
      [
        "Ġprovider",
        -10.271700387774382
      ],
      [
        "ING",
        -10.273024078144775
      ],
      [
        "Ġintake",
        -10.27330013041976
      ],
      [
        "Ġrow",
        -10.27566145898252
      ],
      [
        "Ġencounter",
        -10.275917085229167
      ],
      [
        "Ġinjurie",
        -10.275921408613312
      ],
      [
        "lay",
        -10.275959199784737
      ],
      [
        "Ġmask",
        -10.276007169495518
      ],
      [
        "Ġdefinite",
        -10.276018734013237
      ],
      [
        "Ġalter",
        -10.276645525128554
      ],
      [
        "Ġbreath",
        -10.27800151801036
      ],
      [
        "Ġputt",
        -10.278404795357014
      ],
      [
        "led",
        -10.278755016797236
      ],
      [
        "ĠFebr",
        -10.279497243083217
      ],
      [
        "Ġstream",
        -10.280160975601872
      ],
      [
        "ĠToday",
        -10.280242730207725
      ],
      [
        "Ġluck",
        -10.280594080278671
      ],
      [
        "Ġmanner",
        -10.28076743633232
      ],
      [
        "Ġapproache",
        -10.280834733084074
      ],
      [
        "Ġphotos",
        -10.280969354742089
      ],
      [
        "Ġsurvival",
        -10.28097309108554
      ],
      [
        "axis",
        -10.281800609433777
      ],
      [
        "Ġsent",
        -10.282573442256144
      ],
      [
        "car",
        -10.28274914352161
      ],
      [
        "ami",
        -10.282823186210049
      ],
      [
        "bu",
        -10.28283923600425
      ],
      [
        "@",
        -10.283112669301538
      ],
      [
        "Ġcustom",
        -10.283372238941435
      ],
      [
        "ĠJa",
        -10.283981637760466
      ],
      [
        "-be",
        -10.284564254595075
      ],
      [
        "Ġloose",
        -10.287631159381348
      ],
      [
        "Ġplates",
        -10.288031214460204
      ],
      [
        "Ġindex",
        -10.288361177672003
      ],
      [
        "Ġtwi",
        -10.288495494860696
      ],
      [
        "ose",
        -10.289154339116616
      ],
      [
        "ĠData",
        -10.289590553737138
      ],
      [
        "Ġsudden",
        -10.289870929827172
      ],
      [
        "Ġcomparison",
        -10.289873172262425
      ],
      [
        "Ġurban",
        -10.28987455583199
      ],
      [
        "Ġknee",
        -10.29061739087125
      ],
      [
        "Ġstrengthen",
        -10.290994380789009
      ],
      [
        "Ġsurfaces",
        -10.29111876181701
      ],
      [
        "Ġtrend",
        -10.291397848008152
      ],
      [
        "Ġwindows",
        -10.292751451378765
      ],
      [
        "Ġdistinct",
        -10.293353390966384
      ],
      [
        "Ġwet",
        -10.293851090425283
      ],
      [
        "Ġinfect",
        -10.29388829559193
      ],
      [
        "ail",
        -10.294353952968123
      ],
      [
        "Ġintervention",
        -10.29456559937889
      ],
      [
        "Ġcollege",
        -10.294565696154873
      ],
      [
        "ways",
        -10.294782388874404
      ],
      [
        "Ġdownload",
        -10.294835434024044
      ],
      [
        "Ġrec",
        -10.29485171980831
      ],
      [
        "Ġinsert",
        -10.295124875517484
      ],
      [
        "Ġparallel",
        -10.295304544428191
      ],
      [
        "Ġserving",
        -10.29554242266287
      ],
      [
        "Ġcharg",
        -10.296429414432447
      ],
      [
        "Ġtax",
        -10.29695166001469
      ],
      [
        "bit",
        -10.296985041519626
      ],
      [
        "ĠEast",
        -10.297002786182786
      ],
      [
        "TE",
        -10.298347222340336
      ],
      [
        "Ġtire",
        -10.29859068785226
      ],
      [
        "ĠChin",
        -10.299045496192026
      ],
      [
        "ĠKo",
        -10.29987869401932
      ],
      [
        "va",
        -10.300680743725392
      ],
      [
        "Ġincorporate",
        -10.300704349531026
      ],
      [
        "Ġdiagnosi",
        -10.300718474839632
      ],
      [
        "Ġexcit",
        -10.302828697237503
      ],
      [
        "ĠGoogle",
        -10.303903168971472
      ],
      [
        "Ġstomach",
        -10.304021919093168
      ],
      [
        "Ġmobile",
        -10.304043586189875
      ],
      [
        "Ġdistribute",
        -10.30405005692706
      ],
      [
        "Ġgradual",
        -10.30427754772102
      ],
      [
        "Ġgase",
        -10.304366066519034
      ],
      [
        "Ġprinting",
        -10.304392943942672
      ],
      [
        "Ġhorizontal",
        -10.304960423765047
      ],
      [
        "some",
        -10.30646742650388
      ],
      [
        "ĠGarden",
        -10.307086741639637
      ],
      [
        "Ġpresented",
        -10.307733174440028
      ],
      [
        "rap",
        -10.308659558014494
      ],
      [
        "Ġhandling",
        -10.309578164132844
      ],
      [
        "rac",
        -10.310009049654951
      ],
      [
        "rus",
        -10.310924156864909
      ],
      [
        "anagement",
        -10.311122737628729
      ],
      [
        "Ġpeer",
        -10.311169766894102
      ],
      [
        "ĠNote",
        -10.312435218258894
      ],
      [
        "Al",
        -10.312740269713045
      ],
      [
        "Ġgift",
        -10.313568988835424
      ],
      [
        "Ġbowl",
        -10.313598047723268
      ],
      [
        "Ġworry",
        -10.313885141387065
      ],
      [
        "Ġworkshop",
        -10.31392700688242
      ],
      [
        "ĠII",
        -10.31416603720459
      ],
      [
        "formed",
        -10.314439794172714
      ],
      [
        "Ġpolitical",
        -10.315809846222022
      ],
      [
        "Ġlocat",
        -10.316690346816708
      ],
      [
        "Ġpond",
        -10.318455125929155
      ],
      [
        "Ġgav",
        -10.318608084032988
      ],
      [
        "Ġfather",
        -10.318828594860465
      ],
      [
        "IC",
        -10.319248413159167
      ],
      [
        "Ġlaborator",
        -10.31936761923539
      ],
      [
        "Ġthrive",
        -10.319593282984975
      ],
      [
        "Ro",
        -10.31980545092994
      ],
      [
        "ĠUp",
        -10.32178219547868
      ],
      [
        "Ġbean",
        -10.323020908830962
      ],
      [
        "Ġclay",
        -10.32325898766334
      ],
      [
        "mic",
        -10.323446568717255
      ],
      [
        "ĠVer",
        -10.323680683753029
      ],
      [
        "Ġrice",
        -10.32372356571425
      ],
      [
        "ĠWash",
        -10.323796311726682
      ],
      [
        "Ġmassive",
        -10.324344649994153
      ],
      [
        "Ġdiversity",
        -10.32439398337181
      ],
      [
        ".G",
        -10.324883079824424
      ],
      [
        "Ġcurve",
        -10.32544300243448
      ],
      [
        "Ġcorresponding",
        -10.325663495562312
      ],
      [
        "tain",
        -10.325759891107795
      ],
      [
        "ĠLife",
        -10.32630403435238
      ],
      [
        "cross",
        -10.326549466137587
      ],
      [
        "Ġincorporat",
        -10.326600486472284
      ],
      [
        "mas",
        -10.327149061572335
      ],
      [
        "Ġconfiden",
        -10.327363757386092
      ],
      [
        "osis",
        -10.327572453452678
      ],
      [
        "Ġpreparation",
        -10.328092326526606
      ],
      [
        "Ġvalve",
        -10.328101748486056
      ],
      [
        "ster",
        -10.328234871479406
      ],
      [
        "Ġrelation",
        -10.328290088034954
      ],
      [
        "ula",
        -10.328474025272785
      ],
      [
        "q",
        -10.329059893713737
      ],
      [
        "Con",
        -10.330190249741252
      ],
      [
        ".F",
        -10.33098041714764
      ],
      [
        "Ġdirector",
        -10.331885138335794
      ],
      [
        "Ġcoach",
        -10.331916243915003
      ],
      [
        "ĠColor",
        -10.331920651204186
      ],
      [
        "AI",
        -10.33202460340346
      ],
      [
        "Ġpose",
        -10.332265070801844
      ],
      [
        "Ġdeposit",
        -10.332344547870536
      ],
      [
        "Ġbug",
        -10.332810212080751
      ],
      [
        "Ġconversation",
        -10.33293954906847
      ],
      [
        "ĠGood",
        -10.333030621116158
      ],
      [
        "Ġspark",
        -10.33319019300935
      ],
      [
        "Ġtap",
        -10.333698030340985
      ],
      [
        "Ġworse",
        -10.33375705992584
      ],
      [
        "Ġadequate",
        -10.33495430578095
      ],
      [
        "Ġfold",
        -10.335718478762026
      ],
      [
        "craft",
        -10.336084191672663
      ],
      [
        "Ġprofile",
        -10.336551531068572
      ],
      [
        "Ġera",
        -10.336990683287889
      ],
      [
        "Ġsexual",
        -10.33733022424012
      ],
      [
        "Ġdiameter",
        -10.337841743611955
      ],
      [
        "Ġfoster",
        -10.33786510034227
      ],
      [
        "Ġbelief",
        -10.337870419462105
      ],
      [
        "Ġtrouble",
        -10.337879569807685
      ],
      [
        "zo",
        -10.339041569659928
      ],
      [
        "Ġenvironments",
        -10.339367074894533
      ],
      [
        "Ġinvestigat",
        -10.339806117329392
      ],
      [
        "Ġparticipat",
        -10.34173450735588
      ],
      [
        "Ġwidth",
        -10.342200542827785
      ],
      [
        "Ġdanger",
        -10.342584205133836
      ],
      [
        "Ġconflict",
        -10.342767607628572
      ],
      [
        "Ġhazard",
        -10.342767701346313
      ],
      [
        "Ġvegan",
        -10.342779614774557
      ],
      [
        "Ġsew",
        -10.34285675606939
      ],
      [
        "Ġframework",
        -10.342886834794788
      ],
      [
        "Ġrecording",
        -10.343029156586097
      ],
      [
        "Ġraised",
        -10.343506177603723
      ],
      [
        "Ġreactions",
        -10.344020963990245
      ],
      [
        "ĠAssociation",
        -10.344117291533864
      ],
      [
        "RE",
        -10.344157678514064
      ],
      [
        "Ġpromot",
        -10.34472343668861
      ],
      [
        "Ġmistake",
        -10.345343411634245
      ],
      [
        "ĠConsider",
        -10.34534870133421
      ],
      [
        "see",
        -10.345455865484125
      ],
      [
        "Ġcow",
        -10.345703417425746
      ],
      [
        "ĠFind",
        -10.34694235508674
      ],
      [
        "Ġscenario",
        -10.347718104460585
      ],
      [
        "Ġdelicious",
        -10.347718129325571
      ],
      [
        "Ġabsolute",
        -10.347718666823894
      ],
      [
        "Ġsilver",
        -10.347718852137165
      ],
      [
        "Ġnarrow",
        -10.347745159299244
      ],
      [
        "Ġbiggest",
        -10.348003188050944
      ],
      [
        "\"The",
        -10.348077725354193
      ],
      [
        "ĠSu",
        -10.34819048249488
      ],
      [
        "ĠSun",
        -10.348197394823035
      ],
      [
        "Ġdespi",
        -10.348448073683535
      ],
      [
        "OR",
        -10.348970683050768
      ],
      [
        "Co",
        -10.3496513478778
      ],
      [
        "Ġfamous",
        -10.349849916516227
      ],
      [
        "Ġworm",
        -10.351268816099662
      ],
      [
        "Ġcm",
        -10.352122945974932
      ],
      [
        "Ġimagine",
        -10.352194246155909
      ],
      [
        "Ġguess",
        -10.35270418452092
      ],
      [
        "Ġantibiotic",
        -10.352708478836572
      ],
      [
        "Ġshark",
        -10.353201566363651
      ],
      [
        "Ġdiscussed",
        -10.35364905424927
      ],
      [
        "Ġfiles",
        -10.35459399487358
      ],
      [
        "Ġsides",
        -10.35679820866997
      ],
      [
        "Ġmoderate",
        -10.357732392983948
      ],
      [
        "Ġperception",
        -10.357753876669737
      ],
      [
        "Ġinitiative",
        -10.357784247427688
      ],
      [
        "Ġtear",
        -10.360606506175612
      ],
      [
        "Ġbread",
        -10.361262383309375
      ],
      [
        "Ġcellular",
        -10.362344554656474
      ],
      [
        "From",
        -10.362797500811222
      ],
      [
        "Ġclub",
        -10.362807657235106
      ],
      [
        "Ġopposite",
        -10.362820252518516
      ],
      [
        "ĠDi",
        -10.363290633409704
      ],
      [
        "Ġcoil",
        -10.363439052036451
      ],
      [
        "Ġspecialist",
        -10.363867876985289
      ],
      [
        "uck",
        -10.364065857682736
      ],
      [
        "Not",
        -10.364273106035968
      ],
      [
        "ĠTree",
        -10.36543525193591
      ],
      [
        "Ġsport",
        -10.365452827571872
      ],
      [
        "Ġworker",
        -10.36594170435654
      ],
      [
        "-on",
        -10.366603019221731
      ],
      [
        "ĠRemember",
        -10.367654755618906
      ],
      [
        "Ġpermanent",
        -10.36776906243445
      ],
      [
        "Ġgenome",
        -10.367770697181736
      ],
      [
        "Ġorgans",
        -10.367850380884049
      ],
      [
        "Ġshapes",
        -10.369434562182484
      ],
      [
        "ole",
        -10.370385145745091
      ],
      [
        "rid",
        -10.370386032045383
      ],
      [
        "Ġfamiliar",
        -10.370973446832217
      ],
      [
        "set",
        -10.372062614257365
      ],
      [
        "Ġmeasur",
        -10.372395307864464
      ],
      [
        "ground",
        -10.372505231223103
      ],
      [
        "Ġsurprise",
        -10.372845001654447
      ],
      [
        "Ġhidden",
        -10.372870798512915
      ],
      [
        "ĠHer",
        -10.37334984851433
      ],
      [
        "Ġdetection",
        -10.374303500141238
      ],
      [
        "long",
        -10.37482829617996
      ],
      [
        "Ġyard",
        -10.375100037420715
      ],
      [
        "Ġcloud",
        -10.37595561517383
      ],
      [
        "tage",
        -10.376091878593211
      ],
      [
        "Ġrose",
        -10.376766263386138
      ],
      [
        "Ġwhatever",
        -10.3774440702329
      ],
      [
        "ĠMc",
        -10.37774845650742
      ],
      [
        "ĠGeneral",
        -10.378183925611348
      ],
      [
        "Ġrotation",
        -10.37872248987875
      ],
      [
        "iff",
        -10.379664527610087
      ],
      [
        "ĠChildren",
        -10.379684592577432
      ],
      [
        "Ġterminal",
        -10.379745118877548
      ],
      [
        "Ġecosystem",
        -10.379765934653769
      ],
      [
        "Ġtie",
        -10.380188601939198
      ],
      [
        "()",
        -10.380260734064487
      ],
      [
        "Ġbuffer",
        -10.3805056453782
      ],
      [
        "ĠPaul",
        -10.381081918317197
      ],
      [
        "ries",
        -10.381293574270837
      ],
      [
        "Ġregulate",
        -10.381434306257615
      ],
      [
        "ĠSa",
        -10.381526550163551
      ],
      [
        "ĠNi",
        -10.382149597155747
      ],
      [
        "Ġturning",
        -10.382659031745112
      ],
      [
        "Ġlibrary",
        -10.383075248783468
      ],
      [
        "Ġmirror",
        -10.383075251948268
      ],
      [
        "Ġrobust",
        -10.38307527723795
      ],
      [
        "Ġorientation",
        -10.383311308022602
      ],
      [
        "`",
        -10.383381227855963
      ],
      [
        "Ġsmoke",
        -10.3833883962721
      ],
      [
        "Ġsales",
        -10.383501822339037
      ],
      [
        "Ġrecogniz",
        -10.383722411564996
      ],
      [
        "Ġmoved",
        -10.38396358451753
      ],
      [
        "ĠBot",
        -10.384015415772922
      ],
      [
        "Ġflying",
        -10.38419912273804
      ],
      [
        "Ġpolic",
        -10.384324532757486
      ],
      [
        "Ġpreserve",
        -10.385409941180216
      ],
      [
        "Ġgam",
        -10.386003234566918
      ],
      [
        "Ġintended",
        -10.386169616886283
      ],
      [
        "Ġho",
        -10.38675864455922
      ],
      [
        "ĠFa",
        -10.386941094558187
      ],
      [
        "Ġsubstances",
        -10.387037128822357
      ],
      [
        "ĠDis",
        -10.387463018589102
      ],
      [
        "Ġrelax",
        -10.387789541912966
      ],
      [
        "ĠFish",
        -10.387799038848712
      ],
      [
        "Ġinterview",
        -10.388203377986011
      ],
      [
        "Ġregister",
        -10.38822997385671
      ],
      [
        "Ġnitrogen",
        -10.388240887943642
      ],
      [
        "Ġoven",
        -10.388241217868812
      ],
      [
        "Ġimplant",
        -10.388245977999892
      ],
      [
        "Ġmount",
        -10.388263909892675
      ],
      [
        "Ġease",
        -10.388271902953036
      ],
      [
        "Ġintroduction",
        -10.388309473651365
      ],
      [
        "Ġagenc",
        -10.389259231461882
      ],
      [
        "Ġvolunteer",
        -10.389642529863988
      ],
      [
        "ĠOcean",
        -10.39049588318819
      ],
      [
        "Ġ@",
        -10.39054647428252
      ],
      [
        "Ġfeedback",
        -10.390585947865482
      ],
      [
        "Ġcopy",
        -10.39155637000058
      ],
      [
        "Ġtall",
        -10.391644662830949
      ],
      [
        "Ġagricultur",
        -10.392011553020048
      ],
      [
        "cor",
        -10.392117712097296
      ],
      [
        "Ġclassic",
        -10.392455006455334
      ],
      [
        "Ġexam",
        -10.392654134469469
      ],
      [
        "Äģ",
        -10.393380305548188
      ],
      [
        "Ġfault",
        -10.39341127821566
      ],
      [
        "Ġtransistor",
        -10.39341129899852
      ],
      [
        "Ġexplanation",
        -10.393447783726376
      ],
      [
        "Ġfeather",
        -10.393465246106192
      ],
      [
        "Ġtip",
        -10.393483735040704
      ],
      [
        "Ġpredators",
        -10.394937917096954
      ],
      [
        "uring",
        -10.395215616782052
      ],
      [
        "Ġdispos",
        -10.396335001192131
      ],
      [
        "ĠGet",
        -10.396525036796591
      ],
      [
        "ĠStart",
        -10.396637871562632
      ],
      [
        "Ġcrystal",
        -10.398036863394305
      ],
      [
        "ĠThrough",
        -10.398160061450078
      ],
      [
        "Ġillness",
        -10.398285244257584
      ],
      [
        "Ġdiffer",
        -10.39836283771884
      ],
      [
        "ĠNovemb",
        -10.398462067189062
      ],
      [
        "Ġcent",
        -10.398558341033231
      ],
      [
        "Ġsenior",
        -10.39861958823365
      ],
      [
        "Ġglucos",
        -10.398619930390204
      ],
      [
        "ĠMedicine",
        -10.398627821057271
      ],
      [
        "Ġblade",
        -10.398706772127184
      ],
      [
        "Ġspeech",
        -10.398768812369868
      ],
      [
        "Ġcord",
        -10.39887316699168
      ],
      [
        "sistance",
        -10.399083143558045
      ],
      [
        "Ġinteractive",
        -10.39917716853188
      ],
      [
        "Ġjuice",
        -10.400010574584751
      ],
      [
        "Ġnose",
        -10.40081995136207
      ],
      [
        "Ġholding",
        -10.401049829624952
      ],
      [
        "ĠRussian",
        -10.401133286901391
      ],
      [
        "ĠTHE",
        -10.401528995906824
      ],
      [
        "?\"",
        -10.402199800489214
      ],
      [
        "Ġdive",
        -10.402399721689262
      ],
      [
        "ĠSha",
        -10.40295162307456
      ],
      [
        "Ġtradition",
        -10.403483650848496
      ],
      [
        "Ġplug",
        -10.403697426952697
      ],
      [
        "Ġneck",
        -10.403727673556556
      ],
      [
        "ership",
        -10.403762580852511
      ],
      [
        "Ġcleaner",
        -10.404829768780356
      ],
      [
        "Ġgl",
        -10.405166848159102
      ],
      [
        "Ġcolumn",
        -10.40534937879925
      ],
      [
        "Ġtruck",
        -10.40560879099981
      ],
      [
        "Ġprotective",
        -10.406056397338364
      ],
      [
        "ĠWhite",
        -10.406261583818988
      ],
      [
        "ĠDevelopment",
        -10.406635368907006
      ],
      [
        "ĠAugust",
        -10.40748022245804
      ],
      [
        "ĠPower",
        -10.407554491279305
      ],
      [
        "ĠWeb",
        -10.40809142503183
      ],
      [
        "ĠBi",
        -10.408659936439562
      ],
      [
        "Ġseeking",
        -10.408700920556283
      ],
      [
        "Ġdigesti",
        -10.40903462692543
      ],
      [
        "atic",
        -10.4090457660426
      ],
      [
        "Ġbulb",
        -10.40912073644662
      ],
      [
        "Ġfascinating",
        -10.409125196602476
      ],
      [
        "Ġcompact",
        -10.409254549347194
      ],
      [
        "Ġshed",
        -10.409378449947807
      ],
      [
        "Ġcircle",
        -10.409404462223511
      ],
      [
        "Figure",
        -10.410194493647056
      ],
      [
        "Ġrespectively",
        -10.411220766819618
      ],
      [
        "Ġdigest",
        -10.412010633130128
      ],
      [
        "See",
        -10.412382106187993
      ],
      [
        "Ġanalyz",
        -10.4125397645328
      ],
      [
        "Ġboy",
        -10.412642686855218
      ],
      [
        "ought",
        -10.413385209332551
      ],
      [
        "Ġconsult",
        -10.413713162799748
      ],
      [
        "Ġscrew",
        -10.414410531205938
      ],
      [
        "Ġtumor",
        -10.414410756090284
      ],
      [
        "industrie",
        -10.414460867735343
      ],
      [
        "ĠGreek",
        -10.41449225565618
      ],
      [
        "Ġyeast",
        -10.414531245089185
      ],
      [
        "Ġusage",
        -10.414550388673378
      ],
      [
        "ĠBio",
        -10.414630011960265
      ],
      [
        "you",
        -10.4148471106763
      ],
      [
        "Ġrepeat",
        -10.415337801593054
      ],
      [
        "Share",
        -10.415460382385122
      ],
      [
        "Ġalcohol",
        -10.415997723869044
      ],
      [
        "ĠPh",
        -10.416102383345368
      ],
      [
        "Ġpossibl",
        -10.416523935811773
      ],
      [
        "Ġbath",
        -10.416691578040387
      ],
      [
        "ĠAC",
        -10.417839812315751
      ],
      [
        "Ġprinter",
        -10.418106488645346
      ],
      [
        "Ġautomat",
        -10.41832619326392
      ],
      [
        "ĠLake",
        -10.418352266634288
      ],
      [
        "Ġscar",
        -10.418417318338328
      ],
      [
        "Ġdiagnose",
        -10.419323988665774
      ],
      [
        "Ġpackage",
        -10.41935300224458
      ],
      [
        "Ġwoman",
        -10.419732603514277
      ],
      [
        "Ġsouthern",
        -10.419735625256113
      ],
      [
        "Ġidentit",
        -10.419760797088175
      ],
      [
[...]
