{
  "version": "1.0",
  "truncation": null,
  "padding": null,
  "added_tokens": [
    {
      "id": 0,
      "content": "<|bos|>",
      "single_word": false,
      "lstrip": false,
      "rstrip": false,
      "normalized": false,
      "special": true
    },
    {
      "id": 1,
      "content": "<|user_start|>",
      "single_word": false,
      "lstrip": false,
      "rstrip": false,
      "normalized": false,
      "special": true
    },
    {
      "id": 2,
      "content": "<|user_end|>",
      "single_word": false,
      "lstrip": false,
      "rstrip": false,
      "normalized": false,
      "special": true
    },
    {
      "id": 3,
      "content": "<|assistant_start|>",
      "single_word": false,
      "lstrip": false,
      "rstrip": false,
      "normalized": false,
      "special": true
    },
    {
      "id": 4,
      "content": "<|assistant_end|>",
      "single_word": false,
      "lstrip": false,
      "rstrip": false,
      "normalized": false,
      "special": true
    },
    {
      "id": 5,
      "content": "<|python_start|>",
      "single_word": false,
      "lstrip": false,
      "rstrip": false,
      "normalized": false,
      "special": true
    },
    {
      "id": 6,
      "content": "<|python_end|>",
      "single_word": false,
      "lstrip": false,
      "rstrip": false,
      "normalized": false,
      "special": true
    },
    {
      "id": 7,
      "content": "<|output_start|>",
      "single_word": false,
      "lstrip": false,
      "rstrip": false,
      "normalized": false,
      "special": true
    },
    {
      "id": 8,
      "content": "<|output_end|>",
      "single_word": false,
      "lstrip": false,
      "rstrip": false,
      "normalized": false,
      "special": true
    },
    {
      "id": 9,
      "content": "<|unk|>",
      "single_word": false,
      "lstrip": false,
      "rstrip": false,
      "normalized": false,
      "special": true
    }
  ],
  "normalizer": null,
  "pre_tokenizer": {
    "type": "Sequence",
    "pretokenizers": [
      {
        "type": "Split",
        "pattern": {
          "Regex": "'(?i:[sdmt]|ll|ve|re)|[^\\r\\n\\p{L}\\p{N}]?+\\p{L}+|\\p{N}{1,2}| ?[^\\s\\p{L}\\p{N}]++[\\r\\n]*|\\s*[\\r\\n]|\\s+(?!\\S)|\\s+"
        },
        "behavior": "Isolated",
        "invert": false
      },
      {
        "type": "ByteLevel",
        "add_prefix_space": false,
        "trim_offsets": true,
        "use_regex": false
      }
    ]
  },
  "post_processor": {
    "type": "TemplateProcessing",
    "single": [
      {
        "Sequence": {
          "id": "A",
          "type_id": 0
        }
      }
    ],
    "pair": [
      {
        "Sequence": {
          "id": "A",
          "type_id": 0
        }
      },
      {
        "Sequence": {
          "id": "B",
          "type_id": 1
        }
      }
    ],
    "special_tokens": {}
  },
  "decoder": null,
  "model": {
    "type": "Unigram",
    "unk_id": 9,
    "vocab": [
      [
        "<|bos|>",
        0.0
      ],
      [
        "<|user_start|>",
        0.0
      ],
      [
        "<|user_end|>",
        0.0
      ],
      [
        "<|assistant_start|>",
        0.0
      ],
      [
        "<|assistant_end|>",
        0.0
      ],
      [
        "<|python_start|>",
        0.0
      ],
      [
        "<|python_end|>",
        0.0
      ],
      [
        "<|output_start|>",
        0.0
      ],
      [
        "<|output_end|>",
        0.0
      ],
      [
        "<|unk|>",
        0.0
      ],
      [
        "Ġ",
        -2.1561045836603796
      ],
      [
        "s",
        -3.0423239047776605
      ],
      [
        ",",
        -3.5741167133108185
      ],
      [
        "Ġthe",
        -3.6138106896031967
      ],
      [
        ".",
        -3.826255212361465
      ],
      [
        "a",
        -4.101900312714362
      ],
      [
        "Ġof",
        -4.253163270320957
      ],
      [
        "Ġto",
        -4.381848588766816
      ],
      [
        "d",
        -4.493180569415378
      ],
      [
        "Ġand",
        -4.560344880693947
      ],
      [
        "ing",
        -4.576709584539245
      ],
      [
        "e",
        -4.577000310913936
      ],
      [
        "t",
        -4.5834380195984945
      ],
      [
        "Ġin",
        -4.805335963426314
      ],
      [
        "y",
        -4.840737645301726
      ],
      [
        "o",
        -4.8965264004783275
      ],
      [
        "and",
        -4.918410176849365
      ],
      [
        "Ċ",
        -5.043538567602214
      ],
      [
        "'",
        -5.0520510227377216
      ],
      [
        "0",
        -5.128449101992706
      ],
      [
        "i",
        -5.180582748341047
      ],
      [
        "Ġthat",
        -5.18851644324292
      ],
      [
        "Ġfor",
        -5.221618087483325
      ],
      [
        "1",
        -5.303422275177397
      ],
      [
        "n",
        -5.32180518622088
      ],
      [
        ":",
        -5.324055160319812
      ],
      [
        "ly",
        -5.344713136489867
      ],
      [
        "Ġwith",
        -5.427560938064026
      ],
      [
        ".ĊĊ",
        -5.447695954870538
      ],
      [
        "Ġyou",
        -5.484975824579511
      ],
      [
        "is",
        -5.521195611399564
      ],
      [
        "2",
        -5.527704408482212
      ],
      [
        "Ġbe",
        -5.573791520059542
      ],
      [
        ".Ċ",
        -5.587061821214888
      ],
      [
        "Ġis",
        -5.683963450279492
      ],
      [
        "Ġcan",
        -5.720209013826533
      ],
      [
        "Ġare",
        -5.723751618095838
      ],
      [
        "r",
        -5.727435199724178
      ],
      [
        "ed",
        -5.748475013325589
      ],
      [
        "on",
        -5.764214167917247
      ],
      [
        "ĊĊ",
        -5.806538634906158
      ],
      [
        "-",
        -5.828972395403083
      ],
      [
        "the",
        -5.8729032299786965
      ],
      [
        "Ġyour",
        -5.873782752140082
      ],
      [
        "f",
        -5.989888342039228
      ],
      [
        "Ġa",
        -6.018743854691467
      ],
      [
        "to",
        -6.049922715428849
      ],
      [
        "(",
        -6.053917571696086
      ],
      [
        "Ġhave",
        -6.060402475273861
      ],
      [
        "\"",
        -6.06077478095148
      ],
      [
        "Ġfrom",
        -6.06338920460111
      ],
      [
        "?",
        -6.104184254975815
      ],
      [
        ")",
        -6.1235892999306785
      ],
      [
        "ĠThe",
        -6.13604770693231
      ],
      [
        "3",
        -6.187049838789729
      ],
      [
        "5",
        -6.1986934649104395
      ],
      [
        "in",
        -6.201532736303204
      ],
      [
        "it",
        -6.2234967383521
      ],
      [
        "Ġby",
        -6.254562108521094
      ],
      [
        "I",
        -6.308026352820024
      ],
      [
        "Ġnot",
        -6.314826079915115
      ],
      [
        "Ġthis",
        -6.320453519012622
      ],
      [
        "Ġor",
        -6.33938017968045
      ],
      [
        "The",
        -6.3643084637305805
      ],
      [
        "4",
        -6.370613551195225
      ],
      [
        "Ġwill",
        -6.370625476005163
      ],
      [
        "Ġtheir",
        -6.378193333878398
      ],
      [
        "l",
        -6.413508023156558
      ],
      [
        "9",
        -6.435344248867995
      ],
      [
        "of",
        -6.438900391614855
      ],
      [
        "Ġas",
        -6.4435180945914485
      ],
      [
        "ĠI",
        -6.459173556619916
      ],
      [
        "Ġan",
        -6.489329008783232
      ],
      [
        "or",
        -6.516071494852115
      ],
      [
        "are",
        -6.537840443807333
      ],
      [
        "Ġwas",
        -6.546836227822897
      ],
      [
        "Ġthey",
        -6.584576563089939
      ],
      [
        "m",
        -6.600091366083532
      ],
      [
        "Ġmore",
        -6.616136323554281
      ],
      [
        "6",
        -6.647842751552902
      ],
      [
        "Ġbut",
        -6.656022434208596
      ],
      [
        "Ġwhich",
        -6.664542596839402
      ],
      [
        "Question",
        -6.6721760440333515
      ],
      [
        "8",
        -6.706262591607016
      ],
      [
        "A",
        -6.747966585456631
      ],
      [
        "Ġhas",
        -6.749134906704025
      ],
      [
        "ĠAnswer",
        -6.753315161196422
      ],
      [
        "Ġalso",
        -6.760503159515155
      ],
      [
        "7",
        -6.77144558694515
      ],
      [
        "Ġwe",
        -6.787240428343637
      ],
      [
        "about",
        -6.79056532836662
      ],
      [
        "Ġwhen",
        -6.928835458572831
      ],
      [
        "c",
        -6.949287121909418
      ],
      [
        "Ġmay",
        -6.99383901362803
      ],
      [
        "h",
        -7.024754885111587
      ],
      [
        "Ġthem",
        -7.029035335062195
      ],
      [
        "Ġtime",
        -7.031899823516175
      ],
      [
        "Ġlike",
        -7.0539870629546915
      ],
      [
        "ies",
        -7.061825187033163
      ],
      [
        "Ġinto",
        -7.068095219900167
      ],
      [
        "one",
        -7.073904648066895
      ],
      [
        "Ġother",
        -7.074799658873465
      ],
      [
        "Ġall",
        -7.083961643713669
      ],
      [
        "an",
        -7.086846833774709
      ],
      [
        "Ġit",
        -7.092115474283741
      ],
      [
        "Ġsome",
        -7.094850704874144
      ],
      [
        "ĠThis",
        -7.127718370300142
      ],
      [
        "Ġup",
        -7.155563417260947
      ],
      [
        "Ġhow",
        -7.164125238101461
      ],
      [
        "Ġthese",
        -7.165445820082207
      ],
      [
        "Ġwhat",
        -7.166477213065415
      ],
      [
        "Ġ(",
        -7.175719511651643
      ],
      [
        "Ġthere",
        -7.1809739273234605
      ],
      [
        "Ġout",
        -7.190902845254971
      ],
      [
        "Ġwater",
        -7.196316756186768
      ],
      [
        "ĠIt",
        -7.201791464432958
      ],
      [
        "ĠWhat",
        -7.203122288372418
      ],
      [
        "cause",
        -7.221036738926122
      ],
      [
        "Ġthan",
        -7.22236477028426
      ],
      [
        "g",
        -7.229457187399769
      ],
      [
        "Ġsuch",
        -7.267150049703826
      ],
      [
        "Ġbeen",
        -7.290653176262445
      ],
      [
        "Ġmake",
        -7.306998495360286
      ],
      [
        "at",
        -7.312316109557585
      ],
      [
        "?Ċ",
        -7.312351945418785
      ],
      [
        "Ġneed",
        -7.332365496569585
      ],
      [
        "Ġuse",
        -7.34441585309307
      ],
      [
        "ĠIn",
        -7.344689531958062
      ],
      [
        "Ġdo",
        -7.353646803174804
      ],
      [
        "u",
        -7.361709516663861
      ],
      [
        "ĠA",
        -7.366721116064706
      ],
      [
        "Ġwere",
        -7.375479548795758
      ],
      [
        "Ġany",
        -7.387932796881332
      ],
      [
        "Ġshould",
        -7.388645011194269
      ],
      [
        "Ġmost",
        -7.389053564288073
      ],
      [
        "Ġpeople",
        -7.389416307058704
      ],
      [
        "Ġhelp",
        -7.390874775143525
      ],
      [
        ";",
        -7.391413067608953
      ],
      [
        "Ġnew",
        -7.396388795286356
      ],
      [
        "Ġwould",
        -7.397281799153138
      ],
      [
        "Ġonly",
        -7.401047842865621
      ],
      [
        "able",
        -7.421228239908361
      ],
      [
        "as",
        -7.429107503353336
      ],
      [
        "Ġwho",
        -7.43333671411289
      ],
      [
        "Ġover",
        -7.453047091652158
      ],
      [
        "Ġjust",
        -7.463335669275482
      ],
      [
        "Ġget",
        -7.490129043913539
      ],
      [
        "Ġmany",
        -7.52580899787921
      ],
      [
        "our",
        -7.528244898943088
      ],
      [
        "Ġfirst",
        -7.531785149262626
      ],
      [
        "Ġon",
        -7.537385051922392
      ],
      [
        "/",
        -7.53752320714074
      ],
      [
        "Ġprovide",
        -7.55726764341663
      ],
      [
        "b",
        -7.564763438496101
      ],
      [
        "Ġused",
        -7.56685919820678
      ],
      [
        "Ġbetween",
        -7.568676482078905
      ],
      [
        "Ġhigh",
        -7.579697760256783
      ],
      [
        "re",
        -7.587499396664118
      ],
      [
        "Ġthrough",
        -7.587941103166491
      ],
      [
        "Ġdifferent",
        -7.58964504054153
      ],
      [
        "Ġi",
        -7.596615599891743
      ],
      [
        "Ġsystem",
        -7.604392377519503
      ],
      [
        "very",
        -7.604838563029279
      ],
      [
        "Ġtwo",
        -7.60749353478767
      ],
      [
        "Ġcould",
        -7.608162115286996
      ],
      [
        "Ġwhere",
        -7.612754565648306
      ],
      [
        "What",
        -7.641184100698055
      ],
      [
        "Ġtake",
        -7.653896198980274
      ],
      [
        "Ġwork",
        -7.662228591285793
      ],
      [
        "Ġevery",
        -7.682882787059239
      ],
      [
        "Ġmy",
        -7.707672750280945
      ],
      [
        "Ġwell",
        -7.70868712734595
      ],
      [
        "S",
        -7.711862089332627
      ],
      [
        "!",
        -7.712904469084957
      ],
      [
        "Ġmuch",
        -7.72355535528623
      ],
      [
        "while",
        -7.7379393856942205
      ],
      [
        "us",
        -7.739164964559418
      ],
      [
        "Ġeven",
        -7.744883401273955
      ],
      [
        "al",
        -7.7531882439307
      ],
      [
        "p",
        -7.753283638077792
      ],
      [
        "Ġgo",
        -7.759943381147277
      ],
      [
        "w",
        -7.761949947931922
      ],
      [
        "out",
        -7.762514616500943
      ],
      [
        "ĠThey",
        -7.764193185957409
      ],
      [
        "Ġlong",
        -7.765293566214715
      ],
      [
        "ever",
        -7.769880910336617
      ],
      [
        "Ġimportant",
        -7.785824445677075
      ],
      [
        "Ġwant",
        -7.788960945841872
      ],
      [
        "Ġyears",
        -7.793268358087898
      ],
      [
        "Ġchange",
        -7.795271376948989
      ],
      [
        "Ġgood",
        -7.797396096467438
      ],
      [
        "es",
        -7.802828179068191
      ],
      [
        "Ġdoes",
        -7.802863676775291
      ],
      [
        ").",
        -7.802899874610758
      ],
      [
        "around",
        -7.818677046665317
      ],
      [
        "Ġknow",
        -7.822561962160643
      ],
      [
        "Ġfood",
        -7.826353047229899
      ],
      [
        "for",
        -7.826532692205037
      ],
      [
        "its",
        -7.830683042916651
      ],
      [
        "Ġprocess",
        -7.833258637783696
      ],
      [
        "Ġsee",
        -7.834471371094194
      ],
      [
        "Ġafter",
        -7.847472647436875
      ],
      [
        "ity",
        -7.848104728938397
      ],
      [
        "Ġway",
        -7.854731872902128
      ],
      [
        "ĠYou",
        -7.863719849000904
      ],
      [
        "In",
        -7.863930458771493
      ],
      [
        "Ġhealth",
        -7.868818104139768
      ],
      [
        "Ġlevel",
        -7.869322296799241
      ],
      [
        "This",
        -7.879223725348079
      ],
      [
        "ve",
        -7.879718490435374
      ],
      [
        "Ġat",
        -7.882336360778234
      ],
      [
        "How",
        -7.889929087275548
      ],
      [
        "Ġbeing",
        -7.895939837723828
      ],
      [
        "Ġusing",
        -7.898424048850524
      ],
      [
        "Ġworld",
        -7.907829903223427
      ],
      [
        "T",
        -7.912626534924177
      ],
      [
        "during",
        -7.91337213536334
      ],
      [
        "Ġcreate",
        -7.914590365834028
      ],
      [
        "Ġdata",
        -7.918165702536864
      ],
      [
        "Ġbefore",
        -7.919959431524547
      ],
      [
        "made",
        -7.92211091737632
      ],
      [
        "C",
        -7.923212334923339
      ],
      [
        "Ġno",
        -7.93393172306408
      ],
      [
        "Ġproblem",
        -7.936020648511653
      ],
      [
        "Ġlarge",
        -7.936974753700122
      ],
      [
        "Ġone",
        -7.939800344700488
      ],
      [
        "by",
        -7.940116742121065
      ],
      [
        "Ġfound",
        -7.941076747383924
      ],
      [
        "Ġboth",
        -7.942818876739436
      ],
      [
        "Ġlife",
        -7.942975437142321
      ],
      [
        "D",
        -7.953605919486477
      ],
      [
        "Ġthose",
        -7.955847989364509
      ],
      [
        "Ġsmall",
        -7.971040765958442
      ],
      [
        "Ġmaterial",
        -7.987484350797561
      ],
      [
        "Ġhuman",
        -7.989140576535957
      ],
      [
        "%",
        -7.990086204040775
      ],
      [
        "if",
        -7.997107172649652
      ],
      [
        "Ġarea",
        -7.999030820149971
      ],
      [
        "Ġoften",
        -7.999099681294106
      ],
      [
        "Ġenergy",
        -8.000715278975992
      ],
      [
        "Ġpart",
        -8.015512939384319
      ],
      [
        "Ġnumber",
        -8.0156397223808
      ],
      [
        "Ġcommon",
        -8.020502402440082
      ],
      [
        "Ġlook",
        -8.02858820304083
      ],
      [
        "Ġdown",
        -8.033682431734679
      ],
      [
        "um",
        -8.036975622468868
      ],
      [
        "ĠHow",
        -8.03847566146895
      ],
      [
        "he",
        -8.041150747022256
      ],
      [
        "Ġstart",
        -8.041671587061732
      ],
      [
        "Ġplace",
        -8.044556131512273
      ],
      [
        "Ġback",
        -8.04700582707795
      ],
      [
        "all",
        -8.047139946775635
      ],
      [
        "Ġexample",
        -8.048602930869205
      ],
      [
        "Ġinformation",
        -8.053949384290151
      ],
      [
        "Ġyear",
        -8.054149402206642
      ],
      [
        "Ġincrease",
        -8.058499110790239
      ],
      [
        "Ġbest",
        -8.067003634966092
      ],
      [
        "Ġhis",
        -8.068539129018717
      ],
      [
        "Ġcause",
        -8.069456438330453
      ],
      [
        "Ġbody",
        -8.072242696744798
      ],
      [
        "Ġfind",
        -8.073616841576715
      ],
      [
        "Ġhad",
        -8.077217668375965
      ],
      [
        "Ġinclude",
        -8.08006856683809
      ],
      [
        "Ġlight",
        -8.08463813374237
      ],
      [
        "use",
        -8.08824659262798
      ],
      [
        "ĠIf",
        -8.09057390606856
      ],
      [
        "be",
        -8.10421383664042
      ],
      [
        "Ġresearch",
        -8.112427109216107
      ],
      [
        "Ġdon",
        -8.115948988426709
      ],
      [
        "),",
        -8.118660063297584
      ],
      [
        "Ġsaid",
        -8.129339049103947
      ],
      [
        "Ġexperience",
        -8.131291250696849
      ],
      [
        "Ġright",
        -8.135207971147352
      ],
      [
        "ĠWe",
        -8.147517732461944
      ],
      [
        "Ġmight",
        -8.149960093183504
      ],
      [
        "ĠC",
        -8.151580096311857
      ],
      [
        "used",
        -8.156604025111754
      ],
      [
        "Ġlead",
        -8.16262070293675
      ],
      [
        "Ġstudy",
        -8.165502355320143
      ],
      [
        "Ġunder",
        -8.166983133682482
      ],
      [
        "Ġbetter",
        -8.16780741792249
      ],
      [
        "ness",
        -8.172192518693661
      ],
      [
        "âĢĵ",
        -8.175159994420785
      ],
      [
        "Ġpower",
        -8.182090461755115
      ],
      [
        "ĠFor",
        -8.184913454381533
      ],
      [
        "Ġdesign",
        -8.19007573001977
      ],
      [
        "Ġits",
        -8.195204624026097
      ],
      [
        "Ġgrow",
        -8.196491955209542
      ],
      [
        "Ġplant",
        -8.197797630692971
      ],
      [
        "Ġshow",
        -8.206641319121182
      ],
      [
        "Ġhome",
        -8.20804509561505
      ],
      [
        "ally",
        -8.212239526003145
      ],
      [
        "ĠB",
        -8.213599880726477
      ],
      [
        "Ġspecies",
        -8.215206056188066
      ],
      [
        "Ġso",
        -8.222309869036469
      ],
      [
        "Ġstill",
        -8.223829838318368
      ],
      [
        "Ġincluding",
        -8.226497090996443
      ],
      [
        "Ġplants",
        -8.228285670176593
      ],
      [
        "Ġgreat",
        -8.229616234624338
      ],
      [
        "Ġsupport",
        -8.235362500212636
      ],
      [
        "ĠThese",
        -8.237196347978633
      ],
      [
        "Ġallow",
        -8.240355492272036
      ],
      [
        "Ġour",
        -8.240631533340732
      ],
      [
        "Ġnatural",
        -8.24471111351155
      ],
      [
        "Ġstudents",
        -8.245518634509999
      ],
      [
        "Ġproduct",
        -8.248889326860848
      ],
      [
        "Ġfew",
        -8.251111034182633
      ],
      [
        "B",
        -8.25420426709553
      ],
      [
        "ability",
        -8.25714318262164
      ],
      [
        "Ġcontrol",
        -8.258181327723207
      ],
      [
        "Ġday",
        -8.259818664021328
      ],
      [
        "less",
        -8.26544659038328
      ],
      [
        "Ġrisk",
        -8.266836539504506
      ],
      [
        "Ġbase",
        -8.269534614575988
      ],
      [
        "Ġeffect",
        -8.269779461429742
      ],
      [
        "Ġthink",
        -8.271463282068005
      ],
      [
        "Ġform",
        -8.275616705155631
      ],
      [
        "Ġmethod",
        -8.282690297209875
      ],
      [
        "ĠâĢĵ",
        -8.283143319223203
      ],
      [
        ":ĊĊ",
        -8.291347977996775
      ],
      [
        "Ġcase",
        -8.29198351706586
      ],
      [
        "Ġindividual",
        -8.300797653320586
      ],
      [
        "Ġagain",
        -8.303805195146381
      ],
      [
        "Ġchildren",
        -8.308867936511156
      ],
      [
        "Ġresult",
        -8.312060518219294
      ],
      [
        "Ġtemperature",
        -8.315290127221816
      ],
      [
        "Ġpotential",
        -8.324931014841958
      ],
      [
        "âĢĻ",
        -8.325673631157333
      ],
      [
        "ĠTo",
        -8.326377487545813
      ],
      [
        "Ġdog",
        -8.329274978942685
      ],
      [
        "other",
        -8.331755822031472
      ],
      [
        "Ġgive",
        -8.33278122309391
      ],
      [
        "Ġmust",
        -8.339778588435717
      ],
      [
        "Ġissue",
        -8.341259722473099
      ],
      [
        "Ġkeep",
        -8.342133317732616
      ],
      [
        "Ġoff",
        -8.344747487777667
      ],
      [
        "Ġprevent",
        -8.345489310270892
      ],
      [
        "Ġmodel",
        -8.345703979479161
      ],
      [
        "Ġreduce",
        -8.345984428151672
      ],
      [
        "more",
        -8.347739185420203
      ],
      [
        "ĠBut",
        -8.35058995507959
      ],
      [
        "Ġprogram",
        -8.351453940767966
      ],
      [
        "Ġthree",
        -8.356571132366016
      ],
      [
        "Ġspecific",
        -8.359454869813671
      ],
      [
        "k",
        -8.36129280652643
      ],
      [
        "ll",
        -8.368475741395777
      ],
      [
        "that",
        -8.369260315579456
      ],
      [
        "Ġtype",
        -8.37192262319061
      ],
      [
        "Ġsoil",
        -8.37325700793992
      ],
      [
        "Ġcurrent",
        -8.374994345741912
      ],
      [
        "When",
        -8.378191620811595
      ],
      [
        "Ġblood",
        -8.379616433791751
      ],
      [
        "Ġb",
        -8.382462045183953
      ],
      [
        "Ġmaking",
        -8.38472788045564
      ],
      [
        "Ġcar",
        -8.385184314078884
      ],
      [
        "x",
        -8.386075203127827
      ],
      [
        "Ġknown",
        -8.389131275318196
      ],
      [
        "Ġproject",
        -8.392539620078201
      ],
      [
        "Ġvalue",
        -8.397608413879128
      ],
      [
        "Ġsurface",
        -8.399611640011099
      ],
      [
        "Ġper",
        -8.400531619485283
      ],
      [
        "Ġsize",
        -8.401901922169568
      ],
      [
        ":Ċ",
        -8.40204721848664
      ],
      [
        "...",
        -8.404898077649086
      ],
      [
        "each",
        -8.409686328079832
      ],
      [
        "Ġvarious",
        -8.410547858385453
      ],
      [
        "Ġtest",
        -8.411065759919175
      ],
      [
        "day",
        -8.41112567606537
      ],
      [
        "can",
        -8.418035169384211
      ],
      [
        "Ġgroup",
        -8.421116977542638
      ],
      [
        "Ġher",
        -8.42355046916812
      ],
      [
        "Ġbecome",
        -8.425390495913991
      ],
      [
        "Ġensure",
        -8.425972905034872
      ],
      [
        "Ġwithin",
        -8.426488478642014
      ],
      [
        "Ġair",
        -8.431425986585467
      ],
      [
        "If",
        -8.433817990855005
      ],
      [
        "ation",
        -8.443411851282839
      ],
      [
        "Ġdisease",
        -8.446676842996048
      ],
      [
        "Ġimpact",
        -8.449233965730262
      ],
      [
        "Ġwhy",
        -8.452425513739783
      ],
      [
        "Ġspace",
        -8.453791016234907
      ],
      [
        "you",
        -8.45545399882172
      ],
      [
        "another",
        -8.455955433358305
      ],
      [
        "Ġfunction",
        -8.456198423517321
      ],
      [
        "!Ċ",
        -8.457171530347022
      ],
      [
        "er",
        -8.459240573601543
      ],
      [
        "Ġweek",
        -8.459335953721006
      ],
      [
        "Ġbenefit",
        -8.45956346116284
      ],
      [
        "Ġschool",
        -8.460554869128647
      ],
      [
        "Ġamount",
        -8.464096830442973
      ],
      [
        "Ġcalled",
        -8.46600126539794
      ],
      [
        "Ġreally",
        -8.466504851528406
      ],
      [
        "Ġfish",
        -8.468489868529154
      ],
      [
        "th",
        -8.468521045326668
      ],
      [
        "Ġfollowing",
        -8.468530141654666
      ],
      [
        "something",
        -8.470319182154476
      ],
      [
        "Ġcost",
        -8.472457938533559
      ],
      [
        "ĠAnd",
        -8.47735137705219
      ],
      [
        "Ġdue",
        -8.479731782167825
      ],
      [
        "Ġeach",
        -8.480358630489945
      ],
      [
        "Ġenvironment",
        -8.48608278452198
      ],
      [
        "from",
        -8.493218500254986
      ],
      [
        "You",
        -8.495501727267234
      ],
      [
        "Ġmain",
        -8.5036455501122
      ],
      [
        "Ġheat",
        -8.503866130803305
      ],
      [
        "Ġsam",
        -8.506877057755373
      ],
      [
        "Ġdevice",
        -8.507128064875733
      ],
      [
        "ĠThere",
        -8.511058225421053
      ],
      [
        "alway",
        -8.511935828657542
      ],
      [
        "Ġrequire",
        -8.518445018086519
      ],
      [
        "Ġrange",
        -8.519543266736287
      ],
      [
        "Ġnow",
        -8.51970375584631
      ],
      [
        "Ġpoint",
        -8.520149870468451
      ],
      [
        "Ġmeans",
        -8.522800245667128
      ],
      [
        "P",
        -8.524330199573456
      ],
      [
        "Ġcolor",
        -8.529726386567813
      ],
      [
        "Ġlittle",
        -8.531259232016598
      ],
      [
        "Ġcome",
        -8.533827964869436
      ],
      [
        "Ġpossible",
        -8.534120082856369
      ],
      [
        "Ġimprove",
        -8.534232505715218
      ],
      [
        "technology",
        -8.539379592713134
      ],
      [
        "this",
        -8.540173529807955
      ],
      [
        "self",
        -8.540461033916444
      ],
      [
        "Ġcells",
        -8.540703642863644
      ],
      [
        "Ġstate",
        -8.541466495877213
      ],
      [
        "âĢĶ",
        -8.546136055528898
      ],
      [
        "Ġplay",
        -8.553137578650729
      ],
      [
        "Ġclose",
        -8.55409614789359
      ],
      [
        "=",
        -8.560347413535279
      ],
      [
        "Ġcare",
        -8.561421381371863
      ],
      [
        "Ġlearn",
        -8.561799639465764
      ],
      [
        "Ġt",
        -8.56460748951004
      ],
      [
        "Ġlearning",
        -8.565736341487924
      ],
      [
        "v",
        -8.567857713373606
      ],
      [
        "Ġth",
        -8.568844455993174
      ],
      [
        "Ġoption",
        -8.570024489590345
      ],
      [
        "There",
        -8.570525227139097
      ],
      [
        "Ġfield",
        -8.572501891132156
      ],
      [
        "Ġactual",
        -8.57299806942679
      ],
      [
        "way",
        -8.578300171249982
      ],
      [
        "Ġperson",
        -8.578451389979438
      ],
      [
        "Ġproper",
        -8.583020293627957
      ],
      [
        "Ġtreatment",
        -8.583098270511385
      ],
      [
        "things",
        -8.584610668822428
      ],
      [
        "ĠS",
        -8.586539959099845
      ],
      [
        "Ġimage",
        -8.588211763720896
      ],
      [
        "Ġleave",
        -8.592374127664879
      ],
      [
        "Ġdevelopment",
        -8.592374297149302
      ],
      [
        "Ġseveral",
        -8.595903121635475
      ],
      [
        "enough",
        -8.600244448483345
      ],
      [
        "Ġuntil",
        -8.601836438796061
      ],
      [
        "Ġsignificant",
        -8.604442942326433
      ],
      [
        "Ġanimal",
        -8.605123527358186
      ],
      [
        "Ġme",
        -8.605182955967322
      ],
      [
        "Ġgeneral",
        -8.6058723248807
      ],
      [
        "Ġcomplete",
        -8.605929103512729
      ],
      [
        "Ġcontain",
        -8.609720624854887
      ],
      [
        "Ġavailable",
        -8.609774716989776
      ],
      [
        "Ġessential",
        -8.61209999254503
      ],
      [
        "Ġorder",
        -8.619642469103532
      ],
      [
        "Ġfeel",
        -8.620014400037572
      ],
      [
        "Ġopen",
        -8.624702351787066
      ],
      [
        "Ġneeds",
        -8.625930358434243
      ],
      [
        "E",
        -8.627284497449578
      ],
      [
        "though",
        -8.630653069123792
      ],
      [
        "ĠSo",
        -8.631079645609649
      ],
      [
        "Ġun",
        -8.633507995700016
      ],
      [
        "Ġgarden",
        -8.64177456163647
      ],
      [
        "Ġend",
        -8.642535237192854
      ],
      [
        "Ġcertain",
        -8.64404525739517
      ],
      [
        "ĠUniversity",
        -8.647349943148248
      ],
      [
        "Ġparticular",
        -8.648200199067743
      ],
      [
        "ion",
        -8.649083300468199
      ],
      [
        "Ġhard",
        -8.652023562658592
      ],
      [
        "Ġeffective",
        -8.652610423700626
      ],
      [
        "Ġown",
        -8.65337002658491
      ],
      [
        "Ġpressure",
        -8.654689899551652
      ],
      [
        "Ġoffer",
        -8.659794225162367
      ],
      [
        "Ġadd",
        -8.661068736535022
      ],
      [
        "using",
        -8.66110393104313
      ],
      [
        "ĠWhen",
        -8.66396334940601
      ],
      [
        "with",
        -8.66763200931576
      ],
      [
        "Ġfree",
        -8.668372611665307
      ],
      [
        "Ġnear",
        -8.669462451881234
      ],
      [
        "Ġlow",
        -8.673558069165823
      ],
      [
        "ĠWhich",
        -8.674039285009355
      ],
      [
        "F",
        -8.674578800541493
      ],
      [
        "ĠP",
        -8.675179252244561
      ],
      [
        "Ġlocal",
        -8.676517341989124
      ],
      [
        "Ġdid",
        -8.678584912628416
      ],
      [
        "Ġconditions",
        -8.678687336492402
      ],
      [
        "Ġquality",
        -8.68129256877623
      ],
      [
        "most",
        -8.682450967723991
      ],
      [
        "Ġunderstand",
        -8.6852166922557
      ],
      [
        "Ġdifference",
        -8.687159306600886
      ],
      [
        "Ġconsider",
        -8.688614112436351
      ],
      [
        "Ġpatient",
        -8.689649185427943
      ],
      [
        "thing",
        -8.690714379750593
      ],
      [
        "Ġdiet",
        -8.69114227095282
      ],
      [
        "Ġtext",
        -8.691453189608744
      ],
      [
        "M",
        -8.69332837109378
      ],
      [
        "Ġchild",
        -8.693777771912096
      ],
      [
        "how",
        -8.694141018314056
      ],
      [
        "Ġlive",
        -8.69885831930324
      ],
      [
        "Ġsolution",
        -8.70135265329645
      ],
      [
        "Ġless",
        -8.703103235455625
      ],
      [
        "Ġfamily",
        -8.704191883914316
      ],
      [
        "Ġgrowth",
        -8.705126028771275
      ],
      [
        "Ġsince",
        -8.707392842718875
      ],
      [
        "Ġsay",
        -8.708639075174009
      ],
      [
        "ĠAs",
        -8.711128662904137
      ],
      [
        "Ġmakes",
        -8.711232201353113
      ],
      [
        "ame",
        -8.714747241832116
      ],
      [
        "Ġhappen",
        -8.717596666487403
      ],
      [
        "ĠM",
        -8.720213669775493
      ],
      [
        "Ġteam",
        -8.721541418629325
      ],
      [
        "ĠHe",
        -8.724383259413276
      ],
      [
        "Ġcourse",
        -8.724514784046942
      ],
      [
        "your",
        -8.725167346411666
      ],
      [
        "Ġobject",
        -8.725937076265422
      ],
      [
        "Ġmeasure",
        -8.727530457751797
      ],
      [
        "Ġhigher",
        -8.728327376820065
      ],
      [
        "ver",
        -8.728420016348498
      ],
      [
        "ar",
        -8.73017959106733
      ],
      [
        ",\"",
        -8.732920300724327
      ],
      [
        "Ġalong",
        -8.735847766483403
      ],
      [
        "Ġwide",
        -8.736870340040248
      ],
      [
        "$",
        -8.742906330727935
      ],
      [
        "Ġsure",
        -8.744880062817177
      ],
      [
        "Ġremain",
        -8.747783467527253
      ],
      [
        "For",
        -8.754326343776949
      ],
      [
        "Ġprotect",
        -8.754424279764049
      ],
      [
        "Ġsimple",
        -8.757319099714472
      ],
      [
        "Ġunique",
        -8.759175955302261
      ],
      [
        "le",
        -8.761196820212263
      ],
      [
        "Ġnature",
        -8.761887181346264
      ],
      [
        "not",
        -8.762901541965462
      ],
      [
        "age",
        -8.76672753661051
      ],
      [
        "Ġtry",
        -8.767936053541472
      ],
      [
        "ic",
        -8.768998099447586
      ],
      [
        "Ġname",
        -8.76900652740295
      ],
      [
        "Ġset",
        -8.770475497484686
      ],
      [
        "Ġkey",
        -8.771792709324693
      ],
      [
        "Ġtypes",
        -8.772082862431686
      ],
      [
        "up",
        -8.77244425659791
      ],
      [
        "having",
        -8.772596728140737
      ],
      [
        "ĠD",
        -8.774481791573876
      ],
      [
        "ce",
        -8.77632008000642
      ],
      [
        "well",
        -8.77712641858629
      ],
      [
        "Ġterm",
        -8.780336582590241
      ],
      [
        "Ġoil",
        -8.780812068237356
      ],
      [
        "animals",
        -8.781278257609584
      ],
      [
        "Ġseem",
        -8.781318185782926
      ],
      [
        "Ġtogether",
        -8.781341082467103
      ],
      [
        "Ġfuture",
        -8.782030068015604
      ],
      [
        "Ġsafe",
        -8.78283872483346
      ],
      [
        "Ġresults",
        -8.784349713359298
      ],
      [
        "Ġperiod",
        -8.785118352698788
      ],
      [
        "Ġmarket",
        -8.786316610257334
      ],
      [
        "next",
        -8.787132532370359
      ],
      [
        "Ġvariet",
        -8.790160659407473
      ],
      [
        "Ġside",
        -8.791224605123695
      ],
      [
        "ĠWith",
        -8.791647451238166
      ],
      [
        "ary",
        -8.792646413993143
      ],
      [
        "arly",
        -8.792953495540395
      ],
      [
        "Ġgas",
        -8.793579990916083
      ],
      [
        "Ġnon",
        -8.794400612422297
      ],
      [
        "Ġhand",
        -8.79488425206172
      ],
      [
        "Ġsuggest",
        -8.795915804230848
      ],
      [
        "Ġweight",
        -8.798417162877321
      ],
      [
        "ĠBy",
        -8.802324481825945
      ],
      [
        "&",
        -8.805119561021389
      ],
      [
        "Ġshe",
        -8.807390236089766
      ],
      [
        "Ġeye",
        -8.808831294574583
      ],
      [
        "*",
        -8.81129647755413
      ],
      [
        "H",
        -8.81453606293044
      ],
      [
        "Ġfactors",
        -8.817395044494042
      ],
      [
        "Ġlikely",
        -8.817594938603259
      ],
      [
        "Ġdirect",
        -8.818418435869416
      ],
      [
        "Ġusual",
        -8.818898953466968
      ],
      [
        "Ġremove",
        -8.820229125036104
      ],
      [
        "Ġeasy",
        -8.820431057735057
      ],
      [
        "Ġnormal",
        -8.820950795426366
      ],
      [
        "Ġsimilar",
        -8.821466772502234
      ],
      [
        "Ġrole",
        -8.821627495685746
      ],
      [
        "Ġcheck",
        -8.823439835209143
      ],
      [
        "Ġtimes",
        -8.82377870541475
      ],
      [
        "Ġpopulation",
        -8.82921787399839
      ],
      [
        "Ġstructure",
        -8.830926069733419
      ],
      [
        "Ġclear",
        -8.83111054083648
      ],
      [
        "W",
        -8.831653200853431
      ],
      [
        "Ġplan",
        -8.831663406464436
      ],
      [
        "Ġproduce",
        -8.835591970275033
      ],
      [
        "Ġdamage",
        -8.83714596756112
      ],
      [
        "have",
        -8.83977079603959
      ],
      [
        "Ġtop",
        -8.840134799142124
      ],
      [
        "Ġsecond",
        -8.845173067763135
      ],
      [
        "Ġfocus",
        -8.84518556080022
      ],
      [
        "Ġaffect",
        -8.845863384975779
      ],
      [
        "Ġmove",
        -8.846247686744071
      ],
      [
        "Ġcancer",
        -8.846403426687822
      ],
      [
        "Ġphysical",
        -8.850853544862446
      ],
      [
        "ĠThat",
        -8.851698933664414
      ],
      [
        "Ġmillion",
        -8.852791867412897
      ],
      [
        "Ġdoesn",
        -8.854476802059077
      ],
      [
        "Ġevent",
        -8.85476285784331
      ],
      [
        "Ġdifficult",
        -8.854805528821975
      ],
      [
        "Ġpresent",
        -8.855309857897403
      ],
      [
        "Ġhe",
        -8.855369627931234
      ],
      [
        "Ġbalance",
        -8.855460247393989
      ],
      [
        "Ġcomes",
        -8.858404828168712
      ],
      [
        "Ġabove",
        -8.860512370906779
      ],
      [
        "Ġhere",
        -8.86597777783862
      ],
      [
        "Ġpublic",
        -8.868142587770752
      ],
      [
        "Ġworking",
        -8.869059348716323
      ],
      [
        "Ġline",
        -8.869330976917375
      ],
      [
        "Ġforce",
        -8.870168288286877
      ],
      [
        "Ġground",
        -8.87100089893122
      ],
      [
        "has",
        -8.871865850495823
      ],
      [
        "Ġreal",
        -8.873124170397096
      ],
      [
        "Ġput",
        -8.87396163596333
      ],
      [
        "Ġlot",
        -8.874648379473037
      ],
      [
        "Ġnever",
        -8.876071457060563
      ],
      [
        "Ġshort",
        -8.876231778501776
      ],
      [
        "Ġturn",
        -8.879330387386219
      ],
      [
        "Ġstep",
        -8.87957522248459
      ],
      [
        "Ġrecommend",
        -8.880021810115668
      ],
      [
        "Ġpaper",
        -8.880468722601954
      ],
      [
        "+",
        -8.881888192182913
      ],
      [
        "Ġhealthy",
        -8.882825541891103
      ],
      [
        "either",
        -8.886168978559862
      ],
      [
        "Ġwhite",
        -8.887417244223446
      ],
      [
        "ĠE",
        -8.887464673471861
      ],
      [
        "Ġdays",
        -8.888681862605559
      ],
      [
        "where",
        -8.88872547378509
      ],
      [
        "Ġskin",
        -8.889691473340942
      ],
      [
        "Ġacross",
        -8.892062408801209
      ],
      [
        "Ġfull",
        -8.895601518877191
      ],
      [
        "Ġlower",
        -8.89903694242771
      ],
      [
        "Ġdevelop",
        -8.902364358258517
      ],
      [
        "We",
        -8.903732450345718
      ],
      [
        "Ġmean",
        -8.90415482779885
      ],
      [
        "Ġaway",
        -8.9059021407952
      ],
      [
        "Ġkind",
        -8.906270596567431
      ],
      [
        "z",
        -8.908890879129373
      ],
      [
        "systems",
        -8.911153548256538
      ],
      [
        "some",
        -8.912473313095035
      ],
      [
        "Ġtypical",
        -8.912716328999398
      ],
      [
        "Ġaddition",
        -8.913973934018738
      ],
      [
        "Ġblack",
        -8.914802945151802
      ],
      [
        "Ġstrong",
        -8.917411188773677
      ],
      [
        "Ġtoo",
        -8.917549272584921
      ],
      [
        "Ġsingle",
        -8.918554514326345
      ],
      [
        "Ġfact",
        -8.918690850966772
      ],
      [
        "Ġlove",
        -8.92227969456971
      ],
      [
        "O",
        -8.923124320986457
      ],
      [
        "Ġsource",
        -8.925579351396372
      ],
      [
        "Ġinterest",
        -8.927486607766905
      ],
      [
        "Ġheart",
        -8.9284228842536
      ],
      [
        "Ġchemical",
        -8.92896838785169
      ],
      [
        "Ġbuilding",
        -8.93023910917163
      ],
      [
        "Ġmatter",
        -8.931424544845303
      ],
      [
        "than",
        -8.931821636630955
      ],
      [
        ")ĊĊ",
        -8.932057771716917
      ],
      [
        "Ġlast",
        -8.932187510693101
      ],
      [
        "Ġscience",
        -8.932470149302407
      ],
      [
        "Ġnecessar",
        -8.932853408955438
      ],
      [
        "Ġrun",
        -8.942097625501425
      ],
      [
        "Ġamong",
        -8.942590844516655
      ],
      [
        "Ġaccording",
        -8.943430019676871
      ],
      [
        "Ġclean",
        -8.945550055665105
      ],
      [
        "Ġvideo",
        -8.945571873257077
      ],
      [
        "Ġdepend",
        -8.945672877602714
      ],
      [
        "Ġsocial",
        -8.947228561201747
      ],
      [
        "ĠNew",
        -8.947238541478646
      ],
      [
        "Ġaccess",
        -8.947427199237623
      ],
      [
        "Ġproduction",
        -8.948194830401928
      ],
      [
        "Ġgiven",
        -8.950048412463017
      ],
      [
        "Ġcondition",
        -8.95084246871113
      ],
      [
        "online",
        -8.952956903345726
      ],
      [
        "Ġdogs",
        -8.953710688436136
      ],
      [
        "Ġrecent",
        -8.954386272653322
      ],
      [
        "Ġregion",
        -8.955070768293265
      ],
      [
        "Ġcommunit",
        -8.957168870319826
      ],
      [
        "ĠNo",
        -8.957873040455983
      ],
      [
        "ment",
        -8.958943567359782
      ],
      [
        "Ġstore",
        -8.959315059707556
      ],
      [
        "Ġclimate",
        -8.960191262171895
      ],
      [
        "Ġsugar",
        -8.963128087269085
      ],
      [
        "Ġwomen",
        -8.964977698187532
      ],
      [
        "[",
        -8.966784320246155
      ],
      [
        "Ġloss",
        -8.96751122731414
      ],
      [
        "Ġenjoy",
        -8.969176814718445
      ],
      [
        "Ġreason",
        -8.97295101056102
      ],
      [
        "ĠYour",
        -8.973386863057142
      ],
      [
        "Ġcontent",
        -8.975583029703227
      ],
      [
        ").Ċ",
        -8.975682291995081
      ],
      [
        "ĠT",
        -8.9757835237725
      ],
      [
        "Ġspeed",
        -8.977291642202172
      ],
      [
        "Ġdry",
        -8.978162824391468
      ],
      [
        "Ġavoid",
        -8.980978659750711
      ],
      [
        "Ġsignal",
        -8.982373167113053
      ],
      [
        "Ġstandard",
        -8.98247117678432
      ],
      [
        "Ġshare",
        -8.983339717987146
      ],
      [
        "Ġquestion",
        -8.985679657133923
      ],
      [
        "Ġanswer",
        -8.986661782242063
      ],
      [
        "Ġcell",
        -8.987035338613687
      ],
      [
        "ng",
        -8.988589382110446
      ],
      [
        "Ġleft",
        -8.989140824780415
      ],
      [
        "Ġwarm",
        -8.990662490571996
      ],
      [
        "Ġapproach",
        -8.991215198820768
      ],
      [
        "once",
        -8.992283313664041
      ],
      [
        "Ġparent",
        -8.992701683743775
      ],
      [
        "It",
        -8.994733987890761
      ],
      [
        "Ġpattern",
        -8.995613192923685
      ],
      [
        "Ġminute",
        -8.99627246786249
      ],
      [
        "Ġfurther",
        -8.999067580752419
      ],
      [
        "Ġunderstanding",
        -9.001473975715873
      ],
      [
        "Ġbelieve",
        -9.004275226716505
      ],
      [
        "time",
        -9.00545095598782
      ],
      [
        "ctivities",
        -9.006928961612601
      ],
      [
        "Ġenvironmental",
        -9.00722895773649
      ],
      [
        "ĠSome",
        -9.007578642220318
      ],
      [
        "Ġappear",
        -9.007823484734269
      ],
      [
        "Ġadult",
        -9.010044647890671
      ],
      [
        "Ġskills",
        -9.011152783345173
      ],
      [
        "Ġfour",
        -9.0119031503748
      ],
      [
        "Ġfollow",
        -9.012303112252807
      ],
      [
        "Ġbook",
        -9.014090954505068
      ],
      [
        "Ġcompare",
        -9.01658396819284
      ],
      [
        "Ġfar",
        -9.016617452519196
      ],
      [
        "Ġmoney",
        -9.017065324585545
      ],
      [
        "least",
        -9.01946786868978
      ],
      [
        "Ġcontinue",
        -9.019550485735731
      ],
      [
        "Ġcomputer",
        -9.019975978106178
      ],
      [
        "Ġhead",
        -9.022498379572909
      ],
      [
        "ĠAmerican",
        -9.025219906116767
      ],
      [
        "Ġread",
        -9.025234814495512
      ],
      [
        "Ġgame",
        -9.026016977322971
      ],
      [
        "Ġthought",
        -9.026744121456243
      ],
      [
        "Ġresearcher",
        -9.028680143477636
      ],
      [
        "Ġrequired",
        -9.030246472824398
      ],
      [
        "Ġothers",
        -9.03371782750508
      ],
      [
        "Ġmajor",
        -9.033994736099215
      ],
      [
        "Ġmonths",
        -9.034661152067628
      ],
      [
        "Ġbatter",
        -9.03480016270915
      ],
      [
        "Ġreport",
        -9.037762272528935
      ],
      [
        "Ġsymptoms",
        -9.03822359225486
      ],
      [
        "Ġmention",
        -9.038683836885344
      ],
      [
        "Ġpurpose",
        -9.042704250025768
      ],
      [
        "Ġlooking",
        -9.04451665439105
      ],
      [
        "Ġreceive",
        -9.04525601444605
      ],
      [
        "Ġcover",
        -9.046731633520666
      ],
      [
        "Ġassociate",
        -9.04788564405478
      ],
      [
        "Ġbusiness",
        -9.048034424917557
      ],
      [
        "Ġthing",
        -9.050050554197703
      ],
      [
        "Ġservice",
        -9.050454395463111
      ],
      [
        "already",
        -9.053087541418105
      ],
      [
        "Ġinput",
        -9.054236052897997
      ],
      [
        "Ġchallenge",
        -9.05528787348983
      ],
      [
        "Ġdoing",
        -9.06056883530652
      ],
      [
        "Ġ\"",
        -9.061073327651886
      ],
      [
        "Ġpositive",
        -9.06329959714368
      ],
      [
        "Ġfruit",
        -9.063932947220383
      ],
      [
        "Ġtoward",
        -9.065062292312652
      ],
      [
        "Ġmetal",
        -9.065316538703634
      ],
      [
        "Ġactivit",
        -9.065970077066428
      ],
      [
        "Ġstress",
        -9.06615446698385
      ],
      [
        "Ġmachine",
        -9.06850818360808
      ],
      [
        "ves",
        -9.071584183427923
      ],
      [
        "ĠU",
        -9.071807444944143
      ],
      [
        "Ġpersonal",
        -9.071931698699608
      ],
      [
        "Ġaverage",
        -9.072933622142363
      ],
      [
        "Ġgreen",
        -9.073405456817705
      ],
      [
        "N",
        -9.074624249671931
      ],
      [
        "Ġgetting",
        -9.075511698692685
      ],
      [
        "Ġstudie",
        -9.076266841663893
      ],
      [
        "Ġcat",
        -9.07932761149154
      ],
      [
        "which",
        -9.080686355952292
      ],
      [
        "R",
        -9.080786702230078
      ],
      [
        "Ġclass",
        -9.08088171363148
      ],
      [
        "Ġliving",
        -9.081171887636454
      ],
      [
        "Ġinside",
        -9.081835026100904
      ],
      [
        "Ġcontact",
        -9.083281025669397
      ],
      [
        "Ġbig",
        -9.083889534793013
      ],
      [
        "Why",
        -9.085514294034391
      ],
      [
        "Ġal",
        -9.085865735436863
      ],
      [
        "Ġorganic",
        -9.08765462209898
      ],
      [
        "like",
        -9.087981195119903
      ],
      [
        "Ġpain",
        -9.088532869119168
      ],
      [
        "hether",
        -9.089153369939662
      ],
      [
        "Ġarticle",
        -9.09103959320472
      ],
      [
        "Ġbelow",
        -9.09208257916828
      ],
      [
        "Ġtraining",
        -9.09286308032927
      ],
      [
        "says",
        -9.092929800198789
      ],
      [
        "Ġyoung",
        -9.093826081088135
      ],
      [
        "old",
        -9.095128435294088
      ],
      [
        "Ġinfection",
        -9.09584496232015
      ],
      [
        "ĠAl",
        -9.09651701947294
      ],
      [
        "nstead",
        -9.09754615270921
      ],
      [
        "Ġperformance",
        -9.099098171649244
      ],
      [
        "Ġtreat",
        -9.101232133555191
      ],
      [
        "Ġbrain",
        -9.101784863563331
      ],
      [
        "taking",
        -9.102867351802969
      ],
      [
        "Ġroom",
        -9.103296865858542
      ],
      [
        "Ġbring",
        -9.106693439714173
      ],
      [
        "Ġcarbon",
        -9.107950275414396
      ],
      [
        "Ġpast",
        -9.111140888124542
      ],
      [
        "Ġdescribe",
        -9.11275695127392
      ],
      [
        "Ġflower",
        -9.113004942598703
      ],
      [
        "Ġmaintain",
        -9.11332406559319
      ],
      [
        "Ġentire",
        -9.11461800326108
      ],
      [
        "_",
        -9.114777719941628
      ],
      [
        "Ġlayer",
        -9.114879041824562
      ],
      [
        "Ġconsidered",
        -9.116270631308415
      ],
      [
        "L",
        -9.116616223272883
      ],
      [
        "Ġperfect",
        -9.11841253261687
      ],
      [
        "Ġbasic",
        -9.118727526501551
      ],
      [
        "Ġidea",
        -9.12021082849046
      ],
      [
        "Ġpet",
        -9.12107626711914
      ],
      [
        "Ġhistor",
        -9.122571266226018
      ],
      [
        "Ġtree",
        -9.12277612226108
      ],
      [
        "Ġface",
        -9.12360726321738
      ],
      [
        "we",
        -9.124122633992332
      ],
      [
        ".\"ĊĊ",
        -9.1247871280388
      ],
      [
        "rate",
        -9.12696634915546
      ],
      [
        "ous",
        -9.12734744638288
      ],
      [
        "Ġbit",
        -9.12794586712116
      ],
      [
        ".\"Ċ",
        -9.12836012307448
      ],
      [
        "Ġcrucial",
        -9.12838138372582
      ],
      [
        "Ġwild",
        -9.129020888655692
      ],
      [
        "Ġcold",
        -9.129657662575934
      ],
      [
        "Ġif",
        -9.130841771776431
      ],
      [
        "Ġshape",
        -9.131194408865229
      ],
      [
        "Ġpercent",
        -9.131653452846113
      ],
      [
        "Ġsense",
        -9.134019368232597
      ],
      [
        "Ġfeatures",
        -9.134644366871154
      ],
      [
        "Ġfuel",
        -9.13530935558295
      ],
      [
        "Ġknowledge",
        -9.13534457262388
      ],
      [
        "Ġbehavior",
        -9.135964275415464
      ],
      [
        "ĠBe",
        -9.136206160386717
      ],
      [
        "Ġselect",
        -9.137129652147271
      ],
      [
        "Ġposition",
        -9.137170193850956
      ],
      [
        "Ġhours",
        -9.139131065002498
      ],
      [
        "Ġprofessional",
        -9.139209741905264
      ],
      [
        "but",
        -9.13957197222672
      ],
      [
        "Ġexist",
        -9.139905553513982
      ],
      [
        "ance",
        -9.139994378967256
      ],
      [
        "Ġprotein",
        -9.140055553215614
      ],
      [
        "Ġpopular",
        -9.144020679396238
      ],
      [
        "Ġcompany",
        -9.145027731280605
      ],
      [
        "Ġindustr",
        -9.145341902695948
      ],
      [
        "Ġscientist",
        -9.14695640765115
      ],
      [
        "Ġbegin",
        -9.14850239915232
      ],
      [
        "Ġseason",
        -9.148574922934838
      ],
      [
        "Ġdetermine",
        -9.148680473593451
      ],
      [
        "own",
        -9.149111468547062
      ],
      [
        "Ġquickly",
        -9.149223818855509
      ],
      [
        "Ġwalk",
        -9.149783363160108
      ],
      [
        "Ġoverall",
        -9.15063096755526
      ],
      [
        "Ġmanagement",
        -9.153505328290734
      ],
      [
        "especial",
        -9.154031554186428
      ],
      [
        "his",
        -9.15521947080842
      ],
      [
        "Ġglobal",
        -9.155572192105742
      ],
      [
        "Ġprice",
        -9.155629056099109
      ],
      [
        "Ġcool",
        -9.156183183820747
      ],
      [
        "Ġwhole",
        -9.158428098404292
      ],
      [
        "Ġbuy",
        -9.158515730633672
      ],
      [
        "Ġitem",
        -9.16122109051602
      ],
      [
        "Ġauthor",
        -9.162116897108326
      ],
      [
        "Ġsound",
        -9.163384641522054
      ],
      [
        "Ġpost",
        -9.165516075072482
      ],
      [
        "Ġflow",
        -9.166274986769526
      ],
      [
        "Ġinvolve",
        -9.168487143754216
      ],
      [
        "ĠR",
        -9.168834969465165
      ],
      [
        "Ġtools",
        -9.16956250983971
      ],
      [
        "Ġmedical",
        -9.170796226867632
      ],
      [
        "Ġtalk",
        -9.171578760810055
      ],
      [
        "Ġeasily",
        -9.17407080378019
      ],
      [
        "ities",
        -9.1742609006471
      ],
      [
        "Ġchoose",
        -9.174658149095832
      ],
      [
        "]",
        -9.1748846232231
      ],
      [
        "Answer",
        -9.176127789534467
      ],
      [
        "Ġhim",
        -9.17697097729264
      ],
      [
        "Ġthroughout",
        -9.177591557120357
      ],
      [
        "Ġplastic",
        -9.177799405890802
      ],
      [
        "Ġbuild",
        -9.178244863164778
      ],
      [
        "Ġopportunit",
        -9.179020479795971
      ],
      [
        "Ġcorrect",
        -9.179136047932268
      ],
      [
        "Ġmind",
        -9.180870811798188
      ],
      [
        "ather",
        -9.181142837230391
      ],
      [
        "Ġlanguage",
        -9.181388836736309
      ],
      [
        "ĠF",
        -9.187223104026456
      ],
      [
        "get",
        -9.187910875894854
      ],
      [
        "Ġstage",
        -9.188022399048908
      ],
      [
        "Ġmovement",
        -9.189302948212228
      ],
      [
        "-base",
        -9.190977931064996
      ],
      [
        "Ġresponse",
        -9.191406984157478
      ],
      [
        "Ġnetwork",
        -9.1927379570893
      ],
      [
        "ĠOne",
        -9.193931319034975
      ],
      [
        "Ġeyes",
        -9.198103835591548
      ],
      [
        "Ġfall",
        -9.198226989101844
      ],
      [
        "ive",
        -9.19838465221518
      ],
      [
        "Ġachieve",
        -9.19854012492673
      ],
      [
        "Ġo",
        -9.200320458571598
      ],
      [
        "U",
        -9.201179945803554
      ],
      [
        "Ġrelease",
        -9.206381387464184
      ],
      [
        "Ġcomplex",
        -9.207266640583375
      ],
      [
        "Ġelements",
        -9.207407861449164
      ],
      [
        "Ġcut",
        -9.20875599734272
      ],
      [
        "Ġtraditional",
        -9.209836536874326
      ],
      [
        "Ġmonitor",
        -9.212262824574308
      ],
      [
        "Ġdone",
        -9.213405096069671
      ],
      [
        "ĠH",
        -9.213907249997373
      ],
      [
        "Ġdesigne",
        -9.21488908350463
      ],
      [
        "Ġcount",
        -9.215089371960907
      ],
      [
        "Ġdeep",
        -9.21545583857196
      ],
      [
        "Ġrelative",
        -9.215871506355622
      ],
      [
        "Ġhouse",
        -9.216343717531114
      ],
      [
        "Ġhelps",
        -9.216447866909082
      ],
      [
        "afety",
        -9.21850815844338
      ],
      [
        "Ġtask",
        -9.219712449077733
      ],
      [
        "One",
        -9.219734343328875
      ],
      [
        "fish",
        -9.219751383798233
      ],
      [
        "Ġ$",
        -9.221049141907177
      ],
      [
        "now",
        -9.222059894828218
      ],
      [
        "Ġprimary",
        -9.222165273781618
      ],
      [
        "Ġca",
        -9.22231845697112
      ],
      [
        "Ġus",
        -9.22343313713394
      ],
      [
        ")Ċ",
        -9.224952574554118
      ],
      [
        "Ġoutside",
        -9.225645458604356
      ],
      [
        "Ġmultiple",
        -9.226431167615484
      ],
      [
        "Ġvisit",
        -9.226908330494336
      ],
      [
        "Ġsetting",
        -9.227109084137204
      ],
      [
        "Ġglass",
        -9.22803756826869
      ],
      [
        "Ġbreak",
        -9.228073110714025
      ],
      [
        "Ġeducation",
        -9.22820260912464
      ],
      [
        "Ġtechniques",
        -9.228806114596477
      ],
      [
        "Ġwinter",
        -9.229098141620662
      ],
      [
        "Ġsoftware",
        -9.2326447255967
      ],
      [
        "ful",
        -9.23508922612113
      ],
      [
        "Ġplayer",
        -9.235998290961978
      ],
      [
        "two",
        -9.23686400002176
      ],
      [
        "Ġmodern",
        -9.236950028122587
      ],
      [
        "Ġsubject",
        -9.236953803302164
      ],
      [
        "also",
        -9.237046585572468
      ],
      [
        "Ġexplore",
        -9.237810822890369
      ],
      [
        "Ġwebsite",
        -9.238123158978144
      ],
      [
        "Ġengine",
        -9.240562460685902
      ],
      [
        "Ġdaily",
        -9.241316733667206
      ],
      [
        "ways",
        -9.241320413050708
      ],
      [
        "Ġrelationship",
        -9.242279791306329
      ],
      [
        "Ġwaste",
        -9.242901837808017
      ],
      [
        "Ġcamera",
        -9.243105349107058
      ],
      [
        "Ġstay",
        -9.243256453567916
      ],
      [
        "Ġparts",
        -9.24365276817441
      ],
      [
        "Ġspecial",
        -9.243741130571092
      ],
      [
        "Ġha",
        -9.243908446037034
      ],
      [
        "Ġstatement",
        -9.244095562992038
      ],
      [
        "Ġuser",
        -9.245020394535723
      ],
      [
        "Ġstop",
        -9.247970802227192
      ],
      [
        "ĠAn",
        -9.248472970550752
      ],
      [
        "coming",
        -9.248619587075826
      ],
      [
        "Ġequipment",
        -9.24974163568957
      ],
      [
        "Whil",
        -9.251560680256771
      ],
      [
        "But",
        -9.252339308979645
      ],
      [
        "Ġreach",
        -9.253961522643872
      ],
      [
        "Ġincreasing",
        -9.253965095096204
      ],
      [
        "Ġsea",
        -9.257383470979551
      ],
      [
        "Ġattention",
        -9.257623197021346
      ],
      [
        "Ġtotal",
        -9.258127555690942
      ],
      [
        "body",
        -9.258474617320664
      ],
      [
        "Ġregard",
        -9.26126875373786
      ],
      [
        "Ġprobabl",
        -9.261433357245728
      ],
      [
        "Ġcountry",
        -9.261453535899877
      ],
      [
        "Ġprovid",
        -9.262233285982097
      ],
      [
        "Ġquestions",
        -9.262517074901227
      ],
      [
        "ry",
        -9.264018593203277
      ],
      [
        "ĠEarth",
        -9.26589388095551
      ],
      [
        "Ġwall",
        -9.267325168134864
      ],
      [
        "simply",
        -9.267395079760014
      ],
      [
        "Ġextreme",
        -9.269768826278398
      ],
      [
        "Ġexpert",
        -9.271224769949065
      ],
      [
        "Ġaddress",
        -9.2725253366511
      ],
      [
        "ĠUnite",
        -9.27297409304693
      ],
      [
        "Ġlonge",
        -9.273864771959737
      ],
      [
        "Ġlength",
        -9.277126019895462
      ],
      [
        "Ġrecord",
        -9.277359106146108
      ],
      [
        "Ġself",
        -9.277806392476675
      ],
      [
        "Ġcreat",
        -9.279508042900908
      ],
      [
        "Ġelectric",
        -9.279975125776671
      ],
      [
        "ĠNational",
        -9.280777525712908
      ],
      [
        "These",
        -9.282525857930452
      ],
      [
        "Ġoriginal",
        -9.283195084902284
      ],
      [
        "Ġpractice",
        -9.283322539973389
      ],
      [
        "Ġthemsel",
        -9.285124625217213
      ],
      [
        "Ġweather",
        -9.28679053337677
      ],
      [
        "hind",
        -9.289427673188111
      ],
      [
        "were",
        -9.290260272061
      ],
      [
        "Ġmilk",
        -9.29486198899845
      ],
      [
        "Ġcode",
        -9.296369418456129
      ],
      [
        "Ġregular",
        -9.2975533826754
      ],
      [
        "had",
        -9.298837401084633
      ],
      [
        "Ġrepresent",
        -9.300074877795083
      ],
      [
        "Ġrelated",
        -9.300680945909184
      ],
      [
        "Ġfeet",
        -9.30091410804132
      ],
      [
        "Ġgenerate",
        -9.300973222991134
      ],
      [
        "To",
        -9.302463246301388
      ],
      [
        "Ġexercise",
        -9.303810194455563
      ],
      [
        "Ġfeed",
        -9.30426830862266
      ],
      [
        "Ġreturn",
        -9.305110318807724
      ],
      [
        "Ġar",
        -9.306485603558077
      ],
      [
        "Ġadditional",
        -9.306585331125904
      ],
      [
        "Ġdigital",
        -9.307244699167942
      ],
      [
        "Ġbreed",
        -9.307489318594843
      ],
      [
        "Ġteeth",
        -9.309871153835251
      ],
      [
        "Ġprevious",
        -9.314049146951994
      ],
      [
        "Ġbaby",
        -9.314545815020022
      ],
      [
        "Ġthen",
        -9.31819852615352
      ],
      [
        "Ġtell",
        -9.319131002740304
      ],
      [
        "side",
        -9.32033616177392
      ],
      [
        "ting",
        -9.320359038212397
      ],
      [
        "Ġsensor",
        -9.32083773640515
      ],
      [
        "Ġguide",
        -9.321242952265331
      ],
      [
        "Ġanything",
        -9.321399578603751
      ],
      [
        "Ġsun",
        -9.321482811759347
      ],
      [
        "Ġgenetic",
        -9.321526531037538
      ],
      [
        "light",
        -9.321645780573718
      ],
      [
        "Ġhalf",
        -9.322607795995475
      ],
      [
        "Ġdecision",
        -9.324176386619897
      ],
      [
        "Ġdrive",
        -9.324752161748924
      ],
      [
        "Ġtissue",
        -9.324962266995456
      ],
      [
        "With",
        -9.325194037240951
      ],
      [
        "resources",
        -9.326197858168891
      ],
      [
        "Ġcustomer",
        -9.326599067398996
      ],
      [
        "Ġblue",
        -9.329139175787954
      ],
      [
        "Ġanalysis",
        -9.3293881531165
      ],
      [
        "Ġsummer",
        -9.330521492165754
      ],
      [
        "Ġrock",
        -9.330623773810697
      ],
      [
        "Ġidentify",
        -9.331837856983336
      ],
      [
        "Ġwear",
        -9.333939040201251
      ],
      [
        "will",
        -9.335542101190438
      ],
      [
        "Ġsleep",
        -9.33563903252283
      ],
      [
        "Ġbad",
        -9.33581074025384
      ],
      [
        "âĢ¦",
        -9.336000714924886
      ],
      [
        "Ġfive",
        -9.339091566707696
      ],
      [
        "Ġview",
        -9.33937233834952
      ],
      [
        "Ġoutput",
        -9.34066596245902
      ],
      [
        "DNA",
        -9.34250523604256
      ],
      [
        "Ġmass",
        -9.344003295706756
      ],
      [
        "So",
        -9.344670619626688
      ],
      [
        "Ġstudent",
        -9.345940987805951
      ],
      [
        "Ġbirds",
        -9.34751701681251
      ],
      [
        "Ġorganization",
        -9.350514693953809
      ],
      [
        "Ġconcept",
        -9.351073949662403
      ],
      [
        "#",
        -9.351092563606151
      ],
      [
        "Ġexact",
        -9.351641566776063
      ],
      [
        "Ġtool",
        -9.351718195540682
      ],
      [
        "Ġcenter",
        -9.35311199198834
      ],
      [
        "They",
        -9.356437187526357
      ],
      [
        "Ġspread",
        -9.357701102089262
      ],
      [
        "Ġsometime",
        -9.357857519058218
      ],
      [
        "Ġacid",
        -9.358996265268564
      ],
      [
        "Ġchoice",
        -9.362549498146157
      ],
      [
        "Ġslow",
        -9.364249581194418
      ],
      [
        "Ġhear",
        -9.365057480535604
      ],
      [
        "life",
        -9.36694984400584
      ],
      [
        "Ġsustainabl",
        -9.371178080969788
      ],
      [
        "ĠL",
        -9.37158327146632
      ],
      [
        "Ġfactor",
        -9.373185412796367
      ],
      [
        "ĠStates",
        -9.373897279121472
      ],
      [
        "omeone",
        -9.37406003434469
      ],
      [
        "Ġlet",
        -9.378823206134124
      ],
      [
        "Ġocean",
        -9.379929994433123
      ],
      [
        "Ġapplications",
        -9.381149445665564
      ],
      [
        "what",
        -9.381645213752474
      ],
      [
        "water",
        -9.381667668050746
      ],
      [
        "Ġlist",
        -9.38172040241638
      ],
      [
        "Ġnegative",
        -9.381974730563256
      ],
      [
        "Ġfemale",
        -9.382462004522669
      ],
      [
        "Ġperform",
        -9.383453010647344
      ],
      [
        "quite",
        -9.383793395105704
      ],
      [
        "Ġvehicle",
        -9.384907890750767
      ],
      [
        "Ġthough",
        -9.385892584576238
      ],
      [
        "G",
        -9.386172328799503
      ],
      [
        "Ġsuccessful",
        -9.388618997336293
      ],
      [
        "Ġcanno",
        -9.388712923461586
      ],
      [
        "Ġspring",
        -9.390126477549211
      ],
      [
        "V",
        -9.39012725765112
      ],
      [
        "Ġdistance",
        -9.391581900051664
      ],
      [
        "Ġpay",
        -9.391952970749346
      ],
      [
        "Ġdidn",
        -9.393717861423571
      ],
      [
        "Ġconcern",
        -9.393893950849588
      ],
      [
        "Ġprint",
        -9.394453448971296
      ],
      [
        "Ġadvantage",
        -9.39590409972105
      ],
      [
        "Ġlater",
        -9.39711989170621
      ],
      [
        "Ġmanage",
        -9.397492821145796
      ],
      [
        "Ġdevelope",
        -9.398303515610207
      ],
      [
        "Ġreading",
        -9.40122105233303
      ],
      [
        "Ġtravel",
        -9.401726679891553
      ],
      [
        "Ġfresh",
        -9.403546714165396
      ],
      [
        "me",
        -9.404344785494844
      ],
      [
        "Ġservices",
        -9.404645517671971
      ],
      [
        "Ġdiscover",
        -9.406346994614452
      ],
      [
        "her",
        -9.40637428415058
      ],
      [
        "Ġconstant",
        -9.40658612005759
      ],
      [
        "Ġappropriate",
        -9.40769884841901
      ],
      [
        "ĠJapan",
        -9.408012011470984
      ],
      [
        "ĠWhil",
        -9.408233353001226
      ],
      [
        "Ġtarget",
        -9.408440413632189
      ],
      [
        "Ġphase",
        -9.408484724860427
      ],
      [
        "Ġbird",
        -9.40892674894717
      ],
      [
        "Ġextra",
        -9.411871546869598
      ],
      [
        "ĠDo",
        -9.413801976896757
      ],
      [
        "Ġapplication",
        -9.414992680264902
      ],
      [
        "Ġcircuit",
        -9.417611059723711
      ],
      [
        "Ġdirection",
        -9.419606150473818
      ],
      [
        "Ġyoursel",
        -9.421355173875366
      ],
      [
        "Ġdiseases",
        -9.423467123739156
      ],
      [
        "Ġindicate",
        -9.423615408460847
      ],
      [
        "ually",
        -9.423644759803382
      ],
      [
        "Ġetc",
        -9.42461747121551
      ],
      [
        "ĠHealth",
        -9.426368984778293
      ],
      [
        "Ġoccur",
        -9.428183593886306
      ],
      [
        "almos",
        -9.42844202088312
      ],
      [
        "Ġhold",
        -9.429228965874572
      ],
      [
        "Ġwon",
        -9.43152798390292
      ],
      [
        "Ġdoctor",
        -9.43156844087017
      ],
      [
        "Ġdrink",
        -9.43246725163382
      ],
      [
        "any",
        -9.433332813928663
      ],
      [
        "Ġfile",
        -9.43419729869725
      ],
      [
        "Ġliquid",
        -9.434258836061812
      ],
      [
        "ĠAll",
        -9.434320865587678
      ],
      [
        "Ġfun",
        -9.434443839916812
      ],
      [
        "Ġcall",
        -9.435859104045493
      ],
      [
        "Ġfire",
        -9.4360825030844
      ],
      [
        "aintenance",
        -9.43652681458659
      ],
      [
        "Ġinfluence",
        -9.436847491165818
      ],
      [
        "sure",
        -9.43968198287132
      ],
      [
        "low",
        -9.440632093386611
      ],
      [
        "Ġcomponents",
        -9.440939831736475
      ],
      [
        "Ġsolar",
        -9.441632395857498
      ],
      [
        "Ġnoise",
        -9.442762654375414
      ],
      [
        "over",
        -9.443050455886208
      ],
      [
        "Ġmeet",
        -9.444650247671875
      ],
      [
        "ries",
        -9.444735800820013
      ],
      [
        "Ġchance",
        -9.44583762296979
      ],
      [
        "people",
        -9.446182132216835
      ],
      [
        "ĠOn",
        -9.448084574279717
      ],
      [
        "Ġaccount",
        -9.45082001936766
      ],
      [
        "Can",
        -9.452565829878242
      ],
      [
        "Ġdisplay",
        -9.45481793250034
      ],
      [
        "Ġunit",
        -9.456106801384268
      ],
      [
        "ĠHowe",
        -9.457011648738256
      ],
      [
        "Ġkids",
        -9.457289438839542
      ],
      [
        "Ġworks",
        -9.457766073103222
      ],
      [
        "Ġreaction",
        -9.458936974722985
      ],
      [
        "Ġsuccess",
        -9.461315662018809
      ],
      [
        "trees",
        -9.461567319149609
      ],
      [
        "Ġfast",
        -9.462069797284329
      ],
      [
        "Ġefficient",
        -9.46208654381538
      ],
      [
        "Ġteacher",
        -9.462120530686546
      ],
      [
        "Ġevidence",
        -9.464207234509525
      ],
      [
        "Ġiron",
        -9.464215541385396
      ],
      [
        "Ġcarry",
        -9.465131088478651
      ],
      [
        "ĠHere",
        -9.465137045742388
      ],
      [
        "Ġeasie",
        -9.466867129735869
      ],
      [
        "Their",
        -9.46700081295651
      ],
      [
        "Ġcontribute",
        -9.467871586014674
      ],
      [
        "Ġpre",
        -9.468349741449956
      ],
      [
        "line",
        -9.470622153653322
      ],
      [
        "ĠDr",
        -9.47148621094001
      ],
      [
        "Ġserious",
        -9.473029274048912
      ],
      [
        "Ġapply",
        -9.47349639585229
      ],
      [
        "Ġcharge",
        -9.473531016547993
      ],
      [
        "Ġfinal",
        -9.474323767140271
      ],
      [
        "Ġnight",
        -9.475895332420356
      ],
      [
        "Ġmembers",
        -9.47639862757511
      ],
      [
        "Ġfeature",
        -9.478192358241198
      ],
      [
        "Ġlives",
        -9.478479756160372
      ],
      [
        "Ġproduced",
        -9.480460603188329
      ],
      [
        "Ġm",
        -9.4806654335225
      ],
      [
        "Ġpromote",
        -9.481038419951094
      ],
      [
        "Ġbank",
        -9.48155944370117
      ],
      [
        "Ġexperiment",
        -9.48298585776548
      ],
      [
        "ther",
        -9.483582279848669
      ],
      [
        "Ġprocesse",
        -9.483762764257175
      ],
      [
        "Ġbacteria",
        -9.487131531785504
      ],
      [
        "ĠNorth",
        -9.487188544425202
      ],
      [
        "field",
        -9.487589108115614
      ],
      [
        ".\"",
        -9.489204658383866
      ],
      [
        "Ġalternative",
        -9.48934625521736
      ],
      [
        "was",
        -9.490089412203291
      ],
      [
        "Ġrunning",
        -9.490356445927857
      ],
      [
        "ĠAfter",
        -9.496940523165478
      ],
      [
        "Ġtrue",
        -9.49717102696147
      ],
      [
        "they",
        -9.500082518472126
      ],
      [
        "Ġaspect",
        -9.500345007781888
      ],
      [
        "Ġmusic",
        -9.502097140744851
      ],
      [
        "Ġeggs",
        -9.502432956333838
      ],
      [
        "Ġreduc",
        -9.50249957453208
      ],
      [
        "Ġdecrease",
        -9.504626730717304
      ],
      [
        "Ġsupply",
        -9.50498432518848
      ],
      [
        "Ġgain",
        -9.506128709597617
      ],
      [
        "K",
        -9.507357867112002
      ],
      [
        "Ġspot",
        -9.507687843001236
      ],
      [
        "nd",
        -9.507817127591084
      ],
      [
        "Ġfilter",
        -9.508124052444035
      ],
      [
        "Ġvisual",
        -9.509394042871287
      ],
      [
        "Ġgovernment",
        -9.510531374700854
      ],
      [
        "Â°",
        -9.511490362857316
      ],
      [
        "Ġstrength",
        -9.512742523919368
      ],
      [
        "red",
        -9.512923319835869
      ],
      [
        "Ġnumbers",
        -9.513089337076964
      ],
      [
        "And",
        -9.51308978334706
      ],
      [
        "Ġoperation",
        -9.513634811501774
      ],
      [
        "Ġfoods",
        -9.5146152589972
      ],
      [
        "Ġcombination",
        -9.514945431517765
      ],
      [
        "Ġapplie",
        -9.51523897115475
      ],
      [
        "Ġwave",
        -9.515471124217278
      ],
      [
        "Ġcommunication",
        -9.515985643532993
      ],
      [
        "Ġman",
        -9.516890433014066
      ],
      [
        "Ġattack",
        -9.517322570249194
      ],
      [
        "Ġfront",
        -9.517750991538506
      ],
      [
        "Ġpage",
        -9.51778104388246
      ],
      [
        "Ġsmalle",
        -9.518469414580323
      ],
      [
        "Ġshows",
        -9.520014557585512
      ],
      [
        "Ġsave",
        -9.520582785259489
      ],
      [
        "Each",
        -9.520844274855996
      ],
      [
        "Ġgreater",
        -9.52129552224702
      ],
      [
        "Some",
        -9.521511324827234
      ],
      [
        "ĠCenter",
        -9.522300496890328
      ],
      [
        "limited",
        -9.52317914117003
      ],
      [
        "ĠCan",
        -9.524514158217196
      ],
      [
        "Ġpest",
        -9.526986937081876
      ],
      [
        "Ġconduct",
        -9.52857160656821
      ],
      [
        "âĢĿ",
        -9.530020283085964
      ],
      [
        "Ġnotice",
        -9.530124548919858
      ],
      [
        "Ġmuscle",
        -9.530242011381002
      ],
      [
        "Ġbuilt",
        -9.531270026175749
      ],
      [
        "Ġreview",
        -9.531999008635472
      ],
      [
        "Ġsite",
        -9.533095312367138
      ],
      [
        "Ġtaste",
        -9.535816703911234
      ],
      [
        "Ġexplain",
        -9.53590317578382
      ],
      [
        "ĠAmerica",
        -9.536443042166244
      ],
      [
        "Ġpoor",
        -9.537093981470292
      ],
      [
        "Ġmoment",
        -9.538904268975704
      ],
      [
        "Ġharm",
        -9.539183907026114
      ],
      [
        "Ġblock",
        -9.540830432496048
      ],
      [
        "Ġmechanism",
        -9.541613125171082
      ],
      [
        "|",
        -9.541967656948014
      ],
      [
        "Ġdeath",
        -9.54245153587198
      ],
      [
        "Ġgoal",
        -9.54258333570635
      ],
      [
        "ĠShe",
        -9.54384864389446
      ],
      [
        "Y",
        -9.544175485291223
      ],
      [
        "many",
        -9.544199834826166
      ],
      [
        "last",
        -9.547163029706857
      ],
      [
        "Ġcompound",
        -9.5495016954711
      ],
      [
        "Ġleg",
        -9.550020444774695
      ],
      [
        "ĠMore",
        -9.550203932896569
      ],
      [
        "Ġmedia",
        -9.550388705338278
      ],
      [
        "Ġscientific",
        -9.552122150917914
      ],
      [
        "Ġbox",
        -9.552759263387289
      ],
      [
        "Ġdeal",
        -9.552831904601614
      ],
      [
        "Ġsmooth",
        -9.554288231113496
      ],
      [
        "Ġideal",
        -9.554866433785094
      ],
      [
        "Ġserve",
        -9.555222559255055
      ],
      [
        "ĠUse",
        -9.555401347348871
      ],
      [
        "man",
        -9.556522068844094
      ],
      [
        ".S",
        -9.55666374613564
      ],
      [
        "Ġpiece",
        -9.557566899398454
      ],
      [
        "Ġuseful",
        -9.562830537937282
      ],
      [
        "Ġfarm",
        -9.562959139450692
      ],
      [
        "Ġactive",
        -9.563445401513912
      ],
      [
        "Ġelse",
        -9.563635244956096
      ],
      [
        "Ġword",
        -9.563805681849225
      ],
      [
        "Ġgot",
        -9.563850540720589
      ],
      [
        "Ġvitamin",
        -9.564158562561984
      ],
      [
        "Ġmale",
        -9.56426041872903
      ],
      [
        "ĠAI",
        -9.564720458422237
      ],
      [
        "Ġwords",
        -9.56630724432321
      ],
      [
        "Ġland",
        -9.56670261922844
      ],
      [
        "Ġbottom",
        -9.56692991262056
      ],
      [
        "Ġage",
        -9.566960106768484
      ],
      [
        "Ġinvolved",
        -9.56780095255614
      ],
      [
        "Ġdisorder",
        -9.569368294764285
      ],
      [
        "Ġroot",
        -9.569686560204987
      ],
      [
        "Ġcritical",
        -9.570296504295277
      ],
      [
        "Ġvegetables",
        -9.570801810758066
      ],
      [
        "ĠYes",
        -9.571234845991569
      ],
      [
        "Ġrequirements",
        -9.572005744241007
      ],
      [
        "Ġcharacteristic",
        -9.572460672576163
      ],
      [
        "lly",
        -9.575652746856756
      ],
      [
        "ĠSouth",
        -9.576395713450882
      ],
      [
        "here",
        -9.581983936333064
      ],
      [
        "ĠG",
        -9.58209423669681
      ],
      [
        "Ġjob",
        -9.583397261221096
      ],
      [
        "ember",
        -9.58358587731482
      ],
      [
        "Ġdetect",
        -9.585541985969446
      ],
      [
        "Ġwind",
        -9.588142223617869
      ],
      [
        "Ġbrand",
        -9.588234041753855
      ],
      [
        "Ġcolors",
        -9.588742385707086
      ],
      [
        "ĠâĢľ",
        -9.588845689804806
      ],
      [
        "Ġestimate",
        -9.589585111033184
      ],
      [
        "Ġelectrical",
        -9.589609404765756
      ],
      [
        "Ġdefine",
        -9.590594783919766
      ],
      [
        "Ġstyle",
        -9.591156507307698
      ],
      [
        "Ġencourage",
        -9.59290147604644
      ],
      [
        "even",
        -9.594139391623166
      ],
      [
        "ĠUS",
        -9.59417510635173
      ],
      [
        "Ġseparate",
        -9.59554000371596
      ],
      [
        "Ġscale",
        -9.597970800481097
      ],
      [
        "when",
        -9.599888614324945
      ],
      [
        "Ġsix",
        -9.600978782991106
      ],
      [
        "Ġensur",
        -9.60140321779168
      ],
      [
        "Ġflavor",
        -9.602698563558846
      ],
      [
        "Ġstory",
        -9.6028914060656
      ],
      [
        "Ġlimit",
        -9.603391496881262
      ],
      [
        "Ġcollect",
        -9.603903575031875
      ],
      [
        "--",
        -9.60420748135706
      ],
      [
        "Ġhandle",
        -9.605439560828822
      ],
      [
        "Ġlocation",
        -9.605473341869136
      ],
      [
        "ĠResearch",
        -9.60552643887906
      ],
      [
        "ï¿½",
        -9.605569125635128
      ],
      [
        "Ġsteps",
        -9.606367998700764
      ],
      [
        "Ġcontainer",
        -9.60706624726707
      ],
      [
        "Ġhope",
        -9.608223281818436
      ],
      [
        "work",
        -9.608864258291812
      ],
      [
        "Ġinitial",
        -9.608967374855936
      ],
      [
        "make",
        -9.610254107931487
      ],
      [
        "Ġboard",
        -9.61142583419966
      ],
      [
        "st",
        -9.612037817004971
      ],
      [
        "Ġalcohol",
        -9.612300820360328
      ],
      [
        "ers",
        -9.612756979789353
      ],
      [
        "Ġraise",
        -9.612914689795732
      ],
      [
        "Ġrefer",
        -9.6130232923388
      ],
      [
        "Ġbag",
        -9.614163754597596
      ],
      [
        "ĠSchool",
        -9.614363710751032
      ],
      [
        "Ġplanet",
        -9.614593631790626
      ],
      [
        "Ġconsumpti",
        -9.61508737290595
      ],
      [
        "Ġdark",
        -9.615477683432584
      ],
      [
        "Now",
        -9.615532947526573
      ],
      [
        "As",
        -9.61624341297698
      ],
      [
        "Ġemission",
        -9.617055695861785
      ],
      [
        "Ġlandscape",
        -9.618832542148738
      ],
      [
        "Ġfeeling",
        -9.620116118246289
      ],
      [
        "Ġslight",
        -9.62402058100956
      ],
      [
        "Ġinstruction",
        -9.625033490216868
      ],
      [
        "Ġdraw",
        -9.62590474687455
      ],
      [
        "ĠScience",
        -9.62620248823026
      ],
      [
        "Ġelement",
        -9.626381695949554
      ],
      [
        "Ġfrequent",
        -9.627898041076756
      ],
      [
        "Ġcharacter",
        -9.62831653896454
      ],
      [
        "-term",
        -9.629972305146708
      ],
      [
        "their",
        -9.631600580873862
      ],
      [
        "Ġfat",
        -9.631779097530096
      ],
      [
        "Ġprotection",
        -9.632323217585029
      ],
      [
        "Ġobserve",
        -9.632936023773317
      ],
      [
        "ĠK",
        -9.63419019678677
      ],
      [
        "affected",
        -9.63469165493592
      ],
      [
        "Ġaccurate",
        -9.634908565366835
      ],
      [
        "Ġoxygen",
        -9.638086447804856
      ],
      [
        "Ġenable",
        -9.639537278932446
      ],
      [
        "Ġrice",
        -9.64081363628874
      ],
      [
        "Ġvary",
        -9.641555746018756
      ],
      [
        "Ġinteresting",
        -9.641851900861388
      ],
      [
        "Ġfine",
        -9.641892989229763
      ],
      [
        "Ġtank",
        -9.642431775318686
      ],
      [
        "Ġpull",
        -9.642589155332022
      ],
      [
        "ĠWorld",
        -9.642785403255388
      ],
      [
        "such",
        -9.64346893703679
      ],
      [
        "right",
        -9.643751309246092
      ],
      [
        "companie",
        -9.644275562174562
      ],
      [
        "Ġdeveloping",
        -9.645033793280916
      ],
      [
        "Ġscreen",
        -9.645481871493224
      ],
      [
        "Ġvariable",
        -9.64597390496423
      ],
      [
        "Ġideas",
        -9.646281422246563
      ],
      [
        "Ġsevere",
        -9.646723093281183
      ],
      [
        "Ġmix",
        -9.646901446673857
      ],
      [
        "Ġc",
        -9.647266799641889
      ],
      [
        "Ġmeasurement",
        -9.64726841854211
      ],
      [
        "By",
        -9.647633257845952
      ],
      [
        "Ġclaim",
        -9.647857006104129
      ],
      [
        "offers",
        -9.64785788472104
      ],
      [
        "Ġrepair",
        -9.647860107885345
      ],
      [
        "Ġsigns",
        -9.648623087695778
      ],
      [
        "Ġheavy",
        -9.648804698322444
      ],
      [
        "Ġmeal",
        -9.649438453396492
      ],
      [
        "keeping",
        -9.65039976634702
      ],
      [
        "Our",
        -9.651355786729576
      ],
      [
        "Ġred",
        -9.651589446542689
      ],
      [
        "Ġimmun",
        -9.651694732421593
      ],
      [
        "Ġresponsibl",
        -9.65170676813393
      ],
      [
        "Here",
        -9.65213388322458
      ],
      [
        "en",
        -9.652828124770643
      ],
      [
        "Ġago",
        -9.653580851071506
      ],
      [
        "Ġphone",
        -9.65428911970812
      ],
      [
        "lines",
        -9.656382676997389
      ],
      [
        "Ġmonth",
        -9.656408746007834
      ],
      [
        "Ġsoft",
        -9.65810201650421
      ],
      [
        "uses",
        -9.658583403571576
      ],
      [
        "Ġgeneration",
        -9.659545420095377
      ],
      [
        "Ġfit",
        -9.66110504945348
      ],
      [
        "Ġpurchase",
        -9.661593030428634
      ],
      [
        "Ġaction",
        -9.661690126532038
      ],
      [
        "Ġsituation",
        -9.66283184875348
      ],
      [
        "Ġprett",
        -9.663318045314044
      ],
      [
        "Ġwire",
        -9.663359699605856
      ],
      [
        "Ġdesire",
        -9.66454139720242
      ],
      [
        "Ġinstance",
        -9.66542161466593
      ],
      [
        "Ġsteel",
        -9.665906886729642
      ],
      [
        "Ġtips",
        -9.666147483103469
      ],
      [
        "Ġresistance",
        -9.666562627486687
      ],
      [
        "Ġingredients",
        -9.66711093027592
      ],
      [
        "Ġremember",
        -9.66763358259293
      ],
      [
        "Ġefficienc",
        -9.667729342516054
      ],
      [
        "upon",
        -9.66812073418836
      ],
      [
        "Ġforest",
        -9.668970115358473
      ],
      [
        "Ġmessage",
        -9.669228955591857
      ],
      [
        "That",
        -9.67194980789455
      ],
      [
        "Ġways",
        -9.671985851008278
      ],
      [
        "Ġpractices",
        -9.672589404411118
      ],
      [
        "Ġcareful",
        -9.673312966737392
      ],
      [
        "Ġcombine",
        -9.673784274187316
      ],
      [
        "Ġstorage",
        -9.673885201331707
      ],
      [
        "Ġold",
        -9.674359495974157
      ],
      [
        "Ġco",
        -9.674384108301147
      ],
      [
        "Ġhost",
        -9.674936587319396
      ],
      [
        "Ġpublished",
        -9.675187872073874
      ],
      [
        "Ġerror",
        -9.675280910314669
      ],
      [
        "just",
        -9.675368216158024
      ],
      [
        "Ġsection",
        -9.676123735191016
      ],
      [
        "Ġwatch",
        -9.676399474083455
      ],
      [
        "Ġwonder",
        -9.67646067933241
      ],
      [
        "Ġnothing",
        -9.676807189352862
      ],
      [
        "Ġjourney",
        -9.676902160423031
      ],
      [
        "Ġhair",
        -9.679277685173789
      ],
      [
        "Ġfriends",
        -9.679825624197196
      ],
      [
        "Ġexcellent",
        -9.680874457728184
      ],
      [
        "Ġtechnique",
        -9.681228029650054
      ],
      [
        "Ġsearch",
        -9.682451994702564
      ],
      [
        "Ġvolume",
        -9.683181670984911
      ],
      [
        "Ġequal",
        -9.68397366877562
      ],
      [
        "Ġimportan",
        -9.684103010455264
      ],
      [
        "Ġmedication",
        -9.684563226548695
      ],
      [
        "Ġcrop",
        -9.684715826176776
      ],
      [
        "Ġlaw",
        -9.685150236925615
      ],
      [
        "Ġconsist",
        -9.68583326380417
      ],
      [
        "sources",
        -9.685880744271564
      ],
      [
        "Step",
        -9.686605577985084
      ],
      [
        "Ġconstruction",
        -9.686841100179825
      ],
      [
        "theory",
        -9.68697303764879
      ],
      [
        "\\",
        -9.687052675502748
      ],
      [
        "Ġpick",
        -9.687781356087612
      ],
      [
        "est",
        -9.688089291894372
      ],
      [
        "Q",
        -9.68974907853672
      ],
      [
        "Ġintroduce",
        -9.6903075222065
      ],
      [
        "Ġmoving",
        -9.692041200584056
      ],
      [
        "Ġseeds",
        -9.692877120998622
      ],
      [
        "Ġsign",
        -9.69430265349698
      ],
      [
        "Ġ[",
        -9.6945745468046
      ],
      [
        "Ġreasons",
        -9.694984772042371
      ],
      [
        "Ġmotor",
        -9.695332507290011
      ],
      [
        "therapy",
        -9.695754402086056
      ],
      [
        "Ġyellow",
        -9.696587489280656
      ],
      [
        "Ġbeautiful",
        -9.696922771732355
      ],
      [
        "Ġenhance",
        -9.697007172634306
      ],
      [
        "Ġreplace",
        -9.69744198562377
      ],
      [
        "Ġobtain",
        -9.700843983882349
      ],
      [
        "Ġchicken",
        -9.70149596240362
      ],
      [
        "Ġyet",
        -9.701505784737662
      ],
      [
        "Ġmeaning",
        -9.702255834545944
      ],
      [
        "Ġcats",
        -9.70402374811221
      ],
      [
        "Ġever",
        -9.704057987629808
      ],
      [
        "Ġseek",
        -9.704296871589946
      ],
      [
        "Ġmeat",
        -9.7054317626989
      ],
      [
        "Ġculture",
        -9.705695932106645
      ],
      [
        "ĠInstitute",
        -9.706121139847646
      ],
      [
        "Ġcycle",
        -9.706388842558948
      ],
      [
        "Ġdemand",
        -9.706730913868032
      ],
      [
        "Ġusers",
        -9.706813707423152
      ],
      [
        "Ġneede",
        -9.70745466667228
      ],
      [
        "Ġfilm",
        -9.70998459235307
      ],
      [
        "Ġwrong",
        -9.710910757710474
      ],
      [
        "Ġcame",
        -9.711035198487238
      ],
      [
        "Ġwood",
        -9.712330047554222
      ],
      [
        "Ġfigure",
        -9.71257228595679
      ],
      [
        "eating",
        -9.713507105943226
      ],
      [
        "Ġprinciple",
        -9.714556511502892
      ],
      [
        "Ġpoints",
        -9.714659791810949
      ],
      [
        "Ġhearing",
        -9.717057686216243
      ],
      [
        "adding",
        -9.71777773203928
      ],
      [
        "Ġaccept",
        -9.718103951317854
      ],
      [
        "Ġwriting",
        -9.71823803073768
      ],
      [
        "ĠWho",
        -9.718672160566593
      ],
      [
        "...Ċ",
        -9.719271602837154
      ],
      [
        "inches",
        -9.72180799443922
      ],
      [
        "Ġbigge",
        -9.72226321127772
      ],
      [
        "-up",
        -9.722529559021137
      ],
      [
        "ĠW",
        -9.722682743151148
      ],
      [
        "Ġask",
        -9.723266883957931
      ],
      [
        "Ġdiscuss",
        -9.723492543046603
      ],
      [
        "ĠOf",
        -9.724877002218328
      ],
      [
        "Ġpass",
        -9.725210134082
      ],
      [
        "Ġwait",
        -9.725716805125284
      ],
      [
        "Ġphoto",
        -9.725870480441806
      ],
      [
        "Ġrest",
        -9.72735567783322
      ],
      [
        "expensive",
        -9.727714522227934
      ],
      [
        "Ġball",
        -9.728971574230671
      ],
      [
        "Ġrecognize",
        -9.730119075029378
      ],
      [
        "Ġanyone",
        -9.731502417184938
      ],
      [
        "ĠFrom",
        -9.732232185185236
      ],
      [
        "making",
        -9.732369309988616
      ],
      [
        "Ġseed",
        -9.73338549002427
      ],
      [
        "Ġforward",
        -9.734164825832954
      ],
      [
        "Ġnutrients",
        -9.734356977956732
      ],
      [
        "Ġstick",
        -9.73627555183676
      ],
      [
        "Ġstrategi",
        -9.73794820240352
      ],
      [
        "Ġversion",
        -9.738322934268655
      ],
      [
        "Ġoutdoor",
        -9.738667042158689
      ],
      [
        "Ġcoast",
        -9.739058000513811
      ],
      [
        "Ġpicture",
        -9.741008985860516
      ],
      [
        "Ġanti",
        -9.741212474820134
      ],
      [
        "Ġpair",
        -9.74373486552943
      ],
      [
        "ĠAdditional",
        -9.743900613262095
      ],
      [
        "Ġready",
        -9.744288516574793
      ],
      [
        "Ġexposure",
        -9.745303596861913
      ],
      [
        "ook",
        -9.746312341003655
      ],
      [
        "ĠOr",
        -9.747387533052772
      ],
      [
        "Ġmaximum",
        -9.7480600466678
      ],
      [
        "group",
        -9.748495636219456
      ],
      [
        "Ġpowerful",
        -9.74935936867131
      ],
      [
        "Ġvision",
        -9.749851963681108
      ],
      [
        "Ġswitch",
        -9.75115580020006
      ],
      [
        "Ġlack",
        -9.751478206722725
      ],
      [
        "Ġload",
        -9.752524616100128
      ],
      [
        "Ġfloor",
        -9.753580167805923
      ],
      [
        "Ġsolid",
        -9.753805882446748
      ],
      [
        "Ġcooking",
        -9.753990618231134
      ],
      [
        "Ġbrown",
        -9.75405370256731
      ],
      [
        "Ġinteraction",
        -9.754313628715211
      ],
      [
        "ĠâĢĶ",
        -9.754661541737654
      ],
      [
        "Ġoccurs",
        -9.755400661890684
      ],
      [
        "-to",
        -9.755661640954653
      ],
      [
        "Ġcapacit",
        -9.756418413319397
      ],
      [
        "ĠMost",
        -9.756922669038236
      ],
      [
        "them",
        -9.757439389846846
      ],
      [
        "Ġadjust",
        -9.757588445626292
      ],
      [
        "Ġtend",
        -9.757872775396002
      ],
      [
        "ĠJ",
        -9.758225225306967
      ],
      [
        "Ġthousand",
        -9.758388941069772
      ],
      [
        "Ġdegrees",
        -9.759238546956947
      ],
      [
        "ties",
        -9.759545850967411
      ],
      [
        "older",
        -9.76003844411359
      ],
      [
        "Ġhands",
        -9.760179490700567
      ],
      [
        "don",
        -9.760485212358734
      ],
      [
        "expected",
        -9.76109822298299
      ],
      [
        "Ġ=",
        -9.761247041806094
      ],
      [
        "Ġfaster",
        -9.762248842313902
      ],
      [
        "Ġfoot",
        -9.762478062378475
      ],
      [
        "wide",
        -9.764204042284252
      ],
      [
        "Ġsubstance",
        -9.765245979533628
      ],
      [
        "Ġthird",
        -9.765303383496612
      ],
      [
        "Ġflight",
        -9.76551616400216
      ],
      [
        "Ġclick",
        -9.765671533510169
      ],
      [
        "About",
        -9.766707781965408
      ],
      [
        "Ġcentury",
        -9.768115549966502
      ],
      [
        "Ġsample",
        -9.768372765817928
      ],
      [
        "Ġframe",
        -9.768569186956295
      ],
      [
        "Ġdi",
        -9.769621506530836
      ],
      [
        "Ġthi",
        -9.771518908245705
      ],
      [
        "Ġconsumer",
        -9.772257551804154
      ],
      [
        "Ġheight",
        -9.772547006046532
      ],
      [
        "Ġburn",
        -9.77305700499988
      ],
      [
        "Ġpath",
        -9.773633077131898
      ],
      [
        "Ġcleaning",
        -9.773783934496528
      ],
      [
        "ĠSystem",
        -9.774651661877442
      ],
      [
        "into",
        -9.77525162381284
      ],
      [
        "being",
        -9.77541915676101
      ],
      [
        "Ġreflect",
        -9.775881091363749
      ],
      [
        "Ġconnection",
        -9.776685874859092
      ],
      [
        "Ġma",
        -9.777591719628486
      ],
      [
        "ship",
        -9.779186124798567
      ],
      [
        "Ġs",
        -9.780068971212843
      ],
      [
        "Ġearth",
        -9.780159788001058
      ],
      [
        "taken",
        -9.780199992695744
      ],
      [
        "ecurity",
        -9.781373990870204
      ],
      [
        "Ġcolour",
        -9.782496314734196
      ],
      [
        "Ġsuitabl",
        -9.78341304148498
      ],
      [
        "Ġdeliver",
        -9.783819298622532
      ],
      [
        "land",
        -9.786786662688328
      ],
      [
        "Ġhuge",
        -9.78702578179897
      ],
      [
        "Ġplatform",
        -9.787302761385837
      ],
      [
        "Ġtouch",
        -9.787438878665666
      ],
      [
        "Ġeconomic",
        -9.788049060491678
      ],
      [
        "ĠN",
        -9.79040739131256
      ],
      [
        "Ġbeyond",
        -9.790750176212832
      ],
      [
        "Ġcloth",
        -9.792351659201492
      ],
      [
        "go",
        -9.792408477031271
      ],
      [
        "ĠO",
        -9.792659797649415
      ],
      [
        "Ġelectronic",
        -9.794882874203694
      ],
      [
        "ĠNOT",
        -9.795401992199531
      ],
      [
        "society",
        -9.795592751527188
      ],
      [
        "Ġact",
        -9.796420259502154
      ],
      [
        "Ġstates",
        -9.797193873468222
      ],
      [
        "Ġpredict",
        -9.798821266384458
      ],
      [
        "Ġreveal",
        -9.801362777301344
      ],
      [
        "âĢ¢",
        -9.80207957396346
      ],
      [
        "system",
        -9.802265591129656
      ],
      [
        "Ġconnect",
        -9.80330049295695
      ],
      [
        "Ġfarmer",
        -9.803982113609775
      ],
      [
        "Ġw",
        -9.804523788860823
      ],
      [
        "Ġgene",
        -9.80503481123727
      ],
      [
        "Ġrich",
        -9.805119553875238
      ],
      [
        "Ġfamilies",
        -9.805597441277683
      ],
      [
        "Ġenter",
        -9.806179699666073
      ],
      [
        "do",
        -9.807131598015268
      ],
      [
        "Ġlegal",
        -9.808256242943532
      ],
      [
        "Ġreported",
        -9.80826062210113
      ],
      [
        "J",
        -9.81304412581747
      ],
      [
        "ĠIndia",
        -9.813593768853874
      ],
      [
        "Ġinternational",
        -9.813988043690877
      ],
      [
        "Ġbecomes",
        -9.814096018513808
      ],
      [
        "ĠNot",
        -9.814962677353734
      ],
      [
        "ĠMany",
        -9.81497442744261
      ],
      [
        "Ġdetails",
        -9.81541396195344
      ],
      [
        "Many",
        -9.820534714310435
      ],
      [
        "Ġp",
        -9.82189556493935
      ],
      [
        "Ġsalt",
        -9.822221749662525
      ],
      [
        "ĠNow",
        -9.82531687087777
      ],
      [
        "Ġplanning",
        -9.82543697504066
      ],
      [
        "Ġfrequenc",
        -9.825781292960324
      ],
      [
        "Ġfluid",
        -9.82684577351452
      ],
      [
        "only",
        -9.827486167236705
      ],
      [
        "An",
        -9.827843120591435
      ],
      [
        "Ġpractical",
        -9.829204136603591
      ],
      [
        "After",
        -9.829377007261346
      ],
      [
        ">",
        -9.829722457931275
      ],
      [
        "Ġlocated",
        -9.831549098320233
      ],
      [
        "Ġidentifie",
        -9.83445240982303
      ],
      [
        "-free",
        -9.834582316379342
      ],
      [
        "Ġdecade",
        -9.83525507414495
      ],
      [
        "ne",
        -9.835661957257631
      ],
      [
        "Ġtexture",
        -9.836833764136308
      ],
      [
        "X",
        -9.83707689518685
      ],
      [
        "Ġpaint",
        -9.837608848962564
      ],
      [
        "ĠIs",
        -9.837785311052038
      ],
      [
        "Ġextend",
        -9.8384448147302
      ],
      [
        "Your",
        -9.839590776231292
      ],
      [
        "related",
        -9.839833361548186
      ],
      [
        "particles",
        -9.840064860318291
      ],
      [
        "Ġadvanced",
        -9.840479197064282
      ],
      [
        "Ġwrite",
        -9.840697671439424
      ],
      [
        "Ġsweet",
        -9.84166251097896
      ],
      [
        "Ġfashion",
        -9.84201901371106
      ],
      [
        "Ġcontext",
        -9.84213116733372
      ],
      [
        "Ġstarte",
        -9.84246128690006
      ],
      [
        "Ġpark",
        -9.84295210575812
      ],
      [
        "Ġinsects",
        -9.844998450175598
      ],
      [
        "Ġmouth",
        -9.8450396460349
      ],
      [
        "Ġlink",
        -9.845892145753886
      ],
      [
        "Ġpump",
        -9.846019082699582
      ],
      [
        "aking",
        -9.8460840481436
      ],
      [
        "Ġcutting",
        -9.846920714864318
      ],
      [
        "Ġcoat",
        -9.847547386517402
      ],
      [
        "haps",
        -9.84759801041156
      ],
      [
        "Ġcouple",
        -9.8476095247558
      ],
      [
        "Ġfavorite",
        -9.848885392785704
      ],
      [
        "Ġmental",
        -9.849041186184706
      ],
      [
        "Ġmarine",
        -9.849579388220551
      ],
      [
        "Ġgenome",
        -9.851266120307876
      ],
      [
        "Ġresource",
        -9.852331324331734
      ],
      [
        "Ġbutton",
        -9.8528607600515
      ],
      [
        "Ġnote",
        -9.853093679933416
      ],
      [
        "take",
        -9.854171049379438
      ],
      [
        "Ġrise",
        -9.855615254955085
      ],
      [
        "Ġbone",
        -9.855775126103287
      ],
      [
        "Ġdegree",
        -9.856067856006833
      ],
      [
        "Ġgrass",
        -9.8563886029626
      ],
      [
        "Ġsurrounding",
        -9.85715664916917
      ],
      [
        "Ġse",
        -9.8586231425803
      ],
      [
        "Ġsaw",
        -9.85957409553368
      ],
      [
        "Ġtrack",
        -9.860114376505653
      ],
      [
        "On",
        -9.860480927062149
      ],
      [
        "Ġincluded",
        -9.86096241144388
      ],
      [
        "Ġrare",
        -9.8610869615001
      ],
      [
        "Ġcommercial",
        -9.86329377888316
      ],
      [
        "Ġsquare",
        -9.863852667160437
      ],
      [
        "{",
        -9.864279132017746
      ],
      [
        "-like",
        -9.865347081071722
      ],
      [
        "Ġbreath",
        -9.865605411008442
      ],
      [
        "Ġspeak",
        -9.865754841309473
      ],
      [
        "ĠOur",
        -9.865886943998309
      ],
      [
        "Ġfair",
        -9.866434143584446
      ],
      [
        "nce",
        -9.867387592262489
      ],
      [
        "Ġmatch",
        -9.8677148994697
      ],
      [
        ".com",
        -9.869037772189747
      ],
      [
        "ĠEurope",
        -9.869204215009184
      ],
      [
        "Ġschedule",
        -9.87054109702322
      ],
      [
        "Ġthinking",
        -9.870959531855917
      ],
      [
        "ĠMy",
        -9.871696956777074
      ],
      [
        "ĠState",
        -9.872660802427228
      ],
      [
        "Ġmagnetic",
        -9.872831820582189
      ],
      [
        "end",
        -9.8749838791494
      ],
      [
        "ĠBlack",
        -9.875845706699463
      ],
      [
        "Ġdocument",
        -9.875988844794602
      ],
      [
        "Ġoutcome",
        -9.876544297738349
      ],
      [
        "Ġlesson",
        -9.877206258710192
      ],
      [
        "Ġplease",
        -9.877426565293202
      ],
      [
        "Ġpieces",
        -9.87781536919282
      ],
      [
        "Ġmulti",
        -9.87868874173921
      ],
      [
        "Ġpush",
        -9.879101318289148
      ],
      [
        "Ġdrawing",
        -9.879601771990975
      ],
      [
        "ice",
        -9.880036329397504
      ],
      [
        "Ġfinding",
        -9.880311707797226
      ],
      [
        "Ġsurger",
        -9.880379287423573
      ],
      [
        "Ġwa",
        -9.8828520205164
      ],
      [
        "Ġalone",
        -9.883378651131938
      ],
      [
        "ĠOnc",
        -9.8835325193235
      ],
      [
        "Ġstaff",
        -9.88374585912624
      ],
      [
        "Ġradio",
        -9.88374965118864
      ],
      [
        "Ġmemor",
        -9.88400388050862
      ],
      [
        "Ġstand",
        -9.885134079569184
      ],
      [
        "Ġlargest",
        -9.88651373125731
      ],
      [
        "Ġvoltage",
        -9.8870117548304
      ],
      [
        "Most",
        -9.887561871487422
      ],
      [
        "Ġcheckbook",
        -9.889979898696414
      ],
      [
        "Ġpool",
        -9.891471453478507
      ],
      [
        "Ġmiddle",
        -9.892863884727916
      ],
      [
        "formed",
        -9.89348524102251
      ],
      [
        "Ġhighl",
        -9.895490929851745
      ],
      [
        "create",
        -9.895944253515356
      ],
      [
        "lost",
        -9.896417668384522
      ],
      [
        "Ġnational",
        -9.898641574054544
      ],
      [
        "Ġmotion",
        -9.898906990883248
      ],
      [
        "Ġtechnologie",
        -9.898968005524232
      ],
      [
        "Ġmoistur",
        -9.899126945102214
      ],
      [
        "Ġmolecule",
        -9.899222778065448
      ],
      [
        "Ġimplement",
        -9.89948759702256
      ],
      [
        "Ġannual",
        -9.8996996693551
      ],
      [
        "Ġdemonstrate",
        -9.899778012567614
      ],
      [
        "Ġtransfer",
        -9.900413874228851
      ],
      [
        "Ġcollection",
        -9.900702264076475
      ],
      [
        "Ġstuff",
        -9.900936575424636
      ],
      [
        "therefore",
        -9.901215872815644
      ],
      [
        "Ġengage",
        -9.901755002863004
      ],
      [
        "Ġfabric",
        -9.902520262214898
      ],
      [
        "Ġteaching",
        -9.903647027826256
      ],
      [
        "Ġvoice",
        -9.904124436362093
      ],
      [
        "Ġsecure",
        -9.907313671486374
      ],
      [
        "Ġdivers",
        -9.90771613321595
      ],
      [
        "ĠX",
        -9.907813642605076
      ],
      [
        "Ġaim",
        -9.910479798282823
      ],
      [
        "Ġ&",
        -9.911994831915104
      ],
      [
        "Ġhabitat",
        -9.912138528066588
      ],
      [
        "ou",
        -9.912147397425567
      ],
      [
        "Ġstem",
        -9.912324283710138
      ],
      [
        "Ġapproximate",
        -9.91289005239602
      ],
      [
        "Ġangle",
        -9.913763492957177
      ],
      [
        "Ġeffort",
        -9.915102458501496
      ],
      [
        "se",
        -9.91558570772905
      ],
      [
        "Ġdriv",
        -9.91649740601631
      ],
      [
        "Ġsoon",
        -9.918058586222648
      ],
      [
        "Ġquant",
        -9.918183752854906
      ],
      [
        "Ġhot",
        -9.918265352706412
      ],
      [
        "Ġbackground",
        -9.920305800846062
      ],
      [
        "ĠAt",
        -9.921610262418112
      ],
      [
        "ĠGo",
        -9.922043924766822
      ],
      [
        "Ġvital",
        -9.922564750808975
      ],
      [
        "Ġmold",
        -9.92381587060348
      ],
      [
        "Ġskate",
        -9.92395005487284
      ],
      [
        "Ġshoe",
        -9.923975072302571
      ],
      [
        "Ġcomfort",
        -9.924168894245732
      ],
      [
        "ility",
        -9.92431351073968
      ],
      [
        "Ġexternal",
        -9.924597943775062
      ],
      [
        "Ġletter",
        -9.924961443537022
      ],
      [
        "Ġvaluable",
        -9.92506354260296
      ],
      [
        "Ġshift",
        -9.925714962001535
      ],
      [
        "Which",
        -9.926656564068123
      ],
      [
        "Ġtable",
        -9.927403587417048
      ],
      [
        "Ġorganism",
        -9.927909152471669
      ],
      [
        "Ġhabit",
        -9.92872701893293
      ],
      [
        "Ġinjur",
        -9.929144310361671
      ],
      [
        "let",
        -9.929885711382529
      ],
      [
        "Ġre",
        -9.930577811433515
      ],
      [
        "Ġregularly",
        -9.930969619257423
      ],
      [
        "Ġoptimal",
        -9.932778644802678
      ],
      [
        "lot",
        -9.935388118826875
      ],
      [
        "Ġflat",
        -9.935410183977064
      ],
      [
        "Ġcomponent",
        -9.937342398084263
      ],
      [
        "Ġpanel",
        -9.9376623865272
      ],
      [
        "ĠCalifornia",
        -9.939757799905143
      ],
      [
        "Ġcapture",
        -9.93985216421005
      ],
      [
        "Ġcomment",
        -9.941248757174757
      ],
      [
        "Ġconvert",
        -9.943133041759957
      ],
      [
        "Ġlate",
        -9.943834841531975
      ],
      [
        "Ġinternal",
        -9.943866505498889
      ],
      [
        "Ġsites",
        -9.944157028133128
      ],
      [
        "ĠV",
        -9.944262477696936
      ],
      [
        "Ġproperty",
        -9.945268090482816
      ],
      [
        "ma",
        -9.94539224439843
      ],
      [
        "no",
        -9.945408352809723
      ],
      [
        "put",
        -9.945417513781264
      ],
      [
        "round",
        -9.945531206408974
      ],
      [
        "Ġfacilit",
        -9.945789085079692
      ],
      [
        "there",
        -9.946058754656557
      ],
      [
        "Ġfriend",
        -9.946771413263557
      ],
      [
        "went",
        -9.947299909278808
      ],
      [
        "ĠAfrica",
        -9.950130441475832
      ],
      [
        "rates",
        -9.950294022457982
      ],
      [
        "aught",
        -9.950314037974117
      ],
      [
        "arming",
        -9.951857870314218
      ],
      [
        "Ġquick",
        -9.951912096020449
      ],
      [
        "ĠAustralia",
        -9.952364304783732
      ],
      [
        "long",
        -9.95247253920428
      ],
      [
        "Ġefforts",
        -9.953076046517614
      ],
      [
        "Ġcareer",
        -9.954127047914996
      ],
      [
        "@",
        -9.954482721428846
      ],
      [
        "No",
        -9.955391915600492
      ],
      [
        "Ġexpect",
        -9.957846069236057
      ],
      [
        "Ġcream",
        -9.95794659773638
      ],
      [
        "Ġhorse",
        -9.958349134929064
      ],
      [
        "am",
        -9.95868624925246
      ],
      [
        "Ġloop",
        -9.959395680925269
      ],
      [
        "Ġstation",
        -9.959700832116743
      ],
      [
        "<",
        -9.96034947010086
      ],
      [
        "Ġmedium",
        -9.960895679439645
      ],
      [
        "Ġblade",
        -9.96112295857992
      ],
      [
        "ĠAre",
        -9.9614503684051
      ],
      [
        "Ġroad",
        -9.962023784901056
      ],
      [
        "Ġartist",
        -9.96220808032809
      ],
      [
        "ĠMay",
        -9.962781176024038
      ],
      [
        "Ġsort",
        -9.963160546043508
      ],
      [
        "Ġfinancial",
        -9.963211608064515
      ],
      [
        "iving",
        -9.966224081722885
      ],
      [
        "Ġtube",
        -9.966338601355334
      ],
      [
        "Ġcomprehensive",
        -9.967193984705442
      ],
      [
        "Ġbeginning",
        -9.96886789741863
      ],
      [
        "ĠWhy",
        -9.969326201508553
      ],
      [
        "care",
        -9.97022027576094
      ],
      [
        "world",
        -9.970862650029533
      ],
      [
        "ĠDepartment",
        -9.971164396460985
      ],
      [
        "Ġconsistent",
        -9.97120491039333
      ],
      [
        "try",
        -9.97167090343233
      ],
      [
        "Ġice",
        -9.971891124177684
      ],
      [
        "Ġbeauty",
        -9.975206276767718
      ],
      [
        "Ġdangerous",
        -9.97526787604307
      ],
      [
        "Ġexpand",
        -9.97541724737437
      ],
      [
        "ĠWater",
        -9.97679937241351
      ],
      [
        "Ġbasi",
        -9.976998184965442
      ],
      [
        "Ġsurvey",
        -9.978452972869595
      ],
      [
        "Ġtiny",
        -9.97873462641613
      ],
      [
        "ĠGerman",
        -9.97903730066469
      ],
      [
        "Ġyield",
        -9.979381193322332
      ],
      [
        "Ġhour",
        -9.979682419573836
      ],
      [
        "ĠLet",
        -9.979750200738245
      ],
      [
        "Ġatmosphere",
        -9.979918688694038
      ],
      [
        "Ġconnected",
        -9.980538105797464
      ],
      [
        "ĠOther",
        -9.982009179772168
      ],
      [
        "Ġvalve",
        -9.982081145033504
      ],
      [
        "Ġconservation",
        -9.983061081264587
      ],
      [
        "Ġalgorithm",
        -9.98381766323764
      ],
      [
        "ĠJust",
        -9.983940512772
      ],
      [
        "Ġformat",
        -9.984334159684307
      ],
      [
        "Ġdouble",
        -9.985467280141137
      ],
      [
        "Ġworth",
        -9.985557451690353
      ],
      [
        "Ġprefer",
        -9.986315028087072
      ],
      [
        "these",
        -9.986961545969145
      ],
      [
        "Ġselection",
        -9.986977609723784
      ],
      [
        "Ġcreative",
        -9.987034198979696
      ],
      [
        "Ġbeneficial",
        -9.987897219406538
      ],
      [
        "Ġweigh",
        -9.989754505039922
      ],
      [
        "Ġcentral",
        -9.989913414573731
      ],
      [
        "Ġpound",
        -9.990150715373431
      ],
      [
        "Ġstrateg",
        -9.99022901366824
      ],
      [
        "ĠLearn",
        -9.990339535754195
      ],
      [
        "thus",
        -9.990600933389189
      ],
      [
        "Ġcoffee",
        -9.990832497077438
      ],
      [
        "Ġadapt",
        -9.992247084831751
      ],
      [
        "Ġbond",
        -9.992434978018018
      ],
      [
        "Ġappearance",
        -9.992444991584687
      ],
      [
        "ĠPark",
        -9.992522099095336
      ],
      [
        "held",
        -9.992921729248495
      ],
      [
        "Ġmaintaining",
        -9.992972675742454
      ],
      [
        "Ġhapp",
        -9.993119187825686
      ],
      [
        "Ġfertilizer",
        -9.993774955759696
      ],
      [
        "Ġconsume",
        -9.994191143909148
      ],
      [
        "through",
        -9.994241272558202
      ],
      [
        "Ġoperate",
        -9.994360709303786
      ],
      [
        "Ġimmediatel",
        -9.994610824093446
      ],
      [
        "Ġdriver",
        -9.995585696646286
      ],
      [
        "Ġcup",
        -9.995775399016589
      ],
      [
        "-year",
        -9.99614643651913
      ],
      [
        "ted",
        -9.996181327540793
      ],
      [
        "Ġevolution",
        -9.99622330680398
      ],
      [
        "eat",
        -9.997093619664746
      ],
      [
        "Ġfeeding",
        -9.997157700108566
      ],
      [
        "Ġcountr",
        -9.997751207878562
      ],
      [
        "led",
        -9.997756063382148
      ],
      [
        "iabetes",
        -9.997984613564554
      ],
      [
        "mber",
        -9.998546336092204
      ],
      [
        "Ġrace",
        -9.999187654530823
      ],
      [
        "Ġboat",
        -10.000190943576836
      ],
      [
        "Ġgames",
        -10.00147836175681
      ],
      [
        "him",
        -10.002945987954014
      ],
      [
        "Ġleaf",
        -10.003917764604758
      ],
      [
        "Al",
        -10.006298080199496
      ],
      [
        "ble",
        -10.007573947498097
      ],
      [
        "Ġinsight",
        -10.00783688461117
      ],
      [
        "Ġsustain",
        -10.007856570507744
      ],
      [
        "between",
        -10.008056350089657
      ],
      [
        "Ġmuscles",
        -10.009337172374316
      ],
      [
        "Ġemail",
        -10.010292957084546
      ],
      [
        "Ġcrops",
        -10.010509190319866
      ],
      [
        "Ġdistribution",
        -10.010582057155482
      ],
      [
        "Ġcomfortable",
        -10.011044661967912
      ],
      [
        "Ġhelpful",
        -10.01115627233258
      ],
      [
        "Ġcable",
        -10.012308175715448
      ],
      [
        "Ġthreat",
        -10.012350126916134
      ],
      [
        "Ġspend",
        -10.012791687001624
      ],
      [
        "ĠEnglish",
        -10.013200419389449
      ],
      [
        "ring",
        -10.013241543599632
      ],
      [
        "Ġcity",
        -10.013949483458324
      ],
      [
        "Ġlabel",
        -10.014425395624842
      ],
      [
        "often",
        -10.014581642521154
      ],
      [
        "Ġpresen",
        -10.0147470506539
      ],
      [
        "Ġfocuse",
        -10.01558685110159
      ],
      [
        "Ġminerals",
        -10.015673942249066
      ],
      [
        "ĠChina",
        -10.015798647343535
      ],
      [
        "fully",
        -10.017931110762238
      ],
      [
        "form",
        -10.017952953598837
      ],
      [
        "esting",
        -10.018020916405778
      ],
      [
        "Do",
        -10.018559933837544
      ],
      [
        "Ġprogress",
        -10.018827364056202
      ],
      [
        "Ġattempt",
        -10.018932083923332
      ],
      [
        "Ġchannel",
        -10.019344656588004
      ],
      [
        "Ġwhe",
        -10.020794174378372
      ],
      [
        "Ġstock",
        -10.022063125461193
      ],
      [
        "Ġstone",
        -10.022471809172554
      ],
      [
        "According",
        -10.0260505613482
      ],
      [
        "Ġcarrie",
        -10.026845024023224
      ],
      [
        "Ġdivide",
        -10.027528045295504
      ],
      [
        "All",
        -10.027987177816623
      ],
      [
        "Ġmode",
        -10.028035010636897
      ],
      [
        "Ġparameter",
        -10.029772451199712
      ],
      [
        "ĠUK",
        -10.030328795159855
      ],
      [
        "Ġart",
        -10.03112274163968
      ],
      [
        "Ġplate",
        -10.031514903984837
      ],
      [
        "Ġsmart",
        -10.031919807638245
      ],
      [
        "Ġcross",
        -10.032787251249037
      ],
      [
        "Ġgold",
        -10.033832422980764
      ],
      [
        "Ġpollution",
        -10.034202371329831
      ],
      [
        "Ġdecline",
        -10.03429142777214
      ],
      [
        "Ġbar",
        -10.034341700508412
      ],
      [
        "Ġbright",
        -10.034994714690232
      ],
      [
        "Ġpossibilit",
        -10.035048674087108
      ],
      [
        "Ġroots",
        -10.035164411119208
      ],
      [
        "Ġconcentration",
        -10.035910081067811
      ],
      [
        "ĠAccording",
        -10.036969850086562
      ],
      [
        "Ġvirus",
        -10.037577070063696
      ],
      [
        "Ġadvice",
        -10.038175219138582
      ],
      [
        "Ġweed",
        -10.039044529238543
      ],
      [
        "Ġdiscovere",
        -10.039274950864725
      ],
      [
        "Ġcaus",
        -10.039362637385103
      ],
      [
        "tion",
        -10.039436439695994
      ],
      [
        "Ġtransport",
        -10.039690005768623
      ],
      [
        "Ġmiles",
        -10.03981477407031
      ],
      [
        "Ġperspective",
        -10.040085524419798
      ],
      [
        "Ġcurve",
        -10.040090121304852
      ],
      [
        "Ġdepth",
        -10.041690251102786
      ],
      [
        "Ġchang",
        -10.042767603137628
      ],
      [
        "From",
        -10.043674549866374
      ],
      [
        "Ġfiber",
        -10.045587329697902
      ],
      [
        "Ġclient",
        -10.045755128351916
      ],
      [
        "Ġstatus",
        -10.046956677467382
      ],
      [
        "Ġpropert",
        -10.047302320336405
      ],
      [
        "Ġroutine",
        -10.048031331923216
      ],
      [
        "Ġgoals",
        -10.048875923697548
      ],
      [
        "ĠEven",
        -10.049086403795044
      ],
      [
        "table",
        -10.04996427207007
      ],
      [
        "Ġmember",
        -10.050738891258687
      ],
      [
        "Ġparticipant",
        -10.05124428547714
      ],
      [
        "nother",
        -10.05183262029404
      ],
      [
        "Ġpolicy",
        -10.051869402212182
      ],
      [
        "Ġtrigger",
        -10.052722920147955
      ],
      [
        "Ġpipe",
        -10.053017372020378
      ],
      [
        "Ġagricultur",
        -10.054435506037915
      ],
      [
        "-friendl",
        -10.055211757547667
      ],
      [
        "Yes",
        -10.055361158883567
      ],
      [
        "Ġpack",
        -10.05593762196442
      ],
      [
        "Ġprivate",
        -10.056160698091317
      ],
      [
        "Ġindependent",
        -10.05623304962289
      ],
      [
        "Ġapp",
        -10.057574496138724
      ],
      [
        "Ġsend",
        -10.05780701022783
      ],
      [
        "Ġcorn",
        -10.05802105594788
      ],
      [
        "Ġdoor",
        -10.058814898155006
      ],
      [
        "Ġreference",
        -10.059252151849622
      ],
      [
        "Ġcommuniti",
        -10.059322010049843
      ],
      [
        "efore",
        -10.062008222252093
      ],
      [
        "Ġnitrogen",
        -10.06400439294752
      ],
      [
        "ĠNature",
        -10.06477447779061
      ],
      [
        "Ġnative",
        -10.065387824150449
      ],
      [
        "Ġeducational",
        -10.065635715160756
      ],
      [
        "Ġshot",
        -10.06578183544671
      ],
      [
        "Ġfund",
        -10.066440481124316
      ],
      [
        "Ġgrain",
        -10.066609749356616
      ],
      [
        "Ġnerve",
        -10.066701325826354
      ],
      [
        "ĠIsland",
        -10.06745946137427
      ],
      [
        "Ġstraight",
        -10.067836445956694
      ],
      [
        "Ġmedicine",
        -10.07063668797668
      ],
      [
        "Ġprepared",
        -10.070767102761828
      ],
      [
        "Ġtechnical",
        -10.071340715213136
      ],
      [
        "Ġdiscussion",
        -10.07211369211644
      ],
      [
        "Ġwindow",
        -10.073404410782604
      ],
      [
        "Ġaware",
        -10.073501478028708
      ],
      [
        "Ġcalculate",
        -10.073507841824036
      ],
      [
        "Ġsurvive",
        -10.07506511019018
      ],
      [
        "Ġartificial",
        -10.075103086294192
      ],
      [
        "ĠTh",
        -10.075510545958998
      ],
      [
        "ĠMake",
        -10.07698982758273
      ],
      [
        "Ġrules",
        -10.07744317308628
      ],
      [
        "Ġengineering",
        -10.079212256472292
      ],
      [
        "per",
        -10.08109719977691
      ],
      [
        "Ġexamine",
        -10.081158380952054
      ],
      [
        "Ġfight",
        -10.08169574950114
      ],
      [
        "Ġfundamental",
        -10.081749060946612
      ],
      [
        "Ġancient",
        -10.081945475439452
      ],
      [
        "ying",
        -10.081946887197102
      ],
      [
        "ĠUs",
        -10.082211835427398
      ],
      [
        "ĠEuropean",
        -10.082708573705617
      ],
      [
        "Ġprimari",
        -10.083378714045988
      ],
      [
        "Ġdrop",
        -10.08445808895874
      ],
      [
        "Ġpregnancy",
        -10.084889592187569
      ],
      [
        "Ġoffering",
        -10.08634809190304
      ],
      [
        "Ġagree",
        -10.086632689262968
      ],
      [
        "Ġsub",
        -10.087191651564511
      ],
      [
        "Ġfindings",
        -10.087395710072997
      ],
      [
        "Ġlisten",
        -10.087567897503018
      ],
      [
        "bility",
        -10.087961743829812
      ],
      [
        "Ġupper",
        -10.088312133762024
      ],
      [
        "Ġmixture",
        -10.08837874699199
      ],
      [
        "Ġaudio",
        -10.088380451146826
      ],
      [
        "Ġcollege",
        -10.088465855532796
      ],
      [
        "/or",
        -10.089610278202963
      ],
      [
        "Ġgear",
        -10.089740867938945
      ],
      [
        "Ġhighlight",
        -10.091204534210496
      ],
      [
        "Ġtransition",
        -10.091550598958314
      ],
      [
        "-quality",
        -10.091758691370178
      ],
      [
        "Ġvia",
        -10.09190036660582
      ],
      [
        "my",
        -10.092413541417834
      ],
      [
        "Ġbones",
        -10.092563602676648
      ],
      [
        "Ġbillion",
        -10.09318869622215
      ],
      [
        "ĠInternational",
        -10.09324160405007
      ],
      [
        "Ġespecia",
        -10.093809143875166
      ],
      [
        "Ġknee",
        -10.094033662320612
      ],
      [
        "My",
        -10.094217651465897
      ],
      [
        "ĠAir",
        -10.094306111859392
      ],
      [
        "Ġimprovement",
        -10.094965079704162
      ],
      [
        "Ġinstall",
        -10.095717651693851
      ],
      [
        "Ġpilot",
        -10.096108292515648
      ],
      [
        "Ġreliabl",
        -10.097815107374252
      ],
      [
        "Ġdetail",
        -10.097939396716828
      ],
      [
        "Are",
        -10.098334539176877
      ],
      [
        "Ġpropose",
        -10.099798659627606
      ],
      [
        "Ġconclusion",
        -10.10025251269947
      ],
      [
        "Ġindoor",
        -10.10052667263193
      ],
      [
        "ĠFood",
        -10.101470741959762
      ],
      [
        "Ġdental",
        -10.10239080159116
      ],
      [
        "Ġworked",
        -10.10311123589824
      ],
      [
        "Ġestablishe",
        -10.104781867385253
      ],
      [
        "Ġprocedure",
        -10.104804600880476
      ],
      [
        "board",
        -10.105335059783997
      ],
      [
        "More",
        -10.10552184161152
      ],
      [
        "Ġtopic",
        -10.106200231141
      ],
      [
        "Ġdrug",
        -10.106723508736106
      ],
      [
        "diversity",
        -10.107204932303418
      ],
      [
        "Ġbooks",
        -10.107587973488616
      ],
      [
        "exposed",
        -10.107727810785264
      ],
      [
        "Use",
        -10.107810940213684
      ],
      [
        "Ġvariation",
        -10.108194822209706
      ],
      [
        "ĠFirst",
        -10.108902498155672
      ],
      [
        "Be",
        -10.109247218165857
      ],
      [
        "Ġattract",
        -10.11034625824562
      ],
      [
        "Ġorigin",
        -10.110517143837413
      ],
      [
        "Ġcommand",
        -10.112038480515633
      ],
      [
        "Ġeventually",
        -10.11281355274044
      ],
      [
        "Ġpets",
        -10.113335847649228
      ],
      [
        "known",
        -10.114339035277167
      ],
      [
        "Ġoffice",
        -10.114837323535223
      ],
      [
        "Ġemployee",
        -10.1150708971064
      ],
      [
        "Ġfinger",
        -10.115703673717444
      ],
      [
        "Ġsequence",
        -10.116336917639746
      ],
      [
        "Ġrespect",
        -10.11675436025376
      ],
      [
        "Ġexcessive",
        -10.117653914305908
      ],
      [
        "ĠDay",
        -10.118408012234507
      ],
      [
        "ĠApri",
        -10.11869616650169
      ],
      [
        "Ġowners",
        -10.11935515327242
      ],
      [
        "Ġbirth",
        -10.120087165114164
      ],
      [
        "Ġvirtual",
        -10.120114689418998
      ],
      [
        "Ġjoint",
        -10.12017561738909
      ],
      [
        "Ġstar",
        -10.120519769646885
      ],
      [
        "Onc",
        -10.120691084930208
      ],
      [
        "Ġassess",
        -10.120950868877742
      ],
      [
        "Ġconfirm",
        -10.121325670854263
      ],
      [
        "Ġsounds",
        -10.121923828321078
      ],
      [
        "ĠEvery",
        -10.122116165008425
      ],
      [
        "Ġprepare",
        -10.122208981897897
      ],
      [
        "Ġsuper",
        -10.122557037204768
      ],
      [
        "Ġnutrient",
        -10.12331625443103
      ],
      [
        "Ġbiological",
        -10.123482930485498
      ],
      [
        "Ġdefinition",
        -10.123712826387184
      ],
      [
        "Ġpercentage",
        -10.12386014171068
      ],
      [
        "point",
        -10.124674226137966
      ],
      [
        "live",
        -10.12609042915781
      ],
      [
        "allow",
        -10.12629110279917
      ],
      [
        "Ġnumerou",
        -10.126441473551656
      ],
      [
        "Ġelectron",
        -10.126691931350663
      ],
      [
        "itis",
        -10.127328547800786
      ],
      [
        "Ġbu",
        -10.128374965440296
      ],
      [
        "ĠMarch",
        -10.128731403395864
      ],
      [
        "Ġcreature",
        -10.131996117022284
      ],
      [
        "Ġatom",
        -10.133010971057493
      ],
      [
        "Ġsaying",
        -10.133198046004908
      ],
      [
        "Ġlung",
        -10.133707208693943
      ],
      [
        "ĠSince",
        -10.134263397685064
      ],
      [
        "Ġlatest",
        -10.134277648356038
      ],
      [
        "Januar",
        -10.134399712823042
      ],
      [
        "Ġbill",
        -10.134717468145103
      ],
      [
        "Ġleak",
        -10.134923833373366
      ],
      [
        "ten",
        -10.135466560278392
      ],
      [
        "aging",
        -10.135682392117245
      ],
      [
        "Ġedge",
        -10.136304413543364
      ],
      [
        "Ġcap",
        -10.136819179651894
      ],
      [
        "Ġsports",
        -10.136845871242947
      ],
      [
        "ge",
        -10.136864710652262
      ],
      [
        "Ġstorm",
        -10.13781909540862
      ],
      [
        "ĠRe",
        -10.138546561641204
      ],
      [
        "Ġradiation",
        -10.139062030687684
      ],
      [
        "Ġbusinesses",
        -10.13983930365843
      ],
      [
        "Ġfill",
        -10.139922546245112
      ],
      [
        "Ġint",
        -10.13998591202832
      ],
      [
        "Ġnews",
        -10.141074914136048
      ],
      [
        "||",
        -10.142782267290436
      ],
      [
        "Ġgrade",
        -10.143814361212948
      ],
      [
        "Ġbreeding",
        -10.143925154021924
      ],
      [
        "Ġadde",
        -10.14435604858535
      ],
      [
        "Ġassist",
        -10.145408633886912
      ],
      [
        "Ġexhibit",
        -10.145458956592329
      ],
      [
        "ĠEducation",
        -10.145491341823073
      ],
      [
        "kept",
        -10.145751573442425
      ],
      [
        "Ġchalleng",
        -10.146478847207591
      ],
      [
        "Ġfoundation",
        -10.14692909076198
      ],
      [
        "Ġmorning",
        -10.147676455557086
      ],
      [
        "tic",
        -10.148120229723478
      ],
      [
        "Ġtraffic",
        -10.148531581151598
      ],
      [
        "Ġprofessionals",
        -10.14917576438857
      ],
      [
        "ically",
        -10.149368262713818
      ],
      [
        "away",
        -10.149744539931874
      ],
      [
        "Ġbear",
        -10.149783222029017
      ],
      [
        "Ġworry",
        -10.149795289150576
      ],
      [
        "Ġcompost",
        -10.15008604702393
      ],
      [
        "Ġfix",
        -10.150196703978372
      ],
      [
        "Ġblog",
        -10.151930454124976
      ],
      [
        "Ġemergenc",
        -10.152330691460511
      ],
      [
        "Ġlens",
        -10.152558279016088
      ],
      [
        "ĠDon",
        -10.152861834624748
      ],
      [
        "Ġcontinuous",
        -10.15304457637204
      ],
      [
        "Ġillness",
        -10.1540057039761
      ],
      [
        "**",
        -10.154108418296024
      ],
      [
        "Ġmeeting",
        -10.154371473668345
      ],
      [
        "Ġtitle",
        -10.154455029749252
      ],
      [
        "then",
        -10.154716158356804
      ],
      [
        "Ġblend",
        -10.155185568383358
      ],
      [
        "ĠYork",
        -10.155279486369544
      ],
      [
        "ĠSea",
        -10.156497694064594
      ],
      [
        "Ġowner",
        -10.156896145459555
      ],
      [
        "Ġassessment",
        -10.158181513680136
      ],
      [
        "ĠWar",
        -10.158236171509389
      ],
      [
        "Ġreduction",
        -10.159290571830114
      ],
      [
        "Ġthrow",
        -10.159508805080735
      ],
      [
        "size",
        -10.15959700726645
      ],
      [
        "Ġrequest",
        -10.159939722006683
      ],
      [
        "Ġawarenes",
        -10.160121853287428
      ],
      [
        "ĠGreen",
        -10.16049724324708
      ],
      [
        "Ġbread",
        -10.161376956857278
      ],
      [
        "Ġcomposition",
        -10.161550605294604
      ],
      [
        "ture",
        -10.162121240362694
      ],
      [
        "Ġexpression",
        -10.162145669033237
      ],
      [
        "Ġobvious",
        -10.162281644496746
      ],
      [
        "ĠAsia",
        -10.162516573539136
      ],
      [
        "Ġspeaker",
        -10.162581565562231
      ],
      [
        "ĠChine",
        -10.162628019150088
      ],
      [
        "Ġcredit",
        -10.16348082039864
      ],
      [
        "Ġeating",
        -10.164652884571066
      ],
      [
        "Ġcatch",
        -10.166556182447016
      ],
      [
        "ĠHigh",
        -10.166810463133524
      ],
      [
        "Ġtrip",
        -10.166878038984017
      ],
      [
        "Ġjournal",
        -10.167761427595302
      ],
      [
        "Ġreache",
        -10.167843549000692
      ],
      [
        "Ġrule",
        -10.16820137830242
      ],
      [
        "Ġimplant",
        -10.168472832039347
      ],
      [
        "Ġchoos",
        -10.168473101075922
      ],
      [
        "Ġsentence",
        -10.169605745554795
      ],
      [
        "ĠProgram",
        -10.170331366476862
      ],
      [
        "Ġhormone",
        -10.171106997931751
      ],
      [
        "change",
        -10.171199458462327
      ],
      [
        "Ġenzyme",
        -10.171758762397731
      ],
      [
        "Ġnice",
        -10.171781113230765
      ],
      [
        "ĠâĢ¢",
        -10.17187373981304
      ],
      [
        "Ġbodie",
        -10.17203883779455
      ],
      [
        "Ġencounter",
        -10.172511419485913
      ],
      [
        "ish",
        -10.173442087485782
      ],
      [
        "Ġremote",
        -10.174409123671442
      ],
      [
        "Ġnutrition",
        -10.175026127466996
      ],
      [
        "Conclusion",
        -10.175090940287522
      ],
      [
        "Ġaccident",
        -10.175137986914317
      ],
      [
        "Ġgenes",
        -10.177055027708596
      ],
      [
        "Ġweb",
        -10.177353871219395
      ],
      [
        "ization",
        -10.17806461299914
      ],
      [
        "Ġtooth",
        -10.178179195802189
      ],
      [
        "Ġisland",
        -10.179294675155312
      ],
      [
        "Ġwhose",
        -10.179708393554066
      ],
      [
        "ĠAls",
        -10.180892878162334
      ],
      [
        "Ġearlier",
        -10.181354158176482
      ],
      [
        "Ġsession",
        -10.181692268397644
      ],
      [
        "Ġphotograph",
        -10.182295970933382
      ],
      [
        "j",
        -10.182892738085805
      ],
      [
        "action",
        -10.183511269463365
      ],
      [
        "Ġengineer",
        -10.184963299073209
      ],
      [
        "Ġdepression",
        -10.187823974331376
      ],
      [
        "Ġfinish",
        -10.188972716995018
      ],
      [
        "Ġfunctional",
        -10.189958898071207
      ],
      [
        "Ġinnovation",
        -10.193266656486752
      ],
      [
        "Ġreplacement",
        -10.193898059480166
      ],
      [
        "Ġclassroom",
        -10.19398817748493
      ],
      [
        "Ġprovider",
        -10.19407079079244
      ],
      [
        "Ġpreference",
        -10.194358929315271
      ],
      [
        "Ġshowing",
        -10.194596374324156
      ],
      [
        "Ġpasse",
        -10.195362659779144
      ],
      [
        "Ġdrain",
        -10.196837421406826
      ],
      [
        "Ġcook",
        -10.197390065652264
      ],
      [
        "lower",
        -10.197698299388964
      ],
      [
        "Ġproduc",
        -10.197851934051185
      ],
      [
        "Ġkill",
        -10.198543246345888
      ],
      [
        "Ġmid",
        -10.198972885954568
      ],
      [
        "ĠCity",
        -10.199747757399413
      ],
      [
        "Ġdetailed",
        -10.201097843349132
      ],
      [
        "Ġcapabilit",
        -10.201275867589477
      ],
      [
        "Ġinternet",
        -10.201343887360204
      ],
      [
        "Ġmeter",
        -10.202507896826775
      ],
      [
        "Ġsnake",
        -10.202814085930587
      ],
      [
        "Ġdrugs",
        -10.20295640921957
      ],
      [
        "Ġchanged",
        -10.203284151770916
      ],
      [
        "power",
        -10.203358534703344
      ],
      [
        "Ġtumor",
        -10.20358842508814
      ],
      [
        "ĠDog",
        -10.203747816782844
      ],
      [
        "Ġvarie",
        -10.204056478749026
      ],
      [
        "Ġsupplement",
        -10.204211229041466
      ],
      [
        "Ġharvest",
        -10.204224215584668
      ],
      [
        "Ġadvance",
        -10.20422673255658
      ],
      [
        "ĠCanada",
        -10.20484679791904
      ],
      [
        "Ġdead",
        -10.204932581948617
      ],
      [
        "ĠService",
        -10.205333768930048
      ],
      [
        "Ġear",
        -10.207124404096474
      ],
      [
        "Ġrelevan",
        -10.207328456003603
      ],
      [
        "Ġfail",
        -10.207385197952895
      ],
      [
        "men",
        -10.20743918479804
      ],
      [
        "Ġeliminate",
        -10.207517541433296
      ],
      [
        "Ġhelping",
        -10.207786975880026
      ],
      [
        "ĠRiver",
        -10.208349697713356
      ],
      [
        "Ġmechanical",
        -10.20874227952412
      ],
      [
        "Ġobservation",
        -10.20899769557612
      ],
      [
        "Ġtrend",
        -10.209568773814183
      ],
      [
        "Since",
        -10.2101797497047
      ],
      [
        "Ġhowev",
        -10.211725159500208
      ],
      [
        "Ġimprov",
        -10.211822581769708
      ],
      [
        "Ġzero",
        -10.212355448164068
      ],
      [
        "Ġmayb",
        -10.212368250241624
      ],
      [
        "Ġjoin",
        -10.21313501839558
      ],
      [
        "Ġaircraft",
        -10.21440462750436
      ],
      [
        "Ġopinion",
        -10.214813308902674
      ],
      [
        "new",
        -10.214869562631636
      ],
      [
        "so",
        -10.215420521250708
      ],
      [
        "Ġhundred",
        -10.215800556670231
      ],
      [
        "Ġinvestment",
        -10.215993725056755
      ],
      [
        "Ġdate",
        -10.21606392503532
      ],
      [
        "place",
        -10.216663216633243
      ],
      [
        "Ġtransform",
        -10.217242251400476
      ],
      [
        "Ġserie",
        -10.217687115245909
      ],
      [
        "elling",
        -10.217708824710442
      ],
      [
        "Ġestablish",
        -10.218854649423609
      ],
      [
        "Ġboost",
        -10.219269794196308
      ],
      [
        "Ġteach",
        -10.219494146853949
      ],
      [
        "Ġwrit",
        -10.22051005660048
      ],
      [
        "Ġmap",
        -10.220953133018952
      ],
      [
        "Ġreferr",
        -10.220982006902336
      ],
      [
        "Ġmineral",
        -10.221134810909248
      ],
      [
        "ĠDuring",
        -10.221343029837282
      ],
      [
        "Ġrealize",
        -10.22144446114896
      ],
      [
        "Ġam",
        -10.222016505765126
      ],
      [
        "called",
        -10.222474190921918
      ],
      [
        "Ġvehicles",
        -10.222574314437184
      ],
      [
        "Ġconsideration",
        -10.22257565446284
      ],
      [
        "specific",
        -10.223310366027178
      ],
      [
        "Ġplent",
        -10.22331046248036
      ],
      [
        "Ġspecialize",
        -10.224046136931037
      ],
      [
        "Ġinteract",
        -10.225648537494555
      ],
      [
        "holes",
        -10.225826578728755
      ],
      [
        "Ġminimum",
        -10.226765104097543
      ],
      [
        "Ġlarva",
        -10.227312578981804
      ],
      [
        "Ġincredibl",
        -10.227486123868472
      ],
      [
        "Ġenvironments",
        -10.227733224491017
      ],
      [
        "Ġequation",
        -10.228771038218536
      ],
      [
        "Ġcheese",
        -10.22882517252945
      ],
      [
        "species",
        -10.22988077807151
      ],
      [
        "ling",
        -10.230343276746437
      ],
      [
        "oil",
        -10.231204050103193
      ],
      [
        "Ġforests",
        -10.231220501308428
      ],
      [
        "Ġultimate",
        -10.231917617093169
      ],
      [
        "Ġdeposit",
        -10.23283591998804
      ],
      [
        "Ġrelax",
        -10.232928321163005
      ],
      [
        "Ġmajorit",
        -10.233128163935202
      ],
      [
        "Ġgrown",
        -10.234113466364242
      ],
      [
        "Ġchronic",
        -10.235081756948947
      ],
      [
        "Ġminimize",
        -10.235316664663111
      ],
      [
        "Ġfiles",
        -10.23556974482744
      ],
      [
        "-in",
        -10.23691624052152
      ],
      [
        "Ġsurvival",
        -10.238173179598656
      ],
      [
        "Ġsamples",
        -10.23832656031201
      ],
      [
        "Ġconsequence",
        -10.238812386374892
      ],
      [
        "Ġregister",
        -10.240243099114291
      ],
      [
        "Ġtight",
        -10.24067511761474
      ],
      [
        "mixed",
        -10.241018352312675
      ],
      [
        "Ġsensitive",
        -10.241177301840088
      ],
      [
        "Ġrubber",
        -10.241218428015404
      ],
      [
        "Ġregulation",
        -10.2426083377335
      ],
      [
        "first",
        -10.242811314600724
      ],
      [
        "Ġbottle",
        -10.243004515793611
      ],
      [
        "Ġemotional",
        -10.24308501503338
      ],
      [
        "Ġvertical",
        -10.243167527635556
      ],
      [
        "Ġapart",
        -10.243418995487596
      ],
      [
        "Ġborn",
        -10.243998331280965
      ],
      [
        "Ġsituations",
        -10.24447785454654
      ],
      [
        "Ġpowder",
        -10.244674670127957
      ],
      [
        "Ġegg",
        -10.244828607256125
      ],
      [
        "Ġvaccine",
        -10.245365260346684
      ],
      [
        "Ġinsulati",
        -10.245807732473638
      ],
      [
        "Ġincorporate",
        -10.24686191834693
      ],
      [
        "Ġinterface",
        -10.246989536452707
      ],
      [
        "Ġdish",
        -10.247539081717642
      ],
      [
        "Ġcalm",
        -10.2477591450127
      ],
      [
        "Ġguideline",
        -10.247901962897108
      ],
      [
        "mm",
        -10.248172206381422
      ],
      [
        "Ġtrust",
        -10.24847723920141
      ],
      [
        "Ġamazing",
        -10.248596079037142
      ],
      [
        "Ġkitchen",
        -10.250434709353602
      ],
      [
        "Ġcard",
        -10.25160907688618
      ],
      [
        "case",
        -10.251921520914236
      ],
      [
        "Ġstrain",
        -10.25195176387126
      ],
      [
        "Ġhousehold",
        -10.252468217073416
      ],
      [
        "Ġdensity",
        -10.253070248239949
      ],
      [
        "accurac",
        -10.25360863788783
      ],
      [
        "Ġextensive",
        -10.253703205094435
      ],
      [
        "ĠHave",
        -10.25382959091186
      ],
      [
        "Ġfirm",
        -10.25401099306671
      ],
      [
        "Ġlifestyle",
        -10.254714021137776
      ],
      [
        "ĠLife",
        -10.255411301344225
      ],
      [
        "Ġstomach",
        -10.256446450211936
      ],
      [
        "Ġcomputers",
        -10.25692525913177
      ],
      [
        "Ġbudget",
        -10.257830560203844
      ],
      [
        "Ġportion",
        -10.258800409250703
      ],
      [
        "brough",
        -10.25882181349872
      ],
      [
        "Ġgiv",
        -10.258939411107423
      ],
      [
        "actions",
        -10.259791423286805
      ],
      [
        "Ġsolve",
        -10.259910244906642
      ],
      [
        "Ġphotos",
        -10.2602926566238
      ],
      [
        "Ġargument",
        -10.26030994859648
      ],
      [
        "Ġdetermined",
        -10.261704187984536
      ],
      [
        "Ġcontrast",
        -10.2623745617649
      ],
      [
        "Ġdirt",
        -10.262853123912071
      ],
      [
        "ĠTexas",
        -10.26317948599231
      ],
      [
        "Ġprofessor",
        -10.264622439091752
      ],
      [
        "Ġrespond",
        -10.264910373363875
      ],
      [
        "Ġchose",
        -10.265196247444258
      ],
      [
        "Ġcreativ",
        -10.265771148769623
      ],
      [
        "Ġflour",
        -10.266715905445023
      ],
      [
        "Ġfear",
        -10.26830116545157
      ],
      [
        "Ġlots",
        -10.269219076322909
      ],
      [
        "Ġtreated",
        -10.269425703211484
      ],
      [
        "Ġdie",
        -10.269901336242832
      ],
      [
        "Ġdigesti",
        -10.270865701060613
      ],
      [
        "Ġdamaged",
        -10.271772676166687
      ],
      [
        "First",
        -10.271951611932536
      ],
      [
        "Ġonto",
        -10.272133878978815
      ],
      [
        "Ġrate",
        -10.272208872180505
      ],
      [
        "Ġprogramming",
        -10.274705245365746
      ],
      [
        "Pro",
        -10.274768003997895
      ],
      [
        "Ġpesticide",
        -10.27485660793472
      ],
      [
        "Ġcompetition",
        -10.27589700854962
      ],
      [
        "definitely",
        -10.276831247871876
      ],
      [
        "}",
        -10.276963671639075
      ],
      [
        "Ġleaving",
        -10.277054028763995
      ],
      [
        "Ġmaster",
        -10.27890251627267
      ],
      [
        "lying",
        -10.278925830532094
      ],
      [
        "current",
        -10.27898969305231
      ],
      [
        "Ġeconom",
        -10.280280456117527
      ],
      [
        "Ġcalci",
        -10.280315779859569
      ],
      [
        "Ġsmell",
        -10.28044649292405
      ],
      [
        "Ġ+",
        -10.280970692935526
      ],
      [
        "Ġappreciate",
        -10.281758873149736
      ],
      [
        "-time",
        -10.28248015361332
      ],
      [
        "Ġpainting",
        -10.282646645418884
      ],
      [
        "Ġzone",
        -10.282665365569256
      ],
      [
        "Ġgravit",
        -10.282680416629727
      ],
      [
        "ĠFurther",
        -10.282863280480989
      ],
      [
        "twic",
        -10.283183982159144
      ],
      [
        "Ġroof",
        -10.28354222227023
      ],
      [
        "Ġfeather",
        -10.284395248743548
      ],
      [
        "Ġlose",
        -10.285681922889689
      ],
      [
        "Ġspaces",
        -10.285975027176724
      ],
      [
        "Ġmen",
        -10.28606670079311
      ],
      [
        "Ġgreenhouse",
        -10.286740671704514
      ],
      [
        "Ġperforme",
        -10.287176975378268
      ],
      [
        "ĠFlorida",
        -10.288579234288026
      ],
      [
        "Ġskill",
        -10.288857323037831
      ],
      [
        "back",
        -10.28917184775358
      ],
      [
        "Ġfailure",
        -10.28923735093048
      ],
      [
        "herefore",
        -10.289503680081198
      ],
      [
        "information",
        -10.28974505072208
      ],
      [
        "ating",
        -10.289789125052806
      ],
      [
        "Ġplanting",
        -10.28985007266976
      ],
      [
        "Ġteams",
        -10.290434747230316
      ],
      [
        "hildren",
        -10.290502214927836
      ],
      [
        "Ġcreation",
        -10.291791529816184
      ],
      [
        "Ġexcit",
        -10.292172384030671
      ],
      [
        "Ġthorough",
        -10.293132034745696
      ],
      [
        "Let",
        -10.293683842731149
      ],
      [
        "Ġcloud",
        -10.29476478868901
      ],
      [
        "Ġconventional",
        -10.295105524957894
      ],
      [
        "Ġintake",
        -10.296407597855556
      ],
      [
        "Ġabsolute",
        -10.296602926080553
      ],
      [
        "Ġthick",
        -10.297004870265331
      ],
      [
        "Ġinitiative",
        -10.29800998850775
      ],
      [
        "Ġhospital",
        -10.298051529477997
      ],
      [
        "Ġfille",
        -10.29851710823467
      ],
      [
        "Ġemploy",
        -10.300035901541827
      ],
      [
        "Ġcultural",
        -10.30086617229286
      ],
      [
        "Ġsport",
        -10.301073833189015
      ],
      [
        "Ġcomparison",
        -10.301953283609809
      ],
      [
        "working",
        -10.302149696402848
      ],
      [
        "Ġahead",
        -10.30357808674172
      ],
      [
        "Ġdistinct",
        -10.304400750248885
      ],
      [
        "ĠGreat",
        -10.304793107857565
      ],
      [
        "Ġwar",
        -10.305395337420183
      ],
      [
        "Ġmark",
        -10.305427791907912
      ],
      [
        "ĠKeep",
        -10.30553518461452
      ],
      [
        "Ġurban",
        -10.306637971288035
      ],
      [
        "ĠCO",
        -10.307253909412148
      ],
      [
        "ĠWell",
        -10.307518761735016
      ],
      [
        "ber",
        -10.307847586928304
      ],
      [
        "ur",
        -10.307873759065634
      ],
      [
        "Ġflood",
        -10.308284855328882
      ],
      [
        "keep",
        -10.309380891478217
      ],
      [
        "Ġgum",
        -10.3098420416296
      ],
      [
        "Ġthread",
        -10.309975842488996
      ],
      [
        "Ġclimb",
        -10.310294736871873
      ],
      [
        "un",
        -10.310712147343269
      ],
      [
        "Ġindustrial",
        -10.311149781556423
      ],
      [
        "Ġchain",
        -10.312013832058682
      ],
      [
        "Ġcontrolle",
        -10.312061347665274
      ],
      [
        "Ġmother",
        -10.312723966365876
      ],
      [
        "Ġmanual",
        -10.312734443402276
      ],
      [
        "Ġpress",
        -10.313825724577203
      ],
      [
        "wood",
        -10.313969951401717
      ],
      [
        "Ġsuit",
        -10.31397783256286
      ],
      [
        "Ġaren",
        -10.31434440095492
      ],
      [
        "ground",
        -10.314407498806482
      ],
      [
        "Ġsuffer",
        -10.314461504166506
      ],
      [
        "Ġreward",
        -10.31539241317158
      ],
      [
        "ĠGarden",
        -10.31656989345349
      ],
      [
        "named",
        -10.317691112389785
      ],
      [
        "process",
        -10.31784319420559
      ],
      [
        "units",
        -10.318884292396987
      ],
      [
        "Ġexplor",
        -10.319591328239952
      ],
      [
        "ĠSociet",
        -10.320244024860967
      ],
      [
        "Ġacademic",
        -10.3212781707227
      ],
      [
        "Ġprecise",
        -10.322721643304789
      ],
      [
        "ĠLED",
        -10.323728315980398
      ],
      [
        "Ġguy",
        -10.324018793907175
      ],
      [
        "Ġmistake",
        -10.324220997201657
      ],
      [
        "chemical",
        -10.324839683512876
      ],
      [
        "Ġcalories",
        -10.325620101188656
      ],
      [
        "intended",
        -10.326891400766094
      ],
      [
        "Ġbutter",
        -10.327003768060242
      ],
      [
        "Ġshade",
        -10.32774015232186
      ],
      [
        "Ġtrade",
        -10.32820000122209
      ],
      [
        "ĠGod",
        -10.328736170217804
      ],
      [
        "ty",
        -10.328860141753657
      ],
      [
        "days",
        -10.32925217299431
      ],
      [
        "Ġexchange",
        -10.329848029518928
      ],
      [
        "Â·",
        -10.330518250097857
      ],
      [
        "Ġparticipate",
        -10.331412854263728
      ],
      [
        "stone",
        -10.33151557978628
      ],
      [
        "meter",
        -10.33161685488217
      ],
      [
        "ĠStart",
        -10.33264248108281
      ],
      [
        "ask",
        -10.33283249731633
      ],
      [
        "Ġsufficient",
        -10.33283351913876
      ],
      [
        "Ġratio",
        -10.333970427120036
      ],
      [
        "Ġg",
        -10.334007682968096
      ],
      [
        "Ġgoe",
        -10.334561629340229
      ],
      [
        "turned",
        -10.33488943173819
      ],
      [
        "Ġhole",
        -10.335125657356569
      ],
      [
        "Ġremov",
        -10.336621072609931
      ],
      [
        "Ġpictures",
        -10.337117005676786
      ],
      [
        "Ġformula",
        -10.33816746004482
      ],
      [
        "Ġbike",
        -10.341238766733644
      ],
      [
        "otherwise",
        -10.342057427280585
      ],
      [
        "standing",
        -10.342098518051628
      ],
      [
        "position",
        -10.34361340133647
      ],
      [
        "Ġhydrogen",
        -10.343748322295433
      ],
      [
        "Ġpeak",
        -10.3439178635435
      ],
      [
        "Ġstructural",
        -10.34413151351347
      ],
      [
        "Ġfully",
        -10.344909702713387
      ],
      [
        "Ġinnovative",
        -10.345350954504456
      ],
      [
        "Ġextract",
        -10.345544104761098
      ],
      [
        "biology",
        -10.347479967003244
      ],
      [
        "Ġmammal",
        -10.347850822108906
      ],
      [
        "Ġjump",
        -10.348842055206624
      ],
      [
        "Ġsmoke",
        -10.348889083231324
      ],
      [
        "Ġrain",
        -10.350078131818805
      ],
      [
        "ĠBritish",
        -10.350080387449411
      ],
      [
        "ence",
        -10.350117951294196
      ],
      [
        "Ġrecovery",
        -10.35273437044097
      ],
      [
        "Ġlawn",
        -10.353297784890618
      ],
      [
        "Ġquantit",
        -10.3538165759722
      ],
      [
        "Ġbecom",
        -10.354055531185544
      ],
      [
        "Ġadopt",
        -10.35420407790558
      ],
      [
        "Ġinstrument",
        -10.35542727912426
      ],
      [
        "Ġpackage",
        -10.355526039776816
      ],
      [
        "city",
        -10.356083185886506
      ],
      [
        "ĠBoth",
        -10.356981629400607
      ],
      [
        "room",
        -10.357195765926946
      ],
      [
        "Ġsaving",
        -10.357301819897383
      ],
      [
        "Ġoven",
        -10.357303731130516
      ],
      [
        "Ġlayers",
        -10.35768789852947
      ],
      [
        "Ġkidney",
        -10.358057422073609
      ],
      [
        "Ġchoices",
        -10.358707288846018
      ],
      [
        "Ġupdate",
        -10.359106319547545
      ],
      [
        "Ġplays",
        -10.359662145335362
      ],
      [
        "History",
        -10.359738961926707
      ],
      [
        "Ġfamiliar",
        -10.360747957410542
      ],
      [
        "Not",
        -10.361033587363613
      ],
      [
        "Ġbarrier",
        -10.361398509620114
      ],
      [
        "Ġeat",
        -10.361426142429435
      ],
      [
        "Ġthin",
        -10.36142873677857
      ],
      [
        "Ġherb",
        -10.361848821946577
      ],
      [
        "Ġstable",
        -10.362179353883052
      ],
      [
        "ĠEnergy",
        -10.362734411260533
      ],
      [
        "`",
        -10.363433265229697
      ],
      [
        "Ġtru",
        -10.363539556492851
      ],
      [
        "Ġbug",
        -10.363922231955872
      ],
      [
        "Ġequivalent",
        -10.364737619523432
      ],
      [
        "Ġuniversit",
        -10.365896941670243
      ],
      [
        "Ġanalyze",
        -10.366561175240454
      ],
      [
        "part",
        -10.366742963248193
      ],
      [
        "lies",
        -10.3670034867246
      ],
      [
        "Ġmanufactur",
        -10.367307571274916
      ],
      [
        "Ġsurprise",
        -10.367450057032036
      ],
      [
        "ĠAugust",
        -10.368753152398115
      ],
      [
        "Ġfurni",
        -10.36962783001984
      ],
      [
        "Ġconstruct",
        -10.36973705073788
      ],
      [
        "Ġdiscusse",
        -10.369738168801698
      ],
      [
        "Ġshop",
        -10.369756142258815
      ],
      [
        "Ġdecided",
        -10.370297875086557
      ],
      [
        "Ġbee",
        -10.371646813401528
      ],
      [
        "name",
        -10.371798897665624
      ],
      [
        "Ġcopy",
        -10.372536661948484
      ],
      [
        "Ġnorth",
        -10.37259717500242
      ],
      [
        "Ġchocolate",
        -10.372642542233008
      ],
      [
        "Ġattribute",
        -10.37349390757852
      ],
      [
        "Ġcore",
        -10.373784166225708
      ],
      [
        "Ġsediment",
        -10.373952147935668
      ],
      [
        "Ġorange",
        -10.37477788035393
      ],
      [
        "Ġbowl",
        -10.374856427422896
      ],
      [
        "Ġintegrate",
        -10.374875051579384
      ],
      [
        "Ġpredator",
        -10.375630633797227
      ],
      [
        "Ġdecide",
        -10.375899097568512
      ],
      [
        "ification",
        -10.37648504125614
      ],
      [
        "ĠFrench",
        -10.3770530118912
      ],
      [
        "Ġevaluate",
        -10.377088735641774
      ],
      [
        "Ġdiagnose",
        -10.377156298411329
      ],
      [
        "Ġrecipe",
        -10.37763806577082
      ],
      [
        "ĠPeople",
        -10.37809347406958
      ],
      [
        "Ġbreast",
        -10.378553756539496
      ],
      [
        "stead",
        -10.378938559362195
      ],
      [
        "Ġtha",
        -10.378969413137904
      ],
      [
        "ĠOver",
        -10.37897340803747
      ],
      [
        "Ġclinical",
        -10.379699210878815
      ],
      [
        "tely",
        -10.38102535836645
      ],
      [
        "Ġimagine",
        -10.381150766562511
      ],
      [
        "Ġscene",
        -10.381303603014356
      ],
      [
        "Ġindustrie",
        -10.381415996741849
      ],
      [
        "Ġhistorical",
        -10.38195762451588
      ],
      [
        "may",
        -10.382164218810832
      ],
      [
        "Ġconsult",
        -10.382371969056877
      ],
      [
        "large",
        -10.382755080265872
      ],
      [
        "type",
        -10.383742837821044
      ],
      [
        "He",
        -10.384287154139624
      ],
      [
        "Ġspray",
        -10.38430601651313
      ],
      [
        "Ġarm",
        -10.3858637233993
      ],
      [
        "Ġabsorb",
        -10.386106861504569
      ],
      [
        "Ġship",
        -10.386935405513173
      ],
      [
        "know",
        -10.387058630577878
      ],
      [
        "Ġintervention",
        -10.387315967114308
      ],
      [
        "Ġbroken",
        -10.38816299130506
      ],
      [
        "Every",
        -10.38824417775023
      ],
      [
        "Ġspirit",
        -10.388569558910902
      ],
      [
        "ĠSun",
        -10.39076567453984
      ],
      [
        "Ġopening",
        -10.39090361595252
      ],
      [
        "Ġd",
        -10.391756745187596
      ],
      [
        "ĠDoes",
        -10.391977412496244
      ],
      [
        "Ġinvest",
        -10.39236411094562
      ],
      [
        "Ġdownload",
        -10.393608906166309
      ],
      [
        "Ġvelocit",
        -10.393666040335829
      ],
      [
        "ĠJul",
        -10.393763401582376
      ],
      [
        "Ġpink",
        -10.39387775866437
      ],
      [
        "Ġsong",
        -10.394083647237778
      ],
      [
        "Ġsudden",
        -10.394267460606947
      ],
      [
        "Researchers",
        -10.394537771229938
      ],
      [
        "ĠGood",
        -10.394728304894178
      ],
      [
        "Ġidentit",
        -10.394813631873726
      ],
      [
        "Ġmelt",
        -10.394945724591793
      ],
      [
        "Ġfossil",
        -10.395034325536464
      ],
      [
        "Ġoperat",
        -10.39504011626632
      ],
      [
        "Ġloose",
        -10.396284069146391
      ],
      [
        "Ġthreaten",
        -10.397599616850528
      ],
      [
        "\"The",
        -10.397818328094615
      ],
      [
        "Ġclasse",
        -10.398034383288728
      ],
      [
        "Ġarrive",
        -10.398224969983769
      ],
      [
        "ĠAdd",
        -10.398459199954733
      ],
      [
        "Ġheal",
        -10.398584053004384
      ],
      [
        "New",
        -10.398999186709402
      ],
      [
        "issue",
        -10.399613060000313
      ],
      [
        "protein",
        -10.400293564182611
      ],
      [
        "Ġlibrar",
        -10.40038150885473
      ],
      [
        "Ġcooked",
        -10.40052414345812
      ],
      [
        "âĢ¦Ċ",
        -10.400854980970935
      ],
      [
        "Ġvisibl",
        -10.401581379066744
      ],
      [
        "ural",
        -10.401616601318942
      ],
      [
        "Ġmodule",
        -10.402154727545575
      ],
      [
        "Ġtrace",
        -10.402900022441049
      ],
      [
        "ĠCollege",
        -10.40303544371346
      ],
      [
        "late",
        -10.403311069607508
      ],
      [
        "Ġseal",
        -10.40339152119066
      ],
      [
        "Even",
        -10.403872742460596
      ],
      [
        "Ġbulb",
        -10.403879756483352
      ],
      [
        "Ġroute",
        -10.403886011680212
      ],
      [
        "ones",
        -10.40401677296764
      ],
      [
        "food",
        -10.404172355422588
      ],
      [
        "Ġprior",
        -10.404930349621104
      ],
      [
        "ĠSan",
        -10.405037812921396
      ],
      [
        "ĠEast",
        -10.40525961419984
      ],
      [
        "Ġsell",
        -10.405487586109455
      ],
      [
        "including",
        -10.40708189187
      ],
      [
        "Ġtrain",
        -10.40714881537648
      ],
      [
        "Ġriver",
        -10.407186733388574
      ],
      [
        "Ġlift",
        -10.407240564238124
      ],
      [
        "Ġuniverse",
        -10.407328868550197
      ],
      [
        "Ġturtle",
        -10.407825845281588
      ],
      [
        "Ġfault",
        -10.407912098134997
      ],
      [
        "Ġprotective",
        -10.408181993086938
      ],
      [
        "informed",
        -10.40869624404143
      ],
      [
        "Ġfixe",
        -10.409707271593431
      ],
      [
        "Ġbath",
        -10.410521809357476
      ],
      [
        "Ġintelligence",
        -10.411944478148476
      ],
      [
        "Ġsupplie",
        -10.412063789359417
      ],
      [
        "Ġstroke",
        -10.41243423412907
      ],
      [
        "Ġrapid",
        -10.412878231301848
      ],
      [
        "Ġecosystem",
        -10.413092208375735
      ],
      [
        "Ġassembl",
        -10.413355754028084
      ],
      [
        "ĠType",
        -10.414037728210564
      ],
      [
        "Ġbelt",
        -10.414184077776676
      ],
      [
        "Ġtrail",
        -10.414226026680629
      ],
      [
        "ĠTE",
        -10.414899251193436
      ],
      [
        "ill",
        -10.4151111945415
      ],
      [
        "Ġwheel",
        -10.415317517700068
      ],
      [
        "Ġhazard",
        -10.41562055454812
      ],
      [
        "Ġmobile",
        -10.41563286705745
      ],
      [
        "ĠGuide",
        -10.41604119677888
      ],
      [
        "ĠJune",
        -10.416085886486371
      ],
      [
        "ried",
        -10.416106848442029
      ],
      [
        "Ġfoster",
        -10.417667622521895
      ],
      [
        "Ġdirector",
        -10.418219958875667
      ],
      [
        "Ġmolecular",
        -10.418766214513358
      ],
      [
        "Ġhomes",
        -10.419067829447808
      ],
      [
        "Ġminimal",
        -10.420055214315134
      ],
      [
        "Ġdelicious",
        -10.420728824584277
      ],
      [
        "Ġtire",
        -10.42163076887272
      ],
      [
        "king",
        -10.422239133132202
      ],
      [
        "Ġrapidly",
        -10.422753471663876
      ],
      [
        "ĠIndian",
        -10.423076225138814
      ],
      [
        "Ġtransmission",
        -10.423344037659316
      ],
      [
        "force",
        -10.424715571606658
      ],
      [
        "Ġguid",
        -10.425695359689488
      ],
      [
        "Ġlaws",
        -10.42580499471881
      ],
      [
        "ING",
        -10.42603714289586
      ],
      [
        "source",
        -10.427058288685233
      ],
      [
        "Ġhardware",
        -10.427126919851364
      ],
      [
        "During",
        -10.42761016286823
      ],
      [
        "Ġinstallation",
        -10.42796355848343
      ],
      [
        "Ġshar",
        -10.428853041497344
      ],
      [
        "].",
        -10.428955310219418
      ],
      [
        "Ġguess",
        -10.429101011936217
      ],
      [
        "Ġdiagnosis",
        -10.429458419299928
      ],
      [
        "Ġvegetable",
        -10.429740480670237
      ],
      [
        "Make",
        -10.429994167447632
      ],
      [
        "Ġlaser",
        -10.43055443709384
      ],
      [
        "Ġcommunicate",
        -10.431204793839086
      ],
      [
        "Ġtopics",
        -10.431305783838528
      ],
      [
        "Source",
        -10.431448332233844
      ],
      [
        "Ġpolitical",
        -10.431765270556468
      ],
      [
        "ĠDec",
        -10.432576575368516
      ],
      [
        "Ġworse",
        -10.43283803014905
      ],
      [
        "Ġplug",
        -10.43302926300834
      ],
      [
        "Ġthrive",
        -10.433447507312245
      ],
      [
        "Ġdedicate",
        -10.433825033018746
      ],
      [
        "Ġbathroom",
        -10.43394486034803
      ],
      [
        "Ġcolumn",
        -10.434162584966655
      ],
      [
        "Ġcustom",
        -10.434728392035188
      ],
      [
        "Ġdiagram",
        -10.435892024631858
      ],
      [
        "ĠTake",
        -10.435972052444493
      ],
      [
        "Ġassume",
        -10.436091907775827
      ],
      [
        "ĠAfrican",
        -10.436169726567105
      ],
      [
        "Ġmanner",
        -10.436313270642328
      ],
      [
        "Ġswimming",
        -10.437131292981285
      ],
      [
        "ch",
        -10.43743778447061
      ],
      [
        "Ġvast",
        -10.438017863122433
      ],
      [
        "Ġaudience",
        -10.438264786369372
      ],
      [
        "Ġones",
        -10.439703164434183
      ],
      [
        "Ġderive",
        -10.440730352603689
      ],
      [
        "ĠWashington",
        -10.440750303055257
      ],
      [
        "ĠAssociation",
        -10.441028284743588
      ],
      [
        "ĠOcto",
        -10.441509330472956
      ],
      [
        "Other",
        -10.442088973371476
      ],
      [
        "ending",
        -10.44249937550908
      ],
      [
        "ha",
        -10.442506163160733
      ],
      [
        "Ġspider",
        -10.442998759938735
      ],
      [
        "ave",
        -10.4430209797076
      ],
      [
        "Ġtrouble",
        -10.443168516095149
      ],
      [
        "Ġadventure",
        -10.443438021336757
      ],
      [
        "Ġfeedback",
        -10.444368241806442
      ],
      [
        "Ġinflammation",
        -10.444675280278023
      ],
      [
        "Ġshell",
        -10.445463986006713
      ],
      [
        "Ġpot",
        -10.445570989518952
      ],
      [
        "Ġwish",
        -10.44585225000474
      ],
      [
        "eries",
        -10.44697422870068
      ],
      [
        "Ġsecret",
        -10.446983563288244
      ],
      [
        "Ġsymbol",
        -10.447219469288502
      ],
      [
        "Ġsouth",
        -10.44745740635729
      ],
      [
        "Ġorganize",
        -10.44774471074231
      ],
      [
        "Ġdiffer",
        -10.448823819519571
      ],
      [
        "Ġbleed",
        -10.44923596023048
      ],
      [
        "Ġbeach",
        -10.449346287324978
      ],
      [
        "Ġmeasuring",
        -10.45055875162178
      ],
      [
        "Ġallergi",
        -10.45098464138567
      ],
      [
        "Ġstream",
        -10.451093173856057
      ],
      [
        "Ġinspire",
        -10.451100635837562
      ],
      [
        "Ġattache",
        -10.451420887978696
      ],
      [
        "Ġdespi",
        -10.45205180165293
      ],
      [
        "Ġworkshop",
        -10.453872043514494
      ],
      [
        "Ġdiameter",
        -10.4545670920092
      ],
      [
        "ĠPhotoshop",
        -10.45483595444174
      ],
      [
        "Ġinstitution",
        -10.454989807228284
      ],
      [
        "Ġmountain",
        -10.455009178826945
      ],
      [
        "Ġshowe",
        -10.457834527393649
      ],
      [
        "Ġusage",
        -10.458726510034897
      ],
      [
        "Ġpossibl",
        -10.45931475651079
      ],
      [
        "rising",
        -10.459383030496827
      ],
      [
        "ĠSpace",
        -10.459874418249516
      ],
      [
        "high",
        -10.459939537807774
      ],
      [
        "Ġanimation",
        -10.460467498017662
      ],
      [
        "Keep",
        -10.460719445104438
      ],
      [
        "Ġpermanent",
        -10.46096636183167
      ],
      [
        "Ġdesigner",
        -10.461178287332755
      ],
      [
        "Figure",
        -10.461222149691388
      ],
      [
        "Ġpreparation",
        -10.462419078031648
      ],
      [
        "Ġexcess",
        -10.462968421133088
      ],
      [
        "Ġnutritional",
        -10.463245306600609
      ],
      [
        "Ġagricultural",
        -10.463679513104305
      ],
      [
        "Ġplane",
        -10.46443105692046
      ],
      [
        "Ġengaging",
        -10.464552738315689
      ],
      [
        "Ġmassive",
        -10.465286083776428
      ],
      [
        "Ġboundar",
        -10.465674266889438
      ],
      [
        "Ġsnow",
        -10.465850702217882
      ],
      [
        "ĠMedica",
        -10.46641545445312
      ],
      [
        "ca",
        -10.467403478879415
      ],
      [
        "Ġpotato",
        -10.46768957937816
      ],
      [
        "Ġincome",
        -10.467916677169129
      ],
      [
        "Ġcontract",
        -10.468333384341864
      ],
      [
        "Ġsharp",
        -10.468456644174934
      ],
      [
        "ought",
        -10.468690547079058
      ],
      [
        "Ġmild",
        -10.469170593004922
      ],
      [
        "weight",
        -10.470098654651078
      ],
      [
        "ĠIts",
        -10.470303226414975
      ],
      [
        "ium",
        -10.470877295881596
      ],
      [
        "Ġcrystal",
        -10.471082399152024
      ],
      [
        "Ġedges",
        -10.471301816721232
      ],
      [
        "ĠPower",
        -10.471628271816252
      ],
      [
        "Ġlinked",
        -10.472031788741653
      ],
      [
        "Ġcollaboration",
        -10.47217872227116
      ],
      [
        "Ġmin",
        -10.472212198331022
      ],
      [
        "Ġevolve",
        -10.472668185909054
      ],
      [
        "data",
        -10.472951191863306
      ],
      [
        "Additional",
        -10.473091234162345
      ],
      [
        "Ġadequate",
        -10.473091926376558
      ],
      [
        "Ġinjuries",
        -10.473093325137718
      ],
      [
        "Ġscore",
        -10.47321188982042
      ],
      [
        "Ġfriendl",
        -10.47327223745241
      ],
      [
        "Where",
        -10.473861918388293
      ],
      [
        "-of",
        -10.473864283026028
      ],
      [
        "Ġlaunch",
        -10.473879219232831
      ],
      [
        "âĢĻt",
        -10.474062095432195
      ],
      [
        "Ġopposite",
        -10.474459598435534
      ],
      [
        "Ġnervous",
        -10.476030799881288
      ],
      [
        "Ġknowing",
        -10.476447534573074
      ],
      [
        "Ġcoal",
        -10.476484622088735
      ],
      [
        "ĠTechnology",
        -10.477466667425542
      ],
      [
        "Ġvibrant",
        -10.477834710781876
      ],
      [
        "Ġalter",
        -10.479471584536078
      ],
      [
        "ĠGoogle",
        -10.47958578160248
      ],
      [
        "Ġafford",
        -10.479593748459768
      ],
      [
        "Ġgift",
        -10.479622643757986
      ],
      [
        "Ġde",
        -10.479681626391802
      ],
      [
        "ĠLondon",
        -10.479745529815574
      ],
      [
        "ĠHuman",
        -10.479940929849656
      ],
      [
        "Ġplus",
        -10.480187331805116
      ],
      [
        "Ġsauce",
        -10.480658384135491
      ],
      [
        "asking",
        -10.481689469172563
      ],
      [
        "energy",
        -10.482048058611404
      ],
      [
        "order",
        -10.482905988408511
      ],
      [
        "Ġrestaurant",
        -10.483897831361205
      ],
      [
        "training",
        -10.484164049702189
      ],
      [
        "Ġshapes",
        -10.48450000087843
      ],
      [
        "Ġoxidati",
        -10.484964720994304
      ],
      [
        "Ġphysics",
        -10.485042775293348
      ],
      [
        "Ġmanufacturers",
        -10.48509245331439
      ],
      [
        "Ġalert",
        -10.485236313696388
      ],
      [
        "Ġsector",
        -10.48535516768828
      ],
      [
        "Ġforget",
        -10.48726685638913
      ],
      [
        "Ġbrush",
        -10.487562697134184
      ],
      [
        "ĠWest",
        -10.487729347172834
      ],
      [
        "Ġmission",
        -10.487849741073145
      ],
      [
        "Understand",
        -10.488129896212527
      ],
      [
        "ĠGet",
        -10.488673998880852
      ],
      [
        "Ġdistribute",
        -10.488732084810586
      ],
      [
        "Ġtrial",
        -10.48878531447117
      ],
      [
        "Ġraw",
        -10.489379232014109
      ],
      [
        "ĠCheck",
        -10.49029203703004
      ],
      [
        "Learn",
        -10.490519667584271
      ],
      [
        "Ġfinishe",
        -10.491667640132247
      ],
      [
        "organic",
        -10.49226115748405
      ],
      [
        "-size",
        -10.492817900742548
      ],
      [
        "Ġrough",
        -10.493120613054227
      ],
      [
        ";Ċ",
        -10.493552970422256
      ],
      [
        "Ġpathway",
        -10.493927236994796
      ],
      [
        "Ġpond",
        -10.494028759574563
      ],
      [
        "Ġyouth",
        -10.494400906342928
      ],
      [
        "Ġdelay",
        -10.494509649316496
      ],
      [
        "quality",
        -10.49456213969535
      ],
      [
        "Ġtropical",
        -10.495429275758726
      ],
      [
        "Ġadjustment",
        -10.49618186824992
      ],
      [
        "air",
        -10.496849388572112
      ],
      [
        "People",
        -10.497449276200548
      ],
      [
        "Ġbeca",
        -10.497698336701196
      ],
      [
        "found",
        -10.498025121760286
      ],
      [
        "Ġlitter",
        -10.49805540856897
      ],
      [
        "Ġtrait",
        -10.498310753846756
      ],
      [
        "should",
        -10.498343165508672
      ],
      [
        "Ġinner",
        -10.498649297478783
      ],
      [
        "Ġthermal",
        -10.499967351515984
      ],
      [
        "space",
        -10.500165733450832
      ],
      [
        "Ġformation",
        -10.500285932481797
      ],
      [
        "ĠSt",
        -10.500566255448986
      ],
      [
        "ĠEngl",
        -10.500825245572631
      ],
      [
        ".[",
        -10.50124520079875
      ],
      [
        "Ġbroad",
        -10.501457141001588
      ],
      [
        "Ġreverse",
        -10.502630597940865
      ],
      [
        "Ġtoxic",
        -10.502978408695917
      ],
      [
        "Ġlay",
        -10.50363563822858
      ],
      [
        "Ġfence",
        -10.503833305857496
      ],
      [
        "Ġbelief",
        -10.504448793072594
      ],
      [
        "Ġparasite",
        -10.505001112068612
      ],
      [
        "Ġofficial",
        -10.505089259841046
      ],
      [
        "Ġcharacterize",
        -10.505814751632249
      ],
      [
        "Ġpreserve",
        -10.505998333991988
      ],
      [
        "ĠLook",
        -10.50599912146994
      ],
      [
        "Ġboil",
        -10.507110425821764
      ],
      [
        "Ġrandom",
        -10.507218437370312
      ],
      [
        "Ġleader",
        -10.507259552640749
      ],
      [
        "Ġgap",
        -10.50776768537225
      ],
      [
        "Ġfelt",
        -10.507769399665346
      ],
      [
        "Ġlimitation",
        -10.508140426327
      ],
      [
        "Ġquote",
        -10.509046042685316
      ],
      [
        "ĠRed",
        -10.509508886247945
      ],
      [
        "Ġrecover",
        -10.50986653918186
      ],
      [
        "treatment",
        -10.509911208483516
      ],
      [
        "ical",
        -10.510050066957778
      ],
      [
        "Ġrepeat",
        -10.511550639181388
      ],
      [
        "Ġexpress",
        -10.512402220485924
      ],
      [
        "Ġhunting",
        -10.512953421873211
      ],
      [
        "continued",
        -10.51350646499662
      ],
      [
        "Central",
        -10.5139507115609
      ],
      [
        "Ġmissing",
        -10.513983251469355
      ],
      [
        "Ġsales",
        -10.514461808578528
      ],
      [
        "Ġhi",
        -10.514511598451625
      ],
      [
        "stream",
        -10.514917152113938
      ],
      [
        "ĠGreek",
        -10.5150679088519
      ],
      [
        "resistant",
        -10.515388341208496
      ],
      [
        "Ġstorie",
        -10.51581861444246
      ],
      [
        "Ġcompar",
        -10.5169554736688
      ],
      [
        "Does",
        -10.51761963166932
      ],
      [
        "Ġprey",
        -10.517635603579215
      ],
      [
        "AND",
        -10.517922972333407
      ],
      [
        "Ġstring",
        -10.51823946083188
      ],
      [
        "material",
        -10.51953736781156
      ],
      [
        "Ġgradual",
        -10.52063053559467
      ],
      [
        "Ġjobs",
        -10.521426171893612
      ],
      [
        "ĠEngineer",
        -10.521626881163735
      ],
      [
        "Ġconversation",
        -10.523364934013376
      ],
      [
        "Ġauthors",
        -10.523414504110294
      ],
      [
        "Ġgender",
        -10.523569255279522
      ],
      [
        "Ġeight",
        -10.524619692649644
      ],
      [
        "significant",
        -10.52515866603358
      ],
      [
        "âĢĺ",
        -10.52515878856256
      ],
      [
        "Ġlifespan",
        -10.52520047050238
      ],
      [
        "much",
        -10.52541567421096
      ],
      [
        "Ġinstalle",
        -10.525442734426449
      ],
      [
        "temperature",
        -10.525780294604452
      ],
      [
        "Ġstretch",
        -10.526023735232467
      ],
      [
        "Ġecosystems",
        -10.526283059419836
      ],
      [
        "Ġcoral",
        -10.526455373686517
      ],
      [
        "Ġinsect",
        -10.527011490527869
      ],
      [
        "Ġdynamic",
        -10.527134187973743
      ],
      [
        "Ġorgans",
        -10.527156487818594
      ],
      [
        "ĠHome",
        -10.52720595964483
      ],
      [
        "Ġprogramme",
        -10.52771547544046
      ],
      [
        "ĠBlue",
        -10.528185131325891
      ],
      [
        "Ġrealit",
        -10.528329844421236
      ],
      [
        "Ġrecommendation",
        -10.528564112761014
      ],
      [
        "health",
        -10.528996416993705
      ],
      [
        "Ġtear",
        -10.529061361315168
      ],
      [
        "Type",
        -10.52906240977417
      ],
      [
        "ĠThu",
        -10.529675836837876
      ],
      [
        "Ġlab",
        -10.529686939424964
      ],
      [
        "Ġantibiotic",
        -10.53108051024341
      ],
      [
        "ĠMa",
        -10.53166281376476
      ],
      [
        "Ġseven",
        -10.531989869613865
      ],
      [
        "ĠTime",
        -10.532262060676311
      ],
      [
        "Ġdust",
        -10.532912685978696
      ],
      [
        "Ġchapter",
        -10.532916201201369
      ],
      [
        "available",
        -10.533677691733434
      ],
      [
        "Ġmicro",
        -10.534220687155557
      ],
      [
        "Ġborder",
        -10.53454660926587
      ],
      [
        "ĠPlant",
        -10.53485074127279
      ],
      [
        "Ġkg",
        -10.53513431916046
      ],
      [
        "Ġinterior",
        -10.5361841632045
      ],
      [
        "ĠStudent",
        -10.536251315936898
      ],
      [
        "ĠCommon",
        -10.536319323000615
      ],
      [
        "Ġdetermin",
        -10.53674479540908
      ],
      [
        "Just",
        -10.536941303595093
      ],
      [
        "date",
        -10.537600469345945
      ],
      [
        "Ġvolunteer",
        -10.53791040885919
      ],
      [
        "ĠWhere",
        -10.537933856765113
      ],
      [
        "Ġhealthie",
        -10.537991560478776
      ],
      [
        "Ġvessels",
        -10.538883050483363
      ],
      [
        "Ġspin",
        -10.539363583439112
      ],
      [
        "Ġconfidence",
        -10.541405264365734
      ],
      [
        "ĠInterne",
        -10.541998556087057
      ],
      [
        "âĢľ",
        -10.542208634084933
      ],
      [
        "Ġcalls",
        -10.542436263372071
      ],
      [
        "ĠHis",
        -10.543500602545835
      ],
      [
        "Ġcircle",
        -10.543668851070278
      ],
      [
        "Ġtax",
        -10.543884275759911
      ],
      [
        "Ġnation",
        -10.544415527131358
      ],
      [
        "Ġconcerned",
        -10.544433603234118
      ],
      [
        "Ġdanger",
        -10.545108030707652
      ],
      [
        "sked",
        -10.545392784280208
      ],
      [
        "rich",
        -10.54558278403434
      ],
      [
        "Ġsatellite",
        -10.545611375994213
      ],
      [
        "ions",
        -10.54576435270588
      ],
      [
        "Ġdescription",
        -10.546242301383431
      ],
      [
        "Ġaggressive",
        -10.546293584059988
      ],
      [
        "see",
        -10.54683281395973
      ],
      [
        "ĠLike",
        -10.547223023518711
      ],
      [
        "Ġemotion",
        -10.547866741045622
      ],
      [
        "list",
        -10.548331577133908
      ],
      [
        "would",
        -10.548345400146918
      ],
      [
        "Ġexam",
        -10.549336401547276
      ],
      [
        "Ġpresentation",
        -10.549577991941277
      ],
      [
        "Ġbiodiversity",
        -10.549599679511209
      ],
      [
        "Don",
        -10.549805759555731
      ],
      [
        "Ġneck",
        -10.550395949331705
      ],
      [
        "Ġaid",
        -10.550652121190456
      ],
      [
        "Ġmovie",
        -10.551136858145728
      ],
      [
        "Â",
        -10.551836070508834
      ],
      [
        "Ġdose",
        -10.551924522682746
      ],
      [
        "Ġstrengthen",
        -10.552736188152538
      ],
      [
        "ĠRemember",
        -10.553679879590554
      ],
      [
        "Ġkilogram",
        -10.554307782283333
      ],
      [
        "ĠControl",
        -10.555910095648898
      ],
      [
        "):",
        -10.555926070785157
      ],
      [
        "Ġshoulder",
        -10.55618860062231
      ],
      [
        "Ġdu",
        -10.556560022873242
      ],
      [
        "Ġconcrete",
        -10.556595725900634
      ],
      [
        "oxide",
        -10.557156779761016
      ],
      [
        "ear",
        -10.557299110482536
      ],
      [
        "Ġfacing",
        -10.557543890361444
      ],
      [
        "Well",
        -10.55863826255114
      ],
      [
        "ism",
        -10.559138833230293
      ],
      [
        "ĠEl",
        -10.559688550545312
      ],
      [
        "Ġinvestigate",
        -10.559858886501209
      ],
      [
        "ĠAnimal",
        -10.56009441267965
      ],
      [
        "\"We",
        -10.560590197900876
      ],
      [
        "important",
        -10.560954394341053
      ],
      [
        "Ġnest",
        -10.561020654363055
      ],
      [
        "Have",
        -10.561720226443132
      ],
      [
        "active",
        -10.561767393341972
      ],
      [
        "Ġpromoting",
        -10.561775761169423
      ],
      [
        "course",
        -10.561947751841952
      ],
      [
        "building",
        -10.562666002241077
      ],
      [
        "Ġexplanation",
        -10.563568213060956
      ],
      [
        "mental",
        -10.563874475662995
      ],
      [
        "Ġwh",
        -10.564845922796838
      ],
      [
        "Ġserver",
        -10.565834189669786
      ],
      [
        "ĠOcean",
        -10.565883377214185
      ],
      [
        "ĠCare",
        -10.566680687138646
      ],
      [
        "Ġperception",
        -10.566835834870323
      ],
      [
        "Ġeffectiveness",
        -10.56711987347157
      ],
      [
        "Ġsides",
        -10.567150593152297
      ],
      [
        "Ġnarrow",
        -10.56747743015127
      ],
      [
        "Ġextent",
        -10.568874804961403
      ],
      [
        "Ġsyndrome",
        -10.568953591999204
      ],
      [
        "code",
        -10.56914403892318
      ],
      [
        "ĠProject",
        -10.569174995034013
      ],
      [
        "good",
        -10.569647422706913
      ],
      [
        "Ġrestore",
        -10.56977968495426
      ],
      [
        "Ġsex",
        -10.57034678477268
      ],
      [
        "itness",
        -10.570516618976487
      ],
      [
        "Ġearl",
        -10.57060858023606
      ],
      [
        "Ġaesthetic",
        -10.570771544455637
      ],
      [
        "Safety",
        -10.571102389854984
      ],
      [
        "Ġminor",
        -10.571378391343508
      ],
      [
        "Ġlights",
        -10.57157115297715
      ],
      [
        "Ġ...",
        -10.573782923066693
      ],
      [
        "Ġwouldn",
        -10.574630157595838
      ],
      [
        "Ġhabitats",
        -10.575814814176258
      ],
      [
        "ized",
        -10.576075709433482
      ],
      [
        "Ġdebri",
        -10.576677155810035
      ],
      [
        "Ġchromosome",
        -10.577027571977249
      ],
      [
        "Ġprompt",
        -10.577311520405525
      ],
      [
        "top",
        -10.57741076368311
      ],
      [
        "Ġhit",
        -10.57766657728436
      ],
      [
        "Ġantenna",
        -10.578196016483684
      ],
      [
        "Ġrecording",
        -10.578342618318109
      ],
      [
        "Share",
        -10.578677996020144
      ],
      [
        "spread",
        -10.579181865891329
      ],
      [
        "wise",
        -10.57924967761891
      ],
      [
        "Ġliver",
        -10.579276199154286
      ],
      [
        "Ġabuse",
        -10.579374898608824
      ],
      [
        "ĠThrough",
        -10.580273816936517
      ],
      [
        "Ġsnack",
        -10.580964312291876
      ],
      [
        "types",
        -10.582188798615489
      ],
      [
        "ĠFarming",
        -10.582655748509318
      ],
      [
        "dministration",
        -10.583041225548492
      ],
      [
        "Ġequipp",
        -10.583426795062543
      ],
      [
        "Ġblind",
        -10.583825086323085
      ],
      [
        "Ġlake",
        -10.583944147740656
      ],
      [
        "Ġseconds",
        -10.584207055457505
      ],
      [
        "Ġcoating",
        -10.584841980997483
      ],
      [
        "ĠJohn",
        -10.585080387788675
      ],
      [
        "cover",
        -10.58516299426326
      ],
      [
        "Ġneutral",
        -10.5865495089688
      ],
      [
        "Ġdistinctive",
        -10.586689326477863
      ],
      [
        "Ġba",
        -10.587456997166155
      ],
      [
        "Ġstability",
        -10.587799406541327
      ],
      [
        "Ġpepper",
        -10.588122531956252
      ],
      [
        "cy",
        -10.58813012033002
      ],
      [
        "Ġregulate",
        -10.588326284287604
      ],
      [
        "Ġstreet",
        -10.588501895333856
      ],
      [
        "Ġbutterfly",
        -10.588587609636775
      ],
      [
        "ware",
        -10.588745920593974
      ],
      [
        "ĠMexic",
        -10.588801954532912
      ],
      [
        "Ġlearne",
        -10.589238670843724
      ],
      [
        "Ġstain",
        -10.589340015840634
      ],
      [
        "Ġpure",
        -10.589441294393655
      ],
      [
        "act",
        -10.58970410537072
      ],
      [
        "Ġcompose",
        -10.589743643715597
      ],
      [
        "ĠYear",
        -10.59032027212868
      ],
      [
        "-level",
        -10.591597271561923
      ],
      [
        "Ġconvenient",
        -10.59194038829198
      ],
      [
        "Ġfamous",
        -10.59225178473103
      ],
      [
        "ĠWindows",
        -10.592480173147472
      ],
      [
        "Ġacids",
        -10.592660084616924
      ],
      [
        "Ġstands",
        -10.592801395731698
      ],
      [
        "Ġbranche",
        -10.59295202971306
      ],
      [
        "ĠNatural",
        -10.593858838257889
      ],
      [
        "Ġlense",
        -10.595114381315378
      ],
      [
        "Ġdishe",
        -10.595150797117029
      ],
      [
        "Ġspeech",
        -10.59549046086439
      ],
      [
        "Ġattend",
        -10.59583366959867
      ],
      [
        "Ġwor",
        -10.595873586997396
      ],
      [
        "example",
        -10.597028097776342
      ],
      [
        "ages",
        -10.597213259200828
      ],
      [
        "Ġunlike",
        -10.59751303932077
      ],
      [
        "Ġintense",
        -10.597778104757458
      ],
      [
        "Ġcomput",
        -10.597890334197524
      ],
      [
        "Ġembryo",
        -10.598080020499308
      ],
      [
        "Ġendanger",
        -10.5982158958638
      ],
      [
        "een",
        -10.598537871037522
      ],
      [
        "Ġecological",
        -10.598544292690365
      ],
      [
        "Ġspen",
        -10.599067609561224
      ],
      [
        "Ġaccessib",
        -10.599224642314226
      ],
      [
        "Ġwoman",
        -10.599794799269294
      ],
      [
        "Ġsteam",
        -10.6001527496654
      ],
      [
        "Ġshoot",
        -10.600598243513506
      ],
      [
        "Ġdepartment",
        -10.600699629142854
      ],
      [
        "loss",
        -10.600756578181649
      ],
      [
        "Ġindicator",
        -10.600854793954891
      ],
      [
        "Ġformer",
        -10.600883711718684
      ],
      [
        "Ġsexual",
        -10.601775449272516
      ],
      [
        "does",
        -10.601926398167995
      ],
      [
        "Ġwrote",
        -10.601957038217105
      ],
      [
        "Ġstronger",
        -10.602284702551756
      ],
      [
        "Ġcom",
        -10.602318007015803
      ],
      [
        "every",
        -10.602431913171465
      ],
      [
        "Ġversatile",
        -10.602535316631318
      ],
      [
        "et",
        -10.60253693120487
      ],
      [
        "Ġmirror",
        -10.60303463914828
      ],
      [
        "$\\",
        -10.60322186117557
      ],
      [
        "Ġmainl",
        -10.60345659196856
      ],
      [
        "Ġemerge",
        -10.603621579846076
      ],
      [
        "Ġtransaction",
        -10.604346624935197
      ],
      [
        "Ġvector",
        -10.604375774518818
      ],
      [
        "ĠCo",
        -10.604670784612594
      ],
      [
        "typical",
        -10.605602770126978
      ],
      [
        "-shape",
        -10.60568097343964
      ],
      [
        "Ġcrack",
        -10.605881802653528
      ],
      [
        "Ġprofile",
        -10.606586826460504
      ],
      [
        "?\"",
        -10.606895042418165
      ],
      [
        "ĠAny",
        -10.606926816677198
      ],
      [
        "Ġswim",
        -10.607290811098096
      ],
      [
        "ĠHer",
[...]
