{
  "version": "1.0",
  "truncation": null,
  "padding": null,
  "added_tokens": [
    {
      "id": 1018,
      "content": "UNKtokenbehere",
      "single_word": false,
      "lstrip": false,
      "rstrip": false,
      "normalized": false,
      "special": true
    },
    {
      "id": 1019,
      "content": "EOStokenbehere",
      "single_word": false,
      "lstrip": false,
      "rstrip": false,
      "normalized": false,
      "special": true
    },
    {
      "id": 1020,
      "content": "PADtokenbehere",
      "single_word": false,
      "lstrip": false,
      "rstrip": false,
      "normalized": false,
      "special": true
    },
    {
      "id": 1021,
      "content": "CLStokenbehere",
      "single_word": false,
      "lstrip": false,
      "rstrip": false,
      "normalized": false,
      "special": true
    },
    {
      "id": 1022,
      "content": "SEPtokenbehere",
      "single_word": false,
      "lstrip": false,
      "rstrip": false,
      "normalized": false,
      "special": true
    },
    {
      "id": 1023,
      "content": "MASKtokenbehere",
      "single_word": false,
      "lstrip": false,
      "rstrip": false,
      "normalized": false,
      "special": true
    }
  ],
  "normalizer": null,
  "pre_tokenizer": {
    "type": "ByteLevel",
    "add_prefix_space": false,
    "trim_offsets": true,
    "use_regex": true
  },
  "post_processor": null,
  "decoder": null,
  "model": {
    "type": "Unigram",
    "unk_id": null,
    "vocab": [
      [
        "Ġhis",
        -1.0
      ],
      [
        "eep",
        -1.0
      ],
      [
        "ĠL",
        -1.0
      ],
      [
        "Ġtake",
        -1.0
      ],
      [
        "The",
        -1.0
      ],
      [
        "tra",
        -1.0
      ],
      [
        "½",
        -1.0
      ],
      [
        "ries",
        -1.0
      ],
      [
        "h",
        -1.0
      ],
      [
        "Ġrequire",
        -1.0
      ],
      [
        "Ġoff",
        -1.0
      ],
      [
        "Ġavailable",
        -1.0
      ],
      [
        "Ġsince",
        -1.0
      ],
      [
        "thing",
        -1.0
      ],
      [
        "ĺ",
        -1.0
      ],
      [
        "Ġpublic",
        -1.0
      ],
      [
        "Ġweek",
        -1.0
      ],
      [
        "Ġyears",
        -1.0
      ],
      [
        "Ġplace",
        -1.0
      ],
      [
        "L",
        -1.0
      ],
      [
        "*",
        -1.0
      ],
      [
        "A",
        -1.0
      ],
      [
        "É",
        -1.0
      ],
      [
        "¤",
        -1.0
      ],
      [
        "ke",
        -1.0
      ],
      [
        "ĩ",
        -1.0
      ],
      [
        "Ġadd",
        -1.0
      ],
      [
        "»",
        -1.0
      ],
      [
        "Ġidea",
        -1.0
      ],
      [
        "Ġmu",
        -1.0
      ],
      [
        "I",
        -1.0
      ],
      [
        "t",
        -1.0
      ],
      [
        "Ġabout",
        -1.0
      ],
      [
        "ates",
        -1.0
      ],
      [
        "ord",
        -1.0
      ],
      [
        "ya",
        -1.0
      ],
      [
        "er",
        -1.0
      ],
      [
        "eu",
        -1.0
      ],
      [
        "ĠV",
        -1.0
      ],
      [
        "D",
        -1.0
      ],
      [
        "Ġki",
        -1.0
      ],
      [
        "sa",
        -1.0
      ],
      [
        "µ",
        -1.0
      ],
      [
        "ĠB",
        -1.0
      ],
      [
        "ary",
        -1.0
      ],
      [
        "ll",
        -1.0
      ],
      [
        "Ġspeci",
        -1.0
      ],
      [
        "ers",
        -1.0
      ],
      [
        "Ĭ",
        -1.0
      ],
      [
        "Ġclass",
        -1.0
      ],
      [
        "ĠSu",
        -1.0
      ],
      [
        "Ġnumber",
        -1.0
      ],
      [
        "ì",
        -1.0
      ],
      [
        "Ġthe",
        -1.0
      ],
      [
        "ss",
        -1.0
      ],
      [
        "^",
        -1.0
      ],
      [
        "ming",
        -1.0
      ],
      [
        "ĠNew",
        -1.0
      ],
      [
        "Ġ(",
        -1.0
      ],
      [
        "th",
        -1.0
      ],
      [
        "ite",
        -1.0
      ],
      [
        "ĠK",
        -1.0
      ],
      [
        "Ġproblem",
        -1.0
      ],
      [
        "Ý",
        -1.0
      ],
      [
        "Ġv",
        -1.0
      ],
      [
        "K",
        -1.0
      ],
      [
        "hi",
        -1.0
      ],
      [
        "·",
        -1.0
      ],
      [
        "Ń",
        -1.0
      ],
      [
        "O",
        -1.0
      ],
      [
        "x",
        -1.0
      ],
      [
        "ĠUnited",
        -1.0
      ],
      [
        "Ġhuman",
        -1.0
      ],
      [
        "Ġglobal",
        -1.0
      ],
      [
        "mes",
        -1.0
      ],
      [
        "G",
        -1.0
      ],
      [
        "Î",
        -1.0
      ],
      [
        "ons",
        -1.0
      ],
      [
        "Ġcancer",
        -1.0
      ],
      [
        "ble",
        -1.0
      ],
      [
        "§",
        -1.0
      ],
      [
        "f",
        -1.0
      ],
      [
        "q",
        -1.0
      ],
      [
        "Ã",
        -1.0
      ],
      [
        "ĠG",
        -1.0
      ],
      [
        "Ġal",
        -1.0
      ],
      [
        "Ġout",
        -1.0
      ],
      [
        "Ġ201",
        -1.0
      ],
      [
        "era",
        -1.0
      ],
      [
        "fl",
        -1.0
      ],
      [
        "Ġma",
        -1.0
      ],
      [
        "3",
        -1.0
      ],
      [
        "ings",
        -1.0
      ],
      [
        "ents",
        -1.0
      ],
      [
        "Ġter",
        -1.0
      ],
      [
        "cts",
        -1.0
      ],
      [
        "hurch",
        -1.0
      ],
      [
        "Ġgra",
        -1.0
      ],
      [
        "Ġstudy",
        -1.0
      ],
      [
        "ment",
        -1.0
      ],
      [
        ":",
        -1.0
      ],
      [
        "Ġo",
        -1.0
      ],
      [
        "Ġincluding",
        -1.0
      ],
      [
        "Ġcontrol",
        -1.0
      ],
      [
        "Ġat",
        -1.0
      ],
      [
        "Ġac",
        -1.0
      ],
      [
        "uth",
        -1.0
      ],
      [
        "Ġsign",
        -1.0
      ],
      [
        "s",
        -1.0
      ],
      [
        "ĠE",
        -1.0
      ],
      [
        "ike",
        -1.0
      ],
      [
        "¥",
        -1.0
      ],
      [
        "Ġgovernment",
        -1.0
      ],
      [
        "ĠEurope",
        -1.0
      ],
      [
        "as",
        -1.0
      ],
      [
        "Ġhealth",
        -1.0
      ],
      [
        "ĠSta",
        -1.0
      ],
      [
        "Ġcr",
        -1.0
      ],
      [
        "Ġmethod",
        -1.0
      ],
      [
        "Ġteach",
        -1.0
      ],
      [
        "Ġsto",
        -1.0
      ],
      [
        "Ġdec",
        -1.0
      ],
      [
        "Ġpeople",
        -1.0
      ],
      [
        "Ġjust",
        -1.0
      ],
      [
        "Ġman",
        -1.0
      ],
      [
        "int",
        -1.0
      ],
      [
        "Ġmillion",
        -1.0
      ],
      [
        "Ġknow",
        -1.0
      ],
      [
        "ĠSo",
        -1.0
      ],
      [
        "sible",
        -1.0
      ],
      [
        "ded",
        -1.0
      ],
      [
        "£",
        -1.0
      ],
      [
        "ore",
        -1.0
      ],
      [
        "æ",
        -1.0
      ],
      [
        "dy",
        -1.0
      ],
      [
        "Ł",
        -1.0
      ],
      [
        "Ġaffect",
        -1.0
      ],
      [
        "Ġhave",
        -1.0
      ],
      [
        "oc",
        -1.0
      ],
      [
        "ov",
        -1.0
      ],
      [
        "Ġher",
        -1.0
      ],
      [
        "Ġhelp",
        -1.0
      ],
      [
        "rn",
        -1.0
      ],
      [
        "Ġmost",
        -1.0
      ],
      [
        "pen",
        -1.0
      ],
      [
        "Ġway",
        -1.0
      ],
      [
        "v",
        -1.0
      ],
      [
        "so",
        -1.0
      ],
      [
        "\\",
        -1.0
      ],
      [
        "Ġused",
        -1.0
      ],
      [
        "ri",
        -1.0
      ],
      [
        "m",
        -1.0
      ],
      [
        "-",
        -1.0
      ],
      [
        "Ġlocal",
        -1.0
      ],
      [
        "]",
        -1.0
      ],
      [
        "İ",
        -1.0
      ],
      [
        "!",
        -1.0
      ],
      [
        "Ù",
        -1.0
      ],
      [
        "ough",
        -1.0
      ],
      [
        "ally",
        -1.0
      ],
      [
        "Ġneed",
        -1.0
      ],
      [
        "br",
        -1.0
      ],
      [
        "Ġexample",
        -1.0
      ],
      [
        "ments",
        -1.0
      ],
      [
        "Ġauthor",
        -1.0
      ],
      [
        "ever",
        -1.0
      ],
      [
        "Ì",
        -1.0
      ],
      [
        "Ġwe",
        -1.0
      ],
      [
        "¼",
        -1.0
      ],
      [
        "Ġof",
        -1.0
      ],
      [
        "Ġthen",
        -1.0
      ],
      [
        "Ġcomp",
        -1.0
      ],
      [
        "Ġdevelop",
        -1.0
      ],
      [
        "Ġg",
        -1.0
      ],
      [
        "Ġ3",
        -1.0
      ],
      [
        "Ŀ",
        -1.0
      ],
      [
        "Ġperson",
        -1.0
      ],
      [
        "ĠT",
        -1.0
      ],
      [
        "º",
        -1.0
      ],
      [
        "ĠChi",
        -1.0
      ],
      [
        "ccess",
        -1.0
      ],
      [
        "ock",
        -1.0
      ],
      [
        "Û",
        -1.0
      ],
      [
        "Ġbelieve",
        -1.0
      ],
      [
        "Ġdisease",
        -1.0
      ],
      [
        "ľ",
        -1.0
      ],
      [
        "Ġpotential",
        -1.0
      ],
      [
        "Ġhttp",
        -1.0
      ],
      [
        "Ġwhen",
        -1.0
      ],
      [
        "tain",
        -1.0
      ],
      [
        "xi",
        -1.0
      ],
      [
        "ĠSt",
        -1.0
      ],
      [
        "struct",
        -1.0
      ],
      [
        "ĠW",
        -1.0
      ],
      [
        "Ġstate",
        -1.0
      ],
      [
        "Ġsuccess",
        -1.0
      ],
      [
        "oo",
        -1.0
      ],
      [
        "ily",
        -1.0
      ],
      [
        "è",
        -1.0
      ],
      [
        "Ġhas",
        -1.0
      ],
      [
        "Ġas",
        -1.0
      ],
      [
        "Ġn",
        -1.0
      ],
      [
        "ain",
        -1.0
      ],
      [
        "Ġin",
        -1.0
      ],
      [
        "Ħ",
        -1.0
      ],
      [
        "tribut",
        -1.0
      ],
      [
        "Ġimprove",
        -1.0
      ],
      [
        "2",
        -1.0
      ],
      [
        "ha",
        -1.0
      ],
      [
        "$",
        -1.0
      ],
      [
        "Ġinformation",
        -1.0
      ],
      [
        "ina",
        -1.0
      ],
      [
        "P",
        -1.0
      ],
      [
        "Ġtheir",
        -1.0
      ],
      [
        "sed",
        -1.0
      ],
      [
        "ly",
        -1.0
      ],
      [
        "Ġto",
        -1.0
      ],
      [
        "Ġmany",
        -1.0
      ],
      [
        "Ġrisk",
        -1.0
      ],
      [
        "ro",
        -1.0
      ],
      [
        "ate",
        -1.0
      ],
      [
        "Z",
        -1.0
      ],
      [
        "Ġdi",
        -1.0
      ],
      [
        "Ġem",
        -1.0
      ],
      [
        "ove",
        -1.0
      ],
      [
        "ns",
        -1.0
      ],
      [
        "Ġe",
        -1.0
      ],
      [
        "ls",
        -1.0
      ],
      [
        "ru",
        -1.0
      ],
      [
        "Ê",
        -1.0
      ],
      [
        "ttle",
        -1.0
      ],
      [
        "ow",
        -1.0
      ],
      [
        "Ġthree",
        -1.0
      ],
      [
        "Ġsecond",
        -1.0
      ],
      [
        "Ġho",
        -1.0
      ],
      [
        "Ġno",
        -1.0
      ],
      [
        "Ġdirect",
        -1.0
      ],
      [
        "Ġnot",
        -1.0
      ],
      [
        "ŀ",
        -1.0
      ],
      [
        "Ġwithout",
        -1.0
      ],
      [
        "Ġta",
        -1.0
      ],
      [
        "ws",
        -1.0
      ],
      [
        "Ġon",
        -1.0
      ],
      [
        "Å",
        -1.0
      ],
      [
        "ree",
        -1.0
      ],
      [
        "ures",
        -1.0
      ],
      [
        "ĠThe",
        -1.0
      ],
      [
        "us",
        -1.0
      ],
      [
        "ó",
        -1.0
      ],
      [
        "ĠAfrica",
        -1.0
      ],
      [
        "Ġass",
        -1.0
      ],
      [
        "[",
        -1.0
      ],
      [
        "tor",
        -1.0
      ],
      [
        "ug",
        -1.0
      ],
      [
        "ization",
        -1.0
      ],
      [
        "dent",
        -1.0
      ],
      [
        "Ġgroup",
        -1.0
      ],
      [
        "Ġoccu",
        -1.0
      ],
      [
        "ĠA",
        -1.0
      ],
      [
        "Ġse",
        -1.0
      ],
      [
        "Ġchildren",
        -1.0
      ],
      [
        "ł",
        -1.0
      ],
      [
        "Ġwho",
        -1.0
      ],
      [
        "ange",
        -1.0
      ],
      [
        "}",
        -1.0
      ],
      [
        "Ġmore",
        -1.0
      ],
      [
        "Ġsub",
        -1.0
      ],
      [
        "ĠCo",
        -1.0
      ],
      [
        "---------------",
        -1.0
      ],
      [
        "ress",
        -1.0
      ],
      [
        "se",
        -1.0
      ],
      [
        "&",
        -1.0
      ],
      [
        "Ġexp",
        -1.0
      ],
      [
        "Ġdo",
        -1.0
      ],
      [
        "il",
        -1.0
      ],
      [
        "000",
        -1.0
      ],
      [
        "Ġdes",
        -1.0
      ],
      [
        "Ġcommun",
        -1.0
      ],
      [
        "ster",
        -1.0
      ],
      [
        "Ġhea",
        -1.0
      ],
      [
        "ograph",
        -1.0
      ],
      [
        "Ġpo",
        -1.0
      ],
      [
        "Ġproduc",
        -1.0
      ],
      [
        "Ġthou",
        -1.0
      ],
      [
        "ins",
        -1.0
      ],
      [
        "ho",
        -1.0
      ],
      [
        "Ë",
        -1.0
      ],
      [
        "Ġi",
        -1.0
      ],
      [
        "owever",
        -1.0
      ],
      [
        "Ġgreat",
        -1.0
      ],
      [
        "Ġwr",
        -1.0
      ],
      [
        "Ġstudies",
        -1.0
      ],
      [
        "Ġrepresent",
        -1.0
      ],
      [
        "tions",
        -1.0
      ],
      [
        "Į",
        -1.0
      ],
      [
        "R",
        -1.0
      ],
      [
        "Ġbecome",
        -1.0
      ],
      [
        "Ġphysic",
        -1.0
      ],
      [
        "ach",
        -1.0
      ],
      [
        "Ġsaid",
        -1.0
      ],
      [
        "Ġext",
        -1.0
      ],
      [
        "Ġpart",
        -1.0
      ],
      [
        "Ġpri",
        -1.0
      ],
      [
        "Ġpe",
        -1.0
      ],
      [
        "u",
        -1.0
      ],
      [
        "Ġthey",
        -1.0
      ],
      [
        "Y",
        -1.0
      ],
      [
        "ient",
        -1.0
      ],
      [
        "c",
        -1.0
      ],
      [
        "F",
        -1.0
      ],
      [
        "Ġfor",
        -1.0
      ],
      [
        "ue",
        -1.0
      ],
      [
        "ĭ",
        -1.0
      ],
      [
        "Ġspecies",
        -1.0
      ],
      [
        "wn",
        -1.0
      ],
      [
        "Ġsuch",
        -1.0
      ],
      [
        "tr",
        -1.0
      ],
      [
        "Ġdef",
        -1.0
      ],
      [
        "Ð",
        -1.0
      ],
      [
        "es",
        -1.0
      ],
      [
        "gr",
        -1.0
      ],
      [
        "ous",
        -1.0
      ],
      [
        "¦",
        -1.0
      ],
      [
        "Ġex",
        -1.0
      ],
      [
        "Ĥ",
        -1.0
      ],
      [
        "it",
        -1.0
      ],
      [
        "Ô",
        -1.0
      ],
      [
        "pt",
        -1.0
      ],
      [
        "round",
        -1.0
      ],
      [
        "Â",
        -1.0
      ],
      [
        "Ġa",
        -1.0
      ],
      [
        "Ġhow",
        -1.0
      ],
      [
        "Ġfound",
        -1.0
      ],
      [
        "Ġinclude",
        -1.0
      ],
      [
        "Ġke",
        -1.0
      ],
      [
        "ĠMo",
        -1.0
      ],
      [
        "Ġwhere",
        -1.0
      ],
      [
        "Ġ",
        -1.0
      ],
      [
        "nch",
        -1.0
      ],
      [
        "Ġfl",
        -1.0
      ],
      [
        "Ġinte",
        -1.0
      ],
      [
        "ĠIsrael",
        -1.0
      ],
      [
        "tes",
        -1.0
      ],
      [
        "ĠHowever",
        -1.0
      ],
      [
        "Ġoccur",
        -1.0
      ],
      [
        "Ġfirst",
        -1.0
      ],
      [
        "ß",
        -1.0
      ],
      [
        "ust",
        -1.0
      ],
      [
        "Ġonly",
        -1.0
      ],
      [
        "one",
        -1.0
      ],
      [
        "Ġschool",
        -1.0
      ],
      [
        "~",
        -1.0
      ],
      [
        "Ġreturn",
        -1.0
      ],
      [
        "Ġrespon",
        -1.0
      ],
      [
        ",\"",
        -1.0
      ],
      [
        "ð",
        -1.0
      ],
      [
        "Ġpopulation",
        -1.0
      ],
      [
        "Ġare",
        -1.0
      ],
      [
        "Ġover",
        -1.0
      ],
      [
        "Ġreal",
        -1.0
      ],
      [
        "Ġcould",
        -1.0
      ],
      [
        "J",
        -1.0
      ],
      [
        "Ò",
        -1.0
      ],
      [
        "Ġsa",
        -1.0
      ],
      [
        "ĠR",
        -1.0
      ],
      [
        "Ġevery",
        -1.0
      ],
      [
        "ale",
        -1.0
      ],
      [
        "ign",
        -1.0
      ],
      [
        "ĠIt",
        -1.0
      ],
      [
        "ĠJ",
        -1.0
      ],
      [
        "ķ",
        -1.0
      ],
      [
        "Ġfield",
        -1.0
      ],
      [
        "Ġdesign",
        -1.0
      ],
      [
        "Ġestablish",
        -1.0
      ],
      [
        "od",
        -1.0
      ],
      [
        "Ġduring",
        -1.0
      ],
      [
        "00",
        -1.0
      ],
      [
        "rs",
        -1.0
      ],
      [
        "Ġeducation",
        -1.0
      ],
      [
        "Ġit",
        -1.0
      ],
      [
        "Ġmy",
        -1.0
      ],
      [
        "re",
        -1.0
      ],
      [
        "Ġrela",
        -1.0
      ],
      [
        "Ġp",
        -1.0
      ],
      [
        "Ġab",
        -1.0
      ],
      [
        ".,",
        -1.0
      ],
      [
        "Ġbuil",
        -1.0
      ],
      [
        "nk",
        -1.0
      ],
      [
        "yc",
        -1.0
      ],
      [
        "w",
        -1.0
      ],
      [
        "í",
        -1.0
      ],
      [
        "Þ",
        -1.0
      ],
      [
        "ob",
        -1.0
      ],
      [
        "lls",
        -1.0
      ],
      [
        "per",
        -1.0
      ],
      [
        "Ġbut",
        -1.0
      ],
      [
        "pr",
        -1.0
      ],
      [
        "Ľ",
        -1.0
      ],
      [
        "iz",
        -1.0
      ],
      [
        "Ġun",
        -1.0
      ],
      [
        "Ġtwo",
        -1.0
      ],
      [
        "cal",
        -1.0
      ],
      [
        "|",
        -1.0
      ],
      [
        "¾",
        -1.0
      ],
      [
        "Ġincreas",
        -1.0
      ],
      [
        "ĠMa",
        -1.0
      ],
      [
        "ies",
        -1.0
      ],
      [
        "ost",
        -1.0
      ],
      [
        "Ġbecause",
        -1.0
      ],
      [
        "Ġmajor",
        -1.0
      ],
      [
        "ed",
        -1.0
      ],
      [
        "ually",
        -1.0
      ],
      [
        "ture",
        -1.0
      ],
      [
        "ved",
        -1.0
      ],
      [
        "5",
        -1.0
      ],
      [
        "Ġone",
        -1.0
      ],
      [
        "Ó",
        -1.0
      ],
      [
        "ing",
        -1.0
      ],
      [
        "ight",
        -1.0
      ],
      [
        "Ġapp",
        -1.0
      ],
      [
        "Ġour",
        -1.0
      ],
      [
        "Ġgi",
        -1.0
      ],
      [
        "ise",
        -1.0
      ],
      [
        "Ġthin",
        -1.0
      ],
      [
        "nn",
        -1.0
      ],
      [
        "Ġfo",
        -1.0
      ],
      [
        "×",
        -1.0
      ],
      [
        "ar",
        -1.0
      ],
      [
        "â",
        -1.0
      ],
      [
        "Ĩ",
        -1.0
      ],
      [
        "Ġmake",
        -1.0
      ],
      [
        "Ġdifficult",
        -1.0
      ],
      [
        "een",
        -1.0
      ],
      [
        "Ġlevel",
        -1.0
      ],
      [
        "Ġthem",
        -1.0
      ],
      [
        "Ġsha",
        -1.0
      ],
      [
        "Ġ4",
        -1.0
      ],
      [
        "ĠEnglish",
        -1.0
      ],
      [
        "Ġcomplete",
        -1.0
      ],
      [
        "ig",
        -1.0
      ],
      [
        "In",
        -1.0
      ],
      [
        "X",
        -1.0
      ],
      [
        "ding",
        -1.0
      ],
      [
        "Ġfe",
        -1.0
      ],
      [
        "dr",
        -1.0
      ],
      [
        "Ġpol",
        -1.0
      ],
      [
        "Ġsee",
        -1.0
      ],
      [
        "pu",
        -1.0
      ],
      [
        "di",
        -1.0
      ],
      [
        "str",
        -1.0
      ],
      [
        "na",
        -1.0
      ],
      [
        "Ġmonth",
        -1.0
      ],
      [
        "Ġ6",
        -1.0
      ],
      [
        "Ġparticular",
        -1.0
      ],
      [
        "Ġback",
        -1.0
      ],
      [
        "Ġyear",
        -1.0
      ],
      [
        "Ġscienti",
        -1.0
      ],
      [
        "Ġpr",
        -1.0
      ],
      [
        "bility",
        -1.0
      ],
      [
        "ays",
        -1.0
      ],
      [
        "ature",
        -1.0
      ],
      [
        "Ī",
        -1.0
      ],
      [
        "et",
        -1.0
      ],
      [
        "ĠResearch",
        -1.0
      ],
      [
        "Ġwill",
        -1.0
      ],
      [
        "1",
        -1.0
      ],
      [
        "Ġwell",
        -1.0
      ],
      [
        "Ġhigh",
        -1.0
      ],
      [
        "Ġpublished",
        -1.0
      ],
      [
        "ish",
        -1.0
      ],
      [
        "Ġcont",
        -1.0
      ],
      [
        "rd",
        -1.0
      ],
      [
        "j",
        -1.0
      ],
      [
        "ĠH",
        -1.0
      ],
      [
        "Ġuse",
        -1.0
      ],
      [
        "ets",
        -1.0
      ],
      [
        "Ġorder",
        -1.0
      ],
      [
        "cy",
        -1.0
      ],
      [
        "H",
        -1.0
      ],
      [
        "'t",
        -1.0
      ],
      [
        "Ġorgan",
        -1.0
      ],
      [
        "Ġspace",
        -1.0
      ],
      [
        "Ġwo",
        -1.0
      ],
      [
        "Ġpro",
        -1.0
      ],
      [
        "med",
        -1.0
      ],
      [
        "Ġstill",
        -1.0
      ],
      [
        "ali",
        -1.0
      ],
      [
        "ge",
        -1.0
      ],
      [
        "Ġany",
        -1.0
      ],
      [
        "Ġad",
        -1.0
      ],
      [
        "tch",
        -1.0
      ],
      [
        "n",
        -1.0
      ],
      [
        "?",
        -1.0
      ],
      [
        "Ġj",
        -1.0
      ],
      [
        "Ġapproach",
        -1.0
      ],
      [
        "Ġwork",
        -1.0
      ],
      [
        "Ġcon",
        -1.0
      ],
      [
        "Ġclose",
        -1.0
      ],
      [
        "nu",
        -1.0
      ],
      [
        "l",
        -1.0
      ],
      [
        "Ġinvolv",
        -1.0
      ],
      [
        "fe",
        -1.0
      ],
      [
        "Ġinf",
        -1.0
      ],
      [
        "...",
        -1.0
      ],
      [
        "ection",
        -1.0
      ],
      [
        "Ġl",
        -1.0
      ],
      [
        "Ġdata",
        -1.0
      ],
      [
        "Ġnetwork",
        -1.0
      ],
      [
        "da",
        -1.0
      ],
      [
        "any",
        -1.0
      ],
      [
        "able",
        -1.0
      ],
      [
        "on",
        -1.0
      ],
      [
        "Ġfollow",
        -1.0
      ],
      [
        "Ġlike",
        -1.0
      ],
      [
        "ult",
        -1.0
      ],
      [
        "Ġwater",
        -1.0
      ],
      [
        "é",
        -1.0
      ],
      [
        "ot",
        -1.0
      ],
      [
        ",",
        -1.0
      ],
      [
        "p",
        -1.0
      ],
      [
        "Ġtra",
        -1.0
      ],
      [
        "Ġyou",
        -1.0
      ],
      [
        "g",
        -1.0
      ],
      [
        "Ġhistory",
        -1.0
      ],
      [
        "tance",
        -1.0
      ],
      [
        "Ġtrans",
        -1.0
      ],
      [
        "Ġhim",
        -1.0
      ],
      [
        ").",
        -1.0
      ],
      [
        "ness",
        -1.0
      ],
      [
        "Ġexperience",
        -1.0
      ],
      [
        "ard",
        -1.0
      ],
      [
        "Ġespecially",
        -1.0
      ],
      [
        "į",
        -1.0
      ],
      [
        "tern",
        -1.0
      ],
      [
        "ĥ",
        -1.0
      ],
      [
        "7",
        -1.0
      ],
      [
        "Ġ2",
        -1.0
      ],
      [
        "Ġmade",
        -1.0
      ],
      [
        "ition",
        -1.0
      ],
      [
        "Æ",
        -1.0
      ],
      [
        "Ġthemselves",
        -1.0
      ],
      [
        "ac",
        -1.0
      ],
      [
        "ê",
        -1.0
      ],
      [
        "Ġso",
        -1.0
      ],
      [
        "±",
        -1.0
      ],
      [
        "ccording",
        -1.0
      ],
      [
        "iver",
        -1.0
      ],
      [
        "nstitu",
        -1.0
      ],
      [
        "ç",
        -1.0
      ],
      [
        "ck",
        -1.0
      ],
      [
        "Ġtechn",
        -1.0
      ],
      [
        "Ġobserv",
        -1.0
      ],
      [
        "¹",
        -1.0
      ],
      [
        "Ġsame",
        -1.0
      ],
      [
        "Ġperiod",
        -1.0
      ],
      [
        "ass",
        -1.0
      ],
      [
        "Ġprovide",
        -1.0
      ],
      [
        "ome",
        -1.0
      ],
      [
        "Ġbe",
        -1.0
      ],
      [
        "Ġacc",
        -1.0
      ],
      [
        "This",
        -1.0
      ],
      [
        "ĳ",
        -1.0
      ],
      [
        "ĠDa",
        -1.0
      ],
      [
        "d",
        -1.0
      ],
      [
        "Ġsymptoms",
        -1.0
      ],
      [
        "Ö",
        -1.0
      ],
      [
        "Õ",
        -1.0
      ],
      [
        "ead",
        -1.0
      ],
      [
        "bu",
        -1.0
      ],
      [
        "ĠFor",
        -1.0
      ],
      [
        "go",
        -1.0
      ],
      [
        "Ġeven",
        -1.0
      ],
      [
        "Ġor",
        -1.0
      ],
      [
        "Ġcountries",
        -1.0
      ],
      [
        "Ġvalue",
        -1.0
      ],
      [
        "ĠUniversity",
        -1.0
      ],
      [
        "Ġch",
        -1.0
      ],
      [
        "Ġwar",
        -1.0
      ],
      [
        "res",
        -1.0
      ],
      [
        "or",
        -1.0
      ],
      [
        "Ġsystem",
        -1.0
      ],
      [
        "min",
        -1.0
      ],
      [
        "ference",
        -1.0
      ],
      [
        "Ġworld",
        -1.0
      ],
      [
        "Ġnatural",
        -1.0
      ],
      [
        "Ġper",
        -1.0
      ],
      [
        "Ġnew",
        -1.0
      ],
      [
        "ong",
        -1.0
      ],
      [
        "`",
        -1.0
      ],
      [
        "hen",
        -1.0
      ],
      [
        "Ġco",
        -1.0
      ],
      [
        "Ġcomm",
        -1.0
      ],
      [
        "Ġle",
        -1.0
      ],
      [
        "ĠJu",
        -1.0
      ],
      [
        "Ġmanage",
        -1.0
      ],
      [
        "ew",
        -1.0
      ],
      [
        "is",
        -1.0
      ],
      [
        "Ġbefore",
        -1.0
      ],
      [
        "Ġform",
        -1.0
      ],
      [
        "4",
        -1.0
      ],
      [
        "¯",
        -1.0
      ],
      [
        "Ķ",
        -1.0
      ],
      [
        "),",
        -1.0
      ],
      [
        "ast",
        -1.0
      ],
      [
        "arch",
        -1.0
      ],
      [
        "Ġ1",
        -1.0
      ],
      [
        "ame",
        -1.0
      ],
      [
        "Ġis",
        -1.0
      ],
      [
        "Ġarea",
        -1.0
      ],
      [
        "e",
        -1.0
      ],
      [
        "ted",
        -1.0
      ],
      [
        "âĢ",
        -1.0
      ],
      [
        "Ç",
        -1.0
      ],
      [
        "ã",
        -1.0
      ],
      [
        "ou",
        -1.0
      ],
      [
        "Ġbeen",
        -1.0
      ],
      [
        "Ġchange",
        -1.0
      ],
      [
        "z",
        -1.0
      ],
      [
        "Ġpat",
        -1.0
      ],
      [
        "Ġlead",
        -1.0
      ],
      [
        "em",
        -1.0
      ],
      [
        "duc",
        -1.0
      ],
      [
        "line",
        -1.0
      ],
      [
        "Ġrea",
        -1.0
      ],
      [
        "Ġother",
        -1.0
      ],
      [
        "Ġda",
        -1.0
      ],
      [
        "tive",
        -1.0
      ],
      [
        "B",
        -1.0
      ],
      [
        "E",
        -1.0
      ],
      [
        "ght",
        -1.0
      ],
      [
        "Ġcause",
        -1.0
      ],
      [
        "Ġus",
        -1.0
      ],
      [
        "Ġall",
        -1.0
      ],
      [
        "î",
        -1.0
      ],
      [
        "ent",
        -1.0
      ],
      [
        "Ġdisc",
        -1.0
      ],
      [
        "ength",
        -1.0
      ],
      [
        "ĠThis",
        -1.0
      ],
      [
        "der",
        -1.0
      ],
      [
        "ealth",
        -1.0
      ],
      [
        "ess",
        -1.0
      ],
      [
        "nds",
        -1.0
      ],
      [
        "Ġob",
        -1.0
      ],
      [
        "@",
        -1.0
      ],
      [
        "¢",
        -1.0
      ],
      [
        "ĠIn",
        -1.0
      ],
      [
        "ny",
        -1.0
      ],
      [
        "ied",
        -1.0
      ],
      [
        "Ġla",
        -1.0
      ],
      [
        "Ġuni",
        -1.0
      ],
      [
        "0",
        -1.0
      ],
      [
        "Ġenergy",
        -1.0
      ],
      [
        "Ġright",
        -1.0
      ],
      [
        "ĠNo",
        -1.0
      ],
      [
        "nt",
        -1.0
      ],
      [
        "Ġsup",
        -1.0
      ],
      [
        "ology",
        -1.0
      ],
      [
        "Ġlife",
        -1.0
      ],
      [
        "'s",
        -1.0
      ],
      [
        "ĠâĢĵ",
        -1.0
      ],
      [
        "ven",
        -1.0
      ],
      [
        "M",
        -1.0
      ],
      [
        "à",
        -1.0
      ],
      [
        "Ġ19",
        -1.0
      ],
      [
        "ĠN",
        -1.0
      ],
      [
        "+",
        -1.0
      ],
      [
        "W",
        -1.0
      ],
      [
        "å",
        -1.0
      ],
      [
        "eo",
        -1.0
      ],
      [
        "ee",
        -1.0
      ],
      [
        "ĠMar",
        -1.0
      ],
      [
        "Ġmar",
        -1.0
      ],
      [
        "land",
        -1.0
      ],
      [
        "ie",
        -1.0
      ],
      [
        "Ġimportant",
        -1.0
      ],
      [
        "9",
        -1.0
      ],
      [
        "´",
        -1.0
      ],
      [
        "Ġalso",
        -1.0
      ],
      [
        "¿",
        -1.0
      ],
      [
        "Ġhad",
        -1.0
      ],
      [
        "b",
        -1.0
      ],
      [
        "ics",
        -1.0
      ],
      [
        "ĠSh",
        -1.0
      ],
      [
        "Ġmuch",
        -1.0
      ],
      [
        "âĢĿ",
        -1.0
      ],
      [
        "Ġbu",
        -1.0
      ],
      [
        "Ġdetermine",
        -1.0
      ],
      [
        "Ġthat",
        -1.0
      ],
      [
        "Ġown",
        -1.0
      ],
      [
        "sc",
        -1.0
      ],
      [
        "ful",
        -1.0
      ],
      [
        "rth",
        -1.0
      ],
      [
        "(",
        -1.0
      ],
      [
        "ith",
        -1.0
      ],
      [
        "rea",
        -1.0
      ],
      [
        "ined",
        -1.0
      ],
      [
        "ï",
        -1.0
      ],
      [
        "ĸ",
        -1.0
      ],
      [
        "arly",
        -1.0
      ],
      [
        "6",
        -1.0
      ],
      [
        "Ļ",
        -1.0
      ],
      [
        "Ä",
        -1.0
      ],
      [
        "ģ",
        -1.0
      ],
      [
        "Ġ18",
        -1.0
      ],
      [
        "ĠAs",
        -1.0
      ],
      [
        "ĠCa",
        -1.0
      ],
      [
        "lli",
        -1.0
      ],
      [
        "Ġga",
        -1.0
      ],
      [
        "ta",
        -1.0
      ],
      [
        "end",
        -1.0
      ],
      [
        "sk",
        -1.0
      ],
      [
        "ĠSa",
        -1.0
      ],
      [
        "Ġcurrent",
        -1.0
      ],
      [
        "rp",
        -1.0
      ],
      [
        "ter",
        -1.0
      ],
      [
        "¶",
        -1.0
      ],
      [
        "Ġcl",
        -1.0
      ],
      [
        "Ġcontinu",
        -1.0
      ],
      [
        "ine",
        -1.0
      ],
      [
        "ur",
        -1.0
      ],
      [
        "Ġtemperature",
        -1.0
      ],
      [
        "Ġvery",
        -1.0
      ],
      [
        "Ġru",
        -1.0
      ],
      [
        "ĠC",
        -1.0
      ],
      [
        "ased",
        -1.0
      ],
      [
        "aking",
        -1.0
      ],
      [
        "Ġbusiness",
        -1.0
      ],
      [
        "Ġbr",
        -1.0
      ],
      [
        "Ġcentury",
        -1.0
      ],
      [
        "Ġthan",
        -1.0
      ],
      [
        "Ġevidence",
        -1.0
      ],
      [
        "ĠJohn",
        -1.0
      ],
      [
        "Ġci",
        -1.0
      ],
      [
        "Ġvari",
        -1.0
      ],
      [
        "Ġbelie",
        -1.0
      ],
      [
        "È",
        -1.0
      ],
      [
        "Ġcu",
        -1.0
      ],
      [
        "ĠHe",
        -1.0
      ],
      [
        "Ġb",
        -1.0
      ],
      [
        "Ġgo",
        -1.0
      ],
      [
        ")",
        -1.0
      ],
      [
        "Ġspe",
        -1.0
      ],
      [
        "Ġ\"",
        -1.0
      ],
      [
        "¡",
        -1.0
      ],
      [
        "ħ",
        -1.0
      ],
      [
        "Ġthose",
        -1.0
      ],
      [
        "wa",
        -1.0
      ],
      [
        "Ġtest",
        -1.0
      ],
      [
        "ä",
        -1.0
      ],
      [
        "Ø",
        -1.0
      ],
      [
        "Ġen",
        -1.0
      ],
      [
        "Ġpre",
        -1.0
      ],
      [
        "ô",
        -1.0
      ],
      [
        "âĢĶ",
        -1.0
      ],
      [
        "Ġprodu",
        -1.0
      ],
      [
        "graph",
        -1.0
      ],
      [
        "iv",
        -1.0
      ],
      [
        "Ġwould",
        -1.0
      ],
      [
        "si",
        -1.0
      ],
      [
        ".",
        -1.0
      ],
      [
        "Ú",
        -1.0
      ],
      [
        "Ġprogram",
        -1.0
      ],
      [
        "/",
        -1.0
      ],
      [
        "Ġwere",
        -1.0
      ],
      [
        "ence",
        -1.0
      ],
      [
        "vi",
        -1.0
      ],
      [
        "dic",
        -1.0
      ],
      [
        "Ġsur",
        -1.0
      ],
      [
        "Ġcan",
        -1.0
      ],
      [
        "Ġ-",
        -1.0
      ],
      [
        "%",
        -1.0
      ],
      [
        "orm",
        -1.0
      ],
      [
        "«",
        -1.0
      ],
      [
        ";",
        -1.0
      ],
      [
        "Ġcertain",
        -1.0
      ],
      [
        "Ġs",
        -1.0
      ],
      [
        "tal",
        -1.0
      ],
      [
        "Ġlong",
        -1.0
      ],
      [
        "ĠM",
        -1.0
      ],
      [
        "Ġlarge",
        -1.0
      ],
      [
        "ev",
        -1.0
      ],
      [
        "Ġfun",
        -1.0
      ],
      [
        "Ġdr",
        -1.0
      ],
      [
        "ë",
        -1.0
      ],
      [
        "Ġresearch",
        -1.0
      ],
      [
        "nd",
        -1.0
      ],
      [
        "Ġwas",
        -1.0
      ],
      [
        "Ġby",
        -1.0
      ],
      [
        "k",
        -1.0
      ],
      [
        "ī",
        -1.0
      ],
      [
        "<",
        -1.0
      ],
      [
        "low",
        -1.0
      ],
      [
        "Ġup",
        -1.0
      ],
      [
        "#",
        -1.0
      ],
      [
        "¨",
        -1.0
      ],
      [
        "Ġwith",
        -1.0
      ],
      [
        "ving",
        -1.0
      ],
      [
        "Ġeduca",
        -1.0
      ],
      [
        "gu",
        -1.0
      ],
      [
        "Ġshould",
        -1.0
      ],
      [
        "Ĺ",
        -1.0
      ],
      [
        "i",
        -1.0
      ],
      [
        "U",
        -1.0
      ],
      [
        "ral",
        -1.0
      ],
      [
        "Ġsource",
        -1.0
      ],
      [
        "Ġan",
        -1.0
      ],
      [
        "Ġlanguage",
        -1.0
      ],
      [
        "aw",
        -1.0
      ],
      [
        "sive",
        -1.0
      ],
      [
        "Ġwi",
        -1.0
      ],
      [
        "Ġtu",
        -1.0
      ],
      [
        "tw",
        -1.0
      ],
      [
        "8",
        -1.0
      ],
      [
        "do",
        -1.0
      ],
      [
        "=",
        -1.0
      ],
      [
        "®",
        -1.0
      ],
      [
        "Ġorgani",
        -1.0
      ],
      [
        "ı",
        -1.0
      ],
      [
        "Ġand",
        -1.0
      ],
      [
        "ĠWe",
        -1.0
      ],
      [
        "Ġdescrib",
        -1.0
      ],
      [
        "rate",
        -1.0
      ],
      [
        "Ġtreat",
        -1.0
      ],
      [
        "ook",
        -1.0
      ],
      [
        "_",
        -1.0
      ],
      [
        "ĵ",
        -1.0
      ],
      [
        "ffic",
        -1.0
      ],
      [
        "ĠChrist",
        -1.0
      ],
      [
        "ga",
        -1.0
      ],
      [
        "r",
        -1.0
      ],
      [
        "ĠDe",
        -1.0
      ],
      [
        "and",
        -1.0
      ],
      [
        "V",
        -1.0
      ],
      [
        "for",
        -1.0
      ],
      [
        "Ġyour",
        -1.0
      ],
      [
        "Ġar",
        -1.0
      ],
      [
        "ld",
        -1.0
      ],
      [
        "Ġr",
        -1.0
      ],
      [
        "ĠWorld",
        -1.0
      ],
      [
        "use",
        -1.0
      ],
      [
        "Ġtime",
        -1.0
      ],
      [
        "S",
        -1.0
      ],
      [
        "ma",
        -1.0
      ],
      [
        "Ċ",
        -1.0
      ],
      [
        "C",
        -1.0
      ],
      [
        "ĠO",
        -1.0
      ],
      [
        "¬",
        -1.0
      ],
      [
        "ens",
        -1.0
      ],
      [
        "fa",
        -1.0
      ],
      [
        "ĠRe",
        -1.0
      ],
      [
        "ah",
        -1.0
      ],
      [
        "a",
        -1.0
      ],
      [
        "Ġfu",
        -1.0
      ],
      [
        "y",
        -1.0
      ],
      [
        "Ġstudents",
        -1.0
      ],
      [
        "T",
        -1.0
      ],
      [
        "no",
        -1.0
      ],
      [
        "cu",
        -1.0
      ],
      [
        "Ġeffect",
        -1.0
      ],
      [
        "Ġcalled",
        -1.0
      ],
      [
        "ra",
        -1.0
      ],
      [
        "man",
        -1.0
      ],
      [
        "nic",
        -1.0
      ],
      [
        "á",
        -1.0
      ],
      [
        "Ġsimpl",
        -1.0
      ],
      [
        "ĠAn",
        -1.0
      ],
      [
        "Ġsome",
        -1.0
      ],
      [
        "Ġloc",
        -1.0
      ],
      [
        "ĠD",
        -1.0
      ],
      [
        "Ġ199",
        -1.0
      ],
      [
        "ire",
        -1.0
      ],
      [
        "ive",
        -1.0
      ],
      [
        "Ġrel",
        -1.0
      ],
      [
        ".\"",
        -1.0
      ],
      [
        "ĠSp",
        -1.0
      ],
      [
        "Ġint",
        -1.0
      ],
      [
        "ĠI",
        -1.0
      ],
      [
        "Ġuntil",
        -1.0
      ],
      [
        "ĠJa",
        -1.0
      ],
      [
        "va",
        -1.0
      ],
      [
        "ological",
        -1.0
      ],
      [
        "cept",
        -1.0
      ],
      [
        "Ġbeing",
        -1.0
      ],
      [
        "os",
        -1.0
      ],
      [
        "pi",
        -1.0
      ],
      [
        "Ġ5",
        -1.0
      ],
      [
        "Ġseveral",
        -1.0
      ],
      [
        "ĠLi",
        -1.0
      ],
      [
        "ze",
        -1.0
      ],
      [
        "ak",
        -1.0
      ],
      [
        "ĠY",
        -1.0
      ],
      [
        "om",
        -1.0
      ],
      [
        "Ġdist",
        -1.0
      ],
      [
        "rl",
        -1.0
      ],
      [
        "age",
        -1.0
      ],
      [
        "Ġinto",
        -1.0
      ],
      [
        "pl",
        -1.0
      ],
      [
        "ssocia",
        -1.0
      ],
      [
        "°",
        -1.0
      ],
      [
        "in",
        -1.0
      ],
      [
        "Ġits",
        -1.0
      ],
      [
        "Ġeach",
        -1.0
      ],
      [
        "Ġindividual",
        -1.0
      ],
      [
        "Ġind",
        -1.0
      ],
      [
        "Í",
        -1.0
      ],
      [
        "ĠS",
        -1.0
      ],
      [
        "Ġge",
        -1.0
      ],
      [
        "nding",
        -1.0
      ],
      [
        "hat",
        -1.0
      ],
      [
        "Ġhe",
        -1.0
      ],
      [
        "Ġpower",
        -1.0
      ],
      [
        "au",
        -1.0
      ],
      [
        "ļ",
        -1.0
      ],
      [
        "my",
        -1.0
      ],
      [
        "mer",
        -1.0
      ],
      [
        "Ġmaterial",
        -1.0
      ],
      [
        "Ġh",
        -1.0
      ],
      [
        "Ġcharacter",
        -1.0
      ],
      [
        "19",
        -1.0
      ],
      [
        "ª",
        -1.0
      ],
      [
        "ory",
        -1.0
      ],
      [
        "Ġc",
        -1.0
      ],
      [
        "els",
        -1.0
      ],
      [
        "nvironment",
        -1.0
      ],
      [
        "Ġsou",
        -1.0
      ],
      [
        "Ġif",
        -1.0
      ],
      [
        "Ġarticle",
        -1.0
      ],
      [
        "©",
        -1.0
      ],
      [
        "Ĵ",
        -1.0
      ],
      [
        "Ġresult",
        -1.0
      ],
      [
        "tional",
        -1.0
      ],
      [
        "oy",
        -1.0
      ],
      [
        "âĢĻ",
        -1.0
      ],
      [
        "ec",
        -1.0
      ],
      [
        "av",
        -1.0
      ],
      [
        "Ġprevent",
        -1.0
      ],
      [
        "Ġcor",
        -1.0
      ],
      [
        "Ġmen",
        -1.0
      ],
      [
        "ĠThese",
        -1.0
      ],
      [
        "Ġthere",
        -1.0
      ],
      [
        "Ġget",
        -1.0
      ],
      [
        "ĠCalifornia",
        -1.0
      ],
      [
        "Ġwhich",
        -1.0
      ],
      [
        "Ġbetween",
        -1.0
      ],
      [
        ">",
        -1.0
      ],
      [
        "Ġproject",
        -1.0
      ],
      [
        "Ġalready",
        -1.0
      ],
      [
        "Ġunder",
        -1.0
      ],
      [
        "le",
        -1.0
      ],
      [
        "ple",
        -1.0
      ],
      [
        "Ġ200",
        -1.0
      ],
      [
        "Ġwhat",
        -1.0
      ],
      [
        "eg",
        -1.0
      ],
      [
        "o",
        -1.0
      ],
      [
        "Ġfr",
        -1.0
      ],
      [
        "ul",
        -1.0
      ],
      [
        "Ġpercent",
        -1.0
      ],
      [
        "ab",
        -1.0
      ],
      [
        "des",
        -1.0
      ],
      [
        "'",
        -1.0
      ],
      [
        "¸",
        -1.0
      ],
      [
        "Ġcons",
        -1.0
      ],
      [
        "hy",
        -1.0
      ],
      [
        "ĠU",
        -1.0
      ],
      [
        "ric",
        -1.0
      ],
      [
        "²",
        -1.0
      ],
      [
        "Ĳ",
        -1.0
      ],
      [
        "Ġprocess",
        -1.0
      ],
      [
        "ĠP",
        -1.0
      ],
      [
        "ĠEngl",
        -1.0
      ],
      [
        "||",
        -1.0
      ],
      [
        "at",
        -1.0
      ],
      [
        "Ġlearn",
        -1.0
      ],
      [
        "Ġchild",
        -1.0
      ],
      [
        "ĠF",
        -1.0
      ],
      [
        "Ü",
        -1.0
      ],
      [
        "ase",
        -1.0
      ],
      [
        "cial",
        -1.0
      ],
      [
        "Ġthrough",
        -1.0
      ],
      [
        "bs",
        -1.0
      ],
      [
        "ick",
        -1.0
      ],
      [
        "N",
        -1.0
      ],
      [
        "id",
        -1.0
      ],
      [
        "Ï",
        -1.0
      ],
      [
        "ist",
        -1.0
      ],
      [
        "ib",
        -1.0
      ],
      [
        "Ģ",
        -1.0
      ],
      [
        "im",
        -1.0
      ],
      [
        "\"",
        -1.0
      ],
      [
        "Q",
        -1.0
      ],
      [
        "Ġthese",
        -1.0
      ],
      [
        "Ġquestion",
        -1.0
      ],
      [
        "ans",
        -1.0
      ],
      [
        "Ġmay",
        -1.0
      ],
      [
        "me",
        -1.0
      ],
      [
        "ys",
        -1.0
      ],
      [
        "ying",
        -1.0
      ],
      [
        "Ġbo",
        -1.0
      ],
      [
        "rg",
        -1.0
      ],
      [
        "ational",
        -1.0
      ],
      [
        "Ġins",
        -1.0
      ],
      [
        "ĉ",
        -1.0
      ],
      [
        "Ġthis",
        -1.0
      ],
      [
        "ĠLa",
        -1.0
      ],
      [
        "Ñ",
        -1.0
      ],
      [
        "Ġdifferent",
        -1.0
      ],
      [
        "Ġfrom",
        -1.0
      ],
      [
        "Ġblood",
        -1.0
      ],
      [
        "cl",
        -1.0
      ],
      [
        "our",
        -1.0
      ],
      [
        "Ġme",
        -1.0
      ],
      [
        "Ġafter",
        -1.0
      ],
      [
        "lf",
        -1.0
      ],
      [
        "ific",
        -1.0
      ],
      [
        "Ġreduc",
        -1.0
      ],
      [
        "³",
        -1.0
      ],
      [
        "Ġsmall",
        -1.0
      ],
      [
        "ĠâĢľ",
        -1.0
      ]
    ],
    "byte_fallback": false
  }
}