{
  "version": "1.0",
  "truncation": null,
  "padding": null,
  "added_tokens": [
    {
      "id": 231,
      "content": "[PAD]",
      "single_word": false,
      "lstrip": false,
      "rstrip": false,
      "normalized": false,
      "special": true
    },
    {
      "id": 723,
      "content": "[MASK]",
      "single_word": false,
      "lstrip": false,
      "rstrip": false,
      "normalized": false,
      "special": true
    },
    {
      "id": 783,
      "content": "[CLS]",
      "single_word": false,
      "lstrip": false,
      "rstrip": false,
      "normalized": false,
      "special": true
    },
    {
      "id": 1150,
      "content": "[EOS]",
      "single_word": false,
      "lstrip": false,
      "rstrip": false,
      "normalized": false,
      "special": true
    },
    {
      "id": 1260,
      "content": "[UNK]",
      "single_word": false,
      "lstrip": false,
      "rstrip": false,
      "normalized": false,
      "special": true
    },
    {
      "id": 2048,
      "content": "[SEP]",
      "single_word": false,
      "lstrip": false,
      "rstrip": false,
      "normalized": false,
      "special": true
    }
  ],
  "normalizer": null,
  "pre_tokenizer": {
    "type": "ByteLevel",
    "add_prefix_space": false,
    "trim_offsets": true,
    "use_regex": true
  },
  "post_processor": null,
  "decoder": null,
  "model": {
    "type": "Unigram",
    "unk_id": null,
    "vocab": [
      [
        "Ü",
        -1.0
      ],
      [
        "Ġbio",
        -1.0
      ],
      [
        "Ï",
        -1.0
      ],
      [
        "Ġch",
        -1.0
      ],
      [
        "ĠAl",
        -1.0
      ],
      [
        "Ġgiven",
        -1.0
      ],
      [
        "17",
        -1.0
      ],
      [
        "Ġ13",
        -1.0
      ],
      [
        "ley",
        -1.0
      ],
      [
        "vision",
        -1.0
      ],
      [
        "Ġagree",
        -1.0
      ],
      [
        "Ġway",
        -1.0
      ],
      [
        "We",
        -1.0
      ],
      [
        ".\"",
        -1.0
      ],
      [
        "Ġmechan",
        -1.0
      ],
      [
        "æ",
        -1.0
      ],
      [
        "la",
        -1.0
      ],
      [
        "Ġbro",
        -1.0
      ],
      [
        "What",
        -1.0
      ],
      [
        "Ġperiod",
        -1.0
      ],
      [
        "stance",
        -1.0
      ],
      [
        "ê",
        -1.0
      ],
      [
        "ined",
        -1.0
      ],
      [
        "#",
        -1.0
      ],
      [
        "ons",
        -1.0
      ],
      [
        "Ġthe",
        -1.0
      ],
      [
        "ny",
        -1.0
      ],
      [
        "Ġmanufactur",
        -1.0
      ],
      [
        "stic",
        -1.0
      ],
      [
        "Ġthings",
        -1.0
      ],
      [
        ".",
        -1.0
      ],
      [
        "ances",
        -1.0
      ],
      [
        "Ġpu",
        -1.0
      ],
      [
        "son",
        -1.0
      ],
      [
        "Ġlow",
        -1.0
      ],
      [
        "ĠEgypt",
        -1.0
      ],
      [
        "ĠCons",
        -1.0
      ],
      [
        "Ġuse",
        -1.0
      ],
      [
        "Ġnatural",
        -1.0
      ],
      [
        "self",
        -1.0
      ],
      [
        "ĩ",
        -1.0
      ],
      [
        "do",
        -1.0
      ],
      [
        "e",
        -1.0
      ],
      [
        "Ġstudies",
        -1.0
      ],
      [
        "ĠThere",
        -1.0
      ],
      [
        "Ħ",
        -1.0
      ],
      [
        "Ġestimate",
        -1.0
      ],
      [
        "T",
        -1.0
      ],
      [
        "Ġhabitat",
        -1.0
      ],
      [
        "Ġnegative",
        -1.0
      ],
      [
        "ected",
        -1.0
      ],
      [
        "Ġrespons",
        -1.0
      ],
      [
        "ĠAt",
        -1.0
      ],
      [
        "by",
        -1.0
      ],
      [
        "000",
        -1.0
      ],
      [
        "Ġmin",
        -1.0
      ],
      [
        "oss",
        -1.0
      ],
      [
        "ular",
        -1.0
      ],
      [
        "Ġgene",
        -1.0
      ],
      [
        "ok",
        -1.0
      ],
      [
        "6",
        -1.0
      ],
      [
        "ĠEnglish",
        -1.0
      ],
      [
        "ĠP",
        -1.0
      ],
      [
        "ina",
        -1.0
      ],
      [
        "gy",
        -1.0
      ],
      [
        "om",
        -1.0
      ],
      [
        "ha",
        -1.0
      ],
      [
        "Ġamount",
        -1.0
      ],
      [
        "'t",
        -1.0
      ],
      [
        "Ġbegan",
        -1.0
      ],
      [
        "Ġfrequen",
        -1.0
      ],
      [
        "ec",
        -1.0
      ],
      [
        "Ġon",
        -1.0
      ],
      [
        "Ġphilosoph",
        -1.0
      ],
      [
        "Ġtemperature",
        -1.0
      ],
      [
        "er",
        -1.0
      ],
      [
        "stant",
        -1.0
      ],
      [
        "ial",
        -1.0
      ],
      [
        "ĠWar",
        -1.0
      ],
      [
        ">",
        -1.0
      ],
      [
        "ĠAn",
        -1.0
      ],
      [
        "ĠUS",
        -1.0
      ],
      [
        "Ì",
        -1.0
      ],
      [
        "ĠRetrieved",
        -1.0
      ],
      [
        "Ġspecies",
        -1.0
      ],
      [
        "de",
        -1.0
      ],
      [
        "ĠEx",
        -1.0
      ],
      [
        "18",
        -1.0
      ],
      [
        "Ġexposure",
        -1.0
      ],
      [
        "Ġ6",
        -1.0
      ],
      [
        "eat",
        -1.0
      ],
      [
        "Ġcomplex",
        -1.0
      ],
      [
        "Ġtri",
        -1.0
      ],
      [
        "Ë",
        -1.0
      ],
      [
        "§",
        -1.0
      ],
      [
        "Ġover",
        -1.0
      ],
      [
        "ust",
        -1.0
      ],
      [
        "×",
        -1.0
      ],
      [
        "Ġvery",
        -1.0
      ],
      [
        "Ġquestion",
        -1.0
      ],
      [
        "Ġsupport",
        -1.0
      ],
      [
        "'",
        -1.0
      ],
      [
        "Ġop",
        -1.0
      ],
      [
        "Ġhead",
        -1.0
      ],
      [
        "Ġcon",
        -1.0
      ],
      [
        "ard",
        -1.0
      ],
      [
        "ĠMississippi",
        -1.0
      ],
      [
        "ĠService",
        -1.0
      ],
      [
        "ying",
        -1.0
      ],
      [
        "Ġ-",
        -1.0
      ],
      [
        "board",
        -1.0
      ],
      [
        "D",
        -1.0
      ],
      [
        "ation",
        -1.0
      ],
      [
        "gue",
        -1.0
      ],
      [
        "late",
        -1.0
      ],
      [
        "ned",
        -1.0
      ],
      [
        "ĵ",
        -1.0
      ],
      [
        "ily",
        -1.0
      ],
      [
        "ap",
        -1.0
      ],
      [
        "ĠCalifornia",
        -1.0
      ],
      [
        "Ġfour",
        -1.0
      ],
      [
        "nate",
        -1.0
      ],
      [
        "or",
        -1.0
      ],
      [
        "ze",
        -1.0
      ],
      [
        "ae",
        -1.0
      ],
      [
        "ĠAssociation",
        -1.0
      ],
      [
        "Ġproblem",
        -1.0
      ],
      [
        "Ġassess",
        -1.0
      ],
      [
        "av",
        -1.0
      ],
      [
        "Ġexc",
        -1.0
      ],
      [
        "Ġnear",
        -1.0
      ],
      [
        "Ġspecific",
        -1.0
      ],
      [
        "Ġwrote",
        -1.0
      ],
      [
        "Ġhave",
        -1.0
      ],
      [
        "ĠâĢĶ",
        -1.0
      ],
      [
        "Ġ194",
        -1.0
      ],
      [
        "Ġbefore",
        -1.0
      ],
      [
        "sure",
        -1.0
      ],
      [
        "ï",
        -1.0
      ],
      [
        "uch",
        -1.0
      ],
      [
        "ief",
        -1.0
      ],
      [
        "Ġpeople",
        -1.0
      ],
      [
        "le",
        -1.0
      ],
      [
        "to",
        -1.0
      ],
      [
        "vi",
        -1.0
      ],
      [
        "Ġlittle",
        -1.0
      ],
      [
        "Ġoccasion",
        -1.0
      ],
      [
        "Ġseen",
        -1.0
      ],
      [
        "Ġfew",
        -1.0
      ],
      [
        "Ġnever",
        -1.0
      ],
      [
        "Ġpa",
        -1.0
      ],
      [
        "ĠW",
        -1.0
      ],
      [
        "Ġrange",
        -1.0
      ],
      [
        "ched",
        -1.0
      ],
      [
        "Ġestablish",
        -1.0
      ],
      [
        "en",
        -1.0
      ],
      [
        "rian",
        -1.0
      ],
      [
        "rel",
        -1.0
      ],
      [
        "Ġother",
        -1.0
      ],
      [
        ".âĢĿ",
        -1.0
      ],
      [
        "ĠJapanese",
        -1.0
      ],
      [
        "No",
        -1.0
      ],
      [
        "Ġgovernment",
        -1.0
      ],
      [
        "Ġanti",
        -1.0
      ],
      [
        "rations",
        -1.0
      ],
      [
        "R",
        -1.0
      ],
      [
        "2",
        -1.0
      ],
      [
        "ried",
        -1.0
      ],
      [
        "rofessor",
        -1.0
      ],
      [
        "Ġdevelop",
        -1.0
      ],
      [
        "Ĩ",
        -1.0
      ],
      [
        "volution",
        -1.0
      ],
      [
        "³",
        -1.0
      ],
      [
        "Ġstor",
        -1.0
      ],
      [
        "ordin",
        -1.0
      ],
      [
        "Ġwh",
        -1.0
      ],
      [
        "Ġorgan",
        -1.0
      ],
      [
        "olution",
        -1.0
      ],
      [
        "Í",
        -1.0
      ],
      [
        "Ġrelationship",
        -1.0
      ],
      [
        "ters",
        -1.0
      ],
      [
        "Ġsk",
        -1.0
      ],
      [
        "ĠPh",
        -1.0
      ],
      [
        "Ġline",
        -1.0
      ],
      [
        "Ġrefer",
        -1.0
      ],
      [
        "Ġvulnera",
        -1.0
      ],
      [
        "Ġho",
        -1.0
      ],
      [
        "Ġcell",
        -1.0
      ],
      [
        "Ġcase",
        -1.0
      ],
      [
        "Ġinst",
        -1.0
      ],
      [
        "Ġm",
        -1.0
      ],
      [
        "Ġcells",
        -1.0
      ],
      [
        "Ġseveral",
        -1.0
      ],
      [
        "Ġbatt",
        -1.0
      ],
      [
        "|",
        -1.0
      ],
      [
        "Ġve",
        -1.0
      ],
      [
        "ŀ",
        -1.0
      ],
      [
        "Ġwant",
        -1.0
      ],
      [
        "med",
        -1.0
      ],
      [
        "Ġless",
        -1.0
      ],
      [
        "Ġtarget",
        -1.0
      ],
      [
        "ĳ",
        -1.0
      ],
      [
        "si",
        -1.0
      ],
      [
        "ization",
        -1.0
      ],
      [
        "Ġlong",
        -1.0
      ],
      [
        "N",
        -1.0
      ],
      [
        "â",
        -1.0
      ],
      [
        "mp",
        -1.0
      ],
      [
        "ici",
        -1.0
      ],
      [
        "Ġturn",
        -1.0
      ],
      [
        "Ġloc",
        -1.0
      ],
      [
        "ran",
        -1.0
      ],
      [
        "Ġimpact",
        -1.0
      ],
      [
        "ival",
        -1.0
      ],
      [
        "ume",
        -1.0
      ],
      [
        "less",
        -1.0
      ],
      [
        "Ġalternative",
        -1.0
      ],
      [
        "Ġtraditional",
        -1.0
      ],
      [
        "Ġfree",
        -1.0
      ],
      [
        "us",
        -1.0
      ],
      [
        "Ġcarbon",
        -1.0
      ],
      [
        "Ġknowledge",
        -1.0
      ],
      [
        "A",
        -1.0
      ],
      [
        "Ġeven",
        -1.0
      ],
      [
        "Ġex",
        -1.0
      ],
      [
        "logy",
        -1.0
      ],
      [
        "Ġespecially",
        -1.0
      ],
      [
        "Ġnetwork",
        -1.0
      ],
      [
        "Ġexpl",
        -1.0
      ],
      [
        "Ú",
        -1.0
      ],
      [
        "S",
        -1.0
      ],
      [
        "[PAD]",
        -1.0
      ],
      [
        "Ġ0",
        -1.0
      ],
      [
        "Ġbuild",
        -1.0
      ],
      [
        "tric",
        -1.0
      ],
      [
        "Ġgood",
        -1.0
      ],
      [
        "nical",
        -1.0
      ],
      [
        "Ġefficie",
        -1.0
      ],
      [
        "and",
        -1.0
      ],
      [
        "ses",
        -1.0
      ],
      [
        "mar",
        -1.0
      ],
      [
        "ower",
        -1.0
      ],
      [
        "Ġreveal",
        -1.0
      ],
      [
        "Ġblood",
        -1.0
      ],
      [
        "ĠTr",
        -1.0
      ],
      [
        "Ġdist",
        -1.0
      ],
      [
        "Ġni",
        -1.0
      ],
      [
        "verse",
        -1.0
      ],
      [
        "Ġcitizen",
        -1.0
      ],
      [
        "Ġused",
        -1.0
      ],
      [
        "Ġnormal",
        -1.0
      ],
      [
        "ality",
        -1.0
      ],
      [
        "ĠPresident",
        -1.0
      ],
      [
        "ĠSt",
        -1.0
      ],
      [
        "ression",
        -1.0
      ],
      [
        "Ġeither",
        -1.0
      ],
      [
        "scrib",
        -1.0
      ],
      [
        "Ġ\"",
        -1.0
      ],
      [
        "Ġthink",
        -1.0
      ],
      [
        "ĠThe",
        -1.0
      ],
      [
        "²",
        -1.0
      ],
      [
        "11",
        -1.0
      ],
      [
        "ris",
        -1.0
      ],
      [
        "Ġsurface",
        -1.0
      ],
      [
        "wi",
        -1.0
      ],
      [
        "ĠA",
        -1.0
      ],
      [
        "Ġlaw",
        -1.0
      ],
      [
        "Ġcannot",
        -1.0
      ],
      [
        "h",
        -1.0
      ],
      [
        "ter",
        -1.0
      ],
      [
        "sse",
        -1.0
      ],
      [
        "Ġfront",
        -1.0
      ],
      [
        "Ġmachine",
        -1.0
      ],
      [
        "ĠâĢľ",
        -1.0
      ],
      [
        "Ġwea",
        -1.0
      ],
      [
        "matic",
        -1.0
      ],
      [
        "·",
        -1.0
      ],
      [
        "Ġremo",
        -1.0
      ],
      [
        "Ġsecurity",
        -1.0
      ],
      [
        "American",
        -1.0
      ],
      [
        "ths",
        -1.0
      ],
      [
        "pt",
        -1.0
      ],
      [
        "Ġfunction",
        -1.0
      ],
      [
        "ĠY",
        -1.0
      ],
      [
        "Ġtext",
        -1.0
      ],
      [
        "ĠScience",
        -1.0
      ],
      [
        "Ġti",
        -1.0
      ],
      [
        "ific",
        -1.0
      ],
      [
        "Ġlower",
        -1.0
      ],
      [
        "kes",
        -1.0
      ],
      [
        "like",
        -1.0
      ],
      [
        "Ġcolle",
        -1.0
      ],
      [
        "Ġdoctor",
        -1.0
      ],
      [
        "ĠNASA",
        -1.0
      ],
      [
        "Because",
        -1.0
      ],
      [
        "Ġbetter",
        -1.0
      ],
      [
        "Ġqui",
        -1.0
      ],
      [
        "ĠBr",
        -1.0
      ],
      [
        "Ġsometimes",
        -1.0
      ],
      [
        "Ġ16",
        -1.0
      ],
      [
        "nda",
        -1.0
      ],
      [
        "tive",
        -1.0
      ],
      [
        "ĠRepublic",
        -1.0
      ],
      [
        "eu",
        -1.0
      ],
      [
        "Ġshould",
        -1.0
      ],
      [
        "Ġapproach",
        -1.0
      ],
      [
        "Ġfu",
        -1.0
      ],
      [
        "ding",
        -1.0
      ],
      [
        "Ġmore",
        -1.0
      ],
      [
        "Ġcol",
        -1.0
      ],
      [
        "Ġevalu",
        -1.0
      ],
      [
        "Ġprocedure",
        -1.0
      ],
      [
        "st",
        -1.0
      ],
      [
        "Ġproject",
        -1.0
      ],
      [
        "lf",
        -1.0
      ],
      [
        "Ġappear",
        -1.0
      ],
      [
        "ĠIs",
        -1.0
      ],
      [
        "Ġsymbol",
        -1.0
      ],
      [
        "ch",
        -1.0
      ],
      [
        "Ġpiece",
        -1.0
      ],
      [
        "Ġsecond",
        -1.0
      ],
      [
        "Ġfall",
        -1.0
      ],
      [
        "ĠCo",
        -1.0
      ],
      [
        "ka",
        -1.0
      ],
      [
        "Ġresearchers",
        -1.0
      ],
      [
        "ĠPri",
        -1.0
      ],
      [
        "Ġgra",
        -1.0
      ],
      [
        "Ġbuilt",
        -1.0
      ],
      [
        "Ġ'",
        -1.0
      ],
      [
        "4",
        -1.0
      ],
      [
        "ea",
        -1.0
      ],
      [
        "Ġchurch",
        -1.0
      ],
      [
        "į",
        -1.0
      ],
      [
        "Ġqu",
        -1.0
      ],
      [
        "j",
        -1.0
      ],
      [
        "Ġimplement",
        -1.0
      ],
      [
        "Ġdevelopment",
        -1.0
      ],
      [
        ".)",
        -1.0
      ],
      [
        "9",
        -1.0
      ],
      [
        "ally",
        -1.0
      ],
      [
        "¢",
        -1.0
      ],
      [
        "ship",
        -1.0
      ],
      [
        "Ġearly",
        -1.0
      ],
      [
        "Ġdoub",
        -1.0
      ],
      [
        "Ġmet",
        -1.0
      ],
      [
        "il",
        -1.0
      ],
      [
        "Ġrather",
        -1.0
      ],
      [
        "Ġcourse",
        -1.0
      ],
      [
        "Ġproblems",
        -1.0
      ],
      [
        "Ġsa",
        -1.0
      ],
      [
        "Ġtissue",
        -1.0
      ],
      [
        "org",
        -1.0
      ],
      [
        ",\"",
        -1.0
      ],
      [
        "±",
        -1.0
      ],
      [
        "Ġplay",
        -1.0
      ],
      [
        "eb",
        -1.0
      ],
      [
        "Ī",
        -1.0
      ],
      [
        "Ġprincip",
        -1.0
      ],
      [
        "Ġcare",
        -1.0
      ],
      [
        "Ġsea",
        -1.0
      ],
      [
        "Ġsens",
        -1.0
      ],
      [
        "Ġlikely",
        -1.0
      ],
      [
        "wa",
        -1.0
      ],
      [
        "b",
        -1.0
      ],
      [
        "Ġidea",
        -1.0
      ],
      [
        "Ġci",
        -1.0
      ],
      [
        "If",
        -1.0
      ],
      [
        "14",
        -1.0
      ],
      [
        "ish",
        -1.0
      ],
      [
        "ness",
        -1.0
      ],
      [
        "Ġconcentr",
        -1.0
      ],
      [
        "rect",
        -1.0
      ],
      [
        "Ġdeci",
        -1.0
      ],
      [
        "Ġ20",
        -1.0
      ],
      [
        "stitution",
        -1.0
      ],
      [
        "Ġfundamental",
        -1.0
      ],
      [
        "ood",
        -1.0
      ],
      [
        "ĠWhen",
        -1.0
      ],
      [
        "eo",
        -1.0
      ],
      [
        "Ĳ",
        -1.0
      ],
      [
        "Ġsmall",
        -1.0
      ],
      [
        "âĢĶ",
        -1.0
      ],
      [
        "P",
        -1.0
      ],
      [
        "Ġwith",
        -1.0
      ],
      [
        "Ġperform",
        -1.0
      ],
      [
        "Ġhi",
        -1.0
      ],
      [
        "se",
        -1.0
      ],
      [
        "Ġachieve",
        -1.0
      ],
      [
        "«",
        -1.0
      ],
      [
        "Ġeffort",
        -1.0
      ],
      [
        "20",
        -1.0
      ],
      [
        "itive",
        -1.0
      ],
      [
        "ual",
        -1.0
      ],
      [
        "Ġ196",
        -1.0
      ],
      [
        "if",
        -1.0
      ],
      [
        "Ġeffects",
        -1.0
      ],
      [
        "Ġcent",
        -1.0
      ],
      [
        "du",
        -1.0
      ],
      [
        "www",
        -1.0
      ],
      [
        "Ġpres",
        -1.0
      ],
      [
        "ur",
        -1.0
      ],
      [
        "scape",
        -1.0
      ],
      [
        "How",
        -1.0
      ],
      [
        "Ļ",
        -1.0
      ],
      [
        "Ġit",
        -1.0
      ],
      [
        "Ġde",
        -1.0
      ],
      [
        "ĠAr",
        -1.0
      ],
      [
        "Ġeasily",
        -1.0
      ],
      [
        "ĠSouth",
        -1.0
      ],
      [
        "l",
        -1.0
      ],
      [
        "Ġ",
        -1.0
      ],
      [
        "Ċ",
        -1.0
      ],
      [
        "Ġj",
        -1.0
      ],
      [
        "Ġlate",
        -1.0
      ],
      [
        "out",
        -1.0
      ],
      [
        "Ġeffective",
        -1.0
      ],
      [
        "Ġsignificant",
        -1.0
      ],
      [
        "ye",
        -1.0
      ],
      [
        "According",
        -1.0
      ],
      [
        "sych",
        -1.0
      ],
      [
        "ean",
        -1.0
      ],
      [
        "ba",
        -1.0
      ],
      [
        "Ġthan",
        -1.0
      ],
      [
        "Ġmany",
        -1.0
      ],
      [
        "ĠGerman",
        -1.0
      ],
      [
        "Ġdid",
        -1.0
      ],
      [
        "ga",
        -1.0
      ],
      [
        "ca",
        -1.0
      ],
      [
        "Ġreport",
        -1.0
      ],
      [
        "Ġarea",
        -1.0
      ],
      [
        "other",
        -1.0
      ],
      [
        "ĠFa",
        -1.0
      ],
      [
        "Ġconcern",
        -1.0
      ],
      [
        "ism",
        -1.0
      ],
      [
        "com",
        -1.0
      ],
      [
        "Ġthese",
        -1.0
      ],
      [
        "ity",
        -1.0
      ],
      [
        "Ģ",
        -1.0
      ],
      [
        "ld",
        -1.0
      ],
      [
        "acy",
        -1.0
      ],
      [
        "Ġcertain",
        -1.0
      ],
      [
        "ended",
        -1.0
      ],
      [
        "ov",
        -1.0
      ],
      [
        "Ġposition",
        -1.0
      ],
      [
        "ĠMe",
        -1.0
      ],
      [
        "able",
        -1.0
      ],
      [
        "Ġme",
        -1.0
      ],
      [
        "Ġnot",
        -1.0
      ],
      [
        "ĠAustralia",
        -1.0
      ],
      [
        "Ġacross",
        -1.0
      ],
      [
        "Ġprogram",
        -1.0
      ],
      [
        "ru",
        -1.0
      ],
      [
        "bl",
        -1.0
      ],
      [
        "Ġsaid",
        -1.0
      ],
      [
        "Ġhigher",
        -1.0
      ],
      [
        "Ľ",
        -1.0
      ],
      [
        "Ġeconomic",
        -1.0
      ],
      [
        "=",
        -1.0
      ],
      [
        "ĠWhat",
        -1.0
      ],
      [
        "east",
        -1.0
      ],
      [
        "Although",
        -1.0
      ],
      [
        "There",
        -1.0
      ],
      [
        "is",
        -1.0
      ],
      [
        "ger",
        -1.0
      ],
      [
        "âĢĵ",
        -1.0
      ],
      [
        "ability",
        -1.0
      ],
      [
        "one",
        -1.0
      ],
      [
        "ĭ",
        -1.0
      ],
      [
        "ĠCongress",
        -1.0
      ],
      [
        "Ġdirect",
        -1.0
      ],
      [
        "Ġl",
        -1.0
      ],
      [
        "Ġprocess",
        -1.0
      ],
      [
        "Ġcalled",
        -1.0
      ],
      [
        "It",
        -1.0
      ],
      [
        "Ġneuro",
        -1.0
      ],
      [
        "Ġcap",
        -1.0
      ],
      [
        "cycl",
        -1.0
      ],
      [
        "Ġwhy",
        -1.0
      ],
      [
        "ob",
        -1.0
      ],
      [
        "eck",
        -1.0
      ],
      [
        "ĠO",
        -1.0
      ],
      [
        "Ġhealth",
        -1.0
      ],
      [
        "âĢľ",
        -1.0
      ],
      [
        "ore",
        -1.0
      ],
      [
        "Ġpaper",
        -1.0
      ],
      [
        "Ġsw",
        -1.0
      ],
      [
        "Ġcommunity",
        -1.0
      ],
      [
        "Ġwords",
        -1.0
      ],
      [
        "Ġprivate",
        -1.0
      ],
      [
        "Ġhospital",
        -1.0
      ],
      [
        "Ġalmost",
        -1.0
      ],
      [
        "Ġimportant",
        -1.0
      ],
      [
        "Ġquickly",
        -1.0
      ],
      [
        "}",
        -1.0
      ],
      [
        "Ġexplo",
        -1.0
      ],
      [
        "Ġtotal",
        -1.0
      ],
      [
        "Ġdemand",
        -1.0
      ],
      [
        "Y",
        -1.0
      ],
      [
        "itude",
        -1.0
      ],
      [
        "Ġtogether",
        -1.0
      ],
      [
        "Ġstudents",
        -1.0
      ],
      [
        "Ġobserv",
        -1.0
      ],
      [
        "as",
        -1.0
      ],
      [
        "ĠWi",
        -1.0
      ],
      [
        "Ġresources",
        -1.0
      ],
      [
        "ĠHealth",
        -1.0
      ],
      [
        "Ġblock",
        -1.0
      ],
      [
        "Ġf",
        -1.0
      ],
      [
        "Ġreason",
        -1.0
      ],
      [
        "Ġassociated",
        -1.0
      ],
      [
        "Ġinvest",
        -1.0
      ],
      [
        "graph",
        -1.0
      ],
      [
        "Ġdown",
        -1.0
      ],
      [
        "rk",
        -1.0
      ],
      [
        "for",
        -1.0
      ],
      [
        "Ġreduce",
        -1.0
      ],
      [
        "Ġrecommend",
        -1.0
      ],
      [
        "Ġmark",
        -1.0
      ],
      [
        "Ġreal",
        -1.0
      ],
      [
        "Ġair",
        -1.0
      ],
      [
        "Ġli",
        -1.0
      ],
      [
        "Ġbr",
        -1.0
      ],
      [
        "ars",
        -1.0
      ],
      [
        "ress",
        -1.0
      ],
      [
        "Ġwhile",
        -1.0
      ],
      [
        "pped",
        -1.0
      ],
      [
        "Õ",
        -1.0
      ],
      [
        "ural",
        -1.0
      ],
      [
        "ĠJu",
        -1.0
      ],
      [
        "í",
        -1.0
      ],
      [
        "ene",
        -1.0
      ],
      [
        "Ġva",
        -1.0
      ],
      [
        "Ġfemale",
        -1.0
      ],
      [
        "ug",
        -1.0
      ],
      [
        "ti",
        -1.0
      ],
      [
        "Ġcountries",
        -1.0
      ],
      [
        "any",
        -1.0
      ],
      [
        "ex",
        -1.0
      ],
      [
        "Ġperhaps",
        -1.0
      ],
      [
        "tent",
        -1.0
      ],
      [
        "´",
        -1.0
      ],
      [
        "Ġst",
        -1.0
      ],
      [
        "Ġal",
        -1.0
      ],
      [
        "ĠV",
        -1.0
      ],
      [
        "ra",
        -1.0
      ],
      [
        "Ġcurrent",
        -1.0
      ],
      [
        "Ġalong",
        -1.0
      ],
      [
        "J",
        -1.0
      ],
      [
        "Ġwork",
        -1.0
      ],
      [
        "tant",
        -1.0
      ],
      [
        "Ġinte",
        -1.0
      ],
      [
        "ult",
        -1.0
      ],
      [
        "Ç",
        -1.0
      ],
      [
        "Ġcould",
        -1.0
      ],
      [
        "ending",
        -1.0
      ],
      [
        "Ġconsu",
        -1.0
      ],
      [
        "Ġconfi",
        -1.0
      ],
      [
        "ere",
        -1.0
      ],
      [
        "rty",
        -1.0
      ],
      [
        "),",
        -1.0
      ],
      [
        "50",
        -1.0
      ],
      [
        "up",
        -1.0
      ],
      [
        "Ġpossible",
        -1.0
      ],
      [
        "na",
        -1.0
      ],
      [
        "Ŀ",
        -1.0
      ],
      [
        "ĠSeptember",
        -1.0
      ],
      [
        "M",
        -1.0
      ],
      [
        "Ġre",
        -1.0
      ],
      [
        "ĠWorld",
        -1.0
      ],
      [
        "Ġthem",
        -1.0
      ],
      [
        "Ġschool",
        -1.0
      ],
      [
        "ash",
        -1.0
      ],
      [
        "Ġau",
        -1.0
      ],
      [
        "Ġadvance",
        -1.0
      ],
      [
        "Ġown",
        -1.0
      ],
      [
        "ium",
        -1.0
      ],
      [
        "Ġki",
        -1.0
      ],
      [
        "Ġwill",
        -1.0
      ],
      [
        "ľ",
        -1.0
      ],
      [
        "posed",
        -1.0
      ],
      [
        "Ġhappen",
        -1.0
      ],
      [
        "Ġeffect",
        -1.0
      ],
      [
        "ĠIndia",
        -1.0
      ],
      [
        "Ġcountry",
        -1.0
      ],
      [
        "Ġann",
        -1.0
      ],
      [
        "Ġradi",
        -1.0
      ],
      [
        "Ġcom",
        -1.0
      ],
      [
        "que",
        -1.0
      ],
      [
        "day",
        -1.0
      ],
      [
        "Ġactually",
        -1.0
      ],
      [
        "rous",
        -1.0
      ],
      [
        "Ġyears",
        -1.0
      ],
      [
        "Ġhundred",
        -1.0
      ],
      [
        "Ġmil",
        -1.0
      ],
      [
        "ĠAfrica",
        -1.0
      ],
      [
        "c",
        -1.0
      ],
      [
        "ically",
        -1.0
      ],
      [
        "Ġvarious",
        -1.0
      ],
      [
        "ind",
        -1.0
      ],
      [
        "Ġsociety",
        -1.0
      ],
      [
        "met",
        -1.0
      ],
      [
        "Ġdata",
        -1.0
      ],
      [
        "rop",
        -1.0
      ],
      [
        "While",
        -1.0
      ],
      [
        "et",
        -1.0
      ],
      [
        "lic",
        -1.0
      ],
      [
        "Ġtra",
        -1.0
      ],
      [
        "bi",
        -1.0
      ],
      [
        "pr",
        -1.0
      ],
      [
        "Ġstill",
        -1.0
      ],
      [
        "Ġarch",
        -1.0
      ],
      [
        "<",
        -1.0
      ],
      [
        "Ġpe",
        -1.0
      ],
      [
        "Ġresult",
        -1.0
      ],
      [
        "Ġlocal",
        -1.0
      ],
      [
        "Ġgive",
        -1.0
      ],
      [
        "Ġ4",
        -1.0
      ],
      [
        "ĥ",
        -1.0
      ],
      [
        "Ġscience",
        -1.0
      ],
      [
        "dministr",
        -1.0
      ],
      [
        "dia",
        -1.0
      ],
      [
        "Ġresearch",
        -1.0
      ],
      [
        "ĠFirst",
        -1.0
      ],
      [
        "Ġchallenge",
        -1.0
      ],
      [
        "es",
        -1.0
      ],
      [
        "Ġ7",
        -1.0
      ],
      [
        "Ġspecial",
        -1.0
      ],
      [
        "ferred",
        -1.0
      ],
      [
        "Ġthey",
        -1.0
      ],
      [
        "ational",
        -1.0
      ],
      [
        "ĠMassachusetts",
        -1.0
      ],
      [
        "Â",
        -1.0
      ],
      [
        "H",
        -1.0
      ],
      [
        "Ġpsycho",
        -1.0
      ],
      [
        "Ġthemselves",
        -1.0
      ],
      [
        "Ġtherefore",
        -1.0
      ],
      [
        "mon",
        -1.0
      ],
      [
        "¸",
        -1.0
      ],
      [
        "ry",
        -1.0
      ],
      [
        "Ġbut",
        -1.0
      ],
      [
        "Ġtw",
        -1.0
      ],
      [
        "Ġforce",
        -1.0
      ],
      [
        "Ġconc",
        -1.0
      ],
      [
        "Ġsl",
        -1.0
      ],
      [
        "eet",
        -1.0
      ],
      [
        "work",
        -1.0
      ],
      [
        "Ġlegislat",
        -1.0
      ],
      [
        "Ġbo",
        -1.0
      ],
      [
        "ĠAll",
        -1.0
      ],
      [
        "Ġdamage",
        -1.0
      ],
      [
        "ges",
        -1.0
      ],
      [
        "Ġcases",
        -1.0
      ],
      [
        "ional",
        -1.0
      ],
      [
        "ĠPe",
        -1.0
      ],
      [
        "est",
        -1.0
      ],
      [
        "ĠThat",
        -1.0
      ],
      [
        "d",
        -1.0
      ],
      [
        "Ġfollow",
        -1.0
      ],
      [
        "Ġdegree",
        -1.0
      ],
      [
        "land",
        -1.0
      ],
      [
        "cing",
        -1.0
      ],
      [
        "Z",
        -1.0
      ],
      [
        "lo",
        -1.0
      ],
      [
        "Ġh",
        -1.0
      ],
      [
        "Ġinclude",
        -1.0
      ],
      [
        "ls",
        -1.0
      ],
      [
        "Ġoffer",
        -1.0
      ],
      [
        "lies",
        -1.0
      ],
      [
        "5",
        -1.0
      ],
      [
        "ct",
        -1.0
      ],
      [
        "all",
        -1.0
      ],
      [
        "ouse",
        -1.0
      ],
      [
        "ĠCenter",
        -1.0
      ],
      [
        "ir",
        -1.0
      ],
      [
        "ĠIn",
        -1.0
      ],
      [
        "Ġprom",
        -1.0
      ],
      [
        "ĠIsrael",
        -1.0
      ],
      [
        "Ġsingle",
        -1.0
      ],
      [
        "Ġits",
        -1.0
      ],
      [
        "Ġmedic",
        -1.0
      ],
      [
        "ther",
        -1.0
      ],
      [
        "igh",
        -1.0
      ],
      [
        "Ġleast",
        -1.0
      ],
      [
        "Ġunder",
        -1.0
      ],
      [
        "Ġnational",
        -1.0
      ],
      [
        "ori",
        -1.0
      ],
      [
        "ification",
        -1.0
      ],
      [
        "ĠVirginia",
        -1.0
      ],
      [
        "Ġmaintain",
        -1.0
      ],
      [
        "Ġserv",
        -1.0
      ],
      [
        "Ġbeen",
        -1.0
      ],
      [
        "ke",
        -1.0
      ],
      [
        "roduc",
        -1.0
      ],
      [
        "Ġpoli",
        -1.0
      ],
      [
        "Ġclaim",
        -1.0
      ],
      [
        "Ġenough",
        -1.0
      ],
      [
        "Ġhas",
        -1.0
      ],
      [
        "ĠMay",
        -1.0
      ],
      [
        "shed",
        -1.0
      ],
      [
        "ility",
        -1.0
      ],
      [
        "Ġcan",
        -1.0
      ],
      [
        "Ġconditions",
        -1.0
      ],
      [
        "ĠI",
        -1.0
      ],
      [
        "Ġ--",
        -1.0
      ],
      [
        "Ø",
        -1.0
      ],
      [
        "br",
        -1.0
      ],
      [
        "iet",
        -1.0
      ],
      [
        "Ġmicro",
        -1.0
      ],
      [
        "+",
        -1.0
      ],
      [
        "Ġenergy",
        -1.0
      ],
      [
        "og",
        -1.0
      ],
      [
        "iv",
        -1.0
      ],
      [
        "nter",
        -1.0
      ],
      [
        "Ġmeet",
        -1.0
      ],
      [
        "Ġtradition",
        -1.0
      ],
      [
        "Ġensure",
        -1.0
      ],
      [
        "Ġmade",
        -1.0
      ],
      [
        "Ġmove",
        -1.0
      ],
      [
        "Ġpara",
        -1.0
      ],
      [
        ":",
        -1.0
      ],
      [
        "Ġare",
        -1.0
      ],
      [
        "z",
        -1.0
      ],
      [
        "Ġsqu",
        -1.0
      ],
      [
        "[MASK]",
        -1.0
      ],
      [
        "Ĭ",
        -1.0
      ],
      [
        "Ġcontrol",
        -1.0
      ],
      [
        "Ġtrans",
        -1.0
      ],
      [
        "Ġass",
        -1.0
      ],
      [
        "Ġsp",
        -1.0
      ],
      [
        "ren",
        -1.0
      ],
      [
        "ope",
        -1.0
      ],
      [
        "Ġaccount",
        -1.0
      ],
      [
        "Ġaround",
        -1.0
      ],
      [
        "Ġpast",
        -1.0
      ],
      [
        "ree",
        -1.0
      ],
      [
        "ua",
        -1.0
      ],
      [
        "Ġno",
        -1.0
      ],
      [
        "Ġle",
        -1.0
      ],
      [
        "Ó",
        -1.0
      ],
      [
        "ķ",
        -1.0
      ],
      [
        "Ġ.",
        -1.0
      ],
      [
        "ows",
        -1.0
      ],
      [
        "Ġencourage",
        -1.0
      ],
      [
        "inal",
        -1.0
      ],
      [
        "Ġne",
        -1.0
      ],
      [
        "Ġbir",
        -1.0
      ],
      [
        "g",
        -1.0
      ],
      [
        "Ġstudy",
        -1.0
      ],
      [
        "Ġdays",
        -1.0
      ],
      [
        "ĠJuly",
        -1.0
      ],
      [
        "Ġta",
        -1.0
      ],
      [
        "Ġhe",
        -1.0
      ],
      [
        "ĠCom",
        -1.0
      ],
      [
        "Ġpotential",
        -1.0
      ],
      [
        "Ġincluding",
        -1.0
      ],
      [
        "Ġweek",
        -1.0
      ],
      [
        "very",
        -1.0
      ],
      [
        "sic",
        -1.0
      ],
      [
        "Ġoften",
        -1.0
      ],
      [
        "ush",
        -1.0
      ],
      [
        "Ġmethod",
        -1.0
      ],
      [
        "ĠInstitute",
        -1.0
      ],
      [
        "Ġthr",
        -1.0
      ],
      [
        "Ġmeasure",
        -1.0
      ],
      [
        "Ġcolo",
        -1.0
      ],
      [
        "Ġsince",
        -1.0
      ],
      [
        "li",
        -1.0
      ],
      [
        "Ġro",
        -1.0
      ],
      [
        "Ġyoung",
        -1.0
      ],
      [
        "arly",
        -1.0
      ],
      [
        "ĠSp",
        -1.0
      ],
      [
        "&",
        -1.0
      ],
      [
        "Ł",
        -1.0
      ],
      [
        "ield",
        -1.0
      ],
      [
        "arch",
        -1.0
      ],
      [
        "rri",
        -1.0
      ],
      [
        "*",
        -1.0
      ],
      [
        "Ġworld",
        -1.0
      ],
      [
        "Ġboth",
        -1.0
      ],
      [
        "Ġalways",
        -1.0
      ],
      [
        "Ġyour",
        -1.0
      ],
      [
        "sis",
        -1.0
      ],
      [
        "Ġchange",
        -1.0
      ],
      [
        "[CLS]",
        -1.0
      ],
      [
        "X",
        -1.0
      ],
      [
        "Ġout",
        -1.0
      ],
      [
        "Ġtoo",
        -1.0
      ],
      [
        "Ġattention",
        -1.0
      ],
      [
        "comp",
        -1.0
      ],
      [
        "Ġuntil",
        -1.0
      ],
      [
        "º",
        -1.0
      ],
      [
        "Ġce",
        -1.0
      ],
      [
        "Ġflu",
        -1.0
      ],
      [
        ";",
        -1.0
      ],
      [
        "tial",
        -1.0
      ],
      [
        "Ġjust",
        -1.0
      ],
      [
        "ĠFor",
        -1.0
      ],
      [
        "Ġproduce",
        -1.0
      ],
      [
        "ized",
        -1.0
      ],
      [
        "Ġco",
        -1.0
      ],
      [
        "Ġtheir",
        -1.0
      ],
      [
        "Ĺ",
        -1.0
      ],
      [
        "gl",
        -1.0
      ],
      [
        "ining",
        -1.0
      ],
      [
        "Ġtreatment",
        -1.0
      ],
      [
        "Ġhere",
        -1.0
      ],
      [
        "ify",
        -1.0
      ],
      [
        "Ġaddress",
        -1.0
      ],
      [
        "Ġthought",
        -1.0
      ],
      [
        "E",
        -1.0
      ],
      [
        "Ġfuture",
        -1.0
      ],
      [
        "Ġscientists",
        -1.0
      ],
      [
        "Ġlimit",
        -1.0
      ],
      [
        "ĠGr",
        -1.0
      ],
      [
        "Ġreach",
        -1.0
      ],
      [
        "Ġbetween",
        -1.0
      ],
      [
        "rd",
        -1.0
      ],
      [
        "Ġagricultur",
        -1.0
      ],
      [
        "Ġmay",
        -1.0
      ],
      [
        "its",
        -1.0
      ],
      [
        "mn",
        -1.0
      ],
      [
        "u",
        -1.0
      ],
      [
        "Ġper",
        -1.0
      ],
      [
        "my",
        -1.0
      ],
      [
        "hr",
        -1.0
      ],
      [
        "Ġan",
        -1.0
      ],
      [
        "Ġecosystem",
        -1.0
      ],
      [
        "ĠFe",
        -1.0
      ],
      [
        "ĠOn",
        -1.0
      ],
      [
        "Ġwho",
        -1.0
      ],
      [
        "Ġstrateg",
        -1.0
      ],
      [
        "Ġmaterial",
        -1.0
      ],
      [
        "Ġabout",
        -1.0
      ],
      [
        "ĠCha",
        -1.0
      ],
      [
        "mm",
        -1.0
      ],
      [
        "ĠX",
        -1.0
      ],
      [
        "ous",
        -1.0
      ],
      [
        "Ĥ",
        -1.0
      ],
      [
        "be",
        -1.0
      ],
      [
        "On",
        -1.0
      ],
      [
        "Ġfollowing",
        -1.0
      ],
      [
        "ĠBa",
        -1.0
      ],
      [
        "Ġorigin",
        -1.0
      ],
      [
        "Ġeas",
        -1.0
      ],
      [
        "lit",
        -1.0
      ],
      [
        "Ġtypical",
        -1.0
      ],
      [
        "-",
        -1.0
      ],
      [
        "Ġarchitect",
        -1.0
      ],
      [
        "Se",
        -1.0
      ],
      [
        "ative",
        -1.0
      ],
      [
        "Ġ30",
        -1.0
      ],
      [
        "it",
        -1.0
      ],
      [
        "Ġbrain",
        -1.0
      ],
      [
        "Ġopportun",
        -1.0
      ],
      [
        "man",
        -1.0
      ],
      [
        "min",
        -1.0
      ],
      [
        "Ġspace",
        -1.0
      ],
      [
        "Ġpolicy",
        -1.0
      ],
      [
        "Ġany",
        -1.0
      ],
      [
        "ence",
        -1.0
      ],
      [
        "Ġamong",
        -1.0
      ],
      [
        "Ġchemical",
        -1.0
      ],
      [
        "ibility",
        -1.0
      ],
      [
        "Ġspe",
        -1.0
      ],
      [
        "bly",
        -1.0
      ],
      [
        "Ġtake",
        -1.0
      ],
      [
        "Ġinvestiga",
        -1.0
      ],
      [
        "®",
        -1.0
      ],
      [
        "Ġtaken",
        -1.0
      ],
      [
        "ace",
        -1.0
      ],
      [
        "Ġcomponent",
        -1.0
      ],
      [
        "tic",
        -1.0
      ],
      [
        "Ġra",
        -1.0
      ],
      [
        "_",
        -1.0
      ],
      [
        "Ġga",
        -1.0
      ],
      [
        "Ġmain",
        -1.0
      ],
      [
        "Ġcar",
        -1.0
      ],
      [
        "Ġu",
        -1.0
      ],
      [
        "30",
        -1.0
      ],
      [
        "ĺ",
        -1.0
      ],
      [
        "age",
        -1.0
      ],
      [
        "Ġatmospher",
        -1.0
      ],
      [
        "ª",
        -1.0
      ],
      [
        "ĠInternational",
        -1.0
      ],
      [
        "Ġrec",
        -1.0
      ],
      [
        "ĠSchool",
        -1.0
      ],
      [
        "ĠAmerica",
        -1.0
      ],
      [
        "B",
        -1.0
      ],
      [
        "ach",
        -1.0
      ],
      [
        "Th",
        -1.0
      ],
      [
        "ĠDavid",
        -1.0
      ],
      [
        "Ġsubject",
        -1.0
      ],
      [
        "Ġsuccess",
        -1.0
      ],
      [
        "our",
        -1.0
      ],
      [
        "¿",
        -1.0
      ],
      [
        "ments",
        -1.0
      ],
      [
        "Q",
        -1.0
      ],
      [
        "Ġdet",
        -1.0
      ],
      [
        "ĠR",
        -1.0
      ],
      [
        "F",
        -1.0
      ],
      [
        "ui",
        -1.0
      ],
      [
        "ption",
        -1.0
      ],
      [
        "G",
        -1.0
      ],
      [
        "line",
        -1.0
      ],
      [
        "Ġtype",
        -1.0
      ],
      [
        "Ġafter",
        -1.0
      ],
      [
        "q",
        -1.0
      ],
      [
        "ox",
        -1.0
      ],
      [
        "Ġsun",
        -1.0
      ],
      [
        "ange",
        -1.0
      ],
      [
        "atic",
        -1.0
      ],
      [
        "know",
        -1.0
      ],
      [
        "Ġur",
        -1.0
      ],
      [
        "parent",
        -1.0
      ],
      [
        "ak",
        -1.0
      ],
      [
        "ĠCatholic",
        -1.0
      ],
      [
        "Ġthousand",
        -1.0
      ],
      [
        "Ġsto",
        -1.0
      ],
      [
        "Ġstandard",
        -1.0
      ],
      [
        "Ġfil",
        -1.0
      ],
      [
        "mic",
        -1.0
      ],
      [
        "ĠD",
        -1.0
      ],
      [
        "rated",
        -1.0
      ],
      [
        "?",
        -1.0
      ],
      [
        "Ġri",
        -1.0
      ],
      [
        "sions",
        -1.0
      ],
      [
        "Ġeconomy",
        -1.0
      ],
      [
        "ã",
        -1.0
      ],
      [
        "ĠAfter",
        -1.0
      ],
      [
        "Ġhard",
        -1.0
      ],
      [
        "ĠWe",
        -1.0
      ],
      [
        "Ġhaving",
        -1.0
      ],
      [
        "ddle",
        -1.0
      ],
      [
        "oe",
        -1.0
      ],
      [
        "Ġanother",
        -1.0
      ],
      [
        "Ġextreme",
        -1.0
      ],
      [
        "Ġmajor",
        -1.0
      ],
      [
        "¨",
        -1.0
      ],
      [
        "Ġsee",
        -1.0
      ],
      [
        "Ġemerge",
        -1.0
      ],
      [
        "Ġreg",
        -1.0
      ],
      [
        "Ġviol",
        -1.0
      ],
      [
        "oad",
        -1.0
      ],
      [
        "ney",
        -1.0
      ],
      [
        "way",
        -1.0
      ],
      [
        "Ġput",
        -1.0
      ],
      [
        "ont",
        -1.0
      ],
      [
        "ĠBy",
        -1.0
      ],
      [
        "Ġpublic",
        -1.0
      ],
      [
        "ĠKa",
        -1.0
      ],
      [
        "Ġcompanies",
        -1.0
      ],
      [
        "ĠZ",
        -1.0
      ],
      [
        "ret",
        -1.0
      ],
      [
        "Ġcircu",
        -1.0
      ],
      [
        "Ġab",
        -1.0
      ],
      [
        "Ġelectr",
        -1.0
      ],
      [
        "Ġrespect",
        -1.0
      ],
      [
        "als",
        -1.0
      ],
      [
        "Ġshe",
        -1.0
      ],
      [
        "ject",
        -1.0
      ],
      [
        "á",
        -1.0
      ],
      [
        "Ġtalk",
        -1.0
      ],
      [
        "Ġsc",
        -1.0
      ],
      [
        "Ġlength",
        -1.0
      ],
      [
        "Ġlo",
        -1.0
      ],
      [
        "Ġhow",
        -1.0
      ],
      [
        "over",
        -1.0
      ],
      [
        "cks",
        -1.0
      ],
      [
        "ies",
        -1.0
      ],
      [
        "Ġfeel",
        -1.0
      ],
      [
        "ĠRa",
        -1.0
      ],
      [
        "ĠEnvironment",
        -1.0
      ],
      [
        "Ġexample",
        -1.0
      ],
      [
        "Ġeducation",
        -1.0
      ],
      [
        "[",
        -1.0
      ],
      [
        "Ġcha",
        -1.0
      ],
      [
        "âĢĿ",
        -1.0
      ],
      [
        "Ġmy",
        -1.0
      ],
      [
        "à",
        -1.0
      ],
      [
        "Ġthrough",
        -1.0
      ],
      [
        "¦",
        -1.0
      ],
      [
        "ĠPa",
        -1.0
      ],
      [
        "NA",
        -1.0
      ],
      [
        "Ġ17",
        -1.0
      ],
      [
        "Ġdifficult",
        -1.0
      ],
      [
        "Ġrun",
        -1.0
      ],
      [
        "Ġpolitical",
        -1.0
      ],
      [
        "Ġsize",
        -1.0
      ],
      [
        "ator",
        -1.0
      ],
      [
        "ĠIf",
        -1.0
      ],
      [
        "ĠThese",
        -1.0
      ],
      [
        "Ġbeing",
        -1.0
      ],
      [
        "pri",
        -1.0
      ],
      [
        "Ġseparate",
        -1.0
      ],
      [
        "ĠN",
        -1.0
      ],
      [
        "Ġ$",
        -1.0
      ],
      [
        "ist",
        -1.0
      ],
      [
        "ĠWith",
        -1.0
      ],
      [
        "Ġbeginning",
        -1.0
      ],
      [
        "Ġsur",
        -1.0
      ],
      [
        "Ġby",
        -1.0
      ],
      [
        "ĠEngland",
        -1.0
      ],
      [
        "Ġpercent",
        -1.0
      ],
      [
        "an",
        -1.0
      ],
      [
        "Ġperson",
        -1.0
      ],
      [
        "lc",
        -1.0
      ],
      [
        "ĠT",
        -1.0
      ],
      [
        "Ġcampaign",
        -1.0
      ],
      [
        "ĠAg",
        -1.0
      ],
      [
        "che",
        -1.0
      ],
      [
        "Ġflo",
        -1.0
      ],
      [
        "str",
        -1.0
      ],
      [
        "rts",
        -1.0
      ],
      [
        "\\",
        -1.0
      ],
      [
        "Ġsome",
        -1.0
      ],
      [
        "Ġentire",
        -1.0
      ],
      [
        "Ġhydro",
        -1.0
      ],
      [
        "Ġget",
        -1.0
      ],
      [
        "t",
        -1.0
      ],
      [
        "Ġproduction",
        -1.0
      ],
      [
        "Ġ15",
        -1.0
      ],
      [
        "let",
        -1.0
      ],
      [
        "Ġpower",
        -1.0
      ],
      [
        "Ġtop",
        -1.0
      ],
      [
        "Ġmultiple",
        -1.0
      ],
      [
        "Ġet",
        -1.0
      ],
      [
        "edi",
        -1.0
      ],
      [
        "ĠISBN",
        -1.0
      ],
      [
        "Ġemp",
        -1.0
      ],
      [
        "ities",
        -1.0
      ],
      [
        "É",
        -1.0
      ],
      [
        "ĠB",
        -1.0
      ],
      [
        "Ġof",
        -1.0
      ],
      [
        "Ġhad",
        -1.0
      ],
      [
        "...",
        -1.0
      ],
      [
        "round",
        -1.0
      ],
      [
        "Ġphoto",
        -1.0
      ],
      [
        "Ġsimply",
        -1.0
      ],
      [
        "Ġbacteria",
        -1.0
      ],
      [
        "Ġmean",
        -1.0
      ],
      [
        "Ġwater",
        -1.0
      ],
      [
        "Ġdestroy",
        -1.0
      ],
      [
        "¾",
        -1.0
      ],
      [
        "ith",
        -1.0
      ],
      [
        "Ġour",
        -1.0
      ],
      [
        "ĠE",
        -1.0
      ],
      [
        "Ġright",
        -1.0
      ],
      [
        "Ġcomputer",
        -1.0
      ],
      [
        "Ġmedical",
        -1.0
      ],
      [
        "sm",
        -1.0
      ],
      [
        "x",
        -1.0
      ],
      [
        "uth",
        -1.0
      ],
      [
        "½",
        -1.0
      ],
      [
        "ĠWilliam",
        -1.0
      ],
      [
        "Ġequipment",
        -1.0
      ],
      [
        "Ġallow",
        -1.0
      ],
      [
        "ient",
        -1.0
      ],
      [
        "ĠCl",
        -1.0
      ],
      [
        "low",
        -1.0
      ],
      [
        "ater",
        -1.0
      ],
      [
        "Ġgroups",
        -1.0
      ],
      [
        "15",
        -1.0
      ],
      [
        "Ġnew",
        -1.0
      ],
      [
        "sti",
        -1.0
      ],
      [
        "ites",
        -1.0
      ],
      [
        "Ĵ",
        -1.0
      ],
      [
        "An",
        -1.0
      ],
      [
        "Ġevidence",
        -1.0
      ],
      [
        "Ġrelease",
        -1.0
      ],
      [
        "sible",
        -1.0
      ],
      [
        "ĠâĢĵ",
        -1.0
      ],
      [
        "://",
        -1.0
      ],
      [
        "ath",
        -1.0
      ],
      [
        "ĠMar",
        -1.0
      ],
      [
        "ut",
        -1.0
      ],
      [
        "ĠNational",
        -1.0
      ],
      [
        "Ġdeath",
        -1.0
      ],
      [
        "lm",
        -1.0
      ],
      [
        "ĠSa",
        -1.0
      ],
      [
        "Ġ10",
        -1.0
      ],
      [
        "ired",
        -1.0
      ],
      [
        "Ġdescribe",
        -1.0
      ],
      [
        "ble",
        -1.0
      ],
      [
        "13",
        -1.0
      ],
      [
        "Ġregion",
        -1.0
      ],
      [
        "Ġand",
        -1.0
      ],
      [
        "Ġservice",
        -1.0
      ],
      [
        "Ġmembers",
        -1.0
      ],
      [
        "Ġprote",
        -1.0
      ],
      [
        "ì",
        -1.0
      ],
      [
        "Ġaverage",
        -1.0
      ],
      [
        "ĠState",
        -1.0
      ],
      [
        "Ġavoid",
        -1.0
      ],
      [
        "Ġpoint",
        -1.0
      ],
      [
        "enti",
        -1.0
      ],
      [
        "ook",
        -1.0
      ],
      [
        "ty",
        -1.0
      ],
      [
        "Ġmemory",
        -1.0
      ],
      [
        "Ġel",
        -1.0
      ],
      [
        "Ġd",
        -1.0
      ],
      [
        "Ġec",
        -1.0
      ],
      [
        "ove",
        -1.0
      ],
      [
        "r",
        -1.0
      ],
      [
        "Ġhis",
        -1.0
      ],
      [
        "Ġinitia",
        -1.0
      ],
      [
        "Ġdon",
        -1.0
      ],
      [
        "the",
        -1.0
      ],
      [
        "Ġaccording",
        -1.0
      ],
      [
        "Ġdiagnos",
        -1.0
      ],
      [
        "Ġcommercial",
        -1.0
      ],
      [
        "re",
        -1.0
      ],
      [
        "Ġseven",
        -1.0
      ],
      [
        "Ġinformation",
        -1.0
      ],
      [
        "ĠL",
        -1.0
      ],
      [
        "ĠBo",
        -1.0
      ],
      [
        "Ġname",
        -1.0
      ],
      [
        "Ġinterest",
        -1.0
      ],
      [
        "Ġbillion",
        -1.0
      ],
      [
        "nks",
        -1.0
      ],
      [
        "Ġbenefit",
        -1.0
      ],
      [
        "Ġduring",
        -1.0
      ],
      [
        "ban",
        -1.0
      ],
      [
        "ublic",
        -1.0
      ],
      [
        "Ġsays",
        -1.0
      ],
      [
        "Ġtechnology",
        -1.0
      ],
      [
        "Ġsystem",
        -1.0
      ],
      [
        "Ġcommon",
        -1.0
      ],
      [
        "Ġcost",
        -1.0
      ],
      [
        "ian",
        -1.0
      ],
      [
        "Ġ1",
        -1.0
      ],
      [
        "ĠMu",
        -1.0
      ],
      [
        "Ġopportuni",
        -1.0
      ],
      [
        "ĠJanuary",
        -1.0
      ],
      [
        "Ġill",
        -1.0
      ],
      [
        "ĠChrist",
        -1.0
      ],
      [
        "Ġmeans",
        -1.0
      ],
      [
        "Ġground",
        -1.0
      ],
      [
        "ĠAs",
        -1.0
      ],
      [
        "Ġsupp",
        -1.0
      ],
      [
        "struct",
        -1.0
      ],
      [
        "Ġrate",
        -1.0
      ],
      [
        "Ġlevel",
        -1.0
      ],
      [
        "Ń",
        -1.0
      ],
      [
        "wn",
        -1.0
      ],
      [
        "corpor",
        -1.0
      ],
      [
        "Ġgrow",
        -1.0
      ],
      [
        "ç",
        -1.0
      ],
      [
        "Ġearth",
        -1.0
      ],
      [
        "Ġclo",
        -1.0
      ],
      [
        "Ġmillion",
        -1.0
      ],
      [
        "[EOS]",
        -1.0
      ],
      [
        "Ġintrodu",
        -1.0
      ],
      [
        "Ġlater",
        -1.0
      ],
      [
        "gn",
        -1.0
      ],
      [
        "Ġmanagement",
        -1.0
      ],
      [
        "Ġexperiment",
        -1.0
      ],
      [
        "at",
        -1.0
      ],
      [
        "Ġcoun",
        -1.0
      ],
      [
        "gin",
        -1.0
      ],
      [
        "oke",
        -1.0
      ],
      [
        "ħ",
        -1.0
      ],
      [
        "ĠJ",
        -1.0
      ],
      [
        "ever",
        -1.0
      ],
      [
        "nti",
        -1.0
      ],
      [
        "gr",
        -1.0
      ],
      [
        "Ġbecause",
        -1.0
      ],
      [
        "Ġtime",
        -1.0
      ],
      [
        "ro",
        -1.0
      ],
      [
        "rn",
        -1.0
      ],
      [
        "lement",
        -1.0
      ],
      [
        "ĠF",
        -1.0
      ],
      [
        "1",
        -1.0
      ],
      [
        "no",
        -1.0
      ],
      [
        "Ġfla",
        -1.0
      ],
      [
        "eth",
        -1.0
      ],
      [
        "Ġaware",
        -1.0
      ],
      [
        "Ġcomplete",
        -1.0
      ],
      [
        "ĠCanad",
        -1.0
      ],
      [
        "des",
        -1.0
      ],
      [
        "Ġ18",
        -1.0
      ],
      [
        "ĠWa",
        -1.0
      ],
      [
        "ws",
        -1.0
      ],
      [
        "Ġres",
        -1.0
      ],
      [
        "nc",
        -1.0
      ],
      [
        "Ġcomm",
        -1.0
      ],
      [
        "itor",
        -1.0
      ],
      [
        "ð",
        -1.0
      ],
      [
        "ita",
        -1.0
      ],
      [
        "âĢ",
        -1.0
      ],
      [
        "ĠSi",
        -1.0
      ],
      [
        "Ġwere",
        -1.0
      ],
      [
        "Ġdetail",
        -1.0
      ],
      [
        "/",
        -1.0
      ],
      [
        "Ġpi",
        -1.0
      ],
      [
        "ttle",
        -1.0
      ],
      [
        "Ġman",
        -1.0
      ],
      [
        "Ġdifferent",
        -1.0
      ],
      [
        "Ġminutes",
        -1.0
      ],
      [
        "Ġpri",
        -1.0
      ],
      [
        "Ġdesign",
        -1.0
      ],
      [
        "ice",
        -1.0
      ],
      [
        "ĠCr",
        -1.0
      ],
      [
        "nal",
        -1.0
      ],
      [
        "@",
        -1.0
      ],
      [
        "cou",
        -1.0
      ],
      [
        "ĠDu",
        -1.0
      ],
      [
        "Ġexplain",
        -1.0
      ],
      [
        "ĠEa",
        -1.0
      ],
      [
        "ĠHIV",
        -1.0
      ],
      [
        "Ġset",
        -1.0
      ],
      [
        "16",
        -1.0
      ],
      [
        "İ",
        -1.0
      ],
      [
        "Ġyear",
        -1.0
      ],
      [
        "Ġreturn",
        -1.0
      ],
      [
        "Ġlanguage",
        -1.0
      ],
      [
        "nn",
        -1.0
      ],
      [
        "hu",
        -1.0
      ],
      [
        "ĠU",
        -1.0
      ],
      [
        "Ġcreat",
        -1.0
      ],
      [
        "Ġprotein",
        -1.0
      ],
      [
        "Ġfinancial",
        -1.0
      ],
      [
        "lege",
        -1.0
      ],
      [
        ")",
        -1.0
      ],
      [
        "ĠEn",
        -1.0
      ],
      [
        "¤",
        -1.0
      ],
      [
        "Ġstates",
        -1.0
      ],
      [
        "rh",
        -1.0
      ],
      [
        "ĠAnd",
        -1.0
      ],
      [
        "ll",
        -1.0
      ],
      [
        "K",
        -1.0
      ],
      [
        "Ġwhite",
        -1.0
      ],
      [
        "ĠYork",
        -1.0
      ],
      [
        "Ġ|",
        -1.0
      ],
      [
        "ĠOne",
        -1.0
      ],
      [
        "Ġrepresent",
        -1.0
      ],
      [
        "ild",
        -1.0
      ],
      [
        "Ġincreasing",
        -1.0
      ],
      [
        "Ġiniti",
        -1.0
      ],
      [
        "Ġ[",
        -1.0
      ],
      [
        "Ġeach",
        -1.0
      ],
      [
        "hen",
        -1.0
      ],
      [
        "lling",
        -1.0
      ],
      [
        "Ġstart",
        -1.0
      ],
      [
        "Æ",
        -1.0
      ],
      [
        "ior",
        -1.0
      ],
      [
        "ĠLo",
        -1.0
      ],
      [
        "Ġup",
        -1.0
      ],
      [
        "ou",
        -1.0
      ],
      [
        "¬",
        -1.0
      ],
      [
        "ĠDecember",
        -1.0
      ],
      [
        "ie",
        -1.0
      ],
      [
        "Ġbe",
        -1.0
      ],
      [
        "Ġagainst",
        -1.0
      ],
      [
        "200",
        -1.0
      ],
      [
        "Ġbelieve",
        -1.0
      ],
      [
        "W",
        -1.0
      ],
      [
        "10",
        -1.0
      ],
      [
        "Ġspo",
        -1.0
      ],
      [
        "Ġcompa",
        -1.0
      ],
      [
        "V",
        -1.0
      ],
      [
        "[UNK]",
        -1.0
      ],
      [
        "Ġlight",
        -1.0
      ],
      [
        "Ġnon",
        -1.0
      ],
      [
        "ier",
        -1.0
      ],
      [
        "Ġlook",
        -1.0
      ],
      [
        "ultural",
        -1.0
      ],
      [
        "ĠRussia",
        -1.0
      ],
      [
        "Ġcancer",
        -1.0
      ],
      [
        "Ġmolecu",
        -1.0
      ],
      [
        "ĠBritish",
        -1.0
      ],
      [
        "ich",
        -1.0
      ],
      [
        "Ġexperience",
        -1.0
      ],
      [
        "Ġcause",
        -1.0
      ],
      [
        "Ġinfection",
        -1.0
      ],
      [
        "oy",
        -1.0
      ],
      [
        "go",
        -1.0
      ],
      [
        "Ġconnec",
        -1.0
      ],
      [
        "Ġconduct",
        -1.0
      ],
      [
        "Ġ14",
        -1.0
      ],
      [
        "Ġif",
        -1.0
      ],
      [
        "Ġimmediate",
        -1.0
      ],
      [
        "in",
        -1.0
      ],
      [
        "Ġfar",
        -1.0
      ],
      [
        "Ġidentif",
        -1.0
      ],
      [
        "ĠPla",
        -1.0
      ],
      [
        "Ġwhat",
        -1.0
      ],
      [
        "Ġapplication",
        -1.0
      ],
      [
        "ł",
        -1.0
      ],
      [
        "Ġnorth",
        -1.0
      ],
      [
        "ĠK",
        -1.0
      ],
      [
        "Ġexercise",
        -1.0
      ],
      [
        "mmittee",
        -1.0
      ],
      [
        "ped",
        -1.0
      ],
      [
        "Ķ",
        -1.0
      ],
      [
        "pan",
        -1.0
      ],
      [
        "ration",
        -1.0
      ],
      [
        "Ġconnect",
        -1.0
      ],
      [
        "ia",
        -1.0
      ],
      [
        "ĠDo",
        -1.0
      ],
      [
        "ns",
        -1.0
      ],
      [
        "¥",
        -1.0
      ],
      [
        "Ġfarm",
        -1.0
      ],
      [
        "ĠMan",
        -1.0
      ],
      [
        "Ġlea",
        -1.0
      ],
      [
        "ef",
        -1.0
      ],
      [
        "è",
        -1.0
      ],
      [
        "¼",
        -1.0
      ],
      [
        "Ġwould",
        -1.0
      ],
      [
        "Ġclass",
        -1.0
      ],
      [
        "ĠH",
        -1.0
      ],
      [
        "posit",
        -1.0
      ],
      [
        "ĠAb",
        -1.0
      ],
      [
        "Ġinternational",
        -1.0
      ],
      [
        "ĠC",
        -1.0
      ],
      [
        "ya",
        -1.0
      ],
      [
        "dr",
        -1.0
      ],
      [
        "hes",
        -1.0
      ],
      [
        "ĠOther",
        -1.0
      ],
      [
        "I",
        -1.0
      ],
      [
        "Ġrecord",
        -1.0
      ],
      [
        "Ġsite",
        -1.0
      ],
      [
        "ĠLondon",
        -1.0
      ],
      [
        "ering",
        -1.0
      ],
      [
        "ĠUniversity",
        -1.0
      ],
      [
        "Ġrea",
        -1.0
      ],
      [
        "fr",
        -1.0
      ],
      [
        "Ġcritical",
        -1.0
      ],
      [
        "Ġleft",
        -1.0
      ],
      [
        "Ġpopulation",
        -1.0
      ],
      [
        "Ġfamilies",
        -1.0
      ],
      [
        "ĠPr",
        -1.0
      ],
      [
        "ern",
        -1.0
      ],
      [
        "lled",
        -1.0
      ],
      [
        "ime",
        -1.0
      ],
      [
        "nts",
        -1.0
      ],
      [
        "ve",
        -1.0
      ],
      [
        "val",
        -1.0
      ],
      [
        "Ġ199",
        -1.0
      ],
      [
        "Ġen",
        -1.0
      ],
      [
        "Ġdec",
        -1.0
      ],
      [
        "Ġthis",
        -1.0
      ],
      [
        "co",
        -1.0
      ],
      [
        "tan",
        -1.0
      ],
      [
        "Ġthen",
        -1.0
      ],
      [
        "Ġpr",
        -1.0
      ],
      [
        "a",
        -1.0
      ],
      [
        "Ġcombin",
        -1.0
      ],
      [
        "ĠEducation",
        -1.0
      ],
      [
        "ĠEurope",
        -1.0
      ],
      [
        "ed",
        -1.0
      ],
      [
        "To",
        -1.0
      ],
      [
        "Ġfai",
        -1.0
      ],
      [
        "Ġma",
        -1.0
      ],
      [
        "ī",
        -1.0
      ],
      [
        "lated",
        -1.0
      ],
      [
        "Ġreflect",
        -1.0
      ],
      [
        "fl",
        -1.0
      ],
      [
        "emocra",
        -1.0
      ],
      [
        "Ġpost",
        -1.0
      ],
      [
        "Ġte",
        -1.0
      ],
      [
        "Ġmis",
        -1.0
      ],
      [
        "sta",
        -1.0
      ],
      [
        "w",
        -1.0
      ],
      [
        "Ġdemonstra",
        -1.0
      ],
      [
        "In",
        -1.0
      ],
      [
        "Ġcontra",
        -1.0
      ],
      [
        "_________",
        -1.0
      ],
      [
        "Ġelectro",
        -1.0
      ],
      [
        "ĠFrench",
        -1.0
      ],
      [
        "Ġdi",
        -1.0
      ],
      [
        "iation",
        -1.0
      ],
      [
        "Ġearlier",
        -1.0
      ],
      [
        "ĠYou",
        -1.0
      ],
      [
        "Ġprevious",
        -1.0
      ],
      [
        "Ġsource",
        -1.0
      ],
      [
        "Ġparticular",
        -1.0
      ],
      [
        "Ġhome",
        -1.0
      ],
      [
        "Ġbusiness",
        -1.0
      ],
      [
        "ele",
        -1.0
      ],
      [
        "sion",
        -1.0
      ],
      [
        "ĠShe",
        -1.0
      ],
      [
        "Ġdetermine",
        -1.0
      ],
      [
        "Ġthose",
        -1.0
      ],
      [
        "~",
        -1.0
      ],
      [
        "ates",
        -1.0
      ],
      [
        "Ġwe",
        -1.0
      ],
      [
        "Ġob",
        -1.0
      ],
      [
        "ste",
        -1.0
      ],
      [
        "Ġdeliver",
        -1.0
      ],
      [
        "Ġsoft",
        -1.0
      ],
      [
        "n",
        -1.0
      ],
      [
        ".,",
        -1.0
      ],
      [
        "Ġ3",
        -1.0
      ],
      [
        "yo",
        -1.0
      ],
      [
        "cul",
        -1.0
      ],
      [
        "Ġfac",
        -1.0
      ],
      [
        "The",
        -1.0
      ],
      [
        "Ġsymptoms",
        -1.0
      ],
      [
        "Ġbook",
        -1.0
      ],
      [
        "ound",
        -1.0
      ],
      [
        "Ġher",
        -1.0
      ],
      [
        "ary",
        -1.0
      ],
      [
        "Ġcons",
        -1.0
      ],
      [
        "Ġmilitary",
        -1.0
      ],
      [
        "--",
        -1.0
      ],
      [
        "ale",
        -1.0
      ],
      [
        "les",
        -1.0
      ],
      [
        "»",
        -1.0
      ],
      [
        "port",
        -1.0
      ],
      [
        "ac",
        -1.0
      ],
      [
        "view",
        -1.0
      ],
      [
        "lv",
        -1.0
      ],
      [
        "As",
        -1.0
      ],
      [
        "Ġgreen",
        -1.0
      ],
      [
        "Ġp",
        -1.0
      ],
      [
        "Ġprimary",
        -1.0
      ],
      [
        "Ġwomen",
        -1.0
      ],
      [
        "Ġfrom",
        -1.0
      ],
      [
        "0",
        -1.0
      ],
      [
        "Ġlarge",
        -1.0
      ],
      [
        "Ġcame",
        -1.0
      ],
      [
        "Ġas",
        -1.0
      ],
      [
        "Ġback",
        -1.0
      ],
      [
        "ce",
        -1.0
      ],
      [
        "m",
        -1.0
      ],
      [
        "lay",
        -1.0
      ],
      [
        "Ġsix",
        -1.0
      ],
      [
        "Ġclimate",
        -1.0
      ],
      [
        "Ġtre",
        -1.0
      ],
      [
        "ning",
        -1.0
      ],
      [
        "Ġrev",
        -1.0
      ],
      [
        "Ġaway",
        -1.0
      ],
      [
        "Ġnow",
        -1.0
      ],
      [
        "Ġstructure",
        -1.0
      ],
      [
        "Ma",
        -1.0
      ],
      [
        "Ġgener",
        -1.0
      ],
      [
        "Ġdisease",
        -1.0
      ],
      [
        "Ġvi",
        -1.0
      ],
      [
        "Ġvideo",
        -1.0
      ],
      [
        "Ġknow",
        -1.0
      ],
      [
        "tamin",
        -1.0
      ],
      [
        "Ġrecent",
        -1.0
      ],
      [
        "Ġtu",
        -1.0
      ],
      [
        "Ġrem",
        -1.0
      ],
      [
        "po",
        -1.0
      ],
      [
        "Ġdisorder",
        -1.0
      ],
      [
        "Ġwhether",
        -1.0
      ],
      [
        "Ġstate",
        -1.0
      ],
      [
        "o",
        -1.0
      ],
      [
        "Ġalready",
        -1.0
      ],
      [
        "Ġexist",
        -1.0
      ],
      [
        "now",
        -1.0
      ],
      [
        "Ġlearning",
        -1.0
      ],
      [
        "ë",
        -1.0
      ],
      [
        "Ġappropriate",
        -1.0
      ],
      [
        "Ġaddition",
        -1.0
      ],
      [
        "Ġcr",
        -1.0
      ],
      [
        "um",
        -1.0
      ],
      [
        "rce",
        -1.0
      ],
      [
        "µ",
        -1.0
      ],
      [
        "rv",
        -1.0
      ],
      [
        "Ġcreate",
        -1.0
      ],
      [
        "ĠTe",
        -1.0
      ],
      [
        "Ġ198",
        -1.0
      ],
      [
        "sts",
        -1.0
      ],
      [
        "Ġbecame",
        -1.0
      ],
      [
        "hibit",
        -1.0
      ],
      [
        "Ġad",
        -1.0
      ],
      [
        "Ġpass",
        -1.0
      ],
      [
        "on",
        -1.0
      ],
      [
        "ĠJohn",
        -1.0
      ],
      [
        "ĠNo",
        -1.0
      ],
      [
        "par",
        -1.0
      ],
      [
        "Ġdo",
        -1.0
      ],
      [
        "Ġvariety",
        -1.0
      ],
      [
        "Ġshow",
        -1.0
      ],
      [
        "ournal",
        -1.0
      ],
      [
        "||",
        -1.0
      ],
      [
        "Ġteach",
        -1.0
      ],
      [
        "Ġat",
        -1.0
      ],
      [
        "Ġgoing",
        -1.0
      ],
      [
        "Ġbehind",
        -1.0
      ],
      [
        "Ġto",
        -1.0
      ],
      [
        "ise",
        -1.0
      ],
      [
        "ray",
        -1.0
      ],
      [
        "Ġaccept",
        -1.0
      ],
      [
        "ĠM",
        -1.0
      ],
      [
        "Ġday",
        -1.0
      ],
      [
        "Ġclose",
        -1.0
      ],
      [
        "Ġsum",
        -1.0
      ],
      [
        "Ġwebsite",
        -1.0
      ],
      [
        "Ò",
        -1.0
      ],
      [
        "ĠSome",
        -1.0
      ],
      [
        "tical",
        -1.0
      ],
      [
        "ĠUnited",
        -1.0
      ],
      [
        "lis",
        -1.0
      ],
      [
        "oth",
        -1.0
      ],
      [
        "un",
        -1.0
      ],
      [
        "Ġac",
        -1.0
      ],
      [
        "ĸ",
        -1.0
      ],
      [
        "Ġlearn",
        -1.0
      ],
      [
        "ĠNew",
        -1.0
      ],
      [
        "St",
        -1.0
      ],
      [
        "i",
        -1.0
      ],
      [
        "Ġchanges",
        -1.0
      ],
      [
        "Ġthreat",
        -1.0
      ],
      [
        "nce",
        -1.0
      ],
      [
        "Ġkey",
        -1.0
      ],
      [
        "Ġrequire",
        -1.0
      ],
      [
        "Į",
        -1.0
      ],
      [
        "Ġneeds",
        -1.0
      ],
      [
        "Ġform",
        -1.0
      ],
      [
        "Ġavailable",
        -1.0
      ],
      [
        "ought",
        -1.0
      ],
      [
        "Û",
        -1.0
      ],
      [
        "su",
        -1.0
      ],
      [
        "ber",
        -1.0
      ],
      [
        "Ġgreat",
        -1.0
      ],
      [
        "ens",
        -1.0
      ],
      [
        "Ġda",
        -1.0
      ],
      [
        "Ġport",
        -1.0
      ],
      [
        "Ġable",
        -1.0
      ],
      [
        "Ġche",
        -1.0
      ],
      [
        "Ä",
        -1.0
      ],
      [
        "Ġseason",
        -1.0
      ],
      [
        "lin",
        -1.0
      ],
      [
        "Ġkind",
        -1.0
      ],
      [
        "ages",
        -1.0
      ],
      [
        "Ġsame",
        -1.0
      ],
      [
        "Ġpar",
        -1.0
      ],
      [
        "ĠGe",
        -1.0
      ],
      [
        "ĠCon",
        -1.0
      ],
      [
        "Ġvalue",
        -1.0
      ],
      [
        "Ġeye",
        -1.0
      ],
      [
        "led",
        -1.0
      ],
      [
        "te",
        -1.0
      ],
      [
        "scri",
        -1.0
      ],
      [
        "tain",
        -1.0
      ],
      [
        "¹",
        -1.0
      ],
      [
        "ek",
        -1.0
      ],
      [
        "Ġevery",
        -1.0
      ],
      [
        "Ġtwo",
        -1.0
      ],
      [
        "Ġa",
        -1.0
      ],
      [
        "Ġnumber",
        -1.0
      ],
      [
        "Ġfive",
        -1.0
      ],
      [
        "Ġmi",
        -1.0
      ],
      [
        "Ġstudent",
        -1.0
      ],
      [
        "Ġapproximately",
        -1.0
      ],
      [
        "$",
        -1.0
      ],
      [
        "Ġresults",
        -1.0
      ],
      [
        "etic",
        -1.0
      ],
      [
        "Ġold",
        -1.0
      ],
      [
        "fa",
        -1.0
      ],
      [
        "©",
        -1.0
      ],
      [
        "ĠFo",
        -1.0
      ],
      [
        "Ġmake",
        -1.0
      ],
      [
        "Ġplant",
        -1.0
      ],
      [
        "ĠGeneral",
        -1.0
      ],
      [
        "Ġopen",
        -1.0
      ],
      [
        "ĠCouncil",
        -1.0
      ],
      [
        "Ġis",
        -1.0
      ],
      [
        "ĠThis",
        -1.0
      ],
      [
        "aining",
        -1.0
      ],
      [
        "aly",
        -1.0
      ],
      [
        "Ġfor",
        -1.0
      ],
      [
        "ops",
        -1.0
      ],
      [
        "Ġbeyond",
        -1.0
      ],
      [
        "Ġfull",
        -1.0
      ],
      [
        "Ġstr",
        -1.0
      ],
      [
        "Ġrest",
        -1.0
      ],
      [
        "Ġconstruct",
        -1.0
      ],
      [
        "Ġatt",
        -1.0
      ],
      [
        "Ġusing",
        -1.0
      ],
      [
        "ad",
        -1.0
      ],
      [
        "Ġone",
        -1.0
      ],
      [
        "Ġchildren",
        -1.0
      ],
      [
        "ied",
        -1.0
      ],
      [
        "£",
        -1.0
      ],
      [
        "Ġdocument",
        -1.0
      ],
      [
        "mitted",
        -1.0
      ],
      [
        "olog",
        -1.0
      ],
      [
        "ion",
        -1.0
      ],
      [
        "ĠMa",
        -1.0
      ],
      [
        "az",
        -1.0
      ],
      [
        "ids",
        -1.0
      ],
      [
        "f",
        -1.0
      ],
      [
        "Ġattempt",
        -1.0
      ],
      [
        "ified",
        -1.0
      ],
      [
        ",âĢĿ",
        -1.0
      ],
      [
        "Ġcri",
        -1.0
      ],
      [
        "Ġofficial",
        -1.0
      ],
      [
        "Ġrapid",
        -1.0
      ],
      [
        "This",
        -1.0
      ],
      [
        "ware",
        -1.0
      ],
      [
        "Ġsafety",
        -1.0
      ],
      [
        "Ġgeneral",
        -1.0
      ],
      [
        "Ġprofessional",
        -1.0
      ],
      [
        "ĠMi",
        -1.0
      ],
      [
        "Ġkeep",
        -1.0
      ],
      [
        "Ġmus",
        -1.0
      ],
      [
        "Ġmot",
        -1.0
      ],
      [
        "nted",
        -1.0
      ],
      [
        "wh",
        -1.0
      ],
      [
        "Ġactivity",
        -1.0
      ],
      [
        "Ġonly",
        -1.0
      ],
      [
        "ful",
        -1.0
      ],
      [
        "Ġtoward",
        -1.0
      ],
      [
        "Ġdiscuss",
        -1.0
      ],
      [
        "ward",
        -1.0
      ],
      [
        "Ġhigh",
        -1.0
      ],
      [
        "Î",
        -1.0
      ],
      [
        "Ġfriend",
        -1.0
      ],
      [
        "Ġcapital",
        -1.0
      ],
      [
        "Ġlitera",
        -1.0
      ],
      [
        "ics",
        -1.0
      ],
      [
        "Ġthere",
        -1.0
      ],
      [
        "Ġhttp",
        -1.0
      ],
      [
        "con",
        -1.0
      ],
      [
        "ees",
        -1.0
      ],
      [
        "7",
        -1.0
      ],
      [
        "Ġhuman",
        -1.0
      ],
      [
        "Ġ197",
        -1.0
      ],
      [
        "Ġvisit",
        -1.0
      ],
      [
        "Ġvegeta",
        -1.0
      ],
      [
        "Ġthree",
        -1.0
      ],
      [
        "Ġusually",
        -1.0
      ],
      [
        "Ñ",
        -1.0
      ],
      [
        "ings",
        -1.0
      ],
      [
        "Ġmass",
        -1.0
      ],
      [
        "Ġchild",
        -1.0
      ],
      [
        "ivers",
        -1.0
      ],
      [
        "Ġways",
        -1.0
      ],
      [
        "Ġhouse",
        -1.0
      ],
      [
        "Ġmust",
        -1.0
      ],
      [
        "Ġsuggest",
        -1.0
      ],
      [
        "Ġconsist",
        -1.0
      ],
      [
        "Ġint",
        -1.0
      ],
      [
        "Ġplants",
        -1.0
      ],
      [
        "ng",
        -1.0
      ],
      [
        "Ġreceive",
        -1.0
      ],
      [
        "Ġconte",
        -1.0
      ],
      [
        "Ġheart",
        -1.0
      ],
      [
        "Ġfound",
        -1.0
      ],
      [
        "Ġsign",
        -1.0
      ],
      [
        "Ġbel",
        -1.0
      ],
      [
        "ery",
        -1.0
      ],
      [
        "Ġwhen",
        -1.0
      ],
      [
        "ising",
        -1.0
      ],
      [
        "Ġdefin",
        -1.0
      ],
      [
        "Ġindic",
        -1.0
      ],
      [
        "Ġproduc",
        -1.0
      ],
      [
        "Ġ2",
        -1.0
      ],
      [
        "ĠAmerican",
        -1.0
      ],
      [
        "ear",
        -1.0
      ],
      [
        "ĠBut",
        -1.0
      ],
      [
        "12",
        -1.0
      ],
      [
        "Ġinstead",
        -1.0
      ],
      [
        "Ġsen",
        -1.0
      ],
      [
        "ĠS",
        -1.0
      ],
      [
        "lt",
        -1.0
      ],
      [
        "ming",
        -1.0
      ],
      [
        "Ġwar",
        -1.0
      ],
      [
        "ĠResearch",
        -1.0
      ],
      [
        "Ġ9",
        -1.0
      ],
      [
        ",",
        -1.0
      ],
      [
        "Ġgroup",
        -1.0
      ],
      [
        "Ġwas",
        -1.0
      ],
      [
        "qui",
        -1.0
      ],
      [
        "ĠChinese",
        -1.0
      ],
      [
        "Ġ200",
        -1.0
      ],
      [
        "light",
        -1.0
      ],
      [
        "Ġunderstand",
        -1.0
      ],
      [
        "Ê",
        -1.0
      ],
      [
        "Ġprobably",
        -1.0
      ],
      [
        "ctor",
        -1.0
      ],
      [
        "han",
        -1.0
      ],
      [
        "Ġplace",
        -1.0
      ],
      [
        "ĠChurch",
        -1.0
      ],
      [
        "Ġsouth",
        -1.0
      ],
      [
        "Ġcoll",
        -1.0
      ],
      [
        "Ġfield",
        -1.0
      ],
      [
        "Ġmuch",
        -1.0
      ],
      [
        "Ġcontinu",
        -1.0
      ],
      [
        "tory",
        -1.0
      ],
      [
        "Ġbased",
        -1.0
      ],
      [
        "rt",
        -1.0
      ],
      [
        "Ġpressure",
        -1.0
      ],
      [
        "dependent",
        -1.0
      ],
      [
        "Ġlevels",
        -1.0
      ],
      [
        "ones",
        -1.0
      ],
      [
        "Ġ12",
        -1.0
      ],
      [
        "erv",
        -1.0
      ],
      [
        "Ġgo",
        -1.0
      ],
      [
        "Ġargu",
        -1.0
      ],
      [
        "Ġalso",
        -1.0
      ],
      [
        "Ġbehavior",
        -1.0
      ],
      [
        "ĠComm",
        -1.0
      ],
      [
        "gress",
        -1.0
      ],
      [
        "Ġsuff",
        -1.0
      ],
      [
        "qua",
        -1.0
      ],
      [
        "Ġmight",
        -1.0
      ],
      [
        "Ġscientific",
        -1.0
      ],
      [
        "Ġglobal",
        -1.0
      ],
      [
        "âĢĻ",
        -1.0
      ],
      [
        "ĠPo",
        -1.0
      ],
      [
        "Ġjoin",
        -1.0
      ],
      [
        "sl",
        -1.0
      ],
      [
        "ral",
        -1.0
      ],
      [
        "ar",
        -1.0
      ],
      [
        "Ġblack",
        -1.0
      ],
      [
        "ite",
        -1.0
      ],
      [
        "Ġwithin",
        -1.0
      ],
      [
        "Ġsi",
        -1.0
      ],
      [
        "rom",
        -1.0
      ],
      [
        "tis",
        -1.0
      ],
      [
        "Ġthat",
        -1.0
      ],
      [
        "Ġacid",
        -1.0
      ],
      [
        "3",
        -1.0
      ],
      [
        "Ġsafe",
        -1.0
      ],
      [
        "Ġfood",
        -1.0
      ],
      [
        "Ġclear",
        -1.0
      ],
      [
        "eg",
        -1.0
      ],
      [
        "Ġactivities",
        -1.0
      ],
      [
        "Ġbu",
        -1.0
      ],
      [
        "ĠOctober",
        -1.0
      ],
      [
        "cal",
        -1.0
      ],
      [
        "form",
        -1.0
      ],
      [
        "È",
        -1.0
      ],
      [
        "Ġhowever",
        -1.0
      ],
      [
        "ilities",
        -1.0
      ],
      [
        "(",
        -1.0
      ],
      [
        "Ġ&",
        -1.0
      ],
      [
        "entral",
        -1.0
      ],
      [
        "%",
        -1.0
      ],
      [
        "Ġsuch",
        -1.0
      ],
      [
        "Ġchi",
        -1.0
      ],
      [
        "gen",
        -1.0
      ],
      [
        "sing",
        -1.0
      ],
      [
        "19",
        -1.0
      ],
      [
        "Ġlast",
        -1.0
      ],
      [
        "Ġ5",
        -1.0
      ],
      [
        "Ġpatients",
        -1.0
      ],
      [
        "mers",
        -1.0
      ],
      [
        "Ġ(",
        -1.0
      ],
      [
        "]",
        -1.0
      ],
      [
        "Ġcentury",
        -1.0
      ],
      [
        "rit",
        -1.0
      ],
      [
        "Ġworking",
        -1.0
      ],
      [
        "Ġsomething",
        -1.0
      ],
      [
        "¯",
        -1.0
      ],
      [
        "Ġstrong",
        -1.0
      ],
      [
        "00",
        -1.0
      ],
      [
        "ĠDepartment",
        -1.0
      ],
      [
        "Ġfamili",
        -1.0
      ],
      [
        "ast",
        -1.0
      ],
      [
        "ins",
        -1.0
      ],
      [
        "Ġtoday",
        -1.0
      ],
      [
        "Ġ8",
        -1.0
      ],
      [
        "Ġru",
        -1.0
      ],
      [
        "ric",
        -1.0
      ],
      [
        "vid",
        -1.0
      ],
      [
        "Ġengine",
        -1.0
      ],
      [
        "Ġna",
        -1.0
      ],
      [
        "tors",
        -1.0
      ],
      [
        "rch",
        -1.0
      ],
      [
        "vers",
        -1.0
      ],
      [
        "art",
        -1.0
      ],
      [
        "Ġmor",
        -1.0
      ],
      [
        "fore",
        -1.0
      ],
      [
        "Ġdisplay",
        -1.0
      ],
      [
        "ĠJewish",
        -1.0
      ],
      [
        "Ġterm",
        -1.0
      ],
      [
        "ink",
        -1.0
      ],
      [
        "lar",
        -1.0
      ],
      [
        "Ġmost",
        -1.0
      ],
      [
        "^",
        -1.0
      ],
      [
        "Ġcity",
        -1.0
      ],
      [
        "Ġg",
        -1.0
      ],
      [
        "ari",
        -1.0
      ],
      [
        "Ġdue",
        -1.0
      ],
      [
        "ks",
        -1.0
      ],
      [
        "ĠHe",
        -1.0
      ],
      [
        "lan",
        -1.0
      ],
      [
        "Ġinter",
        -1.0
      ],
      [
        "Ġindividual",
        -1.0
      ],
      [
        "Ġpublished",
        -1.0
      ],
      [
        "ount",
        -1.0
      ],
      [
        "!",
        -1.0
      ],
      [
        "Ġabove",
        -1.0
      ],
      [
        "Ġmen",
        -1.0
      ],
      [
        "oi",
        -1.0
      ],
      [
        "ĠG",
        -1.0
      ],
      [
        "Ġbi",
        -1.0
      ],
      [
        "ĠGovernment",
        -1.0
      ],
      [
        "Ġ2012",
        -1.0
      ],
      [
        "Ġsituation",
        -1.0
      ],
      [
        "aster",
        -1.0
      ],
      [
        "ĠGa",
        -1.0
      ],
      [
        "Ġparticip",
        -1.0
      ],
      [
        "\".",
        -1.0
      ],
      [
        "Ġproduct",
        -1.0
      ],
      [
        "dy",
        -1.0
      ],
      [
        "Ġmon",
        -1.0
      ],
      [
        "Ġaccess",
        -1.0
      ],
      [
        "Ġmodel",
        -1.0
      ],
      [
        "Ġprevent",
        -1.0
      ],
      [
        "Ġcome",
        -1.0
      ],
      [
        "ģ",
        -1.0
      ],
      [
        "ĠNovember",
        -1.0
      ],
      [
        "Ġbecome",
        -1.0
      ],
      [
        "Ġanswer",
        -1.0
      ],
      [
        "oc",
        -1.0
      ],
      [
        ").",
        -1.0
      ],
      [
        "Ġarticle",
        -1.0
      ],
      [
        "Ġsimilar",
        -1.0
      ],
      [
        "Ġorder",
        -1.0
      ],
      [
        "Ġdone",
        -1.0
      ],
      [
        "Ġfact",
        -1.0
      ],
      [
        "ly",
        -1.0
      ],
      [
        "ions",
        -1.0
      ],
      [
        "ction",
        -1.0
      ],
      [
        "Ġcoast",
        -1.0
      ],
      [
        "Ġhelp",
        -1.0
      ],
      [
        "ora",
        -1.0
      ],
      [
        "s",
        -1.0
      ],
      [
        "ĠSociety",
        -1.0
      ],
      [
        "Ġtimes",
        -1.0
      ],
      [
        "Ġanimal",
        -1.0
      ],
      [
        "Ġhistory",
        -1.0
      ],
      [
        "Ġessential",
        -1.0
      ],
      [
        "å",
        -1.0
      ],
      [
        "For",
        -1.0
      ],
      [
        "iddle",
        -1.0
      ],
      [
        "Ġprovide",
        -1.0
      ],
      [
        "und",
        -1.0
      ],
      [
        "yn",
        -1.0
      ],
      [
        "ories",
        -1.0
      ],
      [
        "Ġbody",
        -1.0
      ],
      [
        "tt",
        -1.0
      ],
      [
        "Ġsocial",
        -1.0
      ],
      [
        "Ð",
        -1.0
      ],
      [
        "Ġthroughout",
        -1.0
      ],
      [
        "Ġupon",
        -1.0
      ],
      [
        "Ġinto",
        -1.0
      ],
      [
        "ĠFebruary",
        -1.0
      ],
      [
        "ĠEarth",
        -1.0
      ],
      [
        "ĠNe",
        -1.0
      ],
      [
        "Ġqua",
        -1.0
      ],
      [
        "Ġdoes",
        -1.0
      ],
      [
        "Ġrisk",
        -1.0
      ],
      [
        "Ġun",
        -1.0
      ],
      [
        "Ġfurther",
        -1.0
      ],
      [
        "Å",
        -1.0
      ],
      [
        "Ġdra",
        -1.0
      ],
      [
        "Ġadapt",
        -1.0
      ],
      [
        "C",
        -1.0
      ],
      [
        "Ġhar",
        -1.0
      ],
      [
        "ĠCh",
        -1.0
      ],
      [
        "Ġland",
        -1.0
      ],
      [
        "ces",
        -1.0
      ],
      [
        "Ġus",
        -1.0
      ],
      [
        "ten",
        -1.0
      ],
      [
        "Ġvehicle",
        -1.0
      ],
      [
        "Ġwa",
        -1.0
      ],
      [
        "ĠIt",
        -1.0
      ],
      [
        "Ġnecessary",
        -1.0
      ],
      [
        "ical",
        -1.0
      ],
      [
        "ĠInd",
        -1.0
      ],
      [
        "ries",
        -1.0
      ],
      [
        "Ġla",
        -1.0
      ],
      [
        "ĠDevelopment",
        -1.0
      ],
      [
        "Ġoxygen",
        -1.0
      ],
      [
        "L",
        -1.0
      ],
      [
        "side",
        -1.0
      ],
      [
        "Ġtheory",
        -1.0
      ],
      [
        "Ġelements",
        -1.0
      ],
      [
        "ĠRe",
        -1.0
      ],
      [
        "Ġfirst",
        -1.0
      ],
      [
        "ĠâĢĺ",
        -1.0
      ],
      [
        "Ġmu",
        -1.0
      ],
      [
        "ers",
        -1.0
      ],
      [
        "ib",
        -1.0
      ],
      [
        "Ġpat",
        -1.0
      ],
      [
        "Ġreligious",
        -1.0
      ],
      [
        "Ġview",
        -1.0
      ],
      [
        "Ġfeature",
        -1.0
      ],
      [
        "ats",
        -1.0
      ],
      [
        "Ġbegin",
        -1.0
      ],
      [
        "Ġconsider",
        -1.0
      ],
      [
        "Ġwithout",
        -1.0
      ],
      [
        "Ġed",
        -1.0
      ],
      [
        "Ġpurpose",
        -1.0
      ],
      [
        "Ġfamily",
        -1.0
      ],
      [
        "p",
        -1.0
      ],
      [
        "Ġpl",
        -1.0
      ],
      [
        "ations",
        -1.0
      ],
      [
        "¡",
        -1.0
      ],
      [
        "ĠAugust",
        -1.0
      ],
      [
        "Ġcult",
        -1.0
      ],
      [
        "Ġsystems",
        -1.0
      ],
      [
        "ive",
        -1.0
      ],
      [
        "`",
        -1.0
      ],
      [
        "ĠHowever",
        -1.0
      ],
      [
        "Ġcover",
        -1.0
      ],
      [
        "¶",
        -1.0
      ],
      [
        "y",
        -1.0
      ],
      [
        "iting",
        -1.0
      ],
      [
        "nging",
        -1.0
      ],
      [
        "ctive",
        -1.0
      ],
      [
        "Ġarti",
        -1.0
      ],
      [
        "cept",
        -1.0
      ],
      [
        "ment",
        -1.0
      ],
      [
        "atory",
        -1.0
      ],
      [
        "Ġtherap",
        -1.0
      ],
      [
        "aff",
        -1.0
      ],
      [
        "Ġothers",
        -1.0
      ],
      [
        "Ġknown",
        -1.0
      ],
      [
        "v",
        -1.0
      ],
      [
        "ing",
        -1.0
      ],
      [
        "Ġobject",
        -1.0
      ],
      [
        "Ġremain",
        -1.0
      ],
      [
        "Ġenvironment",
        -1.0
      ],
      [
        "Ġimm",
        -1.0
      ],
      [
        "Ġlive",
        -1.0
      ],
      [
        "Ġoff",
        -1.0
      ],
      [
        "Ġmatter",
        -1.0
      ],
      [
        "ster",
        -1.0
      ],
      [
        "Ġhim",
        -1.0
      ],
      [
        "Ġsho",
        -1.0
      ],
      [
        "Ġwell",
        -1.0
      ],
      [
        "ah",
        -1.0
      ],
      [
        "ul",
        -1.0
      ],
      [
        "Ġcho",
        -1.0
      ],
      [
        "Ġcritic",
        -1.0
      ],
      [
        "O",
        -1.0
      ],
      [
        "Ġend",
        -1.0
      ],
      [
        "Ġimprove",
        -1.0
      ],
      [
        "Ġdri",
        -1.0
      ],
      [
        "Ġrights",
        -1.0
      ],
      [
        "\"",
        -1.0
      ],
      [
        "ological",
        -1.0
      ],
      [
        "net",
        -1.0
      ],
      [
        "ä",
        -1.0
      ],
      [
        "ĠStates",
        -1.0
      ],
      [
        "ĠGod",
        -1.0
      ],
      [
        "ER",
        -1.0
      ],
      [
        "sequen",
        -1.0
      ],
      [
        "ĠWashington",
        -1.0
      ],
      [
        "Ġfuel",
        -1.0
      ],
      [
        "tes",
        -1.0
      ],
      [
        "Ġwhere",
        -1.0
      ],
      [
        "Ġfederal",
        -1.0
      ],
      [
        "k",
        -1.0
      ],
      [
        "th",
        -1.0
      ],
      [
        "Ġemploy",
        -1.0
      ],
      [
        "Ġso",
        -1.0
      ],
      [
        "Ġsay",
        -1.0
      ],
      [
        "Ġareas",
        -1.0
      ],
      [
        "Ġpresent",
        -1.0
      ],
      [
        "Ġsub",
        -1.0
      ],
      [
        "Ġtechnique",
        -1.0
      ],
      [
        "Ġ19",
        -1.0
      ],
      [
        "ho",
        -1.0
      ],
      [
        "ı",
        -1.0
      ],
      [
        "lect",
        -1.0
      ],
      [
        "ked",
        -1.0
      ],
      [
        "dom",
        -1.0
      ],
      [
        "Ġpart",
        -1.0
      ],
      [
        "Ġlife",
        -1.0
      ],
      [
        "Ġmarket",
        -1.0
      ],
      [
        "rse",
        -1.0
      ],
      [
        "Ġbest",
        -1.0
      ],
      [
        "ļ",
        -1.0
      ],
      [
        "Ġfocus",
        -1.0
      ],
      [
        "ort",
        -1.0
      ],
      [
        "Ġju",
        -1.0
      ],
      [
        "Ġk",
        -1.0
      ],
      [
        "Ġor",
        -1.0
      ],
      [
        "al",
        -1.0
      ],
      [
        "Ġsleep",
        -1.0
      ],
      [
        "chn",
        -1.0
      ],
      [
        "U",
        -1.0
      ],
      [
        "Ġmaking",
        -1.0
      ],
      [
        "ĠPennsylvania",
        -1.0
      ],
      [
        "Ġhand",
        -1.0
      ],
      [
        "ner",
        -1.0
      ],
      [
        "Ġread",
        -1.0
      ],
      [
        "Ġage",
        -1.0
      ],
      [
        "8",
        -1.0
      ],
      [
        "tely",
        -1.0
      ],
      [
        "Ġall",
        -1.0
      ],
      [
        "Ġtest",
        -1.0
      ],
      [
        "Ġword",
        -1.0
      ],
      [
        "Ġneed",
        -1.0
      ],
      [
        "Ö",
        -1.0
      ],
      [
        "Ġi",
        -1.0
      ],
      [
        "Ġsuffer",
        -1.0
      ],
      [
        "'s",
        -1.0
      ],
      [
        "Ġincrease",
        -1.0
      ],
      [
        "Ġauthor",
        -1.0
      ],
      [
        "ght",
        -1.0
      ],
      [
        "Ã",
        -1.0
      ],
      [
        "Ġfind",
        -1.0
      ],
      [
        "ĠThey",
        -1.0
      ],
      [
        "ip",
        -1.0
      ],
      [
        "Ġfire",
        -1.0
      ],
      [
        "ĠNorth",
        -1.0
      ],
      [
        "Ġparticipa",
        -1.0
      ],
      [
        "ĠPer",
        -1.0
      ],
      [
        "ncyclopedia",
        -1.0
      ],
      [
        "Ġin",
        -1.0
      ],
      [
        "nds",
        -1.0
      ],
      [
        "Ġthough",
        -1.0
      ],
      [
        "Ġdef",
        -1.0
      ],
      [
        "é",
        -1.0
      ],
      [
        "Ġyou",
        -1.0
      ],
      [
        "ĠProject",
        -1.0
      ],
      [
        "Ġwhich",
        -1.0
      ],
      [
        "Ġdifference",
        -1.0
      ],
      [
        "Ù",
        -1.0
      ],
      [
        "ĠApril",
        -1.0
      ],
      [
        "Ġphysical",
        -1.0
      ],
      [
        "Ġissue",
        -1.0
      ],
      [
        "Ġmar",
        -1.0
      ],
      [
        "Ġele",
        -1.0
      ],
      [
        "craft",
        -1.0
      ],
      [
        "Ġshort",
        -1.0
      ],
      [
        "ating",
        -1.0
      ],
      [
        "Ġopinion",
        -1.0
      ],
      [
        "Ġocean",
        -1.0
      ],
      [
        "Ġcharacter",
        -1.0
      ],
      [
        "Ġdeveloped",
        -1.0
      ],
      [
        "ic",
        -1.0
      ],
      [
        "Ġlike",
        -1.0
      ],
      [
        "Ġpopular",
        -1.0
      ],
      [
        "ists",
        -1.0
      ],
      [
        "thing",
        -1.0
      ],
      [
        "°",
        -1.0
      ],
      [
        "Ġhol",
        -1.0
      ],
      [
        "Ġnext",
        -1.0
      ],
      [
        "ĠTo",
        -1.0
      ],
      [
        "ĠRi",
        -1.0
      ],
      [
        "Ġside",
        -1.0
      ],
      [
        "Ġlead",
        -1.0
      ],
      [
        "Ġsummer",
        -1.0
      ],
      [
        "Ġvari",
        -1.0
      ],
      [
        "Ġparents",
        -1.0
      ],
      [
        "Ġreligion",
        -1.0
      ]
    ],
    "byte_fallback": false
  }
}