{
  "version": "1.0",
  "truncation": null,
  "padding": null,
  "added_tokens": [
    {
      "id": 0,
      "content": "<|bos|>",
      "single_word": false,
      "lstrip": false,
      "rstrip": false,
      "normalized": false,
      "special": true
    },
    {
      "id": 1,
      "content": "<|user_start|>",
      "single_word": false,
      "lstrip": false,
      "rstrip": false,
      "normalized": false,
      "special": true
    },
    {
      "id": 2,
      "content": "<|user_end|>",
      "single_word": false,
      "lstrip": false,
      "rstrip": false,
      "normalized": false,
      "special": true
    },
    {
      "id": 3,
      "content": "<|assistant_start|>",
      "single_word": false,
      "lstrip": false,
      "rstrip": false,
      "normalized": false,
      "special": true
    },
    {
      "id": 4,
      "content": "<|assistant_end|>",
      "single_word": false,
      "lstrip": false,
      "rstrip": false,
      "normalized": false,
      "special": true
    },
    {
      "id": 5,
      "content": "<|python_start|>",
      "single_word": false,
      "lstrip": false,
      "rstrip": false,
      "normalized": false,
      "special": true
    },
    {
      "id": 6,
      "content": "<|python_end|>",
      "single_word": false,
      "lstrip": false,
      "rstrip": false,
      "normalized": false,
      "special": true
    },
    {
      "id": 7,
      "content": "<|output_start|>",
      "single_word": false,
      "lstrip": false,
      "rstrip": false,
      "normalized": false,
      "special": true
    },
    {
      "id": 8,
      "content": "<|output_end|>",
      "single_word": false,
      "lstrip": false,
      "rstrip": false,
      "normalized": false,
      "special": true
    },
    {
      "id": 9,
      "content": "<|unk|>",
      "single_word": false,
      "lstrip": false,
      "rstrip": false,
      "normalized": false,
      "special": true
    }
  ],
  "normalizer": null,
  "pre_tokenizer": {
    "type": "Sequence",
    "pretokenizers": [
      {
        "type": "Split",
        "pattern": {
          "Regex": "'(?i:[sdmt]|ll|ve|re)|[^\\r\\n\\p{L}\\p{N}]?+\\p{L}+|\\p{N}{1,2}| ?[^\\s\\p{L}\\p{N}]++[\\r\\n]*|\\s*[\\r\\n]|\\s+(?!\\S)|\\s+"
        },
        "behavior": "Isolated",
        "invert": false
      },
      {
        "type": "ByteLevel",
        "add_prefix_space": false,
        "trim_offsets": true,
        "use_regex": false
      }
    ]
  },
  "post_processor": {
    "type": "TemplateProcessing",
    "single": [
      {
        "Sequence": {
          "id": "A",
          "type_id": 0
        }
      }
    ],
    "pair": [
      {
        "Sequence": {
          "id": "A",
          "type_id": 0
        }
      },
      {
        "Sequence": {
          "id": "B",
          "type_id": 1
        }
      }
    ],
    "special_tokens": {}
  },
  "decoder": null,
  "model": {
    "type": "Unigram",
    "unk_id": 9,
    "vocab": [
      [
        "<|bos|>",
        0.0
      ],
      [
        "<|user_start|>",
        0.0
      ],
      [
        "<|user_end|>",
        0.0
      ],
      [
        "<|assistant_start|>",
        0.0
      ],
      [
        "<|assistant_end|>",
        0.0
      ],
      [
        "<|python_start|>",
        0.0
      ],
      [
        "<|python_end|>",
        0.0
      ],
      [
        "<|output_start|>",
        0.0
      ],
      [
        "<|output_end|>",
        0.0
      ],
      [
        "<|unk|>",
        0.0
      ],
      [
        "s",
        -3.103260436284428
      ],
      [
        "Ġ",
        -3.1246490470739
      ],
      [
        "Ġthe",
        -3.444221134871406
      ],
      [
        ",",
        -3.4932918765857703
      ],
      [
        ".",
        -3.779533180487631
      ],
      [
        "a",
        -3.962892682943611
      ],
      [
        "Ġand",
        -3.982199183987266
      ],
      [
        "Ġof",
        -4.028617871746825
      ],
      [
        "Ġto",
        -4.032257093452781
      ],
      [
        "ing",
        -4.384693368290021
      ],
      [
        "Ġin",
        -4.5291422399158385
      ],
      [
        "Ġis",
        -4.659396934001098
      ],
      [
        "ed",
        -4.741844837107038
      ],
      [
        "e",
        -4.886999884876605
      ],
      [
        "'",
        -4.944257150196819
      ],
      [
        "0",
        -5.045191884285355
      ],
      [
        "d",
        -5.059772550014882
      ],
      [
        "Ġthat",
        -5.0626602707723425
      ],
      [
        "y",
        -5.084029013887847
      ],
      [
        "Ġfor",
        -5.0925713497207195
      ],
      [
        "t",
        -5.160422956934303
      ],
      [
        "Ċ",
        -5.189821231364126
      ],
      [
        "1",
        -5.208236591135462
      ],
      [
        ":",
        -5.231812156325402
      ],
      [
        "Ġare",
        -5.279807529733116
      ],
      [
        "ly",
        -5.280647079354928
      ],
      [
        ".Ċ",
        -5.326190235255542
      ],
      [
        "Ġyou",
        -5.357716173261084
      ],
      [
        ".ĊĊ",
        -5.367972836087617
      ],
      [
        "Ġit",
        -5.370093902127232
      ],
      [
        "2",
        -5.389451021000072
      ],
      [
        "-",
        -5.3976870944582735
      ],
      [
        "Ġwith",
        -5.411760034028829
      ],
      [
        "Ġbe",
        -5.498088638058315
      ],
      [
        "Ġon",
        -5.536677424894847
      ],
      [
        "Ġcan",
        -5.550662194896937
      ],
      [
        "Ġor",
        -5.574845219451795
      ],
      [
        "Ġas",
        -5.576979357024239
      ],
      [
        "ĊĊ",
        -5.752681032922277
      ],
      [
        "Ġyour",
        -5.770993301264488
      ],
      [
        "Ġ(",
        -5.794008593356988
      ],
      [
        "\"",
        -5.899733031634552
      ],
      [
        "Ġhave",
        -5.913103551451826
      ],
      [
        "ĠI",
        -5.9270318838339975
      ],
      [
        "Ġfrom",
        -5.9471143811139555
      ],
      [
        "ĠThe",
        -5.968204757322601
      ],
      [
        "Ġby",
        -6.030341246199079
      ],
      [
        "Ġan",
        -6.03066977350325
      ],
      [
        ")",
        -6.035866279026511
      ],
      [
        "3",
        -6.057459566612712
      ],
      [
        "Ġthis",
        -6.086023868824949
      ],
      [
        "n",
        -6.095089194927503
      ],
      [
        "5",
        -6.104961806390667
      ],
      [
        "Ġnot",
        -6.139261150850455
      ],
      [
        "?",
        -6.140937834526783
      ],
      [
        "Ġat",
        -6.164687650875786
      ],
      [
        "o",
        -6.199103095015676
      ],
      [
        "er",
        -6.207906628139691
      ],
      [
        "Ġwill",
        -6.2269187828306585
      ],
      [
        "4",
        -6.239958898373986
      ],
      [
        "Ġtheir",
        -6.261954507163075
      ],
      [
        "i",
        -6.284989872497892
      ],
      [
        "Ġthey",
        -6.3756761880445385
      ],
      [
        "Ġmore",
        -6.386000713916001
      ],
      [
        "9",
        -6.394357121483134
      ],
      [
        "Ġwas",
        -6.418049954486143
      ],
      [
        "The",
        -6.4388050095004825
      ],
      [
        "r",
        -6.441182891213515
      ],
      [
        "Ġwe",
        -6.509787678218059
      ],
      [
        "6",
        -6.514281259910851
      ],
      [
        "Ġbut",
        -6.532454376478329
      ],
      [
        "Ġwhich",
        -6.547258682865017
      ],
      [
        "Ġhas",
        -6.553448132696982
      ],
      [
        "8",
        -6.574625574816205
      ],
      [
        "re",
        -6.602695873168054
      ],
      [
        "Ġone",
        -6.607999741938631
      ],
      [
        "ĠA",
        -6.6109218247604336
      ],
      [
        "Ġother",
        -6.611419172141057
      ],
      [
        "Question",
        -6.6366855528779976
      ],
      [
        "Ġalso",
        -6.641021114543715
      ],
      [
        "ĠAnswer",
        -6.65859669795635
      ],
      [
        "7",
        -6.671863893275942
      ],
      [
        "m",
        -6.678012755876614
      ],
      [
        "on",
        -6.69582242197283
      ],
      [
        "Ġall",
        -6.698494131599315
      ],
      [
        "Ġabout",
        -6.707808439400136
      ],
      [
        "Ġdo",
        -6.773888261389844
      ],
      [
        "Ġwhen",
        -6.77944339354681
      ],
      [
        "ĠIt",
        -6.791538038698279
      ],
      [
        "ies",
        -6.793531141764854
      ],
      [
        "Ġtime",
        -6.812987860244963
      ],
      [
        "Ġif",
        -6.820453974759273
      ],
      [
        "Ġuse",
        -6.827574095006311
      ],
      [
        "Ġinto",
        -6.8331502700814255
      ],
      [
        "A",
        -6.84015569478392
      ],
      [
        "Ġso",
        -6.847398211065462
      ],
      [
        "Ġlike",
        -6.850527560088521
      ],
      [
        "Ġthem",
        -6.854987770215072
      ],
      [
        "al",
        -6.859151113148819
      ],
      [
        "l",
        -6.871033665090298
      ],
      [
        "Ġup",
        -6.892185604763858
      ],
      [
        "Ġmay",
        -6.89481811408049
      ],
      [
        "Ġhow",
        -6.8952545500696765
      ],
      [
        "ĠThis",
        -6.907990575600239
      ],
      [
        "c",
        -6.9086483756777834
      ],
      [
        "Ġout",
        -6.935319893793343
      ],
      [
        "Ġsome",
        -6.944834294840367
      ],
      [
        "ĠWhat",
        -6.958816622022818
      ],
      [
        "p",
        -6.96174925900201
      ],
      [
        "Ġthan",
        -6.964669961606045
      ],
      [
        "g",
        -6.9961649692208265
      ],
      [
        "in",
        -6.997969282465121
      ],
      [
        "Ġthese",
        -6.998524051116336
      ],
      [
        "Ġwater",
        -7.02032718116746
      ],
      [
        "Ġwhat",
        -7.030379259101501
      ],
      [
        "Ġthere",
        -7.030730143276617
      ],
      [
        "Ġany",
        -7.050546212778141
      ],
      [
        "Ġused",
        -7.059213020475951
      ],
      [
        "ĠIn",
        -7.069401014815865
      ],
      [
        "Ġget",
        -7.0735062775038475
      ],
      [
        "Ġneed",
        -7.074284119946951
      ],
      [
        "Ġour",
        -7.079018872481946
      ],
      [
        "Ġmake",
        -7.0862450091106695
      ],
      [
        "If",
        -7.120404165832548
      ],
      [
        "/",
        -7.13047281957866
      ],
      [
        "able",
        -7.144322526413214
      ],
      [
        "Ġmost",
        -7.149940669771812
      ],
      [
        "Ġwere",
        -7.160455365155341
      ],
      [
        "I",
        -7.167560700329759
      ],
      [
        "Ġsuch",
        -7.170635276271598
      ],
      [
        "Ġhelp",
        -7.207268342902909
      ],
      [
        "Ġbeen",
        -7.207886442666663
      ],
      [
        "Ġpeople",
        -7.208569200123288
      ],
      [
        "Ġnew",
        -7.209011890038992
      ],
      [
        "Ġshould",
        -7.2156245191162895
      ],
      [
        "f",
        -7.228758748003269
      ],
      [
        "Ġwho",
        -7.253522776513835
      ],
      [
        "Ġwould",
        -7.257560976010842
      ],
      [
        "b",
        -7.277673191700282
      ],
      [
        "Ġits",
        -7.281488760694575
      ],
      [
        "or",
        -7.284886682305812
      ],
      [
        "Ġonly",
        -7.288305209979024
      ],
      [
        "Ġjust",
        -7.290015087409976
      ],
      [
        "Ġover",
        -7.292877132978445
      ],
      [
        "Ġmany",
        -7.317815585163601
      ],
      [
        "ity",
        -7.3260296167447745
      ],
      [
        "Ġhigh",
        -7.334033525064569
      ],
      [
        "Ġtwo",
        -7.336955936384996
      ],
      [
        "is",
        -7.3463476876597404
      ],
      [
        "Ġwork",
        -7.348730276094081
      ],
      [
        "Ġwell",
        -7.36927582031657
      ],
      [
        ";",
        -7.370294823241053
      ],
      [
        "h",
        -7.378518568602338
      ],
      [
        "Ġmy",
        -7.386578664197776
      ],
      [
        "Ġway",
        -7.398425463301159
      ],
      [
        "Ġdifferent",
        -7.409096085743606
      ],
      [
        "Ġbetween",
        -7.410970142758732
      ],
      [
        "ĠC",
        -7.412183530141929
      ],
      [
        "?Ċ",
        -7.413374845805395
      ],
      [
        "Ġfirst",
        -7.418743011910259
      ],
      [
        "Ġthrough",
        -7.43240270043353
      ],
      [
        "ever",
        -7.445495821063066
      ],
      [
        "Ġwhere",
        -7.447375309069118
      ],
      [
        "ic",
        -7.448134039289821
      ],
      [
        "Ġlong",
        -7.460936751088649
      ],
      [
        "Ġno",
        -7.464698508274111
      ],
      [
        "Ġusing",
        -7.46649722533502
      ],
      [
        "!",
        -7.467686151461315
      ],
      [
        "an",
        -7.497168289732388
      ],
      [
        "Ġbecaus",
        -7.506016608531343
      ],
      [
        "S",
        -7.509585219917362
      ],
      [
        "Ġcould",
        -7.520700315865268
      ],
      [
        "Ġlook",
        -7.531519203469115
      ],
      [
        "ĠS",
        -7.542605836042172
      ],
      [
        "ĠB",
        -7.550697646743901
      ],
      [
        "Ġvery",
        -7.5510086775636385
      ],
      [
        "us",
        -7.55696302326289
      ],
      [
        "Ġeven",
        -7.560141982901296
      ],
      [
        "In",
        -7.578873332351073
      ],
      [
        "ation",
        -7.583210769691867
      ],
      [
        "u",
        -7.587877595168832
      ],
      [
        "Ġhe",
        -7.590287680438907
      ],
      [
        "ĠThey",
        -7.605471028819871
      ],
      [
        "Ġsystem",
        -7.605582496299011
      ],
      [
        "ĠHow",
        -7.60653205605408
      ],
      [
        "Ġeach",
        -7.610029391116761
      ],
      [
        "Ġmuch",
        -7.616727295175998
      ],
      [
        "Ġhad",
        -7.61773013472269
      ],
      [
        "Ġthen",
        -7.621319920803099
      ],
      [
        "Ġimportant",
        -7.62759108850406
      ],
      [
        "ion",
        -7.628175996562115
      ],
      [
        "Ġknow",
        -7.6287907915738895
      ],
      [
        "Ġhealth",
        -7.632077109104237
      ],
      [
        "ve",
        -7.634614129984509
      ],
      [
        "Ġprovide",
        -7.639745182418235
      ],
      [
        "x",
        -7.643497064919282
      ],
      [
        "Ġdoes",
        -7.657446633853722
      ],
      [
        "?ĊĊ",
        -7.658405805932906
      ],
      [
        "Ġgood",
        -7.66284234132295
      ],
      [
        "Ġfood",
        -7.666016326333308
      ],
      [
        "ĠâĢĵ",
        -7.673408956659193
      ],
      [
        "Ġtake",
        -7.673819959765982
      ],
      [
        "ĠYou",
        -7.677903973190299
      ],
      [
        "Ġsee",
        -7.678615614231671
      ],
      [
        "Ġhis",
        -7.682987701854554
      ],
      [
        "Ġdon",
        -7.683118341251932
      ],
      [
        "k",
        -7.692711782515987
      ],
      [
        "th",
        -7.705143074223358
      ],
      [
        "C",
        -7.706571698034384
      ],
      [
        "Ġwhile",
        -7.709274256536499
      ],
      [
        ").",
        -7.719560123711732
      ],
      [
        "Ġbefore",
        -7.7263917171670755
      ],
      [
        "le",
        -7.727825295630248
      ],
      [
        "Ġyears",
        -7.72878426063566
      ],
      [
        "Ġcause",
        -7.737145845916635
      ],
      [
        "Ġworld",
        -7.744193099425175
      ],
      [
        "Ġafter",
        -7.76371608390815
      ],
      [
        "Ġwant",
        -7.775692466604561
      ],
      [
        "ll",
        -7.777531236383318
      ],
      [
        "ers",
        -7.786549178432619
      ],
      [
        "Ġduring",
        -7.788208264721209
      ],
      [
        "Ġcome",
        -7.792021597063187
      ],
      [
        "Ġaround",
        -7.799655681339175
      ],
      [
        "Ġallow",
        -7.800547857208128
      ],
      [
        "Ġenergy",
        -7.802262250373294
      ],
      [
        "um",
        -7.804054420458296
      ],
      [
        "(",
        -7.804195594833613
      ],
      [
        "Ġsame",
        -7.804503770122686
      ],
      [
        "Ġlife",
        -7.805365545038535
      ],
      [
        "Ġevery",
        -7.805480456064911
      ],
      [
        "v",
        -7.807405507625928
      ],
      [
        "it",
        -7.808281687020196
      ],
      [
        "D",
        -7.809115560881194
      ],
      [
        "Ġback",
        -7.81791789563221
      ],
      [
        "B",
        -7.820530735475087
      ],
      [
        "Ġboth",
        -7.820938537328438
      ],
      [
        "ĠE",
        -7.825209579358177
      ],
      [
        "Ġgreat",
        -7.827075608340284
      ],
      [
        "Ġbeing",
        -7.831885345054182
      ],
      [
        "Ġright",
        -7.83482360240156
      ],
      [
        "Ġthose",
        -7.8376487252813405
      ],
      [
        "Ġdesign",
        -7.846221190271063
      ],
      [
        "Ġdata",
        -7.851253316241946
      ],
      [
        "Ġarea",
        -7.855271204865243
      ],
      [
        "Ġpart",
        -7.859265420828494
      ],
      [
        "Ġoften",
        -7.86003756179813
      ],
      [
        "What",
        -7.864768891575613
      ],
      [
        "Ġdown",
        -7.868352220857968
      ],
      [
        "ĠWe",
        -7.872470912759759
      ],
      [
        "),",
        -7.875275898398456
      ],
      [
        "ive",
        -7.879987030266561
      ],
      [
        "Ġbody",
        -7.880136346834313
      ],
      [
        "Ġprocess",
        -7.881277784829489
      ],
      [
        "Ġkeep",
        -7.881858558749981
      ],
      [
        "Ġinclude",
        -7.88359559952613
      ],
      [
        "Ġsmall",
        -7.884932130444719
      ],
      [
        "Ġfind",
        -7.889705421368145
      ],
      [
        "Ġun",
        -7.890056105178912
      ],
      [
        "Ġday",
        -7.890423128730511
      ],
      [
        "%",
        -7.893367120584056
      ],
      [
        "Ġfound",
        -7.896564830176152
      ],
      [
        "Ġbest",
        -7.89760201431309
      ],
      [
        "Ġlight",
        -7.902985416765933
      ],
      [
        "Ġcreate",
        -7.906645552746053
      ],
      [
        "est",
        -7.918730750861
      ],
      [
        "Ġmean",
        -7.919214135152723
      ],
      [
        "Ġmade",
        -7.924541656432622
      ],
      [
        "ĠFor",
        -7.926110925323387
      ],
      [
        "Ġhome",
        -7.949298943983676
      ],
      [
        "ĠM",
        -7.956927151366324
      ],
      [
        "Ġyear",
        -7.963143817474755
      ],
      [
        "Ġincrease",
        -7.967599303479078
      ],
      [
        "ness",
        -7.984297525492167
      ],
      [
        "Ġsaid",
        -7.987787687288478
      ],
      [
        "Ġinformation",
        -7.989065615698481
      ],
      [
        "Ġplant",
        -7.992130857630585
      ],
      [
        "Ġrequire",
        -7.992629273345976
      ],
      [
        "Ġnumber",
        -7.993587789221252
      ],
      [
        "Ġplace",
        -7.997528947849053
      ],
      [
        "Ġus",
        -7.998164381311362
      ],
      [
        "ĠD",
        -8.000946682775318
      ],
      [
        "How",
        -8.001075621346715
      ],
      [
        "Ġgo",
        -8.005220809225769
      ],
      [
        "w",
        -8.007031051555135
      ],
      [
        ":Ċ",
        -8.007930022194095
      ],
      [
        "Ġinclud",
        -8.008678661161776
      ],
      [
        "Ġtemperature",
        -8.01108276789134
      ],
      [
        "ĠT",
        -8.016616308302906
      ],
      [
        "ability",
        -8.01722696036694
      ],
      [
        "Ġcondition",
        -8.01872416499127
      ],
      [
        "Ġoff",
        -8.023096695175905
      ],
      [
        "Ġlead",
        -8.02624087656413
      ],
      [
        "based",
        -8.02692517306613
      ],
      [
        "This",
        -8.030312433275215
      ],
      [
        "Ġpower",
        -8.030378688159706
      ],
      [
        "Ġme",
        -8.030736135832866
      ],
      [
        "Ġlarge",
        -8.032002894535896
      ],
      [
        "Ġstudents",
        -8.032809154357203
      ],
      [
        "and",
        -8.041850071737375
      ],
      [
        "Ġnow",
        -8.042423254290362
      ],
      [
        "Ġstart",
        -8.04631698028938
      ],
      [
        "Ġspecies",
        -8.047133219027373
      ],
      [
        "Ġunder",
        -8.048862337923952
      ],
      [
        "Ġhuman",
        -8.049374864573865
      ],
      [
        "Ġform",
        -8.050102847251747
      ],
      [
        "Ġresearch",
        -8.051668508039594
      ],
      [
        "Ġplants",
        -8.05189939776116
      ],
      [
        "ĠTo",
        -8.05417608491197
      ],
      [
        "Ġmight",
        -8.05858650720072
      ],
      [
        "T",
        -8.063424465702642
      ],
      [
        "ĠThese",
        -8.064963419601298
      ],
      [
        "Ġstudy",
        -8.06755094560342
      ],
      [
        "Ġair",
        -8.068537145349687
      ],
      [
        "Ġwithout",
        -8.070432795205676
      ],
      [
        "Ġdog",
        -8.071199085449742
      ],
      [
        "Ġbetter",
        -8.072231632028869
      ],
      [
        "Ġfew",
        -8.074254803797562
      ],
      [
        "Ġthink",
        -8.082349626181818
      ],
      [
        "Ġbecome",
        -8.0834209672478
      ],
      [
        "Ġchange",
        -8.087855858740404
      ],
      [
        "Ġexample",
        -8.08821536413132
      ],
      [
        "Ġown",
        -8.097357073380271
      ],
      [
        "Ġstill",
        -8.102452609120071
      ],
      [
        "ĠP",
        -8.109738792738169
      ],
      [
        "...",
        -8.111822113145342
      ],
      [
        "Ġsupport",
        -8.112968677258687
      ],
      [
        "ce",
        -8.116118650737697
      ],
      [
        "Ġcommon",
        -8.129505672855581
      ],
      [
        "Ġcontrol",
        -8.131267351705254
      ],
      [
        "Ġgroup",
        -8.132001597930673
      ],
      [
        "Ġher",
        -8.13776303458364
      ],
      [
        "Ġgrow",
        -8.137887792210517
      ],
      [
        "Ġend",
        -8.139909527574318
      ],
      [
        "Ġexperience",
        -8.14302080447222
      ],
      [
        "Ġpotential",
        -8.14855673325892
      ],
      [
        "Ġtype",
        -8.153644201591911
      ],
      [
        "It",
        -8.1543374228058
      ],
      [
        "P",
        -8.15742800426685
      ],
      [
        "ĠBut",
        -8.162739886239272
      ],
      [
        "z",
        -8.166634357126783
      ],
      [
        "Ġmaking",
        -8.170209004336758
      ],
      [
        "Ġchildren",
        -8.171201090571886
      ],
      [
        "Ġgive",
        -8.174516805505867
      ],
      [
        "Ġlot",
        -8.178182844392646
      ],
      [
        "ĠAnd",
        -8.179449590796565
      ],
      [
        "Ġthree",
        -8.180752074540042
      ],
      [
        "âĢĻ",
        -8.189022413207686
      ],
      [
        "Ġper",
        -8.189411133962286
      ],
      [
        "Ġless",
        -8.190574317899225
      ],
      [
        "Ġtoo",
        -8.193097785038317
      ],
      [
        "F",
        -8.195736035238953
      ],
      [
        "Ġschool",
        -8.196577966882185
      ],
      [
        "Ġnatural",
        -8.197170017476306
      ],
      [
        "Ġknown",
        -8.197604491407523
      ],
      [
        "Ġdisease",
        -8.199489109312273
      ],
      [
        "Ġwithin",
        -8.199898326041078
      ],
      [
        "Ġset",
        -8.2033562112064
      ],
      [
        "ment",
        -8.205456946660401
      ],
      [
        "Ġmust",
        -8.207565765170568
      ],
      [
        "ĠG",
        -8.212419004546044
      ],
      [
        "to",
        -8.213874977489008
      ],
      [
        "Ġdevelop",
        -8.216146165832106
      ],
      [
        "Ġindividual",
        -8.218944842405827
      ],
      [
        "the",
        -8.220394262450922
      ],
      [
        "ĠSo",
        -8.22531682601104
      ],
      [
        "Ġadd",
        -8.2271439809668
      ],
      [
        "Ġthings",
        -8.227542099093236
      ],
      [
        "Ġrisk",
        -8.229388667514625
      ],
      [
        "Ġcar",
        -8.230411075364133
      ],
      [
        ":ĊĊ",
        -8.23075524661895
      ],
      [
        "Ġsure",
        -8.250529220050826
      ],
      [
        "Ġenvironment",
        -8.25746655528571
      ],
      [
        "Ġdue",
        -8.26150961119053
      ],
      [
        "Ġpoint",
        -8.262106062708082
      ],
      [
        "Ġspecific",
        -8.262518081045314
      ],
      [
        "Ġwhy",
        -8.267623112059056
      ],
      [
        "ĠWhen",
        -8.26827271728417
      ],
      [
        "Ġcalled",
        -8.270375239202647
      ],
      [
        "Ġreally",
        -8.27158722384227
      ],
      [
        "Ġplay",
        -8.273167568998886
      ],
      [
        "E",
        -8.28224419261245
      ],
      [
        "Ġproject",
        -8.28462552402676
      ],
      [
        "Ġmain",
        -8.287863179704404
      ],
      [
        "Ġlow",
        -8.288093362382645
      ],
      [
        "less",
        -8.289239841754988
      ],
      [
        "Ġhere",
        -8.293209920989339
      ],
      [
        "Ġrange",
        -8.294089055177219
      ],
      [
        "Ġblood",
        -8.301946854245477
      ],
      [
        "ĠW",
        -8.30473562760749
      ],
      [
        "Ġprevent",
        -8.305691977637634
      ],
      [
        "W",
        -8.306618374075928
      ],
      [
        "Ġanother",
        -8.308785515453932
      ],
      [
        "Ġlevel",
        -8.308863784269665
      ],
      [
        "ar",
        -8.310683543699726
      ],
      [
        "Ġvalue",
        -8.311036883755053
      ],
      [
        "Ġensure",
        -8.311055926125217
      ],
      [
        "Ġreduce",
        -8.318681798313937
      ],
      [
        "Ġcolor",
        -8.319913164776562
      ],
      [
        "Ġbenefit",
        -8.322281204838173
      ],
      [
        "Ġtry",
        -8.329843384515817
      ],
      [
        "Ġpossible",
        -8.329983152165585
      ],
      [
        "Ġconsider",
        -8.330214401648654
      ],
      [
        "ĠF",
        -8.33302204148608
      ],
      [
        "Ġheat",
        -8.338599582012463
      ],
      [
        "Ġcare",
        -8.339732426328318
      ],
      [
        "Ġgoing",
        -8.34124407364998
      ],
      [
        "Ġcurrent",
        -8.344747600663915
      ],
      [
        "Ġalways",
        -8.345468408012783
      ],
      [
        "Ġfish",
        -8.346165052964956
      ],
      [
        "Ġfollowing",
        -8.346168265730054
      ],
      [
        "Ġsomething",
        -8.347510319549617
      ],
      [
        "Ġsource",
        -8.349192066477846
      ],
      [
        "Ġturn",
        -8.352469375934533
      ],
      [
        "Ġtest",
        -8.35565470406206
      ],
      [
        "Ġamount",
        -8.357181174734635
      ],
      [
        "Ġvarious",
        -8.358147137748311
      ],
      [
        "Ġproblem",
        -8.360997475171876
      ],
      [
        "N",
        -8.363231153383051
      ],
      [
        "Ġfactor",
        -8.365312993682501
      ],
      [
        "ĠThere",
        -8.371004572487033
      ],
      [
        "ĠO",
        -8.372055400576292
      ],
      [
        "Ġdid",
        -8.375144734088973
      ],
      [
        "Ġtree",
        -8.376122316301842
      ],
      [
        "+",
        -8.380210447938296
      ],
      [
        "Ġshow",
        -8.381421233134901
      ],
      [
        "Ġusual",
        -8.382168734032133
      ],
      [
        "age",
        -8.38651763565409
      ],
      [
        "G",
        -8.388603892111298
      ],
      [
        "Ġpresent",
        -8.391032276453615
      ],
      [
        "ally",
        -8.39171560677394
      ],
      [
        "Ġlearn",
        -8.394197235724338
      ],
      [
        "Ġlast",
        -8.402048369157527
      ],
      [
        "Ġspace",
        -8.404112326805823
      ],
      [
        "Ġresult",
        -8.40535324725722
      ],
      [
        "ĠR",
        -8.407887941813303
      ],
      [
        "Ġsize",
        -8.407925996674003
      ],
      [
        "Ġsoil",
        -8.409140862596608
      ],
      [
        "Ġteam",
        -8.41240282503841
      ],
      [
        "Ġlittle",
        -8.416238431760448
      ],
      [
        "ĠAs",
        -8.416297686003407
      ],
      [
        "Ġorder",
        -8.423292155499876
      ],
      [
        "Ġgeneral",
        -8.436863902621957
      ],
      [
        "ch",
        -8.44061936184136
      ],
      [
        "Ġquality",
        -8.443270190469121
      ],
      [
        "Ġtext",
        -8.443433918983215
      ],
      [
        "Ġavailable",
        -8.445823809706335
      ],
      [
        "Ġlive",
        -8.44641585558902
      ],
      [
        "Ġdevelopment",
        -8.446533271781611
      ],
      [
        "Ġanimals",
        -8.447957480646544
      ],
      [
        "Ġopen",
        -8.448247649595395
      ],
      [
        "M",
        -8.45259876615529
      ],
      [
        "ĠH",
        -8.455543647521793
      ],
      [
        "Ġshe",
        -8.462351388351024
      ],
      [
        "Ġal",
        -8.463776361327666
      ],
      [
        "ĠHe",
        -8.467291534723273
      ],
      [
        "Ġhand",
        -8.467298103964655
      ],
      [
        "Ġcells",
        -8.467316962445295
      ],
      [
        "ous",
        -8.473059704991378
      ],
      [
        "ĠN",
        -8.479317941623775
      ],
      [
        ",\"",
        -8.480926821827172
      ],
      [
        "Ġlearning",
        -8.483496227328917
      ],
      [
        "Ġenough",
        -8.484423988534065
      ],
      [
        "Ġcertain",
        -8.485932716703672
      ],
      [
        "Ġsolution",
        -8.486598495417299
      ],
      [
        "Ġmodel",
        -8.490431868534266
      ],
      [
        "Ġessential",
        -8.492311507524171
      ],
      [
        "Ġpressure",
        -8.493480125305034
      ],
      [
        "Ġseveral",
        -8.493549789229647
      ],
      [
        "one",
        -8.49751919991309
      ],
      [
        "Ġname",
        -8.49945569539307
      ],
      [
        "Ġterm",
        -8.50038337752101
      ],
      [
        "be",
        -8.500992141631135
      ],
      [
        "Ġtogether",
        -8.506204015694376
      ],
      [
        "ter",
        -8.506895616757578
      ],
      [
        "Ġnon",
        -8.50888097558158
      ],
      [
        "ur",
        -8.509360735723426
      ],
      [
        "Ġweek",
        -8.509688872200154
      ],
      [
        "Ġnear",
        -8.510415990517814
      ],
      [
        "Ġsurface",
        -8.511923567561611
      ],
      [
        "Ġweight",
        -8.512895246365908
      ],
      [
        "Ġfeel",
        -8.513935897463279
      ],
      [
        "Ġacid",
        -8.515123691341067
      ],
      [
        "Ġfunction",
        -8.517672161628564
      ],
      [
        "Ġleave",
        -8.518826051384742
      ],
      [
        "Ġhard",
        -8.520767759781496
      ],
      [
        "ĠWhich",
        -8.52173380230349
      ],
      [
        "O",
        -8.522682433933607
      ],
      [
        "Ġtypes",
        -8.523852928126374
      ],
      [
        "When",
        -8.526120594768262
      ],
      [
        "Ġ&",
        -8.52688778739331
      ],
      [
        "Ġprotein",
        -8.527987787166804
      ],
      [
        "Ġhappen",
        -8.529931423845511
      ],
      [
        "Ġrole",
        -8.530084215821809
      ],
      [
        "Ġoil",
        -8.530179586194208
      ],
      [
        "Ġput",
        -8.530254277162621
      ],
      [
        "Ġdifference",
        -8.530934410719343
      ],
      [
        "Ġunderstand",
        -8.531983122402737
      ],
      [
        "Ġlocal",
        -8.533161659351283
      ],
      [
        "Ġdamage",
        -8.536121473738774
      ],
      [
        "Ġstate",
        -8.539596743784024
      ],
      [
        "Ġtreatment",
        -8.540881110549098
      ],
      [
        "Ġ$",
        -8.542304605079703
      ],
      [
        "Ġage",
        -8.542935864846703
      ],
      [
        "Ġtechnology",
        -8.544524194203277
      ],
      [
        "Ġsay",
        -8.545408630000995
      ],
      [
        "We",
        -8.546963869781305
      ],
      [
        "You",
        -8.55053772131449
      ],
      [
        "Ġside",
        -8.551540025387695
      ],
      [
        "ary",
        -8.552497398197906
      ],
      [
        "Ġdirect",
        -8.552659548459193
      ],
      [
        "Ġmethod",
        -8.555858681627537
      ],
      [
        "Ġimpact",
        -8.558733140401369
      ],
      [
        "K",
        -8.558837824913077
      ],
      [
        "Ġfree",
        -8.55884860092334
      ],
      [
        "ry",
        -8.560786194936536
      ],
      [
        "Ġgarden",
        -8.560836145374996
      ],
      [
        "Ġproduce",
        -8.562652823389254
      ],
      [
        "Ġaway",
        -8.563715652913228
      ],
      [
        "Ġ=",
        -8.563770994179489
      ],
      [
        "Ġmaterial",
        -8.56481658029828
      ],
      [
        "H",
        -8.565141654519396
      ],
      [
        "Ġperson",
        -8.56627178345111
      ],
      [
        "Ġsince",
        -8.569234324712008
      ],
      [
        "Ġproblems",
        -8.571283406088831
      ],
      [
        "Ġcase",
        -8.572556995365854
      ],
      [
        "Ġsystems",
        -8.574074582434518
      ],
      [
        "Ġshort",
        -8.579914382919661
      ],
      [
        "Ġcost",
        -8.580389899522528
      ],
      [
        "R",
        -8.582440659710686
      ],
      [
        "not",
        -8.582552180373108
      ],
      [
        "V",
        -8.582570380285787
      ],
      [
        "ther",
        -8.585117926098743
      ],
      [
        "Ġalong",
        -8.587121952115183
      ],
      [
        "Ġlet",
        -8.590576923488108
      ],
      [
        "Ġfield",
        -8.593121050303466
      ],
      [
        "Ġresults",
        -8.594553035366307
      ],
      [
        "Ġprotect",
        -8.59599933763462
      ],
      [
        "Ġfast",
        -8.597012879662206
      ],
      [
        "Ġfocus",
        -8.598389048661815
      ],
      [
        "Ġcheck",
        -8.598958836610063
      ],
      [
        "thing",
        -8.599849829240071
      ],
      [
        "Ġpractice",
        -8.6006878487348
      ],
      [
        "Ġlove",
        -8.60358519540247
      ],
      [
        "ĠThat",
        -8.604129254678973
      ],
      [
        "Ġmaterials",
        -8.604265756627598
      ],
      [
        "]",
        -8.605641504154065
      ],
      [
        "Ġproper",
        -8.60654141646477
      ],
      [
        "âĢĶ",
        -8.60664070645623
      ],
      [
        "Ġobject",
        -8.608044757810877
      ],
      [
        "Ġdiet",
        -8.608701589701198
      ],
      [
        "ĠL",
        -8.608776262690908
      ],
      [
        "Ġneeds",
        -8.610427325378472
      ],
      [
        "Ġtop",
        -8.61053836960215
      ],
      [
        "Ġmaintain",
        -8.611351749381019
      ],
      [
        "Ġprogram",
        -8.611492989342398
      ],
      [
        "ĠK",
        -8.613814794139907
      ],
      [
        "Ġsimilar",
        -8.614623450819593
      ],
      [
        "ĠU",
        -8.614672481958769
      ],
      [
        "Ġlevels",
        -8.614798820696572
      ],
      [
        "Ġhaving",
        -8.619493111406019
      ],
      [
        "least",
        -8.620435358916088
      ],
      [
        "Ġuntil",
        -8.62081564257738
      ],
      [
        "Ġfamily",
        -8.621816874895654
      ],
      [
        "Ġphysical",
        -8.62519565730045
      ],
      [
        "Ġde",
        -8.62592539739694
      ],
      [
        "Ġcomputer",
        -8.626067917311913
      ],
      [
        "Ġsecond",
        -8.626197499457865
      ],
      [
        "Ġearly",
        -8.628006512383553
      ],
      [
        "Ġproducts",
        -8.629951815995762
      ],
      [
        "ĠBy",
        -8.632033835567816
      ],
      [
        "Ġgrowth",
        -8.632609893690635
      ],
      [
        "Ġpopulation",
        -8.636418743362553
      ],
      [
        "il",
        -8.637225172402644
      ],
      [
        ")Ċ",
        -8.638823322731916
      ],
      [
        "Ġkind",
        -8.641114812830555
      ],
      [
        "!Ċ",
        -8.645794847052208
      ],
      [
        "Ġkey",
        -8.646820388016668
      ],
      [
        "Ġoffer",
        -8.648438093444351
      ],
      [
        "Ġreal",
        -8.652027519675414
      ],
      [
        "Ġnext",
        -8.65213662404359
      ],
      [
        "Ġworking",
        -8.65249690348811
      ],
      [
        "Ġ[",
        -8.654338193566437
      ],
      [
        "Ġdogs",
        -8.656156385833722
      ],
      [
        "Ġwide",
        -8.658091087224644
      ],
      [
        "ance",
        -8.659385537061386
      ],
      [
        "There",
        -8.659844973273248
      ],
      [
        "Ġplan",
        -8.662567344694772
      ],
      [
        "Ġhigher",
        -8.663429565810004
      ],
      [
        "Ġbusiness",
        -8.663667673699766
      ],
      [
        "Ġcourse",
        -8.66422015092056
      ],
      [
        "Ġskin",
        -8.664495405752634
      ],
      [
        "To",
        -8.668122955354981
      ],
      [
        "Ġline",
        -8.66901373835076
      ],
      [
        "Ġeasy",
        -8.671860425129585
      ],
      [
        "Ġvariet",
        -8.672681860657585
      ],
      [
        "ĠRe",
        -8.673034282393123
      ],
      [
        "*",
        -8.675407791537275
      ],
      [
        "Ġmakes",
        -8.675944765873606
      ],
      [
        "Ġthing",
        -8.682516874362772
      ],
      [
        "Ġdepend",
        -8.682702122201686
      ],
      [
        "Ġchanges",
        -8.686001025950933
      ],
      [
        "Ġgiven",
        -8.686603761145197
      ],
      [
        "Ġlower",
        -8.687720926262408
      ],
      [
        "Ġavoid",
        -8.688231107022824
      ],
      [
        "Ġlikely",
        -8.690730152056895
      ],
      [
        "Ġold",
        -8.692381606131104
      ],
      [
        "ĠWith",
        -8.696316174312534
      ],
      [
        "Ġeye",
        -8.698368157338514
      ],
      [
        "Ġdoesn",
        -8.69838936210637
      ],
      [
        "Ġfull",
        -8.69961041029929
      ],
      [
        "Ġcover",
        -8.70046953059991
      ],
      [
        "Ġsimple",
        -8.702189679351417
      ],
      [
        "ĠUniversity",
        -8.704433321761803
      ],
      [
        "Ġfollow",
        -8.705573040391275
      ],
      [
        "Ġsafe",
        -8.705589608728452
      ],
      [
        "Ġcreat",
        -8.70664462244418
      ],
      [
        "Ġdays",
        -8.706785251668016
      ],
      [
        "Ġclose",
        -8.7107247491812
      ],
      [
        "Ġnever",
        -8.7115260551527
      ],
      [
        "ul",
        -8.712446666360833
      ],
      [
        "ĠâĢĶ",
        -8.715495922546296
      ],
      [
        "Ġissues",
        -8.716107242134019
      ],
      [
        "Ġactually",
        -8.718344538708568
      ],
      [
        "Ġclean",
        -8.720753486502208
      ],
      [
        "Ġbuilding",
        -8.720966216888105
      ],
      [
        "Ġunique",
        -8.722670517241028
      ],
      [
        "Ġeffective",
        -8.726907638497806
      ],
      [
        "Ġacross",
        -8.727215647098266
      ],
      [
        "Ġespecially",
        -8.729176438240106
      ],
      [
        "Ġfar",
        -8.729488080807252
      ],
      [
        "ĠSome",
        -8.731562604838954
      ],
      [
        "man",
        -8.73681519575006
      ],
      [
        "Ġprofessional",
        -8.737054096087308
      ],
      [
        "ĠAmerican",
        -8.737970740836337
      ],
      [
        "Ġexist",
        -8.738839577675941
      ],
      [
        "Ġfuture",
        -8.741340507293174
      ],
      [
        "Ġproduction",
        -8.744047382156387
      ],
      [
        "Ġheart",
        -8.747747479990945
      ],
      [
        "Ġfact",
        -8.747810959709733
      ],
      [
        "Ġhealthy",
        -8.750480299936305
      ],
      [
        "Ġclear",
        -8.750661674446311
      ],
      [
        "Ġsocial",
        -8.750774061044002
      ],
      [
        "Ġstep",
        -8.752156499730564
      ],
      [
        "Ġask",
        -8.75256906164332
      ],
      [
        "Ġcell",
        -8.755208499119211
      ],
      [
        "li",
        -8.756271673102848
      ],
      [
        "Ġimage",
        -8.75760886793626
      ],
      [
        "Ġdry",
        -8.75979195774458
      ],
      [
        "Ġarticle",
        -8.759879469699777
      ],
      [
        "Ġsingle",
        -8.760494405168096
      ],
      [
        "Ġwhite",
        -8.760753208774648
      ],
      [
        "Ġdone",
        -8.7608674699256
      ],
      [
        "Ġminute",
        -8.761447938946258
      ],
      [
        "Ġpaper",
        -8.762135574697943
      ],
      [
        "Ġhead",
        -8.762444641057108
      ],
      [
        "For",
        -8.764645623475753
      ],
      [
        "âĢ¦",
        -8.765966511481725
      ],
      [
        "_",
        -8.766244599040174
      ],
      [
        "Ġanimal",
        -8.76695561791864
      ],
      [
        "Ġpet",
        -8.76708471817196
      ],
      [
        "Ġground",
        -8.767090722715476
      ],
      [
        "Ġmillion",
        -8.769434998598646
      ],
      [
        "Ġvideo",
        -8.769583249907107
      ],
      [
        "Ġsuggest",
        -8.770114459743478
      ],
      [
        "Ġpost",
        -8.771408858654226
      ],
      [
        "Ġspeed",
        -8.771439053346331
      ],
      [
        "against",
        -8.776779816131683
      ],
      [
        ")ĊĊ",
        -8.778827278756815
      ],
      [
        "Ġchild",
        -8.781542727187158
      ],
      [
        "Ġaccording",
        -8.78375396114697
      ],
      [
        "Ġquestion",
        -8.783937296117994
      ],
      [
        "Ġdifficult",
        -8.78506999087465
      ],
      [
        "Ġbook",
        -8.785725575733125
      ],
      [
        "Ġoccur",
        -8.786411557828355
      ],
      [
        "Ġregular",
        -8.787572801744128
      ],
      [
        "Ġstore",
        -8.790091985327203
      ],
      [
        "Ġabove",
        -8.792394763838654
      ],
      [
        "Ġtoday",
        -8.792958776394663
      ],
      [
        "Ġrun",
        -8.792970377078017
      ],
      [
        "Ġclimate",
        -8.793060558745594
      ],
      [
        "Ġimprove",
        -8.799083541784217
      ],
      [
        "Ġloss",
        -8.799266697376597
      ],
      [
        "ach",
        -8.801185117668439
      ],
      [
        "Ġread",
        -8.802074126222792
      ],
      [
        "Ġtimes",
        -8.802124636512957
      ],
      [
        "Ġsign",
        -8.808981623634999
      ],
      [
        "Ġface",
        -8.80931804887676
      ],
      [
        "Ġrecommend",
        -8.809985858874777
      ],
      [
        "Ġgas",
        -8.810577510142979
      ],
      [
        "ĠNo",
        -8.81146274865784
      ],
      [
        "Ġdeep",
        -8.811995070334275
      ],
      [
        "Ġproduct",
        -8.81272029981465
      ],
      [
        "most",
        -8.81366647860752
      ],
      [
        "Ġsignificant",
        -8.813973863083795
      ],
      [
        "Ġelectric",
        -8.814523813321273
      ],
      [
        "âĢĵ",
        -8.817861835925614
      ],
      [
        "Ġbring",
        -8.817865850800441
      ],
      [
        "Ġfour",
        -8.818591517221456
      ],
      [
        "Ġcat",
        -8.81883629156663
      ],
      [
        "ent",
        -8.823194105374107
      ],
      [
        "Ġcontent",
        -8.823238008613615
      ],
      [
        "ĠYour",
        -8.823960380951036
      ],
      [
        "Ġaccess",
        -8.825603804622325
      ],
      [
        "Ġlist",
        -8.827777146780562
      ],
      [
        "Ġtraining",
        -8.828149836813864
      ],
      [
        "Ġsays",
        -8.82882756873136
      ],
      [
        "Ġbelieve",
        -8.835900796225154
      ],
      [
        "Ġleft",
        -8.836718693429614
      ],
      [
        "ĠNew",
        -8.837749781558312
      ],
      [
        "Ġenvironmental",
        -8.839812679526009
      ],
      [
        "ĠAn",
        -8.839890594506667
      ],
      [
        "Ġmove",
        -8.840524909446382
      ],
      [
        "Ġvehicle",
        -8.842626688340552
      ],
      [
        "Ġonce",
        -8.843290052715819
      ],
      [
        "Ġeither",
        -8.845263293229598
      ],
      [
        "Ġeat",
        -8.84579989043734
      ],
      [
        "Ġapproach",
        -8.846953194815573
      ],
      [
        "Ġrecent",
        -8.847333270820336
      ],
      [
        "Ġsound",
        -8.84811429017661
      ],
      [
        "Ġstudie",
        -8.849099992402476
      ],
      [
        "Ġeffect",
        -8.850931262348116
      ],
      [
        "Ġeffects",
        -8.853596561891369
      ],
      [
        "Ġstrong",
        -8.854012577139855
      ],
      [
        "Ġunderstanding",
        -8.855954590468443
      ],
      [
        "Ġmatter",
        -8.857047203784727
      ],
      [
        "Ġbasic",
        -8.858184412827145
      ],
      [
        "Ġpersonal",
        -8.858783914201984
      ],
      [
        "Ġreason",
        -8.861484395476156
      ],
      [
        "activity",
        -8.863221850216352
      ],
      [
        "Ġam",
        -8.863239158686607
      ],
      [
        "Ġfuel",
        -8.86392619993194
      ],
      [
        "Ġtreat",
        -8.864802501579128
      ],
      [
        "Ġparts",
        -8.865824913229044
      ],
      [
        "land",
        -8.867390140077703
      ],
      [
        "Ġamong",
        -8.869089824132544
      ],
      [
        "Ġb",
        -8.871237764441766
      ],
      [
        "Ġstructure",
        -8.871671864573809
      ],
      [
        "Ġbit",
        -8.871981598246755
      ],
      [
        "Ġhim",
        -8.873403232355635
      ],
      [
        "Ġengine",
        -8.874355531389455
      ],
      [
        "Ġperformance",
        -8.876259295288259
      ],
      [
        "Ġcomplex",
        -8.880063165289968
      ],
      [
        "Ġskills",
        -8.881159801408124
      ],
      [
        "Ġstress",
        -8.88330724012363
      ],
      [
        "co",
        -8.883703856107438
      ],
      [
        "Ġfurther",
        -8.883729610338756
      ],
      [
        "Ġaddition",
        -8.883836826262371
      ],
      [
        "As",
        -8.884085796826866
      ],
      [
        "Ġenjoy",
        -8.884280101683355
      ],
      [
        "ship",
        -8.889130772098639
      ],
      [
        "Ġbehavior",
        -8.891693866300528
      ],
      [
        "Ġmarket",
        -8.89213923947996
      ],
      [
        "ate",
        -8.8925621204466
      ],
      [
        "Ġpattern",
        -8.892876358607289
      ],
      [
        "Ġbig",
        -8.893749464573396
      ],
      [
        "Ġposition",
        -8.894728999670608
      ],
      [
        "Ġalready",
        -8.900920690651342
      ],
      [
        "Ġscience",
        -8.901443631317019
      ],
      [
        "Ġbuild",
        -8.90357816647996
      ],
      [
        "Ġred",
        -8.905045114884107
      ],
      [
        "Ġcommunity",
        -8.905172753982175
      ],
      [
        "Ġfeatures",
        -8.905683787326717
      ],
      [
        "Ġcarbon",
        -8.905841702812689
      ],
      [
        "Ġindustry",
        -8.906304923965191
      ],
      [
        "ĠJ",
        -8.906543622416693
      ],
      [
        "Ġanswer",
        -8.908126494959879
      ],
      [
        "Ġhours",
        -8.911450813330347
      ],
      [
        "Ġaction",
        -8.911454183397646
      ],
      [
        "Ġparent",
        -8.911853053947937
      ],
      [
        "So",
        -8.911956554121007
      ],
      [
        "up",
        -8.91203807876154
      ],
      [
        "Ġpopular",
        -8.913091591329326
      ],
      [
        "Ġways",
        -8.913409469951048
      ],
      [
        "Ġinside",
        -8.913430360974907
      ],
      [
        "Ġwhe",
        -8.913945676590751
      ],
      [
        "Ġbelow",
        -8.915389259875383
      ],
      [
        "Ġdiscover",
        -8.915594196322925
      ],
      [
        "necessary",
        -8.918479371937952
      ],
      [
        "Ġpre",
        -8.919791027059789
      ],
      [
        "Ġflower",
        -8.920805760357414
      ],
      [
        "Ġthought",
        -8.9216729967236
      ],
      [
        "Ġhistory",
        -8.922283954652096
      ],
      [
        "Ġslow",
        -8.923578091658214
      ],
      [
        "Ġmind",
        -8.924344991101334
      ],
      [
        "Ġbrain",
        -8.92590589736712
      ],
      [
        "Ġwaste",
        -8.927383393749068
      ],
      [
        "ial",
        -8.927917907376038
      ],
      [
        "Ġremain",
        -8.929882540779152
      ],
      [
        "Ġexplain",
        -8.930168703830052
      ],
      [
        "ĠDo",
        -8.932261608293741
      ],
      [
        "Ġsafety",
        -8.934228862427268
      ],
      [
        "Ġpain",
        -8.935122098948161
      ],
      [
        "Ġstay",
        -8.9356299968501
      ],
      [
        "Ġeasi",
        -8.93571980961416
      ],
      [
        "Ġmention",
        -8.93596540861124
      ],
      [
        "out",
        -8.93705182345508
      ],
      [
        "Ġidea",
        -8.937343483750587
      ],
      [
        "Ġrate",
        -8.937879418587098
      ],
      [
        "Ġblack",
        -8.939394943153358
      ],
      [
        "Ġshape",
        -8.940354772832347
      ],
      [
        "Ġcook",
        -8.941807761437257
      ],
      [
        "Ġthough",
        -8.942083071289801
      ],
      [
        "Ġissue",
        -8.942699892359686
      ],
      [
        "Ġpublic",
        -8.943009572344259
      ],
      [
        "Ġfall",
        -8.945163750187614
      ],
      [
        "am",
        -8.948410269899139
      ],
      [
        "Ġsense",
        -8.948826467161457
      ],
      [
        "Ġseen",
        -8.949623624708021
      ],
      [
        "Ġagain",
        -8.951122377114409
      ],
      [
        "tic",
        -8.953057334663754
      ],
      [
        "Ġmajor",
        -8.953117017398862
      ],
      [
        "Ġmanagement",
        -8.953321940812161
      ],
      [
        "Ġland",
        -8.954131727376918
      ],
      [
        "Ġmix",
        -8.955567266249371
      ],
      [
        "Ġauthor",
        -8.96053862454149
      ],
      [
        "Ġcool",
        -8.960621912772652
      ],
      [
        "Ġtoward",
        -8.96118984905669
      ],
      [
        "Ġcompany",
        -8.96135912919192
      ],
      [
        "Ġaddress",
        -8.961937486225807
      ],
      [
        "ful",
        -8.961985282671263
      ],
      [
        "Ġreach",
        -8.96259252237638
      ],
      [
        "ĠOne",
        -8.96330144984768
      ],
      [
        "Ġuser",
        -8.965427962086473
      ],
      [
        "Ġwarm",
        -8.966425411563492
      ],
      [
        "Ġactivities",
        -8.967791718118697
      ],
      [
        "Ġappear",
        -8.968116009301909
      ],
      [
        "Ġliving",
        -8.969571151158096
      ],
      [
        "Ġperiod",
        -8.970013638977566
      ],
      [
        "Ġgame",
        -8.970439604062058
      ],
      [
        "Ġknowledge",
        -8.970735993178407
      ],
      [
        "Ġconcern",
        -8.974765551179155
      ],
      [
        "if",
        -8.976655209593893
      ],
      [
        "Ġtotal",
        -8.978248084536432
      ],
      [
        "Ġtools",
        -8.979747227841294
      ],
      [
        "im",
        -8.98006246936907
      ],
      [
        "Ġpositive",
        -8.982825315230688
      ],
      [
        "Ġwhole",
        -8.984434383579124
      ],
      [
        "Ġnature",
        -8.9864924278555
      ],
      [
        "Ġresearchers",
        -8.986810349925378
      ],
      [
        "ian",
        -8.986999421022341
      ],
      [
        "Ġcold",
        -8.989660465164484
      ],
      [
        "Ġgenetic",
        -8.990714196909034
      ],
      [
        "Ġhouse",
        -8.994290010467335
      ],
      [
        "Ġroom",
        -8.994411919845946
      ],
      [
        "ism",
        -8.995730007010383
      ],
      [
        "Ġmedical",
        -8.996364662312555
      ],
      [
        "Ġscientist",
        -8.998187350419936
      ],
      [
        "Ġseason",
        -8.999992254831305
      ],
      [
        "ge",
        -9.000729606401238
      ],
      [
        "Ġcancer",
        -9.002990822882573
      ],
      [
        "Ġtypically",
        -9.003145085102734
      ],
      [
        "Ġresponse",
        -9.00362529976465
      ],
      [
        "ĠV",
        -9.004858395960547
      ],
      [
        "Ġco",
        -9.005247867783053
      ],
      [
        "Ġcut",
        -9.006848178584397
      ],
      [
        "ĠWhil",
        -9.011723974891854
      ],
      [
        "Ġaverage",
        -9.012716879442042
      ],
      [
        "Ġcamera",
        -9.012934322422208
      ],
      [
        "Ġperform",
        -9.013081125803874
      ],
      [
        "Ġtell",
        -9.013136823513197
      ],
      [
        "Ġassociated",
        -9.015495519755031
      ],
      [
        "Ġmachine",
        -9.01807319751086
      ],
      [
        "ĠCan",
        -9.020079232692469
      ],
      [
        "Ġaffect",
        -9.020421110628174
      ],
      [
        "Ġdoing",
        -9.020944510921863
      ],
      [
        "Ġadult",
        -9.02097056185553
      ],
      [
        "Ġsomeone",
        -9.021326865208392
      ],
      [
        "Ġgreen",
        -9.024574235278145
      ],
      [
        "Ġcorrect",
        -9.02525452942075
      ],
      [
        "Ġmethods",
        -9.02774266222202
      ],
      [
        "Ġspecial",
        -9.028414229570105
      ],
      [
        "Ġmonths",
        -9.028801153241702
      ],
      [
        "Ġcode",
        -9.032830241040656
      ],
      [
        "ish",
        -9.03365879560792
      ],
      [
        "taking",
        -9.03390029295116
      ],
      [
        "Ġshare",
        -9.03390884823058
      ],
      [
        "Ġmovement",
        -9.034893987467225
      ],
      [
        "Ġsymptoms",
        -9.036081567428097
      ],
      [
        "L",
        -9.036934410484282
      ],
      [
        "Ġrepresent",
        -9.037105679011498
      ],
      [
        "Ġsimpl",
        -9.037902397657518
      ],
      [
        "Ġcontact",
        -9.03795595018265
      ],
      [
        "Ġflow",
        -9.038425186238122
      ],
      [
        "rather",
        -9.04234884186006
      ],
      [
        "Ġhelps",
        -9.044786610101678
      ],
      [
        "Ġpercent",
        -9.048180847405895
      ],
      [
        "Ġbuy",
        -9.048725436634026
      ],
      [
        "Ġforce",
        -9.04945899364728
      ],
      [
        "Ġtraditional",
        -9.050090325800753
      ],
      [
        "Ġclass",
        -9.050648081736874
      ],
      [
        "Ġwear",
        -9.052395745598924
      ],
      [
        "Ġhumans",
        -9.05323627704581
      ],
      [
        "Ġonline",
        -9.054442410516238
      ],
      [
        "Ġexercise",
        -9.055673704852538
      ],
      [
        "Ġservice",
        -9.05587061519658
      ],
      [
        "Ġdetermine",
        -9.057942598754549
      ],
      [
        "me",
        -9.059330273494613
      ],
      [
        "Ġchoose",
        -9.059503684879834
      ],
      [
        "un",
        -9.060214643216348
      ],
      [
        "by",
        -9.060660480245392
      ],
      [
        "=",
        -9.060696748345348
      ],
      [
        "\\",
        -9.060997107062777
      ],
      [
        "Ġchemical",
        -9.062702840730164
      ],
      [
        "Ġhold",
        -9.064389247594091
      ],
      [
        "Ġyoung",
        -9.066842758859048
      ],
      [
        "Ġgot",
        -9.067263698834472
      ],
      [
        "Ġpast",
        -9.067594201667246
      ],
      [
        "Ġsite",
        -9.06812295938042
      ],
      [
        "Ġtool",
        -9.069610816299114
      ],
      [
        "Ġapplications",
        -9.070481374865338
      ],
      [
        "Ġperfect",
        -9.070940476672726
      ],
      [
        "Ġidentify",
        -9.07213614445563
      ],
      [
        "ĠAll",
        -9.072559400517768
      ],
      [
        "Ġwomen",
        -9.07363718876519
      ],
      [
        "Ġart",
        -9.07365069980588
      ],
      [
        "Ġquickly",
        -9.075750868381943
      ],
      [
        "Ġinvolve",
        -9.077268763041731
      ],
      [
        "Ġnormal",
        -9.07805961237019
      ],
      [
        "Ġentire",
        -9.080773039081972
      ],
      [
        ".\"ĊĊ",
        -9.08118855851773
      ],
      [
        "Ġprimar",
        -9.081479268944308
      ],
      [
        "Ġhot",
        -9.082729819473954
      ],
      [
        "Ġcrucial",
        -9.08292491187574
      ],
      [
        "Ġanalysis",
        -9.083098567714831
      ],
      [
        "Ġresources",
        -9.083498102241746
      ],
      [
        "Ġquestions",
        -9.085312745538696
      ],
      [
        "Ġmuscle",
        -9.085792307166288
      ],
      [
        "Ġwinter",
        -9.086682083133349
      ],
      [
        ".\"Ċ",
        -9.087456217830368
      ],
      [
        "Ġoutside",
        -9.087882092116368
      ],
      [
        "Ġcall",
        -9.087916196564649
      ],
      [
        "ĠAI",
        -9.089703565754707
      ],
      [
        "Ġtechniques",
        -9.089792458586
      ],
      [
        "|",
        -9.09052694370683
      ],
      [
        "Ġoverall",
        -9.091066037735754
      ],
      [
        "Ġmoney",
        -9.093047658702911
      ],
      [
        "Ġguide",
        -9.093992314190384
      ],
      [
        "Ġetc",
        -9.09489063923934
      ],
      [
        "Ġcontinue",
        -9.09569002816129
      ],
      [
        "Ġdevice",
        -9.09699939155418
      ],
      [
        "Ġmodern",
        -9.097090574535924
      ],
      [
        "Ġcases",
        -9.097121363243346
      ],
      [
        "Ġrelationship",
        -9.0974119491764
      ],
      [
        "Ġproperties",
        -9.100321637799134
      ],
      [
        "Ġsugar",
        -9.101169351451626
      ],
      [
        "Ġremove",
        -9.102598175796642
      ],
      [
        "ĠDNA",
        -9.103215740141689
      ],
      [
        "Ġwood",
        -9.103928067997888
      ],
      [
        "Ġrelated",
        -9.104088292379885
      ],
      [
        "Ġbalance",
        -9.10568394152016
      ],
      [
        "Ġlocation",
        -9.107506544676168
      ],
      [
        "Ġbad",
        -9.108584330790348
      ],
      [
        "instead",
        -9.115405831554009
      ],
      [
        "Ġbase",
        -9.115684644084864
      ],
      [
        "Ġsignal",
        -9.117290089056526
      ],
      [
        "Ġsometime",
        -9.117716855706671
      ],
      [
        "ĠSt",
        -9.118612737163737
      ],
      [
        "Ġrelative",
        -9.120281860033655
      ],
      [
        "Ġself",
        -9.12058662809608
      ],
      [
        "Ġsleep",
        -9.12117779414865
      ],
      [
        "Ġglobal",
        -9.121729237157698
      ],
      [
        "Ġinfection",
        -9.122108569019808
      ],
      [
        "Ġreport",
        -9.122989702861863
      ],
      [
        "Ġact",
        -9.123402049148922
      ],
      [
        "Y",
        -9.124428658679417
      ],
      [
        "Ġfive",
        -9.12496624823406
      ],
      [
        "probably",
        -9.12515311038218
      ],
      [
        "ling",
        -9.126027572712362
      ],
      [
        "Ġplastic",
        -9.12995365821167
      ],
      [
        "throughout",
        -9.13182765927482
      ],
      [
        "Ġmilk",
        -9.132622268034927
      ],
      [
        "Ġlayer",
        -9.132904428775367
      ],
      [
        "Ġever",
        -9.133379929848829
      ],
      [
        "Ġeffort",
        -9.133489862608178
      ],
      [
        "Ġmetal",
        -9.134009141998993
      ],
      [
        "ĠNational",
        -9.134285427692443
      ],
      [
        "ĠAt",
        -9.134567030436148
      ],
      [
        "J",
        -9.135793185442118
      ],
      [
        ").Ċ",
        -9.139034629197678
      ],
      [
        "Ġmultiple",
        -9.139139625039494
      ],
      [
        "Ġweather",
        -9.13975165762794
      ],
      [
        "Ġsoftware",
        -9.141361878852877
      ],
      [
        "Ġsea",
        -9.142006224163396
      ],
      [
        "Ġexplore",
        -9.14473517802968
      ],
      [
        "Ġhear",
        -9.14508323147831
      ],
      [
        "Ġparticular",
        -9.145418999876618
      ],
      [
        "Ġisn",
        -9.145780395612404
      ],
      [
        "Ġcomponents",
        -9.146455038043175
      ],
      [
        "Ġfeet",
        -9.152582167423404
      ],
      [
        "Ġactive",
        -9.153525361648343
      ],
      [
        "Ġcompared",
        -9.155836201165982
      ],
      [
        "Ġdetail",
        -9.157991024734809
      ],
      [
        "Ġelements",
        -9.159056467852007
      ],
      [
        "Ġmonitor",
        -9.159939153969246
      ],
      [
        "Ġextreme",
        -9.16011717296011
      ],
      [
        "Ġlength",
        -9.16368417267733
      ],
      [
        "Ġwon",
        -9.164014143910236
      ],
      [
        "Ġvisit",
        -9.164437406820989
      ],
      [
        "Ġcomplete",
        -9.165062184729326
      ],
      [
        "ĠUnited",
        -9.16581016097124
      ],
      [
        "Ġdigital",
        -9.16637896577338
      ],
      [
        "Ġchoice",
        -9.16716389689789
      ],
      [
        "ĠDr",
        -9.167438715597449
      ],
      [
        "Ġview",
        -9.167497086843186
      ],
      [
        "Ġprice",
        -9.170147397441626
      ],
      [
        "Ġcontain",
        -9.170316794477325
      ],
      [
        "mm",
        -9.175847394161051
      ],
      [
        "Ġnight",
        -9.176235640769026
      ],
      [
        "Ġeducation",
        -9.177155540288345
      ],
      [
        "Ġcountry",
        -9.180375107857156
      ],
      [
        "Ġreaction",
        -9.180501731841566
      ],
      [
        "Ġcaus",
        -9.180593073481834
      ],
      [
        "Ġbirds",
        -9.18209717489776
      ],
      [
        "yourself",
        -9.182301495643884
      ],
      [
        "Ġunit",
        -9.18435362819028
      ],
      [
        "Ġdivers",
        -9.185167762254924
      ],
      [
        "ver",
        -9.186637541365096
      ],
      [
        "Ġstop",
        -9.187032987492248
      ],
      [
        "ĠBe",
        -9.18850095484617
      ],
      [
        "Ġpatients",
        -9.18900079071675
      ],
      [
        "Ġnetwork",
        -9.189515741172634
      ],
      [
        "Ġsummer",
        -9.18977030716733
      ],
      [
        "Ġbattery",
        -9.190933964992457
      ],
      [
        "gan",
        -9.193175132646262
      ],
      [
        "Ġeating",
        -9.193198636702622
      ],
      [
        "Ġincreasing",
        -9.194228270417188
      ],
      [
        "Ġoptions",
        -9.194592259748813
      ],
      [
        "Ġprovid",
        -9.19518109059807
      ],
      [
        "Ġsuccessful",
        -9.19685741330726
      ],
      [
        "Ġadvance",
        -9.1968752424021
      ],
      [
        "Ġequipment",
        -9.197720419398625
      ],
      [
        "ten",
        -9.198543050184412
      ],
      [
        "Ġbreak",
        -9.198933184991263
      ],
      [
        "Ġfeed",
        -9.199032250537227
      ],
      [
        "Ġpurpose",
        -9.201579167779474
      ],
      [
        "yet",
        -9.20222242692064
      ],
      [
        "Ġman",
        -9.20340102049811
      ],
      [
        "Ġcycle",
        -9.204100967721264
      ],
      [
        "Ġrelease",
        -9.20543637030731
      ],
      [
        "Ġmeat",
        -9.206152429047066
      ],
      [
        "Ġtrue",
        -9.207622067436793
      ],
      [
        "Ġtrack",
        -9.209781609358895
      ],
      [
        "Ġshown",
        -9.21338819270908
      ],
      [
        "Ġhalf",
        -9.214314925381574
      ],
      [
        "Ġgain",
        -9.214826405796526
      ],
      [
        "Ġsubject",
        -9.215221323944428
      ],
      [
        "Ġregion",
        -9.218817530033466
      ],
      [
        "ization",
        -9.21885094482166
      ],
      [
        "Ġexperiment",
        -9.218928599051036
      ],
      [
        "Ġblock",
        -9.22167166088686
      ],
      [
        "Ġwebsite",
        -9.222176919819104
      ],
      [
        "Ġago",
        -9.222317434039397
      ],
      [
        "Ġcon",
        -9.22326701034874
      ],
      [
        "Ġservices",
        -9.223362610275
      ],
      [
        "Ġtaken",
        -9.223678983730604
      ],
      [
        "Q",
        -9.224306295050429
      ],
      [
        "cy",
        -9.224384561436644
      ],
      [
        "ĠX",
        -9.225188825245496
      ],
      [
        "Ġlater",
        -9.22519079247355
      ],
      [
        "Why",
        -9.22613527421038
      ],
      [
        "One",
        -9.227114431225088
      ],
      [
        "Ġreturn",
        -9.22713892341
      ],
      [
        "Ġnutrient",
        -9.228148363530895
      ],
      [
        "Ġfat",
        -9.228414878919946
      ],
      [
        "ke",
        -9.22857675379825
      ],
      [
        "Ġfill",
        -9.229798336633852
      ],
      [
        "Ġenhance",
        -9.230031661779917
      ],
      [
        "Ġstarted",
        -9.23173204222093
      ],
      [
        "Ġinvolved",
        -9.23370620351888
      ],
      [
        "Ġsave",
        -9.236724969466923
      ],
      [
        "Ġrest",
        -9.236918291175012
      ],
      [
        "ĠZ",
        -9.238078848582449
      ],
      [
        "Ġefficient",
        -9.23955499373267
      ],
      [
        "Ġattention",
        -9.242214564024316
      ],
      [
        "over",
        -9.242503337263182
      ],
      [
        "ĠSchool",
        -9.242550639867254
      ],
      [
        "Ġmeasure",
        -9.24697909985132
      ],
      [
        "ĠHealth",
        -9.24750127669019
      ],
      [
        "Ġfinal",
        -9.24774658333995
      ],
      [
        "line",
        -9.247914141745694
      ],
      [
        "Ġchicken",
        -9.248090968316683
      ],
      [
        "ill",
        -9.248493224860432
      ],
      [
        "Ġstudent",
        -9.252206586102222
      ],
      [
        "ĠOn",
        -9.25278365373828
      ],
      [
        "quite",
        -9.252950284795991
      ],
      [
        "Ġadditional",
        -9.253048514192486
      ],
      [
        "ĠHere",
        -9.253112115034462
      ],
      [
        "Ġeggs",
        -9.254199850361976
      ],
      [
        "Ġingredient",
        -9.255740625092702
      ],
      [
        "Ġshows",
        -9.256466996542716
      ],
      [
        "ex",
        -9.25651287322255
      ],
      [
        "Ġachieve",
        -9.256550449582246
      ],
      [
        "Ġlanguage",
        -9.2581849973603
      ],
      [
        "Ġfront",
        -9.25862885723837
      ],
      [
        ".\"",
        -9.259653857754328
      ],
      [
        "Ġsample",
        -9.259738765576216
      ],
      [
        "Ġsearch",
        -9.260062229789725
      ],
      [
        "Ġsub",
        -9.26019515669939
      ],
      [
        "ĠâĢľ",
        -9.26257185387793
      ],
      [
        "Ġapply",
        -9.263109119487169
      ],
      [
        "Ġconcept",
        -9.265085086515551
      ],
      [
        "Ġdistance",
        -9.266324014282574
      ],
      [
        "Ġplayer",
        -9.266929301386664
      ],
      [
        "Ġstory",
        -9.26864822677064
      ],
      [
        "Ġbacteria",
        -9.2689936739504
      ],
      [
        "Ġitself",
        -9.269519453573311
      ],
      [
        "Ġpoints",
        -9.270183869235485
      ],
      [
        "wise",
        -9.270321564517657
      ],
      [
        "Ġsolar",
        -9.270597675083051
      ],
      [
        "But",
        -9.271778291583294
      ],
      [
        "Ġdrink",
        -9.272092230911603
      ],
      [
        "Ġfile",
        -9.27451199026032
      ],
      [
        "Ġthemselves",
        -9.276769444128872
      ],
      [
        "Ġnegative",
        -9.277130175555833
      ],
      [
        "Ġaspect",
        -9.277315715633003
      ],
      [
        "Ġoriginal",
        -9.278958945235834
      ],
      [
        "Ġinfluence",
        -9.280215264278064
      ],
      [
        "ence",
        -9.280421868414235
      ],
      [
        "Ġmale",
        -9.28199840195385
      ],
      [
        "Ġspread",
        -9.28257123640365
      ],
      [
        "$",
        -9.283342856647598
      ],
      [
        "Ġfoods",
        -9.283568358538286
      ],
      [
        "Ġprocesses",
        -9.283938187233725
      ],
      [
        "Ġoption",
        -9.28462103368588
      ],
      [
        "Ġestablish",
        -9.284911306953925
      ],
      [
        "Ġstandard",
        -9.284915450368608
      ],
      [
        "Ġoffers",
        -9.285177567096266
      ],
      [
        "Ġbehind",
        -9.285206622141962
      ],
      [
        "Ġmedia",
        -9.287520651242602
      ],
      [
        "Ġseem",
        -9.287824604312084
      ],
      [
        "Ġreduc",
        -9.28932704807286
      ],
      [
        "Ġcompound",
        -9.290483006702104
      ],
      [
        "Ġinjur",
        -9.290610536939845
      ],
      [
        "where",
        -9.290905642888587
      ],
      [
        "Ġdark",
        -9.292346767747611
      ],
      [
        "Ġlink",
        -9.292593522489192
      ],
      [
        "Ġadded",
        -9.293039894856973
      ],
      [
        "Ġsection",
        -9.293144319315832
      ],
      [
        "den",
        -9.293999304005167
      ],
      [
        "Â°",
        -9.294032981010872
      ],
      [
        "Ġapplication",
        -9.296551386217905
      ],
      [
        "Ġeyes",
        -9.298620025549267
      ],
      [
        "Ġdail",
        -9.300054475345348
      ],
      [
        "ating",
        -9.300535393160708
      ],
      [
        "U",
        -9.300766871634004
      ],
      [
        "Can",
        -9.30172096642746
      ],
      [
        "Ġinsect",
        -9.302388684825464
      ],
      [
        "Ġconduct",
        -9.302688633643116
      ],
      [
        "work",
        -9.303425232209287
      ],
      [
        "Ġwatch",
        -9.304512771504411
      ],
      [
        "Ġdirection",
        -9.30484457119856
      ],
      [
        "[",
        -9.305861761573002
      ],
      [
        "Ġtarget",
        -9.307178355695855
      ],
      [
        "Ġpatient",
        -9.307321720886788
      ],
      [
        "Ġjob",
        -9.30799809727541
      ],
      [
        "Ġinstall",
        -9.308447643278928
      ],
      [
        "Ġfun",
        -9.309299651494658
      ],
      [
        "Ġsalt",
        -9.310334107157464
      ],
      [
        "Ġlimit",
        -9.310751727430103
      ],
      [
        "Ġglass",
        -9.31112867740547
      ],
      [
        ">",
        -9.311408123633225
      ],
      [
        "ized",
        -9.311431163125214
      ],
      [
        "Ġdrive",
        -9.311612759389716
      ],
      [
        "Ġcontribute",
        -9.311934927033082
      ],
      [
        "ber",
        -9.312150416529612
      ],
      [
        "âĢĿ",
        -9.313934243870357
      ],
      [
        "Ġtend",
        -9.314178643112696
      ],
      [
        "Ġworks",
        -9.314482431951598
      ],
      [
        "ier",
        -9.315128393334916
      ],
      [
        "running",
        -9.31567319664071
      ],
      [
        "Ġreading",
        -9.315766358871237
      ],
      [
        "ical",
        -9.315893201105972
      ],
      [
        "X",
        -9.315953152645369
      ],
      [
        "Ġpay",
        -9.316248778364397
      ],
      [
        "Ġextra",
        -9.316373516009168
      ],
      [
        "Ġfresh",
        -9.316803947248808
      ],
      [
        "larger",
        -9.316960244443406
      ],
      [
        "Ġparticularly",
        -9.317292043541151
      ],
      [
        "Ġconnection",
        -9.318426826722805
      ],
      [
        "Ġenter",
        -9.318782139364563
      ],
      [
        "Ġaccount",
        -9.320649032936773
      ],
      [
        "Ġdevices",
        -9.320726196173585
      ],
      [
        "Ġgoal",
        -9.321853613558194
      ],
      [
        "ĠDe",
        -9.322321275646509
      ],
      [
        "Ġdiscuss",
        -9.322835109693637
      ],
      [
        "Ġappropriate",
        -9.326047899363475
      ],
      [
        "Ġfemale",
        -9.327631412332224
      ],
      [
        "Ġsun",
        -9.327997703072633
      ],
      [
        "Ġevidence",
        -9.328306718176226
      ],
      [
        "Ġdidn",
        -9.330489720828291
      ],
      [
        "Ġhandle",
        -9.332245871430557
      ],
      [
        "Ġapp",
        -9.334110715987723
      ],
      [
        "Ġsmaller",
        -9.335083342617375
      ],
      [
        "Ġice",
        -9.335197866581195
      ],
      [
        "Ġspring",
        -9.335596201401398
      ],
      [
        "Ġtakes",
        -9.335889801118242
      ],
      [
        "Ġattack",
        -9.335967069132414
      ],
      [
        "Ġsuccess",
        -9.336854239935947
      ],
      [
        "Ġwords",
        -9.337046394876308
      ],
      [
        "ĠStates",
        -9.337075056086366
      ],
      [
        "Ġsix",
        -9.338228968329304
      ],
      [
        "ĠYes",
        -9.341839078008608
      ],
      [
        "Ġinput",
        -9.34224621159651
      ],
      [
        "Ġmental",
        -9.34283411613367
      ],
      [
        "Ġcrop",
        -9.34300564195642
      ],
      [
        "of",
        -9.346401210434976
      ],
      [
        "per",
        -9.34795116672502
      ],
      [
        "An",
        -9.34904868290196
      ],
      [
        "Ġfine",
        -9.349504420015558
      ],
      [
        "ĠUS",
        -9.35089626546261
      ],
      [
        "Ġtravel",
        -9.352147225046924
      ],
      [
        "Ġblue",
        -9.354400121680085
      ],
      [
        "Ġcharge",
        -9.354405610211304
      ],
      [
        "Ġseparate",
        -9.354933999231854
      ],
      [
        "care",
        -9.3551660204223
      ],
      [
        "Ġlack",
        -9.355349335468569
      ],
      [
        "Ġmeet",
        -9.356176437758684
      ],
      [
        "ĠAfter",
        -9.356630600091592
      ],
      [
        "Ġmonth",
        -9.356740976122811
      ],
      [
        "Ġdescribe",
        -9.356933306715362
      ],
      [
        "Ġextend",
        -9.357761442601296
      ],
      [
        "Ġoutput",
        -9.359788736599052
      ],
      [
        "ure",
        -9.360500017202568
      ],
      [
        "Ġtalk",
        -9.360670852493588
      ],
      [
        "ĠShe",
        -9.360898228875396
      ],
      [
        "Ġmanage",
        -9.361281432332078
      ],
      [
        "Ġspot",
        -9.363090891875522
      ],
      [
        "-to",
        -9.36432626335628
      ],
      [
        "ĠEarth",
        -9.364353402763218
      ],
      [
        "Ġcenter",
        -9.364588676243065
      ],
      [
        "Ġfire",
        -9.365082917661509
      ],
      [
        "Ġstyle",
        -9.365193112532522
      ],
      [
        "Ġsupply",
        -9.366665082906811
      ],
      [
        "Ġconstant",
        -9.366784324492006
      ],
      [
        "Ġprovided",
        -9.367035701973489
      ],
      [
        "Ġtips",
        -9.36954650094089
      ],
      [
        "more",
        -9.369704398994772
      ],
      [
        "Ġcritical",
        -9.37004675468206
      ],
      [
        "Ġword",
        -9.37073427456847
      ],
      [
        "ĠUse",
        -9.370807413425377
      ],
      [
        "Ġuseful",
        -9.371285193175524
      ],
      [
        "Ġbag",
        -9.371684751668075
      ],
      [
        "Ġstrength",
        -9.371804628417326
      ],
      [
        "Ġmodels",
        -9.372658558060424
      ],
      [
        "Ġcircuit",
        -9.374444342767031
      ],
      [
        "And",
        -9.374548866306316
      ],
      [
        "Ġgovernment",
        -9.3749199936023
      ],
      [
        "Ġcats",
        -9.37740328431692
      ],
      [
        "Ġwalk",
        -9.378105770769489
      ],
      [
        "Ġseries",
        -9.37823237167575
      ],
      [
        "Ġcompletely",
        -9.378722106392177
      ],
      [
        "Ġmass",
        -9.382524507253349
      ],
      [
        "Ġculture",
        -9.383963671189989
      ],
      [
        "ĠNorth",
        -9.384645196363778
      ],
      [
        "Ġfix",
        -9.385267390640212
      ],
      [
        "ions",
        -9.38659150017286
      ],
      [
        "Ġeveryone",
        -9.390865841036904
      ],
      [
        "Ġgenerate",
        -9.391991133651072
      ],
      [
        "Ġorganic",
        -9.392201693707944
      ],
      [
        "Ġgeneration",
        -9.392292903256587
      ],
      [
        "ĠMore",
        -9.392626864335949
      ],
      [
        "Ġkill",
        -9.392661441358465
      ],
      [
        "Ġserve",
        -9.394696650285065
      ],
      [
        "Ġfit",
        -9.395896007686035
      ],
      [
        "op",
        -9.396028276702086
      ],
      [
        "Ġelse",
        -9.396775347712069
      ],
      [
        "Ġelectrical",
        -9.39711906158504
      ],
      [
        "Ġproduced",
        -9.397905739600514
      ],
      [
        "ĠAmerica",
        -9.398141906455733
      ],
      [
        "Ġversion",
        -9.398264788202198
      ],
      [
        "Ġcharacteristic",
        -9.400635572947603
      ],
      [
        "Ġball",
        -9.400955036635663
      ],
      [
        "Ġhair",
        -9.401072373217904
      ],
      [
        "Ġpair",
        -9.401512499832116
      ],
      [
        "ĠMost",
        -9.401572286029792
      ],
      [
        "Ġfruit",
        -9.401645772759188
      ],
      [
        "Ġvision",
        -9.401718376533925
      ],
      [
        "Ġeasier",
        -9.405830580242393
      ],
      [
        "companie",
        -9.406543868636527
      ],
      [
        "Because",
        -9.406553589293509
      ],
      [
        "Ġexpert",
        -9.407264961795509
      ],
      [
        "min",
        -9.41000328463618
      ],
      [
        "Ġmolecule",
        -9.412126546763217
      ],
      [
        "Ġcentur",
        -9.4125981730472
      ],
      [
        "Ġnotice",
        -9.413023628227243
      ],
      [
        "Ġpiece",
        -9.413120480284912
      ],
      [
        "Ġcommunication",
        -9.41432498598191
      ],
      [
        "ĠScience",
        -9.41605283606598
      ],
      [
        "These",
        -9.41663675498407
      ],
      [
        "Ġkids",
        -9.416975212841567
      ],
      [
        "Ġdocument",
        -9.417316018735988
      ],
      [
        "Using",
        -9.41769683101127
      ],
      [
        "Ġdetect",
        -9.41921327234408
      ],
      [
        "Ġmulti",
        -9.419536863304687
      ],
      [
        "Ġwind",
        -9.421936822294114
      ],
      [
        "Ġcity",
        -9.422824403034902
      ],
      [
        "j",
        -9.422931464540373
      ],
      [
        "Ġtissue",
        -9.423570994943168
      ],
      [
        "Ġoxygen",
        -9.42434904956249
      ],
      [
        "Ġinterest",
        -9.42481341312103
      ],
      [
        "Ġbegin",
        -9.424916532483715
      ],
      [
        "Ġsteps",
        -9.427933537378811
      ],
      [
        "Ġimages",
        -9.428514879772834
      ],
      [
        "Whil",
        -9.430293219432675
      ],
      [
        "Ġgoe",
        -9.430356670725963
      ],
      [
        "Ġefficiency",
        -9.431908672063836
      ],
      [
        "Ġchallenges",
        -9.433209750247212
      ],
      [
        "Ġbird",
        -9.43345603234929
      ],
      [
        "Ġaim",
        -9.435029511185142
      ],
      [
        "Ġpath",
        -9.43522092015906
      ],
      [
        "Ġtheory",
        -9.435574076532069
      ],
      [
        "Ġfeature",
        -9.435764367775732
      ],
      [
        "Ġtable",
        -9.436091334390143
      ],
      [
        "Ġfrequent",
        -9.437061740820116
      ],
      [
        "Ġremember",
        -9.438836209132564
      ],
      [
        "Ġlives",
        -9.439724121636836
      ],
      [
        "Ġitems",
        -9.439742386908238
      ],
      [
        "Ġreceive",
        -9.440386771964828
      ],
      [
        "Ġvary",
        -9.44313860104304
      ],
      [
        "Ġmeal",
        -9.443155231757638
      ],
      [
        "Ġcarry",
        -9.443629215142511
      ],
      [
        "Ġserious",
        -9.443971791783987
      ],
      [
        "Ġfarm",
        -9.444428365351698
      ],
      [
        "Do",
        -9.445464285367652
      ],
      [
        "Ġideal",
        -9.449142977646684
      ],
      [
        "Ġimportance",
        -9.449201035280565
      ],
      [
        "Ġdeal",
        -9.44939000515748
      ],
      [
        "Ġseeds",
        -9.45071236256204
      ],
      [
        "Ġfeeling",
        -9.45094192774576
      ],
      [
        "ĠResearch",
        -9.451242488259696
      ],
      [
        "Ġcountries",
        -9.452265732891972
      ],
      [
        "Ġdate",
        -9.454387792582908
      ],
      [
        "Ġdisplay",
        -9.4550855546387
      ],
      [
        "Ġbaby",
        -9.455092663423018
      ],
      [
        "Ġcontains",
        -9.456812367968674
      ],
      [
        "Ġpro",
        -9.457591797767478
      ],
      [
        "Ġegg",
        -9.457777714210865
      ],
      [
        "Ġcollect",
        -9.458724214416574
      ],
      [
        "ĠLa",
        -9.459361389271862
      ],
      [
        "Ġphone",
        -9.459596068976444
      ],
      [
        ".S",
        -9.459825278542027
      ],
      [
        "Ġhope",
        -9.46104477883167
      ],
      [
        "Ġscientific",
        -9.461205416659215
      ],
      [
        "Ġpump",
        -9.46160226130393
      ],
      [
        "Ġpromote",
        -9.461642001234509
      ],
      [
        "Ġwild",
        -9.462999830297434
      ],
      [
        "Ġear",
        -9.4630853357393
      ],
      [
        "Ġevent",
        -9.464083369410918
      ],
      [
        "ĠMy",
        -9.465013935701236
      ],
      [
        "Ġlimited",
        -9.465497242944238
      ],
      [
        "Ġenable",
        -9.465525757712603
      ],
      [
        "Ġjoint",
        -9.466004824322956
      ],
      [
        "ĠMany",
        -9.466015455317509
      ],
      [
        "Ġfluid",
        -9.46651372596266
      ],
      [
        "Ġdemand",
        -9.466902407457404
      ],
      [
        "Another",
        -9.467273628627227
      ],
      [
        "Ġcame",
        -9.467712744298405
      ],
      [
        "Ġvolume",
        -9.4677199346088
      ],
      [
        "Ġmoving",
        -9.468057053425794
      ],
      [
        "Ġtouch",
        -9.468197195258288
      ],
      [
        "Re",
        -9.470056511459276
      ],
      [
        "Ġpoor",
        -9.470318005502552
      ],
      [
        "ĠOr",
        -9.472087791072592
      ],
      [
        "ĠWhy",
        -9.472179627690275
      ],
      [
        "Ġwall",
        -9.472328768071678
      ],
      [
        "Ġframe",
        -9.472377402336452
      ],
      [
        "Ġtaste",
        -9.473262463533963
      ],
      [
        "Ġtrain",
        -9.473506840585433
      ],
      [
        "for",
        -9.473971914401291
      ],
      [
        "ĠCon",
        -9.474311861826866
      ],
      [
        "Ġinitial",
        -9.474319040859267
      ],
      [
        "Ġvisual",
        -9.474341803765318
      ],
      [
        "head",
        -9.47437514606914
      ],
      [
        "we",
        -9.475376927112398
      ],
      [
        "Ġprett",
        -9.4764917759059
      ],
      [
        "Ġfilter",
        -9.477055038093278
      ],
      [
        "Ġconnect",
        -9.478528924585747
      ],
      [
        "Ġmaintenanc",
        -9.478581499059493
      ],
      [
        "Ġsoft",
        -9.478634843813529
      ],
      [
        "Ġcolors",
        -9.479125588377029
      ],
      [
        "ĠWorld",
        -9.481564072469908
      ],
      [
        "ĠNot",
        -9.482027757142331
      ],
      [
        "Ġleg",
        -9.48224871189572
      ],
      [
        "Ġencourage",
        -9.482852654142786
      ],
      [
        "Ġpass",
        -9.484576310762307
      ],
      [
        "fish",
        -9.48479669977758
      ],
      [
        "Ġaccurate",
        -9.48498467287618
      ],
      [
        "Ġmemory",
        -9.484985952380462
      ],
      [
        "Ġevents",
        -9.485430545915182
      ],
      [
        "Ġbrand",
        -9.487588928936487
      ],
      [
        "Ġbottom",
        -9.488988307919232
      ],
      [
        "ĠFrom",
        -9.489547277715516
      ],
      [
        "Ġforest",
        -9.48975644617177
      ],
      [
        "Ġnote",
        -9.490913893355714
      ],
      [
        "Ġprocedure",
        -9.492527804562894
      ],
      [
        "Ġbuil",
        -9.493615253464784
      ],
      [
        "Ġtank",
        -9.494112778421115
      ],
      [
        "-->",
        -9.49553452936798
      ],
      [
        "Ġyellow",
        -9.497171232563293
      ],
      [
        "ng",
        -9.49730182698602
      ],
      [
        "Ġseek",
        -9.49990665056423
      ],
      [
        "Ġbone",
        -9.500137625197064
      ],
      [
        "-up",
        -9.500299488917562
      ],
      [
        "Ġliquid",
        -9.500926348602272
      ],
      [
        "Ġgenes",
        -9.501008678741073
      ],
      [
        "Ġprotection",
        -9.501512691693517
      ],
      [
        "Ġscale",
        -9.50219684958553
      ],
      [
        "Ġlate",
        -9.502359674838
      ],
      [
        "Ġrich",
        -9.50380192554911
      ],
      [
        "Ġrare",
        -9.505683587796373
      ],
      [
        "Ġroad",
        -9.50649490441972
      ],
      [
        "Ġspend",
        -9.507312225774369
      ],
      [
        "Ġgene",
        -9.509813036336087
      ],
      [
        "Ġprograms",
        -9.510420553902772
      ],
      [
        "our",
        -9.510928984121588
      ],
      [
        "Ġequal",
        -9.51138480059149
      ],
      [
        "board",
        -9.51225322203133
      ],
      [
        "Ġbrown",
        -9.512361134851933
      ],
      [
        "Ġcommonly",
        -9.512676449002726
      ],
      [
        "ĠAl",
        -9.513027320781674
      ],
      [
        "Ġteeth",
        -9.514497473772092
      ],
      [
        "Ġtherap",
        -9.51592442093292
      ],
      [
        "Ġtransport",
        -9.516088168345371
      ],
      [
        "Ġhost",
        -9.516606723347133
      ],
      [
        "Ġcosts",
        -9.51702070967837
      ],
      [
        "ĠLi",
        -9.51832939101105
      ],
      [
        "Ġadjust",
        -9.518558432176777
      ],
      [
        "ard",
        -9.518742919150345
      ],
      [
        "Ġcleaning",
        -9.518821399546102
      ],
      [
        "Ġpage",
        -9.520142462419985
      ],
      [
        "Ġhearing",
        -9.520534352445836
      ],
      [
        "Ġcloth",
        -9.522316826133292
      ],
      [
        "ger",
        -9.522538495748954
      ],
      [
        "Ġcombination",
        -9.523588289670853
      ],
      [
        "Ġboard",
        -9.52495098017222
      ],
      [
        "ĠAdditional",
        -9.525175442751756
      ],
      [
        "Ġtask",
        -9.52538012945454
      ],
      [
        "Ġinstance",
        -9.525523288891534
      ],
      [
        "Ġselect",
        -9.52707580658885
      ],
      [
        "Ġelement",
        -9.52766776100684
      ],
      [
        "Ġalgorithm",
        -9.527754337199749
      ],
      [
        "Ġlines",
        -9.53032585854651
      ],
      [
        "ring",
        -9.531816102590126
      ],
      [
        "Ġpublished",
        -9.53189103081132
      ],
      [
        "Ġfigure",
        -9.532716241881916
      ],
      [
        "Ġconvert",
        -9.534310566224756
      ],
      [
        "Ġsituation",
        -9.534701964225391
      ],
      [
        "ĠâĢ¦",
        -9.535219848534004
      ],
      [
        "Ġtri",
        -9.535336029978357
      ],
      [
        "Ġusers",
        -9.536231877772437
      ],
      [
        "Ġlandscape",
        -9.536836801208622
      ],
      [
        "Ġready",
        -9.538497302709288
      ],
      [
        "Ġreasons",
        -9.540203624076309
      ],
      [
        "Ġwait",
        -9.540239554202344
      ],
      [
        "iv",
        -9.541751705740449
      ],
      [
        "Ġstorage",
        -9.54250081690436
      ],
      [
        "ĠCenter",
        -9.543638930223258
      ],
      [
        "With",
        -9.54410346377416
      ],
      [
        "Ġprint",
        -9.54456079374566
      ],
      [
        "applied",
        -9.544746112139954
      ],
      [
        "Ġstone",
        -9.545482936979695
      ],
      [
        "Ġdecrease",
        -9.546985698506592
      ],
      [
        "ated",
        -9.546989658825098
      ],
      [
        "go",
        -9.547372488223084
      ],
      [
        "Ġnative",
        -9.547633770182792
      ],
      [
        "Ġreview",
        -9.547747170185096
      ],
      [
        "Ġwriting",
        -9.54811528111658
      ],
      [
        "Ġnothing",
        -9.548756766845086
      ],
      [
        "ster",
        -9.548853586507532
      ],
      [
        "By",
        -9.549946652027549
      ],
      [
        "Ġadapt",
        -9.550982903271183
      ],
      [
        "Ġslight",
        -9.5516625009495
      ],
      [
        "Ġclaim",
        -9.552198065368565
      ],
      [
        "Ġsubstance",
        -9.552713155783152
      ],
      [
        "time",
        -9.55350634516789
      ],
      [
        "Ġensur",
        -9.553783136106643
      ],
      [
        "Ġalternative",
        -9.553785245713357
      ],
      [
        "Ġmoisture",
        -9.55389276069008
      ],
      [
        "ĠThen",
        -9.5542523950566
      ],
      [
        "Ġflavor",
        -9.554387730781166
      ],
      [
        "tra",
        -9.554608077211537
      ],
      [
        "Ġmembers",
        -9.55529227444972
      ],
      [
        "Ġseems",
        -9.555362386270382
      ],
      [
        "Ġexactly",
        -9.555387081261282
      ],
      [
        "side",
        -9.555856183591628
      ],
      [
        "Ġrise",
        -9.556931355902934
      ],
      [
        "Ġlaw",
        -9.558097599060122
      ],
      [
        "all",
        -9.558452428488437
      ],
      [
        "ĠSouth",
        -9.560112645608118
      ],
      [
        "Ġrequirements",
        -9.560863933128385
      ],
      [
        "âĢ¢",
        -9.56090941550599
      ],
      [
        "Ġdecision",
        -9.561037674650848
      ],
      [
        "Ġvia",
        -9.561380800056018
      ],
      [
        "Ġresponsible",
        -9.56242634536206
      ],
      [
        "Ġled",
        -9.563672371199566
      ],
      [
        "Ġmoment",
        -9.563741996401191
      ],
      [
        "Ġleaf",
        -9.564209585365996
      ],
      [
        "ck",
        -9.565883723069016
      ],
      [
        "Ġfund",
        -9.566429356962436
      ],
      [
        "ything",
        -9.567063135701924
      ],
      [
        "Ġcutting",
        -9.567304341207784
      ],
      [
        "Ġreflect",
        -9.56759310270052
      ],
      [
        "Ġtechnique",
        -9.56807870479508
      ],
      [
        "end",
        -9.570102027876075
      ],
      [
        "Ġfrequency",
        -9.571264343546853
      ],
      [
        "Ġsoon",
        -9.574299155461762
      ],
      [
        "Ġdoctor",
        -9.575719715232964
      ],
      [
        "Ġfabric",
        -9.576551183759284
      ],
      [
        "Step",
        -9.578003762405984
      ],
      [
        "came",
        -9.5786307464272
      ],
      [
        "Ġfoot",
        -9.578912129609332
      ],
      [
        "ĠPro",
        -9.579203784118976
      ],
      [
        "considered",
        -9.579388803205283
      ],
      [
        "Ġdesire",
        -9.579498689717193
      ],
      [
        "Ġreplace",
        -9.580048016159717
      ],
      [
        "Ġstage",
        -9.580669153048811
      ],
      [
        "Ġchance",
        -9.583109335168968
      ],
      [
        "Ġsetting",
        -9.583433935011415
      ],
      [
        "giving",
        -9.58391668422281
      ],
      [
        "Ġstates",
        -9.584087820999896
      ],
      [
        "Ġsignificantly",
        -9.584584431673802
      ],
      [
        "Ġpush",
        -9.585408361391604
      ],
      [
        "bility",
        -9.587687807974824
      ],
      [
        "ice",
        -9.588640847468596
      ],
      [
        "ĠOur",
        -9.589579391129533
      ],
      [
        "ĠAlso",
        -9.590778773357986
      ],
      [
        "Ġhorse",
        -9.591464292645028
      ],
      [
        "Ġ--",
        -9.59155695291062
      ],
      [
        "ities",
        -9.592261545062788
      ],
      [
        "ative",
        -9.592841028048586
      ],
      [
        "Ġthus",
        -9.593917022387686
      ],
      [
        "Ġimplement",
        -9.59443825501835
      ],
      [
        "ha",
        -9.594611688036707
      ],
      [
        "lin",
        -9.59466703208904
      ],
      [
        "Ġmusic",
        -9.594668850628247
      ],
      [
        "Ġexpress",
        -9.59657644540428
      ],
      [
        "ph",
        -9.59694099490704
      ],
      [
        "Ġpresence",
        -9.59735793106815
      ],
      [
        "Ġsecurity",
        -9.597554074508178
      ],
      [
        "Ġnode",
        -9.597826744069696
      ],
      [
        "Ġplatform",
        -9.598096845834505
      ],
      [
        "ler",
        -9.600379685558307
      ],
      [
        "Ġcross",
        -9.600498285547804
      ],
      [
        "Ġideas",
        -9.6014183065146
      ],
      [
        "Ġdraw",
        -9.60244270526734
      ],
      [
        "Ġstem",
        -9.602730061480568
      ],
      [
        "Ġhands",
        -9.60276767795806
      ],
      [
        "vi",
        -9.60360229403824
      ],
      [
        "Ġiron",
        -9.603945884780549
      ],
      [
        "Ġconstruction",
        -9.60489221861909
      ],
      [
        "Ġlesson",
        -9.606295590531586
      ],
      [
        "Ġthird",
        -9.607004116101134
      ],
      [
        "Ġtesting",
        -9.607234553237872
      ],
      [
        "Ġtherefor",
        -9.607472425029668
      ],
      [
        "ĠMo",
        -9.608462097612795
      ],
      [
        "ĠTheir",
        -9.609816666406488
      ],
      [
        "Some",
        -9.6098875910171
      ],
      [
        "Ġfloor",
        -9.609924191168547
      ],
      [
        "Ġcommuniti",
        -9.610254869611726
      ],
      [
        "Ġroot",
        -9.610387676770747
      ],
      [
        "Ġjourney",
        -9.610521763909237
      ],
      [
        "Ġocean",
        -9.611214319184988
      ],
      [
        "ĠAre",
        -9.611830430630764
      ],
      [
        "Ġsevere",
        -9.612391710707204
      ],
      [
        "Ġexpensive",
        -9.61309999492252
      ],
      [
        "Ġolder",
        -9.61333792797901
      ],
      [
        "ĠWater",
        -9.61345744635831
      ],
      [
        "Ġearth",
        -9.61369601214503
      ],
      [
        "Ġscreen",
        -9.613963235598202
      ],
      [
        "Ġcollection",
        -9.61402009232317
      ],
      [
        "Ġrefer",
        -9.614163021840737
      ],
      [
        "-term",
        -9.615524870087825
      ],
      [
        "Ġcommercial",
        -9.61552993804676
      ],
      [
        "Ġeffectively",
        -9.615704516203929
      ],
      [
        "ĠWho",
        -9.616304371069823
      ],
      [
        "Ġbeautiful",
        -9.616763091796743
      ],
      [
        "ow",
        -9.617212839563932
      ],
      [
        "Ġrain",
        -9.6179725105003
      ],
      [
        "Ġmechanism",
        -9.617979418608414
      ],
      [
        "Ġexposure",
        -9.61803046898333
      ],
      [
        "Ġtook",
        -9.61823600996662
      ],
      [
        "ĠMe",
        -9.618874575876934
      ],
      [
        "Ġheavy",
        -9.61998084066639
      ],
      [
        "Ġstand",
        -9.620064930063196
      ],
      [
        "Ġfiber",
        -9.620464203305335
      ],
      [
        "Ġmessage",
        -9.620897090324174
      ],
      [
        "ize",
        -9.621489474575611
      ],
      [
        "Ġload",
        -9.621538876497102
      ],
      [
        "Ġsort",
        -9.62154969253733
      ],
      [
        "Ġpowerful",
        -9.622597059690284
      ],
      [
        "tion",
        -9.622752441791269
      ],
      [
        "Ġbox",
        -9.623223416544535
      ],
      [
        "ok",
        -9.625244201178024
      ],
      [
        "he",
        -9.625569138656422
      ],
      [
        "Ġdegrees",
        -9.626227220531934
      ],
      [
        "Ġmedication",
        -9.627837797170203
      ],
      [
        "Ġaccept",
        -9.627981905737863
      ],
      [
        "Ġsolid",
        -9.628077571710374
      ],
      [
        "Ġproperty",
        -9.62917582202396
      ],
      [
        "Ġmeaning",
        -9.629460739897736
      ],
      [
        "Ġ#",
        -9.630297850265327
      ],
      [
        "Ġaid",
        -9.630551386203514
      ],
      [
        "Ġsmooth",
        -9.630683145909067
      ],
      [
        "ect",
        -9.630733690206444
      ],
      [
        "Z",
        -9.63082404490158
      ],
      [
        "Ġdiabetes",
        -9.63115741949682
      ],
      [
        "**",
        -9.631940436124069
      ],
      [
        "Ġfriends",
        -9.632602834602617
      ],
      [
        "Ġdefine",
        -9.632930706627825
      ],
      [
        "Ġpanel",
        -9.633755673567682
      ],
      [
        "Ġcount",
        -9.634322387843406
      ],
      [
        "Ġthinking",
        -9.63580283364739
      ],
      [
        "Ġworth",
        -9.635986102662391
      ],
      [
        "Ġvirus",
        -9.636441112841013
      ],
      [
        "Ġmeasurement",
        -9.63694947535926
      ],
      [
        "Ġwrite",
        -9.63828326516481
      ],
      [
        "Ġpick",
        -9.638426131312968
      ],
      [
        "Ġwonder",
        -9.638658365273995
      ],
      [
        "Ġsensor",
        -9.639424535527066
      ],
      [
        "Ġpest",
        -9.63958672883096
      ],
      [
        "pe",
        -9.639863658852914
      ],
      [
        "Ġdriver",
        -9.640241641268858
      ],
      [
        "Ġdeliver",
        -9.640367412234692
      ],
      [
        "Ġtasks",
        -9.64052945347559
      ],
      [
        "ĠMay",
        -9.642493905850092
      ],
      [
        "ĠOf",
        -9.645883590082075
      ],
      [
        "hether",
        -9.646053678582842
      ],
      [
        "ĠMa",
        -9.646081528615005
      ],
      [
        "ĠRo",
        -9.6468570654301
      ],
      [
        "Ġparticles",
        -9.647107148510887
      ],
      [
        "Ġresistance",
        -9.647646732834682
      ],
      [
        "written",
        -9.648145220610369
      ],
      [
        "Ġsuitabl",
        -9.648569908305747
      ],
      [
        "Ġdeath",
        -9.649156936569772
      ],
      [
        "Ġflight",
        -9.649718283199928
      ],
      [
        "Ġcontext",
        -9.651677948260572
      ],
      [
        "developed",
        -9.651778606318668
      ],
      [
        "Ġsend",
        -9.652961661466795
      ],
      [
        "Ġcard",
        -9.65296223668993
      ],
      [
        "Ġrecord",
        -9.653473891201102
      ],
      [
        "Ġphase",
        -9.656063882210043
      ],
      [
        "Ġapproximate",
        -9.656475960121618
      ],
      [
        "Ġnoise",
        -9.656773471449103
      ],
      [
        "Ġopportunity",
        -9.65702131767866
      ],
      [
        "Ġfunctions",
        -9.65714205262938
      ],
      [
        "Ġmen",
        -9.657614828810582
      ],
      [
        "Ġwrong",
        -9.65800977396338
      ],
      [
        "Ġmotion",
        -9.6584834431102
      ],
      [
        "Ġswitch",
        -9.658648416180354
      ],
      [
        "Ġfair",
        -9.659313454040117
      ],
      [
        "Ġlose",
        -9.659655615533175
      ],
      [
        "Ġconsistent",
        -9.660484467487189
      ],
      [
        "ĠCo",
        -9.66107117215773
      ],
      [
        "Ġsuper",
        -9.661113666459094
      ],
      [
        "Ġsustainabl",
        -9.66135843253296
      ],
      [
        "alone",
        -9.66296344240354
      ],
      [
        "Ġphotograph",
        -9.66315266080476
      ],
      [
        "Ġquick",
        -9.66317114726731
      ],
      [
        "Ġconnected",
        -9.6635234332212
      ],
      [
        "Ġstrategies",
        -9.664411843812593
      ],
      [
        "Ġcolour",
        -9.665018994104088
      ],
      [
        "Ġbar",
        -9.666025554951151
      ],
      [
        "ily",
        -9.66653331048244
      ],
      [
        "Ġcapacity",
        -9.667086378482654
      ],
      [
        "ĠNow",
        -9.668309480991365
      ],
      [
        "Ġindicate",
        -9.66954613334644
      ],
      [
        "Ġpicture",
        -9.670410940030084
      ],
      [
        "Ġattempt",
        -9.670919437775469
      ],
      [
        "Ġmedium",
        -9.670953663759908
      ],
      [
        "Ġdis",
        -9.671630980842137
      ],
      [
        "Ġcouple",
        -9.671670929289997
      ],
      [
        "Ġconsumption",
        -9.672155412528952
      ],
      [
        "que",
        -9.67248467304421
      ],
      [
        "went",
        -9.673772012419438
      ],
      [
        "Ġinteresting",
        -9.673961080805904
      ],
      [
        "Ġdead",
        -9.674369654112128
      ],
      [
        "Ġforward",
        -9.675204747967
      ],
      [
        "ĠEnglish",
        -9.675837970728692
      ],
      [
        "âĪĴ",
        -9.676041576607052
      ],
      [
        "ĠCO",
        -9.676346048022346
      ],
      [
        "ĠLe",
        -9.676546869901852
      ],
      [
        "ĠRa",
        -9.67813342589661
      ],
      [
        "Ġpaint",
        -9.67942530767206
      ],
      [
        "Ġfully",
        -9.679811072700591
      ],
      [
        "Ġnumbers",
        -9.68132418438672
      ],
      [
        "Ġpark",
        -9.683349865751328
      ],
      [
        "Ġpurchase",
        -9.68431208382934
      ],
      [
        "Ġinches",
        -9.685810077553736
      ],
      [
        "Ġreference",
        -9.68616587875096
      ],
      [
        "Ġbio",
        -9.68653794542032
      ],
      [
        "Ġforms",
        -9.686666230265022
      ],
      [
        "Ġanti",
        -9.687763837219196
      ],
      [
        "Ġdynamic",
        -9.688898026817274
      ],
      [
        "pite",
        -9.689745066690442
      ],
      [
        "Ġmatch",
        -9.689789558824591
      ],
      [
        "Ġphoto",
        -9.689806300329876
      ],
      [
        "beyond",
        -9.690512325979974
      ],
      [
        "ĠEven",
        -9.690932066914842
      ],
      [
        "Ġrepair",
        -9.691694284087754
      ],
      [
        "Now",
        -9.69198898326004
      ],
      [
        "Ġhuge",
        -9.694407189188643
      ],
      [
        "Ġemissions",
        -9.694708393894654
      ],
      [
        "Ġshot",
        -9.696301616711766
      ],
      [
        "way",
        -9.696975645430996
      ],
      [
        "ĠY",
        -9.697084336095878
      ],
      [
        "Ġmiddle",
        -9.698382438282504
      ],
      [
        "Ġseed",
        -9.698530998009335
      ],
      [
        "Ġlabel",
        -9.699224801475976
      ],
      [
        "ĠMake",
        -9.699470065903478
      ],
      [
        "Ġmouth",
        -9.699665913642612
      ],
      [
        "con",
        -9.701643176809087
      ],
      [
        "Ġsuit",
        -9.70232620526312
      ],
      [
        "Ġmode",
        -9.70248010749624
      ],
      [
        "che",
        -9.702494518481572
      ],
      [
        "uc",
        -9.702611409157797
      ],
      [
        "ĠDay",
        -9.702729093851698
      ],
      [
        "Ġstick",
        -9.703626395916997
      ],
      [
        "Ġvital",
        -9.703719848780269
      ],
      [
        "Ġchang",
        -9.703764602486697
      ],
      [
        "haps",
        -9.705380922613577
      ],
      [
        "Ġdrawing",
        -9.706815962954105
      ],
      [
        "Ġvariable",
        -9.707122407996394
      ],
      [
        "Ġdepth",
        -9.707579567438067
      ],
      [
        "On",
        -9.707663135368772
      ],
      [
        "Ġthousand",
        -9.707725716753371
      ],
      [
        "Ġvitamin",
        -9.70772572286198
      ],
      [
        "Ġbright",
        -9.710268106631576
      ],
      [
        "ĠOnc",
        -9.71130634166808
      ],
      [
        "ĠState",
        -9.711929040999053
      ],
      [
        "Ġoperat",
        -9.712027516635796
      ],
      [
        "Ġcombine",
        -9.712135062589208
      ],
      [
        "lthough",
        -9.712631153294575
      ],
      [
        "ner",
        -9.712980878924988
      ],
      [
        "Ġfinish",
        -9.714060794989331
      ],
      [
        "Ġflat",
        -9.714284024194724
      ],
      [
        "ĠLet",
        -9.714292349037947
      ],
      [
        "Ġcontainer",
        -9.715188439145948
      ],
      [
        "Ġleader",
        -9.71699132541178
      ],
      [
        "Ġcoming",
        -9.717082362492492
      ],
      [
        "Ġpieces",
        -9.717456836434556
      ],
      [
        "Ġevolution",
        -9.718314985928153
      ],
      [
        "Ġprevious",
        -9.718838177729316
      ],
      [
        "can",
        -9.720576108546563
      ],
      [
        "They",
        -9.72262778507083
      ],
      [
        "act",
        -9.723059762753689
      ],
      [
        "Ġblog",
        -9.723379234243914
      ],
      [
        "ĠHigh",
        -9.724302273037749
      ],
      [
        "Ġcatch",
        -9.725003941030089
      ],
      [
        "Ġgames",
        -9.725647238992906
      ],
      [
        "Ġcomfortabl",
        -9.726693708615963
      ],
      [
        "wildlife",
        -9.727191561154328
      ],
      [
        "low",
        -9.728250595627086
      ],
      [
        "Ġweb",
        -9.728702071972798
      ],
      [
        "Ġsupplement",
        -9.729421456964204
      ],
      [
        "Ġinternal",
        -9.729430889949406
      ],
      [
        "ĠOther",
        -9.729440926808088
      ],
      [
        "Ġexcellent",
        -9.730795108608794
      ],
      [
        "lost",
        -9.73126670534818
      ],
      [
        "No",
        -9.731271224856108
      ],
      [
        "Ġsell",
        -9.731411014644811
      ],
      [
        "Ġhit",
        -9.731961743144456
      ],
      [
        "gen",
        -9.732606753803603
      ],
      [
        "-in",
        -9.732621812378683
      ],
      [
        "Ġsecure",
        -9.734790581157617
      ],
      [
        "Ġplanning",
        -9.73500193876136
      ],
      [
        "Ġvegetables",
        -9.735298588190552
      ],
      [
        "Ġnational",
        -9.73537256637141
      ],
      [
        "mer",
        -9.73603720173764
      ],
      [
        "Ġpredict",
        -9.736290455063838
      ],
      [
        "Ġsociet",
        -9.738295768165433
      ],
      [
        "Ġpress",
        -9.73950448162694
      ],
      [
        "Ġalcohol",
        -9.739554649595824
      ],
      [
        "That",
        -9.739655123355412
      ],
      [
        "Ġprocessing",
        -9.740347436171731
      ],
      [
        "Ġfail",
        -9.74036301825032
      ],
      [
        "Ġsurrounding",
        -9.74048658493622
      ],
      [
        "ang",
        -9.740802099349567
      ],
      [
        "ble",
        -9.74115538620906
      ],
      [
        "Ġaren",
        -9.74258437283404
      ],
      [
        "Ġchallenge",
        -9.743308108883372
      ],
      [
        "Ġgrass",
        -9.745067265656846
      ],
      [
        "Ġlibrar",
        -9.747384976818264
      ],
      [
        "Ġtexture",
        -9.747780971737836
      ],
      [
        "Ġlegal",
        -9.748752728398005
      ],
      [
        "Ġmo",
        -9.748945512486538
      ],
      [
        "ĠPer",
        -9.749316486154257
      ],
      [
        "Ġfriend",
        -9.749735130594395
      ],
      [
        "Ġround",
        -9.7505851484426
      ],
      [
        "Ġspeak",
        -9.75117669913962
      ],
      [
        "Ġexpand",
        -9.753005444861284
      ],
      [
        "ick",
        -9.753055776602965
      ],
      [
        "Ġpull",
        -9.753077126442808
      ],
      [
        "Ġmanufacturer",
        -9.753737458602185
      ],
      [
        "Ġstructures",
        -9.753790365713792
      ],
      [
        "ĠQ",
        -9.756039499403864
      ],
      [
        "Ġresulting",
        -9.75617107199032
      ],
      [
        "ĠCar",
        -9.756297587340056
      ],
      [
        "ĠDi",
        -9.75771627931656
      ],
      [
        "Ġgrade",
        -9.7580104407492
      ],
      [
        "Ġroll",
        -9.75815172037468
      ],
      [
        "let",
        -9.75943398243729
      ],
      [
        "Ġfamili",
        -9.760016536795058
      ],
      [
        "Ġattach",
        -9.761388808794424
      ],
      [
        "ide",
        -9.761476782366104
      ],
      [
        "Ġinternational",
        -9.762879412120784
      ],
      [
        "Ġcomponent",
        -9.76358743311086
      ],
      [
        "Ġcontroll",
        -9.764228547033037
      ],
      [
        "efore",
        -9.764264854561334
      ],
      [
        "ĠGod",
        -9.764430150961772
      ],
      [
        "Ġonto",
        -9.764610536611716
      ],
      [
        "Ġexpected",
        -9.76490253890711
      ],
      [
        "Ġsaw",
        -9.76535254945784
      ],
      [
        "Ġdriv",
        -9.767215965715216
      ],
      [
        "Ġmiss",
        -9.767314033118897
      ],
      [
        "Ġmotor",
        -9.767705544741638
      ],
      [
        "Ġmiles",
        -9.767818431706091
      ],
      [
        "les",
        -9.768117049590472
      ],
      [
        "Ġtechnologies",
        -9.768559918948869
      ],
      [
        "ĠFirst",
        -9.769376431086512
      ],
      [
        "Ġhabitat",
        -9.769380177996656
      ],
      [
        "itis",
        -9.772321093559995
      ],
      [
        "Ġabsorb",
        -9.772448082846392
      ],
      [
        "q",
        -9.77294415438156
      ],
      [
        "Ġdoor",
        -9.773638898788136
      ],
      [
        "}",
        -9.77390404133094
      ],
      [
        "ĠOver",
        -9.77405121627626
      ],
      [
        "Ġexpect",
        -9.774943534585788
      ],
      [
        "Ġsurvey",
        -9.775713046566722
      ],
      [
        "water",
        -9.776925537837164
      ],
      [
        "Ġbackground",
        -9.777372759589651
      ],
      [
        "Ġdie",
        -9.777932824790463
      ],
      [
        "About",
        -9.779195603416142
      ],
      [
        "Ġconservation",
        -9.779226442662315
      ],
      [
        "Ġcarrie",
        -9.779236799602742
      ],
      [
        "Ġheight",
        -9.77989923732678
      ],
      [
        "Ġhighlight",
        -9.780548711511582
      ],
      [
        "und",
        -9.781028001199177
      ],
      [
        "ular",
        -9.78228884327369
      ],
      [
        "Ġdi",
        -9.782480116116648
      ],
      [
        "Ġstuff",
        -9.783310691367287
      ],
      [
        "Ġprogress",
        -9.783462877265768
      ],
      [
        "Ġreveal",
        -9.784372350581808
      ],
      [
        "Ġcapture",
        -9.78525104798218
      ],
      [
        "Ġstock",
        -9.78593181601977
      ],
      [
        "Ġregions",
        -9.786796230971603
      ],
      [
        ".com",
        -9.78709417410969
      ],
      [
        "Ġrules",
        -9.787572752022667
      ],
      [
        "Ġsquare",
        -9.788721504842378
      ],
      [
        "Ġplanet",
        -9.788754604884472
      ],
      [
        "ĠCa",
        -9.789026612422871
      ],
      [
        "Ġvaluable",
        -9.789614474762288
      ],
      [
        "upon",
        -9.78990832250512
      ],
      [
        "Ġfinancial",
        -9.790174590101238
      ],
      [
        "Ġlens",
        -9.790380335511683
      ],
      [
        "Ġeconomic",
        -9.790772621571808
      ],
      [
        "ĠGo",
        -9.790776647140383
      ],
      [
        "Ġexpression",
        -9.79099185312388
      ],
      [
        "Ġaffected",
        -9.791261330259251
      ],
      [
        "men",
        -9.791850757691163
      ],
      [
        "Ġmaximum",
        -9.793096429325493
      ],
      [
        "Ġvoltage",
        -9.793127331380592
      ],
      [
        "Ġpractical",
        -9.79380365546785
      ],
      [
        "tiny",
        -9.79409037854138
      ],
      [
        "Ġbodies",
        -9.794603367861717
      ],
      [
        "Here",
        -9.794819065859585
      ],
      [
        "Ġrecycl",
        -9.794987032683704
      ],
      [
        "Ġbreed",
        -9.795308094361491
      ],
      [
        "ĠAccording",
        -9.79547401381222
      ],
      [
        "Ġcoast",
        -9.795790164191663
      ],
      [
        "Ġopportunit",
        -9.79723792098909
      ],
      [
        "Ġsnow",
        -9.797834504610728
      ],
      [
        "Ġresident",
        -9.798125049075272
      ],
      [
        "Ġcomment",
        -9.79846389707203
      ],
      [
        "Ġroof",
        -9.798507195870627
      ],
      [
        "Ġdrug",
        -9.798707688884502
      ],
      [
        "Ġrespond",
        -9.798806345733286
      ],
      [
        "Ġsustain",
        -9.800462914192632
      ],
      [
        "ists",
        -9.800724915212362
      ],
      [
        "ĠNOT",
        -9.80116593233383
      ],
      [
        "Ġsequence",
        -9.80173305825402
      ],
      [
        "Ġhabit",
        -9.801931372241524
      ],
      [
        "Ġadvantage",
        -9.802467274848931
      ],
      [
        "ĠHo",
        -9.802607439317203
      ],
      [
        "Ġregard",
        -9.802686860666874
      ],
      [
        "Ġmixture",
        -9.80350311302703
      ],
      [
        "Ġmeasures",
        -9.808283869455485
      ],
      [
        "Ġdouble",
        -9.80929472766141
      ],
      [
        "ture",
        -9.809512225101662
      ],
      [
        "Ġmid",
        -9.81058834220302
      ],
      [
        "ĠUK",
        -9.813516066619966
      ],
      [
        "Ġcategor",
        -9.81451523428516
      ],
      [
        "Ġdemonstrate",
        -9.814717671748085
      ],
      [
        "Ġactual",
        -9.815279898151386
      ],
      [
        "Ġsweet",
        -9.815581589643152
      ],
      [
        "Ġrecognize",
        -9.81562777170397
      ],
      [
        "ĠEuropean",
        -9.8163790961898
      ],
      [
        "Ġassess",
        -9.816518957641032
      ],
      [
        "-like",
        -9.816782380023154
      ],
      [
        "Ġplease",
        -9.817262774593177
      ],
      [
        "Ġsports",
        -9.817363578623528
      ],
      [
        "Ġmember",
        -9.817719514111012
      ],
      [
        "Ġreported",
        -9.817844583817353
      ],
      [
        "Ġimmune",
        -9.819796620694238
      ],
      [
        "Be",
        -9.820211207953808
      ],
      [
        "held",
        -9.821132858529449
      ],
      [
        "Ġsheet",
        -9.821650781475247
      ],
      [
        "Ġnest",
        -9.82203106899239
      ],
      [
        "Ġinsight",
        -9.824733512799156
      ],
      [
        "Ġsteel",
        -9.825766376774672
      ],
      [
        "Ġshift",
        -9.827491730551484
      ],
      [
        "Ġdrop",
        -9.828254755210024
      ],
      [
        "Ġinter",
        -9.828294603865814
      ],
      [
        "Ġowner",
        -9.829141656808982
      ],
      [
        "Ġrates",
        -9.829207216792728
      ],
      [
        "Ġelectronic",
        -9.829438374758944
      ],
      [
        "Ġdegree",
        -9.829508406168014
      ],
      [
        "Ġcentral",
        -9.829825870726047
      ],
      [
        "Ġclick",
        -9.8298571920816
      ],
      [
        "Ġmedicine",
        -9.83168459415361
      ],
      [
        "Ġbeginning",
        -9.83185864025939
      ],
      [
        "Ġconcentration",
        -9.832058009129682
      ],
      [
        "Ġbroad",
        -9.832176296057716
      ],
      [
        "Ġmarine",
        -9.832788617138483
      ],
      [
        "ÂŃ",
        -9.833342541167408
      ],
      [
        "Ġattract",
        -9.833500293916142
      ],
      [
        "Ġselection",
        -9.834282678416027
      ],
      [
        "ĠSa",
        -9.834523049618603
      ],
      [
        "Ġroots",
        -9.83512095782766
      ],
      [
        "ren",
        -9.835385706185695
      ],
      [
        "Ġfeeding",
        -9.835649084501892
      ],
      [
        "ĠMar",
        -9.83621066102134
      ],
      [
        "ight",
        -9.836374786685743
      ],
      [
        "Ġequation",
        -9.83638252270634
      ],
      [
        "ĠAlthough",
        -9.836394721231422
      ],
      [
        "Ġorganization",
        -9.837641706722
      ],
      [
        "Ġannual",
        -9.837909842583237
      ],
      [
        "ĠDur",
        -9.838458407011402
      ],
      [
        "Ġfly",
        -9.83874932197267
      ],
      [
        "ĠInstitute",
        -9.84045805158651
      ],
      [
        "Ġfavorite",
        -9.840981739833436
      ],
      [
        "hi",
        -9.841715449622908
      ],
      [
        "Ġwindow",
        -9.842162604638318
      ],
      [
        "ification",
        -9.844667725716413
      ],
      [
        "Ġstaff",
        -9.846053883597582
      ],
      [
        "Ġtransition",
        -9.84732249060077
      ],
      [
        "self",
        -9.847901426755644
      ],
      [
        "Ġpot",
        -9.848705994290192
      ],
      [
        "Ġfight",
        -9.849673670110873
      ],
      [
        "Ġteachers",
        -9.851116146657358
      ],
      [
        "Ġgap",
        -9.85228161854427
      ],
      [
        "Ġdistribution",
        -9.852425484724826
      ],
      [
        "Ġcore",
        -9.853484361553704
      ],
      [
        "Ġten",
        -9.853714861743471
      ],
      [
        "Ġtransfer",
        -9.853858737882636
      ],
      [
        "ĠMan",
        -9.854493808242742
      ],
      [
        "cc",
        -9.855945448056406
      ],
      [
        "Ġteaching",
        -9.85607784970254
      ],
      [
        "Ġcheese",
        -9.856414199378952
      ],
      [
        "Ġrock",
        -9.85662967675092
      ],
      [
        "ĠDepartment",
        -9.857809065440389
      ],
      [
        "Ġresource",
        -9.858297501383872
      ],
      [
        "Ġoperation",
        -9.858437259803283
      ],
      [
        "Ġconsumer",
        -9.858492135964704
      ],
      [
        "Ġadvice",
        -9.859531692702902
      ],
      [
        "Ġdangerous",
        -9.85965381658611
      ],
      [
        "Ġshade",
        -9.85975622941967
      ],
      [
        "ĠLake",
        -9.861686429500182
      ],
      [
        "Ġbillion",
        -9.863349882461389
      ],
      [
        "All",
        -9.863666436446543
      ],
      [
        "Ġtests",
        -9.86447619311726
      ],
      [
        "Ġfarmer",
        -9.864612306122645
      ],
      [
        "Ġappearance",
        -9.864652666557983
      ],
      [
        "Ġangle",
        -9.865268102479806
      ],
      [
        "ĠUn",
        -9.866117560906478
      ],
      [
        "tri",
        -9.866575147793249
      ],
      [
        "Ġsurvive",
        -9.867582054297186
      ],
      [
        "Ġbike",
        -9.868418483383763
      ],
      [
        "ĠCalifornia",
        -9.869229812389854
      ],
      [
        "Ġoutcome",
        -9.869292501888228
      ],
      [
        "Ġrule",
        -9.87027949707397
      ],
      [
        "Ġfashion",
        -9.870520814762989
      ],
      [
        "Ġprefer",
        -9.87220131398244
      ],
      [
        "but",
        -9.872462013145462
      ],
      [
        "ĠWar",
        -9.872499578155246
      ],
      [
        "Ġbirth",
        -9.87268678598919
      ],
      [
        "Ġcomfort",
        -9.872781105491391
      ],
      [
        "Ġcustomer",
        -9.872894888000808
      ],
      [
        "my",
        -9.8730197137677
      ],
      [
        "He",
        -9.87432752757568
      ],
      [
        "air",
        -9.87478726196922
      ],
      [
        "Ġemergenc",
        -9.874808179998418
      ],
      [
        "ĠFood",
        -9.87505521611084
      ],
      [
        "ĠSince",
        -9.875980744440245
      ],
      [
        "Ġtopic",
        -9.87618104997195
      ],
      [
        "ĠPark",
        -9.877460332019783
      ],
      [
        "Ġsettings",
        -9.87857640270266
      ],
      [
        "ĠTa",
        -9.878781088748593
      ],
      [
        "ĠJust",
        -9.879019413990305
      ],
      [
        "Ġidentifi",
        -9.879129769488866
      ],
      [
        "Ġrid",
        -9.879514036468596
      ],
      [
        "Ġbasis",
        -9.880198480482829
      ],
      [
        "Ġtransform",
        -9.88031797848764
      ],
      [
        "ose",
        -9.88059226019552
      ],
      [
        "Ġhappy",
        -9.881632281593202
      ],
      [
        "Ġdecade",
        -9.881632353337531
      ],
      [
        "Ġcheap",
        -9.881650434050384
      ],
      [
        "Ġwar",
        -9.882489642423042
      ],
      [
        "Ġintroduce",
        -9.882804599478831
      ],
      [
        "Ġvi",
        -9.883191085382409
      ],
      [
        "Ġorgan",
        -9.883829375253612
      ],
      [
        "Ġregarding",
        -9.883971597102535
      ],
      [
        "ĠEnergy",
        -9.88427123713449
      ],
      [
        "Ġmeasur",
        -9.885253097138984
      ],
      [
        "Ġdrain",
        -9.886344518698106
      ],
      [
        "Ġroutine",
        -9.886441353996393
      ],
      [
        "rought",
        -9.887373149415223
      ],
      [
        "ĠPo",
        -9.888070580131314
      ],
      [
        "Ġmother",
        -9.888710826587026
      ],
      [
        "ham",
        -9.889807593214512
      ],
      [
        "Ġassembl",
        -9.889904070805676
      ],
      [
        "Ġexamples",
        -9.889916740338675
      ],
      [
        "ĠRiver",
        -9.891448434348298
      ],
      [
        "Ġfilm",
        -9.89233368083956
      ],
      [
        "Ġemotional",
        -9.892847283681792
      ],
      [
        "Ġmelt",
        -9.893026347115494
      ],
      [
        "Ġinterested",
        -9.895652511357902
      ],
      [
        "wide",
        -9.895930678030847
      ],
      [
        "Ġassist",
        -9.896123548904178
      ],
      [
        "Ġbooks",
        -9.896186478757798
      ],
      [
        "Ġshell",
        -9.896192365627094
      ],
      [
        "ĠSe",
        -9.896841110131312
      ],
      [
        "Ġchain",
        -9.89700397776954
      ],
      [
        "ĠIndia",
        -9.89732355013605
      ],
      [
        "Ġpollution",
        -9.897810125202357
      ],
      [
        "Ġchemicals",
        -9.897876322891635
      ],
      [
        "Ġvoice",
        -9.897925860337168
      ],
      [
        "Ġarray",
        -9.899750200042783
      ],
      [
        "Ġsites",
        -9.899938060925418
      ],
      [
        "ile",
        -9.900341037145546
      ],
      [
        "Ġnice",
        -9.900400824011257
      ],
      [
        "Ġlearned",
        -9.901608780640768
      ],
      [
        "mp",
        -9.902032746277396
      ],
      [
        "Ġhour",
        -9.903511320166814
      ],
      [
        "Our",
        -9.9036021288268
      ],
      [
        "Ġeventual",
        -9.904266794531216
      ],
      [
        "Ġmold",
        -9.904387105361836
      ],
      [
        "Ġskill",
        -9.905209203139416
      ],
      [
        "Ġsession",
        -9.905866640953974
      ],
      [
        "ĠAfrica",
        -9.906066380388197
      ],
      [
        "-free",
        -9.90619493288497
      ],
      [
        "Ġartist",
        -9.907289004766447
      ],
      [
        "Ġband",
        -9.908516411923951
      ],
      [
        "ĠEducation",
        -9.908846925218716
      ],
      [
        "Ġperspective",
        -9.90914184242545
      ],
      [
        "ER",
        -9.90940110242071
      ],
      [
        "Ġoptimal",
        -9.909800991876216
      ],
      [
        "ĠDon",
        -9.910457636155376
      ],
      [
        "Ġfinding",
        -9.91167765470884
      ],
      [
        "Ġcreative",
        -9.911750715239464
      ],
      [
        "Ġchocolate",
        -9.91225701574064
      ],
      [
        "Ġhundred",
        -9.914076067028269
      ],
      [
        "Ġphotos",
        -9.914170762491649
      ],
      [
        "ka",
        -9.914981694624949
      ],
      [
        "Ġtypical",
        -9.917242829865252
      ],
      [
        "Ġcapabilit",
        -9.91807352110298
      ],
      [
        "Ġconsume",
        -9.918273160564452
      ],
      [
        "Ġsp",
        -9.918830879810058
      ],
      [
        "Ġexternal",
        -9.919034752701812
      ],
      [
        "Ġschedule",
        -9.920004774806689
      ],
      [
        "Ġearlie",
        -9.920881536269947
      ],
      [
        "ĠKa",
        -9.921135772536532
      ],
      [
        "#",
        -9.921168131146448
      ],
      [
        "After",
        -9.921653919734675
      ],
      [
        "which",
        -9.921673380336555
      ],
      [
        "ward",
        -9.922275985778668
      ],
      [
        "Ġcomprehensive",
        -9.922453046229151
      ],
      [
        "ology",
        -9.922838431286015
      ],
      [
        "ium",
        -9.923215743095106
      ],
      [
        "ub",
        -9.923542185413382
      ],
      [
        "Ġbiological",
        -9.92435215504464
      ],
      [
        "Ġcustomers",
        -9.925060162582676
      ],
      [
        "body",
        -9.925233686356442
      ],
      [
        "pro",
        -9.925371574671004
      ],
      [
        "Ġgear",
        -9.92568794787594
      ],
      [
        "Ġinstructions",
        -9.927239941163537
      ],
      [
        "Ġvirtual",
        -9.92735426220856
      ],
      [
        "related",
        -9.927917633744638
      ],
      [
        "Ġlisten",
        -9.928069457738683
      ],
      [
        "Ġmanual",
        -9.930715231864756
      ],
      [
        "ĠTherefor",
        -9.932680021119689
      ],
      [
        "Ġpan",
        -9.932733470924962
      ],
      [
        "Ġplaces",
        -9.933503149710145
      ],
      [
        "Ġbi",
        -9.93356349283345
      ],
      [
        "Ġsmell",
        -9.934110834299732
      ],
      [
        "that",
        -9.934493694143509
      ],
      [
        "Ġparameter",
        -9.934514658288704
      ],
      [
        "Ġraw",
        -9.935755717680482
      ],
      [
        "Ġtrigger",
        -9.937430032576035
      ],
      [
        "immediately",
        -9.937705274974151
      ],
      [
        "Ġburn",
        -9.93803305311813
      ],
      [
        "Ġmicro",
        -9.939066109250671
      ],
      [
        "Ġoffice",
        -9.939720736053529
      ],
      [
        "Ġportion",
        -9.939939657053468
      ],
      [
        "Ġreceived",
        -9.940552734714544
      ],
      [
        "Ġsurger",
        -9.94133539885982
      ],
      [
        "Ġcoat",
        -9.941741755933068
      ],
      [
        "form",
        -9.941787687188596
      ],
      [
        "Ġtrust",
        -9.942433209483289
      ],
      [
        "visible",
        -9.942810578282678
      ],
      [
        "Ġratio",
        -9.943290080103338
      ],
      [
        "Ġedge",
        -9.943784870602268
      ],
      [
        "Ġatmosphere",
        -9.94420385707787
      ],
      [
        "Ġtrip",
        -9.945028557698125
      ],
      [
        "lic",
        -9.945507148237336
      ],
      [
        "Ġsport",
        -9.946789679946036
      ],
      [
        "Ġtea",
        -9.94727222818579
      ],
      [
        "Ġnumero",
        -9.94738316494006
      ],
      [
        "Ġfossil",
        -9.94760823491168
      ],
      [
        "Ġreliabl",
        -9.94762733800066
      ],
      [
        "Ġobserve",
        -9.947706029109142
      ],
      [
        "Ġvariation",
        -9.94931464987114
      ],
      [
        "ĠNa",
        -9.949663402945212
      ],
      [
        "Ġinform",
        -9.950546212308478
      ],
      [
        "Ġvalve",
        -9.951037190305742
      ],
      [
        "Ġfailure",
        -9.951131912142277
      ],
      [
        "ĠâĢ¢",
        -9.95255512404296
      ],
      [
        "Ġblade",
        -9.952784967364655
      ],
      [
        "Ġteacher",
        -9.953628492491474
      ],
      [
        "Ġhydrogen",
        -9.954502084914346
      ],
      [
        "ĠEurope",
        -9.95547719058662
      ],
      [
        "Ġlab",
        -9.95749007705178
      ],
      [
        "ĠWell",
        -9.957562180323798
      ],
      [
        "mor",
        -9.958374438444018
      ],
      [
        "Ġwave",
        -9.958932835225658
      ],
      [
        "Ġbutton",
        -9.959854651728325
      ],
      [
        "Ġgoals",
        -9.960415048747391
      ],
      [
        "Ġpack",
        -9.961359913834116
      ],
      [
        "Ġclassroom",
        -9.961398588291464
      ],
      [
        "coming",
        -9.964095957040472
      ],
      [
        "Ġchalleng",
        -9.964128312656056
      ],
      [
        "Ġconclusion",
        -9.964815292636498
      ],
      [
        "ell",
        -9.965734676454089
      ],
      [
        "ĠAustralia",
        -9.967053993618247
      ],
      [
        "Ġrespect",
        -9.968055091671092
      ],
      [
        "stock",
        -9.968702834952843
      ],
      [
        "told",
        -9.9697373106005
      ],
      [
        "Ġmorning",
        -9.97002414867524
      ],
      [
        "Ġcake",
        -9.97004884381304
      ],
      [
        "Ġwheel",
        -9.970676462860432
      ],
      [
        "Ġestimate",
        -9.970699751928048
      ],
      [
        "Ġtru",
        -9.971181755790935
      ],
      [
        "Ġwalls",
        -9.97130324800604
      ],
      [
        "Ġstraight",
        -9.971526001105085
      ],
      [
        "Ġlayers",
        -9.971913281497
      ],
      [
        "Ġraise",
        -9.97253906205752
      ],
      [
        "Ġclasses",
        -9.97263027558941
      ],
      [
        "Ġowners",
        -9.9733441070241
      ],
      [
        "Ġbottle",
        -9.973516501933794
      ],
      [
        "Ġclient",
        -9.97353681047373
      ],
      [
        "Ġstandards",
        -9.973802721572802
      ],
      [
        "Ġsounds",
        -9.973815367048909
      ],
      [
        "gu",
        -9.974790236491502
      ],
      [
        "ĠPeople",
        -9.975185754221489
      ],
      [
        "Ġpolicy",
        -9.97526784736664
      ],
      [
        "Ġthin",
        -9.975405194895448
      ],
      [
        "Ġobserv",
        -9.97611311909889
      ],
      [
        "ĠGreat",
        -9.976934308250096
      ],
      [
        "Ġofficial",
        -9.97702264519476
      ],
      [
        "Ġexperiences",
        -9.977076883229056
      ],
      [
        "Ġoperate",
        -9.97735628941768
      ],
      [
        "how",
        -9.97819554597432
      ],
      [
        "Ġinvestment",
        -9.979029870423023
      ],
      [
        "Ġartificial",
        -9.979068516449471
      ],
      [
        "Ġhelpful",
        -9.979467711524638
      ],
      [
        "Ġwanted",
        -9.979779714007217
      ],
      [
        "Ġcloud",
        -9.980551534609456
      ],
      [
        "Ġplanting",
        -9.980568939892812
      ],
      [
        "Ġconcrete",
        -9.98230369298958
      ],
      [
        "Ġindustrial",
        -9.982444070220977
      ],
      [
        "Ġreduction",
        -9.982462617757538
      ],
      [
        "Ġchanged",
        -9.98324518238057
      ],
      [
        "Ġrace",
        -9.983563346334323
      ],
      [
        "Ġcalculate",
        -9.983799186546117
      ],
      [
        "Ġupper",
        -9.98433540848999
      ],
      [
        "Ġthick",
        -9.98510622485231
      ],
      [
        "Ġblend",
        -9.985580851389848
      ],
      [
        "ious",
        -9.986058927659492
      ],
      [
        "Answer",
        -9.98812371635795
      ],
      [
        "Ġimprovement",
        -9.990290219985948
      ],
      [
        "âĢĻt",
        -9.990593919879425
      ],
      [
        "Ġdigest",
        -9.991073839341023
      ],
      [
        "Ġharvest",
        -9.991169021144946
      ],
      [
        "Ġdetailed",
        -9.991784700953282
      ],
      [
        "Ġchannel",
        -9.993029737140526
      ],
      [
        "Ġcareer",
        -9.993105472334488
      ],
      [
        "Ġvector",
        -9.99342130806413
      ],
      [
        "Ġplate",
        -9.9943881470301
      ],
      [
        "ĠpH",
        -9.994910584303287
      ],
      [
        "Ġfan",
        -9.995885323484975
      ],
      [
        "Ġcredit",
        -9.996325759039108
      ],
      [
        "Ġstorie",
        -9.996579178042914
      ],
      [
        "use",
        -9.997031920296733
      ],
      [
        "Ġprior",
        -9.997240121692482
      ],
      [
        "light",
        -9.997785921834572
      ],
      [
        "ĠEvery",
        -9.998055897342873
      ],
      [
        "Ġmagnetic",
        -9.99908610813501
      ],
      [
        "Ġbill",
        -9.999213745428031
      ],
      [
        "ug",
        -9.99981161415316
      ],
      [
        "Ġsit",
        -9.99987015770152
      ],
      [
        "Ġcultural",
        -9.99996631699415
      ],
      [
        "Ġlaunch",
        -10.000124358750064
      ],
      [
        "Ġbatteries",
        -10.000297717358446
      ],
      [
        "Ġedit",
        -10.00038039553639
      ],
      [
        "Ġcarefully",
        -10.000561667711237
      ],
      [
        "Ġformation",
        -10.000761044093538
      ],
      [
        "Ġcontrast",
        -10.003714024090652
      ],
      [
        "Ġtechnical",
        -10.00371508328058
      ],
      [
        "Ġillness",
        -10.003746218312918
      ],
      [
        "Ġcreature",
        -10.004039969178123
      ],
      [
        "Ġdiscussion",
        -10.004107323602865
      ],
      [
        "Ġlay",
        -10.004320427900218
      ],
      [
        "Ġdur",
        -10.005700336714362
      ],
      [
        "Ġyield",
        -10.00607778244245
      ],
      [
        "Ġimproved",
        -10.006278997385255
      ],
      [
        "Ġcreation",
        -10.006607783254088
      ],
      [
        "Ġseat",
        -10.00699767044378
      ],
      [
        "ĠJohn",
        -10.007264722418256
      ],
      [
        "Ġfirm",
        -10.007355741657175
      ],
      [
        "Ġcontinuous",
        -10.007481880764304
      ],
      [
        "ley",
        -10.008602530246502
      ],
      [
        "Ġemail",
        -10.009202369912618
      ],
      [
        "-being",
        -10.009454832786655
      ],
      [
        "ible",
        -10.009747957671236
      ],
      [
        "Ġwire",
        -10.010365820118432
      ],
      [
        "Ġcontract",
        -10.01084980659006
      ],
      [
        "Ġsector",
        -10.010956389808474
      ],
      [
        "Ġsaving",
        -10.010958046035055
      ],
      [
        "Ã©",
        -10.01096351053512
      ],
      [
        "ak",
        -10.01226909363045
      ],
      [
        "Ġnamed",
        -10.013820520927618
      ],
      [
        "Ġemployee",
        -10.014632786696874
      ],
      [
        "Ġquant",
        -10.01467852934122
      ],
      [
        "ĠWork",
        -10.014784948277052
      ],
      [
        "Ġinterface",
        -10.015158473260364
      ],
      [
        "Ġoffering",
        -10.016517530013097
      ],
      [
        "ĠAir",
        -10.016623818491158
      ],
      [
        "/or",
        -10.017073931186989
      ],
      [
        "ĠNe",
        -10.01760056182555
      ],
      [
        "Ġremoved",
        -10.017824251016968
      ],
      [
        "Ġbroke",
        -10.018406133733691
      ],
      [
        "Ġadopt",
        -10.019491575633223
      ],
      [
        "Ġstrategy",
        -10.020077963176924
      ],
      [
        "Ġinteract",
        -10.02037890413781
      ],
      [
        "Ġfindings",
        -10.021689839513702
      ],
      [
        "Ġgirl",
        -10.02191282709086
      ],
      [
        "Ġshared",
        -10.022504175516405
      ],
      [
        "Ġprimari",
        -10.02261055127368
      ],
      [
        "Ġagree",
        -10.023484812047617
      ],
      [
        "Ġparticipant",
        -10.023751055553996
      ],
      [
        "amp",
        -10.024394742043558
      ],
      [
        "Ġlocate",
        -10.025155676056247
      ],
      [
        "Ġguid",
        -10.025218316948012
      ],
      [
        "Ġteach",
        -10.02547447147278
      ],
      [
        "Ġcream",
        -10.02563047069258
      ],
      [
        "Ġlaser",
        -10.025750982412957
      ],
      [
        "Ġeducational",
        -10.026426491362209
      ],
      [
        "Ġerror",
        -10.026786656794592
      ],
      [
        "Ġoperations",
        -10.027227330638638
      ],
      [
        "Most",
        -10.028067691022096
      ],
      [
        "ran",
        -10.028376124726156
      ],
      [
        "Ġsymbol",
        -10.029069947949765
      ],
      [
        "Ġkitchen",
        -10.029296426509632
      ],
      [
        "Ġlung",
        -10.0293548741688
      ],
      [
        "Ġarm",
        -10.029470643890456
      ],
      [
        "Ġoutdoor",
        -10.030805601449062
      ],
      [
        "ware",
        -10.031048183412352
      ],
      [
        "Ġlighting",
        -10.031048940245196
      ],
      [
        "-year",
        -10.031936380754011
      ],
      [
        "ĠPi",
        -10.032354238235772
      ],
      [
        "hu",
        -10.033001892806864
      ],
      [
        "Ġupdate",
        -10.033187421428655
      ],
      [
        "off",
        -10.03392365543249
      ],
      [
        "Ġleak",
        -10.034741186320248
      ],
      [
        "Ġengineering",
        -10.034917128500354
      ],
      [
        "king",
        -10.035089640984816
      ],
      [
        "Ġemotion",
        -10.03534052760468
      ],
      [
        "Ġwet",
        -10.035384991103069
      ],
      [
        "Ġorganisms",
        -10.035524992741442
      ],
      [
        "Ġorigin",
        -10.035563069749465
      ],
      [
        "ĠYork",
        -10.036106808331484
      ],
      [
        "Ġhistorical",
        -10.037323226062854
      ],
      [
        "Ġcharacter",
        -10.037422217479469
      ],
      [
        "Ġjoin",
        -10.037526621715635
      ],
      [
        "cha",
        -10.037679892048114
      ],
      [
        "My",
        -10.038370615899682
      ],
      [
        "Ġstomach",
        -10.038579872374862
      ],
      [
        "Ġthrow",
        -10.03859599412032
      ],
      [
        "ctober",
        -10.038731843271751
      ],
      [
        "Are",
        -10.03931394564672
      ],
      [
        "Ġseal",
        -10.040073932330792
      ],
      [
        "Ġintroduc",
        -10.040173605227494
      ],
      [
        "Ġeconom",
        -10.042022109355768
      ],
      [
        "Ġbreast",
        -10.042174257529233
      ],
      [
        "qua",
        -10.042773044748008
      ],
      [
        "capable",
        -10.042786008373705
      ],
      [
        "ĠGreen",
        -10.04346337925007
      ],
      [
        "Ġcalci",
        -10.043486091400156
      ],
      [
        "Ġsolve",
        -10.04367205210437
      ],
      [
        "Ġinteractions",
        -10.044291964643314
      ],
      [
        "Ġwash",
        -10.0451336344807
      ],
      [
        "Ġobvious",
        -10.046077557930143
      ],
      [
        "Ġflood",
        -10.046083656067124
      ],
      [
        "Ġaware",
        -10.046602699518369
      ],
      [
        "Ġimprov",
        -10.047520118777324
      ],
      [
        "Ġenzyme",
        -10.047677940441163
      ],
      [
        "Ġtalking",
        -10.048378006578758
      ],
      [
        "Ġcommand",
        -10.048463853674676
      ],
      [
        ".[",
        -10.049153590359126
      ],
      [
        "ĠKeep",
        -10.04949588107739
      ],
      [
        "Ġuniverse",
        -10.049848988911483
      ],
      [
        "Ġancient",
        -10.049850401992677
      ],
      [
        "Ġdedicat",
        -10.0498653723796
      ],
      [
        "ĠLife",
        -10.049915236995783
      ],
      [
        "Ġfear",
        -10.050028247562526
      ],
      [
        "Ġcars",
        -10.050090838144474
      ],
      [
        "Ġbite",
        -10.050574062476072
      ],
      [
        "ĠPlant",
        -10.05071992419752
      ],
      [
        "aging",
        -10.051020387218536
      ],
      [
        "Ġshowed",
        -10.051043912492158
      ],
      [
        "Ġlift",
        -10.051095722838816
      ],
      [
        "latest",
        -10.051150794105071
      ],
      [
        "Ġbeneficial",
        -10.051737950803544
      ],
      [
        "Ġprepared",
        -10.052600517762889
      ],
      [
        "Ġultimate",
        -10.053631888333284
      ],
      [
        "Ġevolve",
        -10.053632049231092
      ],
      [
        "Ġexplor",
        -10.05413714267828
      ],
      [
        "her",
        -10.054313432070192
      ],
      [
        "ĠDoes",
        -10.055000070603718
      ],
      [
        "led",
        -10.057082080875496
      ],
      [
        "ĠSp",
        -10.057146036678812
      ],
      [
        "Ġthorough",
        -10.057430570908942
      ],
      [
        "Many",
        -10.059248291966531
      ],
      [
        "Ġdioxide",
        -10.059355928642518
      ],
      [
        "Ġharmful",
        -10.05946621540238
      ],
      [
        "Ġisland",
        -10.060073829679109
      ],
      [
        "Ġexhibit",
        -10.06023381550784
      ],
      [
        "izing",
        -10.060422613413728
      ],
      [
        "ze",
        -10.060542098583513
      ],
      [
        "Ġheal",
        -10.061580509530527
      ],
      [
        "Ġgenerator",
        -10.06190091321642
      ],
      [
        "Ġoccurr",
        -10.062333746378886
      ],
      [
        "Ġfiles",
        -10.063225782440862
      ],
      [
        "Ġbutter",
        -10.064750631230094
      ],
      [
        "Ġformula",
        -10.06515325279345
      ],
      [
        "-quality",
        -10.06540318786472
      ],
      [
        "ĠAfrican",
        -10.065801665949554
      ],
      [
        "Ġcable",
        -10.06593295261886
      ],
      [
        "ja",
        -10.065994087391909
      ],
      [
        "Ġmaster",
        -10.06624846943535
      ],
      [
        "Ġunits",
        -10.066306006567308
      ],
      [
        "ST",
        -10.06659533230972
      ],
      [
        "back",
        -10.06687210711422
      ],
      [
        "ĠBo",
        -10.067222782219266
      ],
      [
        "ĠMarch",
        -10.06759057415609
      ],
      [
        "Ġgrain",
        -10.067832343144108
      ],
      [
        "Ġestimated",
        -10.06830272974302
      ],
      [
        "Ġmeeting",
        -10.069363985907984
      ],
      [
        "Ġinvest",
        -10.06953341728426
      ],
      [
        "Ġconsideration",
        -10.069898253221693
      ],
      [
        "Ġprompt",
        -10.070841958757898
      ],
      [
        "kept",
        -10.071038822830584
      ],
      [
        "Ġopinion",
        -10.072771698621688
      ],
      [
        "Ġtransmission",
        -10.072783652344793
      ],
      [
        "ĠPa",
        -10.073271712481125
      ],
      [
        "Ġessay",
        -10.074179899305957
      ],
      [
        "Ġex",
        -10.074370847691872
      ],
      [
        "Ġdefinition",
        -10.07445201948751
      ],
      [
        "Ġengage",
        -10.07561834699371
      ],
      [
        "Your",
        -10.075696118765867
      ],
      [
        "Ġprepare",
        -10.075830817294266
      ],
      [
        "Yes",
        -10.076620857730124
      ],
      [
        "Ġfundamental",
        -10.076643643339592
      ],
      [
        "Ġallerg",
        -10.076667986064276
      ],
      [
        "Ġbaking",
        -10.076708905834783
      ],
      [
        "ĠSea",
        -10.077778626991712
      ],
      [
        "Ġhelping",
        -10.077784753702304
      ],
      [
        "uck",
        -10.078249153251562
      ],
      [
        "Ġindoor",
        -10.078833757569582
      ],
      [
        "]Ċ",
        -10.078873580135363
      ],
      [
        "Ġdecisions",
        -10.080109241020889
      ],
      [
        "Ġboat",
        -10.080319378749492
      ],
      [
        "Ġconsequence",
        -10.080536946898505
      ],
      [
        "Ġthread",
        -10.080545005581364
      ],
      [
        "Ġdatabase",
        -10.080629362169642
      ],
      [
        "Ġobtain",
        -10.081491483088344
      ],
      [
        "ĠProgram",
        -10.081557578884729
      ],
      [
        "ĠLike",
        -10.08229769365345
      ],
      [
        "ants",
        -10.082330640231664
      ],
      [
        "ĠBlack",
        -10.082410805538633
      ],
      [
        "AL",
        -10.08262601602619
      ],
      [
        "ĠBritish",
        -10.08317371091652
      ],
      [
        "nd",
        -10.083840630185724
      ],
      [
        "Ġautomatic",
        -10.083845705992111
      ],
      [
        "Ġmis",
        -10.084448580224985
      ],
      [
        "Ġintend",
        -10.084755928193864
      ],
      [
        "Â",
        -10.08628611262403
      ],
      [
        "Ġchoosing",
        -10.086390149846068
      ],
      [
        "Ġamazing",
        -10.086390346909496
      ],
      [
        "Ġvessel",
        -10.086393955927932
      ],
      [
        "Â±",
        -10.086396517301814
      ],
      [
        "Ġguidelines",
        -10.08644925209414
      ],
      [
        "Ġplent",
        -10.086517176277187
      ],
      [
        "Ġpropose",
        -10.08700220963713
      ],
      [
        "Ġeight",
        -10.087305079243352
      ],
      [
        "Ġwaves",
        -10.087884601477615
      ],
      [
        "Ġaudio",
        -10.088365965902945
      ],
      [
        "Ġagent",
        -10.088424171076117
      ],
      [
        "Ġdimension",
        -10.088773347147322
      ],
      [
        "Ġorganizations",
        -10.089179843263729
      ],
      [
        "Ġreward",
        -10.090388430456692
      ],
      [
        "Ġsunlight",
        -10.09041214715683
      ],
      [
        "wood",
        -10.09160880611083
      ],
      [
        "Ġla",
        -10.092802909123092
      ],
      [
        "Ġlarges",
        -10.09337134341305
      ],
      [
        "Ġcomposition",
        -10.094285594773126
      ],
      [
        "PT",
        -10.094385902986591
      ],
      [
        "Ġradio",
        -10.09575659270132
      ],
      [
        "Ġgift",
        -10.09623341532686
      ],
      [
        "Ġpregnanc",
        -10.09746057939703
      ],
      [
        "-time",
        -10.098079312175988
      ],
      [
        "Ġinnovation",
        -10.098214490031063
      ],
      [
        "Ġdrugs",
        -10.100434224806431
      ],
      [
        "Ġjump",
        -10.102186919077
      ],
      [
        "ĠPower",
        -10.10225960880196
      ],
      [
        "Ġwish",
        -10.10288282119149
      ],
      [
        "ĠEl",
        -10.103038342586252
      ],
      [
        "Ġseven",
        -10.10319397936793
      ],
      [
        "Ġextract",
        -10.10354583374927
      ],
      [
        "Ġstroke",
        -10.103762899907936
      ],
      [
        "Ġship",
        -10.103878963324885
      ],
      [
        "Ġmammal",
        -10.104177263109284
      ],
      [
        "ĠFurther",
        -10.105490157805889
      ],
      [
        "Ġfields",
        -10.105617627401353
      ],
      [
        "Ġantibiotic",
        -10.10619653296494
      ],
      [
        "Ġradiation",
        -10.10626030035016
      ],
      [
        "Ġassume",
        -10.106836365566837
      ],
      [
        "Ġletter",
        -10.107272376270712
      ],
      [
        "Ġoven",
        -10.108236381053946
      ],
      [
        "Ġcrack",
        -10.108819138191668
      ],
      [
        "ĠIndian",
        -10.109006013407004
      ],
      [
        "Ġgrown",
        -10.11111228049038
      ],
      [
        "Ġharm",
        -10.112240709834644
      ],
      [
        "Ġmajority",
        -10.11227956321252
      ],
      [
        "Let",
        -10.113679495038593
      ],
      [
        "red",
        -10.11396112872736
      ],
      [
        "Ġparticle",
        -10.115405603883197
      ],
      [
        "referred",
        -10.11553164552808
      ],
      [
        "Ġproduc",
        -10.116609010602764
      ],
      [
        "Ġapart",
        -10.116624529061388
      ],
      [
        "Ġawareness",
        -10.116756887937168
      ],
      [
        "Ġgenerat",
        -10.116912988086158
      ],
      [
        "Ġtail",
        -10.11725696259746
      ],
      [
        "Ġgets",
        -10.11769539667116
      ],
      [
        "Ġprivate",
        -10.119347392299575
      ],
      [
        "ĠNi",
        -10.120054328375446
      ],
      [
        "Ġcoffee",
        -10.120257876030497
      ],
      [
        "Ġanxiet",
        -10.120412940701945
      ],
      [
        "Ġcup",
        -10.120724498411027
      ],
      [
        "Ġstation",
        -10.120922672643806
      ],
      [
        "ute",
        -10.121979286093495
      ],
      [
        "Ġabsolute",
        -10.12228627078045
      ],
      [
        "Ġdomain",
        -10.122745678187249
      ],
      [
        "Ġrelevant",
        -10.12431879120157
      ],
      [
        "Ġapproximation",
        -10.124376340385036
      ],
      [
        "Ġmap",
        -10.12451827961456
      ],
      [
        "Ġgraph",
        -10.124756576422756
      ],
      [
        "Ġborn",
        -10.12493365768552
      ],
      [
        "Ġtrade",
        -10.125985370836103
      ],
      [
        "Ġextensive",
        -10.126375397265887
      ],
      [
        "stability",
        -10.126510181613185
      ],
      [
        "Ġaircraft",
        -10.126540653475722
      ],
      [
        "Ġpreviously",
        -10.127909270564974
      ],
      [
        "Ġpainting",
        -10.127928885695583
      ],
      [
        "Ġtight",
        -10.12834575425634
      ],
      [
        "Ġdecide",
        -10.12836447916122
      ],
      [
        "Ġresponsibilit",
        -10.128396267462184
      ],
      [
        "ĠCanada",
        -10.12840350857144
      ],
      [
        "ple",
        -10.12871750376241
      ],
      [
        "Ġfunctional",
        -10.128935923256533
      ],
      [
        "with",
        -10.129540825956797
      ],
      [
        "Ġinstallation",
        -10.12955727799337
      ],
      [
        "Ġdish",
        -10.129588947332266
      ],
      [
        "Ġbreath",
        -10.130561676041532
      ],
      [
        "Ġhousehold",
        -10.130602659855334
      ],
      [
        "Ġprecise",
        -10.132490456172317
      ],
      [
        "Ġincorporate",
        -10.13249396564572
      ],
      [
        "Ġstretch",
        -10.1331506124478
      ],
      [
        "Ġdensit",
        -10.133243311302898
      ],
      [
        "Ġdetermined",
        -10.133253964356394
      ],
      [
        "Ġleaving",
        -10.134543873152644
      ],
      [
        "Ġminimum",
        -10.13454913318486
      ],
      [
        "Ġmembrane",
        -10.134729417852569
      ],
      [
        "Ġconstruct",
        -10.135048749255809
      ],
      [
        "Ġscore",
        -10.1350810339216
      ],
      [
        "ĠInternational",
        -10.135656420923608
      ],
      [
        "qui",
        -10.136642818998231
      ],
      [
        "Ġheating",
        -10.137201535041036
      ],
      [
        "kin",
        -10.13745818750764
      ],
      [
        "Ġcomparison",
        -10.138663718708523
      ],
      [
        "Ġintelligence",
        -10.138679840624029
      ],
      [
        "Conclusion",
        -10.138694256486035
      ],
      [
        "Ġport",
        -10.139205867781891
      ],
      [
        "Ġtoxic",
        -10.139830893629178
      ],
      [
        "Ġchronic",
        -10.140729421862794
      ],
      [
        "Ġversatil",
        -10.14075195840546
      ],
      [
        "Ġfamiliar",
        -10.14077129471932
      ],
      [
        "sharing",
        -10.1413124942899
      ],
      [
        "Ġprofile",
        -10.141713067164936
      ],
      [
        "Ġcompost",
        -10.142462466809684
      ],
      [
        "Ġhunting",
        -10.14251933609216
      ],
      [
        "Ġforces",
        -10.142745700184705
      ],
      [
        "Ġsmart",
        -10.143348373401777
      ],
      [
        "Ġdelay",
        -10.144961659165489
      ],
      [
        "Ġcraft",
        -10.1457673512544
      ],
      [
        "Ġsaying",
        -10.146547042452674
      ],
      [
        "Ġturning",
        -10.147363561833298
      ],
      [
        "Ġnutrition",
        -10.147534733818452
      ],
      [
        "Ġstar",
        -10.14793887361424
      ],
      [
        "Ġexamine",
        -10.14827966807236
      ],
      [
        "ĠSan",
        -10.148451148923678
      ],
      [
        "Ġassessment",
        -10.148497932276353
      ],
      [
        "Ġinternet",
        -10.149090801231855
      ],
      [
        "mic",
        -10.149683041438308
      ],
      [
        "mar",
        -10.14974121010873
      ],
      [
        "Ġengineer",
        -10.150110246015352
      ],
      [
        "Ġnorth",
        -10.150551136113204
      ],
      [
        "Ġexpos",
        -10.150567164503398
      ],
      [
        "Ġclinical",
        -10.151142706212074
      ],
      [
        "Ġdisorders",
        -10.151582773219175
      ],
      [
        "Ġmission",
        -10.15291858692844
      ],
      [
        "Ġopening",
        -10.1529753072332
      ],
      [
        "Ġbeauty",
        -10.153601869888767
      ],
      [
        "IN",
        -10.15361866215803
      ],
      [
        "Ġfruits",
        -10.15458655274148
      ],
      [
        "Ġurban",
        -10.155318132493488
      ],
      [
        "Ġexcessive",
        -10.15568548640093
      ],
      [
        "you",
        -10.156187166667609
      ],
      [
        "Ġformat",
        -10.156565736146524
      ],
      [
        "Ġbond",
        -10.157030807391568
      ],
      [
        "nic",
        -10.157322760966396
      ],
      [
        "Ġstable",
        -10.15764478109666
      ],
      [
        "Ġinner",
        -10.158808714332777
      ],
      [
        "chi",
        -10.159283650567184
      ],
      [
        "Ġcircle",
        -10.159535420500449
      ],
      [
        "Ġspeaker",
        -10.15957275498662
      ],
      [
        "ĠAdd",
        -10.15981984828555
      ],
      [
        "Ġshoot",
        -10.160005307487864
      ],
      [
        "Use",
        -10.160501672473751
      ],
      [
        "US",
        -10.160728441976987
      ],
      [
        "Ġaffects",
        -10.160744728587098
      ],
      [
        "Ġindependent",
        -10.16112964059142
      ],
      [
        "Ġcurve",
        -10.163514585813108
      ],
      [
        "Ġrice",
        -10.164427485874825
      ],
      [
        "port",
        -10.164741694904524
      ],
      [
        "Ġvaccine",
        -10.165861669602531
      ],
      [
        "ĠChina",
        -10.167051130018937
      ],
      [
        "ĠBio",
        -10.167766100118968
      ],
      [
        "Ġdes",
        -10.167878297642222
      ],
      [
        "Ġderive",
        -10.167994781740113
      ],
      [
        "Ġmatrix",
        -10.168642624623391
      ],
      [
        "Ġpercentage",
        -10.168690782949438
      ],
      [
        "Ġweigh",
        -10.16890643549432
      ],
      [
        "Ġsituations",
        -10.169731097237044
      ],
      [
        "Ġexcess",
        -10.169735261088093
      ],
      [
        "Ġpowder",
        -10.16979304752144
      ],
      [
        "definitely",
        -10.169961813123056
      ],
      [
        "Ġsecret",
        -10.171120646054032
      ],
      [
        "ĠHis",
        -10.172237684937436
      ],
      [
        "lan",
        -10.172402501444646
      ],
      [
        "Ġrealize",
        -10.172813099870687
      ],
      [
        "Ġsensitive",
        -10.172983861548884
      ],
      [
        "ED",
        -10.173169472600348
      ],
      [
        "ric",
        -10.173268265785914
      ],
      [
        "Ġconsists",
        -10.173274528244924
      ],
      [
        "Ġbear",
        -10.174208268778187
      ],
      [
        "Ġhospital",
        -10.174285124464534
      ],
      [
        "pp",
        -10.17504085133436
      ],
      [
        "Ġinteraction",
        -10.175041245458612
      ],
      [
        "Ġvarie",
        -10.175636545308151
      ],
      [
        "going",
        -10.175723603224444
      ],
      [
        "Ġrely",
        -10.175981948514188
      ],
      [
        "ĠJune",
        -10.176436323653036
      ],
      [
        "Ġdownload",
        -10.17675048021058
      ],
      [
        "Ġcorn",
        -10.17755471465755
      ],
      [
        "lies",
        -10.177698820137078
      ],
      [
        "Ġchose",
        -10.178729345777338
      ],
      [
        "Ġstring",
        -10.179696627398684
      ],
      [
        "Ġdepression",
        -10.180888760476796
      ],
      [
        "Ġremov",
        -10.18104233780815
      ],
      [
        "Ġma",
        -10.181512793891144
      ],
      [
        "ĠControl",
        -10.181708231552836
      ],
      [
        "ade",
        -10.1829790299368
      ],
      [
        "Ġspray",
        -10.183002233227228
      ],
      [
        "Ġmask",
        -10.183036359942392
      ],
      [
        "Ġstatus",
        -10.183233510728192
      ],
      [
        "top",
        -10.183310622646312
      ],
      [
        "Ġwouldn",
        -10.183859253431244
      ],
      [
        "Ġconflict",
        -10.18441290336187
      ],
      [
        "Ġregister",
        -10.185604642524002
      ],
      [
        "Ġjournal",
        -10.185616424689222
      ],
      [
        "Ġcustom",
        -10.185832775827285
      ],
      [
        "Ġconfirm",
        -10.186784795955738
      ],
      [
        "Onc",
        -10.186923128580831
      ],
      [
        "Ġcommunicate",
        -10.18730161380327
      ],
      [
        "Ġriver",
        -10.187330713542345
      ],
      [
        "ĠHa",
        -10.187432973933891
      ],
      [
        "Ġloop",
        -10.187958370776569
      ],
      [
        "Ġcompare",
        -10.188972108254202
      ],
      [
        "chemistry",
        -10.190027439712852
      ],
      [
        "Ġmanufacturing",
        -10.19051635336806
      ],
      [
        "ung",
        -10.190745529340788
      ],
      [
        "ĠArt",
        -10.19075438410179
      ],
      [
        "Ġzero",
        -10.190863672311371
      ],
      [
        "Ġmachines",
        -10.191175202042118
      ],
      [
        "Ġencounter",
        -10.191641765160192
      ],
      [
        "Ġagriculture",
        -10.191641767804192
      ],
      [
        "Ġadvantages",
        -10.192662432486436
      ],
      [
        "Dr",
        -10.19298087589921
      ],
      [
        "uary",
        -10.193598082635528
      ],
      [
        "ĠTake",
        -10.19363554657008
      ],
      [
        "ĠWhere",
        -10.19363747267392
      ],
      [
        "book",
        -10.195247551308816
      ],
      [
        "Ġrecovery",
        -10.195412808502915
      ],
      [
        "gave",
        -10.195493048852455
      ],
      [
        "Ġdust",
        -10.196070521568318
      ],
      [
        "Ġlaws",
        -10.196359852546204
      ],
      [
        "Ġtopics",
        -10.197326456203143
      ],
      [
        "Ġlifestyle",
        -10.198333829771066
      ],
      [
        "istic",
        -10.198722824973531
      ],
      [
        "Ġtitle",
        -10.198756596656487
      ],
      [
        "Ġappreciate",
        -10.199425572143545
      ],
      [
        "Ġhormone",
        -10.19963473608968
      ],
      [
        "Ġexact",
        -10.199747310343357
      ],
      [
        "Ġtooth",
        -10.19977091537396
      ],
      [
        "Ġconsist",
        -10.199849906655722
      ],
      [
        "Ġrobot",
        -10.200474612077072
      ],
      [
        "Ġnovel",
        -10.201337991427668
      ],
      [
        "Ġtax",
        -10.201766299447248
      ],
      [
        "ĠApril",
        -10.202044562403488
      ],
      [
        "Ġminerals",
        -10.202120706972035
      ],
      [
        "Although",
        -10.20215328221948
      ],
      [
        "Ġputt",
        -10.202593589139587
      ],
      [
        "ĠFrench",
        -10.20267672676533
      ],
      [
        "Ġtrial",
        -10.202699369352365
      ],
      [
        "Ġsteam",
        -10.202786216746254
      ],
      [
        "ari",
        -10.202952062776934
      ],
      [
        "Ġbulb",
        -10.20481262926317
      ],
      [
        "Ġworry",
        -10.204974085084544
      ],
      [
        "Ġutiliz",
        -10.20554709998476
      ],
      [
        "Ġmobile",
        -10.206403338186904
      ],
      [
        "ĠRNA",
        -10.206603535606316
      ],
      [
        "Ġcolumn",
        -10.206993335095962
      ],
      [
        "Ġcompetition",
        -10.20700028304042
      ],
      [
        "Ġcloser",
        -10.207493275374675
      ],
      [
        "Ġquantit",
        -10.208036048350802
      ],
      [
        "ĠBoth",
        -10.208330277535907
      ],
      [
        "net",
        -10.208599275778068
      ],
      [
        "Ġagenc",
        -10.208771333320378
      ],
      [
        "Ġprinciples",
        -10.209669137382178
      ],
      [
        "Ġpounds",
        -10.21113761439942
      ],
      [
        "Ġuniversit",
        -10.211441574438789
      ],
      [
        "Ġaccuracy",
        -10.211468109013408
      ],
      [
        "Ġdecided",
        -10.21170973111784
      ],
      [
        "-friendly",
        -10.212396805554402
      ],
      [
        "ĠGoogle",
        -10.213248698538369
      ],
      [
        "Ġfoundation",
        -10.213382639887456
      ],
      [
        "Ġbloom",
        -10.213644912759056
      ],
      [
        "Ġlock",
        -10.21446133340315
      ],
      [
        "Ġsuffer",
        -10.214606122834576
      ],
      [
        "Ġinstitution",
        -10.214680995954536
      ],
      [
        "Ġcombin",
        -10.215874326445364
      ],
      [
        "Ġbread",
        -10.216012962090591
      ],
      [
        "ball",
        -10.21602210110666
      ],
      [
        "Ġblow",
        -10.21617843644566
      ],
      [
        "Ġsouth",
        -10.217987883812045
      ],
      [
        "ĠHuman",
        -10.218154115342555
      ],
      [
        "Ġmutation",
        -10.2181887644438
      ],
      [
        "Ġpreparation",
        -10.218386166007608
      ],
      [
        "ĠWest",
        -10.218561464211325
      ],
      [
        "According",
        -10.2189348211055
      ],
      [
        "dom",
        -10.219119453952066
      ],
      [
        "Ġmechanical",
        -10.21931165080909
      ],
      [
        "bar",
        -10.21969935815732
      ],
      [
        "Ġwasn",
        -10.220008493825052
      ],
      [
        "Ġaudience",
        -10.22034175635942
      ],
      [
        "like",
        -10.221512580200066
      ],
      [
        "ĠCounty",
        -10.221886085487512
      ],
      [
        "well",
        -10.223537124036412
      ],
      [
        "ĠJuly",
        -10.22369117629227
      ],
      [
        "Ġregulations",
        -10.224567283092656
      ],
      [
        "Ġdream",
        -10.224832416752095
      ],
      [
        "Ġdental",
        -10.225158137004632
      ],
      [
        "Ġminimize",
        -10.22527368184506
      ],
      [
        "Ġflu",
        -10.2253143757702
      ],
      [
        "del",
        -10.225713762029518
      ],
      [
        "ural",
        -10.225984747992324
      ],
      [
        "nstead",
        -10.226013322881183
      ],
      [
        "Ġpassed",
        -10.226046132359803
      ],
      [
        "ĠRed",
        -10.22618642771355
      ],
      [
        "ĠPre",
        -10.226774053665425
      ],
      [
        "cho",
        -10.227741736137723
      ],
      [
        "Ġnucle",
        -10.227898822291248
      ],
      [
        "Ġalter",
        -10.228208224846218
      ],
      [
        "Ġchoices",
        -10.228218807982516
      ],
      [
        "Ġapproaches",
        -10.228431875068244
      ],
      [
        "Ġsurfaces",
        -10.228989153953542
      ],
      [
        "Ġchapter",
        -10.229340237847444
      ],
      [
        "Ġrapid",
        -10.231029612390136
      ],
      [
        "Ġsharp",
        -10.231118468268228
      ],
      [
        "Ġpredator",
        -10.231615299502169
      ],
      [
        "Ġclothes",
        -10.232555014736818
      ],
      [
        "ĠHave",
        -10.23255523765415
      ],
      [
        "ility",
        -10.232765631494562
      ],
      [
        "IC",
        -10.232847710379623
      ],
      [
        "Ġconsult",
        -10.232926813730217
      ],
      [
        "Ġeliminate",
        -10.232996740425918
      ],
      [
        "Me",
        -10.2331899531298
      ],
      [
        "ĠBar",
        -10.233223586740102
      ],
      [
        "Ġprinter",
        -10.233454257380664
      ],
      [
        "Ġphysics",
        -10.233870278171738
      ],
      [
        "ĠLo",
        -10.23389792803651
      ],
      [
        "Ġfoster",
        -10.233903669045912
      ],
      [
        "see",
        -10.233952081989411
      ],
      [
        "Ġrecover",
        -10.234578726031256
      ],
      [
        "Ġconventional",
        -10.234876346914252
      ],
      [
        "car",
        -10.235163045417975
      ],
      [
        "Ġknee",
        -10.23629357458696
      ],
      [
        "Ġcooked",
        -10.236337367791712
      ],
      [
        "ĠDesign",
        -10.23656394414636
      ],
      [
        "com",
        -10.236730725948023
      ],
      [
        "Ġcollege",
        -10.238420950955184
      ],
      [
        "Ġappeal",
        -10.23849290549909
      ],
      [
        "Ġbreeding",
        -10.238529776719744
      ],
      [
        "Ġforget",
        -10.238997117377307
      ],
      [
        "Ġbrake",
        -10.240562241534654
      ],
      [
        "Ġdescription",
        -10.24070403747528
      ],
      [
        "Ġpool",
        -10.241642729728206
      ],
      [
        "Ġrenewable",
        -10.242172254614305
      ],
      [
        "New",
        -10.242451062488056
      ],
      [
        "Ġbehaviour",
        -10.242992309250049
      ],
      [
        "Ġrestaurant",
        -10.242992313246964
      ],
      [
        "November",
        -10.242993742118236
      ],
      [
        "Ġprinting",
        -10.24325954125356
      ],
      [
        "Ġnet",
        -10.243447858234507
      ],
      [
        "Ġtraffic",
        -10.244195128624984
      ],
      [
        "aught",
        -10.24426671575235
      ],
      [
        "Ġlense",
        -10.24437299171784
      ],
      [
        "Ġprogramm",
        -10.245017880474297
      ],
      [
        "AT",
        -10.245405987473571
      ],
      [
        "rie",
        -10.245431262167466
      ],
      [
        "ĠHome",
        -10.246672357742009
      ],
      [
        "Ġ...Ċ",
        -10.246930358533085
      ],
      [
        "Ġdistinct",
        -10.248580148175623
      ],
      [
        "Ġrecipe",
        -10.24871068528932
      ],
      [
        "Ġecosystem",
        -10.248717926692612
      ],
      [
        "More",
        -10.248738287895192
      ],
      [
        "Ġthrive",
        -10.249693493771607
      ],
      [
        "Ġpad",
        -10.249733128349554
      ],
      [
        "Ġselected",
        -10.249873400107688
      ],
      [
        "Ġhomes",
        -10.250163960399972
      ],
      [
        "Ġsufficient",
        -10.250367883478775
      ],
      [
        "har",
        -10.251015049652633
      ],
      [
        "ivity",
        -10.252429006300796
      ],
      [
        "Ġregulator",
        -10.25245240404498
      ],
      [
        "ĠRead",
        -10.253663945866428
      ],
      [
        "Ġserver",
        -10.253747249542718
      ],
      [
        "Ġdestroy",
        -10.254513757028429
      ],
      [
        "Ġinitiative",
        -10.254582190826548
      ],
      [
        "Ġhid",
        -10.254691249330826
      ],
      [
        "ĠSystem",
        -10.255113623522412
      ],
      [
        "Qu",
        -10.255238940007876
      ],
      [
        "Ġwarming",
        -10.255910987180323
      ],
      [
        "Ġvast",
        -10.256989650080572
      ],
      [
        "Ġheavi",
        -10.25718642128266
      ],
      [
        "ĠTri",
        -10.257815873315373
      ],
      [
        "ĠLight",
        -10.258243364308878
      ],
      [
        "Ġbigge",
        -10.258488091132524
      ],
      [
        "Ġcontinues",
        -10.258904622962298
      ],
      [
        "Ġwalking",
        -10.2591511897393
      ],
      [
        "Ġindustries",
        -10.259158995385311
      ],
      [
        "Ġgenome",
        -10.25916137129889
      ],
      [
        "{",
        -10.260788725770702
      ],
      [
        "Ġadequate",
        -10.261566614512288
      ],
      [
        "Ġstream",
        -10.261670422966
      ],
      [
        "Ġstorm",
        -10.26179928679364
      ],
      [
        "ĠEn",
        -10.262368699570091
      ],
      [
        "Ġdisorder",
        -10.263332889862577
      ],
      [
        "ĠLook",
        -10.263743889326564
      ],
      [
        "Ġalign",
        -10.264003353923634
      ],
      [
        "Ġpictures",
        -10.264266620065184
      ],
      [
        "ĠIsland",
        -10.264317299822942
      ],
      [
        "Ġbecom",
        -10.264416510210596
      ],
      [
        "ĠThrough",
        -10.264914449082603
      ],
      [
        "Ġbowl",
        -10.265884134069236
      ],
      [
        "Ġscene",
        -10.266022063462678
      ],
      [
        "Ġscenario",
        -10.26616830717274
      ],
      [
        "ĠAct",
        -10.266378877787428
      ],
      [
        "Ġrandom",
        -10.266456691497368
      ],
      [
        "Ġsudden",
        -10.266480728128167
      ],
      [
        "Ġsupplie",
        -10.266917201827386
      ],
      [
        "bit",
        -10.268738914320393
      ],
      [
        "Ġcareful",
        -10.269019242726786
      ],
      [
        "Ġengag",
        -10.269427526097724
      ],
      [
        "ĠPh",
        -10.26992647717582
      ],
      [
        "Ġremote",
        -10.27086866934446
      ],
      [
        "Ġtomato",
        -10.270900076081691
      ],
      [
        "ĠStart",
        -10.2715054968303
      ],
      [
        "set",
        -10.271664400150826
      ],
      [
        "Ġfacilit",
        -10.272238469482009
      ],
      [
        "cur",
        -10.27250841069818
      ],
      [
        "Un",
        -10.272588260802513
      ],
      [
        "Pro",
        -10.273245710797038
      ],
      [
        "Ġfelt",
        -10.273321413778929
      ],
      [
        "cal",
        -10.273329252296415
      ],
      [
        "Ġbees",
        -10.273342266364343
      ],
      [
        "First",
        -10.274237615653764
      ],
      [
        "ĠClass",
        -10.274653390426646
      ],
      [
        "own",
        -10.2749293212681
      ],
      [
        "Ġintake",
        -10.27494383596576
      ],
      [
        "Ġpure",
        -10.275131420480143
      ],
      [
        "Ġcontaining",
        -10.275554931640194
      ],
      [
        "Ġequivalent",
        -10.27559204459307
      ],
      [
        "AR",
        -10.27660140119537
      ],
      [
        "Ġdetection",
        -10.27679797688689
      ],
      [
        "Ġcl",
        -10.277009446874317
      ],
      [
        "].",
        -10.277009646842554
      ],
      [
        "Ġutilize",
        -10.27714271720038
      ],
      [
        "Ġliver",
        -10.277245935667931
      ],
      [
        "Ġpurposes",
        -10.277285657209958
      ],
      [
        "Ġrecorded",
        -10.27779074492172
      ],
      [
        "Ġperiods",
        -10.27817074103189
      ],
      [
        "TS",
        -10.278292052500309
      ],
      [
        "Ġshapes",
        -10.27848367864531
      ],
      [
        "Ġrequir",
        -10.278701783540312
      ],
      [
        "Ġtube",
        -10.278972734773488
      ],
      [
        "ĠAugust",
        -10.279318491327103
      ],
      [
        "Ġdiagnosis",
        -10.279914027745392
      ],
      [
        "Ġguess",
        -10.280341316176234
      ],
      [
        "Ġtrait",
        -10.28037328967844
      ],
      [
        "ĠOut",
        -10.28072352935587
      ],
      [
        "Ġpathway",
        -10.280968025223704
      ],
      [
        "Ġsurvival",
        -10.28100083885998
      ],
      [
        "weight",
        -10.281102155904389
      ],
      [
        "ack",
        -10.281399401067333
      ],
      [
        "Ġlo",
        -10.281416868477262
      ],
      [
        "ĠSeptem",
        -10.28220838783002
      ],
      [
        "Ġsauce",
        -10.282228065659195
      ],
      [
        "Ġpilot",
        -10.28273581398211
      ],
      [
        "ĠAny",
        -10.28315687559196
      ],
      [
        "Ġacademic",
        -10.283481578344055
      ],
      [
        "Ġimpacts",
        -10.284217923240355
      ],
      [
        "ĠNature",
        -10.284698099380568
      ],
      [
        "Ġmanner",
        -10.285366688614427
      ],
      [
        "Ġha",
        -10.285708211560586
      ],
      [
        "RA",
        -10.286021913931084
      ],
      [
        "ction",
        -10.286420250581694
      ],
      [
        "log",
        -10.286896697108858
      ],
      [
        "Ġinnovative",
        -10.287496377248592
      ],
      [
        "Ġcounter",
        -10.28782571394592
      ],
      [
        "ash",
        -10.28800402507616
      ],
      [
        "Ġsent",
        -10.288997656953269
      ],
      [
        "rich",
        -10.28952987606722
      ],
      [
        "Ġtip",
        -10.29076024876912
      ],
      [
        "anagement",
        -10.2913178501548
      ],
      [
        "Ġtrouble",
        -10.29232392863232
      ],
      [
        "Ġmolecular",
        -10.292431566683554
      ],
      [
        "-on",
        -10.29299383091599
      ],
      [
        "Ġprove",
        -10.294072519825896
      ],
      [
        "Ġtrans",
        -10.295161902635437
      ],
      [
        "ĠHer",
        -10.295238226231668
      ],
      [
        "ĠFish",
        -10.296399206372891
      ],
      [
        "From",
        -10.296976659737435
      ],
      [
        "Ġpepper",
        -10.297123411002804
      ],
      [
        "ĠBi",
        -10.297180119898613
      ],
      [
        "Ġdecline",
        -10.297367708943916
      ],
      [
        "Ġattend",
        -10.298077458586128
      ],
      [
        "ĠSi",
        -10.29853780349676
      ],
      [
        "Ġshop",
        -10.298983402990867
      ],
      [
        "ĠCheck",
        -10.29904767194738
      ],
      [
        "Figure",
        -10.299282970179016
      ],
      [
        "Ġframework",
        -10.299755988343827
      ],
      [
        "Ġagricultural",
        -10.299758399943627
      ],
      [
        "osis",
        -10.300008899850663
      ],
      [
        "Ġpin",
        -10.300745608078412
      ],
      [
        "Ġweak",
        -10.301048710587647
      ],
      [
        "org",
        -10.301208110769082
      ],
      [
        "Ġstructural",
        -10.301721020804948
      ],
      [
        "ĠJa",
        -10.301849747647465
      ],
      [
        "Ġvolunteer",
        -10.301971636981728
      ],
      [
        "Ġmath",
        -10.303028878453636
      ],
      [
        "han",
        -10.303153322800693
      ],
      [
        "made",
        -10.303406200828595
      ],
      [
        "Ġbarrier",
        -10.304405154818788
      ],
      [
        "Ġgold",
        -10.304487245594338
      ],
      [
        "ome",
        -10.305080347036004
      ],
      [
        "...Ċ",
        -10.306051774722016
      ],
      [
        "Not",
        -10.306543619725876
      ],
      [
        "Ġprovider",
        -10.306681274097066
      ],
      [
        "Ġdepartment",
        -10.306874803781277
      ],
      [
        "Ġstrain",
        -10.307079110568202
      ],
      [
        "Ġboost",
        -10.307438897167254
      ],
      [
        "oid",
        -10.307466636441044
      ],
      [
        "ĠThus",
        -10.309120237063391
      ],
      [
        "Ġcalculation",
        -10.30997113837947
      ],
      [
        "ping",
        -10.310626897066255
      ],
      [
        "Ġstarts",
        -10.31066187974983
      ],
      [
        "accessible",
        -10.310977241691749
      ],
      [
        "Ġpuppy",
        -10.311744133168018
      ],
      [
        "Ġtall",
        -10.311876490442376
      ],
      [
        "Ġcollaboration",
        -10.311917342432904
      ],
      [
        "Ġrapidly",
        -10.31236398245256
      ],
      [
        "some",
        -10.31271004991564
      ],
      [
        "ĠNatural",
        -10.312918527349868
      ],
      [
        "Ġdirector",
        -10.31332634793442
      ],
      [
        "Ġspider",
        -10.314200733646732
      ],
      [
        "oma",
        -10.314566245833849
      ],
      [
        "ĠOpen",
        -10.315137885653762
      ],
      [
        "ES",
        -10.31619501067924
      ],
      [
        "Ġdiffer",
        -10.316460345192557
      ],
      [
        "Ġpathogen",
        -10.316756331496585
      ],
      [
        "Ġwor",
        -10.317686637379888
      ],
      [
        "Ġgrant",
        -10.31801272395158
      ],
      [
        "Ġinflammation",
        -10.318077620200055
      ],
      [
        "Ġcolon",
        -10.318576825550196
      ],
      [
        "cu",
        -10.318580407141702
      ],
      [
        "@",
        -10.31969161192525
      ],
      [
        "Ġwoman",
        -10.320168670120502
      ],
      [
        "Ġstatement",
        -10.320174668651006
      ],
      [
        "day",
        -10.320236274023683
      ],
      [
        "ĠJanuary",
        -10.321302658008644
      ],
      [
        "ĠEngland",
        -10.321604431879113
      ],
      [
        "Ġusage",
        -10.32165017063136
      ],
      [
        "Ġseconds",
        -10.321690776785204
      ],
      [
        "Ġobtained",
        -10.322861163774366
      ],
      [
        "Ġworkshop",
        -10.32413918379359
      ],
      [
        "Share",
        -10.324255093266238
      ],
      [
        "Ġride",
        -10.32446389275385
      ],
      [
        "Ġtown",
        -10.325918343022911
      ],
      [
        "Ġcontinu",
        -10.326009119885056
      ],
      [
        "ING",
        -10.326055845858736
      ],
      [
        "Ġopposite",
        -10.326581491952968
      ],
      [
        "Ġrecognition",
        -10.326583839671546
      ],
      [
        "Ġbrick",
        -10.326685934926688
      ],
      [
        "Ġremaining",
        -10.32725318055472
      ],
      [
        "ix",
        -10.327700790516127
      ],
      [
        "Ġsignals",
        -10.327895953781812
      ],
      [
        "ĠLong",
        -10.328186857664608
      ],
      [
        "Ġnose",
        -10.329036345375629
      ],
      [
        "Ġinsurance",
        -10.329077950189053
      ],
      [
        "Ġbugs",
        -10.32964930788124
      ],
      [
        "ĠVi",
        -10.330355955821526
      ],
      [
        "Ġpages",
        -10.330878104076495
      ],
      [
        "MS",
        -10.331461168950351
      ],
      [
        "Ġdelicious",
        -10.331566917569225
      ],
      [
        "Ġtradition",
        -10.331622516426211
      ],
      [
        "ĠFoundation",
        -10.331727744859007
      ],
      [
        "Ġcompos",
        -10.3324773899438
      ],
      [
        "Ġpackag",
        -10.334731879975152
      ],
      [
        "ĠLaw",
        -10.33520142007724
      ],
      [
        "Ġrotation",
        -10.335405628015195
      ],
      [
        "ĠGood",
        -10.336170572248388
      ],
      [
        "ĠTechnology",
        -10.336351758203447
      ],
      [
        "Ġfeedback",
        -10.336718846356623
      ],
      [
        "Ġhardware",
        -10.33685892620386
      ],
      [
        "Ġdiagram",
        -10.336860995937446
      ],
      [
        "ĠAsia",
        -10.337300739555054
      ],
      [
        "pre",
        -10.337311792204556
      ],
      [
        "Ġlaborator",
        -10.33799793706622
      ],
      [
        "Ġroute",
        -10.338713007123932
      ],
      [
        "Ġrecording",
        -10.338728541316936
      ],
      [
        "Ġbelief",
        -10.339106603745272
      ],
      [
        "Ġanalyze",
        -10.339585640163422
      ],
      [
        "Ġbank",
        -10.3397350348211
      ],
      [
        "ĠLED",
        -10.34001162694802
      ],
      [
        "Ġneck",
        -10.340486800242864
      ],
      [
        "Ġdivide",
        -10.34049070109858
      ],
      [
        "Ġmineral",
        -10.340753283841266
      ],
      [
        "ĠStudents",
        -10.341791642561551
      ],
      [
        "Ġpackage",
        -10.343410554961697
      ],
      [
        "Ġlinked",
        -10.344174440811804
      ],
      [
        "Ġholes",
        -10.34423904598876
      ],
      [
        "Ġaesthetic",
        -10.34435128570515
      ],
      [
        "Ġloose",
        -10.344630282097556
      ],
      [
        "cer",
        -10.34557746442631
      ],
      [
        "Ġgr",
        -10.345839591420685
      ],
      [
        "Ġsold",
        -10.346672080500396
      ],
      [
        "Ġsurprise",
        -10.346699574052868
      ],
      [
        "Ġbudget",
        -10.346712712358926
      ],
      [
        "ude",
        -10.347200674500543
      ],
      [
        "Ġcalorie",
        -10.347505626111696
      ],
      [
        "Ġkit",
        -10.347763538211392
      ],
      [
        "bal",
        -10.348138041449388
      ],
      [
        "Ġdiagnose",
        -10.348745529956313
      ],
      [
        "Ġprofessor",
        -10.349244102237597
      ],
      [
        "ĠFlorida",
        -10.34924426414624
      ],
      [
        "Ġsnail",
        -10.349244567728649
      ],
      [
        "Ġprofit",
        -10.349268052795674
      ],
      [
        "ĠSee",
        -10.349275370014553
      ],
      [
        "Ġpreferred",
        -10.349416003604317
      ],
      [
        "Ġjuice",
        -10.34999009782879
      ],
      [
        "Ġgate",
        -10.350796273347358
      ],
      [
        "Ġcompleted",
        -10.350893265761378
      ],
      [
        "Ġgraphic",
        -10.351491771294228
      ],
      [
        "?\"",
        -10.351663594737024
      ],
      [
        "Ġworkers",
        -10.351693214062417
      ],
      [
        "Ġkidney",
        -10.35180835390947
      ],
      [
        "iness",
        -10.351865352729174
      ],
      [
        "Ġdrought",
        -10.352240070063008
      ],
      [
        "PS",
        -10.353052390556533
      ],
      [
        "ĠCommon",
        -10.35333973191236
      ],
      [
        "mu",
        -10.35384916520126
      ],
      [
        "Ġcarb",
        -10.354053301133687
      ],
      [
        "Ġrequest",
        -10.354352702824052
      ],
      [
        "Ġmild",
        -10.354538177805091
      ],
      [
        "Ġenhanc",
        -10.354808246405788
      ],
      [
        "ole",
        -10.354973026961074
      ],
      [
        "part",
        -10.35501152703279
      ],
      [
        "ĠPe",
        -10.355083960681638
      ],
      [
        "Ġspin",
        -10.355103868526754
      ],
      [
        "Ch",
        -10.355336382511435
      ],
      [
        "ĠGarden",
        -10.355382880812016
      ],
      [
        "Ġrobots",
        -10.355869121191546
      ],
      [
        "Ġpermanent",
        -10.35665047412574
      ],
      [
        "fer",
        -10.356865389691311
      ],
      [
        "Ġpond",
        -10.357203447712934
      ],
      [
        "Ġdefin",
        -10.35742993693352
      ],
      [
        "Ġca",
        -10.357826943565495
      ],
      [
        "Ġzone",
        -10.358237112037775
      ],
      [
        "Ġbiolog",
        -10.3586102736811
      ],
      [
        "Ġimagine",
        -10.35865241340064
      ],
      [
        "Ġrelax",
        -10.358996319591508
      ],
      [
        "ĠSam",
        -10.359019146364714
      ],
      [
        "-of",
        -10.359285846464816
      ],
      [
        "ĠTHE",
        -10.359521962575773
      ],
      [
        "Ġscratch",
        -10.359529595832075
      ],
      [
        "ĠFr",
        -10.359749973012928
      ],
      [
        "ĠRu",
        -10.360209803555144
      ],
      [
        "Ġmine",
        -10.360305017483604
      ],
      [
        "Ġhole",
        -10.360458163459311
      ],
      [
        "Ġplays",
        -10.360584291808031
      ],
      [
        "Ġwin",
        -10.36063522558793
      ],
      [
        "Ġvertical",
        -10.36128205227088
      ],
      [
        "ĠPart",
        -10.361383551917864
      ],
      [
        "Ġpartial",
        -10.361590299631688
      ],
      [
        "ĠFinal",
        -10.361639331950734
      ],
      [
        "ably",
        -10.361981560986491
      ],
      [
        "Ġmistake",
        -10.362413870275793
      ],
      [
        "Ġsides",
        -10.36257007131772
      ],
      [
        "Ġpl",
        -10.362591598160098
      ],
      [
        "Ġwindows",
        -10.36282231374455
      ],
      [
        "Hi",
        -10.363590419900476
      ],
      [
        "Ġspeech",
        -10.363814248700926
      ],
      [
        "Ġhorses",
        -10.363892823878306
      ],
      [
        "ou",
        -10.363942353637697
      ],
      [
        "Ġpromoting",
        -10.364648781367588
      ],
      [
        "Ġcoordinate",
        -10.365270602058905
      ],
      [
        "Ġreact",
        -10.36534356118604
      ],
      [
        "Ġnecessar",
        -10.36534883038122
      ],
      [
        "Ġemerg",
        -10.365605904649463
      ],
      [
        "uk",
        -10.365857594908336
      ],
      [
        "Ġpeak",
        -10.366580607600858
      ],
      [
        "Ġcitie",
        -10.366732864558111
      ],
      [
        "Dur",
        -10.367466965979364
      ],
      [
        "Ġsew",
        -10.367709795390926
      ],
      [
        "Ġpolitical",
        -10.367828808793996
      ],
      [
        "Ġadjustment",
        -10.367878306060271
      ],
      [
        "Ġtension",
        -10.368149831667983
      ],
      [
        "ĠService",
        -10.368426349218971
      ],
      [
        "ĠHistory",
        -10.368505764213648
      ],
      [
        "ought",
        -10.368630470128226
      ],
      [
        "Ġrepeat",
        -10.36884769467096
      ],
      [
        "Ġbrush",
        -10.368949420936968
      ],
      [
        "lit",
        -10.36900012040827
      ],
      [
        "neath",
        -10.369838679833205
      ],
      [
        "Ġstands",
        -10.370336763956251
      ],
      [
        "Ġatoms",
        -10.370437601703536
      ],
      [
        "Ġmountain",
        -10.370637033688444
      ],
      [
        "from",
        -10.370866900335622
      ],
      [
        "wan",
        -10.371226947661016
      ],
      [
        "ĠDa",
        -10.371499655874588
      ],
      [
        "Ġdirt",
        -10.371514440082798
      ],
      [
        "ground",
        -10.37361113220657
      ],
      [
        "Ġneural",
        -10.37505424663857
      ],
      [
        "Ġcommitment",
        -10.375114941761549
      ],
      [
        "Ġsignificance",
        -10.375318238276098
      ],
      [
        "Ġcamp",
        -10.375608680629233
      ],
      [
        "ĠTe",
        -10.37611124963292
      ],
      [
        "Ġgradual",
        -10.377670346387852
      ],
      [
        "Ġclock",
        -10.37897599243831
      ],
      [
        "wimming",
        -10.379075702267595
      ],
      [
        "ĠLearn",
        -10.379374332591354
      ],
      [
        "Ġplus",
        -10.379720031769262
      ],
      [
        "Ġhydro",
        -10.380025101254471
      ],
      [
        "Ġcm",
        -10.380172136939107
      ],
      [
        "Ġpossibl",
        -10.38024072462026
      ],
      [
        "ĠUp",
        -10.380336999692195
      ],
      [
        "ĠWeb",
        -10.380509099355656
      ],
      [
        "ĠProject",
        -10.38144588271616
      ],
      [
        "ĠFind",
        -10.382437106636155
      ],
      [
        "stone",
        -10.383780078851704
      ],
      [
        "Ġcalls",
        -10.384126843977302
      ],
      [
        "^",
        -10.384680566800196
      ],
      [
        "lot",
        -10.384942486528333
      ],
      [
        "Ġplug",
        -10.385191140319936
      ],
      [
        "ì",
        -10.385535087771055
      ],
      [
        "Ġgum",
        -10.38560476168592
      ],
      [
        "Ġkick",
        -10.38560554195546
      ],
      [
        "Ġsex",
        -10.386566808782
      ],
      [
        "row",
        -10.386862971421296
      ],
      [
        "Ġfroze",
        -10.387696233006867
      ],
      [
        "Ġfamous",
        -10.38796399805313
      ],
      [
        "ĠAr",
        -10.38805895826414
      ],
      [
        "cid",
        -10.388565170197698
      ],
      [
        "Ġunlike",
        -10.388659354939794
      ],
      [
        "Ġcards",
        -10.38985020450228
      ],
      [
        "ker",
        -10.39075349828128
      ],
      [
        "Ġmirror",
        -10.390862579850095
      ],
      [
        "Ġtutorial",
        -10.390905869596812
      ],
      [
        "Ġease",
        -10.39138673985744
      ],
      [
        "ĠCat",
        -10.391442604588764
      ],
      [
        "Ġpai",
        -10.3921845015516
      ],
      [
        "Ġbigger",
        -10.393023110487029
      ],
      [
        "Ġclosed",
        -10.39313082866045
      ],
      [
        "ĠGroup",
        -10.393181713395885
      ],
      [
        "Ġmovie",
        -10.393727340911044
      ],
      [
        "ĠToday",
        -10.393828351243387
      ],
      [
        "ĠWhite",
        -10.394098758112651
      ],
      [
        "Ġprey",
        -10.394344577188722
      ],
      [
        "]ĊĊ",
        -10.39489071269945
      ],
      [
        "ĠTest",
        -10.395008745516355
      ],
      [
        "City",
        -10.395234759128003
      ],
      [
        "gar",
        -10.395277345120668
      ],
      [
        "Ġraised",
        -10.395278531247936
      ],
      [
        "Ġelectrons",
        -10.395433018930849
      ],
      [
        "Ġgut",
        -10.395741627613676
      ],
      [
        "å",
        -10.39618354302196
      ],
      [
        "PA",
        -10.396206213170696
      ],
      [
        "Ġstronger",
        -10.397676490372191
      ],
      [
        "Since",
        -10.397754875085884
      ],
      [
        "bilities",
        -10.398407483772647
      ],
      [
        "ĠOcean",
        -10.39857456556764
      ],
      [
        "ified",
        -10.39868203342215
      ],
      [
        "Ġinvestigate",
        -10.399479307549887
      ],
      [
        "Ġouter",
        -10.39966590066841
      ],
      [
        "Ġmoved",
        -10.399815555423498
      ],
      [
        "right",
        -10.400343523741618
      ],
      [
        "mph",
        -10.400413065197032
      ],
      [
        "ĠPlan",
        -10.401004271002837
      ],
      [
        "Ġlawn",
        -10.40145546979881
      ],
      [
        "vascular",
        -10.401543606422788
      ],
      [
        "Ġsizes",
        -10.404061047170476
      ],
      [
        "Ġcampaign",
        -10.404234049615445
      ],
      [
        "Ġbrief",
        -10.40423424690653
      ],
[...]
