{
  "version": "1.0",
  "truncation": null,
  "padding": null,
  "added_tokens": [
    {
      "id": 0,
      "content": "<|bos|>",
      "single_word": false,
      "lstrip": false,
      "rstrip": false,
      "normalized": false,
      "special": true
    },
    {
      "id": 1,
      "content": "<|user_start|>",
      "single_word": false,
      "lstrip": false,
      "rstrip": false,
      "normalized": false,
      "special": true
    },
    {
      "id": 2,
      "content": "<|user_end|>",
      "single_word": false,
      "lstrip": false,
      "rstrip": false,
      "normalized": false,
      "special": true
    },
    {
      "id": 3,
      "content": "<|assistant_start|>",
      "single_word": false,
      "lstrip": false,
      "rstrip": false,
      "normalized": false,
      "special": true
    },
    {
      "id": 4,
      "content": "<|assistant_end|>",
      "single_word": false,
      "lstrip": false,
      "rstrip": false,
      "normalized": false,
      "special": true
    },
    {
      "id": 5,
      "content": "<|python_start|>",
      "single_word": false,
      "lstrip": false,
      "rstrip": false,
      "normalized": false,
      "special": true
    },
    {
      "id": 6,
      "content": "<|python_end|>",
      "single_word": false,
      "lstrip": false,
      "rstrip": false,
      "normalized": false,
      "special": true
    },
    {
      "id": 7,
      "content": "<|output_start|>",
      "single_word": false,
      "lstrip": false,
      "rstrip": false,
      "normalized": false,
      "special": true
    },
    {
      "id": 8,
      "content": "<|output_end|>",
      "single_word": false,
      "lstrip": false,
      "rstrip": false,
      "normalized": false,
      "special": true
    },
    {
      "id": 9,
      "content": "<|unk|>",
      "single_word": false,
      "lstrip": false,
      "rstrip": false,
      "normalized": false,
      "special": true
    }
  ],
  "normalizer": null,
  "pre_tokenizer": {
    "type": "Sequence",
    "pretokenizers": [
      {
        "type": "Split",
        "pattern": {
          "Regex": "'(?i:[sdmt]|ll|ve|re)|[^\\r\\n\\p{L}\\p{N}]?+\\p{L}+|\\p{N}{1,2}| ?[^\\s\\p{L}\\p{N}]++[\\r\\n]*|\\s*[\\r\\n]|\\s+(?!\\S)|\\s+"
        },
        "behavior": "Isolated",
        "invert": false
      },
      {
        "type": "ByteLevel",
        "add_prefix_space": false,
        "trim_offsets": true,
        "use_regex": false
      }
    ]
  },
  "post_processor": {
    "type": "TemplateProcessing",
    "single": [
      {
        "Sequence": {
          "id": "A",
          "type_id": 0
        }
      }
    ],
    "pair": [
      {
        "Sequence": {
          "id": "A",
          "type_id": 0
        }
      },
      {
        "Sequence": {
          "id": "B",
          "type_id": 1
        }
      }
    ],
    "special_tokens": {}
  },
  "decoder": {
    "type": "ByteLevel",
    "add_prefix_space": true,
    "trim_offsets": true,
    "use_regex": true
  },
  "model": {
    "type": "Unigram",
    "unk_id": 9,
    "vocab": [
      [
        "<|bos|>",
        -1.0
      ],
      [
        "<|user_start|>",
        -1.0
      ],
      [
        "<|user_end|>",
        -1.0
      ],
      [
        "<|assistant_start|>",
        -1.0
      ],
      [
        "<|assistant_end|>",
        -1.0
      ],
      [
        "<|python_start|>",
        -1.0
      ],
      [
        "<|python_end|>",
        -1.0
      ],
      [
        "<|output_start|>",
        -1.0
      ],
      [
        "<|output_end|>",
        -1.0
      ],
      [
        "<|unk|>",
        -1.0
      ],
      [
        "!",
        -1.0
      ],
      [
        "\"",
        -1.0
      ],
      [
        "#",
        -1.0
      ],
      [
        "$",
        -1.0
      ],
      [
        "%",
        -1.0
      ],
      [
        "&",
        -1.0
      ],
      [
        "'",
        -1.0
      ],
      [
        "(",
        -1.0
      ],
      [
        ")",
        -1.0
      ],
      [
        "*",
        -1.0
      ],
      [
        "+",
        -1.0
      ],
      [
        ",",
        -1.0
      ],
      [
        "-",
        -1.0
      ],
      [
        ".",
        -1.0
      ],
      [
        "/",
        -1.0
      ],
      [
        "0",
        -1.0
      ],
      [
        "1",
        -1.0
      ],
      [
        "2",
        -1.0
      ],
      [
        "3",
        -1.0
      ],
      [
        "4",
        -1.0
      ],
      [
        "5",
        -1.0
      ],
      [
        "6",
        -1.0
      ],
      [
        "7",
        -1.0
      ],
      [
        "8",
        -1.0
      ],
      [
        "9",
        -1.0
      ],
      [
        ":",
        -1.0
      ],
      [
        ";",
        -1.0
      ],
      [
        "<",
        -1.0
      ],
      [
        "=",
        -1.0
      ],
      [
        ">",
        -1.0
      ],
      [
        "?",
        -1.0
      ],
      [
        "@",
        -1.0
      ],
      [
        "A",
        -1.0
      ],
      [
        "B",
        -1.0
      ],
      [
        "C",
        -1.0
      ],
      [
        "D",
        -1.0
      ],
      [
        "E",
        -1.0
      ],
      [
        "F",
        -1.0
      ],
      [
        "G",
        -1.0
      ],
      [
        "H",
        -1.0
      ],
      [
        "I",
        -1.0
      ],
      [
        "J",
        -1.0
      ],
      [
        "K",
        -1.0
      ],
      [
        "L",
        -1.0
      ],
      [
        "M",
        -1.0
      ],
      [
        "N",
        -1.0
      ],
      [
        "O",
        -1.0
      ],
      [
        "P",
        -1.0
      ],
      [
        "Q",
        -1.0
      ],
      [
        "R",
        -1.0
      ],
      [
        "S",
        -1.0
      ],
      [
        "T",
        -1.0
      ],
      [
        "U",
        -1.0
      ],
      [
        "V",
        -1.0
      ],
      [
        "W",
        -1.0
      ],
      [
        "X",
        -1.0
      ],
      [
        "Y",
        -1.0
      ],
      [
        "Z",
        -1.0
      ],
      [
        "[",
        -1.0
      ],
      [
        "\\",
        -1.0
      ],
      [
        "]",
        -1.0
      ],
      [
        "^",
        -1.0
      ],
      [
        "_",
        -1.0
      ],
      [
        "`",
        -1.0
      ],
      [
        "a",
        -1.0
      ],
      [
        "b",
        -1.0
      ],
      [
        "c",
        -1.0
      ],
      [
        "d",
        -1.0
      ],
      [
        "e",
        -1.0
      ],
      [
        "f",
        -1.0
      ],
      [
        "g",
        -1.0
      ],
      [
        "h",
        -1.0
      ],
      [
        "i",
        -1.0
      ],
      [
        "j",
        -1.0
      ],
      [
        "k",
        -1.0
      ],
      [
        "l",
        -1.0
      ],
      [
        "m",
        -1.0
      ],
      [
        "n",
        -1.0
      ],
      [
        "o",
        -1.0
      ],
      [
        "p",
        -1.0
      ],
      [
        "q",
        -1.0
      ],
      [
        "r",
        -1.0
      ],
      [
        "s",
        -1.0
      ],
      [
        "t",
        -1.0
      ],
      [
        "u",
        -1.0
      ],
      [
        "v",
        -1.0
      ],
      [
        "w",
        -1.0
      ],
      [
        "x",
        -1.0
      ],
      [
        "y",
        -1.0
      ],
      [
        "z",
        -1.0
      ],
      [
        "{",
        -1.0
      ],
      [
        "|",
        -1.0
      ],
      [
        "}",
        -1.0
      ],
      [
        "~",
        -1.0
      ],
      [
        "¡",
        -1.0
      ],
      [
        "¢",
        -1.0
      ],
      [
        "£",
        -1.0
      ],
      [
        "¤",
        -1.0
      ],
      [
        "¥",
        -1.0
      ],
      [
        "¦",
        -1.0
      ],
      [
        "§",
        -1.0
      ],
      [
        "¨",
        -1.0
      ],
      [
        "©",
        -1.0
      ],
      [
        "ª",
        -1.0
      ],
      [
        "«",
        -1.0
      ],
      [
        "¬",
        -1.0
      ],
      [
        "®",
        -1.0
      ],
      [
        "¯",
        -1.0
      ],
      [
        "°",
        -1.0
      ],
      [
        "±",
        -1.0
      ],
      [
        "²",
        -1.0
      ],
      [
        "³",
        -1.0
      ],
      [
        "´",
        -1.0
      ],
      [
        "µ",
        -1.0
      ],
      [
        "¶",
        -1.0
      ],
      [
        "·",
        -1.0
      ],
      [
        "¸",
        -1.0
      ],
      [
        "¹",
        -1.0
      ],
      [
        "º",
        -1.0
      ],
      [
        "»",
        -1.0
      ],
      [
        "¼",
        -1.0
      ],
      [
        "½",
        -1.0
      ],
      [
        "¾",
        -1.0
      ],
      [
        "¿",
        -1.0
      ],
      [
        "À",
        -1.0
      ],
      [
        "Á",
        -1.0
      ],
      [
        "Â",
        -1.0
      ],
      [
        "Ã",
        -1.0
      ],
      [
        "Ä",
        -1.0
      ],
      [
        "Å",
        -1.0
      ],
      [
        "Æ",
        -1.0
      ],
      [
        "Ç",
        -1.0
      ],
      [
        "È",
        -1.0
      ],
      [
        "É",
        -1.0
      ],
      [
        "Ê",
        -1.0
      ],
      [
        "Ë",
        -1.0
      ],
      [
        "Ì",
        -1.0
      ],
      [
        "Í",
        -1.0
      ],
      [
        "Î",
        -1.0
      ],
      [
        "Ï",
        -1.0
      ],
      [
        "Ð",
        -1.0
      ],
      [
        "Ñ",
        -1.0
      ],
      [
        "Ò",
        -1.0
      ],
      [
        "Ó",
        -1.0
      ],
      [
        "Ô",
        -1.0
      ],
      [
        "Õ",
        -1.0
      ],
      [
        "Ö",
        -1.0
      ],
      [
        "×",
        -1.0
      ],
      [
        "Ø",
        -1.0
      ],
      [
        "Ù",
        -1.0
      ],
      [
        "Ú",
        -1.0
      ],
      [
        "Û",
        -1.0
      ],
      [
        "Ü",
        -1.0
      ],
      [
        "Ý",
        -1.0
      ],
      [
        "Þ",
        -1.0
      ],
      [
        "ß",
        -1.0
      ],
      [
        "à",
        -1.0
      ],
      [
        "á",
        -1.0
      ],
      [
        "â",
        -1.0
      ],
      [
        "ã",
        -1.0
      ],
      [
        "ä",
        -1.0
      ],
      [
        "å",
        -1.0
      ],
      [
        "æ",
        -1.0
      ],
      [
        "ç",
        -1.0
      ],
      [
        "è",
        -1.0
      ],
      [
        "é",
        -1.0
      ],
      [
        "ê",
        -1.0
      ],
      [
        "ë",
        -1.0
      ],
      [
        "ì",
        -1.0
      ],
      [
        "í",
        -1.0
      ],
      [
        "î",
        -1.0
      ],
      [
        "ï",
        -1.0
      ],
      [
        "ð",
        -1.0
      ],
      [
        "ñ",
        -1.0
      ],
      [
        "ò",
        -1.0
      ],
      [
        "ó",
        -1.0
      ],
      [
        "ô",
        -1.0
      ],
      [
        "õ",
        -1.0
      ],
      [
        "ö",
        -1.0
      ],
      [
        "÷",
        -1.0
      ],
      [
        "ø",
        -1.0
      ],
      [
        "ù",
        -1.0
      ],
      [
        "ú",
        -1.0
      ],
      [
        "û",
        -1.0
      ],
      [
        "ü",
        -1.0
      ],
      [
        "ý",
        -1.0
      ],
      [
        "þ",
        -1.0
      ],
      [
        "ÿ",
        -1.0
      ],
      [
        "Ā",
        -1.0
      ],
      [
        "ā",
        -1.0
      ],
      [
        "Ă",
        -1.0
      ],
      [
        "ă",
        -1.0
      ],
      [
        "Ą",
        -1.0
      ],
      [
        "ą",
        -1.0
      ],
      [
        "Ć",
        -1.0
      ],
      [
        "ć",
        -1.0
      ],
      [
        "Ĉ",
        -1.0
      ],
      [
        "ĉ",
        -1.0
      ],
      [
        "Ċ",
        -1.0
      ],
      [
        "ċ",
        -1.0
      ],
      [
        "Č",
        -1.0
      ],
      [
        "č",
        -1.0
      ],
      [
        "Ď",
        -1.0
      ],
      [
        "ď",
        -1.0
      ],
      [
        "Đ",
        -1.0
      ],
      [
        "đ",
        -1.0
      ],
      [
        "Ē",
        -1.0
      ],
      [
        "ē",
        -1.0
      ],
      [
        "Ĕ",
        -1.0
      ],
      [
        "ĕ",
        -1.0
      ],
      [
        "Ė",
        -1.0
      ],
      [
        "ė",
        -1.0
      ],
      [
        "Ę",
        -1.0
      ],
      [
        "ę",
        -1.0
      ],
      [
        "Ě",
        -1.0
      ],
      [
        "ě",
        -1.0
      ],
      [
        "Ĝ",
        -1.0
      ],
      [
        "ĝ",
        -1.0
      ],
      [
        "Ğ",
        -1.0
      ],
      [
        "ğ",
        -1.0
      ],
      [
        "Ġ",
        -1.0
      ],
      [
        "ġ",
        -1.0
      ],
      [
        "Ģ",
        -1.0
      ],
      [
        "ģ",
        -1.0
      ],
      [
        "Ĥ",
        -1.0
      ],
      [
        "ĥ",
        -1.0
      ],
      [
        "Ħ",
        -1.0
      ],
      [
        "ħ",
        -1.0
      ],
      [
        "Ĩ",
        -1.0
      ],
      [
        "ĩ",
        -1.0
      ],
      [
        "Ī",
        -1.0
      ],
      [
        "ī",
        -1.0
      ],
      [
        "Ĭ",
        -1.0
      ],
      [
        "ĭ",
        -1.0
      ],
      [
        "Į",
        -1.0
      ],
      [
        "į",
        -1.0
      ],
      [
        "İ",
        -1.0
      ],
      [
        "ı",
        -1.0
      ],
      [
        "Ĳ",
        -1.0
      ],
      [
        "ĳ",
        -1.0
      ],
      [
        "Ĵ",
        -1.0
      ],
      [
        "ĵ",
        -1.0
      ],
      [
        "Ķ",
        -1.0
      ],
      [
        "ķ",
        -1.0
      ],
      [
        "ĸ",
        -1.0
      ],
      [
        "Ĺ",
        -1.0
      ],
      [
        "ĺ",
        -1.0
      ],
      [
        "Ļ",
        -1.0
      ],
      [
        "ļ",
        -1.0
      ],
      [
        "Ľ",
        -1.0
      ],
      [
        "ľ",
        -1.0
      ],
      [
        "Ŀ",
        -1.0
      ],
      [
        "ŀ",
        -1.0
      ],
      [
        "Ł",
        -1.0
      ],
      [
        "ł",
        -1.0
      ],
      [
        "Ń",
        -1.0
      ],
      [
        "à°",
        -1.0
      ],
      [
        "à¸",
        -1.0
      ],
      [
        "à¤",
        -1.0
      ],
      [
        "à±",
        -1.0
      ],
      [
        "Ø§",
        -1.0
      ],
      [
        "ÙĦ",
        -1.0
      ],
      [
        "à¹",
        -1.0
      ],
      [
        "Ġà°",
        -1.0
      ],
      [
        "Ġà¤",
        -1.0
      ],
      [
        "ĠÐ",
        -1.0
      ],
      [
        "ÙĬ",
        -1.0
      ],
      [
        "à¥",
        -1.0
      ],
      [
        "ĠØ",
        -1.0
      ],
      [
        "Ø§ÙĦ",
        -1.0
      ],
      [
        "Ùħ",
        -1.0
      ],
      [
        "à±į",
        -1.0
      ],
      [
        "Ð¾",
        -1.0
      ],
      [
        "ÙĪ",
        -1.0
      ],
      [
        "à°¿",
        -1.0
      ],
      [
        "ÙĨ",
        -1.0
      ],
      [
        "à±įà°",
        -1.0
      ],
      [
        "ĠØ§ÙĦ",
        -1.0
      ],
      [
        "Ðµ",
        -1.0
      ],
      [
        "à°¾",
        -1.0
      ],
      [
        "Ð°",
        -1.0
      ],
      [
        "à±ģ",
        -1.0
      ],
      [
        "Ø§Ø",
        -1.0
      ],
      [
        "Ð¸",
        -1.0
      ],
      [
        "ÑĤ",
        -1.0
      ],
      [
        "à°¾à°",
        -1.0
      ],
      [
        "à¸²",
        -1.0
      ],
      [
        "Ø±",
        -1.0
      ],
      [
        "Ð½",
        -1.0
      ],
      [
        "à°¿à°",
        -1.0
      ],
      [
        "Ñģ",
        -1.0
      ],
      [
        "an",
        -1.0
      ],
      [
        "à¸²à¸",
        -1.0
      ],
      [
        "Ùĩ",
        -1.0
      ],
      [
        "ÑĢ",
        -1.0
      ],
      [
        "Ð¾Ð",
        -1.0
      ],
      [
        "Ø©",
        -1.0
      ],
      [
        "ĠØ§ÙĦØ",
        -1.0
      ],
      [
        "in",
        -1.0
      ],
      [
        "Ä±",
        -1.0
      ],
      [
        "à¸Ļ",
        -1.0
      ],
      [
        "Ùģ",
        -1.0
      ],
      [
        "à¤¾",
        -1.0
      ],
      [
        "à°Ĥ",
        -1.0
      ],
      [
        "er",
        -1.0
      ],
      [
        "en",
        -1.0
      ],
      [
        "Øª",
        -1.0
      ],
      [
        "à¹Ī",
        -1.0
      ],
      [
        "à¸Ń",
        -1.0
      ],
      [
        "Ġk",
        -1.0
      ],
      [
        "Ø¯",
        -1.0
      ],
      [
        "ÙĤ",
        -1.0
      ],
      [
        "ar",
        -1.0
      ],
      [
        "ĠÙĪ",
        -1.0
      ],
      [
        "à±ģà°",
        -1.0
      ],
      [
        "Ġd",
        -1.0
      ],
      [
        "Ùĥ",
        -1.0
      ],
      [
        "Ġt",
        -1.0
      ],
      [
        "à¥ĩ",
        -1.0
      ],
      [
        "à¸£",
        -1.0
      ],
      [
        "à¹Ģ",
        -1.0
      ],
      [
        "Ð»",
        -1.0
      ],
      [
        "à¹ī",
        -1.0
      ],
      [
        "es",
        -1.0
      ],
      [
        "à¸ģ",
        -1.0
      ],
      [
        "Ø¹",
        -1.0
      ],
      [
        "on",
        -1.0
      ],
      [
        "Ø¨",
        -1.0
      ],
      [
        "Ġs",
        -1.0
      ],
      [
        "à¤°",
        -1.0
      ],
      [
        "ĠÙħ",
        -1.0
      ],
      [
        "Ġa",
        -1.0
      ],
      [
        "à°¨",
        -1.0
      ],
      [
        "wa",
        -1.0
      ],
      [
        "li",
        -1.0
      ],
      [
        "Ġm",
        -1.0
      ],
      [
        "à¸ĩ",
        -1.0
      ],
      [
        "à¸±",
        -1.0
      ],
      [
        "à¸¡",
        -1.0
      ],
      [
        "à°°",
        -1.0
      ],
      [
        "à±ĩ",
        -1.0
      ],
      [
        "Ø³",
        -1.0
      ],
      [
        "at",
        -1.0
      ],
      [
        "Ñĥ",
        -1.0
      ],
      [
        ".Ċ",
        -1.0
      ],
      [
        "Ġb",
        -1.0
      ],
      [
        "à¹Ģà¸",
        -1.0
      ],
      [
        "à±ĭ",
        -1.0
      ],
      [
        "le",
        -1.0
      ],
      [
        "à¸µ",
        -1.0
      ],
      [
        "Ðº",
        -1.0
      ],
      [
        "Ġn",
        -1.0
      ],
      [
        "Ġà¤ķ",
        -1.0
      ],
      [
        "à¥į",
        -1.0
      ],
      [
        "à°²",
        -1.0
      ],
      [
        "Ġy",
        -1.0
      ],
      [
        "à¤¾à¤",
        -1.0
      ],
      [
        "is",
        -1.0
      ],
      [
        "Ġp",
        -1.0
      ],
      [
        "à¸§",
        -1.0
      ],
      [
        "à°¦",
        -1.0
      ],
      [
        "Ñı",
        -1.0
      ],
      [
        "à¥Ģ",
        -1.0
      ],
      [
        "Ñĭ",
        -1.0
      ],
      [
        "âĢ",
        -1.0
      ],
      [
        "à¤¿",
        -1.0
      ],
      [
        "Ð¼",
        -1.0
      ],
      [
        "Ġh",
        -1.0
      ],
      [
        "à¸Ķ",
        -1.0
      ],
      [
        "à¸¥",
        -1.0
      ],
      [
        "ĠØ¨",
        -1.0
      ],
      [
        "la",
        -1.0
      ],
      [
        "Ð²",
        -1.0
      ],
      [
        "à°ķ",
        -1.0
      ],
      [
        "Ġc",
        -1.0
      ],
      [
        "or",
        -1.0
      ],
      [
        "à¸¢",
        -1.0
      ],
      [
        "ĠÙģ",
        -1.0
      ],
      [
        "ØŃ",
        -1.0
      ],
      [
        "it",
        -1.0
      ],
      [
        "à¤Ĥ",
        -1.0
      ],
      [
        "à¥įà¤",
        -1.0
      ],
      [
        "ĠÐ¿",
        -1.0
      ],
      [
        "ï¼",
        -1.0
      ],
      [
        "ir",
        -1.0
      ],
      [
        "ÑĮ",
        -1.0
      ],
      [
        "à¸´",
        -1.0
      ],
      [
        "à¸Ĺ",
        -1.0
      ],
      [
        "ur",
        -1.0
      ],
      [
        "ä¸",
        -1.0
      ],
      [
        "ĠØ£",
        -1.0
      ],
      [
        "un",
        -1.0
      ],
      [
        "ĠÙĦ",
        -1.0
      ],
      [
        "ĠØ¹",
        -1.0
      ],
      [
        "Ã©",
        -1.0
      ],
      [
        "Ġà°ª",
        -1.0
      ],
      [
        "Ã¼",
        -1.0
      ],
      [
        "Ð´",
        -1.0
      ],
      [
        "à¤¿à¤",
        -1.0
      ],
      [
        "à°Ĥà°",
        -1.0
      ],
      [
        "à¸ļ",
        -1.0
      ],
      [
        "Ùī",
        -1.0
      ],
      [
        "à¸°",
        -1.0
      ],
      [
        "ÑģÑĤ",
        -1.0
      ],
      [
        "à¸ķ",
        -1.0
      ],
      [
        "à¸ª",
        -1.0
      ],
      [
        "à±Ģ",
        -1.0
      ],
      [
        "am",
        -1.0
      ],
      [
        "ÙĬØ©",
        -1.0
      ],
      [
        "et",
        -1.0
      ],
      [
        "Ø¬",
        -1.0
      ],
      [
        "ĠØ§ÙĦÙħ",
        -1.0
      ],
      [
        "ÅŁ",
        -1.0
      ],
      [
        "ĠÐ²",
        -1.0
      ],
      [
        "Ġo",
        -1.0
      ],
      [
        "he",
        -1.0
      ],
      [
        "à¥ĭ",
        -1.0
      ],
      [
        "ï¼Į",
        -1.0
      ],
      [
        "à¸«",
        -1.0
      ],
      [
        "à±Ĩ",
        -1.0
      ],
      [
        "ak",
        -1.0
      ],
      [
        "à¸Ħ",
        -1.0
      ],
      [
        "Ġà°µ",
        -1.0
      ],
      [
        "Ñĩ",
        -1.0
      ],
      [
        "Ø§ÙĨ",
        -1.0
      ],
      [
        "à±įà°°",
        -1.0
      ],
      [
        "as",
        -1.0
      ],
      [
        "Ġà°ķ",
        -1.0
      ],
      [
        "Ġv",
        -1.0
      ],
      [
        "à°¾à°°",
        -1.0
      ],
      [
        "çļ",
        -1.0
      ],
      [
        "al",
        -1.0
      ],
      [
        "çļĦ",
        -1.0
      ],
      [
        "à¹ģ",
        -1.0
      ],
      [
        "ĠØª",
        -1.0
      ],
      [
        "ĠÑģ",
        -1.0
      ],
      [
        "Ø§Øª",
        -1.0
      ],
      [
        "à°¡",
        -1.0
      ],
      [
        "à¤¨",
        -1.0
      ],
      [
        "ĠÙĬ",
        -1.0
      ],
      [
        "Ġà°ħ",
        -1.0
      ],
      [
        "ÐµÐ½",
        -1.0
      ],
      [
        "à°®",
        -1.0
      ],
      [
        "Ġf",
        -1.0
      ],
      [
        "ĠÐ½",
        -1.0
      ],
      [
        "Ġwa",
        -1.0
      ],
      [
        "Ġà°®",
        -1.0
      ],
      [
        "il",
        -1.0
      ],
      [
        "Ġde",
        -1.0
      ],
      [
        "ĠÙģÙĬ",
        -1.0
      ],
      [
        "à°¤",
        -1.0
      ],
      [
        "re",
        -1.0
      ],
      [
        "Ġku",
        -1.0
      ],
      [
        "ĠÙħÙĨ",
        -1.0
      ],
      [
        "à°¸",
        -1.0
      ],
      [
        "Ġya",
        -1.0
      ],
      [
        "ĠÐ¸",
        -1.0
      ],
      [
        "à°Ł",
        -1.0
      ],
      [
        "Ġg",
        -1.0
      ],
      [
        "ãĢ",
        -1.0
      ],
      [
        "Ġà°¸",
        -1.0
      ],
      [
        "ik",
        -1.0
      ],
      [
        "à¹Ħ",
        -1.0
      ],
      [
        "ÑĢÐ°",
        -1.0
      ],
      [
        "Øµ",
        -1.0
      ],
      [
        "Ġà¤¹",
        -1.0
      ],
      [
        "Ġà¤¸",
        -1.0
      ],
      [
        "à¸Ī",
        -1.0
      ],
      [
        "us",
        -1.0
      ],
      [
        "Ġ(",
        -1.0
      ],
      [
        "Ð·",
        -1.0
      ],
      [
        "à¹ĥ",
        -1.0
      ],
      [
        "ØĮ",
        -1.0
      ],
      [
        "el",
        -1.0
      ],
      [
        "Ã§",
        -1.0
      ],
      [
        "ÙĬÙĨ",
        -1.0
      ],
      [
        "à°µ",
        -1.0
      ],
      [
        "im",
        -1.0
      ],
      [
        "à¤ķ",
        -1.0
      ],
      [
        "Ø·",
        -1.0
      ],
      [
        "Ð¾Ð²",
        -1.0
      ],
      [
        "Ä±n",
        -1.0
      ],
      [
        "ed",
        -1.0
      ],
      [
        "à±įà°¨",
        -1.0
      ],
      [
        "à°ļ",
        -1.0
      ],
      [
        "ad",
        -1.0
      ],
      [
        "ent",
        -1.0
      ],
      [
        "à¸Ľ",
        -1.0
      ],
      [
        "Ġthe",
        -1.0
      ],
      [
        "à°¿à°Ĥ",
        -1.0
      ],
      [
        "ĠÐ¾",
        -1.0
      ],
      [
        "Ñħ",
        -1.0
      ],
      [
        "om",
        -1.0
      ],
      [
        "à¸²à¸£",
        -1.0
      ],
      [
        "à¸·",
        -1.0
      ],
      [
        "ĠM",
        -1.0
      ],
      [
        "Ø°",
        -1.0
      ],
      [
        "à°ª",
        -1.0
      ],
      [
        "à°¾à°²",
        -1.0
      ],
      [
        "Ġw",
        -1.0
      ],
      [
        "à¸Ńà¸ĩ",
        -1.0
      ],
      [
        "à±Ĥ",
        -1.0
      ],
      [
        "Ø§Ø±",
        -1.0
      ],
      [
        "Ġà°ļ",
        -1.0
      ],
      [
        "Ø§Ùħ",
        -1.0
      ],
      [
        "ÄŁ",
        -1.0
      ],
      [
        "..",
        -1.0
      ],
      [
        "em",
        -1.0
      ],
      [
        "ion",
        -1.0
      ],
      [
        "à¤¤",
        -1.0
      ],
      [
        "Ð¿",
        -1.0
      ],
      [
        "Ġna",
        -1.0
      ],
      [
        "ut",
        -1.0
      ],
      [
        "äº",
        -1.0
      ],
      [
        "ÙĦÙī",
        -1.0
      ],
      [
        "Ø£",
        -1.0
      ],
      [
        "ing",
        -1.0
      ],
      [
        "Ġà°¨",
        -1.0
      ],
      [
        "à¸µà¹Ī",
        -1.0
      ],
      [
        "à±įà°¯",
        -1.0
      ],
      [
        "Ġan",
        -1.0
      ],
      [
        "Ð¹",
        -1.0
      ],
      [
        "Ø¶",
        -1.0
      ],
      [
        "ÙĩØ§",
        -1.0
      ],
      [
        "Ġà¤®",
        -1.0
      ],
      [
        "Ø´",
        -1.0
      ],
      [
        "Ġl",
        -1.0
      ],
      [
        "à¸¸",
        -1.0
      ],
      [
        "à±įà°¤",
        -1.0
      ],
      [
        "Ø®",
        -1.0
      ],
      [
        "à°¯",
        -1.0
      ],
      [
        "ek",
        -1.0
      ],
      [
        "à¤¹",
        -1.0
      ],
      [
        "ÑĢÐµ",
        -1.0
      ],
      [
        "ĠÐº",
        -1.0
      ],
      [
        "um",
        -1.0
      ],
      [
        "à¹ĩ",
        -1.0
      ],
      [
        "à¤¸",
        -1.0
      ],
      [
        "ĠA",
        -1.0
      ],
      [
        "à¸¹",
        -1.0
      ],
      [
        "ay",
        -1.0
      ],
      [
        "à¸Ĥ",
        -1.0
      ],
      [
        "à°¾à°¨",
        -1.0
      ],
      [
        "à¥Ī",
        -1.0
      ],
      [
        "ĠS",
        -1.0
      ],
      [
        "ĠÙĪØ§ÙĦ",
        -1.0
      ],
      [
        "âĢĻ",
        -1.0
      ],
      [
        "ĠÙĥ",
        -1.0
      ],
      [
        "Ġi",
        -1.0
      ],
      [
        "Ð±",
        -1.0
      ],
      [
        "ãĢĤ",
        -1.0
      ],
      [
        "à±įà°²",
        -1.0
      ],
      [
        "Ġin",
        -1.0
      ],
      [
        "æľ",
        -1.0
      ],
      [
        "Ùİ",
        -1.0
      ],
      [
        "ic",
        -1.0
      ],
      [
        "Ġà¤ª",
        -1.0
      ],
      [
        "à°¿à°ķ",
        -1.0
      ],
      [
        "lar",
        -1.0
      ],
      [
        "à°¿à°¨",
        -1.0
      ],
      [
        "à¥ģ",
        -1.0
      ],
      [
        "qu",
        -1.0
      ],
      [
        "ha",
        -1.0
      ],
      [
        "Ð³",
        -1.0
      ],
      [
        "ä»",
        -1.0
      ],
      [
        "ro",
        -1.0
      ],
      [
        "Ø«",
        -1.0
      ],
      [
        "Ġà°¤",
        -1.0
      ],
      [
        "ĠØ¥",
        -1.0
      ],
      [
        "à¸ŀ",
        -1.0
      ],
      [
        "Ð¾Ð»",
        -1.0
      ],
      [
        "ĠÐ´",
        -1.0
      ],
      [
        "ÐµÑĤ",
        -1.0
      ],
      [
        "Ã¶",
        -1.0
      ],
      [
        "Ñİ",
        -1.0
      ],
      [
        "à¹Į",
        -1.0
      ],
      [
        "Ø²",
        -1.0
      ],
      [
        "ĠØ§ÙĦØª",
        -1.0
      ],
      [
        "Ġto",
        -1.0
      ],
      [
        "Ð½Ð¸",
        -1.0
      ],
      [
        "à±ģà°²",
        -1.0
      ],
      [
        "à¸³",
        -1.0
      ],
      [
        "åı",
        -1.0
      ],
      [
        "à¤²",
        -1.0
      ],
      [
        "de",
        -1.0
      ],
      [
        "ĠB",
        -1.0
      ],
      [
        "Ø§Ø¨",
        -1.0
      ],
      [
        "à°Ĺ",
        -1.0
      ],
      [
        "ili",
        -1.0
      ],
      [
        "ÙĪÙĦ",
        -1.0
      ],
      [
        "Ð»Ð¸",
        -1.0
      ],
      [
        "Ð¾Ð¼",
        -1.0
      ],
      [
        "ÑĤÐ¾",
        -1.0
      ],
      [
        "à¹Īà¸²à¸",
        -1.0
      ],
      [
        "ot",
        -1.0
      ],
      [
        "ÙĪÙĨ",
        -1.0
      ],
      [
        "à±įà°Ł",
        -1.0
      ],
      [
        "ĠÐ¼",
        -1.0
      ],
      [
        "ĠÙĩ",
        -1.0
      ],
      [
        "ÙĬØ±",
        -1.0
      ],
      [
        "à±Ĭ",
        -1.0
      ],
      [
        "ab",
        -1.0
      ],
      [
        "Ð¾Ð´",
        -1.0
      ],
      [
        "à¸ģà¸²à¸£",
        -1.0
      ],
      [
        "ÑĤÐµ",
        -1.0
      ],
      [
        "Ð½Ñĭ",
        -1.0
      ],
      [
        "ÑĪ",
        -1.0
      ],
      [
        "à¸Ĭ",
        -1.0
      ],
      [
        "Ø§Ø³",
        -1.0
      ],
      [
        "à±Ī",
        -1.0
      ],
      [
        "Ġla",
        -1.0
      ],
      [
        "ĠT",
        -1.0
      ],
      [
        "Ð½Ð¾",
        -1.0
      ],
      [
        "Ø§Ø¯",
        -1.0
      ],
      [
        "à¤®",
        -1.0
      ],
      [
        "da",
        -1.0
      ],
      [
        "ÑĢÐ¸",
        -1.0
      ],
      [
        "ĠØŃ",
        -1.0
      ],
      [
        "ĠØ§ÙĦØ¹",
        -1.0
      ],
      [
        "Ġr",
        -1.0
      ],
      [
        "za",
        -1.0
      ],
      [
        "ĠÐ½Ð°",
        -1.0
      ],
      [
        "ia",
        -1.0
      ],
      [
        "Ø§Ø¡",
        -1.0
      ],
      [
        "å¤",
        -1.0
      ],
      [
        "ĠC",
        -1.0
      ],
      [
        "20",
        -1.0
      ],
      [
        "ÙĦÙĬ",
        -1.0
      ],
      [
        "åħ",
        -1.0
      ],
      [
        "à¥ĩà¤Ĥ",
        -1.0
      ],
      [
        "à¸²à¸¡",
        -1.0
      ],
      [
        "Ð¶",
        -1.0
      ],
      [
        "ler",
        -1.0
      ],
      [
        "ch",
        -1.0
      ],
      [
        "Ð¾Ð³",
        -1.0
      ],
      [
        "ÑĨ",
        -1.0
      ],
      [
        "à¹Ĥ",
        -1.0
      ],
      [
        "à±ģà°Ĥ",
        -1.0
      ],
      [
        "à±ģà°ķ",
        -1.0
      ],
      [
        "iz",
        -1.0
      ],
      [
        "Ġà°°",
        -1.0
      ],
      [
        "ĠÙĤ",
        -1.0
      ],
      [
        "ÑĤÑĮ",
        -1.0
      ],
      [
        "à±ģà°¨",
        -1.0
      ],
      [
        "Ġof",
        -1.0
      ],
      [
        "åľ",
        -1.0
      ],
      [
        "Ġu",
        -1.0
      ],
      [
        "à¤¾à¤°",
        -1.0
      ],
      [
        "ĠØ¹ÙĦÙī",
        -1.0
      ],
      [
        "à¸£à¸°",
        -1.0
      ],
      [
        "ĠØ§ÙĦØ£",
        -1.0
      ],
      [
        "Ġà°Ĩ",
        -1.0
      ],
      [
        "ĠK",
        -1.0
      ],
      [
        "ĠØĮ",
        -1.0
      ],
      [
        "ĠÐ±",
        -1.0
      ],
      [
        "ĠÙĨ",
        -1.0
      ],
      [
        "ÙĩÙħ",
        -1.0
      ],
      [
        "ul",
        -1.0
      ],
      [
        "à¥¤",
        -1.0
      ],
      [
        "ce",
        -1.0
      ],
      [
        "æĺ",
        -1.0
      ],
      [
        "ĠâĢ",
        -1.0
      ],
      [
        "à¥įà¤°",
        -1.0
      ],
      [
        "Ġve",
        -1.0
      ],
      [
        "à±ģ.",
        -1.0
      ],
      [
        "Ġà¤¬",
        -1.0
      ],
      [
        "Ġand",
        -1.0
      ],
      [
        "Ø±ÙĬ",
        -1.0
      ],
      [
        "å°",
        -1.0
      ],
      [
        "ok",
        -1.0
      ],
      [
        "à°¿.",
        -1.0
      ],
      [
        "Ġkwa",
        -1.0
      ],
      [
        "di",
        -1.0
      ],
      [
        "Ð»Ð°",
        -1.0
      ],
      [
        "ĠØ³",
        -1.0
      ],
      [
        "Ð½Ð°",
        -1.0
      ],
      [
        "ä½",
        -1.0
      ],
      [
        "Ġà¤ľ",
        -1.0
      ],
      [
        "à¸±à¸ļ",
        -1.0
      ],
      [
        "ĠØ£ÙĨ",
        -1.0
      ],
      [
        "à¸±à¸Ļ",
        -1.0
      ],
      [
        "Ð¾Ð¹",
        -1.0
      ],
      [
        "Ùĭ",
        -1.0
      ],
      [
        "à¹ģà¸¥",
        -1.0
      ],
      [
        "ĠI",
        -1.0
      ],
      [
        "ÐµÐ½Ð¸",
        -1.0
      ],
      [
        "Ø§Ø¹",
        -1.0
      ],
      [
        "Ġà¤¨",
        -1.0
      ],
      [
        "os",
        -1.0
      ],
      [
        "à±įà°ª",
        -1.0
      ],
      [
        "Ġet",
        -1.0
      ],
      [
        "à¹Ģà¸Ľ",
        -1.0
      ],
      [
        "à¸²à¸ģ",
        -1.0
      ],
      [
        "ĠP",
        -1.0
      ],
      [
        "Ø§Ø¦",
        -1.0
      ],
      [
        "Øº",
        -1.0
      ],
      [
        "åĪ",
        -1.0
      ],
      [
        "å®",
        -1.0
      ],
      [
        "Ġma",
        -1.0
      ],
      [
        "ÐµÑĢ",
        -1.0
      ],
      [
        "ÑĤÐ°",
        -1.0
      ],
      [
        "æĪ",
        -1.0
      ],
      [
        "à¤ª",
        -1.0
      ],
      [
        "Ġà°¦",
        -1.0
      ],
      [
        "ĠH",
        -1.0
      ],
      [
        "Ġà°ī",
        -1.0
      ],
      [
        "Ä±r",
        -1.0
      ],
      [
        "à¸¶",
        -1.0
      ],
      [
        "ana",
        -1.0
      ],
      [
        "ÙĦÙħ",
        -1.0
      ],
      [
        "ika",
        -1.0
      ],
      [
        "ct",
        -1.0
      ],
      [
        "à±įà°ķ",
        -1.0
      ],
      [
        "à¹īà¸²à¸",
        -1.0
      ],
      [
        "Ð»ÑĮ",
        -1.0
      ],
      [
        "à¹ĩà¸Ļ",
        -1.0
      ],
      [
        "à¤Ĺ",
        -1.0
      ],
      [
        "ĠÃ",
        -1.0
      ],
      [
        "Ġth",
        -1.0
      ],
      [
        "Ġà¤ħ",
        -1.0
      ],
      [
        "Ġe",
        -1.0
      ],
      [
        "ä¸Ģ",
        -1.0
      ],
      [
        "est",
        -1.0
      ],
      [
        "ÑģÐº",
        -1.0
      ],
      [
        "our",
        -1.0
      ],
      [
        "Ġle",
        -1.0
      ],
      [
        "çĶ",
        -1.0
      ],
      [
        "iv",
        -1.0
      ],
      [
        "ol",
        -1.0
      ],
      [
        "Ġà°²",
        -1.0
      ],
      [
        "ĠÐ½Ðµ",
        -1.0
      ],
      [
        "Ġà¤¦",
        -1.0
      ],
      [
        "Ġbir",
        -1.0
      ],
      [
        "ÙħØ§",
        -1.0
      ],
      [
        "ap",
        -1.0
      ],
      [
        "Ġun",
        -1.0
      ],
      [
        "æĺ¯",
        -1.0
      ],
      [
        "à±įà°µ",
        -1.0
      ],
      [
        "ÑĢÐ¾",
        -1.0
      ],
      [
        "åĲ",
        -1.0
      ],
      [
        "Ġqu",
        -1.0
      ],
      [
        "ĠØ§ÙĦØŃ",
        -1.0
      ],
      [
        "Ġj",
        -1.0
      ],
      [
        "à¸ĸ",
        -1.0
      ],
      [
        "à¸·à¹Ī",
        -1.0
      ],
      [
        "ation",
        -1.0
      ],
      [
        "iy",
        -1.0
      ],
      [
        "ÙĨØ§",
        -1.0
      ],
      [
        "ĠD",
        -1.0
      ],
      [
        "Ġà°ĩ",
        -1.0
      ],
      [
        "Ġà°¬",
        -1.0
      ],
      [
        "ĠÑĥ",
        -1.0
      ],
      [
        "à¤¦",
        -1.0
      ],
      [
        "ÙĪØ±",
        -1.0
      ],
      [
        "ÑģÑı",
        -1.0
      ],
      [
        "à¸·à¸Ń",
        -1.0
      ],
      [
        "Ø¸",
        -1.0
      ],
      [
        "Ġà°Ĺ",
        -1.0
      ],
      [
        "à¸ľ",
        -1.0
      ],
      [
        "Ñī",
        -1.0
      ],
      [
        "à¹ĥà¸Ļ",
        -1.0
      ],
      [
        "Ġen",
        -1.0
      ],
      [
        "à¸²à¸¢",
        -1.0
      ],
      [
        "hi",
        -1.0
      ],
      [
        "Ġà¤²",
        -1.0
      ],
      [
        "Ġà¤µ",
        -1.0
      ],
      [
        "ĠÑ",
        -1.0
      ],
      [
        "à±įà°ļ",
        -1.0
      ],
      [
        "lan",
        -1.0
      ],
      [
        "ĠØ¬",
        -1.0
      ],
      [
        "è¿",
        -1.0
      ],
      [
        "à°¾à°¯",
        -1.0
      ],
      [
        "id",
        -1.0
      ],
      [
        "Ġ\"",
        -1.0
      ],
      [
        "à¥ĭà¤Ĥ",
        -1.0
      ],
      [
        "te",
        -1.0
      ],
      [
        "ĠÐ·",
        -1.0
      ],
      [
        "Ð²Ð°",
        -1.0
      ],
      [
        "ĠÑĩ",
        -1.0
      ],
      [
        "az",
        -1.0
      ],
      [
        "ÙĦØ§",
        -1.0
      ],
      [
        "ini",
        -1.0
      ],
      [
        "à¤µ",
        -1.0
      ],
      [
        "ou",
        -1.0
      ],
      [
        "me",
        -1.0
      ],
      [
        "ra",
        -1.0
      ],
      [
        "à¹ĥà¸«",
        -1.0
      ],
      [
        "à¥Ĥ",
        -1.0
      ],
      [
        "à°¿à°¤",
        -1.0
      ],
      [
        "ine",
        -1.0
      ],
      [
        "ĠÐ¿Ð¾",
        -1.0
      ],
      [
        "ĠL",
        -1.0
      ],
      [
        "ÙĦÙĥ",
        -1.0
      ],
      [
        "Ġ-",
        -1.0
      ],
      [
        "ÐºÐ°",
        -1.0
      ],
      [
        "ÙĪÙħ",
        -1.0
      ],
      [
        "à°Ĥà°Ĺ",
        -1.0
      ],
      [
        "à°Ĥà°¦",
        -1.0
      ],
      [
        "à¸µà¸¢",
        -1.0
      ],
      [
        "ya",
        -1.0
      ],
      [
        "Ġre",
        -1.0
      ],
      [
        "Ùĳ",
        -1.0
      ],
      [
        "ba",
        -1.0
      ],
      [
        "âĢĿ",
        -1.0
      ],
      [
        "Ø°Ø§",
        -1.0
      ],
      [
        "Ġà¤°",
        -1.0
      ],
      [
        "ä¹",
        -1.0
      ],
      [
        "ĠØ¹ÙĨ",
        -1.0
      ],
      [
        "à¹Ħà¸Ķ",
        -1.0
      ],
      [
        "ÐµÐ¼",
        -1.0
      ],
      [
        "ĠÃ§",
        -1.0
      ],
      [
        "ÙĬØ¯",
        -1.0
      ],
      [
        "ÑĤÐ¸",
        -1.0
      ],
      [
        "à¸±à¸ĩ",
        -1.0
      ],
      [
        "Ġ:",
        -1.0
      ],
      [
        "ĠW",
        -1.0
      ],
      [
        "à¹ģà¸¥à¸°",
        -1.0
      ],
      [
        "st",
        -1.0
      ],
      [
        "à¸Ńà¸¢",
        -1.0
      ],
      [
        "æĸ",
        -1.0
      ],
      [
        "à¤¾à¤¨",
        -1.0
      ],
      [
        "à±įà°¸",
        -1.0
      ],
      [
        "ĠØ±",
        -1.0
      ],
      [
        "ĠØ¨Ø§ÙĦ",
        -1.0
      ],
      [
        "Ġis",
        -1.0
      ],
      [
        "Ø§ØŃ",
        -1.0
      ],
      [
        "ta",
        -1.0
      ],
      [
        "ib",
        -1.0
      ],
      [
        "ĠØ§ÙĦØ³",
        -1.0
      ],
      [
        "ig",
        -1.0
      ],
      [
        "ĠN",
        -1.0
      ],
      [
        "ÙĦÙĩ",
        -1.0
      ],
      [
        "uk",
        -1.0
      ],
      [
        "if",
        -1.0
      ],
      [
        "à±ĩà°¸",
        -1.0
      ],
      [
        "à¸±à¹ī",
        -1.0
      ],
      [
        "à°¿à°²",
        -1.0
      ],
      [
        "åľ¨",
        -1.0
      ],
      [
        "à¥įà¤¯",
        -1.0
      ],
      [
        "ye",
        -1.0
      ],
      [
        "æľī",
        -1.0
      ],
      [
        "ĠE",
        -1.0
      ],
      [
        "à°¿à°¯",
        -1.0
      ],
      [
        "ers",
        -1.0
      ],
      [
        "ÙĲ",
        -1.0
      ],
      [
        "Ġà°İ",
        -1.0
      ],
      [
        "å¾",
        -1.0
      ],
      [
        "à°¬",
        -1.0
      ],
      [
        "ĠØ§ÙĦÙĨ",
        -1.0
      ],
      [
        "ĠØ§ÙĦÙĤ",
        -1.0
      ],
      [
        "ĠÐ³",
        -1.0
      ],
      [
        "Ø§ÙĤ",
        -1.0
      ],
      [
        "ĠØ¯",
        -1.0
      ],
      [
        "à¸Ħà¸§",
        -1.0
      ],
      [
        "ĠR",
        -1.0
      ],
      [
        "Ð¼Ð¸",
        -1.0
      ],
      [
        "à°¿à°¸",
        -1.0
      ],
      [
        "av",
        -1.0
      ],
      [
        "lÄ±",
        -1.0
      ],
      [
        "Ġà°ħà°¨",
        -1.0
      ],
      [
        "ge",
        -1.0
      ],
      [
        "ĠF",
        -1.0
      ],
      [
        "Ġon",
        -1.0
      ],
      [
        "à±ĩà°",
        -1.0
      ],
      [
        "à¸Ĥà¸Ńà¸ĩ",
        -1.0
      ],
      [
        "à°Ĥà°Ł",
        -1.0
      ],
      [
        "Ð¾Ð³Ð¾",
        -1.0
      ],
      [
        "Ġar",
        -1.0
      ],
      [
        "Ð¾Ð±",
        -1.0
      ],
      [
        "ant",
        -1.0
      ],
      [
        "Ġà¤¤",
        -1.0
      ],
      [
        "ĠØ´",
        -1.0
      ],
      [
        "Ø§Ùģ",
        -1.0
      ],
      [
        "Ø¥",
        -1.0
      ],
      [
        "Ã¼n",
        -1.0
      ],
      [
        "ĠG",
        -1.0
      ],
      [
        "Ø³Øª",
        -1.0
      ],
      [
        "åĬ",
        -1.0
      ],
      [
        "Ġà¤ī",
        -1.0
      ],
      [
        "à¤¯",
        -1.0
      ],
      [
        "ä¸į",
        -1.0
      ],
      [
        "Ġà¤Ĩ",
        -1.0
      ],
      [
        "Ð»Ñı",
        -1.0
      ],
      [
        "ĠÙĦÙĦ",
        -1.0
      ],
      [
        "à¹Ģà¸£",
        -1.0
      ],
      [
        "Ùı",
        -1.0
      ],
      [
        "Ð¾ÑĢ",
        -1.0
      ],
      [
        "we",
        -1.0
      ],
      [
        "åį",
        -1.0
      ],
      [
        "19",
        -1.0
      ],
      [
        "Ð´Ð°",
        -1.0
      ],
      [
        "à¸²à¸Ļ",
        -1.0
      ],
      [
        "à°¾à°¡",
        -1.0
      ],
      [
        "à¤¿à¤¯",
        -1.0
      ],
      [
        "à±ģà°¤",
        -1.0
      ],
      [
        "Ġz",
        -1.0
      ],
      [
        "à°Ĥà°¤",
        -1.0
      ],
      [
        "à¸ĵ",
        -1.0
      ],
      [
        "Ġse",
        -1.0
      ],
      [
        "ani",
        -1.0
      ],
      [
        "à¥ĩà¤",
        -1.0
      ],
      [
        "ĠØ§ÙĦØ¯",
        -1.0
      ],
      [
        "ĠÃł",
        -1.0
      ],
      [
        "Ġbe",
        -1.0
      ],
      [
        "lik",
        -1.0
      ],
      [
        "ĠÑĢÐ°",
        -1.0
      ],
      [
        "ĠØ§ÙĦØ¨",
        -1.0
      ],
      [
        "gu",
        -1.0
      ],
      [
        "Ġà°ľ",
        -1.0
      ],
      [
        "Ð»Ðµ",
        -1.0
      ],
      [
        "ĠØ®",
        -1.0
      ],
      [
        "Ø§Ø¬",
        -1.0
      ],
      [
        "ÑĢÑĥ",
        -1.0
      ],
      [
        "ĠØ§ÙĦØ¥",
        -1.0
      ],
      [
        "Ġdes",
        -1.0
      ],
      [
        "ĠÙħØ¹",
        -1.0
      ],
      [
        "éĢ",
        -1.0
      ],
      [
        "à¹Ħà¸¡",
        -1.0
      ],
      [
        "ter",
        -1.0
      ],
      [
        "ØªÙħ",
        -1.0
      ],
      [
        "Ġà¤ķà¤°",
        -1.0
      ],
      [
        "à°¾à°Ĥ",
        -1.0
      ],
      [
        "Ä°",
        -1.0
      ],
      [
        "Ġam",
        -1.0
      ],
      [
        "ĠØ§ÙĦØ¬",
        -1.0
      ],
      [
        "ĠÐ·Ð°",
        -1.0
      ],
      [
        "Ġcon",
        -1.0
      ],
      [
        "ÑĨÐ¸",
        -1.0
      ],
      [
        "ÐºÐ¸",
        -1.0
      ],
      [
        "äºº",
        -1.0
      ],
      [
        "à¤¬",
        -1.0
      ],
      [
        "Ġles",
        -1.0
      ],
      [
        "ÙĤØ¯",
        -1.0
      ],
      [
        "à°¿à°Ĺ",
        -1.0
      ],
      [
        "à°¹",
        -1.0
      ],
      [
        "Ġpro",
        -1.0
      ],
      [
        "à¸Ħà¸§à¸²à¸¡",
        -1.0
      ],
      [
        "ĠÑĤ",
        -1.0
      ],
      [
        "Ġkat",
        -1.0
      ],
      [
        "à¤¼",
        -1.0
      ],
      [
        "ans",
        -1.0
      ],
      [
        "à¹īà¸§",
        -1.0
      ],
      [
        "à¸±à¸ģ",
        -1.0
      ],
      [
        "äºĨ",
        -1.0
      ],
      [
        "Ġni",
        -1.0
      ],
      [
        "Ġal",
        -1.0
      ],
      [
        "Ķà¤°",
        -1.0
      ],
      [
        "Ð¾Ð¶",
        -1.0
      ],
      [
        "à¥ģà¤",
        -1.0
      ],
      [
        "Ġol",
        -1.0
      ],
      [
        "ÑģÑĤÐ°",
        -1.0
      ],
      [
        "Ä±m",
        -1.0
      ],
      [
        "åĽ",
        -1.0
      ],
      [
        "ĠØ¥ÙĦÙī",
        -1.0
      ],
      [
        "å¥",
        -1.0
      ],
      [
        "æī",
        -1.0
      ],
      [
        "à±įà°®",
        -1.0
      ],
      [
        "ĠÑį",
        -1.0
      ],
      [
        "op",
        -1.0
      ],
      [
        "ali",
        -1.0
      ],
      [
        "Ġà¤Ķà¤°",
        -1.0
      ],
      [
        "Ð¾Ð²Ð°",
        -1.0
      ],
      [
        "Ð²Ð¸",
        -1.0
      ],
      [
        "à¹Ģà¸ŀ",
        -1.0
      ],
      [
        "Ø¨ÙĬ",
        -1.0
      ],
      [
        "à¸ĺ",
        -1.0
      ],
      [
        "ÙħÙĨ",
        -1.0
      ],
      [
        "Ġpar",
        -1.0
      ],
      [
        "Ġfor",
        -1.0
      ],
      [
        "åŃ",
        -1.0
      ],
      [
        "end",
        -1.0
      ],
      [
        "ĠÐ»",
        -1.0
      ],
      [
        "ãĢĤĊ",
        -1.0
      ],
      [
        "ip",
        -1.0
      ],
      [
        "à±ģà°¡",
        -1.0
      ],
      [
        "ow",
        -1.0
      ],
      [
        "à°ľ",
        -1.0
      ],
      [
        "à°¿à°ª",
        -1.0
      ],
      [
        "zi",
        -1.0
      ],
      [
        "à¸Īà¸°",
        -1.0
      ],
      [
        "ĠU",
        -1.0
      ],
      [
        "10",
        -1.0
      ],
      [
        "ama",
        -1.0
      ],
      [
        "ess",
        -1.0
      ],
      [
        "ĠÐ°",
        -1.0
      ],
      [
        "Ġà¤ĩ",
        -1.0
      ],
      [
        "ĠØµ",
        -1.0
      ],
      [
        "Ã¨",
        -1.0
      ],
      [
        "å¹",
        -1.0
      ],
      [
        "ie",
        -1.0
      ],
      [
        "è®",
        -1.0
      ],
      [
        "à°¾à°¤",
        -1.0
      ],
      [
        "à±ģà°Ĺ",
        -1.0
      ],
      [
        "Ø±Ø©",
        -1.0
      ],
      [
        "à¸Ńà¸Ļ",
        -1.0
      ],
      [
        "à±Ĩà°²",
        -1.0
      ],
      [
        "ÙĬÙħ",
        -1.0
      ],
      [
        "à¸¨",
        -1.0
      ],
      [
        "à¹Īà¸²à¸ĩ",
        -1.0
      ],
      [
        "ÙĴ",
        -1.0
      ],
      [
        "à¤ľ",
        -1.0
      ],
      [
        "ÐµÐ¹",
        -1.0
      ],
      [
        "Ġà¤Ĺ",
        -1.0
      ],
      [
        "ÙĦØ©",
        -1.0
      ],
      [
        "à¸´à¸Ķ",
        -1.0
      ],
      [
        "à¸ł",
        -1.0
      ],
      [
        "Ġcom",
        -1.0
      ],
      [
        "and",
        -1.0
      ],
      [
        "Ä±ÅŁ",
        -1.0
      ],
      [
        "ac",
        -1.0
      ],
      [
        "du",
        -1.0
      ],
      [
        "ĠØ§ÙĦØ´",
        -1.0
      ],
      [
        "à¸Ľà¸£à¸°",
        -1.0
      ],
      [
        "Ġza",
        -1.0
      ],
      [
        "Ø¹Ø¯",
        -1.0
      ],
      [
        "à°¿à°°",
        -1.0
      ],
      [
        "è¯",
        -1.0
      ],
      [
        "æĹ",
        -1.0
      ],
      [
        "ĠÐ¾ÑĤ",
        -1.0
      ],
      [
        "à¸«à¸Ļ",
        -1.0
      ],
      [
        "Ġsa",
        -1.0
      ],
      [
        "ÙĢ",
        -1.0
      ],
      [
        "Ð¾Ð½",
        -1.0
      ],
      [
        "à°£",
        -1.0
      ],
      [
        "ist",
        -1.0
      ],
      [
        "à¥Īà¤Ĥ",
        -1.0
      ],
      [
        "Ġau",
        -1.0
      ],
      [
        "ĠO",
        -1.0
      ],
      [
        "Ð¾Ðº",
        -1.0
      ],
      [
        "ĠÂ",
        -1.0
      ],
      [
        "ÙĪØ§",
        -1.0
      ],
      [
        "ĠØ§ÙĦÙĥ",
        -1.0
      ],
      [
        "Ġà¤Ń",
        -1.0
      ],
      [
        "à¸ĭ",
        -1.0
      ],
      [
        "à¸į",
        -1.0
      ],
      [
        "ĠÐ¿ÑĢÐ¸",
        -1.0
      ],
      [
        "à±Ĩà°Ĥ",
        -1.0
      ],
      [
        "ĠØ§ÙĦØªÙĬ",
        -1.0
      ],
      [
        "ä¼",
        -1.0
      ],
      [
        "à±Īà°¨",
        -1.0
      ],
      [
        "Ø¦",
        -1.0
      ],
      [
        "à¸µà¹ī",
        -1.0
      ],
      [
        "à°¾à°Ł",
        -1.0
      ],
      [
        "à°Ĥà°²",
        -1.0
      ],
      [
        "ĠÐºÐ°",
        -1.0
      ],
      [
        "æĪĳ",
        -1.0
      ],
      [
        "à¸²à¸ĩ",
        -1.0
      ],
      [
        "Ġà°Ń",
        -1.0
      ],
      [
        "à¸¹à¹ī",
        -1.0
      ],
      [
        "ĠJ",
        -1.0
      ],
      [
        "Ã¼r",
        -1.0
      ],
      [
        "ĠØ§ÙĦÙģ",
        -1.0
      ],
      [
        "Ø±Ø¨",
        -1.0
      ],
      [
        "Ġà°Ī",
        -1.0
      ],
      [
        "Ġch",
        -1.0
      ],
      [
        "ous",
        -1.0
      ],
      [
        "Ø¤",
        -1.0
      ],
      [
        "Ð¾Ð»ÑĮ",
        -1.0
      ],
      [
        "Ä±l",
        -1.0
      ],
      [
        "à±ģà°µ",
        -1.0
      ],
      [
        "à¤¡",
        -1.0
      ],
      [
        "à¹Ħà¸Ľ",
        -1.0
      ],
      [
        "ĠÃ¶",
        -1.0
      ],
      [
        "ĠÙĪØª",
        -1.0
      ],
      [
        "à¹Ģà¸ģ",
        -1.0
      ],
      [
        "ĠâĢľ",
        -1.0
      ],
      [
        "ĥ½",
        -1.0
      ],
      [
        "ĠØ£ÙĪ",
        -1.0
      ],
      [
        "ĠØ§ÙĨ",
        -1.0
      ],
      [
        "ãĢģ",
        -1.0
      ],
      [
        "Ġà¤¯",
        -1.0
      ],
      [
        "ÑģÑĤÐ¸",
        -1.0
      ],
      [
        "Ġà¤ªà¤°",
        -1.0
      ],
      [
        "åº",
        -1.0
      ],
      [
        "Ġdu",
        -1.0
      ],
      [
        "ve",
        -1.0
      ],
      [
        "à°¾à°ķ",
        -1.0
      ],
      [
        "Ġkatika",
        -1.0
      ],
      [
        "Ä±k",
        -1.0
      ],
      [
        "ÙĪØ¯",
        -1.0
      ],
      [
        "ÑĦ",
        -1.0
      ],
      [
        "ç»",
        -1.0
      ],
      [
        "Ø¨Ø±",
        -1.0
      ],
      [
        "ĠÙĦØ§",
        -1.0
      ],
      [
        "à¹īà¸Ńà¸ĩ",
        -1.0
      ],
      [
        "ĠØ§ÙĦØ°",
        -1.0
      ],
      [
        "à¸Ńà¸ģ",
        -1.0
      ],
      [
        "Ġba",
        -1.0
      ],
      [
        "Ø§Ø³Øª",
        -1.0
      ],
      [
        "åĴ",
        -1.0
      ],
      [
        "Ġ.Ċ",
        -1.0
      ],
      [
        "è¦",
        -1.0
      ],
      [
        ":Ċ",
        -1.0
      ],
      [
        "ÑģÑĤÐ²",
        -1.0
      ],
      [
        "à¤¿à¤ķ",
        -1.0
      ],
      [
        "à¤Ł",
        -1.0
      ],
      [
        "ĠÐµ",
        -1.0
      ],
      [
        "ne",
        -1.0
      ],
      [
        "ort",
        -1.0
      ],
      [
        "ĠiÃ§",
        -1.0
      ],
      [
        "ĠÐ¾Ð±",
        -1.0
      ],
      [
        "à¸´à¸Ļ",
        -1.0
      ],
      [
        "af",
        -1.0
      ],
      [
        "Ġas",
        -1.0
      ],
      [
        "à±ģà°°",
        -1.0
      ],
      [
        "ver",
        -1.0
      ],
      [
        "oc",
        -1.0
      ],
      [
        "ly",
        -1.0
      ],
      [
        "ÙħÙĦ",
        -1.0
      ],
      [
        "ĠY",
        -1.0
      ],
      [
        "ÙĥÙĨ",
        -1.0
      ],
      [
        "å·",
        -1.0
      ],
      [
        "æĿ",
        -1.0
      ],
      [
        "à¸Ħà¸£",
        -1.0
      ],
      [
        "ma",
        -1.0
      ],
      [
        "iÅŁ",
        -1.0
      ],
      [
        "Ø°Ùĩ",
        -1.0
      ],
      [
        "Ð¾Ñģ",
        -1.0
      ],
      [
        "ä¸Ń",
        -1.0
      ],
      [
        "à°§",
        -1.0
      ],
      [
        "Ġson",
        -1.0
      ],
      [
        "ere",
        -1.0
      ],
      [
        "ÑĩÐ¸",
        -1.0
      ],
      [
        "Ð´Ðµ",
        -1.0
      ],
      [
        "à¥įà¤¤",
        -1.0
      ],
      [
        "è¡",
        -1.0
      ],
      [
        "èĢ",
        -1.0
      ],
      [
        "à°Ĥà°¡",
        -1.0
      ],
      [
        "up",
        -1.0
      ],
      [
        "Ġà°®à°°",
        -1.0
      ],
      [
        "ÑĩÐµ",
        -1.0
      ],
      [
        "Ġli",
        -1.0
      ],
      [
        "Ð³Ð¾",
        -1.0
      ],
      [
        "Ġpr",
        -1.0
      ],
      [
        "éģ",
        -1.0
      ],
      [
        "yo",
        -1.0
      ],
      [
        "ĠØ°",
        -1.0
      ],
      [
        "å¸",
        -1.0
      ],
      [
        "ÙĬØ§",
        -1.0
      ],
      [
        "ĠÐĴ",
        -1.0
      ],
      [
        "ØŃØ¯",
        -1.0
      ],
      [
        "à¸©",
        -1.0
      ],
      [
        "å¤§",
        -1.0
      ],
      [
        "ja",
        -1.0
      ],
      [
        "ĠÙħØ§",
        -1.0
      ],
      [
        "à¹Īà¸§",
        -1.0
      ],
      [
        "à°¿à°µ",
        -1.0
      ],
      [
        "åĴĮ",
        -1.0
      ],
      [
        "Ð¾Ð·",
        -1.0
      ],
      [
        "ire",
        -1.0
      ],
      [
        "ĠØ§ÙĦÙĦÙĩ",
        -1.0
      ],
      [
        "à¹Ģà¸¥",
        -1.0
      ],
      [
        "12",
        -1.0
      ],
      [
        "å¼",
        -1.0
      ],
      [
        "--",
        -1.0
      ],
      [
        "à±įà°·",
        -1.0
      ],
      [
        "ÑĩÐ°",
        -1.0
      ],
      [
        "Ġne",
        -1.0
      ],
      [
        "Ø§Øµ",
        -1.0
      ],
      [
        "ØªÙĩ",
        -1.0
      ],
      [
        "ji",
        -1.0
      ],
      [
        "Ġda",
        -1.0
      ],
      [
        "à±ģ,",
        -1.0
      ],
      [
        "ĠØ§ÙĦØ±",
        -1.0
      ],
      [
        "ÙģÙĬ",
        -1.0
      ],
      [
        "Ġst",
        -1.0
      ],
      [
        "à¤¾à¤²",
        -1.0
      ],
      [
        "ÐµÐ½Ð¸Ñı",
        -1.0
      ],
      [
        "à¤ļ",
        -1.0
      ],
      [
        "ĠÐ²Ñĭ",
        -1.0
      ],
      [
        "Ġà°Ĵ",
        -1.0
      ],
      [
        "ĠØ§ÙĦÙĪ",
        -1.0
      ],
      [
        "ĠØ§ÙĦØ®",
        -1.0
      ],
      [
        "çļĦæ",
        -1.0
      ],
      [
        "ang",
        -1.0
      ],
      [
        "ke",
        -1.0
      ],
      [
        "ĠgÃ¶",
        -1.0
      ],
      [
        "Ð¼Ð°",
        -1.0
      ],
      [
        "ä»¥",
        -1.0
      ],
      [
        "Ġà¤ļ",
        -1.0
      ],
      [
        "Ð·Ð°",
        -1.0
      ],
      [
        "à±ĩà°¦",
        -1.0
      ],
      [
        "ĠÙĥØ§ÙĨ",
        -1.0
      ],
      [
        "à°¾à°Ĺ",
        -1.0
      ],
      [
        "ĠØ§ÙĦØµ",
        -1.0
      ],
      [
        "à¹Īà¸²",
        -1.0
      ],
      [
        "à°¾à°®",
        -1.0
      ],
      [
        "Ø¹Ø©",
        -1.0
      ],
      [
        "à¸«à¸¥",
        -1.0
      ],
      [
        ")Ċ",
        -1.0
      ],
      [
        "ind",
        -1.0
      ],
      [
        "og",
        -1.0
      ],
      [
        "ÙĤØ©",
        -1.0
      ],
      [
        "ment",
        -1.0
      ],
      [
        "ä»ĸ",
        -1.0
      ],
      [
        "Ġit",
        -1.0
      ],
      [
        "à°¾à°µ",
        -1.0
      ],
      [
        "éĩ",
        -1.0
      ],
      [
        "à±Ĥà°¡",
        -1.0
      ],
      [
        "...",
        -1.0
      ],
      [
        "uwa",
        -1.0
      ],
      [
        "Ã¼z",
        -1.0
      ],
      [
        "à¹Ĩ",
        -1.0
      ],
      [
        "ÙĬÙĦ",
        -1.0
      ],
      [
        "Ã©s",
        -1.0
      ],
      [
        "Ä±z",
        -1.0
      ],
      [
        "à°¾à°¦",
        -1.0
      ],
      [
        "ake",
        -1.0
      ],
      [
        "Ġat",
        -1.0
      ],
      [
        "à°³",
        -1.0
      ],
      [
        "Ð¾ÑĤ",
        -1.0
      ],
      [
        "à±įà°¦",
        -1.0
      ],
      [
        "Ġà°¶",
        -1.0
      ],
      [
        "çī",
        -1.0
      ],
      [
        "ÑĢÑĭ",
        -1.0
      ],
      [
        "ĠØ§",
        -1.0
      ],
      [
        "ub",
        -1.0
      ],
      [
        "Ð´Ð¸",
        -1.0
      ],
      [
        "à¸Ĺà¸³",
        -1.0
      ],
      [
        "Ġà°¯",
        -1.0
      ],
      [
        "ith",
        -1.0
      ],
      [
        "ĠØ·",
        -1.0
      ],
      [
        "à¤¾à¤¤",
        -1.0
      ],
      [
        "à¸«à¸£",
        -1.0
      ],
      [
        "Ø§Ø·",
        -1.0
      ],
      [
        "åı¯",
        -1.0
      ],
      [
        "åĢ",
        -1.0
      ],
      [
        "à¹Ģà¸«",
        -1.0
      ],
      [
        "ile",
        -1.0
      ],
      [
        "à¸¡à¸²à¸",
        -1.0
      ],
      [
        "ĠÐ±Ñĭ",
        -1.0
      ],
      [
        "à¸£à¸£",
        -1.0
      ],
      [
        "çĽ",
        -1.0
      ],
      [
        "larÄ±n",
        -1.0
      ],
      [
        "Ð½Ðµ",
        -1.0
      ],
      [
        "ĠÐ¿ÑĢÐ¾",
        -1.0
      ],
      [
        "åĩ",
        -1.0
      ],
      [
        "åĪ°",
        -1.0
      ],
      [
        "ari",
        -1.0
      ],
      [
        "Ġkuwa",
        -1.0
      ],
      [
        "ĠÙĩØ°Ø§",
        -1.0
      ],
      [
        "à°¾à°¸",
        -1.0
      ],
      [
        "bo",
        -1.0
      ],
      [
        "ÙħØ©",
        -1.0
      ],
      [
        "enye",
        -1.0
      ],
      [
        "se",
        -1.0
      ],
      [
        "ÑģÐ¸",
        -1.0
      ],
      [
        "å¯",
        -1.0
      ],
      [
        "à¹Ģà¸Ĥ",
        -1.0
      ],
      [
        "ĠV",
        -1.0
      ],
      [
        "à±įà°¥",
        -1.0
      ],
      [
        "Ġà¤¶",
        -1.0
      ],
      [
        "ĠÂ«",
        -1.0
      ],
      [
        "Ġà¤ı",
        -1.0
      ],
      [
        "ĠÃ©",
        -1.0
      ],
      [
        "à¸±à¸Ķ",
        -1.0
      ],
      [
        "Ø¨Ø©",
        -1.0
      ],
      [
        "Ġor",
        -1.0
      ],
      [
        "Ø³ÙĬ",
        -1.0
      ],
      [
        "Ø±ÙĪ",
        -1.0
      ],
      [
        "ÙĦØ§Ùħ",
        -1.0
      ],
      [
        "æŃ",
        -1.0
      ],
      [
        "Ġthat",
        -1.0
      ],
      [
        "Ð¾Ð¿",
        -1.0
      ],
      [
        "æķ",
        -1.0
      ],
      [
        "ä¸Ĭ",
        -1.0
      ],
      [
        "Ġà°¹",
        -1.0
      ],
      [
        "à¥Īà¥¤",
        -1.0
      ],
      [
        "Ġyap",
        -1.0
      ],
      [
        "Ø±Ùĥ",
        -1.0
      ],
      [
        "ata",
        -1.0
      ],
      [
        "ard",
        -1.0
      ],
      [
        "Ġkut",
        -1.0
      ],
      [
        "Ð½Ð¾Ð¹",
        -1.0
      ],
      [
        "ĠØ¹ÙĦÙĬ",
        -1.0
      ],
      [
        "à¸ģà¸¥",
        -1.0
      ],
      [
        "à°¿à°®",
        -1.0
      ],
      [
        "lam",
        -1.0
      ],
      [
        "ĠÑĩÑĤÐ¾",
        -1.0
      ],
      [
        "ey",
        -1.0
      ],
      [
        "à±ĭà°¨",
        -1.0
      ],
      [
        "æĬ",
        -1.0
      ],
      [
        "ĠÐ¡",
        -1.0
      ],
      [
        "à¸Īà¸²à¸ģ",
        -1.0
      ],
      [
        "à¤¿à¤¤",
        -1.0
      ],
      [
        "ada",
        -1.0
      ],
      [
        "ä¾",
        -1.0
      ],
      [
        "Ø§Ùĩ",
        -1.0
      ],
      [
        "Ø£ÙĨ",
        -1.0
      ],
      [
        "Ġbu",
        -1.0
      ],
      [
        "à±ĩà°¶",
        -1.0
      ],
      [
        "Ġpour",
        -1.0
      ],
      [
        "Ð½ÑĭÑħ",
        -1.0
      ],
      [
        "ate",
        -1.0
      ],
      [
        "ah",
        -1.0
      ],
      [
        "Ġ.",
        -1.0
      ],
      [
        "à¹Ģà¸Ķ",
        -1.0
      ],
      [
        "ĠÐŁ",
        -1.0
      ],
      [
        "à¸¹à¹Ī",
        -1.0
      ],
      [
        "ement",
        -1.0
      ],
      [
        "Ø§Ø®",
        -1.0
      ],
      [
        "ÑĪÐ¸",
        -1.0
      ],
      [
        "th",
        -1.0
      ],
      [
        "dan",
        -1.0
      ],
      [
        "00",
        -1.0
      ],
      [
        "à°¿,",
        -1.0
      ],
      [
        "Ġà°Ĵà°ķ",
        -1.0
      ],
      [
        "ara",
        -1.0
      ],
      [
        "Ġwh",
        -1.0
      ],
      [
        "inde",
        -1.0
      ],
      [
        "à¹Ģà¸Ĺ",
        -1.0
      ],
      [
        "à¥įà¤Ł",
        -1.0
      ],
      [
        "ĠÐ¸Ð·",
        -1.0
      ],
      [
        "à¹ģà¸ķ",
        -1.0
      ],
      [
        "od",
        -1.0
      ],
      [
        "isha",
        -1.0
      ],
      [
        "11",
        -1.0
      ],
      [
        "à°Ń",
        -1.0
      ],
      [
        "æĶ",
        -1.0
      ],
      [
        "à¸±à¸§",
        -1.0
      ],
      [
        "Ġà°ı",
        -1.0
      ],
      [
        "ĠØ§ÙĦØ·",
        -1.0
      ],
      [
        "ema",
        -1.0
      ],
      [
        "?Ċ",
        -1.0
      ],
      [
        "æĢ",
        -1.0
      ],
      [
        "à¸ķà¸£",
        -1.0
      ],
      [
        "Ø±Ùģ",
        -1.0
      ],
      [
        "que",
        -1.0
      ],
      [
        "tu",
        -1.0
      ],
      [
        "ĠØº",
        -1.0
      ],
      [
        "à±ĥ",
        -1.0
      ],
      [
        "ÙħØ±",
        -1.0
      ],
      [
        "à°·",
        -1.0
      ],
      [
        "ht",
        -1.0
      ],
      [
        "èĩ",
        -1.0
      ],
      [
        "åĨ",
        -1.0
      ],
      [
        "Ġà¤ĩà¤¸",
        -1.0
      ],
      [
        "Ð½ÑĭÐµ",
        -1.0
      ],
      [
        "Ġà¹ģà¸¥à¸°",
        -1.0
      ],
      [
        "âĢľ",
        -1.0
      ],
      [
        "ÑģÐ¿",
        -1.0
      ],
      [
        "à¹Ģà¸¡",
        -1.0
      ],
      [
        "pr",
        -1.0
      ],
      [
        "ÑĥÑİ",
        -1.0
      ],
      [
        "à¹Ģà¸ª",
        -1.0
      ],
      [
        "ÐºÐ¾",
        -1.0
      ],
      [
        "ĠÅŁ",
        -1.0
      ],
      [
        "à±Ĩà°Ł",
        -1.0
      ],
      [
        "à¤¿à¤²",
        -1.0
      ],
      [
        "ĠÑĤÐ°",
        -1.0
      ],
      [
        "å¿",
        -1.0
      ],
      [
        "ÙĪÙĤ",
        -1.0
      ],
      [
        "à¤¾à¤¯",
        -1.0
      ],
      [
        "ÑģÐµ",
        -1.0
      ],
      [
        "è¦ģ",
        -1.0
      ],
      [
        "ĠÙĪÙĩ",
        -1.0
      ],
      [
        "ti",
        -1.0
      ],
      [
        "à¤¿à¤ı",
        -1.0
      ],
      [
        "éĿ",
        -1.0
      ],
      [
        "ĠÐ¶",
        -1.0
      ],
      [
        "çĶ¨",
        -1.0
      ],
      [
        "Â»",
        -1.0
      ],
      [
        "à±įà°¡",
        -1.0
      ],
      [
        "Ø§Ø¶",
        -1.0
      ],
      [
        "ka",
        -1.0
      ],
      [
        "ĠÙĩØ°Ùĩ",
        -1.0
      ],
      [
        "ÑģÑĤÐ¾",
        -1.0
      ],
      [
        "si",
        -1.0
      ],
      [
        "ele",
        -1.0
      ],
      [
        "ĠÙĪÙħ",
        -1.0
      ],
      [
        "Ä±nda",
        -1.0
      ],
      [
        "ÙĨÙĬ",
        -1.0
      ],
      [
        "ÑģÑĤÑĮ",
        -1.0
      ],
      [
        "Ð½Ð¾Ð³Ð¾",
        -1.0
      ],
      [
        "Ġwith",
        -1.0
      ],
      [
        "Ġhu",
        -1.0
      ],
      [
        "Ġil",
        -1.0
      ],
      [
        "ĠÑĤÐµ",
        -1.0
      ],
      [
        "ĠdÃ©",
        -1.0
      ],
      [
        "à¤¾à¤®",
        -1.0
      ],
      [
        "ÑĤÐµÐ»ÑĮ",
        -1.0
      ],
      [
        "à¸¶à¸ĩ",
        -1.0
      ],
      [
        "ÑģÐºÐ¸",
        -1.0
      ],
      [
        "ÙĤÙĬ",
        -1.0
      ],
      [
        "13",
        -1.0
      ],
      [
        "ÙĥØ±",
        -1.0
      ],
      [
        "Ġ,",
        -1.0
      ],
      [
        "Ġà¤¥",
        -1.0
      ],
      [
        "ĠÙĪÙĬ",
        -1.0
      ],
      [
        "ÙĪÙĬ",
        -1.0
      ],
      [
        "Ġsur",
        -1.0
      ],
      [
        "Ø¹ÙĦ",
        -1.0
      ],
      [
        "ĠÙĦÙħ",
        -1.0
      ],
      [
        "à±Ĥà°°",
        -1.0
      ],
      [
        "ĠÑĢÐµ",
        -1.0
      ],
      [
        "larÄ±",
        -1.0
      ],
      [
        "à¹Īà¸Ń",
        -1.0
      ],
      [
        "Ø¯Ø©",
        -1.0
      ],
      [
        "ÙĪØ¬",
        -1.0
      ],
      [
        "ua",
        -1.0
      ],
      [
        "Ġali",
        -1.0
      ],
      [
        "ÐµÑĢÐµ",
        -1.0
      ],
      [
        "yor",
        -1.0
      ],
      [
        "ĠÐ¿ÑĢÐµ",
        -1.0
      ],
      [
        "ĠâĢĵ",
        -1.0
      ],
      [
        "à¸łà¸²à¸",
        -1.0
      ],
      [
        "çľ",
        -1.0
      ],
      [
        "Ġà¸ª",
        -1.0
      ],
      [
        "à¸Ńà¸ļ",
        -1.0
      ],
      [
        "ÑīÐ¸",
        -1.0
      ],
      [
        "è§",
        -1.0
      ],
      [
        "à±Ģà°°",
        -1.0
      ],
      [
        "à¹ĥà¸Ĭ",
        -1.0
      ],
      [
        "à¥įà¤µ",
        -1.0
      ],
      [
        "ÙĥÙĦ",
        -1.0
      ],
      [
        "Ġus",
        -1.0
      ],
      [
        "à¹Īà¸ĩ",
        -1.0
      ],
      [
        "à¥Ģà¤Ĥ",
        -1.0
      ],
      [
        "eng",
        -1.0
      ],
      [
        "à±ĩà°°",
        -1.0
      ],
      [
        "iki",
        -1.0
      ],
      [
        "ĠÐºÐ¾",
        -1.0
      ],
      [
        "ĠÙĥÙĦ",
        -1.0
      ],
      [
        "Ø¯ÙĬ",
        -1.0
      ],
      [
        "ote",
        -1.0
      ],
      [
        "com",
        -1.0
      ],
      [
        "ĠØ§ÙĦØ°ÙĬ",
        -1.0
      ],
      [
        "à¸£à¸²à¸",
        -1.0
      ],
      [
        "à°¾à°²à°¨",
        -1.0
      ],
      [
        "Ġque",
        -1.0
      ],
      [
        "à¹īà¸²",
        -1.0
      ],
      [
        "ØªÙĬ",
        -1.0
      ],
      [
        "à¤¿à¤¸",
        -1.0
      ],
      [
        "à°¶",
        -1.0
      ],
      [
        "ÙĥÙĪÙĨ",
        -1.0
      ],
      [
        "ĠÑĦ",
        -1.0
      ],
      [
        "à¸´à¹Ī",
        -1.0
      ],
      [
        "èµ",
        -1.0
      ],
      [
        "ag",
        -1.0
      ],
      [
        "ØªØ±",
        -1.0
      ],
      [
        "Ã¼k",
        -1.0
      ],
      [
        "Ġà°«",
        -1.0
      ],
      [
        "lay",
        -1.0
      ],
      [
        "Ð»Ð¾",
        -1.0
      ],
      [
        "ux",
        -1.0
      ],
      [
        "Ġex",
        -1.0
      ],
      [
        "ä¹Ł",
        -1.0
      ],
      [
        "Ã©r",
        -1.0
      ],
      [
        "Ø®Ø±",
        -1.0
      ],
      [
        "æİ",
        -1.0
      ],
      [
        "à±įà°Ĺ",
        -1.0
      ],
      [
        "ite",
        -1.0
      ],
      [
        "....",
        -1.0
      ],
      [
        "eri",
        -1.0
      ],
      [
        "Ð½ÑĭÐ¹",
        -1.0
      ],
      [
        "Ġki",
        -1.0
      ],
      [
        "éĻ",
        -1.0
      ],
      [
        "ĠiÃ§in",
        -1.0
      ],
      [
        "ĠÄ°",
        -1.0
      ],
      [
        "ä¿",
        -1.0
      ],
      [
        "ÑģÑĮ",
        -1.0
      ],
      [
        "ci",
        -1.0
      ],
      [
        "å°±",
        -1.0
      ],
      [
        "Ġà¸Ĺ",
        -1.0
      ],
      [
        "Ġfa",
        -1.0
      ],
      [
        "è¿Ļ",
        -1.0
      ],
      [
        "åī",
        -1.0
      ],
      [
        "ĠØ«",
        -1.0
      ],
      [
        "art",
        -1.0
      ],
      [
        "à¤¾à¤Ĥ",
        -1.0
      ],
      [
        "ÐµÐ½Ð¸Ðµ",
        -1.0
      ],
      [
        "èĥ½",
        -1.0
      ],
      [
        "ÙİÙĳ",
        -1.0
      ],
      [
        "ĠÐ¿ÑĢ",
        -1.0
      ],
      [
        "à¹Ĥà¸Ķ",
        -1.0
      ],
      [
        "à±ĩà°ķ",
        -1.0
      ],
      [
        "Ø§ÙĦÙħ",
        -1.0
      ],
      [
        "Ġim",
        -1.0
      ],
      [
        "ati",
        -1.0
      ],
      [
        "æł",
        -1.0
      ],
      [
        "Ø¹Ø¨",
        -1.0
      ],
      [
        "à¸Ł",
        -1.0
      ],
      [
        "18",
        -1.0
      ],
      [
        "Ġpas",
        -1.0
      ],
      [
        "ea",
        -1.0
      ],
      [
        "à°¿à°·",
        -1.0
      ],
      [
        "åİ",
        -1.0
      ],
      [
        "Ġile",
        -1.0
      ],
      [
        "asÄ±",
        -1.0
      ],
      [
        "Ø¨ÙĦ",
        -1.0
      ],
      [
        "ĠØ¨ÙĨ",
        -1.0
      ],
      [
        "à¹Īà¸Ļ",
        -1.0
      ],
      [
        "Ġmo",
        -1.0
      ],
      [
        "ill",
        -1.0
      ],
      [
        "!Ċ",
        -1.0
      ],
      [
        "à¸Ńà¸¡",
        -1.0
      ],
      [
        "Ð°Ð½",
        -1.0
      ],
      [
        "Ġà°¡",
        -1.0
      ],
      [
        "Ð²Ð¾",
        -1.0
      ],
      [
        "æ²",
        -1.0
      ],
      [
        "Ġà°ªà°°",
        -1.0
      ],
      [
        "ina",
        -1.0
      ],
      [
        "),",
        -1.0
      ],
      [
        "esi",
        -1.0
      ],
      [
        "Ġdo",
        -1.0
      ],
      [
        "åĳ",
        -1.0
      ],
      [
        "Ø§Ø²",
        -1.0
      ],
      [
        "Ø³Ùħ",
        -1.0
      ],
      [
        "ĠÐ¿Ð¾Ð´",
        -1.0
      ],
      [
        "à°¿.Ċ",
        -1.0
      ],
      [
        "Ġak",
        -1.0
      ],
      [
        "å¹´",
        -1.0
      ],
      [
        "Ġest",
        -1.0
      ],
      [
        "Ġqui",
        -1.0
      ],
      [
        "Ġed",
        -1.0
      ],
      [
        "ĠÐĿ",
        -1.0
      ],
      [
        "ore",
        -1.0
      ],
      [
        "éĹ",
        -1.0
      ],
      [
        "ĠÐļ",
        -1.0
      ],
      [
        "mek",
        -1.0
      ],
      [
        "Ġà¤°à¤¹",
        -1.0
      ],
      [
        "wenye",
        -1.0
      ],
      [
        "aka",
        -1.0
      ],
      [
        "åĮ",
        -1.0
      ],
      [
        "leri",
        -1.0
      ],
      [
        "Ð°Ð¼",
        -1.0
      ],
      [
        "Ġune",
        -1.0
      ],
      [
        "é«",
        -1.0
      ],
      [
        "**",
        -1.0
      ],
      [
        "ĠØªØ¹",
        -1.0
      ],
      [
        "Ġfr",
        -1.0
      ],
      [
        "à¸¶à¹Ī",
        -1.0
      ],
      [
        "éĤ",
        -1.0
      ],
      [
        "ÙĪØ¹",
        -1.0
      ],
      [
        "æĥ",
        -1.0
      ],
      [
        "à¤§",
        -1.0
      ],
      [
        "ĠÑĢÐ°Ð·",
        -1.0
      ],
      [
        "à¹Ģà¸Ħ",
        -1.0
      ],
      [
        "Ð¶Ðµ",
        -1.0
      ],
      [
        "æĦ",
        -1.0
      ],
      [
        "ÄŁÄ±",
        -1.0
      ],
      [
        "æ³",
        -1.0
      ],
      [
        "Ġà¤ıà¤ķ",
        -1.0
      ],
      [
        "à¤¿à¤¨",
        -1.0
      ],
      [
        "à¹īà¸²à¸Ļ",
        -1.0
      ],
      [
        "à°¾à°ľ",
        -1.0
      ],
      [
        "ĠÙĪØ§ÙĦÙħ",
        -1.0
      ],
      [
        "à±Ĭà°¨",
        -1.0
      ],
      [
        "ÙĢÙĢ",
        -1.0
      ],
      [
        "15",
        -1.0
      ],
      [
        "à±ģ.Ċ",
        -1.0
      ],
      [
        "à¸ĩà¸²à¸Ļ",
        -1.0
      ],
      [
        "ØŃÙĬ",
        -1.0
      ],
      [
        "lu",
        -1.0
      ],
      [
        "ÙĨØ³",
        -1.0
      ],
      [
        "Ø¯Ø±",
        -1.0
      ],
      [
        "asi",
        -1.0
      ],
      [
        "à¸²à¸§",
        -1.0
      ],
      [
        "âĢ¦",
        -1.0
      ],
      [
        "à¤Ī",
        -1.0
      ],
      [
        "ure",
        -1.0
      ],
      [
        "à¹Īà¸²à¸Ļ",
        -1.0
      ],
      [
        "Ġà°īà°¨",
        -1.0
      ],
      [
        "lus",
        -1.0
      ],
      [
        "Ã¼m",
        -1.0
      ],
      [
        "|Ċ",
        -1.0
      ],
      [
        "ØªØ¨",
        -1.0
      ],
      [
        "ÑİÑĤ",
        -1.0
      ],
      [
        "Ġà¤«",
        -1.0
      ],
      [
        "à¸±à¹Ī",
        -1.0
      ],
      [
        "ÙģØ³",
        -1.0
      ],
      [
        "Ø´Ø±",
        -1.0
      ],
      [
        "à¸´à¸ķ",
        -1.0
      ],
      [
        "Ġà°Ł",
        -1.0
      ],
      [
        "Ġsh",
        -1.0
      ],
      [
        "ii",
        -1.0
      ],
      [
        "à¸Ńà¸£",
        -1.0
      ],
      [
        "ĠÑı",
        -1.0
      ],
      [
        "Ġtr",
        -1.0
      ],
      [
        "ä¼ļ",
        -1.0
      ],
      [
        "ä»¬",
        -1.0
      ],
      [
        "à¹Ģà¸§",
        -1.0
      ],
      [
        "Ð¿Ð°",
        -1.0
      ],
      [
        "å½",
        -1.0
      ],
      [
        "mak",
        -1.0
      ],
      [
        "ØµÙĦ",
        -1.0
      ],
      [
        "Ġha",
        -1.0
      ],
      [
        "à±Ĩà°¨",
        -1.0
      ],
      [
        "ç«",
        -1.0
      ],
      [
        "ÙĬØ¹",
        -1.0
      ],
      [
        "à±ĩà°µ",
        -1.0
      ],
      [
        "Ġà¸ģ",
        -1.0
      ],
      [
        "ÙĥØ§ÙĨ",
        -1.0
      ],
      [
        "Ġkama",
        -1.0
      ],
      [
        "ä¸ĭ",
        -1.0
      ],
      [
        "å±",
        -1.0
      ],
      [
        "Ð¼Ðµ",
        -1.0
      ],
      [
        "Ġad",
        -1.0
      ],
      [
        "Ã©e",
        -1.0
      ],
      [
        "à°¿à°¦",
        -1.0
      ],
      [
        "çĤ",
        -1.0
      ],
      [
        "æĻ",
        -1.0
      ],
      [
        "Ġà°¸à°®",
        -1.0
      ],
      [
        "Ġcha",
        -1.0
      ],
      [
        "à¹Ĥà¸Ķà¸¢",
        -1.0
      ],
      [
        "à¤¾à¤¦",
        -1.0
      ],
      [
        "çĶŁ",
        -1.0
      ],
      [
        "à±Ģà°¸",
        -1.0
      ],
      [
        "à±įà°³",
        -1.0
      ],
      [
        "Ø§Ø¯Ø©",
        -1.0
      ],
      [
        "ish",
        -1.0
      ],
      [
        "à¸Ńà¸²à¸",
        -1.0
      ],
      [
        "ĠÙĪØ£",
        -1.0
      ],
      [
        "ff",
        -1.0
      ],
      [
        "à°¾à°ª",
        -1.0
      ],
      [
        "Ġili",
        -1.0
      ],
      [
        "à¹īà¸Ļ",
        -1.0
      ],
      [
        "à¤¶",
        -1.0
      ],
      [
        "à¹Ģà¸Ĭ",
        -1.0
      ],
      [
        "æ°",
        -1.0
      ],
      [
        "à¸Ħà¸Ļ",
        -1.0
      ],
      [
        "à¸¸à¸Ķ",
        -1.0
      ],
      [
        "pe",
        -1.0
      ],
      [
        "ÐµÑĤÑģÑı",
        -1.0
      ],
      [
        "Ð¼ÐµÐ½",
        -1.0
      ],
      [
        "æ¯",
        -1.0
      ],
      [
        "Ġdans",
        -1.0
      ],
      [
        "à±ĩà°¯",
        -1.0
      ],
      [
        "ÑĪÐµ",
        -1.0
      ],
      [
        "åĩº",
        -1.0
      ],
      [
        "iri",
        -1.0
      ],
      [
        "à¹īà¸§à¸¢",
        -1.0
      ],
      [
        "fan",
        -1.0
      ],
      [
        "||",
        -1.0
      ],
      [
        "tr",
        -1.0
      ],
      [
        "à¤¾à¤¹",
        -1.0
      ],
      [
        "ug",
        -1.0
      ],
      [
        "ĠÙħØŃ",
        -1.0
      ],
      [
        "ÙĥÙħ",
        -1.0
      ],
      [
        "çİ",
        -1.0
      ],
      [
        "ÑħÐ¾Ð´",
        -1.0
      ],
      [
        "Ø¯Ùħ",
        -1.0
      ],
      [
        "ĠØ°ÙĦÙĥ",
        -1.0
      ],
      [
        "ÙĦÙģ",
        -1.0
      ],
      [
        "Ġwas",
        -1.0
      ],
      [
        "à¥įà¤®",
        -1.0
      ],
      [
        "à¤£",
        -1.0
      ],
      [
        "Ø³Ø¨",
        -1.0
      ],
      [
        "ens",
        -1.0
      ],
      [
        "Ġà¤¨à¤¹",
        -1.0
      ],
      [
        "à±ĩà°¨",
        -1.0
      ],
      [
        "à¸¹à¸ģ",
        -1.0
      ],
      [
        "à±Ĭà°Ĥ",
        -1.0
      ],
      [
        "Ø§Ø©",
        -1.0
      ],
      [
        "ĠØ¨ÙĬÙĨ",
        -1.0
      ],
      [
        "aya",
        -1.0
      ],
      [
        "uÅŁ",
        -1.0
      ],
      [
        "à±įà°§",
        -1.0
      ],
      [
        "Ġà¸¡",
        -1.0
      ],
      [
        "ĠÐ´Ð»Ñı",
        -1.0
      ],
      [
        "è¨",
        -1.0
      ],
      [
        "ĠÐºÐ¾ÑĤÐ¾",
        -1.0
      ],
      [
        "]Ċ",
        -1.0
      ],
      [
        "Ð´Ñĥ",
        -1.0
      ],
      [
        "åľ°",
        -1.0
      ],
      [
        "ÙģØ±",
        -1.0
      ],
      [
        "les",
        -1.0
      ],
      [
        "Ġà¤ĸ",
        -1.0
      ],
      [
        "å¤ļ",
        -1.0
      ],
      [
        "urs",
        -1.0
      ],
      [
        "ilir",
        -1.0
      ],
      [
        "ction",
        -1.0
      ],
      [
        "alar",
        -1.0
      ],
      [
        "uz",
        -1.0
      ],
      [
        "éĽ",
        -1.0
      ],
      [
        "ÙĬØ³",
        -1.0
      ],
      [
        "à¤Ń",
        -1.0
      ],
      [
        "Ð¡",
        -1.0
      ],
      [
        "ive",
        -1.0
      ],
      [
        "Ð²Ðµ",
        -1.0
      ],
      [
        "ç§",
        -1.0
      ],
      [
        "ÙĤÙĦ",
        -1.0
      ],
      [
        "à¤ªà¤¨",
        -1.0
      ],
      [
        "Ġser",
        -1.0
      ],
      [
        "ÐºÑĥ",
        -1.0
      ],
      [
        "isi",
        -1.0
      ],
      [
        "Ġge",
        -1.0
      ],
      [
        "ä¸ª",
        -1.0
      ],
      [
        "ep",
        -1.0
      ],
      [
        "ä¸º",
        -1.0
      ],
      [
        "ĠIn",
        -1.0
      ],
      [
        "ÑīÐµ",
        -1.0
      ],
      [
        "ĠÐ¿Ð¾Ð»",
        -1.0
      ],
      [
        "à±Ĩà°°",
        -1.0
      ],
      [
        "ĠÐŀ",
        -1.0
      ],
      [
        "elle",
        -1.0
      ],
      [
        "ong",
        -1.0
      ],
      [
        "Ø¬Ùħ",
        -1.0
      ],
      [
        "Ð»Ñĥ",
        -1.0
      ],
      [
        "Ø¥ÙĨ",
        -1.0
      ],
      [
        "tir",
        -1.0
      ],
      [
        "ĠØ§ÙĦÙħÙĨ",
        -1.0
      ],
      [
        "æĭ",
        -1.0
      ],
      [
        "Ġà¤īà¤¸",
        -1.0
      ],
      [
        "çĲ",
        -1.0
      ],
      [
        "ĊĊ",
        -1.0
      ],
      [
        "ÙĪØ¨",
        -1.0
      ],
      [
        "ĠÙĩÙĪ",
        -1.0
      ],
      [
        "zo",
        -1.0
      ],
      [
        "å¦",
        -1.0
      ],
      [
        "æŀ",
        -1.0
      ],
      [
        "ĠThe",
        -1.0
      ],
      [
        "ĠÙĬØ¹",
        -1.0
      ],
      [
        "ÐĴ",
        -1.0
      ],
      [
        "uli",
        -1.0
      ],
      [
        "Ġso",
        -1.0
      ],
      [
        "à¥įà¤·",
        -1.0
      ],
      [
        "ilm",
        -1.0
      ],
      [
        "eb",
        -1.0
      ],
      [
        "ĠÑģÐ¾",
        -1.0
      ],
      [
        "Ø§ÙĨÙĬ",
        -1.0
      ],
      [
        "à¸ļà¸ļ",
        -1.0
      ],
      [
        "Ð³Ð°",
        -1.0
      ],
      [
        "à±Ĩà°ª",
        -1.0
      ],
      [
        "Ø¹Ø¶",
        -1.0
      ],
      [
        "ĠØ§ÙĦÙħØª",
        -1.0
      ],
      [
        ").",
        -1.0
      ],
      [
        "çĦ",
        -1.0
      ],
      [
        "ons",
        -1.0
      ],
      [
        "ĠÐºÐ°Ðº",
        -1.0
      ],
      [
        "Ø§Ø±Ø©",
        -1.0
      ],
      [
        "à±ĭà°µ",
        -1.0
      ],
      [
        "à¸Ĺà¸²à¸ĩ",
        -1.0
      ],
      [
        "à¸«à¸¡",
        -1.0
      ],
      [
        "ï¼ļ",
        -1.0
      ],
      [
        "à±Ģà°²",
        -1.0
      ],
      [
        "Ġver",
        -1.0
      ],
      [
        "ĠÐ¼Ð°",
        -1.0
      ],
      [
        "Ø§Ø´",
        -1.0
      ],
      [
        "Ġà°ħà°µ",
        -1.0
      ],
      [
        "ĠØ§ÙĦÙĦ",
        -1.0
      ],
      [
        "Ġyou",
        -1.0
      ],
      [
        "tÃ©",
        -1.0
      ],
      [
        "à¸£à¸£à¸¡",
        -1.0
      ],
      [
        "Ä±nÄ±",
        -1.0
      ],
      [
        "Ġà°ķà°²",
        -1.0
      ],
      [
        "ĠÐľ",
        -1.0
      ],
      [
        "Ñĳ",
        -1.0
      ],
      [
        "à±ĭà°Ĺ",
        -1.0
      ],
      [
        "man",
        -1.0
      ],
      [
        "ÙĦØ§ÙĦ",
        -1.0
      ],
      [
        "Ġme",
        -1.0
      ],
      [
        "ĠÙĪØ¨",
        -1.0
      ],
      [
        "Ġkar",
        -1.0
      ],
      [
        "Ġwak",
        -1.0
      ],
      [
        "ĠAn",
        -1.0
      ],
      [
        "è¡Į",
        -1.0
      ],
      [
        "aki",
        -1.0
      ],
      [
        "åĽ½",
        -1.0
      ],
      [
        "Ġà¸Ļ",
        -1.0
      ],
      [
        "à±Į",
        -1.0
      ],
      [
        "à¹Ģà¸Ī",
        -1.0
      ],
      [
        "Ðŀ",
        -1.0
      ],
      [
        "à¹Ģà¸Ļ",
        -1.0
      ],
      [
        "ĠAl",
        -1.0
      ],
      [
        "Ġsu",
        -1.0
      ],
      [
        "Ġnot",
        -1.0
      ],
      [
        "Ä±s",
        -1.0
      ],
      [
        "à¤¾à¤¸",
        -1.0
      ],
      [
        "à¥įà¤²",
        -1.0
      ],
      [
        "Ġcomp",
        -1.0
      ],
      [
        "à¸ªà¸¡",
        -1.0
      ],
      [
        "ÙĨØ©",
        -1.0
      ],
      [
        "çļĦè",
        -1.0
      ],
      [
        "à±ģà°¸",
        -1.0
      ],
      [
        "å¥³",
        -1.0
      ],
      [
        "ĠÑģÑĤ",
        -1.0
      ],
      [
        "à°Ĥà°ª",
        -1.0
      ],
      [
        "Ġce",
        -1.0
      ],
      [
        "à¹ĥà¸Ī",
        -1.0
      ],
      [
        "à±įà°°à°®",
        -1.0
      ],
      [
        "à¤¿à¤°",
        -1.0
      ],
      [
        "Ġhas",
        -1.0
      ],
      [
        "Ð½Ð¸Ñı",
        -1.0
      ],
      [
        "Ġare",
        -1.0
      ],
      [
        "æĽ",
        -1.0
      ],
      [
        "ĠØªØŃ",
        -1.0
      ],
      [
        "Ġamb",
        -1.0
      ],
      [
        "Ġ)",
        -1.0
      ],
      [
        "à°¾à°§",
        -1.0
      ],
      [
        "æı",
        -1.0
      ],
      [
        "fu",
        -1.0
      ],
      [
        "ĠbaÅŁ",
        -1.0
      ],
      [
        "Ø¹Ùħ",
        -1.0
      ],
      [
        "æĪĲ",
        -1.0
      ],
      [
        "inin",
        -1.0
      ],
      [
        "à¹īà¸²à¸ĩ",
        -1.0
      ],
      [
        "ä½ľ",
        -1.0
      ],
      [
        "ca",
        -1.0
      ],
      [
        "ond",
        -1.0
      ],
      [
        "æ¬",
        -1.0
      ],
      [
        "30",
        -1.0
      ],
      [
        "æĿ¥",
        -1.0
      ],
      [
        "ĠÙĦÙĩ",
        -1.0
      ],
      [
        "å®¶",
        -1.0
      ],
      [
        "dÄ±",
        -1.0
      ],
      [
        "Ð½Ñĥ",
        -1.0
      ],
      [
        "25",
        -1.0
      ],
      [
        "ÑĤÑĭ",
        -1.0
      ],
      [
        "çļĦç",
        -1.0
      ],
      [
        "Ð³Ð¸",
        -1.0
      ],
      [
        "à±Ģà°ķ",
        -1.0
      ],
      [
        "mba",
        -1.0
      ],
      [
        "ont",
        -1.0
      ],
      [
        "ÐŁ",
        -1.0
      ],
      [
        "à°¿à°Ł",
        -1.0
      ],
      [
        "ĠÑħ",
        -1.0
      ],
      [
        "Ġà¤¯à¤¹",
        -1.0
      ],
      [
        "à±į,",
        -1.0
      ],
      [
        "ÙĪØ³",
        -1.0
      ],
      [
        "Ġhav",
        -1.0
      ],
      [
        "ĠØ£ÙĬ",
        -1.0
      ],
      [
        "ĠrÃ©",
        -1.0
      ],
      [
        "ĠÐ»Ð¸",
        -1.0
      ],
      [
        "à±Ģà°¨",
        -1.0
      ],
      [
        "ĠØ§ÙĦÙħØ¹",
        -1.0
      ],
      [
        "à¸¥à¸ĩ",
        -1.0
      ],
      [
        "à±ģà°¦",
        -1.0
      ],
      [
        "fa",
        -1.0
      ],
      [
        "oy",
        -1.0
      ],
      [
        "eni",
        -1.0
      ],
      [
        "ĠØ§Ø³Øª",
        -1.0
      ],
      [
        "ÙĬØ§Øª",
        -1.0
      ],
      [
        "ÙĦØ¨",
        -1.0
      ],
      [
        "à¸ģà¸£",
        -1.0
      ],
      [
        "tÄ±r",
        -1.0
      ],
      [
        "èĩª",
        -1.0
      ],
      [
        "åģ",
        -1.0
      ],
      [
        "Ġà¤īà¤¨",
        -1.0
      ],
      [
        "Ø±Ø¶",
        -1.0
      ],
      [
        "à¥ĩà¤¶",
        -1.0
      ],
      [
        "çķ",
        -1.0
      ],
      [
        "14",
        -1.0
      ],
      [
        "ĠÑĤÐ°Ðº",
        -1.0
      ],
      [
        "ÙĬÙģ",
        -1.0
      ],
      [
        "ØªØ§Ø¨",
        -1.0
      ],
      [
        "Ġmw",
        -1.0
      ],
      [
        "à¸¶à¹ī",
        -1.0
      ],
      [
        "à¥Į",
        -1.0
      ],
      [
        "po",
        -1.0
      ],
      [
        "à±ĭà°²",
        -1.0
      ],
      [
        "à¸¸à¸ĵ",
        -1.0
      ],
      [
        "å°ĳ",
        -1.0
      ],
      [
        "åĵ",
        -1.0
      ],
      [
        "Ġbi",
        -1.0
      ],
      [
        "à¥įà¤¥",
        -1.0
      ],
      [
        "ĠØ¥ÙĨ",
        -1.0
      ],
      [
        "Ø§Ø«",
        -1.0
      ],
      [
        "ĠÙĬØª",
        -1.0
      ],
      [
        "æµ",
        -1.0
      ],
      [
        "à°Ĥà°ļ",
        -1.0
      ],
      [
        "ÑģÐ°",
        -1.0
      ],
      [
        "Ġyake",
        -1.0
      ],
      [
        "und",
        -1.0
      ],
      [
        "ich",
        -1.0
      ],
      [
        "Ġby",
        -1.0
      ],
      [
        "à¸·à¹ī",
        -1.0
      ],
      [
        "ais",
        -1.0
      ],
      [
        "uu",
        -1.0
      ],
      [
        "à±ģà°ª",
        -1.0
      ],
      [
        "à¥ĭà¤Ĺ",
        -1.0
      ],
      [
        "ayo",
        -1.0
      ],
      [
        "Ð½Ñı",
        -1.0
      ],
      [
        "ä½ł",
        -1.0
      ],
      [
        "à¸ļà¸£",
        -1.0
      ],
      [
        "una",
        -1.0
      ],
      [
        "Ġà¸ŀ",
        -1.0
      ],
      [
        "æĸ¹",
        -1.0
      ],
      [
        "ung",
        -1.0
      ],
      [
        "Ġay",
        -1.0
      ],
      [
        "ÙĩØ±",
        -1.0
      ],
      [
        "å¾Ĺ",
        -1.0
      ],
      [
        "ĠÐĺ",
        -1.0
      ],
      [
        "larak",
        -1.0
      ],
      [
        "à¸±à¸¢",
        -1.0
      ],
      [
        "à±ĭà°°",
        -1.0
      ],
      [
        "sh",
        -1.0
      ],
      [
        "ĠØ²",
        -1.0
      ],
      [
        "res",
        -1.0
      ],
      [
        "ungu",
        -1.0
      ],
      [
        "ĠØ§ÙĦÙī",
        -1.0
      ],
      [
        "Ã¼l",
        -1.0
      ],
      [
        "Ø¬ÙĦ",
        -1.0
      ],
      [
        "à¤¾à¥¤",
        -1.0
      ],
      [
        "ĠÐ¢",
        -1.0
      ],
      [
        "ĠÐĲ",
        -1.0
      ],
      [
        "à¸±à¸į",
        -1.0
      ],
      [
        "pp",
        -1.0
      ],
      [
        "ĠØ§ÙĦØ«",
        -1.0
      ],
      [
        "ust",
        -1.0
      ],
      [
        "ÙħØ¯",
        -1.0
      ],
      [
        "Ø¨Ø¯",
        -1.0
      ],
      [
        "çº",
        -1.0
      ],
      [
        "!!",
        -1.0
      ],
      [
        "ØŃØ©",
        -1.0
      ],
      [
        "ÙĤØ±",
        -1.0
      ],
      [
        "à±įà°°à°¤",
        -1.0
      ],
      [
        "Ø¡",
        -1.0
      ],
      [
        "éĥ½",
        -1.0
      ],
      [
        "Ġwe",
        -1.0
      ],
      [
        "èĢĮ",
        -1.0
      ],
      [
        "Ġ'",
        -1.0
      ],
      [
        "Ð½Ð¾Ð²",
        -1.0
      ],
      [
        "int",
        -1.0
      ],
      [
        "ĠÑįÑĤÐ¾",
        -1.0
      ],
      [
        "à¸łà¸²à¸ŀ",
        -1.0
      ],
      [
        "à°¾à°¬",
        -1.0
      ],
      [
        "Ġà°¤à°¨",
        -1.0
      ],
      [
        "Ġà¸Ħ",
        -1.0
      ],
      [
        "den",
        -1.0
      ],
      [
        "à¸Ľà¸£",
        -1.0
      ],
      [
        "æīĢ",
        -1.0
      ],
      [
        "à¹Ģà¸ķ",
        -1.0
      ],
      [
        "Ð°ÑĢ",
        -1.0
      ],
      [
        "à¸¸à¸ģ",
        -1.0
      ],
      [
        "iwa",
        -1.0
      ],
      [
        "ost",
        -1.0
      ],
      [
        "ence",
        -1.0
      ],
      [
        "ĠØ§ÙĦÙħØ³",
        -1.0
      ],
      [
        "à¸Ńà¸Ķ",
        -1.0
      ],
      [
        "cr",
        -1.0
      ],
      [
        "à¤¾à¤ľ",
        -1.0
      ],
      [
        "à°¾à°£",
        -1.0
      ],
      [
        "ark",
        -1.0
      ],
      [
        "à¸Ĳ",
        -1.0
      ],
      [
        "ime",
        -1.0
      ],
      [
        "âĢĶ",
        -1.0
      ],
      [
        "azi",
        -1.0
      ],
      [
        "Ġut",
        -1.0
      ],
      [
        "Ġà¤¸à¤®",
        -1.0
      ],
      [
        "Ð¸Ð·",
        -1.0
      ],
      [
        "æĮ",
        -1.0
      ],
      [
        "à¸¡à¸²à¸ģ",
        -1.0
      ],
      [
        "à¸¶à¸ģ",
        -1.0
      ],
      [
        "emb",
        -1.0
      ],
      [
        "for",
        -1.0
      ],
      [
        "ĠÐ²ÑģÐµ",
        -1.0
      ],
      [
        "iler",
        -1.0
      ],
      [
        "à±ĭà°¯",
        -1.0
      ],
      [
        "Ø°ÙĦÙĥ",
        -1.0
      ],
      [
        "ÙĪØ¶",
        -1.0
      ],
      [
        "ĠÐ¼Ðµ",
        -1.0
      ],
      [
        "à°¿à°ļ",
        -1.0
      ],
      [
        "ano",
        -1.0
      ],
      [
        "Ä±na",
        -1.0
      ],
      [
        "ev",
        -1.0
      ],
      [
        "Ġplus",
        -1.0
      ],
      [
        "ita",
        -1.0
      ],
      [
        "èĤ",
        -1.0
      ],
      [
        "oni",
        -1.0
      ],
      [
        "ØªØµ",
        -1.0
      ],
      [
        "çĻ",
        -1.0
      ],
      [
        "Ø¢",
        -1.0
      ],
      [
        "ance",
        -1.0
      ],
      [
        "amb",
        -1.0
      ],
      [
        "ĠØ§Ø¨",
        -1.0
      ],
      [
        "Ġup",
        -1.0
      ],
      [
        "Ð¸ÑĤ",
        -1.0
      ],
      [
        "à¸¸à¹Ī",
        -1.0
      ],
      [
        "ĠØ¶",
        -1.0
      ],
      [
        "åŃ¦",
        -1.0
      ],
      [
        ".com",
        -1.0
      ],
      [
        "à¸²à¸ª",
        -1.0
      ],
      [
        "ri",
        -1.0
      ],
      [
        "åĭ",
        -1.0
      ],
      [
        "ÙĤØ§ÙĦ",
        -1.0
      ],
      [
        "ud",
        -1.0
      ],
      [
        "Ø¯ÙĬØ¯",
        -1.0
      ],
      [
        "ÐĿ",
        -1.0
      ],
      [
        "ĠØ¹ÙĦÙĬÙĩ",
        -1.0
      ],
      [
        "aÅŁ",
        -1.0
      ],
      [
        "tre",
        -1.0
      ],
      [
        "ume",
        -1.0
      ],
      [
        "ÙĬØ±Ø©",
        -1.0
      ],
      [
        "lÄ±k",
        -1.0
      ],
      [
        "æĹ¶",
        -1.0
      ],
      [
        "ice",
        -1.0
      ],
      [
        "Ã¶n",
        -1.0
      ],
      [
        "Ø«Ø±",
        -1.0
      ],
      [
        "Ø®Øµ",
        -1.0
      ],
      [
        "oja",
        -1.0
      ],
      [
        "éĸ",
        -1.0
      ],
      [
        "ÑĤÐ¾Ð¼",
        -1.0
      ],
      [
        "à¥Ĥà¤°",
        -1.0
      ],
      [
        "Ġmu",
        -1.0
      ],
      [
        "sa",
        -1.0
      ],
      [
        "à¸Ĺà¸¢",
        -1.0
      ],
      [
        "è´",
        -1.0
      ],
      [
        "ÑĢÐ¾Ð²",
        -1.0
      ],
      [
        "ĠØ¨Ø¹Ø¯",
        -1.0
      ],
      [
        "Ġwana",
        -1.0
      ],
      [
        "Ġà¤ħà¤ªà¤¨",
        -1.0
      ],
      [
        "ĠiÅŁ",
        -1.0
      ],
      [
        "ØŁ",
        -1.0
      ],
      [
        "éł",
        -1.0
      ],
      [
        "Ġà¤ķà¤°à¤¨",
        -1.0
      ],
      [
        "ĠÐĶ",
        -1.0
      ],
      [
        "16",
        -1.0
      ],
      [
        "Ð»ÐµÐ½",
        -1.0
      ],
      [
        "ÑĨÐ¸Ð¸",
        -1.0
      ],
      [
        "ck",
        -1.0
      ],
      [
        "iniz",
        -1.0
      ],
      [
        "Ġhe",
        -1.0
      ],
      [
        "ç¨",
        -1.0
      ],
      [
        "ÄŁi",
        -1.0
      ],
      [
        "é¡",
        -1.0
      ],
      [
        "à±ĭà°¸",
        -1.0
      ],
      [
        "ÐºÐ¾Ð²",
        -1.0
      ],
      [
        "ĠCh",
        -1.0
      ],
      [
        "'s",
        -1.0
      ],
      [
        "à¸²à¸Ķ",
        -1.0
      ],
      [
        "Ãª",
        -1.0
      ],
      [
        "Ð¸Ð¼",
        -1.0
      ],
      [
        "Ġmat",
        -1.0
      ],
      [
        "ÙĪØ±Ø©",
        -1.0
      ],
      [
        "ions",
        -1.0
      ],
      [
        "ĠØ¢",
        -1.0
      ],
      [
        "Ġres",
        -1.0
      ],
      [
        "ations",
        -1.0
      ],
      [
        "ale",
        -1.0
      ],
      [
        "å¦Ĥ",
        -1.0
      ],
      [
        "à¹īà¸³",
        -1.0
      ],
      [
        "ĠØ§ÙĪ",
        -1.0
      ],
      [
        "Ġher",
        -1.0
      ],
      [
        "Ã¼ÅŁ",
        -1.0
      ],
      [
        "Ġsi",
        -1.0
      ],
      [
        "Ġpe",
        -1.0
      ],
      [
        "ĠÐ¸Ð½",
        -1.0
      ],
      [
        "ĠÙĪØ¬",
        -1.0
      ],
      [
        "Ġolarak",
        -1.0
      ],
      [
        "Ġà¸ķ",
        -1.0
      ],
      [
        "ame",
        -1.0
      ],
      [
        "Ġà°ħà°¯",
        -1.0
      ],
      [
        "Ġà¤ķà¤¹",
        -1.0
      ],
      [
        "à±Ĩà°ķ",
        -1.0
      ],
      [
        "ĠÃ¶n",
        -1.0
      ],
      [
        "Ø«ÙĦ",
        -1.0
      ],
      [
        "ue",
        -1.0
      ],
      [
        "à¥ĩà¤ķ",
        -1.0
      ],
      [
        "à¸µà¸ģ",
        -1.0
      ],
      [
        "tÄ±",
        -1.0
      ],
      [
        "ins",
        -1.0
      ],
      [
        "å¥½",
        -1.0
      ],
      [
        "à¤«",
        -1.0
      ],
      [
        "Ġkul",
        -1.0
      ],
      [
        "all",
        -1.0
      ],
      [
        "amp",
        -1.0
      ],
      [
        "èĪ",
        -1.0
      ],
      [
        "ob",
        -1.0
      ],
      [
        "Ø§ÙĦÙĬ",
        -1.0
      ],
      [
        "à¤¾à¤µ",
        -1.0
      ],
      [
        "à¸ľà¸¥",
        -1.0
      ],
      [
        "ÙĨØ¯",
        -1.0
      ],
      [
        "ĠÐ´Ðµ",
        -1.0
      ],
      [
        "è·",
        -1.0
      ],
      [
        "Ġco",
        -1.0
      ],
      [
        "à¥ī",
        -1.0
      ],
      [
        "ai",
        -1.0
      ],
      [
        "ÑĨÐµ",
        -1.0
      ],
      [
        "ĠÐ¿ÑĢÐµÐ´",
        -1.0
      ],
      [
        "Ġav",
        -1.0
      ],
      [
        "eler",
        -1.0
      ],
      [
        "à¥įà¤¸",
        -1.0
      ],
      [
        "ĠÐ´Ð¾",
        -1.0
      ],
      [
        "à±Ĭà°ķ",
        -1.0
      ],
      [
        "Ð¿Ð¸",
        -1.0
      ],
      [
        "à¤ı",
        -1.0
      ],
      [
        "Ġfrom",
        -1.0
      ],
      [
        "ç´",
        -1.0
      ],
      [
        "ç½",
        -1.0
      ],
      [
        "ÙĤØª",
        -1.0
      ],
      [
        "à±ĭà°Ł",
        -1.0
      ],
      [
        "å°ı",
        -1.0
      ],
      [
        "ĠÙĤØ¯",
        -1.0
      ],
      [
        "ÐĲ",
        -1.0
      ],
      [
        "æ´",
        -1.0
      ],
      [
        "ØªÙī",
        -1.0
      ],
      [
        "Ð½ÑĭÐ¼",
        -1.0
      ],
      [
        "Ðĺ",
        -1.0
      ],
      [
        "åŃĲ",
        -1.0
      ],
      [
        "æľĢ",
        -1.0
      ],
      [
        "Ġkwamba",
        -1.0
      ],
      [
        "Ġà¸£",
        -1.0
      ],
      [
        "Ġthis",
        -1.0
      ],
      [
        "ĠØ§ÙĦØº",
        -1.0
      ],
      [
        "à¸±à¸ķ",
        -1.0
      ],
      [
        "Ġpo",
        -1.0
      ],
      [
        "Ġà°µà°ļ",
        -1.0
      ],
      [
        "ĠÑĤÐ¾",
        -1.0
      ],
      [
        "ĠØ§ÙĦÙħØ±",
        -1.0
      ],
      [
        "à¹Īà¸²à¸¢",
        -1.0
      ],
      [
        "Ð±Ð¾",
        -1.0
      ],
      [
        "ÐµÐº",
        -1.0
      ],
      [
        "à°µà°°",
        -1.0
      ],
      [
        "à¸²à¸£à¸ĸ",
        -1.0
      ],
      [
        "å¾Ī",
        -1.0
      ],
      [
        "ÑĤÑĮÑģÑı",
        -1.0
      ],
      [
        "ĠØ¨Ùĩ",
        -1.0
      ],
      [
        "Ġny",
        -1.0
      ],
      [
        "Ø§Ùĥ",
        -1.0
      ],
      [
        "Ġcan",
        -1.0
      ],
      [
        "à¸²à¸Ĺ",
        -1.0
      ],
      [
        "Ġà°®à°¨",
        -1.0
      ],
      [
        "à¸µà¸¢à¸Ļ",
        -1.0
      ],
      [
        "à¸´à¸ģ",
        -1.0
      ],
      [
        "are",
        -1.0
      ],
      [
        "çŃ",
        -1.0
      ],
      [
        "Ø·Ø©",
        -1.0
      ],
      [
        "----",
        -1.0
      ],
      [
        "che",
        -1.0
      ],
      [
        "iss",
        -1.0
      ],
      [
        "ord",
        -1.0
      ],
      [
        "adi",
        -1.0
      ],
      [
        "ÙĪØª",
        -1.0
      ],
      [
        "à¸´à¸ĩ",
        -1.0
      ],
      [
        "à±Ģà°µ",
        -1.0
      ],
      [
        "Ð¶Ð°",
        -1.0
      ],
      [
        "ĠÑģÑĤÐ°",
        -1.0
      ],
      [
        "ĠÃ§ok",
        -1.0
      ],
      [
        "ĠÐ¼Ð¾Ð¶",
        -1.0
      ],
      [
        "Ð½Ð°Ñı",
        -1.0
      ],
      [
        "à°¿à°ľ",
        -1.0
      ],
      [
        "ä¹ĭ",
        -1.0
      ],
      [
        "Ġà¸Ń",
        -1.0
      ],
      [
        "à°¿à°¶",
        -1.0
      ],
      [
        "à¸´à¸¡",
        -1.0
      ],
      [
        "à¸§à¸ģ",
        -1.0
      ],
      [
        "Ġje",
        -1.0
      ],
      [
        "ÙĪÙģ",
        -1.0
      ],
      [
        "à°ħ",
        -1.0
      ],
      [
        "çľĭ",
        -1.0
      ],
      [
        "éĿ¢",
        -1.0
      ],
      [
        "à¥ģà¤°",
        -1.0
      ],
      [
        "gr",
        -1.0
      ],
      [
        "Ø§Ø±ÙĬ",
        -1.0
      ],
      [
        "ĠÐ¸Ð»Ð¸",
        -1.0
      ],
      [
        "éĢĻ",
        -1.0
      ],
      [
        "à°¾à°¹",
        -1.0
      ],
      [
        "ĠÙĬÙħ",
        -1.0
      ],
      [
        "umb",
        -1.0
      ],
      [
        "ĠØ§ÙĦØ²",
        -1.0
      ],
      [
        "ç¾",
        -1.0
      ],
      [
        "à¤ĸ",
        -1.0
      ],
      [
        "à¹Ģà¸Ń",
        -1.0
      ],
      [
        "çĦ¶",
        -1.0
      ],
      [
        "ÙĬØª",
        -1.0
      ],
      [
        "ende",
        -1.0
      ],
      [
        "à¹Īà¸§à¸Ļ",
        -1.0
      ],
      [
        "port",
        -1.0
      ],
      [
        "hus",
        -1.0
      ],
      [
        "Ġdev",
        -1.0
      ],
      [
        "Ð½Ð¸Ðµ",
        -1.0
      ],
      [
        "Ġà¹ģ",
        -1.0
      ],
      [
        "è¯´",
        -1.0
      ],
      [
        "mÄ±ÅŁ",
        -1.0
      ],
      [
        "ĠÙĪØ¹",
        -1.0
      ],
      [
        "à¸£à¸ĩ",
        -1.0
      ],
      [
        "Ø¯Ø§",
        -1.0
      ],
      [
        "å¯¹",
        -1.0
      ],
      [
        "Ġhave",
        -1.0
      ],
      [
        "ĠâĢĺ",
        -1.0
      ],
      [
        "ors",
        -1.0
      ],
      [
        "æľ¬",
        -1.0
      ],
      [
        "à¸ģà¸£à¸°",
        -1.0
      ],
      [
        "ĠØ¨ÙĦ",
        -1.0
      ],
      [
        "à±ģà°®",
        -1.0
      ],
      [
        "åħ¶",
        -1.0
      ],
      [
        "ibi",
        -1.0
      ],
      [
        "ÑĢÐ¾Ð²Ð°",
        -1.0
      ],
      [
        "åŁ",
        -1.0
      ],
      [
        "ity",
        -1.0
      ],
      [
        "à¸²à¸¡à¸²à¸£à¸ĸ",
        -1.0
      ],
      [
        "Ġte",
        -1.0
      ],
      [
        "ĠgÃ¶r",
        -1.0
      ],
      [
        "ÙĪÙī",
        -1.0
      ],
      [
        "Ġac",
        -1.0
      ],
      [
        "let",
        -1.0
      ],
      [
        "Ġper",
        -1.0
      ],
      [
        "50",
        -1.0
      ],
      [
        "abu",
        -1.0
      ],
      [
        "åīį",
        -1.0
      ],
      [
        "Ġà¹Ģà¸ŀ",
        -1.0
      ],
      [
        "Ġwali",
        -1.0
      ],
      [
        "à¸ªà¸³",
        -1.0
      ],
      [
        "Ø¬Ø±",
        -1.0
      ],
      [
        "Ð½Ð¾ÑģÑĤÐ¸",
        -1.0
      ],
      [
        "à±ĭà°ķ",
        -1.0
      ],
      [
        "ÙĪØ§Øª",
        -1.0
      ],
      [
        "Ð½Ð¾Ðµ",
        -1.0
      ],
      [
        "mes",
        -1.0
      ],
      [
        "so",
        -1.0
      ],
      [
        "è¢",
        -1.0
      ],
      [
        "ĠØ§ÙĦÙĬ",
        -1.0
      ],
      [
        "Ø±Ø§ÙĤ",
        -1.0
      ],
      [
        "à¸µà¸¢à¸ĩ",
        -1.0
      ],
      [
        "Ð»Ð¾Ð²",
        -1.0
      ],
      [
        "à¸ŀà¸£à¸°",
        -1.0
      ],
      [
        "Ø³ÙĦØ§Ùħ",
        -1.0
      ],
      [
        "à¸¡à¸²",
        -1.0
      ],
      [
        "dÄ±r",
        -1.0
      ],
      [
        "ww",
        -1.0
      ],
      [
        "Ø§Ø°",
        -1.0
      ],
      [
        "à°¾à°³",
        -1.0
      ],
      [
        "à±ĩà°Ĥ",
        -1.0
      ],
      [
        "ĠØºÙĬØ±",
        -1.0
      ],
      [
        "17",
        -1.0
      ],
      [
        "ĠÐĳ",
        -1.0
      ],
      [
        "Ġkad",
        -1.0
      ],
      [
        "à¸Ħà¸¥",
        -1.0
      ],
      [
        "erek",
        -1.0
      ],
      [
        "ÑĢÑı",
        -1.0
      ],
      [
        "ĠÙĪØ§ÙĦØª",
        -1.0
      ],
      [
        "ash",
        -1.0
      ],
      [
        "é«ĺ",
        -1.0
      ],
      [
        "åĪĨ",
        -1.0
      ],
      [
        "Ġà°ħà°®",
        -1.0
      ],
      [
        "na",
        -1.0
      ],
      [
        "çĲĨ",
        -1.0
      ],
      [
        "ÑĥÐ´",
        -1.0
      ],
      [
        "Ġ:Ċ",
        -1.0
      ],
      [
        "oa",
        -1.0
      ],
      [
        "ØµØ±",
        -1.0
      ],
      [
        "Ġà°¤à°°",
        -1.0
      ],
      [
        "à°²à°¨",
        -1.0
      ],
      [
        "è£",
        -1.0
      ],
      [
        "ÙĤÙĪÙĦ",
        -1.0
      ],
      [
        "Ð¾Ð´Ð°",
        -1.0
      ],
      [
        "à±ģà°Ł",
        -1.0
      ],
      [
        "à°¬à°¡",
        -1.0
      ],
      [
        "lo",
        -1.0
      ],
      [
        "ten",
        -1.0
      ],
      [
        "åĲĮ",
        -1.0
      ],
      [
        "é¢",
        -1.0
      ],
      [
        "Ġà¸Ī",
        -1.0
      ],
      [
        "à°Ĥà°ķ",
        -1.0
      ],
      [
        "ÑĤÑĥ",
        -1.0
      ],
      [
        "Ġolan",
        -1.0
      ],
      [
        "mi",
        -1.0
      ],
      [
        "à±Ĥà°ª",
        -1.0
      ],
      [
        "ĠÙĪØ³",
        -1.0
      ],
      [
        "åħ¬",
        -1.0
      ],
      [
        "oka",
        -1.0
      ],
      [
        "ĠÐºÐ¾Ð¼",
        -1.0
      ],
      [
        "ight",
        -1.0
      ],
      [
        "mu",
        -1.0
      ],
      [
        "Ġkullan",
        -1.0
      ],
      [
        "è¾",
        -1.0
      ],
      [
        "ÙĩØ¯",
        -1.0
      ],
      [
        "Ðļ",
        -1.0
      ],
      [
        "åıĬ",
        -1.0
      ],
      [
        "ibu",
        -1.0
      ],
      [
        "æ¸",
        -1.0
      ],
      [
        "å¤©",
        -1.0
      ],
      [
        "ÐµÐ·",
        -1.0
      ],
      [
        "ĠÐł",
        -1.0
      ],
      [
        "ĠØŃÙĬ",
        -1.0
      ],
      [
        "çĤº",
        -1.0
      ],
      [
        "ki",
        -1.0
      ],
      [
        "ĠÙĪÙĦØ§",
        -1.0
      ],
      [
        "able",
        -1.0
      ],
      [
        "à±ĭà°ľ",
        -1.0
      ],
      [
        "à±įà°£",
        -1.0
      ],
      [
        "ĠØ¹ÙĨØ¯",
        -1.0
      ],
      [
        "éĥ",
        -1.0
      ],
      [
        "åħ¨",
        -1.0
      ],
      [
        "à¥Īà¤Ĥà¥¤",
        -1.0
      ],
      [
        "je",
        -1.0
      ],
      [
        "à¤¿à¤Ĥ",
        -1.0
      ],
      [
        ").Ċ",
        -1.0
      ],
      [
        "Ġà°ľà°°",
        -1.0
      ],
      [
        "ĠØªÙħ",
        -1.0
      ],
      [
        "unu",
        -1.0
      ],
      [
        "à±Ĩà°¡",
        -1.0
      ],
      [
        "à°¿à°§",
        -1.0
      ],
      [
        "à±Ĩà°³",
        -1.0
      ],
      [
        "izi",
        -1.0
      ],
      [
        "amu",
        -1.0
      ],
      [
        "ru",
        -1.0
      ],
      [
        "ÑģÐºÐ°",
        -1.0
      ],
      [
        "ĠÙħØ³",
        -1.0
      ],
      [
        "à±ĩà°¤",
        -1.0
      ],
      [
        "Ġkur",
        -1.0
      ],
      [
        "ĠÐ´Ð°",
        -1.0
      ],
      [
        "à¸²à¸ķ",
        -1.0
      ],
      [
        "æ³ķ",
        -1.0
      ],
      [
        "ĠÙĪÙħÙĨ",
        -1.0
      ],
      [
        "Ð²Ð»Ñı",
        -1.0
      ],
      [
        "iyo",
        -1.0
      ],
      [
        "yon",
        -1.0
      ],
      [
        "Ð½Ð¾Ð¼",
        -1.0
      ],
      [
        "Ġà°µà°°",
        -1.0
      ],
      [
        "ĠÙħØª",
        -1.0
      ],
      [
        "Ġou",
        -1.0
      ],
      [
        "...Ċ",
        -1.0
      ],
      [
        "à±ĭà°¤",
        -1.0
      ],
      [
        "à¥ĭà¤¨",
        -1.0
      ],
      [
        "äºĽ",
        -1.0
      ],
      [
        "ork",
        -1.0
      ],
      [
        "à¸Ĺà¸ĺ",
        -1.0
      ],
      [
        "ell",
        -1.0
      ],
      [
        "æĸ°",
        -1.0
      ],
      [
        "Ġ[",
        -1.0
      ],
      [
        "ĠdeÄŁ",
        -1.0
      ],
      [
        "asa",
        -1.0
      ],
      [
        "ted",
        -1.0
      ],
      [
        "èª",
        -1.0
      ],
      [
        "ĠÐ¿ÐµÑĢÐµ",
        -1.0
      ],
      [
        "Ä±ndan",
        -1.0
      ],
      [
        "à±įà°¬",
        -1.0
      ],
      [
        "à±įà°¯à°ķ",
        -1.0
      ],
      [
        "ĠÙĥÙħØ§",
        -1.0
      ],
      [
        "ä¾Ĩ",
        -1.0
      ],
      [
        "Ø«ÙĬØ±",
        -1.0
      ],
      [
        "ov",
        -1.0
      ],
      [
        "ĠÙĩÙĬ",
        -1.0
      ],
      [
        "æĪĸ",
        -1.0
      ],
      [
        "iye",
        -1.0
      ],
      [
        "åĬĽ",
        -1.0
      ],
      [
        "Ã¨s",
        -1.0
      ],
      [
        "è¿ĩ",
        -1.0
      ],
      [
        "Ġà°ķà°¨",
        -1.0
      ],
      [
        "å¿ĥ",
        -1.0
      ],
      [
        "à¸²à¸¥",
        -1.0
      ],
      [
        "emp",
        -1.0
      ],
      [
        "à±ĩà°²",
        -1.0
      ],
      [
        "åı¯ä»¥",
        -1.0
      ],
      [
        "Ø§ÙĨÙĬØ©",
        -1.0
      ],
      [
        "à¸´à¸Ī",
        -1.0
      ],
      [
        "cak",
        -1.0
      ],
      [
        "Ġ/",
        -1.0
      ],
      [
        "ĠÙħØ±",
        -1.0
      ],
      [
        "ĠBu",
        -1.0
      ],
      [
        "éļ",
        -1.0
      ],
      [
        "Ġbul",
        -1.0
      ],
      [
        "duÄŁ",
        -1.0
      ],
      [
        "Ð½Ð¾ÑģÑĤÑĮ",
        -1.0
      ],
      [
        "åĢĭ",
        -1.0
      ],
      [
        "à±Ĭà°¦",
        -1.0
      ],
      [
        "Ġolm",
        -1.0
      ],
      [
        "ome",
        -1.0
      ],
      [
        "à±ĩà°Ł",
        -1.0
      ],
      [
        "à¥įà¤ķ",
        -1.0
      ],
      [
        "æ±",
        -1.0
      ],
      [
        "oto",
        -1.0
      ],
      [
        "Ġpart",
        -1.0
      ],
      [
        "ÙĪÙĬØ©",
        -1.0
      ],
      [
        "à¹ģà¸ļà¸ļ",
        -1.0
      ],
      [
        "å®ļ",
        -1.0
      ],
      [
        "ÙĬØ²",
        -1.0
      ],
      [
        "Ġhak",
        -1.0
      ],
      [
        "æĹ¥",
        -1.0
      ],
      [
        "Ġà°ħà°¦",
        -1.0
      ],
      [
        "ĠØ§ÙĦØ¹ÙĦÙħ",
        -1.0
      ],
      [
        "tan",
        -1.0
      ],
      [
        "Ġkup",
        -1.0
      ],
      [
        "iti",
        -1.0
      ],
      [
        "ÑģÐ»Ð¸",
        -1.0
      ],
      [
        "Ã¨re",
        -1.0
      ],
      [
        "è½",
        -1.0
      ],
      [
        "umu",
        -1.0
      ],
      [
        "ä½¿",
        -1.0
      ],
      [
        "Ð»Ñİ",
        -1.0
      ],
      [
        "æıĲ",
        -1.0
      ],
      [
        "è¢«",
        -1.0
      ],
      [
        "ÑĭÑħ",
        -1.0
      ],
      [
        "à±Ĩà°¸",
        -1.0
      ],
      [
        "dir",
        -1.0
      ],
      [
        "ĠâĢĶ",
        -1.0
      ],
      [
        "Ġwake",
        -1.0
      ],
      [
        "à°«",
        -1.0
      ],
      [
        "ĠÙĦØª",
        -1.0
      ],
      [
        "Ġhiv",
        -1.0
      ],
      [
        "à¸ķà¸²à¸¡",
        -1.0
      ],
      [
        "åĬł",
        -1.0
      ],
      [
        "å§",
        -1.0
      ],
      [
        "ÙĦÙĤ",
        -1.0
      ],
      [
        "onn",
        -1.0
      ],
      [
        "à±Ģà°¯",
        -1.0
      ],
      [
        "éķ",
        -1.0
      ],
      [
        "à±Ĥà°¸",
        -1.0
      ],
      [
        "æľĥ",
        -1.0
      ],
      [
        "ĠÐºÐ¾ÑĤÐ¾ÑĢÑĭ",
        -1.0
      ],
      [
        "Ð¶Ð¸",
        -1.0
      ],
      [
        "ç©",
        -1.0
      ],
      [
        "itu",
        -1.0
      ],
      [
        "à¤¾à¤ı",
        -1.0
      ],
      [
        "ÙĪØ²",
        -1.0
      ],
      [
        "ĠØ¨Ø¹Ø¶",
        -1.0
      ],
      [
        "æĸĩ",
        -1.0
      ],
      [
        "à°¿à°¡",
        -1.0
      ],
      [
        "Ġà°ħà°¤",
        -1.0
      ],
      [
        "yi",
        -1.0
      ],
      [
        "Ġà¸ĭ",
        -1.0
      ],
      [
        "Ø¨ØŃ",
        -1.0
      ],
      [
        "Ġyer",
        -1.0
      ],
      [
        "ces",
        -1.0
      ],
      [
        "ĠÐ²Ð°",
        -1.0
      ],
      [
        "à¸Ńà¸Ńà¸ģ",
        -1.0
      ],
      [
        "Ð·Ñĭ",
        -1.0
      ],
      [
        "à¹īà¸Ńà¸¡",
        -1.0
      ],
      [
        "out",
        -1.0
      ],
      [
        "à°¾,",
        -1.0
      ],
      [
        "ÑģÑĤÐ²ÐµÐ½",
        -1.0
      ],
      [
        "ĠÙĦÙĦÙħ",
        -1.0
      ],
      [
        "Ø§Ø±Ø§Øª",
        -1.0
      ],
      [
        "å°ĳå¥³",
        -1.0
      ],
      [
        "Ġave",
        -1.0
      ],
      [
        "ÙĨØ§Ø¡",
        -1.0
      ],
      [
        "à¸ģà¸§",
        -1.0
      ],
      [
        "Ġà¹Ģà¸Ľ",
        -1.0
      ],
      [
        "ĠÙĪÙĦ",
        -1.0
      ],
      [
        "à¥įà¤¹",
        -1.0
      ],
      [
        "Ðķ",
        -1.0
      ],
      [
        "ÐµÐ½ÑĮ",
        -1.0
      ],
      [
        "à±ĩà°·",
        -1.0
      ],
      [
        "âĢĻs",
        -1.0
      ],
      [
        "uld",
        -1.0
      ],
      [
        "éģĵ",
        -1.0
      ],
      [
        "åĲİ",
        -1.0
      ],
      [
        "ign",
        -1.0
      ],
      [
        "à¤¿à¤¶",
        -1.0
      ],
      [
        "har",
        -1.0
      ],
      [
        "à¥ĩà¤¤",
        -1.0
      ],
      [
        "imi",
        -1.0
      ],
      [
        "tur",
        -1.0
      ],
      [
        "ÑģÑģ",
        -1.0
      ],
      [
        "èĳ",
        -1.0
      ],
      [
        "ÙĨØª",
        -1.0
      ],
      [
        "Ġkwenye",
        -1.0
      ],
      [
        "à¹Īà¸Ńà¸Ļ",
        -1.0
      ],
      [
        "ĠÐ½Ð¸",
        -1.0
      ],
      [
        "ĠÑģÐ²Ð¾",
        -1.0
      ],
      [
        "ĠTh",
        -1.0
      ],
      [
        "à¤ķà¤°",
        -1.0
      ],
      [
        "met",
        -1.0
      ],
      [
        "Ł¥",
        -1.0
      ],
      [
        "à¸ī",
        -1.0
      ],
      [
        "__",
        -1.0
      ],
      [
        "Ġà°ħà°²",
        -1.0
      ],
      [
        "Ġmwa",
        -1.0
      ],
      [
        "æĤ",
        -1.0
      ],
      [
        "age",
        -1.0
      ],
      [
        "Ġbil",
        -1.0
      ],
      [
        "The",
        -1.0
      ],
      [
        "åıĳ",
        -1.0
      ],
      [
        "likuwa",
        -1.0
      ],
      [
        "Ġyan",
        -1.0
      ],
      [
        "weza",
        -1.0
      ],
      [
        "ÙĪÙĦØ©",
        -1.0
      ],
      [
        "à¤¾,",
        -1.0
      ],
      [
        "Ġà¤Ĩà¤ª",
        -1.0
      ],
      [
        "oir",
        -1.0
      ],
      [
        "ette",
        -1.0
      ],
      [
        "äºİ",
        -1.0
      ],
      [
        "ÙĬØ¨",
        -1.0
      ],
      [
        "åİ»",
        -1.0
      ],
      [
        "Ð¢",
        -1.0
      ],
      [
        "lic",
        -1.0
      ],
      [
        "ĠØ¨Ùħ",
        -1.0
      ],
      [
        "à°¦à°°",
        -1.0
      ],
      [
        "ques",
        -1.0
      ],
      [
        "Ġdis",
        -1.0
      ],
      [
        "à±ĩà°®",
        -1.0
      ],
      [
        "yle",
        -1.0
      ],
      [
        "lah",
        -1.0
      ],
      [
        "à¸«à¸§",
        -1.0
      ],
      [
        "à°¯à°¨",
        -1.0
      ],
      [
        "à¤¾à¤ĩ",
        -1.0
      ],
      [
        "ĠÐ²Ðµ",
        -1.0
      ],
      [
        "éĥ¨",
        -1.0
      ],
      [
        "ition",
        -1.0
      ],
      [
        "à¸ªà¸²à¸¡à¸²à¸£à¸ĸ",
        -1.0
      ],
      [
        "å»",
        -1.0
      ],
      [
        "ç®",
        -1.0
      ],
      [
        "ĠØ£Ùħ",
        -1.0
      ],
      [
        "her",
        -1.0
      ],
      [
        "Ø¯ÙĬÙĨ",
        -1.0
      ],
      [
        "äºĭ",
        -1.0
      ],
      [
        "ene",
        -1.0
      ],
      [
        "Ġà°¸à°°",
        -1.0
      ],
      [
        "Ġmak",
        -1.0
      ],
      [
        "à¥ģà¤²",
        -1.0
      ],
      [
        "ÙĦÙĬÙħ",
        -1.0
      ],
      [
        "Ġà¤ħà¤¨",
        -1.0
      ],
      [
        "ex",
        -1.0
      ],
      [
        "ft",
        -1.0
      ],
      [
        "Ð°Ð»ÑĮ",
        -1.0
      ],
      [
        "Ġkon",
        -1.0
      ],
      [
        "éħ",
        -1.0
      ],
      [
        "è¶",
        -1.0
      ],
      [
        "å¤ĸ",
        -1.0
      ],
      [
        "Ġà¤Ł",
        -1.0
      ],
      [
        "ä½Ĩ",
        -1.0
      ],
      [
        "åķ",
        -1.0
      ],
      [
        "à¤¾à¤¥",
        -1.0
      ],
      [
        "åĲĪ",
        -1.0
      ],
      [
        "pos",
        -1.0
      ],
      [
        "Ø±Ø¬",
        -1.0
      ],
      [
        "Ġà°İà°ķ",
        -1.0
      ],
      [
        "Ġà¤µà¤¹",
        -1.0
      ],
      [
        "ally",
        -1.0
      ],
      [
        "Ø±ÙĬÙĤ",
        -1.0
      ],
      [
        "ui",
        -1.0
      ],
      [
        "à¹Ĥà¸¥",
        -1.0
      ],
      [
        "ä¸»",
        -1.0
      ],
      [
        "ĠÐ¼Ð¸",
        -1.0
      ],
      [
        "ĠÐ²Ð¾Ð·",
        -1.0
      ],
      [
        "Ø³Ø©",
        -1.0
      ],
      [
        "ĠØ§ÙĦÙħØŃ",
        -1.0
      ],
      [
        "ĠØ§ÙĦØªØ¹",
        -1.0
      ],
      [
        "Ð²ÐµÑĤ",
        -1.0
      ],
      [
        "Ġwill",
        -1.0
      ],
      [
        "ç³",
        -1.0
      ],
      [
        "ÙĪØ§ÙĨ",
        -1.0
      ],
      [
        "iyor",
        -1.0
      ],
      [
        "Ġà¤¹à¤®",
        -1.0
      ],
      [
        "Ġwan",
        -1.0
      ],
      [
        "Ġev",
        -1.0
      ],
      [
        "ÑĤÐ¾Ð²",
        -1.0
      ],
      [
        "åĽł",
        -1.0
      ],
      [
        "èµ·",
        -1.0
      ],
      [
        "ĠØ§ÙĦØ¢",
        -1.0
      ],
      [
        "ÙģØ©",
        -1.0
      ],
      [
        "ille",
        -1.0
      ],
      [
        "à°¾à°¶",
        -1.0
      ],
      [
        "Ġà¹ģà¸ķ",
        -1.0
      ],
      [
        "Ġavec",
        -1.0
      ],
      [
        "Ġman",
        -1.0
      ],
      [
        "lab",
        -1.0
      ],
      [
        "laÅŁ",
        -1.0
      ],
      [
        "Ġgibi",
        -1.0
      ],
      [
        "ĠØ«Ùħ",
        -1.0
      ],
      [
        "une",
        -1.0
      ],
      [
        "Ġgo",
        -1.0
      ],
      [
        "ÑĢÐ°Ð½",
        -1.0
      ],
      [
        "ÑĪÐ°",
        -1.0
      ],
      [
        "æĪĳä»¬",
        -1.0
      ],
      [
        "Ġtar",
        -1.0
      ],
      [
        "à¥įà¤ª",
        -1.0
      ],
      [
        "à¥ĩà¤°",
        -1.0
      ],
      [
        "æ¨",
        -1.0
      ],
      [
        "Ġmk",
        -1.0
      ],
      [
        "ĠÐ¿Ð¾Ñģ",
        -1.0
      ],
      [
        "ear",
        -1.0
      ],
      [
        "ØªÙĩØ§",
        -1.0
      ],
      [
        "alÄ±",
        -1.0
      ],
      [
        "ade",
        -1.0
      ],
      [
        "ÑģÑĤÐ²Ð°",
        -1.0
      ],
      [
        "ĠAr",
        -1.0
      ],
      [
        "ÑĩÐµÑģÐºÐ¸",
        -1.0
      ],
      [
        "ĠZ",
        -1.0
      ],
      [
        "ÙĪØ§ÙĦ",
        -1.0
      ],
      [
        "ĠÐĵ",
        -1.0
      ],
      [
        "ĠØ¹Ø§Ùħ",
        -1.0
      ],
      [
        "ãĢĤâĢĿ",
        -1.0
      ],
      [
        "é£",
        -1.0
      ],
      [
        "ĠÙĬØŃ",
        -1.0
      ],
      [
        "Ð·Ð¸",
        -1.0
      ],
      [
        "Ġgr",
        -1.0
      ],
      [
        "à°Ĥà°§",
        -1.0
      ],
      [
        "æĽ´",
        -1.0
      ],
      [
        "èģ",
        -1.0
      ],
      [
        "Ð°Ðº",
        -1.0
      ],
      [
        "ĠÐ½Ð¾",
        -1.0
      ],
      [
        "Ð¿Ðµ",
        -1.0
      ],
      [
        "ĠØ¬Ùħ",
        -1.0
      ],
      [
        "tern",
        -1.0
      ],
      [
        "Ð¾Ð»ÑĮÐºÐ¾",
        -1.0
      ],
      [
        "ss",
        -1.0
      ],
      [
        "ise",
        -1.0
      ],
      [
        "à¸·à¸Ńà¸Ļ",
        -1.0
      ],
      [
        "AN",
        -1.0
      ],
      [
        "ç¬",
        -1.0
      ],
      [
        "Ð¾Ð»ÑĮÐ·",
        -1.0
      ],
      [
        "Ġà¤Ĺà¤¯",
        -1.0
      ],
      [
        "ÐĶ",
        -1.0
      ],
      [
        "24",
        -1.0
      ],
      [
        "Ø±ÙĤ",
        -1.0
      ],
      [
        "à¹ģà¸ģ",
        -1.0
      ],
      [
        "ÐµÑĤÐµ",
        -1.0
      ],
      [
        "Åŀ",
        -1.0
      ],
      [
        "ï¼ī",
        -1.0
      ],
      [
        "ï¼Ī",
        -1.0
      ],
      [
        "ÑĢÐ°Ð²",
        -1.0
      ],
      [
        "Ġwatu",
        -1.0
      ],
      [
        "Ġà¤¸à¤ķ",
        -1.0
      ],
      [
        "ty",
        -1.0
      ],
      [
        "ÙĭØ§",
        -1.0
      ],
      [
        "Ġent",
        -1.0
      ],
      [
        "à¸Ŀ",
        -1.0
      ],
      [
        "à¹ĩà¸ģ",
        -1.0
      ],
      [
        "ĠÐºÐ¾Ð½",
        -1.0
      ],
      [
        "è»",
        -1.0
      ],
      [
        "idi",
        -1.0
      ],
      [
        "Ġà¸Ķ",
        -1.0
      ],
      [
        "ĠÃ¼",
        -1.0
      ],
      [
        "à¥Ģà¤¨",
        -1.0
      ],
      [
        "ĠÐ¾Ñģ",
        -1.0
      ],
      [
        "Ġà¤ªà¤¹",
        -1.0
      ],
      [
        "der",
        -1.0
      ],
      [
        "one",
        -1.0
      ],
      [
        "Ġall",
        -1.0
      ],
      [
        "æĻĤ",
        -1.0
      ],
      [
        "à¤Ĥà¤¤",
        -1.0
      ],
      [
        "Ðł",
        -1.0
      ],
      [
        "Ġà¹Ĥà¸Ķà¸¢",
        -1.0
      ],
      [
        "omb",
        -1.0
      ],
      [
        "à±įà°ķà°¡",
        -1.0
      ],
      [
        "à¸±à¸¡",
        -1.0
      ],
      [
        "à¸Ļà¸§",
        -1.0
      ],
      [
        "Ġà°Ĩà°°",
        -1.0
      ],
      [
        "per",
        -1.0
      ],
      [
        "Ġà°ĩà°¦",
        -1.0
      ],
      [
        "Ġà¸§",
        -1.0
      ],
      [
        "ä¿Ŀ",
        -1.0
      ],
      [
        "ç¶",
        -1.0
      ],
      [
        "ĠØ¨Ø¯",
        -1.0
      ],
      [
        "pt",
        -1.0
      ],
      [
        "à¥įà¤¦",
        -1.0
      ],
      [
        "º«",
        -1.0
      ],
      [
        "à¹īà¸Ńà¸¢",
        -1.0
      ],
      [
        "Ø¬Ø¨",
        -1.0
      ],
      [
        "Ġes",
        -1.0
      ],
      [
        "à°¾à°·",
        -1.0
      ],
      [
        "Ġuk",
        -1.0
      ],
      [
        "Ġuy",
        -1.0
      ],
      [
        "Ġtout",
        -1.0
      ],
      [
        "à±ģà°²à°¨",
        -1.0
      ],
      [
        "é»",
        -1.0
      ],
      [
        "à¸ı",
        -1.0
      ],
      [
        "à±ĭà°Ĥ",
        -1.0
      ],
      [
        "ents",
        -1.0
      ],
      [
        "Ġro",
        -1.0
      ],
      [
        "ĠyÄ±l",
        -1.0
      ],
      [
        "ĠÃ¼z",
        -1.0
      ],
      [
        "Ã©es",
        -1.0
      ],
      [
        "ĠØ§ÙĦÙħÙĪ",
        -1.0
      ],
      [
        "ÐºÐµ",
        -1.0
      ],
      [
        "ĠÑģÐ¸",
        -1.0
      ],
      [
        "Ä±nÄ±n",
        -1.0
      ],
      [
        "ast",
        -1.0
      ],
      [
        "Ð¾Ð»Ðµ",
        -1.0
      ],
      [
        "å·¥",
        -1.0
      ],
      [
        "ĠØ§ÙĦØ¹Ø±Ø§ÙĤ",
        -1.0
      ],
      [
        "éĤ£",
        -1.0
      ],
      [
        "21",
        -1.0
      ],
      [
        "ÙĩÙĦ",
        -1.0
      ],
      [
        "à¹Īà¸¡",
        -1.0
      ],
      [
        "aman",
        -1.0
      ],
      [
        "èĢħ",
        -1.0
      ],
      [
        "à¤¾à¤ķ",
        -1.0
      ],
      [
        "Ġtu",
        -1.0
      ],
      [
        "ĠÙħØ³Øª",
        -1.0
      ],
      [
        "à¸Ľà¸¥",
        -1.0
      ],
      [
        "Ġdaha",
        -1.0
      ],
      [
        "Ġà¤¡",
        -1.0
      ],
      [
        "ĠÑģÐµ",
        -1.0
      ],
      [
        "à¹ĥà¸Ļà¸ģà¸²à¸£",
        -1.0
      ],
      [
        "ÙĬÙĬÙĨ",
        -1.0
      ],
      [
        "æĥ³",
        -1.0
      ],
      [
        "ĠØ§ÙĦØ§ÙĨ",
        -1.0
      ],
      [
        "Ð²Ñĭ",
        -1.0
      ],
      [
        "Ð²ÐµÑĢ",
        -1.0
      ],
      [
        "Ġdur",
        -1.0
      ],
      [
        "åĸ",
        -1.0
      ],
      [
        "Ġvous",
        -1.0
      ],
      [
        "ĠØ³ÙĬ",
        -1.0
      ],
      [
        "à¤¿à¤µ",
        -1.0
      ],
      [
        "Ġhiyo",
        -1.0
      ],
      [
        "ĠÙĦÙĬ",
        -1.0
      ],
      [
        "ĠÐµÐ³Ð¾",
        -1.0
      ],
      [
        "ØºÙĬØ±",
        -1.0
      ],
      [
        "09",
        -1.0
      ],
      [
        "ĠØ§ÙĦÙĤØ±",
        -1.0
      ],
      [
        "Ø±Ø¨ÙĬØ©",
        -1.0
      ],
      [
        "Ġyour",
        -1.0
      ],
      [
        "uni",
        -1.0
      ],
      [
        "ifa",
        -1.0
      ],
      [
        "Ø§ÙĦØ©",
        -1.0
      ],
      [
        "uma",
        -1.0
      ],
      [
        "ĠÙĪÙĥ",
        -1.0
      ],
      [
        "Ã¢",
        -1.0
      ],
      [
        "ĠØ§Ùħ",
        -1.0
      ],
      [
        "Ġbo",
        -1.0
      ],
      [
        "Ġbut",
        -1.0
      ],
      [
        "Ġà°ªà°¦",
        -1.0
      ],
      [
        "ãĢĮ",
        -1.0
      ],
      [
        "Ø®ÙĦ",
        -1.0
      ],
      [
        "à¥ĩà¤¨",
        -1.0
      ],
      [
        "Ø¶Ø§",
        -1.0
      ],
      [
        "ĠØ¨ÙĩØ§",
        -1.0
      ],
      [
        "ĠÐ²ÑĢÐµ",
        -1.0
      ],
      [
        "Ġà¸ģà¸²à¸£",
        -1.0
      ],
      [
        "itÃ©",
        -1.0
      ],
      [
        "åĢĳ",
        -1.0
      ],
      [
        "len",
        -1.0
      ],
      [
        "Ðľ",
        -1.0
      ],
      [
        "à¥ĭà¤¤",
        -1.0
      ],
      [
        "22",
        -1.0
      ],
      [
        "à°Ĩ",
        -1.0
      ],
      [
        "enda",
        -1.0
      ],
      [
        "Ġmon",
        -1.0
      ],
      [
        "ĠØ§ÙĦÙħØ´",
        -1.0
      ],
      [
        "ç¤",
        -1.0
      ],
      [
        "ÙģØ¹",
        -1.0
      ],
      [
        "ĠØ£Ø³",
        -1.0
      ],
      [
        "ĠØªÙĨ",
        -1.0
      ],
      [
        "ĠÙĬÙĥÙĪÙĨ",
        -1.0
      ],
      [
        "ni",
        -1.0
      ],
      [
        "à¸ªà¸Ļ",
        -1.0
      ],
      [
        "ãĢį",
        -1.0
      ],
      [
        "ĠÐ¶Ðµ",
        -1.0
      ],
      [
        "à¹Ģà¸Ħà¸£",
        -1.0
      ],
      [
        "à¥ģà¤¨",
        -1.0
      ],
      [
        "èĳĹ",
        -1.0
      ],
      [
        "Ġsay",
        -1.0
      ],
      [
        "Ġà¸«à¸£",
        -1.0
      ],
      [
        "å·²",
        -1.0
      ],
      [
        "ĠØªØª",
        -1.0
      ],
      [
        "ĠØŃØªÙī",
        -1.0
      ],
      [
        "à¸£à¸²à¸°",
        -1.0
      ],
      [
        "Ø¸Ø±",
        -1.0
      ],
      [
        "ÙĤØ·",
        -1.0
      ],
      [
        "à¸¥à¸°",
        -1.0
      ],
      [
        "Ð»ÐµÐ´",
        -1.0
      ],
      [
        "ide",
        -1.0
      ],
      [
        "ĠÙħØ´",
        -1.0
      ],
      [
        "Ø§ÙħÙĦ",
        -1.0
      ],
      [
        "ER",
        -1.0
      ],
      [
        "ĠØ§ÙĦØ¥Ø³ÙĦØ§Ùħ",
        -1.0
      ],
      [
        "æĢ§",
        -1.0
      ],
      [
        "form",
        -1.0
      ],
      [
        "à¤¾à¤Ī",
        -1.0
      ],
      [
        "Ġhii",
        -1.0
      ],
      [
        "ä½į",
        -1.0
      ],
      [
        "åıª",
        -1.0
      ],
      [
        "cek",
        -1.0
      ],
      [
        "ĠÐ²Ð¸",
        -1.0
      ],
      [
        "bali",
        -1.0
      ],
      [
        "ĠØ§ÙĦØ¯ÙĬÙĨ",
        -1.0
      ],
      [
        "uri",
        -1.0
      ],
      [
        "\"Ċ",
        -1.0
      ],
      [
        "au",
        -1.0
      ],
      [
        "lat",
        -1.0
      ],
      [
        "æŃ¤",
        -1.0
      ],
      [
        "æĦı",
        -1.0
      ],
      [
        "ĠÙĤØ§ÙĦ",
        -1.0
      ],
      [
        "æŀľ",
        -1.0
      ],
      [
        "à±Ģà°¦",
        -1.0
      ],
      [
        "ĠMungu",
        -1.0
      ],
      [
        "à¹Ĭ",
        -1.0
      ],
      [
        "Ġsont",
        -1.0
      ],
      [
        "ĠÙĪÙĩÙĪ",
        -1.0
      ],
      [
        "à¸Īà¸³",
        -1.0
      ],
      [
        "åº¦",
        -1.0
      ],
      [
        "ĠÃ§Ä±k",
        -1.0
      ],
      [
        "æ¬¡",
        -1.0
      ],
      [
        "à°Ĥ,",
        -1.0
      ],
      [
        "à°°à°£",
        -1.0
      ],
      [
        "à¥Ģà¥¤",
        -1.0
      ],
      [
        "à¸Ĺà¸³à¹ĥà¸«",
        -1.0
      ],
      [
        "23",
        -1.0
      ],
      [
        "to",
        -1.0
      ],
      [
        "éĺ",
        -1.0
      ],
      [
        "ç¾İ",
        -1.0
      ],
      [
        "aj",
        -1.0
      ],
      [
        "ĠÑĨ",
        -1.0
      ],
      [
        "ÑĢÐ°Ð·",
        -1.0
      ],
      [
        "Ã¼y",
        -1.0
      ],
      [
        "ÙĪÙĩ",
        -1.0
      ],
      [
        "à°¥",
        -1.0
      ],
      [
        "ĠÙĪÙĨ",
        -1.0
      ],
      [
        "à¹īà¸Ń",
        -1.0
      ],
      [
        "ĠÙĬÙĨ",
        -1.0
      ],
      [
        "anz",
        -1.0
      ],
      [
        "Ġtra",
        -1.0
      ],
      [
        "Ġà¤²à¤Ĺ",
        -1.0
      ],
      [
        "co",
        -1.0
      ],
      [
        "Ð°Ð¹",
        -1.0
      ],
      [
        "Ð¾Ð±Ñĭ",
        -1.0
      ],
      [
        "à¹Ħà¸§",
        -1.0
      ],
      [
        "ÑĤÐ¸Ð²",
        -1.0
      ],
      [
        "à¹Ħà¸£",
        -1.0
      ],
      [
        "endele",
        -1.0
      ],
      [
        "fer",
        -1.0
      ],
      [
        "miÅŁ",
        -1.0
      ],
      [
        "è¼",
        -1.0
      ],
      [
        "çµ",
        -1.0
      ],
      [
        "awa",
        -1.0
      ],
      [
        "ÙĥØª",
        -1.0
      ],
      [
        "Ø§Ø¦ÙĦ",
        -1.0
      ],
      [
        "Ġcomm",
        -1.0
      ],
      [
        "ĠÐ¸ÑģÐ¿",
        -1.0
      ],
      [
        "ĠØ®ÙĦØ§ÙĦ",
        -1.0
      ],
      [
        "à±Ĥà°²",
        -1.0
      ],
      [
        "ult",
        -1.0
      ],
      [
        "Ø§ÙģØ©",
        -1.0
      ],
      [
        "ĠÐ»Ñİ",
        -1.0
      ],
      [
        "ĠÙĬÙħÙĥÙĨ",
        -1.0
      ],
      [
        "40",
        -1.0
      ],
      [
        "ĠØ§ÙĦÙĩ",
        -1.0
      ],
      [
        "Ġkazi",
        -1.0
      ],
      [
        "à±ĭà°ª",
        -1.0
      ],
      [
        "à¹īà¸¡",
        -1.0
      ],
      [
        "alÄ±ÅŁ",
        -1.0
      ],
      [
        "ĠØ§ÙĦØ³ÙĬ",
        -1.0
      ],
      [
        "à¹Īà¸§à¸¢",
        -1.0
      ],
      [
        "ĠÙĥØ§ÙĨØª",
        -1.0
      ],
      [
        "fanya",
        -1.0
      ],
      [
        "ĠØ§Ø®",
        -1.0
      ],
      [
        "ĠØ§ÙĦÙħØ³Øª",
        -1.0
      ],
      [
        "è¡¨",
        -1.0
      ],
      [
        "ĠÙĤØ¨ÙĦ",
        -1.0
      ],
      [
        "æģ",
        -1.0
      ],
      [
        "05",
        -1.0
      ],
      [
        "ouv",
        -1.0
      ],
      [
        "ĠÙģÙĬÙĩ",
        -1.0
      ],
      [
        "çĽ¸",
        -1.0
      ],
      [
        "ÑıÑĤ",
        -1.0
      ],
      [
        "Ġapp",
        -1.0
      ],
      [
        "ĠÐ¾Ð½",
        -1.0
      ],
      [
        "cÄ±",
        -1.0
      ],
      [
        "Ġkab",
        -1.0
      ],
      [
        "07",
        -1.0
      ],
      [
        "AR",
        -1.0
      ],
      [
        "å£",
        -1.0
      ],
      [
        "ÙĪØ©",
        -1.0
      ],
      [
        "Ø§ÙħØ©",
        -1.0
      ],
      [
        "ima",
        -1.0
      ],
      [
        "ach",
        -1.0
      ],
      [
        "ĠÙĪÙĤØ¯",
        -1.0
      ],
      [
        "Ġter",
        -1.0
      ],
      [
        "åĬ¨",
        -1.0
      ],
      [
        "à¸Ļà¸³",
        -1.0
      ],
      [
        "à¸Ĭà¸Ļ",
        -1.0
      ],
      [
        "ĠgÃ¼n",
        -1.0
      ],
      [
        "Ø±Ø¯",
        -1.0
      ],
      [
        "ÑĦÐ¸",
        -1.0
      ],
      [
        "åħ¥",
        -1.0
      ],
      [
        "ĠÙģÙĬÙĩØ§",
        -1.0
      ],
      [
        "à¥Ī,",
        -1.0
      ],
      [
        "erv",
        -1.0
      ],
      [
        "ĠÙĪØŃ",
        -1.0
      ],
      [
        "à¸ĺà¸£à¸£à¸¡",
        -1.0
      ],
      [
        "ÑĥÑĤ",
        -1.0
      ],
      [
        "æīĭ",
        -1.0
      ],
      [
        "Ġhar",
        -1.0
      ],
      [
        "Ġà¤¬à¤¨",
        -1.0
      ],
      [
        "03",
        -1.0
      ],
      [
        "à°Ĥ.",
        -1.0
      ],
      [
        "çī©",
        -1.0
      ],
      [
        "go",
        -1.0
      ],
      [
        "isa",
        -1.0
      ],
      [
        "ï¼Ł",
        -1.0
      ],
      [
        "ĠØŃÙĬØ«",
        -1.0
      ],
      [
        "Ð»ÑģÑı",
        -1.0
      ],
      [
        "éĩį",
        -1.0
      ],
      [
        "gan",
        -1.0
      ],
      [
        "Ġà¤§",
        -1.0
      ],
      [
        "à¥ĩà¤Ł",
        -1.0
      ],
      [
        "çİ°",
        -1.0
      ],
      [
        "Ġmb",
        -1.0
      ],
      [
        "à°²à°ķ",
        -1.0
      ],
      [
        "à¥Īà¤¸",
        -1.0
      ],
      [
        "els",
        -1.0
      ],
      [
        "à¸ľà¸¡",
        -1.0
      ],
      [
        "ÙĥØ«Ø±",
        -1.0
      ],
      [
        "Ġout",
        -1.0
      ],
      [
        "à¹Ħà¸Ĺà¸¢",
        -1.0
      ],
      [
        "ä»»",
        -1.0
      ],
      [
        "ĠEn",
        -1.0
      ],
      [
        "ĠÐķ",
        -1.0
      ],
      [
        "Ġà°ªà°¨",
        -1.0
      ],
      [
        "à¤¾à¤ª",
        -1.0
      ],
      [
        "à±įà°°à°¯",
        -1.0
      ],
      [
        "à°ļà°¡",
        -1.0
      ],
      [
        "Ð±Ð¸",
        -1.0
      ],
      [
        "Ð¾Ð³Ð¸",
        -1.0
      ],
      [
        ",Ċ",
        -1.0
      ],
      [
        "ran",
        -1.0
      ],
      [
        "Ġpla",
        -1.0
      ],
      [
        "Ġkw",
        -1.0
      ],
      [
        "ĠØ§ØŃ",
        -1.0
      ],
      [
        "Ð¾Ð³Ð´Ð°",
        -1.0
      ],
      [
        "ÑĢÐ¾Ð¼",
        -1.0
      ],
      [
        "à¥ģà¤ķ",
        -1.0
      ],
      [
        "à¥ĩà¤ĸ",
        -1.0
      ],
      [
        "adÄ±r",
        -1.0
      ],
      [
        "æľĪ",
        -1.0
      ],
      [
        "Ã¶l",
        -1.0
      ],
      [
        "ĠÑĩÐ°",
        -1.0
      ],
      [
        "ĠÂ»",
        -1.0
      ],
      [
        "pa",
        -1.0
      ],
      [
        "Ø§ØªÙĩ",
        -1.0
      ],
      [
        "Ø®Øª",
        -1.0
      ],
      [
        "ĠÃĩ",
        -1.0
      ],
      [
        "ç³»",
        -1.0
      ],
      [
        "Ġà¸ļ",
        -1.0
      ],
      [
        "Ġget",
        -1.0
      ],
      [
        "ÙĪØµ",
        -1.0
      ],
      [
        "ĠØ§ÙĦØ¹Ø§ÙĦÙħ",
        -1.0
      ],
      [
        "à¸±à¸ģà¸©",
        -1.0
      ],
      [
        "inden",
        -1.0
      ],
      [
        "ĠØ§Ø¹",
        -1.0
      ],
      [
        "Ø§ÙĦÙĬØ©",
        -1.0
      ],
      [
        "à±įà°ľ",
        -1.0
      ],
      [
        "Ð±Ðµ",
        -1.0
      ],
      [
        "à¸²à¸Ħ",
        -1.0
      ],
      [
        "ĠLe",
        -1.0
      ],
      [
        "ĠØ¨ØŃ",
        -1.0
      ],
      [
        "ĠØ§ÙĦØ£Ùħ",
        -1.0
      ],
      [
        "Ġà¤ķà¤°à¤¤",
        -1.0
      ],
      [
        "æĵ",
        -1.0
      ],
      [
        "éľ",
        -1.0
      ],
      [
        "å¸¸",
        -1.0
      ],
      [
        "Ñį",
        -1.0
      ],
      [
        "à±Ĩà°¦",
        -1.0
      ],
      [
        "ĠgeÃ§",
        -1.0
      ],
      [
        "Ð½ÑĥÑİ",
        -1.0
      ],
      [
        "à¸§à¸ĩ",
        -1.0
      ],
      [
        "à¸¢à¸Ļ",
        -1.0
      ],
      [
        "ÙĨÙĬØ©",
        -1.0
      ],
      [
        "Ġà°ħà°°",
        -1.0
      ],
      [
        "ĠØ§Ø³",
        -1.0
      ],
      [
        "08",
        -1.0
      ],
      [
        "à¥ĭà¤°",
        -1.0
      ],
      [
        "eki",
        -1.0
      ],
      [
        "à±Ĭà°¤",
        -1.0
      ],
      [
        "à±įà°ªà°Ł",
        -1.0
      ],
      [
        "à¤¼à¤¾",
        -1.0
      ],
      [
        "çī¹",
        -1.0
      ],
      [
        "æ¡",
        -1.0
      ],
      [
        "Ð¼ÐµÑĢ",
        -1.0
      ],
      [
        "çŃī",
        -1.0
      ],
      [
        "cess",
        -1.0
      ],
      [
        "à±įà°°à°ķ",
        -1.0
      ],
      [
        "à±ģà°²à°ķ",
        -1.0
      ],
      [
        "à°Ĥà°¦à°°",
        -1.0
      ],
      [
        "ĠÃ¶z",
        -1.0
      ],
      [
        "ĠØ§ÙĦØ§Ø³Øª",
        -1.0
      ],
      [
        "Ø¦Ø©",
        -1.0
      ],
      [
        "Ġà¹ĥà¸Ļ",
        -1.0
      ],
      [
        "Ð¾Ðµ",
        -1.0
      ],
      [
        "èĻ",
        -1.0
      ],
      [
        "aye",
        -1.0
      ],
      [
        "å®ī",
        -1.0
      ],
      [
        "ĠSt",
        -1.0
      ],
      [
        "å¼Ģ",
        -1.0
      ],
      [
        "è¿ĺ",
        -1.0
      ],
      [
        "Ġhivyo",
        -1.0
      ],
      [
        "Ġà°ĵ",
        -1.0
      ],
      [
        "ĠolduÄŁ",
        -1.0
      ],
      [
        "ĠÙĨÙģØ³",
        -1.0
      ],
      [
        "à±įà°¶",
        -1.0
      ],
      [
        "ĠØªÙĤ",
        -1.0
      ],
      [
        "ĠÙĥØªØ§Ø¨",
        -1.0
      ],
      [
        "à¸Ĺà¸£",
        -1.0
      ],
      [
        "Ġhali",
        -1.0
      ],
      [
        "Ġaut",
        -1.0
      ],
      [
        "ĠØ¨Ø´",
        -1.0
      ],
      [
        "chi",
        -1.0
      ],
      [
        "Ġgel",
        -1.0
      ],
      [
        "ici",
        -1.0
      ],
      [
        "ÙģØ¶",
        -1.0
      ],
      [
        "à¸µà¸§",
        -1.0
      ],
      [
        "ĠÐ¿Ð¾Ðº",
        -1.0
      ],
      [
        "à±ģà°ĸ",
        -1.0
      ],
      [
        "ĠÐ´ÑĢÑĥ",
        -1.0
      ],
      [
        "à°¦à°¨",
        -1.0
      ],
      [
        "à°Ĥà°¸",
        -1.0
      ],
      [
        "à¸ªà¸Ķ",
        -1.0
      ],
      [
        "ona",
        -1.0
      ],
      [
        "à±įà°¯à°®",
        -1.0
      ],
      [
        "ĠØ¥ÙĦØ§",
        -1.0
      ],
      [
        "apo",
        -1.0
      ],
      [
        "à°¿à°µà°°",
        -1.0
      ],
      [
        "ĠÙħÙĪ",
        -1.0
      ],
      [
        "lis",
        -1.0
      ],
      [
        "ÙĩÙħØ§",
        -1.0
      ],
      [
        "Ġà°Ĩà°¯à°¨",
        -1.0
      ],
      [
        "åĥ",
        -1.0
      ],
      [
        "ÑĢÐ¾Ð´",
        -1.0
      ],
      [
        "eden",
        -1.0
      ],
      [
        "ä»¶",
        -1.0
      ],
      [
        "Ġbin",
        -1.0
      ],
      [
        "à¸ĵà¸°",
        -1.0
      ],
      [
        "Ø·Ø±",
        -1.0
      ],
      [
        "æķĻ",
        -1.0
      ],
      [
        "-Ċ",
        -1.0
      ],
      [
        "ĠÐ¾Ð¿",
        -1.0
      ],
      [
        "à¸¸à¸¡",
        -1.0
      ],
      [
        "ĠÃ§alÄ±ÅŁ",
        -1.0
      ],
      [
        "Ø¹Ø§",
        -1.0
      ],
      [
        "âĢĿĊ",
        -1.0
      ],
      [
        "ĠsÃ¼",
        -1.0
      ],
      [
        "ÐºÐ¾Ð¼",
        -1.0
      ],
      [
        "Ð¼Ñı",
        -1.0
      ],
      [
        "Ð´Ð¾",
        -1.0
      ],
      [
        "Ø¹ÙĬ",
        -1.0
      ],
      [
        "ĠÙħØµ",
        -1.0
      ],
      [
        "//",
        -1.0
      ],
      [
        "éĩĮ",
        -1.0
      ],
      [
        "à°Ĥà°¬",
        -1.0
      ],
      [
        "ÑģÐºÐ¾Ð¹",
        -1.0
      ],
      [
        "lerin",
        -1.0
      ],
      [
        "Ġkal",
        -1.0
      ],
      [
        "ew",
        -1.0
      ],
      [
        "lim",
        -1.0
      ],
      [
        "é¦",
        -1.0
      ],
      [
        "èī",
        -1.0
      ],
      [
        "imu",
        -1.0
      ],
      [
        "Ø§Ø¯ÙĬ",
        -1.0
      ],
      [
        "Ø¬Ø¯",
        -1.0
      ],
      [
        "à¤Ĥà¤Ĺ",
        -1.0
      ],
      [
        "à¹īà¸£",
        -1.0
      ],
      [
        "à¹Īà¸²à¸§",
        -1.0
      ],
      [
        "ĠaÃ§",
        -1.0
      ],
      [
        "à¹Ģà¸ļ",
        -1.0
      ],
      [
        "masÄ±",
        -1.0
      ],
      [
        "ØªØŃ",
        -1.0
      ],
      [
        "ould",
        -1.0
      ],
      [
        "å¢",
        -1.0
      ],
      [
        "à¹Ģà¸Ĺà¸¨",
        -1.0
      ],
      [
        "tp",
        -1.0
      ],
      [
        "Ġkum",
        -1.0
      ],
      [
        "à°¿à°·à°¯",
        -1.0
      ],
      [
        "à¥įà¤ļ",
        -1.0
      ],
      [
        "Ġsonra",
        -1.0
      ],
      [
        "ÙĢÙĢÙĢÙĢ",
        -1.0
      ],
      [
        "ĠÙĪØ¥",
        -1.0
      ],
      [
        "èħ",
        -1.0
      ],
      [
        "à¥ĩà¥¤",
        -1.0
      ],
      [
        "à¥įà¤¨",
        -1.0
      ],
      [
        "ĠØ§ÙĦØ£Ø³",
        -1.0
      ],
      [
        "Ð¾Ð½Ð°",
        -1.0
      ],
      [
        "Ġmi",
        -1.0
      ],
      [
        "Ġbas",
        -1.0
      ],
      [
        "ingi",
        -1.0
      ],
      [
        "01",
        -1.0
      ],
      [
        "à¸µà¸ģà¸²à¸£",
        -1.0
      ],
      [
        "ĠÐ²Ð¾",
        -1.0
      ],
      [
        "à±ĥà°¤",
        -1.0
      ],
      [
        "Ð´Ñĭ",
        -1.0
      ],
      [
        "à¸Ļà¸Ĺ",
        -1.0
      ],
      [
        "ary",
        -1.0
      ],
      [
        "åıĹ",
        -1.0
      ],
      [
        "ait",
        -1.0
      ],
      [
        "Ġlo",
        -1.0
      ],
      [
        "ĠÙĩÙĨØ§",
        -1.0
      ],
      [
        "Ġiz",
        -1.0
      ],
      [
        "Ġinc",
        -1.0
      ],
      [
        "mer",
        -1.0
      ],
      [
        "à±ĭà°¡",
        -1.0
      ],
      [
        "à±Ģà°®",
        -1.0
      ],
      [
        "ĠÑģÐ°Ð¼",
        -1.0
      ],
      [
        "cho",
        -1.0
      ],
      [
        "ç»ı",
        -1.0
      ],
      [
        "Ġkus",
        -1.0
      ],
      [
        "ÑģÑĤÐ²Ð¾",
        -1.0
      ],
      [
        "åĭķ",
        -1.0
      ],
      [
        "Ġpre",
        -1.0
      ],
      [
        "Ġamba",
        -1.0
      ],
      [
        "ingine",
        -1.0
      ],
      [
        "****",
        -1.0
      ],
      [
        "Ġvya",
        -1.0
      ],
      [
        "ÙĦÙĬÙĦ",
        -1.0
      ],
      [
        "ated",
        -1.0
      ],
      [
        "å¾Į",
        -1.0
      ],
      [
        "è³",
        -1.0
      ],
      [
        "à¸ªà¸£",
        -1.0
      ],
      [
        "ĠPro",
        -1.0
      ],
      [
        "ala",
        -1.0
      ],
      [
        "ĠÙĦØ£ÙĨ",
        -1.0
      ],
      [
        "åĵģ",
        -1.0
      ],
      [
        "èĬ",
        -1.0
      ],
      [
        "Ø£Ø©",
        -1.0
      ],
      [
        "åĲį",
        -1.0
      ],
      [
        "Ġaux",
        -1.0
      ],
      [
        "Ġà°ħà°§",
        -1.0
      ],
      [
        "ĠÐŃ",
        -1.0
      ],
      [
        "à¸´à¸ļ",
        -1.0
      ],
      [
        "æĤ¨",
        -1.0
      ],
      [
        "Ġmore",
        -1.0
      ],
      [
        ";Ċ",
        -1.0
      ],
      [
        "cha",
        -1.0
      ],
      [
        "Ġpers",
        -1.0
      ],
      [
        "ĠÙĪÙģÙĬ",
        -1.0
      ],
      [
        "Ġà¤¸à¤ķà¤¤",
        -1.0
      ],
      [
        "æĦŁ",
        -1.0
      ],
      [
        "gi",
        -1.0
      ],
      [
        "anza",
        -1.0
      ],
      [
        "æį",
        -1.0
      ],
      [
        "ilen",
        -1.0
      ],
      [
        "à¥ĩà¤²",
        -1.0
      ],
      [
        "ÑģÑĤÐ²Ð¸",
        -1.0
      ],
      [
        "ÑĢÐ°Ð²Ð¸",
        -1.0
      ],
      [
        "Ġà¤ĺ",
        -1.0
      ],
      [
        "à±ĥà°·",
        -1.0
      ],
      [
        "://",
        -1.0
      ],
      [
        "Ġnd",
        -1.0
      ],
      [
        "Ø§Ø¹Ø¯",
        -1.0
      ],
      [
        "ÙĤØ§",
        -1.0
      ],
      [
        "à±Ģà°¡",
        -1.0
      ],
      [
        "æľº",
        -1.0
      ],
      [
        "åĿ",
        -1.0
      ],
      [
        "æ°ĳ",
        -1.0
      ],
      [
        "à¸Ĵ",
        -1.0
      ],
      [
        "Ġta",
        -1.0
      ],
      [
        "ĠÙģØ¥ÙĨ",
        -1.0
      ],
      [
        "éģİ",
        -1.0
      ],
      [
        "à¥ĥ",
        -1.0
      ],
      [
        "åįģ",
        -1.0
      ],
      [
        "ÙĪØ±ÙĬ",
        -1.0
      ],
      [
        "Ġmas",
        -1.0
      ],
      [
        "use",
        -1.0
      ],
      [
        "à¹Įà¸Ĺ",
        -1.0
      ],
      [
        "Ø¸Ø§Ùħ",
        -1.0
      ],
      [
        "ĠLa",
        -1.0
      ],
      [
        "à±įà°°à°Ń",
        -1.0
      ],
      [
        "Ġà°īà°¦",
        -1.0
      ],
      [
        "èĭ",
        -1.0
      ],
      [
        "Ä±lan",
        -1.0
      ],
      [
        "Ġhat",
        -1.0
      ],
      [
        "cer",
        -1.0
      ],
      [
        "ĠØ¥Ø°Ø§",
        -1.0
      ],
      [
        "Ġmy",
        -1.0
      ],
      [
        "Ġà°ħà°ª",
        -1.0
      ],
      [
        "Ġsana",
        -1.0
      ],
      [
        "ĠØ¹ÙĦÙħ",
        -1.0
      ],
      [
        "ĠÑģÑĥ",
        -1.0
      ],
      [
        "à¹Ģà¸§à¸¥",
        -1.0
      ],
      [
        "Ġà¤īà¤¸à¤ķ",
        -1.0
      ],
      [
        "ack",
        -1.0
      ],
      [
        "à±Ģà°Ł",
        -1.0
      ],
      [
        "åħ³",
        -1.0
      ],
      [
        "à°¾à°²à°ķ",
        -1.0
      ],
      [
        "æĥħ",
        -1.0
      ],
      [
        "Ð»Ñĭ",
        -1.0
      ],
      [
        "à¸§à¸¡",
        -1.0
      ],
      [
        "Ø¸Ùħ",
        -1.0
      ],
      [
        "Ä±yor",
        -1.0
      ],
      [
        "ä¸ī",
        -1.0
      ],
      [
        "æ¥",
        -1.0
      ],
      [
        "Ø§Øº",
        -1.0
      ],
      [
        "à¸ĩà¸Ĺ",
        -1.0
      ],
      [
        "Ø§Ø¹Ø©",
        -1.0
      ],
      [
        "ä¸Ģä¸ª",
        -1.0
      ],
      [
        "min",
        -1.0
      ],
      [
        "ric",
        -1.0
      ],
      [
        "à¥ĭà¤Ł",
        -1.0
      ],
      [
        "à¸´à¹ī",
        -1.0
      ],
      [
        "à¸ŀà¸£",
        -1.0
      ],
      [
        "ĠÐ¿Ð¾Ð¼",
        -1.0
      ],
      [
        "ĠØ£ÙĨÙĩ",
        -1.0
      ],
      [
        "ĠÐĽ",
        -1.0
      ],
      [
        "Ø§ÙĦØ¨",
        -1.0
      ],
      [
        "ä¸İ",
        -1.0
      ],
      [
        "ä¿¡",
        -1.0
      ],
      [
        "à¸ģà¸³",
        -1.0
      ],
      [
        "Ġbulun",
        -1.0
      ],
      [
        "à°ĩ",
        -1.0
      ],
      [
        "unda",
        -1.0
      ],
      [
        "à°ªà°¡",
        -1.0
      ],
      [
        "è¿Ľ",
        -1.0
      ],
      [
        "à¤¢",
        -1.0
      ],
      [
        "ØºØ©",
        -1.0
      ],
      [
        "ole",
        -1.0
      ],
      [
        "ÑģÐºÐ¾Ð³Ð¾",
        -1.0
      ],
      [
        "Ġhis",
        -1.0
      ],
      [
        "ows",
        -1.0
      ],
      [
        "ĠØ§Ø¨ÙĨ",
        -1.0
      ],
      [
        "uh",
        -1.0
      ],
      [
        "à¹Ģà¸¥à¸¢",
        -1.0
      ],
      [
        "è²",
        -1.0
      ],
      [
        "à°®à°¨",
        -1.0
      ],
      [
        "ĠØ§ÙĦØ°ÙĬÙĨ",
        -1.0
      ],
      [
        "æ¯Ķ",
        -1.0
      ],
      [
        "à¥ĩà¤µ",
        -1.0
      ],
      [
        "Ġsp",
        -1.0
      ],
      [
        "Ġà°ªà°¡",
        -1.0
      ],
      [
        "à¸´à¸§",
        -1.0
      ],
      [
        "ĠÐ±Ð¾Ð»ÑĮ",
        -1.0
      ],
      [
        "Ø±Ø§Ø¡",
        -1.0
      ],
      [
        "ĠÙĪÙĤ",
        -1.0
      ],
      [
        "çĶ·",
        -1.0
      ],
      [
        "ĠÙħØ«ÙĦ",
        -1.0
      ],
      [
        "ĠÐ·Ð½Ð°",
        -1.0
      ],
      [
        "à¥ģà¤Ľ",
        -1.0
      ],
      [
        "Ø¯Ø¯",
        -1.0
      ],
      [
        "ĠÙĬØ³Øª",
        -1.0
      ],
      [
        "Ġcons",
        -1.0
      ],
      [
        "esha",
        -1.0
      ],
      [
        "Ġgerek",
        -1.0
      ],
      [
        "izo",
        -1.0
      ],
      [
        "ÙĬÙĩ",
        -1.0
      ],
      [
        "Ġtek",
        -1.0
      ],
      [
        "Ġà¹Ĥ",
        -1.0
      ],
      [
        "à¹Ģà¸Ńà¸ĩ",
        -1.0
      ],
      [
        "à°¾à°°à°£",
        -1.0
      ],
      [
        "éĢļ",
        -1.0
      ],
      [
        "Ġyak",
        -1.0
      ],
      [
        "ĠØ£Ø¨",
        -1.0
      ],
      [
        "ÑİÑīÐ¸",
        -1.0
      ],
      [
        "à¸±à¸Ļà¸Ĺ",
        -1.0
      ],
      [
        "san",
        -1.0
      ],
      [
        "Ø®Ø±Ùī",
        -1.0
      ],
      [
        "à¹Ģà¸¢",
        -1.0
      ],
      [
        "à¸²à¸Ī",
        -1.0
      ],
      [
        "ambo",
        -1.0
      ],
      [
        "iku",
        -1.0
      ],
      [
        "ÄŁr",
        -1.0
      ],
      [
        "Ð¾Ð»Ð¸",
        -1.0
      ],
      [
        "Ġtheir",
        -1.0
      ],
      [
        "Ġben",
        -1.0
      ],
      [
        "Ġyet",
        -1.0
      ],
      [
        "ilis",
        -1.0
      ],
      [
        "ÙĪÙĥ",
        -1.0
      ],
      [
        "Ġthey",
        -1.0
      ],
      [
        "ĠÙĪØ§ÙĦØ£",
        -1.0
      ],
      [
        "Ð½Ð¸Ð¸",
        -1.0
      ],
      [
        "ize",
        -1.0
      ],
      [
        "Ġcont",
        -1.0
      ],
      [
        "ĠÃ¼zer",
        -1.0
      ],
      [
        "ÙĦØ³",
        -1.0
      ],
      [
        "å°Ĩ",
        -1.0
      ],
      [
        "ĠØ§ÙĦÙħØ¬",
        -1.0
      ],
      [
        "Ã¶r",
        -1.0
      ],
      [
        "æŃ£",
        -1.0
      ],
      [
        "åĨį",
        -1.0
      ],
      [
        "ain",
        -1.0
      ],
      [
        "Ġkuk",
        -1.0
      ],
      [
        "ÙĪÙħØ©",
        -1.0
      ],
      [
        "çı",
        -1.0
      ],
      [
        "Ġnous",
        -1.0
      ],
      [
        "ayÄ±",
        -1.0
      ],
      [
        "ÙĦÙĥÙĨ",
        -1.0
      ],
      [
        "ÙĤØ¯Ùħ",
        -1.0
      ],
      [
        "02",
        -1.0
      ],
      [
        "Ø¨Ùĩ",
        -1.0
      ],
      [
        "Ø¶Ø¹",
        -1.0
      ],
      [
        "æİ¥",
        -1.0
      ],
      [
        "Ð¼Ñĭ",
        -1.0
      ],
      [
        "ĠØ¨Øª",
        -1.0
      ],
      [
        "æľŁ",
        -1.0
      ],
      [
        "lir",
        -1.0
      ],
      [
        "Ġmin",
        -1.0
      ],
      [
        "ĠUn",
        -1.0
      ],
      [
        "vi",
        -1.0
      ],
      [
        "æ·",
        -1.0
      ],
      [
        "lem",
        -1.0
      ],
      [
        "Ġhad",
        -1.0
      ],
      [
        "ĠgÃ¶re",
        -1.0
      ],
      [
        "be",
        -1.0
      ],
      [
        "ÙĪØŃ",
        -1.0
      ],
      [
        "à¥ģà¤¤",
        -1.0
      ],
      [
        "ç¥",
        -1.0
      ],
      [
        "Ġà°§",
        -1.0
      ],
      [
        "ÑĨÐ°",
        -1.0
      ],
      [
        "ven",
        -1.0
      ],
      [
        "Ġà¸Ľ",
        -1.0
      ],
      [
        "à±ģĊ",
        -1.0
      ],
      [
        "ĠØ´ÙĬ",
        -1.0
      ],
      [
        "ĠØ¥ÙĦÙĬ",
        -1.0
      ],
      [
        "ours",
        -1.0
      ],
      [
        "Ġkutoka",
        -1.0
      ],
      [
        "è°",
        -1.0
      ],
      [
        "ishi",
        -1.0
      ],
      [
        "ÑīÐ°",
        -1.0
      ],
      [
        "ÑĥÑĩ",
        -1.0
      ],
      [
        "Ġzaman",
        -1.0
      ],
      [
        "ĠÑĢÑĥ",
        -1.0
      ],
      [
        "Ġsab",
        -1.0
      ],
      [
        "ÙİÙĦ",
        -1.0
      ],
      [
        "Ġmais",
        -1.0
      ],
      [
        "à¸«à¸¡à¸²à¸¢",
        -1.0
      ],
      [
        "æ²¡",
        -1.0
      ],
      [
        "à¤ł",
        -1.0
      ],
      [
        "à¸Ħà¸³",
        -1.0
      ],
      [
        "Ġgen",
        -1.0
      ],
      [
        "ÑĨÐ¸Ñı",
        -1.0
      ],
      [
        "lÃ¼",
        -1.0
      ],
      [
        "Ø¬Ø©",
        -1.0
      ],
      [
        "Ġone",
        -1.0
      ],
      [
        "ants",
        -1.0
      ],
      [
        "hir",
        -1.0
      ],
      [
        "ĠÐ¾Ð´",
        -1.0
      ],
      [
        "à¸±à¸Ĵ",
        -1.0
      ],
      [
        "à¹ģà¸¡",
        -1.0
      ],
      [
        "ose",
        -1.0
      ],
      [
        "èŃ",
        -1.0
      ],
      [
        "ĠØ¹ÙħÙĦ",
        -1.0
      ],
      [
        "ĠÙĪØ§ØŃ",
        -1.0
      ],
      [
        "Ġmp",
        -1.0
      ],
      [
        "çĿ",
        -1.0
      ],
      [
        "ĠHot",
        -1.0
      ],
      [
        "Ø§ØµØ©",
        -1.0
      ],
      [
        "Ġveya",
        -1.0
      ],
      [
        "Ġwakati",
        -1.0
      ],
      [
        "ez",
        -1.0
      ],
      [
        "à¸±à¸Ĵà¸Ļ",
        -1.0
      ],
      [
        "ĠÙĦÙĥÙĨ",
        -1.0
      ],
      [
        "à¤¾à¤ĵ",
        -1.0
      ],
      [
        "à°İ",
        -1.0
      ],
      [
        "à¤Ĩ",
        -1.0
      ],
      [
        "Ð»ÐµÐ½Ð¸Ñı",
        -1.0
      ],
      [
        "Ø§Ø±Ùĥ",
        -1.0
      ],
      [
        "å½ĵ",
        -1.0
      ],
      [
        "Ġzaidi",
        -1.0
      ],
      [
        "çĽ®",
        -1.0
      ],
      [
        "à±įà°°à°¸",
        -1.0
      ],
      [
        "Ġtop",
        -1.0
      ],
      [
        "Ø±ØŃ",
        -1.0
      ],
      [
        "ink",
        -1.0
      ],
      [
        "Ð²Ð¾Ð´",
        -1.0
      ],
      [
        "Ġmar",
        -1.0
      ],
      [
        "Ġoff",
        -1.0
      ],
      [
        "ÙĬØ´",
        -1.0
      ],
      [
        "Ð½ÑĭÐ¼Ð¸",
        -1.0
      ],
      [
        "Ùį",
        -1.0
      ],
      [
        "its",
        -1.0
      ],
      [
        "ÙİØ§",
        -1.0
      ],
      [
        "ĠÐ¼Ñĭ",
        -1.0
      ],
      [
        "à¹īà¸²à¸¢",
        -1.0
      ],
      [
        "Ġmtu",
        -1.0
      ],
      [
        "Ġkuj",
        -1.0
      ],
      [
        "lara",
        -1.0
      ],
      [
        "ĠÙħØ¬",
        -1.0
      ],
      [
        "çģ",
        -1.0
      ],
      [
        "Ð¾Ð»ÑĮÐ·Ð¾Ð²Ð°",
        -1.0
      ],
      [
        "ÑģÑĥ",
        -1.0
      ],
      [
        "oci",
        -1.0
      ],
      [
        "å¼ı",
        -1.0
      ],
      [
        "åĻ",
        -1.0
      ],
      [
        "à±ģà°ļ",
        -1.0
      ],
      [
        "uku",
        -1.0
      ],
      [
        "ç¬¬",
        -1.0
      ],
      [
        "Ġabo",
        -1.0
      ],
      [
        "æľį",
        -1.0
      ],
      [
        "à¥ĩà¤¸",
        -1.0
      ],
      [
        "ĠsÃ¶",
        -1.0
      ],
      [
        "Ġhab",
        -1.0
      ],
      [
        "åģļ",
        -1.0
      ],
      [
        "à¹Īà¸Ńà¸¢",
        -1.0
      ],
      [
        "à±Ģà°¤",
        -1.0
      ],
      [
        "Ø·ÙĦ",
        -1.0
      ],
      [
        "Ġà°Ĩà°®",
        -1.0
      ],
      [
        "è»Ĭ",
        -1.0
      ],
      [
        "Ã¼rk",
        -1.0
      ],
      [
        "à°¨à°²",
        -1.0
      ],
      [
        "èº«",
        -1.0
      ],
      [
        "ĠÙĪØ§ÙĦØ¹",
        -1.0
      ],
      [
        "à¤¥",
        -1.0
      ],
      [
        "ĠØŁ",
        -1.0
      ],
      [
        "esh",
        -1.0
      ],
      [
        "ÑģÑĤÑĥ",
        -1.0
      ],
      [
        "Ġà°µà°¸",
        -1.0
      ],
      [
        "à¹ĥà¸«à¸¡",
        -1.0
      ],
      [
        "à¸«à¸¥à¸²à¸¢",
        -1.0
      ],
      [
        "à¸µà¸Ħà¸§à¸²à¸¡",
        -1.0
      ],
      [
        "ÐµÐ½ÑĤ",
        -1.0
      ],
      [
        "à¤ģ",
        -1.0
      ],
      [
        "à±Ģ,",
        -1.0
      ],
      [
        "ĠØ§ÙĦØ¥ÙĨØ³",
        -1.0
      ],
      [
        "husu",
        -1.0
      ],
      [
        "Ġkadar",
        -1.0
      ],
      [
        "à¹ĩà¸ļ",
        -1.0
      ],
      [
        "Ġden",
        -1.0
      ],
      [
        "ĠÑģÐ¿",
        -1.0
      ],
      [
        "Ġà°īà°ª",
        -1.0
      ],
      [
        "ivers",
        -1.0
      ],
      [
        "à¸¹à¸¥",
        -1.0
      ],
      [
        "çĶ±",
        -1.0
      ],
      [
        "ĠØªØ¬",
        -1.0
      ],
      [
        "own",
        -1.0
      ],
      [
        "Ð¼Ñĥ",
        -1.0
      ],
      [
        "ĠØ§ÙĦØ¯ÙĪÙĦ",
        -1.0
      ],
      [
        "à¥Ģà¤¯",
        -1.0
      ],
      [
        "ĠØ¨Ø£ÙĨ",
        -1.0
      ],
      [
        "à¥įà¤§",
        -1.0
      ],
      [
        "à±ĩà°ª",
        -1.0
      ],
      [
        "à±ĭ,",
        -1.0
      ],
      [
        "ç¨ĭ",
        -1.0
      ],
      [
        "26",
        -1.0
      ],
      [
        "ĠÙĬØ¯",
        -1.0
      ],
      [
        "ÐºÐ°Ð·Ð°",
        -1.0
      ],
      [
        "Ġ..",
        -1.0
      ],
      [
        "å·±",
        -1.0
      ],
      [
        "Ã©n",
        -1.0
      ],
      [
        "Ø®Ø¯",
        -1.0
      ],
      [
        "ÑĤÐ¾Ð±Ñĭ",
        -1.0
      ],
      [
        "Ġkim",
        -1.0
      ],
      [
        "åºĹ",
        -1.0
      ],
      [
        "ĠÐ¿ÐµÑĢ",
        -1.0
      ],
      [
        "Ġwat",
        -1.0
      ],
      [
        "à¥Īà¥¤Ċ",
        -1.0
      ],
      [
        "tedir",
        -1.0
      ],
      [
        "60",
        -1.0
      ],
      [
        "Ġà¸Ĥ",
        -1.0
      ],
      [
        "ÐµÐ½Ð¸Ð¸",
        -1.0
      ],
      [
        "'t",
        -1.0
      ],
      [
        "à¸µà¸Ĺ",
        -1.0
      ],
      [
        "Ġà¤¤à¤°",
        -1.0
      ],
      [
        "æĬĬ",
        -1.0
      ],
      [
        "ä½¿çĶ¨",
        -1.0
      ],
      [
        "oÄŁ",
        -1.0
      ],
      [
        "ĠØ§ÙĦÙħØ¤",
        -1.0
      ],
      [
        "asÄ±nda",
        -1.0
      ],
      [
        "ĠÑģÐ²",
        -1.0
      ],
      [
        "80",
        -1.0
      ],
      [
        "çŁ¥",
        -1.0
      ],
      [
        "Ġaj",
        -1.0
      ],
      [
        "leÅŁ",
        -1.0
      ],
      [
        "ĠÙģÙĩ",
        -1.0
      ],
      [
        "Ø£Ø³",
        -1.0
      ],
      [
        "Ġuz",
        -1.0
      ],
      [
        "å¹¶",
        -1.0
      ],
      [
        "aÄŁ",
        -1.0
      ],
      [
        "daki",
        -1.0
      ],
      [
        "Ġsan",
        -1.0
      ],
      [
        "ĠÑģÐ»Ñĥ",
        -1.0
      ],
      [
        "à±ĩ,",
        -1.0
      ],
      [
        "à¸µà¸Ļ",
        -1.0
      ],
      [
        "ĠÙĬÙĤ",
        -1.0
      ],
      [
        "à±Ĭà°²",
        -1.0
      ],
      [
        "ĠsaÄŁ",
        -1.0
      ],
      [
        "uv",
        -1.0
      ],
      [
        "Ä±lÄ±",
        -1.0
      ],
      [
        "à¸ĩà¸ª",
        -1.0
      ],
      [
        "Ġcr",
        -1.0
      ],
      [
        "ĠÐ¿Ð°",
        -1.0
      ],
      [
        "Ð¾Ð²Ñĭ",
        -1.0
      ],
      [
        "ĠÙĥØ¨",
        -1.0
      ],
      [
        "å¸Ĥ",
        -1.0
      ],
      [
        "çīĩ",
        -1.0
      ],
      [
        "Ġmad",
        -1.0
      ],
      [
        "à¸·à¸Ńà¸ĩ",
        -1.0
      ],
      [
        "ä¾Ľ",
        -1.0
      ],
      [
        "Ġum",
        -1.0
      ],
      [
        "Ġà¤ķà¤®",
        -1.0
      ],
      [
        "à¤Ĥà¤¦",
        -1.0
      ],
      [
        "Ã©c",
        -1.0
      ],
      [
        "ĠyaÅŁ",
        -1.0
      ],
      [
        "ĠÙħØŃÙħØ¯",
        -1.0
      ],
      [
        "ĠQ",
        -1.0
      ],
      [
        "à±Īà°²",
        -1.0
      ],
      [
        "ĠØ¸",
        -1.0
      ],
      [
        "Ġpos",
        -1.0
      ],
      [
        "à¸Īà¸£",
        -1.0
      ],
      [
        "hip",
        -1.0
      ],
      [
        "ken",
        -1.0
      ],
      [
        "Ġfin",
        -1.0
      ],
      [
        "06",
        -1.0
      ],
      [
        "Ø¹Ø±",
        -1.0
      ],
      [
        "Ġtro",
        -1.0
      ],
      [
        "åĪ¶",
        -1.0
      ],
      [
        "any",
        -1.0
      ],
      [
        "å°į",
        -1.0
      ],
      [
        "Ġjuu",
        -1.0
      ],
      [
        "Ø±ÙĥØ©",
        -1.0
      ],
      [
        "éĤĦ",
        -1.0
      ],
      [
        "Ãł",
        -1.0
      ],
      [
        "çĪ",
        -1.0
      ],
      [
        "é«Ķ",
        -1.0
      ],
      [
        "ĠØ£Øµ",
        -1.0
      ],
      [
        "ÙĨÙī",
        -1.0
      ],
      [
        "uru",
        -1.0
      ],
      [
        "ass",
        -1.0
      ],
      [
        "Ä±nÄ±z",
        -1.0
      ],
      [
        "à¸¸à¸Ļ",
        -1.0
      ],
      [
        "Ġmoja",
        -1.0
      ],
      [
        "IN",
        -1.0
      ],
      [
        "Ġà¹Ĩ",
        -1.0
      ],
      [
        "ĠØ¹Ø¨Ø¯",
        -1.0
      ],
      [
        "à¤¹à¤°",
        -1.0
      ],
      [
        "'d",
        -1.0
      ],
      [
        "Ġvi",
        -1.0
      ],
      [
        "èĩªå·±",
        -1.0
      ],
      [
        "Ġà¤īà¤¨à¤ķ",
        -1.0
      ],
      [
        "à¹ģà¸«",
        -1.0
      ],
      [
        "éĹ´",
        -1.0
      ],
      [
        "âĢĻa",
        -1.0
      ],
      [
        "Ġlik",
        -1.0
      ],
      [
        "90",
        -1.0
      ],
      [
        "Ġà¤Ľ",
        -1.0
      ],
      [
        "çĶµ",
        -1.0
      ],
      [
        "à±Ĭà°°",
        -1.0
      ],
      [
        "åĽŀ",
        -1.0
      ],
      [
        "Ð½Ð¸Ð¼Ð°",
        -1.0
      ],
      [
        "ØªÙħØ§Ø¹",
        -1.0
      ],
      [
        "Ġkit",
        -1.0
      ],
      [
        "ä¸ĸ",
        -1.0
      ],
      [
        "ase",
        -1.0
      ],
      [
        "à¸ŀà¸¥",
        -1.0
      ],
      [
        "ther",
        -1.0
      ],
      [
        "ÙģÙĦ",
        -1.0
      ],
      [
        "ï¼ģ",
        -1.0
      ],
      [
        "åºĶ",
        -1.0
      ],
      [
        "Ø¯Ùī",
        -1.0
      ],
      [
        "Ð»Ð¾Ñģ",
        -1.0
      ],
      [
        "åľĭ",
        -1.0
      ],
      [
        "æĺİ",
        -1.0
      ],
      [
        "éħĴ",
        -1.0
      ],
      [
        "tadÄ±r",
        -1.0
      ],
      [
        "ĠÐ¼ÐµÐ½",
        -1.0
      ],
      [
        "ld",
        -1.0
      ],
      [
        "à°¾à°ļ",
        -1.0
      ],
      [
        "ÙĪÙħØ§Øª",
        -1.0
      ],
      [
        "ĠØ¨Ø§ÙĦÙħ",
        -1.0
      ],
      [
        "ĠFr",
        -1.0
      ],
      [
        "Ġart",
        -1.0
      ],
      [
        "ugh",
        -1.0
      ],
      [
        "ÑİÑĤÑģÑı",
        -1.0
      ],
      [
        "à¹īà¸²à¸¡",
        -1.0
      ],
      [
        "Ġyar",
        -1.0
      ],
      [
        "ĠMar",
        -1.0
      ],
      [
        "uc",
        -1.0
      ],
      [
        "åł",
        -1.0
      ],
      [
        "iÄŁ",
        -1.0
      ],
      [
        "ph",
        -1.0
      ],
      [
        "à¸£à¸ģ",
        -1.0
      ],
      [
        "Ø§Ø³ÙĬØ©",
        -1.0
      ],
      [
        "Ġfo",
        -1.0
      ],
      [
        "Ð¾Ð´Ñĥ",
        -1.0
      ],
      [
        "ĠÐ´Ð¸",
        -1.0
      ],
      [
        "à±ĩà°ľ",
        -1.0
      ],
      [
        "éķ¿",
        -1.0
      ],
      [
        "è©",
        -1.0
      ],
      [
        "Ġà¹Ħà¸¡",
        -1.0
      ],
      [
        "ires",
        -1.0
      ],
      [
        "Ġà¤®à¤¹",
        -1.0
      ],
      [
        "Ð»Ð¸ÑģÑĮ",
        -1.0
      ],
      [
        "........",
        -1.0
      ],
      [
        "Ġserv",
        -1.0
      ],
      [
        "Ø¹Øª",
        -1.0
      ],
      [
        "ĠMa",
        -1.0
      ],
      [
        "ä½ĵ",
        -1.0
      ],
      [
        "ĠØ§ÙĦØ¬Ùħ",
        -1.0
      ],
      [
        "ÑģÑĤÐ¾Ñı",
        -1.0
      ],
      [
        "EN",
        -1.0
      ],
      [
        "fi",
        -1.0
      ],
      [
        "ĠØ§ÙĦØ§",
        -1.0
      ],
      [
        "ØŃØ±",
        -1.0
      ],
      [
        "Ġà°ªà°Ł",
        -1.0
      ],
      [
        "ÑĦÐ¾ÑĢ",
        -1.0
      ],
      [
        "Ġà¸ĸ",
        -1.0
      ],
      [
        "ÑģÑģÐ¸",
        -1.0
      ],
      [
        "ĠØ¹Ùħ",
        -1.0
      ],
      [
        "eti",
        -1.0
      ],
      [
        "oh",
        -1.0
      ],
      [
        "ĠÙĦÙĩØ§",
        -1.0
      ],
      [
        "ets",
        -1.0
      ],
      [
        "Ġà¤¤à¤ķ",
        -1.0
      ],
      [
        "à¸¶à¸ģà¸©",
        -1.0
      ],
      [
        "ec",
        -1.0
      ],
      [
        "ĠÙĪÙĦÙĥÙĨ",
        -1.0
      ],
      [
        "âĢĻest",
        -1.0
      ],
      [
        "Ġà°¤à°®",
        -1.0
      ],
      [
        "ĠØªØ´",
        -1.0
      ],
      [
        "à¸Ńà¸ĩà¸Ħ",
        -1.0
      ],
      [
        "ĠbÃ¼y",
        -1.0
      ],
      [
        "à¸¢à¸§",
        -1.0
      ],
      [
        "à¹Ĥà¸¥à¸ģ",
        -1.0
      ],
      [
        "mad",
        -1.0
      ],
      [
        "Ġà¹Ħà¸Ķ",
        -1.0
      ],
      [
        "Ġà°ħà°Ń",
        -1.0
      ],
      [
        "ical",
        -1.0
      ],
      [
        ".w",
        -1.0
      ],
      [
        "Ġwhich",
        -1.0
      ],
      [
        "æĶ¿",
        -1.0
      ],
      [
        "04",
        -1.0
      ],
      [
        "28",
        -1.0
      ],
      [
        "æ»",
        -1.0
      ],
      [
        "ĠØ§ÙĦØ¶",
        -1.0
      ],
      [
        "ĠÙĪÙģ",
        -1.0
      ],
      [
        "à¸´à¸ĺ",
        -1.0
      ],
      [
        "Ø§ÙĨÙĪÙĨ",
        -1.0
      ],
      [
        "å®¢",
        -1.0
      ],
      [
        "æħ",
        -1.0
      ],
      [
        "Ġmt",
        -1.0
      ],
      [
        "à¤¾à¤¬",
        -1.0
      ],
      [
        "ĠØ¯ÙĪÙĨ",
        -1.0
      ],
      [
        "à±įà°°à°ª",
        -1.0
      ],
      [
        "ĠÐĿÐ°",
        -1.0
      ],
      [
        "Ġà¤Ĳ",
        -1.0
      ],
      [
        "ĠØ§ÙĦØ§Ùħ",
        -1.0
      ],
      [
        "Ð¼Ð¾Ð¶",
        -1.0
      ],
      [
        "Ø¦ÙĬØ³",
        -1.0
      ],
      [
        "Ġà¸¢",
        -1.0
      ],
      [
        "In",
        -1.0
      ],
      [
        "à¤¾à¤Ĺ",
        -1.0
      ],
      [
        "Ġfir",
        -1.0
      ],
      [
        "Ġrec",
        -1.0
      ],
      [
        "ĠØªØµ",
        -1.0
      ],
      [
        "Ġà°ħà°¡",
        -1.0
      ],
      [
        "Ġyaz",
        -1.0
      ],
      [
        "âĢĻÃ©",
        -1.0
      ],
      [
        "Ø±Ùī",
        -1.0
      ],
      [
        "aÃ§",
        -1.0
      ],
      [
        "à±ģà°¬",
        -1.0
      ],
      [
        "Ø§Ø³Ø©",
        -1.0
      ],
      [
        "ĠCom",
        -1.0
      ],
      [
        "27",
        -1.0
      ],
      [
        "ies",
        -1.0
      ],
      [
        "Ġvar",
        -1.0
      ],
      [
        "à¤ħ",
        -1.0
      ],
      [
        "icro",
        -1.0
      ],
      [
        "à¥ģà¤®",
        -1.0
      ],
      [
        "Ø§Ø±ÙĬØ®",
        -1.0
      ],
      [
        "ner",
        -1.0
      ],
      [
        "ĠÙĦØ£",
        -1.0
      ],
      [
        "à¹īà¸²à¸Ĺ",
        -1.0
      ],
      [
        "Ġà¤ħà¤²",
        -1.0
      ],
      [
        "Ġkila",
        -1.0
      ],
      [
        "åĮĸ",
        -1.0
      ],
      [
        "Ġà¸Ĭ",
        -1.0
      ],
      [
        "ĠÐĹ",
        -1.0
      ],
      [
        "Ġà¤ħà¤§",
        -1.0
      ],
      [
        "à¸Ńà¸²à¸Ī",
        -1.0
      ],
      [
        "ÑĩÐ½Ð¾",
        -1.0
      ],
      [
        "ĠÑįÑĤ",
        -1.0
      ],
      [
        "mektedir",
        -1.0
      ],
      [
        "jia",
        -1.0
      ],
      [
        "à±į.",
        -1.0
      ],
      [
        "Ġaf",
        -1.0
      ],
      [
        "Ġcol",
        -1.0
      ],
      [
        "Ø§ØŃØ©",
        -1.0
      ],
      [
        "Ġà¸«",
        -1.0
      ],
      [
        "à¸µà¸ª",
        -1.0
      ],
      [
        "ely",
        -1.0
      ],
      [
        "à¹ĥà¸«à¸į",
        -1.0
      ],
      [
        "kini",
        -1.0
      ],
      [
        "ĠÐ¸Ñħ",
        -1.0
      ],
      [
        "oma",
        -1.0
      ],
      [
        "ÑĬ",
        -1.0
      ],
      [
        "Ø¹ÙĬØ©",
        -1.0
      ],
      [
        "ÙİÙĨ",
        -1.0
      ],
      [
        "ä½ķ",
        -1.0
      ],
      [
        "à±ģ]Ċ",
        -1.0
      ],
      [
        "ÑĤÐµÑĢ",
        -1.0
      ],
      [
        "ÙĦÙĬØ©",
        -1.0
      ],
      [
        "Ġà°·",
        -1.0
      ],
      [
        "Ø§ÙĦØª",
        -1.0
      ],
      [
        "anda",
        -1.0
      ],
      [
        "ĠØ£ØŃ",
        -1.0
      ],
      [
        "ÙĲÙĳ",
        -1.0
      ],
      [
        "Ø§ÙĦØŃ",
        -1.0
      ],
      [
        "ley",
        -1.0
      ],
      [
        "ĠÙĬÙĪÙħ",
        -1.0
      ],
      [
        "larda",
        -1.0
      ],
      [
        "ĠØ§ÙĦØ¹ÙħÙĦ",
        -1.0
      ],
      [
        "ĠÑĩÐµ",
        -1.0
      ],
      [
        "ĠdoÄŁ",
        -1.0
      ],
      [
        "Ø¨Ø§Øª",
        -1.0
      ],
      [
        "à¥Ģà¤°",
        -1.0
      ],
      [
        "ĠÙħÙĨÙĩØ§",
        -1.0
      ],
      [
        "åĳĺ",
        -1.0
      ],
      [
        "çĻ¼",
        -1.0
      ],
      [
        "èĲ",
        -1.0
      ],
      [
        "ese",
        -1.0
      ],
      [
        "Ġour",
        -1.0
      ],
      [
        "ĠTr",
        -1.0
      ],
      [
        "æĸ¼",
        -1.0
      ],
      [
        "à±Ĩà°¯",
        -1.0
      ],
      [
        "Ġà°®à°§",
        -1.0
      ],
      [
        "æ£",
        -1.0
      ],
      [
        "Ġ|",
        -1.0
      ],
      [
        "Ġà°ĸ",
        -1.0
      ],
      [
        "ule",
        -1.0
      ],
      [
        "ĠdÃ¶n",
        -1.0
      ],
      [
        "ede",
        -1.0
      ],
      [
        "æ¶",
        -1.0
      ],
      [
        "çĹ",
        -1.0
      ],
      [
        "Ġcette",
        -1.0
      ],
      [
        "Ġif",
        -1.0
      ],
      [
        "Ġkap",
        -1.0
      ],
      [
        "Ġabout",
        -1.0
      ],
      [
        "Ã´",
        -1.0
      ],
      [
        "äºĮ",
        -1.0
      ],
      [
        "åĪ©",
        -1.0
      ],
      [
        "éĸĭ",
        -1.0
      ],
      [
        "Ø§Ø¦ÙĬØ©",
        -1.0
      ],
      [
        "à¥įà¤¯à¤ķ",
        -1.0
      ],
      [
        "Ø¯ÙĬØ«",
        -1.0
      ],
      [
        "ts",
        -1.0
      ],
      [
        "yla",
        -1.0
      ],
      [
        "mas",
        -1.0
      ],
      [
        "arak",
        -1.0
      ],
      [
        "Ġdon",
        -1.0
      ],
      [
        "æ²¡æľī",
        -1.0
      ],
      [
        "Ġel",
        -1.0
      ],
      [
        "Ġà°ħà°ķ",
        -1.0
      ],
      [
        "Ġà¤¸à¤°",
        -1.0
      ],
      [
        "åĻ¨",
        -1.0
      ],
      [
        "åĤ",
        -1.0
      ],
      [
        "ÑĥÐ¶",
        -1.0
      ],
      [
        "ï¼Įä½Ĩ",
        -1.0
      ],
      [
        "ÑĢÐ°Ð¼",
        -1.0
      ],
      [
        "à¸¹à¸Ľ",
        -1.0
      ],
      [
        "ĠÐ´Ð¾Ð»",
        -1.0
      ],
      [
        "ĠÐ±Ðµ",
        -1.0
      ],
      [
        "à¸±à¸ļà¸ģà¸²à¸£",
        -1.0
      ],
      [
        "app",
        -1.0
      ],
      [
        "ÐµÐ¼Ñĥ",
        -1.0
      ],
      [
        "âĢĶâĢĶ",
        -1.0
      ],
      [
        "à¸®",
        -1.0
      ],
      [
        "ĠÅŁek",
        -1.0
      ],
      [
        "çĤ¹",
        -1.0
      ],
      [
        "Ġ!",
        -1.0
      ],
      [
        "åĬ¡",
        -1.0
      ],
      [
        "Ġder",
        -1.0
      ],
      [
        "à¹Ģà¸ĭ",
        -1.0
      ],
      [
        "Ġnew",
        -1.0
      ],
      [
        "Ġà¤ĩà¤¨",
        -1.0
      ],
      [
        "Ð½ÐµÐ¹",
        -1.0
      ],
      [
        "Ġmbali",
        -1.0
      ],
      [
        "reat",
        -1.0
      ],
      [
        "à¥ģà¤¦",
        -1.0
      ],
      [
        "--------",
        -1.0
      ],
      [
        "ÙĪÙĦØ§",
        -1.0
      ],
      [
        "ique",
        -1.0
      ],
      [
        "Ġses",
        -1.0
      ],
      [
        "Ġab",
        -1.0
      ],
      [
        "ikali",
        -1.0
      ],
      [
        "Ø¨Øª",
        -1.0
      ],
      [
        "Ġambayo",
        -1.0
      ],
      [
        "å»º",
        -1.0
      ],
      [
        "ks",
        -1.0
      ],
      [
        "ĠØ¨Ø±",
        -1.0
      ],
      [
        "ÑģÑĤÐµ",
        -1.0
      ],
      [
        "à±įà°°à°ľ",
        -1.0
      ],
      [
        "à±įà°µà°°",
        -1.0
      ],
      [
        "day",
        -1.0
      ],
      [
        "ÙĪØ§Ø¨",
        -1.0
      ],
      [
        "ØŃÙĪ",
        -1.0
      ],
      [
        "Ġkub",
        -1.0
      ],
      [
        "ĠMt",
        -1.0
      ],
      [
        "ĠÐ±Ñĥ",
        -1.0
      ],
      [
        "okuwa",
        -1.0
      ],
      [
        "ĠÃ¶zel",
        -1.0
      ],
      [
        "Ġà¸¥",
        -1.0
      ],
      [
        "à¥įà¤°à¤¤",
        -1.0
      ],
      [
        "..Ċ",
        -1.0
      ],
      [
        "à¸Ļà¸°",
        -1.0
      ],
      [
        "à¤¸à¤°",
        -1.0
      ],
      [
        "Ġbaada",
        -1.0
      ],
      [
        "æķ°",
        -1.0
      ],
      [
        "eÅŁ",
        -1.0
      ],
      [
        "ĠØªØ£",
        -1.0
      ],
      [
        "ĠÑĤÐ¾Ð»ÑĮÐºÐ¾",
        -1.0
      ],
      [
        "ĠdÃ¼ÅŁ",
        -1.0
      ],
      [
        "à°Ĥà°Ń",
        -1.0
      ],
      [
        "Ġà°ĩà°ª",
        -1.0
      ],
      [
        "Ġà¸ľ",
        -1.0
      ],
      [
        "Ð¸ÑĤÑĮ",
        -1.0
      ],
      [
        "Ð½Ð¸Ðº",
        -1.0
      ],
      [
        "Ø®ØªÙĦÙģ",
        -1.0
      ],
      [
        "ĠØ§Ø±",
        -1.0
      ],
      [
        "ĠØªØ³",
        -1.0
      ],
      [
        "Ð±Ð¾ÑĤ",
        -1.0
      ],
      [
        "à±ĭà°µà°¡",
        -1.0
      ],
      [
        "æ¼",
        -1.0
      ],
      [
        "ĠÑĩÑĤÐ¾Ð±Ñĭ",
        -1.0
      ],
      [
        "29",
        -1.0
      ],
      [
        "éº",
        -1.0
      ],
      [
        "éŁ",
        -1.0
      ],
      [
        "Ġtaraf",
        -1.0
      ],
      [
        "à¸Īà¸Ļ",
        -1.0
      ],
      [
        "ÙĤÙĬÙĤ",
        -1.0
      ],
      [
        "è·¯",
        -1.0
      ],
      [
        "Ġek",
        -1.0
      ],
      [
        "Ġsy",
        -1.0
      ],
      [
        "angu",
        -1.0
      ],
      [
        "adhi",
        -1.0
      ],
      [
        "ĠAb",
        -1.0
      ],
      [
        "ĠØŃØ¯",
        -1.0
      ],
      [
        "Ġà¹Ģà¸¡",
        -1.0
      ],
      [
        "Ġiki",
        -1.0
      ],
      [
        "ĠbÃ¶l",
        -1.0
      ],
      [
        "las",
        -1.0
      ],
      [
        "ÙģØª",
        -1.0
      ],
      [
        "ath",
        -1.0
      ],
      [
        "à¥Ģà¤µ",
        -1.0
      ],
      [
        "Ġuna",
        -1.0
      ],
      [
        "azo",
        -1.0
      ],
      [
        "ĠÐ£",
        -1.0
      ],
      [
        "à¤¿à¤§",
        -1.0
      ],
      [
        "ĠØ§ÙĦÙħØµ",
        -1.0
      ],
      [
        "ĠØªØ¯",
        -1.0
      ],
      [
        "à°¸à°°",
        -1.0
      ],
      [
        "ational",
        -1.0
      ],
      [
        "Ð»ÐµÐ¹",
        -1.0
      ],
      [
        "à¸Ľà¸£à¸°à¸ģ",
        -1.0
      ],
      [
        "à¤·",
        -1.0
      ],
      [
        "ĠÐºÑĥ",
        -1.0
      ],
      [
        "èªª",
        -1.0
      ],
      [
        "Ġid",
        -1.0
      ],
      [
        "éĿŀ",
        -1.0
      ],
      [
        "à¸²à¸°",
        -1.0
      ],
      [
        "Ġtak",
        -1.0
      ],
      [
        "Ð»Ð¾Ð¶",
        -1.0
      ],
      [
        "lama",
        -1.0
      ],
      [
        "ĠKwa",
        -1.0
      ],
      [
        "Ø§Ø¬ØªÙħØ§Ø¹",
        -1.0
      ],
      [
        "à¸Ľà¸£à¸°à¹Ģà¸Ĺà¸¨",
        -1.0
      ],
      [
        "æ´»",
        -1.0
      ],
      [
        "Ø³Ø±",
        -1.0
      ],
      [
        "ĠØ§ÙĦØŃÙĬ",
        -1.0
      ],
      [
        "Ð¾Ð»ÐµÐµ",
        -1.0
      ],
      [
        "à¸²à¸¨",
        -1.0
      ],
      [
        "Ø¨Ø¹",
        -1.0
      ],
      [
        "unun",
        -1.0
      ],
      [
        "à¸·à¸Ńà¸ģ",
        -1.0
      ],
      [
        "ĠÐ±ÑĭÐ»Ð¾",
        -1.0
      ],
      [
        "'est",
        -1.0
      ],
      [
        "çł",
        -1.0
      ],
      [
        "à¥ģà¤µ",
        -1.0
      ],
      [
        "à±Ĭà°¡",
        -1.0
      ],
      [
        "ĠÐ±ÑĥÐ´",
        -1.0
      ],
      [
        "çĶ·äºº",
        -1.0
      ],
      [
        "fe",
        -1.0
      ],
      [
        "ĠØŃÙĤ",
        -1.0
      ],
      [
        "ä¹Ī",
        -1.0
      ],
      [
        "à¥Ģà¤¤",
        -1.0
      ],
      [
        "ä»£",
        -1.0
      ],
      [
        "ry",
        -1.0
      ],
      [
        "ĠØ§ÙĦØ¹Ø±Ø¨ÙĬØ©",
        -1.0
      ],
      [
        "éĩı",
        -1.0
      ],
      [
        "uis",
        -1.0
      ],
      [
        "ÙħØ§ÙĨ",
        -1.0
      ],
      [
        "Ã¼t",
        -1.0
      ],
      [
        "Ġà¤¬à¤¹",
        -1.0
      ],
      [
        "å®ŀ",
        -1.0
      ],
      [
        "AT",
        -1.0
      ],
      [
        "à±įà°Łà°°",
        -1.0
      ],
      [
        "à¸µà¸¢à¸§",
        -1.0
      ],
      [
        "illi",
        -1.0
      ],
      [
        "Ġgro",
        -1.0
      ],
      [
        "à±įà°¯à°¤",
        -1.0
      ],
      [
        "Ġph",
        -1.0
      ],
      [
        "Ġsup",
        -1.0
      ],
      [
        "Ø¬Ø²",
        -1.0
      ],
      [
        "Ġhay",
        -1.0
      ],
      [
        "asema",
        -1.0
      ],
      [
        "Ð½Ð¸ÐºÐ°",
        -1.0
      ],
      [
        "ible",
        -1.0
      ],
      [
        "ÑĤÐµÐ»ÑĮÐ½Ð¾",
        -1.0
      ],
      [
        "éĹ®",
        -1.0
      ],
      [
        "Ġche",
        -1.0
      ],
      [
        "à¸´à¸¢",
        -1.0
      ],
      [
        "edia",
        -1.0
      ],
      [
        "ĠEx",
        -1.0
      ],
      [
        "à¸¤",
        -1.0
      ],
      [
        "enc",
        -1.0
      ],
      [
        "à¸ģà¸£à¸£à¸¡",
        -1.0
      ],
      [
        "Ġcar",
        -1.0
      ],
      [
        "à¸´à¸¥",
        -1.0
      ],
      [
        "ÑĢÐµÐ´",
        -1.0
      ],
      [
        "ĠÃĸ",
        -1.0
      ],
      [
        "ĠÙĪÙĩÙĬ",
        -1.0
      ],
      [
        "ĠÙħØ¤",
        -1.0
      ],
      [
        "amoja",
        -1.0
      ],
      [
        "ä»ĸä»¬",
        -1.0
      ],
      [
        "gram",
        -1.0
      ],
      [
        "31",
        -1.0
      ],
      [
        "ØªØ¹",
        -1.0
      ],
      [
        "à¸´à¸ª",
        -1.0
      ],
      [
        "Ø§Ø³ÙĬ",
        -1.0
      ],
      [
        "ÙĲÙĨ",
        -1.0
      ],
      [
        "Ġprodu",
        -1.0
      ],
      [
        "Ġdif",
        -1.0
      ],
      [
        "uti",
        -1.0
      ],
      [
        "Ø®Ø°",
        -1.0
      ],
      [
        "à¹Ģà¸«à¸¥",
        -1.0
      ],
      [
        "ĠØ§Øª",
        -1.0
      ],
      [
        "ĠÙĪØµ",
        -1.0
      ],
      [
        "ÙĥÙĬ",
        -1.0
      ],
      [
        "ĠÑģÐ¾Ð²",
        -1.0
      ],
      [
        "udi",
        -1.0
      ],
      [
        "Ø±Ø³",
        -1.0
      ],
      [
        "ÑģÑĭ",
        -1.0
      ],
      [
        "ÙĪÙĤØ¹",
        -1.0
      ],
      [
        "åĦ",
        -1.0
      ],
      [
        "ÙĤØ§Øª",
        -1.0
      ],
      [
        "ree",
        -1.0
      ],
      [
        "ĠIl",
        -1.0
      ],
      [
        "ES",
        -1.0
      ],
      [
        "à¸Ľà¸£à¸°à¸ª",
        -1.0
      ],
      [
        "ĠkarÅŁ",
        -1.0
      ],
      [
        "atu",
        -1.0
      ],
      [
        "Ġndi",
        -1.0
      ],
      [
        "ĠÑħÐ¾",
        -1.0
      ],
      [
        "à±įà°¯à°µ",
        -1.0
      ],
      [
        "ÙıÙħ",
        -1.0
      ],
      [
        "Ġà°İà°²",
        -1.0
      ],
      [
        "Ø§Ø°Ø§",
        -1.0
      ],
      [
        "Ġ&",
        -1.0
      ],
      [
        "ÑĢÐ¾Ð¹",
        -1.0
      ],
      [
        "Ġoy",
        -1.0
      ],
      [
        "à¸´à¸ģà¸²à¸£",
        -1.0
      ],
      [
        "à±Ģà°ª",
        -1.0
      ],
      [
        "moja",
        -1.0
      ],
      [
        "vu",
        -1.0
      ],
      [
        "Ð»Ð¾ÑģÑĮ",
        -1.0
      ],
      [
        "70",
        -1.0
      ],
      [
        "ÙĪØ§Ø±",
        -1.0
      ],
      [
        "ĠØ¨Ø¹",
        -1.0
      ],
      [
        "ÑĮÑİ",
        -1.0
      ],
      [
        "ÙĬÙĨØ§",
        -1.0
      ],
      [
        "à±Ĥà°¨",
        -1.0
      ],
      [
        "ØŃØ¯Ø«",
        -1.0
      ],
      [
        "ÐĽ",
        -1.0
      ],
      [
        "Ġà¸Īà¸°",
        -1.0
      ],
      [
        "ĠØ³ÙĨØ©",
        -1.0
      ],
      [
        "Ġsaid",
        -1.0
      ],
      [
        "ç·",
        -1.0
      ],
      [
        "é©",
        -1.0
      ],
      [
        "à¥ĭà¤²",
        -1.0
      ],
      [
        "Ġret",
        -1.0
      ],
      [
        "ÙĦØª",
        -1.0
      ],
      [
        "anÄ±",
        -1.0
      ],
      [
        "ory",
        -1.0
      ],
      [
        "åĲĳ",
        -1.0
      ],
      [
        "Ġfait",
        -1.0
      ],
      [
        "Ġsor",
        -1.0
      ],
      [
        "Ġhal",
        -1.0
      ],
      [
        "Ġmaj",
        -1.0
      ],
      [
        "Ġyear",
        -1.0
      ],
      [
        "ute",
        -1.0
      ],
      [
        "å±ķ",
        -1.0
      ],
      [
        "Ġik",
        -1.0
      ],
      [
        "ĠÙĪÙĥØ§ÙĨ",
        -1.0
      ],
      [
        "Ġag",
        -1.0
      ],
      [
        "à¥įà¤ľ",
        -1.0
      ],
      [
        "à±Īà°Ł",
        -1.0
      ],
      [
        "åŃĺ",
        -1.0
      ],
      [
        "à¸²à¸ļ",
        -1.0
      ],
      [
        "à¤¾à¤ģ",
        -1.0
      ],
      [
        "sel",
        -1.0
      ],
      [
        "Ã®",
        -1.0
      ],
      [
        "'a",
        -1.0
      ],
      [
        "vyo",
        -1.0
      ],
      [
        "Ġà¹Ģà¸£",
        -1.0
      ],
      [
        "çľŁ",
        -1.0
      ],
      [
        "ĠÐ²ÑĢÐµÐ¼Ñı",
        -1.0
      ],
      [
        "tes",
        -1.0
      ],
      [
        "ç±",
        -1.0
      ],
      [
        "ÙĩØ©",
        -1.0
      ],
      [
        "Ø³ÙĨ",
        -1.0
      ],
      [
        "ĠØªÙĥÙĪÙĨ",
        -1.0
      ],
      [
        "Ġuli",
        -1.0
      ],
      [
        "Ð±Ð°",
        -1.0
      ],
      [
        "Ð²Ð°ÑĤÑĮ",
        -1.0
      ],
      [
        "å¥¹",
        -1.0
      ],
      [
        "ÙĪØ§Ø¡",
        -1.0
      ],
      [
        "32",
        -1.0
      ],
      [
        "ç¦",
        -1.0
      ],
      [
        "à¥ģà¤¸",
        -1.0
      ],
      [
        "ĠØ¨Ø£",
        -1.0
      ],
      [
        "Ø®Ø·",
        -1.0
      ],
      [
        "ÙĲÙĬ",
        -1.0
      ],
      [
        "ĠÐ³Ð¾ÑĢ",
        -1.0
      ],
      [
        "ĠÑģÑĤÑĢÐ°",
        -1.0
      ],
      [
        "enin",
        -1.0
      ],
      [
        "Ġinter",
        -1.0
      ],
      [
        "ç§į",
        -1.0
      ],
      [
        "fr",
        -1.0
      ],
      [
        "Ð¿ÑĢÐ¸",
        -1.0
      ],
      [
        "Ġbeen",
        -1.0
      ],
      [
        "led",
        -1.0
      ],
      [
        "Ġhem",
        -1.0
      ],
      [
        "ira",
        -1.0
      ],
      [
        "ÑħÐ°",
        -1.0
      ],
      [
        "Ġwho",
        -1.0
      ],
      [
        "éĸĵ",
        -1.0
      ],
      [
        "ĠØ§ÙĦÙĬÙĪÙħ",
        -1.0
      ],
      [
        "é¤",
        -1.0
      ],
      [
        "Ġday",
        -1.0
      ],
      [
        "à¸ļà¸Ĺ",
        -1.0
      ],
      [
        "Ø§Ø¯Ø±",
        -1.0
      ],
      [
        "Ġà°Ĩà°²",
        -1.0
      ],
      [
        "uka",
        -1.0
      ],
      [
        "rist",
        -1.0
      ],
      [
        "å¹³",
        -1.0
      ],
      [
        "Ġort",
        -1.0
      ],
      [
        "ÙħØ³",
        -1.0
      ],
      [
        "à¹Īà¹Ħà¸Ķ",
        -1.0
      ],
      [
        "Ð´ÐµÐ½",
        -1.0
      ],
      [
        "Ġlakini",
        -1.0
      ],
      [
        "ĠÑĤÐ°ÐºÐ¶Ðµ",
        -1.0
      ],
      [
        "mam",
        -1.0
      ],
      [
        "èĥ",
        -1.0
      ],
      [
        "à¹Ĵ",
        -1.0
      ],
      [
        "Ġtime",
        -1.0
      ],
      [
        "urn",
        -1.0
      ],
      [
        "Ġà°®à°¹",
        -1.0
      ],
      [
        "ession",
        -1.0
      ],
      [
        "indows",
        -1.0
      ],
      [
        "aba",
        -1.0
      ],
      [
        "à¸§à¸Ļ",
        -1.0
      ],
      [
        "äº¤",
        -1.0
      ],
      [
        "èĩ³",
        -1.0
      ],
      [
        "ats",
        -1.0
      ],
      [
        "als",
        -1.0
      ],
      [
        "ilo",
        -1.0
      ],
      [
        "Ð±Ñĭ",
        -1.0
      ],
      [
        "abilir",
        -1.0
      ],
      [
        "ĠRe",
        -1.0
      ],
      [
        "æıĲä¾Ľ",
        -1.0
      ],
      [
        "arÄ±",
        -1.0
      ],
      [
        "à¸¡à¸Ļ",
        -1.0
      ],
      [
        "à¥ĭà¤Ī",
        -1.0
      ],
      [
        "Ð¾Ð²Ð¾",
        -1.0
      ],
      [
        "ÙĤÙĬÙĤØ©",
        -1.0
      ],
      [
        "ï¼Įä¸į",
        -1.0
      ],
      [
        "à¥Ĥà¤ª",
        -1.0
      ],
      [
        "å¦Ĥæŀľ",
        -1.0
      ],
      [
        "à¸¹à¸Ķ",
        -1.0
      ],
      [
        "Ø§Ø¨Ø©",
        -1.0
      ],
      [
        "ĠÐµÑģÐ»Ð¸",
        -1.0
      ],
      [
        "è§£",
        -1.0
      ],
      [
        "ix",
        -1.0
      ],
      [
        "Ġact",
        -1.0
      ],
      [
        "Ð·Ð½Ð°",
        -1.0
      ],
      [
        "ick",
        -1.0
      ],
      [
        "ÐµÐ½Ð¸Ð¹",
        -1.0
      ],
      [
        "Ġont",
        -1.0
      ],
      [
        "ĠÙĬØ´",
        -1.0
      ],
      [
        "Ġfilm",
        -1.0
      ],
      [
        "à¹īà¸Ĺ",
        -1.0
      ],
      [
        "à¥Ģà¤ķ",
        -1.0
      ],
      [
        "à±įà°°à°¦",
        -1.0
      ],
      [
        "à°¤à°°",
        -1.0
      ],
      [
        ".)",
        -1.0
      ],
      [
        "vis",
        -1.0
      ],
      [
        "umia",
        -1.0
      ],
      [
        "éłŃ",
        -1.0
      ],
      [
        "Ġà°ļà°°",
        -1.0
      ],
      [
        "ĠÐ»Ðµ",
        -1.0
      ],
      [
        "lamu",
        -1.0
      ],
      [
        "ĠÙĦÙĨ",
        -1.0
      ],
      [
        "ç²",
        -1.0
      ],
      [
        "Ø®Ø¯Ùħ",
        -1.0
      ],
      [
        "ĠAd",
        -1.0
      ],
      [
        "ĠSer",
        -1.0
      ],
      [
        "ĠÙĤØ±",
        -1.0
      ],
      [
        "å®ĥ",
        -1.0
      ],
      [
        "olog",
        -1.0
      ],
      [
        "Ġmwaka",
        -1.0
      ],
      [
        "ĠØ§ÙĤ",
        -1.0
      ],
      [
        "Ø§ÙĦÙī",
        -1.0
      ],
      [
        "ĠÙĪØ²",
        -1.0
      ],
      [
        "old",
        -1.0
      ],
      [
        "Ġà°ĩà°²",
        -1.0
      ],
      [
        "Ġà°ĩà°ķ",
        -1.0
      ],
      [
        "Ġalso",
        -1.0
      ],
      [
        "à±ĩà°¡",
        -1.0
      ],
      [
        "à¸§à¸Ķ",
        -1.0
      ],
      [
        "à¤¿à¤ľ",
        -1.0
      ],
      [
        "iew",
        -1.0
      ],
      [
        "ĠdÃ©c",
        -1.0
      ],
      [
        "ĠÐ¿Ñĥ",
        -1.0
      ],
      [
        "ĠSh",
        -1.0
      ],
      [
        "æ¯ı",
        -1.0
      ],
      [
        "ĠÐ¼Ð¾Ð¶Ð½Ð¾",
        -1.0
      ],
      [
        "eye",
        -1.0
      ],
      [
        "ania",
        -1.0
      ],
      [
        "ĠÑģÐ¾Ð±",
        -1.0
      ],
      [
        "åľº",
        -1.0
      ],
      [
        "ĠÐ±ÑĭÐ»",
        -1.0
      ],
      [
        "Ġà°ıà°°",
        -1.0
      ],
      [
        "ĠÐ²Ñģ",
        -1.0
      ],
      [
        "Ġkuhusu",
        -1.0
      ],
      [
        "Ġà°İà°¨",
        -1.0
      ],
      [
        "æ²Ĵ",
        -1.0
      ],
      [
        "ç«ĭ",
        -1.0
      ],
      [
        "åŁº",
        -1.0
      ],
      [
        "AL",
        -1.0
      ],
      [
        "Ġjust",
        -1.0
      ],
      [
        "à¤¼à¥Ģ",
        -1.0
      ],
      [
        "à¹Īà¸§à¸¡",
        -1.0
      ],
      [
        "åıĪ",
        -1.0
      ],
      [
        "Ä±mÄ±z",
        -1.0
      ],
      [
        "åĮħ",
        -1.0
      ],
      [
        "æµ·",
        -1.0
      ],
      [
        "Ø¬ÙĦØ³",
        -1.0
      ],
      [
        "ç®¡",
        -1.0
      ],
      [
        "lÃ©",
        -1.0
      ],
      [
        "à¹īà¸ĩ",
        -1.0
      ],
      [
        "soft",
        -1.0
      ],
      [
        "Ġweng",
        -1.0
      ],
      [
        "çĸ",
        -1.0
      ],
      [
        "Ð»ÐµÐ¼",
        -1.0
      ],
      [
        "Ġpay",
        -1.0
      ],
      [
        "Ġcomme",
        -1.0
      ],
      [
        "åĨħ",
        -1.0
      ],
      [
        "ï¼ĮèĢĮ",
        -1.0
      ],
      [
        "Ð³ÑĢÐ°",
        -1.0
      ],
      [
        "Ġà°¤à°ª",
        -1.0
      ],
      [
        "ĠÐ¼Ð¾Ð¶ÐµÑĤ",
        -1.0
      ],
      [
        "imiz",
        -1.0
      ],
      [
        "à¸²à¸«",
        -1.0
      ],
      [
        "à¹Ģà¸ī",
        -1.0
      ],
      [
        "à¥įà¤¡",
        -1.0
      ],
      [
        "adili",
        -1.0
      ],
      [
        "à¸±à¸ĩà¸Ħ",
        -1.0
      ],
      [
        "maktadÄ±r",
        -1.0
      ],
      [
        "à¸¸à¸ĩ",
        -1.0
      ],
      [
        "æĶ¾",
        -1.0
      ],
      [
        "à¸²à¸Ĭ",
        -1.0
      ],
      [
        "ĠÐ¿Ð¾Ð·",
        -1.0
      ],
      [
        "Ġgir",
        -1.0
      ],
      [
        "à°Ĺà°²",
        -1.0
      ],
      [
        "weli",
        -1.0
      ],
      [
        "Ġà¤ªà¤¹à¤²",
        -1.0
      ],
      [
        "ÙĪØ¹Ø©",
        -1.0
      ],
      [
        "Ġpamoja",
        -1.0
      ],
      [
        "à°Ĺà°°",
        -1.0
      ],
      [
        "ĠÐ¿Ð¾Ð»Ñĥ",
        -1.0
      ],
      [
        "Ð£",
        -1.0
      ],
      [
        "ÙĬØ¬",
        -1.0
      ],
      [
        "Ø§ÙĦØ§Øª",
        -1.0
      ],
      [
        "Ġame",
        -1.0
      ],
      [
        "Ġà¤Ĩà¤ªà¤ķ",
        -1.0
      ],
      [
        "Ð¿Ñĥ",
        -1.0
      ],
      [
        "Ø§Ø¯ÙĬØ©",
        -1.0
      ],
      [
        "Ġà¤ľà¤¬",
        -1.0
      ],
      [
        "åĲĦ",
        -1.0
      ],
      [
        "iyle",
        -1.0
      ],
      [
        "Ø±ÙģØ©",
        -1.0
      ],
      [
        "www",
        -1.0
      ],
      [
        "35",
        -1.0
      ],
      [
        "Ġleur",
        -1.0
      ],
      [
        "ç¶ĵ",
        -1.0
      ],
      [
        "erÃ§",
        -1.0
      ],
      [
        "Ġbak",
        -1.0
      ],
      [
        "tain",
        -1.0
      ],
      [
        "çĽ´",
        -1.0
      ],
      [
        "à¸Ĳà¸²à¸Ļ",
        -1.0
      ],
      [
        "Ġpoli",
        -1.0
      ],
      [
        "à¤¿à¤®",
        -1.0
      ],
      [
        "ings",
        -1.0
      ],
      [
        "Ð»ÐµÐº",
        -1.0
      ],
      [
        "æł·",
        -1.0
      ],
      [
        "ĊĊĊ",
        -1.0
      ],
      [
        "ber",
        -1.0
      ],
      [
        "ĠØ§ÙĦØ§Ø³",
        -1.0
      ],
      [
        "à¥Ģà¤®",
        -1.0
      ],
      [
        "ĠØªØ±",
        -1.0
      ],
      [
        "ĠØ§ÙĦØŃÙĥ",
        -1.0
      ],
      [
        "ØŃØ¯Ø©",
        -1.0
      ],
      [
        "ĠMwenye",
        -1.0
      ],
      [
        "à¥ĭà¤¡",
        -1.0
      ],
      [
        "Ø¬Ùĩ",
        -1.0
      ],
      [
        "éĩĳ",
        -1.0
      ],
      [
        "ĠÙħØ¨",
        -1.0
      ],
      [
        "ĠyÃ¶n",
        -1.0
      ],
      [
        "ä¸ļ",
        -1.0
      ],
      [
        "ÙİÙĬ",
        -1.0
      ],
      [
        "à¹Ģà¸Ľà¸¥",
        -1.0
      ],
      [
        "å®Į",
        -1.0
      ],
      [
        "å¿«",
        -1.0
      ],
      [
        "ON",
        -1.0
      ],
      [
        "ĠØ£Ø¹",
        -1.0
      ],
      [
        "æīį",
        -1.0
      ],
      [
        "ĠÐ¤",
        -1.0
      ],
      [
        "èĤī",
        -1.0
      ],
      [
        "icrosoft",
        -1.0
      ],
      [
        "æ®",
        -1.0
      ],
      [
        "à¥Ģà¤ľ",
        -1.0
      ],
      [
        "à¸´à¸©",
        -1.0
      ],
      [
        "ĠØ§ÙĦÙħØ¯",
        -1.0
      ],
      [
        "ĠØ§ÙĦÙħÙĤ",
        -1.0
      ],
      [
        "Ġà°µà°¦",
        -1.0
      ],
      [
        "ĠØ´Ø¹Ø¨",
        -1.0
      ],
      [
        "ĠÅŀ",
        -1.0
      ],
      [
        "endo",
        -1.0
      ],
      [
        "anga",
        -1.0
      ],
      [
        "Ø§Ø¶ÙĬ",
        -1.0
      ],
      [
        "ÑĤÑģÑı",
        -1.0
      ],
      [
        "Ã¼c",
        -1.0
      ],
      [
        "æĸ¯",
        -1.0
      ],
      [
        "Ġà¤ĩà¤¸à¤ķ",
        -1.0
      ],
      [
        "Ġhuu",
        -1.0
      ],
      [
        "ĠÙħØ¯",
        -1.0
      ],
      [
        "ĠÙħÙĨÙĩ",
        -1.0
      ],
      [
        "wo",
        -1.0
      ],
      [
        "ĠÙħÙĤ",
        -1.0
      ],
      [
        "lect",
        -1.0
      ],
      [
        "åı°",
        -1.0
      ],
      [
        "ĠØ¹ÙĦÙĬÙĩØ§",
        -1.0
      ],
      [
        "____",
        -1.0
      ],
      [
        "Ġsababu",
        -1.0
      ],
      [
        "Ġà¤Ĳà¤¸",
        -1.0
      ],
      [
        "Ð¸Ð½",
        -1.0
      ],
      [
        "à¥įà¤°à¤®",
        -1.0
      ],
      [
        "Ġà°īà°¤",
        -1.0
      ],
      [
        "larÄ±nÄ±",
        -1.0
      ],
      [
        "Ġexp",
        -1.0
      ],
      [
        "ils",
        -1.0
      ],
      [
        "Ġwere",
        -1.0
      ],
      [
        "Ġmap",
        -1.0
      ],
      [
        "à±ĩà°·à°¨",
        -1.0
      ],
      [
        "åı¯èĥ½",
        -1.0
      ],
      [
        "alarÄ±",
        -1.0
      ],
      [
        "¡ä¸Ń",
        -1.0
      ],
      [
        "ĠÙĦÙĬØ³",
        -1.0
      ],
      [
        "ĠÙĩÙĨØ§Ùĥ",
        -1.0
      ],
      [
        "à¸Ńà¸°",
        -1.0
      ],
      [
        "ĠÙģØª",
        -1.0
      ],
      [
        "à¥ģà¤ı",
        -1.0
      ],
      [
        "ç¤º",
        -1.0
      ],
      [
        "à¸ªà¸Ķà¸ĩ",
        -1.0
      ],
      [
        "åĥı",
        -1.0
      ],
      [
        "æŁ",
        -1.0
      ],
      [
        "ĠÑĪ",
        -1.0
      ],
      [
        "ØªØ§Ø¬",
        -1.0
      ],
      [
        "Ġwork",
        -1.0
      ],
      [
        "à¸¸à¸Ĺà¸ĺ",
        -1.0
      ],
      [
        "åı£",
        -1.0
      ],
      [
        "yr",
        -1.0
      ],
      [
        "ĠØ§ÙĦØ§Ø®",
        -1.0
      ],
      [
        "à¸£à¸²à¸¢",
        -1.0
      ],
      [
        "ures",
        -1.0
      ],
      [
        "ç½ĳ",
        -1.0
      ],
      [
        "éľĢ",
        -1.0
      ],
      [
        "ĠbÃ¼yÃ¼k",
        -1.0
      ],
      [
        "à¹Īà¸Ńà¸ĩ",
        -1.0
      ],
      [
        "Ġmod",
        -1.0
      ],
      [
        "ÑĩÐµÐ½ÑĮ",
        -1.0
      ],
      [
        "Ġwould",
        -1.0
      ],
      [
        "ilim",
        -1.0
      ],
      [
        "siniz",
        -1.0
      ],
      [
        "Ø§Ø±Ø¬",
        -1.0
      ],
      [
        "ÙİÙħ",
        -1.0
      ],
      [
        "ific",
        -1.0
      ],
      [
        "à¹Ģà¸ŀà¸¥à¸ĩ",
        -1.0
      ],
      [
        "Ġhuo",
        -1.0
      ],
      [
        "ĠØ¬ÙħÙĬØ¹",
        -1.0
      ],
      [
        "ĠÃ¼r",
        -1.0
      ],
      [
        "Ġà¹Ģà¸Ĭ",
        -1.0
      ],
      [
        "ä¸Ķ",
        -1.0
      ],
[...]
