{
  "version": "1.0",
  "truncation": null,
  "padding": null,
  "added_tokens": [
    {
      "id": 0,
      "content": "<|bos|>",
      "single_word": false,
      "lstrip": false,
      "rstrip": false,
      "normalized": false,
      "special": true
    },
    {
      "id": 1,
      "content": "<|user_start|>",
      "single_word": false,
      "lstrip": false,
      "rstrip": false,
      "normalized": false,
      "special": true
    },
    {
      "id": 2,
      "content": "<|user_end|>",
      "single_word": false,
      "lstrip": false,
      "rstrip": false,
      "normalized": false,
      "special": true
    },
    {
      "id": 3,
      "content": "<|assistant_start|>",
      "single_word": false,
      "lstrip": false,
      "rstrip": false,
      "normalized": false,
      "special": true
    },
    {
      "id": 4,
      "content": "<|assistant_end|>",
      "single_word": false,
      "lstrip": false,
      "rstrip": false,
      "normalized": false,
      "special": true
    },
    {
      "id": 5,
      "content": "<|python_start|>",
      "single_word": false,
      "lstrip": false,
      "rstrip": false,
      "normalized": false,
      "special": true
    },
    {
      "id": 6,
      "content": "<|python_end|>",
      "single_word": false,
      "lstrip": false,
      "rstrip": false,
      "normalized": false,
      "special": true
    },
    {
      "id": 7,
      "content": "<|output_start|>",
      "single_word": false,
      "lstrip": false,
      "rstrip": false,
      "normalized": false,
      "special": true
    },
    {
      "id": 8,
      "content": "<|output_end|>",
      "single_word": false,
      "lstrip": false,
      "rstrip": false,
      "normalized": false,
      "special": true
    },
    {
      "id": 9,
      "content": "<|unk|>",
      "single_word": false,
      "lstrip": false,
      "rstrip": false,
      "normalized": false,
      "special": true
    }
  ],
  "normalizer": null,
  "pre_tokenizer": {
    "type": "Sequence",
    "pretokenizers": [
      {
        "type": "Split",
        "pattern": {
          "Regex": "'(?i:[sdmt]|ll|ve|re)|[^\\r\\n\\p{L}\\p{N}]?+\\p{L}+|\\p{N}{1,2}| ?[^\\s\\p{L}\\p{N}]++[\\r\\n]*|\\s*[\\r\\n]|\\s+(?!\\S)|\\s+"
        },
        "behavior": "Isolated",
        "invert": false
      },
      {
        "type": "ByteLevel",
        "add_prefix_space": false,
        "trim_offsets": true,
        "use_regex": false
      }
    ]
  },
  "post_processor": {
    "type": "TemplateProcessing",
    "single": [
      {
        "Sequence": {
          "id": "A",
          "type_id": 0
        }
      }
    ],
    "pair": [
      {
        "Sequence": {
          "id": "A",
          "type_id": 0
        }
      },
      {
        "Sequence": {
          "id": "B",
          "type_id": 1
        }
      }
    ],
    "special_tokens": {}
  },
  "decoder": null,
  "model": {
    "type": "BPE",
    "dropout": null,
    "unk_token": "<|unk|>",
    "continuing_subword_prefix": null,
    "end_of_word_suffix": null,
    "fuse_unk": false,
    "byte_fallback": false,
    "ignore_merges": false,
    "vocab": {
      "<|bos|>": 0,
      "<|user_start|>": 1,
      "<|user_end|>": 2,
      "<|assistant_start|>": 3,
      "<|assistant_end|>": 4,
      "<|python_start|>": 5,
      "<|python_end|>": 6,
      "<|output_start|>": 7,
      "<|output_end|>": 8,
      "<|unk|>": 9,
      "!": 10,
      "\"": 11,
      "#": 12,
      "$": 13,
      "%": 14,
      "&": 15,
      "'": 16,
      "(": 17,
      ")": 18,
      "*": 19,
      "+": 20,
      ",": 21,
      "-": 22,
      ".": 23,
      "/": 24,
      "0": 25,
      "1": 26,
      "2": 27,
      "3": 28,
      "4": 29,
      "5": 30,
      "6": 31,
      "7": 32,
      "8": 33,
      "9": 34,
      ":": 35,
      ";": 36,
      "<": 37,
      "=": 38,
      ">": 39,
      "?": 40,
      "@": 41,
      "A": 42,
      "B": 43,
      "C": 44,
      "D": 45,
      "E": 46,
      "F": 47,
      "G": 48,
      "H": 49,
      "I": 50,
      "J": 51,
      "K": 52,
      "L": 53,
      "M": 54,
      "N": 55,
      "O": 56,
      "P": 57,
      "Q": 58,
      "R": 59,
      "S": 60,
      "T": 61,
      "U": 62,
      "V": 63,
      "W": 64,
      "X": 65,
      "Y": 66,
      "Z": 67,
      "[": 68,
      "\\": 69,
      "]": 70,
      "^": 71,
      "_": 72,
      "`": 73,
      "a": 74,
      "b": 75,
      "c": 76,
      "d": 77,
      "e": 78,
      "f": 79,
      "g": 80,
      "h": 81,
      "i": 82,
      "j": 83,
      "k": 84,
      "l": 85,
      "m": 86,
      "n": 87,
      "o": 88,
      "p": 89,
      "q": 90,
      "r": 91,
      "s": 92,
      "t": 93,
      "u": 94,
      "v": 95,
      "w": 96,
      "x": 97,
      "y": 98,
      "z": 99,
      "{": 100,
      "|": 101,
      "}": 102,
      "~": 103,
      "¡": 104,
      "¢": 105,
      "£": 106,
      "¤": 107,
      "¥": 108,
      "¦": 109,
      "§": 110,
      "¨": 111,
      "©": 112,
      "ª": 113,
      "«": 114,
      "¬": 115,
      "®": 116,
      "¯": 117,
      "°": 118,
      "±": 119,
      "²": 120,
      "³": 121,
      "´": 122,
      "µ": 123,
      "¶": 124,
      "·": 125,
      "¸": 126,
      "¹": 127,
      "º": 128,
      "»": 129,
      "¼": 130,
      "½": 131,
      "¾": 132,
      "¿": 133,
      "À": 134,
      "Á": 135,
      "Â": 136,
      "Ã": 137,
      "Ä": 138,
      "Å": 139,
      "Æ": 140,
      "Ç": 141,
      "È": 142,
      "É": 143,
      "Ê": 144,
      "Ë": 145,
      "Ì": 146,
      "Í": 147,
      "Î": 148,
      "Ï": 149,
      "Ð": 150,
      "Ñ": 151,
      "Ò": 152,
      "Ó": 153,
      "Ô": 154,
      "Õ": 155,
      "Ö": 156,
      "×": 157,
      "Ø": 158,
      "Ù": 159,
      "Ú": 160,
      "Û": 161,
      "Ü": 162,
      "Ý": 163,
      "Þ": 164,
      "ß": 165,
      "à": 166,
      "á": 167,
      "â": 168,
      "ã": 169,
      "ä": 170,
      "å": 171,
      "æ": 172,
      "ç": 173,
      "è": 174,
      "é": 175,
      "ê": 176,
      "ë": 177,
      "ì": 178,
      "í": 179,
      "î": 180,
      "ï": 181,
      "ð": 182,
      "ñ": 183,
      "ò": 184,
      "ó": 185,
      "ô": 186,
      "õ": 187,
      "ö": 188,
      "÷": 189,
      "ø": 190,
      "ù": 191,
      "ú": 192,
      "û": 193,
      "ü": 194,
      "ý": 195,
      "þ": 196,
      "ÿ": 197,
      "Ā": 198,
      "ā": 199,
      "Ă": 200,
      "ă": 201,
      "Ą": 202,
      "ą": 203,
      "Ć": 204,
      "ć": 205,
      "Ĉ": 206,
      "ĉ": 207,
      "Ċ": 208,
      "ċ": 209,
      "Č": 210,
      "č": 211,
      "Ď": 212,
      "ď": 213,
      "Đ": 214,
      "đ": 215,
      "Ē": 216,
      "ē": 217,
      "Ĕ": 218,
      "ĕ": 219,
      "Ė": 220,
      "ė": 221,
      "Ę": 222,
      "ę": 223,
      "Ě": 224,
      "ě": 225,
      "Ĝ": 226,
      "ĝ": 227,
      "Ğ": 228,
      "ğ": 229,
      "Ġ": 230,
      "ġ": 231,
      "Ģ": 232,
      "ģ": 233,
      "Ĥ": 234,
      "ĥ": 235,
      "Ħ": 236,
      "ħ": 237,
      "Ĩ": 238,
      "ĩ": 239,
      "Ī": 240,
      "ī": 241,
      "Ĭ": 242,
      "ĭ": 243,
      "Į": 244,
      "į": 245,
      "İ": 246,
      "ı": 247,
      "Ĳ": 248,
      "ĳ": 249,
      "Ĵ": 250,
      "ĵ": 251,
      "Ķ": 252,
      "ķ": 253,
      "ĸ": 254,
      "Ĺ": 255,
      "ĺ": 256,
      "Ļ": 257,
      "ļ": 258,
      "Ľ": 259,
      "ľ": 260,
      "Ŀ": 261,
      "ŀ": 262,
      "Ł": 263,
      "ł": 264,
      "Ń": 265,
      "Ġt": 266,
      "Ġa": 267,
      "in": 268,
      "he": 269,
      "re": 270,
      "on": 271,
      "Ġthe": 272,
      "er": 273,
      "Ġs": 274,
      "at": 275,
      "Ġc": 276,
      "Ġo": 277,
      "es": 278,
      "en": 279,
      "Ġw": 280,
      "nd": 281,
      "ing": 282,
      "it": 283,
      "Ġp": 284,
      "is": 285,
      "Ġb": 286,
      "or": 287,
      "Ġf": 288,
      "ou": 289,
      "al": 290,
      "an": 291,
      "Ġm": 292,
      "ed": 293,
      "Ġto": 294,
      "Ġof": 295,
      "Ġin": 296,
      "Ġand": 297,
      "Ġd": 298,
      "ar": 299,
      "ion": 300,
      "ic": 301,
      "le": 302,
      "ro": 303,
      "Ġth": 304,
      "as": 305,
      "Ġh": 306,
      "ct": 307,
      "ent": 308,
      "Ġe": 309,
      "Ġl": 310,
      "il": 311,
      "ve": 312,
      "Ġre": 313,
      "om": 314,
      "Ġis": 315,
      "us": 316,
      ".Ċ": 317,
      "Ġn": 318,
      "Ġy": 319,
      "et": 320,
      "ly": 321,
      "Ġg": 322,
      "Ġyou": 323,
      "Ġbe": 324,
      "ow": 325,
      "ut": 326,
      "ot": 327,
      "im": 328,
      "id": 329,
      "ĠT": 330,
      "st": 331,
      "Ġfor": 332,
      "ol": 333,
      "ra": 334,
      "ce": 335,
      "ig": 336,
      "ch": 337,
      "ur": 338,
      "ĠA": 339,
      "ation": 340,
      "Ġthat": 341,
      "Ġon": 342,
      "Ġst": 343,
      "ĠI": 344,
      "ir": 345,
      "el": 346,
      "ver": 347,
      "Ġare": 348,
      "ay": 349,
      "Ġit": 350,
      "ul": 351,
      "Ġpro": 352,
      "ith": 353,
      "Ġan": 354,
      "if": 355,
      "se": 356,
      "Ġor": 357,
      "Ġwith": 358,
      "ĠS": 359,
      ".ĊĊ": 360,
      "Ġcon": 361,
      "est": 362,
      "Ġas": 363,
      "am": 364,
      "her": 365,
      "od": 366,
      "ĊĊ": 367,
      "Ġal": 368,
      "ad": 369,
      "ter": 370,
      "ĠC": 371,
      "ke": 372,
      "un": 373,
      "Ġcan": 374,
      "Ġwh": 375,
      "ure": 376,
      "ess": 377,
      "ge": 378,
      "ab": 379,
      "ate": 380,
      "ĠThe": 381,
      "ill": 382,
      "um": 383,
      "Ġha": 384,
      "ant": 385,
      "Ġcom": 386,
      "Ġex": 387,
      "ers": 388,
      "Ġhe": 389,
      "ect": 390,
      "ore": 391,
      "qu": 392,
      "ĠW": 393,
      "ive": 394,
      "igh": 395,
      "th": 396,
      "Ġyour": 397,
      "'s": 398,
      "em": 399,
      "Ġus": 400,
      "Ġv": 401,
      "pp": 402,
      "ies": 403,
      "ac": 404,
      "ment": 405,
      "op": 406,
      "Ġwe": 407,
      "ec": 408,
      "ity": 409,
      "ld": 410,
      "ain": 411,
      "ist": 412,
      "os": 413,
      "rom": 414,
      "ĠP": 415,
      "ĠM": 416,
      "Ġr": 417,
      "Ġsu": 418,
      "Ġ(": 419,
      "Ġen": 420,
      "ĠB": 421,
      "Ġch": 422,
      "Ġat": 423,
      "Ġne": 424,
      "Ġsp": 425,
      "Ġsh": 426,
      "ort": 427,
      "ial": 428,
      "Ġfrom": 429,
      "Ġdo": 430,
      "Ġhave": 431,
      "Ġle": 432,
      "ight": 433,
      "iv": 434,
      "Ġpl": 435,
      "Ġnot": 436,
      "Ġde": 437,
      "Ġse": 438,
      "Ġby": 439,
      "nt": 440,
      "res": 441,
      "oc": 442,
      "ĠH": 443,
      "per": 444,
      "ud": 445,
      "and": 446,
      "art": 447,
      "ĠD": 448,
      "ust": 449,
      "ĠF": 450,
      "ome": 451,
      "Ġthis": 452,
      "all": 453,
      "ide": 454,
      "ould": 455,
      "ri": 456,
      "ical": 457,
      "Ġu": 458,
      "Ġab": 459,
      "rou": 460,
      "Ġma": 461,
      "out": 462,
      "pt": 463,
      "âĢ": 464,
      "act": 465,
      "ions": 466,
      "ns": 467,
      "ine": 468,
      "ĠE": 469,
      "ard": 470,
      "ost": 471,
      "Ġwhe": 472,
      "ell": 473,
      "ĠR": 474,
      "Ġim": 475,
      "ere": 476,
      "ff": 477,
      "du": 478,
      "Ġk": 479,
      "Ġwill": 480,
      "ood": 481,
      "gh": 482,
      "ther": 483,
      "Ġcomp": 484,
      "og": 485,
      "Ġwor": 486,
      "ast": 487,
      "Ġint": 488,
      "ich": 489,
      "Ġthey": 490,
      "our": 491,
      "king": 492,
      "Ġtheir": 493,
      "are": 494,
      "The": 495,
      "age": 496,
      "Ġad": 497,
      "iz": 498,
      "Ġall": 499,
      "able": 500,
      "ip": 501,
      "ag": 502,
      "ater": 503,
      "ĠN": 504,
      "Ġmore": 505,
      "ated": 506,
      "ĠL": 507,
      "ĠG": 508,
      "hat": 509,
      "Ġwas": 510,
      "Ġbut": 511,
      "end": 512,
      "Ġcont": 513,
      "oo": 514,
      "ally": 515,
      "Ġinc": 516,
      "ear": 517,
      "ru": 518,
      "ep": 519,
      "ib": 520,
      "ind": 521,
      "Ġso": 522,
      "ult": 523,
      "so": 524,
      "Ġte": 525,
      "pl": 526,
      "ans": 527,
      "ous": 528,
      "ĠO": 529,
      "Ġj": 530,
      "ks": 531,
      "Ġme": 532,
      "wer": 533,
      "cc": 534,
      "ike": 535,
      "ry": 536,
      "Ġres": 537,
      "orm": 538,
      "estion": 539,
      "Ġcl": 540,
      "Qu": 541,
      "Ġhas": 542,
      "ong": 543,
      "Ġout": 544,
      "ance": 545,
      "Ġdis": 546,
      "one": 547,
      "ire": 548,
      "Ġwhich": 549,
      "ents": 550,
      "Ġother": 551,
      "ap": 552,
      "Ġun": 553,
      "Ġimp": 554,
      "ations": 555,
      "Ġpre": 556,
      "vel": 557,
      "Ġalso": 558,
      "Ġ\"": 559,
      "his": 560,
      "Ġtim": 561,
      "Ġman": 562,
      "ach": 563,
      "nswer": 564,
      "ie": 565,
      "reat": 566,
      "Ġone": 567,
      "Question": 568,
      "ass": 569,
      "'t": 570,
      "av": 571,
      "ction": 572,
      "ition": 573,
      "aus": 574,
      "ign": 575,
      "ĠAnswer": 576,
      "ice": 577,
      "Ġper": 578,
      "Ġthem": 579,
      "Ġapp": 580,
      "very": 581,
      "ace": 582,
      "low": 583,
      "ence": 584,
      "ĠU": 585,
      "ens": 586,
      "ary": 587,
      "20": 588,
      "ack": 589,
      "Ġabout": 590,
      "Ġlike": 591,
      "ors": 592,
      "Ġqu": 593,
      "Ġup": 594,
      "Ġfe": 595,
      "ase": 596,
      "ĠIn": 597,
      "ue": 598,
      "ress": 599,
      "ĠIt": 600,
      "ild": 601,
      "Ġsome": 602,
      "Ġwhen": 603,
      "Ġmay": 604,
      "Ġif": 605,
      "iff": 606,
      "ia": 607,
      "Ġro": 608,
      "Ġsc": 609,
      "Ġev": 610,
      "Ġneed": 611,
      "now": 612,
      "ile": 613,
      "ound": 614,
      "Ġinto": 615,
      "ite": 616,
      "Ġsy": 617,
      "ail": 618,
      "Ġtime": 619,
      "form": 620,
      "Ġuse": 621,
      "Ġany": 622,
      "Ġpart": 623,
      "row": 624,
      "ric": 625,
      "Ġtra": 626,
      "Ġdiff": 627,
      "ose": 628,
      "Ġhow": 629,
      "Ġcol": 630,
      "Ġhel": 631,
      "ber": 632,
      "ĠY": 633,
      "Ġthan": 634,
      "ame": 635,
      "ll": 636,
      "Ġthere": 637,
      "ays": 638,
      "lect": 639,
      "ĠThis": 640,
      "Ġits": 641,
      "Ġbl": 642,
      "ak": 643,
      "ree": 644,
      "ings": 645,
      "ces": 646,
      "Ġhelp": 647,
      "ause": 648,
      "Ġsa": 649,
      "Ġpe": 650,
      "Ġbec": 651,
      "..": 652,
      "ĠWhat": 653,
      "Ġcomm": 654,
      "Ġar": 655,
      "ang": 656,
      "Ġcons": 657,
      "nder": 658,
      "ough": 659,
      "les": 660,
      "Ġrec": 661,
      "Ġspec": 662,
      "ord": 663,
      "Ġover": 664,
      "Ġthese": 665,
      "Ġstud": 666,
      "yp": 667,
      "ake": 668,
      "Ġknow": 669,
      "Ġgo": 670,
      "Ġbet": 671,
      "Ġget": 672,
      "ific": 673,
      "ove": 674,
      "ish": 675,
      "als": 676,
      "ĠâĢ": 677,
      "Ġdes": 678,
      "ating": 679,
      "Ġtr": 680,
      "ons": 681,
      "ting": 682,
      "ond": 683,
      "ient": 684,
      "red": 685,
      "rough": 686,
      "ning": 687,
      "ph": 688,
      "Ġeff": 689,
      "alth": 690,
      "Ġused": 691,
      "stem": 692,
      "we": 693,
      "Ġind": 694,
      "Ġwhat": 695,
      "Ġprov": 696,
      "ub": 697,
      "Ġwater": 698,
      "Ġmake": 699,
      "Ġfl": 700,
      "ory": 701,
      "te": 702,
      "Ġoff": 703,
      "round": 704,
      "lud": 705,
      "ook": 706,
      "ular": 707,
      "ari": 708,
      "Ġco": 709,
      "Ġprodu": 710,
      "Ġmost": 711,
      "Ġdiffere": 712,
      "Ġact": 713,
      "Ġwho": 714,
      "ople": 715,
      "Ġra": 716,
      "ount": 717,
      "Ġour": 718,
      "olog": 719,
      "ms": 720,
      "Ġacc": 721,
      "ature": 722,
      "Ġsuch": 723,
      "Ġph": 724,
      "eth": 725,
      "ĠJ": 726,
      "Ġyear": 727,
      "Ġunder": 728,
      "ple": 729,
      "vers": 730,
      "Ġshould": 731,
      "Ġadd": 732,
      "Ġgen": 733,
      "Ġplant": 734,
      "cess": 735,
      "ful": 736,
      "int": 737,
      "Ġwould": 738,
      "ates": 739,
      "ys": 740,
      "ick": 741,
      "ility": 742,
      "Ġnew": 743,
      "Ġwere": 744,
      "uring": 745,
      "ne": 746,
      "Ġinclud": 747,
      "Ġbeen": 748,
      "erv": 749,
      "Ġag": 750,
      "Ġpeople": 751,
      "ov": 752,
      "Ġwork": 753,
      "ange": 754,
      "ĠSt": 755,
      "ject": 756,
      "xt": 757,
      "oss": 758,
      "Ġsm": 759,
      "oth": 760,
      "Ġtw": 761,
      "Ġam": 762,
      "irst": 763,
      "Ġem": 764,
      "Ġthrough": 765,
      "ities": 766,
      "Ġsystem": 767,
      "ck": 768,
      "ments": 769,
      "10": 770,
      "ract": 771,
      "ative": 772,
      "ower": 773,
      "Ġpat": 774,
      "Ġjust": 775,
      "Ġonly": 776,
      "Ġtyp": 777,
      "Ġhealth": 778,
      "Ġmy": 779,
      "Ġke": 780,
      "ble": 781,
      "ĠK": 782,
      "Ġinter": 783,
      "Ġwell": 784,
      "Ġreg": 785,
      "Ġ-": 786,
      "Ġdi": 787,
      "ten": 788,
      "Ġno": 789,
      "Ġpr": 790,
      "hes": 791,
      "Ġcar": 792,
      "Ġsur": 793,
      "ise": 794,
      "?Ċ": 795,
      "fore": 796,
      "ible": 797,
      "ced": 798,
      "Ġdoes": 799,
      "erg": 800,
      "Ġexper": 801,
      "ark": 802,
      "Ġmany": 803,
      "its": 804,
      "ink": 805,
      "ob": 806,
      "ics": 807,
      "Ġhigh": 808,
      "ren": 809,
      "Ġrem": 810,
      "old": 811,
      "ert": 812,
      "ĠV": 813,
      "ual": 814,
      "Ġrep": 815,
      "Ġbu": 816,
      "Ġpo": 817,
      "fter": 818,
      "hen": 819,
      "Ġdifferent": 820,
      "Ġac": 821,
      "Ġwhere": 822,
      "Ġrel": 823,
      "Ġexp": 824,
      "Ġtwo": 825,
      "velop": 826,
      "lic": 827,
      "ience": 828,
      "chn": 829,
      "get": 830,
      "Ġprocess": 831,
      "ram": 832,
      "Ġtrans": 833,
      "Ġsupp": 834,
      "Ġlong": 835,
      "Ġfirst": 836,
      "ased": 837,
      "own": 838,
      "Ġcould": 839,
      "hed": 840,
      "ually": 841,
      "00": 842,
      "ĠIf": 843,
      "Ġimport": 844,
      "Ġche": 845,
      "Ġvari": 846,
      "Ġdec": 847,
      "Ġatt": 848,
      "ween": 849,
      "Ġthen": 850,
      "rop": 851,
      "ade": 852,
      "Ġinf": 853,
      "Ġgrow": 854,
      "ential": 855,
      "19": 856,
      "Ġusing": 857,
      "rit": 858,
      "ize": 859,
      "uch": 860,
      "In": 861,
      "Ġass": 862,
      "Ġmod": 863,
      "ef": 864,
      "Ġway": 865,
      "Ġsim": 866,
      "Ġinst": 867,
      "Ġfood": 868,
      "Ġbetween": 869,
      "ft": 870,
      "erm": 871,
      "ife": 872,
      "iss": 873,
      "wn": 874,
      "vent": 875,
      "Ġeven": 876,
      "Ġob": 877,
      "Ġdet": 878,
      "Ġbecause": 879,
      "rib": 880,
      "cy": 881,
      "Ġdevelop": 882,
      "ically": 883,
      "Ġcre": 884,
      "ily": 885,
      "Ġeffect": 886,
      "Ġevery": 887,
      "arm": 888,
      "ural": 889,
      "ool": 890,
      "ious": 891,
      "ody": 892,
      "gan": 893,
      "Ġdog": 894,
      "Ġrequ": 895,
      "Ġsee": 896,
      "ĠHow": 897,
      "ĠCh": 898,
      "Ġlear": 899,
      "Ġpers": 900,
      "'re": 901,
      "iron": 902,
      "Ġmain": 903,
      "Ġvery": 904,
      "Ġchild": 905,
      "Ġsk": 906,
      "Ġform": 907,
      "Ġtechn": 908,
      "ĠYou": 909,
      "Ġsub": 910,
      "Ġhum": 911,
      "ĠWh": 912,
      "ines": 913,
      "Ġback": 914,
      "ĠThey": 915,
      "ution": 916,
      "ness": 917,
      "ures": 918,
      "ins": 919,
      "Ġeach": 920,
      "ever": 921,
      "ety": 922,
      "gg": 923,
      "Ġlar": 924,
      "ts": 925,
      "Ġgood": 926,
      "arch": 927,
      "Ġext": 928,
      "Ġins": 929,
      "Ġnum": 930,
      "iqu": 931,
      "Ġwant": 932,
      "Ġset": 933,
      "ĠâĢĵ": 934,
      "ruct": 935,
      "Ġimportant": 936,
      "Ġmuch": 937,
      "Ġhad": 938,
      "Ġmin": 939,
      "Ġinv": 940,
      "Ġdisc": 941,
      "read": 942,
      "Ġexam": 943,
      "ality": 944,
      "Ġval": 945,
      "Ġfind": 946,
      "Ġav": 947,
      "?ĊĊ": 948,
      "Ġrese": 949,
      "elf": 950,
      "ues": 951,
      "oy": 952,
      "uc": 953,
      "Ġgra": 954,
      "Ġfun": 955,
      "Ġsec": 956,
      "Ġsol": 957,
      "Ġcell": 958,
      "Ġgener": 959,
      "Ġdon": 960,
      "Ġfol": 961,
      "ian": 962,
      "Ġcle": 963,
      "Ġear": 964,
      "other": 965,
      "Ġafter": 966,
      "Ġloc": 967,
      "Ġtake": 968,
      "Ġsign": 969,
      "ata": 970,
      "ational": 971,
      "Ġfound": 972,
      "viron": 973,
      "Ġve": 974,
      "Ġstart": 975,
      "ied": 976,
      "ection": 977,
      "ss": 978,
      "Ġmed": 979,
      "Ġwhile": 980,
      "Ġincre": 981,
      "Ġbeing": 982,
      "Ġsmall": 983,
      ").": 984,
      "Ġdesign": 985,
      "stand": 986,
      "ices": 987,
      "Ġresp": 988,
      "Ġelect": 989,
      "Ġyears": 990,
      "Ġpot": 991,
      "ps": 992,
      "Ġresult": 993,
      "urn": 994,
      "Ġair": 995,
      "ont": 996,
      "Ġbr": 997,
      "Ġeas": 998,
      "Ġshe": 999,
      "ix": 1000,
      "Ġher": 1001,
      "Ġhis": 1002,
      "Ġlight": 1003,
      "dition": 1004,
      "mer": 1005,
      "ology": 1006,
      "Ġduring": 1007,
      "Ġaut": 1008,
      "Ġref": 1009,
      "Ġcur": 1010,
      "ird": 1011,
      "Ġown": 1012,
      "Ġcomple": 1013,
      "atter": 1014,
      "Ġgl": 1015,
      "Ġcall": 1016,
      "Ġbefore": 1017,
      "Ġaround": 1018,
      "Ġent": 1019,
      "Ġallow": 1020,
      "Ġhand": 1021,
      "Ġpres": 1022,
      "ists": 1023,
      "ider": 1024,
      "cept": 1025,
      "Ġfact": 1026,
      "Ġinform": 1027,
      "Ġcare": 1028,
      "âĢĻ": 1029,
      "Ġfollow": 1030,
      "nce": 1031,
      "ergy": 1032,
      "Ġbest": 1033,
      "Ġprog": 1034,
      "Ġmon": 1035,
      "Ġthose": 1036,
      "),": 1037,
      "els": 1038,
      "chool": 1039,
      "tern": 1040,
      "Ġcontro": 1041,
      "air": 1042,
      "eg": 1043,
      "Ġbody": 1044,
      "Ġperson": 1045,
      "Ġsame": 1046,
      "Ġgu": 1047,
      "eng": 1048,
      "vironment": 1049,
      "ock": 1050,
      "aterial": 1051,
      "omm": 1052,
      "Ġpower": 1053,
      "ather": 1054,
      "Ġworld": 1055,
      "ĠUn": 1056,
      "Ġread": 1057,
      "ĠWe": 1058,
      "Ġlevel": 1059,
      "Ġbo": 1060,
      "Ġoften": 1061,
      "Ġtem": 1062,
      "Ġkeep": 1063,
      "Ġdep": 1064,
      "tle": 1065,
      "Ġed": 1066,
      "Ġproble": 1067,
      "Ġdist": 1068,
      "Ġright": 1069,
      "Ġend": 1070,
      "ages": 1071,
      "Ġsaf": 1072,
      "Ġlead": 1073,
      "ining": 1074,
      "What": 1075,
      "ized": 1076,
      "ident": 1077,
      "ien": 1078,
      "ives": 1079,
      "Ġtest": 1080,
      "Ġshow": 1081,
      "Ġless": 1082,
      "Ġart": 1083,
      "Ġprovid": 1084,
      "Ġstr": 1085,
      "ng": 1086,
      "Ġtoo": 1087,
      "Ġcor": 1088,
      "Ġtreat": 1089,
      "ases": 1090,
      "Ġexpl": 1091,
      "ward": 1092,
      "Ġprot": 1093,
      "Ġchar": 1094,
      "Ġlife": 1095,
      "ats": 1096,
      "Ġdown": 1097,
      "ets": 1098,
      "Ġcommon": 1099,
      "Ġanim": 1100,
      "Ġmade": 1101,
      "Ġpartic": 1102,
      "Ġsom": 1103,
      "Ġvis": 1104,
      "Ġredu": 1105,
      "Ġconc": 1106,
      "ew": 1107,
      "ium": 1108,
      "Ġmaterial": 1109,
      "Ġdr": 1110,
      "Ġens": 1111,
      "Ġplay": 1112,
      "Ġopt": 1113,
      ".\"": 1114,
      "Ġ'": 1115,
      "Ġday": 1116,
      "aking": 1117,
      "ull": 1118,
      "Ġadv": 1119,
      "ĠFor": 1120,
      ":Ċ": 1121,
      "reen": 1122,
      "Ġposs": 1123,
      "Ġboth": 1124,
      "Ġbre": 1125,
      "Ġrequire": 1126,
      "ving": 1127,
      "Ġproper": 1128,
      "ale": 1129,
      "ĠPro": 1130,
      "iving": 1131,
      "Ġsaid": 1132,
      "ty": 1133,
      "-b": 1134,
      "aw": 1135,
      "iew": 1136,
      "io": 1137,
      "Ġhome": 1138,
      "Ġcommun": 1139,
      "Ġstudents": 1140,
      "cing": 1141,
      "ĠHe": 1142,
      "Ġplants": 1143,
      "acter": 1144,
      "ved": 1145,
      "Ġpop": 1146,
      "Ġdata": 1147,
      "ivers": 1148,
      "ave": 1149,
      "ven": 1150,
      "ited": 1151,
      "Ġproduct": 1152,
      "eld": 1153,
      "ict": 1154,
      "Ġenvironment": 1155,
      "ute": 1156,
      "ĠAs": 1157,
      "led": 1158,
      "Ġmight": 1159,
      "Ġinformation": 1160,
      "Ġenergy": 1161,
      "any": 1162,
      "Ġdef": 1163,
      "Ġflow": 1164,
      "ason": 1165,
      "--": 1166,
      "up": 1167,
      "12": 1168,
      "ier": 1169,
      "ional": 1170,
      "Ġplan": 1171,
      "Ġnumber": 1172,
      "Ġspecies": 1173,
      "Ġsupport": 1174,
      "rent": 1175,
      "oid": 1176,
      "ath": 1177,
      "ger": 1178,
      "Ġmet": 1179,
      "Ġdire": 1180,
      "ĠAl": 1181,
      "Ġorgan": 1182,
      "Ġprovide": 1183,
      "ash": 1184,
      "Ġnow": 1185,
      "ered": 1186,
      "rain": 1187,
      "ivid": 1188,
      "Ġlit": 1189,
      "Ġmeth": 1190,
      "imate": 1191,
      "tain": 1192,
      "Ġlook": 1193,
      "ected": 1194,
      "ves": 1195,
      "How": 1196,
      "Ġaw": 1197,
      "der": 1198,
      "Ġpol": 1199,
      "Ġunderstand": 1200,
      "Ġmaking": 1201,
      "perature": 1202,
      "ĠThese": 1203,
      "ork": 1204,
      "Ġprof": 1205,
      "oci": 1206,
      "the": 1207,
      "Ġey": 1208,
      "Ġequ": 1209,
      "Ġthink": 1210,
      "ways": 1211,
      "This": 1212,
      "Ġben": 1213,
      "Ġserv": 1214,
      "ĠTo": 1215,
      "Ġwithout": 1216,
      "ern": 1217,
      "Ġris": 1218,
      "Ġimpro": 1219,
      "Ġpoint": 1220,
      "Ġmem": 1221,
      "ead": 1222,
      "ield": 1223,
      "Ġop": 1224,
      "ĠAn": 1225,
      "Ġstudy": 1226,
      "Ġfam": 1227,
      "Ġresearch": 1228,
      "Ġaff": 1229,
      "bs": 1230,
      "Ġclass": 1231,
      "ted": 1232,
      "Ġiss": 1233,
      "Ġmethod": 1234,
      "If": 1235,
      "iness": 1236,
      "Ġgreat": 1237,
      "Ġeng": 1238,
      "Ġbetter": 1239,
      "Ġstill": 1240,
      "ands": 1241,
      "itions": 1242,
      "Ġpur": 1243,
      "day": 1244,
      "Ġexample": 1245,
      "ots": 1246,
      "ips": 1247,
      "-s": 1248,
      "Ġlarge": 1249,
      "Ġcent": 1250,
      "ering": 1251,
      "ĠTh": 1252,
      "Ġocc": 1253,
      "eed": 1254,
      "Ġnat": 1255,
      "Ġtemperature": 1256,
      "inal": 1257,
      "Ġincluding": 1258,
      "Ġactiv": 1259,
      "ined": 1260,
      "Ġperform": 1261,
      "itive": 1262,
      "ĠBut": 1263,
      "ior": 1264,
      "Ġpress": 1265,
      "ince": 1266,
      "Ġdid": 1267,
      "Ġschool": 1268,
      "ouse": 1269,
      "ants": 1270,
      "atch": 1271,
      "Ġdel": 1272,
      "Ġbuild": 1273,
      "Ġproject": 1274,
      "Ġagain": 1275,
      "Ġbeh": 1276,
      "-c": 1277,
      "Ġtop": 1278,
      "It": 1279,
      "Ġhuman": 1280,
      "esp": 1281,
      ":ĊĊ": 1282,
      "15": 1283,
      "ital": 1284,
      "Ġchange": 1285,
      "ĠAnd": 1286,
      "line": 1287,
      "Ġcontrol": 1288,
      "ars": 1289,
      "ross": 1290,
      "Ġcreate": 1291,
      ",\"": 1292,
      "Ġknown": 1293,
      "'ll": 1294,
      "ug": 1295,
      "Ġpos": 1296,
      "Ġcal": 1297,
      "ling": 1298,
      "Ġpract": 1299,
      "Ġthough": 1300,
      "ĠThere": 1301,
      "Ġcause": 1302,
      "Ġchang": 1303,
      "Ġarea": 1304,
      "Ġmeas": 1305,
      "Ġfew": 1306,
      "ustr": 1307,
      "und": 1308,
      "Ġrun": 1309,
      "ially": 1310,
      "Ġtype": 1311,
      "Ġchildren": 1312,
      "Ġbel": 1313,
      "Ġpotential": 1314,
      "Ġcreat": 1315,
      "hers": 1316,
      "ner": 1317,
      "Ġser": 1318,
      "Ġpain": 1319,
      "ids": 1320,
      "...": 1321,
      "-f": 1322,
      "Ġhapp": 1323,
      "ooking": 1324,
      "30": 1325,
      "Ġprevent": 1326,
      "kes": 1327,
      "ify": 1328,
      "Ġsure": 1329,
      "ex": 1330,
      "iven": 1331,
      "Ġbenef": 1332,
      "Ġbas": 1333,
      "ention": 1334,
      "Ġplace": 1335,
      "Ġide": 1336,
      "less": 1337,
      "ording": 1338,
      "ron": 1339,
      "Ġgrou": 1340,
      "Ġmus": 1341,
      "Ġtext": 1342,
      "Ġappro": 1343,
      "cle": 1344,
      "ulation": 1345,
      "Ġmust": 1346,
      "Ġthings": 1347,
      "ared": 1348,
      "ething": 1349,
      "-t": 1350,
      "Ġhard": 1351,
      "ability": 1352,
      "Ġfeel": 1353,
      "Ġconst": 1354,
      "Ġlearn": 1355,
      "Ġess": 1356,
      "Ġcaus": 1357,
      "Ġlow": 1358,
      "ental": 1359,
      "Ġcost": 1360,
      "Ġclean": 1361,
      "Ġthree": 1362,
      "Ġtry": 1363,
      "Ġconn": 1364,
      "11": 1365,
      "rodu": 1366,
      "Ġsl": 1367,
      "Ġreal": 1368,
      "Ġcontain": 1369,
      "ax": 1370,
      "Ġcalled": 1371,
      "Ġconf": 1372,
      "Ġexperience": 1373,
      "here": 1374,
      "Ġcount": 1375,
      "Ġbus": 1376,
      "Ġinclude": 1377,
      "ination": 1378,
      "Ġblood": 1379,
      "apt": 1380,
      "ee": 1381,
      "ters": 1382,
      "port": 1383,
      "Ġdev": 1384,
      "aring": 1385,
      "hy": 1386,
      "Ġcurrent": 1387,
      "ĠAd": 1388,
      "Ġdise": 1389,
      "Ġstate": 1390,
      "ĠHowever": 1391,
      "Ġcontin": 1392,
      "Ġphys": 1393,
      "Ġsit": 1394,
      "ertain": 1395,
      "Ġsomething": 1396,
      "iver": 1397,
      "Ġsw": 1398,
      "Ġdam": 1399,
      "Ġrest": 1400,
      "uss": 1401,
      "ole": 1402,
      "Ġindivid": 1403,
      "Ġtre": 1404,
      "Ġnec": 1405,
      "Ġconsider": 1406,
      "Ġgr": 1407,
      "pect": 1408,
      "Ġwithin": 1409,
      "ĠSo": 1410,
      "Ġdirect": 1411,
      "iod": 1412,
      "Ġwee": 1413,
      "Ġneeds": 1414,
      "Ġlay": 1415,
      "ients": 1416,
      "ently": 1417,
      "'ve": 1418,
      "ism": 1419,
      "Ġlet": 1420,
      "Ġwhy": 1421,
      "ems": 1422,
      "Ġcells": 1423,
      "oms": 1424,
      "Ġable": 1425,
      "br": 1426,
      "Ġnatural": 1427,
      "ique": 1428,
      "ills": 1429,
      "Ġaddition": 1430,
      "Ġavail": 1431,
      "Ġlim": 1432,
      "Ġspecific": 1433,
      "ones": 1434,
      "Ġhead": 1435,
      "arden": 1436,
      "cial": 1437,
      "Ġfunction": 1438,
      "Ġstep": 1439,
      "18": 1440,
      "ator": 1441,
      "-p": 1442,
      "ĠSc": 1443,
      "raw": 1444,
      "Ġsurf": 1445,
      "ends": 1446,
      "Ġele": 1447,
      "erest": 1448,
      "Ġdue": 1449,
      "Ġpossible": 1450,
      "Ġput": 1451,
      "Ġel": 1452,
      "rap": 1453,
      "omp": 1454,
      "ĠWhen": 1455,
      "Ġsoil": 1456,
      "aper": 1457,
      "Ġfree": 1458,
      "Ġanother": 1459,
      "Ġstand": 1460,
      "akes": 1461,
      "Ġstruct": 1462,
      "me": 1463,
      "Ġsecond": 1464,
      "Ġphot": 1465,
      "ĠPl": 1466,
      "Ġensure": 1467,
      "Ġprogram": 1468,
      "ource": 1469,
      "ours": 1470,
      "Ġmark": 1471,
      "Ġlast": 1472,
      "iversity": 1473,
      "Ġident": 1474,
      "ense": 1475,
      "50": 1476,
      "Ġcap": 1477,
      "Ġreally": 1478,
      "Ġoper": 1479,
      "over": 1480,
      "Ġfollowing": 1481,
      "St": 1482,
      "Ġcr": 1483,
      "ĠSp": 1484,
      "Ġpub": 1485,
      "Ġhere": 1486,
      "Ġpressure": 1487,
      "**": 1488,
      "Ġalways": 1489,
      "ape": 1490,
      "Ġmove": 1491,
      "orn": 1492,
      "Ġimm": 1493,
      "Ġlearning": 1494,
      "Ġfish": 1495,
      "Ġspace": 1496,
      "ush": 1497,
      "Ġgoing": 1498,
      "ocus": 1499,
      "ank": 1500,
      "arent": 1501,
      "Ġimpact": 1502,
      "land": 1503,
      "Ġcome": 1504,
      "ring": 1505,
      "icle": 1506,
      "Ġtool": 1507,
      "Ġamount": 1508,
      "hor": 1509,
      "Ġinvol": 1510,
      "meric": 1511,
      "Ġsignific": 1512,
      "ished": 1513,
      "ization": 1514,
      "Ġcond": 1515,
      "ox": 1516,
      "Ġavailable": 1517,
      "eds": 1518,
      "Ġec": 1519,
      "Ġrisk": 1520,
      "Ġareas": 1521,
      "Ġbecome": 1522,
      "Ġlittle": 1523,
      "Ġeduc": 1524,
      "Ġaccess": 1525,
      "Ġquality": 1526,
      "Ġvarious": 1527,
      "Ġopen": 1528,
      "irc": 1529,
      "hip": 1530,
      "Ġsym": 1531,
      "Ġenough": 1532,
      "aves": 1533,
      "gen": 1534,
      "Ġret": 1535,
      "Ġcolor": 1536,
      "âĢĻs": 1537,
      "af": 1538,
      "Ġanal": 1539,
      "Ġpass": 1540,
      "Ġtypes": 1541,
      "Ġpar": 1542,
      "13": 1543,
      "Ġfil": 1544,
      "thing": 1545,
      "Ġsever": 1546,
      "Ġbird": 1547,
      "osed": 1548,
      "Ġlot": 1549,
      "__": 1550,
      "ified": 1551,
      "âĢĶ": 1552,
      "outh": 1553,
      "oes": 1554,
      "Ġmeans": 1555,
      "Ġest": 1556,
      "Ġold": 1557,
      "ccess": 1558,
      "Ġant": 1559,
      "Ġcho": 1560,
      "ably": 1561,
      "-d": 1562,
      "fort": 1563,
      "Ġusually": 1564,
      "ateg": 1565,
      "Ġcomput": 1566,
      "Ġunt": 1567,
      "Ġmult": 1568,
      "Ġeffective": 1569,
      "Ġgive": 1570,
      "Ġfac": 1571,
      "ended": 1572,
      "ision": 1573,
      "Ġfin": 1574,
      "Ġnut": 1575,
      "Ġorder": 1576,
      "ables": 1577,
      "ources": 1578,
      "Ġmean": 1579,
      "Ġsay": 1580,
      "raph": 1581,
      "Ġprofess": 1582,
      "Ġrange": 1583,
      "Ġtimes": 1584,
      "Ġmonth": 1585,
      "Ġinterest": 1586,
      "bers": 1587,
      "Ġbi": 1588,
      "ilar": 1589,
      "ime": 1590,
      "ption": 1591,
      "ieve": 1592,
      "cent": 1593,
      "Ġvalue": 1594,
      "As": 1595,
      "ware": 1596,
      "Ġfocus": 1597,
      "uture": 1598,
      "Ġbusiness": 1599,
      "be": 1600,
      "Ġweight": 1601,
      "Ġhig": 1602,
      "Ġvol": 1603,
      "ĠAmeric": 1604,
      "Ġsystems": 1605,
      "atic": 1606,
      "Ġhy": 1607,
      "Ġprom": 1608,
      "Ġcam": 1609,
      "iting": 1610,
      "Ġoccur": 1611,
      "Ġsize": 1612,
      "Ġproblem": 1613,
      "aste": 1614,
      "of": 1615,
      "de": 1616,
      "oot": 1617,
      "Ġpresent": 1618,
      "Ġenc": 1619,
      "Ġseveral": 1620,
      "Ġheat": 1621,
      "Ġsens": 1622,
      "Ġside": 1623,
      "Ġkey": 1624,
      "Ġconditions": 1625,
      "Ġbeg": 1626,
      "oose": 1627,
      "ote": 1628,
      "ories": 1629,
      "Ġdig": 1630,
      "Ġteam": 1631,
      "Ġmach": 1632,
      "Ġfeature": 1633,
      "We": 1634,
      "oor": 1635,
      "Ġtreatment": 1636,
      "urther": 1637,
      "oney": 1638,
      "view": 1639,
      "Ġsignificant": 1640,
      "Ġbased": 1641,
      "Ġmot": 1642,
      "ĠWhich": 1643,
      "Ġcy": 1644,
      "arc": 1645,
      "Ġcut": 1646,
      "ane": 1647,
      "Ġessential": 1648,
      "oad": 1649,
      "Ġopp": 1650,
      "Ġpost": 1651,
      "ides": 1652,
      "Ġcomb": 1653,
      "Ġnon": 1654,
      "Ġgarden": 1655,
      "ĠIs": 1656,
      "ocial": 1657,
      "Ġpatient": 1658,
      "Ġcour": 1659,
      "ending": 1660,
      "Ġlist": 1661,
      "ires": 1662,
      "ately": 1663,
      "cer": 1664,
      "Ġspecial": 1665,
      "Ġprotect": 1666,
      "Ġdays": 1667,
      "ances": 1668,
      "Ġcat": 1669,
      "ustom": 1670,
      "Ġsound": 1671,
      "Ġdeterm": 1672,
      "Ġnecess": 1673,
      "Ġdevelopment": 1674,
      "Ġbatter": 1675,
      "ĠAr": 1676,
      "Ġ&": 1677,
      "Ġcase": 1678,
      "ĠInd": 1679,
      "pping": 1680,
      "ĠEx": 1681,
      "Ġparticular": 1682,
      "icro": 1683,
      "Ġdesc": 1684,
      "ĠCl": 1685,
      "Ġanimals": 1686,
      "Ġconsum": 1687,
      "When": 1688,
      "Ġ$": 1689,
      "ĠSh": 1690,
      "Ġmakes": 1691,
      "Ġrecomm": 1692,
      "Ġz": 1693,
      "Ġscient": 1694,
      "Ġfore": 1695,
      "Ġwind": 1696,
      "Ġmaterials": 1697,
      "'m": 1698,
      "omes": 1699,
      "Ġapplic": 1700,
      "Ġdem": 1701,
      "work": 1702,
      "Ġcertain": 1703,
      "16": 1704,
      "Ġfre": 1705,
      "ards": 1706,
      "icient": 1707,
      "14": 1708,
      "Ġprote": 1709,
      "Ġoil": 1710,
      "Ġhist": 1711,
      "Ġperiod": 1712,
      "ised": 1713,
      "Ġobject": 1714,
      "Ġdogs": 1715,
      "Ġuntil": 1716,
      "Ġfield": 1717,
      "ope": 1718,
      "Ġrele": 1719,
      "Ġhaving": 1720,
      "Ġsun": 1721,
      "Ġtechnology": 1722,
      "cul": 1723,
      "Ġnext": 1724,
      "Ġcirc": 1725,
      "Ġimprove": 1726,
      "ration": 1727,
      "-l": 1728,
      "Ġred": 1729,
      "Ġaway": 1730,
      "Ġnear": 1731,
      "ency": 1732,
      "Ġchem": 1733,
      "utes": 1734,
      "Ġshort": 1735,
      "ton": 1736,
      "Ġter": 1737,
      "Ġmanage": 1738,
      "Ġfull": 1739,
      "Ġkind": 1740,
      "Ġword": 1741,
      "Ġbra": 1742,
      "Ġfamily": 1743,
      "pr": 1744,
      "Ġworking": 1745,
      "Ġproblems": 1746,
      "ries": 1747,
      "ĠBe": 1748,
      "Ġloss": 1749,
      "ah": 1750,
      "asing": 1751,
      "Ġlevels": 1752,
      "Ġsince": 1753,
      "ication": 1754,
      "Ġrepl": 1755,
      "Ġdiet": 1756,
      "par": 1757,
      "ĠThat": 1758,
      "Ġfuture": 1759,
      "ury": 1760,
      "Ġmaintain": 1761,
      "ored": 1762,
      "Ġproducts": 1763,
      "aut": 1764,
      "Ġmov": 1765,
      "ember": 1766,
      "Ġothers": 1767,
      "Ġsal": 1768,
      "ains": 1769,
      "ĠNew": 1770,
      "Ġbehav": 1771,
      "Ġbig": 1772,
      "Ġfri": 1773,
      "Ġcomplete": 1774,
      "ĠBy": 1775,
      "imes": 1776,
      "Ġsurface": 1777,
      "ming": 1778,
      "Ġet": 1779,
      "alk": 1780,
      "orts": 1781,
      "Ġmeasure": 1782,
      "aster": 1783,
      "Ġchanges": 1784,
      "Ġtoget": 1785,
      "-m": 1786,
      "Ġtogether": 1787,
      "az": 1788,
      "cl": 1789,
      "ogn": 1790,
      "Ġeasy": 1791,
      "Ġ=": 1792,
      "osp": 1793,
      "ĠCan": 1794,
      "Ġissues": 1795,
      "ired": 1796,
      "omen": 1797,
      "ĠWith": 1798,
      "Ġactually": 1799,
      "Ġsuccess": 1800,
      "Ġmodel": 1801,
      "Ġground": 1802,
      "Ġearly": 1803,
      "Ġalong": 1804,
      "Ġvide": 1805,
      "Ġname": 1806,
      "Ġsugg": 1807,
      "Ġlocal": 1808,
      "Ġquick": 1809,
      "Ġprim": 1810,
      "Ġresults": 1811,
      "Ġincrease": 1812,
      "Ġline": 1813,
      "ither": 1814,
      "put": 1815,
      "etic": 1816,
      "ĠRe": 1817,
      "Ġthing": 1818,
      "Ġchall": 1819,
      "Ġinfl": 1820,
      "ames": 1821,
      "Ġcomes": 1822,
      "ecially": 1823,
      "Ġreason": 1824,
      "There": 1825,
      "Ġdisease": 1826,
      "17": 1827,
      "aces": 1828,
      "oring": 1829,
      "oun": 1830,
      "Ġgrowth": 1831,
      "fer": 1832,
      "Ġhelps": 1833,
      "astic": 1834,
      "au": 1835,
      "Ġsafety": 1836,
      "inter": 1837,
      "rag": 1838,
      "fact": 1839,
      "Ġeat": 1840,
      "Ġgiven": 1841,
      "aging": 1842,
      "Ġauthor": 1843,
      "Ġelectric": 1844,
      "gn": 1845,
      "atory": 1846,
      "ological": 1847,
      "Ġfar": 1848,
      "40": 1849,
      "You": 1850,
      "man": 1851,
      "Ġsafe": 1852,
      "Ġsuggest": 1853,
      "Ġengine": 1854,
      "icult": 1855,
      "light": 1856,
      "Ġdoesn": 1857,
      "Ġgreen": 1858,
      "Ġavoid": 1859,
      "por": 1860,
      "Ġturn": 1861,
      "Ġleg": 1862,
      "erc": 1863,
      "iment": 1864,
      "Ġsoft": 1865,
      "Ġlikely": 1866,
      "Ġcondition": 1867,
      "Ġdry": 1868,
      "Ġtraining": 1869,
      "Ġsimilar": 1870,
      "Ġlab": 1871,
      "Ġnever": 1872,
      "ograph": 1873,
      "Ġgroup": 1874,
      "Ġdone": 1875,
      "ĠUniversity": 1876,
      "ĠRes": 1877,
      "Ġmill": 1878,
      "especially": 1879,
      "Ġcustom": 1880,
      "let": 1881,
      "ruction": 1882,
      ")ĊĊ": 1883,
      "duct": 1884,
      "Ġreduce": 1885,
      "not": 1886,
      "Ġsocial": 1887,
      "ilities": 1888,
      "une": 1889,
      "Ġans": 1890,
      "Ġhigher": 1891,
      "Ġlive": 1892,
      "25": 1893,
      "Ġfr": 1894,
      "Ġcourse": 1895,
      "ER": 1896,
      "fect": 1897,
      "Ġpaper": 1898,
      "rect": 1899,
      "Ġprob": 1900,
      "co": 1901,
      "ĠAt": 1902,
      "Ġsing": 1903,
      "Ġhealthy": 1904,
      "Ġsum": 1905,
      "Ġpast": 1906,
      "Ġcompon": 1907,
      "Ġi": 1908,
      "Ġleast": 1909,
      "ĠCol": 1910,
      "Ġstrong": 1911,
      ")Ċ": 1912,
      "Ġsn": 1913,
      "Ġlower": 1914,
      "Ġgas": 1915,
      "vious": 1916,
      "ission": 1917,
      "Ġteac": 1918,
      "ret": 1919,
      "Ġassoci": 1920,
      "ode": 1921,
      "Ġfeed": 1922,
      "Ġeye": 1923,
      "Ġhouse": 1924,
      "jor": 1925,
      "self": 1926,
      "Ġsimple": 1927,
      "Ġwrit": 1928,
      "ĠSome": 1929,
      "inc": 1930,
      "Ġcheck": 1931,
      "Ġweek": 1932,
      "Ġ[": 1933,
      "Ġespecially": 1934,
      "ĠTe": 1935,
      "Ġtru": 1936,
      "Ġmil": 1937,
      "usion": 1938,
      "Ġworks": 1939,
      "An": 1940,
      "Ġgame": 1941,
      "Ġaccording": 1942,
      "ĠDe": 1943,
      "Ġdiscuss": 1944,
      "ask": 1945,
      "Ġmar": 1946,
      "Ġabove": 1947,
      "Ġbit": 1948,
      "ler": 1949,
      "Ġrad": 1950,
      "wards": 1951,
      "pped": 1952,
      "Ġappear": 1953,
      "ators": 1954,
      "Ġbro": 1955,
      "Ġmind": 1956,
      "Ġways": 1957,
      "Ġaffect": 1958,
      "Ġorig": 1959,
      "Ġdamage": 1960,
      "Ġbegin": 1961,
      "ivity": 1962,
      "Ġeffects": 1963,
      "Ġagainst": 1964,
      "olution": 1965,
      "Ġunique": 1966,
      "Ġacross": 1967,
      "Ġhim": 1968,
      "ploy": 1969,
      "most": 1970,
      "ches": 1971,
      "igns": 1972,
      "Ġrespons": 1973,
      "joy": 1974,
      "though": 1975,
      "Ġwhether": 1976,
      "Ġskin": 1977,
      "!ĊĊ": 1978,
      "Ġpercent": 1979,
      "anced": 1980,
      "Ġmass": 1981,
      "Ġnet": 1982,
      "Ġland": 1983,
      "Ġabs": 1984,
      "Ġcult": 1985,
      "leep": 1986,
      "Ġlooking": 1987,
      "Ġrole": 1988,
      "âĢ¦": 1989,
      "Ġdetail": 1990,
      "ĠPh": 1991,
      "Ġpred": 1992,
      "Ġgre": 1993,
      "Ġclear": 1994,
      "Ġcomplex": 1995,
      "NA": 1996,
      "alf": 1997,
      "verage": 1998,
      "ĠCon": 1999,
      "Ġproduction": 2000,
      "Ġparent": 2001,
      "Ġfall": 2002,
      "Ġyoung": 2003,
      "aching": 2004,
      "avor": 2005,
      "ral": 2006,
      "ĠEn": 2007,
      "Ġdifficult": 2008,
      "ney": 2009,
      "ĠSe": 2010,
      "ĠYour": 2011,
      "ections": 2012,
      "Ġphysical": 2013,
      "ery": 2014,
      "etimes": 2015,
      "Ġgetting": 2016,
      "ression": 2017,
      "Ġintern": 2018,
      "li": 2019,
      "ooks": 2020,
      "Ġnecessary": 2021,
      "agn": 2022,
      "ising": 2023,
      "Ġfour": 2024,
      "bon": 2025,
      "Ġselect": 2026,
      "ibility": 2027,
      "Ġcharacter": 2028,
      "Ġmarket": 2029,
      "onom": 2030,
      "Ġonce": 2031,
      "Ġleft": 2032,
      "ived": 2033,
      "ym": 2034,
      "Ġbook": 2035,
      "Ġmajor": 2036,
      "Ġwarm": 2037,
      "Ġveget": 2038,
      "idence": 2039,
      "Ġfrequ": 2040,
      "Ġevent": 2041,
      "Ġnorm": 2042,
      "izing": 2043,
      "side": 2044,
      "Ġpublic": 2045,
      "Ġpet": 2046,
      "Ġoffer": 2047,
      "Ġpopular": 2048,
      "Ġwood": 2049,
      "Ġhold": 2050,
      "Ġspeed": 2051,
      "Ġclose": 2052,
      "aken": 2053,
      "Ġparts": 2054,
      "ensive": 2055,
      "Ġregular": 2056,
      "Ġexperien": 2057,
      "Ġdesigned": 2058,
      "To": 2059,
      "Ġtur": 2060,
      "Ġrece": 2061,
      "Ġvir": 2062,
      "Ġinvest": 2063,
      "Ġage": 2064,
      "resh": 2065,
      "Ġrecord": 2066,
      "Ġreport": 2067,
      "oint": 2068,
      "ĠZ": 2069,
      "Ġcru": 2070,
      "ilt": 2071,
      "lish": 2072,
      "Ġprovides": 2073,
      "ott": 2074,
      "ream": 2075,
      "Ġegg": 2076,
      "Ġobs": 2077,
      "Ġut": 2078,
      "Ġvariety": 2079,
      "ledge": 2080,
      "21": 2081,
      "ung": 2082,
      "Ġdeg": 2083,
      "Ġthin": 2084,
      "Ġbacter": 2085,
      "ument": 2086,
      "Ġskills": 2087,
      "ĠEng": 2088,
      "Ġfurther": 2089,
      "Ġallows": 2090,
      "ufact": 2091,
      "Ġeither": 2092,
      "ortun": 2093,
      "Ġflu": 2094,
      "Ġchemical": 2095,
      "Ġsays": 2096,
      "Ġtoday": 2097,
      "ustain": 2098,
      "Ġinteract": 2099,
      "Wh": 2100,
      "Ġenh": 2101,
      "Ġwr": 2102,
      "Ġenjoy": 2103,
      "Ġsingle": 2104,
      "Ġmatter": 2105,
      "Ġsmo": 2106,
      "yle": 2107,
      "Ġwide": 2108,
      "Ġrepres": 2109,
      "Ġwhite": 2110,
      "ustry": 2111,
      "Ġscience": 2112,
      "Ġremov": 2113,
      "60": 2114,
      "ĠOn": 2115,
      "ĠX": 2116,
      "inary": 2117,
      "estions": 2118,
      "Ġneeded": 2119,
      "lection": 2120,
      "Ġill": 2121,
      "Ġterm": 2122,
      "uck": 2123,
      "Ġcra": 2124,
      "ening": 2125,
      "Ġmicro": 2126,
      "Ġfactors": 2127,
      "ump": 2128,
      "Ġcommunity": 2129,
      "Ġsource": 2130,
      "Ġminim": 2131,
      "edi": 2132,
      "Ġleaves": 2133,
      "Ġbenefits": 2134,
      "Ġach": 2135,
      "Ġheart": 2136,
      "chan": 2137,
      "Ġhab": 2138,
      "Ġability": 2139,
      "ength": 2140,
      "Ġanimal": 2141,
      "to": 2142,
      "Ġpan": 2143,
      "Ġcoll": 2144,
      "angu": 2145,
      "For": 2146,
      "Ġwar": 2147,
      "Ġpersonal": 2148,
      "Ġmedical": 2149,
      "Ġproduce": 2150,
      "Ġeducation": 2151,
      "Ġhours": 2152,
      "uals": 2153,
      "Ġexist": 2154,
      "Ġvers": 2155,
      "Ġste": 2156,
      "ĠUS": 2157,
      "rown": 2158,
      "Ġcontrib": 2159,
      "Ġdifference": 2160,
      "ditional": 2161,
      "ification": 2162,
      ",Ċ": 2163,
      "sc": 2164,
      "Ġcook": 2165,
      "lement": 2166,
      "Ġperformance": 2167,
      "hing": 2168,
      "hem": 2169,
      "ready": 2170,
      "Ġdoing": 2171,
      "Ġer": 2172,
      "ptoms": 2173,
      "eter": 2174,
      "ĠOr": 2175,
      "Ġdraw": 2176,
      "Ġjob": 2177,
      "mit": 2178,
      "orth": 2179,
      "Ġindic": 2180,
      "Ġneg": 2181,
      "Ġstructure": 2182,
      "Ġhistory": 2183,
      "Ġtree": 2184,
      "Ġdescrib": 2185,
      "24": 2186,
      "Ġbattery": 2187,
      "Ġtri": 2188,
      "Ġtell": 2189,
      "istic": 2190,
      "ales": 2191,
      "Ġresearc": 2192,
      "Ġactivities": 2193,
      "com": 2194,
      "arget": 2195,
      "ows": 2196,
      "Ġvac": 2197,
      "pper": 2198,
      "ĠAI": 2199,
      "ift": 2200,
      "Ġtravel": 2201,
      "ĠâĢĶ": 2202,
      "Ġbuy": 2203,
      "ples": 2204,
      "Ġstay": 2205,
      "iple": 2206,
      "Ġcool": 2207,
      "Ġsitu": 2208,
      "Ġsubst": 2209,
      "lished": 2210,
      "Ġpoll": 2211,
      "Ġclimate": 2212,
      "idd": 2213,
      "amm": 2214,
      "ĠInst": 2215,
      "----": 2216,
      "Ġquestion": 2217,
      "Ġbuilding": 2218,
      "Ġstress": 2219,
      "ystem": 2220,
      "room": 2221,
      "ĠBl": 2222,
      "Ġrequired": 2223,
      "Ġmanufact": 2224,
      "Ġindustry": 2225,
      "Ġview": 2226,
      "Ġarticle": 2227,
      "Ġtypically": 2228,
      "oon": 2229,
      "Ġcrit": 2230,
      "Ġreact": 2231,
      "lying": 2232,
      "yl": 2233,
      "ĠGu": 2234,
      "ĠOne": 2235,
      "Ġindividual": 2236,
      "ann": 2237,
      "Ġunderstanding": 2238,
      "Ġvideo": 2239,
      "erous": 2240,
      "sel": 2241,
      "Ġlove": 2242,
      "Ġseen": 2243,
      "iques": 2244,
      "for": 2245,
      "gar": 2246,
      "Ġalready": 2247,
      "osing": 2248,
      "Ġlayer": 2249,
      "rate": 2250,
      "ule": 2251,
      "esc": 2252,
      "Ġfat": 2253,
      "Ġmat": 2254,
      "ĠNo": 2255,
      "utions": 2256,
      "Ġpurp": 2257,
      "Ġlonger": 2258,
      "ĠĠ": 2259,
      "Ġbal": 2260,
      "aps": 2261,
      "Ġamong": 2262,
      "Ġuser": 2263,
      "Ġever": 2264,
      "overed": 2265,
      "Ġopportun": 2266,
      "Ġla": 2267,
      "Ġcontact": 2268,
      "Ġperfect": 2269,
      "Ġpatients": 2270,
      "Ġsqu": 2271,
      "Ġwhole": 2272,
      "Ġeasily": 2273,
      "Ġblack": 2274,
      "ply": 2275,
      "Ġsuper": 2276,
      "Ġemb": 2277,
      "idered": 2278,
      "Ġaddress": 2279,
      "Ġsolution": 2280,
      "Ġcorrect": 2281,
      "bo": 2282,
      "Ġslow": 2283,
      "vert": 2284,
      "Ġmonths": 2285,
      "Ġfeatures": 2286,
      "Ġask": 2287,
      "Ġwild": 2288,
      "ĠAll": 2289,
      "!Ċ": 2290,
      "urs": 2291,
      "fully": 2292,
      "Ġpath": 2293,
      "Ġwa": 2294,
      "istance": 2295,
      "ging": 2296,
      "Ġgrowing": 2297,
      "Ġinside": 2298,
      "aving": 2299,
      "Al": 2300,
      "Ġhor": 2301,
      "uff": 2302,
      "ĠIm": 2303,
      "het": 2304,
      "Ġinit": 2305,
      "Ġinstall": 2306,
      "Ġmanagement": 2307,
      "Ġpack": 2308,
      "Ġbelow": 2309,
      "Ġonline": 2310,
      "Ġfru": 2311,
      "Ġcompany": 2312,
      "Ġpositive": 2313,
      ".,": 2314,
      "Ġknowledge": 2315,
      "Ġchalleng": 2316,
      "Ġmoney": 2317,
      "icien": 2318,
      "Ġeyes": 2319,
      "Ġconsidered": 2320,
      "ae": 2321,
      "Ġself": 2322,
      "Ġbrain": 2323,
      "Ġcomfort": 2324,
      "Ġmethods": 2325,
      "Ġpay": 2326,
      "Ġsomeone": 2327,
      "Ġprotein": 2328,
      "Ġanswer": 2329,
      "Ġliving": 2330,
      "Ġsleep": 2331,
      "Ġtarget": 2332,
      "Ġport": 2333,
      "Ġprec": 2334,
      "Ġcomputer": 2335,
      "Ġmix": 2336,
      "Ġ--": 2337,
      "rel": 2338,
      "Ġmention": 2339,
      "-w": 2340,
      "aling": 2341,
      "Ġprep": 2342,
      "isc": 2343,
      "ctor": 2344,
      "illed": 2345,
      "ges": 2346,
      "Ġcollect": 2347,
      "Ġjour": 2348,
      "Ġcold": 2349,
      "Ġgeneral": 2350,
      "Ġbring": 2351,
      "acks": 2352,
      "Ġelectr": 2353,
      "ray": 2354,
      "Ġsuff": 2355,
      "selves": 2356,
      "Ġtaking": 2357,
      "Ġextra": 2358,
      "Ġentire": 2359,
      "-based": 2360,
      "Ġharm": 2361,
      "ulations": 2362,
      "ik": 2363,
      "ĠQu": 2364,
      "ura": 2365,
      "Ġexc": 2366,
      "Ġemploy": 2367,
      "Ġbreak": 2368,
      "ĠCal": 2369,
      "Ġdeep": 2370,
      "Ġetc": 2371,
      "Ġprobably": 2372,
      "Ġrather": 2373,
      "Ġhalf": 2374,
      "aced": 2375,
      "Ġidea": 2376,
      "onst": 2377,
      "ese": 2378,
      "aged": 2379,
      "Ġquestions": 2380,
      "Ġisn": 2381,
      "Ġthroughout": 2382,
      "nov": 2383,
      "Ġyourself": 2384,
      "âĢĵ": 2385,
      "Ġsustain": 2386,
      "Ġfram": 2387,
      "ured": 2388,
      "Ġhyd": 2389,
      "Ġcontent": 2390,
      "Ch": 2391,
      "erve": 2392,
      "use": 2393,
      "Ġprop": 2394,
      "Ġminutes": 2395,
      "Ġcrucial": 2396,
      "amin": 2397,
      "Ġsymptoms": 2398,
      "ze": 2399,
      "erence": 2400,
      "aily": 2401,
      "Ġprofessional": 2402,
      "nam": 2403,
      "nces": 2404,
      "Ġexerc": 2405,
      "sy": 2406,
      "Ġhot": 2407,
      "cell": 2408,
      "Ġenvironmental": 2409,
      "Ġthought": 2410,
      "Ġmachine": 2411,
      "Ġseason": 2412,
      "AT": 2413,
      "Ġassociated": 2414,
      "Th": 2415,
      "Ġstrateg": 2416,
      "Ġwall": 2417,
      "Ġsil": 2418,
      "Ġmole": 2419,
      "Ġlangu": 2420,
      "Ġoptions": 2421,
      "ises": 2422,
      "Ġquite": 2423,
      "reng": 2424,
      "Ġbehavior": 2425,
      "Ġfu": 2426,
      "Ġtot": 2427,
      "Ġappl": 2428,
      "Ġhumans": 2429,
      "urop": 2430,
      "ĠEar": 2431,
      "Ġstore": 2432,
      "Ġindividuals": 2433,
      "Ġbar": 2434,
      "verse": 2435,
      "Ġactive": 2436,
      "ibr": 2437,
      "Ġcases": 2438,
      "ysis": 2439,
      "80": 2440,
      "ina": 2441,
      ".\"Ċ": 2442,
      ").Ċ": 2443,
      "Ġaltern": 2444,
      "Ġveh": 2445,
      "by": 2446,
      "itable": 2447,
      "Ġheav": 2448,
      "Ġincludes": 2449,
      "Ġmeet": 2450,
      "Ġservices": 2451,
      "Ġtools": 2452,
      "osis": 2453,
      "Ġintrodu": 2454,
      "Ġgot": 2455,
      "Ġmechan": 2456,
      "Ġfarm": 2457,
      "Ġtechniques": 2458,
      "Ġlarger": 2459,
      "22": 2460,
      "urity": 2461,
      "Ġassess": 2462,
      "Ġprimary": 2463,
      "Ġcou": 2464,
      "Ġquickly": 2465,
      "app": 2466,
      "ext": 2467,
      "Ġang": 2468,
      "ropri": 2469,
      "Ġposition": 2470,
      "90": 2471,
      "ding": 2472,
      "Ġrelations": 2473,
      "hern": 2474,
      "Ġresources": 2475,
      "way": 2476,
      "Ġfib": 2477,
      "Ġrate": 2478,
      "Ġcover": 2479,
      "Ġcreated": 2480,
      "ĠAmerican": 2481,
      "Ġactivity": 2482,
      "itor": 2483,
      "Ġrecogn": 2484,
      "Ġox": 2485,
      "Ġissue": 2486,
      "âĢĿ": 2487,
      "Ġproviding": 2488,
      "iciency": 2489,
      "Ġfit": 2490,
      "icial": 2491,
      "Ġcreating": 2492,
      "just": 2493,
      "pro": 2494,
      "Ġapproach": 2495,
      "ties": 2496,
      "Ġwomen": 2497,
      "itch": 2498,
      "Ġchoose": 2499,
      "Ġtrees": 2500,
      "Ġsimply": 2501,
      "Ġglob": 2502,
      "rict": 2503,
      "Ġoverall": 2504,
      "Ġresearchers": 2505,
      "So": 2506,
      "ĠDr": 2507,
      "Ġuses": 2508,
      "Ġing": 2509,
      "Ġbab": 2510,
      "Ġtaken": 2511,
      "rams": 2512,
      "Ġfeet": 2513,
      "lex": 2514,
      "Ġconsist": 2515,
      "Ġstra": 2516,
      "Ġoutside": 2517,
      "Ġnature": 2518,
      "Ġsolar": 2519,
      "Ġbirds": 2520,
      "Ġitems": 2521,
      "Ġlater": 2522,
      "Ġcompet": 2523,
      "Ġrob": 2524,
      "iation": 2525,
      "Ġlog": 2526,
      "izes": 2527,
      "Ġfem": 2528,
      "ĠCent": 2529,
      "ume": 2530,
      "Ġoffers": 2531,
      "Ġconnect": 2532,
      "Ġfront": 2533,
      "Ġaverage": 2534,
      "Ġnight": 2535,
      "Ġsubject": 2536,
      "Ġdevices": 2537,
      "aff": 2538,
      "Ġinj": 2539,
      "Ġstreng": 2540,
      "umb": 2541,
      "ounds": 2542,
      "Ġidentify": 2543,
      "cks": 2544,
      "xim": 2545,
      "Ġtakes": 2546,
      "Ġdri": 2547,
      "Ġdark": 2548,
      "Ġreading": 2549,
      "Ġhabit": 2550,
      "ĠAf": 2551,
      "uit": 2552,
      "Ġtherap": 2553,
      "Ġmo": 2554,
      "Ġtraditional": 2555,
      "lor": 2556,
      "reme": 2557,
      "eral": 2558,
      "Ġwon": 2559,
      "Ġbeaut": 2560,
      "Ġstudent": 2561,
      "Ġcarbon": 2562,
      "ĠWor": 2563,
      "Ġtiss": 2564,
      "Ġlaw": 2565,
      "Ġones": 2566,
      "Ġinstead": 2567,
      "Ġservice": 2568,
      "Ġchoice": 2569,
      "ouch": 2570,
      "Ġlif": 2571,
      "Ġrepresent": 2572,
      "Ġfast": 2573,
      "Ġann": 2574,
      "Ġcancer": 2575,
      "rug": 2576,
      "Ġdy": 2577,
      "Ġrelated": 2578,
      "Ġshows": 2579,
      "Ġconduct": 2580,
      "rim": 2581,
      "icles": 2582,
      "Ġspe": 2583,
      "Ġplastic": 2584,
      "ĠHere": 2585,
      "earch": 2586,
      "Ġattention": 2587,
      "Ġpractice": 2588,
      "Ad": 2589,
      "Ġinteg": 2590,
      "Ġcauses": 2591,
      "urope": 2592,
      "Ġbur": 2593,
      "oll": 2594,
      "Ġinflu": 2595,
      "Ġther": 2596,
      "Ġweather": 2597,
      "Ġsometimes": 2598,
      "rist": 2599,
      "Ġseeds": 2600,
      "Ġcompan": 2601,
      "Ġguide": 2602,
      "Ġ/": 2603,
      "Ġteeth": 2604,
      "ervation": 2605,
      "Ġmillion": 2606,
      "Ġbacteria": 2607,
      "asons": 2608,
      "Ġsepar": 2609,
      "Ġthread": 2610,
      "Ġseem": 2611,
      "ĠComm": 2612,
      "ĠWhile": 2613,
      "ĠShe": 2614,
      "Ġcannot": 2615,
      "Ġanything": 2616,
      "Ġaud": 2617,
      "Ġsense": 2618,
      "amp": 2619,
      "ĠLe": 2620,
      "23": 2621,
      "val": 2622,
      "lease": 2623,
      "IN": 2624,
      "Ġcapt": 2625,
      "Ġsam": 2626,
      "ene": 2627,
      "Ġlength": 2628,
      "Ġhowever": 2629,
      "Ġarr": 2630,
      "Ġir": 2631,
      "Ġwinter": 2632,
      "Ġprovided": 2633,
      "Ġstarted": 2634,
      "Ġsoftware": 2635,
      "Ġpri": 2636,
      "Ġalmost": 2637,
      "ĠMod": 2638,
      "Ġefficient": 2639,
      "Ġcontroll": 2640,
      "Ġcomponents": 2641,
      "ĠComp": 2642,
      "ON": 2643,
      "Ġroom": 2644,
      "Ġgover": 2645,
      "Ġmedic": 2646,
      "where": 2647,
      "Ġtable": 2648,
      "Ġdaily": 2649,
      "ellow": 2650,
      "Ġparticip": 2651,
      "mb": 2652,
      "ĠDo": 2653,
      "Ġprevious": 2654,
      ".\"ĊĊ": 2655,
      "Ġfail": 2656,
      "Ġforce": 2657,
      "Ġexact": 2658,
      "aches": 2659,
      "Ġstudies": 2660,
      "Ġincreased": 2661,
      "Ġfund": 2662,
      "sect": 2663,
      "ĠCo": 2664,
      "ipment": 2665,
      "Ġblock": 2666,
      "70": 2667,
      "ged": 2668,
      "part": 2669,
      "Ġautom": 2670,
      "ĠCar": 2671,
      "Ġface": 2672,
      "icy": 2673,
      "ension": 2674,
      "Ġfoods": 2675,
      "Ġpopulation": 2676,
      "abet": 2677,
      "Ġsugar": 2678,
      "Ġspread": 2679,
      "Ġadult": 2680,
      "ĠUs": 2681,
      "Ġtrying": 2682,
      "sych": 2683,
      "ES": 2684,
      "ison": 2685,
      "Ġoptim": 2686,
      "Ġbreed": 2687,
      "sh": 2688,
      "sp": 2689,
      "alking": 2690,
      "iece": 2691,
      "Ġbox": 2692,
      "Ġadvant": 2693,
      "ground": 2694,
      "Ġpict": 2695,
      "Ġregion": 2696,
      "Ġwords": 2697,
      "ED": 2698,
      "Ġrequires": 2699,
      "AR": 2700,
      "arily": 2701,
      "ĠCont": 2702,
      "Ġstop": 2703,
      "ules": 2704,
      "Ġkit": 2705,
      "Ġbasic": 2706,
      "-in": 2707,
      "era": 2708,
      "Ġyet": 2709,
      "rad": 2710,
      "atively": 2711,
      "Ġbelieve": 2712,
      "ĠAfric": 2713,
      "oph": 2714,
      "Ġtend": 2715,
      "Ġgenerally": 2716,
      "Ġparents": 2717,
      "aim": 2718,
      "eb": 2719,
      "upp": 2720,
      "Ġaccount": 2721,
      "Ġmetal": 2722,
      "Ġdevice": 2723,
      "Ġnormal": 2724,
      "Ġshape": 2725,
      "ival": 2726,
      "Ġincreasing": 2727,
      "Ġsat": 2728,
      "Ġadditional": 2729,
      "Ġdetermine": 2730,
      "rig": 2731,
      "Ġhappen": 2732,
      "unch": 2733,
      "abor": 2734,
      "Ġsteps": 2735,
      "Ġur": 2736,
      "Ġice": 2737,
      "Ġevents": 2738,
      "ĠUnited": 2739,
      "Ġcountry": 2740,
      "One": 2741,
      "Ġproperly": 2742,
      "AS": 2743,
      "Ġ.": 2744,
      "Ġreview": 2745,
      "Ġgain": 2746,
      "Ġremove": 2747,
      "Ġstri": 2748,
      "...ĊĊ": 2749,
      "ils": 2750,
      "Ġacid": 2751,
      "ians": 2752,
      "Ġbad": 2753,
      "Ġfresh": 2754,
      "Ġmen": 2755,
      "Ġcontinu": 2756,
      "ropriate": 2757,
      "Why": 2758,
      "iot": 2759,
      "ley": 2760,
      "Ġthemselves": 2761,
      "Ġtransport": 2762,
      "Ġexplain": 2763,
      "ĠNational": 2764,
      "Ġdispl": 2765,
      "ustral": 2766,
      "ĠApp": 2767,
      "elling": 2768,
      "Ġremain": 2769,
      "ĠCons": 2770,
      "Ġencou": 2771,
      "Ġdigital": 2772,
      "iring": 2773,
      "ĠEurope": 2774,
      "ditionally": 2775,
      "Ġsummer": 2776,
      "ences": 2777,
      "Ġhar": 2778,
      "Ġemerg": 2779,
      "Ġdeveloped": 2780,
      "Ġextreme": 2781,
      "Ġnutri": 2782,
      "Ġgovern": 2783,
      "'d": 2784,
      "Ġmultiple": 2785,
      "oud": 2786,
      "Ġimage": 2787,
      "Ġdirectly": 2788,
      "Ġelements": 2789,
      "Ġdang": 2790,
      "Ġlo": 2791,
      "Ġwond": 2792,
      "ĠâĢľ": 2793,
      "Ġmental": 2794,
      "Ġeggs": 2795,
      "ched": 2796,
      "Ġbag": 2797,
      "Ġlanguage": 2798,
      "oh": 2799,
      "Ġscientists": 2800,
      "ctions": 2801,
      "____": 2802,
      "augh": 2803,
      "Ġkids": 2804,
      "Ġflowers": 2805,
      "cular": 2806,
      "Ġseems": 2807,
      "ipe": 2808,
      "Ġterms": 2809,
      "Ġmentioned": 2810,
      ".S": 2811,
      "ites": 2812,
      "ement": 2813,
      "ecause": 2814,
      "Ġtrue": 2815,
      "ĠTr": 2816,
      "Ġitself": 2817,
      "Ġcompared": 2818,
      "Ġdefin": 2819,
      "Ġgroups": 2820,
      "ners": 2821,
      "Ġball": 2822,
      "Ġlink": 2823,
      "Ġeverything": 2824,
      "Â°": 2825,
      "att": 2826,
      "ĠAfter": 2827,
      "Ġswe": 2828,
      "Ġfive": 2829,
      "Ġconcept": 2830,
      "Ġwebs": 2831,
      "gest": 2832,
      "Ġshown": 2833,
      "Ġmoist": 2834,
      "OT": 2835,
      "Ġtips": 2836,
      "Ġsite": 2837,
      "Ġsection": 2838,
      "rees": 2839,
      "Ġmor": 2840,
      "Ġguid": 2841,
      "Ġreplace": 2842,
      "Ġfriend": 2843,
      "fl": 2844,
      "Ġrot": 2845,
      "imately": 2846,
      "Ġfix": 2847,
      "Ġmodern": 2848,
      "Ġexplore": 2849,
      "Pro": 2850,
      "Ġshare": 2851,
      "Ġvalues": 2852,
      "Ġbul": 2853,
      "But": 2854,
      "reg": 2855,
      "onse": 2856,
      "ĠAre": 2857,
      "vant": 2858,
      "osure": 2859,
      "Ġestab": 2860,
      "Ġproperties": 2861,
      "Ġpurch": 2862,
      "Ġeconom": 2863,
      "Ġcard": 2864,
      "Ġfoot": 2865,
      "ĠHealth": 2866,
      ").ĊĊ": 2867,
      "Ġbott": 2868,
      "ĠCO": 2869,
      "Ġadapt": 2870,
      "Ġsmaller": 2871,
      "Ġparticularly": 2872,
      "Ġrecommended": 2873,
      "Ġwaste": 2874,
      "Ġdom": 2875,
      "Ġoption": 2876,
      "Ġcamp": 2877,
      "illing": 2878,
      "hib": 2879,
      "Ġsus": 2880,
      "Ġglass": 2881,
      "ĠOf": 2882,
      "ĠAustral": 2883,
      "Ġmagn": 2884,
      "Ġmom": 2885,
      "Ġstory": 2886,
      "ief": 2887,
      "Ġregard": 2888,
      "Ġstandard": 2889,
      "vest": 2890,
      "Ġtowards": 2891,
      "Ġhun": 2892,
      "Ġequipment": 2893,
      "Ġeating": 2894,
      "Ġmaxim": 2895,
      "Ġbehind": 2896,
      "Ġforest": 2897,
      "igure": 2898,
      "sequ": 2899,
      "Ġpret": 2900,
      "Ġcaused": 2901,
      "acy": 2902,
      "Ġcalcul": 2903,
      "Ġweeks": 2904,
      "come": 2905,
      "min": 2906,
      "Ġcrop": 2907,
      "Ġrout": 2908,
      "Ġleave": 2909,
      "icate": 2910,
      "ĠStates": 2911,
      "Ġrecommend": 2912,
      "Ġload": 2913,
      "Ġinsp": 2914,
      "Ġaware": 2915,
      "Ġstat": 2916,
      "Ġmembers": 2917,
      "Ġapplications": 2918,
      "Ġpurpose": 2919,
      "Ġinnov": 2920,
      "Ġaspect": 2921,
      "isms": 2922,
      "ls": 2923,
      "like": 2924,
      "wh": 2925,
      "Ġmeat": 2926,
      "Ġachieve": 2927,
      "ID": 2928,
      "aries": 2929,
      "Ġseed": 2930,
      "Ġquant": 2931,
      "Ġrain": 2932,
      "new": 2933,
      "ĠStud": 2934,
      "Ġeveryone": 2935,
      "Ġfamil": 2936,
      "Ġdest": 2937,
      "oses": 2938,
      "ĠâĢ¦": 2939,
      "Ġsurv": 2940,
      "\",": 2941,
      "pid": 2942,
      "Ġelse": 2943,
      "mission": 2944,
      "Ġtask": 2945,
      "ccording": 2946,
      "Ġnetwork": 2947,
      "Ġtotal": 2948,
      "vere": 2949,
      "ĠPre": 2950,
      "Ġdoc": 2951,
      "Ġobserv": 2952,
      "iles": 2953,
      "Ġsupply": 2954,
      "Ġpoints": 2955,
      "Ġvacc": 2956,
      "mon": 2957,
      "Ġmess": 2958,
      "-g": 2959,
      "Ġgames": 2960,
      "ulate": 2961,
      "Ġemot": 2962,
      "Ġingred": 2963,
      "inct": 2964,
      "irm": 2965,
      "tenance": 2966,
      "Ġadjust": 2967,
      "Ġuseful": 2968,
      "Ġarg": 2969,
      "Ġadded": 2970,
      "Ġeasier": 2971,
      "Ġinvolved": 2972,
      "ĠKe": 2973,
      "Ġcosts": 2974,
      "iddle": 2975,
      "Ġtherm": 2976,
      "Ġanalysis": 2977,
      "Ġreach": 2978,
      "EN": 2979,
      "Ġdrug": 2980,
      "Ġoutd": 2981,
      "Ġserious": 2982,
      "Ġimmedi": 2983,
      "Ġglobal": 2984,
      "-h": 2985,
      "Ġready": 2986,
      "-to": 2987,
      "Ġpest": 2988,
      "amed": 2989,
      "emic": 2990,
      "ights": 2991,
      "Ġtesting": 2992,
      "Ġfuel": 2993,
      "itation": 2994,
      "ĠMed": 2995,
      "Ġsea": 2996,
      "care": 2997,
      "oming": 2998,
      "ĠInt": 2999,
      "Ġconcent": 3000,
      "Ġprior": 3001,
      "orpor": 3002,
      "artment": 3003,
      "Ġcontinue": 3004,
      "Ex": 3005,
      "Ġdou": 3006,
      "iforn": 3007,
      "Ġsuitable": 3008,
      "ĠFr": 3009,
      "ancy": 3010,
      "Ġreasons": 3011,
      "ricult": 3012,
      "Ġhighly": 3013,
      "Ġdistrib": 3014,
      "Ġgrass": 3015,
      "-st": 3016,
      "ĠAss": 3017,
      "ĠMay": 3018,
      "rehe": 3019,
      "Ġsand": 3020,
      "enc": 3021,
      "ĠUse": 3022,
      "Ġsignal": 3023,
      "Ġproduced": 3024,
      "Ġmodels": 3025,
      "Ġrunning": 3026,
      "Ġmeaning": 3027,
      "inate": 3028,
      "Ġfert": 3029,
      "Ġthreat": 3030,
      "Ġleading": 3031,
      "Ġago": 3032,
      "Ġrespect": 3033,
      "Ġhearing": 3034,
      "ription": 3035,
      "Ġprotection": 3036,
      "Ġconstruction": 3037,
      "rated": 3038,
      "Ġcross": 3039,
      "ĠScience": 3040,
      "Ġcapac": 3041,
      "Ġtub": 3042,
      "Ġsix": 3043,
      "ĠAm": 3044,
      "Ġbenefit": 3045,
      "ĠSouth": 3046,
      "Ġspring": 3047,
      "Ġtransform": 3048,
      "orage": 3049,
      "Ġunit": 3050,
      "Ġcolors": 3051,
      "Ġvisit": 3052,
      "ociety": 3053,
      "ĠEarth": 3054,
      "ĠTra": 3055,
      "Ġforms": 3056,
      "ĠMy": 3057,
      "Ġroot": 3058,
      "Ġroad": 3059,
      "ĠYes": 3060,
      "Ġprint": 3061,
      "Ġtemperatures": 3062,
      "ĠMany": 3063,
      "ĠNot": 3064,
      "irth": 3065,
      "Ġpatter": 3066,
      "Ġresponse": 3067,
      "Ġrefer": 3068,
      "abetes": 3069,
      "ifornia": 3070,
      "Ph": 3071,
      "Ġge": 3072,
      "ively": 3073,
      "Ġmuscle": 3074,
      "Ġconstant": 3075,
      "Is": 3076,
      "Ġbase": 3077,
      "istics": 3078,
      "ĠPer": 3079,
      "Ġcommunication": 3080,
      "Ġanaly": 3081,
      "Ġbrand": 3082,
      "Ġnegative": 3083,
      "rogen": 3084,
      "ops": 3085,
      "Ġmemory": 3086,
      "Ġfriends": 3087,
      "ana": 3088,
      "ades": 3089,
      "Ġproced": 3090,
      "Ġblue": 3091,
      "Ġcountries": 3092,
      "ĠReg": 3093,
      "Ġsurround": 3094,
      "Ġseries": 3095,
      "Ġutil": 3096,
      "Ġinput": 3097,
      "asks": 3098,
      "Ġattract": 3099,
      "ounter": 3100,
      "Ġteachers": 3101,
      "mber": 3102,
      "urer": 3103,
      "Ġwear": 3104,
      "Ġapplication": 3105,
      "Ġpage": 3106,
      "alu": 3107,
      "Ġhol": 3108,
      "ĠNorth": 3109,
      "Ġjo": 3110,
      "Ġscreen": 3111,
      "Ġelectrical": 3112,
      "Ġver": 3113,
      "itud": 3114,
      "Ġhair": 3115,
      "ushing": 3116,
      "Ġfire": 3117,
      "Ġimplement": 3118,
      "Ġprice": 3119,
      "Be": 3120,
      "Can": 3121,
      "eff": 3122,
      "rol": 3123,
      "ĠMore": 3124,
      "Ġappropriate": 3125,
      "airs": 3126,
      "Ġful": 3127,
      "Ġdisord": 3128,
      "Ġinfection": 3129,
      "Ġlocation": 3130,
      "Ġgreater": 3131,
      "01": 3132,
      "Ġcats": 3133,
      "eces": 3134,
      "Ġdeal": 3135,
      "Ġapply": 3136,
      "Ġpretty": 3137,
      "Ġpatterns": 3138,
      "Ġfine": 3139,
      "Ġfract": 3140,
      "raft": 3141,
      "ĠRec": 3142,
      "Ġtouch": 3143,
      "itute": 3144,
      "Ġexpect": 3145,
      "Ġpiece": 3146,
      "term": 3147,
      "ronic": 3148,
      "uted": 3149,
      "char": 3150,
      "ĠMe": 3151,
      "ĠMan": 3152,
      "Ġgets": 3153,
      "Ġchallenges": 3154,
      "Ġlines": 3155,
      "Ġallowing": 3156,
      "Ġprojects": 3157,
      "Ġcleaning": 3158,
      "Ġcompletely": 3159,
      "mat": 3160,
      "Ġaction": 3161,
      "Ġrecent": 3162,
      "rast": 3163,
      "Ġlives": 3164,
      "ĠFrom": 3165,
      "Ġinsect": 3166,
      "iful": 3167,
      "ĠSchool": 3168,
      "ĠThen": 3169,
      "ĠGo": 3170,
      "ĠCalifornia": 3171,
      "aks": 3172,
      "go": 3173,
      "ror": 3174,
      "Ġindustr": 3175,
      "Ġdidn": 3176,
      "Ġmusic": 3177,
      "tings": 3178,
      "Ġexercise": 3179,
      "wise": 3180,
      "onn": 3181,
      "ĠGen": 3182,
      "Ġdecre": 3183,
      "Ġclaim": 3184,
      "Ġwatch": 3185,
      "iding": 3186,
      "Ġinfections": 3187,
      "ached": 3188,
      "Ġexperiment": 3189,
      "Ġcommonly": 3190,
      "Ġdiseases": 3191,
      "Ġenhance": 3192,
      "Ġtail": 3193,
      "Ġpick": 3194,
      "isions": 3195,
      "Ġbutter": 3196,
      "Ġnumbers": 3197,
      "ucle": 3198,
      "ography": 3199,
      "Ġbalance": 3200,
      "Ġstrength": 3201,
      "nal": 3202,
      "Ġaim": 3203,
      "rew": 3204,
      "Ġsequ": 3205,
      "They": 3206,
      "Ġprograms": 3207,
      "These": 3208,
      "ĠLear": 3209,
      "Ġgoes": 3210,
      "Ġvalu": 3211,
      "more": 3212,
      "ĠMost": 3213,
      "Ġsearch": 3214,
      "Ġowners": 3215,
      "Ġhands": 3216,
      "Ġdiagn": 3217,
      "Ġtransfer": 3218,
      "Ġbed": 3219,
      "Ġmouth": 3220,
      "While": 3221,
      "hood": 3222,
      "ellig": 3223,
      "Ġaccept": 3224,
      "Ġcompanies": 3225,
      "cient": 3226,
      "iet": 3227,
      "ĠRep": 3228,
      "Ġsecurity": 3229,
      "Ġfactor": 3230,
      "Ġorganic": 3231,
      "Ġimportance": 3232,
      "Ġdepending": 3233,
      "rum": 3234,
      "Ġcooking": 3235,
      "Ġliqu": 3236,
      "ĠChe": 3237,
      "Ġdeath": 3238,
      "Ġabsor": 3239,
      "Ġwebsite": 3240,
      "ma": 3241,
      "Ġsources": 3242,
      "Ġgoal": 3243,
      "Ġremember": 3244,
      "><": 3245,
      "uge": 3246,
      "Ġsigns": 3247,
      "Ġfavor": 3248,
      "Ġbaby": 3249,
      "Ġpi": 3250,
      "Ġlate": 3251,
      "Ġoriginal": 3252,
      "my": 3253,
      "Ġlat": 3254,
      "ĠDep": 3255,
      "Ġtissue": 3256,
      "Ġstates": 3257,
      "Ġsetting": 3258,
      "By": 3259,
      "OS": 3260,
      "atives": 3261,
      "Ġjourney": 3262,
      "Ġgar": 3263,
      "ĠDNA": 3264,
      "Ġworth": 3265,
      "Ġefficiency": 3266,
      "06": 3267,
      "IM": 3268,
      "Sh": 3269,
      "set": 3270,
      "ĠAb": 3271,
      "abric": 3272,
      "AN": 3273,
      "Ġult": 3274,
      "ister": 3275,
      "Ġreflect": 3276,
      "Ġ,": 3277,
      "anks": 3278,
      "ster": 3279,
      "cean": 3280,
      "Ġlocated": 3281,
      "Ġdeveloping": 3282,
      "Ġexcept": 3283,
      "Ġcarry": 3284,
      "Ġproperty": 3285,
      "Ġdirection": 3286,
      "life": 3287,
      "ivate": 3288,
      "Ġlands": 3289,
      "ĠSw": 3290,
      "iny": 3291,
      "Ġvit": 3292,
      "Ġprefer": 3293,
      "Ġevolution": 3294,
      "Ġrare": 3295,
      "Ġobjects": 3296,
      "Ġsmooth": 3297,
      "enn": 3298,
      "Ġhope": 3299,
      "empt": 3300,
      "nderstand": 3301,
      "Ġmaintenance": 3302,
      "At": 3303,
      "head": 3304,
      "opy": 3305,
      "Ġrat": 3306,
      "rick": 3307,
      "ologies": 3308,
      "rehens": 3309,
      "rition": 3310,
      "elt": 3311,
      "ĠOur": 3312,
      "Ġevidence": 3313,
      "Ġbuilt": 3314,
      "Ġprocesses": 3315,
      "Ġprogress": 3316,
      "Ġvegetables": 3317,
      "Ġhorse": 3318,
      "back": 3319,
      "iable": 3320,
      "omet": 3321,
      "Ġalg": 3322,
      "issions": 3323,
      "Ġcritical": 3324,
      "Ġtalk": 3325,
      "inting": 3326,
      "Ġcode": 3327,
      "Ġbreat": 3328,
      "erson": 3329,
      "26": 3330,
      "Ġusers": 3331,
      "Ġincluded": 3332,
      "Ġearth": 3333,
      "Ġlimited": 3334,
      "cre": 3335,
      "irt": 3336,
      "ried": 3337,
      "rec": 3338,
      "Ġdrop": 3339,
      "Ġnative": 3340,
      "ĠPe": 3341,
      "Ġinvolves": 3342,
      "Ġreturn": 3343,
      "Ġmoving": 3344,
      "Ġthinking": 3345,
      "29": 3346,
      "yond": 3347,
      "Ġaren": 3348,
      "Ġsevere": 3349,
      "aker": 3350,
      "ĠState": 3351,
      "Ġsituation": 3352,
      "With": 3353,
      "Ġ#": 3354,
      "Ġx": 3355,
      "Ġcity": 3356,
      "ros": 3357,
      "ocks": 3358,
      "Ġheavy": 3359,
      "cles": 3360,
      "istant": 3361,
      "Ġteaching": 3362,
      "hips": 3363,
      "ipp": 3364,
      "Ġgives": 3365,
      "Ġexcess": 3366,
      "Ġevalu": 3367,
      "Ġsave": 3368,
      "Ġsolutions": 3369,
      "Ġideal": 3370,
      "Ġmotor": 3371,
      "OR": 3372,
      "Ġdecision": 3373,
      "tes": 3374,
      "rought": 3375,
      "Ġensuring": 3376,
      "Ġcenter": 3377,
      "Ġdegrees": 3378,
      "ĠPr": 3379,
      "ĠLet": 3380,
      "Ġcolle": 3381,
      "Ġinstruct": 3382,
      "Ġvision": 3383,
      "ygen": 3384,
      "Ġthick": 3385,
      "idge": 3386,
      "Ġstorage": 3387,
      "Ġresistance": 3388,
      "Ġmovement": 3389,
      "Ġvolt": 3390,
      "Ġfruit": 3391,
      "Ġstyle": 3392,
      "epend": 3393,
      "Ġvisual": 3394,
      "ĠResearch": 3395,
      "AC": 3396,
      "And": 3397,
      "Cl": 3398,
      "Ġtaste": 3399,
      "ĠWest": 3400,
      "Ġcommit": 3401,
      "Ġfloor": 3402,
      "ĠWhy": 3403,
      "Ġcurrently": 3404,
      "Ġresponsible": 3405,
      "Ġideas": 3406,
      "He": 3407,
      "water": 3408,
      "Ġbone": 3409,
      "Ġvary": 3410,
      "ĠRem": 3411,
      "Ġimages": 3412,
      "Ġaccur": 3413,
      "Ġpattern": 3414,
      "Ġcamera": 3415,
      "ĠWorld": 3416,
      "Ġgovernment": 3417,
      "ET": 3418,
      "ĠAct": 3419,
      "Ġexec": 3420,
      "Ġinches": 3421,
      "aur": 3422,
      "arian": 3423,
      "Ġobtain": 3424,
      "ightly": 3425,
      "Ġnothing": 3426,
      "Ġconcern": 3427,
      "Ġphotos": 3428,
      "Ġdemonst": 3429,
      "Ġteacher": 3430,
      "inks": 3431,
      "overy": 3432,
      "Ġdrive": 3433,
      "Ġcontains": 3434,
      "Ġfinan": 3435,
      "Ġbeautiful": 3436,
      "ux": 3437,
      "Ġsent": 3438,
      "odes": 3439,
      "duc": 3440,
      "Ġhealthcare": 3441,
      "âĢĻt": 3442,
      "Ġdriving": 3443,
      "Ġwriting": 3444,
      "Ġvehicle": 3445,
      "Ġ|": 3446,
      "Ġpsych": 3447,
      "Ġfro": 3448,
      "Ġexcell": 3449,
      "Ġsoon": 3450,
      "Ġprinc": 3451,
      "-term": 3452,
      "28": 3453,
      "vey": 3454,
      "ulated": 3455,
      "Ġspot": 3456,
      "ĠAmerica": 3457,
      "Ġdrain": 3458,
      "Ġstage": 3459,
      "Ġgradu": 3460,
      "Ġhappens": 3461,
      "Ġsuccessful": 3462,
      "IS": 3463,
      "bol": 3464,
      "off": 3465,
      "omb": 3466,
      "ails": 3467,
      "Ġflight": 3468,
      "****": 3469,
      "09": 3470,
      "ken": 3471,
      "ided": 3472,
      "ault": 3473,
      "bb": 3474,
      "Ġfabric": 3475,
      "ores": 3476,
      "Ġshap": 3477,
      "Ġadvanced": 3478,
      "Ġpublished": 3479,
      "On": 3480,
      "oe": 3481,
      "pe": 3482,
      "inally": 3483,
      "Ġbud": 3484,
      "ifically": 3485,
      "Ġanyone": 3486,
      "Ġgraph": 3487,
      "Ġstarting": 3488,
      "Ġexactly": 3489,
      "Ġrespond": 3490,
      "Ġpractices": 3491,
      "Ġcycle": 3492,
      "hetic": 3493,
      "zz": 3494,
      "Ġpull": 3495,
      "Ġdim": 3496,
      "gery": 3497,
      "Ġthird": 3498,
      "Ġplat": 3499,
      "vention": 3500,
      "Ġantib": 3501,
      "Ġapplied": 3502,
      "Ġfemale": 3503,
      "umin": 3504,
      "Ġupon": 3505,
      "Ġtook": 3506,
      "Ġreducing": 3507,
      "Ġbirth": 3508,
      "odies": 3509,
      "Ġrapid": 3510,
      "Ġinterf": 3511,
      "Ġeffectively": 3512,
      "02": 3513,
      "Ġmount": 3514,
      "Ġnucle": 3515,
      "Ġincorpor": 3516,
      "Ġoutput": 3517,
      "Step": 3518,
      "bird": 3519,
      "oration": 3520,
      "Ġthr": 3521,
      "Ġchance": 3522,
      "Ġunc": 3523,
      "equ": 3524,
      "hel": 3525,
      "ĠBrit": 3526,
      "ĠRead": 3527,
      "nown": 3528,
      "Ġarch": 3529,
      "den": 3530,
      "eration": 3531,
      "Ġcircuit": 3532,
      "Ġsustainable": 3533,
      "Ġnutrients": 3534,
      "45": 3535,
      "Ġhosp": 3536,
      "istry": 3537,
      "osition": 3538,
      "inding": 3539,
      "Ġadding": 3540,
      "Ġgene": 3541,
      "Ġschools": 3542,
      "Ġexperiences": 3543,
      "Ġmoisture": 3544,
      "AL": 3545,
      "ixt": 3546,
      "lier": 3547,
      "mp": 3548,
      "arr": 3549,
      "Ġexpress": 3550,
      "Ġdisplay": 3551,
      "rage": 3552,
      "ĠModel": 3553,
      "Ġtrack": 3554,
      "Ġdiabetes": 3555,
      "Ġconcer": 3556,
      "Ġrequirements": 3557,
      "Ġcausing": 3558,
      "hol": 3559,
      "Ġmother": 3560,
      "Ġkn": 3561,
      "Ġtherefore": 3562,
      "Ġpowerful": 3563,
      "oice": 3564,
      "ĠIntern": 3565,
      "Ġrock": 3566,
      "Ġbecomes": 3567,
      "Ġscientific": 3568,
      "Ġbrown": 3569,
      "ĠSm": 3570,
      "acing": 3571,
      "ffee": 3572,
      "ĠChrist": 3573,
      "Ġcharge": 3574,
      "Ġimmune": 3575,
      "Ġpredict": 3576,
      "Ġingredients": 3577,
      "ai": 3578,
      "Ġ+": 3579,
      "Ġhost": 3580,
      "oman": 3581,
      "ĠWho": 3582,
      "Ġce": 3583,
      "ype": 3584,
      "Ġoccurs": 3585,
      "Ġalternative": 3586,
      "Ġbottom": 3587,
      "Ġpieces": 3588,
      "Con": 3589,
      "inking": 3590,
      "Ġplaces": 3591,
      "Ġsex": 3592,
      "Ġtechnique": 3593,
      "ĠAdditionally": 3594,
      "Ġinteresting": 3595,
      "Ġcapacity": 3596,
      "load": 3597,
      "oves": 3598,
      "27": 3599,
      "aly": 3600,
      "Ġconvers": 3601,
      "Ġgenetic": 3602,
      "Ġtests": 3603,
      "Ġvirus": 3604,
      "hether": 3605,
      "Ġcame": 3606,
      "Ġwalk": 3607,
      "Ġmiss": 3608,
      "ĠGl": 3609,
      "Ġdistance": 3610,
      "Ġvaluable": 3611,
      "36": 3612,
      "Ġfair": 3613,
      "Ġdetect": 3614,
      "Ġframe": 3615,
      "Ġstraight": 3616,
      "ino": 3617,
      "Ġlens": 3618,
      "erences": 3619,
      "Ġpoly": 3620,
      "Ġplanning": 3621,
      "Do": 3622,
      "fish": 3623,
      "ĠTheir": 3624,
      "Ġrich": 3625,
      "ocol": 3626,
      "ĠFirst": 3627,
      "ĠAir": 3628,
      "rows": 3629,
      "Ġexposure": 3630,
      "Ġpollution": 3631,
      "mosp": 3632,
      "Ġyellow": 3633,
      "ĠAut": 3634,
      "ĠRed": 3635,
      "Ġcoast": 3636,
      "35": 3637,
      "Ġled": 3638,
      "Ġestim": 3639,
      "wor": 3640,
      "ony": 3641,
      "Ġcateg": 3642,
      "Ġfinal": 3643,
      "Ġthous": 3644,
      "Ġrev": 3645,
      "uration": 3646,
      "Ġphone": 3647,
      "Ġdepth": 3648,
      "Ġproteins": 3649,
      "ĠAfrica": 3650,
      "Ġtox": 3651,
      "Ġexpensive": 3652,
      "Ġsecure": 3653,
      "Ġmilk": 3654,
      "Ġoxygen": 3655,
      "Ġplatform": 3656,
      "urt": 3657,
      "Ġkill": 3658,
      "Ġpref": 3659,
      "Ġagg": 3660,
      "Ġpromot": 3661,
      "Ġwrong": 3662,
      "Pl": 3663,
      "ĠAg": 3664,
      "Ġdetails": 3665,
      "Ġmanufacturer": 3666,
      "Ġfaster": 3667,
      "ĠJust": 3668,
      "rench": 3669,
      "Ġboard": 3670,
      "Ġlimit": 3671,
      "Ġrelationship": 3672,
      "Ġexcellent": 3673,
      "Ġvent": 3674,
      "ensity": 3675,
      "Ġelim": 3676,
      "Ġcombination": 3677,
      "Ġcomfortable": 3678,
      ".com": 3679,
      "Ġdoor": 3680,
      "Ġdoctor": 3681,
      "ĠUK": 3682,
      "ificial": 3683,
      "Ġmonit": 3684,
      "Ġmeasures": 3685,
      "hyd": 3686,
      "ĠEnglish": 3687,
      "Ġdescribed": 3688,
      "oors": 3689,
      "ero": 3690,
      "ula": 3691,
      "Ġattempt": 3692,
      "ĠAlso": 3693,
      "esign": 3694,
      "Ġwet": 3695,
      "Ġlost": 3696,
      "Ġdead": 3697,
      "Ġimag": 3698,
      "ibly": 3699,
      "Ġpregn": 3700,
      "Ġbehavi": 3701,
      "Ġopportunities": 3702,
      "osystem": 3703,
      "ĠMake": 3704,
      "Ġresid": 3705,
      "Ġbelie": 3706,
      "Ġinvestig": 3707,
      "AM": 3708,
      "ened": 3709,
      "Ġpow": 3710,
      "ĠGe": 3711,
      "Ġsaw": 3712,
      "Ġbright": 3713,
      "Ġstructures": 3714,
      "Ġmoment": 3715,
      ".g": 3716,
      "Now": 3717,
      "Ġdate": 3718,
      "Ġgiving": 3719,
      "Ġflavor": 3720,
      "Ġliter": 3721,
      "Ġopportunity": 3722,
      "Ġlack": 3723,
      "ada": 3724,
      "....": 3725,
      "Ġagricult": 3726,
      "roduction": 3727,
      "Ġbroad": 3728,
      "-y": 3729,
      "Some": 3730,
      "anc": 3731,
      "Ġroll": 3732,
      "Ġrelease": 3733,
      "Ġreceive": 3734,
      "Ġcontribute": 3735,
      "house": 3736,
      "Ġiron": 3737,
      "uce": 3738,
      "Ġbow": 3739,
      "asc": 3740,
      "izations": 3741,
      "Ġfunctions": 3742,
      "Ġcomponent": 3743,
      "Ġtherapy": 3744,
      "Ġfurn": 3745,
      "alt": 3746,
      "ĠFl": 3747,
      "Ġexpert": 3748,
      "iate": 3749,
      "ĠBecause": 3750,
      "Ġspir": 3751,
      "Ġplaced": 3752,
      "ĠArt": 3753,
      "roph": 3754,
      "Ġnotice": 3755,
      "Ġcomprehens": 3756,
      "Ġscale": 3757,
      "Ġexpand": 3758,
      "Ġdepends": 3759,
      "Ġadvantage": 3760,
      "\".": 3761,
      "07": 3762,
      "cking": 3763,
      "âĢ¢": 3764,
      "Ġolder": 3765,
      "Ġdangerous": 3766,
      "Ġliquid": 3767,
      "IG": 3768,
      "ees": 3769,
      "Ġtasks": 3770,
      "Ġsess": 3771,
      "itis": 3772,
      "ĠAc": 3773,
      "ĠMar": 3774,
      "ĠOnce": 3775,
      "Ġdepend": 3776,
      "Ġsounds": 3777,
      "Ġremoved": 3778,
      "Ġlandsc": 3779,
      "acking": 3780,
      "ript": 3781,
      "Ġdisp": 3782,
      "Ġconsult": 3783,
      "Ġwrite": 3784,
      "iat": 3785,
      "ogen": 3786,
      "Ġeffort": 3787,
      "Ġinstance": 3788,
      "Ġcommunities": 3789,
      "Ġcollabor": 3790,
      "Ġfully": 3791,
      "lands": 3792,
      "ĠMin": 3793,
      "ĠEach": 3794,
      "Ġtechnologies": 3795,
      "ĠTechn": 3796,
      "orith": 3797,
      "ipes": 3798,
      "Ġpoor": 3799,
      "/or": 3800,
      "isp": 3801,
      "Ġvia": 3802,
      "Ġcomplic": 3803,
      "ously": 3804,
      "Ġqual": 3805,
      "Ġcars": 3806,
      "Ġvirt": 3807,
      "Un": 3808,
      "Ġaqu": 3809,
      "Ġwat": 3810,
      "Ġlooks": 3811,
      "Ġcalc": 3812,
      "ha": 3813,
      "hold": 3814,
      "Ġburn": 3815,
      "Ġmiddle": 3816,
      "Ġgold": 3817,
      "Ġcoming": 3818,
      "ĠNow": 3819,
      "Ġmedia": 3820,
      "cast": 3821,
      "Ġ*": 3822,
      "enge": 3823,
      "Ġhuge": 3824,
      "uries": 3825,
      "amb": 3826,
      "Ġsignificantly": 3827,
      "Ġ-->": 3828,
      "08": 3829,
      "31": 3830,
      "IT": 3831,
      "Ġâ": 3832,
      "Ġhorm": 3833,
      "Ġsurpr": 3834,
      "Ġpresence": 3835,
      "Ġelectricity": 3836,
      "32": 3837,
      "ober": 3838,
      "roll": 3839,
      "Ġforward": 3840,
      "Ġimpl": 3841,
      "Ġclin": 3842,
      "Ġrecently": 3843,
      "Ġresulting": 3844,
      "04": 3845,
      "fess": 3846,
      "ĠSystem": 3847,
      "Ġcontext": 3848,
      "Ġwonder": 3849,
      "zy": 3850,
      "ceed": 3851,
      "Ġchick": 3852,
      "Ġju": 3853,
      "Ġroots": 3854,
      "Ġbecame": 3855,
      "Ġbackground": 3856,
      "Ġconnected": 3857,
      "IC": 3858,
      "uild": 3859,
      "Ġapart": 3860,
      "Ġmid": 3861,
      "Ġstim": 3862,
      "Ġstaff": 3863,
      "Ġexpected": 3864,
      "Ġhandle": 3865,
      "Ġnutrition": 3866,
      "--------": 3867,
      "Ġreaction": 3868,
      "99": 3869,
      "Ġcloth": 3870,
      "Ġswim": 3871,
      "Ġelement": 3872,
      "Ġmaximum": 3873,
      "elligence": 3874,
      "Im": 3875,
      "inated": 3876,
      "Ġbill": 3877,
      "Ġdeb": 3878,
      "ĠEven": 3879,
      "Ġaffected": 3880,
      "ban": 3881,
      "Ġhit": 3882,
      "Ġbusinesses": 3883,
      "Ġfertil": 3884,
      "55": 3885,
      "ĠWater": 3886,
      "Ġrepair": 3887,
      "Ġconnection": 3888,
      "Ġvoltage": 3889,
      "ying": 3890,
      "Ġast": 3891,
      "Ġfile": 3892,
      "ĠNe": 3893,
      "Ġcentury": 3894,
      "Ġfeeling": 3895,
      "Ġextremely": 3896,
      "icious": 3897,
      "riend": 3898,
      "Ġund": 3899,
      "Ġhappy": 3900,
      "Ġfluid": 3901,
      "board": 3902,
      "Ġinitial": 3903,
      "Ġpicture": 3904,
      "Ġfinancial": 3905,
      "Ġdin": 3906,
      "ads": 3907,
      "ĠMon": 3908,
      "ĠOver": 3909,
      "Ġwritten": 3910,
      "Ġstrategies": 3911,
      "Ġdocument": 3912,
      "Ġmatch": 3913,
      "Ġweb": 3914,
      "Ġspect": 3915,
      "ĠNOT": 3916,
      "Ġprofession": 3917,
      "aught": 3918,
      "03": 3919,
      "Ġhyp": 3920,
      "orthern": 3921,
      "Ġnote": 3922,
      "ĠEduc": 3923,
      "Ġtrust": 3924,
      "Ġpool": 3925,
      "Ġrisks": 3926,
      "Ġchanging": 3927,
      "Ġrobot": 3928,
      "Ġsweet": 3929,
      "EM": 3930,
      "iar": 3931,
      "Ġwin": 3932,
      "Ġfight": 3933,
      "Ġformed": 3934,
      "lusion": 3935,
      "ĠTw": 3936,
      "Ġrules": 3937,
      "Ġdish": 3938,
      "Ġrelatively": 3939,
      "inating": 3940,
      "Ġdental": 3941,
      "formation": 3942,
      "ashion": 3943,
      "Ġecosystem": 3944,
      "itude": 3945,
      "Ġalgorith": 3946,
      "ups": 3947,
      "xi": 3948,
      "hest": 3949,
      "Ġdiv": 3950,
      "Ġthus": 3951,
      "ida": 3952,
      "elines": 3953,
      "Ġkeeping": 3954,
      "Ġdistinct": 3955,
      "Ġtopic": 3956,
      "haps": 3957,
      "Ġpen": 3958,
      "Ġmale": 3959,
      "Ġnational": 3960,
      "Ġplans": 3961,
      "Ġefforts": 3962,
      "Ġnews": 3963,
      "Ġdemand": 3964,
      "nderstanding": 3965,
      "ball": 3966,
      "Ġwent": 3967,
      "Ġdura": 3968,
      "Ġbeyond": 3969,
      "Ġonto": 3970,
      "ĠSim": 3971,
      "Ġactual": 3972,
      "Ġexamples": 3973,
      "Ġcentral": 3974,
      "oxide": 3975,
      "Ġconsumption": 3976,
      "Ġexisting": 3977,
      "Ġimmediately": 3978,
      "apan": 3979,
      "ĠJoh": 3980,
      "Ġcouple": 3981,
      "ky": 3982,
      "zing": 3983,
      "erate": 3984,
      "Ġcry": 3985,
      "roc": 3986,
      "Ġbegan": 3987,
      "Ġalthough": 3988,
      "Ġupd": 3989,
      "Ġenter": 3990,
      "ternal": 3991,
      "ned": 3992,
      "pen": 3993,
      "ancing": 3994,
      "enty": 3995,
      "urally": 3996,
      "Ġcoffee": 3997,
      "Ġtrend": 3998,
      "Ġfilm": 3999,
      "Ġhour": 4000,
      "raction": 4001,
      "ĠSu": 4002,
      "ender": 4003,
      "ĠOther": 4004,
      "Ġregions": 4005,
      "ĠÂ": 4006,
      "Ġrise": 4007,
      "ials": 4008,
      "agement": 4009,
      "Ġgoals": 4010,
      "Ġgenes": 4011,
      "Ġacqu": 4012,
      "Ġdiscovered": 4013,
      "Ġplayers": 4014,
      "Ġequal": 4015,
      "Ġbeginning": 4016,
      "Ġhabitat": 4017,
      "ipped": 4018,
      "Ġwid": 4019,
      "Ġflex": 4020,
      "Ġstream": 4021,
      "ĠServ": 4022,
      "ĠPC": 4023,
      "Ġshar": 4024,
      "Ġkid": 4025,
      "Ġbran": 4026,
      "ĠAlthough": 4027,
      "encies": 4028,
      "Ġded": 4029,
      "abol": 4030,
      "abilities": 4031,
      "Ġshel": 4032,
      "Ġserve": 4033,
      "uary": 4034,
      "Ġtheory": 4035,
      "Ġreve": 4036,
      "Ġatmosp": 4037,
      "ears": 4038,
      "onds": 4039,
      "Ġmedium": 4040,
      "Ġoperation": 4041,
      "Ġmaintaining": 4042,
      "Ġrecept": 4043,
      "outhern": 4044,
      "Ġallowed": 4045,
      "Ġillustr": 4046,
      "Ġharvest": 4047,
      "RE": 4048,
      "Ġmob": 4049,
      "rupt": 4050,
      "Ġappe": 4051,
      "Ġattack": 4052,
      "iant": 4053,
      "Ġesc": 4054,
      "ĠPart": 4055,
      "iction": 4056,
      "Here": 4057,
      "Us": 4058,
      "eing": 4059,
      "Ġwire": 4060,
      "semb": 4061,
      "ĠFeb": 4062,
      "Ġsmart": 4063,
      "Ġlargest": 4064,
      "Ġincreases": 4065,
      "Ġswitch": 4066,
      "Ġsymbol": 4067,
      "pril": 4068,
      "Ġinternational": 4069,
      "Ġregularly": 4070,
      "AD": 4071,
      "ximately": 4072,
      "Ġtit": 4073,
      "Ġversion": 4074,
      "ĠInstitute": 4075,
      "bor": 4076,
      "Ġnav": 4077,
      "ressive": 4078,
      "Ġprocessing": 4079,
      "ĠCenter": 4080,
      "Ġoutdoor": 4081,
      "za": 4082,
      "Ġsold": 4083,
      "Ġstuff": 4084,
      "Ġspend": 4085,
      "Ġindepend": 4086,
      "Ġsettings": 4087,
      "Ġmember": 4088,
      "ĠTherefore": 4089,
      "Ġsites": 4090,
      "Ġpromote": 4091,
      "No": 4092,
      "hab": 4093,
      "omach": 4094,
      "Ġbecoming": 4095,
      "anging": 4096,
      "Ġhighlight": 4097,
      "Ġfrequently": 4098,
      "gra": 4099,
      "la": 4100,
      "Ġtrou": 4101,
      "ought": 4102,
      "Ġspecifically": 4103,
      "ishing": 4104,
      "Ġsurgery": 4105,
      "icated": 4106,
      "lean": 4107,
      "Ġreality": 4108,
      "used": 4109,
      "Ġrub": 4110,
      "Ġdifferences": 4111,
      "ĠStep": 4112,
      "Ġnoise": 4113,
      "Ġslightly": 4114,
      "Ġreported": 4115,
      "Ġeth": 4116,
      "Ġgate": 4117,
      "ogle": 4118,
      "Ġreduced": 4119,
      "Ġimproved": 4120,
      "Ġchemicals": 4121,
      "ĠAccording": 4122,
      "Ġcontract": 4123,
      "undred": 4124,
      "Ġneck": 4125,
      "Ġmotion": 4126,
      "Ġcutting": 4127,
      "Ġexperienced": 4128,
      "oma": 4129,
      "Ġillness": 4130,
      "ĠUsing": 4131,
      "med": 4132,
      "Ġdie": 4133,
      "ica": 4134,
      "Ġupper": 4135,
      "Ġflower": 4136,
      "ĠAustralia": 4137,
      "ira": 4138,
      "lines": 4139,
      "met": 4140,
      "Ġlose": 4141,
      "ester": 4142,
      "ĠGerm": 4143,
      "Ġmaybe": 4144,
      "ords": 4145,
      "Ġplaying": 4146,
      "Ġplanet": 4147,
      "Ġinterested": 4148,
      "Ġcustomer": 4149,
      "-qu": 4150,
      "book": 4151,
      "gram": 4152,
      "itect": 4153,
      "Ġbodies": 4154,
      "Ġmixt": 4155,
      "Ġhoney": 4156,
      "iments": 4157,
      "olar": 4158,
      "Ġbatteries": 4159,
      "Ġcustomers": 4160,
      "Ġpets": 4161,
      "Ġdat": 4162,
      "lebr": 4163,
      "ĠAug": 4164,
      "Ġconsequ": 4165,
      "Ġalone": 4166,
      "Ġparticles": 4167,
      "Ġvolume": 4168,
      "ĠIndia": 4169,
      "cules": 4170,
      "Ġder": 4171,
      "Ġstored": 4172,
      "ests": 4173,
      "Ġrates": 4174,
      "Ġsuggests": 4175,
      "Another": 4176,
      "minist": 4177,
      "Ġconcerns": 4178,
      "ok": 4179,
      "pre": 4180,
      "Ġten": 4181,
      "eties": 4182,
      "ĠRiver": 4183,
      "Ġboost": 4184,
      "Ġpaint": 4185,
      "Ġmachines": 4186,
      "ĠDepartment": 4187,
      "ST": 4188,
      "oom": 4189,
      "Ġtour": 4190,
      "Ġcovered": 4191,
      "Ġbooks": 4192,
      "ĠSec": 4193,
      "unk": 4194,
      "ĠDon": 4195,
      "Ġtreatments": 4196,
      "Ġsatis": 4197,
      "05": 4198,
      "CT": 4199,
      "Ġsort": 4200,
      "iter": 4201,
      "que": 4202,
      "Ġphase": 4203,
      "oved": 4204,
      "Ġsolid": 4205,
      "Ġadults": 4206,
      "33": 4207,
      "All": 4208,
      "vity": 4209,
      "Ã©": 4210,
      "Ġdra": 4211,
      "key": 4212,
      "ĠHum": 4213,
      "redit": 4214,
      "Ġclasses": 4215,
      "Ġinjury": 4216,
      "Sp": 4217,
      "gl": 4218,
      "iol": 4219,
      "ĠQ": 4220,
      "iling": 4221,
      "Ġremains": 4222,
      "-like": 4223,
      "Ġharmful": 4224,
      "Ġencourag": 4225,
      "Ġsociety": 4226,
      "icking": 4227,
      "ĠEl": 4228,
      "Ġgrown": 4229,
      "Ġperformed": 4230,
      "Ġchallenge": 4231,
      "Ġculture": 4232,
      "Ġfamilies": 4233,
      "En": 4234,
      "Ġvoice": 4235,
      "ĠPar": 4236,
      "ĠIts": 4237,
      "Ġindustrial": 4238,
      "eters": 4239,
      "Ġstar": 4240,
      "Ġstru": 4241,
      "estone": 4242,
      "Ġround": 4243,
      "resp": 4244,
      "ĠDoes": 4245,
      "ĠJapan": 4246,
      "Ġveter": 4247,
      "Ġdynam": 4248,
      "Ġfavorite": 4249,
      "xiety": 4250,
      "75": 4251,
      "yc": 4252,
      "Ġplease": 4253,
      "rot": 4254,
      "ĠAv": 4255,
      "Ġsty": 4256,
      "Ġcommer": 4257,
      "Ġdecisions": 4258,
      "Ġlatest": 4259,
      "Ġband": 4260,
      "ĠWell": 4261,
      "Ġmag": 4262,
      "Ġclim": 4263,
      "irect": 4264,
      "Ġtrig": 4265,
      "ĠJan": 4266,
      "Ġdiscover": 4267,
      "Ġfung": 4268,
      "Ġasked": 4269,
      "Ġregarding": 4270,
      "oly": 4271,
      "ĠHigh": 4272,
      "Ġscen": 4273,
      "ĠJu": 4274,
      "Ġfinding": 4275,
      "Ġlayers": 4276,
      "cohol": 4277,
      "Ġinstructions": 4278,
      "Ġ:": 4279,
      "iture": 4280,
      "ĠSince": 4281,
      "Ġmeal": 4282,
      "Ġcollection": 4283,
      "Ġearlier": 4284,
      "However": 4285,
      "Ġappearance": 4286,
      "After": 4287,
      "Re": 4288,
      "aled": 4289,
      "Ġtooth": 4290,
      "Ġtomat": 4291,
      "asp": 4292,
      "Ġstomach": 4293,
      "Ġfindings": 4294,
      "vironments": 4295,
      "ashing": 4296,
      "iveness": 4297,
      "Ġnearly": 4298,
      "Res": 4299,
      "rete": 4300,
      "Ġdivid": 4301,
      "Ġep": 4302,
      "Ġhear": 4303,
      "Ġheld": 4304,
      "rief": 4305,
      "ruary": 4306,
      "Ġteach": 4307,
      "Ġhelping": 4308,
      "...Ċ": 4309,
      "Ġdiam": 4310,
      "Ġrelevant": 4311,
      "Ġlabor": 4312,
      "Ġcharacteristics": 4313,
      "Ġsusp": 4314,
      "CE": 4315,
      "Ġtalking": 4316,
      "atural": 4317,
      "Ġhundred": 4318,
      "ilit": 4319,
      "Ġnamed": 4320,
      "oday": 4321,
      "Ġvital": 4322,
      "ĠOff": 4323,
      "Ġresource": 4324,
      "Ġflat": 4325,
      "Ġworked": 4326,
      "Ġrelax": 4327,
      "-free": 4328,
      "Ġstatement": 4329,
      "Ġfilter": 4330,
      "Ġantibiot": 4331,
      "Ġcatch": 4332,
      "Ġocean": 4333,
      "Ġfing": 4334,
      "uth": 4335,
      "celer": 4336,
      "Ġrepe": 4337,
      "Ġpopulations": 4338,
      "Ġdrawing": 4339,
      "Ġsituations": 4340,
      "That": 4341,
      "atically": 4342,
      "Ġtold": 4343,
      "Ġstem": 4344,
      "Ġord": 4345,
      "unction": 4346,
      "Ġsports": 4347,
      "ĠGra": 4348,
      "lectric": 4349,
      "Ġmostly": 4350,
      "Ġplane": 4351,
      "Ġlearned": 4352,
      "pective": 4353,
      "Ġinternal": 4354,
      "ĠTrans": 4355,
      "Ġobserved": 4356,
      "Ġaccurate": 4357,
      "-up": 4358,
      "Ġign": 4359,
      "Ġpric": 4360,
      "atever": 4361,
      "ager": 4362,
      "Ġparam": 4363,
      "Ġassessment": 4364,
      "Ġdouble": 4365,
      "Ġstick": 4366,
      "Ġcompost": 4367,
      "Ġoffice": 4368,
      "Ġinfluence": 4369,
      "flow": 4370,
      "wers": 4371,
      "lets": 4372,
      "Ġgun": 4373,
      "othes": 4374,
      "weight": 4375,
      "Ġadvice": 4376,
      "Ġpractical": 4377,
      "Ġbasis": 4378,
      "Ġstandards": 4379,
      "clusion": 4380,
      "related": 4381,
      "dom": 4382,
      "Ġmut": 4383,
      "olved": 4384,
      "Ġheight": 4385,
      "nthes": 4386,
      "Ġdefined": 4387,
      "Ġorganization": 4388,
      "Ġopin": 4389,
      "Ġphoto": 4390,
      "Ġwindow": 4391,
      "Ġsalt": 4392,
      "Ġfrequency": 4393,
      "Ġachie": 4394,
      "Ġseparate": 4395,
      "Ġcrops": 4396,
      "Ġabsorb": 4397,
      "Ġfill": 4398,
      "icon": 4399,
      "Ġthor": 4400,
      "umn": 4401,
      "Ġhelpful": 4402,
      "Ġplanting": 4403,
      "Ġreleased": 4404,
      "Ġwaiting": 4405,
      "BC": 4406,
      "ny": 4407,
      "Ġmold": 4408,
      "ĠAnt": 4409,
      "Ġheating": 4410,
      "Ġleaf": 4411,
      "Ġjoint": 4412,
      "apter": 4413,
      "Ġfiber": 4414,
      "Ġinsects": 4415,
      "Ġcomprehensive": 4416,
      "Ġcert": 4417,
      "Ġtrain": 4418,
      "Ġprivate": 4419,
      "Ġcheese": 4420,
      "Ġgeneration": 4421,
      "Ġmiles": 4422,
      "ĠEducation": 4423,
      "Ġbound": 4424,
      "Ġancient": 4425,
      "Ġhaz": 4426,
      "ĠFood": 4427,
      "Ġadop": 4428,
      "Ġemissions": 4429,
      "Ġstarts": 4430,
      "Ġtreated": 4431,
      "Ġaspects": 4432,
      "Ġprincip": 4433,
      "Ġfly": 4434,
      "Ġspin": 4435,
      "Ġclos": 4436,
      "Ġoccas": 4437,
      "Ġwildlife": 4438,
      "ris": 4439,
      "right": 4440,
      "oto": 4441,
      "imal": 4442,
      "ĠAM": 4443,
      "Ġenvironments": 4444,
      "Ġchain": 4445,
      "Ġspl": 4446,
      "rier": 4447,
      "Ġcloud": 4448,
      "Ġprepared": 4449,
      "Ġemergency": 4450,
      "Ġcommercial": 4451,
      "rant": 4452,
      "Ġsizes": 4453,
      "iced": 4454,
      "umber": 4455,
      "asses": 4456,
      "Ġexperts": 4457,
      "Ġfoundation": 4458,
      "Ġsquare": 4459,
      "AP": 4460,
      "ded": 4461,
      "Ġhomes": 4462,
      "omy": 4463,
      "ĠBi": 4464,
      "Ġmap": 4465,
      "ogs": 4466,
      "Ġcoord": 4467,
      "Ġprinting": 4468,
      "Ġpotentially": 4469,
      "Ġidentified": 4470,
      "Ġamounts": 4471,
      "Ġconsistent": 4472,
      ";ĊĊ": 4473,
      "Ġtank": 4474,
      "Ġbrought": 4475,
      "Ġrule": 4476,
      "Ġchann": 4477,
      "Ġselection": 4478,
      "ĠDuring": 4479,
      "Ġconservation": 4480,
      "Ġlights": 4481,
      "Ġdrink": 4482,
      "Ġhospital": 4483,
      "43": 4484,
      "Our": 4485,
      "Ġcore": 4486,
      "Ġbat": 4487,
      "alm": 4488,
      "urance": 4489,
      "ĠLab": 4490,
      "ĠGod": 4491,
      "Ġoperations": 4492,
      "Ġestablished": 4493,
      "craft": 4494,
      "Ġsnow": 4495,
      "Ġnice": 4496,
      "ocal": 4497,
      "Ġflav": 4498,
      "Ġassist": 4499,
      "Ġleaders": 4500,
      "Ġfishing": 4501,
      "Ġprimarily": 4502,
      "Ġfruits": 4503,
      "Ġmolecules": 4504,
      "Ġsem": 4505,
      "Ġbread": 4506,
      "Ġstre": 4507,
      "eck": 4508,
      "osite": 4509,
      "ĠBo": 4510,
      "Ġdiverse": 4511,
      "Ġeventually": 4512,
      "riendly": 4513,
      "Ġpil": 4514,
      "Ġphen": 4515,
      "isher": 4516,
      "ĠApril": 4517,
      "ulum": 4518,
      "agram": 4519,
      "ĠChild": 4520,
      "Ġbeneficial": 4521,
      "Ġfunctional": 4522,
      "Ġengineering": 4523,
      "Ġprofessionals": 4524,
      "known": 4525,
      "||": 4526,
      "Ġ<": 4527,
      "Ġmit": 4528,
      "iday": 4529,
      "eli": 4530,
      "ologist": 4531,
      "Ġtransmission": 4532,
      "Ġnumerous": 4533,
      "Ġsignals": 4534,
      "Ġhardware": 4535,
      "mitted": 4536,
      "Ġsav": 4537,
      "ĠWhether": 4538,
      "ĠDay": 4539,
      "Ġuns": 4540,
      "Ġcolour": 4541,
      "Ġconstruct": 4542,
      "ĠKeep": 4543,
      "gs": 4544,
      "Ġca": 4545,
      "Ġfrag": 4546,
      "Ġmic": 4547,
      "arn": 4548,
      "Ġconven": 4549,
      "estyle": 4550,
      "Ġwanted": 4551,
      "Ġartificial": 4552,
      "exp": 4553,
      "Ġoperating": 4554,
      "Ġstatus": 4555,
      "ĠPeople": 4556,
      "Ġmixture": 4557,
      "ipping": 4558,
      "Ġsou": 4559,
      "Ġfashion": 4560,
      "Ġmis": 4561,
      "ille": 4562,
      "Ġforces": 4563,
      "Ġalign": 4564,
      "ĠEd": 4565,
      "Ġpolicy": 4566,
      "Ġdigest": 4567,
      "Ġthousands": 4568,
      "Ġmonitoring": 4569,
      "chen": 4570,
      "Ġcounter": 4571,
      "Ġnan": 4572,
      "otic": 4573,
      "Ġconver": 4574,
      "uments": 4575,
      "Ġworry": 4576,
      "Ġapproximately": 4577,
      "Ġdegree": 4578,
      "Ġencourage": 4579,
      "Ġtax": 4580,
      "ometimes": 4581,
      "uting": 4582,
      "ament": 4583,
      "ublic": 4584,
      "Ġlegal": 4585,
      "ĠBritish": 4586,
      "PS": 4587,
      "RO": 4588,
      "ran": 4589,
      "Ġ\\": 4590,
      "ingu": 4591,
      "Ġpump": 4592,
      "ulin": 4593,
      "acters": 4594,
      "Ġremote": 4595,
      "Ġgenerate": 4596,
      "Ġangle": 4597,
      "Ġsample": 4598,
      "Ġbones": 4599,
      "utor": 4600,
      "ĠST": 4601,
      "ĠOut": 4602,
      "ructure": 4603,
      "Ġmetabol": 4604,
      "Ġnaturally": 4605,
      "Ġeconomic": 4606,
      "ĠFebruary": 4607,
      "ii": 4608,
      "ĠSte": 4609,
      "ĠGet": 4610,
      "Ġseek": 4611,
      "Ġrespir": 4612,
      "Ġmonitor": 4613,
      "Ġrights": 4614,
      "iences": 4615,
      "Ġadvance": 4616,
      "Ġhistor": 4617,
      "azing": 4618,
      "Ġmedicine": 4619,
      "Many": 4620,
      "wide": 4621,
      "icks": 4622,
      "ĠSil": 4623,
      "Ġtele": 4624,
      "Ġclick": 4625,
      "Ġapprec": 4626,
      "Ġdecor": 4627,
      "Ġpurchase": 4628,
      "Ġcelebr": 4629,
      "34": 4630,
      "che": 4631,
      "Ġtiny": 4632,
      "eline": 4633,
      "ĠSur": 4634,
      "Ġheard": 4635,
      "Ġsche": 4636,
      "Ġdesigns": 4637,
      "Ġkept": 4638,
      "Ġensures": 4639,
      "Ġeducational": 4640,
      "Ġreceived": 4641,
      "ĠGoogle": 4642,
      "Are": 4643,
      "Ġmig": 4644,
      "Ġgut": 4645,
      "ighter": 4646,
      "ĠFlor": 4647,
      "Ġtypical": 4648,
      "Ġacceler": 4649,
      "Ġpotat": 4650,
      "Ġclassroom": 4651,
      "Ġminimum": 4652,
      "Ġnavig": 4653,
      "lies": 4654,
      "enior": 4655,
      "ĠAN": 4656,
      "ĠEm": 4657,
      "Ġdivers": 4658,
      "Ġassign": 4659,
      "-being": 4660,
      "Ġtexture": 4661,
      "Ġlabel": 4662,
      "ibrary": 4663,
      "Ġdriver": 4664,
      "-quality": 4665,
      "Ġfigure": 4666,
      "ĠPres": 4667,
      "Ġdeliver": 4668,
      "Ġchoosing": 4669,
      "Ġfields": 4670,
      "which": 4671,
      "Ġisol": 4672,
      "Ġgear": 4673,
      "ĠOct": 4674,
      "Ġedge": 4675,
      "Ġorganisms": 4676,
      "Ġsaying": 4677,
      "Ġindicate": 4678,
      "aid": 4679,
      "Ġ...ĊĊ": 4680,
      "Ġpig": 4681,
      "ching": 4682,
      "Ġexternal": 4683,
      "ĠGreen": 4684,
      "Ġdiss": 4685,
      "Ġofficial": 4686,
      "Ġsets": 4687,
      "ĠProfess": 4688,
      "Ġcrus": 4689,
      "Ġwait": 4690,
      "Once": 4691,
      "bl": 4692,
      "rates": 4693,
      "Ġsed": 4694,
      "Ġmaster": 4695,
      "Ġnit": 4696,
      "Ġanxiety": 4697,
      "Ġdesired": 4698,
      "Ġcharacters": 4699,
      "Ġcreative": 4700,
      "roduct": 4701,
      "Ġchoices": 4702,
      "Ġvehicles": 4703,
      "Ġoptimal": 4704,
      "-le": 4705,
      "kin": 4706,
      "ta": 4707,
      "ndom": 4708,
      "ĠDesign": 4709,
      "ptember": 4710,
      "phas": 4711,
      "Ġcarefully": 4712,
      "Ġanti": 4713,
      "Ġdetailed": 4714,
      "Ġsilver": 4715,
      "Ġfracture": 4716,
      "Ġthorough": 4717,
      "wing": 4718,
      "reed": 4719,
      "allow": 4720,
      "Ġunits": 4721,
      "phone": 4722,
      "Ġformation": 4723,
      "Ġchanged": 4724,
      "Ġselected": 4725,
      "ĠEuropean": 4726,
      "ĠAssoci": 4727,
      "Ke": 4728,
      "gy": 4729,
      "Ġsell": 4730,
      "Ġlots": 4731,
      "Ġweak": 4732,
      "Ġkil": 4733,
      "Ġorganizations": 4734,
      "Ġsurfaces": 4735,
      "Ġprocedure": 4736,
      "Ġarchitect": 4737,
      "-re": 4738,
      "II": 4739,
      "Se": 4740,
      "Ġple": 4741,
      "icip": 4742,
      "Ġhous": 4743,
      "Ġgam": 4744,
      "Ġexhib": 4745,
      "Ġplug": 4746,
      "Ġintelligence": 4747,
      "Ġnovel": 4748,
      "Ġdamaged": 4749,
      "Ġmarine": 4750,
      "CO": 4751,
      "Ġden": 4752,
      "ums": 4753,
      "ĠMarch": 4754,
      "Ġrid": 4755,
      "Ġreliable": 4756,
      "Ġskill": 4757,
      "Ġconclusion": 4758,
      "Ġsteel": 4759,
      "Ġmanufacturing": 4760,
      "force": 4761,
      "Ġprecise": 4762,
      "Ġestablish": 4763,
      "##": 4764,
      "?\"": 4765,
      "Int": 4766,
      "Ġsod": 4767,
      "Ġstone": 4768,
      "uls": 4769,
      "ams": 4770,
      "Ġalcohol": 4771,
      "Ġvibr": 4772,
      "ologists": 4773,
      "Ġimproving": 4774,
      "Ġimpacts": 4775,
      "Ġvideos": 4776,
      "Ġdrugs": 4777,
      "37": 4778,
      "Ġax": 4779,
      "Ġsimpl": 4780,
      "Ġmembr": 4781,
      "Ġcardi": 4782,
      "Ġsurrounding": 4783,
      "DA": 4784,
      "Ġcup": 4785,
      "itary": 4786,
      "Ġfoss": 4787,
      "ĠIns": 4788,
      "ĠBra": 4789,
      "Ġneigh": 4790,
      "plant": 4791,
      "ĠInc": 4792,
      "itely": 4793,
      "Ġworkers": 4794,
      "ĠSpec": 4795,
      "Ġzero": 4796,
      "Ġfurniture": 4797,
      "Yes": 4798,
      "alse": 4799,
      "Ġlic": 4800,
      "ĠTH": 4801,
      "urrent": 4802,
      "Ġitem": 4803,
      "oper": 4804,
      "inder": 4805,
      "Ġshowed": 4806,
      "Ġfeeding": 4807,
      "Ġdestro": 4808,
      "-B": 4809,
      "Ab": 4810,
      "ION": 4811,
      "Ġsect": 4812,
      "Ġriver": 4813,
      "Ġprem": 4814,
      "berry": 4815,
      "Ġattrib": 4816,
      "Ġinflamm": 4817,
      "Ġmorning": 4818,
      "Ġroutine": 4819,
      "ius": 4820,
      "Ġfed": 4821,
      "add": 4822,
      "Ġneut": 4823,
      "Ġcolon": 4824,
      "ovember": 4825,
      "Ġextract": 4826,
      "-friendly": 4827,
      "Ġessay": 4828,
      "fortun": 4829,
      "Ġemployees": 4830,
      "My": 4831,
      "time": 4832,
      "ste": 4833,
      "Ġwants": 4834,
      "Ġlighting": 4835,
      "Ġhighest": 4836,
      "ĠDevelop": 4837,
      "Ġbreeding": 4838,
      "mm": 4839,
      "Ġeight": 4840,
      "Ġlung": 4841,
      "ective": 4842,
      "Ġshared": 4843,
      "Ġwheel": 4844,
      "Ġcompar": 4845,
      "ags": 4846,
      "ĠGold": 4847,
      "Ġacad": 4848,
      "Ġtransition": 4849,
      "Ġdecided": 4850,
      "Ġpolit": 4851,
      "ĠEnvironment": 4852,
      "Ġpreviously": 4853,
      "48": 4854,
      "cious": 4855,
      "Ġstories": 4856,
      "Ġvarieties": 4857,
      "Ġleads": 4858,
      "Ġmeasured": 4859,
      "Ġportion": 4860,
      "Ġdisorders": 4861,
      "iated": 4862,
      "rich": 4863,
      "Ġ)": 4864,
      "Ġcable": 4865,
      "Ġble": 4866,
      "Ġfilled": 4867,
      "Ġdu": 4868,
      "aser": 4869,
      "asive": 4870,
      "olute": 4871,
      "ĠHer": 4872,
      "Ġallerg": 4873,
      "Ġinstit": 4874,
      "Ġobvious": 4875,
      "Ġmainly": 4876,
      "Ġsensors": 4877,
      "Ġtrip": 4878,
      "Ġreferred": 4879,
      "ĠAugust": 4880,
      "Ġstrugg": 4881,
      "Ġmac": 4882,
      "ĠCount": 4883,
      "Ġleaving": 4884,
      "Ġplenty": 4885,
      "active": 4886,
      "Ġincred": 4887,
      "earing": 4888,
      "Ġoffering": 4889,
      "Ġemail": 4890,
      "Ġexposed": 4891,
      "Ġcontinues": 4892,
      "ĠPlan": 4893,
      "Ġtoxic": 4894,
      "!!": 4895,
      "39": 4896,
      "Pre": 4897,
      "body": 4898,
      "ek": 4899,
      "idity": 4900,
      "ĠTest": 4901,
      "Ġwhose": 4902,
      "asting": 4903,
      "ĠJune": 4904,
      "Ġmode": 4905,
      "Ġreference": 4906,
      "Ġfocused": 4907,
      "Ġprotective": 4908,
      "ING": 4909,
      ".e": 4910,
      "95": 4911,
      "uk": 4912,
      "Ġblow": 4913,
      "Ġmel": 4914,
      "Ġmild": 4915,
      "ico": 4916,
      "urb": 4917,
      "Ġassemb": 4918,
      "ffic": 4919,
      "ĠChar": 4920,
      "Ġelectron": 4921,
      "Ġcareer": 4922,
      "-sh": 4923,
      "Ġconfig": 4924,
      "ĠEnergy": 4925,
      "rus": 4926,
      "wood": 4927,
      "Ġsides": 4928,
      "ulating": 4929,
      "ĠWar": 4930,
      "ardens": 4931,
      "ĠYork": 4932,
      "Ġplayer": 4933,
      "Ġbreast": 4934,
      "Ġstructural": 4935,
      "Ġfacility": 4936,
      "Ġsensitive": 4937,
      "Ġsnake": 4938,
      "Ġpercentage": 4939,
      "Ġtall": 4940,
      "Ġwave": 4941,
      "Ġbath": 4942,
      "ications": 4943,
      "ĠDi": 4944,
      "ĠFrench": 4945,
      "Ġotherwise": 4946,
      "Ġblind": 4947,
      "Ġinformed": 4948,
      "Ġconcrete": 4949,
      "Ġrelationships": 4950,
      "Ġaudio": 4951,
      "Ġdistribution": 4952,
      "Your": 4953,
      "rs": 4954,
      "rans": 4955,
      "Ġwest": 4956,
      "ollow": 4957,
      "osa": 4958,
      "rie": 4959,
      "Ġflour": 4960,
      "Ġfollowed": 4961,
      "-sp": 4962,
      "Ġconsidering": 4963,
      "Ġinvolve": 4964,
      "paration": 4965,
      "ĠJuly": 4966,
      "ĠFlorida": 4967,
      "ye": 4968,
      "Ġbike": 4969,
      "Ġdro": 4970,
      "Ġhon": 4971,
      "Ġnerv": 4972,
      "olf": 4973,
      "Ġstable": 4974,
      "ĠSan": 4975,
      "unt": 4976,
      "oster": 4977,
      "Ġdishes": 4978,
      "Ġexpression": 4979,
      "Ġprogramming": 4980,
      "Ġlegs": 4981,
      "ĠColle": 4982,
      "Ġradio": 4983,
      "comes": 4984,
      "requ": 4985,
      "Ġcand": 4986,
      "iform": 4987,
      "urthermore": 4988,
      "Ġatmosphere": 4989,
      "mar": 4990,
      "with": 4991,
      "Ġmist": 4992,
      "ulf": 4993,
      "Ġbutton": 4994,
      "akers": 4995,
      "reek": 4996,
      "Ġmuscles": 4997,
      "Ġwidely": 4998,
      "Ġprepare": 4999,
      "Ġwalls": 5000,
      "Ġmessage": 5001,
      "-year": 5002,
      "65": 5003,
      "==": 5004,
      "Ġcm": 5005,
      "rowing": 5006,
      "Ġrandom": 5007,
      "Ġlocations": 5008,
      "Ġelev": 5009,
      "ĠCanada": 5010,
      "Ġpurposes": 5011,
      "Ġsufficient": 5012,
      "Ġbaking": 5013,
      "Ġdent": 5014,
      "Ġhole": 5015,
      "Ġbees": 5016,
      "Ġtransl": 5017,
      "Ġoccup": 5018,
      "ifying": 5019,
      "Ġsunlight": 5020,
      "Ġpanel": 5021,
      "Ġfailure": 5022,
      "onic": 5023,
      "osph": 5024,
      "Ġsud": 5025,
      "Ġbroken": 5026,
      "Ġmicrob": 5027,
      "Ġemotional": 5028,
      "Ġbudget": 5029,
      "Ġestimated": 5030,
      "Ar": 5031,
      "zen": 5032,
      "Ġtight": 5033,
      "ctors": 5034,
      "ĠEvery": 5035,
      "ĠGood": 5036,
      "ĠProgram": 5037,
      "Ġputting": 5038,
      "ĠColl": 5039,
      "Ġlifestyle": 5040,
      "Ġdefinition": 5041,
      "41": 5042,
      "ares": 5043,
      "ias": 5044,
      "Ġborn": 5045,
      "Ġtoler": 5046,
      "ĠCom": 5047,
      "ivil": 5048,
      "Ġplays": 5049,
      "Ġemp": 5050,
      "Ġcompleted": 5051,
      "Ġcorresp": 5052,
      "ĠPlant": 5053,
      "Ġbiological": 5054,
      "Ġarrange": 5055,
      "Ġawareness": 5056,
      "Bl": 5057,
      "bal": 5058,
      "Ġod": 5059,
      "Ġwhatever": 5060,
      "Ġvs": 5061,
      "Ġrough": 5062,
      "izer": 5063,
      "Ġshowing": 5064,
      "Ġbelong": 5065,
      "Ġwindows": 5066,
      "Ġtruly": 5067,
      "Ġslowly": 5068,
      "Ġguidelines": 5069,
      "ĠLearn": 5070,
      "Ġvitamin": 5071,
      ".)": 5072,
      "Ġvert": 5073,
      "Ġcopy": 5074,
      "Ġpup": 5075,
      "ĠSaf": 5076,
      "ĠPark": 5077,
      "ĠChina": 5078,
      "Ġlooked": 5079,
      "Ġcreates": 5080,
      "Ġdetermined": 5081,
      "Ġnormally": 5082,
      "Ġchallenging": 5083,
      "Ġintroduced": 5084,
      "Ġadvantages": 5085,
      "edia": 5086,
      "opl": 5087,
      "ĠAny": 5088,
      "Ġcalories": 5089,
      "ĠIndian": 5090,
      "Ġappears": 5091,
      "ĠEngine": 5092,
      "Ġvirtual": 5093,
      "Ġwaters": 5094,
      "IP": 5095,
      "More": 5096,
      "OU": 5097,
      "VID": 5098,
      "oons": 5099,
      "vit": 5100,
      "Ġ...": 5101,
      "Ġcul": 5102,
      "Ġbio": 5103,
      "Ġfold": 5104,
      "ĠWhere": 5105,
      "Ġshoot": 5106,
      "ĠLike": 5107,
      "Ġdesp": 5108,
      "Ġelectro": 5109,
      "Ġvisible": 5110,
      "Ġafford": 5111,
      "Ġdelicious": 5112,
      "Ġsensor": 5113,
      "Ġspirit": 5114,
      "-on": 5115,
      "Cons": 5116,
      "bit": 5117,
      "oil": 5118,
      "Ġaer": 5119,
      "Ġsend": 5120,
      "Ġgir": 5121,
      "Ġgather": 5122,
      "Ġstrain": 5123,
      "roup": 5124,
      "Ġtechnical": 5125,
      "Ġsecret": 5126,
      "Ġmedication": 5127,
      "Ġgreenhouse": 5128,
      "charge": 5129,
      "rote": 5130,
      "Ġcream": 5131,
      "ourses": 5132,
      "mingbird": 5133,
      "ĠOrgan": 5134,
      "-n": 5135,
      "een": 5136,
      "ios": 5137,
      "Ġnest": 5138,
      "oles": 5139,
      "ulner": 5140,
      "ĠHis": 5141,
      "ĠDis": 5142,
      "Ġadminist": 5143,
      "ĠGarden": 5144,
      "Ġroof": 5145,
      "Ġflo": 5146,
      "Ġflood": 5147,
      "Ġkinds": 5148,
      "Ġnetwor": 5149,
      "Ġcorrectly": 5150,
      "Ġstrategy": 5151,
      "Ġchicken": 5152,
      "-related": 5153,
      "chers": 5154,
      "Ġwalking": 5155,
      "Ġfasc": 5156,
      "Ġdrag": 5157,
      "Ġnurs": 5158,
      "Ġring": 5159,
      "Ġperman": 5160,
      "porary": 5161,
      "Ġsudden": 5162,
      "LE": 5163,
      "can": 5164,
      "ugg": 5165,
      "alle": 5166,
      "cember": 5167,
      "see": 5168,
      "ĠBar": 5169,
      "Ġnotes": 5170,
      "Ġtrade": 5171,
      "Ġcoal": 5172,
      "Ġowner": 5173,
      "Ġreduction": 5174,
      "Ġletter": 5175,
      "Ġperiods": 5176,
      "Ġkitchen": 5177,
      "Ġvaccine": 5178,
      "Ġprocedures": 5179,
      "fortunately": 5180,
      "Ġtum": 5181,
      "Ġoven": 5182,
      "Ġpounds": 5183,
      "Ġban": 5184,
      "Ġdress": 5185,
      "Ġshad": 5186,
      "ĠFound": 5187,
      "Ġsyn": 5188,
      "Ġproduces": 5189,
      "Ġemphas": 5190,
      "Ġsurvey": 5191,
      "Ġconnections": 5192,
      "Ġfacilities": 5193,
      "Ġaffects": 5194,
      "ĠJanuary": 5195,
      "ket": 5196,
      "what": 5197,
      "Ġwaves": 5198,
      "itting": 5199,
      "Ġpair": 5200,
      "Ġtoward": 5201,
      "lements": 5202,
      "ĠCare": 5203,
      "ĠWind": 5204,
      "Ġintake": 5205,
      "ĠGreat": 5206,
      "ĠSeptember": 5207,
      "Ġfarmers": 5208,
      "Ġhunting": 5209,
      "ĠCheck": 5210,
      "Most": 5211,
      "lt": 5212,
      "org": 5213,
      "Ġfur": 5214,
      "roke": 5215,
      "Ġrenew": 5216,
      "osen": 5217,
      "Ġmeals": 5218,
      "ĠUp": 5219,
      "Ġpartners": 5220,
      "Ġarm": 5221,
      "Ġextensive": 5222,
      "Ġapproved": 5223,
      "Ġaccessible": 5224,
      "Ġfiles": 5225,
      "Ġturned": 5226,
      "Ġversat": 5227,
      "ĠConsider": 5228,
      "Ġcampa": 5229,
      "going": 5230,
      "Ġshapes": 5231,
      "iest": 5232,
      "ued": 5233,
      "Ġpages": 5234,
      "Ġbrief": 5235,
      "arant": 5236,
      "change": 5237,
      "ĠPM": 5238,
      "Ġassum": 5239,
      "Ġmultip": 5240,
      "Ġinternet": 5241,
      "Ġdisorder": 5242,
      "ĠAbout": 5243,
      "Ġvess": 5244,
      "Ġsho": 5245,
      "ocking": 5246,
      "ĠData": 5247,
      "Ġrabb": 5248,
      "Ġregulations": 5249,
      "Ġcontainer": 5250,
      "',": 5251,
      "Ġaid": 5252,
      "inations": 5253,
      "sec": 5254,
      "antic": 5255,
      "ĠFe": 5256,
      "Ġrow": 5257,
      "ypes": 5258,
      "onding": 5259,
      "Ġproducing": 5260,
      "Ġrelative": 5261,
      "Ġmajority": 5262,
      "Ġinstalled": 5263,
      "Ġannual": 5264,
      "Ġclinical": 5265,
      "uilding": 5266,
      "'ĊĊ": 5267,
      "bre": 5268,
      "ua": 5269,
      "Ġpel": 5270,
      "Ġhom": 5271,
      "Ġgerm": 5272,
      "ĠWild": 5273,
      "ĠBIM": 5274,
      "ĠNet": 5275,
      "place": 5276,
      "Ġperhaps": 5277,
      "Ġcovers": 5278,
      "Ġactions": 5279,
      "âĢĻre": 5280,
      "First": 5281,
      "Over": 5282,
      "Ġwoman": 5283,
      "Ġbot": 5284,
      "Ġfle": 5285,
      "Ġyield": 5286,
      "Ġatom": 5287,
      "Ġshoes": 5288,
      "Ġblog": 5289,
      "Ġblocks": 5290,
      "ossible": 5291,
      "Ġdecide": 5292,
      "Ġsheet": 5293,
      "Ġrefers": 5294,
      "-time": 5295,
      "iverse": 5296,
      "Ġseconds": 5297,
      "hemat": 5298,
      "Ġerror": 5299,
      "ĠĠĠĠ": 5300,
      "Ġpictures": 5301,
      "Ġfamiliar": 5302,
      "Ġsequence": 5303,
      "ĠInternational": 5304,
      "Ġpregnancy": 5305,
      "Ġscenari": 5306,
      "Ġphenomen": 5307,
      "Ġnames": 5308,
      "olve": 5309,
      "Ġplate": 5310,
      "ago": 5311,
      "Ġtraum": 5312,
      "Ġconfirm": 5313,
      "Ġfacilit": 5314,
      "Ġmeasurements": 5315,
      "hemical": 5316,
      "Ġlawn": 5317,
      "-S": 5318,
      "52": 5319,
      "mas": 5320,
      "Ġtow": 5321,
      "ĠWill": 5322,
      "emy": 5323,
      "istor": 5324,
      "rome": 5325,
      "ĠHar": 5326,
      "eren": 5327,
      "Ġcontrast": 5328,
      "Ġwouldn": 5329,
      "Ġcreation": 5330,
      "Ġcapable": 5331,
      "Ġcraft": 5332,
      "Ġargument": 5333,
      "Ġexcessive": 5334,
      "ĠJohn": 5335,
      "ĠCollege": 5336,
      "-eff": 5337,
      "ionally": 5338,
      "Ġsto": 5339,
      "Ġmeant": 5340,
      "Ġunless": 5341,
      "anges": 5342,
      "ĠâĢĵĊĊ": 5343,
      "arsh": 5344,
      "Ġrepresents": 5345,
      "Ġcooked": 5346,
      "Ġtried": 5347,
      "Ġdecrease": 5348,
      "-e": 5349,
      "Ġcogn": 5350,
      "cel": 5351,
      "ample": 5352,
      "that": 5353,
      "Ġvap": 5354,
      "ĠPower": 5355,
      "Ġadvent": 5356,
      "Ġadds": 5357,
      "Ġregist": 5358,
      "Ġcareful": 5359,
      "Ġmixed": 5360,
      "Ġmolecular": 5361,
      "Ġbeauty": 5362,
      "Ġcontrolled": 5363,
      "Ġinnovation": 5364,
      "Ġpreferences": 5365,
      "ds": 5366,
      "eper": 5367,
      "organ": 5368,
      "Ġrein": 5369,
      "ĠCS": 5370,
      "umps": 5371,
      "acc": 5372,
      "ĠHy": 5373,
      "Ġadequ": 5374,
      "Ġclosed": 5375,
      "riculum": 5376,
      "Ġlessons": 5377,
      "ĠAnother": 5378,
      "Ġthoughts": 5379,
      "Ġlimestone": 5380,
      "Ġrecords": 5381,
      "Ġremoving": 5382,
      "Ġfriendly": 5383,
      "Ġlandscape": 5384,
      "51": 5385,
      "IL": 5386,
      "unity": 5387,
      "anted": 5388,
      "Ġrice": 5389,
      "ĠBet": 5390,
      "Ġseal": 5391,
      "Ġoutcomes": 5392,
      "Ġinsulin": 5393,
      "Ġrestaur": 5394,
      "Ġinteraction": 5395,
      "Ġinjuries": 5396,
      "Ġlinked": 5397,
      "Ġconcentration": 5398,
      "Ġmobile": 5399,
      "Let": 5400,
      "hus": 5401,
      "Ġpupp": 5402,
      "Ġspent": 5403,
      "Ġshru": 5404,
      "Ġunivers": 5405,
      "Ġrequest": 5406,
      "Ġperspective": 5407,
      "Ġbegins": 5408,
      "Ġdescribe": 5409,
      "Ġconducted": 5410,
      "):": 5411,
      "gin": 5412,
      "Ġstock": 5413,
      "ayer": 5414,
      "Ġcomment": 5415,
      "ĠMex": 5416,
      "Ġintended": 5417,
      "ibilities": 5418,
      "Ġrecipe": 5419,
      "bris": 5420,
      "Ġphotograph": 5421,
      "Ġclosely": 5422,
      "Although": 5423,
      "Ġcollected": 5424,
      "Ġsurvive": 5425,
      "US": 5426,
      "uum": 5427,
      "Ġpush": 5428,
      "ĠIP": 5429,
      "Ġjump": 5430,
      "Ġclub": 5431,
      "Ġinspect": 5432,
      "Ġshell": 5433,
      "Ġtopics": 5434,
      "Ġturns": 5435,
      "Ġinteractions": 5436,
      "________": 5437,
      "Ġforests": 5438,
      "Ġcalcium": 5439,
      "Ġdatab": 5440,
      "According": 5441,
      "CH": 5442,
      "na": 5443,
      "inction": 5444,
      "Ġpure": 5445,
      "Ġdream": 5446,
      "ĠBas": 5447,
      "agers": 5448,
      "order": 5449,
      "ĠProt": 5450,
      "Ġanswers": 5451,
      "Ġrecorded": 5452,
      "Ġsamples": 5453,
      "Ġreplacement": 5454,
      "Ġdespite": 5455,
      "Answer": 5456,
      "Don": 5457,
      "Reg": 5458,
      "bing": 5459,
      "vents": 5460,
      "itivity": 5461,
      "Ġinner": 5462,
      "Ġforget": 5463,
      "Ġstages": 5464,
      "eless": 5465,
      "oping": 5466,
      "Ġseven": 5467,
      "ĠNovember": 5468,
      "ĠUV": 5469,
      "Ġoffic": 5470,
      "forest": 5471,
      "Ġattached": 5472,
      "Ġboat": 5473,
      "Ġcommunicate": 5474,
      "ĠAdd": 5475,
      "Ġcomputers": 5476,
      "Ġpresented": 5477,
      "ĠExpl": 5478,
      "Ġinnovative": 5479,
      "ĠLearning": 5480,
      "Ġratio": 5481,
      "Sc": 5482,
      "Ġtun": 5483,
      "Ġap": 5484,
      "Ġcab": 5485,
      "ishes": 5486,
      "Ġdust": 5487,
      "Ġoral": 5488,
      "ĠDec": 5489,
      "ĠFore": 5490,
      "Ġunlike": 5491,
      "ensions": 5492,
      "Ġconsists": 5493,
      "ifications": 5494,
      "Ġcarried": 5495,
      "Ġdecl": 5496,
      "ception": 5497,
      "Ġclearly": 5498,
      "Ġconcepts": 5499,
      "ĠStudents": 5500,
      "Ġrapidly": 5501,
      "ĠJapanese": 5502,
      "bles": 5503,
      "zer": 5504,
      "Ġbank": 5505,
      "Ġfirm": 5506,
      "Ġmm": 5507,
      "Ġviol": 5508,
      "Ġwearing": 5509,
      "Ġkg": 5510,
      "ormal": 5511,
      "Ġtwice": 5512,
      "Ġseeing": 5513,
      "Ġguess": 5514,
      "Ġcharging": 5515,
      "Ġpreventing": 5516,
      "Ġphysic": 5517,
      "Ġsuggested": 5518,
      "Ġradiation": 5519,
      "uracy": 5520,
      "UV": 5521,
      "Ġfear": 5522,
      "Ġmamm": 5523,
      "icides": 5524,
      "ĠTV": 5525,
      "ĠSub": 5526,
      "Ġabund": 5527,
      "dule": 5528,
      "Ġadvert": 5529,
      "Ġscrew": 5530,
      "Ġtraffic": 5531,
      "Ġprocessors": 5532,
      "ommod": 5533,
      "Ġworldwide": 5534,
      "Ġbuildings": 5535,
      "Ġcertainly": 5536,
      "Ġfeedback": 5537,
      "Ġguidance": 5538,
      "ĠCOVID": 5539,
      "-D": 5540,
      "ked": 5541,
      "tion": 5542,
      "Ġtal": 5543,
      "Ġcoc": 5544,
      "Ġdram": 5545,
      "Ġstain": 5546,
      "elcome": 5547,
      "ĠMc": 5548,
      "Ġprey": 5549,
      "Ġpoison": 5550,
      "Ġconfidence": 5551,
      "Ġrestrict": 5552,
      "Ġmeasurement": 5553,
      "Ġabsolute": 5554,
      "Ġpanels": 5555,
      "Ġexciting": 5556,
      "Ġthermal": 5557,
      "ĠRemember": 5558,
      "Conclusion": 5559,
      "Ġclothing": 5560,
      "Ġmembrane": 5561,
      "CS": 5562,
      "gien": 5563,
      "uzz": 5564,
      "Ġisland": 5565,
      "ĠTake": 5566,
      "Ġsport": 5567,
      "ĠHome": 5568,
      "Ġmanaging": 5569,
      "ĠInter": 5570,
      "ressed": 5571,
      "Ġcoat": 5572,
      "Ġagree": 5573,
      "Ġamazing": 5574,
      "Ġseeking": 5575,
      "Ġelectronic": 5576,
      "Ġpasseng": 5577,
      "Ġcultural": 5578,
      "Ġjobs": 5579,
      "Ġbuying": 5580,
      "idden": 5581,
      "Ġrespiratory": 5582,
      "-th": 5583,
      "From": 5584,
      "ker": 5585,
      "ĠBoth": 5586,
      "ĠEff": 5587,
      "Ġherb": 5588,
      "Ġstring": 5589,
      "Ġcorn": 5590,
      "Ġexplan": 5591,
      "Ġcapital": 5592,
      "Ġcombined": 5593,
      "Ġdiscussion": 5594,
      "Ġcollege": 5595,
      "42": 5596,
      "85": 5597,
      "hop": 5598,
      "iers": 5599,
      "Ġsong": 5600,
      "Ġcit": 5601,
      "Ġdirt": 5602,
      "Ġloose": 5603,
      "ifier": 5604,
      "Ġshot": 5605,
      "Ġinfrast": 5606,
      "Ġgrade": 5607,
      "Ġmotiv": 5608,
      "ĠInstead": 5609,
      "Ġiniti": 5610,
      "Ġefficiently": 5611,
      "Ġurban": 5612,
      "Ġdestroy": 5613,
      "-F": 5614,
      "eah": 5615,
      "Ġinvent": 5616,
      "igen": 5617,
      "ĠSee": 5618,
      "ado": 5619,
      "Ġvast": 5620,
      "Ġneu": 5621,
      "Ġspaces": 5622,
      "erent": 5623,
      "Ġanywhere": 5624,
      "oyal": 5625,
      "Ġgrad": 5626,
      "aws": 5627,
      "ĠAsia": 5628,
      "espite": 5629,
      "Ġprompt": 5630,
      "ĠExper": 5631,
      "Ġmechanical": 5632,
      "Ġpests": 5633,
      "Ġsatisf": 5634,
      "Use": 5635,
      "lers": 5636,
      "section": 5637,
      "Ġalt": 5638,
      "orms": 5639,
      "ava": 5640,
      "orses": 5641,
      "Ġraise": 5642,
      "Ġacids": 5643,
      "Ġdecades": 5644,
      "Ġends": 5645,
      "Ġtested": 5646,
      "Ġexplains": 5647,
      "Ġplayed": 5648,
      "Ġmetals": 5649,
      "Ġcontrolling": 5650,
      "Ġdefinitely": 5651,
      "Dr": 5652,
      "Not": 5653,
      "ĠpH": 5654,
      "Ġfig": 5655,
      "ĠIN": 5656,
      "ophy": 5657,
      "Ġcompare": 5658,
      "Ġjud": 5659,
      "Ġparty": 5660,
      "Ġsupplement": 5661,
      "Ġgenerated": 5662,
      "Ġaircraft": 5663,
      "Ġpassed": 5664,
      "Ġremoval": 5665,
      "Ġcooling": 5666,
      "Ġcompetition": 5667,
      "uminum": 5668,
      "Ġbelieved": 5669,
      "Ġprices": 5670,
      "Ġopinion": 5671,
      "Ġcloser": 5672,
      "Te": 5673,
      "men": 5674,
      "Ġsouthern": 5675,
      "Ġcos": 5676,
      "Ġcourses": 5677,
      "ilos": 5678,
      "Ġpros": 5679,
      "Ġenable": 5680,
      "ĠEast": 5681,
      "asts": 5682,
      "rence": 5683,
      "ĠVal": 5684,
      "Ġmining": 5685,
      "Ġpossess": 5686,
      "Ġinstallation": 5687,
      "Ġlaws": 5688,
      "Ġdedicated": 5689,
      "ĠSilver": 5690,
      "38": 5691,
      "dy": 5692,
      "rating": 5693,
      "Ġtutor": 5694,
      "erals": 5695,
      "Ġsight": 5696,
      "Ġsenior": 5697,
      "Ġfan": 5698,
      "Ġloved": 5699,
      "amental": 5700,
      "ĠClean": 5701,
      "Ġdebris": 5702,
      "asty": 5703,
      "Ġtea": 5704,
      "Ġhelped": 5705,
      "yself": 5706,
      "ĠKnow": 5707,
      "Ġinsert": 5708,
      "Ġminor": 5709,
      "ĠDecember": 5710,
      "Ġfixed": 5711,
      ";Ċ": 5712,
      "].": 5713,
      "mary": 5714,
      "Ġtap": 5715,
      "Ġahead": 5716,
      "rest": 5717,
      "Ġwish": 5718,
      "ald": 5719,
      "asure": 5720,
      "Ġbee": 5721,
      "Ġhaven": 5722,
      "ache": 5723,
      "Ġworse": 5724,
      "Ġthanks": 5725,
      "Ġrecovery": 5726,
      "Ġgrows": 5727,
      "Ġformat": 5728,
      "Ġgoods": 5729,
      "Ġopening": 5730,
      "Ġelectrons": 5731,
      "Ġrecognition": 5732,
      "Ġdoub": 5733,
      "Ġbillion": 5734,
      "ĠService": 5735,
      "New": 5736,
      "aired": 5737,
      "arter": 5738,
      "Ġgall": 5739,
      "Ġstret": 5740,
      "ĠII": 5741,
      "ĠIS": 5742,
      "unte": 5743,
      "Ġvulner": 5744,
      "ĠMicro": 5745,
      "ander": 5746,
      "ĠDet": 5747,
      "ĠOpen": 5748,
      "phones": 5749,
      "Ġraw": 5750,
      "Ġraised": 5751,
      "Ġaccommod": 5752,
      "ropical": 5753,
      "Ġassistance": 5754,
      "Ġvalve": 5755,
      "Ġzone": 5756,
      "Ġsafely": 5757,
      "Ġminimize": 5758,
      "Ġembod": 5759,
      "Ġhoriz": 5760,
      "Ġjournal": 5761,
      "Ġsharp": 5762,
      "Ġconsequences": 5763,
      "ĠOctober": 5764,
      "44": 5765,
      "gans": 5766,
      "ĠSupp": 5767,
      "Ġrural": 5768,
      "ĠHel": 5769,
      "acts": 5770,
      "ĠLife": 5771,
      "Ġmanip": 5772,
      "Ġapplying": 5773,
      "Ġaccum": 5774,
      "Ġforming": 5775,
      "Ġsubt": 5776,
      "Ġmeasuring": 5777,
      "Ġmovements": 5778,
      "Ġmilitary": 5779,
      "Ġturning": 5780,
      "Ġspeaker": 5781,
      "ĠAfrican": 5782,
      "Ġdivided": 5783,
      "Comp": 5784,
      "EL": 5785,
      "IV": 5786,
      "mark": 5787,
      "rument": 5788,
      "yth": 5789,
      "|Ċ": 5790,
      "Ġtip": 5791,
      "itter": 5792,
      "Ġpin": 5793,
      "Ġped": 5794,
      "ilation": 5795,
      "Ġnose": 5796,
      "ects": 5797,
      "istory": 5798,
      "Ġchronic": 5799,
      "Ġspots": 5800,
      "nthetic": 5801,
      "ĠEas": 5802,
      "Ġtrim": 5803,
      "Ġlesson": 5804,
      "Ġcircum": 5805,
      "Ġbiggest": 5806,
      "Ġvegetable": 5807,
      "Ġcookies": 5808,
      "Ġmeeting": 5809,
      "Ġhappened": 5810,
      "Ġsurvival": 5811,
      "********": 5812,
      "DF": 5813,
      "ivery": 5814,
      "Ġsail": 5815,
      "Ġment": 5816,
      "Ġmort": 5817,
      "Ġmyself": 5818,
      "Ġdensity": 5819,
      "ĠBay": 5820,
      "Ġship": 5821,
      "ipl": 5822,
      "Ġuniversity": 5823,
      "Ġtrained": 5824,
      "Ġplanted": 5825,
      "Ġkeeps": 5826,
      "Ġprotected": 5827,
      "Ġpolic": 5828,
      "Ġinvestment": 5829,
      "Ġhydrogen": 5830,
      "Ġcapture": 5831,
      "Ġparticipants": 5832,
      "Ġautomatically": 5833,
      "Ġexplained": 5834,
      "Ġbags": 5835,
      "Ġobtained": 5836,
      "Ġdiversity": 5837,
      "Ġinflammation": 5838,
      "Ind": 5839,
      "]Ċ": 5840,
      "vin": 5841,
      "Ġretain": 5842,
      "urch": 5843,
      "Ġproport": 5844,
      "ĠSM": 5845,
      "opes": 5846,
      "Ġcompounds": 5847,
      "Ġuniform": 5848,
      "athy": 5849,
      "ĠThrough": 5850,
      "Ġcrushing": 5851,
      "Ġdescription": 5852,
      "Ġsuccessfully": 5853,
      "Ġcultiv": 5854,
      "Ġreactions": 5855,
      "(a": 5856,
      "rations": 5857,
      "vision": 5858,
      "Ġcart": 5859,
      "Ġnorth": 5860,
      "Ġyard": 5861,
      "Ġgift": 5862,
      "Ġstands": 5863,
      "ĠSociety": 5864,
      "oding": 5865,
      "Ġshut": 5866,
      "Ġinterior": 5867,
      "Ġinsights": 5868,
      "Ġsupports": 5869,
      "Ġhousehold": 5870,
      "Ġmedications": 5871,
      "Ġremaining": 5872,
      "Before": 5873,
      "Ġprinciples": 5874,
      "\"ĊĊ": 5875,
      "(b": 5876,
      "47": 5877,
      "con": 5878,
      "Ġwires": 5879,
      "isation": 5880,
      "Ġliver": 5881,
      "Ġnorthern": 5882,
      "ircle": 5883,
      "ifies": 5884,
      "ĠSy": 5885,
      "tery": 5886,
      "ĠDiff": 5887,
      "ĠExt": 5888,
      "Ġwilling": 5889,
      "Ġpreparation": 5890,
      "Ġarray": 5891,
      "Ġindex": 5892,
      "ĠJour": 5893,
      "Ġgenet": 5894,
      "Ġsmell": 5895,
      "ventional": 5896,
      "ribe": 5897,
      "Ġcalls": 5898,
      "ĠProject": 5899,
      "Ġbasically": 5900,
      "clus": 5901,
      "ĠBlack": 5902,
      "Ġfemales": 5903,
      "ocolate": 5904,
      "Ġbehaviors": 5905,
      "ĠAssociation": 5906,
      "EP": 5907,
      "]ĊĊ": 5908,
      "mic": 5909,
      "west": 5910,
      "reement": 5911,
      "orous": 5912,
      "ĠTex": 5913,
      "Ġstability": 5914,
      "ama": 5915,
      "ĠRef": 5916,
      "Ġoffered": 5917,
      "Ġaccident": 5918,
      "ĠStart": 5919,
      "ĠVis": 5920,
      "Ġvariable": 5921,
      "Ġattend": 5922,
      "Ġinstruction": 5923,
      "Ġobst": 5924,
      "Ġpresc": 5925,
      "Ġfacts": 5926,
      "Ġfinally": 5927,
      "Ġlisten": 5928,
      "Ġconsume": 5929,
      "Ġdiscussed": 5930,
      "Ġmassive": 5931,
      "Ġmechanism": 5932,
      "Ġtissues": 5933,
      "Ġswimming": 5934,
      "Ġveterin": 5935,
      "hors": 5936,
      "Ġcash": 5937,
      "Ġmoth": 5938,
      "otton": 5939,
      "idents": 5940,
      "olving": 5941,
      "Ġstation": 5942,
      "ĠBr": 5943,
      "Ġnoted": 5944,
      "inea": 5945,
      "Ġwasn": 5946,
      "earchers": 5947,
      "aked": 5948,
      "airy": 5949,
      "Ġedges": 5950,
      "Ġdelivery": 5951,
      "Ġphysics": 5952,
      "Ġmulti": 5953,
      "Ġprofessor": 5954,
      "Ġholds": 5955,
      "De": 5956,
      "net": 5957,
      "Ġvel": 5958,
      "Ġfelt": 5959,
      "Ġmer": 5960,
      "Ġmales": 5961,
      "Ġnar": 5962,
      "ĠSch": 5963,
      "ĠSometimes": 5964,
      "ĠCity": 5965,
      "rip": 5966,
      "ĠLook": 5967,
      "apers": 5968,
      "Ġfewer": 5969,
      "ube": 5970,
      "ĠWhite": 5971,
      "Ġvegan": 5972,
      "Ġpreserv": 5973,
      "Ġstanding": 5974,
      "Ġterrit": 5975,
      "Ġtransportation": 5976,
      "Ġholes": 5977,
      "Ġfairly": 5978,
      "Ġsessions": 5979,
      "Gen": 5980,
      "OD": 5981,
      "fall": 5982,
      "gers": 5983,
      "how": 5984,
      "you": 5985,
      "Ġaest": 5986,
      "Ġcrow": 5987,
      "Ġol": 5988,
      "ĠBen": 5989,
      "Ġincome": 5990,
      "Ġscr": 5991,
      "Ġrecyc": 5992,
      "Ġfreeze": 5993,
      "Ġcapabilities": 5994,
      "Ġconsumers": 5995,
      "Ġpasta": 5996,
      "ĠAustralian": 5997,
      "Ġagriculture": 5998,
      "Ġagricultural": 5999,
      "Ġindependent": 6000,
      "lim": 6001,
      "och": 6002,
      "Ġsouth": 6003,
      "Ġwings": 6004,
      "Ġbind": 6005,
      "Ġluck": 6006,
      "Ġnerve": 6007,
      "Ġgast": 6008,
      "ĠDist": 6009,
      "ideo": 6010,
      "ĠInformation": 6011,
      "Ġindoor": 6012,
      "Ġprovider": 6013,
      "Ġinterp": 6014,
      "Ġdioxide": 6015,
      "inese": 6016,
      "Ġdiscovery": 6017,
      "Ġpainting": 6018,
      "Ġcontaining": 6019,
      "Ġlisted": 6020,
      "Ġspecialized": 6021,
      "Ġsubstance": 6022,
      "Ġhydro": 6023,
      "Ġirrit": 6024,
      "Ġreviews": 6025,
      "Ġconstantly": 6026,
      "Ġbreath": 6027,
      "-M": 6028,
      "itors": 6029,
      "icing": 6030,
      "ĠMac": 6031,
      "ĠBel": 6032,
      "Ġchrom": 6033,
      "âĢĭ": 6034,
      "Ġcontamin": 6035,
      "Ġcommand": 6036,
      "Ġextended": 6037,
      "Ġears": 6038,
      "Ġdrinking": 6039,
      "Ġprofit": 6040,
      "Ġengage": 6041,
      "Ġapproaches": 6042,
      "ĠSea": 6043,
      "Ġcrack": 6044,
      "Ġindicates": 6045,
      "Ġvacuum": 6046,
      "Ġexercises": 6047,
      "Ġcontinued": 6048,
      "Ġimagine": 6049,
      "Ġdurable": 6050,
      "Ġflavors": 6051,
      "Ġpilot": 6052,
      "TS": 6053,
      "cest": 6054,
      "vis": 6055,
      "à¤": 6056,
      "Ġinject": 6057,
      "Ġnation": 6058,
      "ifts": 6059,
      "osion": 6060,
      "Ġdeeper": 6061,
      "Ġdisapp": 6062,
      "enses": 6063,
      "Ġrod": 6064,
      "Ġaccuracy": 6065,
      "Ġregul": 6066,
      "Ġequation": 6067,
      "Ġruns": 6068,
      "Ġoperate": 6069,
      "ĠBefore": 6070,
      "Ġminimal": 6071,
      ".âĢĿ": 6072,
      "cers": 6073,
      "Ġmission": 6074,
      "ascular": 6075,
      "ompl": 6076,
      "Ġgave": 6077,
      "ĠMark": 6078,
      "Ġquilt": 6079,
      "Ġunderst": 6080,
      "Ġreput": 6081,
      "Ġpossibility": 6082,
      "oids": 6083,
      "Ġparas": 6084,
      "Ġfalls": 6085,
      "Ġfrequent": 6086,
      "Ġbabies": 6087,
      "Ġcoastal": 6088,
      "ĠTechnology": 6089,
      "Ġtitle": 6090,
      "Ġfossil": 6091,
      "-C": 6092,
      "53": 6093,
      "auc": 6094,
      "bility": 6095,
      "gical": 6096,
      "Ġtables": 6097,
      "onge": 6098,
      "Ġmes": 6099,
      "Ġmal": 6100,
      "ara": 6101,
      "Ġlunch": 6102,
      "Ġgal": 6103,
      "Ġshade": 6104,
      "izza": 6105,
      "soft": 6106,
      "ints": 6107,
      "Ġsupplies": 6108,
      "Ġvet": 6109,
      "Ġentertain": 6110,
      "rapy": 6111,
      "Ġsnakes": 6112,
      "Ġsubstances": 6113,
      "Ġinfluen": 6114,
      "Ġthrive": 6115,
      "ĠDevelopment": 6116,
      "Ġinfrastructure": 6117,
      "ython": 6118,
      "46": 6119,
      "96": 6120,
      "Rem": 6121,
      "Since": 6122,
      "no": 6123,
      "uis": 6124,
      "rooms": 6125,
      "irrel": 6126,
      "Ġorange": 6127,
      "ĠSum": 6128,
      "ĠPet": 6129,
      "ĠMus": 6130,
      "Ġsharing": 6131,
      "Ġnoticed": 6132,
      "pha": 6133,
      "Ġreports": 6134,
      "Ġprocessor": 6135,
      "Ġdepression": 6136,
      "Ġreduces": 6137,
      "Ġcontrols": 6138,
      "Ġhabits": 6139,
      "Ġfibers": 6140,
      "ĠTexas": 6141,
      "-the": 6142,
      "nes": 6143,
      "eria": 6144,
      "Ġflying": 6145,
      "ĠToday": 6146,
      "umes": 6147,
      "Ġexperiments": 6148,
      "Ġattach": 6149,
      "Ġphotography": 6150,
      "Ġentirely": 6151,
      "Ġexcited": 6152,
      "Ġintroduction": 6153,
      "Ġquantum": 6154,
      "Ġverte": 6155,
      "Ġhundreds": 6156,
      "Ġcognitive": 6157,
      "AB": 6158,
      "Ġshed": 6159,
      "atal": 6160,
      "Ġcities": 6161,
      "Ġcivil": 6162,
      "anes": 6163,
      "iler": 6164,
      "stract": 6165,
      "Ġseg": 6166,
      "ĠRet": 6167,
      "ĠNatural": 6168,
      "Ġblank": 6169,
      "Ġeffectiveness": 6170,
      "Ġnecessarily": 6171,
      "ĠPhot": 6172,
      "ĠEngland": 6173,
      "ĠGuide": 6174,
      "Ġhabitats": 6175,
      "Ġconcerned": 6176,
      "Ġbowl": 6177,
      "Ġhormone": 6178,
      "-of": 6179,
      "App": 6180,
      "iam": 6181,
      "oke": 6182,
      "ĪĴ": 6183,
      "Ġcredit": 6184,
      "eding": 6185,
      "Ġlux": 6186,
      "omfort": 6187,
      "ĠSun": 6188,
      "Ġalle": 6189,
      "Ġplus": 6190,
      "ĠFree": 6191,
      "outs": 6192,
      "ĠRuss": 6193,
      "Ġdisrupt": 6194,
      "Ġpeace": 6195,
      "Ġgrain": 6196,
      "Ġbrush": 6197,
      "Ġcurriculum": 6198,
      "Ġentry": 6199,
      "âĢ¦ĊĊ": 6200,
      "Ġpackaging": 6201,
      "Ġrecognize": 6202,
      "Ġthreads": 6203,
      "Ġemotions": 6204,
      "Ġsession": 6205,
      "nthesis": 6206,
      "\"The": 6207,
      ">>": 6208,
      "uits": 6209,
      "Ġcast": 6210,
      "Ġcake": 6211,
      "stone": 6212,
      "ĠPlease": 6213,
      "Ġchlor": 6214,
      "Ġdeer": 6215,
      "ĠDisc": 6216,
      "ague": 6217,
      "ĠOF": 6218,
      "Ġclus": 6219,
      "Ġrocks": 6220,
      "Ġenthus": 6221,
      "Ġserves": 6222,
      "Ġpractition": 6223,
      "Ġfinished": 6224,
      "Ġopposite": 6225,
      "Ġreplaced": 6226,
      "Ġselecting": 6227,
      "Ġinteractive": 6228,
      "Ġnutrient": 6229,
      "Ġbreathing": 6230,
      "Ġwonderful": 6231,
      "but": 6232,
      "then": 6233,
      "Ġsick": 6234,
      "Ġpal": 6235,
      "isition": 6236,
      "iled": 6237,
      "Ġstems": 6238,
      "ĠMain": 6239,
      "Ġenab": 6240,
      "Ġknew": 6241,
      "ĠOpt": 6242,
      "Ġunus": 6243,
      "Ġscan": 6244,
      "Ġarms": 6245,
      "Ġinstrument": 6246,
      "Ġtreating": 6247,
      "Ġmoved": 6248,
      "Ġsmoke": 6249,
      "Ġfundamental": 6250,
      "Ġimmediate": 6251,
      "Ġrenewable": 6252,
      "nel": 6253,
      "rors": 6254,
      "word": 6255,
      "Ġpond": 6256,
      "Ġhip": 6257,
      "uter": 6258,
      "Ġorgans": 6259,
      "ĠPat": 6260,
      "Ġknows": 6261,
      "ĠVe": 6262,
      "Ġvalid": 6263,
      "Ġfollows": 6264,
      "Ġcreatures": 6265,
      "overn": 6266,
      "Ġhyper": 6267,
      "Ġmovie": 6268,
      "Ġsuffering": 6269,
      "Ġstores": 6270,
      "Ġtube": 6271,
      "Ġpowder": 6272,
      "ĠTwo": 6273,
      "Or": 6274,
      "ait": 6275,
      "box": 6276,
      "rite": 6277,
      "inant": 6278,
      "reated": 6279,
      "esla": 6280,
      "Ġdough": 6281,
      "Ġweap": 6282,
      "ĠMet": 6283,
      "Ġrig": 6284,
      "ocy": 6285,
      "ĠDav": 6286,
      "Ġdetection": 6287,
      "Ġminute": 6288,
      "Ġbiology": 6289,
      "Ġsubstant": 6290,
      "Ġmathemat": 6291,
      "Ġcryst": 6292,
      "Using": 6293,
      "Ġstyles": 6294,
      "Ġconvenient": 6295,
      "Ġsector": 6296,
      "\"We": 6297,
      "NC": 6298,
      "Rel": 6299,
      "heet": 6300,
      "Ġov": 6301,
      "Ġmature": 6302,
      "Ġdial": 6303,
      "Ġdoll": 6304,
      "ĠId": 6305,
      "Ġalter": 6306,
      "ĠMich": 6307,
      "Ġseat": 6308,
      "Ġwheels": 6309,
      "Ġuniverse": 6310,
      "Ġtrad": 6311,
      "Ġphosph": 6312,
      "Ġdiagram": 6313,
      "Ġpersist": 6314,
      "Ġdistingu": 6315,
      "oidal": 6316,
      "Ġfamous": 6317,
      "Ġhygien": 6318,
      "Ġgardening": 6319,
      "Ġorigin": 6320,
      "ĠCommon": 6321,
      "Ġjoin": 6322,
      "Ġsections": 6323,
      "Ġok": 6324,
      "Ġow": 6325,
      "orter": 6326,
      "Ġfer": 6327,
      "Ġyog": 6328,
      "ĠAR": 6329,
      "Ġstars": 6330,
      "ĠBro": 6331,
      "ĠEc": 6332,
      "Ġunable": 6333,
      "Ġimpossible": 6334,
      "ĠâĢĺ": 6335,
      "Ġguard": 6336,
      "Ġexploring": 6337,
      "Ġpossibly": 6338,
      "Ġsupporting": 6339,
      "Ġdelay": 6340,
      "Ġconflic": 6341,
      "Ġresponsibility": 6342,
      "Ġbacterial": 6343,
      "Ġfarming": 6344,
      "Ġdrivers": 6345,
      "ĠMedic": 6346,
      "Ġwatching": 6347,
      "Ġalgorithm": 6348,
      "Ġschedule": 6349,
      "Ġpotatoes": 6350,
      "ĠMexico": 6351,
      "hum": 6352,
      "Â·": 6353,
      "esity": 6354,
      "Ġpark": 6355,
      "Ġlik": 6356,
      "ĠWork": 6357,
      "aint": 6358,
      "Ġrats": 6359,
      "Ġseam": 6360,
      "Ġsauce": 6361,
      "Ġtwist": 6362,
      "Ġsky": 6363,
      "Ġcorner": 6364,
      "Ġequipped": 6365,
      "Ġmoves": 6366,
      "Also": 6367,
      "ĠControl": 6368,
      "Ġmanufacturers": 6369,
      "Ġwidth": 6370,
      "Ġbranches": 6371,
      "Ġantibiotics": 6372,
      "/s": 6373,
      "Cont": 6374,
      "Get": 6375,
      "mers": 6376,
      "Ġpipe": 6377,
      "iration": 6378,
      "ods": 6379,
      "ĠCF": 6380,
      "Ġvict": 6381,
      "rix": 6382,
      "agine": 6383,
      "Ġtract": 6384,
      "berries": 6385,
      "angle": 6386,
      "Ġremark": 6387,
      "Ġtransp": 6388,
      "Ġadvoc": 6389,
      "Ġserved": 6390,
      "Ġfeelings": 6391,
      "ĠPhys": 6392,
      "Ġbulbs": 6393,
      "Ġspectrum": 6394,
      "Ġtrigger": 6395,
      "'.": 6396,
      "point": 6397,
      "esides": 6398,
      "stream": 6399,
      "aby": 6400,
      "ĠMount": 6401,
      "Ġchances": 6402,
      "ocou": 6403,
      "ĠHave": 6404,
      "Ġcompr": 6405,
      "Ġcomposition": 6406,
      "ĠOh": 6407,
      "Ġunw": 6408,
      "Ġtruth": 6409,
      "Ġamb": 6410,
      "Ġsupported": 6411,
      "Ġhappening": 6412,
      "-pro": 6413,
      "Ġflexibility": 6414,
      "ashington": 6415,
      "Ġpermanent": 6416,
      ".[": 6417,
      "Rec": 6418,
      "Where": 6419,
      "cule": 6420,
      "ford": 6421,
      "uing": 6422,
      "ĠAng": 6423,
      "ulent": 6424,
      "Ġprol": 6425,
      "illa": 6426,
      "ĠMa": 6427,
      "Ġride": 6428,
      "Ġket": 6429,
      "Ġmanner": 6430,
      "Ġages": 6431,
      "Ġcarp": 6432,
      "Ġarticles": 6433,
      "Ġexperiencing": 6434,
      "Ġsustainability": 6435,
      "Ġtrouble": 6436,
      "Ġdigestive": 6437,
      "erenn": 6438,
      "-ch": 6439,
      "64": 6440,
      "98": 6441,
      "cher": 6442,
      "case": 6443,
      "inn": 6444,
      "opic": 6445,
      "ĠPol": 6446,
      "alled": 6447,
      "Ġclients": 6448,
      "Ġapparent": 6449,
      "Ġfeels": 6450,
      "Ġrace": 6451,
      "Ġformula": 6452,
      "Ġleader": 6453,
      "Ġwarming": 6454,
      "Ġperfectly": 6455,
      "Ġspeaking": 6456,
      "Ġfractures": 6457,
      "Ġdiagnosis": 6458,
      "Ġcomplications": 6459,
      "49": 6460,
      "Me": 6461,
      "Other": 6462,
      "lus": 6463,
      "pm": 6464,
      "Ġgent": 6465,
      "Ġclothes": 6466,
      "Ġunderlying": 6467,
      "Ġminerals": 6468,
      "Ġgrains": 6469,
      "Ġdownload": 6470,
      "Ġdirector": 6471,
      "ĠScient": 6472,
      "Ġsecondary": 6473,
      "Ġmarketing": 6474,
      "Ġtrends": 6475,
      "ĠSuper": 6476,
      "ĠGerman": 6477,
      "Ġparameters": 6478,
      "RI": 6479,
      "cil": 6480,
      "fit": 6481,
      "Ġcere": 6482,
      "Ġcaught": 6483,
      "Ġpaid": 6484,
      "Ġbrows": 6485,
      "Ġfather": 6486,
      "Ġinch": 6487,
      "roid": 6488,
      "Ġlbs": 6489,
      "iders": 6490,
      "ĠTable": 6491,
      "ĠTime": 6492,
      "ĠRob": 6493,
      "Ġmanaged": 6494,
      "Ġaccompl": 6495,
      "Ġinsurance": 6496,
      "Ġdiscomfort": 6497,
      "Ġvolunte": 6498,
      "Ġteams": 6499,
      "Ġmillions": 6500,
      "Ġpredators": 6501,
      "Ġholding": 6502,
      "Ġparticipate": 6503,
      "Ġcontinuous": 6504,
      "ĠRegular": 6505,
      "Ġindustries": 6506,
      "Ġinterface": 6507,
      "Ġsexual": 6508,
      "Ġmissing": 6509,
      "Ġcategory": 6510,
      "Ġexpertise": 6511,
      "Ġalgorithms": 6512,
      "\"Ċ": 6513,
      "-res": 6514,
      "72": 6515,
      "down": 6516,
      "Ġpul": 6517,
      "Ġbond": 6518,
      "orrect": 6519,
      "Ġinhib": 6520,
      "Ġgardens": 6521,
      "emia": 6522,
      "lder": 6523,
      "Ġchosen": 6524,
      "Ġshift": 6525,
      "ograp": 6526,
      "ĠLED": 6527,
      "Ġwash": 6528,
      "nee": 6529,
      "ontal": 6530,
      "Ġproductivity": 6531,
      "Ġfinish": 6532,
      "Ġspeak": 6533,
      "Ġeconomy": 6534,
      "Ġecosystems": 6535,
      "AA": 6536,
      "lin": 6537,
      "ora": 6538,
      "Ġmice": 6539,
      "Ġhorses": 6540,
      "Ġlibrary": 6541,
      "ota": 6542,
      "olt": 6543,
      "ĠFurthermore": 6544,
      "Ġresistant": 6545,
      "ĠUnderstanding": 6546,
      "Ġrelief": 6547,
      "ĠChoose": 6548,
      "Ġsolve": 6549,
      "ommon": 6550,
      "Ġprevention": 6551,
      "Ġconsumer": 6552,
      "Ġauthority": 6553,
      "Ġultimately": 6554,
      "haust": 6555,
      "Ġculinary": 6556,
      "-off": 6557,
      "Tra": 6558,
      "rial": 6559,
      "reate": 6560,
      "eras": 6561,
      "Ġwal": 6562,
      "Ġpine": 6563,
      "Ġbiod": 6564,
      "ether": 6565,
      "Ġgone": 6566,
      "amins": 6567,
      "ocity": 6568,
      "aped": 6569,
      "Ġdecay": 6570,
      "Ġauthors": 6571,
      "Ġrefrig": 6572,
      "Ġsitting": 6573,
      "ographic": 6574,
      "Ġbalanced": 6575,
      "Â°C": 6576,
      "Ġcommitment": 6577,
      "Ġreceptor": 6578,
      "Ġchannel": 6579,
      "Ġveterinarian": 6580,
      ".C": 6581,
      "PT": 6582,
      "Water": 6583,
      "bur": 6584,
      "tical": 6585,
      "Ġtor": 6586,
      "Ġfav": 6587,
      "Ġrely": 6588,
      "Ġbear": 6589,
      "uts": 6590,
      "ĠAC": 6591,
      "Ġvill": 6592,
      "ĠPot": 6593,
      "ĠPsych": 6594,
      "arts": 6595,
      "riers": 6596,
      "Ġintest": 6597,
      "ĠOb": 6598,
      "Ġoutcome": 6599,
      "Ġmanual": 6600,
      "avy": 6601,
      "ondon": 6602,
      "ĠKing": 6603,
      "Ġcheap": 6604,
      "Ġstudying": 6605,
      "Ġgreatly": 6606,
      "ĠArch": 6607,
      "ĠColor": 6608,
      "Ġburning": 6609,
      "Ġdomain": 6610,
      "></": 6611,
      "Ġeliminate": 6612,
      "Ġkidney": 6613,
      "Ġdynamic": 6614,
      "ĠFoundation": 6615,
      "-E": 6616,
      "-day": 6617,
      "Read": 6618,
      "Ġath": 6619,
      "eries": 6620,
      "atur": 6621,
      "Ġwrote": 6622,
      "Ġasking": 6623,
      "ading": 6624,
      "ĠBird": 6625,
      "Ġspray": 6626,
      "ĠHand": 6627,
      "ĠInf": 6628,
      "Ġoverw": 6629,
      "Ġeveryday": 6630,
      "Ġfacing": 6631,
      "ĠĠĠ": 6632,
      "ĠAcad": 6633,
      "Ġhistorical": 6634,
      "Ġvibrant": 6635,
      "Ġdatabase": 6636,
      "ĠForest": 6637,
      "eut": 6638,
      "Ġtough": 6639,
      "icit": 6640,
      "ĠWashington": 6641,
      "Ġusage": 6642,
      "Ġcompat": 6643,
      "Ġstudied": 6644,
      "Ġhummingbird": 6645,
      "Ġauto": 6646,
      "ĠThus": 6647,
      "atching": 6648,
      "ugs": 6649,
      "Ġbelief": 6650,
      "Ġrealize": 6651,
      "Ġnuts": 6652,
      "Ġbiom": 6653,
      "ĠClass": 6654,
      "ounced": 6655,
      "ĠAtt": 6656,
      "Ġgradually": 6657,
      "Ġplatforms": 6658,
      "Ġcollaboration": 6659,
      "Ġacademic": 6660,
      "Ġpolitical": 6661,
      "allel": 6662,
      "Ġpolicies": 6663,
      "63": 6664,
      "97": 6665,
      "BD": 6666,
      "SC": 6667,
      "from": 6668,
      "pat": 6669,
      "rical": 6670,
      "uous": 6671,
      "oral": 6672,
      "orge": 6673,
      "Ġgroom": 6674,
      "eling": 6675,
      "Ġconvert": 6676,
      "terior": 6677,
      "ummy": 6678,
      "Ġhealing": 6679,
      "Ġweigh": 6680,
      "ecess": 6681,
      "Ġsuit": 6682,
      "Ġenables": 6683,
      "Ġreli": 6684,
      "Ġvariant": 6685,
      "Ġdefine": 6686,
      "Ġengaging": 6687,
      "Ġcalm": 6688,
      "Ġharder": 6689,
      "Ġcontainers": 6690,
      "Ġheads": 6691,
      "Ġbigger": 6692,
      "ĠAtl": 6693,
      "Ġresponses": 6694,
      "Ġloop": 6695,
      "Ġlenses": 6696,
      "Ġbehaviour": 6697,
      "Ġvertical": 6698,
      "54": 6699,
      "aul": 6700,
      "zym": 6701,
      "ÂŃ": 6702,
      "Ġtaught": 6703,
      "Ġonions": 6704,
      "ĠCat": 6705,
      "Ġdrinks": 6706,
      "Ġfocusing": 6707,
      "azon": 6708,
      "Ġdescribes": 6709,
      "Ġframew": 6710,
      "Ġcalculate": 6711,
      "Ġoutdoors": 6712,
      "ĠProfessor": 6713,
      "medi": 6714,
      "uber": 6715,
      "Ġ{": 6716,
      "Ġcas": 6717,
      "ndrome": 6718,
      "Ġmir": 6719,
      "ented": 6720,
      "Ġlapt": 6721,
      "etite": 6722,
      "imens": 6723,
      "ĠTreat": 6724,
      "irty": 6725,
      "amps": 6726,
      "mented": 6727,
      "ĠHaw": 6728,
      "Ġabilities": 6729,
      "pling": 6730,
      "Ġjew": 6731,
      "Ġreserv": 6732,
      "Ġaccomp": 6733,
      "Ġgenome": 6734,
      "Ġinvasive": 6735,
      "Ġgenerator": 6736,
      "Ġprotocol": 6737,
      "Ġeleph": 6738,
      "Ġscientist": 6739,
      "ĠConst": 6740,
      "Ġsuffer": 6741,
      "Ġaudience": 6742,
      "Ġincreasingly": 6743,
      "Ġmagnetic": 6744,
      "Ġmountain": 6745,
      "Ġnuclear": 6746,
      "ĠChildren": 6747,
      "Ġnervous": 6748,
      "Ġversatile": 6749,
      "57": 6750,
      "59": 6751,
      "AQ": 6752,
      "ikes": 6753,
      "Ġske": 6754,
      "Ġpand": 6755,
      "Ġhidden": 6756,
      "Ġlinks": 6757,
      "ĠTom": 6758,
      "ĠTesla": 6759,
      "Ġchapter": 6760,
      "Ġchocolate": 6761,
      "ocation": 6762,
      "ĠLa": 6763,
      "ĠâĢ¢": 6764,
      "oving": 6765,
      "ritis": 6766,
      "Ġguarant": 6767,
      "Ġsignificance": 6768,
      "ĠPhil": 6769,
      "riction": 6770,
      "Ġmoral": 6771,
      "ĠChristmas": 6772,
      "ĠHuman": 6773,
      "Ġadequate": 6774,
      "Ġunusual": 6775,
      "Understanding": 6776,
      "Ġaward": 6777,
      "Ġbite": 6778,
      "Ġrect": 6779,
      "Ġreached": 6780,
      "estic": 6781,
      "advant": 6782,
      "ĠCour": 6783,
      "acific": 6784,
      "ĠLight": 6785,
      "ĠLondon": 6786,
      "Ġknowing": 6787,
      "Ġphilos": 6788,
      "Ġwhereas": 6789,
      "Ġattacks": 6790,
      "Ġinstrum": 6791,
      "Ġbrings": 6792,
      "Ġhandling": 6793,
      "eech": 6794,
      "Ġimprovement": 6795,
      "Ġengineers": 6796,
      "escription": 6797,
      "bohyd": 6798,
      "Ġfunding": 6799,
      "Ġprinted": 6800,
      "Ġdurability": 6801,
      "Ġnitrogen": 6802,
      "Ġtrauma": 6803,
      "Does": 6804,
      "TH": 6805,
      "top": 6806,
      "Ġcow": 6807,
      "Ġbought": 6808,
      "Ġfox": 6809,
      "Ġrept": 6810,
      "Ġyes": 6811,
      "ĠIr": 6812,
      "Ġaluminum": 6813,
      "Ġexhaust": 6814,
      "ĠPort": 6815,
      "Ġshock": 6816,
      "Ġcomprom": 6817,
      "angered": 6818,
      "Ġgravity": 6819,
      "Ġgenerations": 6820,
      "Ġbreeds": 6821,
      "Ġpolar": 6822,
      "Ġprofile": 6823,
      "Ġfunctionality": 6824,
      "Ġlistening": 6825,
      "Ġwarrant": 6826,
      "ĠWestern": 6827,
      "Ġtomatoes": 6828,
      "Ġlaboratory": 6829,
      "ocouple": 6830,
      "DC": 6831,
      "IF": 6832,
      "Lear": 6833,
      "fill": 6834,
      "pes": 6835,
      "heck": 6836,
      "Ġsac": 6837,
      "Ġdow": 6838,
      "arge": 6839,
      "ctic": 6840,
      "Ġlived": 6841,
      "Ġlaser": 6842,
      "igue": 6843,
      "ĠIce": 6844,
      "ĠPract": 6845,
      "ĠNature": 6846,
      "ĠNeed": 6847,
      "Ġappoint": 6848,
      "ricks": 6849,
      "Ġagents": 6850,
      "Ġsubsequ": 6851,
      "Ġmineral": 6852,
      "Ġgluc": 6853,
      "Ġpurs": 6854,
      "Ġserver": 6855,
      "liance": 6856,
      "Ġvegetation": 6857,
      "Ġturb": 6858,
      "Ġproposed": 6859,
      "Add": 6860,
      "Ġaims": 6861,
      "Ġfrost": 6862,
      "operative": 6863,
      "Ġnetworks": 6864,
      "zed": 6865,
      "Ġtons": 6866,
      "Ġpizza": 6867,
      "Ġfo": 6868,
      "Ġease": 6869,
      "Ġlip": 6870,
      "Ġgro": 6871,
      "ĠTem": 6872,
      "Ġancest": 6873,
      "ĠWood": 6874,
      "arded": 6875,
      "Ġscene": 6876,
      "Ġinterview": 6877,
      "ĠChange": 6878,
      "Ġcontroller": 6879,
      "roductive": 6880,
      "Ġassembly": 6881,
      "-v": 6882,
      "PA": 6883,
      "lings": 6884,
      "Ġ?": 6885,
      "ini": 6886,
      "Ġpipes": 6887,
      "Ġmath": 6888,
      "Ġduration": 6889,
      "Ġlake": 6890,
      "Ġyouth": 6891,
      "ims": 6892,
      "imental": 6893,
      "ĠCam": 6894,
      "Ġdoors": 6895,
      "Ġcompact": 6896,
      "agues": 6897,
      "ĠLong": 6898,
      "ĠLake": 6899,
      "eping": 6900,
      "ĠChinese": 6901,
      "Ġmeters": 6902,
      "ĠGuinea": 6903,
      "Ġembra": 6904,
      "Ġrotation": 6905,
      "Ġdocuments": 6906,
      "Ġpriorit": 6907,
      "Ġvitamins": 6908,
      "zyme": 6909,
      "Ġcampaign": 6910,
      "88": 6911,
      "GB": 6912,
      "LS": 6913,
      "Ġ>": 6914,
      "Ġtag": 6915,
      "Ġtrick": 6916,
      "hent": 6917,
      "Ġsoph": 6918,
      "Ġreb": 6919,
      "using": 6920,
      "Ġbeans": 6921,
      "utive": 6922,
      "unning": 6923,
      "Ġheater": 6924,
      "ĠPap": 6925,
      "izers": 6926,
      "iber": 6927,
      "Ġsurge": 6928,
      "Ġvariables": 6929,
      "Ġrobust": 6930,
      "while": 6931,
      "ĠFrance": 6932,
      "Ġrarely": 6933,
      "Ġrubber": 6934,
      "Ġachieved": 6935,
      "Ġembodiment": 6936,
      "66": 6937,
      "Every": 6938,
      "Le": 6939,
      "Ġson": 6940,
      "Ġcav": 6941,
      "Ġperenn": 6942,
      "Ġdairy": 6943,
      "asant": 6944,
      "ĠTru": 6945,
      "stances": 6946,
      "Ġstated": 6947,
      "Ġhem": 6948,
      "ĠMass": 6949,
      "ĠDog": 6950,
      "Ġcompl": 6951,
      "ĠList": 6952,
      "Ġouter": 6953,
      "Ġconscious": 6954,
      "Ġrecipes": 6955,
      "Ġvector": 6956,
      "Ġlimits": 6957,
      "Ġparallel": 6958,
      "Ġcomputing": 6959,
      "Ġprotecting": 6960,
      "ouncil": 6961,
      "Ġmolecule": 6962,
      "Ġgarlic": 6963,
      "Ġastron": 6964,
      "ĠTHE": 6965,
      "ĠMedicine": 6966,
      "Of": 6967,
      "iology": 6968,
      "sm": 6969,
      "Ġwound": 6970,
      "Ġmere": 6971,
      "asters": 6972,
      "Ġongoing": 6973,
      "abs": 6974,
      "Ġweeds": 6975,
      "ĠMach": 6976,
      "Ġleather": 6977,
      "ĠRight": 6978,
      "Ġkilled": 6979,
      "Ġassume": 6980,
      "Ġextend": 6981,
      "-by": 6982,
      "ĠThose": 6983,
      "Ġconditioner": 6984,
      "Which": 6985,
      "Ġcovering": 6986,
      "Ġfitness": 6987,
      "Ġaggressive": 6988,
      "ogenic": 6989,
      "Ġjuice": 6990,
      "Ġneighb": 6991,
      "ĠCounty": 6992,
      "Ġgentle": 6993,
      "62": 6994,
      "Make": 6995,
      "Ġfa": 6996,
      "Ġmood": 6997,
      "Ġtown": 6998,
      "Ġlift": 6999,
      "olk": 7000,
      "Ġweed": 7001,
      "ĠPress": 7002,
      "ĠHouse": 7003,
      "Ġwheat": 7004,
      "ogether": 7005,
      "Ġintense": 7006,
      "Ġevolved": 7007,
      "Ġblend": 7008,
      "Ġwatering": 7009,
      "Ġflash": 7010,
      "Ġrays": 7011,
      "Ġinfest": 7012,
      "Ġeastern": 7013,
      "Ġanalog": 7014,
      "Ġsales": 7015,
      "Ġreasonable": 7016,
      "Ġincorporate": 7017,
      "ĠInternet": 7018,
      "ĠAvoid": 7019,
      "Ġfascinating": 7020,
      "HO": 7021,
      "TR": 7022,
      "rink": 7023,
      "ĠÎ": 7024,
      "Ġcotton": 7025,
      "itches": 7026,
      "Ġbass": 7027,
      "thritis": 7028,
      "ĠMot": 7029,
      "Ġchair": 7030,
      "althy": 7031,
      "arium": 7032,
      "Ġpriv": 7033,
      "Ġchest": 7034,
      "Ġexamine": 7035,
      "Ġgrand": 7036,
      "Ġbreaking": 7037,
      "ĠProv": 7038,
      "iox": 7039,
      "Ġengines": 7040,
      "Ġdirections": 7041,
      "ĠSpace": 7042,
      "Ġeco": 7043,
      "Ġsensitivity": 7044,
      "Ġnearby": 7045,
      "Ġstronger": 7046,
      "Ġyounger": 7047,
      "ĠOnly": 7048,
      "Ġwarning": 7049,
      "Ġrecommendations": 7050,
      "ĠMoreover": 7051,
      "ĠManagement": 7052,
      "Ġmitig": 7053,
      "71": 7054,
      "During": 7055,
      "wass": 7056,
      "inity": 7057,
      "Ġcables": 7058,
      "Ġpink": 7059,
      "Ġfant": 7060,
      "ounce": 7061,
      "Ġlies": 7062,
      "uses": 7063,
      "ĠTur": 7064,
      "Ġstraw": 7065,
      "ĠSl": 7066,
      "Ġusual": 7067,
      "ĠHistory": 7068,
      "ĠEss": 7069,
      "Ġking": 7070,
      "Ġresil": 7071,
      "efits": 7072,
      "Ġchildhood": 7073,
      "Ġformal": 7074,
      "Ġserving": 7075,
      "-sc": 7076,
      "Ġvisitors": 7077,
      "Ġattractive": 7078,
      "iatric": 7079,
      "Ġbattle": 7080,
      "Ġmicrow": 7081,
      "Ġgaming": 7082,
      "Ġwestern": 7083,
      "ĠEngineering": 7084,
      "-T": 7085,
      "MO": 7086,
      "Ġwed": 7087,
      "Ġfault": 7088,
      "Ġfisher": 7089,
      "alysis": 7090,
      "Ġmask": 7091,
      "usiness": 7092,
      "ĠTry": 7093,
      "elly": 7094,
      "Ġconventional": 7095,
      "heric": 7096,
      "Ġrivers": 7097,
      "ĠBre": 7098,
      "ĠBest": 7099,
      "rian": 7100,
      "Ġbutt": 7101,
      "ĠStr": 7102,
      "Ġrelation": 7103,
      "cycle": 7104,
      "Ġhumidity": 7105,
      "Ġextent": 7106,
      "Ġcreativity": 7107,
      "afe": 7108,
      "Ġdetermining": 7109,
      "Ġchemistry": 7110,
      "Ġdrops": 7111,
      "Ġdimensions": 7112,
      "Ġcomplicated": 7113,
      "Ġderived": 7114,
      "Ġenthusi": 7115,
      "zymes": 7116,
      "89": 7117,
      "HU": 7118,
      "PE": 7119,
      "rid": 7120,
      "onal": 7121,
      "atin": 7122,
      "Ġcraw": 7123,
      "Ġpock": 7124,
      "Ġnail": 7125,
      "ĠSk": 7126,
      "ĠMiss": 7127,
      "Ġdealing": 7128,
      "ĠDel": 7129,
      "ĠFish": 7130,
      "agen": 7131,
      "Ġpeak": 7132,
      "angar": 7133,
      "weed": 7134,
      "Ġgloves": 7135,
      "Ġbreaks": 7136,
      "ĠPlay": 7137,
      "ĠClub": 7138,
      "ĠClimate": 7139,
      "Ġgrounds": 7140,
      "Ġpackage": 7141,
      "Ġalternatives": 7142,
      "Ġthreats": 7143,
      "Ġrevolution": 7144,
      "Ġresidents": 7145,
      "Ġhazard": 7146,
      "Ġinterpret": 7147,
      "Even": 7148,
      "Pe": 7149,
      "inch": 7150,
      "Ġdive": 7151,
      "Ġrear": 7152,
      "Ġreaching": 7153,
      "ĠDise": 7154,
      "ĠRock": 7155,
      "Ġbuff": 7156,
      "Ġsupplements": 7157,
      "Ġairport": 7158,
      "Ġexploration": 7159,
      "ĠThanks": 7160,
      "Ġconsuming": 7161,
      "print": 7162,
      "Ġdifficulty": 7163,
      "Who": 7164,
      "Ġpersonalized": 7165,
      "coming": 7166,
      "Ġapplies": 7167,
      "ivalent": 7168,
      "ASA": 7169,
      "aughter": 7170,
      "Â°F": 7171,
      "ENT": 7172,
      "Ġfrozen": 7173,
      "Ġpregnant": 7174,
      "Ġthoroughly": 7175,
      "Ġhouses": 7176,
      "Ġpassengers": 7177,
      "Ġvulnerable": 7178,
      "56": 7179,
      "67": 7180,
      "Gu": 7181,
      "MS": 7182,
      "volution": 7183,
      "Ġtape": 7184,
      "Ġcircle": 7185,
      "Ġbinding": 7186,
      "Ġreward": 7187,
      "olph": 7188,
      "Ġstroke": 7189,
      "Ġshore": 7190,
      "ĠFind": 7191,
      "ĠUnder": 7192,
      "Ġcoverage": 7193,
      "Ġempt": 7194,
      "Ġcouldn": 7195,
      "Ġobesity": 7196,
      "Ġpersonality": 7197,
      "Ġdepos": 7198,
      "Ġidentification": 7199,
      "Ġhimself": 7200,
      "ĠConn": 7201,
      "Ġenhancing": 7202,
      "Ġmenu": 7203,
      "Ġdemonstrate": 7204,
      "Ġconversation": 7205,
      "Ġcategories": 7206,
      "Ġpromoting": 7207,
      "Ġlandscap": 7208,
      "Ġacquisition": 7209,
      "Ġtomato": 7210,
      "Ġcrusher": 7211,
      "Ġphenomenon": 7212,
      ");": 7213,
      "Just": 7214,
      "Â®": 7215,
      "Ġtack": 7216,
      "Ġtick": 7217,
      "Ġloud": 7218,
      "Ġgly": 7219,
      "Ġgap": 7220,
      "ĠSol": 7221,
      "ĠPost": 7222,
      "ĠMal": 7223,
      "Ġdoctors": 7224,
      "ĠNorthern": 7225,
      "Ġunknown": 7226,
      "Ġtheme": 7227,
      "Ġpartner": 7228,
      "Ġoverl": 7229,
      "ooked": 7230,
      "Ġregister": 7231,
      "Ġcarbohyd": 7232,
      "obal": 7233,
      "Ġvariations": 7234,
      "egin": 7235,
      "ĠProper": 7236,
      "ĠPlace": 7237,
      "ĠShould": 7238,
      "ĠAND": 7239,
      "ĠEnvironmental": 7240,
      "Ġexplanation": 7241,
      "Ġvelocity": 7242,
      "Ġnarrow": 7243,
      ",ĊĊ": 7244,
      "78": 7245,
      "mal": 7246,
      "normal": 7247,
      "inent": 7248,
      "eram": 7249,
      "erally": 7250,
      "ometer": 7251,
      "Ġbeet": 7252,
      "otes": 7253,
      "anta": 7254,
      "mentation": 7255,
      "ĠHard": 7256,
      "Ġcontents": 7257,
      "ĠOcean": 7258,
      "ĠStand": 7259,
      "Ġremed": 7260,
      "Ġvariation": 7261,
      "Ġentities": 7262,
      "Ġcharged": 7263,
      "ĠAnimal": 7264,
      "Ġconfident": 7265,
      "Ġretail": 7266,
      "Ġfocuses": 7267,
      "Ġcultures": 7268,
      "Ġtells": 7269,
      "flies": 7270,
      "Ġcalculated": 7271,
      "Ġcarrying": 7272,
      "Ġexecution": 7273,
      "Ġnucleus": 7274,
      "Ġcorresponding": 7275,
      "ĠSafety": 7276,
      "Because": 7277,
      "Sub": 7278,
      "bow": 7279,
      "gent": 7280,
      "Ġaf": 7281,
      "esium": 7282,
      "Ġwax": 7283,
      "osal": 7284,
      "ĠPublic": 7285,
      "alls": 7286,
      "Ġwashing": 7287,
      "Ġteen": 7288,
      "Ġtech": 7289,
      "Ġquiet": 7290,
      "Ġsomewhere": 7291,
      "Ġcolumn": 7292,
      "ubble": 7293,
      "Ġacts": 7294,
      "Ġexpans": 7295,
      "Ġsupposed": 7296,
      "Ġdesigners": 7297,
      "eeding": 7298,
      "Ġidentifying": 7299,
      "Ġdried": 7300,
      "Ġsuscept": 7301,
      "Ġdeaths": 7302,
      "Ġgraphics": 7303,
      "Ġleadership": 7304,
      "such": 7305,
      "Ġtire": 7306,
      "Ġsch": 7307,
      "Ġcust": 7308,
      "Ġcater": 7309,
      "Ġpix": 7310,
      "amil": 7311,
      "ĠGroup": 7312,
      "Ġlargely": 7313,
      "-cl": 7314,
      "Ġconsideration": 7315,
      "Ġavailability": 7316,
      "Ġidentity": 7317,
      "Ġcuts": 7318,
      "Ġaffecting": 7319,
      "Ġviews": 7320,
      "Ġharness": 7321,
      "Ġrespectively": 7322,
      "Phone": 7323,
      "Ġutilize": 7324,
      "Share": 7325,
      "Ġliterature": 7326,
      "Ġnutritional": 7327,
      "Ġinstruments": 7328,
      "EO": 7329,
      "IR": 7330,
      "Per": 7331,
      "TP": 7332,
      "UR": 7333,
      "Ġtel": 7334,
      "rem": 7335,
      "Ġcop": 7336,
      "oured": 7337,
      "Ġindu": 7338,
      "otive": 7339,
      "ĠIll": 7340,
      "Ġprove": 7341,
      "ĠSn": 7342,
      "ĠPan": 7343,
      "ĠRoman": 7344,
      "Ġsole": 7345,
      "ĠOld": 7346,
      "Ġsched": 7347,
      "ĠJo": 7348,
      "othing": 7349,
      "Ġintervention": 7350,
      "Ġsurgical": 7351,
      "ribed": 7352,
      "Ġsket": 7353,
      "Ġclassic": 7354,
      "Ġgrid": 7355,
      "ĠPlants": 7356,
      "Ġencounter": 7357,
      "ĠNews": 7358,
      "reshold": 7359,
      "Ġmicrosc": 7360,
      "Ġsquirrel": 7361,
      "Ġpreparing": 7362,
      "Ġmechanisms": 7363,
      "----------------": 7364,
      "Ġdiameter": 7365,
      "Ġstreet": 7366,
      "Ġspiritual": 7367,
      "Ġcircumstances": 7368,
      "Ġgalax": 7369,
      "(s": 7370,
      "Go": 7371,
      "gal": 7372,
      "wo": 7373,
      "erator": 7374,
      "Ġcards": 7375,
      "itative": 7376,
      "Ġthrow": 7377,
      "etal": 7378,
      "amination": 7379,
      "osc": 7380,
      "Ġshorter": 7381,
      "Ġperce": 7382,
      "Ġappetite": 7383,
      "Ġourselves": 7384,
      "Ġdecline": 7385,
      "Ġdetected": 7386,
      "Ġpreserve": 7387,
      "Ġconclud": 7388,
      "Ġdelicate": 7389,
      "lessly": 7390,
      "Ġpassion": 7391,
      "ĠReview": 7392,
      "onomic": 7393,
      "Ġexistence": 7394,
      "Ġfuels": 7395,
      "Ġtotally": 7396,
      "Ġconnecting": 7397,
      "ĠWorks": 7398,
      "Ġrepresented": 7399,
      "Ġintegr": 7400,
      "Ġevaluate": 7401,
      "Ġcolleagues": 7402,
      "Ġgraduate": 7403,
      "Ġrepeated": 7404,
      "Ġvessels": 7405,
      "Related": 7406,
      "MP": 7407,
      "lined": 7408,
      "night": 7409,
      "tuce": 7410,
      "eric": 7411,
      "esus": 7412,
      "ingly": 7413,
      "Ġpill": 7414,
      "ashes": 7415,
      "imp": 7416,
      "amine": 7417,
      "adian": 7418,
      "ĠMor": 7419,
      "ĠMill": 7420,
      "ĠMult": 7421,
      "Ġran": 7422,
      "Ġspending": 7423,
      "ĠDiv": 7424,
      "ĠFollow": 7425,
      "Ġclock": 7426,
      "Ġscope": 7427,
      "anged": 7428,
      "ĠKore": 7429,
      "Ġrequirement": 7430,
      "Ġengagement": 7431,
      "espan": 7432,
      "ĠAdv": 7433,
      "Ġphotograp": 7434,
      "ĠAmericans": 7435,
      "Ġcameras": 7436,
      "Ġdietary": 7437,
      "-making": 7438,
      "Ġgrey": 7439,
      "ĠZone": 7440,
      "Ġsteam": 7441,
      "Ġlaunch": 7442,
      "Ġinitially": 7443,
      "Ġprecision": 7444,
      "Ġrecognized": 7445,
      "ĠApple": 7446,
      "ĠAmazon": 7447,
      "Ġcandid": 7448,
      "Ġglucose": 7449,
      "68": 7450,
      "Have": 7451,
      "Pr": 7452,
      "aj": 7453,
      "col": 7454,
      "green": 7455,
      "Ġion": 7456,
      "Ġfriction": 7457,
      "Ġdil": 7458,
      "Ġdense": 7459,
      "Ġrehab": 7460,
      "otal": 7461,
      "ĠTer": 7462,
      "rac": 7463,
      "ĠAS": 7464,
      "ĠAcc": 7465,
      "ĠID": 7466,
      "ĠDef": 7467,
      "ĠNASA": 7468,
      "ĠGovern": 7469,
      "Ġsoap": 7470,
      "Ġunf": 7471,
      "Ġunn": 7472,
      "Ġdied": 7473,
      "venue": 7474,
      "Ġpositions": 7475,
      "Ġforeign": 7476,
      "Ġmodeling": 7477,
      "ĠUSA": 7478,
      "Ġpropag": 7479,
      "Ġsurprising": 7480,
      "ĠSimilar": 7481,
      "comp": 7482,
      "tt": 7483,
      "Ġfilling": 7484,
      "icity": 7485,
      "Ġgiant": 7486,
      "olves": 7487,
      "ĠSqu": 7488,
      "abil": 7489,
      "Ġcomments": 7490,
      "ĠMo": 7491,
      "Ġsucc": 7492,
      "Ġenzyme": 7493,
      "Ġatoms": 7494,
      "Ġplot": 7495,
      "ogical": 7496,
      "ruit": 7497,
      "Ġclay": 7498,
      "Ġampl": 7499,
      "Ġhealthier": 7500,
      "Ġtransplant": 7501,
      "Ġperforming": 7502,
      "brid": 7503,
      "Ġfunctioning": 7504,
      "Ġfilters": 7505,
      "Ġestimate": 7506,
      "Ġabsence": 7507,
      "Ġlaun": 7508,
      "Ġconcentrations": 7509,
      "Ġprinciple": 7510,
      "Ġfertilizer": 7511,
      "expected": 7512,
      "Ġsodium": 7513,
      "Ġcomparison": 7514,
      "Ġdentist": 7515,
      "Ġabsolutely": 7516,
      "Ġoverwhel": 7517,
      "-A": 7518,
      ".m": 7519,
      "FET": 7520,
      "bed": 7521,
      "born": 7522,
      "power": 7523,
      "Ġcred": 7524,
      "Ġwiring": 7525,
      "Ġpra": 7526,
      "Ġbon": 7527,
      "Ġgau": 7528,
      "Ġbeef": 7529,
      "idal": 7530,
      "ceans": 7531,
      "Ġstuck": 7532,
      "Ġcann": 7533,
      "Ġshrim": 7534,
      "ria": 7535,
      "Ġabuse": 7536,
      "ĠLim": 7537,
      "Ġclar": 7538,
      "ĠUr": 7539,
      "Ġflies": 7540,
      "Ġtreats": 7541,
      "Ġflowering": 7542,
      "Ġorganized": 7543,
      "ĠIsland": 7544,
      "-life": 7545,
      "Ġobserve": 7546,
      "Ġintroduce": 7547,
      "Ġrobots": 7548,
      "Ġboxes": 7549,
      "onnect": 7550,
      "ĠSwed": 7551,
      "Ġpenet": 7552,
      "Ġfingers": 7553,
      "About": 7554,
      "ĠSMHU": 7555,
      "Ġunderstood": 7556,
      "ioxid": 7557,
      "-P": 7558,
      "-old": 7559,
      "/d": 7560,
      "58": 7561,
      "Red": 7562,
      "Sim": 7563,
      "ham": 7564,
      "hand": 7565,
      "rass": 7566,
      "Ġ**": 7567,
      "Ġwra": 7568,
      "itage": 7569,
      "itness": 7570,
      "Ġtoys": 7571,
      "Ġharsh": 7572,
      "Ġlighter": 7573,
      "Ġnor": 7574,
      "ola": 7575,
      "Ġwithstand": 7576,
      "ĠCor": 7577,
      "Ġlect": 7578,
      "Ġprevents": 7579,
      "Ġsynthetic": 7580,
      "Ġtraits": 7581,
      "Ġindoors": 7582,
      "Ġshouldn": 7583,
      "Ġinfected": 7584,
      "Ġpersons": 7585,
      "Ġgreatest": 7586,
      "Ġcentre": 7587,
      "Ġlearners": 7588,
      "Ġversus": 7589,
      "Ġirrig": 7590,
      "Ġbrands": 7591,
      "Ġcommitted": 7592,
      "Ġaccurately": 7593,
      "Ġincorporating": 7594,
      "Ġrevealed": 7595,
      "Ġcitiz": 7596,
      "igenous": 7597,
      "76": 7598,
      "82": 7599,
      "Up": 7600,
      "Well": 7601,
      "iage": 7602,
      "rin": 7603,
      "ras": 7604,
      "ani": 7605,
      "Ġdrought": 7606,
      "icide": 7607,
      "Ġhide": 7608,
      "Ġbeach": 7609,
      "ĠTool": 7610,
      "ĠSet": 7611,
      "ĠPacific": 7612,
      "riage": 7613,
      "ĠEqu": 7614,
      "Ġresc": 7615,
      "Ġunexpected": 7616,
      "Ġroles": 7617,
      "Ġproven": 7618,
      "Ġwellness": 7619,
      "Ġbugs": 7620,
      "Inst": 7621,
      "Ġformer": 7622,
      "iances": 7623,
      "Ġauthent": 7624,
      "Ġsafer": 7625,
      "Ġdefault": 7626,
      "Ġsoils": 7627,
      "Ġheavily": 7628,
      "Ġcompetitive": 7629,
      "Ġpurchasing": 7630,
      "Ġdistributed": 7631,
      "Ġfinger": 7632,
      "Ġbottle": 7633,
      "ĠJournal": 7634,
      "Ġremarkable": 7635,
      "Ġjewel": 7636,
      "OC": 7637,
      "gu": 7638,
      "ĠÃ": 7639,
      "heets": 7640,
      "reens": 7641,
      "ilitation": 7642,
      "rav": 7643,
      "ĠAP": 7644,
      "Ġproof": 7645,
      "ĠCut": 7646,
      "Ġvaries": 7647,
      "ĠMag": 7648,
      "ĠMont": 7649,
      "duate": 7650,
      "Ġcomposed": 7651,
      "ĠNon": 7652,
      "ĠLaw": 7653,
      "Ġdischarge": 7654,
      "erts": 7655,
      "Ġrelig": 7656,
      "Ġinstant": 7657,
      "Ġtempl": 7658,
      "Ġdelight": 7659,
      "Ġpainful": 7660,
      "Ġinvolving": 7661,
      "Ġcyl": 7662,
      "Ġmovies": 7663,
      "Ġdrying": 7664,
      "Ġlabels": 7665,
      "Ġenhanced": 7666,
      "Ġlogic": 7667,
      "Ġthermocouple": 7668,
      "ĠMedical": 7669,
      "ersonal": 7670,
      "Ġbelieves": 7671,
      "Ġhormones": 7672,
      "Ġantibiotic": 7673,
      "Ġconfiguration": 7674,
      "-spec": 7675,
      "ecessary": 7676,
      "86": 7677,
      "EC": 7678,
      "Finally": 7679,
      "Ref": 7680,
      "band": 7681,
      "hav": 7682,
      "was": 7683,
      "Ġions": 7684,
      "Ġtropical": 7685,
      "alian": 7686,
      "Ġmouse": 7687,
      "Ġreef": 7688,
      "state": 7689,
      "Ġster": 7690,
      "Ġstack": 7691,
      "Ġexchange": 7692,
      "Ġhence": 7693,
      "Ġenzymes": 7694,
      "Ġleak": 7695,
      "ĠHol": 7696,
      "ĠDid": 7697,
      "ptide": 7698,
      "reating": 7699,
      "Ġovercome": 7700,
      "Ġphr": 7701,
      "Ġgenus": 7702,
      "Ġcheaper": 7703,
      "Ġbridge": 7704,
      "Ġherbs": 7705,
      "Ġreaders": 7706,
      "Ġcorros": 7707,
      "Ġletters": 7708,
      "Ġoccurred": 7709,
      "Ġoils": 7710,
      "ĠConf": 7711,
      "Ġsmoking": 7712,
      "Ġsuperior": 7713,
      "ĠCoast": 7714,
      "ĠKey": 7715,
      "Ġdemonstrated": 7716,
      "Ġdinner": 7717,
      "ĠGermany": 7718,
      "-shaped": 7719,
      "osaurs": 7720,
      "92": 7721,
      "lo": 7722,
      "lied": 7723,
      "range": 7724,
      "son": 7725,
      "hea": 7726,
      "roat": 7727,
      "lymp": 7728,
      "imer": 7729,
      "amily": 7730,
      "ĠMer": 7731,
      "Ġriding": 7732,
      "Ġplas": 7733,
      "nsure": 7734,
      "ĠElect": 7735,
      "Ġapps": 7736,
      "Ġregen": 7737,
      "Ġcrew": 7738,
      "Ġextinction": 7739,
      "Ġdesigning": 7740,
      "Ġartist": 7741,
      "ĠExp": 7742,
      "Ġlanguages": 7743,
      "Ġingredient": 7744,
      "Ġtubes": 7745,
      "Ġscreening": 7746,
      "Ġregistered": 7747,
      "Ġolive": 7748,
      "ongevity": 7749,
      "Ġframework": 7750,
      "''ĊĊ": 7751,
      ",âĢĿ": 7752,
      "61": 7753,
      "Figure": 7754,
      "OL": 7755,
      "awn": 7756,
      "lu": 7757,
      "mere": 7758,
      "âĪĴ": 7759,
      "inite": 7760,
      "erior": 7761,
      "Ġpace": 7762,
      "Ġpound": 7763,
      "Ġmoon": 7764,
      "lete": 7765,
      "Ġthreshold": 7766,
      "omal": 7767,
      "Ġrib": 7768,
      "Ġshop": 7769,
      "Ġcompound": 7770,
      "Ġworn": 7771,
      "Ġintensity": 7772,
      "Ġjoy": 7773,
      "Ġresist": 7774,
      "Ġfeather": 7775,
      "Ġscar": 7776,
      "ĠYear": 7777,
      "Ġspecified": 7778,
      "Ġtransmit": 7779,
      "Ġdepartment": 7780,
      "ĠProcess": 7781,
      "Ġinterests": 7782,
      "Ġeaten": 7783,
      "Ġerosion": 7784,
      "Ġsubjects": 7785,
      "Ġbulb": 7786,
      "Ġroute": 7787,
      "Ġexpressed": 7788,
      "Ġappeal": 7789,
      "Ġappreciate": 7790,
      "Ġinstitutions": 7791,
      "Ġaffordable": 7792,
      "Ġdoubt": 7793,
      "Ġpractitioner": 7794,
      ".D": 7795,
      "87": 7796,
      "Aut": 7797,
      "Col": 7798,
      "Fe": 7799,
      "UP": 7800,
      "cont": 7801,
      "even": 7802,
      "tens": 7803,
      "uper": 7804,
      "ona": 7805,
      "Ġsale": 7806,
      "Ġwast": 7807,
      "Ġpun": 7808,
      "Ġpip": 7809,
      "Ġexceed": 7810,
      "Ġexclus": 7811,
      "ĠMax": 7812,
      "ĠMuse": 7813,
      "Ġspeech": 7814,
      "ĠRad": 7815,
      "Ġkm": 7816,
      "Ġintric": 7817,
      "ĠOlymp": 7818,
      "Ġjack": 7819,
      "Ġmanager": 7820,
      "Ġscales": 7821,
      "anger": 7822,
      "phalt": 7823,
      "Ġnewsp": 7824,
      "Ġagreement": 7825,
      "Ġkeys": 7826,
      "Ġremind": 7827,
      "Ġmodified": 7828,
      "Ġdiscip": 7829,
      "Ġcellular": 7830,
      "Ġboards": 7831,
      "Ġpassing": 7832,
      "ĠIndones": 7833,
      "autions": 7834,
      "Ġsalmon": 7835,
      "ĠiPhone": 7836,
      "Ġneglect": 7837,
      "ĠLevel": 7838,
      "Ġvaccines": 7839,
      "Ġconversion": 7840,
      "Ġflexible": 7841,
      "Ġescape": 7842,
      "Ġsplit": 7843,
      "gypt": 7844,
      "Ġlungs": 7845,
      "Ġincredible": 7846,
      "ĠWildlife": 7847,
      "Ġshrubs": 7848,
      "Ġcabin": 7849,
      "74": 7850,
      "fly": 7851,
      "ww": 7852,
      "Ġdies": 7853,
      "ĠTips": 7854,
      "rade": 7855,
      "igan": 7856,
      "ĠCur": 7857,
      "osaur": 7858,
      "Ġchip": 7859,
      "ĠDC": 7860,
      "ĠField": 7861,
      "ĠFalse": 7862,
      "ptom": 7863,
      "ella": 7864,
      "Ġkin": 7865,
      "Then": 7866,
      "Ġincident": 7867,
      "Ġpreval": 7868,
      "ĠIncre": 7869,
      "Ġscript": 7870,
      "Ġthank": 7871,
      "Ġrepairs": 7872,
      "aterials": 7873,
      "Ġendangered": 7874,
      "Ġdriven": 7875,
      "Ġcycl": 7876,
      "Any": 7877,
      "Ġmassage": 7878,
      "Ġcomplexity": 7879,
      "Ġpopularity": 7880,
      "Ġspeeds": 7881,
      "Ġfatigue": 7882,
      "Ġtargeted": 7883,
      "Ġbringing": 7884,
      "Ġwondering": 7885,
      "Ġhunt": 7886,
      "Ġgeomet": 7887,
      "Ġevolutionary": 7888,
      "Ġaggreg": 7889,
      "ĠSecond": 7890,
      "ĠSTEM": 7891,
      "Ġincredibly": 7892,
      "Ġathlet": 7893,
      "\"I": 7894,
      "81": 7895,
      "91": 7896,
      "AG": 7897,
      "inates": 7898,
      "Ġtheore": 7899,
      "Ġsoc": 7900,
      "Ġbeds": 7901,
      "ctu": 7902,
      "Ġlad": 7903,
      "Ġrent": 7904,
      "ellect": 7905,
      "acles": 7906,
      "ĠDogs": 7907,
      "ĠFace": 7908,
      "ĠEnd": 7909,
      "ĠNor": 7910,
      "ulture": 7911,
      "Ġsomewhat": 7912,
      "Ġtracks": 7913,
      "Ġblo": 7914,
      "neys": 7915,
      "Ġprinter": 7916,
      "Ġacute": 7917,
      "Ġtransc": 7918,
      "Ġexamination": 7919,
      "Ġearn": 7920,
      "Ġproviders": 7921,
      "Ġadvis": 7922,
      "Ġpurple": 7923,
      "espread": 7924,
      "Ġecological": 7925,
      "Ġcharacterized": 7926,
      "Ġenhances": 7927,
      "Ġpaying": 7928,
      "Ġtargets": 7929,
      "ĠConservation": 7930,
      "Ġanalyze": 7931,
      "Ġevaluation": 7932,
      "Ġethical": 7933,
      "Ġhazards": 7934,
      "Ġsediment": 7935,
      "ĠWindows": 7936,
      "Ġmammals": 7937,
      "Ġadvertising": 7938,
      "Ġlaptop": 7939,
      "BS": 7940,
      "Ġid": 7941,
      "Ġbare": 7942,
      "Ġborder": 7943,
      "orld": 7944,
      "Ġhurt": 7945,
      "Ġger": 7946,
      "Ġbeings": 7947,
      "Ġbears": 7948,
      "acco": 7949,
      "ĠMat": 7950,
      "action": 7951,
      "ĠUN": 7952,
      "ovascular": 7953,
      "Ġmini": 7954,
      "Ġreflection": 7955,
      "ĠWeb": 7956,
      "Ġcircular": 7957,
      "proof": 7958,
      "Ġtherapeut": 7959,
      "Ġpreferred": 7960,
      "Ġjoints": 7961,
      "Ġaxis": 7962,
      "Ġgirl": 7963,
      "Ġmortality": 7964,
      "93": 7965,
      "Rep": 7966,
      "tic": 7967,
      "Ġtension": 7968,
      "Ġsin": 7969,
      "Ġsle": 7970,
      "Ġsaving": 7971,
      "Ġcure": 7972,
      "isk": 7973,
      "Ġdummy": 7974,
      "igital": 7975,
      "ĠIT": 7976,
      "Ġven": 7977,
      "ĠMart": 7978,
      "ĠMCE": 7979,
      "Ġchips": 7980,
      "occ": 7981,
      "âĢľ": 7982,
      "ĠEnt": 7983,
      "Ġkilling": 7984,
      "Ġrequiring": 7985,
      "Ġinsight": 7986,
      "Ġfoliage": 7987,
      "Ġentering": 7988,
      "Ġcorpor": 7989,
      "ĠProduct": 7990,
      "Ġequations": 7991,
      "-col": 7992,
      "Ġretur": 7993,
      "Ġantioxid": 7994,
      "Ġconsumed": 7995,
      "iotics": 7996,
      "Ġdanger": 7997,
      "Ġpriority": 7998,
      "Ġdrainage": 7999,
      "ĠSmall": 8000,
      "Ġchannels": 8001,
      "ĠBoard": 8002,
      "-level": 8003,
      "Ġmicrowave": 8004,
      "kins": 8005,
      "mble": 8006,
      "well": 8007,
      "onia": 8008,
      "onduct": 8009,
      "Ġcort": 8010,
      "Ġcord": 8011,
      "Ġbars": 8012,
      "Ġfalse": 8013,
      "Ġfoster": 8014,
      "Ġthumb": 8015,
      "ette": 8016,
      "eterm": 8017,
      "Ġgum": 8018,
      "Ġstorm": 8019,
      "ĠSym": 8020,
      "ĠSouthern": 8021,
      "ĠForm": 8022,
      "ĠFarm": 8023,
      "Ġimaging": 8024,
      "ogens": 8025,
      "Ġdisadvant": 8026,
      "Ġbloom": 8027,
      "ĠJesus": 8028,
      "Ġreproductive": 8029,
      "Ġdifferently": 8030,
      "Ġtechnological": 8031,
      "Ġgrams": 8032,
      "Ġautism": 8033,
      "Ġrestric": 8034,
      "Ġmarked": 8035,
      "arents": 8036,
      "includ": 8037,
      "Ġoriginally": 8038,
      "Ġdrawings": 8039,
      "Ġintegrated": 8040,
      "Ġholiday": 8041,
      "Ġventilation": 8042,
      "Ġalignment": 8043,
      "-G": 8044,
      ".The": 8045,
      "73": 8046,
      "cm": 8047,
      "ga": 8048,
      "rd": 8049,
      "uel": 8050,
      "ville": 8051,
      "yn": 8052,
      "Ġ...Ċ": 8053,
      "Ġtong": 8054,
      "Ġaids": 8055,
      "hered": 8056,
      "Ġoste": 8057,
      "Ġpus": 8058,
      "Ġfraction": 8059,
      "Ġmine": 8060,
      "Ġelder": 8061,
      "Ġlongevity": 8062,
      "omas": 8063,
      "etime": 8064,
      "Ġgases": 8065,
      "amples": 8066,
      "ĠMiddle": 8067,
      "ĠBM": 8068,
      "Ġseaf": 8069,
      "ĠFact": 8070,
      "riting": 8071,
      "Ġreadily": 8072,
      "Ġdisturb": 8073,
      "Ġpossibilities": 8074,
      "Ġflows": 8075,
      "Ġmeter": 8076,
      "Ġcenturies": 8077,
      "Stud": 8078,
      "Ġradi": 8079,
      "Ġwarmer": 8080,
      "Ġwooden": 8081,
      "Ġmatters": 8082,
      "Ġaddressing": 8083,
      "Ġmixing": 8084,
      "Ġstrips": 8085,
      "Ġimplementation": 8086,
      "Ġshaped": 8087,
      "ĠAgricult": 8088,
      "Ġmutations": 8089,
      "Ġrabbits": 8090,
      "Ġpuppy": 8091,
      "ĠPapua": 8092,
      "Last": 8093,
      "``": 8094,
      "noon": 8095,
      "Ġselling": 8096,
      "itory": 8097,
      "eting": 8098,
      "Ġgently": 8099,
      "Ġbeat": 8100,
      "Ġbeam": 8101,
      "othe": 8102,
      "oline": 8103,
      "urp": 8104,
      "ĠSing": 8105,
      "ĠCP": 8106,
      "ĠCr": 8107,
      "ĠBB": 8108,
      "udd": 8109,
      "ĠEgypt": 8110,
      "Ġworst": 8111,
      "ĠGal": 8112,
      "velength": 8113,
      "Ġscore": 8114,
      "Ġcolours": 8115,
      "Ġrecording": 8116,
      "Ġrecover": 8117,
      "Ġundert": 8118,
      "Ġguy": 8119,
      "Ġparticle": 8120,
      "ĠAsian": 8121,
      "Ġopened": 8122,
      "Ġobjective": 8123,
      "Ġbarrier": 8124,
      "Ġurine": 8125,
      "Ġwidespread": 8126,
      "Ġshelter": 8127,
      "Ġsoup": 8128,
      "Ġisolated": 8129,
      "Ġneutral": 8130,
      "Ġvapor": 8131,
      "Ġhygiene": 8132,
      "-resistant": 8133,
      ".)ĊĊ": 8134,
      "SA": 8135,
      "bage": 8136,
      "heat": 8137,
      "Ġsan": 8138,
      "ato": 8139,
      "Ġom": 8140,
      "Ġlosing": 8141,
      "igible": 8142,
      "Ġstrict": 8143,
      "ĠSuch": 8144,
      "this": 8145,
      "Ġchart": 8146,
      "Ġdeaf": 8147,
      "ĠDespite": 8148,
      "ĠRel": 8149,
      "ĠGP": 8150,
      "Ġclient": 8151,
      "Ġtracking": 8152,
      "berg": 8153,
      "Ġgoats": 8154,
      "Ġdiarr": 8155,
      "Ġprocessed": 8156,
      "Ġlightweight": 8157,
      "Ġdistract": 8158,
      "Ġessentially": 8159,
      "Ġfreed": 8160,
      "Ġfarms": 8161,
      "Ġavoiding": 8162,
      "Ġutility": 8163,
      "Ġappliances": 8164,
      "Ġgained": 8165,
      "Ġquantity": 8166,
      "Ġobservations": 8167,
      "Ġmessages": 8168,
      "Ġfertility": 8169,
      "Photo": 8170,
      "Ġaquatic": 8171,
      "Ġsemi": 8172,
      "Ġ</": 8173,
      "Ġofficer": 8174,
      "Ġsusceptible": 8175,
      "79": 8176,
      "Each": 8177,
      "ka": 8178,
      "ki": 8179,
      "name": 8180,
      "Ġicon": 8181,
      "Ġtone": 8182,
      "esome": 8183,
      "Ġpuzz": 8184,
      "Ġbor": 8185,
      "aning": 8186,
      "anish": 8187,
      "Ġinvention": 8188,
      "ifting": 8189,
      "umbers": 8190,
      "orted": 8191
    },
    "merges": [
      [
        "Ġ",
        "t"
      ],
      [
        "Ġ",
        "a"
      ],
      [
        "i",
        "n"
      ],
      [
        "h",
        "e"
      ],
      [
        "r",
        "e"
      ],
      [
        "o",
        "n"
      ],
      [
        "Ġt",
        "he"
      ],
      [
        "e",
        "r"
      ],
      [
        "Ġ",
        "s"
      ],
      [
        "a",
        "t"
      ],
      [
        "Ġ",
        "c"
      ],
      [
        "Ġ",
        "o"
      ],
      [
        "e",
        "s"
      ],
      [
        "e",
        "n"
      ],
      [
        "Ġ",
        "w"
      ],
      [
        "n",
        "d"
      ],
      [
        "in",
        "g"
      ],
      [
        "i",
        "t"
      ],
      [
        "Ġ",
        "p"
      ],
      [
        "i",
        "s"
      ],
      [
        "Ġ",
        "b"
      ],
      [
        "o",
        "r"
      ],
      [
        "Ġ",
        "f"
      ],
      [
        "o",
        "u"
      ],
      [
        "a",
        "l"
      ],
      [
        "a",
        "n"
      ],
      [
        "Ġ",
        "m"
      ],
      [
        "e",
        "d"
      ],
      [
        "Ġt",
        "o"
      ],
      [
        "Ġo",
        "f"
      ],
      [
        "Ġ",
        "in"
      ],
      [
        "Ġa",
        "nd"
      ],
      [
        "Ġ",
        "d"
      ],
      [
        "a",
        "r"
      ],
      [
        "i",
        "on"
      ],
      [
        "i",
        "c"
      ],
      [
        "l",
        "e"
      ],
      [
        "r",
        "o"
      ],
      [
        "Ġt",
        "h"
      ],
      [
        "a",
        "s"
      ],
      [
        "Ġ",
        "h"
      ],
      [
        "c",
        "t"
      ],
      [
        "en",
        "t"
      ],
      [
        "Ġ",
        "e"
      ],
      [
        "Ġ",
        "l"
      ],
      [
        "i",
        "l"
      ],
      [
        "v",
        "e"
      ],
      [
        "Ġ",
        "re"
      ],
      [
        "o",
        "m"
      ],
      [
        "Ġ",
        "is"
      ],
      [
        "u",
        "s"
      ],
      [
        ".",
        "Ċ"
      ],
      [
        "Ġ",
        "n"
      ],
      [
        "Ġ",
        "y"
      ],
      [
        "e",
        "t"
      ],
      [
        "l",
        "y"
      ],
      [
        "Ġ",
        "g"
      ],
      [
        "Ġy",
        "ou"
      ],
      [
        "Ġb",
        "e"
      ],
      [
        "o",
        "w"
      ],
      [
        "u",
        "t"
      ],
      [
        "o",
        "t"
      ],
      [
        "i",
        "m"
      ],
      [
        "i",
        "d"
      ],
      [
        "Ġ",
        "T"
      ],
      [
        "s",
        "t"
      ],
      [
        "Ġf",
        "or"
      ],
      [
        "o",
        "l"
      ],
      [
        "r",
        "a"
      ],
      [
        "c",
        "e"
      ],
      [
        "i",
        "g"
      ],
      [
        "c",
        "h"
      ],
      [
        "u",
        "r"
      ],
      [
        "Ġ",
        "A"
      ],
      [
        "at",
        "ion"
      ],
      [
        "Ġth",
        "at"
      ],
      [
        "Ġ",
        "on"
      ],
      [
        "Ġs",
        "t"
      ],
      [
        "Ġ",
        "I"
      ],
      [
        "i",
        "r"
      ],
      [
        "e",
        "l"
      ],
      [
        "v",
        "er"
      ],
      [
        "Ġa",
        "re"
      ],
      [
        "a",
        "y"
      ],
      [
        "Ġ",
        "it"
      ],
      [
        "u",
        "l"
      ],
      [
        "Ġp",
        "ro"
      ],
      [
        "it",
        "h"
      ],
      [
        "Ġa",
        "n"
      ],
      [
        "i",
        "f"
      ],
      [
        "s",
        "e"
      ],
      [
        "Ġo",
        "r"
      ],
      [
        "Ġw",
        "ith"
      ],
      [
        "Ġ",
        "S"
      ],
      [
        ".Ċ",
        "Ċ"
      ],
      [
        "Ġc",
        "on"
      ],
      [
        "es",
        "t"
      ],
      [
        "Ġa",
        "s"
      ],
      [
        "a",
        "m"
      ],
      [
        "he",
        "r"
      ],
      [
        "o",
        "d"
      ],
      [
        "Ċ",
        "Ċ"
      ],
      [
        "Ġa",
        "l"
      ],
      [
        "a",
        "d"
      ],
      [
        "t",
        "er"
      ],
      [
        "Ġ",
        "C"
      ],
      [
        "k",
        "e"
      ],
      [
        "u",
        "n"
      ],
      [
        "Ġc",
        "an"
      ],
      [
        "Ġw",
        "h"
      ],
      [
        "u",
        "re"
      ],
      [
        "es",
        "s"
      ],
      [
        "g",
        "e"
      ],
      [
        "a",
        "b"
      ],
      [
        "at",
        "e"
      ],
      [
        "ĠT",
        "he"
      ],
      [
        "il",
        "l"
      ],
      [
        "u",
        "m"
      ],
      [
        "Ġh",
        "a"
      ],
      [
        "an",
        "t"
      ],
      [
        "Ġc",
        "om"
      ],
      [
        "Ġe",
        "x"
      ],
      [
        "er",
        "s"
      ],
      [
        "Ġ",
        "he"
      ],
      [
        "e",
        "ct"
      ],
      [
        "o",
        "re"
      ],
      [
        "q",
        "u"
      ],
      [
        "Ġ",
        "W"
      ],
      [
        "i",
        "ve"
      ],
      [
        "ig",
        "h"
      ],
      [
        "t",
        "h"
      ],
      [
        "Ġyou",
        "r"
      ],
      [
        "'",
        "s"
      ],
      [
        "e",
        "m"
      ],
      [
        "Ġ",
        "us"
      ],
      [
        "Ġ",
        "v"
      ],
      [
        "p",
        "p"
      ],
      [
        "i",
        "es"
      ],
      [
        "a",
        "c"
      ],
      [
        "m",
        "ent"
      ],
      [
        "o",
        "p"
      ],
      [
        "Ġw",
        "e"
      ],
      [
        "e",
        "c"
      ],
      [
        "it",
        "y"
      ],
      [
        "l",
        "d"
      ],
      [
        "a",
        "in"
      ],
      [
        "is",
        "t"
      ],
      [
        "o",
        "s"
      ],
      [
        "ro",
        "m"
      ],
      [
        "Ġ",
        "P"
      ],
      [
        "Ġ",
        "M"
      ],
      [
        "Ġ",
        "r"
      ],
      [
        "Ġs",
        "u"
      ],
      [
        "Ġ",
        "("
      ],
      [
        "Ġ",
        "en"
      ],
      [
        "Ġ",
        "B"
      ],
      [
        "Ġc",
        "h"
      ],
      [
        "Ġa",
        "t"
      ],
      [
        "Ġn",
        "e"
      ],
      [
        "Ġs",
        "p"
      ],
      [
        "Ġs",
        "h"
      ],
      [
        "or",
        "t"
      ],
      [
        "i",
        "al"
      ],
      [
        "Ġf",
        "rom"
      ],
      [
        "Ġd",
        "o"
      ],
      [
        "Ġha",
        "ve"
      ],
      [
        "Ġ",
        "le"
      ],
      [
        "igh",
        "t"
      ],
      [
        "i",
        "v"
      ],
      [
        "Ġp",
        "l"
      ],
      [
        "Ġn",
        "ot"
      ],
      [
        "Ġd",
        "e"
      ],
      [
        "Ġs",
        "e"
      ],
      [
        "Ġb",
        "y"
      ],
      [
        "n",
        "t"
      ],
      [
        "re",
        "s"
      ],
      [
        "o",
        "c"
      ],
      [
        "Ġ",
        "H"
      ],
      [
        "p",
        "er"
      ],
      [
        "u",
        "d"
      ],
      [
        "a",
        "nd"
      ],
      [
        "ar",
        "t"
      ],
      [
        "Ġ",
        "D"
      ],
      [
        "us",
        "t"
      ],
      [
        "Ġ",
        "F"
      ],
      [
        "om",
        "e"
      ],
      [
        "Ġth",
        "is"
      ],
      [
        "al",
        "l"
      ],
      [
        "id",
        "e"
      ],
      [
        "ou",
        "ld"
      ],
      [
        "r",
        "i"
      ],
      [
        "ic",
        "al"
      ],
      [
        "Ġ",
        "u"
      ],
      [
        "Ġa",
        "b"
      ],
      [
        "r",
        "ou"
      ],
      [
        "Ġm",
        "a"
      ],
      [
        "ou",
        "t"
      ],
      [
        "p",
        "t"
      ],
      [
        "â",
        "Ģ"
      ],
      [
        "a",
        "ct"
      ],
      [
        "ion",
        "s"
      ],
      [
        "n",
        "s"
      ],
      [
        "in",
        "e"
      ],
      [
        "Ġ",
        "E"
      ],
      [
        "ar",
        "d"
      ],
      [
        "o",
        "st"
      ],
      [
        "Ġw",
        "he"
      ],
      [
        "el",
        "l"
      ],
      [
        "Ġ",
        "R"
      ],
      [
        "Ġ",
        "im"
      ],
      [
        "e",
        "re"
      ],
      [
        "f",
        "f"
      ],
      [
        "d",
        "u"
      ],
      [
        "Ġ",
        "k"
      ],
      [
        "Ġw",
        "ill"
      ],
      [
        "o",
        "od"
      ],
      [
        "g",
        "h"
      ],
      [
        "t",
        "her"
      ],
      [
        "Ġcom",
        "p"
      ],
      [
        "o",
        "g"
      ],
      [
        "Ġw",
        "or"
      ],
      [
        "as",
        "t"
      ],
      [
        "Ġin",
        "t"
      ],
      [
        "ic",
        "h"
      ],
      [
        "Ġthe",
        "y"
      ],
      [
        "ou",
        "r"
      ],
      [
        "k",
        "ing"
      ],
      [
        "Ġthe",
        "ir"
      ],
      [
        "a",
        "re"
      ],
      [
        "T",
        "he"
      ],
      [
        "a",
        "ge"
      ],
      [
        "Ġa",
        "d"
      ],
      [
        "i",
        "z"
      ],
      [
        "Ġal",
        "l"
      ],
      [
        "ab",
        "le"
      ],
      [
        "i",
        "p"
      ],
      [
        "a",
        "g"
      ],
      [
        "at",
        "er"
      ],
      [
        "Ġ",
        "N"
      ],
      [
        "Ġm",
        "ore"
      ],
      [
        "at",
        "ed"
      ],
      [
        "Ġ",
        "L"
      ],
      [
        "Ġ",
        "G"
      ],
      [
        "h",
        "at"
      ],
      [
        "Ġw",
        "as"
      ],
      [
        "Ġb",
        "ut"
      ],
      [
        "en",
        "d"
      ],
      [
        "Ġcon",
        "t"
      ],
      [
        "o",
        "o"
      ],
      [
        "al",
        "ly"
      ],
      [
        "Ġin",
        "c"
      ],
      [
        "e",
        "ar"
      ],
      [
        "r",
        "u"
      ],
      [
        "e",
        "p"
      ],
      [
        "i",
        "b"
      ],
      [
        "in",
        "d"
      ],
      [
        "Ġs",
        "o"
      ],
      [
        "ul",
        "t"
      ],
      [
        "s",
        "o"
      ],
      [
        "Ġt",
        "e"
      ],
      [
        "p",
        "l"
      ],
      [
        "an",
        "s"
      ],
      [
        "ou",
        "s"
      ],
      [
        "Ġ",
        "O"
      ],
      [
        "Ġ",
        "j"
      ],
      [
        "k",
        "s"
      ],
      [
        "Ġm",
        "e"
      ],
      [
        "w",
        "er"
      ],
      [
        "c",
        "c"
      ],
      [
        "i",
        "ke"
      ],
      [
        "r",
        "y"
      ],
      [
        "Ġre",
        "s"
      ],
      [
        "or",
        "m"
      ],
      [
        "est",
        "ion"
      ],
      [
        "Ġc",
        "l"
      ],
      [
        "Q",
        "u"
      ],
      [
        "Ġh",
        "as"
      ],
      [
        "on",
        "g"
      ],
      [
        "Ġo",
        "ut"
      ],
      [
        "an",
        "ce"
      ],
      [
        "Ġd",
        "is"
      ],
      [
        "on",
        "e"
      ],
      [
        "i",
        "re"
      ],
      [
        "Ġwh",
        "ich"
      ],
      [
        "ent",
        "s"
      ],
      [
        "Ġo",
        "ther"
      ],
      [
        "a",
        "p"
      ],
      [
        "Ġ",
        "un"
      ],
      [
        "Ġim",
        "p"
      ],
      [
        "ation",
        "s"
      ],
      [
        "Ġp",
        "re"
      ],
      [
        "ve",
        "l"
      ],
      [
        "Ġal",
        "so"
      ],
      [
        "Ġ",
        "\""
      ],
      [
        "h",
        "is"
      ],
      [
        "Ġt",
        "im"
      ],
      [
        "Ġm",
        "an"
      ],
      [
        "a",
        "ch"
      ],
      [
        "ns",
        "wer"
      ],
      [
        "i",
        "e"
      ],
      [
        "re",
        "at"
      ],
      [
        "Ġon",
        "e"
      ],
      [
        "Qu",
        "estion"
      ],
      [
        "as",
        "s"
      ],
      [
        "'",
        "t"
      ],
      [
        "a",
        "v"
      ],
      [
        "ct",
        "ion"
      ],
      [
        "it",
        "ion"
      ],
      [
        "a",
        "us"
      ],
      [
        "ig",
        "n"
      ],
      [
        "ĠA",
        "nswer"
      ],
      [
        "ic",
        "e"
      ],
      [
        "Ġp",
        "er"
      ],
      [
        "Ġthe",
        "m"
      ],
      [
        "Ġa",
        "pp"
      ],
      [
        "ver",
        "y"
      ],
      [
        "a",
        "ce"
      ],
      [
        "l",
        "ow"
      ],
      [
        "en",
        "ce"
      ],
      [
        "Ġ",
        "U"
      ],
      [
        "en",
        "s"
      ],
      [
        "ar",
        "y"
      ],
      [
        "2",
        "0"
      ],
      [
        "ac",
        "k"
      ],
      [
        "Ġab",
        "out"
      ],
      [
        "Ġl",
        "ike"
      ],
      [
        "or",
        "s"
      ],
      [
        "Ġ",
        "qu"
      ],
      [
        "Ġu",
        "p"
      ],
      [
        "Ġf",
        "e"
      ],
      [
        "as",
        "e"
      ],
      [
        "ĠI",
        "n"
      ],
      [
        "u",
        "e"
      ],
      [
        "res",
        "s"
      ],
      [
        "ĠI",
        "t"
      ],
      [
        "il",
        "d"
      ],
      [
        "Ġs",
        "ome"
      ],
      [
        "Ġwhe",
        "n"
      ],
      [
        "Ġm",
        "ay"
      ],
      [
        "Ġ",
        "if"
      ],
      [
        "if",
        "f"
      ],
      [
        "i",
        "a"
      ],
      [
        "Ġ",
        "ro"
      ],
      [
        "Ġs",
        "c"
      ],
      [
        "Ġe",
        "v"
      ],
      [
        "Ġne",
        "ed"
      ],
      [
        "n",
        "ow"
      ],
      [
        "i",
        "le"
      ],
      [
        "ou",
        "nd"
      ],
      [
        "Ġint",
        "o"
      ],
      [
        "it",
        "e"
      ],
      [
        "Ġs",
        "y"
      ],
      [
        "a",
        "il"
      ],
      [
        "Ġtim",
        "e"
      ],
      [
        "f",
        "orm"
      ],
      [
        "Ġus",
        "e"
      ],
      [
        "Ġan",
        "y"
      ],
      [
        "Ġp",
        "art"
      ],
      [
        "ro",
        "w"
      ],
      [
        "r",
        "ic"
      ],
      [
        "Ġt",
        "ra"
      ],
      [
        "Ġd",
        "iff"
      ],
      [
        "o",
        "se"
      ],
      [
        "Ġh",
        "ow"
      ],
      [
        "Ġc",
        "ol"
      ],
      [
        "Ġhe",
        "l"
      ],
      [
        "b",
        "er"
      ],
      [
        "Ġ",
        "Y"
      ],
      [
        "Ġth",
        "an"
      ],
      [
        "am",
        "e"
      ],
      [
        "l",
        "l"
      ],
      [
        "Ġthe",
        "re"
      ],
      [
        "ay",
        "s"
      ],
      [
        "le",
        "ct"
      ],
      [
        "ĠT",
        "his"
      ],
      [
        "Ġit",
        "s"
      ],
      [
        "Ġb",
        "l"
      ],
      [
        "a",
        "k"
      ],
      [
        "re",
        "e"
      ],
      [
        "ing",
        "s"
      ],
      [
        "c",
        "es"
      ],
      [
        "Ġhel",
        "p"
      ],
      [
        "aus",
        "e"
      ],
      [
        "Ġs",
        "a"
      ],
      [
        "Ġp",
        "e"
      ],
      [
        "Ġbe",
        "c"
      ],
      [
        ".",
        "."
      ],
      [
        "ĠW",
        "hat"
      ],
      [
        "Ġcom",
        "m"
      ],
      [
        "Ġa",
        "r"
      ],
      [
        "an",
        "g"
      ],
      [
        "Ġcon",
        "s"
      ],
      [
        "nd",
        "er"
      ],
      [
        "ou",
        "gh"
      ],
      [
        "l",
        "es"
      ],
      [
        "Ġre",
        "c"
      ],
      [
        "Ġsp",
        "ec"
      ],
      [
        "or",
        "d"
      ],
      [
        "Ġo",
        "ver"
      ],
      [
        "Ġthe",
        "se"
      ],
      [
        "Ġst",
        "ud"
      ],
      [
        "y",
        "p"
      ],
      [
        "a",
        "ke"
      ],
      [
        "Ġk",
        "now"
      ],
      [
        "Ġg",
        "o"
      ],
      [
        "Ġb",
        "et"
      ],
      [
        "Ġg",
        "et"
      ],
      [
        "if",
        "ic"
      ],
      [
        "o",
        "ve"
      ],
      [
        "is",
        "h"
      ],
      [
        "al",
        "s"
      ],
      [
        "Ġ",
        "âĢ"
      ],
      [
        "Ġd",
        "es"
      ],
      [
        "at",
        "ing"
      ],
      [
        "Ġt",
        "r"
      ],
      [
        "on",
        "s"
      ],
      [
        "t",
        "ing"
      ],
      [
        "on",
        "d"
      ],
      [
        "i",
        "ent"
      ],
      [
        "re",
        "d"
      ],
      [
        "rou",
        "gh"
      ],
      [
        "n",
        "ing"
      ],
      [
        "p",
        "h"
      ],
      [
        "Ġe",
        "ff"
      ],
      [
        "al",
        "th"
      ],
      [
        "Ġus",
        "ed"
      ],
      [
        "st",
        "em"
      ],
      [
        "w",
        "e"
      ],
      [
        "Ġin",
        "d"
      ],
      [
        "Ġwh",
        "at"
      ],
      [
        "Ġpro",
        "v"
      ],
      [
        "u",
        "b"
      ],
      [
        "Ġw",
        "ater"
      ],
      [
        "Ġma",
        "ke"
      ],
      [
        "Ġf",
        "l"
      ],
      [
        "or",
        "y"
      ],
      [
        "t",
        "e"
      ],
      [
        "Ġof",
        "f"
      ],
      [
        "rou",
        "nd"
      ],
      [
        "l",
        "ud"
      ],
      [
        "oo",
        "k"
      ],
      [
        "ul",
        "ar"
      ],
      [
        "ar",
        "i"
      ],
      [
        "Ġc",
        "o"
      ],
      [
        "Ġpro",
        "du"
      ],
      [
        "Ġm",
        "ost"
      ],
      [
        "Ġdiff",
        "ere"
      ],
      [
        "Ġa",
        "ct"
      ],
      [
        "Ġwh",
        "o"
      ],
      [
        "op",
        "le"
      ],
      [
        "Ġ",
        "ra"
      ],
      [
        "ou",
        "nt"
      ],
      [
        "Ġo",
        "ur"
      ],
      [
        "ol",
        "og"
      ],
      [
        "m",
        "s"
      ],
      [
        "Ġa",
        "cc"
      ],
      [
        "at",
        "ure"
      ],
      [
        "Ġsu",
        "ch"
      ],
      [
        "Ġp",
        "h"
      ],
      [
        "et",
        "h"
      ],
      [
        "Ġ",
        "J"
      ],
      [
        "Ġy",
        "ear"
      ],
      [
        "Ġu",
        "nder"
      ],
      [
        "p",
        "le"
      ],
      [
        "ver",
        "s"
      ],
      [
        "Ġsh",
        "ould"
      ],
      [
        "Ġad",
        "d"
      ],
      [
        "Ġg",
        "en"
      ],
      [
        "Ġpl",
        "ant"
      ],
      [
        "c",
        "ess"
      ],
      [
        "f",
        "ul"
      ],
      [
        "in",
        "t"
      ],
      [
        "Ġw",
        "ould"
      ],
      [
        "at",
        "es"
      ],
      [
        "y",
        "s"
      ],
      [
        "ic",
        "k"
      ],
      [
        "il",
        "ity"
      ],
      [
        "Ġne",
        "w"
      ],
      [
        "Ġwe",
        "re"
      ],
      [
        "ur",
        "ing"
      ],
      [
        "n",
        "e"
      ],
      [
        "Ġinc",
        "lud"
      ],
      [
        "Ġbe",
        "en"
      ],
      [
        "er",
        "v"
      ],
      [
        "Ġa",
        "g"
      ],
      [
        "Ġpe",
        "ople"
      ],
      [
        "o",
        "v"
      ],
      [
        "Ġwor",
        "k"
      ],
      [
        "an",
        "ge"
      ],
      [
        "ĠS",
        "t"
      ],
      [
        "j",
        "ect"
      ],
      [
        "x",
        "t"
      ],
      [
        "os",
        "s"
      ],
      [
        "Ġs",
        "m"
[...]
