{
  "version": "1.0",
  "truncation": null,
  "padding": null,
  "added_tokens": [
    {
      "id": 0,
      "content": "<|bos|>",
      "single_word": false,
      "lstrip": false,
      "rstrip": false,
      "normalized": false,
      "special": true
    },
    {
      "id": 1,
      "content": "<|user_start|>",
      "single_word": false,
      "lstrip": false,
      "rstrip": false,
      "normalized": false,
      "special": true
    },
    {
      "id": 2,
      "content": "<|user_end|>",
      "single_word": false,
      "lstrip": false,
      "rstrip": false,
      "normalized": false,
      "special": true
    },
    {
      "id": 3,
      "content": "<|assistant_start|>",
      "single_word": false,
      "lstrip": false,
      "rstrip": false,
      "normalized": false,
      "special": true
    },
    {
      "id": 4,
      "content": "<|assistant_end|>",
      "single_word": false,
      "lstrip": false,
      "rstrip": false,
      "normalized": false,
      "special": true
    },
    {
      "id": 5,
      "content": "<|python_start|>",
      "single_word": false,
      "lstrip": false,
      "rstrip": false,
      "normalized": false,
      "special": true
    },
    {
      "id": 6,
      "content": "<|python_end|>",
      "single_word": false,
      "lstrip": false,
      "rstrip": false,
      "normalized": false,
      "special": true
    },
    {
      "id": 7,
      "content": "<|output_start|>",
      "single_word": false,
      "lstrip": false,
      "rstrip": false,
      "normalized": false,
      "special": true
    },
    {
      "id": 8,
      "content": "<|output_end|>",
      "single_word": false,
      "lstrip": false,
      "rstrip": false,
      "normalized": false,
      "special": true
    },
    {
      "id": 9,
      "content": "<|unk|>",
      "single_word": false,
      "lstrip": false,
      "rstrip": false,
      "normalized": false,
      "special": true
    }
  ],
  "normalizer": null,
  "pre_tokenizer": {
    "type": "Sequence",
    "pretokenizers": [
      {
        "type": "Split",
        "pattern": {
          "Regex": "'(?i:[sdmt]|ll|ve|re)|[^\\r\\n\\p{L}\\p{N}]?+\\p{L}+|\\p{N}{1,2}| ?[^\\s\\p{L}\\p{N}]++[\\r\\n]*|\\s*[\\r\\n]|\\s+(?!\\S)|\\s+"
        },
        "behavior": "Isolated",
        "invert": false
      },
      {
        "type": "ByteLevel",
        "add_prefix_space": false,
        "trim_offsets": true,
        "use_regex": false
      }
    ]
  },
  "post_processor": {
    "type": "TemplateProcessing",
    "single": [
      {
        "Sequence": {
          "id": "A",
          "type_id": 0
        }
      }
    ],
    "pair": [
      {
        "Sequence": {
          "id": "A",
          "type_id": 0
        }
      },
      {
        "Sequence": {
          "id": "B",
          "type_id": 1
        }
      }
    ],
    "special_tokens": {}
  },
  "decoder": null,
  "model": {
    "type": "Unigram",
    "unk_id": 9,
    "vocab": [
      [
        "<|bos|>",
        0.0
      ],
      [
        "<|user_start|>",
        0.0
      ],
      [
        "<|user_end|>",
        0.0
      ],
      [
        "<|assistant_start|>",
        0.0
      ],
      [
        "<|assistant_end|>",
        0.0
      ],
      [
        "<|python_start|>",
        0.0
      ],
      [
        "<|python_end|>",
        0.0
      ],
      [
        "<|output_start|>",
        0.0
      ],
      [
        "<|output_end|>",
        0.0
      ],
      [
        "<|unk|>",
        0.0
      ],
      [
        "s",
        -3.0562445211323013
      ],
      [
        "Ġ",
        -3.1902257525091766
      ],
      [
        "Ġthe",
        -3.400687316413519
      ],
      [
        ",",
        -3.4495371377232633
      ],
      [
        ".",
        -3.7398646855892537
      ],
      [
        "Ġand",
        -3.943005033591984
      ],
      [
        "Ġto",
        -3.9888232821662015
      ],
      [
        "Ġof",
        -3.9888621662976664
      ],
      [
        "a",
        -4.01192967464465
      ],
      [
        "ing",
        -4.394851583411505
      ],
      [
        "Ġin",
        -4.48701049832925
      ],
      [
        "Ġis",
        -4.636578263701175
      ],
      [
        "ed",
        -4.783023821079897
      ],
      [
        "'",
        -4.912065827440166
      ],
      [
        "d",
        -4.965261862766242
      ],
      [
        "Ġthat",
        -5.036155062215954
      ],
      [
        "0",
        -5.046969765053454
      ],
      [
        "Ġfor",
        -5.05018770196574
      ],
      [
        "y",
        -5.078813612714308
      ],
      [
        "1",
        -5.158249917289901
      ],
      [
        "ly",
        -5.183857912189941
      ],
      [
        "Ġare",
        -5.229392934437058
      ],
      [
        ":",
        -5.278678349916257
      ],
      [
        "Ġyou",
        -5.303923670471395
      ],
      [
        "Ġit",
        -5.306433535937792
      ],
      [
        "e",
        -5.317869593396743
      ],
      [
        ".Ċ",
        -5.337467136181475
      ],
      [
        ".ĊĊ",
        -5.3489018308877245
      ],
      [
        "Ġwith",
        -5.389806841380935
      ],
      [
        "2",
        -5.394823512611222
      ],
      [
        "Ċ",
        -5.3994249930615315
      ],
      [
        "t",
        -5.434266374880282
      ],
      [
        "Ġbe",
        -5.486991220920251
      ],
      [
        "Ġon",
        -5.499434048168066
      ],
      [
        "Ġcan",
        -5.507809825808151
      ],
      [
        "Ġas",
        -5.52628275530412
      ],
      [
        "Ġor",
        -5.527661463546091
      ],
      [
        "-",
        -5.565111549595356
      ],
      [
        "ĊĊ",
        -5.636504812756977
      ],
      [
        "Ġyour",
        -5.704548833150925
      ],
      [
        "Ġ(",
        -5.71635085484276
      ],
      [
        "\"",
        -5.847242995139629
      ],
      [
        "Ġfrom",
        -5.894832958313632
      ],
      [
        "Ġhave",
        -5.899027365319585
      ],
      [
        "ĠThe",
        -5.9126110943020045
      ],
      [
        "ĠI",
        -5.971226244264333
      ],
      [
        "Ġby",
        -5.981978369445052
      ],
      [
        "n",
        -6.003793657905659
      ],
      [
        "Ġan",
        -6.008713442771247
      ],
      [
        ")",
        -6.025775547429237
      ],
      [
        "3",
        -6.028684841530884
      ],
      [
        "5",
        -6.0660239320317935
      ],
      [
        "Ġthis",
        -6.066411581267811
      ],
      [
        "?",
        -6.1017007384606785
      ],
      [
        "Ġat",
        -6.11261521945875
      ],
      [
        "Ġnot",
        -6.1369363453939645
      ],
      [
        "Ġwill",
        -6.2119709761034905
      ],
      [
        "4",
        -6.238216679273652
      ],
      [
        "Ġtheir",
        -6.240029379037118
      ],
      [
        "Ġmore",
        -6.336434161239648
      ],
      [
        "Ġthey",
        -6.34744131069948
      ],
      [
        "9",
        -6.352218343618725
      ],
      [
        "Ġwas",
        -6.372869995896558
      ],
      [
        "o",
        -6.3834915879671446
      ],
      [
        "The",
        -6.455308493834794
      ],
      [
        "6",
        -6.47992369465207
      ],
      [
        "Ġwe",
        -6.481392592314423
      ],
      [
        "Ġbut",
        -6.487097351567913
      ],
      [
        "Ġhas",
        -6.5045232972779505
      ],
      [
        "Ġwhich",
        -6.510680977361943
      ],
      [
        "er",
        -6.543980229943035
      ],
      [
        "8",
        -6.562808315212665
      ],
      [
        "Ġone",
        -6.5646432301618045
      ],
      [
        "Ġalso",
        -6.592650594664134
      ],
      [
        "Question",
        -6.594845451811665
      ],
      [
        "ĠAnswer",
        -6.617032138629792
      ],
      [
        "i",
        -6.620192299755335
      ],
      [
        "7",
        -6.634243065777355
      ],
      [
        "ies",
        -6.663128007714944
      ],
      [
        "Ġall",
        -6.678973237941538
      ],
      [
        "ĠA",
        -6.686842503564973
      ],
      [
        "Ġabout",
        -6.6872644774021435
      ],
      [
        "Ġother",
        -6.708314506292805
      ],
      [
        "ĠIt",
        -6.7243916674052695
      ],
      [
        "Ġwhen",
        -6.732700746549774
      ],
      [
        "r",
        -6.745478539261384
      ],
      [
        "Ġif",
        -6.78918326572977
      ],
      [
        "Ġthem",
        -6.791459271573972
      ],
      [
        "Ġtime",
        -6.797173386145806
      ],
      [
        "Ġdo",
        -6.810749976535961
      ],
      [
        "Ġuse",
        -6.821382991736041
      ],
      [
        "Ġinto",
        -6.821424472956927
      ],
      [
        "Ġlike",
        -6.822621748258573
      ],
      [
        "Ġso",
        -6.824464888033749
      ],
      [
        "Ġmay",
        -6.852524209877206
      ],
      [
        "ĠThis",
        -6.866324816690694
      ],
      [
        "A",
        -6.866800193994619
      ],
      [
        "Ġsome",
        -6.879022911787171
      ],
      [
        "Ġup",
        -6.911292735400805
      ],
      [
        "m",
        -6.9149678209380365
      ],
      [
        "Ġthan",
        -6.920723200022817
      ],
      [
        "Ġout",
        -6.938538433132063
      ],
      [
        "ĠWhat",
        -6.941646341669815
      ],
      [
        "Ġthese",
        -6.958627611712435
      ],
      [
        "Ġthere",
        -6.985367143262332
      ],
      [
        "Ġget",
        -7.0047594552073384
      ],
      [
        "Ġwater",
        -7.009539449386356
      ],
      [
        "Ġhelp",
        -7.009546672459376
      ],
      [
        "Ġhow",
        -7.010433910253367
      ],
      [
        "Ġwhat",
        -7.044830667002094
      ],
      [
        "Ġused",
        -7.05691752407478
      ],
      [
        "Ġmost",
        -7.06145083737996
      ],
      [
        "Ġour",
        -7.067653445620207
      ],
      [
        "re",
        -7.072361749165852
      ],
      [
        "Ġmake",
        -7.075192622644158
      ],
      [
        "Ġwere",
        -7.076604942973004
      ],
      [
        "ĠIn",
        -7.086792418551887
      ],
      [
        "on",
        -7.090046683776446
      ],
      [
        "Ġsuch",
        -7.116068111873339
      ],
      [
        "able",
        -7.128897479427703
      ],
      [
        "Ġany",
        -7.143270284186819
      ],
      [
        "/",
        -7.164372730311971
      ],
      [
        "Ġbeen",
        -7.177227707981164
      ],
      [
        "Ġpeople",
        -7.192835180200586
      ],
      [
        "Ġnew",
        -7.201706768618289
      ],
      [
        "Ġthrough",
        -7.204613734627035
      ],
      [
        ";",
        -7.207228386776597
      ],
      [
        "Ġneed",
        -7.21192319060488
      ],
      [
        "Ġwould",
        -7.246704073405018
      ],
      [
        "Ġshould",
        -7.255974981351377
      ],
      [
        "Ġits",
        -7.26426070087858
      ],
      [
        "Ġonly",
        -7.270568938963054
      ],
      [
        "l",
        -7.274032128503539
      ],
      [
        "al",
        -7.279753686690672
      ],
      [
        "Ġwho",
        -7.285237555063626
      ],
      [
        "Ġjust",
        -7.294230119147436
      ],
      [
        "Ġmany",
        -7.301840842786829
      ],
      [
        "I",
        -7.307144991050707
      ],
      [
        "Ġfirst",
        -7.308338396909871
      ],
      [
        "Ġwell",
        -7.308805354708781
      ],
      [
        "Ġover",
        -7.310479228397046
      ],
      [
        "c",
        -7.321489125264405
      ],
      [
        "Ġwork",
        -7.33741705458789
      ],
      [
        "Ġtwo",
        -7.353146380212371
      ],
      [
        "Ġhigh",
        -7.38230416676411
      ],
      [
        "Ġway",
        -7.399192720574634
      ],
      [
        "Ġbetween",
        -7.401430528108431
      ],
      [
        "Ġdifferent",
        -7.402694337502183
      ],
      [
        "Ġsee",
        -7.409082355273389
      ],
      [
        "Ġwhere",
        -7.413745179035528
      ],
      [
        "Ġmy",
        -7.421544929242044
      ],
      [
        "Ġtake",
        -7.4218182708225875
      ],
      [
        "Ġno",
        -7.422023553055205
      ],
      [
        "!",
        -7.448313230596058
      ],
      [
        "Ġusing",
        -7.449528951777641
      ],
      [
        "?Ċ",
        -7.462222994351045
      ],
      [
        "Ġbecause",
        -7.491627232078752
      ],
      [
        "ĠIf",
        -7.500209933009991
      ],
      [
        "Ġlook",
        -7.501004266735743
      ],
      [
        "Ġcould",
        -7.524204723402344
      ],
      [
        "Ġeven",
        -7.528923099153543
      ],
      [
        "ĠHow",
        -7.535273697494363
      ],
      [
        "Ġvery",
        -7.538464631278224
      ],
      [
        "Ġpart",
        -7.539976290730024
      ],
      [
        "Ġsystem",
        -7.551234423153671
      ],
      [
        "Ġknow",
        -7.552517060679396
      ],
      [
        "Ġyears",
        -7.553306234658276
      ],
      [
        "in",
        -7.564926063388402
      ],
      [
        "Ġmuch",
        -7.587131424817089
      ],
      [
        "Ġgood",
        -7.58725354929582
      ],
      [
        ").",
        -7.588705555113133
      ],
      [
        "Ġeach",
        -7.589615590124643
      ],
      [
        "Ġhe",
        -7.59157427996236
      ],
      [
        "ĠThey",
        -7.601841402580533
      ],
      [
        "Ġhad",
        -7.602386716808494
      ],
      [
        "Ġwant",
        -7.602712259943514
      ],
      [
        "ĠâĢĵ",
        -7.605787806838713
      ],
      [
        "Ġhealth",
        -7.61516348203614
      ],
      [
        "Ġimportant",
        -7.621858122395272
      ],
      [
        "?ĊĊ",
        -7.624310803000954
      ],
      [
        "Ġsmall",
        -7.628200673601894
      ],
      [
        "In",
        -7.632122130669341
      ],
      [
        "Ġwhile",
        -7.635879970397967
      ],
      [
        "Ġhis",
        -7.638794621818843
      ],
      [
        "Ġprovide",
        -7.642317325923829
      ],
      [
        "ĠB",
        -7.643551448228193
      ],
      [
        "ity",
        -7.650176826900248
      ],
      [
        "ĠYou",
        -7.650493086669451
      ],
      [
        "Ġcell",
        -7.653148857568743
      ],
      [
        "Ġprocess",
        -7.660354876313541
      ],
      [
        "Ġdoes",
        -7.664387119172892
      ],
      [
        "Ġfood",
        -7.664623844206661
      ],
      [
        "ĠC",
        -7.684183459885453
      ],
      [
        "Ġlong",
        -7.687540417134548
      ],
      [
        "ever",
        -7.69685119525356
      ],
      [
        "ve",
        -7.697295520033464
      ],
      [
        "g",
        -7.70428937948628
      ],
      [
        "Ġdon",
        -7.708690022227232
      ],
      [
        "Ġafter",
        -7.711415031382989
      ],
      [
        "Ġthing",
        -7.715197247617331
      ],
      [
        "Ġdesign",
        -7.722776976427749
      ],
      [
        "Ġinclude",
        -7.723815431892069
      ],
      [
        "Ġworld",
        -7.7304545919879
      ],
      [
        "Ġenergy",
        -7.735749579959531
      ],
      [
        "Ġbefore",
        -7.737694816942268
      ],
      [
        "Ġlight",
        -7.74101123443784
      ],
      [
        "Ġaround",
        -7.748428007932276
      ],
      [
        "Ġcome",
        -7.751994708965983
      ],
      [
        "p",
        -7.752845890809844
      ],
      [
        "S",
        -7.760467393841369
      ],
      [
        "Ġallow",
        -7.768549698196141
      ],
      [
        "Ġduring",
        -7.7686332989784574
      ],
      [
        "Ġsame",
        -7.776057722880454
      ],
      [
        "ce",
        -7.7788074926056066
      ],
      [
        "made",
        -7.78136954814542
      ],
      [
        "Ġcreate",
        -7.786763325192393
      ],
      [
        "%",
        -7.789981289399483
      ],
      [
        "Ġbody",
        -7.7966797944943504
      ],
      [
        "Ġlife",
        -7.804024814449285
      ],
      [
        "Ġdown",
        -7.805874058361887
      ],
      [
        "Ġbeing",
        -7.807114061963514
      ],
      [
        "Ġthose",
        -7.813584743899701
      ],
      [
        "h",
        -7.826720850632103
      ],
      [
        "),",
        -7.832329050429676
      ],
      [
        "Ġkeep",
        -7.835352665869968
      ],
      [
        "Ġreal",
        -7.837909163940933
      ],
      [
        "Ġfound",
        -7.839632358044769
      ],
      [
        "Ġplace",
        -7.841198823944453
      ],
      [
        "Ġcause",
        -7.847358125241097
      ],
      [
        "Ġright",
        -7.848656980858236
      ],
      [
        "Ġdata",
        -7.849651591272188
      ],
      [
        "Ġoften",
        -7.851819792445458
      ],
      [
        "Ġfind",
        -7.852040613368775
      ],
      [
        "ll",
        -7.852410570770838
      ],
      [
        "Ġboth",
        -7.860956192368423
      ],
      [
        "Ġback",
        -7.865272306132068
      ],
      [
        "Ġbest",
        -7.8670469620209715
      ],
      [
        "Ġthink",
        -7.871320527789246
      ],
      [
        "Ġyear",
        -7.879466185399471
      ],
      [
        "is",
        -7.884927804737204
      ],
      [
        "What",
        -7.886682890981158
      ],
      [
        "Ġgreat",
        -7.886967201731345
      ],
      [
        "ĠWe",
        -7.891976574433572
      ],
      [
        "Ġday",
        -7.893006737399798
      ],
      [
        "x",
        -7.896496978169404
      ],
      [
        "Ġnumber",
        -7.904022309414115
      ],
      [
        "Ġcommon",
        -7.906418453348213
      ],
      [
        "Ġinformation",
        -7.910392690905811
      ],
      [
        "us",
        -7.912667035264844
      ],
      [
        "Ġstudy",
        -7.918273065865531
      ],
      [
        "ĠFor",
        -7.9231680554847905
      ],
      [
        "um",
        -7.92361462824257
      ],
      [
        "Ġchange",
        -7.92730521543205
      ],
      [
        "Ġpower",
        -7.929274291881328
      ],
      [
        "ic",
        -7.935637535851374
      ],
      [
        "Ġhome",
        -7.945090718047677
      ],
      [
        "Ġcolor",
        -7.954379658037761
      ],
      [
        "Ġus",
        -7.956706249110965
      ],
      [
        "Ġdevelop",
        -7.958703581067246
      ],
      [
        "How",
        -7.965227080291083
      ],
      [
        ":Ċ",
        -7.972272453726431
      ],
      [
        "Ġmight",
        -7.973238878277417
      ],
      [
        "Ġgo",
        -7.974725157080483
      ],
      [
        "Ġlead",
        -7.976158142769181
      ],
      [
        "Ġshow",
        -7.982794472734728
      ],
      [
        "f",
        -7.988979052142998
      ],
      [
        "Ġresearch",
        -7.989263859927558
      ],
      [
        "ability",
        -7.989270065994568
      ],
      [
        "Ġplant",
        -7.989350192771774
      ],
      [
        "Ġsaid",
        -7.992866655164688
      ],
      [
        "Ġown",
        -7.994223514628745
      ],
      [
        "Ġoff",
        -7.995014424944429
      ],
      [
        "Ġevery",
        -7.995181581014181
      ],
      [
        "ion",
        -7.997761885637367
      ],
      [
        "Ġanimal",
        -8.001389117737606
      ],
      [
        "(",
        -8.001408225700015
      ],
      [
        "ĠThese",
        -8.007918048014147
      ],
      [
        "Ġlarge",
        -8.008599662784224
      ],
      [
        "ĠS",
        -8.009766374588166
      ],
      [
        "This",
        -8.01183146144727
      ],
      [
        "or",
        -8.013643450348148
      ],
      [
        "Ġbetter",
        -8.01559384268456
      ],
      [
        "Ġnow",
        -8.016418392719524
      ],
      [
        "Ġsupport",
        -8.018368791959412
      ],
      [
        "Ġform",
        -8.01984124368984
      ],
      [
        "ness",
        -8.02317517517757
      ],
      [
        "Ġbecome",
        -8.025749838681007
      ],
      [
        "Ġheat",
        -8.025803424236084
      ],
      [
        "ĠTo",
        -8.026357145984361
      ],
      [
        "Ġair",
        -8.037103253232633
      ],
      [
        "Ġconsider",
        -8.037722107807381
      ],
      [
        "Ġgrow",
        -8.03795515860742
      ],
      [
        "Ġher",
        -8.039230835526334
      ],
      [
        "b",
        -8.03946147162565
      ],
      [
        "Ġme",
        -8.040298004886008
      ],
      [
        "If",
        -8.04085744723917
      ],
      [
        "Ġfew",
        -8.042916960165758
      ],
      [
        "Ġexample",
        -8.046549898810854
      ],
      [
        "Ġwithout",
        -8.05124766612397
      ],
      [
        "th",
        -8.052469159668439
      ],
      [
        "Ġstudents",
        -8.05455146671058
      ],
      [
        "and",
        -8.061134496965119
      ],
      [
        "Ġincrease",
        -8.065529410198613
      ],
      [
        "Ġtype",
        -8.07325464248624
      ],
      [
        "Ġsize",
        -8.07488288008623
      ],
      [
        "Ġstill",
        -8.074893979129518
      ],
      [
        "Ġmaking",
        -8.078607611829625
      ],
      [
        "Ġincluding",
        -8.080178103376712
      ],
      [
        "D",
        -8.084864554159802
      ],
      [
        "Ġbase",
        -8.087618058521011
      ],
      [
        ":ĊĊ",
        -8.087952623734411
      ],
      [
        "It",
        -8.089162101380149
      ],
      [
        "Ġexperience",
        -8.089791828598063
      ],
      [
        "...",
        -8.092755711475723
      ],
      [
        "Ġcase",
        -8.094569782260537
      ],
      [
        "Ġissue",
        -8.099367735939582
      ],
      [
        "Ġend",
        -8.100704489192973
      ],
      [
        "Ġspecies",
        -8.100899185368757
      ],
      [
        "ĠP",
        -8.104365795975937
      ],
      [
        "Ġhuman",
        -8.107199679808629
      ],
      [
        "Ġadd",
        -8.108056663183946
      ],
      [
        "Ġgroup",
        -8.109220918773797
      ],
      [
        "Ġeffect",
        -8.11496632336799
      ],
      [
        "Ġless",
        -8.116004358779191
      ],
      [
        "Ġresult",
        -8.122420140554597
      ],
      [
        "Ġchildren",
        -8.134148965128874
      ],
      [
        "ĠBut",
        -8.13441117440233
      ],
      [
        "u",
        -8.148946496901802
      ],
      [
        "Ġpoint",
        -8.149824242905826
      ],
      [
        "Ġthree",
        -8.154024162554679
      ],
      [
        "Ġunder",
        -8.155013930675501
      ],
      [
        "Ġlot",
        -8.159382767936748
      ],
      [
        "Ġun",
        -8.160821961367773
      ],
      [
        "Ġdog",
        -8.163549660790345
      ],
      [
        "Ġcontrol",
        -8.16853165832669
      ],
      [
        "C",
        -8.168905410136134
      ],
      [
        "ĠAnd",
        -8.172118797952301
      ],
      [
        "Ġwithin",
        -8.175492822123662
      ],
      [
        "Ġgive",
        -8.176765738917435
      ],
      [
        "Ġcost",
        -8.177235498371871
      ],
      [
        "Ġsure",
        -8.18155291384822
      ],
      [
        "Ġoffer",
        -8.182746230931702
      ],
      [
        "Ġcalled",
        -8.191355848241198
      ],
      [
        "B",
        -8.192090320362862
      ],
      [
        "known",
        -8.192646302181487
      ],
      [
        "le",
        -8.198213873352614
      ],
      [
        "Ġindividual",
        -8.205235037561131
      ],
      [
        "Ġquestion",
        -8.208610129655579
      ],
      [
        "Ġmain",
        -8.211331972590713
      ],
      [
        "Ġschool",
        -8.21317376249648
      ],
      [
        "Ġsomething",
        -8.225487675613723
      ],
      [
        "Ġfish",
        -8.22632285420136
      ],
      [
        "k",
        -8.226781965768383
      ],
      [
        "ĠD",
        -8.22787457706229
      ],
      [
        "Ġset",
        -8.229949164503884
      ],
      [
        "Ġwhy",
        -8.235184397574084
      ],
      [
        "Ġper",
        -8.237465672696585
      ],
      [
        "Ġmust",
        -8.238212100446463
      ],
      [
        "Ġplants",
        -8.240545945548947
      ],
      [
        "Ġfield",
        -8.241788268070701
      ],
      [
        "Ġlearn",
        -8.244261206833547
      ],
      [
        "Ġensure",
        -8.251792902901538
      ],
      [
        "ĠM",
        -8.252195519832771
      ],
      [
        "Ġreduce",
        -8.252253045489466
      ],
      [
        "ation",
        -8.252910289529922
      ],
      [
        "Ġhard",
        -8.25309983751064
      ],
      [
        "Ġsource",
        -8.254262205836861
      ],
      [
        "Ġplay",
        -8.257015153584785
      ],
      [
        "Ġfactor",
        -8.26267812470801
      ],
      [
        "Ġspecific",
        -8.265191716221382
      ],
      [
        "Ġtemperature",
        -8.266862738422425
      ],
      [
        "Ġblood",
        -8.27319049951162
      ],
      [
        "Ġgoing",
        -8.273469455690128
      ],
      [
        "ĠWhen",
        -8.278563281380489
      ],
      [
        "Ġcar",
        -8.280463049587153
      ],
      [
        "Ġfollowing",
        -8.28382195071599
      ],
      [
        "Ġlevel",
        -8.286065696700165
      ],
      [
        "Ġdue",
        -8.294801379300008
      ],
      [
        "Ġdevice",
        -8.308067601135846
      ],
      [
        "ĠSo",
        -8.308359932906518
      ],
      [
        "ĠThere",
        -8.309267117305524
      ],
      [
        "Ġamount",
        -8.310796130655785
      ],
      [
        "Ġstart",
        -8.318008692421836
      ],
      [
        "Ġhere",
        -8.318095205518055
      ],
      [
        "Ġlow",
        -8.32303086111604
      ],
      [
        "Ġimpact",
        -8.323176271822666
      ],
      [
        "Ġpossible",
        -8.324384419759713
      ],
      [
        "Ġvarious",
        -8.32451923909491
      ],
      [
        "w",
        -8.328533846301685
      ],
      [
        "Ġprevent",
        -8.332116451965213
      ],
      [
        "Ġsignificant",
        -8.333211900524592
      ],
      [
        "Ġanother",
        -8.336402196445876
      ],
      [
        "Ġmeans",
        -8.337665015221464
      ],
      [
        "Ġcare",
        -8.33984476697302
      ],
      [
        "Ġline",
        -8.340878621466121
      ],
      [
        "T",
        -8.341479538403016
      ],
      [
        "Ġspace",
        -8.344856811857925
      ],
      [
        "Ġeffective",
        -8.347615463512
      ],
      [
        "Ġstate",
        -8.354594310140758
      ],
      [
        "Ġtreatment",
        -8.355674423877556
      ],
      [
        "an",
        -8.355932439841272
      ],
      [
        "Ġrange",
        -8.357152482593285
      ],
      [
        "Ġrequire",
        -8.357279909907916
      ],
      [
        "Ġshe",
        -8.358711438810065
      ],
      [
        "Ġnatural",
        -8.358942831072994
      ],
      [
        "Ġpotential",
        -8.361195731678773
      ],
      [
        "Ġalways",
        -8.361720382728343
      ],
      [
        "less",
        -8.363137300699286
      ],
      [
        "Ġlittle",
        -8.36675593404899
      ],
      [
        "Ġfeel",
        -8.367139509301959
      ],
      [
        "Ġsecond",
        -8.367142491326156
      ],
      [
        "Ġdid",
        -8.378692592894973
      ],
      [
        "Ġdevelopment",
        -8.389148312659184
      ],
      [
        "Ġlast",
        -8.392571699708169
      ],
      [
        "Ġactual",
        -8.393051858877564
      ],
      [
        "Ġenvironment",
        -8.393229870639026
      ],
      [
        "Ġmaterial",
        -8.396119696302513
      ],
      [
        "Ġgeneral",
        -8.401243412921579
      ],
      [
        "the",
        -8.402580085224056
      ],
      [
        "Ġorder",
        -8.411467515515811
      ],
      [
        "ĠWhich",
        -8.415866133635538
      ],
      [
        "Ġrisk",
        -8.417401560818313
      ],
      [
        "Ġcontain",
        -8.417942746043988
      ],
      [
        "Ġtest",
        -8.421130304207777
      ],
      [
        "Ġreason",
        -8.421524856040783
      ],
      [
        "Ġavailable",
        -8.425050361065818
      ],
      [
        "Ġdays",
        -8.426969746458639
      ],
      [
        "Ġcomplete",
        -8.427201703168983
      ],
      [
        "Ġproblem",
        -8.42898605961306
      ],
      [
        ",\"",
        -8.433189307956031
      ],
      [
        "Ġdisease",
        -8.435577115824483
      ],
      [
        "Ġquality",
        -8.436810464875624
      ],
      [
        "Ġage",
        -8.44155114321964
      ],
      [
        "Ġside",
        -8.441645646498074
      ],
      [
        "Ġcurrent",
        -8.44178300844779
      ],
      [
        "Ġweek",
        -8.442780653123409
      ],
      [
        "Ġidea",
        -8.4429534742732
      ],
      [
        "Ġleave",
        -8.444922680456518
      ],
      [
        "Ġsurface",
        -8.446510172063238
      ],
      [
        "Ġseveral",
        -8.448418299397662
      ],
      [
        "Ġenough",
        -8.448889886635204
      ],
      [
        "Ġsoil",
        -8.45404023009403
      ],
      [
        "Ġcourse",
        -8.454844954990934
      ],
      [
        "Ġimprove",
        -8.460076478247888
      ],
      [
        "Ġtypes",
        -8.46103247319476
      ],
      [
        "Ġcertain",
        -8.46206178483899
      ],
      [
        "Ġessential",
        -8.462229902315292
      ],
      [
        "Ġareas",
        -8.469082358145897
      ],
      [
        "Ġusually",
        -8.471615992792206
      ],
      [
        "ally",
        -8.471649688877527
      ],
      [
        "Ġapplication",
        -8.472087931881727
      ],
      [
        "Ġ$",
        -8.474655033647398
      ],
      [
        "Ġopen",
        -8.475179395910207
      ],
      [
        "Ġfunction",
        -8.475237855287945
      ],
      [
        "Ġunderstand",
        -8.475819486028033
      ],
      [
        "Ġlearning",
        -8.476261866976422
      ],
      [
        "Ġdamage",
        -8.481693364503
      ],
      [
        "Ġ[",
        -8.482626722800141
      ],
      [
        "Ġtechnology",
        -8.483333361884911
      ],
      [
        "Ġlive",
        -8.48520720322107
      ],
      [
        "Ġneeds",
        -8.488016636539754
      ],
      [
        "Ġ&",
        -8.49646790630025
      ],
      [
        "When",
        -8.497719145707787
      ],
      [
        "Ġlocal",
        -8.499252806657474
      ],
      [
        "Ġname",
        -8.504429774896579
      ],
      [
        "Ġstructure",
        -8.507651277026426
      ],
      [
        "Ġuntil",
        -8.509189324897811
      ],
      [
        "]",
        -8.510223961852896
      ],
      [
        "Ġperson",
        -8.51106907430076
      ],
      [
        "Ġtext",
        -8.51138784993918
      ],
      [
        "ĠT",
        -8.511917436164921
      ],
      [
        "Ġteam",
        -8.518859654561679
      ],
      [
        "Ġfree",
        -8.520543391830772
      ],
      [
        "Ġarea",
        -8.522018753430538
      ],
      [
        "Ġfull",
        -8.522535932388436
      ],
      [
        "ĠE",
        -8.524092883655452
      ],
      [
        "ĠAs",
        -8.524129296432722
      ],
      [
        "Ġmean",
        -8.524916283583735
      ],
      [
        "Ġconditions",
        -8.527766235746718
      ],
      [
        "Ġtogether",
        -8.52834765551977
      ],
      [
        "Ġsay",
        -8.528715582976542
      ],
      [
        "*",
        -8.532681290751604
      ],
      [
        "Ġprotein",
        -8.53414407362327
      ],
      [
        "Ġrate",
        -8.53602189213675
      ],
      [
        "Ġpressure",
        -8.538101479677627
      ],
      [
        "ĠHe",
        -8.540092029392321
      ],
      [
        "Ġparticular",
        -8.540807204710383
      ],
      [
        "Ġtechnique",
        -8.5417775691842
      ],
      [
        "Ġtop",
        -8.543742597916932
      ],
      [
        "Ġsince",
        -8.544233253697847
      ],
      [
        "Ġmaintain",
        -8.54681679302359
      ],
      [
        "Ġkey",
        -8.548428927936946
      ],
      [
        "Ġproducts",
        -8.551356402133045
      ],
      [
        "Ġmaterials",
        -8.55375708745295
      ],
      [
        "Ġput",
        -8.555424589678703
      ],
      [
        "Ġnext",
        -8.555499232515027
      ],
      [
        "Ġnon",
        -8.555594671070901
      ],
      [
        "Ġhand",
        -8.556188670769073
      ],
      [
        "it",
        -8.559317665127232
      ],
      [
        "Ġaway",
        -8.559505667187615
      ],
      [
        "ĠBy",
        -8.561100769984371
      ],
      [
        "Ġaccess",
        -8.561668900782424
      ],
      [
        "Ġvalue",
        -8.562611243578102
      ],
      [
        "Ġ=",
        -8.564213554651127
      ],
      [
        "Ġlower",
        -8.564400454278108
      ],
      [
        "Ġweight",
        -8.565108804764844
      ],
      [
        "Ġanswer",
        -8.565217157445442
      ],
      [
        "Ġcreat",
        -8.568945834652371
      ],
      [
        "Ġmonth",
        -8.571780975526764
      ],
      [
        "out",
        -8.573074019131298
      ],
      [
        "having",
        -8.573146857734134
      ],
      [
        "ĠThat",
        -8.577069030786568
      ],
      [
        "Ġfamily",
        -8.577541438615786
      ],
      [
        "Ġstrong",
        -8.578249786506598
      ],
      [
        "Ġpresent",
        -8.581872367926952
      ],
      [
        "Ġresults",
        -8.581938762164295
      ],
      [
        "ĠG",
        -8.582086029730219
      ],
      [
        "Ġrole",
        -8.582597820204867
      ],
      [
        "Ġmethod",
        -8.584703151725893
      ],
      [
        "Ġwhite",
        -8.586281634800908
      ],
      [
        "Ġeye",
        -8.587241131553768
      ],
      [
        "Ġmarket",
        -8.587820257250563
      ],
      [
        "ther",
        -8.589887314468932
      ],
      [
        "Ġmodel",
        -8.590614076146105
      ],
      [
        "âĢĵ",
        -8.591673967750225
      ],
      [
        "Ġpaper",
        -8.593545502514324
      ],
      [
        "You",
        -8.595189578954514
      ],
      [
        "Ġdirect",
        -8.595191832314654
      ],
      [
        "Ġdiet",
        -8.595660874412209
      ],
      [
        "Ġmakes",
        -8.598377407023808
      ],
      [
        "Ġsimple",
        -8.600091593408006
      ],
      [
        "Ġvariet",
        -8.604258214975584
      ],
      [
        "Ġsystems",
        -8.605304784435196
      ],
      [
        "Ġhealthy",
        -8.605794438209443
      ],
      [
        "ĠUniversity",
        -8.605860700704223
      ],
      [
        "Ġcomputer",
        -8.611672729290577
      ],
      [
        "We",
        -8.61211169291644
      ],
      [
        "Ġlet",
        -8.613463893183706
      ],
      [
        "Ġeasy",
        -8.615833093601399
      ],
      [
        "Ġalong",
        -8.616631231297315
      ],
      [
        "ry",
        -8.618949791946033
      ],
      [
        "Ġlikely",
        -8.620923837384188
      ],
      [
        "Ġwide",
        -8.621765232428416
      ],
      [
        "Ġagain",
        -8.622191409065845
      ],
      [
        "Ġcheck",
        -8.624022627247601
      ],
      [
        "Ġgame",
        -8.624318964890026
      ],
      [
        "Ġavoid",
        -8.625662696465035
      ],
      [
        "Ġoil",
        -8.626095946024009
      ],
      [
        "higher",
        -8.628380128167567
      ],
      [
        "Ġdoesn",
        -8.633971750050662
      ],
      [
        "Ġprotect",
        -8.635365731752245
      ],
      [
        "Ġsimilar",
        -8.644545293529138
      ],
      [
        "Ġseem",
        -8.644937859326998
      ],
      [
        "self",
        -8.64498447146838
      ],
      [
        "v",
        -8.645461577683388
      ],
      [
        "Ġfocus",
        -8.646473076100254
      ],
      [
        "Ġturn",
        -8.64786874881275
      ],
      [
        "Ġlevels",
        -8.648970367043894
      ],
      [
        "Ġbook",
        -8.64993225994672
      ],
      [
        "Ġmove",
        -8.650849751336468
      ],
      [
        "Ġsafe",
        -8.652365661405671
      ],
      [
        "ĠR",
        -8.652402364673417
      ],
      [
        "Ġdepend",
        -8.65637182667406
      ],
      [
        "Ġperiod",
        -8.657036041250628
      ],
      [
        "Ġtypical",
        -8.657777684230728
      ],
      [
        "Ġshort",
        -8.658156630724894
      ],
      [
        "ĠH",
        -8.658721082334672
      ],
      [
        "Ġworking",
        -8.661715718431193
      ],
      [
        "Ġclean",
        -8.662560009075987
      ],
      [
        "Ġleast",
        -8.6626131595521
      ],
      [
        "early",
        -8.662798624460383
      ],
      [
        "Ġarticle",
        -8.666768872628532
      ],
      [
        "Ġphysical",
        -8.667486987920931
      ],
      [
        "Ġproduction",
        -8.667615044950828
      ],
      [
        "Ġunique",
        -8.668557371644411
      ],
      [
        "Ġdone",
        -8.669088534584157
      ],
      [
        "Ġlimit",
        -8.669673082362085
      ],
      [
        "ĠU",
        -8.670270457268648
      ],
      [
        "Ġchanges",
        -8.670427790842687
      ],
      [
        "ment",
        -8.671204101357977
      ],
      [
        "Ġfast",
        -8.67310486966883
      ],
      [
        "Ġproblems",
        -8.675273089824193
      ],
      [
        "Ġrun",
        -8.675685334071765
      ],
      [
        "Ġgrowth",
        -8.677032723014054
      ],
      [
        "P",
        -8.678508607821342
      ],
      [
        "Ġpopulation",
        -8.679960766181669
      ],
      [
        "Ġaccording",
        -8.680447482320051
      ],
      [
        "Ġproject",
        -8.681846371898175
      ],
      [
        "Ġprofessional",
        -8.683949795566939
      ],
      [
        "Ġgiven",
        -8.688593898708053
      ],
      [
        "Ġnever",
        -8.69008487217695
      ],
      [
        "to",
        -8.690343966860983
      ],
      [
        "âĢĻs",
        -8.69052144424611
      ],
      [
        "There",
        -8.690782274768114
      ],
      [
        "Ġchild",
        -8.692687677180437
      ],
      [
        "Ġespecially",
        -8.692830748059645
      ],
      [
        "stead",
        -8.693853728395004
      ],
      [
        "To",
        -8.694100486276156
      ],
      [
        "Ġproduct",
        -8.694245511950921
      ],
      [
        "Ġask",
        -8.700143026583042
      ],
      [
        "Ġdifficult",
        -8.703743764944647
      ],
      [
        "Ġsuggest",
        -8.704182810392112
      ],
      [
        "Ġprogram",
        -8.70460413101027
      ],
      [
        "Ġcontinue",
        -8.706493669963049
      ],
      [
        "Ġgas",
        -8.706631867452128
      ],
      [
        "Ġsingle",
        -8.706778166795527
      ],
      [
        "Ġsocial",
        -8.706880470031908
      ],
      [
        "Ġtreat",
        -8.707598348359923
      ],
      [
        "Ġplan",
        -8.708083121982197
      ],
      [
        "across",
        -8.710414927909422
      ],
      [
        "Ġclear",
        -8.713523694336997
      ],
      [
        "Ġdogs",
        -8.714670621072031
      ],
      [
        "Ġstep",
        -8.714690980791161
      ],
      [
        "Ġposition",
        -8.71480202232247
      ],
      [
        "ĠWith",
        -8.71535279256482
      ],
      [
        "Ġstore",
        -8.716424484785573
      ],
      [
        "Ġbusiness",
        -8.716483426099213
      ],
      [
        "Ġmachine",
        -8.719614931895428
      ],
      [
        "Ġbuilding",
        -8.72009852499694
      ],
      [
        "ers",
        -8.720369693660231
      ],
      [
        "Ġflow",
        -8.721936585296952
      ],
      [
        "Ġskin",
        -8.723066083480841
      ],
      [
        "Ġunit",
        -8.725492062212435
      ],
      [
        "Ġold",
        -8.729243583853663
      ],
      [
        "Ġeat",
        -8.73226686850516
      ],
      [
        "âĢĻ",
        -8.732376522324635
      ],
      [
        "ĠF",
        -8.73276075420117
      ],
      [
        "Ġlove",
        -8.7329553442001
      ],
      [
        "Ġfuture",
        -8.735204533599198
      ],
      [
        "Ġtimes",
        -8.736193700344696
      ],
      [
        "Ġclimate",
        -8.738908970527152
      ],
      [
        "ĠN",
        -8.739026468607882
      ],
      [
        "Ġfact",
        -8.739748997520147
      ],
      [
        "Ġground",
        -8.740599312691154
      ],
      [
        "!Ċ",
        -8.741601564877621
      ],
      [
        "Ġabove",
        -8.741735133006873
      ],
      [
        "Ġclose",
        -8.74221211968241
      ],
      [
        "Ġgarden",
        -8.74409373155353
      ],
      [
        "est",
        -8.747719251853944
      ],
      [
        "ĠV",
        -8.747739247672897
      ],
      [
        "Ġamong",
        -8.749278378427775
      ],
      [
        "Ġdifference",
        -8.75055340250276
      ],
      [
        "Ġbasic",
        -8.75174747708367
      ],
      [
        "Ġbit",
        -8.754892151961112
      ],
      [
        "Ġheart",
        -8.758188649575388
      ],
      [
        "Ġregular",
        -8.758537930557495
      ],
      [
        "Ġbenefits",
        -8.75856443571501
      ],
      [
        "Ġfar",
        -8.7597421481811
      ],
      [
        "Ġresearcher",
        -8.759752258411627
      ],
      [
        "Ġdeep",
        -8.760394925386809
      ],
      [
        "Ġcomponent",
        -8.764431509465131
      ],
      [
        "Ġtry",
        -8.765391059504509
      ],
      [
        "Ġwhe",
        -8.767053706971184
      ],
      [
        "Ġsign",
        -8.77237733114915
      ],
      [
        "Ġdetermine",
        -8.772594901853752
      ],
      [
        "Ġcontent",
        -8.772797730810906
      ],
      [
        "Ġchemical",
        -8.776410466406697
      ],
      [
        "Ġenjoy",
        -8.777303605263029
      ],
      [
        "Ġlayer",
        -8.77774133279776
      ],
      [
        "Ġscience",
        -8.779866947784885
      ],
      [
        "Ġmatter",
        -8.780368065579909
      ],
      [
        "ĠSome",
        -8.781500963987583
      ],
      [
        "Ġtoday",
        -8.782119456553243
      ],
      [
        "Ġhead",
        -8.78219173670044
      ],
      [
        "Ġwarm",
        -8.783209672336078
      ],
      [
        ")ĊĊ",
        -8.78339879189723
      ],
      [
        "Ġinterest",
        -8.783448152207036
      ],
      [
        "Ġcompare",
        -8.78388662911831
      ],
      [
        "not",
        -8.784340465544227
      ],
      [
        "Ġproduce",
        -8.784464046630228
      ],
      [
        "For",
        -8.786963208290222
      ],
      [
        "Ġbring",
        -8.787551715261714
      ],
      [
        "Ġtraining",
        -8.787563129114707
      ],
      [
        "Ġpost",
        -8.78992496461289
      ],
      [
        "Ġread",
        -8.793278902787213
      ],
      [
        "Ġmajor",
        -8.793829934586899
      ],
      [
        "ĠNew",
        -8.79524272896972
      ],
      [
        "_",
        -8.795803900444492
      ],
      [
        "Ġpattern",
        -8.797242474661445
      ],
      [
        "G",
        -8.79831482559949
      ],
      [
        "E",
        -8.800770278668193
      ],
      [
        "Ġremove",
        -8.800836965273355
      ],
      [
        "ĠOn",
        -8.801433309730422
      ],
      [
        "Ġsignal",
        -8.801519541579292
      ],
      [
        "Ġpopular",
        -8.802374634910795
      ],
      [
        "ive",
        -8.803438256570196
      ],
      [
        "Ġfour",
        -8.804648996659587
      ],
      [
        "Ġcancer",
        -8.805044017385455
      ],
      [
        "Ġpiece",
        -8.805470949248349
      ],
      [
        "ĠâĢĶ",
        -8.80580278191836
      ],
      [
        "Ġperformance",
        -8.805959108951647
      ],
      [
        "ĠYour",
        -8.806237307328821
      ],
      [
        "Ġengine",
        -8.806319818649564
      ],
      [
        "Ġaddition",
        -8.807888519120151
      ],
      [
        "Ġhim",
        -8.808390190740058
      ],
      [
        "Ġimage",
        -8.810067406941762
      ],
      [
        "Ġseed",
        -8.81261711728115
      ],
      [
        "Ġbatter",
        -8.81324908696256
      ],
      [
        "Ġcover",
        -8.813448582296761
      ],
      [
        "Ġregion",
        -8.813795044312517
      ],
      [
        "Ġde",
        -8.815302565589544
      ],
      [
        "Ġmillion",
        -8.817005507380813
      ],
      [
        "Ġrecent",
        -8.817285417258944
      ],
      [
        "Ġbig",
        -8.81882401333576
      ],
      [
        "\"ĊĊ",
        -8.819531239812529
      ],
      [
        "ish",
        -8.819669326093228
      ],
      [
        "Ġstudie",
        -8.819913427664728
      ],
      [
        "ĠNo",
        -8.820028043293728
      ],
      [
        "Ġbelow",
        -8.82257620343329
      ],
      [
        "Ġleft",
        -8.825438640339298
      ],
      [
        "Ġcarbon",
        -8.826335089858542
      ],
      [
        "Ġcondition",
        -8.82889174130228
      ],
      [
        "Ġcorrect",
        -8.830830332705977
      ],
      [
        "Ġunderstanding",
        -8.831376792150188
      ],
      [
        "be",
        -8.833014291733818
      ],
      [
        "Ġcat",
        -8.83404404181773
      ],
      [
        "Ġperform",
        -8.83462264694894
      ],
      [
        ")Ċ",
        -8.835498339186286
      ],
      [
        "M",
        -8.835623077336301
      ],
      [
        "Ġfurther",
        -8.836525868091272
      ],
      [
        "Ġsun",
        -8.837789434540658
      ],
      [
        "Ġcold",
        -8.840625462111902
      ],
      [
        "Ġeither",
        -8.841271764435824
      ],
      [
        "Ġchoice",
        -8.842006189385126
      ],
      [
        "Ġnormal",
        -8.842351077366175
      ],
      [
        "Ġchallenge",
        -8.843857242769875
      ],
      [
        "Ġsound",
        -8.846979579061314
      ],
      [
        "Ġbrain",
        -8.850706697767531
      ],
      [
        "Ġparent",
        -8.852556617912601
      ],
      [
        "Ġtoward",
        -8.852668650366605
      ],
      [
        "Ġsays",
        -8.853015123702269
      ],
      [
        "Ġskills",
        -8.853165918901865
      ],
      [
        "Ġinside",
        -8.853324607853146
      ],
      [
        "N",
        -8.85333524352083
      ],
      [
        "Ġnecessary",
        -8.854624637402502
      ],
      [
        "Ġred",
        -8.855113763076776
      ],
      [
        "Ġloss",
        -8.857384075519118
      ],
      [
        "Ġtalk",
        -8.858107135539655
      ],
      [
        "Ġgreen",
        -8.858210314129192
      ],
      [
        "Ġnear",
        -8.85975505879209
      ],
      [
        "Ġyoung",
        -8.866043634361837
      ],
      [
        "Ġaffect",
        -8.867684687190884
      ],
      [
        "Ġtotal",
        -8.87038421057867
      ],
      [
        "Ġreach",
        -8.872327100414568
      ],
      [
        "Ġcompany",
        -8.874147508864432
      ],
      [
        "ary",
        -8.8760339273566
      ],
      [
        "Ġfeatures",
        -8.876036490385573
      ],
      [
        "Ġgenetic",
        -8.876852006099174
      ],
      [
        "Ġspeed",
        -8.87834865555677
      ],
      [
        "Ġdry",
        -8.878768226947265
      ],
      [
        "Ġapproach",
        -8.878964668690692
      ],
      [
        "Ġindustry",
        -8.879114025796033
      ],
      [
        "already",
        -8.879528545367636
      ],
      [
        "Ġappear",
        -8.879815735778099
      ],
      [
        "Ġhours",
        -8.880471792257783
      ],
      [
        "age",
        -8.881052322574746
      ],
      [
        "Ġways",
        -8.881627466137026
      ],
      [
        "Ġbuild",
        -8.881726046150131
      ],
      [
        "Ġforce",
        -8.883457754883977
      ],
      [
        "Ġflower",
        -8.885795762960672
      ],
      [
        "Ġthought",
        -8.888873620581345
      ],
      [
        "living",
        -8.893135980390756
      ],
      [
        "Ġconcern",
        -8.896506021756142
      ],
      [
        "Ġcall",
        -8.897433766391778
      ],
      [
        "Ġtree",
        -8.89786615672038
      ],
      [
        "Ġclass",
        -8.899010748834383
      ],
      [
        "Ġcommunity",
        -8.8992968237072
      ],
      [
        "ves",
        -8.90096362770445
      ],
      [
        "Ġmilk",
        -8.903018345551864
      ],
      [
        "Ġblack",
        -8.905629481239348
      ],
      [
        "Ġneeded",
        -8.907368015113313
      ],
      [
        "Ġpurpose",
        -8.907575051453435
      ],
      [
        "Ġmind",
        -8.908429584925308
      ],
      [
        "Ġpositive",
        -8.908686751171565
      ],
      [
        "ĠOne",
        -8.910534824262859
      ],
      [
        "Ġhistory",
        -8.911054318018598
      ],
      [
        "Ġshape",
        -8.91138233399537
      ],
      [
        "ĠAI",
        -8.912423695113786
      ],
      [
        "Ġreport",
        -8.914767753313754
      ],
      [
        "ten",
        -8.914925641811298
      ],
      [
        "âĢĶ",
        -8.914965386217862
      ],
      [
        "Ġkind",
        -8.915149413839522
      ],
      [
        "Ġremain",
        -8.915397180821442
      ],
      [
        "Ġhouse",
        -8.919324625984167
      ],
      [
        "Ġtell",
        -8.919783494649998
      ],
      [
        "Ġfuel",
        -8.921414664486527
      ],
      [
        "K",
        -8.922211212867161
      ],
      [
        "Ġsolution",
        -8.92585691194827
      ],
      [
        "Ġwhole",
        -8.926176084448151
      ],
      [
        "Ġmedical",
        -8.93024426407926
      ],
      [
        "Ġrequired",
        -8.93180809705944
      ],
      [
        "Ġactivities",
        -8.932449481129801
      ],
      [
        "Ġlonger",
        -8.934435486801467
      ],
      [
        "Ġbehavior",
        -8.935455375107892
      ],
      [
        "Ġsomeone",
        -8.935592325744446
      ],
      [
        "Ġnature",
        -8.935674691310904
      ],
      [
        "Ġuser",
        -8.936331798088805
      ],
      [
        "Ġcountry",
        -8.938754570918444
      ],
      [
        "Ġexist",
        -8.938975674516431
      ],
      [
        ".\"Ċ",
        -8.940737392774238
      ],
      [
        "Ġdescribe",
        -8.94256138377128
      ],
      [
        "F",
        -8.944223601546778
      ],
      [
        "afety",
        -8.946082246089155
      ],
      [
        "Ġknowledge",
        -8.947115372038933
      ],
      [
        "Ġpain",
        -8.94735009421511
      ],
      [
        "Ġetc",
        -8.948408422884585
      ],
      [
        "Ġlanguage",
        -8.948423816913863
      ],
      [
        "Ġmeasure",
        -8.949756601604651
      ],
      [
        "Ġbelieve",
        -8.950913361185002
      ],
      [
        "Ġauthor",
        -8.954249141182135
      ],
      [
        "Ġsleep",
        -8.954554017936758
      ],
      [
        "Ġfall",
        -8.956841121897558
      ],
      [
        "Ġface",
        -8.957790748552453
      ],
      [
        "Ġeasil",
        -8.95990495587347
      ],
      [
        "Ġentire",
        -8.961711347902636
      ],
      [
        "Ġaction",
        -8.962228431535632
      ],
      [
        "Ġvehicle",
        -8.962688645408933
      ],
      [
        "Ġenvironmental",
        -8.962694140562453
      ],
      [
        "ĠL",
        -8.963122525998672
      ],
      [
        "Ġcomplex",
        -8.963686416414923
      ],
      [
        "Ġcool",
        -8.964849603090952
      ],
      [
        ").Ċ",
        -8.965205316628612
      ],
      [
        "Ġthough",
        -8.96660539881373
      ],
      [
        "Ġsense",
        -8.968752029870004
      ],
      [
        "Ġpersonal",
        -8.968942123876193
      ],
      [
        "Ġperfect",
        -8.969175392303637
      ],
      [
        "Ġpublic",
        -8.969252079479622
      ],
      [
        "Ġmoney",
        -8.971002442817369
      ],
      [
        "Ġexercise",
        -8.972928373341697
      ],
      [
        "Ġfollow",
        -8.973216554259809
      ],
      [
        "Ġstay",
        -8.973423129621727
      ],
      [
        "Ġpractice",
        -8.974332348561356
      ],
      [
        "Ġtaking",
        -8.977354870253269
      ],
      [
        "Ġcrucial",
        -8.979239282256849
      ],
      [
        "Ġrecord",
        -8.980531945708682
      ],
      [
        "Ġre",
        -8.980707401853905
      ],
      [
        "Ġbuy",
        -8.981485164940139
      ],
      [
        "Ġslow",
        -8.983669763505457
      ],
      [
        "V",
        -8.984638781478818
      ],
      [
        "Ġactivity",
        -8.986766225259132
      ],
      [
        "Ġsymptoms",
        -8.987016876852152
      ],
      [
        "Ġassociated",
        -8.987497278007474
      ],
      [
        "Ġmethods",
        -8.988569160786973
      ],
      [
        "H",
        -8.989393259949331
      ],
      [
        "R",
        -8.993889941289904
      ],
      [
        "ous",
        -8.993985586650997
      ],
      [
        "Ġchoose",
        -8.994429699702192
      ],
      [
        "So",
        -8.995125701317098
      ],
      [
        "Ġonline",
        -8.995209050184496
      ],
      [
        "Ġsea",
        -8.995595631366182
      ],
      [
        "Ġdoing",
        -8.996835549398241
      ],
      [
        "Ġtools",
        -8.997403357104453
      ],
      [
        "Ġterms",
        -8.998415617713643
      ],
      [
        "Ġcut",
        -9.001432939670591
      ],
      [
        "Ġtask",
        -9.001682307019333
      ],
      [
        "Ġbalance",
        -9.00244272550409
      ],
      [
        "As",
        -9.004103598833709
      ],
      [
        "ĠAn",
        -9.004105293827207
      ],
      [
        "Ġoverall",
        -9.00930896526252
      ],
      [
        "\\",
        -9.009979314164497
      ],
      [
        "Ġroom",
        -9.010338562354658
      ],
      [
        "Ġlocation",
        -9.010521418876916
      ],
      [
        "Ġtrees",
        -9.011644181216706
      ],
      [
        "Ġhot",
        -9.012630852584731
      ],
      [
        "Ġsample",
        -9.014762316122482
      ],
      [
        "ĠO",
        -9.015970778834102
      ],
      [
        "ĠAmerican",
        -9.017378174655514
      ],
      [
        "Ġcode",
        -9.018550608324553
      ],
      [
        "Ġrather",
        -9.019304803442392
      ],
      [
        "Ġam",
        -9.019755719721934
      ],
      [
        "Ġresources",
        -9.01975962661141
      ],
      [
        "Ġfruit",
        -9.021802614768433
      ],
      [
        "Ġtarget",
        -9.022506611192137
      ],
      [
        "Ġwomen",
        -9.022684451501895
      ],
      [
        "Ġreceive",
        -9.022781370151955
      ],
      [
        "Ġpaint",
        -9.02321208750973
      ],
      [
        "gainst",
        -9.0245063878454
      ],
      [
        "Ġdiscover",
        -9.026288929293203
      ],
      [
        "man",
        -9.027527549835138
      ],
      [
        "Ġpatients",
        -9.027799546404973
      ],
      [
        "Ġaverage",
        -9.028297919485157
      ],
      [
        "Ġvideo",
        -9.029645796304354
      ],
      [
        "Ġrelationship",
        -9.029886975696352
      ],
      [
        "Ġself",
        -9.030954138989795
      ],
      [
        "Ġsolar",
        -9.031931100403211
      ],
      [
        "Ġwinter",
        -9.032170017174812
      ],
      [
        "-base",
        -9.033132689676863
      ],
      [
        ".\"",
        -9.03543067649354
      ],
      [
        "ory",
        -9.03653846481567
      ],
      [
        "Ġmanagement",
        -9.036598085193862
      ],
      [
        "ĠK",
        -9.037015682464263
      ],
      [
        "Ġselect",
        -9.04090857495466
      ],
      [
        "Ġgot",
        -9.04181666279205
      ],
      [
        "Ġlarger",
        -9.04366162750152
      ],
      [
        "Ġeffort",
        -9.043912983489925
      ],
      [
        "Ġstop",
        -9.04633698918169
      ],
      [
        "Ġmetal",
        -9.046775059050823
      ],
      [
        "Ġminutes",
        -9.048644588384462
      ],
      [
        "Ġpast",
        -9.049352885474534
      ],
      [
        "Ġspecial",
        -9.049679197085016
      ],
      [
        "Ġplastic",
        -9.04980251064833
      ],
      [
        "Ġprobabl",
        -9.050495454247308
      ],
      [
        "Ġdigital",
        -9.056294151825238
      ],
      [
        "ĠDo",
        -9.058443461063288
      ],
      [
        "Ġlater",
        -9.058831601151113
      ],
      [
        "Ġstress",
        -9.058908725442109
      ],
      [
        "Ġland",
        -9.059000340736391
      ],
      [
        "ĠW",
        -9.059734349624414
      ],
      [
        "Ġothers",
        -9.060291747382474
      ],
      [
        "âĢ¦",
        -9.063072082370304
      ],
      [
        "Ġstage",
        -9.065319392103772
      ],
      [
        "Ġquickly",
        -9.066316331638482
      ],
      [
        "Ġguide",
        -9.066754384147918
      ],
      [
        "Ġnetwork",
        -9.06944377381457
      ],
      [
        "Ġmodern",
        -9.069824218246994
      ],
      [
        "Ġrelated",
        -9.06994202203682
      ],
      [
        "Ġhappen",
        -9.071242425811066
      ],
      [
        "once",
        -9.07129464966562
      ],
      [
        "Ġtravel",
        -9.073855515155376
      ],
      [
        "Ġwild",
        -9.07387116798594
      ],
      [
        "ism",
        -9.078606472828197
      ],
      [
        "Ġseason",
        -9.079736140844108
      ],
      [
        "Ġfive",
        -9.084460890523635
      ],
      [
        "ĠWhile",
        -9.08468018455154
      ],
      [
        "Ġtraditional",
        -9.085790884588556
      ],
      [
        "Ġglobal",
        -9.086479959870625
      ],
      [
        "Ġsimply",
        -9.087235402508666
      ],
      [
        "Ġservice",
        -9.087261897415829
      ],
      [
        "Ġregard",
        -9.087428965881008
      ],
      [
        "Ġlist",
        -9.087819392739984
      ],
      [
        "Ġcontact",
        -9.088073283722244
      ],
      [
        "Ġattention",
        -9.088529446620084
      ],
      [
        "Ġpre",
        -9.08900850848218
      ],
      [
        "where",
        -9.089634032876305
      ],
      [
        "ĠScience",
        -9.089834179837949
      ],
      [
        "Ġprimar",
        -9.090791021360417
      ],
      [
        "Ġmultiple",
        -9.092225893854774
      ],
      [
        "by",
        -9.093756455603415
      ],
      [
        "Ġdegree",
        -9.09454747879741
      ],
      [
        "Ġrelative",
        -9.095701056712102
      ],
      [
        "however",
        -9.09617075170461
      ],
      [
        "Ġoutside",
        -9.096834575745907
      ],
      [
        "Many",
        -9.09855670271332
      ],
      [
        "Ġwalk",
        -9.098848986005764
      ],
      [
        "+",
        -9.099502864522432
      ],
      [
        "Ġmovement",
        -9.100036267377469
      ],
      [
        "Ġresponse",
        -9.100680361968095
      ],
      [
        "Ġhumans",
        -9.101780765015535
      ],
      [
        "Ġterm",
        -9.105348053111864
      ],
      [
        "Ġact",
        -9.105691777320589
      ],
      [
        "Ġsite",
        -9.105837417722224
      ],
      [
        "Ġfemale",
        -9.108649169861028
      ],
      [
        "ĠAll",
        -9.10939571522152
      ],
      [
        "Ġlength",
        -9.110860706574211
      ],
      [
        "Ġrelease",
        -9.111394906316889
      ],
      [
        "Ġreturn",
        -9.113266986124614
      ],
      [
        "Ġstrateg",
        -9.11332498181008
      ],
      [
        "|",
        -9.116117180811582
      ],
      [
        "ĠDNA",
        -9.116226379424567
      ],
      [
        "Ġfront",
        -9.116471617996574
      ],
      [
        "Ġequipment",
        -9.121103459000174
      ],
      [
        "Ġfun",
        -9.12149753374213
      ],
      [
        "Ġal",
        -9.123855117877175
      ],
      [
        "Ġwon",
        -9.127414961794786
      ],
      [
        "Ġconcept",
        -9.127661926344407
      ],
      [
        "Ġeducation",
        -9.128076798707983
      ],
      [
        "Ġefficient",
        -9.128582194637591
      ],
      [
        "Ġadditional",
        -9.13027189566494
      ],
      [
        "Ġnight",
        -9.130517530320214
      ],
      [
        "ĠHere",
        -9.131677148158104
      ],
      [
        "ĠAt",
        -9.133414055256257
      ],
      [
        "Ġhold",
        -9.134182764400377
      ],
      [
        "Ġpay",
        -9.13722798729022
      ],
      [
        "Ġsugar",
        -9.137815905684342
      ],
      [
        "Ġaddress",
        -9.138508349732785
      ],
      [
        "Ġproper",
        -9.138773232440853
      ],
      [
        "Ġsometime",
        -9.13955564610772
      ],
      [
        "Ġalmost",
        -9.13999295580859
      ],
      [
        "Ġproperties",
        -9.141022962654423
      ],
      [
        "Ġpet",
        -9.141068420189791
      ],
      [
        "Ġserve",
        -9.142998313404476
      ],
      [
        "Ġwaste",
        -9.143705782503208
      ],
      [
        "Ġrepresent",
        -9.14370776424744
      ],
      [
        "Ġsummer",
        -9.144227938941167
      ],
      [
        "Ġshare",
        -9.144300160666356
      ],
      [
        "Ġoriginal",
        -9.144624761815711
      ],
      [
        "Ġsetting",
        -9.145625324704763
      ],
      [
        "Ġprovid",
        -9.146031190081212
      ],
      [
        "Ġservices",
        -9.152164049699229
      ],
      [
        "Ġactive",
        -9.152428417441126
      ],
      [
        "Ġoptions",
        -9.154890689857492
      ],
      [
        "Ġrule",
        -9.154949601556776
      ],
      [
        "Ġtool",
        -9.156367739102038
      ],
      [
        "Ġacid",
        -9.156948474048376
      ],
      [
        "Ġhalf",
        -9.158752015670755
      ],
      [
        "ĠEarth",
        -9.160270512862818
      ],
      [
        "Ġmass",
        -9.16242876276982
      ],
      [
        "Ġbad",
        -9.162811071099622
      ],
      [
        "Ġeyes",
        -9.16283031049598
      ],
      [
        "Ġexplore",
        -9.163208422461723
      ],
      [
        "ĠNational",
        -9.163245649478174
      ],
      [
        "Ġrest",
        -9.164108397999406
      ],
      [
        "Ġreading",
        -9.16418148398798
      ],
      [
        "Ġpercent",
        -9.164305052948391
      ],
      [
        "Ġmix",
        -9.168582463214662
      ],
      [
        "Ġsuccessful",
        -9.169037950249358
      ],
      [
        "Ġever",
        -9.169802812351172
      ],
      [
        "Ġoperation",
        -9.170179706407778
      ],
      [
        "Ġorganization",
        -9.170694488400247
      ],
      [
        "ĠUnited",
        -9.171890110805922
      ],
      [
        "Ġfinal",
        -9.172108967586023
      ],
      [
        "Ġcamera",
        -9.172298217602972
      ],
      [
        "Ġinvolve",
        -9.173752444854928
      ],
      [
        "Ġeggs",
        -9.175646574248166
      ],
      [
        "Ġaccount",
        -9.176313883453789
      ],
      [
        "Ġbirds",
        -9.179546565003298
      ],
      [
        "ar",
        -9.18152832908052
      ],
      [
        "Ġparticle",
        -9.181602633499978
      ],
      [
        "Ġthemsel",
        -9.181962743798682
      ],
      [
        "Ġwebsite",
        -9.184609534038492
      ],
      [
        "yourself",
        -9.185130967986186
      ],
      [
        "Ġreduc",
        -9.185420575939226
      ],
      [
        "Ġplayer",
        -9.185839016169954
      ],
      [
        "Ġnegative",
        -9.185933635163622
      ],
      [
        "Ġachieve",
        -9.186601455683814
      ],
      [
        "Ġvisit",
        -9.186733254385564
      ],
      [
        "Ġsave",
        -9.186772276632166
      ],
      [
        "Ġenhance",
        -9.187232517453708
      ],
      [
        "Ġelements",
        -9.1885685200808
      ],
      [
        "Ġart",
        -9.189629227667336
      ],
      [
        "Ġexplain",
        -9.19291915955813
      ],
      [
        "[",
        -9.194349815418338
      ],
      [
        "O",
        -9.195599647928518
      ],
      [
        "Ġtissue",
        -9.196400262946138
      ],
      [
        "Ġanalysis",
        -9.197053476600992
      ],
      [
        "cy",
        -9.1973838189776
      ],
      [
        "Ġsensor",
        -9.198262584551353
      ],
      [
        "Ġgain",
        -9.198575432823366
      ],
      [
        "ything",
        -9.198695639943969
      ],
      [
        "Ġkids",
        -9.200129357079788
      ],
      [
        "Ġquite",
        -9.201681726555504
      ],
      [
        "Ġprevious",
        -9.202867054897036
      ],
      [
        "Ġdirection",
        -9.203205223442744
      ],
      [
        "One",
        -9.203655339311211
      ],
      [
        "Ġscientists",
        -9.20665766099443
      ],
      [
        "Ġcenter",
        -9.206780351285651
      ],
      [
        "ĠJ",
        -9.20717858177687
      ],
      [
        "Ġisn",
        -9.207669824502446
      ],
      [
        "Ġweather",
        -9.209044812889912
      ],
      [
        "Ġfeet",
        -9.2100290419022
      ],
      [
        "ĠDr",
        -9.2104709325906
      ],
      [
        "Ġvegetable",
        -9.213246336735576
      ],
      [
        "Ġbehind",
        -9.213857749639237
      ],
      [
        "Ġsupply",
        -9.214236312649334
      ],
      [
        "Ġfresh",
        -9.214720415151437
      ],
      [
        "Ġmeat",
        -9.215795957199749
      ],
      [
        "Ġmentioned",
        -9.217230889723528
      ],
      [
        "Ġpass",
        -9.21929480880815
      ],
      [
        "Ġexact",
        -9.219376483308036
      ],
      [
        "Ġago",
        -9.223132018518928
      ],
      [
        "Ġfinding",
        -9.224291105122749
      ],
      [
        "Ġstarted",
        -9.224295738365804
      ],
      [
        "Ġfat",
        -9.224432954167488
      ],
      [
        "Ġyet",
        -9.225627018283935
      ],
      [
        "ance",
        -9.22583362465877
      ],
      [
        "Ġtrue",
        -9.227873914391202
      ],
      [
        "Ġtrying",
        -9.229147687630691
      ],
      [
        "Ġeverything",
        -9.229381015711468
      ],
      [
        "Ġnote",
        -9.235950406989296
      ],
      [
        "Ġmemory",
        -9.236697414192268
      ],
      [
        "Ġadvantage",
        -9.23974046385048
      ],
      [
        "Ġdark",
        -9.240196442680338
      ],
      [
        "Ġspread",
        -9.241998602266406
      ],
      [
        "Ġfit",
        -9.24271245198734
      ],
      [
        "Ġwords",
        -9.24549044789969
      ],
      [
        "Ġeasie",
        -9.246299820570554
      ],
      [
        "line",
        -9.24640674539316
      ],
      [
        "Ġice",
        -9.24682281491016
      ],
      [
        "Why",
        -9.248174532654296
      ],
      [
        "z",
        -9.248201025654152
      ],
      [
        "ĠAfter",
        -9.24821471417933
      ],
      [
        "Ġbacteria",
        -9.2486824499277
      ],
      [
        "Ġstandard",
        -9.248812938822027
      ],
      [
        "Ġcircuit",
        -9.249496550411752
      ],
      [
        "Ġfoods",
        -9.250036138886747
      ],
      [
        "Ġbrand",
        -9.250583176197154
      ],
      [
        "ĠCan",
        -9.251125599684713
      ],
      [
        "Ġear",
        -9.251908973892316
      ],
      [
        "daily",
        -9.255130725632158
      ],
      [
        "mm",
        -9.255430813736996
      ],
      [
        "Ġwall",
        -9.258742700438392
      ],
      [
        ">",
        -9.260114283285258
      ],
      [
        "Ġwood",
        -9.262598886600824
      ],
      [
        "Ġcontribute",
        -9.26362211342815
      ],
      [
        "Ġfill",
        -9.264278509752105
      ],
      [
        "Ġmeet",
        -9.265014831332907
      ],
      [
        "Ġfeed",
        -9.26777983667872
      ],
      [
        "Ġjob",
        -9.267887317813534
      ],
      [
        "Ġapply",
        -9.268102087249243
      ],
      [
        "Ġconstant",
        -9.268104673375728
      ],
      [
        "Ġcustomer",
        -9.26865801314128
      ],
      [
        "Ġcountr",
        -9.268938885068156
      ],
      [
        "Ġindicate",
        -9.270288394422447
      ],
      [
        "Ġcleaning",
        -9.273241787440291
      ],
      [
        "Ġspring",
        -9.274449567265137
      ],
      [
        "Ġgenerate",
        -9.274622259363325
      ],
      [
        "Ġstory",
        -9.275232673483297
      ],
      [
        "Ġexperiment",
        -9.275271291143625
      ],
      [
        "Ġdrive",
        -9.275362166490329
      ],
      [
        "Ġmodels",
        -9.275755725140968
      ],
      [
        "Ġsection",
        -9.281204406426449
      ],
      [
        "Ġcommunication",
        -9.282177823883591
      ],
      [
        "Ġculture",
        -9.282635590163384
      ],
      [
        "Ġmental",
        -9.283039983437654
      ],
      [
        "Ġcharacter",
        -9.284250757521642
      ],
      [
        "Ġdidn",
        -9.284317872086426
      ],
      [
        "Ġoption",
        -9.288639640685329
      ],
      [
        "Ġevidence",
        -9.288648208403885
      ],
      [
        "Ġwave",
        -9.290105838534444
      ],
      [
        "Ġmedia",
        -9.290824542694963
      ],
      [
        "Ġseparate",
        -9.290970901888311
      ],
      [
        "ecause",
        -9.292308323461524
      ],
      [
        "Ġliquid",
        -9.292326043739074
      ],
      [
        "Ġinfluence",
        -9.293205324438908
      ],
      [
        "Ġextra",
        -9.294837943778496
      ],
      [
        "land",
        -9.295258704032342
      ],
      [
        "Ġworks",
        -9.295400730650409
      ],
      [
        "ĠStates",
        -9.295503988744034
      ],
      [
        "Ġefficienc",
        -9.296586727483623
      ],
      [
        "Ġbreed",
        -9.297340610483344
      ],
      [
        "Ġprotection",
        -9.297471336707677
      ],
      [
        "Ġeveryone",
        -9.29787278003558
      ],
      [
        "Ġprovided",
        -9.298926096288437
      ],
      [
        "Ġfine",
        -9.299889254666008
      ],
      [
        "Ġdistance",
        -9.30009058692399
      ],
      [
        "Ġstyle",
        -9.300401790381796
      ],
      [
        "But",
        -9.302670445443264
      ],
      [
        "Ġmonitor",
        -9.30488708025477
      ],
      [
        "L",
        -9.305540437163591
      ],
      [
        ".S",
        -9.306587048517482
      ],
      [
        "Ġenter",
        -9.307162286714298
      ],
      [
        "Ġtopic",
        -9.307901186349934
      ],
      [
        "Ġprice",
        -9.307905374736992
      ],
      [
        "Ġaspect",
        -9.308498667076872
      ],
      [
        "Ġsoftware",
        -9.308533556156824
      ],
      [
        "Ġfire",
        -9.308819328644294
      ],
      [
        "Ġblue",
        -9.30942457312127
      ],
      [
        "Ġscientific",
        -9.309886565959168
      ],
      [
        "Ġcritical",
        -9.310613395634526
      ],
      [
        "Ġinsect",
        -9.310695722462109
      ],
      [
        "Ġcity",
        -9.3119640580415
      ],
      [
        "Ġelectric",
        -9.313824960480732
      ],
      [
        "Ġsteps",
        -9.31407307948338
      ],
      [
        "Ġtank",
        -9.314504995686036
      ],
      [
        "Ġreview",
        -9.314675442867006
      ],
      [
        "Ġlack",
        -9.316046688882162
      ],
      [
        "Ġaim",
        -9.316915118376958
      ],
      [
        "ĠSouth",
        -9.317456831564034
      ],
      [
        "Ġremember",
        -9.317784287499093
      ],
      [
        "Ġdream",
        -9.318479220189335
      ],
      [
        "Ġelse",
        -9.319885191543085
      ],
      [
        "Ġbenefit",
        -9.320570894512583
      ],
      [
        "Ġteacher",
        -9.321393199817646
      ],
      [
        "Ġproduced",
        -9.32173766194012
      ],
      [
        "lthough",
        -9.321914086537465
      ],
      [
        "Ġtend",
        -9.32218883569604
      ],
      [
        "Ġidentify",
        -9.32436902555413
      ],
      [
        "Ġprocesses",
        -9.32441865515086
      ],
      [
        "Ġeating",
        -9.324827352915031
      ],
      [
        "Ġcycle",
        -9.325282533776484
      ],
      [
        "Ġsearch",
        -9.32554659410913
      ],
      [
        "Ġsix",
        -9.325957755165112
      ],
      [
        "Ġconduct",
        -9.32696084841022
      ],
      [
        "Ġevent",
        -9.327833652018352
      ],
      [
        "ĠUse",
        -9.327860357006577
      ],
      [
        "Ġgovernment",
        -9.328625942778032
      ],
      [
        "Ġstrength",
        -9.330605153292383
      ],
      [
        "Ġobject",
        -9.330700891999328
      ],
      [
        "ĠBe",
        -9.331626327609008
      ],
      [
        "Ġcharge",
        -9.33181478581714
      ],
      [
        "Ġappropriate",
        -9.332743515383363
      ],
      [
        "Ġelectrical",
        -9.332820095706222
      ],
      [
        "Ġcook",
        -9.333683290700332
      ],
      [
        "ĠâĢľ",
        -9.33437344576477
      ],
      [
        "Ġdisplay",
        -9.334514616650402
      ],
      [
        "Ġview",
        -9.335373280081535
      ],
      [
        "Ġwatch",
        -9.336368722899469
      ],
      [
        "Ġdemand",
        -9.33765836032584
      ],
      [
        "Ġexpert",
        -9.338297862908508
      ],
      [
        "Ġmanage",
        -9.33886573348216
      ],
      [
        "Ġcollect",
        -9.339141186453476
      ],
      [
        "Ġsalt",
        -9.339419506486506
      ],
      [
        "Ġstudent",
        -9.33967558982718
      ],
      [
        "Ġdoctor",
        -9.340007870259893
      ],
      [
        "Ġrecommended",
        -9.340165191616364
      ],
      [
        "Ġingredient",
        -9.340600722056774
      ],
      [
        "Ġinstruction",
        -9.34204994706884
      ],
      [
        "ĠShe",
        -9.34266456370817
      ],
      [
        "Ġinstall",
        -9.342893625467342
      ],
      [
        "Ġseries",
        -9.343201711249606
      ],
      [
        "Ġcats",
        -9.34627875501558
      ],
      [
        "Ġinvolved",
        -9.346677858460172
      ],
      [
        "Ġpage",
        -9.347489051536709
      ],
      [
        "W",
        -9.34963601052408
      ],
      [
        "Ġwind",
        -9.350178733259847
      ],
      [
        "Ġtips",
        -9.35078676435096
      ],
      [
        "Ġshows",
        -9.35227792846934
      ],
      [
        "Ġroot",
        -9.352469699463825
      ],
      [
        "Ġb",
        -9.352651854153237
      ],
      [
        "Ġlate",
        -9.354959343935358
      ],
      [
        "ĠWorld",
        -9.3570243460871
      ],
      [
        "Ġforest",
        -9.358280220963874
      ],
      [
        "Ġemission",
        -9.35861142269653
      ],
      [
        "ĠSchool",
        -9.360197479933216
      ],
      [
        "Ġitems",
        -9.362267018152655
      ],
      [
        "Ġrequirement",
        -9.362616708996969
      ],
      [
        "Ġgoal",
        -9.362818712830755
      ],
      [
        "Ġchance",
        -9.365422086502104
      ],
      [
        "Ġpoints",
        -9.369506328921208
      ],
      [
        "Ġstorage",
        -9.370074313768242
      ],
      [
        "âĢĿ",
        -9.371018841992807
      ],
      [
        "Ġcharacteristic",
        -9.371810934635995
      ],
      [
        "ember",
        -9.372860827597538
      ],
      [
        "Ġbuilt",
        -9.37314463324359
      ],
      [
        "light",
        -9.376540998248782
      ],
      [
        "Ġnotice",
        -9.379504267277651
      ],
      [
        "Ġword",
        -9.379959775384098
      ],
      [
        "Ġscale",
        -9.380451513490744
      ],
      [
        "Ġbird",
        -9.382267891818827
      ],
      [
        "Ġconnection",
        -9.382689764848053
      ],
      [
        "Ġrepair",
        -9.38421289488327
      ],
      [
        "Ġversion",
        -9.384587199629507
      ],
      [
        "Ġ--",
        -9.386473938049438
      ],
      [
        "ĠHealth",
        -9.387507758245578
      ],
      [
        "Ġimages",
        -9.387972729455656
      ],
      [
        "Ġcauses",
        -9.388366072099217
      ],
      [
        "Ġmaintenance",
        -9.3897174268428
      ],
      [
        "Ġspot",
        -9.391775784250534
      ],
      [
        "Ġorganic",
        -9.391975988880802
      ],
      [
        "Ġfigure",
        -9.393558195763028
      ],
      [
        "Ġmolecule",
        -9.39388394877469
      ],
      [
        "Ġoutput",
        -9.394360187667647
      ],
      [
        "ĠAmerica",
        -9.39598636277422
      ],
      [
        "Ġrunning",
        -9.39602299202238
      ],
      [
        "Ġmale",
        -9.396389777099994
      ],
      [
        "ian",
        -9.397355444091955
      ],
      [
        "Ġinitial",
        -9.401303256179464
      ],
      [
        "Ġswitch",
        -9.401928940426568
      ],
      [
        "Ġfrequent",
        -9.402760498935956
      ],
      [
        "companie",
        -9.4033479883504
      ],
      [
        "Ġgene",
        -9.403391409027426
      ],
      [
        "Ġtaste",
        -9.40403598986414
      ],
      [
        "Ġideal",
        -9.404182190483509
      ],
      [
        "Ġfeeling",
        -9.404651916097665
      ],
      [
        "ĠResearch",
        -9.405587299184187
      ],
      [
        "Ġmoving",
        -9.405591271165951
      ],
      [
        "Ġtrack",
        -9.405915509181868
      ],
      [
        "Ġoccur",
        -9.406796750772394
      ],
      [
        "Ġuseful",
        -9.40787423481756
      ],
      [
        "Ġbreak",
        -9.408426369981578
      ],
      [
        "Ġtouch",
        -9.408608991715916
      ],
      [
        "Ġimmediate",
        -9.4087025676482
      ],
      [
        "ĠYes",
        -9.410049260115242
      ],
      [
        "Ġhair",
        -9.410818005211876
      ],
      [
        "Ġfilm",
        -9.41102130476872
      ],
      [
        "Ġequal",
        -9.412805124949022
      ],
      [
        "Ġsubject",
        -9.412964774465244
      ],
      [
        "Ġfeature",
        -9.414798595596322
      ],
      [
        "Ġbegin",
        -9.414821230681545
      ],
      [
        "ĠMay",
        -9.415695715845343
      ],
      [
        "Ġmembers",
        -9.415936058084624
      ],
      [
        "-to",
        -9.416009562710093
      ],
      [
        "Can",
        -9.41618783010625
      ],
      [
        "Ġcarry",
        -9.418297755651178
      ],
      [
        "Ġclaim",
        -9.41881462885318
      ],
      [
        "Ġfarm",
        -9.420465130001404
      ],
      [
        "ĠAls",
        -9.42730861439567
      ],
      [
        "Ġattack",
        -9.42785843202487
      ],
      [
        "ur",
        -9.428984346581952
      ],
      [
        "Ġfinish",
        -9.429069326921097
      ],
      [
        "Ġpatient",
        -9.429148083613136
      ],
      [
        "Ġcombination",
        -9.429678393451098
      ],
      [
        "Ġsoon",
        -9.430339932961733
      ],
      [
        "if",
        -9.430673376001783
      ],
      [
        "Ġreplace",
        -9.430727216239436
      ],
      [
        "ĠWhy",
        -9.43134608344447
      ],
      [
        "Ġcontext",
        -9.431442033225409
      ],
      [
        "Ġglass",
        -9.431455638975107
      ],
      [
        "Ġdecrease",
        -9.43229929939992
      ],
      [
        "Ġgoe",
        -9.435813330015094
      ],
      [
        "Ġteeth",
        -9.43647099980434
      ],
      [
        "tic",
        -9.44055122249872
      ],
      [
        "Ġserious",
        -9.442449204948623
      ],
      [
        "ĠMost",
        -9.44339600695158
      ],
      [
        "An",
        -9.44356220832211
      ],
      [
        "ĠFrom",
        -9.443774941445088
      ],
      [
        "Ġpublished",
        -9.4443541786463
      ],
      [
        "Ġman",
        -9.445244448500294
      ],
      [
        "Ġobtain",
        -9.4455370269442
      ],
      [
        "Ġworth",
        -9.446086695990132
      ],
      [
        "Ġcount",
        -9.4476040667576
      ],
      [
        "Ġdetect",
        -9.448346324663092
      ],
      [
        "Ġslight",
        -9.450188339555313
      ],
      [
        "ĠX",
        -9.45037122746754
      ],
      [
        "Ġelectronic",
        -9.450944442437752
      ],
      [
        "one",
        -9.4524810372835
      ],
      [
        "Ġpretty",
        -9.452950585492893
      ],
      [
        "Ġpump",
        -9.45325267125876
      ],
      [
        "Ġwear",
        -9.453879504003634
      ],
      [
        "Ġsub",
        -9.45417399246272
      ],
      [
        "=",
        -9.455907834915324
      ],
      [
        "ĠNorth",
        -9.45599598602858
      ],
      [
        "While",
        -9.456393367524136
      ],
      [
        "Ġextend",
        -9.456507847705817
      ],
      [
        "Ġimportanc",
        -9.45655123871524
      ],
      [
        "Ġgeneration",
        -9.457922705150684
      ],
      [
        "up",
        -9.45944352200809
      ],
      [
        "Ġdeliver",
        -9.459610515032626
      ],
      [
        "Ġburn",
        -9.459937991474307
      ],
      [
        "Ġwrite",
        -9.460026520607798
      ],
      [
        "Using",
        -9.460618060870534
      ],
      [
        "Ġtemperatures",
        -9.46109117215798
      ],
      [
        "Ġsuccess",
        -9.461430771620993
      ],
      [
        "Ġinput",
        -9.461962545600702
      ],
      [
        "Ġrich",
        -9.462240627758684
      ],
      [
        "Ġfilter",
        -9.462382227264907
      ],
      [
        "By",
        -9.462545626732403
      ],
      [
        "Ġcollection",
        -9.462650631778818
      ],
      [
        "Ġbottom",
        -9.46298821405088
      ],
      [
        "Ġsoft",
        -9.463790126760998
      ],
      [
        "Ġresistance",
        -9.464287342460874
      ],
      [
        "Ġ+",
        -9.46506347597112
      ],
      [
        "Ġnoise",
        -9.465695996667527
      ],
      [
        "ization",
        -9.467459476746434
      ],
      [
        "Ġcouple",
        -9.467527663900457
      ],
      [
        "$",
        -9.467889152362858
      ],
      [
        "Ġfile",
        -9.46832398303771
      ],
      [
        "Ġdisorder",
        -9.468543347792297
      ],
      [
        "Ġdeath",
        -9.468685867068078
      ],
      [
        "Ġfabric",
        -9.469208155940333
      ],
      [
        "Ġlives",
        -9.469681811639608
      ],
      [
        "Ġmoment",
        -9.4697115358324
      ],
      [
        "Ġhope",
        -9.46998331868663
      ],
      [
        "Ġdiseases",
        -9.47045379232514
      ],
      [
        "Ġusers",
        -9.472452845795594
      ],
      [
        "Ġwriting",
        -9.472661121793262
      ],
      [
        "Ġwire",
        -9.474281086290397
      ],
      [
        "Ġnothing",
        -9.47456464099865
      ],
      [
        "Ġreaction",
        -9.476251046776245
      ],
      [
        "Ġearth",
        -9.476721392404574
      ],
      [
        "Ġcontainer",
        -9.477123967060326
      ],
      [
        "ĠMore",
        -9.47725476683738
      ],
      [
        "Ġenable",
        -9.477374786949692
      ],
      [
        "Ġexcellen",
        -9.477580280378673
      ],
      [
        "Ġplatform",
        -9.478281682912453
      ],
      [
        "Ġboard",
        -9.478836672937373
      ],
      [
        "ier",
        -9.480165837398289
      ],
      [
        "Ġvitamin",
        -9.480178280285566
      ],
      [
        "Ġpoor",
        -9.480342802596065
      ],
      [
        "Ġsequence",
        -9.48160925553436
      ],
      [
        "Ġvisual",
        -9.482103121969466
      ],
      [
        "ĠOf",
        -9.484366203624973
      ],
      [
        "Ġcame",
        -9.484892909887922
      ],
      [
        "Ġportion",
        -9.485229149744963
      ],
      [
        "more",
        -9.4873477787549
      ],
      [
        "ĠMy",
        -9.487473962558829
      ],
      [
        "Ġadjust",
        -9.489867886207202
      ],
      [
        "Ġobjects",
        -9.490401683620274
      ],
      [
        "Ġcooking",
        -9.4905680417191
      ],
      [
        "Ġjoint",
        -9.490899269003773
      ],
      [
        "Ġplann",
        -9.492662129954075
      ],
      [
        "Ġencourage",
        -9.494788160213252
      ],
      [
        "Ġstar",
        -9.495036954366086
      ],
      [
        "ch",
        -9.495408631695431
      ],
      [
        "Ġfund",
        -9.495713728201675
      ],
      [
        "ĠUS",
        -9.495805488321416
      ],
      [
        "Q",
        -9.496367075252127
      ],
      [
        "ivity",
        -9.497194689456776
      ],
      [
        "Ġprojects",
        -9.497424428016227
      ],
      [
        "Ġconstruction",
        -9.49841591372191
      ],
      [
        "Ġcrop",
        -9.499203616510457
      ],
      [
        "Ġyellow",
        -9.49978313115332
      ],
      [
        "Ġkill",
        -9.501181760459572
      ],
      [
        "Ġdesire",
        -9.502314145945816
      ],
      [
        "Ġincreasing",
        -9.503931067979618
      ],
      [
        "Ġbaby",
        -9.504035161759443
      ],
      [
        "Ġinteraction",
        -9.504417952862124
      ],
      [
        "Ġgenes",
        -9.50559661900629
      ],
      [
        "Ġcapacit",
        -9.50587195702708
      ],
      [
        "Ġpair",
        -9.50636491681583
      ],
      [
        "Ġleg",
        -9.508717307693882
      ],
      [
        "ĠOur",
        -9.508967313301426
      ],
      [
        "Ġresponsible",
        -9.50911709653436
      ],
      [
        "Ġready",
        -9.512186544747925
      ],
      [
        "ware",
        -9.513412206658124
      ],
      [
        "Ġprint",
        -9.513656495476548
      ],
      [
        "Ġsituation",
        -9.515535167989302
      ],
      [
        "Ġprograms",
        -9.516463054528186
      ],
      [
        "Ġedge",
        -9.517432675739157
      ],
      [
        "ĠWho",
        -9.518933576043723
      ],
      [
        "Ġstone",
        -9.521269938183334
      ],
      [
        "Ġmusic",
        -9.521858557533012
      ],
      [
        "Ġupon",
        -9.523588671955617
      ],
      [
        "Ġphotograph",
        -9.524124285902264
      ],
      [
        "Ġmineral",
        -9.524275702433362
      ],
      [
        "âĢ¢",
        -9.5246927900743
      ],
      [
        "Ġsuitabl",
        -9.525197845838925
      ],
      [
        "Ġsolid",
        -9.52643022192859
      ],
      [
        "Ġvolume",
        -9.52653468227901
      ],
      [
        "Ġpull",
        -9.52660399107534
      ],
      [
        "Ġnumbers",
        -9.526895289307287
      ],
      [
        "Ġconsist",
        -9.528082292287287
      ],
      [
        "Ġdecision",
        -9.52845093333223
      ],
      [
        "Ġcutting",
        -9.533914914751982
      ],
      [
        "Ġpowerful",
        -9.534746044781656
      ],
      [
        "Ġbrown",
        -9.534830499016287
      ],
      [
        "Ġscreen",
        -9.535223738558962
      ],
      [
        "Ġlesson",
        -9.53609241910844
      ],
      [
        "Ġoxygen",
        -9.537175773262542
      ],
      [
        "Ġco",
        -9.538536735053691
      ],
      [
        "Ġevents",
        -9.5385790253936
      ],
      [
        "Ġhear",
        -9.53895543097492
      ],
      [
        "Ġheavy",
        -9.541931853556264
      ],
      [
        "Ġhappens",
        -9.542342601464355
      ],
      [
        "Ġsmooth",
        -9.543256336892242
      ],
      [
        "Ġvision",
        -9.54550030485137
      ],
      [
        "immune",
        -9.54617287510944
      ],
      [
        "Ġvary",
        -9.548081584391916
      ],
      [
        "Ġtable",
        -9.548803143765827
      ],
      [
        "taken",
        -9.549873271923213
      ],
      [
        "life",
        -9.550768731824489
      ],
      [
        "Ġchang",
        -9.550978000275432
      ],
      [
        "Ġpractices",
        -9.551342548643074
      ],
      [
        "Ġbeautiful",
        -9.551497168923468
      ],
      [
        "care",
        -9.551559696238275
      ],
      [
        "ĠThen",
        -9.55160354311068
      ],
      [
        "These",
        -9.552059861303729
      ],
      [
        "Ġsort",
        -9.555807607399505
      ],
      [
        "Ġsustainabl",
        -9.557594159074768
      ],
      [
        "Ġrare",
        -9.558320428357074
      ],
      [
        "-up",
        -9.559263455806544
      ],
      [
        "giving",
        -9.560653872803307
      ],
      [
        "ial",
        -9.56142645247354
      ],
      [
        "Ġteaching",
        -9.562830187032263
      ],
      [
        "Ġvoltage",
        -9.562919554936355
      ],
      [
        "Ġinstance",
        -9.56307518798268
      ],
      [
        "Ġexpensive",
        -9.563840677835245
      ],
      [
        "Ġload",
        -9.563896066704965
      ],
      [
        "On",
        -9.564121725246014
      ],
      [
        "Ġstem",
        -9.564804372675509
      ],
      [
        "Ġmen",
        -9.565051237465156
      ],
      [
        "Ġpromote",
        -9.56571770366245
      ],
      [
        "Ġwrong",
        -9.566275160593351
      ],
      [
        "Ġdocument",
        -9.566666061513557
      ],
      [
        "Ġensur",
        -9.570573748277123
      ],
      [
        "Ġlocated",
        -9.570761711149505
      ],
      [
        "Ġcurrently",
        -9.570780361793538
      ],
      [
        "Ġphoto",
        -9.57123895638089
      ],
      [
        "Ġtherapy",
        -9.571478605659829
      ],
      [
        "Ġdeal",
        -9.572500264480098
      ],
      [
        "Ġrock",
        -9.572890425694265
      ],
      [
        "properly",
        -9.573183396632562
      ],
      [
        "Ġrefer",
        -9.5737832946537
      ],
      [
        "Ġexpect",
        -9.575505235730208
      ],
      [
        "Do",
        -9.576831959402632
      ],
      [
        "Ġrecommend",
        -9.576888452897675
      ],
      [
        "Ġcausing",
        -9.577619238592964
      ],
      [
        "Ġhandle",
        -9.578095919672414
      ],
      [
        "||",
        -9.579058905923729
      ],
      [
        "Ġconnected",
        -9.57906715205958
      ],
      [
        "Ġvalues",
        -9.579189487492972
      ],
      [
        "head",
        -9.581111495626324
      ],
      [
        "Ġmuscle",
        -9.581457441801769
      ],
      [
        "Ġcross",
        -9.58179381226034
      ],
      [
        "Ġpick",
        -9.581856641777804
      ],
      [
        "Ġpurchase",
        -9.58205837516654
      ],
      [
        "Ġrise",
        -9.582513084808095
      ],
      [
        "Ġwonder",
        -9.582954322059903
      ],
      [
        "Ġcolour",
        -9.583853190087982
      ],
      [
        "of",
        -9.58412038380441
      ],
      [
        "And",
        -9.58446775845237
      ],
      [
        "Ġadult",
        -9.58670917788164
      ],
      [
        "Ġadding",
        -9.587989841464276
      ],
      [
        "Ġcompound",
        -9.588432657938046
      ],
      [
        "Ġwait",
        -9.58861106895287
      ],
      [
        "Ġsolutions",
        -9.589182140466388
      ],
      [
        "Ġmechanism",
        -9.589677902063569
      ],
      [
        "Ġthird",
        -9.590475996809475
      ],
      [
        "Ġhole",
        -9.590784940109527
      ],
      [
        "applied",
        -9.590853835408357
      ],
      [
        "Ġsecurity",
        -9.591246323630113
      ],
      [
        "older",
        -9.5916122482443
      ],
      [
        "U",
        -9.592338341690088
      ],
      [
        "Ġsevere",
        -9.592409446796529
      ],
      [
        "Ġprinciple",
        -9.59266641727751
      ],
      [
        "Ġintroduce",
        -9.59378836006026
      ],
      [
        "Ġalternative",
        -9.593799957006295
      ],
      [
        "Ġaid",
        -9.59557090898209
      ],
      [
        "Ġeconomic",
        -9.596456999214386
      ],
      [
        "ĠAdditional",
        -9.59677619843946
      ],
      [
        "Ġstates",
        -9.597308288925962
      ],
      [
        "ĠNot",
        -9.597361217257667
      ],
      [
        "Ġpath",
        -9.599171034931809
      ],
      [
        "Ġgames",
        -9.60061978346058
      ],
      [
        "Ġbox",
        -9.60267675366844
      ],
      [
        "Ġforward",
        -9.603135020975108
      ],
      [
        "Ġfoot",
        -9.603327458224282
      ],
      [
        "With",
        -9.603784049330152
      ],
      [
        "ĠNow",
        -9.6042858585245
      ],
      [
        "Ġelectricity",
        -9.605120268401445
      ],
      [
        "Ġinfection",
        -9.605980528298192
      ],
      [
        "Ġreflect",
        -9.606446443770505
      ],
      [
        "ĠRe",
        -9.607828706974278
      ],
      [
        "Ġconsumption",
        -9.608070111451038
      ],
      [
        "Ġpush",
        -9.609300829645528
      ],
      [
        "Ġfriends",
        -9.609675313131136
      ],
      [
        "Ġelement",
        -9.611243685071289
      ],
      [
        "Ġroof",
        -9.61143786371894
      ],
      [
        ".com",
        -9.612471816492556
      ],
      [
        "Ġflight",
        -9.61398079115814
      ],
      [
        "Ġaccurate",
        -9.61500637492524
      ],
      [
        "Ġcoat",
        -9.615771135307703
      ],
      [
        "-term",
        -9.617325543546697
      ],
      [
        "ĠâĢ¦",
        -9.620313174555497
      ],
      [
        "went",
        -9.620610576919187
      ],
      [
        "Ġnutrients",
        -9.621670918510258
      ],
      [
        "Ġbone",
        -9.621997067592154
      ],
      [
        "Ġvaluable",
        -9.622003812098685
      ],
      [
        "ĠCenter",
        -9.622314169345088
      ],
      [
        "ĠOr",
        -9.622405558381557
      ],
      [
        "-A",
        -9.626085030883427
      ],
      [
        "Ġreference",
        -9.626715555656665
      ],
      [
        "Ġexposure",
        -9.62731310116902
      ],
      [
        "Ġmotor",
        -9.62822276940478
      ],
      [
        "Ġnest",
        -9.628596701272834
      ],
      [
        "Ġpicture",
        -9.62877968129803
      ],
      [
        "Ġmeaning",
        -9.629035936389537
      ],
      [
        "Ġbecame",
        -9.629872918735805
      ],
      [
        "Ġchain",
        -9.630887836030928
      ],
      [
        "Whether",
        -9.631144128030511
      ],
      [
        "Ġanti",
        -9.632262834842567
      ],
      [
        "Ġexpression",
        -9.632272838856224
      ],
      [
        "Ġcap",
        -9.63411929133941
      ],
      [
        "Ġcoming",
        -9.634197207504098
      ],
      [
        "ible",
        -9.6348129533982
      ],
      [
        "Ġstarting",
        -9.634813181687388
      ],
      [
        "Ġmedication",
        -9.634839211210917
      ],
      [
        "Ġjoin",
        -9.63564580474944
      ],
      [
        "Ġbike",
        -9.636793858730917
      ],
      [
        "Ġgear",
        -9.63715210662302
      ],
      [
        "X",
        -9.638263219199722
      ],
      [
        "Ġreveal",
        -9.638664890293844
      ],
      [
        "Ġphone",
        -9.639062799607611
      ],
      [
        "ber",
        -9.639191630915247
      ],
      [
        "Ġmath",
        -9.639307626614052
      ],
      [
        "ĠAre",
        -9.640477395700492
      ],
      [
        "Ġadapt",
        -9.640863342294454
      ],
      [
        "Some",
        -9.641601074845129
      ],
      [
        "Ġhands",
        -9.641675332858252
      ],
      [
        "Ġsell",
        -9.641804886992444
      ],
      [
        "Ġhearing",
        -9.641873689053224
      ],
      [
        "Ġpresen",
        -9.64192656253213
      ],
      [
        "Ġroad",
        -9.643262867651618
      ],
      [
        "lost",
        -9.645263727433385
      ],
      [
        "Ġvirus",
        -9.647684959637273
      ],
      [
        "Ġfluid",
        -9.648375765460926
      ],
      [
        "Ġvital",
        -9.648917856808351
      ],
      [
        "Ġproperty",
        -9.649064876356007
      ],
      [
        "over",
        -9.649611248521314
      ],
      [
        "Ġball",
        -9.65084711659128
      ],
      [
        "friendly",
        -9.651056803804336
      ],
      [
        "Ġmiddle",
        -9.651634584657469
      ],
      [
        "ĠThei",
        -9.651665328796412
      ],
      [
        "Ġhorse",
        -9.653730018500411
      ],
      [
        "Ġmulti",
        -9.653773814893697
      ],
      [
        "Ġflavor",
        -9.654420091613796
      ],
      [
        "Ġtexture",
        -9.654846744843544
      ],
      [
        "Ġmouth",
        -9.654994728160643
      ],
      [
        "Ġbag",
        -9.655242306689324
      ],
      [
        "Ġthread",
        -9.656893678637331
      ],
      [
        "Ġexpand",
        -9.65750652964299
      ],
      [
        "Ġblock",
        -9.658032118523742
      ],
      [
        "ized",
        -9.65954598089764
      ],
      [
        "Ġcentury",
        -9.659575040187669
      ],
      [
        "Ġled",
        -9.662222369352984
      ],
      [
        "Ġconcentration",
        -9.662603013747905
      ],
      [
        "Step",
        -9.663201026233503
      ],
      [
        "Ġsustain",
        -9.664788929172444
      ],
      [
        "Ġrecognize",
        -9.668120061960431
      ],
      [
        "...ĊĊ",
        -9.66818690018997
      ],
      [
        "Ġstand",
        -9.668638994468424
      ],
      [
        "Ġlaw",
        -9.668701072659523
      ],
      [
        "Ġthus",
        -9.67042536139706
      ],
      [
        "#",
        -9.670430163987191
      ],
      [
        "Ġjourney",
        -9.670542366021571
      ],
      [
        "Ġconsistent",
        -9.670770129965888
      ],
      [
        "ĠEach",
        -9.671102857538536
      ],
      [
        "ĠWater",
        -9.672484812960576
      ],
      [
        "yond",
        -9.673163861792045
      ],
      [
        "Ġquick",
        -9.673214803075666
      ],
      [
        "ĠOther",
        -9.673341761478788
      ],
      [
        "ĠInstitute",
        -9.673605121051535
      ],
      [
        "Ġmatch",
        -9.675049071276728
      ],
      [
        "Ġvia",
        -9.67572230730557
      ],
      [
        "Ġshift",
        -9.676555276951444
      ],
      [
        "Ġcommercial",
        -9.676728762048278
      ],
      [
        "Ġnational",
        -9.676861142576891
      ],
      [
        "Ġfight",
        -9.6773328347767
      ],
      [
        "Ġcombine",
        -9.679297379208354
      ],
      [
        "Ġhost",
        -9.68012079166229
      ],
      [
        "Ġmedicine",
        -9.680479370851993
      ],
      [
        "Ġhuge",
        -9.680969112089937
      ],
      [
        "Ġextremely",
        -9.681007644706725
      ],
      [
        "Ġtesting",
        -9.68141682466765
      ],
      [
        "Ġinteresting",
        -9.681549516706092
      ],
      [
        "Ġstick",
        -9.684305728031624
      ],
      [
        "ĠState",
        -9.684440450629898
      ],
      [
        "driving",
        -9.685026327060475
      ],
      [
        "un",
        -9.686168105992294
      ],
      [
        "Ġinsight",
        -9.686528640436777
      ],
      [
        "Ġreported",
        -9.686659880915183
      ],
      [
        "Ġadvanced",
        -9.686941330932818
      ],
      [
        "anyone",
        -9.688138749559853
      ],
      [
        "Ġestimate",
        -9.68815648310149
      ],
      [
        "Ġfamili",
        -9.688289928461248
      ],
      [
        "Ġmessage",
        -9.688566489716596
      ],
      [
        "Ġdetails",
        -9.68883561299618
      ],
      [
        "Ġmanufacturer",
        -9.689357343088066
      ],
      [
        "ĠDe",
        -9.6900008833212
      ],
      [
        "Ġcoast",
        -9.690132109247044
      ],
      [
        "Ġcomfort",
        -9.690334616714685
      ],
      [
        "Ġoccurs",
        -9.690345280258768
      ],
      [
        "ĠMake",
        -9.690635650701912
      ],
      [
        "ĠNOT",
        -9.691446104887136
      ],
      [
        "ĠSt",
        -9.692135032226185
      ],
      [
        "Ġfeeding",
        -9.69284875599515
      ],
      [
        "Ġerror",
        -9.694782129866445
      ],
      [
        "Ġdi",
        -9.695213975604268
      ],
      [
        "Ġratio",
        -9.695250281465366
      ],
      [
        "Ġround",
        -9.698653099279714
      ],
      [
        "Ġaren",
        -9.698780425462608
      ],
      [
        "Y",
        -9.700639760342852
      ],
      [
        "Ġdiscuss",
        -9.700941120400952
      ],
      [
        "Ġstatement",
        -9.703132610191346
      ],
      [
        "Ġdraw",
        -9.704426752343238
      ],
      [
        "-like",
        -9.704800710941866
      ],
      [
        "Ġappearance",
        -9.705446281672817
      ],
      [
        "ĠAccording",
        -9.705565737228609
      ],
      [
        "Ġadults",
        -9.70598576813524
      ],
      [
        "ant",
        -9.70707872635655
      ],
      [
        "Ġobserve",
        -9.707638013368912
      ],
      [
        "Ġcommand",
        -9.70883038227283
      ],
      [
        "Ġabsorb",
        -9.709405878350218
      ],
      [
        "Ġcomfortabl",
        -9.70962428890838
      ],
      [
        "Ġdead",
        -9.71003202745642
      ],
      [
        "haps",
        -9.710068287397458
      ],
      [
        "Now",
        -9.7104332679428
      ],
      [
        "Ġspeak",
        -9.711191101046586
      ],
      [
        "Ġaffected",
        -9.713593862714934
      ],
      [
        "body",
        -9.71487996524572
      ],
      [
        "spite",
        -9.715283122553194
      ],
      [
        "Ġdepth",
        -9.715373237322042
      ],
      [
        "Ġconnect",
        -9.71598727981648
      ],
      [
        "Ġheight",
        -9.717005251972594
      ],
      [
        "Ġletter",
        -9.719294843453604
      ],
      [
        "Ġdistribution",
        -9.71968032461329
      ],
      [
        "Ġdouble",
        -9.720322107152676
      ],
      [
        "Our",
        -9.721521660917126
      ],
      [
        "Ġmoistur",
        -9.72189148797812
      ],
      [
        "Ġdiabetes",
        -9.722926002446986
      ],
      [
        "Ġtransition",
        -9.72335049552105
      ],
      [
        "Ġsurrounding",
        -9.723429793649933
      ],
      [
        "Ġemergenc",
        -9.72358728150283
      ],
      [
        "Ġopportunit",
        -9.724872495028595
      ],
      [
        "Ġlink",
        -9.727109354151182
      ],
      [
        "ĠFirst",
        -9.727261809652568
      ],
      [
        "}",
        -9.727777276682447
      ],
      [
        "Ġelectron",
        -9.727874176289603
      ],
      [
        "ship",
        -9.728267668915656
      ],
      [
        "Ġcore",
        -9.729304371054132
      ],
      [
        "ter",
        -9.730189435654392
      ],
      [
        "They",
        -9.730684960175225
      ],
      [
        "Ġalthough",
        -9.731177654965908
      ],
      [
        "Ġcommunit",
        -9.732188920659691
      ],
      [
        "Ġdriver",
        -9.73359883751554
      ],
      [
        "Ġtherefor",
        -9.734582688400078
      ],
      [
        "Ġbeginning",
        -9.734594767583904
      ],
      [
        "Ġangle",
        -9.735245313033438
      ],
      [
        "Ġgrain",
        -9.736040727502818
      ],
      [
        "Ġconvert",
        -9.736342583529565
      ],
      [
        "Here",
        -9.736879552846128
      ],
      [
        "Ġocean",
        -9.737068252953495
      ],
      [
        "inches",
        -9.737147784870889
      ],
      [
        "Ġiron",
        -9.738327401926435
      ],
      [
        "Ġstuff",
        -9.738885127406624
      ],
      [
        "Ġinternational",
        -9.739455679509714
      ],
      [
        "Ġthermal",
        -9.740398867370605
      ],
      [
        "Ġwrit",
        -9.740538498247778
      ],
      [
        "Ġsend",
        -9.742259901032469
      ],
      [
        "Ġimplement",
        -9.74234904999569
      ],
      [
        "Ġdate",
        -9.742557715491303
      ],
      [
        "Ġorganism",
        -9.74313976101394
      ],
      [
        "Ġonto",
        -9.743155554454528
      ],
      [
        "Ġexpress",
        -9.743744083298164
      ],
      [
        "Ġengage",
        -9.743754127330352
      ],
      [
        "No",
        -9.743912955404792
      ],
      [
        "for",
        -9.74600986335046
      ],
      [
        "Ġcloth",
        -9.747574480088096
      ],
      [
        "Ġattempt",
        -9.748830105043652
      ],
      [
        "Ġplanet",
        -9.748939085221258
      ],
      [
        "ĠWar",
        -9.749163865219613
      ],
      [
        "Ġframe",
        -9.749229742083834
      ],
      [
        "ĠCalifornia",
        -9.74927072533101
      ],
      [
        "Ġimprov",
        -9.7495465125669
      ],
      [
        "ĠLet",
        -9.750223730395712
      ],
      [
        "Ġgoals",
        -9.750771466650429
      ],
      [
        "Ġtechnologies",
        -9.753150872203015
      ],
      [
        "About",
        -9.753264177331992
      ],
      [
        "Ġmedium",
        -9.753563299598104
      ],
      [
        "ĠEven",
        -9.753771629366389
      ],
      [
        "Ġextract",
        -9.753815613390032
      ],
      [
        "Ġapproximate",
        -9.75390320346582
      ],
      [
        "ĠGerman",
        -9.756246888400009
      ],
      [
        "Ġweb",
        -9.756386300290044
      ],
      [
        "Ġlose",
        -9.757720833816386
      ],
      [
        "Ġinternal",
        -9.757929573005413
      ],
      [
        "Ġspend",
        -9.758198955849757
      ],
      [
        "Ġbasi",
        -9.758663790918716
      ],
      [
        "Ġidentified",
        -9.759107403648311
      ],
      [
        "Ġfavorite",
        -9.75929104306617
      ],
      [
        "Ġmarine",
        -9.759689799927155
      ],
      [
        "ul",
        -9.759770055959224
      ],
      [
        "Ġchicken",
        -9.760259508975642
      ],
      [
        "Ġplease",
        -9.760297224530635
      ],
      [
        "Ġsaw",
        -9.760538946044786
      ],
      [
        "Ġpractical",
        -9.761141743185869
      ],
      [
        "time",
        -9.761470344755525
      ],
      [
        "Ġmember",
        -9.762905776411436
      ],
      [
        "Ġraw",
        -9.763794267100064
      ],
      [
        "Ġnative",
        -9.766500862829997
      ],
      [
        "Ġcapture",
        -9.767928925138932
      ],
      [
        "Ġfly",
        -9.768568856423885
      ],
      [
        "ĠTherefor",
        -9.769084898370178
      ],
      [
        "Ġhit",
        -9.77167150368087
      ],
      [
        "Ġalgorithm",
        -9.774183590311573
      ],
      [
        "Ġtransport",
        -9.774747686674466
      ],
      [
        "Ġdrawing",
        -9.775039108366556
      ],
      [
        "Ġfloor",
        -9.775198235767643
      ],
      [
        "Ġgold",
        -9.776591416174185
      ],
      [
        "Ġcontroll",
        -9.778008971437965
      ],
      [
        "Ġfashion",
        -9.778178310582213
      ],
      [
        "Ġmagnetic",
        -9.779456085577074
      ],
      [
        "Ġflat",
        -9.779514819602529
      ],
      [
        "ĠHigh",
        -9.780991339468224
      ],
      [
        "Ġtransfer",
        -9.782104455334368
      ],
      [
        "Ġannual",
        -9.78248824093535
      ],
      [
        "Ġmap",
        -9.78394549013862
      ],
      [
        "Ġfrequency",
        -9.784116135307414
      ],
      [
        "Ġcars",
        -9.784126545048604
      ],
      [
        "Ġformed",
        -9.78639522368458
      ],
      [
        "ring",
        -9.78696045418477
      ],
      [
        "Ġrain",
        -9.787387132457622
      ],
      [
        "Ġcomment",
        -9.787451287113305
      ],
      [
        "Ġhabitat",
        -9.789304394211186
      ],
      [
        "Ġstring",
        -9.7894028788247
      ],
      [
        "Ġsquare",
        -9.791048389230232
      ],
      [
        "Ġharvest",
        -9.792161532259524
      ],
      [
        "Ġmotion",
        -9.794599719911242
      ],
      [
        "Ġphase",
        -9.794904190121882
      ],
      [
        "Ġrecipe",
        -9.795041448140664
      ],
      [
        "happy",
        -9.795931676786688
      ],
      [
        "Ġbackground",
        -9.79836692534854
      ],
      [
        "Ġ#",
        -9.799023178415116
      ],
      [
        "Ġbillion",
        -9.799302723415948
      ],
      [
        "ĠEnglish",
        -9.799951402056491
      ],
      [
        "took",
        -9.801186579264474
      ],
      [
        "Ġdie",
        -9.802409259168424
      ],
      [
        "Ġcheese",
        -9.803492688130484
      ],
      [
        "ful",
        -9.805123552126217
      ],
      [
        "Ġalone",
        -9.805658512944657
      ],
      [
        "ĠUK",
        -9.805672936659814
      ],
      [
        "Ġspecifically",
        -9.805803948343511
      ],
      [
        "Ġprefer",
        -9.807963243482128
      ],
      [
        "Ġfinancial",
        -9.808682132493008
      ],
      [
        "ling",
        -9.809457995092732
      ],
      [
        "Ġdifferences",
        -9.81101946337622
      ],
      [
        "Ġinvestment",
        -9.811250521835955
      ],
      [
        "Ġfacilit",
        -9.811349978137953
      ],
      [
        "ibility",
        -9.812071535872384
      ],
      [
        "Ġopportunities",
        -9.812511612955884
      ],
      [
        "Ġlandscape",
        -9.8126435649224
      ],
      [
        "Ġpreference",
        -9.814209087383835
      ],
      [
        "Ġeducational",
        -9.815481919511427
      ],
      [
        "Ġegg",
        -9.81573349916307
      ],
      [
        "Ġregulation",
        -9.817094929143211
      ],
      [
        "Ġnearly",
        -9.8183681765682
      ],
      [
        "Ġdrink",
        -9.818565996141883
      ],
      [
        "ĠIndia",
        -9.82053088902871
      ],
      [
        "Ġjournal",
        -9.82133099049905
      ],
      [
        "Ġupdate",
        -9.821446561528674
      ],
      [
        "Ġancient",
        -9.823616004710304
      ],
      [
        "Ġcoffee",
        -9.824264042627856
      ],
      [
        "Ġwash",
        -9.82591525171845
      ],
      [
        "fully",
        -9.826107646818349
      ],
      [
        "defined",
        -9.826200563898135
      ],
      [
        "Ġcompost",
        -9.82630097618405
      ],
      [
        "Ġadvice",
        -9.82659322863368
      ],
      [
        "Ġboat",
        -9.826657696895278
      ],
      [
        "Ġprivate",
        -9.826821133619642
      ],
      [
        "Ġfunctions",
        -9.826831155930908
      ],
      [
        "Ġdynamic",
        -9.827483048605783
      ],
      [
        "Ġmaximum",
        -9.827649273614616
      ],
      [
        "Ġmid",
        -9.828017581579315
      ],
      [
        "ĠAfrica",
        -9.831065003328476
      ],
      [
        "Ġselection",
        -9.833153751524488
      ],
      [
        "Ġbooks",
        -9.83376538968217
      ],
      [
        "ĠOver",
        -9.83563651973391
      ],
      [
        "Ġplate",
        -9.83673081660071
      ],
      [
        "Ġpool",
        -9.836935563703952
      ],
      [
        "After",
        -9.837255702790138
      ],
      [
        "Ġformation",
        -9.838255191683682
      ],
      [
        "visible",
        -9.838755516034368
      ],
      [
        "Ġatmosphere",
        -9.8394184604339
      ],
      [
        "Ġroutine",
        -9.839687947809876
      ],
      [
        "Ġroots",
        -9.840169315278429
      ],
      [
        "Ġlisten",
        -9.840500382907903
      ],
      [
        "Answer",
        -9.840545888953775
      ],
      [
        "Ġdirt",
        -9.84126926173142
      ],
      [
        "Ġtube",
        -9.842060871948062
      ],
      [
        "Ġremov",
        -9.842098422644908
      ],
      [
        "Ġemploy",
        -9.843989927284966
      ],
      [
        "ĠSince",
        -9.844688598071784
      ],
      [
        "Ġbodie",
        -9.844798644034046
      ],
      [
        "Ġprogress",
        -9.844827683837906
      ],
      [
        "expected",
        -9.847382009039382
      ],
      [
        "Ġsecure",
        -9.84738938286747
      ],
      [
        "Ġbegan",
        -9.847848087936269
      ],
      [
        "Ġmiles",
        -9.849939879185005
      ],
      [
        "ĠGreat",
        -9.850055296208776
      ],
      [
        "Ġsounds",
        -9.850097678442207
      ],
      [
        "Ġmelt",
        -9.850912927179976
      ],
      [
        "fish",
        -9.852901754245776
      ],
      [
        "Ġopening",
        -9.854542875780137
      ],
      [
        "ge",
        -9.854806973091913
      ],
      [
        "Ġcard",
        -9.857559291286387
      ],
      [
        "all",
        -9.858487485329285
      ],
      [
        "Ġsupplement",
        -9.858641725589628
      ],
      [
        "Ġdental",
        -9.858866146162676
      ],
      [
        "That",
        -9.858918364205998
      ],
      [
        "Ġfarmer",
        -9.859771981828334
      ],
      [
        "ĠJust",
        -9.861796728021217
      ],
      [
        "Ġstrain",
        -9.862518864198222
      ],
      [
        "Ġobvious",
        -9.8635899084482
      ],
      [
        "Ġhighest",
        -9.863953277643304
      ],
      [
        "Ġsites",
        -9.864423608015093
      ],
      [
        "Ġoutcome",
        -9.864716109045222
      ],
      [
        "Ġpainting",
        -9.86593056871207
      ],
      [
        "Ġassess",
        -9.866030273681798
      ],
      [
        "Ġsmell",
        -9.866178251820047
      ],
      [
        "Ġdiverse",
        -9.868411984293472
      ],
      [
        "Ġsheet",
        -9.870403419068278
      ],
      [
        "Ġcheap",
        -9.871037221173916
      ],
      [
        "Ġfriend",
        -9.8715376161418
      ],
      [
        "quality",
        -9.871838513995623
      ],
      [
        "Ġtechnical",
        -9.87194075358219
      ],
      [
        "ĠSea",
        -9.873866047496046
      ],
      [
        "J",
        -9.874555740200574
      ],
      [
        "Ġfan",
        -9.874776612108173
      ],
      [
        "Ġtiny",
        -9.875923700971704
      ],
      [
        "Ġowners",
        -9.87611563136148
      ],
      [
        "ĠEurope",
        -9.876510364027803
      ],
      [
        "Ġdrug",
        -9.876827437185398
      ],
      [
        "pril",
        -9.878279595244594
      ],
      [
        "Ġchannel",
        -9.87849435035336
      ],
      [
        "Ġprepare",
        -9.87869666053779
      ],
      [
        "ate",
        -9.8792843013718
      ],
      [
        "Ġindustrial",
        -9.88240353953972
      ],
      [
        "Ġresource",
        -9.883039645180377
      ],
      [
        "Ġdemonstrate",
        -9.883382944780502
      ],
      [
        "ities",
        -9.884002748797986
      ],
      [
        "Ġfailure",
        -9.884114725566969
      ],
      [
        "Ġintelligence",
        -9.884565842399615
      ],
      [
        "Ġsweet",
        -9.88517735698968
      ],
      [
        "Ġsnow",
        -9.886506629518433
      ],
      [
        "Ġbright",
        -9.887338909141947
      ],
      [
        "ĠDur",
        -9.887608599980524
      ],
      [
        "Ġartificial",
        -9.88807722557902
      ],
      [
        "Ġprepared",
        -9.888479310257887
      ],
      [
        "Ġpotentially",
        -9.888508140589751
      ],
      [
        "ok",
        -9.888845916223453
      ],
      [
        "Ġexperiences",
        -9.889331639105174
      ],
      [
        "wide",
        -9.88941993876088
      ],
      [
        "Ġwindow",
        -9.890899841861303
      ],
      [
        "ĠDepartment",
        -9.891530020873638
      ],
      [
        "Ġdrop",
        -9.891705338364366
      ],
      [
        "Ġgrown",
        -9.891828188826056
      ],
      [
        "Ġsteel",
        -9.89319048395891
      ],
      [
        "Ġrobot",
        -9.894792861729776
      ],
      [
        "Ġtrigger",
        -9.89514818386429
      ],
      [
        "ĠWell",
        -9.896149366837207
      ],
      [
        "Ġdoor",
        -9.896530692371732
      ],
      [
        "Ġoffice",
        -9.89715536158055
      ],
      [
        "Ġnumerous",
        -9.897363372699033
      ],
      [
        "ĠDay",
        -9.897510104780022
      ],
      [
        "Ġearlier",
        -9.897665162372553
      ],
      [
        "Ġmaster",
        -9.897951459464162
      ],
      [
        "-in",
        -9.8988534354134
      ],
      [
        "Ġlens",
        -9.898888255584907
      ],
      [
        "Ġaccept",
        -9.8989175003669
      ],
      [
        "Ġindependent",
        -9.900160314527536
      ],
      [
        "Ġhelpful",
        -9.90023137618124
      ],
      [
        "Ġstaff",
        -9.900704807829625
      ],
      [
        "Ġthin",
        -9.901153223040309
      ],
      [
        "Ġbroad",
        -9.90226520356608
      ],
      [
        "Ġconservation",
        -9.902269696923128
      ],
      [
        "Ġhour",
        -9.902278739572994
      ],
      [
        "ĠOnc",
        -9.902689712539164
      ],
      [
        "Ġmembrane",
        -9.90277386036728
      ],
      [
        "Ġfiber",
        -9.903497026843326
      ],
      [
        "Ġcentral",
        -9.9039624726589
      ],
      [
        "Ġsurvey",
        -9.904057912923308
      ],
      [
        "Ġblog",
        -9.905469422421325
      ],
      [
        "classes",
        -9.905714156943818
      ],
      [
        "Ġestablished",
        -9.9059160633102
      ],
      [
        "ĠDon",
        -9.907841871774032
      ],
      [
        "Ġclick",
        -9.908460298981176
      ],
      [
        "Ġpredict",
        -9.9089839063421
      ],
      [
        "Yes",
        -9.912105427255238
      ],
      [
        "Ġtold",
        -9.91241368729112
      ],
      [
        "Ġengineering",
        -9.913397960506067
      ],
      [
        "Ġmechanical",
        -9.91466440325442
      ],
      [
        "Ġsession",
        -9.915882775080687
      ],
      [
        "Ġscene",
        -9.916021378515564
      ],
      [
        "All",
        -9.91680537001928
      ],
      [
        "ĠEuropean",
        -9.916810170077335
      ],
      [
        "Ġcultural",
        -9.91720413433517
      ],
      [
        "Ġpest",
        -9.917723901837356
      ],
      [
        "Ġreliabl",
        -9.919295510173775
      ],
      [
        "Ġapp",
        -9.92157256790141
      ],
      [
        "Ġwar",
        -9.921829073147832
      ],
      [
        "ĠAustralia",
        -9.921945934915426
      ],
      [
        "Ġexamples",
        -9.922150841684717
      ],
      [
        "Ġthick",
        -9.922346466197483
      ],
      [
        "ĠChina",
        -9.922697707402556
      ],
      [
        "Ġriver",
        -9.924140289925562
      ],
      [
        "ĠAir",
        -9.924373263726508
      ],
      [
        "Ġteach",
        -9.924604044331373
      ],
      [
        "Ġeventual",
        -9.9250586199323
      ],
      [
        "Ġmother",
        -9.925269316095196
      ],
      [
        "Ġrespond",
        -9.925366470152252
      ],
      [
        "Ġconsume",
        -9.925412757177096
      ],
      [
        "Ġgreenhouse",
        -9.926197725921671
      ],
      [
        "Ġoccurr",
        -9.926619667117633
      ],
      [
        "Ġpollution",
        -9.927217862660097
      ],
      [
        "Ġtrial",
        -9.927622528293409
      ],
      [
        "Ġyield",
        -9.927848092100534
      ],
      [
        "Ġassist",
        -9.928587811709432
      ],
      [
        "Ġcontinuous",
        -9.928721816878152
      ],
      [
        "Ġatom",
        -9.928912837618372
      ],
      [
        "Ġfollowed",
        -9.92893575751762
      ],
      [
        "Ġskill",
        -9.929212805087264
      ],
      [
        "wise",
        -9.929432579384205
      ],
      [
        "Ġnamed",
        -9.930451412460332
      ],
      [
        "Ġcreative",
        -9.930783004841109
      ],
      [
        "Ġroll",
        -9.931620883139924
      ],
      [
        "Ġbirth",
        -9.9324764509929
      ],
      [
        "Ġmuscles",
        -9.932613421478685
      ],
      [
        "Ġcream",
        -9.93423730929342
      ],
      [
        "Ġattach",
        -9.934334607850456
      ],
      [
        "Ġincreases",
        -9.93513732875114
      ],
      [
        "Ġagree",
        -9.935328560102572
      ],
      [
        "Ġcontrast",
        -9.936058509601096
      ],
      [
        "-year",
        -9.937286269625233
      ],
      [
        "Ġrelevan",
        -9.93793145174823
      ],
      [
        "Ġdecisions",
        -9.937939930469067
      ],
      [
        "Ġaliv",
        -9.93912687122994
      ],
      [
        "Ġupper",
        -9.939936755186032
      ],
      [
        "Ġspray",
        -9.940470675776933
      ],
      [
        "Ġheld",
        -9.940481809972775
      ],
      [
        "Ġbrush",
        -9.941458527182151
      ],
      [
        "Ġvariation",
        -9.94170194898565
      ],
      [
        "Ġallerg",
        -9.942374944738498
      ],
      [
        "Ġindoor",
        -9.942476561932846
      ],
      [
        "Ġattract",
        -9.942698272220396
      ],
      [
        "board",
        -9.944987302818651
      ],
      [
        "Ġformat",
        -9.945357243371252
      ],
      [
        "side",
        -9.945623348386118
      ],
      [
        "ium",
        -9.945739528802658
      ],
      [
        "Ġevolution",
        -9.946062381285364
      ],
      [
        "ĠEvery",
        -9.947451147029645
      ],
      [
        "Ġstraight",
        -9.947512014775024
      ],
      [
        "society",
        -9.948099400219824
      ],
      [
        "Ġsit",
        -9.949119852470588
      ],
      [
        "Ġextreme",
        -9.950126721515224
      ],
      [
        "Ġdetermin",
        -9.950142288713844
      ],
      [
        "Ġeconom",
        -9.95027745262883
      ],
      [
        "Ġmanufacturing",
        -9.95072339461932
      ],
      [
        "Ġcomprehensive",
        -9.950855783948596
      ],
      [
        "Re",
        -9.9524922316199
      ],
      [
        "Ġaware",
        -9.953050730854
      ],
      [
        "Ġhighlight",
        -9.953254634198856
      ],
      [
        "Ġformula",
        -9.953445641360137
      ],
      [
        "end",
        -9.95397342744727
      ],
      [
        "Ġharmful",
        -9.95403105350813
      ],
      [
        "water",
        -9.954473030889307
      ],
      [
        "Are",
        -9.954759033667742
      ],
      [
        "ĠYork",
        -9.95601780937351
      ],
      [
        "Ġleak",
        -9.956676052604424
      ],
      [
        "Ġaircraft",
        -9.956727649339983
      ],
      [
        "Ġoperate",
        -9.95708987372159
      ],
      [
        "Ġemotional",
        -9.957418514520567
      ],
      [
        "Ġinnovation",
        -9.959801101188292
      ],
      [
        "Ġoffering",
        -9.96166948572803
      ],
      [
        "ent",
        -9.961965717454824
      ],
      [
        "Ġsurgery",
        -9.962132714889917
      ],
      [
        "Ġseat",
        -9.962323744292446
      ],
      [
        "Ġstain",
        -9.962442292360322
      ],
      [
        "Ġgrass",
        -9.964442305584498
      ],
      [
        "Ġdangerous",
        -9.96471538343916
      ],
      [
        "Ġvi",
        -9.965131955118586
      ],
      [
        "-free",
        -9.965239915721291
      ],
      [
        "Ġdetailed",
        -9.965819245235082
      ],
      [
        "Another",
        -9.96646375480547
      ],
      [
        "Ġcable",
        -9.968715152783249
      ],
      [
        "Ġmeter",
        -9.969696047418978
      ],
      [
        "Ġprecise",
        -9.970567218003808
      ],
      [
        "Ġdust",
        -9.971854714767652
      ],
      [
        "Ġexhibit",
        -9.973033176661753
      ],
      [
        "Ġsaving",
        -9.974125742200226
      ],
      [
        "Ġexternal",
        -9.974618553119072
      ],
      [
        "Ġshell",
        -9.975050899568547
      ],
      [
        "Ġdrugs",
        -9.976584580455745
      ],
      [
        "ĠClass",
        -9.977291018289907
      ],
      [
        "Ġprimari",
        -9.977558964342716
      ],
      [
        "Ġtransform",
        -9.977620282060284
      ],
      [
        "Ġopinion",
        -9.977623737152411
      ],
      [
        "j",
        -9.978435584954504
      ],
      [
        "Ġbond",
        -9.97852786678949
      ],
      [
        "which",
        -9.979609304015892
      ],
      [
        "Ġsmart",
        -9.980268032700042
      ],
      [
        "ĠSept",
        -9.980392464260849
      ],
      [
        "Ġdefinition",
        -9.980412771910435
      ],
      [
        "Ġoptimal",
        -9.98068254108096
      ],
      [
        "ĠBlack",
        -9.980887711118395
      ],
      [
        "Ġsaying",
        -9.981095101105602
      ],
      [
        "ions",
        -9.98117160897631
      ],
      [
        "Ġrespect",
        -9.981248812633122
      ],
      [
        "Ġultimate",
        -9.981400491020375
      ],
      [
        "Ġwalls",
        -9.983230064200065
      ],
      [
        "Ġrace",
        -9.983271108977624
      ],
      [
        "Ġoperat",
        -9.983553725430053
      ],
      [
        "Ġthreat",
        -9.984323985563735
      ],
      [
        "Ġcrack",
        -9.984458271685057
      ],
      [
        "Ġlay",
        -9.98502749678328
      ],
      [
        "Ġsurvive",
        -9.985199059438049
      ],
      [
        "Ġconclusion",
        -9.986273973850514
      ],
      [
        "Ġoutdoor",
        -9.98661304022107
      ],
      [
        "Ġfundamental",
        -9.986702355098608
      ],
      [
        "Ġvirtual",
        -9.987483512425191
      ],
      [
        "Ġnaturally",
        -9.987566629048017
      ],
      [
        "Ġnation",
        -9.988031152652434
      ],
      [
        "Ġsector",
        -9.988253718223172
      ],
      [
        "Ġprogramm",
        -9.988588061876175
      ],
      [
        "Ġhistorical",
        -9.989417066562076
      ],
      [
        "TCG",
        -9.990011106602031
      ],
      [
        "ĠKeep",
        -9.990033809834689
      ],
      [
        "Ġclinical",
        -9.990178404359856
      ],
      [
        "ĠFood",
        -9.99062872805635
      ],
      [
        "Ġstories",
        -9.9909043605497
      ],
      [
        "Ġschedule",
        -9.990959534131802
      ],
      [
        "Ġpossibilit",
        -9.991786025779795
      ],
      [
        "me",
        -9.992206695060467
      ],
      [
        "ĠStudent",
        -9.993731325385934
      ],
      [
        "Ġtrain",
        -9.994511525108202
      ],
      [
        "Ġdiscussion",
        -9.994955248904294
      ],
      [
        "Ġcomposition",
        -9.9950297460247
      ],
      [
        "Ġspeaker",
        -9.99503629023352
      ],
      [
        "Ġseven",
        -9.99593853076986
      ],
      [
        "Ġlarges",
        -9.996434221449928
      ],
      [
        "Ġsymbol",
        -9.996587484463618
      ],
      [
        "%)",
        -9.996994157275983
      ],
      [
        "ĠSan",
        -9.99723545792747
      ],
      [
        "Ġkitchen",
        -9.997273937412178
      ],
      [
        "ĠDesign",
        -9.998541758322872
      ],
      [
        "Ġwhose",
        -9.998920564187912
      ],
      [
        "Ġcup",
        -10.000152745913558
      ],
      [
        "Ġexposed",
        -10.000309888690378
      ],
      [
        "Ġextensive",
        -10.00097306467518
      ],
      [
        "Ġbathroom",
        -10.000974255686224
      ],
      [
        "Ġsuit",
        -10.001140632069054
      ],
      [
        "ĠDoes",
        -10.001242182410923
      ],
      [
        "Ġinteract",
        -10.0020803274364
      ],
      [
        "Ġorange",
        -10.002131529225656
      ],
      [
        "Ġsubstance",
        -10.00447639448402
      ],
      [
        "Conclusion",
        -10.004680105043237
      ],
      [
        "Ġreality",
        -10.005138030044217
      ],
      [
        "Ġstock",
        -10.00566299378848
      ],
      [
        "Ġlegal",
        -10.00637414006684
      ],
      [
        "ĠWest",
        -10.006468675739036
      ],
      [
        "Ġtru",
        -10.007782673374376
      ],
      [
        "Ġchoos",
        -10.008049553951103
      ],
      [
        "Ġincredibl",
        -10.008392523240246
      ],
      [
        "Ġnice",
        -10.00896815375087
      ],
      [
        "Ġmorning",
        -10.009395648503892
      ],
      [
        "Ġmeeting",
        -10.010199142716225
      ],
      [
        "Ġbeneficial",
        -10.010459463305208
      ],
      [
        "Ġautomatic",
        -10.011706524900523
      ],
      [
        "Ġbottle",
        -10.012219219222722
      ],
      [
        "Ġthousands",
        -10.01233648774132
      ],
      [
        "Ġrice",
        -10.013846438568429
      ],
      [
        "Ġprocedure",
        -10.014499979716344
      ],
      [
        "Ġdefine",
        -10.014858555781124
      ],
      [
        "Ġbank",
        -10.014873886622524
      ],
      [
        "coming",
        -10.015066909944112
      ],
      [
        "Ġcreation",
        -10.016514309332113
      ],
      [
        "Ġvs",
        -10.01784535133391
      ],
      [
        "Ġpress",
        -10.017894407313092
      ],
      [
        "Ġbear",
        -10.01865076441094
      ],
      [
        "Ġinjury",
        -10.021930073472769
      ],
      [
        "Ġexamine",
        -10.022399897054417
      ],
      [
        "Ġreactions",
        -10.023571183119838
      ],
      [
        "Ġmeal",
        -10.025051364199708
      ],
      [
        "Ġmixture",
        -10.025405710503652
      ],
      [
        "Ġargument",
        -10.027138534735748
      ],
      [
        "Ġrisks",
        -10.029082920450024
      ],
      [
        "Ġplent",
        -10.029118612363362
      ],
      [
        "Ġcomput",
        -10.029653482465552
      ],
      [
        "Ġradiation",
        -10.029992770211754
      ],
      [
        "Ġpot",
        -10.030134310370022
      ],
      [
        "Ġtrust",
        -10.030364435533306
      ],
      [
        "ĠFrench",
        -10.031137942184989
      ],
      [
        "ĠRiver",
        -10.031834246157944
      ],
      [
        "Most",
        -10.031977448709808
      ],
      [
        "Ġcalci",
        -10.03233406166266
      ],
      [
        "Ġanxiet",
        -10.032508199138958
      ],
      [
        "kept",
        -10.03291081971994
      ],
      [
        "Ġstandards",
        -10.032997295354352
      ],
      [
        "Ġlab",
        -10.03326084675453
      ],
      [
        "Ġlabel",
        -10.033809264040084
      ],
      [
        "Ġpound",
        -10.035486619047312
      ],
      [
        "Ġboost",
        -10.03556721117124
      ],
      [
        "Ġrealize",
        -10.036322355677513
      ],
      [
        "Ġengineer",
        -10.03646409297687
      ],
      [
        "Ġenzyme",
        -10.036598835014122
      ],
      [
        "He",
        -10.038175120705922
      ],
      [
        "Ġvoice",
        -10.03820922416039
      ],
      [
        "Be",
        -10.04000931810505
      ],
      [
        "Ġguy",
        -10.041261525067046
      ],
      [
        "Ġfoundation",
        -10.042954174425155
      ],
      [
        "Ġaudio",
        -10.04408281499138
      ],
      [
        "ĠEducation",
        -10.04424279730975
      ],
      [
        "Ġbudget",
        -10.044596073795184
      ],
      [
        "Ġproducing",
        -10.044627657745664
      ],
      [
        "am",
        -10.0452087168434
      ],
      [
        "latest",
        -10.04560367946798
      ],
      [
        "Ġsolve",
        -10.045937706912737
      ],
      [
        "Ġheal",
        -10.046083380568952
      ],
      [
        "ĠMarch",
        -10.046328360834192
      ],
      [
        "ĠService",
        -10.046480314281853
      ],
      [
        "Ġvertical",
        -10.04653065427961
      ],
      [
        "Ġtests",
        -10.047633499251576
      ],
      [
        "Ġdensity",
        -10.049343580572518
      ],
      [
        "My",
        -10.049528177652988
      ],
      [
        "Ġemail",
        -10.049583997129949
      ],
      [
        "Ġreduction",
        -10.04963910935692
      ],
      [
        "Ġthorough",
        -10.050263476085574
      ],
      [
        "Ġpolicy",
        -10.050392388901772
      ],
      [
        "Ġisland",
        -10.051319624248112
      ],
      [
        "/or",
        -10.051947193419997
      ],
      [
        "Ġbutton",
        -10.05202500078122
      ],
      [
        "dium",
        -10.05237205311261
      ],
      [
        "Ġcatch",
        -10.0529666988976
      ],
      [
        "Ġbar",
        -10.053614562109823
      ],
      [
        "Ġaccident",
        -10.05436128701438
      ],
      [
        "Ġrough",
        -10.056039275877652
      ],
      [
        "Ġpets",
        -10.056262258524448
      ],
      [
        "Ġhospital",
        -10.056775287441097
      ],
      [
        "Ġsuper",
        -10.057752752812986
      ],
      [
        "Ġsituations",
        -10.059551762499892
      ],
      [
        "Ġdetail",
        -10.059565283388489
      ],
      [
        "work",
        -10.059803152500317
      ],
      [
        "Ġinvest",
        -10.059854398978889
      ],
      [
        "ification",
        -10.06009120962676
      ],
      [
        "Ġcredit",
        -10.060501677077562
      ],
      [
        "ĠJune",
        -10.0606438177353
      ],
      [
        "Ġbreast",
        -10.060973177934756
      ],
      [
        "ĠCO",
        -10.061142005879042
      ],
      [
        "Ġcarefully",
        -10.062718939234616
      ],
      [
        "Ġpanels",
        -10.063049065520453
      ],
      [
        "Ġbak",
        -10.065109002407215
      ],
      [
        "Ġresident",
        -10.065940174399753
      ],
      [
        "Ġmill",
        -10.06690489707956
      ],
      [
        "Finally",
        -10.06690702848709
      ],
      [
        "Ġcit",
        -10.067284814446246
      ],
      [
        "Ġdrain",
        -10.06799469552477
      ],
      [
        "ĠInternational",
        -10.069253843338911
      ],
      [
        "ĠDec",
        -10.069569559638278
      ],
      [
        "Ġcreature",
        -10.06997761073372
      ],
      [
        "Ġblend",
        -10.070406702090915
      ],
      [
        "Ġimprovement",
        -10.071824170282628
      ],
      [
        "Ġinterface",
        -10.071878528039043
      ],
      [
        "Ġlifestyle",
        -10.071968527949846
      ],
      [
        "Ġmission",
        -10.07213523088948
      ],
      [
        "Ġcapabilit",
        -10.072999953088368
      ],
      [
        "low",
        -10.073098756671088
      ],
      [
        "Ġharm",
        -10.07317304399704
      ],
      [
        "Ġmention",
        -10.073613287979263
      ],
      [
        "Ġassessment",
        -10.074074177075076
      ],
      [
        "Ġobjective",
        -10.074182230002055
      ],
      [
        "Ġfertilizer",
        -10.074222333848706
      ],
      [
        "Ġintake",
        -10.074709544715947
      ],
      [
        "Ġbutter",
        -10.07474572812417
      ],
      [
        "Ġbiological",
        -10.07566404649493
      ],
      [
        "Ġminimum",
        -10.07585769332617
      ],
      [
        "Ġpowder",
        -10.075869487859736
      ],
      [
        "Ġfossil",
        -10.075891467008349
      ],
      [
        "Ġdecades",
        -10.076791211317904
      ],
      [
        "Ġborn",
        -10.076958406405964
      ],
      [
        "Ġcollege",
        -10.077009851525249
      ],
      [
        "Ġadopt",
        -10.077482325807996
      ],
      [
        "Ġobservation",
        -10.078076982865724
      ],
      [
        "ĠDog",
        -10.07836315961583
      ],
      [
        "ĠPark",
        -10.078486552140538
      ],
      [
        "Ġinfections",
        -10.079536808549078
      ],
      [
        "Ġprove",
        -10.079961678707193
      ],
      [
        "Ġmode",
        -10.08085568643321
      ],
      [
        "itis",
        -10.081273280836378
      ],
      [
        "Ġclimb",
        -10.082217409380526
      ],
      [
        "Ġradio",
        -10.082988153309229
      ],
      [
        "Ġsupplie",
        -10.083928375020342
      ],
      [
        "ĠIsland",
        -10.084128795413433
      ],
      [
        "ĠPlant",
        -10.084917221878502
      ],
      [
        "den",
        -10.08506978357379
      ],
      [
        "Ġfirm",
        -10.08543388388872
      ],
      [
        "Ġstatus",
        -10.085486991030551
      ],
      [
        "Ġorigin",
        -10.085874773010932
      ],
      [
        "Ġinstallation",
        -10.086424689223987
      ],
      [
        "referred",
        -10.086510256862107
      ],
      [
        "Ġgenerator",
        -10.08704152466369
      ],
      [
        "ĠArt",
        -10.08831996881658
      ],
      [
        "men",
        -10.088747302094095
      ],
      [
        "Use",
        -10.088850870577724
      ],
      [
        "Ġofficial",
        -10.0891559175247
      ],
      [
        "Ġstroke",
        -10.089474903077043
      ],
      [
        "Ġclassroom",
        -10.089972210537354
      ],
      [
        "Ġfear",
        -10.090526641542006
      ],
      [
        "Ġchapter",
        -10.090822503590363
      ],
      [
        "ĠSystem",
        -10.092178523324382
      ],
      [
        "Your",
        -10.09295963120602
      ],
      [
        "Ġplanting",
        -10.09408378811786
      ],
      [
        "Ġhousehold",
        -10.094098321386998
      ],
      [
        "Ġraise",
        -10.09425491807296
      ],
      [
        "Ġ<",
        -10.094435887077914
      ],
      [
        "Ġaudience",
        -10.094791845406368
      ],
      [
        "Ġessay",
        -10.095413118960575
      ],
      [
        "Ġtri",
        -10.0955206823108
      ],
      [
        "Ġestablish",
        -10.095610682628845
      ],
      [
        "ĠCanada",
        -10.095766754003533
      ],
      [
        "ĠBoth",
        -10.095990274308347
      ],
      [
        "Ġchallenging",
        -10.0959970822643
      ],
      [
        "Ġstable",
        -10.097997929349283
      ],
      [
        "Ġdiversity",
        -10.0980901105245
      ],
      [
        "Ġmeasured",
        -10.099453304770778
      ],
      [
        "Ġadvance",
        -10.099619312145672
      ],
      [
        "Ġtail",
        -10.099802539373446
      ],
      [
        "According",
        -10.099856411184533
      ],
      [
        "see",
        -10.100493440460712
      ],
      [
        "Ġtransmission",
        -10.100910454620418
      ],
      [
        "Ġsensitive",
        -10.101013433611309
      ],
      [
        "ture",
        -10.101293202787524
      ],
      [
        "Ġpark",
        -10.101724044574212
      ],
      [
        "ĠGod",
        -10.1017795569663
      ],
      [
        "Ġgenerat",
        -10.101907150589188
      ],
      [
        "Ġhelping",
        -10.102329514446687
      ],
      [
        "Ġprey",
        -10.102669382998396
      ],
      [
        "Ġacademic",
        -10.103092443303185
      ],
      [
        "Ġdecide",
        -10.103612731638478
      ],
      [
        "ĠQ",
        -10.103835097603383
      ],
      [
        "Ġlie",
        -10.104163521538691
      ],
      [
        "ĠAdd",
        -10.10687553347656
      ],
      [
        "ĠUn",
        -10.106983423386254
      ],
      [
        "-time",
        -10.10755453734263
      ],
      [
        "Ġlitera",
        -10.107892514302776
      ],
      [
        "what",
        -10.10815059241535
      ],
      [
        "Ġinternet",
        -10.108293833919335
      ],
      [
        "that",
        -10.109506489456296
      ],
      [
        "Ġfixed",
        -10.109659051461191
      ],
      [
        "Ġassume",
        -10.111628330978215
      ],
      [
        "Ġleaf",
        -10.112158178547656
      ],
      [
        "Ġcompetition",
        -10.112986033349618
      ],
      [
        "Ġshared",
        -10.11318871683471
      ],
      [
        "ĠProgram",
        -10.113192115958444
      ],
      [
        "Ġpuppy",
        -10.114974839920537
      ],
      [
        "Ġseek",
        -10.115295610082764
      ],
      [
        "Ġlinked",
        -10.116525828451309
      ],
      [
        "Ġlaunch",
        -10.116550192727598
      ],
      [
        "ĠJuly",
        -10.11717829426739
      ],
      [
        "Ġconstruct",
        -10.11829167920152
      ],
      [
        "Ġlaser",
        -10.118691152389909
      ],
      [
        "Ġremote",
        -10.119212191448732
      ],
      [
        "Ġauto",
        -10.12163743369382
      ],
      [
        "Ġwound",
        -10.122281132263712
      ],
      [
        "Ġtrade",
        -10.122523156282805
      ],
      [
        "Ġattend",
        -10.122753494516608
      ],
      [
        "Ġcalculate",
        -10.123158392964346
      ],
      [
        "Ġlift",
        -10.123170823675984
      ],
      [
        "Ġcoal",
        -10.123907401688609
      ],
      [
        "Ġinform",
        -10.123957471594569
      ],
      [
        "Ġgrade",
        -10.12427117979638
      ],
      [
        "ĠJohn",
        -10.12470240165226
      ],
      [
        "Ġconsideration",
        -10.12490400833176
      ],
      [
        "Ġapart",
        -10.12517497058854
      ],
      [
        "Ġinstrument",
        -10.125644433102114
      ],
      [
        "Ġherb",
        -10.125713599676466
      ],
      [
        "ĠHave",
        -10.125836129006274
      ],
      [
        "discovered",
        -10.126119003139518
      ],
      [
        "uary",
        -10.12613538202982
      ],
      [
        "Ġamazing",
        -10.126991706550664
      ],
      [
        "Ġenvironments",
        -10.12703096795147
      ],
      [
        "Ġwasn",
        -10.127333867091124
      ],
      [
        "{",
        -10.129458876730183
      ],
      [
        "Ġmeasurement",
        -10.130042941346716
      ],
      [
        "Ġevaluate",
        -10.131058607300108
      ],
      [
        "Ġconsequence",
        -10.131197391070453
      ],
      [
        "Ġwheel",
        -10.13137569056776
      ],
      [
        "Ġbrough",
        -10.131659796328671
      ],
      [
        "Onc",
        -10.131926417839608
      ],
      [
        "Ġevolve",
        -10.132149434445497
      ],
      [
        "Ġlibrary",
        -10.132774982236231
      ],
      [
        "Ġdur",
        -10.132796987473483
      ],
      [
        "Ġleaving",
        -10.133310811026544
      ],
      [
        "Ġinflammation",
        -10.133896093166967
      ],
      [
        "Ġconfirm",
        -10.1344490972522
      ],
      [
        "ĠFurther",
        -10.13502872415134
      ],
      [
        "Ġnerve",
        -10.135461337229632
      ],
      [
        "can",
        -10.1355654885852
      ],
      [
        "way",
        -10.135948103712217
      ],
      [
        "Ġkidney",
        -10.13611031486359
      ],
      [
        "Ġtitle",
        -10.136164509564724
      ],
      [
        "Ġawareness",
        -10.136362991394954
      ],
      [
        "Ġconcrete",
        -10.136557438553114
      ],
      [
        "Ġbill",
        -10.13802540873162
      ],
      [
        "Ġmicro",
        -10.138656159716
      ],
      [
        "acific",
        -10.139652896911532
      ],
      [
        "Ġuniverse",
        -10.139664007055444
      ],
      [
        "Ġtight",
        -10.140349767678844
      ],
      [
        "ĠII",
        -10.141504205881333
      ],
      [
        "Ġmold",
        -10.143111119495895
      ],
      [
        "].",
        -10.14359707453454
      ],
      [
        "ĠGreen",
        -10.144539764931729
      ],
      [
        "ĠBlue",
        -10.144933423051938
      ],
      [
        "ER",
        -10.14542853362249
      ],
      [
        "Ġquantum",
        -10.145652311429894
      ],
      [
        "Ġchronic",
        -10.145725684887406
      ],
      [
        "More",
        -10.146083254250652
      ],
      [
        "ĠGoogle",
        -10.146104685592018
      ],
      [
        "Ġtoilet",
        -10.14649805967742
      ],
      [
        "Ġreceiv",
        -10.148038853540143
      ],
      [
        "Ġprofessor",
        -10.148200980584846
      ],
      [
        "Ġbulb",
        -10.149351923735964
      ],
      [
        "Ġdish",
        -10.149633162495077
      ],
      [
        "Ġhormone",
        -10.151038084253038
      ],
      [
        "Ġrecovery",
        -10.151089101400688
      ],
      [
        "Ġuniversit",
        -10.152143858936022
      ],
      [
        "Ġsouth",
        -10.152448498424064
      ],
      [
        "Ġbarrier",
        -10.152497551646931
      ],
      [
        "Ġbeauty",
        -10.15249788854818
      ],
      [
        "ĠLake",
        -10.152714615148382
      ],
      [
        "Ġsurfaces",
        -10.153433182122347
      ],
      [
        "Ġguideline",
        -10.153904467501082
      ],
      [
        "Ġemployee",
        -10.154685533390412
      ],
      [
        "Ġphysic",
        -10.156053088431406
      ],
      [
        "Ġcorn",
        -10.15628296674911
      ],
      [
        "Ġmobile",
        -10.15680655659278
      ],
      [
        "Ġcommitment",
        -10.15684951951429
      ],
      [
        "Ġprior",
        -10.157210411648826
      ],
      [
        "ĠTechnology",
        -10.157352731437276
      ],
      [
        "Ġtoxic",
        -10.157885168407969
      ],
      [
        "Ġexplor",
        -10.158314008914314
      ],
      [
        "Ġsediment",
        -10.158605275465929
      ],
      [
        "Ġrapidly",
        -10.160087191685529
      ],
      [
        "Ġflea",
        -10.161160092480849
      ],
      [
        "Ġshoes",
        -10.161177256789484
      ],
      [
        "Ġsports",
        -10.1612700920534
      ],
      [
        "Ġpassage",
        -10.161503950408544
      ],
      [
        "Ġminimize",
        -10.161609980740003
      ],
      [
        "Ġlake",
        -10.16271921037362
      ],
      [
        "ĠY",
        -10.162935651127595
      ],
      [
        "Ġputt",
        -10.163013514133803
      ],
      [
        "Ġshade",
        -10.163150501059786
      ],
      [
        "ĠLED",
        -10.164235886377696
      ],
      [
        "Ġparticipants",
        -10.165150024973949
      ],
      [
        "Ġsuffer",
        -10.166300323867585
      ],
      [
        "Ġhomes",
        -10.166610552207448
      ],
      [
        "Ġport",
        -10.16690073724029
      ],
      [
        "^",
        -10.16738340838974
      ],
      [
        "Ġexcess",
        -10.167535138198431
      ],
      [
        "Ġdivide",
        -10.16770130920754
      ],
      [
        "Ġsufficient",
        -10.167872345191888
      ],
      [
        "Ġzero",
        -10.16834282082436
      ],
      [
        "weight",
        -10.168375262458907
      ],
      [
        "Ġmanual",
        -10.168486000277928
      ],
      [
        "Ġcommunicate",
        -10.168693512801166
      ],
      [
        "Ġpercentage",
        -10.169140246152615
      ],
      [
        "Ġquantit",
        -10.169427905877422
      ],
      [
        "Ġpanel",
        -10.169627585851403
      ],
      [
        "Ġcustom",
        -10.170668773118582
      ],
      [
        "Ġnutrition",
        -10.170862432349232
      ],
      [
        "Ġbean",
        -10.171188493702973
      ],
      [
        "ĠWhere",
        -10.17129713133616
      ],
      [
        "Ġarm",
        -10.1716278655077
      ],
      [
        "Ġweld",
        -10.173155459202718
      ],
      [
        "Ġinner",
        -10.17317668985429
      ],
      [
        "Ġclosed",
        -10.173234291762093
      ],
      [
        "aging",
        -10.173484226620875
      ],
      [
        "iness",
        -10.173833965928733
      ],
      [
        "ĠTime",
        -10.17466437641707
      ],
      [
        "Ġcloser",
        -10.174809176876105
      ],
      [
        "Ġdefinite",
        -10.17507911419536
      ],
      [
        "-being",
        -10.17512404432721
      ],
      [
        "Ġutilize",
        -10.17536920930495
      ],
      [
        "Ġdescription",
        -10.175445500223184
      ],
      [
        "Ġworm",
        -10.176651405020207
      ],
      [
        "Ġemotion",
        -10.17855018048832
      ],
      [
        "Ġheavi",
        -10.179327734168334
      ],
      [
        "Ġpropose",
        -10.179511539416051
      ],
      [
        "Thus",
        -10.179831534504324
      ],
      [
        "Ġcareer",
        -10.18013607903779
      ],
      [
        "rol",
        -10.180774304194337
      ],
      [
        "Ġreplacement",
        -10.181254515818448
      ],
      [
        "ĠCheck",
        -10.181895104586005
      ],
      [
        "Ġbecom",
        -10.183707775273756
      ],
      [
        "ĠPeople",
        -10.18409559550716
      ],
      [
        "Ġpan",
        -10.185168565248595
      ],
      [
        "Ġrestaurant",
        -10.185323127601285
      ],
      [
        "Ġwet",
        -10.185408664934291
      ],
      [
        "ĠLike",
        -10.186679112909165
      ],
      [
        "ĠCo",
        -10.1873217050402
      ],
      [
        "Ġcalm",
        -10.187691972017529
      ],
      [
        "Ġstation",
        -10.189040606014416
      ],
      [
        "Ġcombin",
        -10.1892946718003
      ],
      [
        "Ġedit",
        -10.189721122956511
      ],
      [
        "Ġobserv",
        -10.189871647107813
      ],
      [
        "ley",
        -10.19028519722108
      ],
      [
        "Ġequation",
        -10.191432740212962
      ],
      [
        "Ġpure",
        -10.191574374727384
      ],
      [
        "Ġrapid",
        -10.191785030484985
      ],
      [
        "ut",
        -10.192133354370853
      ],
      [
        "Ġwhale",
        -10.19233273959922
      ],
      [
        "ĠBrit",
        -10.192518139665424
      ],
      [
        "Ġdecided",
        -10.192969697795537
      ],
      [
        "ĠSaudi",
        -10.193095614450485
      ],
      [
        "Ġanalyze",
        -10.193685131852742
      ],
      [
        "ĠAl",
        -10.193721294225842
      ],
      [
        "Ġbug",
        -10.194108788552764
      ],
      [
        "Ġstomach",
        -10.194320486923353
      ],
      [
        "ĠZ",
        -10.194343608041033
      ],
      [
        "Ġbrake",
        -10.195422698439865
      ],
      [
        "ative",
        -10.196320010187414
      ],
      [
        "Ġchocolate",
        -10.197425691785751
      ],
      [
        "Ġcharg",
        -10.19781926164373
      ],
      [
        "Ġscore",
        -10.197873369194118
      ],
      [
        "ĠCollege",
        -10.197908196458048
      ],
      [
        "Ġphotos",
        -10.198555126990213
      ],
      [
        "like",
        -10.199207492512071
      ],
      [
        "Ġbloom",
        -10.201018540754758
      ],
      [
        "ĠAfrican",
        -10.201024512662585
      ],
      [
        "Ġcoral",
        -10.20111070679673
      ],
      [
        "ĠGo",
        -10.201291839126393
      ],
      [
        "Ġsmoke",
        -10.201323707159654
      ],
      [
        "Ġrocks",
        -10.201573059307997
      ],
      [
        "Ġpresentation",
        -10.202340346998136
      ],
      [
        "Ġmolecular",
        -10.202654997425856
      ],
      [
        "Ġrelax",
        -10.203019970703632
      ],
      [
        "Ġurban",
        -10.203146999254034
      ],
      [
        "ĠGuide",
        -10.203432217283556
      ],
      [
        "Ġroute",
        -10.203809966089672
      ],
      [
        "Ġappreciate",
        -10.20417784031932
      ],
      [
        "pH",
        -10.20485920659532
      ],
      [
        "Ġlenses",
        -10.205863828215522
      ],
      [
        "Ġtruck",
        -10.20626592040097
      ],
      [
        "ĠOcto",
        -10.20635433321356
      ],
      [
        "heard",
        -10.207279834180596
      ],
      [
        "Ġvector",
        -10.207702973052855
      ],
      [
        "Ġpack",
        -10.207997622400622
      ],
      [
        "Â°C",
        -10.20801376588393
      ],
      [
        "Ġstarts",
        -10.2080744517437
      ],
      [
        "Ġalcohol",
        -10.209321508511543
      ],
      [
        "Ġmask",
        -10.210211925698506
      ],
      [
        "Ġsegment",
        -10.211321896054818
      ],
      [
        "Ġworry",
        -10.21139904349411
      ],
      [
        "Ġcopper",
        -10.212320977177932
      ],
      [
        "Ġretain",
        -10.21238244917568
      ],
      [
        "Ġbroken",
        -10.21251978715155
      ],
      [
        "rote",
        -10.213536139014597
      ],
      [
        "Let",
        -10.214040246385103
      ],
      [
        "Ġeliminate",
        -10.215253052413606
      ],
      [
        "Ġexchange",
        -10.215331894551111
      ],
      [
        "Ġrecycl",
        -10.21596019454276
      ],
      [
        "ĠEnergy",
        -10.216061644335335
      ],
      [
        "ĠTake",
        -10.21723307673945
      ],
      [
        "Ġreward",
        -10.217650061771607
      ],
      [
        "Ġexcit",
        -10.217669846167617
      ],
      [
        "Dur",
        -10.217862536052811
      ],
      [
        "Ġwhatever",
        -10.218146169672654
      ],
      [
        "ill",
        -10.218456509436132
      ],
      [
        "Ġdestroy",
        -10.219250076885029
      ],
      [
        "Ġfoster",
        -10.219271814878576
      ],
      [
        "Ġcement",
        -10.219349863918918
      ],
      [
        "First",
        -10.21963675824098
      ],
      [
        "Ġcloud",
        -10.219773025707276
      ],
      [
        "Ġshowing",
        -10.21997753394771
      ],
      [
        "ĠLook",
        -10.22165775775006
      ],
      [
        "Ġfunctional",
        -10.221748529600005
      ],
      [
        "Ġca",
        -10.222127458651048
      ],
      [
        "Ġkinds",
        -10.222823406724018
      ],
      [
        "Ġrely",
        -10.223046765817577
      ],
      [
        "Ġbreath",
        -10.22445960456226
      ],
      [
        "Ġrandom",
        -10.225032437892231
      ],
      [
        "Ġalter",
        -10.225829721862064
      ],
      [
        "Ġpages",
        -10.226415375296558
      ],
      [
        "ĠIndian",
        -10.226581394322938
      ],
      [
        "ĠJanuary",
        -10.227085225651813
      ],
      [
        "Ġnuclear",
        -10.228338770352304
      ],
      [
        "que",
        -10.228862640937226
      ],
      [
        "Ġboil",
        -10.229215779381953
      ],
      [
        "Ġbreeding",
        -10.229243680562153
      ],
      [
        "Ġdetection",
        -10.229258799714133
      ],
      [
        "Ġweak",
        -10.229650194414376
      ],
      [
        "Ġtooth",
        -10.230198979699937
      ],
      [
        "ĠGet",
        -10.230266445139758
      ],
      [
        "Ġexam",
        -10.23037030846097
      ],
      [
        "Z",
        -10.230423902294998
      ],
      [
        "ke",
        -10.23105452920419
      ],
      [
        "Ġsex",
        -10.231065746586117
      ],
      [
        "Ġjump",
        -10.231706416938632
      ],
      [
        "otherwise",
        -10.232672162337582
      ],
      [
        "gone",
        -10.233071222405478
      ],
      [
        "Ġdistinct",
        -10.233315789229724
      ],
      [
        "Ġvast",
        -10.233733103779372
      ],
      [
        "ÂŃ",
        -10.235463036926392
      ],
      [
        "Ġgraph",
        -10.236348165040614
      ],
      [
        "Ġpilot",
        -10.236527829396325
      ],
      [
        "Ġcontract",
        -10.236583705269984
      ],
      [
        "stock",
        -10.237417940701857
      ],
      [
        "Ġperspective",
        -10.237503379168755
      ],
      [
        "Ġwish",
        -10.238097781009287
      ],
      [
        "ership",
        -10.23900068821276
      ],
      [
        "Ġconfiden",
        -10.239115245735004
      ],
      [
        "facing",
        -10.2393324492819
      ],
      [
        "Ġworker",
        -10.240097746884734
      ],
      [
        "Ġinnovative",
        -10.240204687406706
      ],
      [
        "Ġpackage",
        -10.240341384450645
      ],
      [
        "Ġencounter",
        -10.240648269006284
      ],
      [
        "Ġguess",
        -10.241845026445157
      ],
      [
        "Ġwouldn",
        -10.242519865803038
      ],
      [
        "Ġpreparation",
        -10.242563807482956
      ],
      [
        "Ġunlike",
        -10.24421102737227
      ],
      [
        "Ġ\\(",
        -10.24444399358818
      ],
      [
        "we",
        -10.244719030489875
      ],
      [
        ");",
        -10.244814860851813
      ],
      [
        "Ġthrow",
        -10.24536388363383
      ],
      [
        "ĠHome",
        -10.24559705921265
      ],
      [
        "Ġtwi",
        -10.246328748688711
      ],
      [
        "Ġfelt",
        -10.246562162428354
      ],
      [
        "Ġbones",
        -10.247292590035528
      ],
      [
        "Ġhunting",
        -10.2480215602771
      ],
      [
        "eath",
        -10.248071257413338
      ],
      [
        "Ġbio",
        -10.248417880832385
      ],
      [
        "Ġdecline",
        -10.248845473235429
      ],
      [
        "Ġassembl",
        -10.248922002069593
      ],
      [
        "Ġspen",
        -10.249353035256604
      ],
      [
        "Ġtall",
        -10.24943813550665
      ],
      [
        "q",
        -10.250278216785734
      ],
      [
        "ha",
        -10.250849105878192
      ],
      [
        "ĠâĢ¢",
        -10.251391083224195
      ],
      [
        "Ġreef",
        -10.25202187942439
      ],
      [
        "Ġbowl",
        -10.25213680919971
      ],
      [
        "Ġplays",
        -10.25242877731738
      ],
      [
        "Ġconsumers",
        -10.253310753458212
      ],
      [
        "Ġnorth",
        -10.253312803485596
      ],
      [
        "Ġrenewable",
        -10.25415802388327
      ],
      [
        "ĠGood",
        -10.254289139729655
      ],
      [
        "Ġsurvival",
        -10.254646665899552
      ],
      [
        "Ġpossibl",
        -10.255259142745038
      ],
      [
        "ĠEast",
        -10.25526127758264
      ],
      [
        "Ġlawn",
        -10.256484025729158
      ],
      [
        "Ġabsolute",
        -10.257332471156465
      ],
      [
        "ĠChines",
        -10.257743099505834
      ],
      [
        "Ġpresented",
        -10.258499005279797
      ],
      [
        "gave",
        -10.259593420502627
      ],
      [
        "ham",
        -10.259623814509442
      ],
      [
        "Ġrow",
        -10.260160525220352
      ],
      [
        "Ġtrip",
        -10.260416705008884
      ],
      [
        "Ġconversation",
        -10.260556527709037
      ],
      [
        "Ġblade",
        -10.261230083971435
      ],
      [
        "Ġbees",
        -10.261250289165028
      ],
      [
        "Ġfair",
        -10.26190685084196
      ],
      [
        "Ġsecret",
        -10.262199315418346
      ],
      [
        "ng",
        -10.262783593894778
      ],
      [
        "Ġdirector",
        -10.262823923418283
      ],
      [
        "Ġcards",
        -10.262880821687158
      ],
      [
        "Share",
        -10.262919712168316
      ],
      [
        "ĠType",
        -10.264215639212818
      ],
      [
        "he",
        -10.26477884990948
      ],
      [
        "Ġfamous",
        -10.264864719866509
      ],
      [
        "Ġprovider",
        -10.265305126744458
      ],
      [
        "ĠCounty",
        -10.265695626988713
      ],
      [
        "-on",
        -10.266246691447185
      ],
      [
        "Ġtone",
        -10.266615015438216
      ],
      [
        "Ġmice",
        -10.266666864250558
      ],
      [
        "Ġprompt",
        -10.26695725510442
      ],
      [
        "ĠAnimal",
        -10.267077224719724
      ],
      [
        "Ġtrend",
        -10.26735341739436
      ],
      [
        "Ġalign",
        -10.268015561013836
      ],
      [
        "Ġowner",
        -10.268131321449978
      ],
      [
        "Ġfeedback",
        -10.268586706510504
      ],
      [
        "Ġimagine",
        -10.268945540320486
      ],
      [
        "Ġsilver",
        -10.269026332138736
      ],
      [
        "Ġbegins",
        -10.26909833499877
      ],
      [
        "Ġaccurac",
        -10.270961893571544
      ],
      [
        "Ġprices",
        -10.271175176425428
      ],
      [
        "Ġintervention",
        -10.27122388307098
      ],
      [
        "Ġworkshop",
        -10.271321663871682
      ],
      [
        "Ġfix",
        -10.27167012478176
      ],
      [
        "Ġweigh",
        -10.27185409298253
      ],
      [
        "Ġdiscussed",
        -10.272013521535396
      ],
      [
        "Ġplane",
        -10.272402853076352
      ],
      [
        "Ġdownload",
        -10.272857210858149
      ],
      [
        "Ġincorporate",
        -10.273016190835776
      ],
      [
        "\"The",
        -10.273166668277844
      ],
      [
        "@",
        -10.273455158656128
      ],
      [
        "Ġgift",
        -10.273650110225416
      ],
      [
        "Ġdelicious",
        -10.273654794662466
      ],
      [
        "Ġdatabase",
        -10.27381271051611
      ],
      [
        "Ġsteam",
        -10.27381956824623
      ],
      [
        "Ġapproache",
        -10.275333575190306
      ],
      [
        "Ġloose",
        -10.275497479639975
      ],
      [
        "carried",
        -10.276925121570075
      ],
      [
        "Ġintended",
        -10.277269093898983
      ],
      [
        "Ġmark",
        -10.277609876666636
      ],
      [
        "Ġexcessive",
        -10.277913978169922
      ],
      [
        "Ġdiamond",
        -10.278430942018169
      ],
      [
        "Ġbiggest",
        -10.27872611474218
      ],
      [
        "Ġthrive",
        -10.27873885774258
      ],
      [
        "Figure",
        -10.278960156197307
      ],
      [
        "Ġdimension",
        -10.279154741257006
      ],
      [
        "Ġarray",
        -10.279435244804487
      ],
      [
        "ĠAC",
        -10.279580342275064
      ],
      [
        "Ġtea",
        -10.27967516870775
      ],
      [
        "ard",
        -10.28008461848175
      ],
      [
        "Ġmanner",
        -10.28107741439241
      ],
      [
        "ĠJapan",
        -10.281614071907436
      ],
      [
        "]Ċ",
        -10.28172606599449
      ],
      [
        "Ġvalve",
        -10.28344295200778
      ],
      [
        "Ġzone",
        -10.284470843301516
      ],
      [
        "Ġspin",
        -10.285382677858482
      ],
      [
        "Ġten",
        -10.285761676940536
      ],
      [
        "Ġparallel",
        -10.285787364631055
      ],
      [
        "Ġshar",
        -10.28589368427323
      ],
      [
        "Ġvaccine",
        -10.286201636623622
      ],
      [
        "ĠTwo",
        -10.286421106108898
      ],
      [
        "Over",
        -10.286745106891257
      ],
      [
        "im",
        -10.286919837219685
      ],
      [
        "ĠAssociation",
        -10.28740535007949
      ],
      [
        "Ġworse",
        -10.288312472178522
      ],
      [
        "Ġsport",
        -10.289041285569704
      ],
      [
        "Ġneuron",
        -10.289332553227505
      ],
      [
        "Ġwindows",
        -10.289403338315198
      ],
      [
        "Ġagricultur",
        -10.2898440681636
      ],
      [
        "Ġsold",
        -10.28989391065994
      ],
      [
        "Ġhabits",
        -10.290767434031938
      ],
      [
        "Ġdiameter",
        -10.29080756380866
      ],
      [
        "Ġfamiliar",
        -10.291129508463698
      ],
      [
        "Ġstream",
        -10.291738384624123
      ],
      [
        "Ġsharp",
        -10.292502007915804
      ],
      [
        "Ġserving",
        -10.292689959905736
      ],
      [
        "Ġcraft",
        -10.292757191002238
      ],
      [
        "Ġnet",
        -10.292912500048375
      ],
      [
        "Ġconsult",
        -10.292915515371426
      ],
      [
        "Ġcomparison",
        -10.293282443541354
      ],
      [
        "Ġmassive",
        -10.29374809882336
      ],
      [
        "Ġsauce",
        -10.29429484172292
      ],
      [
        "ĠConsider",
        -10.29516313918382
      ],
      [
        "Ġshark",
        -10.295171666921863
      ],
      [
        "ĠCity",
        -10.295404698811874
      ],
      [
        "Ġeight",
        -10.2955959723089
      ],
      [
        "Ġbelief",
        -10.297034330832696
      ],
      [
        "industrie",
        -10.297937065082351
      ],
      [
        "Ġluck",
        -10.298268567311792
      ],
      [
        "Ġvariable",
        -10.298850373474174
      ],
      [
        "Ġshot",
        -10.299033863775705
      ],
      [
        "most",
        -10.299698317143145
      ],
      [
        "Ġinjurie",
        -10.299931017792954
      ],
      [
        "ĠRead",
        -10.300105981149912
      ],
      [
        "Ġachiev",
        -10.300804319640006
      ],
      [
        "ĠPower",
        -10.300833958671769
      ],
      [
        "Ġhumidit",
        -10.301040722263556
      ],
      [
        "Ġnovel",
        -10.301145584399336
      ],
      [
        "Ġcircle",
        -10.30192120456698
      ],
      [
        "Ġnitrogen",
        -10.30197707306775
      ],
      [
        "Ġhandling",
        -10.30232198152714
      ],
      [
        "Ġprinting",
        -10.303173462541723
      ],
      [
        "with",
        -10.30323175081712
      ],
      [
        "Ġchemistr",
        -10.30418697303233
      ],
      [
        "Ġmountain",
        -10.30430187945639
      ],
      [
        "ĠHouse",
        -10.304463150263484
      ],
      [
        "Ġbiolog",
        -10.30462881956826
      ],
      [
        "ĠRed",
        -10.305252067146329
      ],
      [
        "Ġdiffer",
        -10.305716609687344
      ],
      [
        "Ġcm",
        -10.30587734392432
      ],
      [
        "Ġsubstances",
        -10.306715354401067
      ],
      [
        "Ġhidden",
        -10.307112249357996
      ],
      [
        "Ġmutation",
        -10.307503038148734
      ],
      [
        "Ġmeasurements",
        -10.309257861703262
      ],
      [
        "Ġtraffic",
        -10.30961692082004
      ],
      [
        "Ġmild",
        -10.309829878068468
      ],
      [
        "Ġpolitical",
        -10.310179469525073
      ],
      [
        "Ġpictures",
        -10.310522759573926
      ],
      [
        "COVID",
        -10.310783012999511
      ],
      [
        "ĠThrough",
        -10.312099047424727
      ],
      [
        "lin",
        -10.313587722100246
      ],
      [
        "Ġdistribute",
        -10.314245976339922
      ],
      [
        "Ġdishe",
        -10.314786203577237
      ],
      [
        "Ġdiagram",
        -10.315841787560824
      ],
      [
        "Ġcollaboration",
        -10.31591303649181
      ],
      [
        "Ġbigge",
        -10.317412469303804
      ],
      [
        "Ġoven",
        -10.317618658531682
      ],
      [
        "Ġcareful",
        -10.318244046845662
      ],
      [
        "Ġsurprise",
        -10.318377850520482
      ],
      [
        "ĠHuman",
        -10.318519587394333
      ],
      [
        "ĠData",
        -10.318692513829037
      ],
      [
        "ver",
        -10.318753594110683
      ],
      [
        "rich",
        -10.319027073217786
      ],
      [
        "Ġstrengthen",
        -10.319618488418463
      ],
      [
        "Ġspeech",
        -10.31962727406712
      ],
      [
        "Ġtrouble",
        -10.319918157518533
      ],
      [
        "Ġforget",
        -10.320235222373466
      ],
      [
        "Ġgenome",
        -10.320303239107512
      ],
      [
        "ĠHis",
        -10.320343195671082
      ],
      [
        "Ġinter",
        -10.32161554918608
      ],
      [
        "Ġbread",
        -10.32164676882945
      ],
      [
        "Ġregulate",
        -10.324076869896842
      ],
      [
        "ĠAugust",
        -10.324219713079312
      ],
      [
        "Ġindex",
        -10.324395337854652
      ],
      [
        "Ġauthors",
        -10.32455963270728
      ],
      [
        "Ġnose",
        -10.32503404353626
      ],
      [
        "Ġhydrogen",
        -10.325410636220116
      ],
      [
        "Ġassociation",
        -10.326084493697987
      ],
      [
        "Ġjuice",
        -10.326483133621291
      ],
      [
        "Ġstabil",
        -10.326639363104077
      ],
      [
        "vi",
        -10.326668045533228
      ],
      [
        "Ġgrant",
        -10.327105501321284
      ],
      [
        "Ġseal",
        -10.328283765964397
      ],
      [
        "Ġbranch",
        -10.32907826356316
      ],
      [
        "Ġshop",
        -10.330298776469942
      ],
      [
        "Ġinitiative",
        -10.331185739429785
      ],
      [
        "Ġdepression",
        -10.331292015336231
      ],
      [
        "Ġcurve",
        -10.331336057584044
      ],
      [
        "Ġmajorit",
        -10.333101700476655
      ],
      [
        "Ġmattress",
        -10.333744218858648
      ],
      [
        "Ġderive",
        -10.334025394683689
      ],
      [
        "From",
        -10.33403239182942
      ],
      [
        "Ġfiles",
        -10.335066691685329
      ],
      [
        "Ġprofile",
        -10.335333833561087
      ],
      [
        "Ġturning",
        -10.336025418626368
      ],
      [
        "Ġresponsibilit",
        -10.33607741102785
      ],
      [
        "Ġmeals",
        -10.336740536234863
      ],
      [
        "Ġsudden",
        -10.33693805247932
      ],
      [
        "covered",
        -10.336968457545677
      ],
      [
        "Ġinsurance",
        -10.337580421685454
      ],
      [
        "ĠLight",
        -10.338260735056949
      ],
      [
        "Ġscenario",
        -10.33891771390363
      ],
      [
        "Ġpermanent",
        -10.340137583758942
      ],
      [
        "ĠLife",
        -10.340170483131304
      ],
      [
        "Ġvegan",
        -10.340335669889644
      ],
      [
        "ĠGroup",
        -10.341175564970104
      ],
      [
        "Ġbehaviour",
        -10.341624161537164
      ],
      [
        "ize",
        -10.34361335245552
      ],
      [
        "Ġshapes",
        -10.343630449361806
      ],
      [
        "Ġmining",
        -10.34393103277326
      ],
      [
        "Ġgradual",
        -10.344122009305082
      ],
      [
        "Ġmicrowave",
        -10.34432274302731
      ],
      [
        "|Ċ",
        -10.345001070108555
      ],
      [
        "Ġpeak",
        -10.345087490779523
      ],
      [
        "Ġexplanation",
        -10.346731322161045
      ],
      [
        "Ġpolicies",
        -10.346765822128642
      ],
      [
        "ĠKing",
        -10.347200668015583
      ],
      [
        "chosen",
        -10.347308980456416
      ],
      [
        "ĠCar",
        -10.347416845785055
      ],
      [
        "ĠGeneral",
        -10.347537142828584
      ],
      [
        "Ġpartial",
        -10.347914432182542
      ],
      [
        "ĠAny",
        -10.348114865388652
      ],
      [
        "Ġrecording",
        -10.348168766442344
      ],
      [
        "Ġsales",
        -10.348449449020778
      ],
      [
        "ĠToday",
        -10.34872550772269
      ],
      [
        "Ġneck",
        -10.34888101185003
      ],
      [
        "Ġdanger",
        -10.349224833145772
      ],
      [
        "Ġconflict",
        -10.34974265449702
      ],
      [
        "Ġrequest",
        -10.35075388132624
      ],
      [
        "Ġride",
        -10.351862497036512
      ],
      [
        "Ġcluster",
        -10.351976093757427
      ],
      [
        "Ġlaborator",
        -10.35201459799516
      ],
      [
        "Ġseeking",
        -10.352360313706278
      ],
      [
        "Ġfeather",
        -10.352935431524028
      ],
      [
        "per",
        -10.353549589876035
      ],
      [
        "Ġclay",
        -10.3537831772355
      ],
      [
        "Ġregister",
        -10.354351483751884
      ],
      [
        "Ġmoved",
        -10.35470681270902
      ],
      [
        "ĠLong",
        -10.354831521004463
      ],
      [
        "iv",
        -10.354937219487129
      ],
      [
        "Ġraised",
        -10.355081076659468
      ],
      [
        "Ġresolution",
        -10.35534924794904
      ],
      [
        "Ġinterior",
        -10.355365209704685
      ],
      [
        "Ġreplac",
        -10.35547556021536
      ],
      [
        "day",
        -10.355711187420804
      ],
      [
        "Before",
        -10.355716366556962
      ],
      [
        "Ġcolon",
        -10.356344711573836
      ],
      [
        "Ġincorporat",
        -10.356704744063268
      ],
      [
        "Not",
        -10.357095402329122
      ],
      [
        "ĠLa",
        -10.357523090346607
      ],
      [
        "ble",
        -10.35766785622971
      ],
      [
        "<",
        -10.35789184378302
      ],
      [
        "Ġdiagnosi",
        -10.35880098793336
      ],
      [
        "Ġprotective",
        -10.360505483346008
      ],
      [
        "anagement",
        -10.360581809805216
      ],
      [
        "field",
        -10.361323779553535
      ],
      [
        "ĠPro",
        -10.362196053348882
      ],
      [
        "ĠFebr",
        -10.36280188147547
      ],
      [
        "Ġmilitar",
        -10.36407981301188
      ],
      [
        "Ġloop",
        -10.365559569357504
      ],
      [
        "Ġrecover",
        -10.36641675355023
      ],
      [
        "Ġintroduction",
        -10.367227490702144
      ],
      [
        "Ġgarlic",
        -10.367872026477144
      ],
      [
        "Ġprofit",
        -10.36787643258811
      ],
      [
        "tuck",
        -10.368791235492427
      ],
      [
        "Ġpeer",
        -10.368962260085608
      ],
      [
        "Ġturns",
        -10.369082635501943
      ],
      [
        "pp",
        -10.369198443399585
      ],
      [
        "Ġdive",
        -10.369333280640197
      ],
      [
        "Ġecosystem",
        -10.369829001984805
      ],
      [
        "ĠSociety",
        -10.370541035910591
      ],
      [
        "Ġconventional",
        -10.370698893055366
      ],
      [
        "Ġicon",
        -10.370999439341782
      ],
      [
        "Ġcoil",
        -10.371205525061974
      ],
      [
        "Ġparticipate",
        -10.371417715891836
      ],
      [
        "Ġdivision",
        -10.371752382425576
      ],
      [
        "Ġpose",
        -10.372008848873392
      ],
      [
        "ĠRemember",
        -10.372205461714938
      ],
      [
        "thing",
        -10.372329721369177
      ],
      [
        "Ġarrive",
        -10.372372284974215
      ],
      [
        "Ġlinear",
        -10.372654115772628
      ],
      [
        "are",
        -10.372690091266175
      ],
      [
        "hose",
        -10.372920009108944
      ],
      [
        "Ġopposite",
        -10.373224355504853
      ],
      [
        "ĠAct",
        -10.37351179708935
      ],
      [
        "Ġcopy",
        -10.37516036710198
      ],
      [
        "ĠStart",
        -10.375481697466284
      ],
      [
        "Does",
        -10.375801061470728
      ],
      [
        "Ġsets",
        -10.37613190663622
      ],
      [
        "ated",
        -10.376484267771811
      ],
      [
        "ĠOcean",
        -10.376539295916404
      ],
      [
        "Ġcord",
        -10.376990370941108
      ],
      [
        "ĠNovember",
        -10.377077340340833
      ],
      [
        "Ġboundar",
        -10.377646121464876
      ],
      [
        "Ġmeasur",
        -10.378337521751098
      ],
      [
        "Ġgadget",
        -10.378605440056708
      ],
      [
        "Ġcake",
        -10.378863081011817
      ],
      [
        "ating",
        -10.380645257852317
      ],
      [
        "Ġspecialize",
        -10.380703433919477
      ],
      [
        "Ġantibiotic",
        -10.38131547840829
      ],
      [
        "ists",
        -10.38164741226101
      ],
      [
        "Ġdelay",
        -10.382407144973646
      ],
      [
        "Ġdut",
        -10.38251523970093
      ],
      [
        "ĠTV",
        -10.382833529996404
      ],
      [
        "Ġtrends",
        -10.382931633410958
      ],
      [
        "Ġusage",
        -10.382955964338286
      ],
      [
        "Ġmovie",
        -10.382979226185636
      ],
      [
        "Ġsides",
        -10.383380543210858
      ],
      [
        "dom",
        -10.383554430567695
      ],
      [
        "Ġremaining",
        -10.386204317077132
      ],
      [
        "Ġillness",
        -10.386520275378292
      ],
      [
        "Ġsent",
        -10.38661200446112
      ],
      [
        "Ġrear",
        -10.387519117272555
      ],
      [
        "ĠJew",
        -10.38782497488711
      ],
      [
        "Ġstructural",
        -10.388066449647262
      ],
      [
        "making",
        -10.388666436017296
      ],
      [
        "Ġfurniture",
        -10.389461817416583
      ],
      [
        "Ã©",
        -10.38954318223358
      ],
      [
        "Ġtransportation",
        -10.389943371854663
      ],
      [
        "Ġsnake",
        -10.390073793930489
      ],
      [
        "Ġpromot",
        -10.390555853844786
      ],
      [
        "ĠMedicine",
        -10.390807101759744
      ],
      [
        "ler",
        -10.39106062233443
      ],
      [
        "Ġconsum",
        -10.391188509120155
      ],
      [
        "ioxide",
        -10.391241772766804
      ],
      [
        "Ġexperienc",
        -10.391430679383436
      ],
      [
        "Ġtear",
        -10.391456844354009
      ],
      [
        "Ġpartner",
        -10.39198573588006
      ],
      [
        "Ġclassic",
        -10.39252234259268
      ],
      [
        "go",
        -10.392925825363353
      ],
      [
        "Ġstretch",
        -10.39299425397444
      ],
      [
        "Ġtie",
        -10.393330609557784
      ],
      [
        "Ġhoney",
        -10.394133041278543
      ],
      [
        "ĠChildren",
        -10.394680056708388
      ],
      [
        "Ġfault",
        -10.394749815867629
      ],
      [
        "from",
        -10.39512049981804
      ],
      [
        "ĠJapanese",
        -10.39530686366287
      ],
      [
        "izing",
        -10.39669454955094
      ],
      [
        "Ġsexual",
        -10.397709123625456
      ],
      [
        "Ġrotation",
        -10.398066421922271
      ],
      [
        "Ġtaught",
        -10.400434545119555
      ],
      [
        "Ġcleaner",
        -10.40051650675132
      ],
      [
        "Ġfather",
        -10.400598022375531
      ],
      [
        "Ġdeposit",
        -10.400847162432704
      ],
      [
        "Ġexplains",
        -10.40087939033361
      ],
      [
        "Ġauthorit",
        -10.402121718317211
      ],
      [
        "Ġwoman",
        -10.402159499910244
      ],
      [
        "Ġnarrow",
        -10.40322551708418
      ],
      [
        "obesity",
        -10.403334762962396
      ],
      [
        "Ġinsulation",
        -10.403443886507702
      ],
      [
        "Ġbuffer",
        -10.403723898179985
      ],
      [
        "Ġacids",
        -10.40378299082214
      ],
      [
        "Ġbark",
        -10.404311014567757
      ],
      [
        "Ġbranche",
        -10.404676284952371
      ],
      [
        "Ġgase",
        -10.405111513046387
      ],
      [
        "ĠColor",
        -10.40518261656078
      ],
      [
        "Ġinterview",
        -10.40595148176786
      ],
      [
        "Ġmetals",
        -10.40616827507822
      ],
      [
        "everyday",
        -10.406300841601556
      ],
      [
        "Ġvideos",
        -10.40639729102706
      ],
      [
        "-relate",
        -10.406550233728908
      ],
      [
        "ĠCare",
        -10.406708234339249
      ],
      [
        "ĠDevelopment",
        -10.406854411069885
      ],
      [
        "tion",
        -10.407575700691297
      ],
      [
        "()",
        -10.408576386858584
      ],
      [
        "ĠMr",
        -10.40868682196598
      ],
      [
        "Ġcolleague",
        -10.40874468780586
      ],
      [
        "Ġincreasingly",
        -10.408746654488231
      ],
      [
        "Ġinfrastructure",
        -10.4088126065818
      ],
      [
        "ĠLearn",
        -10.408813034500042
      ],
      [
        "ĠRNA",
        -10.40960399912573
      ],
      [
        "ĠNature",
        -10.410589217805631
      ],
      [
        "back",
        -10.411033992796346
      ],
      [
        "ĠAnother",
        -10.411541492134647
      ],
      [
        "Ġplus",
        -10.411962981627802
      ],
      [
        "Ġreact",
        -10.41322123499317
      ],
      [
        "Ġpipe",
        -10.413338793880428
      ],
      [
        "ĠAsia",
        -10.413597577163928
      ],
      [
        "Ġengaging",
        -10.414323523985065
      ],
      [
        "Ġcrystal",
        -10.414967544151851
      ],
      [
        "Ġtip",
        -10.41624294775848
      ],
      [
        "Ġgut",
        -10.41631304903134
      ],
      [
        "Ġfur",
        -10.416398377447669
      ],
      [
        "ĠNatural",
        -10.41662468255758
      ],
      [
        "ĠSee",
        -10.41703635658896
      ],
      [
        "Ġmirror",
        -10.41790728778043
      ],
      [
        "Ġorgans",
        -10.417908789694264
      ],
      [
        "ought",
        -10.418558381282482
      ],
      [
        "Ġpink",
        -10.419745115787254
      ],
      [
        "bilities",
        -10.420497482647589
      ],
      [
        "but",
        -10.4205143188434
      ],
      [
        "Ġaesthetic",
        -10.421064832443475
      ],
      [
        "Ġequivalent",
        -10.421442715934418
      ],
      [
        "Ġspaces",
        -10.42349605511052
      ],
      [
        "Ġtown",
        -10.423936864955037
      ],
      [
        "ĠUp",
        -10.423961951306229
      ],
      [
        "Since",
        -10.424048850407504
      ],
      [
        "Ġflex",
        -10.42455131006523
      ],
      [
        "Ġinspire",
        -10.425589598714213
      ],
      [
        "Ġframework",
        -10.425659835189546
      ],
      [
        "Ġmiss",
        -10.425845745888696
      ],
      [
        "Ġchart",
        -10.425936483570258
      ],
      [
        "Ġliver",
        -10.426668770481196
      ],
      [
        "Ġdomain",
        -10.426705804522175
      ],
      [
        "Ġflying",
        -10.426840130344594
      ],
      [
        "Ġdairy",
        -10.42721426727382
      ],
      [
        "ĠCa",
        -10.427429588901514
      ],
      [
        "Ġmenu",
        -10.42799652199984
      ],
      [
        "Ġpreserve",
        -10.428214490844072
      ],
      [
        "Ġcent",
        -10.428464879935662
      ],
      [
        "Ġrat",
        -10.428895342858429
      ],
      [
        "Ġwearing",
        -10.430468634454812
      ],
      [
        "Ġmanager",
        -10.430495836132945
      ],
      [
        "Ġrobust",
        -10.43124915934867
      ],
      [
        "Ġunderlying",
        -10.431926372549793
      ],
      [
        "Ġcorresponding",
        -10.43199384959171
      ],
      [
        "ĠSun",
        -10.432056002394107
      ],
      [
        "Ġinstitution",
        -10.432322357454538
      ],
      [
        "ĠControl",
        -10.433131872541797
      ],
      [
        "ĠTHE",
        -10.433255541984936
      ],
      [
        "Ġlights",
        -10.434067773108966
      ],
      [
        "Ġguidance",
        -10.434123916517445
      ],
      [
        "Ġprocedures",
        -10.43449943499185
      ],
      [
        "expertise",
        -10.434534886971148
      ],
      [
        "Ġswimming",
        -10.435884427647808
      ],
      [
        "Ġprocessor",
        -10.43651852717969
      ],
      [
        "\"We",
        -10.437110074634868
      ],
      [
        "Ġpredators",
        -10.437276675220703
      ],
      [
        "Ġcontribution",
        -10.437670574467838
      ],
      [
        "Ġintroduc",
        -10.438587546351926
      ],
      [
        "Ġappliance",
        -10.439825400820244
      ],
      [
        "Ġsubstantial",
        -10.439917002749246
      ],
      [
        "Ġhaven",
        -10.440241605911975
      ],
      [
        "osis",
        -10.440387667117744
      ],
      [
        "our",
        -10.440785825338452
      ],
      [
        "Ġcounter",
        -10.441749930614346
      ],
      [
        "Ġvacuum",
        -10.442694178304215
      ],
      [
        "Ġbreathing",
        -10.44366906141361
      ],
      [
        "Ġband",
        -10.443830395236729
      ],
      [
        "Ġmature",
        -10.44528827852953
      ],
      [
        "Ġvelocity",
        -10.445461113120096
      ],
      [
        "Ġworksheet",
        -10.445693431745726
      ],
      [
        "Ġ{",
        -10.445756687723645
      ],
      [
        "Ġclient",
        -10.4461345894592
      ],
      [
        "this",
        -10.446669415886245
      ],
      [
        "Ġchamber",
        -10.44699999469499
      ],
      [
        "Ġcapital",
        -10.447627235125388
      ],
      [
        "Ġlock",
        -10.447699291306192
      ],
      [
        "Ġdedicate",
        -10.447936754981791
      ],
      [
        "Ġstack",
        -10.448197574693388
      ],
      [
        "Ġvibrant",
        -10.448466199127427
      ],
      [
        "Ġpai",
        -10.448472174742792
      ],
      [
        "Other",
        -10.448617985665615
      ],
      [
        "Ġminute",
        -10.45071472123336
      ],
      [
        "ĠEngineer",
        -10.450930984674478
      ],
      [
        "Ġholding",
        -10.451311215413186
      ],
      [
        "Ġgrid",
        -10.451372598138896
      ],
      [
        "-of",
        -10.451403892982611
      ],
      [
        "op",
        -10.451772964843489
      ],
      [
        "Ġclothes",
        -10.45183372742321
      ],
      [
        "Ġlaws",
        -10.453225949966594
      ],
      [
        "Ġlarva",
        -10.453563977063515
      ],
      [
        "rising",
        -10.45380209156858
      ],
      [
        "Ġdebri",
        -10.453857926399582
      ],
      [
        "Ġblocks",
        -10.453971878878232
      ],
      [
        "Ġknee",
        -10.454271816044043
      ],
      [
        "Ġdiagnose",
        -10.454343699421443
      ],
      [
        "ĠFlorida",
        -10.455339083803658
      ],
      [
        "Ġbacterial",
        -10.455361793829477
      ],
      [
        "><",
        -10.456233899912316
      ],
      [
        "ĠTexa",
        -10.456969809966113
      ],
      [
        "Ġimpossible",
        -10.457195388883123
      ],
      [
        "Ġmoderate",
        -10.458693150215709
      ],
      [
        "Ġapparent",
        -10.458753629172252
      ],
      [
        "ĠFree",
        -10.458921500758574
      ],
      [
        "Ġpop",
        -10.45918426642335
      ],
      [
        "New",
        -10.45942542804315
      ],
      [
        "Ġouter",
        -10.460012283673295
      ],
      [
        "Ġrid",
        -10.460160747839566
      ],
      [
        "ĠTry",
        -10.460225190544264
      ],
      [
        "trained",
        -10.460693302351851
      ],
      [
        "-the",
        -10.461379969400555
      ],
      [
        "Ġtrick",
        -10.461412894681269
      ],
      [
        "Ġagricultural",
        -10.461677139834704
      ],
      [
        "Ġglucos",
        -10.462339794673516
      ],
      [
        "Ġthanks",
        -10.462901774130389
      ],
      [
        "fitness",
        -10.462974370841488
      ],
      [
        "Ġfascinating",
        -10.4630437024039
      ],
      [
        "Ġhurt",
        -10.463104990035578
      ],
      [
        "Ġgrind",
        -10.463969202260577
      ],
      [
        "Ġtradition",
        -10.464532361415465
      ],
      [
        "Ġease",
        -10.464821126482205
      ],
      [
        "Ġshoot",
        -10.465302179982112
      ],
      [
        "Ġenhanc",
        -10.46563724874197
      ],
      [
        "Ġillustrate",
        -10.465844306926432
      ],
      [
        "Ġstruggle",
        -10.466217995349735
      ],
      [
        "Ġscratch",
        -10.46636960662303
      ],
      [
        "Ġtension",
        -10.466886854564915
      ],
      [
        "Ġlisted",
        -10.466928348872315
      ],
      [
        "ĠIsrael",
        -10.46731985565693
      ],
      [
        "Ġkit",
        -10.467358261921357
      ],
      [
        "Ġfee",
        -10.467855396069648
      ],
      [
        "Ġship",
        -10.468032965169616
      ],
      [
        "Ġhappening",
        -10.468761911386116
      ],
      [
        "ĠFish",
        -10.468793991664958
      ],
      [
        "Ġalumin",
        -10.468991316537837
      ],
      [
        "Ġinteractive",
        -10.469187693307742
      ],
      [
        "sistance",
        -10.46947003627814
      ],
      [
        "...Ċ",
        -10.471168512889957
      ],
      [
        "Ġink",
        -10.471185646434837
      ],
      [
        "Ġgather",
        -10.471350383796777
      ],
      [
        "Ġera",
        -10.472049275219828
      ],
      [
        "ĠPer",
        -10.473302429148044
      ],
      [
        "Ġhorizontal",
        -10.47336451197424
      ],
      [
        "Ġwonderful",
        -10.473381673888438
      ],
      [
        "Ġbrief",
        -10.474016668189693
      ],
      [
        "Ġleaders",
        -10.47402833066031
      ],
      [
        "]ĊĊ",
        -10.474461232007418
      ],
      [
        "Ġsecondary",
        -10.47447710777138
      ],
      [
        "Fig",
        -10.475410734231218
      ],
      [
        "ĠPart",
        -10.475571046907882
      ],
      [
        "loved",
        -10.476433607264582
      ],
      [
        "Als",
        -10.476562443296643
      ],
      [
        "Ġcoach",
        -10.477078623774757
      ],
      [
        "Ġfacts",
        -10.477522247872608
      ],
      [
        "Ġoral",
        -10.477966824388538
      ],
      [
        "Ġdetermination",
        -10.478279874873737
      ],
      [
        "Ġcompact",
        -10.478463846576153
      ],
      [
        "Ġtruth",
        -10.478732132650151
      ],
      [
        "ene",
        -10.47896392610923
      ],
      [
        "Ġnames",
        -10.480681365175403
      ],
      [
        "Ġwin",
        -10.480917332400283
      ],
      [
        "Ġpregnanc",
        -10.48114322981543
      ],
      [
        "Ġrepeat",
        -10.481237126660927
      ],
      [
        "Ġparameters",
        -10.4813271243621
      ],
      [
        "Ġclients",
        -10.481846767468616
      ],
      [
        "Ġsenior",
        -10.481912581311128
      ],
      [
        "ĠTest",
        -10.481966050741566
      ],
      [
        "?\"",
        -10.482124786523071
      ],
      [
        "Ġrose",
        -10.482250536322336
      ],
      [
        "Ġformer",
        -10.482658838188192
      ],
      [
        "Ġmoon",
        -10.48291082235304
      ],
      [
        "Ġitem",
        -10.482998111914348
      ],
      [
        "Ġlifespan",
        -10.483824315225265
      ],
      [
        "ĠMa",
        -10.483916599595316
      ],
      [
        "Ġdesigner",
        -10.484299693870188
      ],
      [
        "Ġclub",
        -10.484660408349916
      ],
      [
        "Ġleader",
        -10.485885183997752
      ],
      [
        "ĠLearning",
        -10.486540931935906
      ],
      [
        "Ġinvestigate",
        -10.487222947474113
      ],
      [
        "Ġtumor",
        -10.488045515534884
      ],
      [
        "Ġregulator",
        -10.488723933723056
      ],
      [
        "Ġcalories",
        -10.48883873286728
      ],
      [
        ".[",
        -10.48889635531479
      ],
      [
        "ĠWork",
        -10.489180407323673
      ],
      [
        "Ġdiscomfort",
        -10.48983667938911
      ],
      [
        "Don",
        -10.490042007161422
      ],
      [
        "Ġaward",
        -10.490487076973263
      ],
      [
        "Ġexceptional",
        -10.490603245158276
      ],
      [
        "Researchers",
        -10.49078030166703
      ],
      [
        "Ġartist",
        -10.49153580711172
      ],
      [
        "ĠWild",
        -10.491680325396471
      ],
      [
        "Ġrespectively",
        -10.491683486763456
      ],
      [
        "Ġnutrient",
        -10.491910713626464
      ],
      [
        "ĠHistory",
        -10.492237427312867
      ],
      [
        "Ġcircumstance",
        -10.492852602456033
      ],
      [
        "Ġtailor",
        -10.49335453061903
      ],
      [
        "Ġoperator",
        -10.493407274020118
      ],
      [
        "Ġmarker",
        -10.49401731663072
      ],
      [
        "Ġemerg",
        -10.494060513889467
      ],
      [
        "Ġhundreds",
        -10.49417502097773
      ],
      [
        "hat",
        -10.4947566207067
      ],
      [
        "Ġinch",
        -10.49526235392276
      ],
      [
        "Ġproduces",
        -10.49570257175808
      ],
      [
        "Ġspectrum",
        -10.496155971522136
      ],
      [
        "Ġgum",
        -10.496639398703918
      ],
[...]
