{
  "version": "1.0",
  "truncation": null,
  "padding": null,
  "added_tokens": [
    {
      "id": 16378,
      "content": "UNKtokenbehere",
      "single_word": false,
      "lstrip": false,
      "rstrip": false,
      "normalized": false,
      "special": true
    },
    {
      "id": 16379,
      "content": "EOStokenbehere",
      "single_word": false,
      "lstrip": false,
      "rstrip": false,
      "normalized": false,
      "special": true
    },
    {
      "id": 16380,
      "content": "PADtokenbehere",
      "single_word": false,
      "lstrip": false,
      "rstrip": false,
      "normalized": false,
      "special": true
    },
    {
      "id": 16381,
      "content": "CLStokenbehere",
      "single_word": false,
      "lstrip": false,
      "rstrip": false,
      "normalized": false,
      "special": true
    },
    {
      "id": 16382,
      "content": "SEPtokenbehere",
      "single_word": false,
      "lstrip": false,
      "rstrip": false,
      "normalized": false,
      "special": true
    },
    {
      "id": 16383,
      "content": "MASKtokenbehere",
      "single_word": false,
      "lstrip": false,
      "rstrip": false,
      "normalized": false,
      "special": true
    }
  ],
  "normalizer": null,
  "pre_tokenizer": {
    "type": "ByteLevel",
    "add_prefix_space": false,
    "trim_offsets": true,
    "use_regex": true
  },
  "post_processor": null,
  "decoder": null,
  "model": {
    "type": "Unigram",
    "unk_id": null,
    "vocab": [
      [
        "Ġmonastery",
        -1.0
      ],
      [
        "Ġdesires",
        -1.0
      ],
      [
        "powered",
        -1.0
      ],
      [
        "ification",
        -1.0
      ],
      [
        "Ġmeasure",
        -1.0
      ],
      [
        "war",
        -1.0
      ],
      [
        "Ġsort",
        -1.0
      ],
      [
        "Ġcrisis",
        -1.0
      ],
      [
        "Ġadvice",
        -1.0
      ],
      [
        "ceptive",
        -1.0
      ],
      [
        "Fo",
        -1.0
      ],
      [
        "Ġgenerate",
        -1.0
      ],
      [
        "Ġessentially",
        -1.0
      ],
      [
        "ĠFebruary",
        -1.0
      ],
      [
        "ĠGray",
        -1.0
      ],
      [
        "Fr",
        -1.0
      ],
      [
        "Ġbatteries",
        -1.0
      ],
      [
        "Ġobvious",
        -1.0
      ],
      [
        "ĠMoscow",
        -1.0
      ],
      [
        "ĠForeign",
        -1.0
      ],
      [
        "Ġpenalty",
        -1.0
      ],
      [
        "Ġconform",
        -1.0
      ],
      [
        "bell",
        -1.0
      ],
      [
        "ĠJohann",
        -1.0
      ],
      [
        "Ġaccompanying",
        -1.0
      ],
      [
        "Ġmaking",
        -1.0
      ],
      [
        "Ġcosts",
        -1.0
      ],
      [
        "elling",
        -1.0
      ],
      [
        "ord",
        -1.0
      ],
      [
        "IV",
        -1.0
      ],
      [
        "79",
        -1.0
      ],
      [
        "Ġrear",
        -1.0
      ],
      [
        "Ġleague",
        -1.0
      ],
      [
        "Ġbass",
        -1.0
      ],
      [
        "ims",
        -1.0
      ],
      [
        "Ġaperture",
        -1.0
      ],
      [
        "serving",
        -1.0
      ],
      [
        "rai",
        -1.0
      ],
      [
        "ĠDan",
        -1.0
      ],
      [
        "xt",
        -1.0
      ],
      [
        "uters",
        -1.0
      ],
      [
        "Ġdiff",
        -1.0
      ],
      [
        "ĠIN",
        -1.0
      ],
      [
        "ĠDar",
        -1.0
      ],
      [
        "Ġavailability",
        -1.0
      ],
      [
        "Ġwages",
        -1.0
      ],
      [
        "Ġtiny",
        -1.0
      ],
      [
        "ĠTom",
        -1.0
      ],
      [
        "Ġcross",
        -1.0
      ],
      [
        "Ġstrips",
        -1.0
      ],
      [
        "Ġaccessible",
        -1.0
      ],
      [
        "Ġborders",
        -1.0
      ],
      [
        "ĠEth",
        -1.0
      ],
      [
        "gle",
        -1.0
      ],
      [
        "Last",
        -1.0
      ],
      [
        "formed",
        -1.0
      ],
      [
        "Ġmoon",
        -1.0
      ],
      [
        "ĠAre",
        -1.0
      ],
      [
        "ating",
        -1.0
      ],
      [
        "Ġchecked",
        -1.0
      ],
      [
        "Ġideology",
        -1.0
      ],
      [
        "Ġsensitivity",
        -1.0
      ],
      [
        "Ġ1925",
        -1.0
      ],
      [
        "ĠPopular",
        -1.0
      ],
      [
        "Ġwarned",
        -1.0
      ],
      [
        "IA",
        -1.0
      ],
      [
        "Ġmanagement",
        -1.0
      ],
      [
        "ĠZone",
        -1.0
      ],
      [
        "ĠGroup",
        -1.0
      ],
      [
        "Ġpsych",
        -1.0
      ],
      [
        "correct",
        -1.0
      ],
      [
        "Ġimagine",
        -1.0
      ],
      [
        "Ġensu",
        -1.0
      ],
      [
        "Ġterm",
        -1.0
      ],
      [
        "Ġanaly",
        -1.0
      ],
      [
        "hibition",
        -1.0
      ],
      [
        "Yet",
        -1.0
      ],
      [
        "Ġminimal",
        -1.0
      ],
      [
        "Ġdifficulties",
        -1.0
      ],
      [
        "Ġchallenges",
        -1.0
      ],
      [
        "Ġproximity",
        -1.0
      ],
      [
        "ĠNations",
        -1.0
      ],
      [
        "Ġo",
        -1.0
      ],
      [
        "ĠPark",
        -1.0
      ],
      [
        "Ġthinks",
        -1.0
      ],
      [
        "ĠDenmark",
        -1.0
      ],
      [
        "ĠChange",
        -1.0
      ],
      [
        "91",
        -1.0
      ],
      [
        "Ġfascinating",
        -1.0
      ],
      [
        "Ġmosquito",
        -1.0
      ],
      [
        "Ġac",
        -1.0
      ],
      [
        "ĠPasadena",
        -1.0
      ],
      [
        "Ġassuming",
        -1.0
      ],
      [
        "ĠCe",
        -1.0
      ],
      [
        "Ġfell",
        -1.0
      ],
      [
        "ĠIslam",
        -1.0
      ],
      [
        "Ġadvocating",
        -1.0
      ],
      [
        "Ġdecent",
        -1.0
      ],
      [
        "ĠMO",
        -1.0
      ],
      [
        "Ġdec",
        -1.0
      ],
      [
        "Ġowl",
        -1.0
      ],
      [
        "Ġworker",
        -1.0
      ],
      [
        "Ġphysics",
        -1.0
      ],
      [
        "lit",
        -1.0
      ],
      [
        "ore",
        -1.0
      ],
      [
        "Ġfurnish",
        -1.0
      ],
      [
        "eration",
        -1.0
      ],
      [
        "Ġhave",
        -1.0
      ],
      [
        "ĠPrevention",
        -1.0
      ],
      [
        "Ġubiquitous",
        -1.0
      ],
      [
        "Ġwore",
        -1.0
      ],
      [
        "Ġinfections",
        -1.0
      ],
      [
        "Ġformula",
        -1.0
      ],
      [
        "ĠWeek",
        -1.0
      ],
      [
        "ĠTru",
        -1.0
      ],
      [
        "ĠFive",
        -1.0
      ],
      [
        "Ġcrack",
        -1.0
      ],
      [
        "Ġbelieving",
        -1.0
      ],
      [
        "ri",
        -1.0
      ],
      [
        "Ġroof",
        -1.0
      ],
      [
        "ĠRestoration",
        -1.0
      ],
      [
        "government",
        -1.0
      ],
      [
        "ĠEarthquake",
        -1.0
      ],
      [
        "Ġcollagen",
        -1.0
      ],
      [
        "Ġstrand",
        -1.0
      ],
      [
        "01",
        -1.0
      ],
      [
        "had",
        -1.0
      ],
      [
        "Ġimmigration",
        -1.0
      ],
      [
        "Ġintern",
        -1.0
      ],
      [
        "Ġsmart",
        -1.0
      ],
      [
        "Ġlocation",
        -1.0
      ],
      [
        "Ġ#",
        -1.0
      ],
      [
        "Who",
        -1.0
      ],
      [
        "Ġspecimen",
        -1.0
      ],
      [
        "Ġdust",
        -1.0
      ],
      [
        "ĠWorks",
        -1.0
      ],
      [
        "Ġ1987",
        -1.0
      ],
      [
        "Ġscrap",
        -1.0
      ],
      [
        "Digital",
        -1.0
      ],
      [
        "ĠCommander",
        -1.0
      ],
      [
        "ĠApril",
        -1.0
      ],
      [
        "Ġentire",
        -1.0
      ],
      [
        "ĠYu",
        -1.0
      ],
      [
        "Ġ51",
        -1.0
      ],
      [
        "Ġdemocracy",
        -1.0
      ],
      [
        "Ġanalog",
        -1.0
      ],
      [
        "60",
        -1.0
      ],
      [
        "Ġphysical",
        -1.0
      ],
      [
        "Ġconstellation",
        -1.0
      ],
      [
        "ĠÂ§",
        -1.0
      ],
      [
        "ľ",
        -1.0
      ],
      [
        "Ġschizophrenia",
        -1.0
      ],
      [
        "Ġlaboratory",
        -1.0
      ],
      [
        "owed",
        -1.0
      ],
      [
        "Ġpoliticians",
        -1.0
      ],
      [
        "Ġcavalry",
        -1.0
      ],
      [
        "ĠPhysical",
        -1.0
      ],
      [
        "Ġmakes",
        -1.0
      ],
      [
        "Ġtarget",
        -1.0
      ],
      [
        "gging",
        -1.0
      ],
      [
        "Fu",
        -1.0
      ],
      [
        "ĠChildhood",
        -1.0
      ],
      [
        "Ġlayer",
        -1.0
      ],
      [
        "Ġdisproportionate",
        -1.0
      ],
      [
        "Ġsculpt",
        -1.0
      ],
      [
        "Ġhold",
        -1.0
      ],
      [
        "ĠStanford",
        -1.0
      ],
      [
        "Ġlogic",
        -1.0
      ],
      [
        "Ġas",
        -1.0
      ],
      [
        "Ġkept",
        -1.0
      ],
      [
        "ĠCenters",
        -1.0
      ],
      [
        "Ġhappens",
        -1.0
      ],
      [
        "self",
        -1.0
      ],
      [
        "ĠOn",
        -1.0
      ],
      [
        "ĠUruguay",
        -1.0
      ],
      [
        "ĠLar",
        -1.0
      ],
      [
        "Ġmechanical",
        -1.0
      ],
      [
        "Ġreproductive",
        -1.0
      ],
      [
        "Ġtheatre",
        -1.0
      ],
      [
        "Ġtraps",
        -1.0
      ],
      [
        "Ġviable",
        -1.0
      ],
      [
        "ĠVeterinary",
        -1.0
      ],
      [
        "ĠpH",
        -1.0
      ],
      [
        "Ġcontexts",
        -1.0
      ],
      [
        "Ġinert",
        -1.0
      ],
      [
        "Ġentropy",
        -1.0
      ],
      [
        "++",
        -1.0
      ],
      [
        "Ġ1958",
        -1.0
      ],
      [
        "Ġjail",
        -1.0
      ],
      [
        "ation",
        -1.0
      ],
      [
        "Ġexpansion",
        -1.0
      ],
      [
        "Ġimprisoned",
        -1.0
      ],
      [
        "Ġbest",
        -1.0
      ],
      [
        "Ġgrid",
        -1.0
      ],
      [
        "Ġunfair",
        -1.0
      ],
      [
        "Ġreceiving",
        -1.0
      ],
      [
        "Ġrequired",
        -1.0
      ],
      [
        "Ġadminister",
        -1.0
      ],
      [
        "Ġanatomy",
        -1.0
      ],
      [
        "Ġsen",
        -1.0
      ],
      [
        "ĠRam",
        -1.0
      ],
      [
        "Ġexpanding",
        -1.0
      ],
      [
        ".'",
        -1.0
      ],
      [
        "Ġsimplest",
        -1.0
      ],
      [
        "Ġmachine",
        -1.0
      ],
      [
        "ĠTropical",
        -1.0
      ],
      [
        "Ġ1995",
        -1.0
      ],
      [
        "Art",
        -1.0
      ],
      [
        "Ġmesothelioma",
        -1.0
      ],
      [
        "ph",
        -1.0
      ],
      [
        "Ġinput",
        -1.0
      ],
      [
        "ws",
        -1.0
      ],
      [
        "Ġhonor",
        -1.0
      ],
      [
        "Ġcompanies",
        -1.0
      ],
      [
        "Con",
        -1.0
      ],
      [
        "Ġate",
        -1.0
      ],
      [
        "ĠAustralopithecus",
        -1.0
      ],
      [
        "ĠSprings",
        -1.0
      ],
      [
        "table",
        -1.0
      ],
      [
        "Ġmechanisms",
        -1.0
      ],
      [
        "Ġcontrolled",
        -1.0
      ],
      [
        "Ġarrive",
        -1.0
      ],
      [
        "Ġirrelevant",
        -1.0
      ],
      [
        "Ġcouncil",
        -1.0
      ],
      [
        "Ġemployee",
        -1.0
      ],
      [
        "ĠOften",
        -1.0
      ],
      [
        "Ġaccounted",
        -1.0
      ],
      [
        "Ġguaranteed",
        -1.0
      ],
      [
        "ought",
        -1.0
      ],
      [
        "Ġmimic",
        -1.0
      ],
      [
        "Ġparticipate",
        -1.0
      ],
      [
        "Ġprayer",
        -1.0
      ],
      [
        "Ġcrew",
        -1.0
      ],
      [
        "Ġorganized",
        -1.0
      ],
      [
        "ĠUntil",
        -1.0
      ],
      [
        "Ġradical",
        -1.0
      ],
      [
        "Ġseismic",
        -1.0
      ],
      [
        "Ġ1861",
        -1.0
      ],
      [
        "Ġshooting",
        -1.0
      ],
      [
        "Ġmusical",
        -1.0
      ],
      [
        "ĠCampbell",
        -1.0
      ],
      [
        "ĠNov",
        -1.0
      ],
      [
        "ĠPO",
        -1.0
      ],
      [
        "Ġinconsist",
        -1.0
      ],
      [
        "Ġvaries",
        -1.0
      ],
      [
        "Ġ1977",
        -1.0
      ],
      [
        "imum",
        -1.0
      ],
      [
        "Ġgenealog",
        -1.0
      ],
      [
        "Ġarguably",
        -1.0
      ],
      [
        "ĠJew",
        -1.0
      ],
      [
        "000",
        -1.0
      ],
      [
        "Ġrepresentative",
        -1.0
      ],
      [
        "ĠMars",
        -1.0
      ],
      [
        "bor",
        -1.0
      ],
      [
        "Ġreported",
        -1.0
      ],
      [
        "Ġdawn",
        -1.0
      ],
      [
        "Ġreason",
        -1.0
      ],
      [
        "ese",
        -1.0
      ],
      [
        "ins",
        -1.0
      ],
      [
        "ĠAlong",
        -1.0
      ],
      [
        "atives",
        -1.0
      ],
      [
        "Ġbuffalo",
        -1.0
      ],
      [
        "Ġchain",
        -1.0
      ],
      [
        "Ġdeny",
        -1.0
      ],
      [
        "Ġrepresent",
        -1.0
      ],
      [
        "Ġcivilians",
        -1.0
      ],
      [
        "Ġz",
        -1.0
      ],
      [
        "tling",
        -1.0
      ],
      [
        "ber",
        -1.0
      ],
      [
        "sense",
        -1.0
      ],
      [
        "ĠBad",
        -1.0
      ],
      [
        "Ġmain",
        -1.0
      ],
      [
        "nc",
        -1.0
      ],
      [
        "dney",
        -1.0
      ],
      [
        "Ġcounts",
        -1.0
      ],
      [
        "ĠSaudi",
        -1.0
      ],
      [
        "ĠAny",
        -1.0
      ],
      [
        "Ġproportions",
        -1.0
      ],
      [
        "uf",
        -1.0
      ],
      [
        "Ġobserving",
        -1.0
      ],
      [
        "Ġthey",
        -1.0
      ],
      [
        "Ġresource",
        -1.0
      ],
      [
        "Ġflavor",
        -1.0
      ],
      [
        "rus",
        -1.0
      ],
      [
        ".[",
        -1.0
      ],
      [
        "ient",
        -1.0
      ],
      [
        "F",
        -1.0
      ],
      [
        "Ġtermed",
        -1.0
      ],
      [
        "OT",
        -1.0
      ],
      [
        "ĠAngel",
        -1.0
      ],
      [
        "ĠBenedict",
        -1.0
      ],
      [
        "ĠRose",
        -1.0
      ],
      [
        "Ġlargely",
        -1.0
      ],
      [
        "Ġwholly",
        -1.0
      ],
      [
        "'m",
        -1.0
      ],
      [
        "Ġdocument",
        -1.0
      ],
      [
        "should",
        -1.0
      ],
      [
        "Ġreplacement",
        -1.0
      ],
      [
        "Ġtechnique",
        -1.0
      ],
      [
        "Ġcarefully",
        -1.0
      ],
      [
        "Ġself",
        -1.0
      ],
      [
        "thelial",
        -1.0
      ],
      [
        "Ġ1500",
        -1.0
      ],
      [
        "gr",
        -1.0
      ],
      [
        "Ġtab",
        -1.0
      ],
      [
        "\"),",
        -1.0
      ],
      [
        "ĠSandy",
        -1.0
      ],
      [
        "mit",
        -1.0
      ],
      [
        "Hz",
        -1.0
      ],
      [
        "ĠFrom",
        -1.0
      ],
      [
        "ĠPRO",
        -1.0
      ],
      [
        "Ġmainly",
        -1.0
      ],
      [
        "Ġtransported",
        -1.0
      ],
      [
        "Ġeventually",
        -1.0
      ],
      [
        "ĠPhysics",
        -1.0
      ],
      [
        "Ġafterwards",
        -1.0
      ],
      [
        "Ġfound",
        -1.0
      ],
      [
        "Ġnewspaper",
        -1.0
      ],
      [
        "IS",
        -1.0
      ],
      [
        "Ex",
        -1.0
      ],
      [
        "tri",
        -1.0
      ],
      [
        "Ġlandscapes",
        -1.0
      ],
      [
        "xed",
        -1.0
      ],
      [
        "Ġdocuments",
        -1.0
      ],
      [
        "Ġnutrient",
        -1.0
      ],
      [
        "Ġgland",
        -1.0
      ],
      [
        "Ġembroider",
        -1.0
      ],
      [
        "Ġpropel",
        -1.0
      ],
      [
        "Ġcarriers",
        -1.0
      ],
      [
        "Ġassessing",
        -1.0
      ],
      [
        "Ġanyone",
        -1.0
      ],
      [
        "tro",
        -1.0
      ],
      [
        "))",
        -1.0
      ],
      [
        "Nevertheless",
        -1.0
      ],
      [
        "ĠBrief",
        -1.0
      ],
      [
        "ĠSafety",
        -1.0
      ],
      [
        "phy",
        -1.0
      ],
      [
        "Ġstressed",
        -1.0
      ],
      [
        "Ġpipe",
        -1.0
      ],
      [
        "ĠSco",
        -1.0
      ],
      [
        "Ġover",
        -1.0
      ],
      [
        "oring",
        -1.0
      ],
      [
        "lation",
        -1.0
      ],
      [
        "Ġregular",
        -1.0
      ],
      [
        "Ġfive",
        -1.0
      ],
      [
        "ĠYahweh",
        -1.0
      ],
      [
        "ĠLau",
        -1.0
      ],
      [
        "Ġlandscape",
        -1.0
      ],
      [
        "chester",
        -1.0
      ],
      [
        "Ġcortex",
        -1.0
      ],
      [
        "á¸",
        -1.0
      ],
      [
        "lessness",
        -1.0
      ],
      [
        "rel",
        -1.0
      ],
      [
        "Ġfragments",
        -1.0
      ],
      [
        "Ġextraction",
        -1.0
      ],
      [
        "Ġfertility",
        -1.0
      ],
      [
        "But",
        -1.0
      ],
      [
        "Ġnearby",
        -1.0
      ],
      [
        "ĠFed",
        -1.0
      ],
      [
        "Ġcompiled",
        -1.0
      ],
      [
        "ĠVar",
        -1.0
      ],
      [
        "Ġroom",
        -1.0
      ],
      [
        "ĠGeo",
        -1.0
      ],
      [
        "Ġboys",
        -1.0
      ],
      [
        "ĠCri",
        -1.0
      ],
      [
        "Ġinde",
        -1.0
      ],
      [
        "Ġpainter",
        -1.0
      ],
      [
        "ĠSum",
        -1.0
      ],
      [
        "Ġarguing",
        -1.0
      ],
      [
        "Ġadopt",
        -1.0
      ],
      [
        "Ġ1983",
        -1.0
      ],
      [
        "ĠRoman",
        -1.0
      ],
      [
        "ĠBarcelona",
        -1.0
      ],
      [
        "Ġseven",
        -1.0
      ],
      [
        "Ġinfamous",
        -1.0
      ],
      [
        "ĠRA",
        -1.0
      ],
      [
        "Ġgraph",
        -1.0
      ],
      [
        "Ġfinally",
        -1.0
      ],
      [
        "Total",
        -1.0
      ],
      [
        "ĠRehabilitation",
        -1.0
      ],
      [
        "55",
        -1.0
      ],
      [
        "Ġblame",
        -1.0
      ],
      [
        "Ġstations",
        -1.0
      ],
      [
        "Ġworldwide",
        -1.0
      ],
      [
        "Ġstorm",
        -1.0
      ],
      [
        "Ġvolumes",
        -1.0
      ],
      [
        "Ġastronomy",
        -1.0
      ],
      [
        "Ġconstrain",
        -1.0
      ],
      [
        "ather",
        -1.0
      ],
      [
        "care",
        -1.0
      ],
      [
        "cock",
        -1.0
      ],
      [
        "ĠGabriel",
        -1.0
      ],
      [
        "Ġessays",
        -1.0
      ],
      [
        "Ġstatistical",
        -1.0
      ],
      [
        "Ġbar",
        -1.0
      ],
      [
        "Ġintra",
        -1.0
      ],
      [
        "Ġcoordinate",
        -1.0
      ],
      [
        "23",
        -1.0
      ],
      [
        "Ġneurons",
        -1.0
      ],
      [
        "Ġbanks",
        -1.0
      ],
      [
        "Additional",
        -1.0
      ],
      [
        "Ġthem",
        -1.0
      ],
      [
        "Ġsha",
        -1.0
      ],
      [
        "Ġcerebral",
        -1.0
      ],
      [
        "product",
        -1.0
      ],
      [
        "Ġbeef",
        -1.0
      ],
      [
        "MW",
        -1.0
      ],
      [
        "establish",
        -1.0
      ],
      [
        "Ġserum",
        -1.0
      ],
      [
        "Ġfollowing",
        -1.0
      ],
      [
        "ĠCabinet",
        -1.0
      ],
      [
        "ĠSte",
        -1.0
      ],
      [
        "Ġexists",
        -1.0
      ],
      [
        "uge",
        -1.0
      ],
      [
        "Ġdestined",
        -1.0
      ],
      [
        "Ġprinciple",
        -1.0
      ],
      [
        "ĠWould",
        -1.0
      ],
      [
        "Ġdisabled",
        -1.0
      ],
      [
        "Ġ6",
        -1.0
      ],
      [
        "Ġmaxim",
        -1.0
      ],
      [
        "Ġemotions",
        -1.0
      ],
      [
        "Ġsalt",
        -1.0
      ],
      [
        "ĠNearly",
        -1.0
      ],
      [
        "ĠNic",
        -1.0
      ],
      [
        "Ġsignificance",
        -1.0
      ],
      [
        "Ġpoet",
        -1.0
      ],
      [
        "Comp",
        -1.0
      ],
      [
        "field",
        -1.0
      ],
      [
        "ĠStra",
        -1.0
      ],
      [
        "ĠADHD",
        -1.0
      ],
      [
        "Ġsusceptible",
        -1.0
      ],
      [
        "Ġteachings",
        -1.0
      ],
      [
        "ĠChairman",
        -1.0
      ],
      [
        "Ġattempting",
        -1.0
      ],
      [
        "Ġaluminum",
        -1.0
      ],
      [
        "Ġsyntax",
        -1.0
      ],
      [
        "Ġtopics",
        -1.0
      ],
      [
        "Ġdemand",
        -1.0
      ],
      [
        "Ġwoman",
        -1.0
      ],
      [
        "ĠAP",
        -1.0
      ],
      [
        "ĠEx",
        -1.0
      ],
      [
        "bits",
        -1.0
      ],
      [
        "Ġshells",
        -1.0
      ],
      [
        "Ġwells",
        -1.0
      ],
      [
        "Ġbound",
        -1.0
      ],
      [
        "Ġsecretary",
        -1.0
      ],
      [
        "Ġinitially",
        -1.0
      ],
      [
        "Ġunacceptable",
        -1.0
      ],
      [
        "Ġpetition",
        -1.0
      ],
      [
        "Ġtransmission",
        -1.0
      ],
      [
        "Ġmetabolism",
        -1.0
      ],
      [
        "ĠCourse",
        -1.0
      ],
      [
        "Ġchamber",
        -1.0
      ],
      [
        "Ġj",
        -1.0
      ],
      [
        "Ġminorities",
        -1.0
      ],
      [
        "Ġintent",
        -1.0
      ],
      [
        "Ġequivalent",
        -1.0
      ],
      [
        "Ġclimate",
        -1.0
      ],
      [
        "Ġsent",
        -1.0
      ],
      [
        "Ġflowering",
        -1.0
      ],
      [
        "Ġrefugees",
        -1.0
      ],
      [
        "Ġcapability",
        -1.0
      ],
      [
        "cephal",
        -1.0
      ],
      [
        "Animal",
        -1.0
      ],
      [
        "Ġvolcanoes",
        -1.0
      ],
      [
        "ĠReg",
        -1.0
      ],
      [
        "ĠColl",
        -1.0
      ],
      [
        "Ġwidespread",
        -1.0
      ],
      [
        "Ġprogramme",
        -1.0
      ],
      [
        "Ġequator",
        -1.0
      ],
      [
        "Ġspecialist",
        -1.0
      ],
      [
        "Ġdeployed",
        -1.0
      ],
      [
        "Standard",
        -1.0
      ],
      [
        "Ġfaculty",
        -1.0
      ],
      [
        "Ġlines",
        -1.0
      ],
      [
        "Ġwastes",
        -1.0
      ],
      [
        "Ġion",
        -1.0
      ],
      [
        "izes",
        -1.0
      ],
      [
        "Ġhistory",
        -1.0
      ],
      [
        "Ġcomprises",
        -1.0
      ],
      [
        "Ġpatriot",
        -1.0
      ],
      [
        "oking",
        -1.0
      ],
      [
        "gl",
        -1.0
      ],
      [
        "Ġdecreasing",
        -1.0
      ],
      [
        "Ġbeneficiaries",
        -1.0
      ],
      [
        "Ġresolve",
        -1.0
      ],
      [
        "Ġhypothesis",
        -1.0
      ],
      [
        "Ġpets",
        -1.0
      ],
      [
        "sight",
        -1.0
      ],
      [
        "ĠScripture",
        -1.0
      ],
      [
        "Ġgarbage",
        -1.0
      ],
      [
        "Ġnortheast",
        -1.0
      ],
      [
        "ĠPass",
        -1.0
      ],
      [
        "piece",
        -1.0
      ],
      [
        "ĠConservative",
        -1.0
      ],
      [
        "Ġso",
        -1.0
      ],
      [
        "religious",
        -1.0
      ],
      [
        "dge",
        -1.0
      ],
      [
        "lim",
        -1.0
      ],
      [
        "Ġaxis",
        -1.0
      ],
      [
        "ĠNicholas",
        -1.0
      ],
      [
        "Ġpepper",
        -1.0
      ],
      [
        "Ġquantitative",
        -1.0
      ],
      [
        "Ġowe",
        -1.0
      ],
      [
        "Ġhook",
        -1.0
      ],
      [
        "ffs",
        -1.0
      ],
      [
        "Ġobsess",
        -1.0
      ],
      [
        "science",
        -1.0
      ],
      [
        "tell",
        -1.0
      ],
      [
        "ae",
        -1.0
      ],
      [
        "ĠOthers",
        -1.0
      ],
      [
        "Ġqualities",
        -1.0
      ],
      [
        "Ġcurves",
        -1.0
      ],
      [
        "Ġlegal",
        -1.0
      ],
      [
        "Ġfund",
        -1.0
      ],
      [
        "held",
        -1.0
      ],
      [
        "oe",
        -1.0
      ],
      [
        "GO",
        -1.0
      ],
      [
        "Ġpursuit",
        -1.0
      ],
      [
        "Ġnuclear",
        -1.0
      ],
      [
        "ĠRobert",
        -1.0
      ],
      [
        "var",
        -1.0
      ],
      [
        "Ġpop",
        -1.0
      ],
      [
        "Ġheadaches",
        -1.0
      ],
      [
        "ĠSpain",
        -1.0
      ],
      [
        "Ġdevices",
        -1.0
      ],
      [
        "bon",
        -1.0
      ],
      [
        "Ġeconomist",
        -1.0
      ],
      [
        "ĠBMJ",
        -1.0
      ],
      [
        "Ġvarieties",
        -1.0
      ],
      [
        "ĠWikipedia",
        -1.0
      ],
      [
        "Ġoverwhelmed",
        -1.0
      ],
      [
        "Ġlateral",
        -1.0
      ],
      [
        "erated",
        -1.0
      ],
      [
        "die",
        -1.0
      ],
      [
        "RN",
        -1.0
      ],
      [
        "Ġdeliver",
        -1.0
      ],
      [
        "ĠTeacher",
        -1.0
      ],
      [
        "sensitive",
        -1.0
      ],
      [
        "Ġmyel",
        -1.0
      ],
      [
        "Ġartificial",
        -1.0
      ],
      [
        "ĠComb",
        -1.0
      ],
      [
        "RO",
        -1.0
      ],
      [
        "Ġsociety",
        -1.0
      ],
      [
        ".]",
        -1.0
      ],
      [
        "Ġblade",
        -1.0
      ],
      [
        "Ġdissolve",
        -1.0
      ],
      [
        "Ġmisunderstanding",
        -1.0
      ],
      [
        "courage",
        -1.0
      ],
      [
        "ĠPeter",
        -1.0
      ],
      [
        "Ġor",
        -1.0
      ],
      [
        "cations",
        -1.0
      ],
      [
        "ĠRh",
        -1.0
      ],
      [
        "Ġsingular",
        -1.0
      ],
      [
        "Reference",
        -1.0
      ],
      [
        "tery",
        -1.0
      ],
      [
        "Ġperfect",
        -1.0
      ],
      [
        "ical",
        -1.0
      ],
      [
        "ĠColorado",
        -1.0
      ],
      [
        "ĠHot",
        -1.0
      ],
      [
        "Ġmisleading",
        -1.0
      ],
      [
        "ĠKashmir",
        -1.0
      ],
      [
        "Ġtumor",
        -1.0
      ],
      [
        "Ġspirit",
        -1.0
      ],
      [
        "write",
        -1.0
      ],
      [
        "Ġdeserve",
        -1.0
      ],
      [
        "Are",
        -1.0
      ],
      [
        "Ġinterfaces",
        -1.0
      ],
      [
        "First",
        -1.0
      ],
      [
        "pan",
        -1.0
      ],
      [
        "Ġentirely",
        -1.0
      ],
      [
        "Ġstraightforward",
        -1.0
      ],
      [
        "ĠThree",
        -1.0
      ],
      [
        "ĠMagazine",
        -1.0
      ],
      [
        "Ġsimilar",
        -1.0
      ],
      [
        "Ġsatisfactory",
        -1.0
      ],
      [
        "ĠApp",
        -1.0
      ],
      [
        "Ġodor",
        -1.0
      ],
      [
        "ĠTrinidad",
        -1.0
      ],
      [
        "Ġradioactive",
        -1.0
      ],
      [
        "Ġpackage",
        -1.0
      ],
      [
        "Ġindicator",
        -1.0
      ],
      [
        "Ġ05",
        -1.0
      ],
      [
        "Ġstraw",
        -1.0
      ],
      [
        "Ġimperative",
        -1.0
      ],
      [
        "April",
        -1.0
      ],
      [
        "encing",
        -1.0
      ],
      [
        "Ġ180",
        -1.0
      ],
      [
        "Ġlead",
        -1.0
      ],
      [
        "ĠLive",
        -1.0
      ],
      [
        "bin",
        -1.0
      ],
      [
        "Os",
        -1.0
      ],
      [
        "Ġconstructed",
        -1.0
      ],
      [
        "ĠClin",
        -1.0
      ],
      [
        "08",
        -1.0
      ],
      [
        "Ġburns",
        -1.0
      ],
      [
        "Ġindustry",
        -1.0
      ],
      [
        "ported",
        -1.0
      ],
      [
        "ĠAv",
        -1.0
      ],
      [
        "Ġundertook",
        -1.0
      ],
      [
        "Ġtraditional",
        -1.0
      ],
      [
        "Ġlearned",
        -1.0
      ],
      [
        "Ġenough",
        -1.0
      ],
      [
        "Ġconsumed",
        -1.0
      ],
      [
        "Ġmill",
        -1.0
      ],
      [
        "Ġcelestial",
        -1.0
      ],
      [
        "Ġcoffee",
        -1.0
      ],
      [
        "Ġfloods",
        -1.0
      ],
      [
        "ĠCall",
        -1.0
      ],
      [
        "Ġcommission",
        -1.0
      ],
      [
        "Ġimported",
        -1.0
      ],
      [
        "Ġcorrect",
        -1.0
      ],
      [
        "Ġsequences",
        -1.0
      ],
      [
        "Ġsuspect",
        -1.0
      ],
      [
        "heim",
        -1.0
      ],
      [
        "Ġresponsible",
        -1.0
      ],
      [
        "Ġba",
        -1.0
      ],
      [
        "Ġstorytelling",
        -1.0
      ],
      [
        "ĠNH",
        -1.0
      ],
      [
        "ĠNever",
        -1.0
      ],
      [
        "ĠSciences",
        -1.0
      ],
      [
        "Ġvariant",
        -1.0
      ],
      [
        "Ġpredomin",
        -1.0
      ],
      [
        "ĠBi",
        -1.0
      ],
      [
        "Ġarchaeological",
        -1.0
      ],
      [
        "ĠStrategy",
        -1.0
      ],
      [
        "ĠNC",
        -1.0
      ],
      [
        "Ġhence",
        -1.0
      ],
      [
        "'s",
        -1.0
      ],
      [
        "Ġvisitor",
        -1.0
      ],
      [
        "Ġintention",
        -1.0
      ],
      [
        "ession",
        -1.0
      ],
      [
        "Ġunconstitutional",
        -1.0
      ],
      [
        "Ġpublishing",
        -1.0
      ],
      [
        "ĠAlan",
        -1.0
      ],
      [
        "Ġphotographic",
        -1.0
      ],
      [
        "Ġinv",
        -1.0
      ],
      [
        "ĠOliver",
        -1.0
      ],
      [
        "Ġgaps",
        -1.0
      ],
      [
        "ĠWithin",
        -1.0
      ],
      [
        "ĠRev",
        -1.0
      ],
      [
        "SOURCE",
        -1.0
      ],
      [
        "month",
        -1.0
      ],
      [
        "oons",
        -1.0
      ],
      [
        "Pe",
        -1.0
      ],
      [
        "Ġdeterior",
        -1.0
      ],
      [
        "Ġrespirator",
        -1.0
      ],
      [
        "lton",
        -1.0
      ],
      [
        "Ġincome",
        -1.0
      ],
      [
        "ĠBase",
        -1.0
      ],
      [
        "Ġfibers",
        -1.0
      ],
      [
        "ique",
        -1.0
      ],
      [
        "Ġcontamination",
        -1.0
      ],
      [
        "Ġfaint",
        -1.0
      ],
      [
        "BI",
        -1.0
      ],
      [
        "Ġearthquake",
        -1.0
      ],
      [
        "ort",
        -1.0
      ],
      [
        "Ġbulb",
        -1.0
      ],
      [
        "Ġsize",
        -1.0
      ],
      [
        "Ġbeetles",
        -1.0
      ],
      [
        "Ġartisan",
        -1.0
      ],
      [
        "ĠMembers",
        -1.0
      ],
      [
        "Ġodd",
        -1.0
      ],
      [
        "Ġmer",
        -1.0
      ],
      [
        "ĠPrevious",
        -1.0
      ],
      [
        "Ġcontact",
        -1.0
      ],
      [
        "Ġpediatric",
        -1.0
      ],
      [
        "ĠBook",
        -1.0
      ],
      [
        "Ġhabitat",
        -1.0
      ],
      [
        "ĠSar",
        -1.0
      ],
      [
        "Ġlymphoma",
        -1.0
      ],
      [
        "ĠTasmania",
        -1.0
      ],
      [
        "Ġartillery",
        -1.0
      ],
      [
        "Ġenhance",
        -1.0
      ],
      [
        "Ġoperate",
        -1.0
      ],
      [
        "Ġadmitted",
        -1.0
      ],
      [
        "Ġextended",
        -1.0
      ],
      [
        "Ġdialogue",
        -1.0
      ],
      [
        "Ġcreature",
        -1.0
      ],
      [
        "Ġconfront",
        -1.0
      ],
      [
        "Of",
        -1.0
      ],
      [
        "Ġbrand",
        -1.0
      ],
      [
        "ĠPalestinians",
        -1.0
      ],
      [
        "Ġpuzzle",
        -1.0
      ],
      [
        "Ġcorporate",
        -1.0
      ],
      [
        "Psych",
        -1.0
      ],
      [
        "ĠPartnership",
        -1.0
      ],
      [
        "Ġphotographs",
        -1.0
      ],
      [
        "Americans",
        -1.0
      ],
      [
        "Ġearthquakes",
        -1.0
      ],
      [
        "Ġcontext",
        -1.0
      ],
      [
        "ĠArchbishop",
        -1.0
      ],
      [
        "Ġstatistic",
        -1.0
      ],
      [
        "Ġpor",
        -1.0
      ],
      [
        "Ġvital",
        -1.0
      ],
      [
        "Ġsequential",
        -1.0
      ],
      [
        "Ġchanges",
        -1.0
      ],
      [
        "ĠPearson",
        -1.0
      ],
      [
        "ulators",
        -1.0
      ],
      [
        "ĠKan",
        -1.0
      ],
      [
        "teenth",
        -1.0
      ],
      [
        "iance",
        -1.0
      ],
      [
        "tant",
        -1.0
      ],
      [
        "Ġdepending",
        -1.0
      ],
      [
        "pit",
        -1.0
      ],
      [
        "ĠIdea",
        -1.0
      ],
      [
        "Ġmechanism",
        -1.0
      ],
      [
        "ued",
        -1.0
      ],
      [
        "Ġgirls",
        -1.0
      ],
      [
        "Ġruler",
        -1.0
      ],
      [
        "Ġalignment",
        -1.0
      ],
      [
        "uch",
        -1.0
      ],
      [
        "ĠInt",
        -1.0
      ],
      [
        "Ġsuggests",
        -1.0
      ],
      [
        "ĠIUCN",
        -1.0
      ],
      [
        "Ġmemoir",
        -1.0
      ],
      [
        "Ġanim",
        -1.0
      ],
      [
        ".)",
        -1.0
      ],
      [
        "81",
        -1.0
      ],
      [
        "Ġfox",
        -1.0
      ],
      [
        "ĠGA",
        -1.0
      ],
      [
        "14",
        -1.0
      ],
      [
        "cent",
        -1.0
      ],
      [
        "uing",
        -1.0
      ],
      [
        "1995",
        -1.0
      ],
      [
        "Ġentity",
        -1.0
      ],
      [
        "Ġscans",
        -1.0
      ],
      [
        "Ġplenty",
        -1.0
      ],
      [
        "ĠRegion",
        -1.0
      ],
      [
        "Ġmobile",
        -1.0
      ],
      [
        "ĠUSGS",
        -1.0
      ],
      [
        "shes",
        -1.0
      ],
      [
        "Ġpatron",
        -1.0
      ],
      [
        "Ġcro",
        -1.0
      ],
      [
        "ounding",
        -1.0
      ],
      [
        "ĠCross",
        -1.0
      ],
      [
        "Ġgeometry",
        -1.0
      ],
      [
        "nat",
        -1.0
      ],
      [
        "Ġgrazing",
        -1.0
      ],
      [
        "Ġminutes",
        -1.0
      ],
      [
        "Ġinsurance",
        -1.0
      ],
      [
        "ĠJer",
        -1.0
      ],
      [
        "Ġincreases",
        -1.0
      ],
      [
        "Ġneighboring",
        -1.0
      ],
      [
        "inate",
        -1.0
      ],
      [
        "Ġ1900",
        -1.0
      ],
      [
        "Ġtaxpayers",
        -1.0
      ],
      [
        "Ġdiffraction",
        -1.0
      ],
      [
        "Ġawful",
        -1.0
      ],
      [
        "Ġlost",
        -1.0
      ],
      [
        "ĠCavalry",
        -1.0
      ],
      [
        "Ġrole",
        -1.0
      ],
      [
        "ÉĻ",
        -1.0
      ],
      [
        "ĠWilliams",
        -1.0
      ],
      [
        "Ġrecognizes",
        -1.0
      ],
      [
        "ĠUs",
        -1.0
      ],
      [
        "ĠUl",
        -1.0
      ],
      [
        "Ġproduct",
        -1.0
      ],
      [
        "came",
        -1.0
      ],
      [
        "Ġscaffold",
        -1.0
      ],
      [
        "ĠIndex",
        -1.0
      ],
      [
        "nx",
        -1.0
      ],
      [
        "Ġblue",
        -1.0
      ],
      [
        "mÄģ",
        -1.0
      ],
      [
        "Ġcount",
        -1.0
      ],
      [
        "Ġapples",
        -1.0
      ],
      [
        "rations",
        -1.0
      ],
      [
        "Min",
        -1.0
      ],
      [
        "ĠDetermin",
        -1.0
      ],
      [
        "uts",
        -1.0
      ],
      [
        "ĠWelfare",
        -1.0
      ],
      [
        "Ġresearch",
        -1.0
      ],
      [
        "Ġmeasles",
        -1.0
      ],
      [
        "Ġtoddler",
        -1.0
      ],
      [
        "Ġunderneath",
        -1.0
      ],
      [
        "Ġcardiac",
        -1.0
      ],
      [
        "1997",
        -1.0
      ],
      [
        "Ġ+",
        -1.0
      ],
      [
        "ĠMuhammad",
        -1.0
      ],
      [
        "ĠMir",
        -1.0
      ],
      [
        "ode",
        -1.0
      ],
      [
        "Ġshould",
        -1.0
      ],
      [
        "iation",
        -1.0
      ],
      [
        "ĠPeople",
        -1.0
      ],
      [
        "ĠBasic",
        -1.0
      ],
      [
        "sel",
        -1.0
      ],
      [
        "Ġha",
        -1.0
      ],
      [
        "%)",
        -1.0
      ],
      [
        "rin",
        -1.0
      ],
      [
        "Ġsearching",
        -1.0
      ],
      [
        "ĠBaker",
        -1.0
      ],
      [
        "Ġcharged",
        -1.0
      ],
      [
        "Ġinvent",
        -1.0
      ],
      [
        "Ġcarried",
        -1.0
      ],
      [
        "ĠSoldier",
        -1.0
      ],
      [
        "Ġequity",
        -1.0
      ],
      [
        "_",
        -1.0
      ],
      [
        "ĠKyoto",
        -1.0
      ],
      [
        "Ġrenal",
        -1.0
      ],
      [
        "Ġpile",
        -1.0
      ],
      [
        "Ġcompartment",
        -1.0
      ],
      [
        "ĠAR",
        -1.0
      ],
      [
        "Ġmanaged",
        -1.0
      ],
      [
        "ĠIncorporated",
        -1.0
      ],
      [
        "ga",
        -1.0
      ],
      [
        "ĠDepartment",
        -1.0
      ],
      [
        "Ġexceed",
        -1.0
      ],
      [
        "Ġar",
        -1.0
      ],
      [
        "Ġprocesses",
        -1.0
      ],
      [
        "Ġlamp",
        -1.0
      ],
      [
        "Ġairplane",
        -1.0
      ],
      [
        "Ġfits",
        -1.0
      ],
      [
        "Sometimes",
        -1.0
      ],
      [
        "Ċ",
        -1.0
      ],
      [
        "Ġtuberculosis",
        -1.0
      ],
      [
        "ĠActivity",
        -1.0
      ],
      [
        "Ġbene",
        -1.0
      ],
      [
        "star",
        -1.0
      ],
      [
        "ĠMoon",
        -1.0
      ],
      [
        "Ġcha",
        -1.0
      ],
      [
        "Participants",
        -1.0
      ],
      [
        "Ġsentences",
        -1.0
      ],
      [
        "Ġexceptional",
        -1.0
      ],
      [
        "Ġemphasized",
        -1.0
      ],
      [
        "Ġheight",
        -1.0
      ],
      [
        "TP",
        -1.0
      ],
      [
        "Ġliterature",
        -1.0
      ],
      [
        "Ġcriteria",
        -1.0
      ],
      [
        "Ġoppose",
        -1.0
      ],
      [
        "ĠConstitution",
        -1.0
      ],
      [
        "Ġimports",
        -1.0
      ],
      [
        "nic",
        -1.0
      ],
      [
        "ibly",
        -1.0
      ],
      [
        "Ġcultiv",
        -1.0
      ],
      [
        "Ġcalculate",
        -1.0
      ],
      [
        "Ġ1954",
        -1.0
      ],
      [
        "ĠGreen",
        -1.0
      ],
      [
        "ival",
        -1.0
      ],
      [
        "ĠJacques",
        -1.0
      ],
      [
        "Ġfaced",
        -1.0
      ],
      [
        "ores",
        -1.0
      ],
      [
        "Ġ130",
        -1.0
      ],
      [
        "ĠIntroduction",
        -1.0
      ],
      [
        "Ġhandful",
        -1.0
      ],
      [
        "Ġsacred",
        -1.0
      ],
      [
        "ĠCanaan",
        -1.0
      ],
      [
        "ĠRhode",
        -1.0
      ],
      [
        "Ġrelies",
        -1.0
      ],
      [
        "os",
        -1.0
      ],
      [
        "Ġkick",
        -1.0
      ],
      [
        "Ġhelped",
        -1.0
      ],
      [
        "based",
        -1.0
      ],
      [
        "Ġabsurd",
        -1.0
      ],
      [
        "Ġreference",
        -1.0
      ],
      [
        "Ġsyndrome",
        -1.0
      ],
      [
        "Ġdiffers",
        -1.0
      ],
      [
        "ĠClaud",
        -1.0
      ],
      [
        "ĠDemocrats",
        -1.0
      ],
      [
        "Ġcultural",
        -1.0
      ],
      [
        "Ġpen",
        -1.0
      ],
      [
        "ĠBor",
        -1.0
      ],
      [
        "Ġcorridor",
        -1.0
      ],
      [
        "chin",
        -1.0
      ],
      [
        "ĠAssistant",
        -1.0
      ],
      [
        "Ġpray",
        -1.0
      ],
      [
        "ffe",
        -1.0
      ],
      [
        "Ġlistening",
        -1.0
      ],
      [
        "know",
        -1.0
      ],
      [
        "Ġparticipant",
        -1.0
      ],
      [
        "ĠTeam",
        -1.0
      ],
      [
        "Ġdynamics",
        -1.0
      ],
      [
        "ĠGovernor",
        -1.0
      ],
      [
        "Ġoutside",
        -1.0
      ],
      [
        "Ġflowing",
        -1.0
      ],
      [
        "Ġdrops",
        -1.0
      ],
      [
        "ļ",
        -1.0
      ],
      [
        "ĠColumbus",
        -1.0
      ],
      [
        "He",
        -1.0
      ],
      [
        "Ġinterior",
        -1.0
      ],
      [
        "Ġdictat",
        -1.0
      ],
      [
        "Ġmortgage",
        -1.0
      ],
      [
        "base",
        -1.0
      ],
      [
        "Ġdown",
        -1.0
      ],
      [
        "Ġliving",
        -1.0
      ],
      [
        "Ġclassic",
        -1.0
      ],
      [
        "PT",
        -1.0
      ],
      [
        "Write",
        -1.0
      ],
      [
        "ĠLu",
        -1.0
      ],
      [
        "ĠLater",
        -1.0
      ],
      [
        "Ġconsistency",
        -1.0
      ],
      [
        "Ġended",
        -1.0
      ],
      [
        "ett",
        -1.0
      ],
      [
        "Ġcorrelate",
        -1.0
      ],
      [
        "Ġsettle",
        -1.0
      ],
      [
        "Ġosteoarthritis",
        -1.0
      ],
      [
        "oy",
        -1.0
      ],
      [
        "Ġcolleague",
        -1.0
      ],
      [
        "Ġpossibilities",
        -1.0
      ],
      [
        "Ġft",
        -1.0
      ],
      [
        "ec",
        -1.0
      ],
      [
        "ĠWriting",
        -1.0
      ],
      [
        "Their",
        -1.0
      ],
      [
        "ĠBob",
        -1.0
      ],
      [
        "Ġmentally",
        -1.0
      ],
      [
        "Ġreads",
        -1.0
      ],
      [
        "Ġthoroughly",
        -1.0
      ],
      [
        "Ġlatitude",
        -1.0
      ],
      [
        "Ġcomputer",
        -1.0
      ],
      [
        "Ġthere",
        -1.0
      ],
      [
        "ĠRapid",
        -1.0
      ],
      [
        "ĠAlthough",
        -1.0
      ],
      [
        "Ġdoctrine",
        -1.0
      ],
      [
        "Ġcarry",
        -1.0
      ],
      [
        "ĠBreast",
        -1.0
      ],
      [
        "Ġwarnings",
        -1.0
      ],
      [
        "ĠRO",
        -1.0
      ],
      [
        "Ġwea",
        -1.0
      ],
      [
        "Ġfunctionality",
        -1.0
      ],
      [
        "mod",
        -1.0
      ],
      [
        "Ġ800",
        -1.0
      ],
      [
        "Ġfiber",
        -1.0
      ],
      [
        "Ġtropical",
        -1.0
      ],
      [
        "Ġmisunderstood",
        -1.0
      ],
      [
        "Ġenemy",
        -1.0
      ],
      [
        "Ġconsent",
        -1.0
      ],
      [
        "Ġraw",
        -1.0
      ],
      [
        "Ġlayers",
        -1.0
      ],
      [
        "ĠContent",
        -1.0
      ],
      [
        "ĠMonday",
        -1.0
      ],
      [
        "About",
        -1.0
      ],
      [
        "Ġassured",
        -1.0
      ],
      [
        "ul",
        -1.0
      ],
      [
        "Ġnomin",
        -1.0
      ],
      [
        "Ġshifting",
        -1.0
      ],
      [
        "ĠAdditional",
        -1.0
      ],
      [
        "Ġobstacle",
        -1.0
      ],
      [
        "Ġfurniture",
        -1.0
      ],
      [
        "Ġunlike",
        -1.0
      ],
      [
        "ĠRenaissance",
        -1.0
      ],
      [
        "ĠBoston",
        -1.0
      ],
      [
        "ĠBishop",
        -1.0
      ],
      [
        "Ġwrong",
        -1.0
      ],
      [
        "Â·",
        -1.0
      ],
      [
        "less",
        -1.0
      ],
      [
        "Ġsupporters",
        -1.0
      ],
      [
        "Ġfirmly",
        -1.0
      ],
      [
        "spons",
        -1.0
      ],
      [
        "Ġnonetheless",
        -1.0
      ],
      [
        "Ġvaluable",
        -1.0
      ],
      [
        "EM",
        -1.0
      ],
      [
        "nna",
        -1.0
      ],
      [
        "Ġmultiple",
        -1.0
      ],
      [
        "tors",
        -1.0
      ],
      [
        "Ġrestaurant",
        -1.0
      ],
      [
        "ĠXX",
        -1.0
      ],
      [
        "GM",
        -1.0
      ],
      [
        "Ġbat",
        -1.0
      ],
      [
        "Ġdisciple",
        -1.0
      ],
      [
        "Ġvine",
        -1.0
      ],
      [
        "state",
        -1.0
      ],
      [
        "Ġsubjective",
        -1.0
      ],
      [
        "ĠShakespeare",
        -1.0
      ],
      [
        "giving",
        -1.0
      ],
      [
        "Ġfishermen",
        -1.0
      ],
      [
        "friend",
        -1.0
      ],
      [
        "vis",
        -1.0
      ],
      [
        "ĠZi",
        -1.0
      ],
      [
        "ry",
        -1.0
      ],
      [
        "Ġgigantic",
        -1.0
      ],
      [
        "osa",
        -1.0
      ],
      [
        "Ġprescription",
        -1.0
      ],
      [
        "II",
        -1.0
      ],
      [
        "Poli",
        -1.0
      ],
      [
        "54",
        -1.0
      ],
      [
        "Ġapproval",
        -1.0
      ],
      [
        "Ġfilm",
        -1.0
      ],
      [
        "Ġaimed",
        -1.0
      ],
      [
        "ĠQuant",
        -1.0
      ],
      [
        "Ġincapable",
        -1.0
      ],
      [
        "Ġfunded",
        -1.0
      ],
      [
        "Ġcharge",
        -1.0
      ],
      [
        "Ġfigure",
        -1.0
      ],
      [
        "ĠBio",
        -1.0
      ],
      [
        "Ġconquest",
        -1.0
      ],
      [
        "Ġsafeguard",
        -1.0
      ],
      [
        "osphere",
        -1.0
      ],
      [
        "week",
        -1.0
      ],
      [
        "ĠChemistry",
        -1.0
      ],
      [
        "Ġ1932",
        -1.0
      ],
      [
        "Ġme",
        -1.0
      ],
      [
        "Ġchose",
        -1.0
      ],
      [
        "Ġdeliberately",
        -1.0
      ],
      [
        "Ġadvancing",
        -1.0
      ],
      [
        "ĠLithuania",
        -1.0
      ],
      [
        "ĠJen",
        -1.0
      ],
      [
        "±",
        -1.0
      ],
      [
        "Ġ1940",
        -1.0
      ],
      [
        "Ġcharacters",
        -1.0
      ],
      [
        "ĠAnderson",
        -1.0
      ],
      [
        "Ġpond",
        -1.0
      ],
      [
        "Ġachievement",
        -1.0
      ],
      [
        "Proverbs",
        -1.0
      ],
      [
        "ĠPMID",
        -1.0
      ],
      [
        "ĠGh",
        -1.0
      ],
      [
        "itation",
        -1.0
      ],
      [
        "Ġstatements",
        -1.0
      ],
      [
        "Ġcraft",
        -1.0
      ],
      [
        "ries",
        -1.0
      ],
      [
        "ĠAnd",
        -1.0
      ],
      [
        "List",
        -1.0
      ],
      [
        "Ġvocabulary",
        -1.0
      ],
      [
        "ĠSemi",
        -1.0
      ],
      [
        "ĠUpdated",
        -1.0
      ],
      [
        "Ġmodifications",
        -1.0
      ],
      [
        "Ġexpectations",
        -1.0
      ],
      [
        "Ġships",
        -1.0
      ],
      [
        "ĠPlan",
        -1.0
      ],
      [
        "bury",
        -1.0
      ],
      [
        "Ġhaving",
        -1.0
      ],
      [
        "Ġnocturnal",
        -1.0
      ],
      [
        "Ġjustification",
        -1.0
      ],
      [
        "ĠPharisees",
        -1.0
      ],
      [
        "ĠCroatia",
        -1.0
      ],
      [
        "Ġiron",
        -1.0
      ],
      [
        "Ġfingers",
        -1.0
      ],
      [
        "Ġminority",
        -1.0
      ],
      [
        "Ġacids",
        -1.0
      ],
      [
        "eu",
        -1.0
      ],
      [
        "Ġtales",
        -1.0
      ],
      [
        "Ġneutrino",
        -1.0
      ],
      [
        "rms",
        -1.0
      ],
      [
        "Ġnavigation",
        -1.0
      ],
      [
        "posed",
        -1.0
      ],
      [
        "Ġentry",
        -1.0
      ],
      [
        "ĠPh",
        -1.0
      ],
      [
        "ural",
        -1.0
      ],
      [
        "Ġ1800",
        -1.0
      ],
      [
        "Ġacknowledge",
        -1.0
      ],
      [
        "Ġtongue",
        -1.0
      ],
      [
        "bus",
        -1.0
      ],
      [
        "istic",
        -1.0
      ],
      [
        "ĠEpiscopal",
        -1.0
      ],
      [
        "phosph",
        -1.0
      ],
      [
        "Ġtextbooks",
        -1.0
      ],
      [
        "Ġscientific",
        -1.0
      ],
      [
        "ss",
        -1.0
      ],
      [
        "ĠMolecular",
        -1.0
      ],
      [
        "ĠCensus",
        -1.0
      ],
      [
        "Ġbilingual",
        -1.0
      ],
      [
        "ital",
        -1.0
      ],
      [
        "Ġresilient",
        -1.0
      ],
      [
        "ĠExpedition",
        -1.0
      ],
      [
        "Ý",
        -1.0
      ],
      [
        "Ġthink",
        -1.0
      ],
      [
        "tress",
        -1.0
      ],
      [
        "Ġaquaculture",
        -1.0
      ],
      [
        ">.",
        -1.0
      ],
      [
        "plant",
        -1.0
      ],
      [
        "ider",
        -1.0
      ],
      [
        "Ġdomain",
        -1.0
      ],
      [
        "Ġlists",
        -1.0
      ],
      [
        "Ġ1938",
        -1.0
      ],
      [
        "Ġsex",
        -1.0
      ],
      [
        "ized",
        -1.0
      ],
      [
        "Ġfisheries",
        -1.0
      ],
      [
        "Ġglobal",
        -1.0
      ],
      [
        "lid",
        -1.0
      ],
      [
        "Ġemancipation",
        -1.0
      ],
      [
        "Ġrepetition",
        -1.0
      ],
      [
        "Ġsubspecies",
        -1.0
      ],
      [
        "Ġnewer",
        -1.0
      ],
      [
        "Ġreflection",
        -1.0
      ],
      [
        "Ġcancer",
        -1.0
      ],
      [
        "gro",
        -1.0
      ],
      [
        "Ġcases",
        -1.0
      ],
      [
        "Im",
        -1.0
      ],
      [
        "scient",
        -1.0
      ],
      [
        "irs",
        -1.0
      ],
      [
        "Ġroyal",
        -1.0
      ],
      [
        "ĠRoss",
        -1.0
      ],
      [
        "Ġreconcil",
        -1.0
      ],
      [
        "Ġscanning",
        -1.0
      ],
      [
        "OD",
        -1.0
      ],
      [
        "Ġhatch",
        -1.0
      ],
      [
        "about",
        -1.0
      ],
      [
        "ĠMil",
        -1.0
      ],
      [
        "Ġhost",
        -1.0
      ],
      [
        "ird",
        -1.0
      ],
      [
        "Ġsna",
        -1.0
      ],
      [
        "Ġdeclined",
        -1.0
      ],
      [
        "Ġstreet",
        -1.0
      ],
      [
        "ĠTreasury",
        -1.0
      ],
      [
        "Up",
        -1.0
      ],
      [
        "Ġbind",
        -1.0
      ],
      [
        "Ġfacilit",
        -1.0
      ],
      [
        "ĠMillennium",
        -1.0
      ],
      [
        "Ġfigures",
        -1.0
      ],
      [
        "group",
        -1.0
      ],
      [
        "Ġadvent",
        -1.0
      ],
      [
        "Ġneo",
        -1.0
      ],
      [
        "ĠBri",
        -1.0
      ],
      [
        "Ġracism",
        -1.0
      ],
      [
        "Ġstuck",
        -1.0
      ],
      [
        "Ġeggs",
        -1.0
      ],
      [
        "Ġassignments",
        -1.0
      ],
      [
        "Ġepilepsy",
        -1.0
      ],
      [
        "as",
        -1.0
      ],
      [
        "IT",
        -1.0
      ],
      [
        "ggs",
        -1.0
      ],
      [
        "à¤",
        -1.0
      ],
      [
        "Ġsymbolic",
        -1.0
      ],
      [
        "Ġmethod",
        -1.0
      ],
      [
        "sheet",
        -1.0
      ],
      [
        "Ġworst",
        -1.0
      ],
      [
        "Ġimprovements",
        -1.0
      ],
      [
        "Ġcool",
        -1.0
      ],
      [
        "OCR",
        -1.0
      ],
      [
        "ĠDeb",
        -1.0
      ],
      [
        "ok",
        -1.0
      ],
      [
        "Copyright",
        -1.0
      ],
      [
        "Ġmarriage",
        -1.0
      ],
      [
        "polis",
        -1.0
      ],
      [
        "ĠUsed",
        -1.0
      ],
      [
        "Ġmeasuring",
        -1.0
      ],
      [
        "Ġdrinking",
        -1.0
      ],
      [
        "Ġyoga",
        -1.0
      ],
      [
        "Ġinnovative",
        -1.0
      ],
      [
        "Ġbattalion",
        -1.0
      ],
      [
        "yers",
        -1.0
      ],
      [
        "Small",
        -1.0
      ],
      [
        "Ġscrub",
        -1.0
      ],
      [
        "ĠNormal",
        -1.0
      ],
      [
        "Ġbesieged",
        -1.0
      ],
      [
        "Ġowner",
        -1.0
      ],
      [
        "Ġholding",
        -1.0
      ],
      [
        "mony",
        -1.0
      ],
      [
        "clude",
        -1.0
      ],
      [
        "Ġsynchron",
        -1.0
      ],
      [
        "Ġpositions",
        -1.0
      ],
      [
        "Ġ35",
        -1.0
      ],
      [
        "range",
        -1.0
      ],
      [
        "ĠInformation",
        -1.0
      ],
      [
        "Ġcontributions",
        -1.0
      ],
      [
        "atta",
        -1.0
      ],
      [
        "mul",
        -1.0
      ],
      [
        "Ġdiscovered",
        -1.0
      ],
      [
        "Ġ>>",
        -1.0
      ],
      [
        "ei",
        -1.0
      ],
      [
        "Ġhorizon",
        -1.0
      ],
      [
        "ĠThere",
        -1.0
      ],
      [
        "Ġof",
        -1.0
      ],
      [
        "inos",
        -1.0
      ],
      [
        "ĠGovernment",
        -1.0
      ],
      [
        "ĠRepublic",
        -1.0
      ],
      [
        "Ġexactly",
        -1.0
      ],
      [
        "Ġincrement",
        -1.0
      ],
      [
        "typical",
        -1.0
      ],
      [
        "Ġunit",
        -1.0
      ],
      [
        "front",
        -1.0
      ],
      [
        "Ġmanual",
        -1.0
      ],
      [
        "School",
        -1.0
      ],
      [
        "Ġspatial",
        -1.0
      ],
      [
        "Ġsyn",
        -1.0
      ],
      [
        "Ġmothers",
        -1.0
      ],
      [
        "Ġfifty",
        -1.0
      ],
      [
        "Ġeth",
        -1.0
      ],
      [
        "ĠBerlin",
        -1.0
      ],
      [
        "ĠWest",
        -1.0
      ],
      [
        "ean",
        -1.0
      ],
      [
        "Ġdigits",
        -1.0
      ],
      [
        "Ġpounds",
        -1.0
      ],
      [
        "article",
        -1.0
      ],
      [
        "Ġcrude",
        -1.0
      ],
      [
        "Ġabusive",
        -1.0
      ],
      [
        "Ġsharing",
        -1.0
      ],
      [
        "Ġhits",
        -1.0
      ],
      [
        "Ġpacket",
        -1.0
      ],
      [
        "nges",
        -1.0
      ],
      [
        "Ġelements",
        -1.0
      ],
      [
        "bbed",
        -1.0
      ],
      [
        "Ġplastics",
        -1.0
      ],
      [
        "ĠAllah",
        -1.0
      ],
      [
        "tical",
        -1.0
      ],
      [
        "ĠIreland",
        -1.0
      ],
      [
        "Ġsharks",
        -1.0
      ],
      [
        "Ġweekend",
        -1.0
      ],
      [
        "ĠPacific",
        -1.0
      ],
      [
        "Ġ1948",
        -1.0
      ],
      [
        "\".",
        -1.0
      ],
      [
        "Ġrather",
        -1.0
      ],
      [
        "load",
        -1.0
      ],
      [
        "ĠFlu",
        -1.0
      ],
      [
        "ove",
        -1.0
      ],
      [
        "Pr",
        -1.0
      ],
      [
        "Ġdiffusion",
        -1.0
      ],
      [
        "Ġpresentation",
        -1.0
      ],
      [
        "just",
        -1.0
      ],
      [
        "ttle",
        -1.0
      ],
      [
        "ĠScientific",
        -1.0
      ],
      [
        "Ġfeast",
        -1.0
      ],
      [
        "Ġthree",
        -1.0
      ],
      [
        "ĠPollution",
        -1.0
      ],
      [
        "26",
        -1.0
      ],
      [
        "Ġfunctioning",
        -1.0
      ],
      [
        "Ġoxide",
        -1.0
      ],
      [
        "Ġediting",
        -1.0
      ],
      [
        "ID",
        -1.0
      ],
      [
        "dles",
        -1.0
      ],
      [
        "WE",
        -1.0
      ],
      [
        "ination",
        -1.0
      ],
      [
        "en",
        -1.0
      ],
      [
        "mps",
        -1.0
      ],
      [
        "ĠCl",
        -1.0
      ],
      [
        "backs",
        -1.0
      ],
      [
        "Ġencode",
        -1.0
      ],
      [
        "Ġdefines",
        -1.0
      ],
      [
        "Ġwider",
        -1.0
      ],
      [
        "ĠAfrica",
        -1.0
      ],
      [
        "ĠNE",
        -1.0
      ],
      [
        "tor",
        -1.0
      ],
      [
        "Ġinteresting",
        -1.0
      ],
      [
        "Ġinstability",
        -1.0
      ],
      [
        "Ġconcentrations",
        -1.0
      ],
      [
        "Ġprocessors",
        -1.0
      ],
      [
        "Ġalways",
        -1.0
      ],
      [
        "Ġcenturies",
        -1.0
      ],
      [
        "Ġwars",
        -1.0
      ],
      [
        "Ġthee",
        -1.0
      ],
      [
        "ĠDescription",
        -1.0
      ],
      [
        "Ġweren",
        -1.0
      ],
      [
        "Ġinner",
        -1.0
      ],
      [
        "OS",
        -1.0
      ],
      [
        "ĠAges",
        -1.0
      ],
      [
        "ĠâĢĿ",
        -1.0
      ],
      [
        "oph",
        -1.0
      ],
      [
        "ĠWatch",
        -1.0
      ],
      [
        "tification",
        -1.0
      ],
      [
        "Gra",
        -1.0
      ],
      [
        "ĠAthens",
        -1.0
      ],
      [
        "ĠCo",
        -1.0
      ],
      [
        "NC",
        -1.0
      ],
      [
        "lom",
        -1.0
      ],
      [
        "Ġlevels",
        -1.0
      ],
      [
        "forming",
        -1.0
      ],
      [
        "Ġshowing",
        -1.0
      ],
      [
        "ĠTurkey",
        -1.0
      ],
      [
        "Ġflew",
        -1.0
      ],
      [
        "ST",
        -1.0
      ],
      [
        "Ġwood",
        -1.0
      ],
      [
        "Ġcomputing",
        -1.0
      ],
      [
        "Ġeducators",
        -1.0
      ],
      [
        "tta",
        -1.0
      ],
      [
        "Ġ1907",
        -1.0
      ],
      [
        "Ġdes",
        -1.0
      ],
      [
        "Ġambassador",
        -1.0
      ],
      [
        "Her",
        -1.0
      ],
      [
        "Ġwithdraw",
        -1.0
      ],
      [
        "Ġpartnerships",
        -1.0
      ],
      [
        "Ġherd",
        -1.0
      ],
      [
        "Ġextract",
        -1.0
      ],
      [
        "Ġadjustment",
        -1.0
      ],
      [
        "Ġtraces",
        -1.0
      ],
      [
        "acc",
        -1.0
      ],
      [
        "Ġrises",
        -1.0
      ],
      [
        "Ġsuperficial",
        -1.0
      ],
      [
        "ĠDo",
        -1.0
      ],
      [
        "ĠAdvent",
        -1.0
      ],
      [
        "ĠTher",
        -1.0
      ],
      [
        "Bo",
        -1.0
      ],
      [
        "spect",
        -1.0
      ],
      [
        "ĠBl",
        -1.0
      ],
      [
        "Ġsacrifice",
        -1.0
      ],
      [
        "Ġwant",
        -1.0
      ],
      [
        "Ġconceived",
        -1.0
      ],
      [
        "Ġbecome",
        -1.0
      ],
      [
        "burn",
        -1.0
      ],
      [
        "Ġperhaps",
        -1.0
      ],
      [
        "Ġevolve",
        -1.0
      ],
      [
        "ĠPlace",
        -1.0
      ],
      [
        "Ġleads",
        -1.0
      ],
      [
        "ĠSunday",
        -1.0
      ],
      [
        "Ġsubsequent",
        -1.0
      ],
      [
        "Ġsu",
        -1.0
      ],
      [
        "struction",
        -1.0
      ],
      [
        "Ġ77",
        -1.0
      ],
      [
        "Ġcomputers",
        -1.0
      ],
      [
        "Ġbelow",
        -1.0
      ],
      [
        "Ġissued",
        -1.0
      ],
      [
        "ĠLandsat",
        -1.0
      ],
      [
        "ococcal",
        -1.0
      ],
      [
        "Ġ2002",
        -1.0
      ],
      [
        "Ġrestricted",
        -1.0
      ],
      [
        "Ph",
        -1.0
      ],
      [
        "Ġretired",
        -1.0
      ],
      [
        "Ġcoming",
        -1.0
      ],
      [
        "Ġplum",
        -1.0
      ],
      [
        "Ġdealt",
        -1.0
      ],
      [
        "Ġ1904",
        -1.0
      ],
      [
        "iah",
        -1.0
      ],
      [
        "Ġstand",
        -1.0
      ],
      [
        "ĠGary",
        -1.0
      ],
      [
        "Ġfrustrating",
        -1.0
      ],
      [
        "Ġdetermination",
        -1.0
      ],
      [
        "ĠChristian",
        -1.0
      ],
      [
        "Ġgovernmental",
        -1.0
      ],
      [
        "Ġrapid",
        -1.0
      ],
      [
        "Ġdancing",
        -1.0
      ],
      [
        "Ġsleep",
        -1.0
      ],
      [
        "ĠFlight",
        -1.0
      ],
      [
        "Ġrobotic",
        -1.0
      ],
      [
        "Ġpic",
        -1.0
      ],
      [
        "ĠDakota",
        -1.0
      ],
      [
        "Ġprobability",
        -1.0
      ],
      [
        "Ġloss",
        -1.0
      ],
      [
        "Ġcircum",
        -1.0
      ],
      [
        "Ġ38",
        -1.0
      ],
      [
        "ĠJoint",
        -1.0
      ],
      [
        "gress",
        -1.0
      ],
      [
        "ĠGlobal",
        -1.0
      ],
      [
        "ii",
        -1.0
      ],
      [
        "Ġmainland",
        -1.0
      ],
      [
        "Here",
        -1.0
      ],
      [
        "yo",
        -1.0
      ],
      [
        "ĠLexington",
        -1.0
      ],
      [
        "Ġoffspring",
        -1.0
      ],
      [
        "Ġregistered",
        -1.0
      ],
      [
        "ĠRepublican",
        -1.0
      ],
      [
        "Ġmammo",
        -1.0
      ],
      [
        "ß",
        -1.0
      ],
      [
        "Ġspent",
        -1.0
      ],
      [
        "Ġheartbeat",
        -1.0
      ],
      [
        "ager",
        -1.0
      ],
      [
        "Ġgrab",
        -1.0
      ],
      [
        "cess",
        -1.0
      ],
      [
        "Ġbadly",
        -1.0
      ],
      [
        "Ġrespect",
        -1.0
      ],
      [
        "cyclopaedia",
        -1.0
      ],
      [
        "Ġassumed",
        -1.0
      ],
      [
        "ief",
        -1.0
      ],
      [
        "sources",
        -1.0
      ],
      [
        "Ġconsume",
        -1.0
      ],
      [
        "Ġlearners",
        -1.0
      ],
      [
        "Ġelectoral",
        -1.0
      ],
      [
        "Ġgl",
        -1.0
      ],
      [
        "Ġsimulation",
        -1.0
      ],
      [
        "qui",
        -1.0
      ],
      [
        "Second",
        -1.0
      ],
      [
        "ations",
        -1.0
      ],
      [
        "Ġdecorated",
        -1.0
      ],
      [
        "ĠControl",
        -1.0
      ],
      [
        "Ġaim",
        -1.0
      ],
      [
        "Ġvein",
        -1.0
      ],
      [
        "od",
        -1.0
      ],
      [
        "Ġdifferently",
        -1.0
      ],
      [
        "Ġstreams",
        -1.0
      ],
      [
        "Ġmg",
        -1.0
      ],
      [
        "Ġhat",
        -1.0
      ],
      [
        "Bu",
        -1.0
      ],
      [
        "Ġfavour",
        -1.0
      ],
      [
        "Ġreg",
        -1.0
      ],
      [
        "w",
        -1.0
      ],
      [
        "í",
        -1.0
      ],
      [
        "ĠQua",
        -1.0
      ],
      [
        "edi",
        -1.0
      ],
      [
        "Until",
        -1.0
      ],
      [
        "ĠGraduate",
        -1.0
      ],
      [
        "Ġcertainly",
        -1.0
      ],
      [
        "ĠStalin",
        -1.0
      ],
      [
        "AG",
        -1.0
      ],
      [
        "nie",
        -1.0
      ],
      [
        "Ġsimplicity",
        -1.0
      ],
      [
        "Just",
        -1.0
      ],
      [
        "Ġmitigate",
        -1.0
      ],
      [
        "Ġcounterparts",
        -1.0
      ],
      [
        "mobile",
        -1.0
      ],
      [
        "degree",
        -1.0
      ],
      [
        "Ġbecause",
        -1.0
      ],
      [
        "opathy",
        -1.0
      ],
      [
        "Ġbutterflies",
        -1.0
      ],
      [
        "IM",
        -1.0
      ],
      [
        "inal",
        -1.0
      ],
      [
        "Having",
        -1.0
      ],
      [
        "ĠLiterary",
        -1.0
      ],
      [
        "Ġtackle",
        -1.0
      ],
      [
        "Ġuncon",
        -1.0
      ],
      [
        "Ġpin",
        -1.0
      ],
      [
        "Ġemphasizing",
        -1.0
      ],
      [
        "ĠEnergy",
        -1.0
      ],
      [
        "Ġconf",
        -1.0
      ],
      [
        "Ġbasics",
        -1.0
      ],
      [
        "ĠHonor",
        -1.0
      ],
      [
        "Ġcontinental",
        -1.0
      ],
      [
        "Ġinterview",
        -1.0
      ],
      [
        "ĠInstitutes",
        -1.0
      ],
      [
        "Ġunnecessary",
        -1.0
      ],
      [
        "Ġnightmare",
        -1.0
      ],
      [
        "ĠAmong",
        -1.0
      ],
      [
        "Ġmedicinal",
        -1.0
      ],
      [
        "GI",
        -1.0
      ],
      [
        "ĠHome",
        -1.0
      ],
      [
        "ĠSupreme",
        -1.0
      ],
      [
        "ulsive",
        -1.0
      ],
      [
        "Ġsensitive",
        -1.0
      ],
      [
        "small",
        -1.0
      ],
      [
        "Ġpuberty",
        -1.0
      ],
      [
        "Ġlegally",
        -1.0
      ],
      [
        "Ġceiling",
        -1.0
      ],
      [
        "Ã©s",
        -1.0
      ],
      [
        "ĠShi",
        -1.0
      ],
      [
        "cation",
        -1.0
      ],
      [
        "xo",
        -1.0
      ],
      [
        "Ġreimburse",
        -1.0
      ],
      [
        "ĠMed",
        -1.0
      ],
      [
        "ĠElsevier",
        -1.0
      ],
      [
        "Ġeighth",
        -1.0
      ],
      [
        "ĠLesson",
        -1.0
      ],
      [
        "Ġ''",
        -1.0
      ],
      [
        "Ġdiffering",
        -1.0
      ],
      [
        "Ġtourists",
        -1.0
      ],
      [
        "Ġterms",
        -1.0
      ],
      [
        "Lo",
        -1.0
      ],
      [
        "Ġaudio",
        -1.0
      ],
      [
        "ĠClark",
        -1.0
      ],
      [
        "PS",
        -1.0
      ],
      [
        "Ġacknowledged",
        -1.0
      ],
      [
        "ĠRussia",
        -1.0
      ],
      [
        "Table",
        -1.0
      ],
      [
        "DNA",
        -1.0
      ],
      [
        "ologic",
        -1.0
      ],
      [
        "Ġflank",
        -1.0
      ],
      [
        "Ġsurge",
        -1.0
      ],
      [
        "Ġcervical",
        -1.0
      ],
      [
        "ening",
        -1.0
      ],
      [
        "ĠManhattan",
        -1.0
      ],
      [
        "ĠYouTube",
        -1.0
      ],
      [
        "WA",
        -1.0
      ],
      [
        "books",
        -1.0
      ],
      [
        "Ġactivate",
        -1.0
      ],
      [
        "Ġfriends",
        -1.0
      ],
      [
        "Ġconsultation",
        -1.0
      ],
      [
        "ature",
        -1.0
      ],
      [
        "Ġafraid",
        -1.0
      ],
      [
        "squ",
        -1.0
      ],
      [
        "Ġwise",
        -1.0
      ],
      [
        "tension",
        -1.0
      ],
      [
        "Ġavoided",
        -1.0
      ],
      [
        "Ġpublished",
        -1.0
      ],
      [
        "ĠIll",
        -1.0
      ],
      [
        "bol",
        -1.0
      ],
      [
        "ĠAlliance",
        -1.0
      ],
      [
        "Posted",
        -1.0
      ],
      [
        "yg",
        -1.0
      ],
      [
        "Ġelectrolyte",
        -1.0
      ],
      [
        "rine",
        -1.0
      ],
      [
        "Ġexplained",
        -1.0
      ],
      [
        "ĠGrant",
        -1.0
      ],
      [
        "Ġrecreation",
        -1.0
      ],
      [
        "Ġfavorite",
        -1.0
      ],
      [
        "Ġtwentieth",
        -1.0
      ],
      [
        "Ġdevotion",
        -1.0
      ],
      [
        "ĠMajor",
        -1.0
      ],
      [
        "Ġmail",
        -1.0
      ],
      [
        "ĠPaul",
        -1.0
      ],
      [
        "NA",
        -1.0
      ],
      [
        "Ġenjoyed",
        -1.0
      ],
      [
        "Ð¸",
        -1.0
      ],
      [
        "iga",
        -1.0
      ],
      [
        "Ġtruths",
        -1.0
      ],
      [
        "Ġadjust",
        -1.0
      ],
      [
        "Did",
        -1.0
      ],
      [
        "Ġbroadly",
        -1.0
      ],
      [
        "ĠFranklin",
        -1.0
      ],
      [
        "Ġschema",
        -1.0
      ],
      [
        "ĠProvide",
        -1.0
      ],
      [
        "Ġcrying",
        -1.0
      ],
      [
        "ĠState",
        -1.0
      ],
      [
        "turn",
        -1.0
      ],
      [
        "Ġparticles",
        -1.0
      ],
      [
        "angle",
        -1.0
      ],
      [
        "Ġchance",
        -1.0
      ],
      [
        "Ġforests",
        -1.0
      ],
      [
        "ĠPl",
        -1.0
      ],
      [
        "Ġmonthly",
        -1.0
      ],
      [
        "Ġbehavior",
        -1.0
      ],
      [
        "osis",
        -1.0
      ],
      [
        "ĠFA",
        -1.0
      ],
      [
        "Ġeco",
        -1.0
      ],
      [
        "ot",
        -1.0
      ],
      [
        "ĠConsumer",
        -1.0
      ],
      [
        "Ġprisoner",
        -1.0
      ],
      [
        "ĠAaron",
        -1.0
      ],
      [
        "Ġgalaxies",
        -1.0
      ],
      [
        "ĠCar",
        -1.0
      ],
      [
        "Ġunpredictable",
        -1.0
      ],
      [
        "Ġbreed",
        -1.0
      ],
      [
        "Ġorganize",
        -1.0
      ],
      [
        "ĠPrincip",
        -1.0
      ],
      [
        "ĠAdditionally",
        -1.0
      ],
      [
        "Ġessay",
        -1.0
      ],
      [
        "PM",
        -1.0
      ],
      [
        ").",
        -1.0
      ],
      [
        "Ġhybrid",
        -1.0
      ],
      [
        "Many",
        -1.0
      ],
      [
        "Ġadministrator",
        -1.0
      ],
      [
        "į",
        -1.0
      ],
      [
        "Ġreport",
        -1.0
      ],
      [
        "ĠSites",
        -1.0
      ],
      [
        "James",
        -1.0
      ],
      [
        "Ġjoy",
        -1.0
      ],
      [
        "ĠGIS",
        -1.0
      ],
      [
        "Ġstakeholders",
        -1.0
      ],
      [
        "Ġnumer",
        -1.0
      ],
      [
        "rious",
        -1.0
      ],
      [
        "Ġsmokers",
        -1.0
      ],
      [
        "Ġevenly",
        -1.0
      ],
      [
        "Ġ1933",
        -1.0
      ],
      [
        "Ġmeat",
        -1.0
      ],
      [
        "Ġratios",
        -1.0
      ],
      [
        "Ġnarrow",
        -1.0
      ],
      [
        "Ġpainted",
        -1.0
      ],
      [
        "ĠCC",
        -1.0
      ],
      [
        "Ġsmoke",
        -1.0
      ],
      [
        "90",
        -1.0
      ],
      [
        "Ġdried",
        -1.0
      ],
      [
        "Ġgeneral",
        -1.0
      ],
      [
        "Cs",
        -1.0
      ],
      [
        "ĠElementary",
        -1.0
      ],
      [
        "ung",
        -1.0
      ],
      [
        "ele",
        -1.0
      ],
      [
        "Ġcompression",
        -1.0
      ],
      [
        "ĠSafe",
        -1.0
      ],
      [
        "Ġbike",
        -1.0
      ],
      [
        "part",
        -1.0
      ],
      [
        "LU",
        -1.0
      ],
      [
        "Ġempire",
        -1.0
      ],
      [
        "electric",
        -1.0
      ],
      [
        "nel",
        -1.0
      ],
      [
        "ĠDNA",
        -1.0
      ],
      [
        "Ġcruel",
        -1.0
      ],
      [
        "industrial",
        -1.0
      ],
      [
        "ĠSenate",
        -1.0
      ],
      [
        "ĠTech",
        -1.0
      ],
      [
        "Ġcondens",
        -1.0
      ],
      [
        "Ġamphib",
        -1.0
      ],
      [
        "Ġautonomy",
        -1.0
      ],
      [
        "Ġstream",
        -1.0
      ],
      [
        "an",
        -1.0
      ],
      [
        "ĠCongo",
        -1.0
      ],
      [
        "Ġdiamond",
        -1.0
      ],
      [
        "ĠLab",
        -1.0
      ],
      [
        "Ġwalks",
        -1.0
      ],
      [
        "governmental",
        -1.0
      ],
      [
        "Ġlegend",
        -1.0
      ],
      [
        "Ġtends",
        -1.0
      ],
      [
        "Ġfi",
        -1.0
      ],
      [
        "Ġpad",
        -1.0
      ],
      [
        "Ġmotor",
        -1.0
      ],
      [
        "these",
        -1.0
      ],
      [
        "ĠAnimal",
        -1.0
      ],
      [
        "Ġ1946",
        -1.0
      ],
      [
        "Ġessence",
        -1.0
      ],
      [
        "Ġaccused",
        -1.0
      ],
      [
        "Ġdarker",
        -1.0
      ],
      [
        "Ġthough",
        -1.0
      ],
      [
        "ad",
        -1.0
      ],
      [
        ")||",
        -1.0
      ],
      [
        "Ġlighter",
        -1.0
      ],
      [
        "ĠBudget",
        -1.0
      ],
      [
        "Ġcyanide",
        -1.0
      ],
      [
        "flu",
        -1.0
      ],
      [
        "Ġstimulating",
        -1.0
      ],
      [
        "ĠWednesday",
        -1.0
      ],
      [
        "dicated",
        -1.0
      ],
      [
        "Ġchickens",
        -1.0
      ],
      [
        "HE",
        -1.0
      ],
      [
        "ĠOr",
        -1.0
      ],
      [
        "Ġreservation",
        -1.0
      ],
      [
        "Ġimpe",
        -1.0
      ],
      [
        "Ġattack",
        -1.0
      ],
      [
        "vers",
        -1.0
      ],
      [
        "Ġk",
        -1.0
      ],
      [
        "ĠPolicy",
        -1.0
      ],
      [
        "Ġgenome",
        -1.0
      ],
      [
        "Ġcumulative",
        -1.0
      ],
      [
        "Ġvin",
        -1.0
      ],
      [
        "Ķ",
        -1.0
      ],
      [
        "ĠCompetition",
        -1.0
      ],
      [
        "Ġlongest",
        -1.0
      ],
      [
        "Ġgallery",
        -1.0
      ],
      [
        "Ġweeks",
        -1.0
      ],
      [
        "ĠSan",
        -1.0
      ],
      [
        "ĠForces",
        -1.0
      ],
      [
        "profit",
        -1.0
      ],
      [
        "ĠMy",
        -1.0
      ],
      [
        "ĠDictionary",
        -1.0
      ],
      [
        "wan",
        -1.0
      ],
      [
        "ĠBuddha",
        -1.0
      ],
      [
        "Ġcaps",
        -1.0
      ],
      [
        "Ġdisregard",
        -1.0
      ],
      [
        "Ġcom",
        -1.0
      ],
      [
        "iser",
        -1.0
      ],
      [
        "sta",
        -1.0
      ],
      [
        "Ġcontiguous",
        -1.0
      ],
      [
        "Ġnationalism",
        -1.0
      ],
      [
        "Ġfrequency",
        -1.0
      ],
      [
        "Ġfright",
        -1.0
      ],
      [
        "ĠYour",
        -1.0
      ],
      [
        "ĠGlacier",
        -1.0
      ],
      [
        "At",
        -1.0
      ],
      [
        "Ġcatalyst",
        -1.0
      ],
      [
        "ĠDiscuss",
        -1.0
      ],
      [
        "Ġexposed",
        -1.0
      ],
      [
        "ows",
        -1.0
      ],
      [
        "Ġ1934",
        -1.0
      ],
      [
        "Ġarm",
        -1.0
      ],
      [
        "Ġfighting",
        -1.0
      ],
      [
        "Ġfocuses",
        -1.0
      ],
      [
        "40",
        -1.0
      ],
      [
        "ĠJoe",
        -1.0
      ],
      [
        "Ġlived",
        -1.0
      ],
      [
        "ĠSoc",
        -1.0
      ],
      [
        "Ġav",
        -1.0
      ],
      [
        "Ġcommenced",
        -1.0
      ],
      [
        "Ġfraction",
        -1.0
      ],
      [
        "Ġdelicate",
        -1.0
      ],
      [
        "mple",
        -1.0
      ],
      [
        "ĠPsych",
        -1.0
      ],
      [
        "cca",
        -1.0
      ],
      [
        "Ġirritation",
        -1.0
      ],
      [
        "Ġobjects",
        -1.0
      ],
      [
        "ĠNutrition",
        -1.0
      ],
      [
        "NSAIDs",
        -1.0
      ],
      [
        "mi",
        -1.0
      ],
      [
        "Ġvariety",
        -1.0
      ],
      [
        "Ġarmies",
        -1.0
      ],
      [
        "ĠHamilton",
        -1.0
      ],
      [
        "ĠRobinson",
        -1.0
      ],
      [
        "ĠPara",
        -1.0
      ],
      [
        "derived",
        -1.0
      ],
      [
        "org",
        -1.0
      ],
      [
        "ce",
        -1.0
      ],
      [
        "tagon",
        -1.0
      ],
      [
        "Ġ1978",
        -1.0
      ],
      [
        "Ġarrives",
        -1.0
      ],
      [
        "United",
        -1.0
      ],
      [
        "Je",
        -1.0
      ],
      [
        "Ġpicture",
        -1.0
      ],
      [
        "ĠGiven",
        -1.0
      ],
      [
        "Ġimpossible",
        -1.0
      ],
      [
        "Ġpeanut",
        -1.0
      ],
      [
        "ĠTheir",
        -1.0
      ],
      [
        "ĠTB",
        -1.0
      ],
      [
        "meters",
        -1.0
      ],
      [
        "Ġaid",
        -1.0
      ],
      [
        "ids",
        -1.0
      ],
      [
        "view",
        -1.0
      ],
      [
        "ĠEnter",
        -1.0
      ],
      [
        "Ġflies",
        -1.0
      ],
      [
        "mouth",
        -1.0
      ],
      [
        "Ġgrandfather",
        -1.0
      ],
      [
        "ĠAustrian",
        -1.0
      ],
      [
        "Ġdetermine",
        -1.0
      ],
      [
        "Ġsh",
        -1.0
      ],
      [
        "uv",
        -1.0
      ],
      [
        "ĠJo",
        -1.0
      ],
      [
        "Ġradi",
        -1.0
      ],
      [
        "ĠScotland",
        -1.0
      ],
      [
        "ĠMadagascar",
        -1.0
      ],
      [
        "Ġdivided",
        -1.0
      ],
      [
        "ĠPH",
        -1.0
      ],
      [
        "Ġtechnological",
        -1.0
      ],
      [
        "Ġrecombin",
        -1.0
      ],
      [
        "Ġmom",
        -1.0
      ],
      [
        "treatment",
        -1.0
      ],
      [
        "ta",
        -1.0
      ],
      [
        "Ġantigen",
        -1.0
      ],
      [
        "Ġclients",
        -1.0
      ],
      [
        "sk",
        -1.0
      ],
      [
        "male",
        -1.0
      ],
      [
        "Ġ49",
        -1.0
      ],
      [
        "ĠSeven",
        -1.0
      ],
      [
        "Ġcitizens",
        -1.0
      ],
      [
        "Ġextremely",
        -1.0
      ],
      [
        "Ġworthy",
        -1.0
      ],
      [
        "Ġnucleotide",
        -1.0
      ],
      [
        "Ġstored",
        -1.0
      ],
      [
        "Ġrural",
        -1.0
      ],
      [
        "Ġinability",
        -1.0
      ],
      [
        "Ġutil",
        -1.0
      ],
      [
        "ĠOccup",
        -1.0
      ],
      [
        "Ġstock",
        -1.0
      ],
      [
        "Ġcarcino",
        -1.0
      ],
      [
        "Ġdrought",
        -1.0
      ],
      [
        "Ġseizure",
        -1.0
      ],
      [
        "easurable",
        -1.0
      ],
      [
        "ĠBrazilian",
        -1.0
      ],
      [
        "ĠDry",
        -1.0
      ],
      [
        "lis",
        -1.0
      ],
      [
        "Ġscientifically",
        -1.0
      ],
      [
        "Ġdress",
        -1.0
      ],
      [
        "iable",
        -1.0
      ],
      [
        "Ġinorganic",
        -1.0
      ],
      [
        "Ġremarkably",
        -1.0
      ],
      [
        "ĠScott",
        -1.0
      ],
      [
        "Ġconstruct",
        -1.0
      ],
      [
        "ĠGu",
        -1.0
      ],
      [
        "dged",
        -1.0
      ],
      [
        "Ġnotes",
        -1.0
      ],
      [
        "cretion",
        -1.0
      ],
      [
        "herapeutic",
        -1.0
      ],
      [
        "ĠCatholic",
        -1.0
      ],
      [
        "ĠLord",
        -1.0
      ],
      [
        "Ġankle",
        -1.0
      ],
      [
        "el",
        -1.0
      ],
      [
        "150",
        -1.0
      ],
      [
        "Ġgame",
        -1.0
      ],
      [
        "ĠGene",
        -1.0
      ],
      [
        "ĠRel",
        -1.0
      ],
      [
        "oes",
        -1.0
      ],
      [
        "Ġprohibited",
        -1.0
      ],
      [
        "ô",
        -1.0
      ],
      [
        "Ġassisted",
        -1.0
      ],
      [
        "Ġaro",
        -1.0
      ],
      [
        "ĠExperience",
        -1.0
      ],
      [
        "State",
        -1.0
      ],
      [
        "Ġcooperate",
        -1.0
      ],
      [
        "ĠCB",
        -1.0
      ],
      [
        "Ġrub",
        -1.0
      ],
      [
        "Ġrailroad",
        -1.0
      ],
      [
        "Ġobserve",
        -1.0
      ],
      [
        "Ġacceleration",
        -1.0
      ],
      [
        "Ġmulti",
        -1.0
      ],
      [
        "Ġcomponents",
        -1.0
      ],
      [
        "Ùİ",
        -1.0
      ],
      [
        "ĠNevada",
        -1.0
      ],
      [
        "Ú",
        -1.0
      ],
      [
        "Ġnectar",
        -1.0
      ],
      [
        "Ġprecautions",
        -1.0
      ],
      [
        "ĠClay",
        -1.0
      ],
      [
        "SU",
        -1.0
      ],
      [
        "ĠNovember",
        -1.0
      ],
      [
        "ĠOl",
        -1.0
      ],
      [
        "jan",
        -1.0
      ],
      [
        "Ġhonour",
        -1.0
      ],
      [
        "Ġfaces",
        -1.0
      ],
      [
        "file",
        -1.0
      ],
      [
        "Ġton",
        -1.0
      ],
      [
        "Ra",
        -1.0
      ],
      [
        "Ġ115",
        -1.0
      ],
      [
        "Ġpolitical",
        -1.0
      ],
      [
        "Ġrecall",
        -1.0
      ],
      [
        "Ġachieving",
        -1.0
      ],
      [
        "ĠFukushima",
        -1.0
      ],
      [
        "Ġelectric",
        -1.0
      ],
      [
        "Ġaction",
        -1.0
      ],
      [
        "Ġboom",
        -1.0
      ],
      [
        "Ġ&",
        -1.0
      ],
      [
        "ĠYOU",
        -1.0
      ],
      [
        "ĠGib",
        -1.0
      ],
      [
        "iate",
        -1.0
      ],
      [
        "Ġposts",
        -1.0
      ],
      [
        "Ġawait",
        -1.0
      ],
      [
        "nd",
        -1.0
      ],
      [
        "Ġdecay",
        -1.0
      ],
      [
        "Ġ1945",
        -1.0
      ],
      [
        "ĠNow",
        -1.0
      ],
      [
        "<",
        -1.0
      ],
      [
        "Ġemerging",
        -1.0
      ],
      [
        "Ġglass",
        -1.0
      ],
      [
        "Ġnewborn",
        -1.0
      ],
      [
        "ĠKa",
        -1.0
      ],
      [
        "Ġlact",
        -1.0
      ],
      [
        "ĠPerformance",
        -1.0
      ],
      [
        "Ġoutbreaks",
        -1.0
      ],
      [
        "Ġexceptions",
        -1.0
      ],
      [
        "hem",
        -1.0
      ],
      [
        "Ġtransparency",
        -1.0
      ],
      [
        "looking",
        -1.0
      ],
      [
        "Ġcardiovascular",
        -1.0
      ],
      [
        "aryng",
        -1.0
      ],
      [
        "ĠBabylon",
        -1.0
      ],
      [
        "aw",
        -1.0
      ],
      [
        "34",
        -1.0
      ],
      [
        "organ",
        -1.0
      ],
      [
        "Ġwashed",
        -1.0
      ],
      [
        "Ġathlete",
        -1.0
      ],
      [
        "Ġbreathing",
        -1.0
      ],
      [
        "Ġexist",
        -1.0
      ],
      [
        "ĠText",
        -1.0
      ],
      [
        "ĠRussian",
        -1.0
      ],
      [
        "ule",
        -1.0
      ],
      [
        "Ġblind",
        -1.0
      ],
      [
        "Ġdocumentation",
        -1.0
      ],
      [
        "ckle",
        -1.0
      ],
      [
        "for",
        -1.0
      ],
      [
        "Ġreceives",
        -1.0
      ],
      [
        "Ġmeal",
        -1.0
      ],
      [
        "ĠInterest",
        -1.0
      ],
      [
        "Ġsalmon",
        -1.0
      ],
      [
        "Ġrighteous",
        -1.0
      ],
      [
        "Ġvisual",
        -1.0
      ],
      [
        "ES",
        -1.0
      ],
      [
        "parent",
        -1.0
      ],
      [
        "Ġattending",
        -1.0
      ],
      [
        "Main",
        -1.0
      ],
      [
        "Ġinhabited",
        -1.0
      ],
      [
        "Ġassault",
        -1.0
      ],
      [
        "ĠWorld",
        -1.0
      ],
      [
        "Ġritual",
        -1.0
      ],
      [
        "Ġerected",
        -1.0
      ],
      [
        "Ġfracturing",
        -1.0
      ],
      [
        "ivities",
        -1.0
      ],
      [
        "Ġwounds",
        -1.0
      ],
      [
        "Po",
        -1.0
      ],
      [
        "cket",
        -1.0
      ],
      [
        "Ġvegetables",
        -1.0
      ],
      [
        "Ġaccountability",
        -1.0
      ],
      [
        "Ġtreatment",
        -1.0
      ],
      [
        "due",
        -1.0
      ],
      [
        "ĠMeta",
        -1.0
      ],
      [
        "Ġessential",
        -1.0
      ],
      [
        "Tuberculosis",
        -1.0
      ],
      [
        "Ġkid",
        -1.0
      ],
      [
        "ĠUrban",
        -1.0
      ],
      [
        "Ð½",
        -1.0
      ],
      [
        "Ġmerely",
        -1.0
      ],
      [
        "Ġoccasionally",
        -1.0
      ],
      [
        "Ġconsistently",
        -1.0
      ],
      [
        "Ġassociated",
        -1.0
      ],
      [
        "Ġproof",
        -1.0
      ],
      [
        "Ġsome",
        -1.0
      ],
      [
        "but",
        -1.0
      ],
      [
        "Ġboats",
        -1.0
      ],
      [
        "ĠTI",
        -1.0
      ],
      [
        "Ġkingdom",
        -1.0
      ],
      [
        "Ġpeptide",
        -1.0
      ],
      [
        "ĠOne",
        -1.0
      ],
      [
        "Ġleisure",
        -1.0
      ],
      [
        "Ġsupporting",
        -1.0
      ],
      [
        "Ġlieutenant",
        -1.0
      ],
      [
        "ĠStandard",
        -1.0
      ],
      [
        "Ġmild",
        -1.0
      ],
      [
        "ological",
        -1.0
      ],
      [
        "Ġconversion",
        -1.0
      ],
      [
        "FO",
        -1.0
      ],
      [
        "pi",
        -1.0
      ],
      [
        "fi",
        -1.0
      ],
      [
        "Ġ14",
        -1.0
      ],
      [
        "Ġtechniques",
        -1.0
      ],
      [
        "Ġartists",
        -1.0
      ],
      [
        "Ġcanyon",
        -1.0
      ],
      [
        "Ġthrowing",
        -1.0
      ],
      [
        "ĠTraffic",
        -1.0
      ],
      [
        "Ġarrived",
        -1.0
      ],
      [
        "ĠWheel",
        -1.0
      ],
      [
        "stitution",
        -1.0
      ],
      [
        "Ġweakness",
        -1.0
      ],
      [
        "cken",
        -1.0
      ],
      [
        "Ġeach",
        -1.0
      ],
      [
        "ants",
        -1.0
      ],
      [
        "Ġbrutal",
        -1.0
      ],
      [
        "Ġammunition",
        -1.0
      ],
      [
        "ĠEli",
        -1.0
      ],
      [
        "Ġcre",
        -1.0
      ],
      [
        "ĠAugustine",
        -1.0
      ],
      [
        "Â®",
        -1.0
      ],
      [
        "hl",
        -1.0
      ],
      [
        "Medical",
        -1.0
      ],
      [
        "Ġneural",
        -1.0
      ],
      [
        "au",
        -1.0
      ],
      [
        "Ġcomes",
        -1.0
      ],
      [
        "ĠPsychiatry",
        -1.0
      ],
      [
        "wed",
        -1.0
      ],
      [
        "Ġpersonally",
        -1.0
      ],
      [
        "Ġcollapsed",
        -1.0
      ],
      [
        "Ġvisitors",
        -1.0
      ],
      [
        "PI",
        -1.0
      ],
      [
        "Se",
        -1.0
      ],
      [
        "Ġtoo",
        -1.0
      ],
      [
        "ĠSanctuary",
        -1.0
      ],
      [
        "ĠMesoamerica",
        -1.0
      ],
      [
        "Ġc",
        -1.0
      ],
      [
        "Ġcountry",
        -1.0
      ],
      [
        "Ġsemi",
        -1.0
      ],
      [
        "Ġspokes",
        -1.0
      ],
      [
        "Ġvent",
        -1.0
      ],
      [
        "Ġdominant",
        -1.0
      ],
      [
        "ĠCancer",
        -1.0
      ],
      [
        "Ġparticipated",
        -1.0
      ],
      [
        "Ġoverseas",
        -1.0
      ],
      [
        "Ġfibr",
        -1.0
      ],
      [
        "ĠUganda",
        -1.0
      ],
      [
        "Ġwestern",
        -1.0
      ],
      [
        "Ġmines",
        -1.0
      ],
      [
        "Ġcirc",
        -1.0
      ],
      [
        "Ġdispa",
        -1.0
      ],
      [
        "Ġspring",
        -1.0
      ],
      [
        "Ġdevastating",
        -1.0
      ],
      [
        "Ġkinds",
        -1.0
      ],
      [
        "Ġislands",
        -1.0
      ],
      [
        "dia",
        -1.0
      ],
      [
        "ĠDai",
        -1.0
      ],
      [
        "Ġpreparation",
        -1.0
      ],
      [
        "13",
        -1.0
      ],
      [
        "Ġwhich",
        -1.0
      ],
      [
        "Ġdecisive",
        -1.0
      ],
      [
        "ĠJordan",
        -1.0
      ],
      [
        "connected",
        -1.0
      ],
      [
        "ĠSW",
        -1.0
      ],
      [
        "Ġbiodegradable",
        -1.0
      ],
      [
        "Ġafford",
        -1.0
      ],
      [
        "Ġignorance",
        -1.0
      ],
      [
        "Ġspoken",
        -1.0
      ],
      [
        "Ġvar",
        -1.0
      ],
      [
        "obe",
        -1.0
      ],
      [
        "Ġbiomass",
        -1.0
      ],
      [
        "ĠDewey",
        -1.0
      ],
      [
        "Ġsustainability",
        -1.0
      ],
      [
        "www",
        -1.0
      ],
      [
        "eg",
        -1.0
      ],
      [
        "Ġincomplete",
        -1.0
      ],
      [
        "ĠOrder",
        -1.0
      ],
      [
        "Ġgraphics",
        -1.0
      ],
      [
        "Ġrespiratory",
        -1.0
      ],
      [
        "Ġpalm",
        -1.0
      ],
      [
        "ĠAfrican",
        -1.0
      ],
      [
        "Ġadjacent",
        -1.0
      ],
      [
        "Ġgut",
        -1.0
      ],
      [
        "Ġexcellence",
        -1.0
      ],
      [
        "Ġstatistics",
        -1.0
      ],
      [
        "Ġsurveyed",
        -1.0
      ],
      [
        "Ġscholars",
        -1.0
      ],
      [
        "Ġamino",
        -1.0
      ],
      [
        "Ġworth",
        -1.0
      ],
      [
        "Ġbiodiversity",
        -1.0
      ],
      [
        "ĠHaiti",
        -1.0
      ],
      [
        "Ġcapturing",
        -1.0
      ],
      [
        "ĠVol",
        -1.0
      ],
      [
        "Ġtrigger",
        -1.0
      ],
      [
        "Ġirregular",
        -1.0
      ],
      [
        "Ġlimitations",
        -1.0
      ],
      [
        "being",
        -1.0
      ],
      [
        "Ġenzyme",
        -1.0
      ],
      [
        "Ġbet",
        -1.0
      ],
      [
        "Ġincidence",
        -1.0
      ],
      [
        "utes",
        -1.0
      ],
      [
        "mation",
        -1.0
      ],
      [
        "Ġrover",
        -1.0
      ],
      [
        "Ġ26",
        -1.0
      ],
      [
        "Ab",
        -1.0
      ],
      [
        "cession",
        -1.0
      ],
      [
        "Ġviolations",
        -1.0
      ],
      [
        "Ġestimates",
        -1.0
      ],
      [
        "Ġsought",
        -1.0
      ],
      [
        "Ġspontaneous",
        -1.0
      ],
      [
        "Ġconsumers",
        -1.0
      ],
      [
        "\"",
        -1.0
      ],
      [
        "PubMed",
        -1.0
      ],
      [
        "Ġmoments",
        -1.0
      ],
      [
        "Ġchest",
        -1.0
      ],
      [
        "Ġdiscussions",
        -1.0
      ],
      [
        "ĠUpon",
        -1.0
      ],
      [
        "dicate",
        -1.0
      ],
      [
        "Ġexclusion",
        -1.0
      ],
      [
        "Ġcylindrical",
        -1.0
      ],
      [
        "ĠNebraska",
        -1.0
      ],
      [
        "Ġaltar",
        -1.0
      ],
      [
        "Ġtherapies",
        -1.0
      ],
      [
        "Ġinvalid",
        -1.0
      ],
      [
        "Ġmillions",
        -1.0
      ],
      [
        "stock",
        -1.0
      ],
      [
        "Ġpartially",
        -1.0
      ],
      [
        "Tuesday",
        -1.0
      ],
      [
        "Ġincontinence",
        -1.0
      ],
      [
        "Ġmetal",
        -1.0
      ],
      [
        "Ġimplications",
        -1.0
      ],
      [
        "Te",
        -1.0
      ],
      [
        "Ġcalc",
        -1.0
      ],
      [
        "ME",
        -1.0
      ],
      [
        "ĠSoon",
        -1.0
      ],
      [
        "Ġlaugh",
        -1.0
      ],
      [
        "Ġvac",
        -1.0
      ],
      [
        "ĠHence",
        -1.0
      ],
      [
        "Ġwool",
        -1.0
      ],
      [
        "Ġpossession",
        -1.0
      ],
      [
        "Ġshuttle",
        -1.0
      ],
      [
        "ples",
        -1.0
      ],
      [
        "Ġsurvive",
        -1.0
      ],
      [
        "Ġkills",
        -1.0
      ],
      [
        "Ġweek",
        -1.0
      ],
      [
        "Ġreliability",
        -1.0
      ],
      [
        "Ġlongevity",
        -1.0
      ],
      [
        "Ġcloud",
        -1.0
      ],
      [
        "ĠRobin",
        -1.0
      ],
      [
        "ave",
        -1.0
      ],
      [
        "Ġliver",
        -1.0
      ],
      [
        "Ġmysterious",
        -1.0
      ],
      [
        "Ġluxur",
        -1.0
      ],
      [
        "sons",
        -1.0
      ],
      [
        "Ġ1890",
        -1.0
      ],
      [
        "Ġaccident",
        -1.0
      ],
      [
        "pop",
        -1.0
      ],
      [
        "Ġsexually",
        -1.0
      ],
      [
        "Ġfractures",
        -1.0
      ],
      [
        "colored",
        -1.0
      ],
      [
        "Ġnourish",
        -1.0
      ],
      [
        "MC",
        -1.0
      ],
      [
        "ĠChronic",
        -1.0
      ],
      [
        "Ġimp",
        -1.0
      ],
      [
        "Ġ86",
        -1.0
      ],
      [
        "Ru",
        -1.0
      ],
      [
        "Ġshow",
        -1.0
      ],
      [
        "Health",
        -1.0
      ],
      [
        "Ġimplement",
        -1.0
      ],
      [
        "Ġdelivery",
        -1.0
      ],
      [
        "Ġcommercially",
        -1.0
      ],
      [
        "Ġmartyr",
        -1.0
      ],
      [
        "ĠChannel",
        -1.0
      ],
      [
        "Ġcontainers",
        -1.0
      ],
      [
        "East",
        -1.0
      ],
      [
        "Ġfriction",
        -1.0
      ],
      [
        "ĠIS",
        -1.0
      ],
      [
        "ll",
        -1.0
      ],
      [
        "ĠMojave",
        -1.0
      ],
      [
        "ĠMaryland",
        -1.0
      ],
      [
        "Ġexplosion",
        -1.0
      ],
      [
        "Ġagain",
        -1.0
      ],
      [
        "ĠHebrew",
        -1.0
      ],
      [
        "order",
        -1.0
      ],
      [
        "ĠProblems",
        -1.0
      ],
      [
        "Ġsummary",
        -1.0
      ],
      [
        "Ġplay",
        -1.0
      ],
      [
        "cm",
        -1.0
      ],
      [
        "Ġtheories",
        -1.0
      ],
      [
        "Ġhopes",
        -1.0
      ],
      [
        "Ġsanct",
        -1.0
      ],
      [
        "Ġ(",
        -1.0
      ],
      [
        "Ġpackaging",
        -1.0
      ],
      [
        "Ġv",
        -1.0
      ],
      [
        "Ġdanger",
        -1.0
      ],
      [
        "ĠCalif",
        -1.0
      ],
      [
        "Ġ45",
        -1.0
      ],
      [
        "ĠRecreation",
        -1.0
      ],
      [
        "Ġdollars",
        -1.0
      ],
      [
        "Ġinequalities",
        -1.0
      ],
      [
        "Ġanalysis",
        -1.0
      ],
      [
        "ĠSudan",
        -1.0
      ],
      [
        "dding",
        -1.0
      ],
      [
        "pos",
        -1.0
      ],
      [
        "Ġhuman",
        -1.0
      ],
      [
        "ĠUnder",
        -1.0
      ],
      [
        "Ġtilt",
        -1.0
      ],
      [
        "Ġsweep",
        -1.0
      ],
      [
        "ĠPeninsula",
        -1.0
      ],
      [
        "Ġwithdrew",
        -1.0
      ],
      [
        ".||",
        -1.0
      ],
      [
        "Ġbrilliant",
        -1.0
      ],
      [
        "ĠLuc",
        -1.0
      ],
      [
        "Ġ:",
        -1.0
      ],
      [
        "zard",
        -1.0
      ],
      [
        "ĠChild",
        -1.0
      ],
      [
        "ĠLocal",
        -1.0
      ],
      [
        "Ġverses",
        -1.0
      ],
      [
        "She",
        -1.0
      ],
      [
        "ĠFig",
        -1.0
      ],
      [
        "IX",
        -1.0
      ],
      [
        "ĠKent",
        -1.0
      ],
      [
        "ents",
        -1.0
      ],
      [
        "rying",
        -1.0
      ],
      [
        "Ġprofits",
        -1.0
      ],
      [
        "Ġdesirable",
        -1.0
      ],
      [
        "arn",
        -1.0
      ],
      [
        "ĠNan",
        -1.0
      ],
      [
        "ĠPrinciples",
        -1.0
      ],
      [
        "ÃŃs",
        -1.0
      ],
      [
        "Ġreasoning",
        -1.0
      ],
      [
        "han",
        -1.0
      ],
      [
        "Ġsituated",
        -1.0
      ],
      [
        "Ġtoward",
        -1.0
      ],
      [
        "Ġfuels",
        -1.0
      ],
      [
        "Ġcore",
        -1.0
      ],
      [
        "Ġbundle",
        -1.0
      ],
      [
        "rely",
        -1.0
      ],
      [
        "Ġhealth",
        -1.0
      ],
      [
        "Ġt",
        -1.0
      ],
      [
        "Ġexposures",
        -1.0
      ],
      [
        "ĠMachine",
        -1.0
      ],
      [
        "ĠSta",
        -1.0
      ],
      [
        "Ġinstruction",
        -1.0
      ],
      [
        "Ġferment",
        -1.0
      ],
      [
        "Ġadolescent",
        -1.0
      ],
      [
        "Ġindependent",
        -1.0
      ],
      [
        "Ġsensing",
        -1.0
      ],
      [
        "MENT",
        -1.0
      ],
      [
        "Ġcircuits",
        -1.0
      ],
      [
        "Ġpace",
        -1.0
      ],
      [
        "Ġthird",
        -1.0
      ],
      [
        "Ġliquid",
        -1.0
      ],
      [
        "Ġrevol",
        -1.0
      ],
      [
        "ĠLeipzig",
        -1.0
      ],
      [
        "Ġbegin",
        -1.0
      ],
      [
        "ĠAct",
        -1.0
      ],
      [
        "Ġpolice",
        -1.0
      ],
      [
        "Hu",
        -1.0
      ],
      [
        "Ġtelling",
        -1.0
      ],
      [
        "ĠDOE",
        -1.0
      ],
      [
        "practic",
        -1.0
      ],
      [
        "Ġadhere",
        -1.0
      ],
      [
        "Ġdrying",
        -1.0
      ],
      [
        "itor",
        -1.0
      ],
      [
        "Ġchloride",
        -1.0
      ],
      [
        "car",
        -1.0
      ],
      [
        "ĠStory",
        -1.0
      ],
      [
        "Ġinquiry",
        -1.0
      ],
      [
        "Wo",
        -1.0
      ],
      [
        "frame",
        -1.0
      ],
      [
        "ĠCosta",
        -1.0
      ],
      [
        "ĠCaucas",
        -1.0
      ],
      [
        "Can",
        -1.0
      ],
      [
        "Ġinvisible",
        -1.0
      ],
      [
        "ĠCouncil",
        -1.0
      ],
      [
        "izing",
        -1.0
      ],
      [
        "gger",
        -1.0
      ],
      [
        "Ġcooking",
        -1.0
      ],
      [
        "Ġtech",
        -1.0
      ],
      [
        "ĠHighway",
        -1.0
      ],
      [
        "ĠCrown",
        -1.0
      ],
      [
        "Ġarthritis",
        -1.0
      ],
      [
        "Ġblocks",
        -1.0
      ],
      [
        "Ġgather",
        -1.0
      ],
      [
        "ĠChr",
        -1.0
      ],
      [
        "para",
        -1.0
      ],
      [
        "Ġ1864",
        -1.0
      ],
      [
        "Ġexploring",
        -1.0
      ],
      [
        "ĠSim",
        -1.0
      ],
      [
        "metric",
        -1.0
      ],
      [
        "acon",
        -1.0
      ],
      [
        "Ġcomp",
        -1.0
      ],
      [
        "ĠISBN",
        -1.0
      ],
      [
        "Ġfault",
        -1.0
      ],
      [
        "ĠRadiation",
        -1.0
      ],
      [
        "yl",
        -1.0
      ],
      [
        "ĠTwain",
        -1.0
      ],
      [
        "Ġwatershed",
        -1.0
      ],
      [
        "Ġentitled",
        -1.0
      ],
      [
        "DA",
        -1.0
      ],
      [
        "Ġparticipation",
        -1.0
      ],
      [
        "mos",
        -1.0
      ],
      [
        "Ġexcessive",
        -1.0
      ],
      [
        "ĠPolicies",
        -1.0
      ],
      [
        "ots",
        -1.0
      ],
      [
        "carbon",
        -1.0
      ],
      [
        "Ġtracking",
        -1.0
      ],
      [
        "Ġprotecting",
        -1.0
      ],
      [
        "ĠTestament",
        -1.0
      ],
      [
        "Ġdefects",
        -1.0
      ],
      [
        "Ġstate",
        -1.0
      ],
      [
        "ily",
        -1.0
      ],
      [
        "content",
        -1.0
      ],
      [
        "sley",
        -1.0
      ],
      [
        "iology",
        -1.0
      ],
      [
        "Ġtitled",
        -1.0
      ],
      [
        "Ġjustified",
        -1.0
      ],
      [
        "Ġchemicals",
        -1.0
      ],
      [
        "Ġspiritual",
        -1.0
      ],
      [
        "Ġexplores",
        -1.0
      ],
      [
        "Ġestablishing",
        -1.0
      ],
      [
        "ĠBCE",
        -1.0
      ],
      [
        "Ġnovel",
        -1.0
      ],
      [
        "Ġpharmaceutical",
        -1.0
      ],
      [
        "Ġscope",
        -1.0
      ],
      [
        "á¹ĩa",
        -1.0
      ],
      [
        "ĠPur",
        -1.0
      ],
      [
        "Ġpropaganda",
        -1.0
      ],
      [
        "Ġcart",
        -1.0
      ],
      [
        "ope",
        -1.0
      ],
      [
        "lam",
        -1.0
      ],
      [
        "Our",
        -1.0
      ],
      [
        "Ġvelocity",
        -1.0
      ],
      [
        "Ġmuseum",
        -1.0
      ],
      [
        "ĠDead",
        -1.0
      ],
      [
        "TA",
        -1.0
      ],
      [
        "Z",
        -1.0
      ],
      [
        "Ġfacts",
        -1.0
      ],
      [
        "Welcome",
        -1.0
      ],
      [
        "Ġdi",
        -1.0
      ],
      [
        "ggest",
        -1.0
      ],
      [
        "Ġid",
        -1.0
      ],
      [
        "thro",
        -1.0
      ],
      [
        "Ġgenes",
        -1.0
      ],
      [
        "Unlike",
        -1.0
      ],
      [
        "ler",
        -1.0
      ],
      [
        "Ġe",
        -1.0
      ],
      [
        "cultural",
        -1.0
      ],
      [
        "ĠJews",
        -1.0
      ],
      [
        "Ġfinger",
        -1.0
      ],
      [
        "Ġeditorial",
        -1.0
      ],
      [
        "Ġmaybe",
        -1.0
      ],
      [
        "Ġho",
        -1.0
      ],
      [
        "Figure",
        -1.0
      ],
      [
        "ĠWhile",
        -1.0
      ],
      [
        "Ġdivide",
        -1.0
      ],
      [
        "ĠErnest",
        -1.0
      ],
      [
        "Ġtransgender",
        -1.0
      ],
      [
        "Ġfallen",
        -1.0
      ],
      [
        "ech",
        -1.0
      ],
      [
        "Ġresponses",
        -1.0
      ],
      [
        "Ġ80",
        -1.0
      ],
      [
        "Ġpsycho",
        -1.0
      ],
      [
        "Ġoutreach",
        -1.0
      ],
      [
        "Ġconstipation",
        -1.0
      ],
      [
        "ĠTurn",
        -1.0
      ],
      [
        "owned",
        -1.0
      ],
      [
        "ł",
        -1.0
      ],
      [
        "Ġheadquarters",
        -1.0
      ],
      [
        "Ġse",
        -1.0
      ],
      [
        "Ġeff",
        -1.0
      ],
      [
        "Ġexperimental",
        -1.0
      ],
      [
        "Ġacute",
        -1.0
      ],
      [
        "ĠWeb",
        -1.0
      ],
      [
        "Ġtool",
        -1.0
      ],
      [
        "Ġbill",
        -1.0
      ],
      [
        "Ġpoison",
        -1.0
      ],
      [
        "Ġsister",
        -1.0
      ],
      [
        "ĠCorinthians",
        -1.0
      ],
      [
        "Ġgrade",
        -1.0
      ],
      [
        "ĠMcC",
        -1.0
      ],
      [
        "Question",
        -1.0
      ],
      [
        "Over",
        -1.0
      ],
      [
        "sters",
        -1.0
      ],
      [
        "Within",
        -1.0
      ],
      [
        "Ġbulbs",
        -1.0
      ],
      [
        "ounce",
        -1.0
      ],
      [
        "Ġtorture",
        -1.0
      ],
      [
        "Ġattendance",
        -1.0
      ],
      [
        "Ġexception",
        -1.0
      ],
      [
        "ĠIsraeli",
        -1.0
      ],
      [
        "ĠDivision",
        -1.0
      ],
      [
        "Ġretina",
        -1.0
      ],
      [
        "Ġdys",
        -1.0
      ],
      [
        "Ġsubjects",
        -1.0
      ],
      [
        "Jan",
        -1.0
      ],
      [
        "Ġcorporation",
        -1.0
      ],
      [
        "Ġsugars",
        -1.0
      ],
      [
        "Ġseized",
        -1.0
      ],
      [
        "Ġglu",
        -1.0
      ],
      [
        "Ġthou",
        -1.0
      ],
      [
        "ulated",
        -1.0
      ],
      [
        "Ë",
        -1.0
      ],
      [
        "Ġphilosophers",
        -1.0
      ],
      [
        "Ġsupplies",
        -1.0
      ],
      [
        "Ġecological",
        -1.0
      ],
      [
        "Ġdoubled",
        -1.0
      ],
      [
        "ĠChinese",
        -1.0
      ],
      [
        "ĠBR",
        -1.0
      ],
      [
        "biotic",
        -1.0
      ],
      [
        "Ġheating",
        -1.0
      ],
      [
        "ĠSteve",
        -1.0
      ],
      [
        "Ġterrorist",
        -1.0
      ],
      [
        "Ġdinosaur",
        -1.0
      ],
      [
        "Ġknock",
        -1.0
      ],
      [
        "wl",
        -1.0
      ],
      [
        "Ġforth",
        -1.0
      ],
      [
        "ĠCarol",
        -1.0
      ],
      [
        "SA",
        -1.0
      ],
      [
        "ĠPan",
        -1.0
      ],
      [
        "Ġshort",
        -1.0
      ],
      [
        "Ġriding",
        -1.0
      ],
      [
        "Ġheard",
        -1.0
      ],
      [
        "Ġeffectiveness",
        -1.0
      ],
      [
        "Ġannually",
        -1.0
      ],
      [
        "ĠToronto",
        -1.0
      ],
      [
        "Ġgrey",
        -1.0
      ],
      [
        "ĠLabor",
        -1.0
      ],
      [
        "ue",
        -1.0
      ],
      [
        "ddy",
        -1.0
      ],
      [
        "ĠWhat",
        -1.0
      ],
      [
        "Ġ1916",
        -1.0
      ],
      [
        "nings",
        -1.0
      ],
      [
        "Ġassociation",
        -1.0
      ],
      [
        "ĠExecutive",
        -1.0
      ],
      [
        "Ġprojectile",
        -1.0
      ],
      [
        "morphic",
        -1.0
      ],
      [
        "ĠInfect",
        -1.0
      ],
      [
        "Ġmilitia",
        -1.0
      ],
      [
        "ĠGal",
        -1.0
      ],
      [
        "Ġstack",
        -1.0
      ],
      [
        "Ġcoordination",
        -1.0
      ],
      [
        "Ġtowers",
        -1.0
      ],
      [
        "Ġgrass",
        -1.0
      ],
      [
        "got",
        -1.0
      ],
      [
        "das",
        -1.0
      ],
      [
        "ĠSummer",
        -1.0
      ],
      [
        "ĠCos",
        -1.0
      ],
      [
        "Ġexcellent",
        -1.0
      ],
      [
        "nch",
        -1.0
      ],
      [
        "Ġplasma",
        -1.0
      ],
      [
        "Ġdeath",
        -1.0
      ],
      [
        "ĠIdent",
        -1.0
      ],
      [
        "driven",
        -1.0
      ],
      [
        "Ġstimuli",
        -1.0
      ],
      [
        "Ġcluster",
        -1.0
      ],
      [
        "tech",
        -1.0
      ],
      [
        "Ġfederal",
        -1.0
      ],
      [
        "Ġlava",
        -1.0
      ],
      [
        "Ġextent",
        -1.0
      ],
      [
        "ging",
        -1.0
      ],
      [
        "Ġfer",
        -1.0
      ],
      [
        "ĠInvestig",
        -1.0
      ],
      [
        "Ġstating",
        -1.0
      ],
      [
        "Ġmarch",
        -1.0
      ],
      [
        "ĠEffects",
        -1.0
      ],
      [
        "vision",
        -1.0
      ],
      [
        "Ġsupervis",
        -1.0
      ],
      [
        "Ò",
        -1.0
      ],
      [
        "gon",
        -1.0
      ],
      [
        "Ġinterference",
        -1.0
      ],
      [
        "Ġmigrate",
        -1.0
      ],
      [
        "ir",
        -1.0
      ],
      [
        "Ġalgorithms",
        -1.0
      ],
      [
        "Ġblossom",
        -1.0
      ],
      [
        "Bl",
        -1.0
      ],
      [
        "Ġprinted",
        -1.0
      ],
      [
        "ĠPhoto",
        -1.0
      ],
      [
        "Ġreserves",
        -1.0
      ],
      [
        "ĠAntarctic",
        -1.0
      ],
      [
        "opard",
        -1.0
      ],
      [
        "ĠSave",
        -1.0
      ],
      [
        "ĠTemple",
        -1.0
      ],
      [
        "ind",
        -1.0
      ],
      [
        "Ġteen",
        -1.0
      ],
      [
        "tile",
        -1.0
      ],
      [
        "Ġpopul",
        -1.0
      ],
      [
        "Ġpassive",
        -1.0
      ],
      [
        "tts",
        -1.0
      ],
      [
        "ĠSac",
        -1.0
      ],
      [
        "Ġmagnetic",
        -1.0
      ],
      [
        "logists",
        -1.0
      ],
      [
        "Ġwashing",
        -1.0
      ],
      [
        "Ġirrigation",
        -1.0
      ],
      [
        "ĠWill",
        -1.0
      ],
      [
        "Ġhallucin",
        -1.0
      ],
      [
        "Ġcod",
        -1.0
      ],
      [
        "ĠSpecies",
        -1.0
      ],
      [
        "Ġoperation",
        -1.0
      ],
      [
        "Ġdehydration",
        -1.0
      ],
      [
        "ĠOrthodox",
        -1.0
      ],
      [
        "Ġlonger",
        -1.0
      ],
      [
        "formation",
        -1.0
      ],
      [
        "Ġtomato",
        -1.0
      ],
      [
        "Ġaffected",
        -1.0
      ],
      [
        "scape",
        -1.0
      ],
      [
        "ĠVisit",
        -1.0
      ],
      [
        "Ġmicrobial",
        -1.0
      ],
      [
        "ĠJewish",
        -1.0
      ],
      [
        "Ġtwo",
        -1.0
      ],
      [
        "ĠÂ",
        -1.0
      ],
      [
        "Ġranges",
        -1.0
      ],
      [
        "Ġremove",
        -1.0
      ],
      [
        "Ġsounds",
        -1.0
      ],
      [
        "¾",
        -1.0
      ],
      [
        "Ġ1903",
        -1.0
      ],
      [
        "ies",
        -1.0
      ],
      [
        "Ġtower",
        -1.0
      ],
      [
        "Ġgraphic",
        -1.0
      ],
      [
        "Ġjump",
        -1.0
      ],
      [
        "Ġadded",
        -1.0
      ],
      [
        "Ġadolescence",
        -1.0
      ],
      [
        "Ġdatabase",
        -1.0
      ],
      [
        "Ġcollections",
        -1.0
      ],
      [
        "Ġeastern",
        -1.0
      ],
      [
        "Ġhistorically",
        -1.0
      ],
      [
        "Ġintact",
        -1.0
      ],
      [
        "Ġglad",
        -1.0
      ],
      [
        "SR",
        -1.0
      ],
      [
        "Ġgi",
        -1.0
      ],
      [
        "Ġcivilization",
        -1.0
      ],
      [
        "ĠFrench",
        -1.0
      ],
      [
        "Ġsoftware",
        -1.0
      ],
      [
        "called",
        -1.0
      ],
      [
        "Pre",
        -1.0
      ],
      [
        "Ġbrigade",
        -1.0
      ],
      [
        "mas",
        -1.0
      ],
      [
        "Ġincentive",
        -1.0
      ],
      [
        "Ġoften",
        -1.0
      ],
      [
        "ĠSultan",
        -1.0
      ],
      [
        "Ġinflation",
        -1.0
      ],
      [
        "ĠDef",
        -1.0
      ],
      [
        "Ġconc",
        -1.0
      ],
      [
        "Ġimmer",
        -1.0
      ],
      [
        "Ġrecognition",
        -1.0
      ],
      [
        "Ġclubs",
        -1.0
      ],
      [
        "particularly",
        -1.0
      ],
      [
        "Ġutter",
        -1.0
      ],
      [
        "Ġdisposable",
        -1.0
      ],
      [
        "library",
        -1.0
      ],
      [
        "oni",
        -1.0
      ],
      [
        "By",
        -1.0
      ],
      [
        "Ġongoing",
        -1.0
      ],
      [
        "Ġabolition",
        -1.0
      ],
      [
        "Ġmajority",
        -1.0
      ],
      [
        "ĠUniverse",
        -1.0
      ],
      [
        "Ġnineteenth",
        -1.0
      ],
      [
        "Ġsixth",
        -1.0
      ],
      [
        "ĠPoetry",
        -1.0
      ],
      [
        "Ġnose",
        -1.0
      ],
      [
        "Ġgotten",
        -1.0
      ],
      [
        "Ġoversee",
        -1.0
      ],
      [
        "Ġestimating",
        -1.0
      ],
      [
        "Ġherself",
        -1.0
      ],
      [
        "speaking",
        -1.0
      ],
      [
        "Ġend",
        -1.0
      ],
      [
        "san",
        -1.0
      ],
      [
        "Ġanalogy",
        -1.0
      ],
      [
        "Ġdepressed",
        -1.0
      ],
      [
        "Ġhemisphere",
        -1.0
      ],
      [
        "usive",
        -1.0
      ],
      [
        "ĠMill",
        -1.0
      ],
      [
        "Ġpreventing",
        -1.0
      ],
      [
        "Ġprovides",
        -1.0
      ],
      [
        "Ġhabits",
        -1.0
      ],
      [
        "Ġclothing",
        -1.0
      ],
      [
        "system",
        -1.0
      ],
      [
        "original",
        -1.0
      ],
      [
        "Ġproducers",
        -1.0
      ],
      [
        "Ġ46",
        -1.0
      ],
      [
        "Ġstra",
        -1.0
      ],
      [
        "Ġalongside",
        -1.0
      ],
      [
        "Ġprevailing",
        -1.0
      ],
      [
        "AIDS",
        -1.0
      ],
      [
        "urgical",
        -1.0
      ],
      [
        "Wa",
        -1.0
      ],
      [
        "Ġsocietal",
        -1.0
      ],
      [
        "Ġinstructor",
        -1.0
      ],
      [
        "Ġinjected",
        -1.0
      ],
      [
        "Ġcavities",
        -1.0
      ],
      [
        "ĠNOAA",
        -1.0
      ],
      [
        "published",
        -1.0
      ],
      [
        "ping",
        -1.0
      ],
      [
        "Ġweight",
        -1.0
      ],
      [
        "poli",
        -1.0
      ],
      [
        "Ġtheme",
        -1.0
      ],
      [
        "Ġ1905",
        -1.0
      ],
      [
        "ĠCommission",
        -1.0
      ],
      [
        "med",
        -1.0
      ],
      [
        "Vs",
        -1.0
      ],
      [
        "Ġad",
        -1.0
      ],
      [
        "if",
        -1.0
      ],
      [
        "LM",
        -1.0
      ],
      [
        "Ġemit",
        -1.0
      ],
      [
        "Pla",
        -1.0
      ],
      [
        "Ġdefinitions",
        -1.0
      ],
      [
        "oxy",
        -1.0
      ],
      [
        "Video",
        -1.0
      ],
      [
        "Ġbands",
        -1.0
      ],
      [
        "Ġcat",
        -1.0
      ],
      [
        "ĠCountry",
        -1.0
      ],
      [
        "Â»",
        -1.0
      ],
      [
        "Ġcamps",
        -1.0
      ],
      [
        "ĠAllied",
        -1.0
      ],
      [
        "Ġstabil",
        -1.0
      ],
      [
        "Ġselected",
        -1.0
      ],
      [
        "Ġexplains",
        -1.0
      ],
      [
        "ĠWith",
        -1.0
      ],
      [
        "ĠSustainable",
        -1.0
      ],
      [
        "Ġpathway",
        -1.0
      ],
      [
        "ĠAndrew",
        -1.0
      ],
      [
        "ĠÄĢá¹ŃmÄģ",
        -1.0
      ],
      [
        "Ġelse",
        -1.0
      ],
      [
        "Ġyou",
        -1.0
      ],
      [
        "g",
        -1.0
      ],
      [
        "Ġunited",
        -1.0
      ],
      [
        "Ġdomestic",
        -1.0
      ],
      [
        "Ġaccepting",
        -1.0
      ],
      [
        "Ġviewed",
        -1.0
      ],
      [
        "Oxford",
        -1.0
      ],
      [
        "ĠBA",
        -1.0
      ],
      [
        "Ġreligious",
        -1.0
      ],
      [
        "Ġrobust",
        -1.0
      ],
      [
        "eds",
        -1.0
      ],
      [
        "Ġbanned",
        -1.0
      ],
      [
        "Ġdigital",
        -1.0
      ],
      [
        "Ġdelivering",
        -1.0
      ],
      [
        "meter",
        -1.0
      ],
      [
        "Ġsla",
        -1.0
      ],
      [
        "Ġdenied",
        -1.0
      ],
      [
        "Ġquarter",
        -1.0
      ],
      [
        "Ġpatents",
        -1.0
      ],
      [
        "ĠEuropean",
        -1.0
      ],
      [
        "esthetic",
        -1.0
      ],
      [
        "Ġdecreased",
        -1.0
      ],
      [
        "Ġloans",
        -1.0
      ],
      [
        "Ġexplosive",
        -1.0
      ],
      [
        "tens",
        -1.0
      ],
      [
        "cos",
        -1.0
      ],
      [
        "Ġcontents",
        -1.0
      ],
      [
        "Any",
        -1.0
      ],
      [
        "Ġstatistically",
        -1.0
      ],
      [
        "Ġtargeted",
        -1.0
      ],
      [
        "Ġways",
        -1.0
      ],
      [
        "occupied",
        -1.0
      ],
      [
        "Ġacidic",
        -1.0
      ],
      [
        "ĠThursday",
        -1.0
      ],
      [
        "ters",
        -1.0
      ],
      [
        "Ġsame",
        -1.0
      ],
      [
        "Ġalien",
        -1.0
      ],
      [
        "Ġtalks",
        -1.0
      ],
      [
        "sm",
        -1.0
      ],
      [
        "Ġfeasible",
        -1.0
      ],
      [
        "ĠPath",
        -1.0
      ],
      [
        "Ġdaughters",
        -1.0
      ],
      [
        "oro",
        -1.0
      ],
      [
        "Ġbehavioral",
        -1.0
      ],
      [
        "ĠFull",
        -1.0
      ],
      [
        "ĠKin",
        -1.0
      ],
      [
        "Ġexamined",
        -1.0
      ],
      [
        "ĠWiki",
        -1.0
      ],
      [
        "Ġsurvived",
        -1.0
      ],
      [
        "Ġwhereby",
        -1.0
      ],
      [
        "Ġnutritious",
        -1.0
      ],
      [
        "Ġdeeply",
        -1.0
      ],
      [
        "ĳ",
        -1.0
      ],
      [
        "holders",
        -1.0
      ],
      [
        "Ġax",
        -1.0
      ],
      [
        "ĠDa",
        -1.0
      ],
      [
        "ĠGri",
        -1.0
      ],
      [
        "Ġintermediate",
        -1.0
      ],
      [
        "Ġeasily",
        -1.0
      ],
      [
        "Ġsees",
        -1.0
      ],
      [
        "Ġlooked",
        -1.0
      ],
      [
        "ĠActive",
        -1.0
      ],
      [
        "empt",
        -1.0
      ],
      [
        "Ġprototype",
        -1.0
      ],
      [
        "http",
        -1.0
      ],
      [
        "Ġbones",
        -1.0
      ],
      [
        "ĠStone",
        -1.0
      ],
      [
        "--",
        -1.0
      ],
      [
        "Ġcru",
        -1.0
      ],
      [
        "Ġjudicial",
        -1.0
      ],
      [
        "Ġcoordinates",
        -1.0
      ],
      [
        "Ġancient",
        -1.0
      ],
      [
        "ĠThough",
        -1.0
      ],
      [
        "itive",
        -1.0
      ],
      [
        "ĠDouglas",
        -1.0
      ],
      [
        "PO",
        -1.0
      ],
      [
        "ĠSilver",
        -1.0
      ],
      [
        "ĠHospital",
        -1.0
      ],
      [
        "Ġmph",
        -1.0
      ],
      [
        "Ġevening",
        -1.0
      ],
      [
        "Ġplausible",
        -1.0
      ],
      [
        "Ġsediments",
        -1.0
      ],
      [
        "Ġshouldn",
        -1.0
      ],
      [
        "ĠRepresentatives",
        -1.0
      ],
      [
        "Ġdigestive",
        -1.0
      ],
      [
        "ĠTolkien",
        -1.0
      ],
      [
        "ĠLetter",
        -1.0
      ],
      [
        "ged",
        -1.0
      ],
      [
        "phr",
        -1.0
      ],
      [
        "Ġcompliance",
        -1.0
      ],
      [
        "Ġbring",
        -1.0
      ],
      [
        "elled",
        -1.0
      ],
      [
        "Ġapplications",
        -1.0
      ],
      [
        "Ġoutdoors",
        -1.0
      ],
      [
        "Ġ78",
        -1.0
      ],
      [
        "Ġle",
        -1.0
      ],
      [
        "Ġtear",
        -1.0
      ],
      [
        "qu",
        -1.0
      ],
      [
        "Ġallergies",
        -1.0
      ],
      [
        "Ġoperators",
        -1.0
      ],
      [
        "Like",
        -1.0
      ],
      [
        "Ġsafer",
        -1.0
      ],
      [
        "ĠCarolina",
        -1.0
      ],
      [
        "ĠHy",
        -1.0
      ],
      [
        "Ġcessation",
        -1.0
      ],
      [
        "Ġconfiguration",
        -1.0
      ],
      [
        "la",
        -1.0
      ],
      [
        "Ġhell",
        -1.0
      ],
      [
        "Ġspeak",
        -1.0
      ],
      [
        "Ġofficially",
        -1.0
      ],
      [
        "Ġgun",
        -1.0
      ],
      [
        "ĠBeth",
        -1.0
      ],
      [
        "Ġsaving",
        -1.0
      ],
      [
        "Ġstone",
        -1.0
      ],
      [
        "ĠSouthwest",
        -1.0
      ],
      [
        "Ġsecondary",
        -1.0
      ],
      [
        "ĠOttoman",
        -1.0
      ],
      [
        "Ġcause",
        -1.0
      ],
      [
        "âĸª",
        -1.0
      ],
      [
        "ĠSkin",
        -1.0
      ],
      [
        "engine",
        -1.0
      ],
      [
        "ĠThroughout",
        -1.0
      ],
      [
        "Ġheads",
        -1.0
      ],
      [
        "Ġabnormalities",
        -1.0
      ],
      [
        "Ġrelatively",
        -1.0
      ],
      [
        "ĠAM",
        -1.0
      ],
      [
        "ĠVictoria",
        -1.0
      ],
      [
        "pped",
        -1.0
      ],
      [
        "ĠThis",
        -1.0
      ],
      [
        "der",
        -1.0
      ],
      [
        "fen",
        -1.0
      ],
      [
        "Why",
        -1.0
      ],
      [
        "inson",
        -1.0
      ],
      [
        "Ġcaused",
        -1.0
      ],
      [
        "Ġdeforestation",
        -1.0
      ],
      [
        "hol",
        -1.0
      ],
      [
        "ny",
        -1.0
      ],
      [
        "ĠBotswana",
        -1.0
      ],
      [
        "ĠPueblo",
        -1.0
      ],
      [
        "Ġfalse",
        -1.0
      ],
      [
        "Ġstu",
        -1.0
      ],
      [
        "rence",
        -1.0
      ],
      [
        "Global",
        -1.0
      ],
      [
        "Ġoffers",
        -1.0
      ],
      [
        "Ġslo",
        -1.0
      ],
      [
        "Ġemployees",
        -1.0
      ],
      [
        "ĠOh",
        -1.0
      ],
      [
        "ĠHam",
        -1.0
      ],
      [
        "63",
        -1.0
      ],
      [
        "itable",
        -1.0
      ],
      [
        "Ġstaying",
        -1.0
      ],
      [
        "Ġinvertebrates",
        -1.0
      ],
      [
        "Method",
        -1.0
      ],
      [
        "Ġfailure",
        -1.0
      ],
      [
        "Ġcontra",
        -1.0
      ],
      [
        "Ġgall",
        -1.0
      ],
      [
        "ĠAdvisory",
        -1.0
      ],
      [
        "Ġreplace",
        -1.0
      ],
      [
        "ĠAccessed",
        -1.0
      ],
      [
        "ĠScandinavia",
        -1.0
      ],
      [
        "map",
        -1.0
      ],
      [
        "ĠNatchez",
        -1.0
      ],
      [
        "Ġbills",
        -1.0
      ],
      [
        "ĠOpera",
        -1.0
      ],
      [
        "Ġhelpful",
        -1.0
      ],
      [
        "Ġevents",
        -1.0
      ],
      [
        "Ġfamily",
        -1.0
      ],
      [
        "My",
        -1.0
      ],
      [
        "Ġregards",
        -1.0
      ],
      [
        "Ġsooner",
        -1.0
      ],
      [
        "ĠEat",
        -1.0
      ],
      [
        "ĠPay",
        -1.0
      ],
      [
        "Ġaccommodation",
        -1.0
      ],
      [
        "Ġresults",
        -1.0
      ],
      [
        "Ġimportant",
        -1.0
      ],
      [
        "ĠISO",
        -1.0
      ],
      [
        "Ġfiscal",
        -1.0
      ],
      [
        "ĠEqu",
        -1.0
      ],
      [
        "Ġeverything",
        -1.0
      ],
      [
        "Ġcommunicating",
        -1.0
      ],
      [
        "Ġproper",
        -1.0
      ],
      [
        "Ġnutrition",
        -1.0
      ],
      [
        "Ġacres",
        -1.0
      ],
      [
        "ĠData",
        -1.0
      ],
      [
        "served",
        -1.0
      ],
      [
        "Ġspread",
        -1.0
      ],
      [
        "Ġleaving",
        -1.0
      ],
      [
        "ams",
        -1.0
      ],
      [
        "Human",
        -1.0
      ],
      [
        "Ġinsect",
        -1.0
      ],
      [
        "Ġaside",
        -1.0
      ],
      [
        "Ġprosperity",
        -1.0
      ],
      [
        "Ġtopic",
        -1.0
      ],
      [
        "Ġideals",
        -1.0
      ],
      [
        "ically",
        -1.0
      ],
      [
        "ĠSnake",
        -1.0
      ],
      [
        "ĠNA",
        -1.0
      ],
      [
        "Ġbipolar",
        -1.0
      ],
      [
        "ĠParents",
        -1.0
      ],
      [
        "ĠEvidence",
        -1.0
      ],
      [
        "Ġflash",
        -1.0
      ],
      [
        "Ġconceptual",
        -1.0
      ],
      [
        "Ġsins",
        -1.0
      ],
      [
        "Ġdrama",
        -1.0
      ],
      [
        "ĠPlease",
        -1.0
      ],
      [
        "Gen",
        -1.0
      ],
      [
        "Ļ",
        -1.0
      ],
      [
        "ĠCompar",
        -1.0
      ],
      [
        "Ġgenus",
        -1.0
      ],
      [
        "grams",
        -1.0
      ],
      [
        "Ġ1859",
        -1.0
      ],
      [
        "ĠTypically",
        -1.0
      ],
      [
        "Ġwives",
        -1.0
      ],
      [
        "Ġimpression",
        -1.0
      ],
      [
        "ĠAugust",
        -1.0
      ],
      [
        "ttered",
        -1.0
      ],
      [
        "ur",
        -1.0
      ],
      [
        "Ġcontinu",
        -1.0
      ],
      [
        "rm",
        -1.0
      ],
      [
        "Ġstimul",
        -1.0
      ],
      [
        "ĠWet",
        -1.0
      ],
      [
        "Ġdefinitely",
        -1.0
      ],
      [
        "Ġwrap",
        -1.0
      ],
      [
        "heart",
        -1.0
      ],
      [
        "ĠResources",
        -1.0
      ],
      [
        "Ġcaus",
        -1.0
      ],
      [
        "Egypt",
        -1.0
      ],
      [
        "Ġcontrolling",
        -1.0
      ],
      [
        "Ġproperly",
        -1.0
      ],
      [
        "Ġpilot",
        -1.0
      ],
      [
        "ĠGandhi",
        -1.0
      ],
      [
        "Tu",
        -1.0
      ],
      [
        "Ġbio",
        -1.0
      ],
      [
        "Ġtransport",
        -1.0
      ],
      [
        "Ġramp",
        -1.0
      ],
      [
        "Ġvoice",
        -1.0
      ],
      [
        "rol",
        -1.0
      ],
      [
        "Ġbased",
        -1.0
      ],
      [
        "ĠHe",
        -1.0
      ],
      [
        "ĠTherefore",
        -1.0
      ],
      [
        "Ġoperated",
        -1.0
      ],
      [
        "Ġmutations",
        -1.0
      ],
      [
        "Ġlargest",
        -1.0
      ],
      [
        "Ap",
        -1.0
      ],
      [
        "Ġceased",
        -1.0
      ],
      [
        "Ġrealistic",
        -1.0
      ],
      [
        "ĠNY",
        -1.0
      ],
      [
        "Ġemployer",
        -1.0
      ],
      [
        "Ġprefer",
        -1.0
      ],
      [
        "Ġremarkable",
        -1.0
      ],
      [
        "hr",
        -1.0
      ],
      [
        "Ġinfrastructure",
        -1.0
      ],
      [
        "ĠCard",
        -1.0
      ],
      [
        "Ġrats",
        -1.0
      ],
      [
        "pur",
        -1.0
      ],
      [
        "Ġlimited",
        -1.0
      ],
      [
        "lio",
        -1.0
      ],
      [
        "Ġreferred",
        -1.0
      ],
      [
        "Ġruns",
        -1.0
      ],
      [
        "ĠBe",
        -1.0
      ],
      [
        "Ġcomments",
        -1.0
      ],
      [
        "ĠRoute",
        -1.0
      ],
      [
        "ĠPatrick",
        -1.0
      ],
      [
        "house",
        -1.0
      ],
      [
        "eous",
        -1.0
      ],
      [
        "Ġeconomies",
        -1.0
      ],
      [
        "tte",
        -1.0
      ],
      [
        "ĠÂ±",
        -1.0
      ],
      [
        "uation",
        -1.0
      ],
      [
        "Ġsymbol",
        -1.0
      ],
      [
        "ĠGeological",
        -1.0
      ],
      [
        "thy",
        -1.0
      ],
      [
        "á¸į",
        -1.0
      ],
      [
        "Ġclaiming",
        -1.0
      ],
      [
        "ĠMitchell",
        -1.0
      ],
      [
        "Given",
        -1.0
      ],
      [
        "ĠEast",
        -1.0
      ],
      [
        "ĠPM",
        -1.0
      ],
      [
        "Ġvul",
        -1.0
      ],
      [
        "lor",
        -1.0
      ],
      [
        "ĠRiver",
        -1.0
      ],
      [
        "Ġdocumentary",
        -1.0
      ],
      [
        "ĠVeterans",
        -1.0
      ],
      [
        "appear",
        -1.0
      ],
      [
        "Ġcolonies",
        -1.0
      ],
      [
        "ĠAd",
        -1.0
      ],
      [
        "Ġ75",
        -1.0
      ],
      [
        "Ġstronger",
        -1.0
      ],
      [
        "Ġprovision",
        -1.0
      ],
      [
        "Ġmanager",
        -1.0
      ],
      [
        "Ġletter",
        -1.0
      ],
      [
        "major",
        -1.0
      ],
      [
        "Ġquantity",
        -1.0
      ],
      [
        "Ġcertain",
        -1.0
      ],
      [
        "ĠJapan",
        -1.0
      ],
      [
        "Ġtests",
        -1.0
      ],
      [
        "pot",
        -1.0
      ],
      [
        "Ġquo",
        -1.0
      ],
      [
        "Ġpositive",
        -1.0
      ],
      [
        "Ġdinosaurs",
        -1.0
      ],
      [
        "Ġacre",
        -1.0
      ],
      [
        "Ġdil",
        -1.0
      ],
      [
        "yed",
        -1.0
      ],
      [
        "Ġdiagnosis",
        -1.0
      ],
      [
        "Catholic",
        -1.0
      ],
      [
        "Ġirrational",
        -1.0
      ],
      [
        "Ġvaccine",
        -1.0
      ],
      [
        "Ġ%",
        -1.0
      ],
      [
        "Ġactually",
        -1.0
      ],
      [
        "Ġfollows",
        -1.0
      ],
      [
        "Ġshoe",
        -1.0
      ],
      [
        "ĠEveryone",
        -1.0
      ],
      [
        "mark",
        -1.0
      ],
      [
        "su",
        -1.0
      ],
      [
        "att",
        -1.0
      ],
      [
        "ĠTechnical",
        -1.0
      ],
      [
        "ĠCharlotte",
        -1.0
      ],
      [
        "etics",
        -1.0
      ],
      [
        "Ġcriticism",
        -1.0
      ],
      [
        "Ġoutput",
        -1.0
      ],
      [
        "Ġtranslations",
        -1.0
      ],
      [
        "Ġdemographic",
        -1.0
      ],
      [
        "Ġindustrial",
        -1.0
      ],
      [
        "Ġtru",
        -1.0
      ],
      [
        "ĠOklahoma",
        -1.0
      ],
      [
        "prov",
        -1.0
      ],
      [
        "ĠLook",
        -1.0
      ],
      [
        "Ġtu",
        -1.0
      ],
      [
        "ast",
        -1.0
      ],
      [
        "Ġsubsequently",
        -1.0
      ],
      [
        "Ġli",
        -1.0
      ],
      [
        "Ġgetting",
        -1.0
      ],
      [
        "Ġorigins",
        -1.0
      ],
      [
        "ĠTask",
        -1.0
      ],
      [
        "Ġmeters",
        -1.0
      ],
      [
        "Ġanthrop",
        -1.0
      ],
      [
        "Ġobligation",
        -1.0
      ],
      [
        "ĠBang",
        -1.0
      ],
      [
        "Qu",
        -1.0
      ],
      [
        "Ġpromotes",
        -1.0
      ],
      [
        "Based",
        -1.0
      ],
      [
        "Ġ1918",
        -1.0
      ],
      [
        "Ġband",
        -1.0
      ],
      [
        "Still",
        -1.0
      ],
      [
        "Ġimmunity",
        -1.0
      ],
      [
        "scale",
        -1.0
      ],
      [
        "Car",
        -1.0
      ],
      [
        "Ke",
        -1.0
      ],
      [
        "Ġbold",
        -1.0
      ],
      [
        "Ġ^",
        -1.0
      ],
      [
        "ĠLast",
        -1.0
      ],
      [
        "ford",
        -1.0
      ],
      [
        "ĠTo",
        -1.0
      ],
      [
        "Ġchemotherapy",
        -1.0
      ],
      [
        "Ġrelated",
        -1.0
      ],
      [
        "Ġwealthy",
        -1.0
      ],
      [
        "Ġnatives",
        -1.0
      ],
      [
        "</",
        -1.0
      ],
      [
        "iant",
        -1.0
      ],
      [
        "Ġdra",
        -1.0
      ],
      [
        "Ġunits",
        -1.0
      ],
      [
        "ishing",
        -1.0
      ],
      [
        "Ġreinforce",
        -1.0
      ],
      [
        "Ġcapita",
        -1.0
      ],
      [
        "Ġfew",
        -1.0
      ],
      [
        "Ġmostly",
        -1.0
      ],
      [
        "cture",
        -1.0
      ],
      [
        "Ġillegal",
        -1.0
      ],
      [
        "Ġfires",
        -1.0
      ],
      [
        "Ġpeaceful",
        -1.0
      ],
      [
        "ĠCrawford",
        -1.0
      ],
      [
        "Ġolive",
        -1.0
      ],
      [
        "25",
        -1.0
      ],
      [
        "no",
        -1.0
      ],
      [
        "mped",
        -1.0
      ],
      [
        "Ġsupremacy",
        -1.0
      ],
      [
        "Ġswept",
        -1.0
      ],
      [
        "ctor",
        -1.0
      ],
      [
        "pox",
        -1.0
      ],
      [
        "Ġconstitutional",
        -1.0
      ],
      [
        "Ġsunshine",
        -1.0
      ],
      [
        "ald",
        -1.0
      ],
      [
        "ili",
        -1.0
      ],
      [
        "lingual",
        -1.0
      ],
      [
        "Ġcourse",
        -1.0
      ],
      [
        "Ġozone",
        -1.0
      ],
      [
        "Ġpeoples",
        -1.0
      ],
      [
        "Access",
        -1.0
      ],
      [
        "ser",
        -1.0
      ],
      [
        "Ġuterus",
        -1.0
      ],
      [
        "Ġplural",
        -1.0
      ],
      [
        "html",
        -1.0
      ],
      [
        "ĠEcuador",
        -1.0
      ],
      [
        "Em",
        -1.0
      ],
      [
        "Ġunderwent",
        -1.0
      ],
      [
        "Ġefficiency",
        -1.0
      ],
      [
        "ĠTR",
        -1.0
      ],
      [
        "Ġenacted",
        -1.0
      ],
      [
        "Ġhelicopter",
        -1.0
      ],
      [
        "Ġruled",
        -1.0
      ],
      [
        "ĠMexican",
        -1.0
      ],
      [
        "Ġinfinite",
        -1.0
      ],
      [
        "Ġcaring",
        -1.0
      ],
      [
        ",âĢĿ",
        -1.0
      ],
      [
        "Ġapproximately",
        -1.0
      ],
      [
        "Ġreinforced",
        -1.0
      ],
      [
        "Ġportray",
        -1.0
      ],
      [
        "Ġasthma",
        -1.0
      ],
      [
        "ckets",
        -1.0
      ],
      [
        "Ġplantation",
        -1.0
      ],
      [
        "Ġbarrel",
        -1.0
      ],
      [
        "Ġpencil",
        -1.0
      ],
      [
        "Ġcompeting",
        -1.0
      ],
      [
        "Ġinfection",
        -1.0
      ],
      [
        "Ġattributes",
        -1.0
      ],
      [
        "Ġblessing",
        -1.0
      ],
      [
        "Ġoperates",
        -1.0
      ],
      [
        "Ġresponded",
        -1.0
      ],
      [
        "Ġworksheets",
        -1.0
      ],
      [
        "Ġundergraduate",
        -1.0
      ],
      [
        "Ġquar",
        -1.0
      ],
      [
        "ĠDog",
        -1.0
      ],
      [
        "Ġdesignation",
        -1.0
      ],
      [
        "ders",
        -1.0
      ],
      [
        "ĠNa",
        -1.0
      ],
      [
        "Ġcontrast",
        -1.0
      ],
      [
        "Ġanother",
        -1.0
      ],
      [
        "Ġterror",
        -1.0
      ],
      [
        "Sur",
        -1.0
      ],
      [
        "Ġarranged",
        -1.0
      ],
      [
        "ĠStatistical",
        -1.0
      ],
      [
        "Ġrash",
        -1.0
      ],
      [
        "Ġnut",
        -1.0
      ],
      [
        "Ġincub",
        -1.0
      ],
      [
        "Ġcohe",
        -1.0
      ],
      [
        "ĠEssential",
        -1.0
      ],
      [
        "mer",
        -1.0
      ],
      [
        "ĠMind",
        -1.0
      ],
      [
        "ĠNewfoundland",
        -1.0
      ],
      [
        "Ġprince",
        -1.0
      ],
      [
        "Ġaims",
        -1.0
      ],
      [
        "cord",
        -1.0
      ],
      [
        "pre",
        -1.0
      ],
      [
        "Ġcandidate",
        -1.0
      ],
      [
        "tt",
        -1.0
      ],
      [
        "rupt",
        -1.0
      ],
      [
        "ĠCertificate",
        -1.0
      ],
      [
        "Ġcells",
        -1.0
      ],
      [
        "ĠDal",
        -1.0
      ],
      [
        "Ġ1909",
        -1.0
      ],
      [
        "Ġglo",
        -1.0
      ],
      [
        "proof",
        -1.0
      ],
      [
        "Ġmolecular",
        -1.0
      ],
      [
        "Ġdisclos",
        -1.0
      ],
      [
        "Ġchambers",
        -1.0
      ],
      [
        "ĠMughal",
        -1.0
      ],
      [
        "Ġstays",
        -1.0
      ],
      [
        "Ġdominated",
        -1.0
      ],
      [
        "Ġpressing",
        -1.0
      ],
      [
        "Ġarticle",
        -1.0
      ],
      [
        "Ġspoke",
        -1.0
      ],
      [
        "Ġinstitutional",
        -1.0
      ],
      [
        "ĠEdition",
        -1.0
      ],
      [
        "Ġanswer",
        -1.0
      ],
      [
        "phthalm",
        -1.0
      ],
      [
        "Ġvalues",
        -1.0
      ],
      [
        "Ġhydrogen",
        -1.0
      ],
      [
        "ĠWinter",
        -1.0
      ],
      [
        "Ġgerm",
        -1.0
      ],
      [
        "Ġbutton",
        -1.0
      ],
      [
        "Thus",
        -1.0
      ],
      [
        "ĠUS",
        -1.0
      ],
      [
        "ĠGarrison",
        -1.0
      ],
      [
        "ats",
        -1.0
      ],
      [
        "bec",
        -1.0
      ],
      [
        "ponents",
        -1.0
      ],
      [
        "Ġthreatened",
        -1.0
      ],
      [
        "Ġworkplace",
        -1.0
      ],
      [
        "ĠLeon",
        -1.0
      ],
      [
        "Ġproject",
        -1.0
      ],
      [
        "Ġreflecting",
        -1.0
      ],
      [
        "Ġalready",
        -1.0
      ],
      [
        "Ġprairie",
        -1.0
      ],
      [
        "Ġunder",
        -1.0
      ],
      [
        "Ġre",
        -1.0
      ],
      [
        "ĠPalestinian",
        -1.0
      ],
      [
        "Ġeditors",
        -1.0
      ],
      [
        "ĠGuide",
        -1.0
      ],
      [
        "Ġgen",
        -1.0
      ],
      [
        "Ġpheno",
        -1.0
      ],
      [
        "Ġmasses",
        -1.0
      ],
      [
        "Ġplacenta",
        -1.0
      ],
      [
        "Ġrepresented",
        -1.0
      ],
      [
        "Ġnomenclature",
        -1.0
      ],
      [
        "Ġpest",
        -1.0
      ],
      [
        "Ġwatched",
        -1.0
      ],
      [
        "Ġflags",
        -1.0
      ],
      [
        "asing",
        -1.0
      ],
      [
        "hy",
        -1.0
      ],
      [
        "Ġmarketing",
        -1.0
      ],
      [
        "SI",
        -1.0
      ],
      [
        "comm",
        -1.0
      ],
      [
        "ols",
        -1.0
      ],
      [
        "Ġcredits",
        -1.0
      ],
      [
        "Ġpres",
        -1.0
      ],
      [
        "||",
        -1.0
      ],
      [
        "Ġimmense",
        -1.0
      ],
      [
        "ĠFalls",
        -1.0
      ],
      [
        "Ġofficial",
        -1.0
      ],
      [
        "ĠDem",
        -1.0
      ],
      [
        "Ġmassacre",
        -1.0
      ],
      [
        "ĠDiversity",
        -1.0
      ],
      [
        "Ġmeeting",
        -1.0
      ],
      [
        "Ġreceipt",
        -1.0
      ],
      [
        "stead",
        -1.0
      ],
      [
        "Ver",
        -1.0
      ],
      [
        "Ġvast",
        -1.0
      ],
      [
        "Ġburial",
        -1.0
      ],
      [
        "Ġastronomical",
        -1.0
      ],
      [
        "Ġvalid",
        -1.0
      ],
      [
        "Es",
        -1.0
      ],
      [
        "ĠHart",
        -1.0
      ],
      [
        "Ġsanctuary",
        -1.0
      ],
      [
        "Ġbeneath",
        -1.0
      ],
      [
        "yan",
        -1.0
      ],
      [
        "ĠAssembly",
        -1.0
      ],
      [
        "Ġsubtle",
        -1.0
      ],
      [
        "ĠID",
        -1.0
      ],
      [
        "Ġmaneuver",
        -1.0
      ],
      [
        "Ġaware",
        -1.0
      ],
      [
        "ĠUzbek",
        -1.0
      ],
      [
        "ĠGeneral",
        -1.0
      ],
      [
        "Ġrevenge",
        -1.0
      ],
      [
        "ises",
        -1.0
      ],
      [
        "ĠDeclaration",
        -1.0
      ],
      [
        "rat",
        -1.0
      ],
      [
        "ĉ",
        -1.0
      ],
      [
        "cons",
        -1.0
      ],
      [
        "box",
        -1.0
      ],
      [
        "Ġcreator",
        -1.0
      ],
      [
        "ĠFaculty",
        -1.0
      ],
      [
        "ĠHall",
        -1.0
      ],
      [
        "Ġconclude",
        -1.0
      ],
      [
        "Ġevent",
        -1.0
      ],
      [
        "Ġdid",
        -1.0
      ],
      [
        "Ġplants",
        -1.0
      ],
      [
        "ĠFellow",
        -1.0
      ],
      [
        "Greek",
        -1.0
      ],
      [
        "ĠSlav",
        -1.0
      ],
      [
        "Ġcampus",
        -1.0
      ],
      [
        "Ġ1962",
        -1.0
      ],
      [
        "wave",
        -1.0
      ],
      [
        "Ġupdates",
        -1.0
      ],
      [
        "ĠHard",
        -1.0
      ],
      [
        "ĠDisaster",
        -1.0
      ],
      [
        "sign",
        -1.0
      ],
      [
        "Ġimmunization",
        -1.0
      ],
      [
        "Ġintrinsic",
        -1.0
      ],
      [
        "tra",
        -1.0
      ],
      [
        "âĢľ",
        -1.0
      ],
      [
        "thing",
        -1.0
      ],
      [
        "ĠReligious",
        -1.0
      ],
      [
        "Ġappropriately",
        -1.0
      ],
      [
        "Ġwicked",
        -1.0
      ],
      [
        "Ġ48",
        -1.0
      ],
      [
        "L",
        -1.0
      ],
      [
        "ĠWin",
        -1.0
      ],
      [
        "Ġmouse",
        -1.0
      ],
      [
        "Ġabsorbed",
        -1.0
      ],
      [
        "claimed",
        -1.0
      ],
      [
        "Ġdissolution",
        -1.0
      ],
      [
        "É",
        -1.0
      ],
      [
        "Ġexcess",
        -1.0
      ],
      [
        "ĠMiller",
        -1.0
      ],
      [
        "tness",
        -1.0
      ],
      [
        "ults",
        -1.0
      ],
      [
        "Ġrooted",
        -1.0
      ],
      [
        "ĠUN",
        -1.0
      ],
      [
        "wr",
        -1.0
      ],
      [
        "Ġidea",
        -1.0
      ],
      [
        "outs",
        -1.0
      ],
      [
        "lates",
        -1.0
      ],
      [
        "Ġelectron",
        -1.0
      ],
      [
        "Ġmyocardial",
        -1.0
      ],
      [
        "burg",
        -1.0
      ],
      [
        "Ġmaximize",
        -1.0
      ],
      [
        "Ġdies",
        -1.0
      ],
      [
        "ĠQuebec",
        -1.0
      ],
      [
        "force",
        -1.0
      ],
      [
        "Ġstayed",
        -1.0
      ],
      [
        "2006",
        -1.0
      ],
      [
        "Ã±",
        -1.0
      ],
      [
        "Ġ978",
        -1.0
      ],
      [
        "ĠBatista",
        -1.0
      ],
      [
        "Ġtrimester",
        -1.0
      ],
      [
        "Ġanimal",
        -1.0
      ],
      [
        "Ġbrought",
        -1.0
      ],
      [
        "Ġdiffuse",
        -1.0
      ],
      [
        "ĠCaptain",
        -1.0
      ],
      [
        "ĠYoung",
        -1.0
      ],
      [
        "ĠKim",
        -1.0
      ],
      [
        "Ġgeneration",
        -1.0
      ],
      [
        "Ġprime",
        -1.0
      ],
      [
        "ĠSwa",
        -1.0
      ],
      [
        "Ġstages",
        -1.0
      ],
      [
        "claim",
        -1.0
      ],
      [
        "ĠJames",
        -1.0
      ],
      [
        "ĠBody",
        -1.0
      ],
      [
        "Ġfloor",
        -1.0
      ],
      [
        "Ġcollected",
        -1.0
      ],
      [
        "ĠCollege",
        -1.0
      ],
      [
        "Ġinteractions",
        -1.0
      ],
      [
        "Ġcrop",
        -1.0
      ],
      [
        "ĠSymposium",
        -1.0
      ],
      [
        "Ġborder",
        -1.0
      ],
      [
        "rror",
        -1.0
      ],
      [
        "Ġcomparing",
        -1.0
      ],
      [
        "Ġbig",
        -1.0
      ],
      [
        "Ġseries",
        -1.0
      ],
      [
        "emoglobin",
        -1.0
      ],
      [
        "Ġbuild",
        -1.0
      ],
      [
        "Ġ44",
        -1.0
      ],
      [
        "Ġslavery",
        -1.0
      ],
      [
        "CK",
        -1.0
      ],
      [
        "Ġrequires",
        -1.0
      ],
      [
        "Ġportfolio",
        -1.0
      ],
      [
        "Ġsoda",
        -1.0
      ],
      [
        "ĠRes",
        -1.0
      ],
      [
        "iled",
        -1.0
      ],
      [
        "Ġenormous",
        -1.0
      ],
      [
        "Ġintervening",
        -1.0
      ],
      [
        "ĠVice",
        -1.0
      ],
      [
        "ĠBru",
        -1.0
      ],
      [
        "Ġsections",
        -1.0
      ],
      [
        "Ġreactions",
        -1.0
      ],
      [
        "cap",
        -1.0
      ],
      [
        "Ġpointed",
        -1.0
      ],
      [
        "ĠSuper",
        -1.0
      ],
      [
        "Ġexpenditure",
        -1.0
      ],
      [
        "Ġpara",
        -1.0
      ],
      [
        "Ġdiagnosed",
        -1.0
      ],
      [
        "tle",
        -1.0
      ],
      [
        "Ġstudy",
        -1.0
      ],
      [
        "uous",
        -1.0
      ],
      [
        "ment",
        -1.0
      ],
      [
        "og",
        -1.0
      ],
      [
        "Ġradius",
        -1.0
      ],
      [
        "Ġ61",
        -1.0
      ],
      [
        "s",
        -1.0
      ],
      [
        "Ġrisks",
        -1.0
      ],
      [
        "Ġ1914",
        -1.0
      ],
      [
        "Japanese",
        -1.0
      ],
      [
        "Ġsiege",
        -1.0
      ],
      [
        "Ġfriendship",
        -1.0
      ],
      [
        "Ġstands",
        -1.0
      ],
      [
        "cor",
        -1.0
      ],
      [
        "work",
        -1.0
      ],
      [
        "Ġlegislature",
        -1.0
      ],
      [
        "ĠSchool",
        -1.0
      ],
      [
        "iness",
        -1.0
      ],
      [
        "ded",
        -1.0
      ],
      [
        "Ġfunding",
        -1.0
      ],
      [
        "Ġjunior",
        -1.0
      ],
      [
        "Ġdrugs",
        -1.0
      ],
      [
        "Ġmonitored",
        -1.0
      ],
      [
        "Ġlessons",
        -1.0
      ],
      [
        "ĠHistorical",
        -1.0
      ],
      [
        "Ġaffect",
        -1.0
      ],
      [
        "tains",
        -1.0
      ],
      [
        "walk",
        -1.0
      ],
      [
        "mor",
        -1.0
      ],
      [
        "Ġsens",
        -1.0
      ],
      [
        "Ġadequately",
        -1.0
      ],
      [
        "Ġunsuccessful",
        -1.0
      ],
      [
        "Ġfiltration",
        -1.0
      ],
      [
        "century",
        -1.0
      ],
      [
        "Ġsurplus",
        -1.0
      ],
      [
        "anti",
        -1.0
      ],
      [
        "ĠArea",
        -1.0
      ],
      [
        "virus",
        -1.0
      ],
      [
        "mate",
        -1.0
      ],
      [
        "Ġthorough",
        -1.0
      ],
      [
        "ĠBritannica",
        -1.0
      ],
      [
        "Ġway",
        -1.0
      ],
      [
        "uted",
        -1.0
      ],
      [
        "ibility",
        -1.0
      ],
      [
        "stones",
        -1.0
      ],
      [
        "59",
        -1.0
      ],
      [
        "Dr",
        -1.0
      ],
      [
        "Ġ1969",
        -1.0
      ],
      [
        "ĠRather",
        -1.0
      ],
      [
        "!",
        -1.0
      ],
      [
        "Great",
        -1.0
      ],
      [
        "ally",
        -1.0
      ],
      [
        "br",
        -1.0
      ],
      [
        "Ġboat",
        -1.0
      ],
      [
        "Ġrequiring",
        -1.0
      ],
      [
        "Ġdirt",
        -1.0
      ],
      [
        "sal",
        -1.0
      ],
      [
        "Ġbackground",
        -1.0
      ],
      [
        "Ì",
        -1.0
      ],
      [
        "ĠShow",
        -1.0
      ],
      [
        "Ġreviews",
        -1.0
      ],
      [
        "ĠHaz",
        -1.0
      ],
      [
        "Ġbranch",
        -1.0
      ],
      [
        "Ġdual",
        -1.0
      ],
      [
        "phone",
        -1.0
      ],
      [
        "ĠMyanmar",
        -1.0
      ],
      [
        "static",
        -1.0
      ],
      [
        "Ġasylum",
        -1.0
      ],
      [
        "ppy",
        -1.0
      ],
      [
        "Ġcauses",
        -1.0
      ],
      [
        "ĠKrishna",
        -1.0
      ],
      [
        "Ġsessions",
        -1.0
      ],
      [
        "ĠDays",
        -1.0
      ],
      [
        "Ġflesh",
        -1.0
      ],
      [
        "Ġhttp",
        -1.0
      ],
      [
        "Ġchip",
        -1.0
      ],
      [
        "Ġreply",
        -1.0
      ],
      [
        "December",
        -1.0
      ],
      [
        "Ġboard",
        -1.0
      ],
      [
        "Ġbattles",
        -1.0
      ],
      [
        "ĠTherapy",
        -1.0
      ],
      [
        "illary",
        -1.0
      ],
      [
        "gy",
        -1.0
      ],
      [
        "Ġarteries",
        -1.0
      ],
      [
        "ĠSearch",
        -1.0
      ],
      [
        "ĠMC",
        -1.0
      ],
      [
        "Ġpremier",
        -1.0
      ],
      [
        "Ġrice",
        -1.0
      ],
      [
        "Ġresponse",
        -1.0
      ],
      [
        "á¹Ń",
        -1.0
      ],
      [
        "Ġtransfer",
        -1.0
      ],
      [
        "nched",
        -1.0
      ],
      [
        "borough",
        -1.0
      ],
      [
        "Ġboot",
        -1.0
      ],
      [
        "è",
        -1.0
      ],
      [
        "Ġte",
        -1.0
      ],
      [
        "ists",
        -1.0
      ],
      [
        "path",
        -1.0
      ],
      [
        "Ġannouncement",
        -1.0
      ],
      [
        "Ġlip",
        -1.0
      ],
      [
        "Ġports",
        -1.0
      ],
      [
        "ĠIndustry",
        -1.0
      ],
      [
        "ĠGate",
        -1.0
      ],
      [
        "ml",
        -1.0
      ],
      [
        "2",
        -1.0
      ],
      [
        "sup",
        -1.0
      ],
      [
        "Ġworm",
        -1.0
      ],
      [
        "$",
        -1.0
      ],
      [
        "DI",
        -1.0
      ],
      [
        "ĠSquadron",
        -1.0
      ],
      [
        "Ġinformation",
        -1.0
      ],
      [
        "Ġinstruct",
        -1.0
      ],
      [
        "Ġknown",
        -1.0
      ],
      [
        "Ġlegislative",
        -1.0
      ],
      [
        "Ġcabin",
        -1.0
      ],
      [
        "Ġsil",
        -1.0
      ],
      [
        "ref",
        -1.0
      ],
      [
        "Ġlabels",
        -1.0
      ],
      [
        "ĠWilson",
        -1.0
      ],
      [
        "pressive",
        -1.0
      ],
      [
        "ĠCommonwealth",
        -1.0
      ],
      [
        "Ġstuff",
        -1.0
      ],
      [
        "gic",
        -1.0
      ],
      [
        "Ġwished",
        -1.0
      ],
      [
        "rÃ©",
        -1.0
      ],
      [
        "Ġdescendants",
        -1.0
      ],
      [
        "Na",
        -1.0
      ],
      [
        "Ġaren",
        -1.0
      ],
      [
        "Ġrobots",
        -1.0
      ],
      [
        "ĠConservation",
        -1.0
      ],
      [
        "250",
        -1.0
      ],
      [
        "Ġgrandmother",
        -1.0
      ],
      [
        "ĠHumphrey",
        -1.0
      ],
      [
        "ĠInquiry",
        -1.0
      ],
      [
        "ĠPlateau",
        -1.0
      ],
      [
        "Ġfields",
        -1.0
      ],
      [
        "Ġassassin",
        -1.0
      ],
      [
        "ier",
        -1.0
      ],
      [
        "Ġopaque",
        -1.0
      ],
      [
        "Ġemployment",
        -1.0
      ],
      [
        "Ã¤",
        -1.0
      ],
      [
        "Ġfunctional",
        -1.0
      ],
      [
        "ŀ",
        -1.0
      ],
      [
        "Ġwithout",
        -1.0
      ],
      [
        "61",
        -1.0
      ],
      [
        "ĠAustralia",
        -1.0
      ],
      [
        "Ġreports",
        -1.0
      ],
      [
        "Ġexplicitly",
        -1.0
      ],
      [
        "Ġlogs",
        -1.0
      ],
      [
        "Ġlikelihood",
        -1.0
      ],
      [
        "written",
        -1.0
      ],
      [
        "wheel",
        -1.0
      ],
      [
        "Ġon",
        -1.0
      ],
      [
        "Ġappointment",
        -1.0
      ],
      [
        "Ġsignaling",
        -1.0
      ],
      [
        "Ġantenna",
        -1.0
      ],
      [
        "Ġ1991",
        -1.0
      ],
      [
        "Ġbra",
        -1.0
      ],
      [
        "Ġworry",
        -1.0
      ],
      [
        "other",
        -1.0
      ],
      [
        "pine",
        -1.0
      ],
      [
        "ĠHunt",
        -1.0
      ],
      [
        "ister",
        -1.0
      ],
      [
        "Ġrejection",
        -1.0
      ],
      [
        "therapy",
        -1.0
      ],
      [
        "dium",
        -1.0
      ],
      [
        "Ġpartition",
        -1.0
      ],
      [
        "ray",
        -1.0
      ],
      [
        "Ġamyloid",
        -1.0
      ],
      [
        "esis",
        -1.0
      ],
      [
        "Ġawards",
        -1.0
      ],
      [
        "Ġcausing",
        -1.0
      ],
      [
        "Ġsimply",
        -1.0
      ],
      [
        "FC",
        -1.0
      ],
      [
        "ĠClassroom",
        -1.0
      ],
      [
        "Ġviews",
        -1.0
      ],
      [
        "Ġforcing",
        -1.0
      ],
      [
        "Ġlocations",
        -1.0
      ],
      [
        "se",
        -1.0
      ],
      [
        "&",
        -1.0
      ],
      [
        "Ġconsist",
        -1.0
      ],
      [
        "SD",
        -1.0
      ],
      [
        "ectomy",
        -1.0
      ],
      [
        "Ġseen",
        -1.0
      ],
      [
        "Ġdo",
        -1.0
      ],
      [
        "bra",
        -1.0
      ],
      [
        "Ġstrategic",
        -1.0
      ],
      [
        "Ġperforming",
        -1.0
      ],
      [
        "Ġnumerical",
        -1.0
      ],
      [
        "Ġgeneric",
        -1.0
      ],
      [
        "Si",
        -1.0
      ],
      [
        "35",
        -1.0
      ],
      [
        "square",
        -1.0
      ],
      [
        "usually",
        -1.0
      ],
      [
        "Ġgreat",
        -1.0
      ],
      [
        "who",
        -1.0
      ],
      [
        "Ġaspect",
        -1.0
      ],
      [
        "Ġinsisted",
        -1.0
      ],
      [
        "Ġbre",
        -1.0
      ],
      [
        "Ġbone",
        -1.0
      ],
      [
        "Ġscholar",
        -1.0
      ],
      [
        "ĠKenya",
        -1.0
      ],
      [
        "ĠOCLC",
        -1.0
      ],
      [
        "Ġ1929",
        -1.0
      ],
      [
        "condition",
        -1.0
      ],
      [
        "Ġtons",
        -1.0
      ],
      [
        "ĠWell",
        -1.0
      ],
      [
        "ĠPi",
        -1.0
      ],
      [
        "Ġcavity",
        -1.0
      ],
      [
        "Ġ1937",
        -1.0
      ],
      [
        "weed",
        -1.0
      ],
      [
        "Ġconnection",
        -1.0
      ],
      [
        "ĠDer",
        -1.0
      ],
      [
        "Ġplane",
        -1.0
      ],
      [
        "Ġaffecting",
        -1.0
      ],
      [
        "Ġwhale",
        -1.0
      ],
      [
        "cat",
        -1.0
      ],
      [
        "Ni",
        -1.0
      ],
      [
        "ativity",
        -1.0
      ],
      [
        "Ġgoes",
        -1.0
      ],
      [
        "Ġstrongly",
        -1.0
      ],
      [
        "Ġhoped",
        -1.0
      ],
      [
        "Initial",
        -1.0
      ],
      [
        "icides",
        -1.0
      ],
      [
        "Food",
        -1.0
      ],
      [
        "arily",
        -1.0
      ],
      [
        "ckey",
        -1.0
      ],
      [
        "Ġdetermines",
        -1.0
      ],
      [
        "Ġslaughter",
        -1.0
      ],
      [
        "round",
        -1.0
      ],
      [
        "ĠLieutenant",
        -1.0
      ],
      [
        "Stu",
        -1.0
      ],
      [
        "ĠPatterson",
        -1.0
      ],
      [
        "sty",
        -1.0
      ],
      [
        "Cent",
        -1.0
      ],
      [
        "ĠAN",
        -1.0
      ],
      [
        "Ġbanana",
        -1.0
      ],
      [
        "ĠTA",
        -1.0
      ],
      [
        "Ġthinking",
        -1.0
      ],
      [
        "ĠAPPN",
        -1.0
      ],
      [
        "ĠMt",
        -1.0
      ],
      [
        "nning",
        -1.0
      ],
      [
        "Ġintru",
        -1.0
      ],
      [
        "Ġnewspapers",
        -1.0
      ],
      [
        "Ġabove",
        -1.0
      ],
      [
        "Ġfirst",
        -1.0
      ],
      [
        "Ġlesbian",
        -1.0
      ],
      [
        "level",
        -1.0
      ],
      [
        "Ġempty",
        -1.0
      ],
      [
        "Ġrecognizable",
        -1.0
      ],
      [
        "Ġinvaluable",
        -1.0
      ],
      [
        "ĠDis",
        -1.0
      ],
      [
        "ĠBo",
        -1.0
      ],
      [
        "Call",
        -1.0
      ],
      [
        "Ġinvestigator",
        -1.0
      ],
      [
        "Ġlibrary",
        -1.0
      ],
      [
        "Ġreal",
        -1.0
      ],
      [
        "Ġsure",
        -1.0
      ],
      [
        "Ġdiscount",
        -1.0
      ],
      [
        "ĠOil",
        -1.0
      ],
      [
        "ĠYe",
        -1.0
      ],
      [
        "Ġallo",
        -1.0
      ],
      [
        "ĠBarbara",
        -1.0
      ],
      [
        "Ġdoubt",
        -1.0
      ],
      [
        "Ġoffshore",
        -1.0
      ],
      [
        "Ġcouples",
        -1.0
      ],
      [
        "Ġoperating",
        -1.0
      ],
      [
        "ĠOffice",
        -1.0
      ],
      [
        "Ġreasonably",
        -1.0
      ],
      [
        "Ġsemantic",
        -1.0
      ],
      [
        "Ġeventual",
        -1.0
      ],
      [
        "Ġ92",
        -1.0
      ],
      [
        "Ġuterine",
        -1.0
      ],
      [
        "Ġfoundation",
        -1.0
      ],
      [
        "Ġfarmers",
        -1.0
      ],
      [
        "Ġactivity",
        -1.0
      ],
      [
        "Ġrefusal",
        -1.0
      ],
      [
        "ĠFemale",
        -1.0
      ],
      [
        "Ġ27",
        -1.0
      ],
      [
        "uls",
        -1.0
      ],
      [
        "four",
        -1.0
      ],
      [
        "Ġduring",
        -1.0
      ],
      [
        "Ġdisplacement",
        -1.0
      ],
      [
        "Ġassert",
        -1.0
      ],
      [
        "ĠRebecca",
        -1.0
      ],
      [
        "ĠMas",
        -1.0
      ],
      [
        "re",
        -1.0
      ],
      [
        "Ġblock",
        -1.0
      ],
      [
        "sting",
        -1.0
      ],
      [
        "Ġ0",
        -1.0
      ],
      [
        "servation",
        -1.0
      ],
      [
        "SE",
        -1.0
      ],
      [
        "VA",
        -1.0
      ],
      [
        "Ġ7",
        -1.0
      ],
      [
        "eye",
        -1.0
      ],
      [
        "Ġlinear",
        -1.0
      ],
      [
        "Ġfails",
        -1.0
      ],
      [
        "Ġcomprised",
        -1.0
      ],
      [
        "ior",
        -1.0
      ],
      [
        "Ġpreceding",
        -1.0
      ],
      [
        "ived",
        -1.0
      ],
      [
        "Ġgang",
        -1.0
      ],
      [
        "Ġplanes",
        -1.0
      ],
      [
        "Ġvaried",
        -1.0
      ],
      [
        "Ġeffects",
        -1.0
      ],
      [
        "Ġppm",
        -1.0
      ],
      [
        "FE",
        -1.0
      ],
      [
        "ĠGermans",
        -1.0
      ],
      [
        "Ġjoints",
        -1.0
      ],
      [
        "ĠDivine",
        -1.0
      ],
      [
        "Ġcar",
        -1.0
      ],
      [
        "Ġmiscarriage",
        -1.0
      ],
      [
        "ĠMun",
        -1.0
      ],
      [
        "ĠMoses",
        -1.0
      ],
      [
        "Ġcharity",
        -1.0
      ],
      [
        "sti",
        -1.0
      ],
      [
        "nn",
        -1.0
      ],
      [
        "ĠMozart",
        -1.0
      ],
      [
        "ar",
        -1.0
      ],
      [
        "ony",
        -1.0
      ],
      [
        "vage",
        -1.0
      ],
      [
        "Ġmanipulate",
        -1.0
      ],
      [
        "Ġequals",
        -1.0
      ],
      [
        "Ġspeaker",
        -1.0
      ],
      [
        "Ġposes",
        -1.0
      ],
      [
        "ealed",
        -1.0
      ],
      [
        "Ġhippocamp",
        -1.0
      ],
      [
        "Ġencounter",
        -1.0
      ],
      [
        "ĠProduct",
        -1.0
      ],
      [
        "1988",
        -1.0
      ],
      [
        "Ġprocessing",
        -1.0
      ],
      [
        "Ġ2007",
        -1.0
      ],
      [
        "di",
        -1.0
      ],
      [
        "Ġapplied",
        -1.0
      ],
      [
        "Ġback",
        -1.0
      ],
      [
        "zu",
        -1.0
      ],
      [
        "Ġcoast",
        -1.0
      ],
      [
        "Ġinvading",
        -1.0
      ],
      [
        "Ġsurprise",
        -1.0
      ],
      [
        "Ġfolks",
        -1.0
      ],
      [
        "Ġrequests",
        -1.0
      ],
      [
        "Ġforensic",
        -1.0
      ],
      [
        "ĠJane",
        -1.0
      ],
      [
        "45",
        -1.0
      ],
      [
        "Ġsmell",
        -1.0
      ],
      [
        "Ġseeing",
        -1.0
      ],
      [
        "2000",
        -1.0
      ],
      [
        "Ġthrive",
        -1.0
      ],
      [
        "Ġbreakdown",
        -1.0
      ],
      [
        "Ġcow",
        -1.0
      ],
      [
        "Ġconsists",
        -1.0
      ],
      [
        "Ġamendments",
        -1.0
      ],
      [
        "Ġlate",
        -1.0
      ],
      [
        "ĠWebsite",
        -1.0
      ],
      [
        "Ġcircular",
        -1.0
      ],
      [
        "Ġpressures",
        -1.0
      ],
      [
        "HR",
        -1.0
      ],
      [
        "Ġhydraulic",
        -1.0
      ],
      [
        "ĠLtd",
        -1.0
      ],
      [
        "Ġcommon",
        -1.0
      ],
      [
        "cy",
        -1.0
      ],
      [
        "ato",
        -1.0
      ],
      [
        "specific",
        -1.0
      ],
      [
        "ĠRan",
        -1.0
      ],
      [
        "Ġpenguin",
        -1.0
      ],
      [
        "umb",
        -1.0
      ],
      [
        "Ġpocket",
        -1.0
      ],
      [
        "Ġorgan",
        -1.0
      ],
      [
        "Ġpsychology",
        -1.0
      ],
      [
        "Ġharvesting",
        -1.0
      ],
      [
        "Ġdis",
        -1.0
      ],
      [
        "ulatory",
        -1.0
      ],
      [
        "Ġwet",
        -1.0
      ],
      [
        "Ġveterinarian",
        -1.0
      ],
      [
        "Ġtrack",
        -1.0
      ],
      [
        "Ġpurpose",
        -1.0
      ],
      [
        "when",
        -1.0
      ],
      [
        "Ġpalace",
        -1.0
      ],
      [
        "ĠGames",
        -1.0
      ],
      [
        "Ġunderground",
        -1.0
      ],
      [
        "sensitivity",
        -1.0
      ],
      [
        "Ġcomponent",
        -1.0
      ],
      [
        "Ġlike",
        -1.0
      ],
      [
        "Ġfra",
        -1.0
      ],
      [
        "ĠIndia",
        -1.0
      ],
      [
        "changing",
        -1.0
      ],
      [
        "ĠBenjamin",
        -1.0
      ],
      [
        "ĠIowa",
        -1.0
      ],
      [
        "propriate",
        -1.0
      ],
      [
        "ĠSalvador",
        -1.0
      ],
      [
        "ĠCharlemagne",
        -1.0
      ],
      [
        "ĠHughes",
        -1.0
      ],
      [
        "mon",
        -1.0
      ],
      [
        "ola",
        -1.0
      ],
      [
        "Ġconvenience",
        -1.0
      ],
      [
        "Ġarmy",
        -1.0
      ],
      [
        "Know",
        -1.0
      ],
      [
        "Ġabsorb",
        -1.0
      ],
      [
        "ĠUV",
        -1.0
      ],
      [
        "Ġcounted",
        -1.0
      ],
      [
        "Ġautomated",
        -1.0
      ],
      [
        "Ġpupils",
        -1.0
      ],
      [
        "Ġhunger",
        -1.0
      ],
      [
        "mn",
        -1.0
      ],
      [
        "Ġframes",
        -1.0
      ],
      [
        "ê",
        -1.0
      ],
      [
        "Ġideas",
        -1.0
      ],
      [
        "Ġsteel",
        -1.0
      ],
      [
        "ĠNorwegian",
        -1.0
      ],
      [
        "Ġreddish",
        -1.0
      ],
      [
        "ĠAla",
        -1.0
      ],
      [
        "Ġpristine",
        -1.0
      ],
      [
        "black",
        -1.0
      ],
      [
        "ĠKit",
        -1.0
      ],
      [
        "Back",
        -1.0
      ],
      [
        "ject",
        -1.0
      ],
      [
        "Ġinfluenced",
        -1.0
      ],
      [
        "Mark",
        -1.0
      ],
      [
        "Ġlots",
        -1.0
      ],
      [
        "represent",
        -1.0
      ],
      [
        "logist",
        -1.0
      ],
      [
        "ĠFuture",
        -1.0
      ],
      [
        "ches",
        -1.0
      ],
      [
        "Ġelaborate",
        -1.0
      ],
      [
        "ĠAng",
        -1.0
      ],
      [
        "cre",
        -1.0
      ],
      [
        "Ġwanted",
        -1.0
      ],
      [
        "Ġ41",
        -1.0
      ],
      [
        "ĠTh",
        -1.0
      ],
      [
        "Ġdeveloped",
        -1.0
      ],
      [
        "depend",
        -1.0
      ],
      [
        "Ã¢",
        -1.0
      ],
      [
        "Credit",
        -1.0
      ],
      [
        "fluence",
        -1.0
      ],
      [
        "Ġshaft",
        -1.0
      ],
      [
        "Ġoffered",
        -1.0
      ],
      [
        "Ġ82",
        -1.0
      ],
      [
        "Ġthy",
        -1.0
      ],
      [
        "Today",
        -1.0
      ],
      [
        "Ġ1974",
        -1.0
      ],
      [
        "So",
        -1.0
      ],
      [
        "available",
        -1.0
      ],
      [
        "ĠBoeing",
        -1.0
      ],
      [
        "Make",
        -1.0
      ],
      [
        "Ġluck",
        -1.0
      ],
      [
        "Ġmobil",
        -1.0
      ],
      [
        "Ġhostilities",
        -1.0
      ],
      [
        "Ġdump",
        -1.0
      ],
      [
        "health",
        -1.0
      ],
      [
        "Ġrestored",
        -1.0
      ],
      [
        "Ġoutdoor",
        -1.0
      ],
      [
        "Ġtrend",
        -1.0
      ],
      [
        "Ġtags",
        -1.0
      ],
      [
        "ĠExpress",
        -1.0
      ],
      [
        "ĠSelf",
        -1.0
      ],
      [
        "TE",
        -1.0
      ],
      [
        "Ġwheat",
        -1.0
      ],
      [
        "Ġsurprising",
        -1.0
      ],
      [
        "Ġspots",
        -1.0
      ],
      [
        "Ġballs",
        -1.0
      ],
      [
        "ĠTalmud",
        -1.0
      ],
      [
        "ney",
        -1.0
      ],
      [
        "knowledge",
        -1.0
      ],
      [
        "Ġalarm",
        -1.0
      ],
      [
        "ida",
        -1.0
      ],
      [
        "Check",
        -1.0
      ],
      [
        "value",
        -1.0
      ],
      [
        "Ġmangrove",
        -1.0
      ],
      [
        "Ġevangel",
        -1.0
      ],
      [
        "yn",
        -1.0
      ],
      [
        "Ne",
        -1.0
      ],
      [
        "Ġobtained",
        -1.0
      ],
      [
        "arch",
        -1.0
      ],
      [
        "rry",
        -1.0
      ],
      [
        "Ġbench",
        -1.0
      ],
      [
        "rant",
        -1.0
      ],
      [
        "Ġmovements",
        -1.0
      ],
      [
        "ĠThat",
        -1.0
      ],
      [
        "Ġprolonged",
        -1.0
      ],
      [
        "ĠABC",
        -1.0
      ],
      [
        "âĢ",
        -1.0
      ],
      [
        "Ġspending",
        -1.0
      ],
      [
        "Ġreducing",
        -1.0
      ],
      [
        "Ġcolumn",
        -1.0
      ],
      [
        "Ġhome",
        -1.0
      ],
      [
        "Ġweed",
        -1.0
      ],
      [
        "ĠSwiss",
        -1.0
      ],
      [
        "Ġdinner",
        -1.0
      ],
      [
        "Ġdonated",
        -1.0
      ],
      [
        "ĠTell",
        -1.0
      ],
      [
        "Ġgrapefruit",
        -1.0
      ],
      [
        "emic",
        -1.0
      ],
      [
        "HI",
        -1.0
      ],
      [
        "Ġcustoms",
        -1.0
      ],
      [
        "ĠProp",
        -1.0
      ],
      [
        "Ġorange",
        -1.0
      ],
      [
        "Ġ73",
        -1.0
      ],
      [
        "Ġtemp",
        -1.0
      ],
      [
        "Ġreproduce",
        -1.0
      ],
      [
        "Ġmushroom",
        -1.0
      ],
      [
        "Ġall",
        -1.0
      ],
      [
        "hab",
        -1.0
      ],
      [
        "Ġminimum",
        -1.0
      ],
      [
        "Ġattain",
        -1.0
      ],
      [
        "Ġplanning",
        -1.0
      ],
      [
        "ĠPage",
        -1.0
      ],
      [
        "Ġnecessary",
        -1.0
      ],
      [
        "nds",
        -1.0
      ],
      [
        "Ġtypical",
        -1.0
      ],
      [
        "Ġpapers",
        -1.0
      ],
      [
        "Ġfashion",
        -1.0
      ],
      [
        "scopy",
        -1.0
      ],
      [
        "Ġreconstruct",
        -1.0
      ],
      [
        "bis",
        -1.0
      ],
      [
        "Ġreturned",
        -1.0
      ],
      [
        "Ġproductive",
        -1.0
      ],
      [
        "Ġsides",
        -1.0
      ],
      [
        "Ġperpendicular",
        -1.0
      ],
      [
        "Ġobstacles",
        -1.0
      ],
      [
        "fat",
        -1.0
      ],
      [
        "ĠâĢĵ",
        -1.0
      ],
      [
        "Ġdiscrimin",
        -1.0
      ],
      [
        "Ġbiologist",
        -1.0
      ],
      [
        "Ġbent",
        -1.0
      ],
      [
        "ĠN",
        -1.0
      ],
      [
        "Ġpursue",
        -1.0
      ],
      [
        "ĠLinks",
        -1.0
      ],
      [
        "Ġstarted",
        -1.0
      ],
      [
        "Ġstructures",
        -1.0
      ],
      [
        "Ġtorpedo",
        -1.0
      ],
      [
        "Ġgrace",
        -1.0
      ],
      [
        "Ġcigarette",
        -1.0
      ],
      [
        "Ġfame",
        -1.0
      ],
      [
        "Ġconcern",
        -1.0
      ],
      [
        "ĠWood",
        -1.0
      ],
      [
        "Ġmar",
        -1.0
      ],
      [
        "Israel",
        -1.0
      ],
      [
        "President",
        -1.0
      ],
      [
        "dition",
        -1.0
      ],
      [
        "urance",
        -1.0
      ],
      [
        "Ġqueen",
        -1.0
      ],
      [
        "Ġmile",
        -1.0
      ],
      [
        "ĠLo",
        -1.0
      ],
      [
        "yes",
        -1.0
      ],
      [
        "Ġanimation",
        -1.0
      ],
      [
        "Ġassumption",
        -1.0
      ],
      [
        "board",
        -1.0
      ],
      [
        "ĠPet",
        -1.0
      ],
      [
        "¿",
        -1.0
      ],
      [
        "b",
        -1.0
      ],
      [
        "Ġmagazine",
        -1.0
      ],
      [
        "DT",
        -1.0
      ],
      [
        "Ġvictims",
        -1.0
      ],
      [
        "Ġspacecraft",
        -1.0
      ],
      [
        "ĠPL",
        -1.0
      ],
      [
        "ĠCou",
        -1.0
      ],
      [
        "Ġsales",
        -1.0
      ],
      [
        "oping",
        -1.0
      ],
      [
        "ricular",
        -1.0
      ],
      [
        "Ġspecimens",
        -1.0
      ],
      [
        "Ġwhy",
        -1.0
      ],
      [
        "Symptoms",
        -1.0
      ],
      [
        "Ġsettlements",
        -1.0
      ],
      [
        "Ġlowest",
        -1.0
      ],
      [
        "Ġpreschool",
        -1.0
      ],
      [
        "ĠProfessor",
        -1.0
      ],
      [
        "ĠKenneth",
        -1.0
      ],
      [
        "Ġbuilds",
        -1.0
      ],
      [
        "Ġemployers",
        -1.0
      ],
      [
        "ĠImages",
        -1.0
      ],
      [
        "Ġtension",
        -1.0
      ],
      [
        "Ġbed",
        -1.0
      ],
      [
        "piration",
        -1.0
      ],
      [
        "Ġdiminish",
        -1.0
      ],
      [
        "Ġbiological",
        -1.0
      ],
      [
        "back",
        -1.0
      ],
      [
        "ĠPregnancy",
        -1.0
      ],
      [
        "Ġwherever",
        -1.0
      ],
      [
        "ĠSa",
        -1.0
      ],
      [
        "ĠWinnipeg",
        -1.0
      ],
      [
        "related",
        -1.0
      ],
      [
        "cious",
        -1.0
      ],
      [
        "ĠTree",
        -1.0
      ],
      [
        "Ġsedentary",
        -1.0
      ],
      [
        "ĠNar",
        -1.0
      ],
      [
        "Ġres",
        -1.0
      ],
      [
        "ĠPlay",
        -1.0
      ],
      [
        "ately",
        -1.0
      ],
      [
        "vid",
        -1.0
      ],
      [
        "Ġmiracle",
        -1.0
      ],
      [
        "Ġconcert",
        -1.0
      ],
      [
        "Ġsuppress",
        -1.0
      ],
      [
        "ĠAlbany",
        -1.0
      ],
      [
        "Ġsea",
        -1.0
      ],
      [
        "ĠAnaly",
        -1.0
      ],
      [
        "Ġrespective",
        -1.0
      ],
      [
        "Ġresolution",
        -1.0
      ],
      [
        "employ",
        -1.0
      ],
      [
        "atory",
        -1.0
      ],
      [
        "Ġliberty",
        -1.0
      ],
      [
        "Ġphrase",
        -1.0
      ],
      [
        "ĠJohn",
        -1.0
      ],
      [
        "Ġjewelry",
        -1.0
      ],
      [
        "ĠInvestiga",
        -1.0
      ],
      [
        "Ġkilling",
        -1.0
      ],
      [
        "Ġpermits",
        -1.0
      ],
      [
        "Ġsli",
        -1.0
      ],
      [
        "Ġtrees",
        -1.0
      ],
      [
        "Ġattract",
        -1.0
      ],
      [
        "Ġeyes",
        -1.0
      ],
      [
        "Ġsq",
        -1.0
      ],
      [
        "Ġencountered",
        -1.0
      ],
      [
        "ĠOhio",
        -1.0
      ],
      [
        "tility",
        -1.0
      ],
      [
        "nner",
        -1.0
      ],
      [
        "Ġsetting",
        -1.0
      ],
      [
        "cf",
        -1.0
      ],
      [
        "Ġdementia",
        -1.0
      ],
      [
        "Ġretrieval",
        -1.0
      ],
      [
        "Ġthose",
        -1.0
      ],
      [
        "William",
        -1.0
      ],
      [
        "graph",
        -1.0
      ],
      [
        "ĠWorkers",
        -1.0
      ],
      [
        "1992",
        -1.0
      ],
      [
        "ĠHitler",
        -1.0
      ],
      [
        "Ġ31",
        -1.0
      ],
      [
        "Ġadvise",
        -1.0
      ],
      [
        "Ġmol",
        -1.0
      ],
      [
        "ĠAttorney",
        -1.0
      ],
      [
        "arm",
        -1.0
      ],
      [
        "Ġaccele",
        -1.0
      ],
      [
        "/",
        -1.0
      ],
      [
        "Ġhidden",
        -1.0
      ],
      [
        "!âĢĿ",
        -1.0
      ],
      [
        "Ġvivid",
        -1.0
      ],
      [
        "vable",
        -1.0
      ],
      [
        "Ġemotional",
        -1.0
      ],
      [
        "dic",
        -1.0
      ],
      [
        "ip",
        -1.0
      ],
      [
        "ĠExplorer",
        -1.0
      ],
      [
        "58",
        -1.0
      ],
      [
        "Ġlens",
        -1.0
      ],
      [
        "Ġremoving",
        -1.0
      ],
      [
        "Ġgrowth",
        -1.0
      ],
      [
        "Ġprogression",
        -1.0
      ],
      [
        "most",
        -1.0
      ],
      [
        "Ġinvestigation",
        -1.0
      ],
      [
        "Ġserver",
        -1.0
      ],
      [
        "Ġpainful",
        -1.0
      ],
      [
        "ĠCur",
        -1.0
      ],
      [
        "ĠCeltic",
        -1.0
      ],
      [
        "ĠBridge",
        -1.0
      ],
      [
        "Ġlong",
        -1.0
      ],
      [
        "ĠUniversal",
        -1.0
      ],
      [
        "Ġstimulate",
        -1.0
      ],
      [
        "ë",
        -1.0
      ],
      [
        "Ġtubes",
        -1.0
      ],
      [
        "ī",
        -1.0
      ],
      [
        "thes",
        -1.0
      ],
      [
        "pes",
        -1.0
      ],
      [
        "Ġlimit",
        -1.0
      ],
      [
        "Ġinitiated",
        -1.0
      ],
      [
        "Ġwith",
        -1.0
      ],
      [
        "ela",
        -1.0
      ],
      [
        "you",
        -1.0
      ],
      [
        "West",
        -1.0
      ],
      [
        "ĠBow",
        -1.0
      ],
      [
        "RT",
        -1.0
      ],
      [
        "ended",
        -1.0
      ],
      [
        "ĠObservatory",
        -1.0
      ],
      [
        "Ġforeign",
        -1.0
      ],
      [
        "ĠNor",
        -1.0
      ],
      [
        "Ġdemonstrations",
        -1.0
      ],
      [
        "Ġoccup",
        -1.0
      ],
      [
        "San",
        -1.0
      ],
      [
        "OR",
        -1.0
      ],
      [
        "Ġmarket",
        -1.0
      ],
      [
        "stream",
        -1.0
      ],
      [
        "eus",
        -1.0
      ],
      [
        "Ġtreat",
        -1.0
      ],
      [
        "Ġdiscusses",
        -1.0
      ],
      [
        "ĵ",
        -1.0
      ],
      [
        "although",
        -1.0
      ],
      [
        "Ġmissed",
        -1.0
      ],
      [
        "Ġhasn",
        -1.0
      ],
      [
        "ĠMike",
        -1.0
      ],
      [
        "ĠStart",
        -1.0
      ],
      [
        "Ġdestroyed",
        -1.0
      ],
      [
        "Ġsad",
        -1.0
      ],
      [
        "ĠPopulation",
        -1.0
      ],
      [
        "ĠToday",
        -1.0
      ],
      [
        "ĠChrist",
        -1.0
      ],
      [
        "Answer",
        -1.0
      ],
      [
        "verse",
        -1.0
      ],
      [
        "Ġcrossing",
        -1.0
      ],
      [
        "ĠIII",
        -1.0
      ],
      [
        "Ġlakes",
        -1.0
      ],
      [
        "tion",
        -1.0
      ],
      [
        "Ġrecordings",
        -1.0
      ],
      [
        "Ġgenerally",
        -1.0
      ],
      [
        "Ġcame",
        -1.0
      ],
      [
        "eating",
        -1.0
      ],
      [
        "ĠDuring",
        -1.0
      ],
      [
        "Ġapproved",
        -1.0
      ],
      [
        "Ġproportion",
        -1.0
      ],
      [
        "Ġcave",
        -1.0
      ],
      [
        "C",
        -1.0
      ],
      [
        "Ed",
        -1.0
      ],
      [
        "don",
        -1.0
      ],
      [
        "dle",
        -1.0
      ],
      [
        "Ġexternal",
        -1.0
      ],
      [
        "ĠMah",
        -1.0
      ],
      [
        "Ġchains",
        -1.0
      ],
      [
        "ank",
        -1.0
      ],
      [
        "Ġcycles",
        -1.0
      ],
      [
        "ĠVA",
        -1.0
      ],
      [
        "Ġvehicles",
        -1.0
      ],
      [
        "ĠWeather",
        -1.0
      ],
      [
        "Thursday",
        -1.0
      ],
      [
        "Ġparental",
        -1.0
      ],
      [
        "Ġshrubs",
        -1.0
      ],
      [
        "Ġrare",
        -1.0
      ],
      [
        "Ġhealing",
        -1.0
      ],
      [
        "Ġbacteria",
        -1.0
      ],
      [
        "dynamic",
        -1.0
      ],
      [
        "ĠRF",
        -1.0
      ],
      [
        "Ġposit",
        -1.0
      ],
      [
        "ĠOctober",
        -1.0
      ],
      [
        "dis",
        -1.0
      ],
      [
        "ĠHealth",
        -1.0
      ],
      [
        "Ġhobby",
        -1.0
      ],
      [
        "ĠMaur",
        -1.0
      ],
      [
        "Ġmeter",
        -1.0
      ],
      [
        "Ġmoisture",
        -1.0
      ],
      [
        "Ġbroadcast",
        -1.0
      ],
      [
        "ĠCas",
        -1.0
      ],
      [
        "ĠArgentina",
        -1.0
      ],
      [
        "dated",
        -1.0
      ],
      [
        "Ġattraction",
        -1.0
      ],
      [
        "Ġreplenish",
        -1.0
      ],
      [
        "Heart",
        -1.0
      ],
      [
        "ĠVa",
        -1.0
      ],
      [
        "Ġparty",
        -1.0
      ],
      [
        "Ġinvited",
        -1.0
      ],
      [
        "Ġinstitute",
        -1.0
      ],
      [
        "ĠDor",
        -1.0
      ],
      [
        "rem",
        -1.0
      ],
      [
        "via",
        -1.0
      ],
      [
        "Ġeducating",
        -1.0
      ],
      [
        "list",
        -1.0
      ],
      [
        "Ġimmigrant",
        -1.0
      ],
      [
        "Ġaircraft",
        -1.0
      ],
      [
        "Ġresponding",
        -1.0
      ],
      [
        "Ġstrike",
        -1.0
      ],
      [
        "Ġfar",
        -1.0
      ],
      [
        "bone",
        -1.0
      ],
      [
        "Ġpeaks",
        -1.0
      ],
      [
        "ĠInjury",
        -1.0
      ],
      [
        "Ġromantic",
        -1.0
      ],
      [
        "Ġpump",
        -1.0
      ],
      [
        "tas",
        -1.0
      ],
      [
        "Ġbacked",
        -1.0
      ],
      [
        "Gene",
        -1.0
      ],
      [
        "Cor",
        -1.0
      ],
      [
        "active",
        -1.0
      ],
      [
        "Ġspreading",
        -1.0
      ],
      [
        "Ġaddiction",
        -1.0
      ],
      [
        "Ġpoverty",
        -1.0
      ],
      [
        "ĠTechnologies",
        -1.0
      ],
      [
        "ĠS",
        -1.0
      ],
      [
        "Â½",
        -1.0
      ],
      [
        "ĠNorthern",
        -1.0
      ],
      [
        "Ġrepetitive",
        -1.0
      ],
      [
        "Ġdrew",
        -1.0
      ],
      [
        "Ġusually",
        -1.0
      ],
      [
        "ĠCelsius",
        -1.0
      ],
      [
        "Coll",
        -1.0
      ],
      [
        "Ġintimate",
        -1.0
      ],
      [
        "Ġtowns",
        -1.0
      ],
      [
        "Ġpoetry",
        -1.0
      ],
      [
        "ifiers",
        -1.0
      ],
      [
        "Ġsimulations",
        -1.0
      ],
      [
        "sin",
        -1.0
      ],
      [
        "Ġexperiments",
        -1.0
      ],
      [
        "prints",
        -1.0
      ],
      [
        "inf",
        -1.0
      ],
      [
        "Ġmedications",
        -1.0
      ],
      [
        "Ġundertake",
        -1.0
      ],
      [
        "gia",
        -1.0
      ],
      [
        "Ġclassroom",
        -1.0
      ],
      [
        "Ġflowers",
        -1.0
      ],
      [
        "Ġlunar",
        -1.0
      ],
      [
        "Black",
        -1.0
      ],
      [
        "ch",
        -1.0
      ],
      [
        "Ġhepatitis",
        -1.0
      ],
      [
        "Ġcivilian",
        -1.0
      ],
      [
        "ĠCemetery",
        -1.0
      ],
      [
        "Ġinstitution",
        -1.0
      ],
      [
        "ĠMore",
        -1.0
      ],
      [
        "ĠCommunity",
        -1.0
      ],
      [
        "ĠLine",
        -1.0
      ],
      [
        "ĠPharaoh",
        -1.0
      ],
      [
        "Ġsorghum",
        -1.0
      ],
      [
        "Ġcohort",
        -1.0
      ],
      [
        "ĠBetween",
        -1.0
      ],
      [
        "Ġlasts",
        -1.0
      ],
      [
        "Ġpsalm",
        -1.0
      ],
      [
        "Ġ83",
        -1.0
      ],
      [
        "tus",
        -1.0
      ],
      [
        "Ġel",
        -1.0
      ],
      [
        "Ġwander",
        -1.0
      ],
      [
        "ĠAdmiral",
        -1.0
      ],
      [
        "ora",
        -1.0
      ],
      [
        "lex",
        -1.0
      ],
      [
        "mens",
        -1.0
      ],
      [
        "hai",
        -1.0
      ],
      [
        "Ġproduces",
        -1.0
      ],
      [
        "ĠAuschwitz",
        -1.0
      ],
      [
        "Ġorganisations",
        -1.0
      ],
      [
        "Ġveterinary",
        -1.0
      ],
      [
        "ses",
        -1.0
      ],
      [
        "Ġamid",
        -1.0
      ],
      [
        "Ġfalls",
        -1.0
      ],
      [
        "Ġhole",
        -1.0
      ],
      [
        "Ġprecursor",
        -1.0
      ],
      [
        "ene",
        -1.0
      ],
      [
        "sponsored",
        -1.0
      ],
      [
        "Ġpresumably",
        -1.0
      ],
      [
        "Ġflu",
        -1.0
      ],
      [
        "o",
        -1.0
      ],
      [
        "Ġneedles",
        -1.0
      ],
      [
        "ĠTools",
        -1.0
      ],
      [
        "Ġpercent",
        -1.0
      ],
      [
        "Ġtoday",
        -1.0
      ],
      [
        "ĠItalian",
        -1.0
      ],
      [
        "ĠTitan",
        -1.0
      ],
      [
        "ĠEnlightenment",
        -1.0
      ],
      [
        "Ġmi",
        -1.0
      ],
      [
        "CP",
        -1.0
      ],
      [
        "09",
        -1.0
      ],
      [
        "Ġpetroleum",
        -1.0
      ],
      [
        "Ġbases",
        -1.0
      ],
      [
        "Ġpath",
        -1.0
      ],
      [
        "ric",
        -1.0
      ],
      [
        "Ġextensive",
        -1.0
      ],
      [
        "at",
        -1.0
      ],
      [
        "Ġdolphin",
        -1.0
      ],
      [
        "Ġintegrate",
        -1.0
      ],
      [
        "Ġweeds",
        -1.0
      ],
      [
        "ĠPresident",
        -1.0
      ],
      [
        "sequent",
        -1.0
      ],
      [
        "Ġ2000",
        -1.0
      ],
      [
        "Ġneglect",
        -1.0
      ],
      [
        "usion",
        -1.0
      ],
      [
        "Ġstalk",
        -1.0
      ],
      [
        "ĠHiroshima",
        -1.0
      ],
      [
        "ĠPos",
        -1.0
      ],
      [
        "ĠAdobe",
        -1.0
      ],
      [
        "social",
        -1.0
      ],
      [
        "Ġsleeping",
        -1.0
      ],
      [
        "id",
        -1.0
      ],
      [
        "Among",
        -1.0
      ],
      [
        "Col",
        -1.0
      ],
      [
        "Ġelegant",
        -1.0
      ],
      [
        "Ġconstruction",
        -1.0
      ],
      [
        "Ġextinction",
        -1.0
      ],
      [
        "ib",
        -1.0
      ],
      [
        "Ġintestinal",
        -1.0
      ],
      [
        "Ġdue",
        -1.0
      ],
      [
        ",âĢĻ",
        -1.0
      ],
      [
        "Ġsuffered",
        -1.0
      ],
      [
        "Ġschemes",
        -1.0
      ],
      [
        "ĠJava",
        -1.0
      ],
      [
        "ĠHad",
        -1.0
      ],
      [
        "van",
        -1.0
      ],
      [
        "Ġcarbohydrate",
        -1.0
      ],
      [
        "ulus",
        -1.0
      ],
      [
        "Ġskeletal",
        -1.0
      ],
      [
        "ĠMoore",
        -1.0
      ],
      [
        "Ġattention",
        -1.0
      ],
      [
        "ĠIsaiah",
        -1.0
      ],
      [
        "ĠMod",
        -1.0
      ],
      [
        "ĠHope",
        -1.0
      ],
      [
        "ĠBern",
        -1.0
      ],
      [
        "Ġphylogen",
        -1.0
      ],
      [
        "ĠBritish",
        -1.0
      ],
      [
        "Learning",
        -1.0
      ],
      [
        "inging",
        -1.0
      ],
      [
        "iding",
        -1.0
      ],
      [
        "Ġmarker",
        -1.0
      ],
      [
        "Ġdemonstrating",
        -1.0
      ],
      [
        "Several",
        -1.0
      ],
      [
        "ĠTuesday",
        -1.0
      ],
      [
        "keeping",
        -1.0
      ],
      [
        "ĠCE",
        -1.0
      ],
      [
        "GB",
        -1.0
      ],
      [
        "tty",
        -1.0
      ],
      [
        "dg",
        -1.0
      ],
      [
        "cl",
        -1.0
      ],
      [
        "Ġconservative",
        -1.0
      ],
      [
        "Ġ(\"",
        -1.0
      ],
      [
        "Ġcompost",
        -1.0
      ],
      [
        "Ġvicinity",
        -1.0
      ],
      [
        "Ġanniversary",
        -1.0
      ],
      [
        "lf",
        -1.0
      ],
      [
        "ĠAC",
        -1.0
      ],
      [
        "Ġnoticed",
        -1.0
      ],
      [
        "Ġprinter",
        -1.0
      ],
      [
        "Ġholiday",
        -1.0
      ],
      [
        "Ġhis",
        -1.0
      ],
      [
        "Ġlocked",
        -1.0
      ],
      [
        "Ġclosest",
        -1.0
      ],
      [
        "ĠIndividual",
        -1.0
      ],
      [
        "The",
        -1.0
      ],
      [
        "Ġbronze",
        -1.0
      ],
      [
        "Ġviolence",
        -1.0
      ],
      [
        "Ġavailable",
        -1.0
      ],
      [
        "Ġmemorial",
        -1.0
      ],
      [
        "Ġgenerations",
        -1.0
      ],
      [
        "Hi",
        -1.0
      ],
      [
        "Ġedit",
        -1.0
      ],
      [
        "Ġmethyl",
        -1.0
      ],
      [
        "A",
        -1.0
      ],
      [
        "Ġdrawn",
        -1.0
      ],
      [
        "ke",
        -1.0
      ],
      [
        "Ġforward",
        -1.0
      ],
      [
        "Ġmethods",
        -1.0
      ],
      [
        "Ġmega",
        -1.0
      ],
      [
        "Ġlanding",
        -1.0
      ],
      [
        "ĠMag",
        -1.0
      ],
      [
        "Ġinsight",
        -1.0
      ],
      [
        "ĠChallenge",
        -1.0
      ],
      [
        "Ġbankrupt",
        -1.0
      ],
      [
        "ag",
        -1.0
      ],
      [
        "Ġbourgeois",
        -1.0
      ],
      [
        "Ġ1952",
        -1.0
      ],
      [
        "ĠSer",
        -1.0
      ],
      [
        "Ġfull",
        -1.0
      ],
      [
        "Ġcaution",
        -1.0
      ],
      [
        "ĠPDF",
        -1.0
      ],
      [
        "Ġactive",
        -1.0
      ],
      [
        "llo",
        -1.0
      ],
      [
        "Ġmemories",
        -1.0
      ],
      [
        "ĠDefense",
        -1.0
      ],
      [
        "Ġpink",
        -1.0
      ],
      [
        "Ġscience",
        -1.0
      ],
      [
        "Ġreflex",
        -1.0
      ],
      [
        "com",
        -1.0
      ],
      [
        "ĠFu",
        -1.0
      ],
      [
        "jo",
        -1.0
      ],
      [
        "Ġshock",
        -1.0
      ],
      [
        "sa",
        -1.0
      ],
      [
        "ĠBrain",
        -1.0
      ],
      [
        "Ġassociations",
        -1.0
      ],
      [
        "Ġbuses",
        -1.0
      ],
      [
        "icular",
        -1.0
      ],
      [
        "Ġlaboratories",
        -1.0
      ],
      [
        "Ġscientist",
        -1.0
      ],
      [
        "Ġbroader",
        -1.0
      ],
      [
        "ĠEven",
        -1.0
      ],
      [
        "ĠLamb",
        -1.0
      ],
      [
        "nah",
        -1.0
      ],
      [
        "Ġlarger",
        -1.0
      ],
      [
        "ĠMala",
        -1.0
      ],
      [
        "ĠBuddhism",
        -1.0
      ],
      [
        "Ġoutward",
        -1.0
      ],
      [
        "Ġcard",
        -1.0
      ],
      [
        "Ġinstalling",
        -1.0
      ],
      [
        "mont",
        -1.0
      ],
      [
        "ĠMarch",
        -1.0
      ],
      [
        "Ġembarked",
        -1.0
      ],
      [
        "Richard",
        -1.0
      ],
      [
[...]
