{
  "version": "1.0",
  "truncation": null,
  "padding": null,
  "added_tokens": [
    {
      "id": 0,
      "content": "<|bos|>",
      "single_word": false,
      "lstrip": false,
      "rstrip": false,
      "normalized": false,
      "special": true
    },
    {
      "id": 1,
      "content": "<|user_start|>",
      "single_word": false,
      "lstrip": false,
      "rstrip": false,
      "normalized": false,
      "special": true
    },
    {
      "id": 2,
      "content": "<|user_end|>",
      "single_word": false,
      "lstrip": false,
      "rstrip": false,
      "normalized": false,
      "special": true
    },
    {
      "id": 3,
      "content": "<|assistant_start|>",
      "single_word": false,
      "lstrip": false,
      "rstrip": false,
      "normalized": false,
      "special": true
    },
    {
      "id": 4,
      "content": "<|assistant_end|>",
      "single_word": false,
      "lstrip": false,
      "rstrip": false,
      "normalized": false,
      "special": true
    },
    {
      "id": 5,
      "content": "<|python_start|>",
      "single_word": false,
      "lstrip": false,
      "rstrip": false,
      "normalized": false,
      "special": true
    },
    {
      "id": 6,
      "content": "<|python_end|>",
      "single_word": false,
      "lstrip": false,
      "rstrip": false,
      "normalized": false,
      "special": true
    },
    {
      "id": 7,
      "content": "<|output_start|>",
      "single_word": false,
      "lstrip": false,
      "rstrip": false,
      "normalized": false,
      "special": true
    },
    {
      "id": 8,
      "content": "<|output_end|>",
      "single_word": false,
      "lstrip": false,
      "rstrip": false,
      "normalized": false,
      "special": true
    },
    {
      "id": 9,
      "content": "<|unk|>",
      "single_word": false,
      "lstrip": false,
      "rstrip": false,
      "normalized": false,
      "special": true
    }
  ],
  "normalizer": null,
  "pre_tokenizer": {
    "type": "Sequence",
    "pretokenizers": [
      {
        "type": "Split",
        "pattern": {
          "Regex": "'(?i:[sdmt]|ll|ve|re)|[^\\r\\n\\p{L}\\p{N}]?+\\p{L}+|\\p{N}{1,2}| ?[^\\s\\p{L}\\p{N}]++[\\r\\n]*|\\s*[\\r\\n]|\\s+(?!\\S)|\\s+"
        },
        "behavior": "Isolated",
        "invert": false
      },
      {
        "type": "ByteLevel",
        "add_prefix_space": false,
        "trim_offsets": true,
        "use_regex": false
      }
    ]
  },
  "post_processor": {
    "type": "TemplateProcessing",
    "single": [
      {
        "Sequence": {
          "id": "A",
          "type_id": 0
        }
      }
    ],
    "pair": [
      {
        "Sequence": {
          "id": "A",
          "type_id": 0
        }
      },
      {
        "Sequence": {
          "id": "B",
          "type_id": 1
        }
      }
    ],
    "special_tokens": {}
  },
  "decoder": null,
  "model": {
    "type": "Unigram",
    "unk_id": 9,
    "vocab": [
      [
        "<|bos|>",
        0.0
      ],
      [
        "<|user_start|>",
        0.0
      ],
      [
        "<|user_end|>",
        0.0
      ],
      [
        "<|assistant_start|>",
        0.0
      ],
      [
        "<|assistant_end|>",
        0.0
      ],
      [
        "<|python_start|>",
        0.0
      ],
      [
        "<|python_end|>",
        0.0
      ],
      [
        "<|output_start|>",
        0.0
      ],
      [
        "<|output_end|>",
        0.0
      ],
      [
        "<|unk|>",
        0.0
      ],
      [
        "s",
        -2.992188191298686
      ],
      [
        "Ġ",
        -3.064369000893242
      ],
      [
        "Ġthe",
        -3.5072430471274494
      ],
      [
        ",",
        -3.5591457572522174
      ],
      [
        "a",
        -3.842136220352698
      ],
      [
        ".",
        -3.845960174234498
      ],
      [
        "Ġand",
        -4.05373124975374
      ],
      [
        "Ġto",
        -4.086874606484043
      ],
      [
        "Ġof",
        -4.097977909188511
      ],
      [
        "ing",
        -4.4170964671825335
      ],
      [
        "Ġin",
        -4.554762298668264
      ],
      [
        "e",
        -4.659387879964106
      ],
      [
        "Ġis",
        -4.747129743040929
      ],
      [
        "d",
        -4.7792313053675475
      ],
      [
        "t",
        -4.79029320041081
      ],
      [
        "ed",
        -4.798749481373992
      ],
      [
        "'",
        -5.021415165248461
      ],
      [
        "y",
        -5.035430627053037
      ],
      [
        "Ġfor",
        -5.143571617690066
      ],
      [
        "Ġthat",
        -5.1462429689629445
      ],
      [
        "0",
        -5.157019026532826
      ],
      [
        "ly",
        -5.259666415734417
      ],
      [
        "1",
        -5.268299178769272
      ],
      [
        "-",
        -5.305140085112351
      ],
      [
        "Ġare",
        -5.3349428226969415
      ],
      [
        ":",
        -5.376233994420376
      ],
      [
        "Ġyou",
        -5.40819835819695
      ],
      [
        "Ġit",
        -5.4176006559588465
      ],
      [
        ".Ċ",
        -5.445264182586518
      ],
      [
        "n",
        -5.4526562224929105
      ],
      [
        ".ĊĊ",
        -5.4568242678508
      ],
      [
        "Ġwith",
        -5.498110475219502
      ],
      [
        "Ċ",
        -5.501528928913272
      ],
      [
        "2",
        -5.504872774090593
      ],
      [
        "o",
        -5.547704532035446
      ],
      [
        "Ġbe",
        -5.552414600423724
      ],
      [
        "Ġon",
        -5.600452258156386
      ],
      [
        "Ġcan",
        -5.603628640376282
      ],
      [
        "Ġas",
        -5.61484976223997
      ],
      [
        "Ġor",
        -5.635412359580965
      ],
      [
        "i",
        -5.67824647638051
      ],
      [
        "ĊĊ",
        -5.744319830259071
      ],
      [
        "r",
        -5.795575318606337
      ],
      [
        "Ġyour",
        -5.818256892535899
      ],
      [
        "Ġ(",
        -5.822645070368845
      ],
      [
        "er",
        -5.8382559365404685
      ],
      [
        "\"",
        -5.9199136762168685
      ],
      [
        "Ġhave",
        -5.9986171974670714
      ],
      [
        "ĠI",
        -6.002275656089502
      ],
      [
        "Ġfrom",
        -6.004957756069544
      ],
      [
        "ĠThe",
        -6.016417325145186
      ],
      [
        "Ġan",
        -6.078236905917425
      ],
      [
        "Ġby",
        -6.08758836513212
      ],
      [
        ")",
        -6.1082167783445005
      ],
      [
        "m",
        -6.116087375657557
      ],
      [
        "l",
        -6.117688936618784
      ],
      [
        "3",
        -6.138734103010256
      ],
      [
        "Ġthis",
        -6.173040878587411
      ],
      [
        "5",
        -6.176073193511165
      ],
      [
        "?",
        -6.191480554682357
      ],
      [
        "c",
        -6.199000695549977
      ],
      [
        "Ġat",
        -6.21249787546626
      ],
      [
        "Ġnot",
        -6.223621709102934
      ],
      [
        "al",
        -6.275376343151134
      ],
      [
        "Ġwill",
        -6.320454833067172
      ],
      [
        "4",
        -6.3482659407530235
      ],
      [
        "Ġtheir",
        -6.350077488018442
      ],
      [
        "p",
        -6.357241833200643
      ],
      [
        "in",
        -6.376870097969418
      ],
      [
        "ĠA",
        -6.446032973259124
      ],
      [
        "Ġmore",
        -6.446960991763044
      ],
      [
        "re",
        -6.458719563158516
      ],
      [
        "9",
        -6.462267605098097
      ],
      [
        "Ġthey",
        -6.4628454651955956
      ],
      [
        "Ġwas",
        -6.469645062677142
      ],
      [
        "on",
        -6.487336622381179
      ],
      [
        "or",
        -6.5071962620910835
      ],
      [
        "The",
        -6.55168085138645
      ],
      [
        "Ġwe",
        -6.557197675547446
      ],
      [
        "g",
        -6.560320760234243
      ],
      [
        "6",
        -6.589972956131442
      ],
      [
        "Ġbut",
        -6.59511195530459
      ],
      [
        "Ġhas",
        -6.605304433905562
      ],
      [
        "Ġwhich",
        -6.62092044261753
      ],
      [
        "b",
        -6.6347558596670595
      ],
      [
        "A",
        -6.671731457547013
      ],
      [
        "8",
        -6.672857576692037
      ],
      [
        "Question",
        -6.690788050153474
      ],
      [
        "Ġone",
        -6.693860575831707
      ],
      [
        "f",
        -6.701971274183929
      ],
      [
        "Ġalso",
        -6.702802373361692
      ],
      [
        "ies",
        -6.721252200172115
      ],
      [
        "ĠAnswer",
        -6.72731060271129
      ],
      [
        "7",
        -6.744292327256726
      ],
      [
        "Ġall",
        -6.767842341640524
      ],
      [
        "Ġabout",
        -6.797389884179719
      ],
      [
        "Ġother",
        -6.816437996699843
      ],
      [
        "Ġdo",
        -6.837931755028059
      ],
      [
        "Ġso",
        -6.839692076735853
      ],
      [
        "Ġwhen",
        -6.842629766083821
      ],
      [
        "ĠIt",
        -6.843128587951416
      ],
      [
        "ic",
        -6.885442545657284
      ],
      [
        "Ġtime",
        -6.887451278408831
      ],
      [
        "Ġif",
        -6.907811229191749
      ],
      [
        "ĠS",
        -6.908532520910002
      ],
      [
        "le",
        -6.922636281604248
      ],
      [
        "Ġthem",
        -6.927523808238057
      ],
      [
        "Ġuse",
        -6.929444563471286
      ],
      [
        "Ġlike",
        -6.933474858407168
      ],
      [
        "Ġinto",
        -6.93432590564651
      ],
      [
        "ation",
        -6.953862526468367
      ],
      [
        "u",
        -6.9563399639992465
      ],
      [
        "Ġmay",
        -6.957848950488144
      ],
      [
        "Ġup",
        -6.958770359280015
      ],
      [
        "ĠThis",
        -6.975023418477331
      ],
      [
        "Ġsome",
        -6.989805750025303
      ],
      [
        "ĠIn",
        -7.008055429512735
      ],
      [
        "Ġout",
        -7.010101235505049
      ],
      [
        "k",
        -7.014357840778006
      ],
      [
        "S",
        -7.015476972861407
      ],
      [
        "able",
        -7.015985780514365
      ],
      [
        "h",
        -7.024846575182277
      ],
      [
        "ion",
        -7.030241515764342
      ],
      [
        "Ġthan",
        -7.031466061592729
      ],
      [
        "/",
        -7.040299946020426
      ],
      [
        "it",
        -7.041827404078655
      ],
      [
        "ĠWhat",
        -7.054117674040576
      ],
      [
        "is",
        -7.054223888489421
      ],
      [
        "Ġwater",
        -7.0728804446275735
      ],
      [
        "Ġthese",
        -7.076939657141798
      ],
      [
        "I",
        -7.080199031649174
      ],
      [
        "ĠB",
        -7.095417257594574
      ],
      [
        "Ġhelp",
        -7.116851651728409
      ],
      [
        "Ġget",
        -7.12074305046967
      ],
      [
        "Ġthere",
        -7.121599233611592
      ],
      [
        "Ġhow",
        -7.122685962921603
      ],
      [
        "Ġwhat",
        -7.155210683987633
      ],
      [
        "w",
        -7.159627402722798
      ],
      [
        "Ġmake",
        -7.159775891015412
      ],
      [
        "Ġused",
        -7.168473065960509
      ],
      [
        "Ġwere",
        -7.171425280882943
      ],
      [
        "Ġmost",
        -7.171951101378665
      ],
      [
        "Ġour",
        -7.188020845886305
      ],
      [
        "an",
        -7.208948853461885
      ],
      [
        "Ġsuch",
        -7.224964189118936
      ],
      [
        "th",
        -7.24078966898872
      ],
      [
        "Ġany",
        -7.241128230357555
      ],
      [
        "ce",
        -7.246142346583177
      ],
      [
        "ers",
        -7.26526006389466
      ],
      [
        "ĠC",
        -7.278408367889465
      ],
      [
        "Ġbeen",
        -7.287352815293819
      ],
      [
        "Ġover",
        -7.289932311424378
      ],
      [
        "Ġnew",
        -7.294712362232072
      ],
      [
        ";",
        -7.300558318660013
      ],
      [
        "Ġpeople",
        -7.302940951665109
      ],
      [
        "Ġthrough",
        -7.312293981694204
      ],
      [
        "ve",
        -7.312824349012535
      ],
      [
        "Ġneed",
        -7.316730040467723
      ],
      [
        "ĠP",
        -7.317824792519753
      ],
      [
        "Ġshould",
        -7.3302046112969474
      ],
      [
        "Ġwould",
        -7.35465313590117
      ],
      [
        "x",
        -7.356061302663477
      ],
      [
        "Ġjust",
        -7.370479459031419
      ],
      [
        "Ġwho",
        -7.374407895964071
      ],
      [
        "Ġonly",
        -7.37895984456034
      ],
      [
        "ive",
        -7.382850503969394
      ],
      [
        "Ġwork",
        -7.3853619505727615
      ],
      [
        "Ġits",
        -7.397861373405801
      ],
      [
        "Ġwell",
        -7.402050142269633
      ],
      [
        "Ġmany",
        -7.412186906153375
      ],
      [
        "um",
        -7.415456367053162
      ],
      [
        "Ġfirst",
        -7.416569618198961
      ],
      [
        "v",
        -7.424595822400507
      ],
      [
        "Ġno",
        -7.435062523811572
      ],
      [
        "Ġhigh",
        -7.446458319949844
      ],
      [
        "B",
        -7.446532884312566
      ],
      [
        "ity",
        -7.447278674740771
      ],
      [
        "ll",
        -7.450828080661578
      ],
      [
        "Ġre",
        -7.45782852683781
      ],
      [
        "Ġtwo",
        -7.462684872818684
      ],
      [
        "ar",
        -7.471279859207245
      ],
      [
        "!",
        -7.471489502263129
      ],
      [
        "Ġdifferent",
        -7.471931657572185
      ],
      [
        "F",
        -7.473611445442334
      ],
      [
        "Ġmy",
        -7.473817441556344
      ],
      [
        "D",
        -7.47924490064343
      ],
      [
        "ĠF",
        -7.480075217796706
      ],
      [
        "Ġwhere",
        -7.493154756140889
      ],
      [
        "Ġtake",
        -7.494089112278385
      ],
      [
        "P",
        -7.511000708496805
      ],
      [
        "Ġbetween",
        -7.511116076850662
      ],
      [
        "us",
        -7.511228430932771
      ],
      [
        "C",
        -7.5162663435199235
      ],
      [
        "Ġway",
        -7.516850045090589
      ],
      [
        "Ġsee",
        -7.520363361160413
      ],
      [
        "T",
        -7.530118650552726
      ],
      [
        "M",
        -7.542459970844519
      ],
      [
        "Ġhe",
        -7.545160233827525
      ],
      [
        "Ġusing",
        -7.559154546082908
      ],
      [
        "?Ċ",
        -7.569612291392829
      ],
      [
        "ment",
        -7.575941853337655
      ],
      [
        "In",
        -7.583892529252294
      ],
      [
        "Ġknow",
        -7.58425972521248
      ],
      [
        "G",
        -7.586646117273427
      ],
      [
        "Ġpart",
        -7.586847236035684
      ],
      [
        "Ġbecause",
        -7.601113863786521
      ],
      [
        "ur",
        -7.602782595168597
      ],
      [
        "ent",
        -7.608864410210909
      ],
      [
        "Ġlook",
        -7.611898644524306
      ],
      [
        "Ġeven",
        -7.6122873987429855
      ],
      [
        "ĠIf",
        -7.6181447536913165
      ],
      [
        "Ġcould",
        -7.632138588693168
      ],
      [
        "ever",
        -7.645678244390179
      ],
      [
        "Ġsystem",
        -7.647002093858855
      ],
      [
        "Ġvery",
        -7.648636600840293
      ],
      [
        "ĠHow",
        -7.649815560364171
      ],
      [
        "Ġyears",
        -7.665452937135202
      ],
      [
        ").",
        -7.673026809954951
      ],
      [
        "ch",
        -7.676825112115656
      ],
      [
        "ĠE",
        -7.683676983549548
      ],
      [
        "Ġun",
        -7.686353853956028
      ],
      [
        "ĠâĢĵ",
        -7.687628936047293
      ],
      [
        "Ġgood",
        -7.690535527101263
      ],
      [
        "Ġmuch",
        -7.697042638463081
      ],
      [
        "Ġeach",
        -7.704951710813873
      ],
      [
        "Ġhis",
        -7.705617298868368
      ],
      [
        "Ġwant",
        -7.712525608615653
      ],
      [
        "Ġhad",
        -7.713060598648653
      ],
      [
        "ĠThey",
        -7.714402473730942
      ],
      [
        "ĠT",
        -7.717872352892453
      ],
      [
        "Ġhealth",
        -7.71987660659482
      ],
      [
        "age",
        -7.721704068254232
      ],
      [
        "?ĊĊ",
        -7.729763214148905
      ],
      [
        "Ġimportant",
        -7.731637329282943
      ],
      [
        "ĠD",
        -7.73216328366215
      ],
      [
        "Ġsmall",
        -7.738395615668104
      ],
      [
        "ĠM",
        -7.740586715315768
      ],
      [
        "Ġcell",
        -7.744553828448208
      ],
      [
        "Ġwhile",
        -7.746220197994305
      ],
      [
        "Ġprovide",
        -7.750009907292894
      ],
      [
        "ĠYou",
        -7.750191044510894
      ],
      [
        "Ġdon",
        -7.752882270336022
      ],
      [
        "Ġlong",
        -7.756694233738228
      ],
      [
        "and",
        -7.757361880176028
      ],
      [
        "Ġprocess",
        -7.770245015316515
      ],
      [
        "Ġfood",
        -7.772276127987137
      ],
      [
        "to",
        -7.772326589033707
      ],
      [
        "Ġdoes",
        -7.77287430595654
      ],
      [
        "Ġdesign",
        -7.801046266214765
      ],
      [
        "Ġafter",
        -7.801343705292473
      ],
      [
        "ter",
        -7.807330185012059
      ],
      [
        "Ġde",
        -7.814982546771244
      ],
      [
        "E",
        -7.823277795860777
      ],
      [
        "Ġthing",
        -7.829359939741959
      ],
      [
        "Ġinclude",
        -7.833924389013003
      ],
      [
        "ate",
        -7.835395698430371
      ],
      [
        "Ġworld",
        -7.835765266829775
      ],
      [
        "Ġlight",
        -7.838061078995727
      ],
      [
        "Ġenergy",
        -7.845953646200279
      ],
      [
        "made",
        -7.846884397761651
      ],
      [
        "Ġbefore",
        -7.847394204967115
      ],
      [
        "Ġdown",
        -7.855373839682606
      ],
      [
        "Ġaround",
        -7.85774457936145
      ],
      [
        "Ġcome",
        -7.863454596825699
      ],
      [
        "ĠG",
        -7.865224786613149
      ],
      [
        "Ġallow",
        -7.867947186849792
      ],
      [
        "ry",
        -7.877550333847854
      ],
      [
        "Ġduring",
        -7.878333511309957
      ],
      [
        "ĠFor",
        -7.884954188413452
      ],
      [
        "Ġsame",
        -7.885864315844948
      ],
      [
        "ĠWe",
        -7.887663758348438
      ],
      [
        "ĠTo",
        -7.89004446916209
      ],
      [
        "Ġcreate",
        -7.8920226640197
      ],
      [
        "%",
        -7.893392011916712
      ],
      [
        "Ġlife",
        -7.894698909892931
      ],
      [
        "ul",
        -7.8989260237114305
      ],
      [
        "ĠV",
        -7.900296287182652
      ],
      [
        "Ġreal",
        -7.904580714333891
      ],
      [
        "Ġbody",
        -7.905961320203147
      ],
      [
        "Ġback",
        -7.907779548472856
      ],
      [
        "),",
        -7.916427615169495
      ],
      [
        "Ġbeing",
        -7.91883245091984
      ],
      [
        "Ġthose",
        -7.923346422627544
      ],
      [
        "Ġkeep",
        -7.925204267356799
      ],
      [
        "Ġfound",
        -7.926050087174243
      ],
      [
        "Ġgo",
        -7.926123385694998
      ],
      [
        "est",
        -7.938640977757853
      ],
      [
        "Ġboth",
        -7.943721269974777
      ],
      [
        "Ġplace",
        -7.945520000010461
      ],
      [
        "Ġhome",
        -7.951529730407758
      ],
      [
        "Ġcause",
        -7.954034951979358
      ],
      [
        "H",
        -7.955083248066119
      ],
      [
        "Ġright",
        -7.955666803277976
      ],
      [
        "ness",
        -7.95610030361458
      ],
      [
        "z",
        -7.957563511508788
      ],
      [
        "Ġdata",
        -7.960165551143374
      ],
      [
        "Ġfind",
        -7.961206368192302
      ],
      [
        "V",
        -7.962995447385882
      ],
      [
        "Ġoften",
        -7.966587429256881
      ],
      [
        "R",
        -7.971719709389394
      ],
      [
        "Ġbest",
        -7.974822742018487
      ],
      [
        "Ġme",
        -7.979294515832446
      ],
      [
        "What",
        -7.981084439294634
      ],
      [
        "Ġthink",
        -7.981104344000675
      ],
      [
        "Ġyear",
        -7.9858807692998255
      ],
      [
        "Ġday",
        -7.986981559535106
      ],
      [
        "ĠN",
        -7.987320765829214
      ],
      [
        "Ġpower",
        -7.9952644798759955
      ],
      [
        "Ġgreat",
        -7.996422213797992
      ],
      [
        "ĠH",
        -8.003557030651072
      ],
      [
        "ĠRe",
        -8.005375982830898
      ],
      [
        "Ġcommon",
        -8.009060794535788
      ],
      [
        "Ġnumber",
        -8.011509460938962
      ],
      [
        "W",
        -8.013239243179788
      ],
      [
        "Ġher",
        -8.014629209568568
      ],
      [
        "Ġend",
        -8.019382407160744
      ],
      [
        "Ġinformation",
        -8.02081775742319
      ],
      [
        "(",
        -8.020976338714295
      ],
      [
        "ability",
        -8.021793023479436
      ],
      [
        "Ġcolor",
        -8.023836891951243
      ],
      [
        "Ġstudy",
        -8.02799403634227
      ],
      [
        "Ġchange",
        -8.032492611135334
      ],
      [
        ":Ċ",
        -8.045876771834704
      ],
      [
        "Ġunder",
        -8.06111244792291
      ],
      [
        "Ġdevelop",
        -8.061294005673744
      ],
      [
        "Ġper",
        -8.061936467232826
      ],
      [
        "op",
        -8.064758768053323
      ],
      [
        "Ġshow",
        -8.0664632072307
      ],
      [
        "Ġplant",
        -8.066578987134623
      ],
      [
        "Ġair",
        -8.06791868782505
      ],
      [
        "How",
        -8.069821016840255
      ],
      [
        "Ġmight",
        -8.082969273294191
      ],
      [
        "Ġform",
        -8.08491378399444
      ],
      [
        "N",
        -8.086729632506339
      ],
      [
        "Ġresearch",
        -8.087673688848293
      ],
      [
        "Ġcon",
        -8.088644957229961
      ],
      [
        "Ġlead",
        -8.089661518732402
      ],
      [
        "Ġus",
        -8.090290393447713
      ],
      [
        "ĠR",
        -8.090432115216766
      ],
      [
        "...",
        -8.093430366790457
      ],
      [
        "ĠW",
        -8.094245669971531
      ],
      [
        "Ġanimal",
        -8.09765792390772
      ],
      [
        "Ġsaid",
        -8.103029814853425
      ],
      [
        "Ġevery",
        -8.103830311384131
      ],
      [
        "Ġgrow",
        -8.106628179087885
      ],
      [
        "the",
        -8.107197497340174
      ],
      [
        "Ġlarge",
        -8.108075880653175
      ],
      [
        "This",
        -8.116242863590292
      ],
      [
        "Ġnow",
        -8.117337582254713
      ],
      [
        "Ġsupport",
        -8.118625911963276
      ],
      [
        "Ġown",
        -8.119635152102195
      ],
      [
        "ĠThese",
        -8.121186660878976
      ],
      [
        "Ġoff",
        -8.12255524597496
      ],
      [
        "Ġbetter",
        -8.125851478499051
      ],
      [
        "O",
        -8.130682635364114
      ],
      [
        "Ġbase",
        -8.132787940199606
      ],
      [
        "Ġbecome",
        -8.136256274988702
      ],
      [
        "Ġcar",
        -8.137062305244976
      ],
      [
        "Ġheat",
        -8.139495697018688
      ],
      [
        "be",
        -8.139940218116726
      ],
      [
        "Ġconsider",
        -8.147404212640101
      ],
      [
        "If",
        -8.147811931636097
      ],
      [
        "Ġfew",
        -8.15327560821291
      ],
      [
        "Ġexample",
        -8.153678080863616
      ],
      [
        "Ġwithout",
        -8.16163553785339
      ],
      [
        "less",
        -8.164286600586387
      ],
      [
        "Ġstudents",
        -8.1655574553233
      ],
      [
        "Ġsize",
        -8.16627519610137
      ],
      [
        "ant",
        -8.16705664932258
      ],
      [
        "Ġincrease",
        -8.172090721741682
      ],
      [
        "ĠO",
        -8.176205171069821
      ],
      [
        "ish",
        -8.18051688772975
      ],
      [
        "It",
        -8.18186187755794
      ],
      [
        "un",
        -8.181952700639854
      ],
      [
        "Ġtype",
        -8.183735844393667
      ],
      [
        "Ġstill",
        -8.184335407462182
      ],
      [
        "im",
        -8.186870667642827
      ],
      [
        "ĠSo",
        -8.188664033800542
      ],
      [
        "Ġmaking",
        -8.189369324112478
      ],
      [
        "Ġpoint",
        -8.190041237925147
      ],
      [
        ":ĊĊ",
        -8.19005564738905
      ],
      [
        "Ġincluding",
        -8.190488024473154
      ],
      [
        "Ġcase",
        -8.19424151613888
      ],
      [
        "Ġexperience",
        -8.194491059112313
      ],
      [
        "Ġhuman",
        -8.206651313599298
      ],
      [
        "ally",
        -8.208998564341528
      ],
      [
        "Ġissue",
        -8.209208030098743
      ],
      [
        "tic",
        -8.210339316494494
      ],
      [
        "Ġspecies",
        -8.210382231102908
      ],
      [
        "K",
        -8.210602683688723
      ],
      [
        "Ġgroup",
        -8.21814297409348
      ],
      [
        "ian",
        -8.218468147523499
      ],
      [
        "Ġadd",
        -8.222038319693548
      ],
      [
        "ther",
        -8.222799912560744
      ],
      [
        "ĠBut",
        -8.223529032725578
      ],
      [
        "Ġeffect",
        -8.225594091822456
      ],
      [
        "Ġless",
        -8.22747822792486
      ],
      [
        "Ġresult",
        -8.228743917593262
      ],
      [
        "ĠAnd",
        -8.240858937187301
      ],
      [
        "ĠU",
        -8.244909007923445
      ],
      [
        "Ġchildren",
        -8.244979695551192
      ],
      [
        "ill",
        -8.254905584549595
      ],
      [
        "ary",
        -8.258424575100351
      ],
      [
        "Ġplay",
        -8.260185844608671
      ],
      [
        "Ġlot",
        -8.26239602641664
      ],
      [
        "Ġthree",
        -8.263340637850062
      ],
      [
        "Ġcost",
        -8.26553761729466
      ],
      [
        "Ġcontrol",
        -8.270779825321068
      ],
      [
        "Ġdog",
        -8.273758139737208
      ],
      [
        "ĠL",
        -8.277068511519905
      ],
      [
        "Ġgive",
        -8.279232174980637
      ],
      [
        "out",
        -8.282989669869252
      ],
      [
        "Ġmain",
        -8.28344939236941
      ],
      [
        "known",
        -8.284865073910238
      ],
      [
        "if",
        -8.287983510583464
      ],
      [
        "Ġhard",
        -8.288710342854667
      ],
      [
        "me",
        -8.289836683946204
      ],
      [
        "Ġspace",
        -8.29073657999976
      ],
      [
        "Ġsure",
        -8.292570821192317
      ],
      [
        "L",
        -8.297168334846436
      ],
      [
        "Ġcalled",
        -8.302457462132573
      ],
      [
        "Ġwithin",
        -8.304303835768177
      ],
      [
        "Ġindividual",
        -8.306234318394951
      ],
      [
        "Ġoffer",
        -8.306727896639103
      ],
      [
        "ance",
        -8.312098716259534
      ],
      [
        "ĠK",
        -8.316752076037416
      ],
      [
        "Ġfish",
        -8.316862294000506
      ],
      [
        "Ġquestion",
        -8.318175845773043
      ],
      [
        "Ġstart",
        -8.319818467185405
      ],
      [
        "Ġmust",
        -8.320528167290352
      ],
      [
        "Ġset",
        -8.324711178146558
      ],
      [
        "Ġschool",
        -8.327826642292587
      ],
      [
        "ĠHe",
        -8.328656532960242
      ],
      [
        "ous",
        -8.334006879919484
      ],
      [
        "Ġsomething",
        -8.334880756158777
      ],
      [
        "ten",
        -8.335460681316817
      ],
      [
        "ut",
        -8.336485688496921
      ],
      [
        "Ġreduce",
        -8.33951900703714
      ],
      [
        "Ġwhy",
        -8.3443911727681
      ],
      [
        "Ġlearn",
        -8.346767556499081
      ],
      [
        "up",
        -8.349507358253591
      ],
      [
        "]",
        -8.351435950353897
      ],
      [
        "Ġfield",
        -8.353076047159472
      ],
      [
        "Ġplants",
        -8.35647611905974
      ],
      [
        "Ġb",
        -8.361831350620847
      ],
      [
        "Ġensure",
        -8.362688627481676
      ],
      [
        "Ġprevent",
        -8.366184262719848
      ],
      [
        "Ġsource",
        -8.366368232161689
      ],
      [
        "Ġline",
        -8.371269663842984
      ],
      [
        "Ġtemperature",
        -8.373359902160795
      ],
      [
        "Ġspecific",
        -8.375100992759648
      ],
      [
        "Ġfactor",
        -8.375220559101635
      ],
      [
        "Ġblood",
        -8.382417240391954
      ],
      [
        "Ġgoing",
        -8.384815704665918
      ],
      [
        "Ġshe",
        -8.386680776818027
      ],
      [
        "Ġlevel",
        -8.392338075283893
      ],
      [
        "ĠWhen",
        -8.393289987519262
      ],
      [
        "am",
        -8.393550571454373
      ],
      [
        "Ġfollowing",
        -8.393972896956132
      ],
      [
        "Ġdue",
        -8.404886047560888
      ],
      [
        "Ġreason",
        -8.405345752883274
      ],
      [
        "Ġhere",
        -8.413439746642918
      ],
      [
        "Ġdevice",
        -8.417514136198745
      ],
      [
        "Ġamount",
        -8.419298407286828
      ],
      [
        "U",
        -8.421532924378775
      ],
      [
        "ke",
        -8.423439928829172
      ],
      [
        "line",
        -8.426510229931601
      ],
      [
        "vi",
        -8.429615191564327
      ],
      [
        "Ġdevelopment",
        -8.430927170717561
      ],
      [
        "Ġlow",
        -8.4322578921678
      ],
      [
        "Ġimpact",
        -8.432690775637521
      ],
      [
        "ĠSt",
        -8.433837550128722
      ],
      [
        "Ġvarious",
        -8.4343267611316
      ],
      [
        "ĠThere",
        -8.434579448148416
      ],
      [
        "Ġpossible",
        -8.434657547944248
      ],
      [
        "Ġcare",
        -8.441229215339192
      ],
      [
        "Ġsignificant",
        -8.443394000783396
      ],
      [
        "Ġanother",
        -8.446191321465331
      ],
      [
        "Ġco",
        -8.446734095485969
      ],
      [
        "Ġmeans",
        -8.451481894034874
      ],
      [
        "Ġeffective",
        -8.457856513232954
      ],
      [
        "ĠAs",
        -8.45911565288608
      ],
      [
        "Ġnatural",
        -8.46020209167618
      ],
      [
        "Ġgeneral",
        -8.462068791385668
      ],
      [
        "Ġtest",
        -8.46263090335222
      ],
      [
        "Ġtreatment",
        -8.46525006134366
      ],
      [
        "Ġpro",
        -8.465481003119152
      ],
      [
        "Ġrequire",
        -8.465944226902478
      ],
      [
        "Ġpotential",
        -8.471120396874088
      ],
      [
        "ated",
        -8.471742894144377
      ],
      [
        "Ġalways",
        -8.471808845692076
      ],
      [
        "Ġrange",
        -8.474425159614874
      ],
      [
        "Ġstate",
        -8.474426233022971
      ],
      [
        "Ġsecond",
        -8.476322760808788
      ],
      [
        "Ġlittle",
        -8.476389364255542
      ],
      [
        "Ġfeel",
        -8.476837758290864
      ],
      [
        "ial",
        -8.477452993604327
      ],
      [
        "ĠAn",
        -8.478897501134808
      ],
      [
        "Y",
        -8.481262056574018
      ],
      [
        "Ġname",
        -8.484167152191818
      ],
      [
        "Ġdid",
        -8.484368680154407
      ],
      [
        "one",
        -8.486319730706672
      ],
      [
        "Ġhand",
        -8.48879656892517
      ],
      [
        "Ġenvironment",
        -8.49204549343014
      ],
      [
        "ĠJ",
        -8.497105830375977
      ],
      [
        "Ġproblem",
        -8.497795688228454
      ],
      [
        "ling",
        -8.49867131272653
      ],
      [
        "Ġactual",
        -8.502716736970381
      ],
      [
        "Ġmaterial",
        -8.504227261653547
      ],
      [
        "Ġlast",
        -8.510360319468857
      ],
      [
        ",\"",
        -8.511554649374007
      ],
      [
        "Ġcontain",
        -8.5238098037799
      ],
      [
        "Ġrisk",
        -8.523980791067563
      ],
      [
        "Ġnon",
        -8.525045640770813
      ],
      [
        "Ġorder",
        -8.526067166454805
      ],
      [
        "ĠWhich",
        -8.526497622509677
      ],
      [
        "Ġteam",
        -8.528674009472423
      ],
      [
        "Ġavailable",
        -8.534459798812422
      ],
      [
        "ver",
        -8.535681744854383
      ],
      [
        "act",
        -8.536866223499384
      ],
      [
        "ge",
        -8.53981788423385
      ],
      [
        "Ġdisease",
        -8.54201917923968
      ],
      [
        "Ġside",
        -8.542727045375155
      ],
      [
        "Ġcomplete",
        -8.543678213653703
      ],
      [
        "Ġdays",
        -8.544637715994092
      ],
      [
        "Ġweek",
        -8.546890678475492
      ],
      [
        "Ġquality",
        -8.548592185788863
      ],
      [
        "ure",
        -8.549249249754407
      ],
      [
        "Ġopen",
        -8.552050968061776
      ],
      [
        "Ġsurface",
        -8.553103217389811
      ],
      [
        "Ġidea",
        -8.553185934791815
      ],
      [
        "Ġcurrent",
        -8.554344379189818
      ],
      [
        "Ġleave",
        -8.554395136029527
      ],
      [
        "Ġfocus",
        -8.555824128136518
      ],
      [
        "Ġlive",
        -8.557367984623227
      ],
      [
        "Ġseveral",
        -8.55829940040186
      ],
      [
        "Ġenough",
        -8.558679908977929
      ],
      [
        "Ġpre",
        -8.558818585446666
      ],
      [
        "*",
        -8.558946569815479
      ],
      [
        "ide",
        -8.559322278306782
      ],
      [
        "Ġimprove",
        -8.563757519009435
      ],
      [
        "Ġsoil",
        -8.564113112741968
      ],
      [
        "man",
        -8.564695412337556
      ],
      [
        "Ġtext",
        -8.56582353803249
      ],
      [
        "Ġcourse",
        -8.566546804409192
      ],
      [
        "ating",
        -8.56668792694568
      ],
      [
        "Ġlocal",
        -8.57140818388548
      ],
      [
        "Ġessential",
        -8.571692694578779
      ],
      [
        "Ġ$",
        -8.573968639460666
      ],
      [
        "Ġcertain",
        -8.573990765015122
      ],
      [
        "Ġ[",
        -8.574382205321857
      ],
      [
        "Ġtypes",
        -8.576096708348171
      ],
      [
        "Ġunderstand",
        -8.58076963917745
      ],
      [
        "Ġapplication",
        -8.58166485779996
      ],
      [
        "Ġusually",
        -8.581905548913698
      ],
      [
        "Ġagain",
        -8.58403589457448
      ],
      [
        "Ġareas",
        -8.584270473234604
      ],
      [
        "Ġlearning",
        -8.584981694477985
      ],
      [
        "Ġfunction",
        -8.585193055363735
      ],
      [
        "Ġhead",
        -8.587611194317745
      ],
      [
        "Ġdamage",
        -8.588328795567453
      ],
      [
        "Ġtechnology",
        -8.592953025560623
      ],
      [
        "land",
        -8.594973435343611
      ],
      [
        "Ġfree",
        -8.599154719417974
      ],
      [
        "per",
        -8.600949574434011
      ],
      [
        "Ġmonth",
        -8.602049358306465
      ],
      [
        "When",
        -8.602164534676447
      ],
      [
        "gu",
        -8.604221315188232
      ],
      [
        "Ġ&",
        -8.604223808498354
      ],
      [
        "Ġmean",
        -8.605255587018984
      ],
      [
        "Ġage",
        -8.606349523094092
      ],
      [
        "ical",
        -8.607857946913764
      ],
      [
        "Ġneeds",
        -8.60965541526039
      ],
      [
        "Ġcreat",
        -8.611077763363769
      ],
      [
        "pe",
        -8.612117763059112
      ],
      [
        "ok",
        -8.615911946803877
      ],
      [
        "We",
        -8.618247394702081
      ],
      [
        "Ġuntil",
        -8.61893946573604
      ],
      [
        "Ġstructure",
        -8.6193354865757
      ],
      [
        "Ġrole",
        -8.619814473333458
      ],
      [
        "Ġaccess",
        -8.620286092327381
      ],
      [
        "âĢĶ",
        -8.621835512507474
      ],
      [
        "Ġeye",
        -8.62202218234094
      ],
      [
        "Ġperson",
        -8.623761974772997
      ],
      [
        "ring",
        -8.628673468259068
      ],
      [
        "not",
        -8.630030563460377
      ],
      [
        "ĠDe",
        -8.631688235345127
      ],
      [
        "ĠBe",
        -8.63600219197846
      ],
      [
        "Ġtogether",
        -8.63650097608025
      ],
      [
        "Ġsay",
        -8.636535844724087
      ],
      [
        "J",
        -8.638783189461765
      ],
      [
        "Ġpaper",
        -8.639924659895282
      ],
      [
        "Ġkey",
        -8.639963255144236
      ],
      [
        "Ġsince",
        -8.641566987784824
      ],
      [
        "Ġrun",
        -8.641987036238412
      ],
      [
        "end",
        -8.643274803912217
      ],
      [
        "You",
        -8.644019672450908
      ],
      [
        "ves",
        -8.64442299741809
      ],
      [
        "Ġconditions",
        -8.64449290408183
      ],
      [
        "Ġshort",
        -8.644993954710458
      ],
      [
        "Ġprotein",
        -8.64611660410637
      ],
      [
        "Ġpressure",
        -8.646736729324594
      ],
      [
        "Ġparticular",
        -8.650148961147714
      ],
      [
        "Ġmarket",
        -8.650315288770361
      ],
      [
        "ell",
        -8.650595987182164
      ],
      [
        "Ġtechnique",
        -8.651388171091066
      ],
      [
        "Ġcheck",
        -8.651481291820637
      ],
      [
        "Ġrate",
        -8.654429900217988
      ],
      [
        "To",
        -8.65491766885772
      ],
      [
        "ism",
        -8.655922247011103
      ],
      [
        "Ġmaintain",
        -8.65655991921388
      ],
      [
        "having",
        -8.65837279615723
      ],
      [
        "Ġ=",
        -8.659918252237137
      ],
      [
        "Ġwhite",
        -8.660158730841335
      ],
      [
        "ph",
        -8.660862136872565
      ],
      [
        "Ġdis",
        -8.662188885525751
      ],
      [
        "Ġperiod",
        -8.66268351262788
      ],
      [
        "Ġproducts",
        -8.663806859622007
      ],
      [
        "Ġnext",
        -8.665239356710957
      ],
      [
        "Ġmodel",
        -8.666422943445959
      ],
      [
        "Ġmaterials",
        -8.667558011442084
      ],
      [
        "Ġlower",
        -8.668280013919173
      ],
      [
        "Ġput",
        -8.668315092615146
      ],
      [
        "Ġaway",
        -8.668743896909305
      ],
      [
        "ĠLe",
        -8.669282568230898
      ],
      [
        "Ġfact",
        -8.670962922138678
      ],
      [
        "Ġvalue",
        -8.671144279982308
      ],
      [
        "Ġpost",
        -8.672995073842237
      ],
      [
        "Ġfull",
        -8.674146179368364
      ],
      [
        "Ġanswer",
        -8.674468108167881
      ],
      [
        "Ġgame",
        -8.676741814686636
      ],
      [
        "Ġmethod",
        -8.677457326643582
      ],
      [
        "Ġweight",
        -8.679491793787896
      ],
      [
        "Ġproject",
        -8.681980498831031
      ],
      [
        "Ġoil",
        -8.682480793833953
      ],
      [
        "ĠBy",
        -8.685121355177436
      ],
      [
        "Ġpresent",
        -8.68516386284756
      ],
      [
        "Ġfamily",
        -8.686379821537265
      ],
      [
        "Ġstrong",
        -8.686398119077127
      ],
      [
        "Ġdiet",
        -8.687455071586982
      ],
      [
        "ĠThat",
        -8.688833998568622
      ],
      [
        "âĢĵ",
        -8.695996023365886
      ],
      [
        "Ġdirect",
        -8.696984671121452
      ],
      [
        "Ġresults",
        -8.697009854191373
      ],
      [
        "There",
        -8.703190324196942
      ],
      [
        "Ġcr",
        -8.703262620258965
      ],
      [
        "Ġsun",
        -8.70327323451407
      ],
      [
        "Ġprotect",
        -8.704725731970644
      ],
      [
        "Ġlet",
        -8.706053078287484
      ],
      [
        "stead",
        -8.708437124082899
      ],
      [
        "Ġsimple",
        -8.709800418192732
      ],
      [
        "ĠUniversity",
        -8.713486833380582
      ],
      [
        "Ġvariet",
        -8.715164040725083
      ],
      [
        "Ġhealthy",
        -8.715960459423815
      ],
      [
        "Ġarea",
        -8.717414196036346
      ],
      [
        "Ġclean",
        -8.720807838115949
      ],
      [
        "Ġmakes",
        -8.721178177536018
      ],
      [
        "ful",
        -8.72300022216098
      ],
      [
        "cy",
        -8.723506925936663
      ],
      [
        "Ġcomputer",
        -8.724326197334968
      ],
      [
        "Ġtop",
        -8.72447549595216
      ],
      [
        "ow",
        -8.72448398959392
      ],
      [
        "Ġsystems",
        -8.725126970007548
      ],
      [
        "Ġproduce",
        -8.72520745514861
      ],
      [
        "Ġeasy",
        -8.725895343133528
      ],
      [
        "Ġalong",
        -8.726224778424506
      ],
      [
        "ĠNew",
        -8.726839105798833
      ],
      [
        "min",
        -8.728456922902566
      ],
      [
        "Ġlikely",
        -8.728617903669573
      ],
      [
        "Ġclear",
        -8.731972847749791
      ],
      [
        "Ġdepend",
        -8.732506673260158
      ],
      [
        "Ġground",
        -8.73291461130876
      ],
      [
        "_",
        -8.733873451310345
      ],
      [
        "early",
        -8.733874593379213
      ],
      [
        "Ġbook",
        -8.734222849955446
      ],
      [
        "Ġwide",
        -8.734499485455009
      ],
      [
        "Ġavoid",
        -8.735274424867942
      ],
      [
        "Ġsp",
        -8.735525325733274
      ],
      [
        "Ġflow",
        -8.73646671869886
      ],
      [
        "Ġturn",
        -8.738420955051723
      ],
      [
        "Ġgas",
        -8.73915004155918
      ],
      [
        "Ġstep",
        -8.74132588010186
      ],
      [
        "Ġfast",
        -8.742137883683576
      ],
      [
        "ions",
        -8.747830093753326
      ],
      [
        "Ġdoesn",
        -8.748813657330931
      ],
      [
        "ence",
        -8.750494743475652
      ],
      [
        "ory",
        -8.751698639587946
      ],
      [
        "Ġsafe",
        -8.752100950417812
      ],
      [
        "tra",
        -8.75213364404615
      ],
      [
        "Ġsimilar",
        -8.75405394156385
      ],
      [
        "mm",
        -8.75620513222823
      ],
      [
        "ĠWith",
        -8.75873557526334
      ],
      [
        "Ġmove",
        -8.759429662195583
      ],
      [
        "Ġseem",
        -8.760107101371029
      ],
      [
        "Ġdi",
        -8.760447087245236
      ],
      [
        "Ġbit",
        -8.761430921434062
      ],
      [
        "Ġlevels",
        -8.763598786262284
      ],
      [
        "Ġgarden",
        -8.764108611509606
      ],
      [
        "Ġplan",
        -8.764794879206125
      ],
      [
        "iv",
        -8.766306575425087
      ],
      [
        "self",
        -8.766415124033255
      ],
      [
        "Ġmachine",
        -8.767963469859726
      ],
      [
        "Ġtypical",
        -8.768370578766174
      ],
      [
        "ĠDo",
        -8.769215283576361
      ],
      [
        "ative",
        -8.769264860908141
      ],
      [
        "ber",
        -8.770229962594168
      ],
      [
        "Ġleast",
        -8.772362924001772
      ],
      [
        "Ġworking",
        -8.772480608905912
      ],
      [
        "ized",
        -8.774451699854794
      ],
      [
        "Ġproduction",
        -8.776655308033925
      ],
      [
        "Ġphysical",
        -8.776961586026193
      ],
      [
        "Ġcat",
        -8.777077874700439
      ],
      [
        "way",
        -8.77726113610217
      ],
      [
        "Ġunique",
        -8.778252604873002
      ],
      [
        "Ġlimit",
        -8.779605127753086
      ],
      [
        "Ġarticle",
        -8.78047433598226
      ],
      [
        "ization",
        -8.780738944386094
      ],
      [
        "Ġsocial",
        -8.785078165688866
      ],
      [
        "light",
        -8.785152002418176
      ],
      [
        "Ġlove",
        -8.785654883855322
      ],
      [
        "ub",
        -8.786914468361037
      ],
      [
        "Ġchanges",
        -8.787460604575333
      ],
      [
        "Ġgrowth",
        -8.788234528228354
      ],
      [
        "Ġclose",
        -8.788447468982667
      ],
      [
        "Ġpopulation",
        -8.788959960524366
      ],
      [
        "Ġaccording",
        -8.789750934383202
      ],
      [
        "Ġdry",
        -8.790459800388717
      ],
      [
        "Ġproblems",
        -8.791578733086968
      ],
      [
        "Ġdone",
        -8.792602716727199
      ],
      [
        "Ġprofessional",
        -8.793598405535583
      ],
      [
        "For",
        -8.797752596476343
      ],
      [
        "ice",
        -8.79868306802097
      ],
      [
        "Ġnever",
        -8.800497702429627
      ],
      [
        "Ġespecially",
        -8.800857824954651
      ],
      [
        "Ġgiven",
        -8.801093496808992
      ],
      [
        "Ġchild",
        -8.801817338348453
      ],
      [
        "âĢĻs",
        -8.803623579988686
      ],
      [
        "all",
        -8.803758212952342
      ],
      [
        "Ġeat",
        -8.804926836588933
      ],
      [
        "Ġunit",
        -8.807090519138365
      ],
      [
        "go",
        -8.807231642037612
      ],
      [
        "Ġproduct",
        -8.807320701526749
      ],
      [
        "Ġcontinue",
        -8.809882392690866
      ],
      [
        "Ġprogram",
        -8.809927049255137
      ],
      [
        "Ġskin",
        -8.811377349455242
      ],
      [
        "Ġsuggest",
        -8.811833994180947
      ],
      [
        "Ġdifficult",
        -8.81341417748468
      ],
      [
        "Ġreach",
        -8.813812980967858
      ],
      [
        "uc",
        -8.814169268316483
      ],
      [
        "Ġsingle",
        -8.816151498765088
      ],
      [
        "Ġtreat",
        -8.818277786790215
      ],
      [
        "across",
        -8.819517764338359
      ],
      [
        "Ġsub",
        -8.820075234306891
      ],
      [
        "Ġstore",
        -8.821757718425332
      ],
      [
        "Ġsea",
        -8.821952239566091
      ],
      [
        "Ġsign",
        -8.82220730742777
      ],
      [
        "Ġbusiness",
        -8.82562595909604
      ],
      [
        "Ġold",
        -8.826189116645189
      ],
      [
        "ĠSome",
        -8.82704993988067
      ],
      [
        "Ġheart",
        -8.82771706541045
      ],
      [
        "Ġcondition",
        -8.828009239381103
      ],
      [
        "Ġread",
        -8.828972076381419
      ],
      [
        "Ġbuilding",
        -8.829140053350653
      ],
      [
        "Ġregular",
        -8.830234805628201
      ],
      [
        "Ġdogs",
        -8.830269842121574
      ],
      [
        "!Ċ",
        -8.832842413156463
      ],
      [
        "Ġposition",
        -8.835538491953525
      ],
      [
        "our",
        -8.83617644988983
      ],
      [
        "âĢĻ",
        -8.839253959477663
      ],
      [
        "ium",
        -8.839282321119267
      ],
      [
        "Ġdeep",
        -8.844256936346417
      ],
      [
        "Ġask",
        -8.844434865548315
      ],
      [
        "higher",
        -8.845005822763405
      ],
      [
        "Ġfuture",
        -8.845274177662207
      ],
      [
        ")Ċ",
        -8.846343161847358
      ],
      [
        "ha",
        -8.847070070791638
      ],
      [
        "Ġcorrect",
        -8.847670959960627
      ],
      [
        "Ġclimate",
        -8.850191129933638
      ],
      [
        "Ġabove",
        -8.851008740413555
      ],
      [
        "ĠCo",
        -8.85172308581674
      ],
      [
        "Ġwhe",
        -8.852960077291598
      ],
      [
        "Ġcarbon",
        -8.85524220429798
      ],
      [
        "Ġaffect",
        -8.855331793889214
      ],
      [
        "Ġfar",
        -8.855569596357473
      ],
      [
        "Ġdifference",
        -8.856381647369155
      ],
      [
        "Ġleft",
        -8.856801516193544
      ],
      [
        "Ġamong",
        -8.858972880747402
      ],
      [
        "ĠDr",
        -8.85936184279317
      ],
      [
        "Ġbasic",
        -8.861146895419246
      ],
      [
        "ĠNo",
        -8.86182120685697
      ],
      [
        "Ġam",
        -8.862894766802302
      ],
      [
        "Ġcall",
        -8.864687630481331
      ],
      [
        "Ġtimes",
        -8.866215202295297
      ],
      [
        "ĠRo",
        -8.866882020345567
      ],
      [
        "Ġbenefits",
        -8.870441096135668
      ],
      [
        "Ġcontent",
        -8.870631212598914
      ],
      [
        "Ġspeed",
        -8.872338897449874
      ],
      [
        "Ġcomponent",
        -8.873297004546142
      ],
      [
        "Ġtry",
        -8.874619154283339
      ],
      [
        "Ġface",
        -8.875872399280297
      ],
      [
        "Ġimage",
        -8.876696750404697
      ],
      [
        "ĠLo",
        -8.87765529031945
      ],
      [
        "Ġcut",
        -8.8780354467915
      ],
      [
        "Ġdetermine",
        -8.878746124737297
      ],
      [
        "Ġyoung",
        -8.879934773791458
      ],
      [
        "ize",
        -8.881448553237963
      ],
      [
        ")ĊĊ",
        -8.88199079271933
      ],
      [
        "Ġpast",
        -8.883636581323042
      ],
      [
        "con",
        -8.88438001723218
      ],
      [
        "Ġbrain",
        -8.88479857331663
      ],
      [
        "Ġremove",
        -8.886339970844599
      ],
      [
        "Ġenjoy",
        -8.887347208599046
      ],
      [
        "Ġmajor",
        -8.888332043802357
      ],
      [
        "Ġlayer",
        -8.88849473212067
      ],
      [
        "Ġmatter",
        -8.88957022047332
      ],
      [
        "ang",
        -8.889638287285337
      ],
      [
        "Ġwarm",
        -8.890516545048072
      ],
      [
        "Ġchemical",
        -8.892808909450785
      ],
      [
        "Ġscience",
        -8.892900783075392
      ],
      [
        "Ġinterest",
        -8.89297645078448
      ],
      [
        "Ġcompare",
        -8.893631999621892
      ],
      [
        "ard",
        -8.894200879939898
      ],
      [
        "Ġresearcher",
        -8.89422620721318
      ],
      [
        "Ġfour",
        -8.894591793497202
      ],
      [
        "ect",
        -8.898069936695705
      ],
      [
        "Ġsound",
        -8.89823994569007
      ],
      [
        "Ġtraining",
        -8.899248701399774
      ],
      [
        "Ġtoday",
        -8.900803360166531
      ],
      [
        "Ġbring",
        -8.903890336253053
      ],
      [
        "âĢ¦",
        -8.904159272564398
      ],
      [
        "Ġpopular",
        -8.904385708539742
      ],
      [
        "Ġpattern",
        -8.906578697318796
      ],
      [
        "\\",
        -8.906799630372841
      ],
      [
        "Ġgreen",
        -8.908136835782607
      ],
      [
        "Ġsignal",
        -8.912165692128552
      ],
      [
        "\"ĊĊ",
        -8.912518850218232
      ],
      [
        "Ġengine",
        -8.912917250466183
      ],
      [
        "Ġmind",
        -8.913325082503517
      ],
      [
        "Ġcancer",
        -8.914654407776567
      ],
      [
        "Ġaddition",
        -8.91548991665021
      ],
      [
        "Ġbig",
        -8.915544724639187
      ],
      [
        "Ġperformance",
        -8.916451057275061
      ],
      [
        "Ġland",
        -8.91657628465715
      ],
      [
        "Ġhim",
        -8.917203750960732
      ],
      [
        "ĠOn",
        -8.918668457092203
      ],
      [
        "Ġpiece",
        -8.919825897967625
      ],
      [
        "he",
        -8.920300289999133
      ],
      [
        "Ġred",
        -8.921019304675234
      ],
      [
        "Ġregion",
        -8.921857084228636
      ],
      [
        "Ġperform",
        -8.921955834543837
      ],
      [
        "we",
        -8.922810697389382
      ],
      [
        "Ġbatter",
        -8.922880461551532
      ],
      [
        "ĠYour",
        -8.924058426472046
      ],
      [
        "Ġenvironmental",
        -8.925247900404848
      ],
      [
        "Ġmillion",
        -8.925647045878842
      ],
      [
        "Ġview",
        -8.926236704949353
      ],
      [
        "Ġrecent",
        -8.92799233439791
      ],
      [
        "Ġseed",
        -8.928929380340685
      ],
      [
        "Ġstudie",
        -8.92902151751748
      ],
      [
        "Ġbelow",
        -8.933803343373
      ],
      [
        "Ġcover",
        -8.93383669213364
      ],
      [
        "Ġnormal",
        -8.93632245057849
      ],
      [
        "Ġbelieve",
        -8.936999997711139
      ],
      [
        "Re",
        -8.940547692780896
      ],
      [
        "Ġunderstanding",
        -8.94114122594889
      ],
      [
        "ĠâĢĶ",
        -8.94149154948288
      ],
      [
        "Ġfurther",
        -8.946279433641397
      ],
      [
        "Ġparent",
        -8.94865375985039
      ],
      [
        "hi",
        -8.948658957472322
      ],
      [
        "Ġthought",
        -8.948895215725141
      ],
      [
        "Ġeither",
        -8.949081158007552
      ],
      [
        "Ġinside",
        -8.950702131723396
      ],
      [
        "Ġchoice",
        -8.951399940846338
      ],
      [
        "ible",
        -8.951569724738285
      ],
      [
        "Ġcold",
        -8.952030650261714
      ],
      [
        "Ġchallenge",
        -8.95371960464388
      ],
      [
        "Ġnear",
        -8.956800132673834
      ],
      [
        "Ġbuild",
        -8.957307591109295
      ],
      [
        "ĠMo",
        -8.957613764945396
      ],
      [
        "Ġca",
        -8.957666294067486
      ],
      [
        "air",
        -8.960822385422198
      ],
      [
        "$",
        -8.960882314172645
      ],
      [
        "Ġnecessary",
        -8.964320789909126
      ],
      [
        "ĠAmerican",
        -8.965597789050099
      ],
      [
        "Ġloss",
        -8.966481639523522
      ],
      [
        "Ġsays",
        -8.966887382471757
      ],
      [
        "Ġskills",
        -8.96706629043296
      ],
      [
        "Ġspecial",
        -8.96795184713299
      ],
      [
        "Ġtoward",
        -8.970807109001388
      ],
      [
        "Ġbuy",
        -8.971526489824988
      ],
      [
        "Ġtalk",
        -8.972179996243732
      ],
      [
        "Ġauthor",
        -8.97236653978047
      ],
      [
        "Ġmilk",
        -8.972523144264867
      ],
      [
        "Ġclass",
        -8.973623499910037
      ],
      [
        "Ġkind",
        -8.973726293453325
      ],
      [
        "Ġblack",
        -8.974285195419
      ],
      [
        "So",
        -8.97734360198809
      ],
      [
        "ak",
        -8.9777110393396
      ],
      [
        "Ġgenetic",
        -8.979512380386847
      ],
      [
        "Ġart",
        -8.979739030873251
      ],
      [
        "ture",
        -8.98015534184417
      ],
      [
        "ile",
        -8.980658471461286
      ],
      [
        ">",
        -8.981988768175107
      ],
      [
        "Ġcompany",
        -8.983830412855756
      ],
      [
        "Ġapproach",
        -8.98543355331241
      ],
      [
        "Ġtotal",
        -8.985754663899659
      ],
      [
        "Ġwhole",
        -8.985811707696616
      ],
      [
        "Ġremain",
        -8.986818879273386
      ],
      [
        "Ġreport",
        -8.986836649425541
      ],
      [
        "Ġfeatures",
        -8.988033056585822
      ],
      [
        "Ġtell",
        -8.988063949011053
      ],
      [
        "Ġhouse",
        -8.98848301642131
      ],
      [
        "Ġindustry",
        -8.988634394061918
      ],
      [
        "Ġappear",
        -8.989065231210326
      ],
      [
        "already",
        -8.989248503909199
      ],
      [
        "Ġact",
        -8.990029333865316
      ],
      [
        "over",
        -8.991269389400745
      ],
      [
        "Ġhours",
        -8.99168212882391
      ],
      [
        "Ġpurpose",
        -8.992859303167755
      ],
      [
        "living",
        -8.997218725715747
      ],
      [
        "Ġcool",
        -8.998089191739632
      ],
      [
        "ier",
        -9.000342929766209
      ],
      [
        "ĠAll",
        -9.000467039019908
      ],
      [
        "tion",
        -9.001172061544839
      ],
      [
        "Ġways",
        -9.002456108283486
      ],
      [
        "Ġtree",
        -9.002618179630032
      ],
      [
        "Ġpass",
        -9.003415913368784
      ],
      [
        "Ġflower",
        -9.004480268713277
      ],
      [
        "afety",
        -9.004797850933933
      ],
      [
        "}",
        -9.005640571806131
      ],
      [
        "Ġconcern",
        -9.006253404826417
      ],
      [
        "Ġpain",
        -9.007607713137606
      ],
      [
        "Ġcommunity",
        -9.00908228927251
      ],
      [
        "ĠCan",
        -9.012871528747883
      ],
      [
        "ĠLi",
        -9.013411846315435
      ],
      [
        "ĠAI",
        -9.013606059315116
      ],
      [
        "Ġshape",
        -9.016186930063968
      ],
      [
        "Ġneeded",
        -9.016525453147729
      ],
      [
        "Ġstress",
        -9.017355620111635
      ],
      [
        "Ġforce",
        -9.01757061072028
      ],
      [
        "Ġcomplex",
        -9.018781902378134
      ],
      [
        "ĠLa",
        -9.01889660286491
      ],
      [
        "Ġpositive",
        -9.01904343034803
      ],
      [
        "Ġhistory",
        -9.02045695037813
      ],
      [
        "Ġpersonal",
        -9.02159531115245
      ],
      [
        "As",
        -9.02445684682775
      ],
      [
        "Ġroom",
        -9.026021857238874
      ],
      [
        "ĠMa",
        -9.029287955845696
      ],
      [
        "Ġperfect",
        -9.029820915580776
      ],
      [
        "ĠOne",
        -9.02998148661926
      ],
      [
        "Ġfuel",
        -9.03051287173351
      ],
      [
        "Ġtravel",
        -9.032417622613746
      ],
      [
        "Ġbehavior",
        -9.032781149068686
      ],
      [
        "Ġstay",
        -9.034245489972458
      ],
      [
        "Ġreceive",
        -9.034451439150644
      ],
      [
        "qu",
        -9.034689599743407
      ],
      [
        "ĠRa",
        -9.037247782971113
      ],
      [
        "Ġsolution",
        -9.037463793147255
      ],
      [
        "Ġexist",
        -9.037758316570656
      ],
      [
        "Ġuser",
        -9.03799711087825
      ],
      [
        "Ġfemale",
        -9.03864485809359
      ],
      [
        "Ġmedical",
        -9.0386649464695
      ],
      [
        "by",
        -9.03970988816793
      ],
      [
        "[",
        -9.0418629241533
      ],
      [
        "Ġactivities",
        -9.042515249809824
      ],
      [
        "Ġsleep",
        -9.043202130035816
      ],
      [
        "Ġrequired",
        -9.043878587912872
      ],
      [
        "Ġnature",
        -9.045001467528998
      ],
      [
        "Ġetc",
        -9.04542585648539
      ],
      [
        "fer",
        -9.045811168241949
      ],
      [
        "ick",
        -9.045916947285308
      ],
      [
        "Ġfall",
        -9.046327932522136
      ],
      [
        "Ġsomeone",
        -9.04671153648486
      ],
      [
        "Ġmetal",
        -9.046725660228756
      ],
      [
        "Ġcountry",
        -9.047888154754736
      ],
      [
        "Ġfollow",
        -9.048020813858198
      ],
      [
        "Ġlonger",
        -9.04994532287358
      ],
      [
        ".\"Ċ",
        -9.050870572334954
      ],
      [
        "Ġex",
        -9.050883887601756
      ],
      [
        "Ġdescribe",
        -9.051390355520107
      ],
      [
        "Ġpaint",
        -9.05178551198669
      ],
      [
        "An",
        -9.051948168070885
      ],
      [
        "Ġknowledge",
        -9.056576837043856
      ],
      [
        "que",
        -9.05681368402126
      ],
      [
        "Ġhot",
        -9.057479616824317
      ],
      [
        "ack",
        -9.057679997386323
      ],
      [
        "Ġlanguage",
        -9.057820857054557
      ],
      [
        "Ġmeasure",
        -9.05862029778556
      ],
      [
        "Ġrecord",
        -9.060685833233418
      ],
      [
        "for",
        -9.061060726699989
      ],
      [
        ").Ċ",
        -9.061206903957276
      ],
      [
        "side",
        -9.062685281671696
      ],
      [
        "Ġwild",
        -9.06495356632798
      ],
      [
        "ship",
        -9.066169916393417
      ],
      [
        "gra",
        -9.066554523651778
      ],
      [
        "ex",
        -9.06834031030221
      ],
      [
        "Ġeasil",
        -9.06951665492225
      ],
      [
        "Ġentire",
        -9.07146735435409
      ],
      [
        "ner",
        -9.071803836553368
      ],
      [
        "Ġfill",
        -9.071897377984078
      ],
      [
        "Ġvehicle",
        -9.072120740003506
      ],
      [
        "Ġpet",
        -9.073380327108442
      ],
      [
        "Ġthough",
        -9.07360261034733
      ],
      [
        ".\"",
        -9.073886161107318
      ],
      [
        "Ġsense",
        -9.076945627108104
      ],
      [
        "Ġslow",
        -9.077530160458078
      ],
      [
        "Ġpractice",
        -9.079588269699702
      ],
      [
        "Ġmoney",
        -9.080720891063637
      ],
      [
        "use",
        -9.080938536919334
      ],
      [
        "Ġexercise",
        -9.081328302203602
      ],
      [
        "Ġeffort",
        -9.083974685680698
      ],
      [
        "Ġpublic",
        -9.084145490235551
      ],
      [
        "ade",
        -9.084258773192284
      ],
      [
        "Ġmass",
        -9.084578690167596
      ],
      [
        "Ġaction",
        -9.08458041346578
      ],
      [
        "j",
        -9.085221035038783
      ],
      [
        "Ġlist",
        -9.085528841307788
      ],
      [
        "Ġtaking",
        -9.085583094254442
      ],
      [
        "Ġcrucial",
        -9.089288590949478
      ],
      [
        "lin",
        -9.089344994329922
      ],
      [
        "Ġrest",
        -9.089400427572215
      ],
      [
        "form",
        -9.094221139501196
      ],
      [
        "Ġactivity",
        -9.094748962928364
      ],
      [
        "Ġassociated",
        -9.09582607375875
      ],
      [
        "Ġsymptoms",
        -9.097905044058692
      ],
      [
        "Ġfun",
        -9.098645128284918
      ],
      [
        "Ġwalk",
        -9.0993018750742
      ],
      [
        "Ġman",
        -9.101537045222694
      ],
      [
        "Ġmethods",
        -9.10423815546285
      ],
      [
        "gen",
        -9.10519203356796
      ],
      [
        "Ġchoose",
        -9.106131979865832
      ],
      [
        "Ġbalance",
        -9.106814463663682
      ],
      [
        "Ġsample",
        -9.107438110472714
      ],
      [
        "ĠAt",
        -9.108284416347006
      ],
      [
        "Ġfire",
        -9.108769538026198
      ],
      [
        "Ġonline",
        -9.108779895058568
      ],
      [
        "Ġtools",
        -9.110469826915695
      ],
      [
        "Ġtask",
        -9.110834359278504
      ],
      [
        "Ġterms",
        -9.113178070989704
      ],
      [
        "Ġdoing",
        -9.113930896338491
      ],
      [
        "Ġself",
        -9.115466290831016
      ],
      [
        "Ġfruit",
        -9.117561292156193
      ],
      [
        "Ġglobal",
        -9.117681277165506
      ],
      [
        "Ġoverall",
        -9.120036662103256
      ],
      [
        "ĠBo",
        -9.12075374378484
      ],
      [
        "+",
        -9.120855383910047
      ],
      [
        "ĠOr",
        -9.121134669169564
      ],
      [
        "Ġtrees",
        -9.1252408656379
      ],
      [
        "ign",
        -9.125489780139098
      ],
      [
        "Ġlocation",
        -9.12653912452586
      ],
      [
        "X",
        -9.127088672577257
      ],
      [
        "Ġhold",
        -9.127464869045204
      ],
      [
        "Ġrather",
        -9.12870552844549
      ],
      [
        "Ġal",
        -9.129309511128618
      ],
      [
        "Ġvideo",
        -9.130785443495352
      ],
      [
        "Ġseason",
        -9.1314198922547
      ],
      [
        "Ġcode",
        -9.132004595037372
      ],
      [
        "Ġresources",
        -9.132042975416391
      ],
      [
        "Ġtarget",
        -9.132152365640096
      ],
      [
        "Ġwomen",
        -9.132152461793387
      ],
      [
        "ities",
        -9.134636372148808
      ],
      [
        "Ġaverage",
        -9.136332794034589
      ],
      [
        "ash",
        -9.13702980241395
      ],
      [
        "ug",
        -9.137767945213753
      ],
      [
        "Ġrelationship",
        -9.139160863409437
      ],
      [
        "Ġpatients",
        -9.14000438832302
      ],
      [
        "Ġsolar",
        -9.141224018469478
      ],
      [
        "Ġwinter",
        -9.141508762163989
      ],
      [
        "Ġlater",
        -9.142228237824188
      ],
      [
        "Ġbreak",
        -9.142573794922216
      ],
      [
        "Ġwood",
        -9.142958699320909
      ],
      [
        "Ġaddress",
        -9.14405062395934
      ],
      [
        "Ġjob",
        -9.144062449181405
      ],
      [
        "-base",
        -9.14406875685994
      ],
      [
        "Ġstop",
        -9.144249481109847
      ],
      [
        "Ġfeed",
        -9.144500652654532
      ],
      [
        "Ġmanagement",
        -9.145860508552378
      ],
      [
        "Ġselect",
        -9.145879315391266
      ],
      [
        "Ġgot",
        -9.14591266335909
      ],
      [
        "port",
        -9.146582090685122
      ],
      [
        "ĠCon",
        -9.150709715456776
      ],
      [
        "Ġplastic",
        -9.15600563680174
      ],
      [
        "Ġdiscover",
        -9.158158126469864
      ],
      [
        "und",
        -9.158372705008263
      ],
      [
        "ĠCa",
        -9.158696677713134
      ],
      [
        "Ġprobabl",
        -9.158948972122872
      ],
      [
        "Ġlarger",
        -9.15907175791576
      ],
      [
        "Ġminutes",
        -9.159162152896124
      ],
      [
        "ĠZ",
        -9.160430350218672
      ],
      [
        "ĠHa",
        -9.16169792061718
      ],
      [
        "ĠShe",
        -9.161719574983
      ],
      [
        "ĠAl",
        -9.162526541815224
      ],
      [
        "day",
        -9.163902864769009
      ],
      [
        "Ġvi",
        -9.165115176348962
      ],
      [
        "Ġdigital",
        -9.165817069528336
      ],
      [
        "Ġguide",
        -9.168766829656828
      ],
      [
        "of",
        -9.169426169140658
      ],
      [
        "Ġterm",
        -9.169869114447703
      ],
      [
        "Ġstage",
        -9.171965569649222
      ],
      [
        "ster",
        -9.173174430549356
      ],
      [
        "Ġmodern",
        -9.174039021719766
      ],
      [
        "Ġrelated",
        -9.174116642791413
      ],
      [
        "Ġquickly",
        -9.1761521341678
      ],
      [
        "Ġhappen",
        -9.17804759509209
      ],
      [
        "ĠHo",
        -9.178111085686268
      ],
      [
        "Ġnetwork",
        -9.178421150358218
      ],
      [
        "Ġoperation",
        -9.180107788067176
      ],
      [
        "ose",
        -9.180214096000327
      ],
      [
        "=",
        -9.18075178647164
      ],
      [
        "Ġconcept",
        -9.182268461373493
      ],
      [
        "Ġmix",
        -9.183001571124784
      ],
      [
        "Ġwaste",
        -9.185660419568585
      ],
      [
        "ĠSp",
        -9.185771046737877
      ],
      [
        "Ġpay",
        -9.185880198754136
      ],
      [
        "gg",
        -9.185933947918354
      ],
      [
        "low",
        -9.189465180292824
      ],
      [
        "ĠY",
        -9.189741266061588
      ],
      [
        "where",
        -9.192525898448675
      ],
      [
        "Ġlength",
        -9.19297163806161
      ],
      [
        "Ġmo",
        -9.19373465352355
      ],
      [
        "Ġservice",
        -9.194344649966402
      ],
      [
        "Ġfive",
        -9.194399147362777
      ],
      [
        "Ġenhance",
        -9.19461321009888
      ],
      [
        "Ġtraditional",
        -9.195556722251924
      ],
      [
        "ction",
        -9.19556407845879
      ],
      [
        "Ġsimply",
        -9.19676343905832
      ],
      [
        "Ġregard",
        -9.196764694411572
      ],
      [
        "Ġnight",
        -9.197073490026629
      ],
      [
        "Ġcontact",
        -9.197507008912437
      ],
      [
        "Ġrule",
        -9.197664134305942
      ],
      [
        "Ġprimar",
        -9.19821737722534
      ],
      [
        "Ġattention",
        -9.198245212732948
      ],
      [
        "Ġfront",
        -9.198582401999928
      ],
      [
        "ĠWhile",
        -9.198686165886135
      ],
      [
        "Ġbad",
        -9.198803324002252
      ],
      [
        "Ġinvolve",
        -9.200275951462332
      ],
      [
        "Ġexplain",
        -9.200279078496845
      ],
      [
        "ĠScience",
        -9.200423812972929
      ],
      [
        "however",
        -9.200482267592491
      ],
      [
        "ĠPo",
        -9.201096567026209
      ],
      [
        "Ġmultiple",
        -9.20202600372875
      ],
      [
        "Ġothers",
        -9.202134133222648
      ],
      [
        "Ġdegree",
        -9.203458997100956
      ],
      [
        "Ġrelative",
        -9.204953419551142
      ],
      [
        "Ġstrateg",
        -9.205288023511828
      ],
      [
        "Ġoutside",
        -9.20760034333244
      ],
      [
        "Ġrelease",
        -9.209384581570736
      ],
      [
        "Ġresponse",
        -9.210198335033615
      ],
      [
        "Ġmovement",
        -9.210256566877252
      ],
      [
        "izing",
        -9.211776389894393
      ],
      [
        "den",
        -9.212770308330052
      ],
      [
        "Ġidentify",
        -9.21396340279831
      ],
      [
        "Ġwind",
        -9.215571461172935
      ],
      [
        "ology",
        -9.21882910627992
      ],
      [
        "own",
        -9.219353542680777
      ],
      [
        "Ġreturn",
        -9.219493155208053
      ],
      [
        "Ġstyle",
        -9.220204149956857
      ],
      [
        "Ġsite",
        -9.220393625662428
      ],
      [
        "Ġhalf",
        -9.220834426441677
      ],
      [
        "set",
        -9.221426536446517
      ],
      [
        "Ġhumans",
        -9.22151605172095
      ],
      [
        "ran",
        -9.222461119185857
      ],
      [
        "Many",
        -9.222750039323117
      ],
      [
        "ivity",
        -9.224374947096765
      ],
      [
        "ping",
        -9.224669535633756
      ],
      [
        "ular",
        -9.226115492802606
      ],
      [
        "Ġkill",
        -9.227252836275747
      ],
      [
        "Ġsubject",
        -9.2276362582047
      ],
      [
        "Ġsensor",
        -9.228499711733855
      ],
      [
        "ĠDNA",
        -9.228504362676563
      ],
      [
        "Ġtri",
        -9.2306275615802
      ],
      [
        "Ġequipment",
        -9.230700191066806
      ],
      [
        "Ġdrive",
        -9.230726127925257
      ],
      [
        "|",
        -9.232248999514084
      ],
      [
        "ĠGr",
        -9.235474814316458
      ],
      [
        "Ġwon",
        -9.235830666316806
      ],
      [
        "Ġeducation",
        -9.236200334081236
      ],
      [
        "Ġfat",
        -9.236283856247075
      ],
      [
        "Ġcenter",
        -9.23651430097061
      ],
      [
        "ĠEarth",
        -9.23763402558382
      ],
      [
        "Ġtool",
        -9.238342088594475
      ],
      [
        "nder",
        -9.239307705027889
      ],
      [
        "Ġbar",
        -9.23965105612046
      ],
      [
        "Ġgenerate",
        -9.24059463508028
      ],
      [
        "Ġshare",
        -9.241099447026023
      ],
      [
        "Ġadditional",
        -9.243238274094242
      ],
      [
        "ĠEx",
        -9.243563283545102
      ],
      [
        "ember",
        -9.243576010564103
      ],
      [
        "Ġprovid",
        -9.24381921492352
      ],
      [
        "Ġeyes",
        -9.244535534624394
      ],
      [
        "Ġefficient",
        -9.245257484460431
      ],
      [
        "Ġsugar",
        -9.246971522228025
      ],
      [
        "Ġsometime",
        -9.247745151324
      ],
      [
        "ze",
        -9.248232349391364
      ],
      [
        "Ġalmost",
        -9.249353868475149
      ],
      [
        "Ġserve",
        -9.249942581698056
      ],
      [
        "ĠHere",
        -9.250716926786268
      ],
      [
        "Ġproperties",
        -9.250857981340584
      ],
      [
        "Ġrepresent",
        -9.25139748383286
      ],
      [
        "Ġpercent",
        -9.253061157063335
      ],
      [
        "Ġsummer",
        -9.253236535552478
      ],
      [
        "ene",
        -9.25385646166908
      ],
      [
        "Ġexplore",
        -9.253903122452222
      ],
      [
        "Ġsetting",
        -9.254595328586166
      ],
      [
        "Ġreview",
        -9.254975739032696
      ],
      [
        "Ġscreen",
        -9.255193688743084
      ],
      [
        "Ġcl",
        -9.255407757418048
      ],
      [
        "Ġoriginal",
        -9.255726813114409
      ],
      [
        "Ġacid",
        -9.258966140824413
      ],
      [
        "ble",
        -9.259156667647918
      ],
      [
        "Ġfinal",
        -9.260086817786604
      ],
      [
        "ng",
        -9.2605404046338
      ],
      [
        "Ġrecommend",
        -9.261489027387544
      ],
      [
        "Ġeasie",
        -9.262869410040269
      ],
      [
        "Ġthemsel",
        -9.263280805091728
      ],
      [
        "yourself",
        -9.265684787307809
      ],
      [
        "Ġservices",
        -9.265753264735007
      ],
      [
        "Ġbreed",
        -9.266617031359647
      ],
      [
        "ler",
        -9.268935893318329
      ],
      [
        "tri",
        -9.26945159417585
      ],
      [
        "Ġoptions",
        -9.27145901081331
      ],
      [
        "Ġapp",
        -9.273135361459971
      ],
      [
        "ĠMar",
        -9.273174727283925
      ],
      [
        "Ġstandard",
        -9.27350688204297
      ],
      [
        "ĠNational",
        -9.273626991263214
      ],
      [
        "Ġaccount",
        -9.273819780511747
      ],
      [
        "Ġreading",
        -9.27463046835164
      ],
      [
        "ĠDi",
        -9.275251301324008
      ],
      [
        "Ġactive",
        -9.275748586213592
      ],
      [
        "Ġproper",
        -9.276803267410298
      ],
      [
        "let",
        -9.277072699116474
      ],
      [
        "ĠSu",
        -9.277215964002622
      ],
      [
        "ight",
        -9.27760422404771
      ],
      [
        "Ġorganization",
        -9.279670500961103
      ],
      [
        "Ġspot",
        -9.28002087116892
      ],
      [
        "ĠUnited",
        -9.280398937099488
      ],
      [
        "Ġsuccessful",
        -9.280673107902771
      ],
      [
        "Ġcamera",
        -9.28191835886576
      ],
      [
        "art",
        -9.283547875736296
      ],
      [
        "mer",
        -9.283638543936476
      ],
      [
        "qui",
        -9.284688717740966
      ],
      [
        "Ġgovernment",
        -9.285042204681847
      ],
      [
        "Ġachieve",
        -9.285124560963794
      ],
      [
        "ĠX",
        -9.285246128041116
      ],
      [
        "Ġstory",
        -9.285969338236765
      ],
      [
        "Ġeggs",
        -9.289643379279234
      ],
      [
        "Ġparticle",
        -9.289977199303085
      ],
      [
        "Ġfarm",
        -9.291945036597552
      ],
      [
        "Ġmu",
        -9.292113034427675
      ],
      [
        "ger",
        -9.29284891530435
      ],
      [
        "Ġbirds",
        -9.29337543919446
      ],
      [
        "ĠPro",
        -9.293726779729468
      ],
      [
        "Ġnegative",
        -9.294037542376117
      ],
      [
        "Ġwebsite",
        -9.294052609471928
      ],
      [
        "Ġever",
        -9.294733783092571
      ],
      [
        "pp",
        -9.294799075320968
      ],
      [
        "Ġvisit",
        -9.29506012462868
      ],
      [
        "Ġsave",
        -9.297340341650896
      ],
      [
        "Ġdark",
        -9.297624261167858
      ],
      [
        "Ġadvantage",
        -9.298132547495374
      ],
      [
        "Ġfresh",
        -9.298885641640588
      ],
      [
        "Ġelements",
        -9.30073838008446
      ],
      [
        "men",
        -9.300741484403556
      ],
      [
        "cent",
        -9.301264149127068
      ],
      [
        "Ġbr",
        -9.301843541652048
      ],
      [
        "Ġreduc",
        -9.30367151563586
      ],
      [
        "Ġmeat",
        -9.303769550474165
      ],
      [
        "Ġcharacter",
        -9.304061855822606
      ],
      [
        "Ġtable",
        -9.30409794364024
      ],
      [
        "Ġdirection",
        -9.305444808227914
      ],
      [
        "Ġtissue",
        -9.305546092010594
      ],
      [
        "Ġcycle",
        -9.305895853996809
      ],
      [
        "Ġinter",
        -9.306040192341268
      ],
      [
        "Ġanalysis",
        -9.30639248775482
      ],
      [
        "Ġgain",
        -9.308055762513275
      ],
      [
        "Ġcollect",
        -9.308482086103892
      ],
      [
        "ĠSouth",
        -9.30972332879715
      ],
      [
        "Ġweather",
        -9.309780954825818
      ],
      [
        "Ġblue",
        -9.310077190801444
      ],
      [
        "Ġquite",
        -9.310538336684694
      ],
      [
        "Ġspread",
        -9.311243834413576
      ],
      [
        "One",
        -9.311282011726544
      ],
      [
        "Ġprevious",
        -9.312182583013604
      ],
      [
        "Ġkids",
        -9.3128559956347
      ],
      [
        "Ġinsect",
        -9.312981516831195
      ],
      [
        "ists",
        -9.314771961705482
      ],
      [
        "Ġcharge",
        -9.31522897823726
      ],
      [
        "Ġoption",
        -9.31583291096883
      ],
      [
        "Ġscientists",
        -9.31741598726554
      ],
      [
        "ecause",
        -9.317743397250764
      ],
      [
        "Ġplayer",
        -9.317787076476057
      ],
      [
        "ches",
        -9.318847354508977
      ],
      [
        "red",
        -9.31969710894769
      ],
      [
        "ki",
        -9.319926495456505
      ],
      [
        "Ġfeet",
        -9.320415263204303
      ],
      [
        "Ġexperiment",
        -9.32150966215675
      ],
      [
        "Ġcook",
        -9.32253227259025
      ],
      [
        "Ġvegetable",
        -9.323061148861273
      ],
      [
        "Ġsupply",
        -9.323061402515211
      ],
      [
        "tract",
        -9.323858329365574
      ],
      [
        "Ġbehind",
        -9.32390363339151
      ],
      [
        "Q",
        -9.32424618088604
      ],
      [
        "Ġmentioned",
        -9.324907824831858
      ],
      [
        "ĠUse",
        -9.32595359675277
      ],
      [
        "mp",
        -9.326826497036794
      ],
      [
        "Ġstar",
        -9.329000187241832
      ],
      [
        "Ġexact",
        -9.329236966781982
      ],
      [
        "Ġgene",
        -9.3301353413318
      ],
      [
        "Ġsh",
        -9.331619579945
      ],
      [
        "Ġago",
        -9.331702392710966
      ],
      [
        "ĠAfter",
        -9.33239863264339
      ],
      [
        "Ġfinding",
        -9.333401130370303
      ],
      [
        "Ġyet",
        -9.334327336367917
      ],
      [
        "Ġtend",
        -9.335783312839188
      ],
      [
        "Ġstarted",
        -9.336621374064514
      ],
      [
        "Ġear",
        -9.336643996701874
      ],
      [
        "once",
        -9.33775559184902
      ],
      [
        "Ġtrying",
        -9.338809565610193
      ],
      [
        "Ġtrue",
        -9.33920569382791
      ],
      [
        "Ġeverything",
        -9.339503841048032
      ],
      [
        "mat",
        -9.341977653117867
      ],
      [
        "ear",
        -9.34469272864095
      ],
      [
        "Ġmemory",
        -9.345182915460224
      ],
      [
        "ail",
        -9.34788421872207
      ],
      [
        "Ġextra",
        -9.347897588633897
      ],
      [
        "RE",
        -9.34809601298357
      ],
      [
        "Ġfit",
        -9.348452272443174
      ],
      [
        "Ġwall",
        -9.35146222764201
      ],
      [
        "Ġconnect",
        -9.35161942121971
      ],
      [
        "Why",
        -9.352387256193698
      ],
      [
        "Ġvisual",
        -9.35295293425632
      ],
      [
        "ward",
        -9.352974025904398
      ],
      [
        "ven",
        -9.353158181715044
      ],
      [
        "Ġdeal",
        -9.353374698673443
      ],
      [
        "Ġwords",
        -9.353447376578265
      ],
      [
        "ĠCar",
        -9.35407125993808
      ],
      [
        "Ġfine",
        -9.355736937940758
      ],
      [
        "Ġbacteria",
        -9.3559998511056
      ],
      [
        "Ġcircuit",
        -9.359039327817364
      ],
      [
        "ĠMe",
        -9.35923095391337
      ],
      [
        "Ġstand",
        -9.359264673699284
      ],
      [
        "Ġbrand",
        -9.359519004669096
      ],
      [
        "Ġinfluence",
        -9.359616958439403
      ],
      [
        "Ġmedia",
        -9.359939298276435
      ],
      [
        "Ġfoods",
        -9.360333788497703
      ],
      [
        "Ġhorse",
        -9.360786766550511
      ],
      [
        "Ġnote",
        -9.361172785845614
      ],
      [
        "Ġwave",
        -9.3630128087199
      ],
      [
        "daily",
        -9.36525699840895
      ],
      [
        "ĠHealth",
        -9.36699469138189
      ],
      [
        "Ġtopic",
        -9.36726346566713
      ],
      [
        "Ġfl",
        -9.370439815226096
      ],
      [
        "life",
        -9.370725345614352
      ],
      [
        "Ġsix",
        -9.372961061243958
      ],
      [
        "Ġmeet",
        -9.374587334026682
      ],
      [
        "lthough",
        -9.375110302306004
      ],
      [
        "gainst",
        -9.375193414389432
      ],
      [
        "Ġelectric",
        -9.376922332216758
      ],
      [
        "Ġsection",
        -9.376959543860767
      ],
      [
        "Ġconstant",
        -9.37752628322167
      ],
      [
        "Ġwatch",
        -9.377569698468273
      ],
      [
        "rop",
        -9.378330874874308
      ],
      [
        "work",
        -9.378418220159285
      ],
      [
        "Ġindicate",
        -9.37913756136205
      ],
      [
        "Ġstem",
        -9.37931275593369
      ],
      [
        "Ġcontribute",
        -9.37960123123608
      ],
      [
        "Ġapply",
        -9.379976254973847
      ],
      [
        "cu",
        -9.380385424649711
      ],
      [
        "ĠSe",
        -9.380477323220774
      ],
      [
        "Ġmusic",
        -9.38087418119488
      ],
      [
        "Ġsalt",
        -9.381526060880574
      ],
      [
        "Ġcustomer",
        -9.381715208638887
      ],
      [
        "Ġsearch",
        -9.382965505733182
      ],
      [
        "Ġspring",
        -9.383256184337622
      ],
      [
        "Ġcleaning",
        -9.384063225399435
      ],
      [
        "âĢĿ",
        -9.38617342566424
      ],
      [
        "Ġbio",
        -9.387827807972734
      ],
      [
        "Ġpick",
        -9.388429150993485
      ],
      [
        "Ġcommunication",
        -9.391118299055954
      ],
      [
        "Ġconduct",
        -9.39227728542975
      ],
      [
        "time",
        -9.39296775518402
      ],
      [
        "Ġmental",
        -9.393750827609004
      ],
      [
        "ach",
        -9.39402525019966
      ],
      [
        "lat",
        -9.394523126731798
      ],
      [
        "Ġmodels",
        -9.39528643143829
      ],
      [
        "Ġculture",
        -9.395394326334062
      ],
      [
        "head",
        -9.396747239284188
      ],
      [
        "ware",
        -9.397390587116949
      ],
      [
        "Ġevidence",
        -9.398172853699569
      ],
      [
        "But",
        -9.398264638803742
      ],
      [
        "Ġdidn",
        -9.398963375664971
      ],
      [
        "Ġma",
        -9.40045284846304
      ],
      [
        "-in",
        -9.400612336567988
      ],
      [
        "Ġliquid",
        -9.401808186924972
      ],
      [
        "Ġdocument",
        -9.402718854260332
      ],
      [
        "Ġtank",
        -9.404546541784985
      ],
      [
        "ER",
        -9.404919292489424
      ],
      [
        "Ġobject",
        -9.406521055589618
      ],
      [
        "Ġseparate",
        -9.406630260080934
      ],
      [
        "lan",
        -9.40719473885276
      ],
      [
        "Ġdistance",
        -9.407289000511346
      ],
      [
        "Ġmicro",
        -9.407433185949248
      ],
      [
        "Ġleg",
        -9.407757914934164
      ],
      [
        "Ġeveryone",
        -9.408093190164074
      ],
      [
        "Ġhair",
        -9.408276213728104
      ],
      [
        "Ġprotection",
        -9.408346596487288
      ],
      [
        "Ġefficienc",
        -9.408671433887957
      ],
      [
        "Ġtrack",
        -9.409125622155472
      ],
      [
        "har",
        -9.409735495011178
      ],
      [
        "ĠMay",
        -9.410692406843848
      ],
      [
        "fully",
        -9.411775725224995
      ],
      [
        "ĠStates",
        -9.412441416641396
      ],
      [
        "Ġroad",
        -9.412602117983418
      ],
      [
        "Ġmonitor",
        -9.413713082822524
      ],
      [
        "Ġnotice",
        -9.414085122096338
      ],
      [
        "Ġprice",
        -9.415150120384803
      ],
      [
        "Ġcount",
        -9.41528937491929
      ],
      [
        "Ġprovided",
        -9.416277305966492
      ],
      [
        "Ġcapacit",
        -9.417460736595544
      ],
      [
        "Ġscientific",
        -9.418329239367724
      ],
      [
        "Ġaspect",
        -9.418339966016632
      ],
      [
        "Ġsoftware",
        -9.418673707383531
      ],
      [
        "Ġcritical",
        -9.42041819436585
      ],
      [
        "aking",
        -9.420465181714397
      ],
      [
        "Ġice",
        -9.420616309897015
      ],
      [
        "Ġanti",
        -9.42208050075732
      ],
      [
        "**",
        -9.42358103929068
      ],
      [
        "amp",
        -9.423872345903266
      ],
      [
        "Ġbo",
        -9.424144729022364
      ],
      [
        "Ġlack",
        -9.42548585345376
      ],
      [
        "Ġcountr",
        -9.426165089269745
      ],
      [
        "Ġremember",
        -9.426695281466388
      ],
      [
        "Ġbenefit",
        -9.427000745616294
      ],
      [
        "Ġmulti",
        -9.427550690698173
      ],
      [
        "Ġdream",
        -9.42762949778306
      ],
      [
        "Ġelse",
        -9.427848296192046
      ],
      [
        "Ġfinish",
        -9.428634626474686
      ],
      [
        "Ġcross",
        -9.428642958556464
      ],
      [
        "Ġinstall",
        -9.429484473502258
      ],
      [
        "Ġworks",
        -9.429593204435928
      ],
      [
        "Ġgr",
        -9.430140855573043
      ],
      [
        "Ġaim",
        -9.430208705590974
      ],
      [
        "Ġtouch",
        -9.430714220645305
      ],
      [
        "Ġenter",
        -9.4309207362812
      ],
      [
        "Ġwar",
        -9.43101789142069
      ],
      [
        "Ġcity",
        -9.431368036798863
      ],
      [
        "Ġburn",
        -9.43348650497821
      ],
      [
        "ious",
        -9.43363180137822
      ],
      [
        "Ġeating",
        -9.434425582405842
      ],
      [
        "Ġproduced",
        -9.435222679614425
      ],
      [
        "Ġprocesses",
        -9.435747251344791
      ],
      [
        "Ġteacher",
        -9.435755080379312
      ],
      [
        "Can",
        -9.435930211687236
      ],
      [
        "Ġextend",
        -9.437018051769751
      ],
      [
        "Ġdoctor",
        -9.437208115361123
      ],
      [
        "Ġsteps",
        -9.437761593367238
      ],
      [
        "pl",
        -9.437791364502
      ],
      [
        "Ġroot",
        -9.43800623474191
      ],
      [
        "ck",
        -9.438028243908844
      ],
      [
        "Ġhope",
        -9.438716809636276
      ],
      [
        "Ġstrength",
        -9.440065351621485
      ],
      [
        "ĠNe",
        -9.440312711674142
      ],
      [
        "ĠCr",
        -9.44098246879357
      ],
      [
        "Ġblock",
        -9.441282879469062
      ],
      [
        "Ġcap",
        -9.441432855771692
      ],
      [
        "Ġdisplay",
        -9.441811468631537
      ],
      [
        "Ġimp",
        -9.441827475488548
      ],
      [
        "Ġalternative",
        -9.442817948717307
      ],
      [
        "Ġelectrical",
        -9.443794764688516
      ],
      [
        "che",
        -9.444396676316783
      ],
      [
        "ult",
        -9.444684779836376
      ],
      [
        "Ġstudent",
        -9.444854197468416
      ],
      [
        "Ġappropriate",
        -9.445399900579694
      ],
      [
        "Ġexpert",
        -9.4472343575359
      ],
      [
        "Do",
        -9.447325441342358
      ],
      [
        "Ġmanage",
        -9.447387680191977
      ],
      [
        "Ġdemand",
        -9.447452524132643
      ],
      [
        "ĠâĢľ",
        -9.447492940823432
      ],
      [
        "ĠNot",
        -9.447635207568885
      ],
      [
        "Ġlink",
        -9.449698959995224
      ],
      [
        "Ġingredient",
        -9.450301870345063
      ],
      [
        "Ġinstruction",
        -9.451272735481377
      ],
      [
        "hal",
        -9.45154349591715
      ],
      [
        "Ġpage",
        -9.451690212747316
      ],
      [
        "Ġseries",
        -9.452340764625802
      ],
      [
        "king",
        -9.452990110098623
      ],
      [
        "Ġrecommended",
        -9.45363122132312
      ],
      [
        "...ĊĊ",
        -9.45380582931816
      ],
      [
        "bu",
        -9.454505090465473
      ],
      [
        "ything",
        -9.454649974736284
      ],
      [
        "press",
        -9.456375771341062
      ],
      [
        "pos",
        -9.456991645466744
      ],
      [
        "ĠWorld",
        -9.457158139448875
      ],
      [
        "Ġinvolved",
        -9.45921724516258
      ],
      [
        "Ġevent",
        -9.459848578248728
      ],
      [
        "Ġsuper",
        -9.460471626686678
      ],
      [
        "Ġlate",
        -9.46096131564055
      ],
      [
        "Ġtips",
        -9.462886075248012
      ],
      [
        "Ġwear",
        -9.467292964604283
      ],
      [
        "Ġflavor",
        -9.467651720582849
      ],
      [
        "Ġplate",
        -9.467965308118549
      ],
      [
        "-to",
        -9.468182438420698
      ],
      [
        "Ġemission",
        -9.468800070426802
      ],
      [
        ".S",
        -9.469856665987784
      ],
      [
        "ric",
        -9.470065661547432
      ],
      [
        "ĠMy",
        -9.470204598401637
      ],
      [
        "ĠTa",
        -9.470235090790789
      ],
      [
        "ĠSchool",
        -9.47071718757822
      ],
      [
        "Ġearth",
        -9.471296638450768
      ],
      [
        "Ġgear",
        -9.471705239098767
      ],
      [
        "ĠNorth",
        -9.472782061895703
      ],
      [
        "Ġrequirement",
        -9.47295979775788
      ],
      [
        "Ġli",
        -9.473163083516216
      ],
      [
        "Ġitems",
        -9.47337763013687
      ],
      [
        "par",
        -9.473384985672876
      ],
      [
        "Ġcats",
        -9.473951744606431
      ],
      [
        "Ġbird",
        -9.47478136493007
      ],
      [
        "uff",
        -9.475182797271485
      ],
      [
        "Ġgoal",
        -9.47532304842924
      ],
      [
        "Ġchance",
        -9.47554375778376
      ],
      [
        "Ġsoft",
        -9.476449017172978
      ],
      [
        "Ġshows",
        -9.476466066708
      ],
      [
        "Ġsuccess",
        -9.477875042292004
      ],
      [
        "ification",
        -9.479181576457805
      ],
      [
        "Ġstorage",
        -9.479524222124256
      ],
      [
        "Ġforest",
        -9.479851705401488
      ],
      [
        "Ġcharacteristic",
        -9.48142387722465
      ],
      [
        "ja",
        -9.481713739209148
      ],
      [
        "chi",
        -9.483577249608503
      ],
      [
        "kin",
        -9.484101652645691
      ],
      [
        "Ġbuilt",
        -9.484394408964215
      ],
      [
        "Be",
        -9.484865859799369
      ],
      [
        "Ġpot",
        -9.48610450655827
      ],
      [
        "Ġ--",
        -9.49172614843387
      ],
      [
        "Ġfilm",
        -9.492317300965173
      ],
      [
        "Ġversion",
        -9.492323166937917
      ],
      [
        "Ġrepair",
        -9.494325520790982
      ],
      [
        "Ġconnection",
        -9.4945636364925
      ],
      [
        "ants",
        -9.495780830806716
      ],
      [
        "Ġcame",
        -9.496594849306824
      ],
      [
        "Ġscale",
        -9.496819922515702
      ],
      [
        "Ġmotor",
        -9.497478636139595
      ],
      [
        "water",
        -9.497495862059443
      ],
      [
        "ĠUS",
        -9.498020892671876
      ],
      [
        "Ġorganic",
        -9.498230230765044
      ],
      [
        "Ġisn",
        -9.499411048843594
      ],
      [
        "Ġmaintenance",
        -9.500118956971262
      ],
      [
        "log",
        -9.500212027055824
      ],
      [
        "Ġinitial",
        -9.500296559897416
      ],
      [
        "Ġpo",
        -9.50083565832226
      ],
      [
        "Ġbi",
        -9.501150038690058
      ],
      [
        "Ġoccur",
        -9.501741752608831
      ],
      [
        "ĠOf",
        -9.50200550569701
      ],
      [
        "ES",
        -9.502173417899575
      ],
      [
        "ĠAmerica",
        -9.503020706095878
      ],
      [
        "Ġpoints",
        -9.503410705640468
      ],
      [
        "Ġoutput",
        -9.503678471143823
      ],
      [
        "Ġattack",
        -9.504315932145271
      ],
      [
        "Ġword",
        -9.504637257760589
      ],
      [
        "Ġfigure",
        -9.504653608814152
      ],
      [
        "ĠMi",
        -9.505147792922148
      ],
      [
        "Ġrunning",
        -9.505422433778955
      ],
      [
        "Ġadapt",
        -9.506360874534051
      ],
      [
        "pro",
        -9.506662936230118
      ],
      [
        "Ġmale",
        -9.506933426029526
      ],
      [
        "Ġmolecule",
        -9.50695286846006
      ],
      [
        "Ġimages",
        -9.507334537001572
      ],
      [
        "Ġswitch",
        -9.509886886023352
      ],
      [
        "uch",
        -9.510790166636758
      ],
      [
        "ĠResearch",
        -9.510975458260845
      ],
      [
        "companie",
        -9.51164575727982
      ],
      [
        "Ġfrequent",
        -9.512390768301344
      ],
      [
        "Ġchain",
        -9.51245064575518
      ],
      [
        "Ġcontext",
        -9.512477047938052
      ],
      [
        "Ġmoving",
        -9.512591556910625
      ],
      [
        "ries",
        -9.51259836750314
      ],
      [
        "Ġcauses",
        -9.51297851141264
      ],
      [
        "Ġequal",
        -9.513974871855083
      ],
      [
        "Ġfeeling",
        -9.514058931418662
      ],
      [
        "Ġtaste",
        -9.51523584689328
      ],
      [
        "com",
        -9.515475502815258
      ],
      [
        "ink",
        -9.51655669120877
      ],
      [
        "Ġdetect",
        -9.517103583541328
      ],
      [
        "ĠBr",
        -9.517165152976071
      ],
      [
        "ĠYes",
        -9.517892752849695
      ],
      [
        "Ġideal",
        -9.517952448594016
      ],
      [
        "Ġimmediate",
        -9.518510115100709
      ],
      [
        "Ġfeature",
        -9.518755851524334
      ],
      [
        "Ġuseful",
        -9.519536022601727
      ],
      [
        "Ġarm",
        -9.522242971779058
      ],
      [
        "Ġwire",
        -9.522257368143723
      ],
      [
        "Ġbegin",
        -9.522807245237193
      ],
      [
        "ĠAre",
        -9.523620749892237
      ],
      [
        "Ġfabric",
        -9.52363833079444
      ],
      [
        "Ġdoor",
        -9.523832680273753
      ],
      [
        "Ġreplace",
        -9.524127428780105
      ],
      [
        "ple",
        -9.525066614998174
      ],
      [
        "Ġcrop",
        -9.52558106098286
      ],
      [
        "cal",
        -9.526377785962882
      ],
      [
        "more",
        -9.526814442040516
      ],
      [
        "len",
        -9.526852109931957
      ],
      [
        "Ġcarry",
        -9.529360915914264
      ],
      [
        "Ġhandle",
        -9.530259895225688
      ],
      [
        "Ġmembers",
        -9.531610117668428
      ],
      [
        "Ġstick",
        -9.531954577897451
      ],
      [
        "Ġcur",
        -9.532455130485346
      ],
      [
        "rat",
        -9.533915833956923
      ],
      [
        "Ġdecrease",
        -9.534628942052326
      ],
      [
        "care",
        -9.536496978431243
      ],
      [
        "#",
        -9.536872349103644
      ],
      [
        "Ġclaim",
        -9.537288400345943
      ],
      [
        "Ġload",
        -9.538268163300236
      ],
      [
        "OR",
        -9.538398365033496
      ],
      [
        "ĠCh",
        -9.538571957672282
      ],
      [
        "Ġeconomic",
        -9.539367071662928
      ],
      [
        "Ġdrop",
        -9.539464005316724
      ],
      [
        "Ġcombination",
        -9.539637225709368
      ],
      [
        "Ġworth",
        -9.539672502556966
      ],
      [
        "qua",
        -9.54040473703628
      ],
      [
        "Ġpatient",
        -9.54081973564595
      ],
      [
        "ttle",
        -9.541064011483392
      ],
      [
        "Ġplann",
        -9.541685824594396
      ],
      [
        "ĠMon",
        -9.542411560497522
      ],
      [
        "Ġglass",
        -9.5452271224446
      ],
      [
        "Ġhabitat",
        -9.546186152668644
      ],
      [
        "Ġteeth",
        -9.546520635810744
      ],
      [
        "Ġball",
        -9.546802250842012
      ],
      [
        "ĠWhy",
        -9.548310778520252
      ],
      [
        "ria",
        -9.548857286662887
      ],
      [
        "Ġencourage",
        -9.549681466715963
      ],
      [
        "Ġdesire",
        -9.549691884646888
      ],
      [
        "Ġprint",
        -9.550382964184998
      ],
      [
        "ĠWar",
        -9.55076685412612
      ],
      [
        "Ġphotograph",
        -9.551050830448526
      ],
      [
        "Ġfo",
        -9.551399932829492
      ],
      [
        "lar",
        -9.551456453339323
      ],
      [
        "Ġserious",
        -9.551802271819728
      ],
      [
        "Ġsoon",
        -9.552135187560737
      ],
      [
        "Ġpublished",
        -9.55239816854969
      ],
      [
        "ĠWho",
        -9.55306732083296
      ],
      [
        "ibility",
        -9.553896569631984
      ],
      [
        "Ġpull",
        -9.55397017830466
      ],
      [
        "Ġobtain",
        -9.554972483358878
      ],
      [
        "ĠFrom",
        -9.556460509470131
      ],
      [
        "AR",
        -9.557020083644202
      ],
      [
        "ĠMost",
        -9.557343725050108
      ],
      [
        "Z",
        -9.55805925489043
      ],
      [
        "Ġpair",
        -9.558184295967646
      ],
      [
        "ome",
        -9.558843278210263
      ],
      [
        "Ġfile",
        -9.559986432762738
      ],
      [
        "While",
        -9.560728395451264
      ],
      [
        "Ġelectronic",
        -9.561615655307332
      ],
      [
        "Ġpump",
        -9.562352313008656
      ],
      [
        "Ġpretty",
        -9.56242849558225
      ],
      [
        "Ġslight",
        -9.563209936501575
      ],
      [
        "Ġgeneration",
        -9.56356254417128
      ],
      [
        "Ġ+",
        -9.56428121395934
      ],
      [
        "Ġsolid",
        -9.566626816823684
      ],
      [
        "ST",
        -9.56788594241148
      ],
      [
        "Ġimportanc",
        -9.56902982841756
      ],
      [
        "Ġfund",
        -9.569637408269491
      ],
      [
        "Ġwrite",
        -9.569735150345632
      ],
      [
        "val",
        -9.57045300135264
      ],
      [
        "Ġbottom",
        -9.571015641974869
      ],
      [
        "Ġfilter",
        -9.571027746511142
      ],
      [
        "Ġcollection",
        -9.57285524675477
      ],
      [
        "older",
        -9.573355375108491
      ],
      [
        "Ġgoe",
        -9.573421038603549
      ],
      [
        "Ġnoise",
        -9.574338220590423
      ],
      [
        "Ġresistance",
        -9.574593504705373
      ],
      [
        "Ġinput",
        -9.574851994852835
      ],
      [
        "Ġcouple",
        -9.57642363428739
      ],
      [
        "Ġmatch",
        -9.576721871448576
      ],
      [
        "Ġrich",
        -9.5768984604996
      ],
      [
        "Ġsequence",
        -9.578558956049791
      ],
      [
        "Ġdisorder",
        -9.578649742024902
      ],
      [
        "ĠAls",
        -9.578694123423835
      ],
      [
        "Ġdeath",
        -9.578979179051183
      ],
      [
        "Ġfluid",
        -9.57969621154052
      ],
      [
        "Ġpath",
        -9.580106739118929
      ],
      [
        "Ġmoment",
        -9.580422554993428
      ],
      [
        "With",
        -9.581091506341332
      ],
      [
        "Ġwriting",
        -9.581344980548138
      ],
      [
        "Ġdeliver",
        -9.581448317924853
      ],
      [
        "Ġpa",
        -9.581473473750457
      ],
      [
        "Ġtemperatures",
        -9.581526746228352
      ],
      [
        "Ġreaction",
        -9.582720510531797
      ],
      [
        "Using",
        -9.583041625083538
      ],
      [
        "Ġenable",
        -9.583091187132736
      ],
      [
        "ĠTh",
        -9.583722466932205
      ],
      [
        "Ġnothing",
        -9.58380198056332
      ],
      [
        "Ġreflect",
        -9.584609385435812
      ],
      [
        "Ġdraw",
        -9.584822394534411
      ],
      [
        "fish",
        -9.585887606694971
      ],
      [
        "Ġplatform",
        -9.5873417328241
      ],
      [
        "Ġexcellen",
        -9.587356245666706
      ],
      [
        "Ġfloor",
        -9.587357210359311
      ],
      [
        "board",
        -9.587787102843588
      ],
      [
        "Ġvitamin",
        -9.5884169121476
      ],
      [
        "Ġdate",
        -9.588423836113872
      ],
      [
        "friendly",
        -9.588962927393071
      ],
      [
        "Ġdiseases",
        -9.58938646898698
      ],
      [
        "Ġpoor",
        -9.58999567200274
      ],
      [
        "ĠMore",
        -9.590243765154447
      ],
      [
        "een",
        -9.590330653222347
      ],
      [
        "nes",
        -9.590795267208282
      ],
      [
        "Ġlives",
        -9.591099873040122
      ],
      [
        "Ġlaw",
        -9.591548481590756
      ],
      [
        "Ġbaby",
        -9.59282665498505
      ],
      [
        "Ġusers",
        -9.59301715873642
      ],
      [
        "Ġportion",
        -9.596022526111812
      ],
      [
        "-A",
        -9.596397728933018
      ],
      [
        "By",
        -9.597776975267408
      ],
      [
        "hen",
        -9.598723240211662
      ],
      [
        "Ġadjust",
        -9.59893576151414
      ],
      [
        "ock",
        -9.601781401995355
      ],
      [
        "Ġrain",
        -9.602201141381848
      ],
      [
        "Ġcooking",
        -9.602249994187556
      ],
      [
        "Ġcontainer",
        -9.603213979329034
      ],
      [
        "Ġjoint",
        -9.603307810526072
      ],
      [
        "Ġpi",
        -9.605091017892075
      ],
      [
        "Ġmineral",
        -9.60539127986189
      ],
      [
        "Ġbike",
        -9.60553284026821
      ],
      [
        "â",
        -9.606082148751462
      ],
      [
        "Ġobjects",
        -9.606429755901091
      ],
      [
        "Ġsustainabl",
        -9.606615252378235
      ],
      [
        "No",
        -9.607124028820303
      ],
      [
        "Ġconstruction",
        -9.607825763814487
      ],
      [
        "Ġyellow",
        -9.608362220560007
      ],
      [
        "Ġboard",
        -9.610121065406387
      ],
      [
        "Ġocean",
        -9.610604677275388
      ],
      [
        "van",
        -9.6118658366419
      ],
      [
        "Ġincreasing",
        -9.61323993917888
      ],
      [
        "Ġsuitabl",
        -9.61388274260328
      ],
      [
        "Ġinteraction",
        -9.61550917606067
      ],
      [
        "Ġbasi",
        -9.616071470526034
      ],
      [
        "Ġsmooth",
        -9.617356207638368
      ],
      [
        "yond",
        -9.617491446140995
      ],
      [
        "Ġresponsible",
        -9.617887077659375
      ],
      [
        "oli",
        -9.618111254562915
      ],
      [
        "Ġoxygen",
        -9.619618398529472
      ],
      [
        "lock",
        -9.620372636880496
      ],
      [
        "Ġsituation",
        -9.62171536813256
      ],
      [
        "Ġrefer",
        -9.623570169752352
      ],
      [
        "Ġready",
        -9.624044692263237
      ],
      [
        "Ma",
        -9.6242701382721
      ],
      [
        "Ġpush",
        -9.625296847208444
      ],
      [
        "ĠOur",
        -9.625659163950663
      ],
      [
        "cho",
        -9.625946664586712
      ],
      [
        "Ġgenes",
        -9.62718806859502
      ],
      [
        "Ġedge",
        -9.627204989569346
      ],
      [
        "app",
        -9.6273037865084
      ],
      [
        "Ġprojects",
        -9.627463554644567
      ],
      [
        "Co",
        -9.62833263884659
      ],
      [
        "ou",
        -9.628815531249696
      ],
      [
        "Ġfr",
        -9.628819969482006
      ],
      [
        "âĢ¢",
        -9.629056521782571
      ],
      [
        "Â",
        -9.629784805212738
      ],
      [
        "Ġrec",
        -9.631331161486129
      ],
      [
        "Ġdiscuss",
        -9.632252066564778
      ],
      [
        "Ġprograms",
        -9.634111800943828
      ],
      [
        "Ġvolume",
        -9.634440875014976
      ],
      [
        "Ġdecision",
        -9.634907645561029
      ],
      [
        "||",
        -9.635761099699613
      ],
      [
        "Al",
        -9.636630882250907
      ],
      [
        "my",
        -9.636648207067646
      ],
      [
        "Ġestimate",
        -9.636733663077203
      ],
      [
        "Ġconsist",
        -9.636963218769871
      ],
      [
        "properly",
        -9.637217501324985
      ],
      [
        "elect",
        -9.637805300561444
      ],
      [
        "Ġla",
        -9.638116741871904
      ],
      [
        "Ch",
        -9.63833889373462
      ],
      [
        "Ġexpect",
        -9.639842033462486
      ],
      [
        "Ġgl",
        -9.639951604093165
      ],
      [
        "rie",
        -9.640401009518452
      ],
      [
        "Ġmen",
        -9.640545457731829
      ],
      [
        "Ġrecognize",
        -9.641357087901174
      ],
      [
        "Ġfoot",
        -9.642015568075625
      ],
      [
        "Ġhear",
        -9.64205102567361
      ],
      [
        "late",
        -9.642293916048036
      ],
      [
        "ĠGo",
        -9.64244889905746
      ],
      [
        "Ġcutting",
        -9.642737213950342
      ],
      [
        "{",
        -9.642856971041391
      ],
      [
        "IT",
        -9.643522015200602
      ],
      [
        "He",
        -9.643536925451832
      ],
      [
        "Ġbrown",
        -9.643807900469684
      ],
      [
        "Ġpan",
        -9.644391178774836
      ],
      [
        "Ġupon",
        -9.644508516496884
      ],
      [
        "Ġstone",
        -9.644724884897323
      ],
      [
        "Ġpowerful",
        -9.645905276780177
      ],
      [
        "Ġha",
        -9.646723368329996
      ],
      [
        "Ġvision",
        -9.648253875710996
      ],
      [
        "Ġphoto",
        -9.648748781824104
      ],
      [
        "Ġlesson",
        -9.649133979167877
      ],
      [
        "Ġframe",
        -9.649512414099505
      ],
      [
        "Ġrock",
        -9.649653249833356
      ],
      [
        "Ġheavy",
        -9.650654761611344
      ],
      [
        "Ġsell",
        -9.651372143078085
      ],
      [
        "top",
        -9.651486681791551
      ],
      [
        "Ġnumbers",
        -9.65272079260797
      ],
      [
        "Ġevents",
        -9.652892232888082
      ],
      [
        "On",
        -9.655118786568051
      ],
      [
        "ung",
        -9.65639763494326
      ],
      [
        "Ġhost",
        -9.65659927698218
      ],
      [
        "-p",
        -9.657327763012796
      ],
      [
        "Ġhappens",
        -9.657474644416308
      ],
      [
        "Ġvary",
        -9.657946697945668
      ],
      [
        "Ġadult",
        -9.658172477977404
      ],
      [
        "east",
        -9.661029521411614
      ],
      [
        "Ġbeautiful",
        -9.661217553046804
      ],
      [
        "giving",
        -9.661260312064051
      ],
      [
        "Ġfiber",
        -9.66133140103034
      ],
      [
        "Ġpromote",
        -9.661799719666696
      ],
      [
        "Ġrare",
        -9.662662597771796
      ],
      [
        "These",
        -9.662804195076514
      ],
      [
        "Ġfe",
        -9.662809683396103
      ],
      [
        "went",
        -9.662989644941348
      ],
      [
        "Ġsort",
        -9.664512686232609
      ],
      [
        "rate",
        -9.665570695954322
      ],
      [
        "uck",
        -9.665907059126235
      ],
      [
        "ham",
        -9.666609333360874
      ],
      [
        "Ġpractices",
        -9.667127400904144
      ],
      [
        "And",
        -9.667211568965122
      ],
      [
        "ĠPh",
        -9.667802311402715
      ],
      [
        "Ġprogress",
        -9.668886394793784
      ],
      [
        "-b",
        -9.669333242086529
      ],
      [
        "Ġdead",
        -9.670217075916732
      ],
      [
        "ĠState",
        -9.67045275646726
      ],
      [
        "IN",
        -9.670573824376454
      ],
      [
        "Ġroof",
        -9.67189478095938
      ],
      [
        "Ġvoltage",
        -9.671995909178085
      ],
      [
        "Ġgrass",
        -9.67217347795498
      ],
      [
        "Ġexpensive",
        -9.673087129255078
      ],
      [
        "Ġinstance",
        -9.673104376385322
      ],
      [
        "Ġintroduce",
        -9.673440051354348
      ],
      [
        "Ġteaching",
        -9.673657060099558
      ],
      [
        "Ġwin",
        -9.673657374045456
      ],
      [
        "Ġfight",
        -9.674365914346865
      ],
      [
        "ĠTra",
        -9.674461892665368
      ],
      [
        "ition",
        -9.675468857231127
      ],
      [
        "Ġwrong",
        -9.675478136958017
      ],
      [
        "Ġchang",
        -9.676761907671306
      ],
      [
        "Ġensur",
        -9.677465272017908
      ],
      [
        "-up",
        -9.677586542373492
      ],
      [
        "Ġlocated",
        -9.677884606580012
      ],
      [
        "ified",
        -9.678164032794111
      ],
      [
        "Ġbag",
        -9.678882771630168
      ],
      [
        "pen",
        -9.67944882040015
      ],
      [
        "Ġcurrently",
        -9.679623410660495
      ],
      [
        "Ġshift",
        -9.680284397318252
      ],
      [
        "nic",
        -9.68075911141984
      ],
      [
        "Ġchicken",
        -9.681489369830068
      ],
      [
        "Ġpurchase",
        -9.68209951389914
      ],
      [
        "rus",
        -9.68238104869989
      ],
      [
        "ĠNow",
        -9.684249491764948
      ],
      [
        "Ġcausing",
        -9.685114247454685
      ],
      [
        "hu",
        -9.685283886844877
      ],
      [
        "Ġnest",
        -9.68546458634128
      ],
      [
        "Ġtherapy",
        -9.686872713851567
      ],
      [
        "Ġmuscle",
        -9.687057633152142
      ],
      [
        "Some",
        -9.687962865740126
      ],
      [
        "Ġcoast",
        -9.689435429079072
      ],
      [
        "ĠAir",
        -9.68997443761473
      ],
      [
        "-term",
        -9.690205491982134
      ],
      [
        "ept",
        -9.691502081381635
      ],
      [
        "Ġconnected",
        -9.691914495060924
      ],
      [
        "Ġcolour",
        -9.692449020435744
      ],
      [
        "Ġwonder",
        -9.692614801691576
      ],
      [
        "Ġmap",
        -9.694950715964756
      ],
      [
        "ĠVi",
        -9.695193496383286
      ],
      [
        "Ġadding",
        -9.695428491235669
      ],
      [
        "Ġwait",
        -9.69777613080425
      ],
      [
        "Ġvalues",
        -9.697957168698554
      ],
      [
        "bin",
        -9.698031165095456
      ],
      [
        "Ġcompound",
        -9.698482299669829
      ],
      [
        "Ġconvert",
        -9.698504593834098
      ],
      [
        "ĠCO",
        -9.698848785302031
      ],
      [
        "Ġmechanism",
        -9.69970698800211
      ],
      [
        "Ġthird",
        -9.69970863264482
      ],
      [
        "lid",
        -9.700255922922246
      ],
      [
        "lost",
        -9.700519596438554
      ],
      [
        "Ġmeaning",
        -9.701617757403667
      ],
      [
        "Ġsecurity",
        -9.702139003232904
      ],
      [
        "Ġprinciple",
        -9.702162459028042
      ],
      [
        "Ġsevere",
        -9.702616650729532
      ],
      [
        "ĠâĢ¦",
        -9.702769973873291
      ],
      [
        "ĠGa",
        -9.702781423645703
      ],
      [
        "applied",
        -9.703264476833915
      ],
      [
        "loc",
        -9.704990903544594
      ],
      [
        "Ġrise",
        -9.705230542402075
      ],
      [
        "Ġsolutions",
        -9.70541099484403
      ],
      [
        "Step",
        -9.706235682268057
      ],
      [
        "Ġmark",
        -9.706894108607734
      ],
      [
        "ĠAdditional",
        -9.708281059989098
      ],
      [
        "Ġtrain",
        -9.708920872392104
      ],
      [
        "gan",
        -9.710843564363689
      ],
      [
        "Ġmouth",
        -9.711143182862145
      ],
      [
        "Ġinfection",
        -9.7120679833983
      ],
      [
        "ĠCor",
        -9.71256440016211
      ],
      [
        "ĠMake",
        -9.712622303276891
      ],
      [
        "Ġbright",
        -9.713710487408264
      ],
      [
        "ĠPer",
        -9.713911226757224
      ],
      [
        "rian",
        -9.713913500181436
      ],
      [
        "Ġaid",
        -9.714211646913764
      ],
      [
        "AL",
        -9.714611920182088
      ],
      [
        "Ġelectricity",
        -9.715365001179068
      ],
      [
        "Ġelement",
        -9.7168137263375
      ],
      [
        "Ġstates",
        -9.716858108146852
      ],
      [
        "Ġconsumption",
        -9.717023510622568
      ],
      [
        "Ġforward",
        -9.717844604057948
      ],
      [
        "Ġhole",
        -9.718417872028247
      ],
      [
        "Ġfan",
        -9.718862044350503
      ],
      [
        "ĠWater",
        -9.718947973246465
      ],
      [
        "Ġmis",
        -9.719125005993014
      ],
      [
        "Ã©",
        -9.720782825057563
      ],
      [
        "Ġflight",
        -9.721046275612252
      ],
      [
        "Ġcup",
        -9.721695350597518
      ],
      [
        "ami",
        -9.721746633528056
      ],
      [
        "Ġaccurate",
        -9.724537561813555
      ],
      [
        "Ġprefer",
        -9.724583364351162
      ],
      [
        "Ġbox",
        -9.725592834024214
      ],
      [
        "Ġriver",
        -9.725886405532831
      ],
      [
        "Ġfriends",
        -9.726373384023423
      ],
      [
        "Ġbone",
        -9.72659471396631
      ],
      [
        "ĠHigh",
        -9.726880702798857
      ],
      [
        "Ġgames",
        -9.726914974105854
      ],
      [
        "ĠQu",
        -9.728206346938324
      ],
      [
        "immune",
        -9.728414255485443
      ],
      [
        "Ġhands",
        -9.7287047288651
      ],
      [
        "Ġphone",
        -9.729554056643568
      ],
      [
        "itis",
        -9.7295575785482
      ],
      [
        "Ġabsorb",
        -9.729578506791054
      ],
      [
        "ĠCenter",
        -9.730869325737473
      ],
      [
        "aging",
        -9.731816046944733
      ],
      [
        "comm",
        -9.732048960341604
      ],
      [
        "Ġpicture",
        -9.73269710624234
      ],
      [
        "Ġvaluable",
        -9.732918597359394
      ],
      [
        "Ġnutrients",
        -9.73300346500724
      ],
      [
        "@",
        -9.733375975169473
      ],
      [
        "Ġreference",
        -9.733552369452331
      ],
      [
        "Ġweb",
        -9.733740042769124
      ],
      [
        "Ġcoat",
        -9.734205207125182
      ],
      [
        "ĠThen",
        -9.735333086152767
      ],
      [
        "ili",
        -9.73540797918403
      ],
      [
        "Ġexposure",
        -9.735971465631152
      ],
      [
        "Ġheight",
        -9.73933581414381
      ],
      [
        "Con",
        -9.739621666672072
      ],
      [
        "Ġbecame",
        -9.739738373591477
      ],
      [
        "Ġexpression",
        -9.73992115158038
      ],
      [
        "Ġinsight",
        -9.74057519106221
      ],
      [
        "Whether",
        -9.741018094502104
      ],
      [
        ".com",
        -9.74148722486474
      ],
      [
        "Ġflat",
        -9.74294657100734
      ],
      [
        "Ġjoin",
        -9.74302039742335
      ],
      [
        "Ġround",
        -9.743261976205224
      ],
      [
        "Ġharm",
        -9.74488185395213
      ],
      [
        "Ġmedication",
        -9.744969059352648
      ],
      [
        "ĠEven",
        -9.746508502027996
      ],
      [
        "Ġreveal",
        -9.748726598033738
      ],
      [
        "Ġstarting",
        -9.748927036062424
      ],
      [
        "can",
        -9.750071835721696
      ],
      [
        "Ġhearing",
        -9.7506742625444
      ],
      [
        "Ġthin",
        -9.75261170423927
      ],
      [
        "gar",
        -9.752842103055292
      ],
      [
        "ole",
        -9.752978439847489
      ],
      [
        "Ġmath",
        -9.753586694131036
      ],
      [
        "Ġcoming",
        -9.753726353946664
      ],
      [
        "Ġvital",
        -9.757814250983914
      ],
      [
        "mark",
        -9.757984753728646
      ],
      [
        "ĠCl",
        -9.75834911410762
      ],
      [
        "Ġproperty",
        -9.759155723065168
      ],
      [
        "ĠNOT",
        -9.7593500267257
      ],
      [
        "body",
        -9.760113070081267
      ],
      [
        "Ġmiddle",
        -9.760401828792382
      ],
      [
        "ban",
        -9.761195920315378
      ],
      [
        "Ġcomfortabl",
        -9.76203201964776
      ],
      [
        "each",
        -9.764583024076448
      ],
      [
        "Ġcombine",
        -9.764894651752108
      ],
      [
        "Ġtexture",
        -9.765027088293955
      ],
      [
        "Ġcentury",
        -9.765195516609994
      ],
      [
        "Ġthread",
        -9.76562538722238
      ],
      [
        "Ġcomput",
        -9.765886348128069
      ],
      [
        "Ġvirus",
        -9.766125424455195
      ],
      [
        "bra",
        -9.766854217281235
      ],
      [
        "part",
        -9.766877560368364
      ],
      [
        "Ġexpand",
        -9.766921706945894
      ],
      [
        "right",
        -9.767011829480452
      ],
      [
        "Ġangle",
        -9.767137645409882
      ],
      [
        "Ġoutdoor",
        -9.767174691589329
      ],
      [
        "ĠBar",
        -9.76855522002494
      ],
      [
        "ix",
        -9.768696060218849
      ],
      [
        "ĠJo",
        -9.770751869759174
      ],
      [
        "Ġpl",
        -9.77105079950329
      ],
      [
        "Ġconcentration",
        -9.772165578861632
      ],
      [
        "Ġmember",
        -9.772709270194078
      ],
      [
        "ĠArt",
        -9.772959373556104
      ],
      [
        "ĠHar",
        -9.775330902362215
      ],
      [
        "Ġphase",
        -9.77558608728012
      ],
      [
        "Ġcomfort",
        -9.775765269275537
      ],
      [
        "LE",
        -9.77727488803853
      ],
      [
        "Ġfacilit",
        -9.777547218730682
      ],
      [
        "Ġpresen",
        -9.777878459690193
      ],
      [
        "Ġpr",
        -9.777892271879423
      ],
      [
        "Now",
        -9.778056519988576
      ],
      [
        "Ġcommand",
        -9.778801889275112
      ],
      [
        "Ġthus",
        -9.77915373868263
      ],
      [
        "Ġjourney",
        -9.780107386243632
      ],
      [
        "oma",
        -9.78011610248548
      ],
      [
        "ĠPi",
        -9.780628203245143
      ],
      [
        "Ġconsistent",
        -9.780668575746873
      ],
      [
        "gre",
        -9.78073182327812
      ],
      [
        "lie",
        -9.78092966896956
      ],
      [
        "Ġexpress",
        -9.781414269961315
      ],
      [
        "Ġbond",
        -9.781553500024517
      ],
      [
        "ĠLet",
        -9.782361874617424
      ],
      [
        "ĠInstitute",
        -9.782772476566915
      ],
      [
        "Ġquick",
        -9.782894415184048
      ],
      [
        "back",
        -9.783657525825769
      ],
      [
        "ĠEach",
        -9.78366925815556
      ],
      [
        "wise",
        -9.783909429084222
      ],
      [
        "led",
        -9.784724340258958
      ],
      [
        "Ġcommercial",
        -9.786775762847828
      ],
      [
        "Ġnational",
        -9.787010780518392
      ],
      [
        "ĠOther",
        -9.787062952582676
      ],
      [
        "Ġho",
        -9.787112983597858
      ],
      [
        "AT",
        -9.788352931771351
      ],
      [
        "Ġmedicine",
        -9.789458085310594
      ],
      [
        "ĠDis",
        -9.78968934161514
      ],
      [
        "Ġextremely",
        -9.790757554220894
      ],
      [
        "Ġhuge",
        -9.790807583377113
      ],
      [
        "Ġiron",
        -9.790882121623738
      ],
      [
        "Ġinteresting",
        -9.790990353045744
      ],
      [
        "oil",
        -9.791066091639234
      ],
      [
        "ĠPre",
        -9.791433280942345
      ],
      [
        "Ġpool",
        -9.792235836023092
      ],
      [
        "Ġtesting",
        -9.793955316623547
      ],
      [
        "driving",
        -9.794834100235075
      ],
      [
        "tting",
        -9.79617615324758
      ],
      [
        "Ġadvanced",
        -9.79706196619706
      ],
      [
        "Ġpur",
        -9.797286552502085
      ],
      [
        "Ġreported",
        -9.797387819026174
      ],
      [
        "Ġfamili",
        -9.7974763741231
      ],
      [
        "Ġmessage",
        -9.797699979921394
      ],
      [
        "Ġsnow",
        -9.7991752726068
      ],
      [
        "haps",
        -9.799459235295576
      ],
      [
        "Ġobserve",
        -9.799501401814508
      ],
      [
        "Ġmanufacturer",
        -9.800232320355333
      ],
      [
        "Ġmoistur",
        -9.800503508108648
      ],
      [
        "Ġdetails",
        -9.801106659241704
      ],
      [
        "cur",
        -9.801517475980036
      ],
      [
        "Ġerror",
        -9.802969061528708
      ],
      [
        "ĠAr",
        -9.802997745259503
      ],
      [
        "Ġdec",
        -9.80412550298908
      ],
      [
        "Ġoccurs",
        -9.80521301631585
      ],
      [
        "ĠUn",
        -9.80581544838485
      ],
      [
        "Ġplanet",
        -9.806481626246647
      ],
      [
        "type",
        -9.807335715612126
      ],
      [
        "Ġfeeding",
        -9.807401370659692
      ],
      [
        "ĠMin",
        -9.807906259498251
      ],
      [
        "IC",
        -9.8079673987711
      ],
      [
        "vid",
        -9.809083230187987
      ],
      [
        "Ġemploy",
        -9.8093280684598
      ],
      [
        "Ġtrip",
        -9.809547125169392
      ],
      [
        "Ġvia",
        -9.810253812858686
      ],
      [
        "ĠClass",
        -9.810646801015547
      ],
      [
        "istic",
        -9.811237454905452
      ],
      [
        "ĠPlant",
        -9.811646469171915
      ],
      [
        "Ġegg",
        -9.81250094768151
      ],
      [
        "ĠGe",
        -9.812811159835077
      ],
      [
        "bal",
        -9.813466324674074
      ],
      [
        "Ġled",
        -9.814278597845377
      ],
      [
        "Ġstatement",
        -9.814500514587738
      ],
      [
        "Ġappearance",
        -9.815832375020946
      ],
      [
        "-like",
        -9.816021831982477
      ],
      [
        "Ġspeak",
        -9.816114954929429
      ],
      [
        "Ġratio",
        -9.816499914419971
      ],
      [
        "ĠJe",
        -9.81679115049983
      ],
      [
        "car",
        -9.81697579357858
      ],
      [
        "ĠFi",
        -9.81740651224396
      ],
      [
        "Ġfly",
        -9.818278897781926
      ],
      [
        "Ġsend",
        -9.819028642392098
      ],
      [
        "ĠAccording",
        -9.81928930953627
      ],
      [
        "Ġtrigger",
        -9.81940923496591
      ],
      [
        "wide",
        -9.819572191967794
      ],
      [
        "Ġwash",
        -9.819688127943923
      ],
      [
        "ude",
        -9.821280466335535
      ],
      [
        "Ġadults",
        -9.82161385789246
      ],
      [
        "ates",
        -9.822615740516271
      ],
      [
        "Ġaffected",
        -9.82333523639629
      ],
      [
        "ju",
        -9.824093443152568
      ],
      [
        "Ġgrade",
        -9.825731084786316
      ],
      [
        "spite",
        -9.825824300346904
      ],
      [
        "Ġdepth",
        -9.826457614250923
      ],
      [
        "Ġwi",
        -9.826961926896054
      ],
      [
        "ĠThei",
        -9.827116589259903
      ],
      [
        "Ġlisten",
        -9.82752878990905
      ],
      [
        "Ġsymbol",
        -9.827742076663029
      ],
      [
        "Ġdouble",
        -9.82774287249092
      ],
      [
        "Ġcomment",
        -9.827797998474166
      ],
      [
        "Ġelectron",
        -9.828257008291684
      ],
      [
        "Our",
        -9.82835130834492
      ],
      [
        "ĠRi",
        -9.828616081932177
      ],
      [
        "mic",
        -9.828661362414245
      ],
      [
        "ĠBi",
        -9.828716488013685
      ],
      [
        "Ġpara",
        -9.829297841389474
      ],
      [
        "Ġstring",
        -9.829509226731512
      ],
      [
        "Ġdistribution",
        -9.829510206533824
      ],
      [
        "Ġletter",
        -9.830710697241791
      ],
      [
        "Ġdiabetes",
        -9.831925369676997
      ],
      [
        "Ġlabel",
        -9.832062780719586
      ],
      [
        "ĠDec",
        -9.8327436544283
      ],
      [
        "anyone",
        -9.833043614248638
      ],
      [
        "Ġtransition",
        -9.83338776359438
      ],
      [
        "Ġsurrounding",
        -9.833392012598251
      ],
      [
        "Ġpredict",
        -9.833398773656288
      ],
      [
        "ool",
        -9.83375149835297
      ],
      [
        "Ġimprov",
        -9.834393478553038
      ],
      [
        "Ġopportunit",
        -9.834915245269238
      ],
      [
        "matic",
        -9.835250114471055
      ],
      [
        "SA",
        -9.835737296767627
      ],
      [
        "Ġemergenc",
        -9.837554876744711
      ],
      [
        "ĠDu",
        -9.837706230668225
      ],
      [
        "Ġalthough",
        -9.83774420317838
      ],
      [
        "ugh",
        -9.838092084815026
      ],
      [
        "AN",
        -9.838733660256846
      ],
      [
        "Here",
        -9.83999219321748
      ],
      [
        "ĠFirst",
        -9.840824083862126
      ],
      [
        "Ġcommunit",
        -9.840911707259298
      ],
      [
        "Ġauto",
        -9.8413326393055
      ],
      [
        "Ġhit",
        -9.841523387949012
      ],
      [
        "Ġseal",
        -9.842935981997828
      ],
      [
        "Ġlose",
        -9.84362101435654
      ],
      [
        "Ġsuit",
        -9.84370935557542
      ],
      [
        "Ġpen",
        -9.843759217007603
      ],
      [
        "Ġattach",
        -9.84420626260549
      ],
      [
        "acc",
        -9.844519671496036
      ],
      [
        "Ġbeginning",
        -9.844673913626924
      ],
      [
        "They",
        -9.844834476469105
      ],
      [
        "Ġgrain",
        -9.844887961281852
      ],
      [
        "Ġtherefor",
        -9.84507700397502
      ],
      [
        "zi",
        -9.845711887107337
      ],
      [
        "lip",
        -9.846046167444433
      ],
      [
        "ĠChi",
        -9.847210129211796
      ],
      [
        "Ġdriver",
        -9.847406914709724
      ],
      [
        "Ġstuff",
        -9.84746852491874
      ],
      [
        "Ġpress",
        -9.847809444347009
      ],
      [
        "Ġseat",
        -9.848204742496089
      ],
      [
        "Ġsustain",
        -9.848223644239312
      ],
      [
        "Ġinternational",
        -9.848863024482863
      ],
      [
        "Ġmother",
        -9.849647078968973
      ],
      [
        "Ġwrit",
        -9.850468427888412
      ],
      [
        "Ġimplement",
        -9.850755517348844
      ],
      [
        "Ġcamp",
        -9.851430253949497
      ],
      [
        "ood",
        -9.851461070783415
      ],
      [
        "Ã",
        -9.851564185800823
      ],
      [
        "Ġequation",
        -9.851715008545913
      ],
      [
        "Ġengage",
        -9.852626536094142
      ],
      [
        "Ġthermal",
        -9.852741821478704
      ],
      [
        "Ġteach",
        -9.852755946930335
      ],
      [
        "Ġorganism",
        -9.853252503662931
      ],
      [
        "`",
        -9.854573184496
      ],
      [
        "Ġtransport",
        -9.85514907032119
      ],
      [
        "Ġcloth",
        -9.855723721694844
      ],
      [
        "Ġfriend",
        -9.855732314656075
      ],
      [
        "rid",
        -9.855825591371286
      ],
      [
        "CA",
        -9.856379398816289
      ],
      [
        "Ġcore",
        -9.856643366168036
      ],
      [
        "Ġinternal",
        -9.856784887477394
      ],
      [
        "ĠNa",
        -9.857245268995134
      ],
      [
        "ley",
        -9.857540463475504
      ],
      [
        "taken",
        -9.857701833687376
      ],
      [
        "ĠPr",
        -9.857767249216252
      ],
      [
        "Ġmode",
        -9.858787120869849
      ],
      [
        "Ġattempt",
        -9.858885518105858
      ],
      [
        "Ġherb",
        -9.85909834073635
      ],
      [
        "Ġsaw",
        -9.859187226094829
      ],
      [
        "ĠCalifornia",
        -9.859581391949156
      ],
      [
        "Ġlo",
        -9.860363213718577
      ],
      [
        "Ġcomp",
        -9.860934456110291
      ],
      [
        "ĠRu",
        -9.861514033558842
      ],
      [
        "Ġaren",
        -9.861551689760857
      ],
      [
        "Ġrespond",
        -9.861757137372472
      ],
      [
        "Ġapproximate",
        -9.861757413603932
      ],
      [
        "ong",
        -9.862118533803397
      ],
      [
        "Ġmedium",
        -9.862275516441755
      ],
      [
        "Ġextract",
        -9.862344972618168
      ],
      [
        "ĠJust",
        -9.86265644411347
      ],
      [
        "Ġonto",
        -9.862736215069152
      ],
      [
        "Ġbreath",
        -9.862842224792082
      ],
      [
        "Ġalgorithm",
        -9.863200123645385
      ],
      [
        "Ġtechnologies",
        -9.863200123717164
      ],
      [
        "ĠGerman",
        -9.863205140323911
      ],
      [
        "ĠFr",
        -9.86321800589183
      ],
      [
        "About",
        -9.863678949436368
      ],
      [
        "eath",
        -9.864482665755895
      ],
      [
        "Ġgold",
        -9.864779726698984
      ],
      [
        "Ġgoals",
        -9.865617502379225
      ],
      [
        "Ġmid",
        -9.86565316996668
      ],
      [
        "Ġcapture",
        -9.867026149596969
      ],
      [
        "ĠAm",
        -9.867436848872892
      ],
      [
        "Ġexhibit",
        -9.86754211544752
      ],
      [
        "Ġmill",
        -9.867880292626191
      ],
      [
        "Ġfavorite",
        -9.868996208738045
      ],
      [
        "Ġplease",
        -9.869006300226754
      ],
      [
        "Ġidentified",
        -9.869184363309683
      ],
      [
        "Ġspend",
        -9.869288442761926
      ],
      [
        "osis",
        -9.870450338631056
      ],
      [
        "ĠTherefor",
        -9.870965675554018
      ],
      [
        "Ġpractical",
        -9.871313688691036
      ],
      [
        "Ġthick",
        -9.871674386928682
      ],
      [
        "Ġspin",
        -9.871816283065442
      ],
      [
        "Ġtire",
        -9.872039936515948
      ],
      [
        "Ġhighlight",
        -9.872163732782564
      ],
      [
        "Ġinform",
        -9.87264763417464
      ],
      [
        "Ġcard",
        -9.872703086170636
      ],
      [
        "RO",
        -9.873304303561875
      ],
      [
        "Ġupdate",
        -9.87331907406099
      ],
      [
        "Ġ#",
        -9.873673085598105
      ],
      [
        "Ġnative",
        -9.873965518550698
      ],
      [
        "Ġbrush",
        -9.874826917906557
      ],
      [
        "cop",
        -9.874966678575378
      ],
      [
        "ĠEn",
        -9.87522587339497
      ],
      [
        "Ġtransfer",
        -9.875446116153087
      ],
      [
        "ĠSystem",
        -9.876281787200854
      ],
      [
        "Ġcheese",
        -9.876282031188254
      ],
      [
        "tors",
        -9.876760894661375
      ],
      [
        "Ġwheel",
        -9.87691618120034
      ],
      [
        "Ġmarine",
        -9.878089836693064
      ],
      [
        "read",
        -9.879432311482116
      ],
      [
        "Ġbroad",
        -9.880898364558716
      ],
      [
        "Ġcontract",
        -9.881226397615997
      ],
      [
        "Ġdynamic",
        -9.881415266602232
      ],
      [
        "Ġbak",
        -9.882587272519672
      ],
      [
        "get",
        -9.88378161323785
      ],
      [
        "cus",
        -9.886019242235616
      ],
      [
        "Ġformed",
        -9.8869619843576
      ],
      [
        "off",
        -9.88700180014422
      ],
      [
        "Ġtrans",
        -9.887535751392138
      ],
      [
        "Ġfashion",
        -9.888055314984088
      ],
      [
        "Ġdrawing",
        -9.888114347708184
      ],
      [
        "Ġmagnetic",
        -9.8887940701899
      ],
      [
        "rain",
        -9.889022322450696
      ],
      [
        "vin",
        -9.88970853472039
      ],
      [
        "aving",
        -9.89060787158622
      ],
      [
        "net",
        -9.890691889909805
      ],
      [
        "Ġboat",
        -9.890865451394596
      ],
      [
        "Ġannual",
        -9.891022899305668
      ],
      [
        "Ġcit",
        -9.891144358451896
      ],
      [
        "Ġtube",
        -9.892280515754711
      ],
      [
        "Ġbillion",
        -9.89351164142887
      ],
      [
        "Ġbooks",
        -9.89369069336763
      ],
      [
        "generat",
        -9.893947149648188
      ],
      [
        "Ġdiamond",
        -9.893995378415491
      ],
      [
        "Ġvariable",
        -9.894034701355617
      ],
      [
        "Ġfrequency",
        -9.895061942053989
      ],
      [
        "ĠSea",
        -9.895159176987963
      ],
      [
        "Ġten",
        -9.8954723137932
      ],
      [
        "Ġtransform",
        -9.89604328193514
      ],
      [
        "Note",
        -9.896361962243269
      ],
      [
        "coming",
        -9.898586945861249
      ],
      [
        "Ġskill",
        -9.898764410474223
      ],
      [
        "ĠEl",
        -9.898888491366554
      ],
      [
        "ĠKa",
        -9.899341108042236
      ],
      [
        "Ġsquare",
        -9.899976679437446
      ],
      [
        "lay",
        -9.900073792129454
      ],
      [
        "rig",
        -9.900594590224308
      ],
      [
        "Ġallerg",
        -9.90059641999756
      ],
      [
        "Ġaccident",
        -9.901468230955546
      ],
      [
        "Ġharvest",
        -9.901468441769405
      ],
      [
        "Ġrelevan",
        -9.90146975002033
      ],
      [
        "defined",
        -9.902744713575412
      ],
      [
        "EC",
        -9.903784112799965
      ],
      [
        "Ġraw",
        -9.904178921613717
      ],
      [
        "Ġrecipe",
        -9.904478772842673
      ],
      [
        "happy",
        -9.906004870048983
      ],
      [
        "Ġpoly",
        -9.907019043681462
      ],
      [
        "vol",
        -9.907625272126484
      ],
      [
        "Ġbackground",
        -9.907766323326369
      ],
      [
        "Ġmaster",
        -9.907770290132074
      ],
      [
        "ĠOver",
        -9.908031710665949
      ],
      [
        "row",
        -9.908729630152305
      ],
      [
        "Ġecosystem",
        -9.909006925939387
      ],
      [
        "mod",
        -9.909936438360775
      ],
      [
        "Ġfail",
        -9.910422599107257
      ],
      [
        "ken",
        -9.91074725551245
      ],
      [
        "ĠEnglish",
        -9.91077642393256
      ],
      [
        "tric",
        -9.911235692326922
      ],
      [
        "arm",
        -9.91158023378134
      ],
      [
        "expected",
        -9.91228316331538
      ],
      [
        "ĠBrit",
        -9.91237405337149
      ],
      [
        "Ġalone",
        -9.912925661992356
      ],
      [
        "ĠUK",
        -9.913524976856518
      ],
      [
        "ological",
        -9.91383573060683
      ],
      [
        "¤",
        -9.91395197899889
      ],
      [
        "book",
        -9.914053775439449
      ],
      [
        "udi",
        -9.91465322416132
      ],
      [
        "Ġspecifically",
        -9.91484177895978
      ],
      [
        "Creat",
        -9.9149759261883
      ],
      [
        "Ġmotion",
        -9.91608511027718
      ],
      [
        "bit",
        -9.91713579842834
      ],
      [
        "Ġshade",
        -9.918003439286537
      ],
      [
        "Ġfinancial",
        -9.918110048576985
      ],
      [
        "All",
        -9.918189237720291
      ],
      [
        "ĠWork",
        -9.918432713063623
      ],
      [
        "AP",
        -9.918658881986754
      ],
      [
        "her",
        -9.918850247482792
      ],
      [
        "Ġinvestment",
        -9.921569605324288
      ],
      [
        "mil",
        -9.92161874138256
      ],
      [
        "Ġopportunities",
        -9.922493285104494
      ],
      [
        "Ġstation",
        -9.922515487491136
      ],
      [
        "script",
        -9.922695181147454
      ],
      [
        "Pro",
        -9.922782107018149
      ],
      [
        "Ġlandscape",
        -9.923802374833468
      ],
      [
        "Ġpreference",
        -9.924422645115486
      ],
      [
        "Ġregulation",
        -9.924836627627943
      ],
      [
        "Mo",
        -9.92512116005193
      ],
      [
        "ĠSan",
        -9.925247043121196
      ],
      [
        "Ġeducational",
        -9.927076133755293
      ],
      [
        "ĠFood",
        -9.927227383193916
      ],
      [
        "Ġclimb",
        -9.927308994078984
      ],
      [
        "Ġdrink",
        -9.927501240813228
      ],
      [
        "Ġnearly",
        -9.927908378100492
      ],
      [
        "but",
        -9.927913713337666
      ],
      [
        "Ġjournal",
        -9.92860181020712
      ],
      [
        "Ġexcit",
        -9.92982331684783
      ],
      [
        "Ġdifferences",
        -9.930160890223366
      ],
      [
        "ĠWi",
        -9.9318381840895
      ],
      [
        "Ġcontroll",
        -9.932296610401616
      ],
      [
        "ĠRead",
        -9.93293302873477
      ],
      [
        "bar",
        -9.9329757795644
      ],
      [
        "are",
        -9.933076115033028
      ],
      [
        "q",
        -9.933156340226184
      ],
      [
        "Ġver",
        -9.933357435168878
      ],
      [
        "After",
        -9.933443714154006
      ],
      [
        "ĠIndia",
        -9.933451984873596
      ],
      [
        "Ġcoffee",
        -9.933483147670628
      ],
      [
        "%)",
        -9.933856754466282
      ],
      [
        "vari",
        -9.934432707950094
      ],
      [
        "Ġancient",
        -9.934616814757227
      ],
      [
        "last",
        -9.93462356597289
      ],
      [
        "Ġprivate",
        -9.93506044008291
      ],
      [
        "Ġmaximum",
        -9.936586325118627
      ],
      [
        "Ġadvice",
        -9.93658636522222
      ],
      [
        "gal",
        -9.936665491187288
      ],
      [
        "Figure",
        -9.936753310594128
      ],
      [
        "Ġmelt",
        -9.936925449185397
      ],
      [
        "Ġboil",
        -9.937058111726811
      ],
      [
        "Ġsecure",
        -9.938144873539088
      ],
      [
        "visible",
        -9.938410690659904
      ],
      [
        "ĠAfrica",
        -9.938521764522156
      ],
      [
        "Ġemerg",
        -9.941252365649236
      ],
      [
        "ON",
        -9.941993298412935
      ],
      [
        "Ġcompost",
        -9.942335422315384
      ],
      [
        "Ġselection",
        -9.94362951852096
      ],
      [
        "Ġformat",
        -9.944318877449208
      ],
      [
        "Ġmiles",
        -9.944421422673496
      ],
      [
        "Answer",
        -9.94487238196323
      ],
      [
        "Ġspray",
        -9.945955488764255
      ],
      [
        "ĠVer",
        -9.946646602629352
      ],
      [
        "dium",
        -9.9471527771579
      ],
      [
        "IS",
        -9.9473414156864
      ],
      [
        "CE",
        -9.947680736478553
      ],
      [
        "cut",
        -9.948642904594276
      ],
      [
        "Ġatmosphere",
        -9.949096254799954
      ],
      [
        "Ġroutine",
        -9.949096273168696
      ],
      [
        "meter",
        -9.94939634272433
      ],
      [
        "Ġfunctions",
        -9.949424630052924
      ],
      [
        "Ġresource",
        -9.94957596586845
      ],
      [
        "wer",
        -9.950743784201697
      ],
      [
        "Ġdirt",
        -9.950751782538465
      ],
      [
        "Ġformation",
        -9.9521799451828
      ],
      [
        "Ġship",
        -9.95286766456512
      ],
      [
        "MA",
        -9.953684858156617
      ],
      [
        "ark",
        -9.95520349995072
      ],
      [
        "Ġbodie",
        -9.955821710387193
      ],
      [
        "Ġrecycl",
        -9.95595756613924
      ],
      [
        "Ġroots",
        -9.957193116026843
      ],
      [
        "ĠSince",
        -9.957929992054924
      ],
      [
        "quality",
        -9.958199870477872
      ],
      [
        "Ġconservation",
        -9.958582490515816
      ],
      [
        "Ġindustrial",
        -9.960172315385924
      ],
      [
        "ulation",
        -9.960221176528322
      ],
      [
        "han",
        -9.961138521478734
      ],
      [
        "Ġleak",
        -9.961248882263911
      ],
      [
        "ĠTe",
        -9.961347674575112
      ],
      [
        "Ġdetermin",
        -9.961441421780483
      ],
      [
        "ĠGreat",
        -9.961587271746405
      ],
      [
        "Ġbegan",
        -9.961849656022792
      ],
      [
        "MS",
        -9.962125246429412
      ],
      [
        "point",
        -9.962964125999232
      ],
      [
        "That",
        -9.963551317990037
      ],
      [
        "Ġclick",
        -9.96360099417534
      ],
      [
        "Ġopening",
        -9.965184232479542
      ],
      [
        "win",
        -9.96619686187347
      ],
      [
        "Ġconsult",
        -9.966584209941429
      ],
      [
        "tru",
        -9.967254493233224
      ],
      [
        "ĠHer",
        -9.967459822510015
      ],
      [
        "Î",
        -9.968141607840607
      ],
      [
        "Ġsupplement",
        -9.968159576849525
      ],
      [
        "Ġdental",
        -9.968169539148388
      ],
      [
        "iz",
        -9.968236762265487
      ],
      [
        "Ġdie",
        -9.96870912120444
      ],
      [
        "ĠQ",
        -9.969830283160512
      ],
      [
        "lus",
        -9.969926604958555
      ],
      [
        "Ġdivide",
        -9.9700389066322
      ],
      [
        "del",
        -9.970202600215956
      ],
      [
        "Sh",
        -9.970637952795366
      ],
      [
        "Ġcars",
        -9.971011878106497
      ],
      [
        "ĠSc",
        -9.97145967360597
      ],
      [
        "duct",
        -9.971665224842804
      ],
      [
        "Ġremov",
        -9.972776305064617
      ],
      [
        "Ġobvious",
        -9.97298273623754
      ],
      [
        "Ġcentral",
        -9.97298850939524
      ],
      [
        "ĠDon",
        -9.97386756531256
      ],
      [
        "Ġsounds",
        -9.974154664849316
      ],
      [
        "ĠDay",
        -9.974375152575837
      ],
      [
        "ĠOnc",
        -9.974674064441828
      ],
      [
        "Ġstrain",
        -9.974779049172785
      ],
      [
        "ĠHu",
        -9.97497639897056
      ],
      [
        "Ġoutcome",
        -9.975022404878006
      ],
      [
        "Ġsweet",
        -9.975205295775426
      ],
      [
        "Ġassess",
        -9.975789448662631
      ],
      [
        "Ġhighest",
        -9.975798860502724
      ],
      [
        "Ġobserv",
        -9.976123794443447
      ],
      [
        "Ġsmell",
        -9.976277420004983
      ],
      [
        "zz",
        -9.977457000049949
      ],
      [
        "Ġpainting",
        -9.977954129803113
      ],
      [
        "Ġdiverse",
        -9.978282500691892
      ],
      [
        "Ġtechnical",
        -9.979450392931708
      ],
      [
        "Ġcheap",
        -9.979502763461078
      ],
      [
        "Le",
        -9.980620738875889
      ],
      [
        "Ġzone",
        -9.981158549864787
      ],
      [
        "Ġsites",
        -9.981179091826672
      ],
      [
        "ĠWell",
        -9.981711302131064
      ],
      [
        "Ġcatch",
        -9.982112342507635
      ],
      [
        "Un",
        -9.982238830592529
      ],
      [
        "loo",
        -9.982666079006496
      ],
      [
        "Ġstraight",
        -9.982701925285202
      ],
      [
        "Ġtiny",
        -9.984420203034215
      ],
      [
        "ĠEurope",
        -9.985140759817392
      ],
      [
        "etting",
        -9.98570355382154
      ],
      [
        "list",
        -9.98583363988499
      ],
      [
        "Ġsheet",
        -9.986455801262286
      ],
      [
        "Ġintegrat",
        -9.986601746574316
      ],
      [
        "well",
        -9.986989364572691
      ],
      [
        "ably",
        -9.98714692208492
      ],
      [
        "Ġprepare",
        -9.987368222296716
      ],
      [
        "pot",
        -9.987429917870449
      ],
      [
        "Ġchannel",
        -9.98759424236872
      ],
      [
        "Ġtru",
        -9.988308512913834
      ],
      [
        "Ġexamine",
        -9.988363338717312
      ],
      [
        "Li",
        -9.98965545061435
      ],
      [
        "Ġdrug",
        -9.989850253882086
      ],
      [
        "Ġlu",
        -9.989878995262211
      ],
      [
        "pril",
        -9.990201546165864
      ],
      [
        "Ġbirth",
        -9.991007229309837
      ],
      [
        "uel",
        -9.991806936708898
      ],
      [
        "Ġfarmer",
        -9.992310239823883
      ],
      [
        "ĠTime",
        -9.992363724046264
      ],
      [
        "Ġpartner",
        -9.992422463089497
      ],
      [
        "Ġcrack",
        -9.992934294471045
      ],
      [
        "phy",
        -9.992982051663976
      ],
      [
        "Ġpark",
        -9.99332731556073
      ],
      [
        "Ġintelligence",
        -9.99415616047774
      ],
      [
        "ĠProgram",
        -9.994233525038808
      ],
      [
        "ĠEvery",
        -9.994262315610005
      ],
      [
        "Ġlab",
        -9.994355711005277
      ],
      [
        "Ġfailure",
        -9.994368283658805
      ],
      [
        "Ġpipe",
        -9.995217849414566
      ],
      [
        "Ġrespect",
        -9.996142051786482
      ],
      [
        "Ġpotentially",
        -9.99674757514491
      ],
      [
        "pher",
        -9.996923349008252
      ],
      [
        "Ġwindow",
        -9.99720526907146
      ],
      [
        "Ġartificial",
        -9.99745377221813
      ],
      [
        "Ġscene",
        -9.99748224843474
      ],
      [
        "Ġprepared",
        -9.997688301326184
      ],
      [
        "round",
        -9.997799090945456
      ],
      [
        "cat",
        -9.997841626684174
      ],
      [
        "Ġsit",
        -9.998078661922378
      ],
      [
        "Ġowners",
        -9.998722182937474
      ],
      [
        "Ġradio",
        -9.999845098560456
      ],
      [
        "Ġtrade",
        -10.00007193222531
      ],
      [
        "graphic",
        -10.000563858345554
      ],
      [
        "ĠDepartment",
        -10.000762415697135
      ],
      [
        "Ġrobot",
        -10.000891226203043
      ],
      [
        "Ġsteel",
        -10.002437485905086
      ],
      [
        "Ġcredit",
        -10.002448542984313
      ],
      [
        "Ġeconom",
        -10.004641935698256
      ],
      [
        "Ġoffice",
        -10.005661551020417
      ],
      [
        "Ġblog",
        -10.007049013307466
      ],
      [
        "long",
        -10.007202711305403
      ],
      [
        "Ġindependent",
        -10.007413752164402
      ],
      [
        "Ġnumerous",
        -10.007414631751342
      ],
      [
        "Ġgrown",
        -10.007876545689196
      ],
      [
        "Ġhour",
        -10.008067660226036
      ],
      [
        "Ġearlier",
        -10.008176535345306
      ],
      [
        "PS",
        -10.008807266969086
      ],
      [
        "Ġlens",
        -10.009239415071573
      ],
      [
        "RI",
        -10.009911598803402
      ],
      [
        "Ġshell",
        -10.010301131738707
      ],
      [
        "ĠSha",
        -10.010446982717266
      ],
      [
        "place",
        -10.010563110558111
      ],
      [
        "Ġmembrane",
        -10.010754048453045
      ],
      [
        "Ġstaff",
        -10.010754131524845
      ],
      [
        "Ġassist",
        -10.01082096149412
      ],
      [
        "ID",
        -10.010846243508798
      ],
      [
        "Ġhelpful",
        -10.011810959824237
      ],
      [
        "Ġconsume",
        -10.012371372528191
      ],
      [
        "Ġbreast",
        -10.012554528926673
      ],
      [
        "Ġmeal",
        -10.012554834571866
      ],
      [
        "Ġformula",
        -10.012934436263173
      ],
      [
        "pre",
        -10.013723101572744
      ],
      [
        "ĠFe",
        -10.013971569922855
      ],
      [
        "Ġsurvey",
        -10.014107065335873
      ],
      [
        "ĠYork",
        -10.015796493721089
      ],
      [
        "Ġestablished",
        -10.01596348988684
      ],
      [
        "Yes",
        -10.01701615732107
      ],
      [
        "kept",
        -10.017216909743595
      ],
      [
        "dom",
        -10.018181725227215
      ],
      [
        "Ġlake",
        -10.018553143531369
      ],
      [
        "Ġexperiences",
        -10.018684242748892
      ],
      [
        "uary",
        -10.018731764002723
      ],
      [
        "ĠDur",
        -10.019420263276569
      ],
      [
        "aci",
        -10.019613562736188
      ],
      [
        "Ġmar",
        -10.021213125387217
      ],
      [
        "Ġengineering",
        -10.021277457366883
      ],
      [
        "Ġaccept",
        -10.021546833469454
      ],
      [
        "AS",
        -10.021825844489458
      ],
      [
        "Ġfear",
        -10.021910432178949
      ],
      [
        "ically",
        -10.021959831874238
      ],
      [
        "ĠAct",
        -10.02275373889481
      ],
      [
        "Ġmechanical",
        -10.022767457794512
      ],
      [
        "Ġski",
        -10.02294402731798
      ],
      [
        "Ġcultural",
        -10.024233837889843
      ],
      [
        "Ġsession",
        -10.02423672556676
      ],
      [
        "Ġboost",
        -10.024265759543614
      ],
      [
        "Ġbra",
        -10.024349121812268
      ],
      [
        "soci",
        -10.025036871709814
      ],
      [
        "Ġrace",
        -10.026008568579291
      ],
      [
        "Ġtold",
        -10.026358831008434
      ],
      [
        "Ġprogramm",
        -10.027418011952747
      ],
      [
        "Ġatom",
        -10.02750152175968
      ],
      [
        "spir",
        -10.02752187125088
      ],
      [
        "ĠChina",
        -10.027802918440798
      ],
      [
        "ĠEuropean",
        -10.027992799479268
      ],
      [
        "Ġfix",
        -10.028285864558942
      ],
      [
        "ĠAustralia",
        -10.028449934389656
      ],
      [
        "Ġpest",
        -10.02853800723262
      ],
      [
        "col",
        -10.028623981516034
      ],
      [
        "classes",
        -10.028936418679129
      ],
      [
        "Ġattract",
        -10.029126340011585
      ],
      [
        "Ġreliabl",
        -10.029360059814152
      ],
      [
        "def",
        -10.0297426810108
      ],
      [
        "Ġessay",
        -10.031045641356975
      ],
      [
        "Me",
        -10.03104778694898
      ],
      [
        "Ġdemonstrate",
        -10.031828733547323
      ],
      [
        "ING",
        -10.032613248067396
      ],
      [
        "Ġtax",
        -10.032838778084097
      ],
      [
        "Ġplug",
        -10.034278344504784
      ],
      [
        "Ġeventual",
        -10.034552179649957
      ],
      [
        "Ġscore",
        -10.03534499013618
      ],
      [
        "My",
        -10.035477035342169
      ],
      [
        "Ġpollution",
        -10.036190088474154
      ],
      [
        "Ġcor",
        -10.036241418552915
      ],
      [
        "Ġgreenhouse",
        -10.03630367032446
      ],
      [
        "ĠTi",
        -10.037383319494584
      ],
      [
        "rap",
        -10.037389226790069
      ],
      [
        "ĠPu",
        -10.037864896734668
      ],
      [
        "Ġstock",
        -10.037867526015592
      ],
      [
        "Ġcontinuous",
        -10.037897355427663
      ],
      [
        "Ġyield",
        -10.037897357439071
      ],
      [
        "Ġtrial",
        -10.039301633470028
      ],
      [
        "Ġsouth",
        -10.039700342014044
      ],
      [
        "Ġfollowed",
        -10.039765766662736
      ],
      [
        "NE",
        -10.040047005175596
      ],
      [
        "Ġfur",
        -10.040296800204224
      ],
      [
        "Ġcream",
        -10.041356651573892
      ],
      [
        "Ġcreative",
        -10.042259124519
      ],
      [
        "wood",
        -10.042491920196504
      ],
      [
        "pol",
        -10.042822866312832
      ],
      [
        "Ġsolve",
        -10.042930242852574
      ],
      [
        "Ġevolution",
        -10.04326873597534
      ],
      [
        "MP",
        -10.043347736369276
      ],
      [
        "Ġheld",
        -10.043648545694069
      ],
      [
        "ĠGu",
        -10.044089294472755
      ],
      [
        "AM",
        -10.044158463988158
      ],
      [
        "ĠWin",
        -10.044526711779026
      ],
      [
        "Ġagree",
        -10.04461606773097
      ],
      [
        "Ġcontrast",
        -10.044800532908578
      ],
      [
        "how",
        -10.045137976261564
      ],
      [
        "ĠDesign",
        -10.045214396122422
      ],
      [
        "tter",
        -10.04543206542937
      ],
      [
        "ED",
        -10.045746428621351
      ],
      [
        "-year",
        -10.046642752703864
      ],
      [
        "Ġmuscles",
        -10.047194388422591
      ],
      [
        "LA",
        -10.047474647881783
      ],
      [
        "Ġcast",
        -10.047606253326013
      ],
      [
        "cid",
        -10.047785748584708
      ],
      [
        "Ġcorn",
        -10.04790253465944
      ],
      [
        "Ġnamed",
        -10.050285665043049
      ],
      [
        "Ġupper",
        -10.050814399608347
      ],
      [
        "ĠGreen",
        -10.05110233309015
      ],
      [
        "Ġvariation",
        -10.051800591418658
      ],
      [
        "cha",
        -10.05195387064682
      ],
      [
        "Ġexamples",
        -10.052366565962052
      ],
      [
        "ĠCom",
        -10.052619080364405
      ],
      [
        "Ġdecisions",
        -10.052787300795195
      ],
      [
        "Use",
        -10.053063001319444
      ],
      [
        "Ġquantit",
        -10.05349839019459
      ],
      [
        "Ġroll",
        -10.054020680533924
      ],
      [
        "stro",
        -10.054751910324375
      ],
      [
        "Ġoccurr",
        -10.054862295657715
      ],
      [
        "ker",
        -10.055193226524588
      ],
      [
        "Ġindoor",
        -10.055900650395248
      ],
      [
        "hose",
        -10.05669572351217
      ],
      [
        "<",
        -10.057698195020954
      ],
      [
        "ĠChe",
        -10.058044094539106
      ],
      [
        "je",
        -10.058741270127832
      ],
      [
        "Ġnorth",
        -10.058847119469892
      ],
      [
        "rol",
        -10.059078104946686
      ],
      [
        "SE",
        -10.05930281937848
      ],
      [
        "Ro",
        -10.060084306431031
      ],
      [
        "tech",
        -10.060230083255355
      ],
      [
        "Ġmanufacturing",
        -10.060507006479856
      ],
      [
        "Ġcomprehensive",
        -10.060596264783374
      ],
      [
        "Ġextreme",
        -10.06061889161063
      ],
      [
        "Ġbottle",
        -10.060642367530637
      ],
      [
        "Ġoperat",
        -10.060646496104756
      ],
      [
        "ĠSun",
        -10.0610499840865
      ],
      [
        "ĠApp",
        -10.06197857211622
      ],
      [
        "Ġvaccine",
        -10.062267570961971
      ],
      [
        "Ġblend",
        -10.062646879171991
      ],
      [
        "Thus",
        -10.063259925438572
      ],
      [
        "...Ċ",
        -10.06347844439154
      ],
      [
        "Ġreward",
        -10.063552282654566
      ],
      [
        "Ġoperate",
        -10.0635796687505
      ],
      [
        "iness",
        -10.063782174880956
      ],
      [
        "Ġaware",
        -10.063871386199942
      ],
      [
        "Ġharmful",
        -10.064256302950144
      ],
      [
        "Ġincreases",
        -10.065191250786564
      ],
      [
        "AD",
        -10.065328357392591
      ],
      [
        "Ġaircraft",
        -10.06601445632219
      ],
      [
        "Ġtrust",
        -10.06638792539806
      ],
      [
        "ĠPart",
        -10.06668289504062
      ],
      [
        "Ġemotional",
        -10.067991966295745
      ],
      [
        "Ġpin",
        -10.068148709169016
      ],
      [
        "ĠCat",
        -10.068913627758176
      ],
      [
        "Ġinnovation",
        -10.069349725282308
      ],
      [
        "Ġsurgery",
        -10.069572733613626
      ],
      [
        "Ġoffering",
        -10.070007703763384
      ],
      [
        "Ġplent",
        -10.070036768331384
      ],
      [
        "radi",
        -10.07025452310856
      ],
      [
        "Ġseven",
        -10.070869186943474
      ],
      [
        "Another",
        -10.07089370257546
      ],
      [
        "Ġschedule",
        -10.07111721378081
      ],
      [
        "Ġstain",
        -10.071133796243837
      ],
      [
        "lot",
        -10.07138802536672
      ],
      [
        "Ġaudio",
        -10.071407244132144
      ],
      [
        "Ġexam",
        -10.074576713673796
      ],
      [
        "-free",
        -10.074681877143073
      ],
      [
        "Ġattend",
        -10.074846622448224
      ],
      [
        "Ġdangerous",
        -10.07484718463511
      ],
      [
        "Ġdetailed",
        -10.075152707300187
      ],
      [
        "ĠDoes",
        -10.075392520347348
      ],
      [
        "fic",
        -10.077623217293906
      ],
      [
        "eek",
        -10.078678135033584
      ],
      [
        "Ġdust",
        -10.078880768432477
      ],
      [
        "society",
        -10.078893815121049
      ],
      [
        "Ex",
        -10.078926009034102
      ],
      [
        "Ġpack",
        -10.079972901275426
      ],
      [
        "Ġprecise",
        -10.08004590324228
      ],
      [
        "Ġexternal",
        -10.080118492155304
      ],
      [
        "Ġcable",
        -10.080573971179948
      ],
      [
        "Ġdrugs",
        -10.081167042991275
      ],
      [
        "Ġtitle",
        -10.081860619054606
      ],
      [
        "tel",
        -10.08288640898688
      ],
      [
        "ĠSept",
        -10.08356914398844
      ],
      [
        "Ġbank",
        -10.08374550629465
      ],
      [
        "omic",
        -10.083805734207884
      ],
      [
        "which",
        -10.083931457263397
      ],
      [
        "test",
        -10.084843716164118
      ],
      [
        "ĠFrench",
        -10.085441706544948
      ],
      [
        "til",
        -10.085867661257176
      ],
      [
        "Ġsaving",
        -10.08645273794285
      ],
      [
        "Ġcraft",
        -10.086714070664732
      ],
      [
        "lia",
        -10.087179992836164
      ],
      [
        "^",
        -10.08724656043942
      ],
      [
        "Ġopinion",
        -10.08724785407214
      ],
      [
        "Ġstr",
        -10.08826218201741
      ],
      [
        "Ġsmart",
        -10.088714776716207
      ],
      [
        "Are",
        -10.089025024893807
      ],
      [
        "Ġdefinition",
        -10.089054885072487
      ],
      [
        "Ġreact",
        -10.089396792047705
      ],
      [
        "ĠTur",
        -10.090156502651851
      ],
      [
        "Ġsaying",
        -10.090241084673018
      ],
      [
        "lam",
        -10.090493241488602
      ],
      [
        "see",
        -10.090754852935095
      ],
      [
        "Ġultimate",
        -10.0908664995019
      ],
      [
        "Ġprimari",
        -10.091452094606913
      ],
      [
        "Ġorigin",
        -10.091630504084051
      ],
      [
        "Ġconstruct",
        -10.092019620221397
      ],
      [
        "ĠBlack",
        -10.09243495204858
      ],
      [
        "ET",
        -10.092573212798529
      ],
      [
        "Ġport",
        -10.092786645350856
      ],
      [
        "Ġoptimal",
        -10.09315092024211
      ],
      [
        "some",
        -10.09326845959453
      ],
      [
        "Ġstream",
        -10.093428278447233
      ],
      [
        "Ġthreat",
        -10.093810547012808
      ],
      [
        "Ġflu",
        -10.094499005523662
      ],
      [
        "Ġperspective",
        -10.094499536815714
      ],
      [
        "Ġconfirm",
        -10.094566085192376
      ],
      [
        "Ġnaturally",
        -10.095900939717223
      ],
      [
        "Ġvirtual",
        -10.096321031533565
      ],
      [
        "Ġfundamental",
        -10.096321190658395
      ],
      [
        "ÂŃ",
        -10.096333214522677
      ],
      [
        "Ġconclusion",
        -10.096466683546694
      ],
      [
        "Ġnation",
        -10.09699157782574
      ],
      [
        "Ġhistorical",
        -10.098146047627685
      ],
      [
        "Ġjump",
        -10.09815267322914
      ],
      [
        "Ġcomposition",
        -10.098205855249397
      ],
      [
        "rite",
        -10.098476406191876
      ],
      [
        "Ġclinical",
        -10.098853659530189
      ],
      [
        "tag",
        -10.098894833274914
      ],
      [
        "ĠWest",
        -10.099103229257231
      ],
      [
        "Ġsector",
        -10.099164127950822
      ],
      [
        "Ġtwi",
        -10.099438707978418
      ],
      [
        "Ġtea",
        -10.099508074538008
      ],
      [
        "Ġhospital",
        -10.099974001683693
      ],
      [
        "TCG",
        -10.100162122978212
      ],
      [
        "Ġmold",
        -10.100432750409418
      ],
      [
        "Ġstories",
        -10.100674972930705
      ],
      [
        "load",
        -10.101596339257853
      ],
      [
        "Ġwalls",
        -10.101691142984617
      ],
      [
        "Ġlaunch",
        -10.101810383379064
      ],
      [
        "Ġpossibilit",
        -10.10185745970232
      ],
      [
        "ĠPlan",
        -10.102120770217407
      ],
      [
        "Ġrep",
        -10.102698348372568
      ],
      [
        "ĠKeep",
        -10.103201448090196
      ],
      [
        "ĠIndian",
        -10.103336557594432
      ],
      [
        "Ġdisc",
        -10.104106095100793
      ],
      [
        "Ġcreation",
        -10.104275793581447
      ],
      [
        "ute",
        -10.104501010055872
      ],
      [
        "Hi",
        -10.105043744794395
      ],
      [
        "weight",
        -10.105255896530604
      ],
      [
        "Ġalter",
        -10.10565370507777
      ],
      [
        "ĠStudent",
        -10.105855068543676
      ],
      [
        "cher",
        -10.106075798169371
      ],
      [
        "color",
        -10.106092134400145
      ],
      [
        "US",
        -10.106599215197331
      ],
      [
        "Ġdiscussion",
        -10.106672156787155
      ],
      [
        "Ġkitchen",
        -10.1073206238951
      ],
      [
        "Ġnice",
        -10.108131562122669
      ],
      [
        "Ġinteract",
        -10.10841046768191
      ],
      [
        "ĠMan",
        -10.108548385977112
      ],
      [
        "pu",
        -10.10878239483374
      ],
      [
        "ĠPar",
        -10.108877656711163
      ],
      [
        "Ġexposed",
        -10.10893983080632
      ],
      [
        "Ġsubstance",
        -10.11083116092705
      ],
      [
        "Ġextensive",
        -10.111013692089006
      ],
      [
        "Ġbathroom",
        -10.111033081740024
      ],
      [
        "Ġrealize",
        -10.111255829292569
      ],
      [
        "Ġorange",
        -10.111305351570383
      ],
      [
        "Ġim",
        -10.11152853954487
      ],
      [
        "Ġspeaker",
        -10.111866174173542
      ],
      [
        "Ġsurvive",
        -10.112314553154388
      ],
      [
        "Ġshot",
        -10.112438870360842
      ],
      [
        "ĠStr",
        -10.112598900853571
      ],
      [
        "Ġchoos",
        -10.112744786488063
      ],
      [
        "Ġsecret",
        -10.112865558655791
      ],
      [
        "Ġdefine",
        -10.11316123486879
      ],
      [
        "Ġwhose",
        -10.113982308300104
      ],
      [
        "Ġflood",
        -10.114826037248736
      ],
      [
        "Conclusion",
        -10.114957747421316
      ],
      [
        "Ġgraph",
        -10.114990190798212
      ],
      [
        "ram",
        -10.115120487396709
      ],
      [
        "pper",
        -10.11567737869838
      ],
      [
        "EN",
        -10.11589119152708
      ],
      [
        "inary",
        -10.11590905790468
      ],
      [
        "cro",
        -10.116342481638746
      ],
      [
        "Ġreality",
        -10.116465741637208
      ],
      [
        "Ġassembl",
        -10.116706844081566
      ],
      [
        "Ġincredibl",
        -10.118442167132123
      ],
      [
        "Ġmorning",
        -10.118444809227206
      ],
      [
        "ĠJohn",
        -10.118744921762374
      ],
      [
        "Ġmeeting",
        -10.11971900538055
      ],
      [
        "position",
        -10.120125292324232
      ],
      [
        "Ġbeneficial",
        -10.120307413446346
      ],
      [
        "Ġexchange",
        -10.12035947819221
      ],
      [
        "Ġprocedure",
        -10.120612573402688
      ],
      [
        "Br",
        -10.121052727249646
      ],
      [
        "Ġrice",
        -10.122040312474864
      ],
      [
        "Ġlegal",
        -10.122308485959444
      ],
      [
        "Ġtoxic",
        -10.12265853952954
      ],
      [
        "house",
        -10.122728810202728
      ],
      [
        "ĠWo",
        -10.123078607758483
      ],
      [
        "Ġbear",
        -10.123497693272585
      ],
      [
        "Ġthousands",
        -10.12386961143553
      ],
      [
        "Ġscar",
        -10.12399177377428
      ],
      [
        "ologist",
        -10.124005311046783
      ],
      [
        "Ġcounter",
        -10.124564285275715
      ],
      [
        "ule",
        -10.12533841578868
      ],
      [
        "ĠEast",
        -10.126385345532489
      ],
      [
        "Ġbutton",
        -10.126419911534402
      ],
      [
        "morph",
        -10.127491866818929
      ],
      [
        "els",
        -10.128908945931675
      ],
      [
        "Ġheal",
        -10.12961157902328
      ],
      [
        "Ġinjury",
        -10.129694220955638
      ],
      [
        "bot",
        -10.130761028097677
      ],
      [
        "Ġdistinct",
        -10.130951267867282
      ],
      [
        "La",
        -10.131234283296012
      ],
      [
        "Ġlarges",
        -10.1312827222485
      ],
      [
        "SP",
        -10.132336181280008
      ],
      [
        "mor",
        -10.132936748201033
      ],
      [
        "ĠCol",
        -10.13359240517302
      ],
      [
        "Ġfinger",
        -10.13366160702095
      ],
      [
        "Ġloose",
        -10.133885424846532
      ],
      [
        "CH",
        -10.134104975439422
      ],
      [
        "Ġargument",
        -10.13535950236803
      ],
      [
        "Ġmixture",
        -10.135698538474472
      ],
      [
        "Ġmeter",
        -10.1360164393979
      ],
      [
        "ĠAdd",
        -10.136394557961582
      ],
      [
        "Most",
        -10.13681758973978
      ],
      [
        "Ġanxiet",
        -10.139158117441204
      ],
      [
        "Ġradiation",
        -10.139206131406086
      ],
      [
        "Ġreactions",
        -10.139263865636902
      ],
      [
        "ĠRiver",
        -10.139510655951712
      ],
      [
        "down",
        -10.140496939049498
      ],
      [
        "Ġthrow",
        -10.141140240298046
      ],
      [
        "ĠSho",
        -10.14134917145044
      ],
      [
        "Ġcareer",
        -10.141587991775374
      ],
      [
        "Ġcalci",
        -10.14262150283804
      ],
      [
        "Ġtrick",
        -10.143509038682264
      ],
      [
        "eva",
        -10.143633242496945
      ],
      [
        "Ġenzyme",
        -10.1448833121607
      ],
      [
        "Ġleaf",
        -10.144914148704924
      ],
      [
        "Ġhydro",
        -10.146029309910997
      ],
      [
        "Ġvoice",
        -10.146917351699209
      ],
      [
        "Ġlung",
        -10.147084788488026
      ],
      [
        "Ġplane",
        -10.147931100746591
      ],
      [
        "ĠJu",
        -10.148219465118212
      ],
      [
        "AC",
        -10.14842043237102
      ],
      [
        "Fig",
        -10.148448521872066
      ],
      [
        "ĠEducation",
        -10.148730049986044
      ],
      [
        "RA",
        -10.148992369286807
      ],
      [
        "ney",
        -10.14918671827478
      ],
      [
        "Ġrid",
        -10.14925956986938
      ],
      [
        "ĠPark",
        -10.150006227637906
      ],
      [
        "Ġlay",
        -10.15024928591336
      ],
      [
        "Ġproducing",
        -10.150641569294493
      ],
      [
        "Ġfossil",
        -10.150641760945476
      ],
      [
        "ĠMarch",
        -10.1510420466856
      ],
      [
        "ĠLake",
        -10.151238388432208
      ],
      [
        "Ġpound",
        -10.152044921476088
      ],
      [
        "Ġguy",
        -10.15206832200088
      ],
      [
        "inches",
        -10.15262113596978
      ],
      [
        "Ġroute",
        -10.152929162085528
      ],
      [
        "hel",
        -10.15445465421473
      ],
      [
        "ĠService",
        -10.154498966637709
      ],
      [
        "Ġvertical",
        -10.154523230847476
      ],
      [
        "Ġbudget",
        -10.15453543095471
      ],
      [
        "Ġrisks",
        -10.154742791041013
      ],
      [
        "Ġvs",
        -10.155028696597896
      ],
      [
        "oxide",
        -10.155406080047982
      ],
      [
        ");",
        -10.155955855150296
      ],
      [
        "Ġemail",
        -10.15643519313958
      ],
      [
        "Ġdensity",
        -10.15643796245347
      ],
      [
        "print",
        -10.156740501331711
      ],
      [
        "Ġworse",
        -10.15691979348036
      ],
      [
        "itch",
        -10.157301845410242
      ],
      [
        "SC",
        -10.158703701243883
      ],
      [
        "ux",
        -10.159021543862664
      ],
      [
        "Ġreduction",
        -10.15902567200158
      ],
      [
        "Ġstandards",
        -10.159419263065896
      ],
      [
        "Ġfoundation",
        -10.1595479602732
      ],
      [
        "Ġsuffer",
        -10.159862986949104
      ],
      [
        "Ġthorough",
        -10.16031273618189
      ],
      [
        "Ġpolicy",
        -10.16031349492679
      ],
      [
        "ĠJune",
        -10.160370941874238
      ],
      [
        "Ġworry",
        -10.160572262832108
      ],
      [
        "Ġ<",
        -10.161338216284934
      ],
      [
        "Ġrough",
        -10.162286248558807
      ],
      [
        "Ġdress",
        -10.162298903595982
      ],
      [
        "with",
        -10.162530478835103
      ],
      [
        "atur",
        -10.162862824231556
      ],
      [
        "now",
        -10.163410149513332
      ],
      [
        "like",
        -10.163561043787304
      ],
      [
        "Ġfi",
        -10.16431385369464
      ],
      [
        "Ġwing",
        -10.164463917165246
      ],
      [
        "Ġstrip",
        -10.164722936820253
      ],
      [
        "Ġlitera",
        -10.165117490929635
      ],
      [
        "discovered",
        -10.165615038234955
      ],
      [
        "latest",
        -10.16578642701406
      ],
      [
        "Finally",
        -10.165901276869803
      ],
      [
        "Ġtooth",
        -10.166448897939484
      ],
      [
        "Ġpropose",
        -10.16648130880379
      ],
      [
        "Clean",
        -10.166615396929526
      ],
      [
        "Ġdetail",
        -10.166713896972531
      ],
      [
        "Ġinvest",
        -10.166837843540492
      ],
      [
        "mar",
        -10.16775133077496
      ],
      [
        "solv",
        -10.168608047371942
      ],
      [
        "ĠTru",
        -10.169944992521314
      ],
      [
        "ership",
        -10.170556761048694
      ],
      [
        "Ġengineer",
        -10.1707977419659
      ],
      [
        "CO",
        -10.171894710390395
      ],
      [
        "struct",
        -10.172214911262298
      ],
      [
        "Ġcarefully",
        -10.172625357010595
      ],
      [
        "PA",
        -10.1730401020947
      ],
      [
        "what",
        -10.173374987767527
      ],
      [
        "Ġmovie",
        -10.174255331477047
      ],
      [
        "TH",
        -10.175617660999944
      ],
      [
        "Ġresident",
        -10.176151220206243
      ],
      [
        "Ġpanels",
        -10.176201015021924
      ],
      [
        "ĠGuide",
        -10.17620340524454
      ],
      [
        "Ġsituations",
        -10.176277591671344
      ],
      [
        "Ġprove",
        -10.176574081909193
      ],
      [
        "Ġcoal",
        -10.17708925189062
      ],
      [
        "Ġdrain",
        -10.17804301044852
      ],
      [
        "Ġpromot",
        -10.17806082766528
      ],
      [
        "Ġchip",
        -10.178718586130625
      ],
      [
        "Ġchronic",
        -10.179940465084917
      ],
      [
        "ĠInternational",
        -10.180045069753866
      ],
      [
        "Ġcreature",
        -10.18088722178651
      ],
      [
        "jo",
        -10.181990760566864
      ],
      [
        "Ġinterface",
        -10.18200272043265
      ],
      [
        "rob",
        -10.182135390682893
      ],
      [
        "Ġlifestyle",
        -10.182219627722056
      ],
      [
        "ĠDog",
        -10.18226635478539
      ],
      [
        "Ġimprovement",
        -10.182542522571554
      ],
      [
        "Ġfertilizer",
        -10.182852526345124
      ],
      [
        "Ġisland",
        -10.183214734012628
      ],
      [
        "Ġpowder",
        -10.183912704973206
      ],
      [
        "comp",
        -10.184006548388084
      ],
      [
        "Ġbiological",
        -10.184524746585064
      ],
      [
        "Ġassessment",
        -10.184548285848448
      ],
      [
        "Ġmention",
        -10.184799679095091
      ],
      [
        "ĠGod",
        -10.184956171911242
      ],
      [
        "Ġreceiv",
        -10.185204860329735
      ],
      [
        "Ġobjective",
        -10.185292859879851
      ],
      [
        "TO",
        -10.185371948738757
      ],
      [
        "turn",
        -10.18578437989631
      ],
      [
        "Ġcollege",
        -10.185904847128867
      ],
      [
        "Ġminimum",
        -10.185906132351512
      ],
      [
        "bil",
        -10.186138113144896
      ],
      [
        "eel",
        -10.186488674842854
      ],
      [
        "Ġadopt",
        -10.186850240749642
      ],
      [
        "ĠTri",
        -10.187564792398328
      ],
      [
        "Ġadvis",
        -10.187903254109887
      ],
      [
        "ĠFo",
        -10.18830277724388
      ],
      [
        "/or",
        -10.18877146175858
      ],
      [
        "Ġcapabilit",
        -10.189004385317098
      ],
      [
        "Ġobservation",
        -10.189101475977983
      ],
      [
        "Ġmission",
        -10.18945819004206
      ],
      [
        "Ġdecades",
        -10.189723670347764
      ],
      [
        "bel",
        -10.189851768499514
      ],
      [
        "inter",
        -10.189944488453127
      ],
      [
        "Ġintake",
        -10.19015327292458
      ],
      [
        "exp",
        -10.190212497968286
      ],
      [
        "ĠHave",
        -10.190588995617391
      ],
      [
        "Ġsupplie",
        -10.190852336803824
      ],
      [
        "Ġtests",
        -10.191791579627528
      ],
      [
        "Ġcoordinat",
        -10.191904738848518
      ],
      [
        "Ġgap",
        -10.191984917400642
      ],
      [
        "Ġdish",
        -10.192191241403096
      ],
      [
        "Ġstatus",
        -10.19239849243456
      ],
      [
        "pat",
        -10.193768804193162
      ],
      [
        "Ġstroke",
        -10.193932446557763
      ],
      [
        "ĠIsland",
        -10.19454218263974
      ],
      [
        "Ġinfections",
        -10.194819545815168
      ],
      [
        "Ġphotos",
        -10.195188847970504
      ],
      [
        "Ġpets",
        -10.195302061516076
      ],
      [
        "verse",
        -10.195521780621045
      ],
      [
        "Ġgenerator",
        -10.196017856759491
      ],
      [
        "ground",
        -10.19686837737059
      ],
      [
        "ĠKe",
        -10.197257686126136
      ],
      [
        "ĠBlue",
        -10.197855717568522
      ],
      [
        "Ġofficial",
        -10.197947715252605
      ],
      [
        "Ġinstallation",
        -10.197989237067809
      ],
      [
        "Ġstable",
        -10.19841038409586
      ],
      [
        "Ġagent",
        -10.19912473462866
      ],
      [
        "Ġautomatic",
        -10.1992174759414
      ],
      [
        "Ġbutter",
        -10.199951849695411
      ],
      [
        "Ġchapter",
        -10.19996118092232
      ],
      [
        "Ġclassroom",
        -10.200071552966447
      ],
      [
        "stone",
        -10.20028541366917
      ],
      [
        "ĠMc",
        -10.201015863084772
      ],
      [
        "mate",
        -10.2023863079369
      ],
      [
        "than",
        -10.202538185384473
      ],
      [
        "stock",
        -10.20295682218751
      ],
      [
        "uni",
        -10.203040008647337
      ],
      [
        "Ġsmoke",
        -10.203111784042727
      ],
      [
        "rib",
        -10.203121331026884
      ],
      [
        "ĠLu",
        -10.203750595895087
      ],
      [
        "Ġaudience",
        -10.204014021037365
      ],
      [
        "ĠCanada",
        -10.204054302081447
      ],
      [
        "Ġhousehold",
        -10.20408587413231
      ],
      [
        "According",
        -10.20418794206447
      ],
      [
        "old",
        -10.204518625860462
      ],
      [
        "ĠChar",
        -10.204585195293022
      ],
      [
        "Ġfirm",
        -10.205127938400068
      ],
      [
        "Ġcustom",
        -10.205136972083746
      ],
      [
        "Ġestablish",
        -10.205316466954647
      ],
      [
        "Ġraise",
        -10.20576053340164
      ],
      [
        "Ġchallenging",
        -10.206046336529866
      ],
      [
        "Ġplanting",
        -10.206120216169474
      ],
      [
        "ounce",
        -10.20617976633323
      ],
      [
        "ĠLook",
        -10.206649675378369
      ],
      [
        "Your",
        -10.20673995115764
      ],
      [
        "Ġbelong",
        -10.206774285361616
      ],
      [
        "Ġborn",
        -10.207593992712107
      ],
      [
        "Ġhelping",
        -10.208061847685308
      ],
      [
        "Ð",
        -10.20808299640214
      ],
      [
        "Ġdiversity",
        -10.208105420812265
      ],
      [
        "acific",
        -10.208136853922124
      ],
      [
        "Ġadvance",
        -10.208531879764854
      ],
      [
        "Thank",
        -10.209843372463917
      ],
      [
        "ĠBoth",
        -10.209973267804024
      ],
      [
        "rine",
        -10.210033619338182
      ],
      [
        "Ġband",
        -10.210115823756954
      ],
      [
        "~",
        -10.21012381272866
      ],
      [
        "Ġtransmission",
        -10.210166661490137
      ],
      [
        "ball",
        -10.210478636281865
      ],
      [
        "ĠRed",
        -10.211432553584244
      ],
      [
        "referred",
        -10.211597945391173
      ],
      [
        "Ġnutrition",
        -10.21201853597604
      ],
      [
        "Ġacademic",
        -10.212168809748215
      ],
      [
        "Ġmeasured",
        -10.21240073988002
      ],
      [
        "Ġinstrument",
        -10.212765419910609
      ],
      [
        "Ġsharp",
        -10.213147321543346
      ],
      [
        "Ġsensitive",
        -10.213229582837709
      ],
      [
        "that",
        -10.214063704334963
      ],
      [
        "Dr",
        -10.21413806876203
      ],
      [
        "ĠCha",
        -10.214178663336693
      ],
      [
        "Ġgather",
        -10.21422857335547
      ],
      [
        "ĠComp",
        -10.214530143895974
      ],
      [
        "Ġdecide",
        -10.214766185403844
      ],
      [
        "name",
        -10.214835377451225
      ],
      [
        "gram",
        -10.214915725091483
      ],
      [
        "ĠHome",
        -10.215764990182349
      ],
      [
        "ł",
        -10.216271370921929
      ],
      [
        "ĠSaudi",
        -10.216295213285065
      ],
      [
        "Ġcopy",
        -10.21676160299416
      ],
      [
        "Ġinternet",
        -10.218466877588009
      ],
      [
        "Ġwish",
        -10.218793846100752
      ],
      [
        "aster",
        -10.219879150285506
      ],
      [
        "Ġfixed",
        -10.220194141985369
      ],
      [
        "pan",
        -10.220936767141993
      ],
      [
        "Ġassume",
        -10.221231922799292
      ],
      [
        "ĠBra",
        -10.221681927664283
      ],
      [
        "ME",
        -10.221750184472198
      ],
      [
        "Onc",
        -10.222087648472767
      ],
      [
        "ĠJuly",
        -10.222174762130908
      ],
      [
        "Ġcompetition",
        -10.22245696316389
      ],
      [
        "-time",
        -10.223719508750746
      ],
      [
        "NO",
        -10.223889889125498
      ],
      [
        "ĠBas",
        -10.224419321872476
      ],
      [
        "Ġbulb",
        -10.224531641014398
      ],
      [
        "EL",
        -10.224734048135373
      ],
      [
        "Ġpuppy",
        -10.225493165916138
      ],
      [
        "Ġshared",
        -10.226984909007818
      ],
      [
        "Ġtail",
        -10.227019088504552
      ],
      [
        "Ġvent",
        -10.227645337461428
      ],
      [
        "Ġexplor",
        -10.227935100077566
      ],
      [
        "Ġprey",
        -10.228214254879628
      ],
      [
        "Lo",
        -10.228402260415136
      ],
      [
        "ĠCu",
        -10.228660219669354
      ],
      [
        "Ġremote",
        -10.22868108547232
      ],
      [
        "Com",
        -10.229016831809613
      ],
      [
        "Ġlaser",
        -10.229184372042184
      ],
      [
        "Ġevaluate",
        -10.229268551415398
      ],
      [
        "nov",
        -10.22938092444071
      ],
      [
        "Ġwound",
        -10.230764775497276
      ],
      [
        "Ġexcessive",
        -10.23136052920995
      ],
      [
        "rom",
        -10.231489839907594
      ],
      [
        "cip",
        -10.231733910266328
      ],
      [
        "Ġlinked",
        -10.232358638335803
      ],
      [
        "take",
        -10.233018861107649
      ],
      [
        "Ġmal",
        -10.233682521227196
      ],
      [
        "Ġdigest",
        -10.234050935196084
      ],
      [
        "Ġalcohol",
        -10.234944106947646
      ],
      [
        "Ġdu",
        -10.23497407555749
      ],
      [
        "Ġapart",
        -10.23615434312656
      ],
      [
        "Ġaliv",
        -10.236555732007114
      ],
      [
        "Ġmeasurement",
        -10.236753207630976
      ],
      [
        "Ġamazing",
        -10.237041119472863
      ],
      [
        "Ġepi",
        -10.237167729095136
      ],
      [
        "Ġmini",
        -10.23732395484054
      ],
      [
        "Ġmild",
        -10.23759586850284
      ],
      [
        "Ġmistake",
        -10.238732822798646
      ],
      [
        "active",
        -10.238795013865502
      ],
      [
        "raw",
        -10.239032988968637
      ],
      [
        "ĠOut",
        -10.239425148741471
      ],
      [
        "Ġseek",
        -10.239449822873391
      ],
      [
        "uk",
        -10.23996928665238
      ],
      [
        "Ġconsideration",
        -10.240589434554206
      ],
      [
        "Ġlift",
        -10.241127151963989
      ],
      [
        "Ġlibrary",
        -10.241246719938095
      ],
      [
        "Ġevolve",
        -10.24124743045983
      ],
      [
        "Ġconsequence",
        -10.241248362617714
      ],
      [
        "Ġawareness",
        -10.24167141106821
      ],
      [
        "Spec",
        -10.242697521478362
      ],
      [
        "ĠCheck",
        -10.243017231513036
      ],
      [
        "Ġinflammation",
        -10.243356350158953
      ],
      [
        "Ġderive",
        -10.24340656852127
      ],
      [
        "Ġleaving",
        -10.243421806043528
      ],
      [
        "Ġcompos",
        -10.244089761813624
      ],
      [
        "burg",
        -10.24449044844208
      ],
      [
        "Ġpea",
        -10.244604400183828
      ],
      [
        "].",
        -10.24524128595596
      ],
      [
        "Ġconcrete",
        -10.245470517216976
      ],
      [
        "Ġkidney",
        -10.245498005042492
      ],
      [
        "Ġnerve",
        -10.245747946704473
      ],
      [
        "fil",
        -10.246197787969802
      ],
      [
        "Ġpar",
        -10.246205710475662
      ],
      [
        "Ġgut",
        -10.246457394336556
      ],
      [
        "Ġbrough",
        -10.246768515230812
      ],
      [
        "range",
        -10.246883891499516
      ],
      [
        "ĠII",
        -10.246983726928406
      ],
      [
        "facing",
        -10.247362165717202
      ],
      [
        "ĠFurther",
        -10.247666276879931
      ],
      [
        "Ġtight",
        -10.247809882194051
      ],
      [
        "lite",
        -10.24787453637541
      ],
      [
        "ĠFish",
        -10.24858985856217
      ],
      [
        "Ġbill",
        -10.249405650296035
      ],
      [
        "Ġuniverse",
        -10.24971589872389
      ],
      [
        "ĠTake",
        -10.250275023824416
      ],
      [
        "ich",
        -10.250988845625416
      ],
      [
        "Ġtall",
        -10.251822526693276
      ],
      [
        "More",
        -10.252539924552469
      ],
      [
        "ĠCap",
        -10.252923832860706
      ],
      [
        "graph",
        -10.253632114758297
      ],
      [
        "Ġquantum",
        -10.253972186017192
      ],
      [
        "Ġappeal",
        -10.25402553672821
      ],
      [
        "Gr",
        -10.254249884565867
      ],
      [
        "Ġanalyze",
        -10.255428392178413
      ],
      [
        "ama",
        -10.255583285556924
      ],
      [
        "Ġmin",
        -10.255902874081404
      ],
      [
        "âĢĭ",
        -10.256117606577735
      ],
      [
        "Ġenvironments",
        -10.256751297880207
      ],
      [
        "Ġtoilet",
        -10.25678526551826
      ],
      [
        "ĠLife",
        -10.25696730746695
      ],
      [
        "ĠGoogle",
        -10.257058515089096
      ],
      [
        "Ġprofessor",
        -10.25825027583313
      ],
      [
        "BC",
        -10.259680870284086
      ],
      [
        "gent",
        -10.259807263739924
      ],
      [
        "ĠConsider",
        -10.260370665627915
      ],
      [
        "TA",
        -10.260375869272483
      ],
      [
        "Ġhormone",
        -10.260396162777887
      ],
      [
        "Ġuniversit",
        -10.260396526871434
      ],
      [
        "Ġdestroy",
        -10.260399337769735
      ],
      [
        "Ġprior",
        -10.260542144532552
      ],
      [
        "&",
        -10.261162674402932
      ],
      [
        "Ġrecovery",
        -10.261288776878366
      ],
      [
        "ĠUp",
        -10.261297511837608
      ],
      [
        "Ġsex",
        -10.262349869190324
      ],
      [
        "ĠTechnology",
        -10.262546711096052
      ],
      [
        "Ġstreet",
        -10.26254758225441
      ],
      [
        "Ġbarrier",
        -10.262548616685022
      ],
      [
        "Ġbeauty",
        -10.26255053760634
      ],
      [
        "Ġpepper",
        -10.262557612522851
      ],
      [
        "Ġguideline",
        -10.26320171689276
      ],
      [
        "Ġrandom",
        -10.264708026419196
      ],
      [
        "Ġemployee",
        -10.26484248081286
      ],
      [
        "Ġshoes",
        -10.264940258408066
      ],
      [
        "proof",
        -10.26590435763457
      ],
      [
        "Ġcommitment",
        -10.266861733481251
      ],
      [
        "Ġsediment",
        -10.266862752255433
      ],
      [
        "ĠLED",
        -10.267261505699944
      ],
      [
        "Â°",
        -10.26796377875658
      ],
      [
        "Ġlie",
        -10.267997546387502
      ],
      [
        "Ĥ",
        -10.269026198331115
      ],
      [
        "Ġrapidly",
        -10.26975640721304
      ],
      [
        "Ġinner",
        -10.269787332494486
      ],
      [
        "ĠAsia",
        -10.26988582741028
      ],
      [
        "Ġminimize",
        -10.270511117865183
      ],
      [
        "Ġzero",
        -10.271202194669907
      ],
      [
        "Ġmobile",
        -10.271474244868228
      ],
      [
        "Ġflea",
        -10.271716980479024
      ],
      [
        "Ġpanel",
        -10.271891212312582
      ],
      [
        "Ġsports",
        -10.27216034084814
      ],
      [
        "Ġcolon",
        -10.272714779905954
      ],
      [
        "Ġpassage",
        -10.272780041813697
      ],
      [
        "lysis",
        -10.27314293835517
      ],
      [
        "HO",
        -10.2734927557544
      ],
      [
        "Ġnano",
        -10.273688334914556
      ],
      [
        "shore",
        -10.2741331738399
      ],
      [
        "Ġparticipants",
        -10.275519904491176
      ],
      [
        "Ġsufficient",
        -10.275547959115883
      ],
      [
        "Ġera",
        -10.276086742614764
      ],
      [
        "Ġdelay",
        -10.276156128596076
      ],
      [
        "Ġwa",
        -10.276239488240527
      ],
      [
        "Let",
[...]
