{
  "version": "1.0",
  "truncation": null,
  "padding": null,
  "added_tokens": [
    {
      "id": 0,
      "content": "<|bos|>",
      "single_word": false,
      "lstrip": false,
      "rstrip": false,
      "normalized": false,
      "special": true
    },
    {
      "id": 1,
      "content": "<|user_start|>",
      "single_word": false,
      "lstrip": false,
      "rstrip": false,
      "normalized": false,
      "special": true
    },
    {
      "id": 2,
      "content": "<|user_end|>",
      "single_word": false,
      "lstrip": false,
      "rstrip": false,
      "normalized": false,
      "special": true
    },
    {
      "id": 3,
      "content": "<|assistant_start|>",
      "single_word": false,
      "lstrip": false,
      "rstrip": false,
      "normalized": false,
      "special": true
    },
    {
      "id": 4,
      "content": "<|assistant_end|>",
      "single_word": false,
      "lstrip": false,
      "rstrip": false,
      "normalized": false,
      "special": true
    },
    {
      "id": 5,
      "content": "<|python_start|>",
      "single_word": false,
      "lstrip": false,
      "rstrip": false,
      "normalized": false,
      "special": true
    },
    {
      "id": 6,
      "content": "<|python_end|>",
      "single_word": false,
      "lstrip": false,
      "rstrip": false,
      "normalized": false,
      "special": true
    },
    {
      "id": 7,
      "content": "<|output_start|>",
      "single_word": false,
      "lstrip": false,
      "rstrip": false,
      "normalized": false,
      "special": true
    },
    {
      "id": 8,
      "content": "<|output_end|>",
      "single_word": false,
      "lstrip": false,
      "rstrip": false,
      "normalized": false,
      "special": true
    },
    {
      "id": 9,
      "content": "<|unk|>",
      "single_word": false,
      "lstrip": false,
      "rstrip": false,
      "normalized": false,
      "special": true
    }
  ],
  "normalizer": null,
  "pre_tokenizer": {
    "type": "Sequence",
    "pretokenizers": [
      {
        "type": "Split",
        "pattern": {
          "Regex": "'(?i:[sdmt]|ll|ve|re)|[^\\r\\n\\p{L}\\p{N}]?+\\p{L}+|\\p{N}{1,2}| ?[^\\s\\p{L}\\p{N}]++[\\r\\n]*|\\s*[\\r\\n]|\\s+(?!\\S)|\\s+"
        },
        "behavior": "Isolated",
        "invert": false
      },
      {
        "type": "ByteLevel",
        "add_prefix_space": false,
        "trim_offsets": true,
        "use_regex": false
      }
    ]
  },
  "post_processor": {
    "type": "TemplateProcessing",
    "single": [
      {
        "Sequence": {
          "id": "A",
          "type_id": 0
        }
      }
    ],
    "pair": [
      {
        "Sequence": {
          "id": "A",
          "type_id": 0
        }
      },
      {
        "Sequence": {
          "id": "B",
          "type_id": 1
        }
      }
    ],
    "special_tokens": {}
  },
  "decoder": {
    "type": "ByteLevel",
    "add_prefix_space": true,
    "trim_offsets": true,
    "use_regex": true
  },
  "model": {
    "type": "Unigram",
    "unk_id": 9,
    "vocab": [
      [
        "<|bos|>",
        -1.0
      ],
      [
        "<|user_start|>",
        -1.0
      ],
      [
        "<|user_end|>",
        -1.0
      ],
      [
        "<|assistant_start|>",
        -1.0
      ],
      [
        "<|assistant_end|>",
        -1.0
      ],
      [
        "<|python_start|>",
        -1.0
      ],
      [
        "<|python_end|>",
        -1.0
      ],
      [
        "<|output_start|>",
        -1.0
      ],
      [
        "<|output_end|>",
        -1.0
      ],
      [
        "<|unk|>",
        -1.0
      ],
      [
        "wi",
        -1.0
      ],
      [
        "Ġbites",
        -1.0
      ],
      [
        "Ġpredator",
        -1.0
      ],
      [
        "isted",
        -1.0
      ],
      [
        "Ġour",
        -1.0
      ],
      [
        "Ġpulled",
        -1.0
      ],
      [
        "-drained",
        -1.0
      ],
      [
        "ĠOcean",
        -1.0
      ],
      [
        "Keep",
        -1.0
      ],
      [
        "Ġevent",
        -1.0
      ],
      [
        "Ġunion",
        -1.0
      ],
      [
        "Ġhandles",
        -1.0
      ],
      [
        "15",
        -1.0
      ],
      [
        "Ġpros",
        -1.0
      ],
      [
        "How",
        -1.0
      ],
      [
        "-li",
        -1.0
      ],
      [
        "ative",
        -1.0
      ],
      [
        "/h",
        -1.0
      ],
      [
        "Ġblank",
        -1.0
      ],
      [
        "Ġden",
        -1.0
      ],
      [
        "Ġtelephone",
        -1.0
      ],
      [
        "ĠStop",
        -1.0
      ],
      [
        "Full",
        -1.0
      ],
      [
        "Ġchallenge",
        -1.0
      ],
      [
        "bre",
        -1.0
      ],
      [
        "ĠMatt",
        -1.0
      ],
      [
        "Ġfe",
        -1.0
      ],
      [
        "Ġprepared",
        -1.0
      ],
      [
        "Ġpleasant",
        -1.0
      ],
      [
        "Ġcurved",
        -1.0
      ],
      [
        "Ġtechnique",
        -1.0
      ],
      [
        "Ġlie",
        -1.0
      ],
      [
        "orous",
        -1.0
      ],
      [
        "ĠIndustry",
        -1.0
      ],
      [
        "var",
        -1.0
      ],
      [
        "ĠCal",
        -1.0
      ],
      [
        "Dogs",
        -1.0
      ],
      [
        "Ġcontact",
        -1.0
      ],
      [
        "WO",
        -1.0
      ],
      [
        "ĠCompany",
        -1.0
      ],
      [
        "Ġwanted",
        -1.0
      ],
      [
        "ops",
        -1.0
      ],
      [
        "ĠProgramme",
        -1.0
      ],
      [
        "ĠOptim",
        -1.0
      ],
      [
        "Ġtimer",
        -1.0
      ],
      [
        "Ġmonsoon",
        -1.0
      ],
      [
        "ĠiPhone",
        -1.0
      ],
      [
        "ĠAdapt",
        -1.0
      ],
      [
        "Origin",
        -1.0
      ],
      [
        "Ġperforming",
        -1.0
      ],
      [
        "inf",
        -1.0
      ],
      [
        "ngh",
        -1.0
      ],
      [
        "Ġschedule",
        -1.0
      ],
      [
        "Ġparamount",
        -1.0
      ],
      [
        "Ġflaw",
        -1.0
      ],
      [
        "Ġtwice",
        -1.0
      ],
      [
        "Ġgecko",
        -1.0
      ],
      [
        "ease",
        -1.0
      ],
      [
        "Ġcreator",
        -1.0
      ],
      [
        "zard",
        -1.0
      ],
      [
        "ĠHe",
        -1.0
      ],
      [
        "Ġclearly",
        -1.0
      ],
      [
        "Ġlongest",
        -1.0
      ],
      [
        "Ġspraying",
        -1.0
      ],
      [
        "word",
        -1.0
      ],
      [
        "Ġpotting",
        -1.0
      ],
      [
        "ĠTherapy",
        -1.0
      ],
      [
        "Hy",
        -1.0
      ],
      [
        "real",
        -1.0
      ],
      [
        "IG",
        -1.0
      ],
      [
        "Ġfusion",
        -1.0
      ],
      [
        "ĠBenefits",
        -1.0
      ],
      [
        "ĠIndigenous",
        -1.0
      ],
      [
        "le",
        -1.0
      ],
      [
        "Ġadrenal",
        -1.0
      ],
      [
        "Ġmovie",
        -1.0
      ],
      [
        "Ġbrief",
        -1.0
      ],
      [
        "oca",
        -1.0
      ],
      [
        "das",
        -1.0
      ],
      [
        "ìĥģê¸°",
        -1.0
      ],
      [
        "Ġforage",
        -1.0
      ],
      [
        "Ġmodels",
        -1.0
      ],
      [
        "Ġradar",
        -1.0
      ],
      [
        "Ġoverlap",
        -1.0
      ],
      [
        "ĠSymbol",
        -1.0
      ],
      [
        "tics",
        -1.0
      ],
      [
        "Ġawards",
        -1.0
      ],
      [
        "Ġtear",
        -1.0
      ],
      [
        "ĠFour",
        -1.0
      ],
      [
        "ults",
        -1.0
      ],
      [
        "Ġelephant",
        -1.0
      ],
      [
        "ynchronous",
        -1.0
      ],
      [
        "bn",
        -1.0
      ],
      [
        "Ġsecurely",
        -1.0
      ],
      [
        "Ġbelieving",
        -1.0
      ],
      [
        "oxide",
        -1.0
      ],
      [
        "-range",
        -1.0
      ],
      [
        "h",
        -1.0
      ],
      [
        "iw",
        -1.0
      ],
      [
        "Ġnurses",
        -1.0
      ],
      [
        "ĠAlbert",
        -1.0
      ],
      [
        "Ġfeels",
        -1.0
      ],
      [
        "ĠFigure",
        -1.0
      ],
      [
        "Ġseaweed",
        -1.0
      ],
      [
        "Ġremains",
        -1.0
      ],
      [
        "PL",
        -1.0
      ],
      [
        "Ġmanagement",
        -1.0
      ],
      [
        "Ġabdominal",
        -1.0
      ],
      [
        ")ĊĊ",
        -1.0
      ],
      [
        "Ġentrance",
        -1.0
      ],
      [
        "Ġchampion",
        -1.0
      ],
      [
        "Ġerect",
        -1.0
      ],
      [
        "ocal",
        -1.0
      ],
      [
        "Ġcollapse",
        -1.0
      ],
      [
        "Ġprecisely",
        -1.0
      ],
      [
        "ĠUnlike",
        -1.0
      ],
      [
        "ndra",
        -1.0
      ],
      [
        "Ġdisorders",
        -1.0
      ],
      [
        "Ġdual",
        -1.0
      ],
      [
        "ĠUSDA",
        -1.0
      ],
      [
        "Ġembryo",
        -1.0
      ],
      [
        "ĠInstitute",
        -1.0
      ],
      [
        "Ġionic",
        -1.0
      ],
      [
        "Ġstaff",
        -1.0
      ],
      [
        "Ġfungus",
        -1.0
      ],
      [
        "Ġneo",
        -1.0
      ],
      [
        "ĠGlasgow",
        -1.0
      ],
      [
        "Ġfacts",
        -1.0
      ],
      [
        "bbed",
        -1.0
      ],
      [
        "made",
        -1.0
      ],
      [
        "Ġactiv",
        -1.0
      ],
      [
        "Ġstarter",
        -1.0
      ],
      [
        "{\\",
        -1.0
      ],
      [
        "Ġupset",
        -1.0
      ],
      [
        "Does",
        -1.0
      ],
      [
        "ler",
        -1.0
      ],
      [
        "..ĊĊ",
        -1.0
      ],
      [
        "Ġprimer",
        -1.0
      ],
      [
        "ĠRod",
        -1.0
      ],
      [
        "Ġpancake",
        -1.0
      ],
      [
        "shift",
        -1.0
      ],
      [
        "Ġleisure",
        -1.0
      ],
      [
        "Ġ_",
        -1.0
      ],
      [
        "Ġpool",
        -1.0
      ],
      [
        "Ġtalking",
        -1.0
      ],
      [
        "Ġmethane",
        -1.0
      ],
      [
        "Ġbru",
        -1.0
      ],
      [
        "Ġquotes",
        -1.0
      ],
      [
        "Ġages",
        -1.0
      ],
      [
        "sist",
        -1.0
      ],
      [
        "rg",
        -1.0
      ],
      [
        "Ġentering",
        -1.0
      ],
      [
        "ĠIII",
        -1.0
      ],
      [
        "Ġcontainers",
        -1.0
      ],
      [
        "Ġgradual",
        -1.0
      ],
      [
        "ĠDa",
        -1.0
      ],
      [
        "¥",
        -1.0
      ],
      [
        "mie",
        -1.0
      ],
      [
        "Ġfacilities",
        -1.0
      ],
      [
        "\"The",
        -1.0
      ],
      [
        "Ġcells",
        -1.0
      ],
      [
        "Ġarises",
        -1.0
      ],
      [
        "Ġsuggestion",
        -1.0
      ],
      [
        "Ġsix",
        -1.0
      ],
      [
        "Ġclassic",
        -1.0
      ],
      [
        "Pres",
        -1.0
      ],
      [
        "Ġdecreased",
        -1.0
      ],
      [
        "Ġoblig",
        -1.0
      ],
      [
        "77",
        -1.0
      ],
      [
        "Ġetc",
        -1.0
      ],
      [
        "Ġstates",
        -1.0
      ],
      [
        "Ġsapiens",
        -1.0
      ],
      [
        "Ġnotable",
        -1.0
      ],
      [
        "sage",
        -1.0
      ],
      [
        "Ġarmed",
        -1.0
      ],
      [
        "ĠTaylor",
        -1.0
      ],
      [
        "log",
        -1.0
      ],
      [
        "ĠCooking",
        -1.0
      ],
      [
        "Ġafternoon",
        -1.0
      ],
      [
        "Ġduring",
        -1.0
      ],
      [
        "NE",
        -1.0
      ],
      [
        "izers",
        -1.0
      ],
      [
        "ĠTech",
        -1.0
      ],
      [
        "Ġpushed",
        -1.0
      ],
      [
        "Ġounces",
        -1.0
      ],
      [
        "ĠEcology",
        -1.0
      ],
      [
        "lk",
        -1.0
      ],
      [
        "Ġmainstream",
        -1.0
      ],
      [
        "Ġinfer",
        -1.0
      ],
      [
        "Ġatom",
        -1.0
      ],
      [
        "ĠObject",
        -1.0
      ],
      [
        "Ġdate",
        -1.0
      ],
      [
        "Ġunfold",
        -1.0
      ],
      [
        "Ġoffices",
        -1.0
      ],
      [
        "oqu",
        -1.0
      ],
      [
        "ĠNOT",
        -1.0
      ],
      [
        "Ġabilities",
        -1.0
      ],
      [
        "Ġremember",
        -1.0
      ],
      [
        "Ġbur",
        -1.0
      ],
      [
        "Ġcapacities",
        -1.0
      ],
      [
        "oll",
        -1.0
      ],
      [
        "aceous",
        -1.0
      ],
      [
        "ĠMap",
        -1.0
      ],
      [
        "Ġairport",
        -1.0
      ],
      [
        "Ġrival",
        -1.0
      ],
      [
        "An",
        -1.0
      ],
      [
        "Ġye",
        -1.0
      ],
      [
        "ĠStory",
        -1.0
      ],
      [
        "Ġproduces",
        -1.0
      ],
      [
        "Ġmeadow",
        -1.0
      ],
      [
        "ĠFill",
        -1.0
      ],
      [
        "Ġanal",
        -1.0
      ],
      [
        "Ġobserving",
        -1.0
      ],
      [
        "OO",
        -1.0
      ],
      [
        "Ġinterested",
        -1.0
      ],
      [
        "Blue",
        -1.0
      ],
      [
        "Ġcrank",
        -1.0
      ],
      [
        "ĠEC",
        -1.0
      ],
      [
        "Ġspecial",
        -1.0
      ],
      [
        "ĠShi",
        -1.0
      ],
      [
        "ĠStreet",
        -1.0
      ],
      [
        "uts",
        -1.0
      ],
      [
        "Ġpromises",
        -1.0
      ],
      [
        "Connect",
        -1.0
      ],
      [
        "tible",
        -1.0
      ],
      [
        "Ġchimpanzee",
        -1.0
      ],
      [
        "-brown",
        -1.0
      ],
      [
        "go",
        -1.0
      ],
      [
        "Ġdonor",
        -1.0
      ],
      [
        "ĠEarth",
        -1.0
      ],
      [
        "hee",
        -1.0
      ],
      [
        "lh",
        -1.0
      ],
      [
        "ika",
        -1.0
      ],
      [
        "ĠÂ·",
        -1.0
      ],
      [
        "ĠSure",
        -1.0
      ],
      [
        "Ġexplained",
        -1.0
      ],
      [
        "Ġprotein",
        -1.0
      ],
      [
        "Ġtac",
        -1.0
      ],
      [
        "AG",
        -1.0
      ],
      [
        "ĠExp",
        -1.0
      ],
      [
        "Ġcarefully",
        -1.0
      ],
      [
        "llen",
        -1.0
      ],
      [
        "itter",
        -1.0
      ],
      [
        "Ġbee",
        -1.0
      ],
      [
        "heat",
        -1.0
      ],
      [
        "ions",
        -1.0
      ],
      [
        "Ġbug",
        -1.0
      ],
      [
        "Ġdisorder",
        -1.0
      ],
      [
        "Ġproduction",
        -1.0
      ],
      [
        "Ġurge",
        -1.0
      ],
      [
        "Ġbeyond",
        -1.0
      ],
      [
        "Ġgrain",
        -1.0
      ],
      [
        "that",
        -1.0
      ],
      [
        "Ġchoose",
        -1.0
      ],
      [
        "ĠCook",
        -1.0
      ],
      [
        "):",
        -1.0
      ],
      [
        "ĠChicken",
        -1.0
      ],
      [
        "ĠMeasure",
        -1.0
      ],
      [
        "ĠEmperor",
        -1.0
      ],
      [
        "Ġtalked",
        -1.0
      ],
      [
        "Ġeconomy",
        -1.0
      ],
      [
        "Ġreserve",
        -1.0
      ],
      [
        "Ġshifts",
        -1.0
      ],
      [
        "ced",
        -1.0
      ],
      [
        "Ġhypo",
        -1.0
      ],
      [
        "Ġupdated",
        -1.0
      ],
      [
        "Ġepidemic",
        -1.0
      ],
      [
        "sexual",
        -1.0
      ],
      [
        "Ġmaritime",
        -1.0
      ],
      [
        "Ġboiled",
        -1.0
      ],
      [
        "Hydr",
        -1.0
      ],
      [
        "eto",
        -1.0
      ],
      [
        "ĠWa",
        -1.0
      ],
      [
        "Ġperpetu",
        -1.0
      ],
      [
        "-life",
        -1.0
      ],
      [
        "Ġprowess",
        -1.0
      ],
      [
        "cript",
        -1.0
      ],
      [
        "Ġuniform",
        -1.0
      ],
      [
        "Si",
        -1.0
      ],
      [
        "IV",
        -1.0
      ],
      [
        "Ġcodes",
        -1.0
      ],
      [
        "Ġidentify",
        -1.0
      ],
      [
        "Ġpoint",
        -1.0
      ],
      [
        "Ġspecialist",
        -1.0
      ],
      [
        "ĠAtom",
        -1.0
      ],
      [
        "ĠAR",
        -1.0
      ],
      [
        "ĠFig",
        -1.0
      ],
      [
        "Ġadulthood",
        -1.0
      ],
      [
        "Ġenergies",
        -1.0
      ],
      [
        "eing",
        -1.0
      ],
      [
        "Ġmood",
        -1.0
      ],
      [
        "yes",
        -1.0
      ],
      [
        "Ġshoulders",
        -1.0
      ],
      [
        "Ġrolls",
        -1.0
      ],
      [
        "Ġretirement",
        -1.0
      ],
      [
        "ags",
        -1.0
      ],
      [
        "Ġcenturies",
        -1.0
      ],
      [
        "Ġideal",
        -1.0
      ],
      [
        "ulating",
        -1.0
      ],
      [
        "Ġcorporate",
        -1.0
      ],
      [
        "ĠPear",
        -1.0
      ],
      [
        "Ġincidents",
        -1.0
      ],
      [
        "ĠWash",
        -1.0
      ],
      [
        "ĠWr",
        -1.0
      ],
      [
        "Enhanc",
        -1.0
      ],
      [
        "ination",
        -1.0
      ],
      [
        "Ġdragon",
        -1.0
      ],
      [
        "Ġtailor",
        -1.0
      ],
      [
        "ĠTell",
        -1.0
      ],
      [
        "Ġtreats",
        -1.0
      ],
      [
        "ĠShe",
        -1.0
      ],
      [
        "Ġaccumulate",
        -1.0
      ],
      [
        "rn",
        -1.0
      ],
      [
        "Ą",
        -1.0
      ],
      [
        "ĠTrail",
        -1.0
      ],
      [
        "Ġstrike",
        -1.0
      ],
      [
        "Light",
        -1.0
      ],
      [
        "ĠText",
        -1.0
      ],
      [
        "Ġshadow",
        -1.0
      ],
      [
        "Ġsilence",
        -1.0
      ],
      [
        "ĠLewis",
        -1.0
      ],
      [
        "quet",
        -1.0
      ],
      [
        "Ġhomo",
        -1.0
      ],
      [
        "creasing",
        -1.0
      ],
      [
        "Ġspent",
        -1.0
      ],
      [
        "ĠSol",
        -1.0
      ],
      [
        "irt",
        -1.0
      ],
      [
        "Ġfluor",
        -1.0
      ],
      [
        "Ġpuppies",
        -1.0
      ],
      [
        "Ġfold",
        -1.0
      ],
      [
        "Ġpedestrian",
        -1.0
      ],
      [
        "Comp",
        -1.0
      ],
      [
        "nm",
        -1.0
      ],
      [
        "folia",
        -1.0
      ],
      [
        "Ġmoist",
        -1.0
      ],
      [
        "Ġcamera",
        -1.0
      ],
      [
        "Ġduck",
        -1.0
      ],
      [
        "-co",
        -1.0
      ],
      [
        "Ġride",
        -1.0
      ],
      [
        "Ġhitting",
        -1.0
      ],
      [
        "Ġmi",
        -1.0
      ],
      [
        "ĠNow",
        -1.0
      ],
      [
        "sc",
        -1.0
      ],
      [
        "ĠMoreover",
        -1.0
      ],
      [
        "Ġalgorithms",
        -1.0
      ],
      [
        "ld",
        -1.0
      ],
      [
        "Ġacne",
        -1.0
      ],
      [
        "Ġconnector",
        -1.0
      ],
      [
        "ĠBulldog",
        -1.0
      ],
      [
        "Gi",
        -1.0
      ],
      [
        "Ġluggage",
        -1.0
      ],
      [
        "ĠCL",
        -1.0
      ],
      [
        "ubs",
        -1.0
      ],
      [
        "Ġlies",
        -1.0
      ],
      [
        "Ġreplenish",
        -1.0
      ],
      [
        "mir",
        -1.0
      ],
      [
        "Ġdegrees",
        -1.0
      ],
      [
        "Ġenhancing",
        -1.0
      ],
      [
        "-N",
        -1.0
      ],
      [
        "Ġmeta",
        -1.0
      ],
      [
        "Featured",
        -1.0
      ],
      [
        "Ġcreating",
        -1.0
      ],
      [
        "Reg",
        -1.0
      ],
      [
        "Ġmarkings",
        -1.0
      ],
      [
        "sea",
        -1.0
      ],
      [
        "Ġvenom",
        -1.0
      ],
      [
        "acle",
        -1.0
      ],
      [
        "Ġtsunami",
        -1.0
      ],
      [
        "yst",
        -1.0
      ],
      [
        "Ġdisposable",
        -1.0
      ],
      [
        "Ġpatch",
        -1.0
      ],
      [
        "Ġguide",
        -1.0
      ],
      [
        "Ġyards",
        -1.0
      ],
      [
        "nger",
        -1.0
      ],
      [
        "Ġrein",
        -1.0
      ],
      [
        "Ġfirst",
        -1.0
      ],
      [
        "pass",
        -1.0
      ],
      [
        "ĠRadi",
        -1.0
      ],
      [
        "Ġbandwidth",
        -1.0
      ],
      [
        "Ġpetals",
        -1.0
      ],
      [
        "illa",
        -1.0
      ],
      [
        "ĠStrategies",
        -1.0
      ],
      [
        "rant",
        -1.0
      ],
      [
        "mann",
        -1.0
      ],
      [
        "Ġstrategy",
        -1.0
      ],
      [
        "azed",
        -1.0
      ],
      [
        "Ġconcerned",
        -1.0
      ],
      [
        "Ġmarker",
        -1.0
      ],
      [
        "Ġoperators",
        -1.0
      ],
      [
        "Author",
        -1.0
      ],
      [
        "Ġearned",
        -1.0
      ],
      [
        "Ġspur",
        -1.0
      ],
      [
        "mount",
        -1.0
      ],
      [
        "Ġfashion",
        -1.0
      ],
      [
        ".s",
        -1.0
      ],
      [
        "ĠAv",
        -1.0
      ],
      [
        "?\"Ċ",
        -1.0
      ],
      [
        "Ġtattoo",
        -1.0
      ],
      [
        "Ġtried",
        -1.0
      ],
      [
        "Ġbottom",
        -1.0
      ],
      [
        "Ġhelping",
        -1.0
      ],
      [
        "ĠMind",
        -1.0
      ],
      [
        "Ġuncommon",
        -1.0
      ],
      [
        "Ġapple",
        -1.0
      ],
      [
        "Ġrepair",
        -1.0
      ],
      [
        "Ġrel",
        -1.0
      ],
      [
        "Ü",
        -1.0
      ],
      [
        "Ġaqu",
        -1.0
      ],
      [
        "Ġtransport",
        -1.0
      ],
      [
        "Ġlithium",
        -1.0
      ],
      [
        "Ġbin",
        -1.0
      ],
      [
        "Ġfossil",
        -1.0
      ],
      [
        "ax",
        -1.0
      ],
      [
        "Ġads",
        -1.0
      ],
      [
        "ĠOrgan",
        -1.0
      ],
      [
        "Ġmanual",
        -1.0
      ],
      [
        "ĠV",
        -1.0
      ],
      [
        "red",
        -1.0
      ],
      [
        "Ġswe",
        -1.0
      ],
      [
        "Ġframeworks",
        -1.0
      ],
      [
        "Ġexposure",
        -1.0
      ],
      [
        "Ġcooker",
        -1.0
      ],
      [
        "tern",
        -1.0
      ],
      [
        "tip",
        -1.0
      ],
      [
        "Due",
        -1.0
      ],
      [
        "><",
        -1.0
      ],
      [
        "ĠAI",
        -1.0
      ],
      [
        "Ġharsh",
        -1.0
      ],
      [
        "Ġdecade",
        -1.0
      ],
      [
        "ĠPan",
        -1.0
      ],
      [
        "tribu",
        -1.0
      ],
      [
        "'S",
        -1.0
      ],
      [
        "Ġends",
        -1.0
      ],
      [
        "Ġextends",
        -1.0
      ],
      [
        "Ġonset",
        -1.0
      ],
      [
        "Ġpacking",
        -1.0
      ],
      [
        "-rich",
        -1.0
      ],
      [
        "Ġfamily",
        -1.0
      ],
      [
        "dit",
        -1.0
      ],
      [
        "Ġfocus",
        -1.0
      ],
      [
        "ologist",
        -1.0
      ],
      [
        "Ġequ",
        -1.0
      ],
      [
        "nga",
        -1.0
      ],
      [
        "Fa",
        -1.0
      ],
      [
        "top",
        -1.0
      ],
      [
        "ĠTrust",
        -1.0
      ],
      [
        "-br",
        -1.0
      ],
      [
        "Ġag",
        -1.0
      ],
      [
        "ĠRadio",
        -1.0
      ],
      [
        "had",
        -1.0
      ],
      [
        "Ġattempted",
        -1.0
      ],
      [
        "Ġter",
        -1.0
      ],
      [
        "roll",
        -1.0
      ],
      [
        "Ġemploy",
        -1.0
      ],
      [
        "Ġrecharge",
        -1.0
      ],
      [
        "Ġindicators",
        -1.0
      ],
      [
        "WA",
        -1.0
      ],
      [
        "Ġponds",
        -1.0
      ],
      [
        ".",
        -1.0
      ],
      [
        "ng",
        -1.0
      ],
      [
        "ç",
        -1.0
      ],
      [
        "Wild",
        -1.0
      ],
      [
        "bes",
        -1.0
      ],
      [
        "/re",
        -1.0
      ],
      [
        "Ps",
        -1.0
      ],
      [
        "Ġpublic",
        -1.0
      ],
      [
        "Ġinvent",
        -1.0
      ],
      [
        "Ġnegatively",
        -1.0
      ],
      [
        "erc",
        -1.0
      ],
      [
        ",\"",
        -1.0
      ],
      [
        "Ġclay",
        -1.0
      ],
      [
        "Ã¼",
        -1.0
      ],
      [
        "Fo",
        -1.0
      ],
      [
        "G",
        -1.0
      ],
      [
        "Ġthree",
        -1.0
      ],
      [
        "Ġumbrella",
        -1.0
      ],
      [
        "32",
        -1.0
      ],
      [
        "20",
        -1.0
      ],
      [
        "Definition",
        -1.0
      ],
      [
        "ĠThroughout",
        -1.0
      ],
      [
        "Ġaus",
        -1.0
      ],
      [
        "Ġsixth",
        -1.0
      ],
      [
        "our",
        -1.0
      ],
      [
        "da",
        -1.0
      ],
      [
        "Ġyet",
        -1.0
      ],
      [
        "ĠNC",
        -1.0
      ],
      [
        "Ġmuscles",
        -1.0
      ],
      [
        "Ġdesirable",
        -1.0
      ],
      [
        "Ġprohibit",
        -1.0
      ],
      [
        "ĠGHG",
        -1.0
      ],
      [
        "Ġsprouts",
        -1.0
      ],
      [
        "Ġmonitor",
        -1.0
      ],
      [
        "Ġpieces",
        -1.0
      ],
      [
        "ĠâĢ",
        -1.0
      ],
      [
        "Ġshake",
        -1.0
      ],
      [
        "ĠMissouri",
        -1.0
      ],
      [
        "aba",
        -1.0
      ],
      [
        "Ġquite",
        -1.0
      ],
      [
        "Ġum",
        -1.0
      ],
      [
        "Ġpride",
        -1.0
      ],
      [
        "Ġgreater",
        -1.0
      ],
      [
        "Ġartery",
        -1.0
      ],
      [
        "bet",
        -1.0
      ],
      [
        "bel",
        -1.0
      ],
      [
        "ĠWorkshop",
        -1.0
      ],
      [
        "Ġtell",
        -1.0
      ],
      [
        "iers",
        -1.0
      ],
      [
        "Ġdispens",
        -1.0
      ],
      [
        "ĳ",
        -1.0
      ],
      [
        "Ġdetectors",
        -1.0
      ],
      [
        "Ġsimilarly",
        -1.0
      ],
      [
        "Ġaverage",
        -1.0
      ],
      [
        "eting",
        -1.0
      ],
      [
        "integr",
        -1.0
      ],
      [
        "Ġsmoothly",
        -1.0
      ],
      [
        "Ġlac",
        -1.0
      ],
      [
        "erate",
        -1.0
      ],
      [
        "Ġit",
        -1.0
      ],
      [
        "flict",
        -1.0
      ],
      [
        "53",
        -1.0
      ],
      [
        "bl",
        -1.0
      ],
      [
        "sch",
        -1.0
      ],
      [
        "ĠKong",
        -1.0
      ],
      [
        "Ġrepeating",
        -1.0
      ],
      [
        "Ġoven",
        -1.0
      ],
      [
        "kin",
        -1.0
      ],
      [
        "Ġplans",
        -1.0
      ],
      [
        "ĠToyota",
        -1.0
      ],
      [
        "Ġdietary",
        -1.0
      ],
      [
        "ĠâĢĶ",
        -1.0
      ],
      [
        "ĠThere",
        -1.0
      ],
      [
        "Ġbanned",
        -1.0
      ],
      [
        "iting",
        -1.0
      ],
      [
        "esting",
        -1.0
      ],
      [
        "Ġcrisp",
        -1.0
      ],
      [
        "Hz",
        -1.0
      ],
      [
        "Ġreport",
        -1.0
      ],
      [
        "yard",
        -1.0
      ],
      [
        "odendron",
        -1.0
      ],
      [
        "Ġonion",
        -1.0
      ],
      [
        "Ġloan",
        -1.0
      ],
      [
        "Ġradiator",
        -1.0
      ],
      [
        "ergy",
        -1.0
      ],
      [
        "Ġexisting",
        -1.0
      ],
      [
        "GI",
        -1.0
      ],
      [
        "ĠRA",
        -1.0
      ],
      [
        "Ġpanic",
        -1.0
      ],
      [
        "dal",
        -1.0
      ],
      [
        "Ġvir",
        -1.0
      ],
      [
        "âĢĿ",
        -1.0
      ],
      [
        "Ġposes",
        -1.0
      ],
      [
        "sma",
        -1.0
      ],
      [
        "cto",
        -1.0
      ],
      [
        "pn",
        -1.0
      ],
      [
        "grad",
        -1.0
      ],
      [
        "Ġconquer",
        -1.0
      ],
      [
        ".co",
        -1.0
      ],
      [
        "84",
        -1.0
      ],
      [
        "ė",
        -1.0
      ],
      [
        "vent",
        -1.0
      ],
      [
        "Eco",
        -1.0
      ],
      [
        "ĠStation",
        -1.0
      ],
      [
        "Ġborder",
        -1.0
      ],
      [
        "wd",
        -1.0
      ],
      [
        "Ġbehaviors",
        -1.0
      ],
      [
        "Ġflattened",
        -1.0
      ],
      [
        "Ġprojects",
        -1.0
      ],
      [
        "Ġsemi",
        -1.0
      ],
      [
        "bil",
        -1.0
      ],
      [
        "Ġhobbies",
        -1.0
      ],
      [
        "Ġclose",
        -1.0
      ],
      [
        "ĠNA",
        -1.0
      ],
      [
        "Ġbiting",
        -1.0
      ],
      [
        "Ġpheno",
        -1.0
      ],
      [
        "Learning",
        -1.0
      ],
      [
        "Ġshade",
        -1.0
      ],
      [
        "Ġblend",
        -1.0
      ],
      [
        "ona",
        -1.0
      ],
      [
        "Ġthreatened",
        -1.0
      ],
      [
        "apt",
        -1.0
      ],
      [
        "Ġtrade",
        -1.0
      ],
      [
        "Ġtopics",
        -1.0
      ],
      [
        "duc",
        -1.0
      ],
      [
        "Ġcracking",
        -1.0
      ],
      [
        "ĠD",
        -1.0
      ],
      [
        "Ġdive",
        -1.0
      ],
      [
        "ĠNatural",
        -1.0
      ],
      [
        "Ġnational",
        -1.0
      ],
      [
        "Ġright",
        -1.0
      ],
      [
        "Ġwin",
        -1.0
      ],
      [
        "Ġopinion",
        -1.0
      ],
      [
        "Ġmicroscope",
        -1.0
      ],
      [
        "mmy",
        -1.0
      ],
      [
        "Fra",
        -1.0
      ],
      [
        "junct",
        -1.0
      ],
      [
        "nal",
        -1.0
      ],
      [
        "Ġsofter",
        -1.0
      ],
      [
        "lix",
        -1.0
      ],
      [
        "Sup",
        -1.0
      ],
      [
        "ĠMen",
        -1.0
      ],
      [
        "Ol",
        -1.0
      ],
      [
        "Ġnano",
        -1.0
      ],
      [
        "ĠClass",
        -1.0
      ],
      [
        "eo",
        -1.0
      ],
      [
        "Ġintend",
        -1.0
      ],
      [
        "Ġpolitics",
        -1.0
      ],
      [
        "Ġhumor",
        -1.0
      ],
      [
        "cc",
        -1.0
      ],
      [
        "Ġpee",
        -1.0
      ],
      [
        "Ġcoupled",
        -1.0
      ],
      [
        "ĠCycle",
        -1.0
      ],
      [
        "Comments",
        -1.0
      ],
      [
        "Ġfinal",
        -1.0
      ],
      [
        "lg",
        -1.0
      ],
      [
        "Ġvisit",
        -1.0
      ],
      [
        "ĠMountain",
        -1.0
      ],
      [
        "ĠBal",
        -1.0
      ],
      [
        "Cha",
        -1.0
      ],
      [
        "ĠMarshall",
        -1.0
      ],
      [
        "Ġopaque",
        -1.0
      ],
      [
        "Ġcall",
        -1.0
      ],
      [
        "Ġlighter",
        -1.0
      ],
      [
        "Ġhand",
        -1.0
      ],
      [
        "Ġmenopause",
        -1.0
      ],
      [
        "Ġpractices",
        -1.0
      ],
      [
        "iter",
        -1.0
      ],
      [
        "LD",
        -1.0
      ],
      [
        "Ġbroadcast",
        -1.0
      ],
      [
        "Ġmusic",
        -1.0
      ],
      [
        "ĠKnow",
        -1.0
      ],
      [
        "Ġpediatric",
        -1.0
      ],
      [
        "ook",
        -1.0
      ],
      [
        "Ġkittens",
        -1.0
      ],
      [
        "Ġrib",
        -1.0
      ],
      [
        "Ġeasier",
        -1.0
      ],
      [
        "Ġpsych",
        -1.0
      ],
      [
        "ĠPhotoshop",
        -1.0
      ],
      [
        "ĠSum",
        -1.0
      ],
      [
        "ĠRoof",
        -1.0
      ],
      [
        "Ġdiagrams",
        -1.0
      ],
      [
        "Ġrepresented",
        -1.0
      ],
      [
        "Á",
        -1.0
      ],
      [
        "requ",
        -1.0
      ],
      [
        "ill",
        -1.0
      ],
      [
        "Ġplayers",
        -1.0
      ],
      [
        "Ġwere",
        -1.0
      ],
      [
        "ĠWriting",
        -1.0
      ],
      [
        "Ġsimply",
        -1.0
      ],
      [
        "ĠMol",
        -1.0
      ],
      [
        "ĠScholar",
        -1.0
      ],
      [
        "mper",
        -1.0
      ],
      [
        "Ġimproves",
        -1.0
      ],
      [
        "ĠCD",
        -1.0
      ],
      [
        "aging",
        -1.0
      ],
      [
        "Ġwhether",
        -1.0
      ],
      [
        "Ġrelativity",
        -1.0
      ],
      [
        "ĠFilter",
        -1.0
      ],
      [
        ".)ĊĊ",
        -1.0
      ],
      [
        "Ġdelight",
        -1.0
      ],
      [
        "ĠSer",
        -1.0
      ],
      [
        "ĠStudies",
        -1.0
      ],
      [
        "oma",
        -1.0
      ],
      [
        "Ġprocessor",
        -1.0
      ],
      [
        "0",
        -1.0
      ],
      [
        "In",
        -1.0
      ],
      [
        "how",
        -1.0
      ],
      [
        "sin",
        -1.0
      ],
      [
        "two",
        -1.0
      ],
      [
        "Ġcoated",
        -1.0
      ],
      [
        "ĠTur",
        -1.0
      ],
      [
        "-ar",
        -1.0
      ],
      [
        "Ġseparate",
        -1.0
      ],
      [
        "ĠAustralia",
        -1.0
      ],
      [
        "Ġcurriculum",
        -1.0
      ],
      [
        "Ġfrying",
        -1.0
      ],
      [
        "ĠProtein",
        -1.0
      ],
      [
        "dos",
        -1.0
      ],
      [
        "imp",
        -1.0
      ],
      [
        "Ġcans",
        -1.0
      ],
      [
        "ĠEng",
        -1.0
      ],
      [
        "Ġblindness",
        -1.0
      ],
      [
        "Ġoriginal",
        -1.0
      ],
      [
        "Ġcohort",
        -1.0
      ],
      [
        "26",
        -1.0
      ],
      [
        "ens",
        -1.0
      ],
      [
        "Ġps",
        -1.0
      ],
      [
        "Ġcounts",
        -1.0
      ],
      [
        "Ġnuclei",
        -1.0
      ],
      [
        "Ġflood",
        -1.0
      ],
      [
        "46",
        -1.0
      ],
      [
        "Ġmindset",
        -1.0
      ],
      [
        "ick",
        -1.0
      ],
      [
        "ĠRam",
        -1.0
      ],
      [
        "tched",
        -1.0
      ],
      [
        "%",
        -1.0
      ],
      [
        "Ġsurprising",
        -1.0
      ],
      [
        "Ġbegun",
        -1.0
      ],
      [
        "ä¸",
        -1.0
      ],
      [
        "ĠDer",
        -1.0
      ],
      [
        "Ġtricks",
        -1.0
      ],
      [
        "Ġharmful",
        -1.0
      ],
      [
        "istic",
        -1.0
      ],
      [
        "Ġtaught",
        -1.0
      ],
      [
        "tes",
        -1.0
      ],
      [
        "hi",
        -1.0
      ],
      [
        "Ġcrossing",
        -1.0
      ],
      [
        "Ġki",
        -1.0
      ],
      [
        "eas",
        -1.0
      ],
      [
        "Ġkeyboard",
        -1.0
      ],
      [
        "SQL",
        -1.0
      ],
      [
        "urance",
        -1.0
      ],
      [
        "Ġpotential",
        -1.0
      ],
      [
        "ĠJen",
        -1.0
      ],
      [
        "Ġviewers",
        -1.0
      ],
      [
        "Ġspherical",
        -1.0
      ],
      [
        "Ġfortunate",
        -1.0
      ],
      [
        "ĠStre",
        -1.0
      ],
      [
        "American",
        -1.0
      ],
      [
        "ĠHair",
        -1.0
      ],
      [
        "Ġspecially",
        -1.0
      ],
      [
        "nor",
        -1.0
      ],
      [
        "ĠSup",
        -1.0
      ],
      [
        "Ġreleasing",
        -1.0
      ],
      [
        "ĠFocus",
        -1.0
      ],
      [
        "ĠLithium",
        -1.0
      ],
      [
        "Ġclogged",
        -1.0
      ],
      [
        "Ġleaving",
        -1.0
      ],
      [
        "Ġdining",
        -1.0
      ],
      [
        "Ġdifficult",
        -1.0
      ],
      [
        "Ġgarbage",
        -1.0
      ],
      [
        "\"Our",
        -1.0
      ],
      [
        "Ġpurely",
        -1.0
      ],
      [
        "ĠTraining",
        -1.0
      ],
      [
        "ĠBa",
        -1.0
      ],
      [
        "Ġpunishment",
        -1.0
      ],
      [
        "Ġcomb",
        -1.0
      ],
      [
        "-In",
        -1.0
      ],
      [
        "erman",
        -1.0
      ],
      [
        "Ġsaddle",
        -1.0
      ],
      [
        "Ġfourth",
        -1.0
      ],
      [
        "bic",
        -1.0
      ],
      [
        "Ġtemporary",
        -1.0
      ],
      [
        "ĠChampion",
        -1.0
      ],
      [
        "ĠTask",
        -1.0
      ],
      [
        "iver",
        -1.0
      ],
      [
        "Ċ",
        -1.0
      ],
      [
        "OS",
        -1.0
      ],
      [
        "Ġideas",
        -1.0
      ],
      [
        "\"This",
        -1.0
      ],
      [
        "sho",
        -1.0
      ],
      [
        "RB",
        -1.0
      ],
      [
        "Ġuterine",
        -1.0
      ],
      [
        "Ġstat",
        -1.0
      ],
      [
        "Ġchanged",
        -1.0
      ],
      [
        "oline",
        -1.0
      ],
      [
        "ĠBow",
        -1.0
      ],
      [
        "Ġresponsive",
        -1.0
      ],
      [
        "Ds",
        -1.0
      ],
      [
        "-inf",
        -1.0
      ],
      [
        "Ġrate",
        -1.0
      ],
      [
        "Ġprotected",
        -1.0
      ],
      [
        "ĠPrincipal",
        -1.0
      ],
      [
        "tein",
        -1.0
      ],
      [
        "ĠAccording",
        -1.0
      ],
      [
        "at",
        -1.0
      ],
      [
        "FC",
        -1.0
      ],
      [
        "Ġalgebra",
        -1.0
      ],
      [
        "Ġbarrel",
        -1.0
      ],
      [
        "Swi",
        -1.0
      ],
      [
        "Ġass",
        -1.0
      ],
      [
        "Ġmold",
        -1.0
      ],
      [
        "Ġenzymes",
        -1.0
      ],
      [
        "Ġcategories",
        -1.0
      ],
      [
        "Ġtoward",
        -1.0
      ],
      [
        "tt",
        -1.0
      ],
      [
        "ggs",
        -1.0
      ],
      [
        "tri",
        -1.0
      ],
      [
        "Ġregularly",
        -1.0
      ],
      [
        "gra",
        -1.0
      ],
      [
        "ĠRob",
        -1.0
      ],
      [
        "-cha",
        -1.0
      ],
      [
        "Ġelectric",
        -1.0
      ],
      [
        "lad",
        -1.0
      ],
      [
        "Ġequivalent",
        -1.0
      ],
      [
        "yro",
        -1.0
      ],
      [
        "Ġchin",
        -1.0
      ],
      [
        "gle",
        -1.0
      ],
      [
        "Ġattempts",
        -1.0
      ],
      [
        "Ġvital",
        -1.0
      ],
      [
        "Ġflesh",
        -1.0
      ],
      [
        "Ġappliances",
        -1.0
      ],
      [
        "Ġfloors",
        -1.0
      ],
      [
        "Ġurgent",
        -1.0
      ],
      [
        "Working",
        -1.0
      ],
      [
        "Ġgarden",
        -1.0
      ],
      [
        "97",
        -1.0
      ],
      [
        "Ġmammo",
        -1.0
      ],
      [
        "60",
        -1.0
      ],
      [
        "inted",
        -1.0
      ],
      [
        "95",
        -1.0
      ],
      [
        "current",
        -1.0
      ],
      [
        "Ġgenerator",
        -1.0
      ],
      [
        "NT",
        -1.0
      ],
      [
        "AU",
        -1.0
      ],
      [
        "Ġacceptance",
        -1.0
      ],
      [
        "ĠAdditional",
        -1.0
      ],
      [
        "DS",
        -1.0
      ],
      [
        "Me",
        -1.0
      ],
      [
        "Engine",
        -1.0
      ],
      [
        "Ġox",
        -1.0
      ],
      [
        "Ġtwins",
        -1.0
      ],
      [
        "Ġlease",
        -1.0
      ],
      [
        "ĠCON",
        -1.0
      ],
      [
        "important",
        -1.0
      ],
      [
        "Ġdeliberate",
        -1.0
      ],
      [
        "!\"",
        -1.0
      ],
      [
        "ĠData",
        -1.0
      ],
      [
        "Ġroller",
        -1.0
      ],
      [
        "Ġexpansion",
        -1.0
      ],
      [
        "Ġuntreated",
        -1.0
      ],
      [
        "Ġblood",
        -1.0
      ],
      [
        "tribution",
        -1.0
      ],
      [
        "Ġatomic",
        -1.0
      ],
      [
        "Ġseeing",
        -1.0
      ],
      [
        "ault",
        -1.0
      ],
      [
        "ĠHVAC",
        -1.0
      ],
      [
        "Ġendemic",
        -1.0
      ],
      [
        "den",
        -1.0
      ],
      [
        "first",
        -1.0
      ],
      [
        "Ġmindful",
        -1.0
      ],
      [
        "Ġfactory",
        -1.0
      ],
      [
        "iti",
        -1.0
      ],
      [
        "ĠCO",
        -1.0
      ],
      [
        "ĠCanada",
        -1.0
      ],
      [
        "Ġgraduation",
        -1.0
      ],
      [
        "Ġmole",
        -1.0
      ],
      [
        "Ġmol",
        -1.0
      ],
      [
        "Ġhighly",
        -1.0
      ],
      [
        "Ġintrinsic",
        -1.0
      ],
      [
        "urg",
        -1.0
      ],
      [
        "Ġwilderness",
        -1.0
      ],
      [
        "dging",
        -1.0
      ],
      [
        "ames",
        -1.0
      ],
      [
        "Ġobstacle",
        -1.0
      ],
      [
        "Ġcotton",
        -1.0
      ],
      [
        "ib",
        -1.0
      ],
      [
        "Ġapart",
        -1.0
      ],
      [
        "xel",
        -1.0
      ],
      [
        "Ġorganism",
        -1.0
      ],
      [
        "shing",
        -1.0
      ],
      [
        "ĠChemical",
        -1.0
      ],
      [
        "-rays",
        -1.0
      ],
      [
        "App",
        -1.0
      ],
      [
        "ĠJeff",
        -1.0
      ],
      [
        "ĠTeachers",
        -1.0
      ],
      [
        "Ġpreschool",
        -1.0
      ],
      [
        "PV",
        -1.0
      ],
      [
        "play",
        -1.0
      ],
      [
        "Ġwrite",
        -1.0
      ],
      [
        "ĠOrange",
        -1.0
      ],
      [
        "Ġreactive",
        -1.0
      ],
      [
        "oa",
        -1.0
      ],
      [
        "MENT",
        -1.0
      ],
      [
        "Ġclaims",
        -1.0
      ],
      [
        "Ġenhances",
        -1.0
      ],
      [
        "Ġbat",
        -1.0
      ],
      [
        "Ġhouses",
        -1.0
      ],
      [
        "Ġarchitect",
        -1.0
      ],
      [
        "Ġcelebrated",
        -1.0
      ],
      [
        "ces",
        -1.0
      ],
      [
        "print",
        -1.0
      ],
      [
        "Ġpedal",
        -1.0
      ],
      [
        "Ġagreed",
        -1.0
      ],
      [
        "Ġenables",
        -1.0
      ],
      [
        "Ġcombustion",
        -1.0
      ],
      [
        "Ġimpressive",
        -1.0
      ],
      [
        "Ġaddressed",
        -1.0
      ],
      [
        "Ġtrusted",
        -1.0
      ],
      [
        "Ġ&",
        -1.0
      ],
      [
        "plo",
        -1.0
      ],
      [
        "Pat",
        -1.0
      ],
      [
        "Ġsal",
        -1.0
      ],
      [
        "Ġcloudy",
        -1.0
      ],
      [
        "Ġmonth",
        -1.0
      ],
      [
        "Ġstones",
        -1.0
      ],
      [
        "cover",
        -1.0
      ],
      [
        "apa",
        -1.0
      ],
      [
        "Ġusers",
        -1.0
      ],
      [
        "ĠEmploy",
        -1.0
      ],
      [
        "Ġparameter",
        -1.0
      ],
      [
        "know",
        -1.0
      ],
      [
        "ayed",
        -1.0
      ],
      [
        "Ġseparately",
        -1.0
      ],
      [
        "ĠMethods",
        -1.0
      ],
      [
        "Ġretaining",
        -1.0
      ],
      [
        "Ġquit",
        -1.0
      ],
      [
        "Ġpressing",
        -1.0
      ],
      [
        "Ġrelatively",
        -1.0
      ],
      [
        "ĠList",
        -1.0
      ],
      [
        "asi",
        -1.0
      ],
      [
        "static",
        -1.0
      ],
      [
        "plasm",
        -1.0
      ],
      [
        "Ġosteo",
        -1.0
      ],
      [
        "Ġrises",
        -1.0
      ],
      [
        "ryl",
        -1.0
      ],
      [
        "lating",
        -1.0
      ],
      [
        "ĠTurkish",
        -1.0
      ],
      [
        "eme",
        -1.0
      ],
      [
        "Ġvalid",
        -1.0
      ],
      [
        "Ġmedicines",
        -1.0
      ],
      [
        "ĠEnt",
        -1.0
      ],
      [
        "Ġcreate",
        -1.0
      ],
      [
        "zu",
        -1.0
      ],
      [
        "ool",
        -1.0
      ],
      [
        "Ġmimic",
        -1.0
      ],
      [
        "Ġtutorial",
        -1.0
      ],
      [
        "Ġhuge",
        -1.0
      ],
      [
        "Ġplayful",
        -1.0
      ],
      [
        "Ġcritical",
        -1.0
      ],
      [
        "Fr",
        -1.0
      ],
      [
        "Ġimpairment",
        -1.0
      ],
      [
        "vices",
        -1.0
      ],
      [
        "ĠWest",
        -1.0
      ],
      [
        "Ġpr",
        -1.0
      ],
      [
        "ife",
        -1.0
      ],
      [
        "Ana",
        -1.0
      ],
      [
        "ama",
        -1.0
      ],
      [
        "ature",
        -1.0
      ],
      [
        "ela",
        -1.0
      ],
      [
        "Ġgalaxy",
        -1.0
      ],
      [
        "ĠSingapore",
        -1.0
      ],
      [
        "Ġrecycling",
        -1.0
      ],
      [
        "mers",
        -1.0
      ],
      [
        "ĠWall",
        -1.0
      ],
      [
        "Ġmanuscript",
        -1.0
      ],
      [
        "Ġankle",
        -1.0
      ],
      [
        "ĠTen",
        -1.0
      ],
      [
        "Ġanymore",
        -1.0
      ],
      [
        "Ġfemin",
        -1.0
      ],
      [
        "Ġuptake",
        -1.0
      ],
      [
        "ub",
        -1.0
      ],
      [
        "÷",
        -1.0
      ],
      [
        "3",
        -1.0
      ],
      [
        "ĠProtect",
        -1.0
      ],
      [
        "mouth",
        -1.0
      ],
      [
        "Ġmyth",
        -1.0
      ],
      [
        "Ġpad",
        -1.0
      ],
      [
        "Ġaffiliate",
        -1.0
      ],
      [
        "Ġplastic",
        -1.0
      ],
      [
        "Ġsurround",
        -1.0
      ],
      [
        "Ġadventures",
        -1.0
      ],
      [
        "Ġterra",
        -1.0
      ],
      [
        "Ġom",
        -1.0
      ],
      [
        "Ġviolence",
        -1.0
      ],
      [
        "alone",
        -1.0
      ],
      [
        "Ġmissions",
        -1.0
      ],
      [
        "Ġplants",
        -1.0
      ],
      [
        "Stud",
        -1.0
      ],
      [
        "-designed",
        -1.0
      ],
      [
        "ĠCooper",
        -1.0
      ],
      [
        "Ġrubber",
        -1.0
      ],
      [
        "Ġzones",
        -1.0
      ],
      [
        "Ġsubstrate",
        -1.0
      ],
      [
        "ĠMon",
        -1.0
      ],
      [
        "Animal",
        -1.0
      ],
      [
        "ĠWestern",
        -1.0
      ],
      [
        "aded",
        -1.0
      ],
      [
        "Ġnation",
        -1.0
      ],
      [
        "Ġpartially",
        -1.0
      ],
      [
        "Ġcactus",
        -1.0
      ],
      [
        "ĠPE",
        -1.0
      ],
      [
        "ĠOk",
        -1.0
      ],
      [
        "Ġprofile",
        -1.0
      ],
      [
        "Ġbenign",
        -1.0
      ],
      [
        "ĠFollowing",
        -1.0
      ],
      [
        "Researchers",
        -1.0
      ],
      [
        "Ġampl",
        -1.0
      ],
      [
        "Ġqualify",
        -1.0
      ],
      [
        "25",
        -1.0
      ],
      [
        "Ġhammer",
        -1.0
      ],
      [
        "yl",
        -1.0
      ],
      [
        "ĠBelow",
        -1.0
      ],
      [
        "ĠChocolate",
        -1.0
      ],
      [
        "Ġcontribute",
        -1.0
      ],
      [
        "ĠFe",
        -1.0
      ],
      [
        "ĠMarketing",
        -1.0
      ],
      [
        "Ġpopular",
        -1.0
      ],
      [
        "-white",
        -1.0
      ],
      [
        "Ġroofs",
        -1.0
      ],
      [
        "Ġtreasure",
        -1.0
      ],
      [
        "Ġmutation",
        -1.0
      ],
      [
        "Ġnausea",
        -1.0
      ],
      [
        "SL",
        -1.0
      ],
      [
        "Ġevents",
        -1.0
      ],
      [
        "ĠConsumer",
        -1.0
      ],
      [
        "elle",
        -1.0
      ],
      [
        "Ġdelay",
        -1.0
      ],
      [
        "Ġfishermen",
        -1.0
      ],
      [
        "Ġattention",
        -1.0
      ],
      [
        "Ġsale",
        -1.0
      ],
      [
        "ĠLabrador",
        -1.0
      ],
      [
        "Ġmechanisms",
        -1.0
      ],
      [
        "Ġsection",
        -1.0
      ],
      [
        "urized",
        -1.0
      ],
      [
        "span",
        -1.0
      ],
      [
        "\"?",
        -1.0
      ],
      [
        "Ġamerican",
        -1.0
      ],
      [
        "ophy",
        -1.0
      ],
      [
        "Ġelevation",
        -1.0
      ],
      [
        "ĠMart",
        -1.0
      ],
      [
        "missions",
        -1.0
      ],
      [
        "Ġartificial",
        -1.0
      ],
      [
        "Ġconsumed",
        -1.0
      ],
      [
        "theless",
        -1.0
      ],
      [
        "Ġput",
        -1.0
      ],
      [
        "Ġcitrus",
        -1.0
      ],
      [
        "Ġdrinking",
        -1.0
      ],
      [
        "Ġexcellent",
        -1.0
      ],
      [
        "cons",
        -1.0
      ],
      [
        "Ġro",
        -1.0
      ],
      [
        "Ġwalls",
        -1.0
      ],
      [
        "Ġunknown",
        -1.0
      ],
      [
        "thyroidism",
        -1.0
      ],
      [
        "Ġjunior",
        -1.0
      ],
      [
        "Ġidentified",
        -1.0
      ],
      [
        "Ġresulted",
        -1.0
      ],
      [
        "Ġracing",
        -1.0
      ],
      [
        "rat",
        -1.0
      ],
      [
        "Ġsuccess",
        -1.0
      ],
      [
        "Ġtransmit",
        -1.0
      ],
      [
        "Ġfibres",
        -1.0
      ],
      [
        "Ġbreaker",
        -1.0
      ],
      [
        "Ġjob",
        -1.0
      ],
      [
        "yd",
        -1.0
      ],
      [
        ",",
        -1.0
      ],
      [
        "ĠBI",
        -1.0
      ],
      [
        "ĠJurassic",
        -1.0
      ],
      [
        "Cut",
        -1.0
      ],
      [
        "Ġflux",
        -1.0
      ],
      [
        "ĠEnd",
        -1.0
      ],
      [
        "Ġba",
        -1.0
      ],
      [
        "ĠColor",
        -1.0
      ],
      [
        "Ġeating",
        -1.0
      ],
      [
        "Ġdiss",
        -1.0
      ],
      [
        "ĠEastern",
        -1.0
      ],
      [
        "Ġgeneration",
        -1.0
      ],
      [
        "Ġt",
        -1.0
      ],
      [
        "Ġreasonably",
        -1.0
      ],
      [
        "ĠMove",
        -1.0
      ],
      [
        "lec",
        -1.0
      ],
      [
        "Ġbeginning",
        -1.0
      ],
      [
        "Sta",
        -1.0
      ],
      [
        "Ġflooding",
        -1.0
      ],
      [
        "Ġdesperate",
        -1.0
      ],
      [
        "erial",
        -1.0
      ],
      [
        "Ġpredators",
        -1.0
      ],
      [
        "Ġultimately",
        -1.0
      ],
      [
        "Ġedited",
        -1.0
      ],
      [
        "mo",
        -1.0
      ],
      [
        "ĠLoss",
        -1.0
      ],
      [
        "Ġbolt",
        -1.0
      ],
      [
        "Ġelusive",
        -1.0
      ],
      [
        "sb",
        -1.0
      ],
      [
        "Ġsalad",
        -1.0
      ],
      [
        "ĠNovember",
        -1.0
      ],
      [
        "nut",
        -1.0
      ],
      [
        "Ġcr",
        -1.0
      ],
      [
        "Ġbiscuit",
        -1.0
      ],
      [
        "Ġrevi",
        -1.0
      ],
      [
        "ota",
        -1.0
      ],
      [
        "Ġstereo",
        -1.0
      ],
      [
        "Ġgrowers",
        -1.0
      ],
      [
        "rve",
        -1.0
      ],
      [
        "-ex",
        -1.0
      ],
      [
        "Ġselected",
        -1.0
      ],
      [
        "Ġassessment",
        -1.0
      ],
      [
        "Ġruns",
        -1.0
      ],
      [
        "ĠThree",
        -1.0
      ],
      [
        "Ġbikes",
        -1.0
      ],
      [
        "uble",
        -1.0
      ],
      [
        "Ġusually",
        -1.0
      ],
      [
        "Ġoccurrence",
        -1.0
      ],
      [
        "Ġaffecting",
        -1.0
      ],
      [
        "Ġcomment",
        -1.0
      ],
      [
        "Ġtissue",
        -1.0
      ],
      [
        "Ġsewage",
        -1.0
      ],
      [
        "Ġvaccines",
        -1.0
      ],
      [
        "Ġcraft",
        -1.0
      ],
      [
        "Ġlearn",
        -1.0
      ],
      [
        "Ġphone",
        -1.0
      ],
      [
        "Ð¾",
        -1.0
      ],
      [
        "Ġpictures",
        -1.0
      ],
      [
        "Ġbiofuel",
        -1.0
      ],
      [
        "Ġtight",
        -1.0
      ],
      [
        "Section",
        -1.0
      ],
      [
        "Ġdatabase",
        -1.0
      ],
      [
        "Ġ.",
        -1.0
      ],
      [
        "Ġmoment",
        -1.0
      ],
      [
        "Wh",
        -1.0
      ],
      [
        "Ġfabrics",
        -1.0
      ],
      [
        "ĠMor",
        -1.0
      ],
      [
        "environment",
        -1.0
      ],
      [
        "iving",
        -1.0
      ],
      [
        "cco",
        -1.0
      ],
      [
        "ĠMexico",
        -1.0
      ],
      [
        "Opt",
        -1.0
      ],
      [
        ".\"ĊĊ",
        -1.0
      ],
      [
        "Ġcannot",
        -1.0
      ],
      [
        "Ġcoin",
        -1.0
      ],
      [
        "ĠAsk",
        -1.0
      ],
      [
        "depend",
        -1.0
      ],
      [
        "Ġstored",
        -1.0
      ],
      [
        "ye",
        -1.0
      ],
      [
        "Ġflowing",
        -1.0
      ],
      [
        "',",
        -1.0
      ],
      [
        "ĠClinic",
        -1.0
      ],
      [
        "yed",
        -1.0
      ],
      [
        "ĠCreek",
        -1.0
      ],
      [
        "be",
        -1.0
      ],
      [
        "Ġcautious",
        -1.0
      ],
      [
        "Ġshadows",
        -1.0
      ],
      [
        "OL",
        -1.0
      ],
      [
        "ĠTheory",
        -1.0
      ],
      [
        "ĠExecutive",
        -1.0
      ],
      [
        "ĠSpe",
        -1.0
      ],
      [
        "vision",
        -1.0
      ],
      [
        "ĠAction",
        -1.0
      ],
      [
        "mb",
        -1.0
      ],
      [
        "Ġevil",
        -1.0
      ],
      [
        "Ġwinters",
        -1.0
      ],
      [
        "Ġgenerators",
        -1.0
      ],
      [
        "Ġcool",
        -1.0
      ],
      [
        "en",
        -1.0
      ],
      [
        "anda",
        -1.0
      ],
      [
        "Open",
        -1.0
      ],
      [
        "âĨĴ",
        -1.0
      ],
      [
        "Ġmagnets",
        -1.0
      ],
      [
        "wn",
        -1.0
      ],
      [
        "ises",
        -1.0
      ],
      [
        "Hand",
        -1.0
      ],
      [
        "yb",
        -1.0
      ],
      [
        "Ġentropy",
        -1.0
      ],
      [
        "Ġfelt",
        -1.0
      ],
      [
        "Ġrole",
        -1.0
      ],
      [
        "Ġhydraulic",
        -1.0
      ],
      [
        "MO",
        -1.0
      ],
      [
        "ĠBristol",
        -1.0
      ],
      [
        "Ġpole",
        -1.0
      ],
      [
        "ĠPlat",
        -1.0
      ],
      [
        "ugh",
        -1.0
      ],
      [
        "Ġintroduced",
        -1.0
      ],
      [
        "ild",
        -1.0
      ],
      [
        "because",
        -1.0
      ],
      [
        "eco",
        -1.0
      ],
      [
        "Ġpassing",
        -1.0
      ],
      [
        "found",
        -1.0
      ],
      [
        "ĠNations",
        -1.0
      ],
      [
        "Ġsti",
        -1.0
      ],
      [
        "Ġaddiction",
        -1.0
      ],
      [
        "Ġreplace",
        -1.0
      ],
      [
        "mote",
        -1.0
      ],
      [
        "Ġhot",
        -1.0
      ],
      [
        "Ġparasites",
        -1.0
      ],
      [
        "soft",
        -1.0
      ],
      [
        "ĠBengal",
        -1.0
      ],
      [
        "Ġprofiles",
        -1.0
      ],
      [
        "Ġgel",
        -1.0
      ],
      [
        "Ġlime",
        -1.0
      ],
      [
        "Ġnewer",
        -1.0
      ],
      [
        "Ġinfants",
        -1.0
      ],
      [
        "Ġattractive",
        -1.0
      ],
      [
        "ĠVol",
        -1.0
      ],
      [
        "Ġchefs",
        -1.0
      ],
      [
        "ĠDecember",
        -1.0
      ],
      [
        "Ġinterest",
        -1.0
      ],
      [
        "Ġchapters",
        -1.0
      ],
      [
        "Ġpulses",
        -1.0
      ],
      [
        "/S",
        -1.0
      ],
      [
        "Ġmotion",
        -1.0
      ],
      [
        "ĠAccess",
        -1.0
      ],
      [
        "Ġletting",
        -1.0
      ],
      [
        "ĠAssistant",
        -1.0
      ],
      [
        "Ġcontrolled",
        -1.0
      ],
      [
        "Ġlongevity",
        -1.0
      ],
      [
        "Ġbump",
        -1.0
      ],
      [
        "Char",
        -1.0
      ],
      [
        "bol",
        -1.0
      ],
      [
        "Ġdocumented",
        -1.0
      ],
      [
        "Ġstretched",
        -1.0
      ],
      [
        "ĠToo",
        -1.0
      ],
      [
        "Ġinitial",
        -1.0
      ],
      [
        "ung",
        -1.0
      ],
      [
        "Ġthermal",
        -1.0
      ],
      [
        "Ġhighway",
        -1.0
      ],
      [
        "Ġprofit",
        -1.0
      ],
      [
        "Det",
        -1.0
      ],
      [
        "Ġbred",
        -1.0
      ],
      [
        "lla",
        -1.0
      ],
      [
        "uy",
        -1.0
      ],
      [
        "SF",
        -1.0
      ],
      [
        "Ġinduct",
        -1.0
      ],
      [
        "Ġshore",
        -1.0
      ],
      [
        "Ġwords",
        -1.0
      ],
      [
        "Ġromantic",
        -1.0
      ],
      [
        "Ġsocieties",
        -1.0
      ],
      [
        "Ġmachine",
        -1.0
      ],
      [
        "Ġfeline",
        -1.0
      ],
      [
        "Ġready",
        -1.0
      ],
      [
        "Ġleaks",
        -1.0
      ],
      [
        "BT",
        -1.0
      ],
      [
        "Ġchamber",
        -1.0
      ],
      [
        "-M",
        -1.0
      ],
      [
        "ter",
        -1.0
      ],
      [
        "mate",
        -1.0
      ],
      [
        "Ġ",
        -1.0
      ],
      [
        "Ġexpressing",
        -1.0
      ],
      [
        "Ġjealous",
        -1.0
      ],
      [
        "Ġappointed",
        -1.0
      ],
      [
        "Ġlicensed",
        -1.0
      ],
      [
        "Ġtexts",
        -1.0
      ],
      [
        "ĠRE",
        -1.0
      ],
      [
        "Ġanalog",
        -1.0
      ],
      [
        "Ġacc",
        -1.0
      ],
      [
        "tub",
        -1.0
      ],
      [
        "eutral",
        -1.0
      ],
      [
        "Ġneurons",
        -1.0
      ],
      [
        "ĠProcedure",
        -1.0
      ],
      [
        "ak",
        -1.0
      ],
      [
        "-third",
        -1.0
      ],
      [
        "aka",
        -1.0
      ],
      [
        "Ġmiddle",
        -1.0
      ],
      [
        "ĠDictionary",
        -1.0
      ],
      [
        "Ġintake",
        -1.0
      ],
      [
        "uer",
        -1.0
      ],
      [
        "Ġstore",
        -1.0
      ],
      [
        "Ma",
        -1.0
      ],
      [
        "Ġeither",
        -1.0
      ],
      [
        "Ġadmi",
        -1.0
      ],
      [
        "ĠCultural",
        -1.0
      ],
      [
        "DNA",
        -1.0
      ],
      [
        "Ġhabitat",
        -1.0
      ],
      [
        "Ġdeclining",
        -1.0
      ],
      [
        "ĠAe",
        -1.0
      ],
      [
        "Li",
        -1.0
      ],
      [
        "Ġfeel",
        -1.0
      ],
      [
        "ark",
        -1.0
      ],
      [
        "Ġseason",
        -1.0
      ],
      [
        "ðĿ",
        -1.0
      ],
      [
        "chin",
        -1.0
      ],
      [
        "Ġelementary",
        -1.0
      ],
      [
        "-depth",
        -1.0
      ],
      [
        "ato",
        -1.0
      ],
      [
        "ĠLu",
        -1.0
      ],
      [
        "Ġbeliefs",
        -1.0
      ],
      [
        "Ġbl",
        -1.0
      ],
      [
        "Em",
        -1.0
      ],
      [
        "ĠDaniel",
        -1.0
      ],
      [
        "Ġroom",
        -1.0
      ],
      [
        "ĠMultiple",
        -1.0
      ],
      [
        "Ġglobal",
        -1.0
      ],
      [
        "Ġnutrient",
        -1.0
      ],
      [
        "59",
        -1.0
      ],
      [
        "Ġavenues",
        -1.0
      ],
      [
        "Ġrecovery",
        -1.0
      ],
      [
        "Video",
        -1.0
      ],
      [
        "Ġlights",
        -1.0
      ],
      [
        "Ġcare",
        -1.0
      ],
      [
        "ĠCrusher",
        -1.0
      ],
      [
        "Ġmagnesium",
        -1.0
      ],
      [
        "racy",
        -1.0
      ],
      [
        "Ġcom",
        -1.0
      ],
      [
        "osed",
        -1.0
      ],
      [
        "Ġcanned",
        -1.0
      ],
      [
        "rim",
        -1.0
      ],
      [
        "Ġorganize",
        -1.0
      ],
      [
        "Ġbackyard",
        -1.0
      ],
      [
        "Ġty",
        -1.0
      ],
      [
        "57",
        -1.0
      ],
      [
        "Ġsure",
        -1.0
      ],
      [
        "Ġfeet",
        -1.0
      ],
      [
        "Ġjeans",
        -1.0
      ],
      [
        "rks",
        -1.0
      ],
      [
        "Ġtray",
        -1.0
      ],
      [
        "asts",
        -1.0
      ],
      [
        "lock",
        -1.0
      ],
      [
        "Related",
        -1.0
      ],
      [
        "ĠDev",
        -1.0
      ],
      [
        "ĠFahrenheit",
        -1.0
      ],
      [
        "Ġ?",
        -1.0
      ],
      [
        "em",
        -1.0
      ],
      [
        "Pre",
        -1.0
      ],
      [
        "Ġbizarre",
        -1.0
      ],
      [
        "Ġportion",
        -1.0
      ],
      [
        "Ġgradient",
        -1.0
      ],
      [
        "Ġdecorative",
        -1.0
      ],
      [
        "wheel",
        -1.0
      ],
      [
        "Ġshower",
        -1.0
      ],
      [
        "Ġcornea",
        -1.0
      ],
      [
        "ps",
        -1.0
      ],
      [
        "Ġrock",
        -1.0
      ],
      [
        "igned",
        -1.0
      ],
      [
        "Ġwi",
        -1.0
      ],
      [
        "ĠTi",
        -1.0
      ],
      [
        "ĠAlways",
        -1.0
      ],
      [
        "Pri",
        -1.0
      ],
      [
        "Ġtu",
        -1.0
      ],
      [
        "Wr",
        -1.0
      ],
      [
        "Ġtertiary",
        -1.0
      ],
      [
        "Ġjam",
        -1.0
      ],
      [
        "Ġtough",
        -1.0
      ],
      [
        ".ĊĊ",
        -1.0
      ],
      [
        "Ġbit",
        -1.0
      ],
      [
        "tur",
        -1.0
      ],
      [
        "del",
        -1.0
      ],
      [
        "ĠPittsburgh",
        -1.0
      ],
      [
        "Ġmesh",
        -1.0
      ],
      [
        "Ġab",
        -1.0
      ],
      [
        "sets",
        -1.0
      ],
      [
        "ĠDrosophila",
        -1.0
      ],
      [
        "ĠCo",
        -1.0
      ],
      [
        "ĠPa",
        -1.0
      ],
      [
        "Ġlasts",
        -1.0
      ],
      [
        "ĠProperties",
        -1.0
      ],
      [
        "Ġtelling",
        -1.0
      ],
      [
        "Ġtrees",
        -1.0
      ],
      [
        "RK",
        -1.0
      ],
      [
        "Most",
        -1.0
      ],
      [
        "llo",
        -1.0
      ],
      [
        "Ġlion",
        -1.0
      ],
      [
        "Ġarrive",
        -1.0
      ],
      [
        "fer",
        -1.0
      ],
      [
        "ĠPl",
        -1.0
      ],
      [
        "ecu",
        -1.0
      ],
      [
        "Ġkingdom",
        -1.0
      ],
      [
        "Ġstrikes",
        -1.0
      ],
      [
        "Ġemails",
        -1.0
      ],
      [
        "Ġcycl",
        -1.0
      ],
      [
        "Ġartisan",
        -1.0
      ],
      [
        "Ã£o",
        -1.0
      ],
      [
        "Ġmangrove",
        -1.0
      ],
      [
        "fin",
        -1.0
      ],
      [
        "ĠAncient",
        -1.0
      ],
      [
        "tress",
        -1.0
      ],
      [
        "UP",
        -1.0
      ],
      [
        "Ġcentres",
        -1.0
      ],
      [
        "ĠFla",
        -1.0
      ],
      [
        "Ġcounting",
        -1.0
      ],
      [
        "text",
        -1.0
      ],
      [
        "ĠBu",
        -1.0
      ],
      [
        "lage",
        -1.0
      ],
      [
        "87",
        -1.0
      ],
      [
        "ĠQue",
        -1.0
      ],
      [
        "on",
        -1.0
      ],
      [
        "Ġabnormal",
        -1.0
      ],
      [
        "Ġ.Ċ",
        -1.0
      ],
      [
        "ĠIron",
        -1.0
      ],
      [
        "Ġgen",
        -1.0
      ],
      [
        "ĠMode",
        -1.0
      ],
      [
        "Wind",
        -1.0
      ],
      [
        "Ġallergy",
        -1.0
      ],
      [
        "ree",
        -1.0
      ],
      [
        "AB",
        -1.0
      ],
      [
        "Ġrepetitive",
        -1.0
      ],
      [
        "Ġundertaken",
        -1.0
      ],
      [
        "Ġfederal",
        -1.0
      ],
      [
        "Ea",
        -1.0
      ],
      [
        "ĠImmun",
        -1.0
      ],
      [
        "Ġimpacts",
        -1.0
      ],
      [
        "ĠDu",
        -1.0
      ],
      [
        "boarding",
        -1.0
      ],
      [
        "Ġpress",
        -1.0
      ],
      [
        "etch",
        -1.0
      ],
      [
        "ĠPsych",
        -1.0
      ],
      [
        "Ġpersonally",
        -1.0
      ],
      [
        "J",
        -1.0
      ],
      [
        "Ġmomentum",
        -1.0
      ],
      [
        "Ġdialogue",
        -1.0
      ],
      [
        "ĠTreatment",
        -1.0
      ],
      [
        "Ġsequences",
        -1.0
      ],
      [
        "Ġburst",
        -1.0
      ],
      [
        "Ġepisode",
        -1.0
      ],
      [
        "ĠCircuit",
        -1.0
      ],
      [
        "Ġresolve",
        -1.0
      ],
      [
        "Ġfulfilling",
        -1.0
      ],
      [
        "Ġcurrently",
        -1.0
      ],
      [
        "Ġvi",
        -1.0
      ],
      [
        "iro",
        -1.0
      ],
      [
        "ĠSl",
        -1.0
      ],
      [
        "Ġreceives",
        -1.0
      ],
      [
        "ĠStandard",
        -1.0
      ],
      [
        "-e",
        -1.0
      ],
      [
        "ulus",
        -1.0
      ],
      [
        "ception",
        -1.0
      ],
      [
        "ever",
        -1.0
      ],
      [
        "Ġonto",
        -1.0
      ],
      [
        "ĠYo",
        -1.0
      ],
      [
        "Ġcountries",
        -1.0
      ],
      [
        "ĠEssay",
        -1.0
      ],
      [
        "gated",
        -1.0
      ],
      [
        "Ġbot",
        -1.0
      ],
      [
        "Ġunstable",
        -1.0
      ],
      [
        "Ġsurvey",
        -1.0
      ],
      [
        "Ġdraft",
        -1.0
      ],
      [
        "âĢĻre",
        -1.0
      ],
      [
        "Ġspatial",
        -1.0
      ],
      [
        "ĠÃĹ",
        -1.0
      ],
      [
        "11",
        -1.0
      ],
      [
        "58",
        -1.0
      ],
      [
        "vere",
        -1.0
      ],
      [
        "ĠSki",
        -1.0
      ],
      [
        "am",
        -1.0
      ],
      [
        "ĠBehind",
        -1.0
      ],
      [
        "98",
        -1.0
      ],
      [
        "Ġfact",
        -1.0
      ],
      [
        "Ġsays",
        -1.0
      ],
      [
        "roc",
        -1.0
      ],
      [
        "oluble",
        -1.0
      ],
      [
        "early",
        -1.0
      ],
      [
        "ĠStaff",
        -1.0
      ],
      [
        "Ġcows",
        -1.0
      ],
      [
        "ĠMC",
        -1.0
      ],
      [
        "Ġclutter",
        -1.0
      ],
      [
        "ĠRussian",
        -1.0
      ],
      [
        "PO",
        -1.0
      ],
      [
        "Ġrings",
        -1.0
      ],
      [
        "Ġparts",
        -1.0
      ],
      [
        "Ġseptic",
        -1.0
      ],
      [
        "Ġsystemic",
        -1.0
      ],
      [
        "Ġobserver",
        -1.0
      ],
      [
        "ĠWilliams",
        -1.0
      ],
      [
        "ĠControl",
        -1.0
      ],
      [
        "Ġstreaming",
        -1.0
      ],
      [
        "Ġtemperate",
        -1.0
      ],
      [
        "ĠMeanwhile",
        -1.0
      ],
      [
        "Ġoxid",
        -1.0
      ],
      [
        "mini",
        -1.0
      ],
      [
        "Ġprop",
        -1.0
      ],
      [
        "ĠGeneral",
        -1.0
      ],
      [
        "ĠRat",
        -1.0
      ],
      [
        "Ġgeneric",
        -1.0
      ],
      [
        "Ġnearly",
        -1.0
      ],
      [
        "Ġdress",
        -1.0
      ],
      [
        "Ġyears",
        -1.0
      ],
      [
        "Ĩ",
        -1.0
      ],
      [
        "-in",
        -1.0
      ],
      [
        "Ġaround",
        -1.0
      ],
      [
        "ĠFine",
        -1.0
      ],
      [
        "Ġcompound",
        -1.0
      ],
      [
        "Ġbehavior",
        -1.0
      ],
      [
        "ĠOffice",
        -1.0
      ],
      [
        "Ġgall",
        -1.0
      ],
      [
        "06",
        -1.0
      ],
      [
        "bour",
        -1.0
      ],
      [
        "Ġduties",
        -1.0
      ],
      [
        "Ġhash",
        -1.0
      ],
      [
        "exp",
        -1.0
      ],
      [
        "Ġcollective",
        -1.0
      ],
      [
        "Ġreceived",
        -1.0
      ],
      [
        "Ġturbines",
        -1.0
      ],
      [
        "bia",
        -1.0
      ],
      [
        "ĠOs",
        -1.0
      ],
      [
        "Ġmodes",
        -1.0
      ],
      [
        "Ġpoem",
        -1.0
      ],
      [
        "75",
        -1.0
      ],
      [
        "ĠScientific",
        -1.0
      ],
      [
        "ĠRemoval",
        -1.0
      ],
      [
        "Ġsciences",
        -1.0
      ],
      [
        "Ġni",
        -1.0
      ],
      [
        ")?",
        -1.0
      ],
      [
        "kan",
        -1.0
      ],
      [
        "Ġbecomes",
        -1.0
      ],
      [
        "Ġredness",
        -1.0
      ],
      [
        "Ġappealing",
        -1.0
      ],
      [
        "ĠIraq",
        -1.0
      ],
      [
        "ĠJennifer",
        -1.0
      ],
      [
        "ep",
        -1.0
      ],
      [
        "iance",
        -1.0
      ],
      [
        "ena",
        -1.0
      ],
      [
        "Te",
        -1.0
      ],
      [
        "ĠEN",
        -1.0
      ],
      [
        "cle",
        -1.0
      ],
      [
        "Ġmetals",
        -1.0
      ],
      [
        "Ġmatter",
        -1.0
      ],
      [
        "ĠFossil",
        -1.0
      ],
      [
        "Ġbranches",
        -1.0
      ],
      [
        "Ġbou",
        -1.0
      ],
      [
        "ĠChi",
        -1.0
      ],
      [
        "Ġcrushing",
        -1.0
      ],
      [
        "Ġsees",
        -1.0
      ],
      [
        "Ġgrace",
        -1.0
      ],
      [
        "Ġflame",
        -1.0
      ],
      [
        "xx",
        -1.0
      ],
      [
        "zygo",
        -1.0
      ],
      [
        "Ġremove",
        -1.0
      ],
      [
        "Ġconverted",
        -1.0
      ],
      [
        "=\"",
        -1.0
      ],
      [
        "05",
        -1.0
      ],
      [
        "ĠIndex",
        -1.0
      ],
      [
        "Ġsna",
        -1.0
      ],
      [
        "Ġcolor",
        -1.0
      ],
      [
        "\".ĊĊ",
        -1.0
      ],
      [
        "ĠGrowing",
        -1.0
      ],
      [
        "VI",
        -1.0
      ],
      [
        "ĠNigeria",
        -1.0
      ],
      [
        "Ġblossom",
        -1.0
      ],
      [
        "Ġshifted",
        -1.0
      ],
      [
        "ĠBear",
        -1.0
      ],
      [
        "ĠGre",
        -1.0
      ],
      [
        "Ġreb",
        -1.0
      ],
      [
        "ĠNebraska",
        -1.0
      ],
      [
        "FD",
        -1.0
      ],
      [
        "nging",
        -1.0
      ],
      [
        "pha",
        -1.0
      ],
      [
        "ĠSince",
        -1.0
      ],
      [
        "mped",
        -1.0
      ],
      [
        "Ġperhaps",
        -1.0
      ],
      [
        "Ġemb",
        -1.0
      ],
      [
        "Ġearth",
        -1.0
      ],
      [
        "ĠYour",
        -1.0
      ],
      [
        "Ġnicely",
        -1.0
      ],
      [
        "ress",
        -1.0
      ],
      [
        "-solving",
        -1.0
      ],
      [
        "roke",
        -1.0
      ],
      [
        "ĠGenerally",
        -1.0
      ],
      [
        "Ġexperiment",
        -1.0
      ],
      [
        "Ġtraditions",
        -1.0
      ],
      [
        "ed",
        -1.0
      ],
      [
        "ĠHybrid",
        -1.0
      ],
      [
        "ĠCongress",
        -1.0
      ],
      [
        "Ġdeposits",
        -1.0
      ],
      [
        ";",
        -1.0
      ],
      [
        "ĠEgg",
        -1.0
      ],
      [
        "Ġemploying",
        -1.0
      ],
      [
        "Ġbeverage",
        -1.0
      ],
      [
        "Ġplays",
        -1.0
      ],
      [
        "Ġcheaper",
        -1.0
      ],
      [
        "Ġadhere",
        -1.0
      ],
      [
        "ĠPizza",
        -1.0
      ],
      [
        "ĠStill",
        -1.0
      ],
      [
        "Check",
        -1.0
      ],
      [
        "Ġfurther",
        -1.0
      ],
      [
        "gage",
        -1.0
      ],
      [
        "Ç",
        -1.0
      ],
      [
        "nutrients",
        -1.0
      ],
      [
        "Ġpigeon",
        -1.0
      ],
      [
        "ĠIntel",
        -1.0
      ],
      [
        "ĠDoes",
        -1.0
      ],
      [
        "Ġdistract",
        -1.0
      ],
      [
        "Ġhabit",
        -1.0
      ],
      [
        "SC",
        -1.0
      ],
      [
        "Ġunf",
        -1.0
      ],
      [
        "Cat",
        -1.0
      ],
      [
        "st",
        -1.0
      ],
      [
        "Ġwhole",
        -1.0
      ],
      [
        "Ġbecause",
        -1.0
      ],
      [
        "look",
        -1.0
      ],
      [
        "Ġreliable",
        -1.0
      ],
      [
        "Ġrely",
        -1.0
      ],
      [
        "Ġplan",
        -1.0
      ],
      [
        "ĠCau",
        -1.0
      ],
      [
        "Ġawareness",
        -1.0
      ],
      [
        "ĠReduce",
        -1.0
      ],
      [
        "April",
        -1.0
      ],
      [
        "ĠOnly",
        -1.0
      ],
      [
        "logy",
        -1.0
      ],
      [
        "Ġcast",
        -1.0
      ],
      [
        "Ġaren",
        -1.0
      ],
      [
        "ella",
        -1.0
      ],
      [
        "Ġglance",
        -1.0
      ],
      [
        "s",
        -1.0
      ],
      [
        "ĠKen",
        -1.0
      ],
      [
        "Ġblow",
        -1.0
      ],
      [
        "ĠHere",
        -1.0
      ],
      [
        "Ġunit",
        -1.0
      ],
      [
        "Id",
        -1.0
      ],
      [
        "ĠOp",
        -1.0
      ],
      [
        "Ġmotorcycle",
        -1.0
      ],
      [
        "Ġsymptoms",
        -1.0
      ],
      [
        "ĠSN",
        -1.0
      ],
      [
        "ĠPoly",
        -1.0
      ],
      [
        "March",
        -1.0
      ],
      [
        "-side",
        -1.0
      ],
      [
        "Ġparking",
        -1.0
      ],
      [
        "hea",
        -1.0
      ],
      [
        "Object",
        -1.0
      ],
      [
        "Ġreactions",
        -1.0
      ],
      [
        "ĠRad",
        -1.0
      ],
      [
        "Ġunt",
        -1.0
      ],
      [
        "Ġoffer",
        -1.0
      ],
      [
        "ĠLEDs",
        -1.0
      ],
      [
        "Ġask",
        -1.0
      ],
      [
        "lant",
        -1.0
      ],
      [
        "Ġinhabit",
        -1.0
      ],
      [
        "î",
        -1.0
      ],
      [
        "Ġhills",
        -1.0
      ],
      [
        "ĠMul",
        -1.0
      ],
      [
        "Ġf",
        -1.0
      ],
      [
        "ĠJoe",
        -1.0
      ],
      [
        "Ġfro",
        -1.0
      ],
      [
        "Ġdumb",
        -1.0
      ],
      [
        "...",
        -1.0
      ],
      [
        "Ġleaking",
        -1.0
      ],
      [
        "Ġemail",
        -1.0
      ],
      [
        "sh",
        -1.0
      ],
      [
        "Ġturned",
        -1.0
      ],
      [
        "Ġdownstream",
        -1.0
      ],
      [
        "ices",
        -1.0
      ],
      [
        "ĠEndangered",
        -1.0
      ],
      [
        "Ġturbine",
        -1.0
      ],
      [
        "Ġrules",
        -1.0
      ],
      [
        "order",
        -1.0
      ],
      [
        "ĠEventually",
        -1.0
      ],
      [
        "rky",
        -1.0
      ],
      [
        "Ġspecify",
        -1.0
      ],
      [
        "Ġprogressive",
        -1.0
      ],
      [
        "}Ċ",
        -1.0
      ],
      [
        "tin",
        -1.0
      ],
      [
        "Ġadults",
        -1.0
      ],
      [
        "Ġargued",
        -1.0
      ],
      [
        "Ġsucculent",
        -1.0
      ],
      [
        "kill",
        -1.0
      ],
      [
        "osomes",
        -1.0
      ],
      [
        "ĠAround",
        -1.0
      ],
      [
        "Ġcortisol",
        -1.0
      ],
      [
        "Although",
        -1.0
      ],
      [
        "oves",
        -1.0
      ],
      [
        "Ġdubbed",
        -1.0
      ],
      [
        "Ġassignment",
        -1.0
      ],
      [
        "gma",
        -1.0
      ],
      [
        "Ġpartly",
        -1.0
      ],
      [
        "âĢį",
        -1.0
      ],
      [
        "Ġvariable",
        -1.0
      ],
      [
        "-me",
        -1.0
      ],
      [
        "Ġlovely",
        -1.0
      ],
      [
        "flower",
        -1.0
      ],
      [
        "Ġbelief",
        -1.0
      ],
      [
        "Carbon",
        -1.0
      ],
      [
        "cut",
        -1.0
      ],
      [
        "Ġbrood",
        -1.0
      ],
      [
        "St",
        -1.0
      ],
      [
        "opt",
        -1.0
      ],
      [
        "rtex",
        -1.0
      ],
      [
        "Ġutilized",
        -1.0
      ],
      [
        "Ġtreatment",
        -1.0
      ],
      [
        "Ġpressed",
        -1.0
      ],
      [
        "ulo",
        -1.0
      ],
      [
        "Ġinform",
        -1.0
      ],
      [
        "Ġbolts",
        -1.0
      ],
      [
        "Ġbro",
        -1.0
      ],
      [
        "ĠSn",
        -1.0
      ],
      [
        "Ġof",
        -1.0
      ],
      [
        "ĠArchitect",
        -1.0
      ],
      [
        "Ġworkout",
        -1.0
      ],
      [
        "ĠSoviet",
        -1.0
      ],
      [
        "Ġsaliva",
        -1.0
      ],
      [
        "Ġhonour",
        -1.0
      ],
      [
        "Ġconsiders",
        -1.0
      ],
      [
        "Ġkinds",
        -1.0
      ],
      [
        "Ġdrunk",
        -1.0
      ],
      [
        "nutrition",
        -1.0
      ],
      [
        "Ġfighting",
        -1.0
      ],
      [
        "Cr",
        -1.0
      ],
      [
        "oxyl",
        -1.0
      ],
      [
        "ĠLeaf",
        -1.0
      ],
      [
        "hed",
        -1.0
      ],
      [
        "TA",
        -1.0
      ],
      [
        "ĠDay",
        -1.0
      ],
      [
        "Ġexperts",
        -1.0
      ],
      [
        "-W",
        -1.0
      ],
      [
        "Ġfauna",
        -1.0
      ],
      [
        "vers",
        -1.0
      ],
      [
        "ney",
        -1.0
      ],
      [
        "Ġtourism",
        -1.0
      ],
      [
        "ĠEnergy",
        -1.0
      ],
      [
        "Ġactions",
        -1.0
      ],
      [
        "Ġdisabled",
        -1.0
      ],
      [
        "Ġfiltered",
        -1.0
      ],
      [
        "Ġbackpack",
        -1.0
      ],
      [
        "Ġdiver",
        -1.0
      ],
      [
        "Ġlaser",
        -1.0
      ],
      [
        "Ġgoat",
        -1.0
      ],
      [
        "oth",
        -1.0
      ],
      [
        "Ġdelta",
        -1.0
      ],
      [
        "bu",
        -1.0
      ],
      [
        "Ġideally",
        -1.0
      ],
      [
        "Ġforeign",
        -1.0
      ],
      [
        "ĠTypes",
        -1.0
      ],
      [
        "git",
        -1.0
      ],
      [
        "sks",
        -1.0
      ],
      [
        "Ġindoor",
        -1.0
      ],
      [
        "Ġcolonies",
        -1.0
      ],
      [
        "ĠEd",
        -1.0
      ],
      [
        "ĠBritain",
        -1.0
      ],
      [
        "37",
        -1.0
      ],
      [
        "Ġprim",
        -1.0
      ],
      [
        "thesis",
        -1.0
      ],
      [
        "rch",
        -1.0
      ],
      [
        "Med",
        -1.0
      ],
      [
        "Ġteen",
        -1.0
      ],
      [
        "ttery",
        -1.0
      ],
      [
        "ĠPseudo",
        -1.0
      ],
      [
        "Ġfloods",
        -1.0
      ],
      [
        "Ġswitch",
        -1.0
      ],
      [
        "Ġfees",
        -1.0
      ],
      [
        "ĠYes",
        -1.0
      ],
      [
        "Ġscope",
        -1.0
      ],
      [
        "genic",
        -1.0
      ],
      [
        "Ġcakes",
        -1.0
      ],
      [
        "Ġdesignated",
        -1.0
      ],
      [
        "Over",
        -1.0
      ],
      [
        "Ġpurpose",
        -1.0
      ],
      [
        "Ġscream",
        -1.0
      ],
      [
        "\"",
        -1.0
      ],
      [
        "Ò",
        -1.0
      ],
      [
        "Pr",
        -1.0
      ],
      [
        "Ġdeployment",
        -1.0
      ],
      [
        "Ġdep",
        -1.0
      ],
      [
        "ĠIce",
        -1.0
      ],
      [
        "ĠBed",
        -1.0
      ],
      [
        "Back",
        -1.0
      ],
      [
        "ĠSnow",
        -1.0
      ],
      [
        "Ġshould",
        -1.0
      ],
      [
        "ĠEngine",
        -1.0
      ],
      [
        "Ġmarine",
        -1.0
      ],
      [
        "Ġdoing",
        -1.0
      ],
      [
        "Ġslice",
        -1.0
      ],
      [
        "Ġnothing",
        -1.0
      ],
      [
        "Ġremaining",
        -1.0
      ],
      [
        "Ġphenomena",
        -1.0
      ],
      [
        "Ġreferences",
        -1.0
      ],
      [
        "atter",
        -1.0
      ],
      [
        "ĥ",
        -1.0
      ],
      [
        "ĠSchool",
        -1.0
      ],
      [
        "Ġcompelling",
        -1.0
      ],
      [
        "ET",
        -1.0
      ],
      [
        "Ġpowers",
        -1.0
      ],
      [
        "cell",
        -1.0
      ],
      [
        "Ġtropics",
        -1.0
      ],
      [
        "Ġinterfaces",
        -1.0
      ],
      [
        "Î²",
        -1.0
      ],
      [
        "çļĦ",
        -1.0
      ],
      [
        "ined",
        -1.0
      ],
      [
        "ĠRoom",
        -1.0
      ],
      [
        "ĠFree",
        -1.0
      ],
      [
        "Ġexpose",
        -1.0
      ],
      [
        "Ah",
        -1.0
      ],
      [
        "Ġtwin",
        -1.0
      ],
      [
        "EC",
        -1.0
      ],
      [
        "-reg",
        -1.0
      ],
      [
        "ĠVitamin",
        -1.0
      ],
      [
        "Ġsilicone",
        -1.0
      ],
      [
        "Ġaccepted",
        -1.0
      ],
      [
        "Ġpermits",
        -1.0
      ],
      [
        "Pros",
        -1.0
      ],
      [
        "oss",
        -1.0
      ],
      [
        "Ġmessenger",
        -1.0
      ],
      [
        "ea",
        -1.0
      ],
      [
        "Sal",
        -1.0
      ],
      [
        "Ġtook",
        -1.0
      ],
      [
        "Ġya",
        -1.0
      ],
      [
        "Ġhave",
        -1.0
      ],
      [
        "ĠDrive",
        -1.0
      ],
      [
        "Ġexercises",
        -1.0
      ],
      [
        "52",
        -1.0
      ],
      [
        "Ġdeal",
        -1.0
      ],
      [
        "Ġfront",
        -1.0
      ],
      [
        "hand",
        -1.0
      ],
      [
        "Ġswim",
        -1.0
      ],
      [
        "conduct",
        -1.0
      ],
      [
        "Ġpartial",
        -1.0
      ],
      [
        "tation",
        -1.0
      ],
      [
        "Spi",
        -1.0
      ],
      [
        "HC",
        -1.0
      ],
      [
        "mps",
        -1.0
      ],
      [
        "Ġinorganic",
        -1.0
      ],
      [
        "il",
        -1.0
      ],
      [
        "Ġrent",
        -1.0
      ],
      [
        "Ġpun",
        -1.0
      ],
      [
        "Ġtriangular",
        -1.0
      ],
      [
        "Ġrequire",
        -1.0
      ],
      [
        "ĠFrequency",
        -1.0
      ],
      [
        "ĠAnswer",
        -1.0
      ],
      [
        "Ġsend",
        -1.0
      ],
      [
        "rray",
        -1.0
      ],
      [
        "ĠHen",
        -1.0
      ],
      [
        "Ġoccurring",
        -1.0
      ],
      [
        "Ġstep",
        -1.0
      ],
      [
        "Single",
        -1.0
      ],
      [
        "ĠProblems",
        -1.0
      ],
      [
        "place",
        -1.0
      ],
      [
        "Ġliver",
        -1.0
      ],
      [
        "Ġcocoa",
        -1.0
      ],
      [
        "Ġage",
        -1.0
      ],
      [
        "Ġfaced",
        -1.0
      ],
      [
        "Ġdisability",
        -1.0
      ],
      [
        "ĠStates",
        -1.0
      ],
      [
        "ĠVillage",
        -1.0
      ],
      [
        "Ġwatching",
        -1.0
      ],
      [
        "Ġinvisible",
        -1.0
      ],
      [
        "ĠTR",
        -1.0
      ],
      [
        "EL",
        -1.0
      ],
      [
        "Ġblades",
        -1.0
      ],
      [
        "Ġunc",
        -1.0
      ],
      [
        "Ġwonder",
        -1.0
      ],
      [
        "oning",
        -1.0
      ],
      [
        "Ġwork",
        -1.0
      ],
      [
        "ures",
        -1.0
      ],
      [
        "nner",
        -1.0
      ],
      [
        "los",
        -1.0
      ],
      [
        "Ġstronger",
        -1.0
      ],
      [
        "Ġsociety",
        -1.0
      ],
      [
        "cil",
        -1.0
      ],
      [
        "tted",
        -1.0
      ],
      [
        "Ġfamiliar",
        -1.0
      ],
      [
        "Ġaspir",
        -1.0
      ],
      [
        "mise",
        -1.0
      ],
      [
        "Ġmultiply",
        -1.0
      ],
      [
        "Ġcooler",
        -1.0
      ],
      [
        "ament",
        -1.0
      ],
      [
        "sta",
        -1.0
      ],
      [
        "ĠAbout",
        -1.0
      ],
      [
        "âĢĻs",
        -1.0
      ],
      [
        "Ġdiscuss",
        -1.0
      ],
      [
        "OU",
        -1.0
      ],
      [
        "ĠBasics",
        -1.0
      ],
      [
        "Ġproperty",
        -1.0
      ],
      [
        "af",
        -1.0
      ],
      [
        "Ġmag",
        -1.0
      ],
      [
        "Ġmis",
        -1.0
      ],
      [
        "Ġfibre",
        -1.0
      ],
      [
        "iner",
        -1.0
      ],
      [
        "Ġexceed",
        -1.0
      ],
      [
        "Ġlibrarian",
        -1.0
      ],
      [
        "ĠMark",
        -1.0
      ],
      [
        "Ġdetox",
        -1.0
      ],
      [
        "gal",
        -1.0
      ],
      [
        "Ġvery",
        -1.0
      ],
      [
        "Ġwant",
        -1.0
      ],
      [
        "ckers",
        -1.0
      ],
      [
        "Ġhi",
        -1.0
      ],
      [
        "ë",
        -1.0
      ],
      [
        "Ġvein",
        -1.0
      ],
      [
        "ĠFeed",
        -1.0
      ],
      [
        "ĠDiet",
        -1.0
      ],
      [
        "ĠGlobal",
        -1.0
      ],
      [
        "Ġflexible",
        -1.0
      ],
      [
        "ille",
        -1.0
      ],
      [
        "Ġsub",
        -1.0
      ],
      [
        "Ġreflected",
        -1.0
      ],
      [
        "Supp",
        -1.0
      ],
      [
        "Ġabsent",
        -1.0
      ],
      [
        "ship",
        -1.0
      ],
      [
        "-round",
        -1.0
      ],
      [
        "Ġcake",
        -1.0
      ],
      [
        "Ġmeasles",
        -1.0
      ],
      [
        "ĠEva",
        -1.0
      ],
      [
        "Ġestimated",
        -1.0
      ],
      [
        "Ġsubwoofer",
        -1.0
      ],
      [
        "ĠMary",
        -1.0
      ],
      [
        "Ġrecordings",
        -1.0
      ],
      [
        "Ġparks",
        -1.0
      ],
      [
        "Ġregard",
        -1.0
      ],
      [
        "Ġwisdom",
        -1.0
      ],
      [
        "Ġsomewhat",
        -1.0
      ],
      [
        "Ġinvolving",
        -1.0
      ],
      [
        "Ġbehalf",
        -1.0
      ],
      [
        "ĠThey",
        -1.0
      ],
      [
        "44",
        -1.0
      ],
      [
        "Ġcustomized",
        -1.0
      ],
      [
        "ĠBul",
        -1.0
      ],
      [
        "Ġreviewed",
        -1.0
      ],
      [
        "Ġdetermined",
        -1.0
      ],
      [
        "Ġeat",
        -1.0
      ],
      [
        "Ġmicro",
        -1.0
      ],
      [
        "Ġwithout",
        -1.0
      ],
      [
        "itude",
        -1.0
      ],
      [
        "kl",
        -1.0
      ],
      [
        "hy",
        -1.0
      ],
      [
        "ĠAlfred",
        -1.0
      ],
      [
        "Ġorigins",
        -1.0
      ],
      [
        "Ġplatinum",
        -1.0
      ],
      [
        "active",
        -1.0
      ],
      [
        "Ġoptimize",
        -1.0
      ],
      [
        "clusion",
        -1.0
      ],
      [
        "lur",
        -1.0
      ],
      [
        "Ġwrote",
        -1.0
      ],
      [
        "Ġphotos",
        -1.0
      ],
      [
        "CU",
        -1.0
      ],
      [
        "Ġthicker",
        -1.0
      ],
      [
        "SW",
        -1.0
      ],
      [
        "Ġillusion",
        -1.0
      ],
      [
        "Ĥ",
        -1.0
      ],
      [
        "mpa",
        -1.0
      ],
      [
        "Ġcurrent",
        -1.0
      ],
      [
        "ad",
        -1.0
      ],
      [
        "ĠPe",
        -1.0
      ],
      [
        "Ġliga",
        -1.0
      ],
      [
        "Ġassets",
        -1.0
      ],
      [
        "Ġbushes",
        -1.0
      ],
      [
        "plant",
        -1.0
      ],
      [
        "Ġwiring",
        -1.0
      ],
      [
        "Ġgenetic",
        -1.0
      ],
      [
        "Ġalert",
        -1.0
      ],
      [
        "Ġreddish",
        -1.0
      ],
      [
        "ĠSav",
        -1.0
      ],
      [
        "Ġmalignant",
        -1.0
      ],
      [
        "Ġguidelines",
        -1.0
      ],
      [
        "Ġdrinks",
        -1.0
      ],
      [
        "TM",
        -1.0
      ],
      [
        "Ġmaterials",
        -1.0
      ],
      [
        "Ġrecording",
        -1.0
      ],
      [
        "Ġheaters",
        -1.0
      ],
      [
        "Ġvariety",
        -1.0
      ],
      [
        "kit",
        -1.0
      ],
      [
        "Ġlists",
        -1.0
      ],
      [
        "ĠSecret",
        -1.0
      ],
      [
        "scopy",
        -1.0
      ],
      [
        "Ġexamine",
        -1.0
      ],
      [
        "alk",
        -1.0
      ],
      [
        "ĠArtificial",
        -1.0
      ],
      [
        "Web",
        -1.0
      ],
      [
        "Ġplanet",
        -1.0
      ],
      [
        "ĠMore",
        -1.0
      ],
      [
        "Ġattitude",
        -1.0
      ],
      [
        "road",
        -1.0
      ],
      [
        "Ġcrispy",
        -1.0
      ],
      [
        "Ġlizards",
        -1.0
      ],
      [
        "Ġmammals",
        -1.0
      ],
      [
        "Ġgenuine",
        -1.0
      ],
      [
        "Ġji",
        -1.0
      ],
      [
        "Only",
        -1.0
      ],
      [
        "Ġstressful",
        -1.0
      ],
      [
        "Ġhealthier",
        -1.0
      ],
      [
        "Ġlegitimate",
        -1.0
      ],
      [
        "Ġfirm",
        -1.0
      ],
      [
        "gers",
        -1.0
      ],
      [
        "ĠDepartment",
        -1.0
      ],
      [
        "ĠProtocol",
        -1.0
      ],
      [
        "Current",
        -1.0
      ],
      [
        "ĠSyndrome",
        -1.0
      ],
      [
        "Ġpoison",
        -1.0
      ],
      [
        "Ġfeature",
        -1.0
      ],
      [
        "Ġglobe",
        -1.0
      ],
      [
        "Ġmulch",
        -1.0
      ],
      [
        "including",
        -1.0
      ],
      [
        "Ġoriginally",
        -1.0
      ],
      [
        "Ġstake",
        -1.0
      ],
      [
        "Ġsurvive",
        -1.0
      ],
      [
        "Ġrapidly",
        -1.0
      ],
      [
        "Ġin",
        -1.0
      ],
      [
        "ves",
        -1.0
      ],
      [
        "Ġattract",
        -1.0
      ],
      [
        "Similar",
        -1.0
      ],
      [
        "ĠCarbon",
        -1.0
      ],
      [
        "ĠFamily",
        -1.0
      ],
      [
        "Ġantenna",
        -1.0
      ],
      [
        "Ġancestor",
        -1.0
      ],
      [
        "ĠThrough",
        -1.0
      ],
      [
        "Ġloose",
        -1.0
      ],
      [
        "Ġquickly",
        -1.0
      ],
      [
        "Vir",
        -1.0
      ],
      [
        "Ġsubsequent",
        -1.0
      ],
      [
        "ĠAp",
        -1.0
      ],
      [
        "range",
        -1.0
      ],
      [
        "Ġsavory",
        -1.0
      ],
      [
        "WI",
        -1.0
      ],
      [
        "Ġflights",
        -1.0
      ],
      [
        "Ġdynamic",
        -1.0
      ],
      [
        "ml",
        -1.0
      ],
      [
        "Ġexercise",
        -1.0
      ],
      [
        "re",
        -1.0
      ],
      [
        "ĠCre",
        -1.0
      ],
      [
        "oting",
        -1.0
      ],
      [
        "ĠSound",
        -1.0
      ],
      [
        "Ġspeed",
        -1.0
      ],
      [
        "Ġsafety",
        -1.0
      ],
      [
        "normal",
        -1.0
      ],
      [
        "Ġcaught",
        -1.0
      ],
      [
        "Ġadvent",
        -1.0
      ],
      [
        "Ġcyst",
        -1.0
      ],
      [
        "ically",
        -1.0
      ],
      [
        "ĠChallenge",
        -1.0
      ],
      [
        "History",
        -1.0
      ],
      [
        "ĠP",
        -1.0
      ],
      [
        "Ġbicycle",
        -1.0
      ],
      [
        "spective",
        -1.0
      ],
      [
        "Ġapproved",
        -1.0
      ],
      [
        "Rep",
        -1.0
      ],
      [
        "Ġskeletal",
        -1.0
      ],
      [
        "Ġgreen",
        -1.0
      ],
      [
        "On",
        -1.0
      ],
      [
        "ĠMade",
        -1.0
      ],
      [
        "Ġhemp",
        -1.0
      ],
      [
        "san",
        -1.0
      ],
      [
        "Ġlava",
        -1.0
      ],
      [
        "@",
        -1.0
      ],
      [
        "Ġloss",
        -1.0
      ],
      [
        "thi",
        -1.0
      ],
      [
        "ĠImpact",
        -1.0
      ],
      [
        "hood",
        -1.0
      ],
      [
        "ored",
        -1.0
      ],
      [
        "ĠHawk",
        -1.0
      ],
      [
        "Ġisolation",
        -1.0
      ],
      [
        "Ġsmoke",
        -1.0
      ],
      [
        "Ġhips",
        -1.0
      ],
      [
        "Ġengagement",
        -1.0
      ],
      [
        "Un",
        -1.0
      ],
      [
        "Ġfast",
        -1.0
      ],
      [
        "ĠWhite",
        -1.0
      ],
      [
        "Ġtraveled",
        -1.0
      ],
      [
        "Ġcomponent",
        -1.0
      ],
      [
        "Education",
        -1.0
      ],
      [
        "igh",
        -1.0
      ],
      [
        "ĠHigh",
        -1.0
      ],
      [
        "Ā",
        -1.0
      ],
      [
        "Ġattempting",
        -1.0
      ],
      [
        "Ġbridges",
        -1.0
      ],
      [
        "suit",
        -1.0
      ],
      [
        "Ġarrow",
        -1.0
      ],
      [
        "ą",
        -1.0
      ],
      [
        "Following",
        -1.0
      ],
      [
        "00",
        -1.0
      ],
      [
        "wind",
        -1.0
      ],
      [
        "ĠKra",
        -1.0
      ],
      [
        "Ġsticking",
        -1.0
      ],
      [
        "mar",
        -1.0
      ],
      [
        "Ġcontract",
        -1.0
      ],
      [
        "ĠEff",
        -1.0
      ],
      [
        "eds",
        -1.0
      ],
      [
        "Ġwhose",
        -1.0
      ],
      [
        "Ġtextile",
        -1.0
      ],
      [
        "ĠSeptember",
        -1.0
      ],
      [
        "ĠVery",
        -1.0
      ],
      [
        "Ġconflict",
        -1.0
      ],
      [
        "Ġplywood",
        -1.0
      ],
      [
        "iness",
        -1.0
      ],
      [
        "PN",
        -1.0
      ],
      [
        "Ġpale",
        -1.0
      ],
      [
        "ĠRecord",
        -1.0
      ],
      [
        "Ġtoxic",
        -1.0
      ],
      [
        "Ġsensing",
        -1.0
      ],
      [
        "meric",
        -1.0
      ],
      [
        "Ġstatements",
        -1.0
      ],
      [
        "Ġanatomical",
        -1.0
      ],
      [
        "Ġworm",
        -1.0
      ],
      [
        "Ġscenes",
        -1.0
      ],
      [
        "Ġremoving",
        -1.0
      ],
      [
        "uh",
        -1.0
      ],
      [
        "Ġanimals",
        -1.0
      ],
      [
        "atory",
        -1.0
      ],
      [
        "Ġcle",
        -1.0
      ],
      [
        "Ġintricate",
        -1.0
      ],
      [
        "Ġcourses",
        -1.0
      ],
      [
        "Ġdimension",
        -1.0
      ],
      [
        "Ġad",
        -1.0
      ],
      [
        "Ġperceive",
        -1.0
      ],
      [
        ".h",
        -1.0
      ],
      [
        "Ġsuck",
        -1.0
      ],
      [
        "ES",
        -1.0
      ],
      [
        "Ġdwarf",
        -1.0
      ],
      [
        "agon",
        -1.0
      ],
      [
        "$",
        -1.0
      ],
      [
        "oy",
        -1.0
      ],
      [
        "Ġorbit",
        -1.0
      ],
      [
        "Ġleverage",
        -1.0
      ],
      [
        "Besides",
        -1.0
      ],
      [
        "ĠStar",
        -1.0
      ],
      [
        "ĠConcept",
        -1.0
      ],
      [
        "Ġelongated",
        -1.0
      ],
      [
        "Ġavailable",
        -1.0
      ],
      [
        "Ġphilosophy",
        -1.0
      ],
      [
        "Op",
        -1.0
      ],
      [
        "Ġte",
        -1.0
      ],
      [
        "Ġfloat",
        -1.0
      ],
      [
        "Ġskills",
        -1.0
      ],
      [
        "Ġhectares",
        -1.0
      ],
      [
        "Ġram",
        -1.0
      ],
      [
        "Ġmed",
        -1.0
      ],
      [
        "start",
        -1.0
      ],
      [
        "Ġpermission",
        -1.0
      ],
      [
        "Ġwasps",
        -1.0
      ],
      [
        "Ġbark",
        -1.0
      ],
      [
        "Am",
        -1.0
      ],
      [
        "Ġjuicy",
        -1.0
      ],
      [
        "Ġstimulus",
        -1.0
      ],
      [
        "Ev",
        -1.0
      ],
      [
        "Ġair",
        -1.0
      ],
      [
        "Ġwhilst",
        -1.0
      ],
      [
        "ĠNurs",
        -1.0
      ],
      [
        "Ġoutlined",
        -1.0
      ],
      [
        "Ġneedle",
        -1.0
      ],
      [
        "Ġgri",
        -1.0
      ],
      [
        "Ġabove",
        -1.0
      ],
      [
        "Ġengaged",
        -1.0
      ],
      [
        "Ġemployed",
        -1.0
      ],
      [
        "Ġproject",
        -1.0
      ],
      [
        "Ġanalyze",
        -1.0
      ],
      [
        "Ġmeats",
        -1.0
      ],
      [
        "hos",
        -1.0
      ],
      [
        "nah",
        -1.0
      ],
      [
        "Getting",
        -1.0
      ],
      [
        "Ġflu",
        -1.0
      ],
      [
        "Ġmortar",
        -1.0
      ],
      [
        "tery",
        -1.0
      ],
      [
        "Ġmicrowave",
        -1.0
      ],
      [
        "Ġchanging",
        -1.0
      ],
      [
        "ĠPro",
        -1.0
      ],
      [
        "Ġbypass",
        -1.0
      ],
      [
        "Ġexpressed",
        -1.0
      ],
      [
        "Ġconsistent",
        -1.0
      ],
      [
        "wers",
        -1.0
      ],
      [
        "sha",
        -1.0
      ],
      [
        "Ġpulmonary",
        -1.0
      ],
      [
        "ĠLife",
        -1.0
      ],
      [
        "zh",
        -1.0
      ],
      [
        "Ġformat",
        -1.0
      ],
      [
        "Ġbeetles",
        -1.0
      ],
      [
        "Ġstylish",
        -1.0
      ],
      [
        "igs",
        -1.0
      ],
      [
        "Ġpeace",
        -1.0
      ],
      [
        "Ġlubric",
        -1.0
      ],
      [
        "%ĊĊ",
        -1.0
      ],
      [
        "ires",
        -1.0
      ],
      [
        "erts",
        -1.0
      ],
      [
        "ĠNot",
        -1.0
      ],
      [
        "Ġmoved",
        -1.0
      ],
      [
        "µ",
        -1.0
      ],
      [
        "Ġintense",
        -1.0
      ],
      [
        "gnosis",
        -1.0
      ],
      [
        "ĠProducts",
        -1.0
      ],
      [
        "RA",
        -1.0
      ],
      [
        "Help",
        -1.0
      ],
      [
        "Ġcoating",
        -1.0
      ],
      [
        "mble",
        -1.0
      ],
      [
        "Ġregarded",
        -1.0
      ],
      [
        "Long",
        -1.0
      ],
      [
        "Ġshows",
        -1.0
      ],
      [
        "Ġchances",
        -1.0
      ],
      [
        "ĠHo",
        -1.0
      ],
      [
        "Ġz",
        -1.0
      ],
      [
        "ĠBar",
        -1.0
      ],
      [
        "Ġauthors",
        -1.0
      ],
      [
        "Du",
        -1.0
      ],
      [
        "Ġlets",
        -1.0
      ],
      [
        "ĠMemorial",
        -1.0
      ],
      [
        "ora",
        -1.0
      ],
      [
        "ĠNote",
        -1.0
      ],
      [
        "Ġwhales",
        -1.0
      ],
      [
        "Ġsampling",
        -1.0
      ],
      [
        "ïĤ",
        -1.0
      ],
      [
        "Ġattacks",
        -1.0
      ],
      [
        "-fu",
        -1.0
      ],
      [
        "oke",
        -1.0
      ],
      [
        "ular",
        -1.0
      ],
      [
        "ĠManual",
        -1.0
      ],
      [
        "Ġnative",
        -1.0
      ],
      [
        "Ġitem",
        -1.0
      ],
      [
        "ĠCDC",
        -1.0
      ],
      [
        "ĠCourse",
        -1.0
      ],
      [
        "Essential",
        -1.0
      ],
      [
        "Ġnearby",
        -1.0
      ],
      [
        "lease",
        -1.0
      ],
      [
        "Ġchallenged",
        -1.0
      ],
      [
        "nz",
        -1.0
      ],
      [
        "Ġshow",
        -1.0
      ],
      [
        "Ġshelves",
        -1.0
      ],
      [
        "Ġcooking",
        -1.0
      ],
      [
        "Ġsecured",
        -1.0
      ],
      [
        "Ġfarmers",
        -1.0
      ],
      [
        "ĠFor",
        -1.0
      ],
      [
        "pho",
        -1.0
      ],
      [
        "ĠGA",
        -1.0
      ],
      [
        "Ġjustice",
        -1.0
      ],
      [
        "Ġla",
        -1.0
      ],
      [
        "ĠAutoCAD",
        -1.0
      ],
      [
        "Ġexo",
        -1.0
      ],
      [
        "Ġfaculty",
        -1.0
      ],
      [
        "Ġthread",
        -1.0
      ],
      [
        "Ġformulas",
        -1.0
      ],
      [
        "pg",
        -1.0
      ],
      [
        "cs",
        -1.0
      ],
      [
        "Ġbrains",
        -1.0
      ],
      [
        "Ġov",
        -1.0
      ],
      [
        "lis",
        -1.0
      ],
      [
        "Ġinduced",
        -1.0
      ],
      [
        "Ġearly",
        -1.0
      ],
      [
        "Ġstage",
        -1.0
      ],
      [
        "Ġcitizen",
        -1.0
      ],
      [
        "ĠConcrete",
        -1.0
      ],
      [
        "Ġalbeit",
        -1.0
      ],
      [
        "pper",
        -1.0
      ],
      [
        "ĠYou",
        -1.0
      ],
      [
        "supp",
        -1.0
      ],
      [
        "Ġcompleted",
        -1.0
      ],
      [
        "Ġaccessed",
        -1.0
      ],
      [
        "ĠConsider",
        -1.0
      ],
      [
        "Ġcalculate",
        -1.0
      ],
      [
        "ĠChrist",
        -1.0
      ],
      [
        "Ġspinal",
        -1.0
      ],
      [
        "Ġclosest",
        -1.0
      ],
      [
        "Energy",
        -1.0
      ],
      [
        "ĠTanzania",
        -1.0
      ],
      [
        "Ġheat",
        -1.0
      ],
      [
        "new",
        -1.0
      ],
      [
        "shell",
        -1.0
      ],
      [
        "NCE",
        -1.0
      ],
      [
        "ĠOx",
        -1.0
      ],
      [
        "ut",
        -1.0
      ],
      [
        "wed",
        -1.0
      ],
      [
        "Ġprone",
        -1.0
      ],
      [
        "Ġcatalyst",
        -1.0
      ],
      [
        "Ġinverter",
        -1.0
      ],
      [
        "39",
        -1.0
      ],
      [
        "Ġowl",
        -1.0
      ],
      [
        "Ġeditor",
        -1.0
      ],
      [
        "ills",
        -1.0
      ],
      [
        "IGHT",
        -1.0
      ],
      [
        "Ġmigrate",
        -1.0
      ],
      [
        "Ġtouches",
        -1.0
      ],
      [
        "Special",
        -1.0
      ],
      [
        "Auto",
        -1.0
      ],
      [
        "ĠVancouver",
        -1.0
      ],
      [
        "Ġadditional",
        -1.0
      ],
      [
        "Ġtrying",
        -1.0
      ],
      [
        "Ġmills",
        -1.0
      ],
      [
        "Ġperoxide",
        -1.0
      ],
      [
        "She",
        -1.0
      ],
      [
        "ĠParty",
        -1.0
      ],
      [
        "tions",
        -1.0
      ],
      [
        "Ġblowing",
        -1.0
      ],
      [
        "Ġelectrons",
        -1.0
      ],
      [
        "ĠCos",
        -1.0
      ],
      [
        "Ġseek",
        -1.0
      ],
      [
        "ver",
        -1.0
      ],
      [
        "Ġsynthetic",
        -1.0
      ],
      [
        "inu",
        -1.0
      ],
      [
        "ĠJamaica",
        -1.0
      ],
      [
        "Ġeastern",
        -1.0
      ],
      [
        "Ġornamental",
        -1.0
      ],
      [
        "ĠAndrew",
        -1.0
      ],
      [
        "Ġtwo",
        -1.0
      ],
      [
        "GB",
        -1.0
      ],
      [
        "ĠValue",
        -1.0
      ],
      [
        "Ġnaked",
        -1.0
      ],
      [
        "ĠPas",
        -1.0
      ],
      [
        "Ġemissions",
        -1.0
      ],
      [
        "ests",
        -1.0
      ],
      [
        "Ġmaturity",
        -1.0
      ],
      [
        "Ġdecompose",
        -1.0
      ],
      [
        "bbing",
        -1.0
      ],
      [
        "Ġmg",
        -1.0
      ],
      [
        "Ġrefine",
        -1.0
      ],
      [
        "Ġmembers",
        -1.0
      ],
      [
        "ĠRem",
        -1.0
      ],
      [
        "ica",
        -1.0
      ],
      [
        "Ġcontinues",
        -1.0
      ],
      [
        "ĠSpa",
        -1.0
      ],
      [
        "ĠSoutheast",
        -1.0
      ],
      [
        "Ġguy",
        -1.0
      ],
      [
        "uls",
        -1.0
      ],
      [
        "-f",
        -1.0
      ],
      [
        "Ġspikes",
        -1.0
      ],
      [
        "Ġupward",
        -1.0
      ],
      [
        "Ġrenowned",
        -1.0
      ],
      [
        "Ġhar",
        -1.0
      ],
      [
        "Ġbed",
        -1.0
      ],
      [
        "Ġrecall",
        -1.0
      ],
      [
        "Ġtrapped",
        -1.0
      ],
      [
        "Ġnavigate",
        -1.0
      ],
      [
        "Ġautoimmune",
        -1.0
      ],
      [
        "FA",
        -1.0
      ],
      [
        "Ġknown",
        -1.0
      ],
      [
        "Ġcapacitor",
        -1.0
      ],
      [
        "Ġconcern",
        -1.0
      ],
      [
        "ĠVar",
        -1.0
      ],
      [
        "bs",
        -1.0
      ],
      [
        "ĠBob",
        -1.0
      ],
      [
        "gna",
        -1.0
      ],
      [
        "Ġactivation",
        -1.0
      ],
      [
        "ngu",
        -1.0
      ],
      [
        "iot",
        -1.0
      ],
      [
        "ĠHarvest",
        -1.0
      ],
      [
        "Ġlin",
        -1.0
      ],
      [
        "01",
        -1.0
      ],
      [
        "Ġenamel",
        -1.0
      ],
      [
        "ĠGor",
        -1.0
      ],
      [
        "Ġestate",
        -1.0
      ],
      [
        "Ġswimming",
        -1.0
      ],
      [
        "Ġtilt",
        -1.0
      ],
      [
        "Ġstudent",
        -1.0
      ],
      [
        "ĠPrior",
        -1.0
      ],
      [
        "Ġprairie",
        -1.0
      ],
      [
        "Ġfla",
        -1.0
      ],
      [
        "ĠTrans",
        -1.0
      ],
      [
        "Ġfacial",
        -1.0
      ],
      [
        "About",
        -1.0
      ],
      [
        "nu",
        -1.0
      ],
      [
        "Ġspring",
        -1.0
      ],
      [
        "ĠAC",
        -1.0
      ],
      [
        "ĠInter",
        -1.0
      ],
      [
        ".!",
        -1.0
      ],
      [
        "Ġcapturing",
        -1.0
      ],
      [
        "Ġcouldn",
        -1.0
      ],
      [
        "Ġiconic",
        -1.0
      ],
      [
        "ject",
        -1.0
      ],
      [
        "Cy",
        -1.0
      ],
      [
        "Ġroasted",
        -1.0
      ],
      [
        "Ġcured",
        -1.0
      ],
      [
        "ĠSymptoms",
        -1.0
      ],
      [
        "ĠEp",
        -1.0
      ],
      [
        "pc",
        -1.0
      ],
      [
        "ĠSp",
        -1.0
      ],
      [
        "Ġviewed",
        -1.0
      ],
      [
        "ience",
        -1.0
      ],
      [
        "Ġpurple",
        -1.0
      ],
      [
        "Ġceramic",
        -1.0
      ],
      [
        "ĠVideo",
        -1.0
      ],
      [
        "Ġtalks",
        -1.0
      ],
      [
        "Ġteens",
        -1.0
      ],
      [
        "Ġsculpt",
        -1.0
      ],
      [
        "Ġmyo",
        -1.0
      ],
      [
        "Ġdisturbed",
        -1.0
      ],
      [
        "iction",
        -1.0
      ],
      [
        "Ġincluding",
        -1.0
      ],
      [
        "Cs",
        -1.0
      ],
      [
        "Ġcap",
        -1.0
      ],
      [
        "Ġreview",
        -1.0
      ],
      [
        "Ġongoing",
        -1.0
      ],
      [
        "Ġresulting",
        -1.0
      ],
      [
        "Ġscrub",
        -1.0
      ],
      [
        "Total",
        -1.0
      ],
      [
        "Ġcorridor",
        -1.0
      ],
      [
        "ula",
        -1.0
      ],
      [
        "Ep",
        -1.0
      ],
      [
        "dt",
        -1.0
      ],
      [
        "Ġtells",
        -1.0
      ],
      [
        "ĠFore",
        -1.0
      ],
      [
        "Ì",
        -1.0
      ],
      [
        "ief",
        -1.0
      ],
      [
        "Ġidentity",
        -1.0
      ],
      [
        "ĠM",
        -1.0
      ],
      [
        ".P",
        -1.0
      ],
      [
        "ĠSkin",
        -1.0
      ],
      [
        "ĠItalian",
        -1.0
      ],
      [
        "Ġincentives",
        -1.0
      ],
      [
        "Dis",
        -1.0
      ],
      [
        "ĠWilliam",
        -1.0
      ],
      [
        "Ġdraws",
        -1.0
      ],
      [
        "Ġinc",
        -1.0
      ],
      [
        "rning",
        -1.0
      ],
      [
        "Ġlack",
        -1.0
      ],
      [
        "hs",
        -1.0
      ],
      [
        "Ġridiculous",
        -1.0
      ],
      [
        "ĠSolution",
        -1.0
      ],
      [
        "Ġbay",
        -1.0
      ],
      [
        "Ġwherever",
        -1.0
      ],
      [
        "Ġfeeds",
        -1.0
      ],
      [
        "Ġdiscipline",
        -1.0
      ],
      [
        "Ġbehind",
        -1.0
      ],
      [
        "ĠWhether",
        -1.0
      ],
      [
        "ĠReg",
        -1.0
      ],
      [
        "Ġupon",
        -1.0
      ],
      [
        "Ġface",
        -1.0
      ],
      [
        "Ġelevate",
        -1.0
      ],
      [
        "Ġconstant",
        -1.0
      ],
      [
        "rove",
        -1.0
      ],
      [
        "Ġall",
        -1.0
      ],
      [
        "Ġproportion",
        -1.0
      ],
      [
        "Ġconvenient",
        -1.0
      ],
      [
        "just",
        -1.0
      ],
      [
        "Ġadapting",
        -1.0
      ],
      [
        "Ġmultiple",
        -1.0
      ],
      [
        "Â®",
        -1.0
      ],
      [
        "<",
        -1.0
      ],
      [
        "cci",
        -1.0
      ],
      [
        "ived",
        -1.0
      ],
      [
        "Ġduration",
        -1.0
      ],
      [
        "ĠMinister",
        -1.0
      ],
      [
        "ĠDrug",
        -1.0
      ],
      [
        "ĠBun",
        -1.0
      ],
      [
        "/f",
        -1.0
      ],
      [
        "uge",
        -1.0
      ],
      [
        "Ġnovel",
        -1.0
      ],
      [
        "Ġvomiting",
        -1.0
      ],
      [
        "Ġartic",
        -1.0
      ],
      [
        "Ġwriting",
        -1.0
      ],
      [
        "Ġdiscount",
        -1.0
      ],
      [
        "Ġalloys",
        -1.0
      ],
      [
        "/L",
        -1.0
      ],
      [
        "Ġenjoy",
        -1.0
      ],
      [
        "Ġalong",
        -1.0
      ],
      [
        "ĠGolden",
        -1.0
      ],
      [
        "Ġcushion",
        -1.0
      ],
      [
        "Ġperson",
        -1.0
      ],
      [
        "sting",
        -1.0
      ],
      [
        "Ġpassword",
        -1.0
      ],
      [
        "Ġneighbor",
        -1.0
      ],
      [
        "Ġclusters",
        -1.0
      ],
      [
        "Ġfunded",
        -1.0
      ],
      [
        "Ġcompressed",
        -1.0
      ],
      [
        "Ă",
        -1.0
      ],
      [
        "Ġnesting",
        -1.0
      ],
      [
        "Ġdelivery",
        -1.0
      ],
      [
        "Ġapoptosis",
        -1.0
      ],
      [
        "ments",
        -1.0
      ],
      [
        "lates",
        -1.0
      ],
      [
        "Since",
        -1.0
      ],
      [
        "ĠIslam",
        -1.0
      ],
      [
        "Ġlistening",
        -1.0
      ],
      [
        "ĠVe",
        -1.0
      ],
      [
        "Ġgland",
        -1.0
      ],
      [
        "Ġsupports",
        -1.0
      ],
      [
        "Ġretro",
        -1.0
      ],
      [
        "ĠDream",
        -1.0
      ],
      [
        "ering",
        -1.0
      ],
      [
        "emo",
        -1.0
      ],
      [
        "Ġmaterial",
        -1.0
      ],
      [
        "Ġchemicals",
        -1.0
      ],
      [
        "Ob",
        -1.0
      ],
      [
        "Ġlunch",
        -1.0
      ],
      [
        "ĠPsychology",
        -1.0
      ],
      [
        "Ġscared",
        -1.0
      ],
      [
        "Ġreally",
        -1.0
      ],
      [
        "Ġdigestive",
        -1.0
      ],
      [
        "Ġhousing",
        -1.0
      ],
      [
        "Oh",
        -1.0
      ],
      [
        "Ġspider",
        -1.0
      ],
      [
        "Ġextreme",
        -1.0
      ],
      [
        "Ġwelfare",
        -1.0
      ],
      [
        "ĠTools",
        -1.0
      ],
      [
        "Ġgray",
        -1.0
      ],
      [
        "ssion",
        -1.0
      ],
      [
        "-gr",
        -1.0
      ],
      [
        "ao",
        -1.0
      ],
      [
        "Ġvertically",
        -1.0
      ],
      [
        "Ġmountains",
        -1.0
      ],
      [
        "Ġstrange",
        -1.0
      ],
      [
        "Ġvoices",
        -1.0
      ],
      [
        "Ġfunny",
        -1.0
      ],
      [
        "Right",
        -1.0
      ],
      [
        "Ġswelling",
        -1.0
      ],
      [
        "ĠIP",
        -1.0
      ],
      [
        "molecular",
        -1.0
      ],
      [
        "mul",
        -1.0
      ],
      [
        "edes",
        -1.0
      ],
      [
        "Ġpeer",
        -1.0
      ],
      [
        "ĠSay",
        -1.0
      ],
      [
        "ĠSurgery",
        -1.0
      ],
      [
        "ĠSelf",
        -1.0
      ],
      [
        "CTION",
        -1.0
      ],
      [
        "HT",
        -1.0
      ],
      [
        "ĠBirds",
        -1.0
      ],
      [
        "Research",
        -1.0
      ],
      [
        "Ġutilizing",
        -1.0
      ],
      [
        "Ġsurvival",
        -1.0
      ],
      [
        "Ġqubit",
        -1.0
      ],
      [
        "ĠLee",
        -1.0
      ],
      [
        "Ġq",
        -1.0
      ],
      [
        "Ġfan",
        -1.0
      ],
      [
        "Ď",
        -1.0
      ],
      [
        "Ġmercury",
        -1.0
      ],
      [
        "ĠMari",
        -1.0
      ],
      [
        "ĠVal",
        -1.0
      ],
      [
        "Ġsea",
        -1.0
      ],
      [
        "Ġdrugs",
        -1.0
      ],
      [
        "Ġ\\(",
        -1.0
      ],
      [
        "Type",
        -1.0
      ],
      [
        "Ġolive",
        -1.0
      ],
      [
        "Ġcandidates",
        -1.0
      ],
      [
        "ĠNa",
        -1.0
      ],
      [
        "ĠLaser",
        -1.0
      ],
      [
        "Ġassumption",
        -1.0
      ],
      [
        "ĠMod",
        -1.0
      ],
      [
        "Ġillustrate",
        -1.0
      ],
      [
        "Ġastronom",
        -1.0
      ],
      [
        "Ke",
        -1.0
      ],
      [
        "\":{\"",
        -1.0
      ],
      [
        "ĠFlorida",
        -1.0
      ],
      [
        "ĠFDA",
        -1.0
      ],
      [
        "Ġguess",
        -1.0
      ],
      [
        "Ġanytime",
        -1.0
      ],
      [
        "Ġtypes",
        -1.0
      ],
      [
        "Ġsay",
        -1.0
      ],
      [
        "Ġoldest",
        -1.0
      ],
      [
        "Ġvictims",
        -1.0
      ],
      [
        "eed",
        -1.0
      ],
      [
        "ĠVietnam",
        -1.0
      ],
      [
        "Ġtranscript",
        -1.0
      ],
      [
        "ĠJackson",
        -1.0
      ],
      [
        "Last",
        -1.0
      ],
      [
        "ator",
        -1.0
      ],
      [
        "cont",
        -1.0
      ],
      [
        "June",
        -1.0
      ],
      [
        "NF",
        -1.0
      ],
      [
        "Ġofficial",
        -1.0
      ],
      [
        "pings",
        -1.0
      ],
      [
        "Ġman",
        -1.0
      ],
      [
        "Ġrouter",
        -1.0
      ],
      [
        "ain",
        -1.0
      ],
      [
        "Ġfer",
        -1.0
      ],
      [
        "Ġmember",
        -1.0
      ],
      [
        "Ġpile",
        -1.0
      ],
      [
        "omas",
        -1.0
      ],
      [
        "Ġbaseline",
        -1.0
      ],
      [
        "Ġsimplified",
        -1.0
      ],
      [
        "DI",
        -1.0
      ],
      [
        "ĠOne",
        -1.0
      ],
      [
        "ĠÏ",
        -1.0
      ],
      [
        "ol",
        -1.0
      ],
      [
        "Ġbind",
        -1.0
      ],
      [
        "Ġdes",
        -1.0
      ],
      [
        "TF",
        -1.0
      ],
      [
        "Ġthings",
        -1.0
      ],
      [
        "Ġevidence",
        -1.0
      ],
      [
        "Ġtrajectory",
        -1.0
      ],
      [
        "Ã§",
        -1.0
      ],
      [
        "Ġlean",
        -1.0
      ],
      [
        "Ġpatience",
        -1.0
      ],
      [
        "Ġdistricts",
        -1.0
      ],
      [
        "Ġovernight",
        -1.0
      ],
      [
        "tic",
        -1.0
      ],
      [
        "ĠHa",
        -1.0
      ],
      [
        "ĠSmith",
        -1.0
      ],
      [
        "Ġindi",
        -1.0
      ],
      [
        "ĠWrite",
        -1.0
      ],
      [
        "rier",
        -1.0
      ],
      [
        "Ġrepresents",
        -1.0
      ],
      [
        "Ġbre",
        -1.0
      ],
      [
        "Ġcomposting",
        -1.0
      ],
      [
        "ãģĻãĤĭ",
        -1.0
      ],
      [
        "ander",
        -1.0
      ],
      [
        "ĠAdvanced",
        -1.0
      ],
      [
        "Ġdefend",
        -1.0
      ],
      [
        "Ġlooking",
        -1.0
      ],
      [
        "uty",
        -1.0
      ],
      [
        "Ġ,",
        -1.0
      ],
      [
        "Ġpi",
        -1.0
      ],
      [
        "17",
        -1.0
      ],
      [
        "Ġtimeless",
        -1.0
      ],
      [
        "som",
        -1.0
      ],
      [
        "Ġacre",
        -1.0
      ],
      [
        "ference",
        -1.0
      ],
      [
        "zon",
        -1.0
      ],
      [
        "mi",
        -1.0
      ],
      [
        "ouble",
        -1.0
      ],
      [
        "Ġgarage",
        -1.0
      ],
      [
        "ĠGreek",
        -1.0
      ],
      [
        ".(",
        -1.0
      ],
      [
        "ĠTest",
        -1.0
      ],
      [
        "ĠBluetooth",
        -1.0
      ],
      [
        "ĠSQL",
        -1.0
      ],
      [
        "Ġbackground",
        -1.0
      ],
      [
        "Ġappeal",
        -1.0
      ],
      [
        "Ġindex",
        -1.0
      ],
      [
        "Ġbu",
        -1.0
      ],
      [
        "Ġorbital",
        -1.0
      ],
      [
        "Ġgym",
        -1.0
      ],
      [
        "Ġpush",
        -1.0
      ],
      [
        "stock",
        -1.0
      ],
      [
        "Ġcache",
        -1.0
      ],
      [
        "Ġqueen",
        -1.0
      ],
      [
        "mates",
        -1.0
      ],
      [
        "Ġfault",
        -1.0
      ],
      [
        "asis",
        -1.0
      ],
      [
        "vu",
        -1.0
      ],
      [
        "Ġmustard",
        -1.0
      ],
      [
        "Ġlungs",
        -1.0
      ],
      [
        "Ġnodes",
        -1.0
      ],
      [
        "Thursday",
        -1.0
      ],
      [
        "Ġmodified",
        -1.0
      ],
      [
        "SP",
        -1.0
      ],
      [
        "54",
        -1.0
      ],
      [
        "char",
        -1.0
      ],
      [
        "Ġelectrodes",
        -1.0
      ],
      [
        "Ġteenagers",
        -1.0
      ],
      [
        "\":-",
        -1.0
      ],
      [
        "Ġblooming",
        -1.0
      ],
      [
        "Ġcapacity",
        -1.0
      ],
      [
        "Ġdrawn",
        -1.0
      ],
      [
        "ĠBuilding",
        -1.0
      ],
      [
        "Ġcream",
        -1.0
      ],
      [
        "Using",
        -1.0
      ],
      [
        "Ġdog",
        -1.0
      ],
      [
        "Ġventure",
        -1.0
      ],
      [
        "fore",
        -1.0
      ],
      [
        "Ġcobalt",
        -1.0
      ],
      [
        "Ġcovers",
        -1.0
      ],
      [
        "Ġreached",
        -1.0
      ],
      [
        "Ġtask",
        -1.0
      ],
      [
        "Ġfires",
        -1.0
      ],
      [
        "Ġseismic",
        -1.0
      ],
      [
        "Ġheritage",
        -1.0
      ],
      [
        "Ġvariation",
        -1.0
      ],
      [
        "tero",
        -1.0
      ],
      [
        "rence",
        -1.0
      ],
      [
        "BM",
        -1.0
      ],
      [
        "Imagine",
        -1.0
      ],
      [
        "Ġessential",
        -1.0
      ],
      [
        "Ġtold",
        -1.0
      ],
      [
        "Ġpoultry",
        -1.0
      ],
      [
        "from",
        -1.0
      ],
      [
        "stablish",
        -1.0
      ],
      [
        "ĠMount",
        -1.0
      ],
      [
        "Ġlearners",
        -1.0
      ],
      [
        "SV",
        -1.0
      ],
      [
        "Ġheadache",
        -1.0
      ],
      [
        "ky",
        -1.0
      ],
      [
        "Ġodds",
        -1.0
      ],
      [
        "Ġexamples",
        -1.0
      ],
      [
        "Ġcoordinate",
        -1.0
      ],
      [
        "Ġisolate",
        -1.0
      ],
      [
        "Ġcustomize",
        -1.0
      ],
      [
        "present",
        -1.0
      ],
      [
        "AD",
        -1.0
      ],
      [
        "ĠSy",
        -1.0
      ],
      [
        "Ġports",
        -1.0
      ],
      [
        "rai",
        -1.0
      ],
      [
        "Try",
        -1.0
      ],
      [
        "ĠMus",
        -1.0
      ],
      [
        "Ġdefinitive",
        -1.0
      ],
      [
        "ĠCons",
        -1.0
      ],
      [
        "ĠSweden",
        -1.0
      ],
      [
        "gg",
        -1.0
      ],
      [
        "Ġpizza",
        -1.0
      ],
      [
        "Ġmatrix",
        -1.0
      ],
      [
        "tters",
        -1.0
      ],
      [
        "ats",
        -1.0
      ],
      [
        "igo",
        -1.0
      ],
      [
        "ĠEuropean",
        -1.0
      ],
      [
        "Ġfoundation",
        -1.0
      ],
      [
        "Ġsports",
        -1.0
      ],
      [
        "Ġnotes",
        -1.0
      ],
      [
        "ĠSleep",
        -1.0
      ],
      [
        "Ġresting",
        -1.0
      ],
      [
        "Ġact",
        -1.0
      ],
      [
        "ies",
        -1.0
      ],
      [
        "ĠGPS",
        -1.0
      ],
      [
        "ery",
        -1.0
      ],
      [
        "Ġminutes",
        -1.0
      ],
      [
        "Ġreceiving",
        -1.0
      ],
      [
        "Ġrobust",
        -1.0
      ],
      [
        "-CoV",
        -1.0
      ],
      [
        "tiny",
        -1.0
      ],
      [
        "Ġwound",
        -1.0
      ],
      [
        "mmies",
        -1.0
      ],
      [
        "Ġbanana",
        -1.0
      ],
      [
        "wan",
        -1.0
      ],
      [
        "Ġmotivated",
        -1.0
      ],
      [
        "Ġconv",
        -1.0
      ],
      [
        "tle",
        -1.0
      ],
      [
        "Ġdoes",
        -1.0
      ],
      [
        "Ġflag",
        -1.0
      ],
      [
        "ĠEn",
        -1.0
      ],
      [
        "Quantum",
        -1.0
      ],
      [
        "Ġatoms",
        -1.0
      ],
      [
        "Ġoverall",
        -1.0
      ],
      [
        "Ġdefines",
        -1.0
      ],
      [
        "Ġintrigue",
        -1.0
      ],
      [
        "noc",
        -1.0
      ],
      [
        "Ġcampus",
        -1.0
      ],
      [
        "ann",
        -1.0
      ],
      [
        "ris",
        -1.0
      ],
      [
        "Ġcaramel",
        -1.0
      ],
      [
        "Ġphysical",
        -1.0
      ],
      [
        "Ġbrightness",
        -1.0
      ],
      [
        "Ġcam",
        -1.0
      ],
      [
        "Ġfingers",
        -1.0
      ],
      [
        "ĠSource",
        -1.0
      ],
      [
        "Ġdrought",
        -1.0
      ],
      [
        "Ġpointed",
        -1.0
      ],
      [
        "Ġvast",
        -1.0
      ],
      [
        "Ġrepeat",
        -1.0
      ],
      [
        "airs",
        -1.0
      ],
      [
        "ĠKat",
        -1.0
      ],
      [
        "Ġalloy",
        -1.0
      ],
      [
        "ĠR",
        -1.0
      ],
      [
        "itch",
        -1.0
      ],
      [
        "Ġdone",
        -1.0
      ],
      [
        "Ġcru",
        -1.0
      ],
      [
        "Ġdeb",
        -1.0
      ],
      [
        "Ġprocessed",
        -1.0
      ],
      [
        "lear",
        -1.0
      ],
      [
        "ĠTheir",
        -1.0
      ],
      [
        "'.",
        -1.0
      ],
      [
        "olf",
        -1.0
      ],
      [
        "Ġcompute",
        -1.0
      ],
      [
        "Ġmirrors",
        -1.0
      ],
      [
        "Ġtemplates",
        -1.0
      ],
      [
        "iki",
        -1.0
      ],
      [
        "max",
        -1.0
      ],
      [
        "connect",
        -1.0
      ],
      [
        "Ġhomes",
        -1.0
      ],
      [
        "ĠHum",
        -1.0
      ],
      [
        "Ġva",
        -1.0
      ],
      [
        "uli",
        -1.0
      ],
      [
        "Ġthinking",
        -1.0
      ],
      [
        "Ġworried",
        -1.0
      ],
      [
        "Ġvelocities",
        -1.0
      ],
      [
        "inating",
        -1.0
      ],
      [
        "RP",
        -1.0
      ],
      [
        "Ġcyto",
        -1.0
      ],
      [
        "Ġcommodity",
        -1.0
      ],
      [
        "ete",
        -1.0
      ],
      [
        "Ġseldom",
        -1.0
      ],
      [
        "Ġtrail",
        -1.0
      ],
      [
        "Ġfurniture",
        -1.0
      ],
      [
        "Ġobserv",
        -1.0
      ],
      [
        "Ġalternate",
        -1.0
      ],
      [
        "ĠWisconsin",
        -1.0
      ],
      [
        "Ġexhibition",
        -1.0
      ],
      [
        "Ġdistant",
        -1.0
      ],
      [
        "90",
        -1.0
      ],
      [
        "Ħ",
        -1.0
      ],
      [
        "Ġsol",
        -1.0
      ],
      [
        "Ġwarm",
        -1.0
      ],
      [
        "Ġhouseholds",
        -1.0
      ],
      [
        "ĠPul",
        -1.0
      ],
      [
        "ĠMIT",
        -1.0
      ],
      [
        "Ġart",
        -1.0
      ],
      [
        "Ġdorsal",
        -1.0
      ],
      [
        "hang",
        -1.0
      ],
      [
        "ĠBR",
        -1.0
      ],
      [
        "mod",
        -1.0
      ],
      [
        "Ġdrawing",
        -1.0
      ],
      [
        "urr",
        -1.0
      ],
      [
        "Ġimpurities",
        -1.0
      ],
      [
        "ĠWork",
        -1.0
      ],
      [
        "Ġphotons",
        -1.0
      ],
      [
        "synthesis",
        -1.0
      ],
      [
        "aph",
        -1.0
      ],
      [
        "Ġtax",
        -1.0
      ],
      [
        "Ġripe",
        -1.0
      ],
      [
        "Ġcontacts",
        -1.0
      ],
      [
        "uel",
        -1.0
      ],
      [
        "Ġjoint",
        -1.0
      ],
      [
        "ĠParents",
        -1.0
      ],
      [
        "ĠGetting",
        -1.0
      ],
      [
        "Ġyoung",
        -1.0
      ],
      [
        "Ġtrend",
        -1.0
      ],
      [
        "Ġexamined",
        -1.0
      ],
      [
        "Ġchose",
        -1.0
      ],
      [
        "Ġteeth",
        -1.0
      ],
      [
        "Ġnurturing",
        -1.0
      ],
      [
        "ĠCorps",
        -1.0
      ],
      [
        "Ġincome",
        -1.0
      ],
      [
        "Ġstance",
        -1.0
      ],
      [
        "So",
        -1.0
      ],
      [
        "ĠMix",
        -1.0
      ],
      [
        "naissance",
        -1.0
      ],
      [
        "ĠFederation",
        -1.0
      ],
      [
        "cess",
        -1.0
      ],
      [
        "Ġimagine",
        -1.0
      ],
      [
        "Ġdevoted",
        -1.0
      ],
      [
        "Ġprint",
        -1.0
      ],
      [
        "Ġasked",
        -1.0
      ],
      [
        "Ġprogrammed",
        -1.0
      ],
      [
        "Ġ%",
        -1.0
      ],
      [
        "kind",
        -1.0
      ],
      [
        "Ġleft",
        -1.0
      ],
      [
        "Ġmentioned",
        -1.0
      ],
      [
        "Ġbatteries",
        -1.0
      ],
      [
        "nci",
        -1.0
      ],
      [
        "ĠManufactur",
        -1.0
      ],
      [
        "ĠAT",
        -1.0
      ],
      [
        "Ð¸",
        -1.0
      ],
      [
        "itative",
        -1.0
      ],
      [
        "Ġmill",
        -1.0
      ],
      [
        "Ġowner",
        -1.0
      ],
      [
        "Ġfryer",
        -1.0
      ],
      [
        "Ġvolunteer",
        -1.0
      ],
      [
        "Ġputting",
        -1.0
      ],
      [
        "Ġvitro",
        -1.0
      ],
      [
        "Ġintriguing",
        -1.0
      ],
      [
        "Ġju",
        -1.0
      ],
      [
        "Ġlisting",
        -1.0
      ],
      [
        "hr",
        -1.0
      ],
      [
        "Ġmolecular",
        -1.0
      ],
      [
        "-time",
        -1.0
      ],
      [
        "otion",
        -1.0
      ],
      [
        "iss",
        -1.0
      ],
      [
        "etal",
        -1.0
      ],
      [
        "Ġbuck",
        -1.0
      ],
      [
        "Ġenzyme",
        -1.0
      ],
      [
        "ĠTam",
        -1.0
      ],
      [
        "ĠReading",
        -1.0
      ],
      [
        "Ġcancers",
        -1.0
      ],
      [
        "ĠWord",
        -1.0
      ],
      [
        "Ġprimitive",
        -1.0
      ],
      [
        "ĠTe",
        -1.0
      ],
      [
        "47",
        -1.0
      ],
      [
        "zy",
        -1.0
      ],
      [
        "Ġtouched",
        -1.0
      ],
      [
        "math",
        -1.0
      ],
      [
        "ported",
        -1.0
      ],
      [
        "like",
        -1.0
      ],
      [
        "Ġrestrict",
        -1.0
      ],
      [
        "Ġmade",
        -1.0
      ],
      [
        "avity",
        -1.0
      ],
      [
        "Ġbrown",
        -1.0
      ],
      [
        "lapse",
        -1.0
      ],
      [
        "ĠBull",
        -1.0
      ],
      [
        "Ġpair",
        -1.0
      ],
      [
        "ĠStay",
        -1.0
      ],
      [
        "Ġtent",
        -1.0
      ],
      [
        "Ġdot",
        -1.0
      ],
      [
        "ĠEv",
        -1.0
      ],
      [
        "ĠAdjust",
        -1.0
      ],
      [
        "Ġelegance",
        -1.0
      ],
      [
        "ĠWil",
        -1.0
      ],
      [
        "Ġproductive",
        -1.0
      ],
      [
        "Scientific",
        -1.0
      ],
      [
        "Ġgotten",
        -1.0
      ],
      [
        "Ġhappily",
        -1.0
      ],
      [
        "way",
        -1.0
      ],
      [
        "Ġplanting",
        -1.0
      ],
      [
        "Ġdaily",
        -1.0
      ],
      [
        "Ġsoftware",
        -1.0
      ],
      [
        "Ġlifting",
        -1.0
      ],
      [
        "Ġcord",
        -1.0
      ],
      [
        "Please",
        -1.0
      ],
      [
        "ĠBA",
        -1.0
      ],
      [
        "Ġhigh",
        -1.0
      ],
      [
        "Ġclimbing",
        -1.0
      ],
      [
        "Ġretrieval",
        -1.0
      ],
      [
        "Ġreverse",
        -1.0
      ],
      [
        "kar",
        -1.0
      ],
      [
        "TU",
        -1.0
      ],
      [
        "rth",
        -1.0
      ],
      [
        "Ġurine",
        -1.0
      ],
      [
        "Ġgathered",
        -1.0
      ],
      [
        "Ġevaluate",
        -1.0
      ],
      [
        "Ġexecutive",
        -1.0
      ],
      [
        "Additional",
        -1.0
      ],
      [
        "Ġreasoning",
        -1.0
      ],
      [
        "Ġbill",
        -1.0
      ],
      [
        "ĠYear",
        -1.0
      ],
      [
        "Ġbatch",
        -1.0
      ],
      [
        "ĠInv",
        -1.0
      ],
      [
        "Ġmaps",
        -1.0
      ],
      [
        "Ġmenu",
        -1.0
      ],
      [
        "Fs",
        -1.0
      ],
      [
        "Ġdrive",
        -1.0
      ],
      [
        "Ġretina",
        -1.0
      ],
      [
        "ĠPolicy",
        -1.0
      ],
      [
        "Ġbake",
        -1.0
      ],
      [
        "Ġrecords",
        -1.0
      ],
      [
        "ĠInnovation",
        -1.0
      ],
      [
        "spe",
        -1.0
      ],
      [
        "Ġge",
        -1.0
      ],
      [
        "ĠPRO",
        -1.0
      ],
      [
        "ãĢĤ",
        -1.0
      ],
      [
        "ĠNet",
        -1.0
      ],
      [
        "Ġoutweigh",
        -1.0
      ],
      [
        "Ġdressing",
        -1.0
      ],
      [
        "plankton",
        -1.0
      ],
      [
        "Ġcharacter",
        -1.0
      ],
      [
        "Ġion",
        -1.0
      ],
      [
        "wood",
        -1.0
      ],
      [
        "Ġent",
        -1.0
      ],
      [
        "ished",
        -1.0
      ],
      [
        "Ġchassis",
        -1.0
      ],
      [
        "ĠDon",
        -1.0
      ],
      [
        "Ġprimarily",
        -1.0
      ],
      [
        "Ġfri",
        -1.0
      ],
      [
        "coming",
        -1.0
      ],
      [
        "Ġopioid",
        -1.0
      ],
      [
        "Ġrod",
        -1.0
      ],
      [
        "ĠUs",
        -1.0
      ],
      [
        "Ġtele",
        -1.0
      ],
      [
        "cus",
        -1.0
      ],
      [
        "ĠCri",
        -1.0
      ],
      [
        "Ġmethyl",
        -1.0
      ],
      [
        "ĠHawaii",
        -1.0
      ],
      [
        ")(",
        -1.0
      ],
      [
        "Ġvocal",
        -1.0
      ],
      [
        "rling",
        -1.0
      ],
      [
        "Ġpredispos",
        -1.0
      ],
      [
        "Ġfinds",
        -1.0
      ],
      [
        "eigh",
        -1.0
      ],
      [
        "Ġcomponents",
        -1.0
      ],
      [
        "Ġdrill",
        -1.0
      ],
      [
        "ech",
        -1.0
      ],
      [
        "itis",
        -1.0
      ],
      [
        "et",
        -1.0
      ],
      [
        "Ġplanes",
        -1.0
      ],
      [
        "Ġroughly",
        -1.0
      ],
      [
        "Ġvibrations",
        -1.0
      ],
      [
        "Ġneeding",
        -1.0
      ],
      [
        "Ġder",
        -1.0
      ],
      [
        "Ġaquarium",
        -1.0
      ],
      [
        "ĠLeadership",
        -1.0
      ],
      [
        "ĠG",
        -1.0
      ],
      [
        "ĠAna",
        -1.0
      ],
      [
        "...ĊĊ",
        -1.0
      ],
      [
        "Ġturns",
        -1.0
      ],
      [
        "Ġsnacks",
        -1.0
      ],
      [
        "Ġretreat",
        -1.0
      ],
      [
        "Ġsize",
        -1.0
      ],
      [
        "ĠProduct",
        -1.0
      ],
      [
        "Ġinstead",
        -1.0
      ],
      [
        "Ġspacecraft",
        -1.0
      ],
      [
        "Quote",
        -1.0
      ],
      [
        "tos",
        -1.0
      ],
      [
        "Search",
        -1.0
      ],
      [
        "Ġimportance",
        -1.0
      ],
      [
        "DD",
        -1.0
      ],
      [
        "ĠBush",
        -1.0
      ],
      [
        "Ġbecome",
        -1.0
      ],
      [
        "Ġsector",
        -1.0
      ],
      [
        "ĠHomo",
        -1.0
      ],
      [
        "Ġcamping",
        -1.0
      ],
      [
        "Ġfilled",
        -1.0
      ],
      [
        "Ġaged",
        -1.0
      ],
      [
        "Ġbuilds",
        -1.0
      ],
      [
        "ĠHaw",
        -1.0
      ],
      [
        "Ú",
        -1.0
      ],
      [
        "Ġblocking",
        -1.0
      ],
      [
        "Ġbreeders",
        -1.0
      ],
      [
        "ĠLA",
        -1.0
      ],
      [
        "lings",
        -1.0
      ],
      [
        "Ġcomplement",
        -1.0
      ],
      [
        "Ġthin",
        -1.0
      ],
      [
        "ĠLake",
        -1.0
      ],
      [
        "ĠLove",
        -1.0
      ],
      [
        "Ġcube",
        -1.0
      ],
      [
        "ĠCalc",
        -1.0
      ],
      [
        "Ġoriginated",
        -1.0
      ],
      [
        "Cal",
        -1.0
      ],
      [
        "Ġlikewise",
        -1.0
      ],
      [
        "Ġsail",
        -1.0
      ],
      [
        "Ġtransfer",
        -1.0
      ],
      [
        "ĠNewton",
        -1.0
      ],
      [
        "layer",
        -1.0
      ],
      [
        "angled",
        -1.0
      ],
      [
        "Ġband",
        -1.0
      ],
      [
        "Ġreasonable",
        -1.0
      ],
      [
        "Den",
        -1.0
      ],
      [
        "Ġfigure",
        -1.0
      ],
      [
        "Ġmyself",
        -1.0
      ],
      [
        "ĠPrime",
        -1.0
      ],
      [
        "ĠQuiz",
        -1.0
      ],
      [
        "backs",
        -1.0
      ],
      [
        "Ġcli",
        -1.0
      ],
      [
        "Ġfox",
        -1.0
      ],
      [
        "Ġhind",
        -1.0
      ],
      [
        "ĠLimestone",
        -1.0
      ],
      [
        "cum",
        -1.0
      ],
      [
        "j",
        -1.0
      ],
      [
        "ĠE",
        -1.0
      ],
      [
        "Equ",
        -1.0
      ],
      [
        "Ġclips",
        -1.0
      ],
      [
        "Ġcal",
        -1.0
      ],
      [
        "Ġhold",
        -1.0
      ],
      [
        "Ġbutter",
        -1.0
      ],
      [
        "ĠFoods",
        -1.0
      ],
      [
        "iety",
        -1.0
      ],
      [
        "Difference",
        -1.0
      ],
      [
        "hur",
        -1.0
      ],
      [
        "Ġfixtures",
        -1.0
      ],
      [
        "bees",
        -1.0
      ],
      [
        "Ġprogramme",
        -1.0
      ],
      [
        "Ġwidth",
        -1.0
      ],
      [
        "Ġformidable",
        -1.0
      ],
      [
        "zen",
        -1.0
      ],
      [
        "Ġlogarithm",
        -1.0
      ],
      [
        "Ġmus",
        -1.0
      ],
      [
        "Ġmysterious",
        -1.0
      ],
      [
        "Calc",
        -1.0
      ],
      [
        "Ġdoesn",
        -1.0
      ],
      [
        "Ġwoman",
        -1.0
      ],
      [
        "±",
        -1.0
      ],
      [
        "Easy",
        -1.0
      ],
      [
        "Ġauditory",
        -1.0
      ],
      [
        "-def",
        -1.0
      ],
      [
        "Ġguinea",
        -1.0
      ],
      [
        "oir",
        -1.0
      ],
      [
        "Ġsuffer",
        -1.0
      ],
      [
        "Ġseas",
        -1.0
      ],
      [
        "Ġpublished",
        -1.0
      ],
      [
        "fs",
        -1.0
      ],
      [
        "Ġhunters",
        -1.0
      ],
      [
        "Ġcoexist",
        -1.0
      ],
      [
        "it",
        -1.0
      ],
      [
        "Place",
        -1.0
      ],
      [
        "Ġyu",
        -1.0
      ],
      [
        "ĠUp",
        -1.0
      ],
      [
        "Ġcarriers",
        -1.0
      ],
      [
        "Ġterritory",
        -1.0
      ],
      [
        "Ġinjection",
        -1.0
      ],
      [
        "rop",
        -1.0
      ],
      [
        "Ġawarded",
        -1.0
      ],
      [
        "Ġcausing",
        -1.0
      ],
      [
        "pr",
        -1.0
      ],
      [
        "Ġcompromise",
        -1.0
      ],
      [
        "Ġforemost",
        -1.0
      ],
      [
        "ĠMun",
        -1.0
      ],
      [
        "Ġeducating",
        -1.0
      ],
      [
        "ĠLandscape",
        -1.0
      ],
      [
        "à¸",
        -1.0
      ],
      [
        "la",
        -1.0
      ],
      [
        "Cra",
        -1.0
      ],
      [
        "ĠCon",
        -1.0
      ],
      [
        "ĠIrish",
        -1.0
      ],
      [
        "Ġoutbreak",
        -1.0
      ],
      [
        "Ġgirls",
        -1.0
      ],
      [
        "Ġrats",
        -1.0
      ],
      [
        "Ġbe",
        -1.0
      ],
      [
        "Ġep",
        -1.0
      ],
      [
        "esthetic",
        -1.0
      ],
      [
        "gin",
        -1.0
      ],
      [
        "Ġfeed",
        -1.0
      ],
      [
        "ulates",
        -1.0
      ],
      [
        "ĠSpanish",
        -1.0
      ],
      [
        "Ġdeployed",
        -1.0
      ],
      [
        "Ġwaterproof",
        -1.0
      ],
      [
        "mit",
        -1.0
      ],
      [
        "lr",
        -1.0
      ],
      [
        "Ġever",
        -1.0
      ],
      [
        "ĠChris",
        -1.0
      ],
      [
        "Ġequity",
        -1.0
      ],
      [
        "sions",
        -1.0
      ],
      [
        "Ġirrigation",
        -1.0
      ],
      [
        "Step",
        -1.0
      ],
      [
        "Ġenterprise",
        -1.0
      ],
      [
        "Ġcrabs",
        -1.0
      ],
      [
        "inson",
        -1.0
      ],
      [
        "ĠPV",
        -1.0
      ],
      [
        "Ġinvasive",
        -1.0
      ],
      [
        "].Ċ",
        -1.0
      ],
      [
        "-looking",
        -1.0
      ],
      [
        "Ġadhesion",
        -1.0
      ],
      [
        ",âĢĿ",
        -1.0
      ],
      [
        "ĠUniverse",
        -1.0
      ],
      [
        "Ġbrowse",
        -1.0
      ],
      [
        "Ġpackages",
        -1.0
      ],
      [
        "ĠBE",
        -1.0
      ],
      [
        "Ġcomparison",
        -1.0
      ],
      [
        "Ġhunter",
        -1.0
      ],
      [
        "sca",
        -1.0
      ],
      [
        "ffs",
        -1.0
      ],
      [
        "Ġtoothbrush",
        -1.0
      ],
      [
        "Ġappears",
        -1.0
      ],
      [
        "ĠOR",
        -1.0
      ],
      [
        "Ġopponent",
        -1.0
      ],
      [
        "Ġimpr",
        -1.0
      ],
      [
        "-al",
        -1.0
      ],
      [
        "Ġuncertain",
        -1.0
      ],
      [
        "ĠHz",
        -1.0
      ],
      [
        "Ġbrushes",
        -1.0
      ],
      [
        "aking",
        -1.0
      ],
      [
        "Ġpolymer",
        -1.0
      ],
      [
        "Ġreduce",
        -1.0
      ],
      [
        "Ġuses",
        -1.0
      ],
      [
        "ĠWhy",
        -1.0
      ],
      [
        "change",
        -1.0
      ],
      [
        "Ġhair",
        -1.0
      ],
      [
        "Ġwool",
        -1.0
      ],
      [
        "-efficient",
        -1.0
      ],
      [
        "acles",
        -1.0
      ],
      [
        "+ĊĊ",
        -1.0
      ],
      [
        "Ġthing",
        -1.0
      ],
      [
        "Ġturning",
        -1.0
      ],
      [
        "Ġtested",
        -1.0
      ],
      [
        "Ġconfusing",
        -1.0
      ],
      [
        "ful",
        -1.0
      ],
      [
        "ĠAward",
        -1.0
      ],
      [
        "Ġmonetary",
        -1.0
      ],
      [
        "isc",
        -1.0
      ],
      [
        "Ġproud",
        -1.0
      ],
      [
        "ĠShould",
        -1.0
      ],
      [
        "igma",
        -1.0
      ],
      [
        "Ġhimself",
        -1.0
      ],
      [
        "-ta",
        -1.0
      ],
      [
        "Ġintegrated",
        -1.0
      ],
      [
        "16",
        -1.0
      ],
      [
        "ili",
        -1.0
      ],
      [
        "Increase",
        -1.0
      ],
      [
        "Ġprocedure",
        -1.0
      ],
      [
        "tec",
        -1.0
      ],
      [
        "Th",
        -1.0
      ],
      [
        "ally",
        -1.0
      ],
      [
        "Ġchemistry",
        -1.0
      ],
      [
        "Ġdeliver",
        -1.0
      ],
      [
        "ER",
        -1.0
      ],
      [
        "Ġequations",
        -1.0
      ],
      [
        "ece",
        -1.0
      ],
      [
        "Ġcope",
        -1.0
      ],
      [
        "ah",
        -1.0
      ],
      [
        "(s",
        -1.0
      ],
      [
        "Ġreply",
        -1.0
      ],
      [
        "Ġslowing",
        -1.0
      ],
      [
        "cycling",
        -1.0
      ],
      [
        "wls",
        -1.0
      ],
      [
        "cin",
        -1.0
      ],
      [
        "Ġimagery",
        -1.0
      ],
      [
        "Ġtaste",
        -1.0
      ],
      [
        "Ġessays",
        -1.0
      ],
      [
        "Ġapples",
        -1.0
      ],
      [
        "Generally",
        -1.0
      ],
      [
        "Ġpl",
        -1.0
      ],
      [
        "Ġsimplify",
        -1.0
      ],
      [
        "Ġexquisite",
        -1.0
      ],
      [
        "Ġconstantly",
        -1.0
      ],
      [
        "UM",
        -1.0
      ],
      [
        "Ġthe",
        -1.0
      ],
      [
        "Ġsell",
        -1.0
      ],
      [
        "ĠSS",
        -1.0
      ],
      [
        "Ġprotocols",
        -1.0
      ],
      [
        "Ġnurture",
        -1.0
      ],
      [
        "Ġgenerate",
        -1.0
      ],
      [
        "Ġv",
        -1.0
      ],
      [
        ".,",
        -1.0
      ],
      [
        "we",
        -1.0
      ],
      [
        "nna",
        -1.0
      ],
      [
        "Ġfavorable",
        -1.0
      ],
      [
        "Ġdivision",
        -1.0
      ],
      [
        "ĠUltimately",
        -1.0
      ],
      [
        ".org",
        -1.0
      ],
      [
        "Ġjacket",
        -1.0
      ],
      [
        "Ġtablespoon",
        -1.0
      ],
      [
        "school",
        -1.0
      ],
      [
        "Ġplenty",
        -1.0
      ],
      [
        "/s",
        -1.0
      ],
      [
        "photo",
        -1.0
      ],
      [
        "Ġallowed",
        -1.0
      ],
      [
        "Bro",
        -1.0
      ],
      [
        "fu",
        -1.0
      ],
      [
        "Symptoms",
        -1.0
      ],
      [
        "Ġcircuit",
        -1.0
      ],
      [
        "Ġprovided",
        -1.0
      ],
      [
        "Ġphysicist",
        -1.0
      ],
      [
        "Ġcoli",
        -1.0
      ],
      [
        "Ġstarts",
        -1.0
      ],
      [
        ":Ċ",
        -1.0
      ],
      [
        "ttle",
        -1.0
      ],
      [
        "ade",
        -1.0
      ],
      [
        "ĠExtension",
        -1.0
      ],
      [
        "Ġpracticing",
        -1.0
      ],
      [
        "asting",
        -1.0
      ],
      [
        "Ġdelve",
        -1.0
      ],
      [
        "ĠSimply",
        -1.0
      ],
      [
        "gree",
        -1.0
      ],
      [
        "pl",
        -1.0
      ],
      [
        "CC",
        -1.0
      ],
      [
        "Ġrender",
        -1.0
      ],
      [
        "elt",
        -1.0
      ],
      [
        "ĠCloud",
        -1.0
      ],
      [
        "ĠTri",
        -1.0
      ],
      [
        "-world",
        -1.0
      ],
      [
        "Ġrandom",
        -1.0
      ],
      [
        "Ġevolution",
        -1.0
      ],
      [
        "Ġbacterium",
        -1.0
      ],
      [
        "Ġexcessive",
        -1.0
      ],
      [
        "ĠZi",
        -1.0
      ],
      [
        "Ġintru",
        -1.0
      ],
      [
        "B",
        -1.0
      ],
      [
        "card",
        -1.0
      ],
      [
        "Ġfar",
        -1.0
      ],
      [
        "Ġeyes",
        -1.0
      ],
      [
        "Ġemotion",
        -1.0
      ],
      [
        "ico",
        -1.0
      ],
      [
        "ĠImages",
        -1.0
      ],
      [
        "ĠMatthew",
        -1.0
      ],
      [
        "Ġconsists",
        -1.0
      ],
      [
        "post",
        -1.0
      ],
      [
        "Ġmaximum",
        -1.0
      ],
      [
        "tional",
        -1.0
      ],
      [
        "ĠPen",
        -1.0
      ],
      [
        "MU",
        -1.0
      ],
      [
        "ral",
        -1.0
      ],
      [
        "ĠNissan",
        -1.0
      ],
      [
        "Al",
        -1.0
      ],
      [
        "Ġconfident",
        -1.0
      ],
      [
        "Ġcreates",
        -1.0
      ],
      [
        "Ġutilize",
        -1.0
      ],
      [
        "ass",
        -1.0
      ],
      [
        "Ġdepicted",
        -1.0
      ],
      [
        "ĠME",
        -1.0
      ],
      [
        "Ġx",
        -1.0
      ],
      [
        "karyotic",
        -1.0
      ],
      [
        "Ġholder",
        -1.0
      ],
      [
        "cular",
        -1.0
      ],
      [
        "uate",
        -1.0
      ],
      [
        "Ġreservoir",
        -1.0
      ],
      [
        "nne",
        -1.0
      ],
      [
        "Ġdeath",
        -1.0
      ],
      [
        "ĠStu",
        -1.0
      ],
      [
        "Ġentitled",
        -1.0
      ],
      [
        "Ġmanaged",
        -1.0
      ],
      [
        "Ġfriendly",
        -1.0
      ],
      [
        "ĠAng",
        -1.0
      ],
      [
        "ĠChinese",
        -1.0
      ],
      [
        "Direct",
        -1.0
      ],
      [
        "Ġpages",
        -1.0
      ],
      [
        "Ġco",
        -1.0
      ],
      [
        "Ġpulp",
        -1.0
      ],
      [
        "Ġflooring",
        -1.0
      ],
      [
        "-profit",
        -1.0
      ],
      [
        "plied",
        -1.0
      ],
      [
        "ĠHoo",
        -1.0
      ],
      [
        "Ġarmor",
        -1.0
      ],
      [
        "ĠClean",
        -1.0
      ],
      [
        "Ġkeep",
        -1.0
      ],
      [
        "pod",
        -1.0
      ],
      [
        "Ġstainless",
        -1.0
      ],
      [
        "-hand",
        -1.0
      ],
      [
        "ie",
        -1.0
      ],
      [
        "pse",
        -1.0
      ],
      [
        "mbo",
        -1.0
      ],
      [
        "Ġrazor",
        -1.0
      ],
      [
        "Ġvigilant",
        -1.0
      ],
      [
        "Ġcopyright",
        -1.0
      ],
      [
        "-re",
        -1.0
      ],
      [
        "Ġsuspected",
        -1.0
      ],
      [
        "Ė",
        -1.0
      ],
      [
        "ĠST",
        -1.0
      ],
      [
        "Ġsafe",
        -1.0
      ],
      [
        "Ġbundle",
        -1.0
      ],
      [
        "Ġperiods",
        -1.0
      ],
      [
        "sine",
        -1.0
      ],
      [
        "ĠThank",
        -1.0
      ],
      [
        "ston",
        -1.0
      ],
      [
        "ĠEaster",
        -1.0
      ],
      [
        "cor",
        -1.0
      ],
      [
        "Ne",
        -1.0
      ],
      [
        "ĠContinue",
        -1.0
      ],
      [
        "ĠInside",
        -1.0
      ],
      [
        "))",
        -1.0
      ],
      [
        "Ġaware",
        -1.0
      ],
      [
        "ĠMental",
        -1.0
      ],
      [
        "Ġstimuli",
        -1.0
      ],
      [
        "Ġecological",
        -1.0
      ],
      [
        "tig",
        -1.0
      ],
      [
        "Ġresonance",
        -1.0
      ],
      [
        "Ġcount",
        -1.0
      ],
      [
        "Ġinclude",
        -1.0
      ],
      [
        "Ġfasc",
        -1.0
      ],
      [
        "aya",
        -1.0
      ],
      [
        "Ġlaws",
        -1.0
      ],
      [
        "Ġcritique",
        -1.0
      ],
      [
        "phyl",
        -1.0
      ],
      [
        "ĠDisease",
        -1.0
      ],
      [
        "ĠOptions",
        -1.0
      ],
      [
        "licit",
        -1.0
      ],
      [
        "Ġbrought",
        -1.0
      ],
      [
        "gu",
        -1.0
      ],
      [
        "ved",
        -1.0
      ],
      [
        "-step",
        -1.0
      ],
      [
        "oj",
        -1.0
      ],
      [
        "Ġstar",
        -1.0
      ],
      [
        "-type",
        -1.0
      ],
      [
        "-week",
        -1.0
      ],
      [
        "Ġbeer",
        -1.0
      ],
      [
        "Ġreal",
        -1.0
      ],
      [
        "Ġestrogen",
        -1.0
      ],
      [
        "Ġgallery",
        -1.0
      ],
      [
        "Ġmeaningful",
        -1.0
      ],
      [
        "Ġcar",
        -1.0
      ],
      [
        "Ġanti",
        -1.0
      ],
      [
        "ended",
        -1.0
      ],
      [
        "Ġoutside",
        -1.0
      ],
      [
        "Ġraw",
        -1.0
      ],
      [
        "Ġfootage",
        -1.0
      ],
      [
        "Ġcosmetic",
        -1.0
      ],
      [
        "eff",
        -1.0
      ],
      [
        "Ġstudied",
        -1.0
      ],
      [
        "If",
        -1.0
      ],
      [
        "ize",
        -1.0
      ],
      [
        "Ġsurrounded",
        -1.0
      ],
      [
        "ĠHand",
        -1.0
      ],
      [
        "ddle",
        -1.0
      ],
      [
        "Ġresolution",
        -1.0
      ],
      [
        "Ġcontrary",
        -1.0
      ],
      [
        "Ġprospect",
        -1.0
      ],
      [
        "Ġtrouble",
        -1.0
      ],
      [
        "Normal",
        -1.0
      ],
      [
        "Ġparrot",
        -1.0
      ],
      [
        "ĠAf",
        -1.0
      ],
      [
        "ĠField",
        -1.0
      ],
      [
        "ĠVI",
        -1.0
      ],
      [
        "ĠGirl",
        -1.0
      ],
      [
        "lier",
        -1.0
      ],
      [
        "ee",
        -1.0
      ],
      [
        "Ġcoming",
        -1.0
      ],
      [
        "Ġrelaxed",
        -1.0
      ],
      [
        "Ġunwanted",
        -1.0
      ],
      [
        "ĠFacilit",
        -1.0
      ],
      [
        "ă",
        -1.0
      ],
      [
        "ocytes",
        -1.0
      ],
      [
        "lom",
        -1.0
      ],
      [
        "sp",
        -1.0
      ],
      [
        "Sub",
        -1.0
      ],
      [
        "esh",
        -1.0
      ],
      [
        "Ġworking",
        -1.0
      ],
      [
        "Ġinspired",
        -1.0
      ],
      [
        "Ġvarieties",
        -1.0
      ],
      [
        "Ġentirely",
        -1.0
      ],
      [
        "Ġinferior",
        -1.0
      ],
      [
        "ĠMaterials",
        -1.0
      ],
      [
        "ĠScandinavia",
        -1.0
      ],
      [
        "Ġru",
        -1.0
      ],
      [
        "Ġlimiting",
        -1.0
      ],
      [
        "Ġshed",
        -1.0
      ],
      [
        "-di",
        -1.0
      ],
      [
        "Ġspr",
        -1.0
      ],
      [
        "ĠGP",
        -1.0
      ],
      [
        "oom",
        -1.0
      ],
      [
        "Ġidio",
        -1.0
      ],
      [
        "Ġgrand",
        -1.0
      ],
      [
        "Ġfarms",
        -1.0
      ],
      [
        "Tech",
        -1.0
      ],
      [
        "ied",
        -1.0
      ],
      [
        "Ġcritic",
        -1.0
      ],
      [
        "nti",
        -1.0
      ],
      [
        "ĠJul",
        -1.0
      ],
      [
        "Ġstrip",
        -1.0
      ],
      [
        "Ġex",
        -1.0
      ],
      [
        "Ġir",
        -1.0
      ],
      [
        "ĠSuccess",
        -1.0
      ],
      [
        "Ġrealm",
        -1.0
      ],
      [
        "-out",
        -1.0
      ],
      [
        "ĠRose",
        -1.0
      ],
      [
        "Ġalign",
        -1.0
      ],
      [
        ".B",
        -1.0
      ],
      [
        "crystal",
        -1.0
      ],
      [
        "Ġreset",
        -1.0
      ],
      [
        "here",
        -1.0
      ],
      [
        "Advanced",
        -1.0
      ],
      [
        "when",
        -1.0
      ],
      [
        "ĠFIG",
        -1.0
      ],
      [
        "Ġmarkets",
        -1.0
      ],
      [
        "dg",
        -1.0
      ],
      [
        "ĠOkay",
        -1.0
      ],
      [
        "Ġvertical",
        -1.0
      ],
      [
        "Ġwarmer",
        -1.0
      ],
      [
        "nks",
        -1.0
      ],
      [
        "dynamics",
        -1.0
      ],
      [
        "-sensitive",
        -1.0
      ],
      [
        "Ġbroccoli",
        -1.0
      ],
      [
        "Ġseriously",
        -1.0
      ],
      [
        "ĠJim",
        -1.0
      ],
      [
        "Ġconfirmed",
        -1.0
      ],
      [
        "nning",
        -1.0
      ],
      [
        "Ġsediments",
        -1.0
      ],
      [
        "Ġbulk",
        -1.0
      ],
      [
        "Ġfeather",
        -1.0
      ],
      [
        "Ġspiritual",
        -1.0
      ],
      [
        "ack",
        -1.0
      ],
      [
        "Ġrepairs",
        -1.0
      ],
      [
        "Ġsimmer",
        -1.0
      ],
      [
        "ĠQuick",
        -1.0
      ],
      [
        "čĊ",
        -1.0
      ],
      [
        "Ġgenes",
        -1.0
      ],
      [
        "Ġgranite",
        -1.0
      ],
      [
        "<p",
        -1.0
      ],
      [
        "Ġslightly",
        -1.0
      ],
      [
        "Ġpenguin",
        -1.0
      ],
      [
        "ĠEffects",
        -1.0
      ],
      [
        "tained",
        -1.0
      ],
      [
        "Ġcomm",
        -1.0
      ],
      [
        "algia",
        -1.0
      ],
      [
        "Ġhiking",
        -1.0
      ],
      [
        "Ġcharged",
        -1.0
      ],
      [
        "Ġdepends",
        -1.0
      ],
      [
        "Ġquantity",
        -1.0
      ],
      [
        "Phys",
        -1.0
      ],
      [
        "Ġshi",
        -1.0
      ],
      [
        "Ġbuyers",
        -1.0
      ],
      [
        "ĠYoung",
        -1.0
      ],
      [
        "Ġdaylight",
        -1.0
      ],
      [
        "Ġboom",
        -1.0
      ],
      [
        "Ġdiscourage",
        -1.0
      ],
      [
        "Sl",
        -1.0
      ],
      [
        "ĠPaper",
        -1.0
      ],
      [
        "ry",
        -1.0
      ],
      [
        "ĠFall",
        -1.0
      ],
      [
        "abo",
        -1.0
      ],
      [
        "Ġscreen",
        -1.0
      ],
      [
        "Ġcounseling",
        -1.0
      ],
      [
        "uns",
        -1.0
      ],
      [
        "zel",
        -1.0
      ],
      [
        "Ġinteger",
        -1.0
      ],
      [
        "Ġharmless",
        -1.0
      ],
      [
        "Ġintegrity",
        -1.0
      ],
      [
        "ĠSm",
        -1.0
      ],
      [
        "Ġschemes",
        -1.0
      ],
      [
        "ĠSolutions",
        -1.0
      ],
      [
        "Ġcaffeine",
        -1.0
      ],
      [
        "ĠSeries",
        -1.0
      ],
      [
        "ĠGen",
        -1.0
      ],
      [
        "Ġindicates",
        -1.0
      ],
      [
        ",Ċ",
        -1.0
      ],
      [
        "ĠRI",
        -1.0
      ],
      [
        "Ġphysically",
        -1.0
      ],
      [
        "ĠWednesday",
        -1.0
      ],
      [
        "OK",
        -1.0
      ],
      [
        "Ġacting",
        -1.0
      ],
      [
        "ĠProf",
        -1.0
      ],
      [
        "Ġst",
        -1.0
      ],
      [
        "Ġchloride",
        -1.0
      ],
      [
        "ĠHabitat",
        -1.0
      ],
      [
        "ĠGas",
        -1.0
      ],
      [
        "ĠScientists",
        -1.0
      ],
      [
        "Ġmix",
        -1.0
      ],
      [
        "Ġalfalfa",
        -1.0
      ],
      [
        "eners",
        -1.0
      ],
      [
        "Ġgrade",
        -1.0
      ],
      [
        "Ġpayments",
        -1.0
      ],
      [
        "Text",
        -1.0
      ],
      [
        "Ġsuffering",
        -1.0
      ],
      [
        "oi",
        -1.0
      ],
      [
        "ĠForm",
        -1.0
      ],
      [
        "Ġphrases",
        -1.0
      ],
      [
        "Ġvaccinated",
        -1.0
      ],
      [
        "Ġtool",
        -1.0
      ],
      [
        "Ġacids",
        -1.0
      ],
      [
        "-the",
        -1.0
      ],
      [
        "ĠAli",
        -1.0
      ],
      [
        "Ġfiltration",
        -1.0
      ],
      [
        "ĠAlt",
        -1.0
      ],
      [
        "\"There",
        -1.0
      ],
      [
        "Vo",
        -1.0
      ],
      [
        "Ġchurch",
        -1.0
      ],
      [
        "Ġtrips",
        -1.0
      ],
      [
        "Ġcircle",
        -1.0
      ],
      [
        "rved",
        -1.0
      ],
      [
        "Ġevening",
        -1.0
      ],
      [
        "ē",
        -1.0
      ],
      [
        "Ġdedicated",
        -1.0
      ],
      [
        "ĠDIY",
        -1.0
      ],
      [
        "stone",
        -1.0
      ],
      [
        "Ġplate",
        -1.0
      ],
      [
        "Ġthus",
        -1.0
      ],
      [
        "Ġpropose",
        -1.0
      ],
      [
        "Ġmelatonin",
        -1.0
      ],
      [
        "Ġmature",
        -1.0
      ],
      [
        "Ġoral",
        -1.0
      ],
      [
        "Ġhire",
        -1.0
      ],
      [
        "Ġstrongly",
        -1.0
      ],
      [
        "Î",
        -1.0
      ],
      [
        "Ġcloser",
        -1.0
      ],
      [
        "49",
        -1.0
      ],
      [
        "Ġinf",
        -1.0
      ],
      [
        "Ġscar",
        -1.0
      ],
      [
        "ĠPrint",
        -1.0
      ],
      [
        "Ġshedding",
        -1.0
      ],
      [
        "Ġinstrument",
        -1.0
      ],
      [
        "th",
        -1.0
      ],
      [
        "will",
        -1.0
      ],
      [
        "ĠPCB",
        -1.0
      ],
      [
        "omics",
        -1.0
      ],
      [
        "Ġcontradict",
        -1.0
      ],
      [
        "Like",
        -1.0
      ],
      [
        "MM",
        -1.0
      ],
      [
        "Ġposting",
        -1.0
      ],
      [
        "ero",
        -1.0
      ],
      [
        "Ġdish",
        -1.0
      ],
      [
        "Ġto",
        -1.0
      ],
      [
        "Ġwanting",
        -1.0
      ],
      [
        "Ġperforms",
        -1.0
      ],
      [
        "Ġshift",
        -1.0
      ],
      [
        "Ġanno",
        -1.0
      ],
      [
        "Ġallows",
        -1.0
      ],
      [
        "-maintained",
        -1.0
      ],
      [
        "Bi",
        -1.0
      ],
      [
        "state",
        -1.0
      ],
      [
        "Ġtrait",
        -1.0
      ],
      [
        "Ġswi",
        -1.0
      ],
      [
        "-cr",
        -1.0
      ],
      [
        "Ġsentiment",
        -1.0
      ],
      [
        "ave",
        -1.0
      ],
      [
        "Ġindustrial",
        -1.0
      ],
      [
        "Ġgiving",
        -1.0
      ],
      [
        "Ġswimmers",
        -1.0
      ],
      [
        "-minute",
        -1.0
      ],
      [
        "burg",
        -1.0
      ],
      [
        "Ġlazy",
        -1.0
      ],
      [
        "Ġclothing",
        -1.0
      ],
      [
        "rot",
        -1.0
      ],
      [
        "Ġpotent",
        -1.0
      ],
      [
        "Ġsaturated",
        -1.0
      ],
      [
        "Ġcompared",
        -1.0
      ],
      [
        "gne",
        -1.0
      ],
      [
        "Ġsh",
        -1.0
      ],
      [
        "mediate",
        -1.0
      ],
      [
        "Ġstimulate",
        -1.0
      ],
      [
        "lide",
        -1.0
      ],
      [
        "TO",
        -1.0
      ],
      [
        "ĠView",
        -1.0
      ],
      [
        "Ġwrong",
        -1.0
      ],
      [
        "Ġkilometers",
        -1.0
      ],
      [
        "Ġfatal",
        -1.0
      ],
      [
        "Ġprinciples",
        -1.0
      ],
      [
        "ĠJi",
        -1.0
      ],
      [
        "âĤ¬",
        -1.0
      ],
      [
        "orn",
        -1.0
      ],
      [
        "eater",
        -1.0
      ],
      [
        "ĠBay",
        -1.0
      ],
      [
        "rib",
        -1.0
      ],
      [
        "ĠConclusion",
        -1.0
      ],
      [
        "Ġbacon",
        -1.0
      ],
      [
        "Ġalongside",
        -1.0
      ],
      [
        "Ġsurvivors",
        -1.0
      ],
      [
        "Ġexplosion",
        -1.0
      ],
      [
        "Ġpracticed",
        -1.0
      ],
      [
        "Ġdiscovered",
        -1.0
      ],
      [
        "-level",
        -1.0
      ],
      [
        "Ġkit",
        -1.0
      ],
      [
        "Ġpoverty",
        -1.0
      ],
      [
        "ĠMrs",
        -1.0
      ],
      [
        "Ġpsychology",
        -1.0
      ],
      [
        "Ġgrazing",
        -1.0
      ],
      [
        "Ġscript",
        -1.0
      ],
      [
        "Ġanecdot",
        -1.0
      ],
      [
        "ĠDNA",
        -1.0
      ],
      [
        "cord",
        -1.0
      ],
      [
        "Mus",
        -1.0
      ],
      [
        "ren",
        -1.0
      ],
      [
        "ĠRed",
        -1.0
      ],
      [
        "Ġmedieval",
        -1.0
      ],
      [
        "Ġmask",
        -1.0
      ],
      [
        "ĠSupport",
        -1.0
      ],
      [
        "LP",
        -1.0
      ],
      [
        "Ġincoming",
        -1.0
      ],
      [
        "Ġlobster",
        -1.0
      ],
      [
        "Ġthesis",
        -1.0
      ],
      [
        "Table",
        -1.0
      ],
      [
        "ict",
        -1.0
      ],
      [
        "und",
        -1.0
      ],
      [
        "Ġslope",
        -1.0
      ],
      [
        "temperature",
        -1.0
      ],
      [
        "ĠRegular",
        -1.0
      ],
      [
        "ean",
        -1.0
      ],
      [
        "Ġexplores",
        -1.0
      ],
      [
        "Ġmark",
        -1.0
      ],
      [
        "Ġdementia",
        -1.0
      ],
      [
        "oids",
        -1.0
      ],
      [
        "Ġbean",
        -1.0
      ],
      [
        "ĠFit",
        -1.0
      ],
      [
        "Ġinsect",
        -1.0
      ],
      [
        "lyn",
        -1.0
      ],
      [
        "Ġskilled",
        -1.0
      ],
      [
        "Ġroles",
        -1.0
      ],
      [
        "Ġguitar",
        -1.0
      ],
      [
        "Ġsexual",
        -1.0
      ],
      [
        "phi",
        -1.0
      ],
      [
        "ĠUN",
        -1.0
      ],
      [
        "ani",
        -1.0
      ],
      [
        "Ġpersua",
        -1.0
      ],
      [
        "ĠRAM",
        -1.0
      ],
      [
        "Ġlocal",
        -1.0
      ],
      [
        "Ġspicy",
        -1.0
      ],
      [
        "Ġmaking",
        -1.0
      ],
      [
        "ope",
        -1.0
      ],
      [
        "ĠLincoln",
        -1.0
      ],
      [
        "Ġlabor",
        -1.0
      ],
      [
        "det",
        -1.0
      ],
      [
        "TY",
        -1.0
      ],
      [
        "Ġortho",
        -1.0
      ],
      [
        "Ġsignals",
        -1.0
      ],
      [
        "easy",
        -1.0
      ],
      [
        "Ġlifespan",
        -1.0
      ],
      [
        "control",
        -1.0
      ],
      [
        "Ġdesigners",
        -1.0
      ],
      [
        "mera",
        -1.0
      ],
      [
        "EN",
        -1.0
      ],
      [
        "Ġposition",
        -1.0
      ],
      [
        "Ġpursuing",
        -1.0
      ],
      [
        "Ġmagical",
        -1.0
      ],
      [
        "Ġbigger",
        -1.0
      ],
      [
        "Ġlatitude",
        -1.0
      ],
      [
        "ĠSite",
        -1.0
      ],
      [
        "ĠWales",
        -1.0
      ],
      [
        "ĠDep",
        -1.0
      ],
      [
        "Ġinvolved",
        -1.0
      ],
      [
        "Ġprogress",
        -1.0
      ],
      [
        "EX",
        -1.0
      ],
      [
        "Ġbad",
        -1.0
      ],
      [
        "-vol",
        -1.0
      ],
      [
        "Ġturbo",
        -1.0
      ],
      [
        "ĠOb",
        -1.0
      ],
      [
        "Ġpalette",
        -1.0
      ],
      [
        "Large",
        -1.0
      ],
      [
        "Ġann",
        -1.0
      ],
      [
        "unch",
        -1.0
      ],
      [
        "Ġcarcass",
        -1.0
      ],
      [
        "aching",
        -1.0
      ],
      [
        "ĠToronto",
        -1.0
      ],
      [
        "Ġreduced",
        -1.0
      ],
      [
        "Obesity",
        -1.0
      ],
      [
        "Ġfight",
        -1.0
      ],
      [
        "Ġsulf",
        -1.0
      ],
      [
        "Ġfragrant",
        -1.0
      ],
      [
        "Ġroutines",
        -1.0
      ],
      [
        "Ġpassenger",
        -1.0
      ],
      [
        "eech",
        -1.0
      ],
      [
        "ĠObama",
        -1.0
      ],
      [
        "inal",
        -1.0
      ],
      [
        "Ġhref",
        -1.0
      ],
      [
        "Ġgraphs",
        -1.0
      ],
      [
        "ĠHP",
        -1.0
      ],
      [
        "bugs",
        -1.0
      ],
      [
        "Invest",
        -1.0
      ],
      [
        "Ġmoths",
        -1.0
      ],
      [
        "Ġcumulative",
        -1.0
      ],
      [
        "Ġmerchant",
        -1.0
      ],
      [
        "Ġstairs",
        -1.0
      ],
      [
        "¹",
        -1.0
      ],
      [
        "ĠII",
        -1.0
      ],
      [
        "Ġmodules",
        -1.0
      ],
      [
        "rig",
        -1.0
      ],
      [
        "Ġthreads",
        -1.0
      ],
      [
        "Ġpick",
        -1.0
      ],
      [
        "Ensuring",
        -1.0
      ],
      [
        "Ġouter",
        -1.0
      ],
      [
        "Ġarchae",
        -1.0
      ],
      [
        "Ġstuff",
        -1.0
      ],
      [
        "oni",
        -1.0
      ],
      [
        "ĠAtlanta",
        -1.0
      ],
      [
        "Ġharbor",
        -1.0
      ],
      [
        "Mat",
        -1.0
      ],
      [
        "Ġcolony",
        -1.0
      ],
      [
        "-L",
        -1.0
      ],
      [
        "Ġham",
        -1.0
      ],
      [
        "Oc",
        -1.0
      ],
      [
        "pra",
        -1.0
      ],
      [
        "ok",
        -1.0
      ],
      [
        "Ġscholars",
        -1.0
      ],
      [
        "Ġapartment",
        -1.0
      ],
      [
        "Ġcrossed",
        -1.0
      ],
      [
        "ĠTogether",
        -1.0
      ],
      [
        "ĠCool",
        -1.0
      ],
      [
        "40",
        -1.0
      ],
      [
        "Ġaromatic",
        -1.0
      ],
      [
        "yn",
        -1.0
      ],
      [
        "eye",
        -1.0
      ],
      [
        "OW",
        -1.0
      ],
      [
        "-season",
        -1.0
      ],
      [
        "Ġtiming",
        -1.0
      ],
      [
        "76",
        -1.0
      ],
      [
        "ĠContent",
        -1.0
      ],
      [
        "Ġcapability",
        -1.0
      ],
      [
        "Ġwise",
        -1.0
      ],
      [
        ".p",
        -1.0
      ],
      [
        "via",
        -1.0
      ],
      [
        "Ġcad",
        -1.0
      ],
      [
        "Ġburied",
        -1.0
      ],
      [
        "Ġbearing",
        -1.0
      ],
      [
        "đ",
        -1.0
      ],
      [
        "Ġj",
        -1.0
      ],
      [
        "?Ċ",
        -1.0
      ],
      [
        "³",
        -1.0
      ],
      [
        "Pl",
        -1.0
      ],
      [
        "Ġposted",
        -1.0
      ],
      [
        "Ġturkey",
        -1.0
      ],
      [
        "lph",
        -1.0
      ],
      [
        "Ġreligion",
        -1.0
      ],
      [
        "nding",
        -1.0
      ],
      [
        "Ġnursery",
        -1.0
      ],
      [
        "88",
        -1.0
      ],
      [
        "Ġcarrying",
        -1.0
      ],
      [
        "Ġwoven",
        -1.0
      ],
      [
        "ã",
        -1.0
      ],
      [
        "amic",
        -1.0
      ],
      [
        "ised",
        -1.0
      ],
      [
        "Ġstems",
        -1.0
      ],
      [
        "Ġaesthetics",
        -1.0
      ],
      [
        "ĠActivities",
        -1.0
      ],
      [
        "OD",
        -1.0
      ],
      [
        "Ġample",
        -1.0
      ],
      [
        "VR",
        -1.0
      ],
      [
        "ĠScotland",
        -1.0
      ],
      [
        "Ġarise",
        -1.0
      ],
      [
        "-str",
        -1.0
      ],
      [
        "Ġfragments",
        -1.0
      ],
      [
        "ĠCR",
        -1.0
      ],
      [
        "Ġprov",
        -1.0
      ],
      [
        "Ġdrum",
        -1.0
      ],
      [
        "Ġpredicting",
        -1.0
      ],
      [
        "meters",
        -1.0
      ],
      [
        "natural",
        -1.0
      ],
      [
        ";Ċ",
        -1.0
      ],
      [
        "Ġconversion",
        -1.0
      ],
      [
        "Ġtrue",
        -1.0
      ],
      [
        "ĠDrawing",
        -1.0
      ],
      [
        "Ġadvantages",
        -1.0
      ],
      [
        "osph",
        -1.0
      ],
      [
        "Ġrestoring",
        -1.0
      ],
      [
        "ĠAcid",
        -1.0
      ],
      [
        "ĠFA",
        -1.0
      ],
      [
        "Ġbelow",
        -1.0
      ],
      [
        "Ġgovern",
        -1.0
      ],
      [
        "ĠTro",
        -1.0
      ],
      [
        "Ġplots",
        -1.0
      ],
      [
        "Ġphotograph",
        -1.0
      ],
      [
        "Ġcables",
        -1.0
      ],
      [
        "Ġcombat",
        -1.0
      ],
      [
        "fort",
        -1.0
      ],
      [
        "Ġmetres",
        -1.0
      ],
      [
        "giving",
        -1.0
      ],
      [
        "ength",
        -1.0
      ],
      [
        "Ġplus",
        -1.0
      ],
      [
        "Ġhobby",
        -1.0
      ],
      [
        "Ġoffen",
        -1.0
      ],
      [
        "ĠWith",
        -1.0
      ],
      [
        "gregate",
        -1.0
      ],
      [
        "ĠGreen",
        -1.0
      ],
      [
        "eg",
        -1.0
      ],
      [
        "Ġsales",
        -1.0
      ],
      [
        "Ġinfo",
        -1.0
      ],
      [
        "ĠHy",
        -1.0
      ],
      [
        "Ġarrays",
        -1.0
      ],
      [
        "Ġstitch",
        -1.0
      ],
      [
        "ĠEM",
        -1.0
      ],
      [
        "ĠAdding",
        -1.0
      ],
      [
        "Ġberries",
        -1.0
      ],
      [
        "ls",
        -1.0
      ],
      [
        "Ġions",
        -1.0
      ],
      [
        "Ġcleaners",
        -1.0
      ],
      [
        "ĠJust",
        -1.0
      ],
      [
        "Ġphysics",
        -1.0
      ],
      [
        "sur",
        -1.0
      ],
      [
        "cha",
        -1.0
      ],
      [
        "Ġfunctions",
        -1.0
      ],
      [
        "Ġamphibians",
        -1.0
      ],
      [
        "ond",
        -1.0
      ],
      [
        "Ġencouraged",
        -1.0
      ],
      [
        "Ġfoam",
        -1.0
      ],
      [
        "tum",
        -1.0
      ],
      [
        "say",
        -1.0
      ],
      [
        "-v",
        -1.0
      ],
      [
        "eet",
        -1.0
      ],
      [
        "Ġweeds",
        -1.0
      ],
      [
        "ĠCross",
        -1.0
      ],
      [
        "ĠOregon",
        -1.0
      ],
      [
        "Ġproposal",
        -1.0
      ],
      [
        "Ġargument",
        -1.0
      ],
      [
        "Ġhol",
        -1.0
      ],
      [
        "-bi",
        -1.0
      ],
      [
        "ged",
        -1.0
      ],
      [
        "Ġcollected",
        -1.0
      ],
      [
        "Ġdates",
        -1.0
      ],
      [
        "Ġgoats",
        -1.0
      ],
      [
        "Ġendless",
        -1.0
      ],
      [
        "os",
        -1.0
      ],
      [
        "Ġok",
        -1.0
      ],
      [
        "location",
        -1.0
      ],
      [
        "Published",
        -1.0
      ],
      [
        "Ġboring",
        -1.0
      ],
      [
        "Ġshrimp",
        -1.0
      ],
      [
        "Ap",
        -1.0
      ],
      [
        "Ġrupture",
        -1.0
      ],
      [
        "eus",
        -1.0
      ],
      [
        "FR",
        -1.0
      ],
      [
        "âĢĶand",
        -1.0
      ],
      [
        "Ġax",
        -1.0
      ],
      [
        "Ġposture",
        -1.0
      ],
      [
        "Ġsand",
        -1.0
      ],
      [
        "Ġshowcase",
        -1.0
      ],
      [
        "Ġforever",
        -1.0
      ],
      [
        "Ġinitiate",
        -1.0
      ],
      [
        "(i",
        -1.0
      ],
      [
        "Ġstructured",
        -1.0
      ],
      [
        "Ġgreenhouse",
        -1.0
      ],
      [
        "Ġwheel",
        -1.0
      ],
      [
        "mark",
        -1.0
      ],
      [
        "ĠBreak",
        -1.0
      ],
      [
        "itarian",
        -1.0
      ],
      [
        "rals",
        -1.0
      ],
      [
        "Ġcrowd",
        -1.0
      ],
      [
        "Ġattribute",
        -1.0
      ],
      [
        "Ġpaper",
        -1.0
      ],
      [
        "figure",
        -1.0
      ],
      [
        "ate",
        -1.0
      ],
      [
        "Ġdrawbacks",
        -1.0
      ],
      [
        "Ġopen",
        -1.0
      ],
      [
        "-wa",
        -1.0
      ],
      [
        "Ġfunction",
        -1.0
      ],
      [
        "Ġabs",
        -1.0
      ],
      [
        "lers",
        -1.0
      ],
      [
        "Multi",
        -1.0
      ],
      [
        "Ġquarantine",
        -1.0
      ],
      [
        "ĠClark",
        -1.0
      ],
      [
        "Ġguidance",
        -1.0
      ],
      [
        "int",
        -1.0
      ],
      [
        "Nowadays",
        -1.0
      ],
      [
        "Ġplug",
        -1.0
      ],
      [
        "Ġaccounting",
        -1.0
      ],
      [
        "Ġgeological",
        -1.0
      ],
      [
        "OR",
        -1.0
      ],
      [
        "bio",
        -1.0
      ],
      [
        "Ġreceptor",
        -1.0
      ],
      [
        "Ġattack",
        -1.0
      ],
      [
        "Ġriver",
        -1.0
      ],
      [
        "rty",
        -1.0
      ],
      [
        "ban",
        -1.0
      ],
      [
        "Ġmiss",
        -1.0
      ],
      [
        "Ġautumn",
        -1.0
      ],
      [
        "Ġmeasure",
        -1.0
      ],
      [
        "Ġspoon",
        -1.0
      ],
      [
        "Ġrecovered",
        -1.0
      ],
      [
        "-class",
        -1.0
      ],
      [
        "Ġfootball",
        -1.0
      ],
      [
        "Ġsoon",
        -1.0
      ],
      [
        "Ġliterally",
        -1.0
      ],
      [
        "Ġpots",
        -1.0
      ],
      [
        "Ġbasement",
        -1.0
      ],
      [
        "?)",
        -1.0
      ],
      [
        "68",
        -1.0
      ],
      [
        "Tag",
        -1.0
      ],
      [
        "Ġoffset",
        -1.0
      ],
      [
        "Ġsoluble",
        -1.0
      ],
      [
        "ĠActivity",
        -1.0
      ],
      [
        "ĠBio",
        -1.0
      ],
      [
        "LY",
        -1.0
      ],
      [
        "Ġstood",
        -1.0
      ],
      [
        "ines",
        -1.0
      ],
      [
        "Ġbrush",
        -1.0
      ],
      [
        "ssa",
        -1.0
      ],
      [
        "Ġtopic",
        -1.0
      ],
      [
        "Ġcourt",
        -1.0
      ],
      [
        "ĠWeek",
        -1.0
      ],
      [
        "Ġmonitoring",
        -1.0
      ],
      [
        "ove",
        -1.0
      ],
      [
        "dor",
        -1.0
      ],
      [
        "Ġsediment",
        -1.0
      ],
      [
        "Ġnocturnal",
        -1.0
      ],
      [
        "-processing",
        -1.0
      ],
      [
        "ola",
        -1.0
      ],
      [
        "Ġiodine",
        -1.0
      ],
      [
        "ĠSwedish",
        -1.0
      ],
      [
        "far",
        -1.0
      ],
      [
        "Ġbenz",
        -1.0
      ],
      [
        "Ġopened",
        -1.0
      ],
      [
        "Ġwinner",
        -1.0
      ],
      [
        "Gold",
        -1.0
      ],
      [
        "Ġteaches",
        -1.0
      ],
      [
        "Ġdull",
        -1.0
      ],
      [
        "holder",
        -1.0
      ],
      [
        "Ġendo",
        -1.0
      ],
      [
        "Ba",
        -1.0
      ],
      [
        "ĠBefore",
        -1.0
      ],
      [
        "jet",
        -1.0
      ],
      [
        "Ġstudies",
        -1.0
      ],
      [
        "Image",
        -1.0
      ],
      [
        "Ġmates",
        -1.0
      ],
      [
        "Ġdepleted",
        -1.0
      ],
      [
        "Ġspills",
        -1.0
      ],
      [
        "Ġmicrochip",
        -1.0
      ],
      [
        "Ġburns",
        -1.0
      ],
      [
        "ĠFront",
        -1.0
      ],
      [
        "Ġdurability",
        -1.0
      ],
      [
        "GA",
        -1.0
      ],
      [
        "Ġveterinary",
        -1.0
      ],
      [
        "ĠWor",
        -1.0
      ],
      [
        "medicine",
        -1.0
      ],
      [
        "Ġyouth",
        -1.0
      ],
      [
        "Ġproperly",
        -1.0
      ],
      [
        "Ġdetermines",
        -1.0
      ],
      [
        "Ġremnant",
        -1.0
      ],
      [
        "Ġsweetness",
        -1.0
      ],
      [
        "Ġcrack",
        -1.0
      ],
      [
        "irs",
        -1.0
      ],
      [
        "Ġmammal",
        -1.0
      ],
      [
        "Ġowners",
        -1.0
      ],
      [
        "Ġderivative",
        -1.0
      ],
      [
        "Ġeverything",
        -1.0
      ],
      [
        "Ġunder",
        -1.0
      ],
      [
        "Ġevolved",
        -1.0
      ],
      [
        "Ġserious",
        -1.0
      ],
      [
        "Ġdrying",
        -1.0
      ],
      [
        "Ġupgrading",
        -1.0
      ],
      [
        "Ġback",
        -1.0
      ],
      [
        "Ġbreakdown",
        -1.0
      ],
      [
        "Ġslaughter",
        -1.0
      ],
      [
        "port",
        -1.0
      ],
      [
        "posing",
        -1.0
      ],
      [
        "mmer",
        -1.0
      ],
      [
        "Ġmatch",
        -1.0
      ],
      [
        "35",
        -1.0
      ],
      [
        "?ĊĊ",
        -1.0
      ],
      [
        "wo",
        -1.0
      ],
      [
        "ĠCoal",
        -1.0
      ],
      [
        "-water",
        -1.0
      ],
      [
        "ina",
        -1.0
      ],
      [
        "Ġheavy",
        -1.0
      ],
      [
        "ĠDelta",
        -1.0
      ],
      [
        "Ġacquiring",
        -1.0
      ],
      [
        "Ġfoul",
        -1.0
      ],
      [
        "ĠNic",
        -1.0
      ],
      [
        "+",
        -1.0
      ],
      [
        "Del",
        -1.0
      ],
      [
        "Ġoutdoor",
        -1.0
      ],
      [
        "oidal",
        -1.0
      ],
      [
        "Ġbird",
        -1.0
      ],
      [
        "Ġgenre",
        -1.0
      ],
      [
        "rious",
        -1.0
      ],
      [
        "Before",
        -1.0
      ],
      [
        "âĢ¦ĊĊ",
        -1.0
      ],
      [
        "quire",
        -1.0
      ],
      [
        "ffi",
        -1.0
      ],
      [
        "Ġtunnel",
        -1.0
      ],
      [
        "Ġnavigation",
        -1.0
      ],
      [
        "Ġsink",
        -1.0
      ],
      [
        "us",
        -1.0
      ],
      [
        "com",
        -1.0
      ],
      [
        "ff",
        -1.0
      ],
      [
        "ification",
        -1.0
      ],
      [
        "Ġecosystems",
        -1.0
      ],
      [
        "(n",
        -1.0
      ],
      [
        "Ġterrible",
        -1.0
      ],
      [
        "Ġgenus",
        -1.0
      ],
      [
        "Val",
        -1.0
      ],
      [
        "mous",
        -1.0
      ],
      [
        "Ġadvocacy",
        -1.0
      ],
      [
        "Ġpop",
        -1.0
      ],
      [
        "Cap",
        -1.0
      ],
      [
        "Ġpositive",
        -1.0
      ],
      [
        "Ö",
        -1.0
      ],
      [
        "lum",
        -1.0
      ],
      [
        "king",
        -1.0
      ],
      [
        "ĠWind",
        -1.0
      ],
      [
        "Ġminor",
        -1.0
      ],
      [
        "Ġmostly",
        -1.0
      ],
      [
        "wa",
        -1.0
      ],
      [
        "Ġgender",
        -1.0
      ],
      [
        "ĠScottish",
        -1.0
      ],
      [
        "ients",
        -1.0
      ],
      [
        "ef",
        -1.0
      ],
      [
        "},Ċ",
        -1.0
      ],
      [
        "Ġbread",
        -1.0
      ],
      [
        "Ġrobots",
        -1.0
      ],
      [
        "mur",
        -1.0
      ],
      [
        "ities",
        -1.0
      ],
      [
        "ĠPit",
        -1.0
      ],
      [
        "Ġtobacco",
        -1.0
      ],
      [
        "upe",
        -1.0
      ],
      [
        "ĠSometimes",
        -1.0
      ],
      [
        "itive",
        -1.0
      ],
      [
        "Ġcarbon",
        -1.0
      ],
      [
        "ess",
        -1.0
      ],
      [
        "Ġdies",
        -1.0
      ],
      [
        "Ġlocate",
        -1.0
      ],
      [
        "Ġdeploy",
        -1.0
      ],
      [
        "Ġpriorities",
        -1.0
      ],
      [
        "ĠPage",
        -1.0
      ],
      [
        "is",
        -1.0
      ],
      [
        "Ġtry",
        -1.0
      ],
      [
        "Ġjo",
        -1.0
      ],
      [
        "DO",
        -1.0
      ],
      [
        "Ġtick",
        -1.0
      ],
      [
        "Ġaligns",
        -1.0
      ],
      [
        "Ġlength",
        -1.0
      ],
      [
        "ants",
        -1.0
      ],
      [
        "check",
        -1.0
      ],
      [
        "Ġdroplets",
        -1.0
      ],
      [
        "Ġconsulting",
        -1.0
      ],
      [
        "Ġconfined",
        -1.0
      ],
      [
        "Ġvacation",
        -1.0
      ],
      [
        "Ġpreventing",
        -1.0
      ],
      [
        "tles",
        -1.0
      ],
      [
        "Ġnail",
        -1.0
      ],
      [
        "ĠArea",
        -1.0
      ],
      [
        "-part",
        -1.0
      ],
      [
        "ĠWal",
        -1.0
      ],
      [
        "ances",
        -1.0
      ],
      [
        "Ġbubble",
        -1.0
      ],
      [
        "ĠMaterial",
        -1.0
      ],
      [
        "Ġhormones",
        -1.0
      ],
      [
        "eeks",
        -1.0
      ],
      [
        "-c",
        -1.0
      ],
      [
        "Ġh",
        -1.0
      ],
      [
        "RF",
        -1.0
      ],
      [
        "ĠEgypt",
        -1.0
      ],
      [
        "file",
        -1.0
      ],
      [
        "Ġreminder",
        -1.0
      ],
      [
        "Ġamplifier",
        -1.0
      ],
      [
        "itate",
        -1.0
      ],
      [
        "ĠEducation",
        -1.0
      ],
      [
        "Because",
        -1.0
      ],
      [
        "Ġdip",
        -1.0
      ],
      [
        "Ġstrand",
        -1.0
      ],
      [
        "quar",
        -1.0
      ],
      [
        "Ġfavourite",
        -1.0
      ],
      [
        "who",
        -1.0
      ],
      [
        "Exploring",
        -1.0
      ],
      [
        "after",
        -1.0
      ],
      [
        "-b",
        -1.0
      ],
      [
        "Ġheadphones",
        -1.0
      ],
      [
        "ĠSafe",
        -1.0
      ],
      [
        "Ġdiversity",
        -1.0
      ],
      [
        "cr",
        -1.0
      ],
      [
        "ĠApple",
        -1.0
      ],
      [
        "Ġgeo",
        -1.0
      ],
      [
        "ĠVehicle",
        -1.0
      ],
      [
        "\":\"",
        -1.0
      ],
      [
        "-reviewed",
        -1.0
      ],
      [
        "Ġinverted",
        -1.0
      ],
      [
        "sso",
        -1.0
      ],
      [
        "Ġevolving",
        -1.0
      ],
      [
        ".D",
        -1.0
      ],
      [
        "Ġdiagnostic",
        -1.0
      ],
      [
        "ocks",
        -1.0
      ],
      [
        "borne",
        -1.0
      ],
      [
        "')",
        -1.0
      ],
      [
        "Ġdrops",
        -1.0
      ],
      [
        "ĠHol",
        -1.0
      ],
      [
        "ĠSection",
        -1.0
      ],
      [
        "ĠHospital",
        -1.0
      ],
      [
        "Ġlake",
        -1.0
      ],
      [
        "Ġvoice",
        -1.0
      ],
      [
        "ĠMont",
        -1.0
      ],
      [
        "Ġdrop",
        -1.0
      ],
      [
        "ĠAsia",
        -1.0
      ],
      [
        "ĠSugar",
        -1.0
      ],
      [
        "Ġoscill",
        -1.0
      ],
      [
        "Ġobtain",
        -1.0
      ],
      [
        "Ġneat",
        -1.0
      ],
      [
        "Ġtriple",
        -1.0
      ],
      [
        "Ġstation",
        -1.0
      ],
      [
        "Ġcra",
        -1.0
      ],
      [
        "Ġminiature",
        -1.0
      ],
      [
        "Ġthigh",
        -1.0
      ],
      [
        "Ġleads",
        -1.0
      ],
      [
        "ĠEast",
        -1.0
      ],
      [
        "ĠTikTok",
        -1.0
      ],
      [
        "Ġcreators",
        -1.0
      ],
      [
        "Ġvisualize",
        -1.0
      ],
      [
        "Ġmeanings",
        -1.0
      ],
      [
        "ĠHu",
        -1.0
      ],
      [
        "Ġleague",
        -1.0
      ],
      [
        "Ġaltogether",
        -1.0
      ],
      [
        "Ġcalorie",
        -1.0
      ],
      [
        "nus",
        -1.0
      ],
      [
        "Ġshaft",
        -1.0
      ],
      [
        "Ġsurveys",
        -1.0
      ],
      [
        "Ġstrong",
        -1.0
      ],
      [
        "-old",
        -1.0
      ],
      [
        "ming",
        -1.0
      ],
      [
        "Ġshock",
        -1.0
      ],
      [
        "Ġassortment",
        -1.0
      ],
      [
        "::",
        -1.0
      ],
      [
        "lve",
        -1.0
      ],
      [
        "Ġvideos",
        -1.0
      ],
      [
        "Ġachieve",
        -1.0
      ],
      [
        "-purpose",
        -1.0
      ],
      [
        "Ġinterview",
        -1.0
      ],
      [
        "yc",
        -1.0
      ],
      [
        "-inch",
        -1.0
      ],
      [
        "Product",
        -1.0
      ],
      [
        "Ġcruise",
        -1.0
      ],
      [
        "Ġrabbits",
        -1.0
      ],
      [
        "acial",
        -1.0
      ],
      [
        "ĠDavis",
        -1.0
      ],
      [
        "ĠChoosing",
        -1.0
      ],
      [
        ".t",
        -1.0
      ],
      [
        "ĠPeninsula",
        -1.0
      ],
      [
        "/p",
        -1.0
      ],
      [
        "ĠRel",
        -1.0
      ],
      [
        "Ġlaundry",
        -1.0
      ],
      [
        "-grade",
        -1.0
      ],
      [
        "Ġdetermine",
        -1.0
      ],
      [
        "---",
        -1.0
      ],
      [
        "tage",
        -1.0
      ],
      [
        "Ġstr",
        -1.0
      ],
      [
        "Ġangles",
        -1.0
      ],
      [
        "Ġpicking",
        -1.0
      ],
      [
        "Ġintensive",
        -1.0
      ],
      [
        "Ġprolong",
        -1.0
      ],
      [
        "bus",
        -1.0
      ],
      [
        "Ġsides",
        -1.0
      ],
      [
        "Ġkidney",
        -1.0
      ],
      [
        "#",
        -1.0
      ],
      [
        "Ġairtight",
        -1.0
      ],
      [
        "Ġvisiting",
        -1.0
      ],
      [
        "watch",
        -1.0
      ],
      [
        "Ġterminals",
        -1.0
      ],
      [
        "Ġpack",
        -1.0
      ],
      [
        "Ġnot",
        -1.0
      ],
      [
        "Ġsaved",
        -1.0
      ],
      [
        "Ġconflicts",
        -1.0
      ],
      [
        "python",
        -1.0
      ],
      [
        "Ġutility",
        -1.0
      ],
      [
        "Ġangry",
        -1.0
      ],
      [
        "Ġcelestial",
        -1.0
      ],
      [
        "pression",
        -1.0
      ],
      [
        ":",
        -1.0
      ],
      [
        "mia",
        -1.0
      ],
      [
        "ndr",
        -1.0
      ],
      [
        "-te",
        -1.0
      ],
      [
        "Ġheavier",
        -1.0
      ],
      [
        "Ġplumbing",
        -1.0
      ],
      [
        "Ġdiabetic",
        -1.0
      ],
      [
        "Ġyo",
        -1.0
      ],
      [
        "Ġletter",
        -1.0
[...]
