{
  "version": "1.0",
  "truncation": null,
  "padding": null,
  "added_tokens": [
    {
      "id": 760,
      "content": "[PAD]",
      "single_word": false,
      "lstrip": false,
      "rstrip": false,
      "normalized": false,
      "special": true
    },
    {
      "id": 797,
      "content": "[UNK]",
      "single_word": false,
      "lstrip": false,
      "rstrip": false,
      "normalized": false,
      "special": true
    },
    {
      "id": 866,
      "content": "[CLS]",
      "single_word": false,
      "lstrip": false,
      "rstrip": false,
      "normalized": false,
      "special": true
    },
    {
      "id": 947,
      "content": "[EOS]",
      "single_word": false,
      "lstrip": false,
      "rstrip": false,
      "normalized": false,
      "special": true
    },
    {
      "id": 963,
      "content": "[MASK]",
      "single_word": false,
      "lstrip": false,
      "rstrip": false,
      "normalized": false,
      "special": true
    },
    {
      "id": 1088,
      "content": "[SEP]",
      "single_word": false,
      "lstrip": false,
      "rstrip": false,
      "normalized": false,
      "special": true
    }
  ],
  "normalizer": null,
  "pre_tokenizer": {
    "type": "ByteLevel",
    "add_prefix_space": false,
    "trim_offsets": true,
    "use_regex": true
  },
  "post_processor": null,
  "decoder": null,
  "model": {
    "type": "Unigram",
    "unk_id": null,
    "vocab": [
      [
        "ia",
        -1.0
      ],
      [
        "Ġdifference",
        -1.0
      ],
      [
        "Ġmilitary",
        -1.0
      ],
      [
        "Ġmain",
        -1.0
      ],
      [
        "thing",
        -1.0
      ],
      [
        "Ġespecially",
        -1.0
      ],
      [
        "į",
        -1.0
      ],
      [
        "Ġsubject",
        -1.0
      ],
      [
        "Ġdisorder",
        -1.0
      ],
      [
        "the",
        -1.0
      ],
      [
        "Ġscientific",
        -1.0
      ],
      [
        "Ġavoid",
        -1.0
      ],
      [
        "ã",
        -1.0
      ],
      [
        "âĢĵ",
        -1.0
      ],
      [
        "ments",
        -1.0
      ],
      [
        "Ġamong",
        -1.0
      ],
      [
        "Ġseveral",
        -1.0
      ],
      [
        "]",
        -1.0
      ],
      [
        "Ġsay",
        -1.0
      ],
      [
        "Ġwith",
        -1.0
      ],
      [
        "Ġearlier",
        -1.0
      ],
      [
        "ĠMay",
        -1.0
      ],
      [
        "Ġ20",
        -1.0
      ],
      [
        "19",
        -1.0
      ],
      [
        "Ġcity",
        -1.0
      ],
      [
        "'t",
        -1.0
      ],
      [
        "v",
        -1.0
      ],
      [
        "Ġreport",
        -1.0
      ],
      [
        "Ġlong",
        -1.0
      ],
      [
        "What",
        -1.0
      ],
      [
        "Ġfound",
        -1.0
      ],
      [
        "Ġdevelopment",
        -1.0
      ],
      [
        "ĠSouth",
        -1.0
      ],
      [
        "Ġthousand",
        -1.0
      ],
      [
        "Ġphilosoph",
        -1.0
      ],
      [
        "Ġ\"",
        -1.0
      ],
      [
        "Ġteach",
        -1.0
      ],
      [
        "al",
        -1.0
      ],
      [
        "U",
        -1.0
      ],
      [
        "¯",
        -1.0
      ],
      [
        "Ġfurther",
        -1.0
      ],
      [
        "Ġreligious",
        -1.0
      ],
      [
        "Ġoff",
        -1.0
      ],
      [
        "Ġrights",
        -1.0
      ],
      [
        "Ġbetween",
        -1.0
      ],
      [
        "Ġmake",
        -1.0
      ],
      [
        "Ġbrain",
        -1.0
      ],
      [
        "ĠAustralia",
        -1.0
      ],
      [
        "Ġhundred",
        -1.0
      ],
      [
        "Ġappropriate",
        -1.0
      ],
      [
        "Ġold",
        -1.0
      ],
      [
        "Ġuse",
        -1.0
      ],
      [
        "A",
        -1.0
      ],
      [
        "age",
        -1.0
      ],
      [
        "Ġeither",
        -1.0
      ],
      [
        "ĠC",
        -1.0
      ],
      [
        "Ġthere",
        -1.0
      ],
      [
        "Z",
        -1.0
      ],
      [
        "'s",
        -1.0
      ],
      [
        "Ġ199",
        -1.0
      ],
      [
        "Ġaccording",
        -1.0
      ],
      [
        "Ġafter",
        -1.0
      ],
      [
        "American",
        -1.0
      ],
      [
        "Ġlearn",
        -1.0
      ],
      [
        "Ġscientists",
        -1.0
      ],
      [
        "Ġaccount",
        -1.0
      ],
      [
        "ĠChurch",
        -1.0
      ],
      [
        "Ġauthor",
        -1.0
      ],
      [
        "Ġspecies",
        -1.0
      ],
      [
        "ĠL",
        -1.0
      ],
      [
        "Ġsuccess",
        -1.0
      ],
      [
        "Ġblack",
        -1.0
      ],
      [
        "ĠHowever",
        -1.0
      ],
      [
        "Ġfrom",
        -1.0
      ],
      [
        "Ġrather",
        -1.0
      ],
      [
        "Ġits",
        -1.0
      ],
      [
        "Ġcountries",
        -1.0
      ],
      [
        "Ġproblems",
        -1.0
      ],
      [
        "Ġenough",
        -1.0
      ],
      [
        "6",
        -1.0
      ],
      [
        "ĺ",
        -1.0
      ],
      [
        "ĠF",
        -1.0
      ],
      [
        "ĠO",
        -1.0
      ],
      [
        "Ø",
        -1.0
      ],
      [
        "Ġcent",
        -1.0
      ],
      [
        "15",
        -1.0
      ],
      [
        "Ġup",
        -1.0
      ],
      [
        "Ġrisk",
        -1.0
      ],
      [
        "Ġkeep",
        -1.0
      ],
      [
        "ern",
        -1.0
      ],
      [
        "Ġany",
        -1.0
      ],
      [
        "Ġenergy",
        -1.0
      ],
      [
        "Ġlarge",
        -1.0
      ],
      [
        "1",
        -1.0
      ],
      [
        "Ġpeople",
        -1.0
      ],
      [
        "Ġseen",
        -1.0
      ],
      [
        "Ġrecommend",
        -1.0
      ],
      [
        "Ġgroup",
        -1.0
      ],
      [
        "Ġaccess",
        -1.0
      ],
      [
        "Ġfemale",
        -1.0
      ],
      [
        "'",
        -1.0
      ],
      [
        "+",
        -1.0
      ],
      [
        "q",
        -1.0
      ],
      [
        "Ç",
        -1.0
      ],
      [
        ">",
        -1.0
      ],
      [
        "Ú",
        -1.0
      ],
      [
        "Ġpass",
        -1.0
      ],
      [
        "Ġengine",
        -1.0
      ],
      [
        "Ġcommunity",
        -1.0
      ],
      [
        "Ġresources",
        -1.0
      ],
      [
        "Ġdata",
        -1.0
      ],
      [
        "Ġ|",
        -1.0
      ],
      [
        "Ġconcern",
        -1.0
      ],
      [
        "Ġanother",
        -1.0
      ],
      [
        "Ġ198",
        -1.0
      ],
      [
        "Ġtogether",
        -1.0
      ],
      [
        "0",
        -1.0
      ],
      [
        "Ġtoward",
        -1.0
      ],
      [
        "Ġnormal",
        -1.0
      ],
      [
        "³",
        -1.0
      ],
      [
        "Ġarea",
        -1.0
      ],
      [
        "ĠCouncil",
        -1.0
      ],
      [
        "Ġ17",
        -1.0
      ],
      [
        "Ġpolitical",
        -1.0
      ],
      [
        ".,",
        -1.0
      ],
      [
        "Ġbegan",
        -1.0
      ],
      [
        "ĠChinese",
        -1.0
      ],
      [
        "á",
        -1.0
      ],
      [
        "ian",
        -1.0
      ],
      [
        "Ġad",
        -1.0
      ],
      [
        "Ġusing",
        -1.0
      ],
      [
        "(",
        -1.0
      ],
      [
        "8",
        -1.0
      ],
      [
        "Ġquestion",
        -1.0
      ],
      [
        "Ġbecause",
        -1.0
      ],
      [
        "Ġhowever",
        -1.0
      ],
      [
        "ĠStates",
        -1.0
      ],
      [
        "z",
        -1.0
      ],
      [
        "ī",
        -1.0
      ],
      [
        "Ġsize",
        -1.0
      ],
      [
        "ļ",
        -1.0
      ],
      [
        "Ġrange",
        -1.0
      ],
      [
        "Ġhappen",
        -1.0
      ],
      [
        "Ġhis",
        -1.0
      ],
      [
        "Ġmillion",
        -1.0
      ],
      [
        "Ġrepresent",
        -1.0
      ],
      [
        "Ġcases",
        -1.0
      ],
      [
        "et",
        -1.0
      ],
      [
        "ĠYou",
        -1.0
      ],
      [
        "Ġproject",
        -1.0
      ],
      [
        "ĠThis",
        -1.0
      ],
      [
        "Ġreduce",
        -1.0
      ],
      [
        "Ġlocal",
        -1.0
      ],
      [
        "Ġpublished",
        -1.0
      ],
      [
        "C",
        -1.0
      ],
      [
        "Ġanimal",
        -1.0
      ],
      [
        "Ġresults",
        -1.0
      ],
      [
        "ð",
        -1.0
      ],
      [
        "Ġincrease",
        -1.0
      ],
      [
        "Ì",
        -1.0
      ],
      [
        "Ġno",
        -1.0
      ],
      [
        "Ġto",
        -1.0
      ],
      [
        "Ġbuilt",
        -1.0
      ],
      [
        "Ħ",
        -1.0
      ],
      [
        "Ġprovide",
        -1.0
      ],
      [
        "ful",
        -1.0
      ],
      [
        "Ġfree",
        -1.0
      ],
      [
        "Ġ10",
        -1.0
      ],
      [
        "Ġbeing",
        -1.0
      ],
      [
        "Ĵ",
        -1.0
      ],
      [
        "Ġyou",
        -1.0
      ],
      [
        "ĠDepartment",
        -1.0
      ],
      [
        "Ġone",
        -1.0
      ],
      [
        "Ġnorth",
        -1.0
      ],
      [
        "Ġ196",
        -1.0
      ],
      [
        "Ġset",
        -1.0
      ],
      [
        "Ĭ",
        -1.0
      ],
      [
        "Ġimpact",
        -1.0
      ],
      [
        "Ġwho",
        -1.0
      ],
      [
        "Ġbeyond",
        -1.0
      ],
      [
        "ĠGod",
        -1.0
      ],
      [
        "Ġso",
        -1.0
      ],
      [
        "Ġshow",
        -1.0
      ],
      [
        "Ġlimit",
        -1.0
      ],
      [
        "Ġyoung",
        -1.0
      ],
      [
        "craft",
        -1.0
      ],
      [
        "ģ",
        -1.0
      ],
      [
        "Ġsocial",
        -1.0
      ],
      [
        "Ġhelp",
        -1.0
      ],
      [
        "¸",
        -1.0
      ],
      [
        "*",
        -1.0
      ],
      [
        "â",
        -1.0
      ],
      [
        "Ġrapid",
        -1.0
      ],
      [
        "ĠHIV",
        -1.0
      ],
      [
        "P",
        -1.0
      ],
      [
        "Ġ0",
        -1.0
      ],
      [
        "Ġmay",
        -1.0
      ],
      [
        "Ġprivate",
        -1.0
      ],
      [
        "Ġgood",
        -1.0
      ],
      [
        "Ġhouse",
        -1.0
      ],
      [
        "Ġbest",
        -1.0
      ],
      [
        "ĠJohn",
        -1.0
      ],
      [
        "ĠNorth",
        -1.0
      ],
      [
        "T",
        -1.0
      ],
      [
        "Ġhow",
        -1.0
      ],
      [
        "Ġpossible",
        -1.0
      ],
      [
        "13",
        -1.0
      ],
      [
        "self",
        -1.0
      ],
      [
        "Ġfew",
        -1.0
      ],
      [
        "in",
        -1.0
      ],
      [
        "Ġexample",
        -1.0
      ],
      [
        "Ġpercent",
        -1.0
      ],
      [
        "Ë",
        -1.0
      ],
      [
        "âĢ",
        -1.0
      ],
      [
        "ĠOctober",
        -1.0
      ],
      [
        "Ġbecame",
        -1.0
      ],
      [
        "Ġlife",
        -1.0
      ],
      [
        "ous",
        -1.0
      ],
      [
        "Ġ-",
        -1.0
      ],
      [
        "Ġtotal",
        -1.0
      ],
      [
        "Ġlower",
        -1.0
      ],
      [
        "S",
        -1.0
      ],
      [
        "®",
        -1.0
      ],
      [
        "e",
        -1.0
      ],
      [
        "Ġsign",
        -1.0
      ],
      [
        "ity",
        -1.0
      ],
      [
        "Ġenvironment",
        -1.0
      ],
      [
        "Ġgreat",
        -1.0
      ],
      [
        "ified",
        -1.0
      ],
      [
        "Ġprimary",
        -1.0
      ],
      [
        "·",
        -1.0
      ],
      [
        "Ġemploy",
        -1.0
      ],
      [
        "Ġthan",
        -1.0
      ],
      [
        "Ġif",
        -1.0
      ],
      [
        "Ġwebsite",
        -1.0
      ],
      [
        "able",
        -1.0
      ],
      [
        "Ġeffect",
        -1.0
      ],
      [
        "es",
        -1.0
      ],
      [
        "Ġusually",
        -1.0
      ],
      [
        "ĠBritish",
        -1.0
      ],
      [
        "Ġmethod",
        -1.0
      ],
      [
        "Ġexposure",
        -1.0
      ],
      [
        "Ġet",
        -1.0
      ],
      [
        "ĠThere",
        -1.0
      ],
      [
        "Ġactivities",
        -1.0
      ],
      [
        "ĠAl",
        -1.0
      ],
      [
        "Ġworld",
        -1.0
      ],
      [
        "Ġestimate",
        -1.0
      ],
      [
        "Ġidea",
        -1.0
      ],
      [
        "Ġplants",
        -1.0
      ],
      [
        "¤",
        -1.0
      ],
      [
        "Ġshe",
        -1.0
      ],
      [
        "Ĥ",
        -1.0
      ],
      [
        "Ġcountry",
        -1.0
      ],
      [
        "Ĳ",
        -1.0
      ],
      [
        "Ġcould",
        -1.0
      ],
      [
        "Ġpast",
        -1.0
      ],
      [
        "Ġname",
        -1.0
      ],
      [
        "Ġthink",
        -1.0
      ],
      [
        "Ġstate",
        -1.0
      ],
      [
        "Ġsystem",
        -1.0
      ],
      [
        "Ġtext",
        -1.0
      ],
      [
        "Ġscience",
        -1.0
      ],
      [
        "ĠEurope",
        -1.0
      ],
      [
        "Ġre",
        -1.0
      ],
      [
        "Ġ8",
        -1.0
      ],
      [
        "ĠAs",
        -1.0
      ],
      [
        "Ġgo",
        -1.0
      ],
      [
        "Ġthem",
        -1.0
      ],
      [
        "Ġdeveloped",
        -1.0
      ],
      [
        "Ġtarget",
        -1.0
      ],
      [
        "ER",
        -1.0
      ],
      [
        "land",
        -1.0
      ],
      [
        "14",
        -1.0
      ],
      [
        "$",
        -1.0
      ],
      [
        "Ġbut",
        -1.0
      ],
      [
        "Ġcomputer",
        -1.0
      ],
      [
        "Ġprobably",
        -1.0
      ],
      [
        "Ġform",
        -1.0
      ],
      [
        "Ġanswer",
        -1.0
      ],
      [
        "±",
        -1.0
      ],
      [
        "ĠChrist",
        -1.0
      ],
      [
        "f",
        -1.0
      ],
      [
        "/",
        -1.0
      ],
      [
        "¼",
        -1.0
      ],
      [
        "Ġpiece",
        -1.0
      ],
      [
        "This",
        -1.0
      ],
      [
        "Ġorder",
        -1.0
      ],
      [
        "Ġcomplete",
        -1.0
      ],
      [
        "Ġsub",
        -1.0
      ],
      [
        "Ġinclude",
        -1.0
      ],
      [
        "200",
        -1.0
      ],
      [
        "Ù",
        -1.0
      ],
      [
        "Ġworking",
        -1.0
      ],
      [
        "Ġsociety",
        -1.0
      ],
      [
        "Ġfact",
        -1.0
      ],
      [
        ",\"",
        -1.0
      ],
      [
        "Ġcarbon",
        -1.0
      ],
      [
        "Ġhistory",
        -1.0
      ],
      [
        "Ġmedical",
        -1.0
      ],
      [
        "Ġreturn",
        -1.0
      ],
      [
        "Ġcontinu",
        -1.0
      ],
      [
        "ĠEarth",
        -1.0
      ],
      [
        "Ġbefore",
        -1.0
      ],
      [
        "ĠNational",
        -1.0
      ],
      [
        "Ġneeds",
        -1.0
      ],
      [
        "Ġmaterial",
        -1.0
      ],
      [
        "¹",
        -1.0
      ],
      [
        "Ġbecome",
        -1.0
      ],
      [
        "Ä",
        -1.0
      ],
      [
        "Ĩ",
        -1.0
      ],
      [
        "ª",
        -1.0
      ],
      [
        "Ġnumber",
        -1.0
      ],
      [
        "Ġinternational",
        -1.0
      ],
      [
        "),",
        -1.0
      ],
      [
        "ĠNASA",
        -1.0
      ],
      [
        "est",
        -1.0
      ],
      [
        "ĠH",
        -1.0
      ],
      [
        "æ",
        -1.0
      ],
      [
        "Ġmen",
        -1.0
      ],
      [
        "Ġside",
        -1.0
      ],
      [
        "To",
        -1.0
      ],
      [
        "Ġwithout",
        -1.0
      ],
      [
        "2",
        -1.0
      ],
      [
        "Ġsurface",
        -1.0
      ],
      [
        "Ġlight",
        -1.0
      ],
      [
        "Ġsimilar",
        -1.0
      ],
      [
        "W",
        -1.0
      ],
      [
        "Ķ",
        -1.0
      ],
      [
        "Ġmust",
        -1.0
      ],
      [
        "Ġdetermine",
        -1.0
      ],
      [
        "ĠEx",
        -1.0
      ],
      [
        "Ġfundamental",
        -1.0
      ],
      [
        "Ġcancer",
        -1.0
      ],
      [
        "le",
        -1.0
      ],
      [
        "Ġmajor",
        -1.0
      ],
      [
        "Ġtheir",
        -1.0
      ],
      [
        "Ġnational",
        -1.0
      ],
      [
        "Ġmatter",
        -1.0
      ],
      [
        "V",
        -1.0
      ],
      [
        "Ġtest",
        -1.0
      ],
      [
        "Ġimportant",
        -1.0
      ],
      [
        "Ġless",
        -1.0
      ],
      [
        "Y",
        -1.0
      ],
      [
        "way",
        -1.0
      ],
      [
        "ĠWorld",
        -1.0
      ],
      [
        "ĠFrench",
        -1.0
      ],
      [
        "Ġhim",
        -1.0
      ],
      [
        "Ï",
        -1.0
      ],
      [
        "ì",
        -1.0
      ],
      [
        "Ġheart",
        -1.0
      ],
      [
        "Ġknowledge",
        -1.0
      ],
      [
        "Ġindividual",
        -1.0
      ],
      [
        "ir",
        -1.0
      ],
      [
        "Ġchemical",
        -1.0
      ],
      [
        "w",
        -1.0
      ],
      [
        "Ġnow",
        -1.0
      ],
      [
        "Ġsince",
        -1.0
      ],
      [
        "Ġof",
        -1.0
      ],
      [
        "Ġair",
        -1.0
      ],
      [
        "Ġ12",
        -1.0
      ],
      [
        "ĠY",
        -1.0
      ],
      [
        "Ġstart",
        -1.0
      ],
      [
        "Ġpopulation",
        -1.0
      ],
      [
        "Ġdown",
        -1.0
      ],
      [
        "Ġmembers",
        -1.0
      ],
      [
        "D",
        -1.0
      ],
      [
        "18",
        -1.0
      ],
      [
        "ĠDevelopment",
        -1.0
      ],
      [
        "Ġinterest",
        -1.0
      ],
      [
        "-",
        -1.0
      ],
      [
        "Ġ'",
        -1.0
      ],
      [
        "Ġthese",
        -1.0
      ],
      [
        "Ġwere",
        -1.0
      ],
      [
        "Ġbetter",
        -1.0
      ],
      [
        "Â",
        -1.0
      ],
      [
        "ĠIsrael",
        -1.0
      ],
      [
        "=",
        -1.0
      ],
      [
        "ĠHe",
        -1.0
      ],
      [
        "9",
        -1.0
      ],
      [
        "o",
        -1.0
      ],
      [
        "Ġparticular",
        -1.0
      ],
      [
        "view",
        -1.0
      ],
      [
        "°",
        -1.0
      ],
      [
        "Ġofficial",
        -1.0
      ],
      [
        "Ġcommon",
        -1.0
      ],
      [
        "re",
        -1.0
      ],
      [
        "Ġcitizen",
        -1.0
      ],
      [
        "Ġkey",
        -1.0
      ],
      [
        "Ġ2",
        -1.0
      ],
      [
        "Ġdays",
        -1.0
      ],
      [
        "Ġbillion",
        -1.0
      ],
      [
        "Ġhaving",
        -1.0
      ],
      [
        "ers",
        -1.0
      ],
      [
        "Ġmany",
        -1.0
      ],
      [
        "Ġquickly",
        -1.0
      ],
      [
        "Ġthemselves",
        -1.0
      ],
      [
        ").",
        -1.0
      ],
      [
        "There",
        -1.0
      ],
      [
        "Ġthis",
        -1.0
      ],
      [
        "Ġneed",
        -1.0
      ],
      [
        "Because",
        -1.0
      ],
      [
        "İ",
        -1.0
      ],
      [
        "Ġdo",
        -1.0
      ],
      [
        "Ġposition",
        -1.0
      ],
      [
        "Ġlevel",
        -1.0
      ],
      [
        "Ġapproximately",
        -1.0
      ],
      [
        "ä",
        -1.0
      ],
      [
        "Ġview",
        -1.0
      ],
      [
        "Ġconditions",
        -1.0
      ],
      [
        "Ġeven",
        -1.0
      ],
      [
        "ĠEnglish",
        -1.0
      ],
      [
        "Ġorigin",
        -1.0
      ],
      [
        "Î",
        -1.0
      ],
      [
        "Ġwhere",
        -1.0
      ],
      [
        "Ġ5",
        -1.0
      ],
      [
        "ĠState",
        -1.0
      ],
      [
        "Ġ200",
        -1.0
      ],
      [
        ".âĢĿ",
        -1.0
      ],
      [
        "10",
        -1.0
      ],
      [
        "Ŀ",
        -1.0
      ],
      [
        "Ġtypical",
        -1.0
      ],
      [
        "as",
        -1.0
      ],
      [
        "Ġdeath",
        -1.0
      ],
      [
        "ĠD",
        -1.0
      ],
      [
        "line",
        -1.0
      ],
      [
        "ĠN",
        -1.0
      ],
      [
        "Ġfriend",
        -1.0
      ],
      [
        "%",
        -1.0
      ],
      [
        "~",
        -1.0
      ],
      [
        "Ġexist",
        -1.0
      ],
      [
        "Ġnext",
        -1.0
      ],
      [
        "or",
        -1.0
      ],
      [
        "Ċ",
        -1.0
      ],
      [
        "h",
        -1.0
      ],
      [
        "Ü",
        -1.0
      ],
      [
        "Ġexperiment",
        -1.0
      ],
      [
        "ĠGeneral",
        -1.0
      ],
      [
        "Ġback",
        -1.0
      ],
      [
        "Ġhard",
        -1.0
      ],
      [
        ";",
        -1.0
      ],
      [
        "on",
        -1.0
      ],
      [
        "ĠB",
        -1.0
      ],
      [
        "Ġcurrent",
        -1.0
      ],
      [
        "Ġinformation",
        -1.0
      ],
      [
        "Ġ$",
        -1.0
      ],
      [
        "://",
        -1.0
      ],
      [
        "Ġlow",
        -1.0
      ],
      [
        "@",
        -1.0
      ],
      [
        "é",
        -1.0
      ],
      [
        "Ġnear",
        -1.0
      ],
      [
        "Ġalready",
        -1.0
      ],
      [
        "Ġpaper",
        -1.0
      ],
      [
        "Ġ--",
        -1.0
      ],
      [
        "Ĺ",
        -1.0
      ],
      [
        "Ġthat",
        -1.0
      ],
      [
        "E",
        -1.0
      ],
      [
        "Ġthey",
        -1.0
      ],
      [
        "Ġfood",
        -1.0
      ],
      [
        "Ġschool",
        -1.0
      ],
      [
        "Ġvalue",
        -1.0
      ],
      [
        "Ġfollow",
        -1.0
      ],
      [
        "ally",
        -1.0
      ],
      [
        "Ġsuggest",
        -1.0
      ],
      [
        "Ġchallenge",
        -1.0
      ],
      [
        "Ġlikely",
        -1.0
      ],
      [
        "l",
        -1.0
      ],
      [
        "er",
        -1.0
      ],
      [
        "Ġmaking",
        -1.0
      ],
      [
        "Ġsame",
        -1.0
      ],
      [
        "ĠNew",
        -1.0
      ],
      [
        "||",
        -1.0
      ],
      [
        "ł",
        -1.0
      ],
      [
        "Ġtwo",
        -1.0
      ],
      [
        "Ġonly",
        -1.0
      ],
      [
        "Ġ13",
        -1.0
      ],
      [
        "Ġend",
        -1.0
      ],
      [
        "Ġcame",
        -1.0
      ],
      [
        "Ġlanguage",
        -1.0
      ],
      [
        "000",
        -1.0
      ],
      [
        "NA",
        -1.0
      ],
      [
        ")",
        -1.0
      ],
      [
        "Ġvarious",
        -1.0
      ],
      [
        "ll",
        -1.0
      ],
      [
        "Ġincluding",
        -1.0
      ],
      [
        "Û",
        -1.0
      ],
      [
        "¨",
        -1.0
      ],
      [
        "Ġacross",
        -1.0
      ],
      [
        "º",
        -1.0
      ],
      [
        "ĠAugust",
        -1.0
      ],
      [
        "11",
        -1.0
      ],
      [
        "Ġduring",
        -1.0
      ],
      [
        "ĠEngland",
        -1.0
      ],
      [
        "Ġhas",
        -1.0
      ],
      [
        "Ġwhile",
        -1.0
      ],
      [
        "Ġcreate",
        -1.0
      ],
      [
        "man",
        -1.0
      ],
      [
        "M",
        -1.0
      ],
      [
        "Ö",
        -1.0
      ],
      [
        "Ġbehavior",
        -1.0
      ],
      [
        "um",
        -1.0
      ],
      [
        "Ġchanges",
        -1.0
      ],
      [
        "less",
        -1.0
      ],
      [
        "Q",
        -1.0
      ],
      [
        "Ġ30",
        -1.0
      ],
      [
        "Ġupon",
        -1.0
      ],
      [
        "¥",
        -1.0
      ],
      [
        "í",
        -1.0
      ],
      [
        "ĠJanuary",
        -1.0
      ],
      [
        "Ġway",
        -1.0
      ],
      [
        "Ġpresent",
        -1.0
      ],
      [
        "¾",
        -1.0
      ],
      [
        "Ġboth",
        -1.0
      ],
      [
        "ĠWashington",
        -1.0
      ],
      [
        "Ġwhat",
        -1.0
      ],
      [
        "Ġreason",
        -1.0
      ],
      [
        "Ġnetwork",
        -1.0
      ],
      [
        "Ġspecial",
        -1.0
      ],
      [
        "ĠCenter",
        -1.0
      ],
      [
        "Ġchange",
        -1.0
      ],
      [
        "Ġdoes",
        -1.0
      ],
      [
        "Ġin",
        -1.0
      ],
      [
        "F",
        -1.0
      ],
      [
        "_",
        -1.0
      ],
      [
        "§",
        -1.0
      ],
      [
        "Ġessential",
        -1.0
      ],
      [
        "Ġresearch",
        -1.0
      ],
      [
        "Õ",
        -1.0
      ],
      [
        "Ġinto",
        -1.0
      ],
      [
        "ĠBut",
        -1.0
      ],
      [
        "Ġyears",
        -1.0
      ],
      [
        "âĢĿ",
        -1.0
      ],
      [
        "like",
        -1.0
      ],
      [
        "Ġwas",
        -1.0
      ],
      [
        "Ġmuch",
        -1.0
      ],
      [
        "²",
        -1.0
      ],
      [
        "Ġweek",
        -1.0
      ],
      [
        "Ġan",
        -1.0
      ],
      [
        "12",
        -1.0
      ],
      [
        "ĠT",
        -1.0
      ],
      [
        "Ġopen",
        -1.0
      ],
      [
        "Ġable",
        -1.0
      ],
      [
        "Ġdesign",
        -1.0
      ],
      [
        "Ġover",
        -1.0
      ],
      [
        "Ġyear",
        -1.0
      ],
      [
        "Ġabout",
        -1.0
      ],
      [
        "Ġher",
        -1.0
      ],
      [
        "b",
        -1.0
      ],
      [
        "ı",
        -1.0
      ],
      [
        "Ġglobal",
        -1.0
      ],
      [
        "Ġjust",
        -1.0
      ],
      [
        "Ġal",
        -1.0
      ],
      [
        "Ġsaid",
        -1.0
      ],
      [
        "Ġhigher",
        -1.0
      ],
      [
        "Ġlead",
        -1.0
      ],
      [
        "Ġor",
        -1.0
      ],
      [
        "ĠRetrieved",
        -1.0
      ],
      [
        "ĠJewish",
        -1.0
      ],
      [
        "Ġwill",
        -1.0
      ],
      [
        "Ġoften",
        -1.0
      ],
      [
        "B",
        -1.0
      ],
      [
        "Ġthose",
        -1.0
      ],
      [
        "Ġstructure",
        -1.0
      ],
      [
        "Ġeducation",
        -1.0
      ],
      [
        "Ġwould",
        -1.0
      ],
      [
        "Ġsingle",
        -1.0
      ],
      [
        "L",
        -1.0
      ],
      [
        "[",
        -1.0
      ],
      [
        "Ġhave",
        -1.0
      ],
      [
        "ĠUS",
        -1.0
      ],
      [
        "O",
        -1.0
      ],
      [
        "Ġ4",
        -1.0
      ],
      [
        "5",
        -1.0
      ],
      [
        "½",
        -1.0
      ],
      [
        "Ġreal",
        -1.0
      ],
      [
        "Ġlaw",
        -1.0
      ],
      [
        "Ġit",
        -1.0
      ],
      [
        "Ġsecurity",
        -1.0
      ],
      [
        "Ġpower",
        -1.0
      ],
      [
        "Ġexercise",
        -1.0
      ],
      [
        "4",
        -1.0
      ],
      [
        "¢",
        -1.0
      ],
      [
        "Ġpotential",
        -1.0
      ],
      [
        ".",
        -1.0
      ],
      [
        "ĠRussia",
        -1.0
      ],
      [
        "Ġcannot",
        -1.0
      ],
      [
        "ŀ",
        -1.0
      ],
      [
        "Ġfunction",
        -1.0
      ],
      [
        "In",
        -1.0
      ],
      [
        "Ġbacteria",
        -1.0
      ],
      [
        "ĠW",
        -1.0
      ],
      [
        "Ġevidence",
        -1.0
      ],
      [
        "Ġthree",
        -1.0
      ],
      [
        "Ġour",
        -1.0
      ],
      [
        "I",
        -1.0
      ],
      [
        "J",
        -1.0
      ],
      [
        "Ġsymptoms",
        -1.0
      ],
      [
        "Ġgroups",
        -1.0
      ],
      [
        "Ġstates",
        -1.0
      ],
      [
        "Ġeye",
        -1.0
      ],
      [
        "Ń",
        -1.0
      ],
      [
        "Ġhome",
        -1.0
      ],
      [
        "Ġsome",
        -1.0
      ],
      [
        "Ġthe",
        -1.0
      ],
      [
        "d",
        -1.0
      ],
      [
        "Ġrate",
        -1.0
      ],
      [
        "r",
        -1.0
      ],
      [
        ".)",
        -1.0
      ],
      [
        "Ġalways",
        -1.0
      ],
      [
        "Ġshould",
        -1.0
      ],
      [
        "Ġclose",
        -1.0
      ],
      [
        "©",
        -1.0
      ],
      [
        "Ġrequire",
        -1.0
      ],
      [
        "Ġread",
        -1.0
      ],
      [
        "Ġgeneral",
        -1.0
      ],
      [
        "Ġall",
        -1.0
      ],
      [
        "ĠSociety",
        -1.0
      ],
      [
        "ĠFirst",
        -1.0
      ],
      [
        "ĠAmerican",
        -1.0
      ],
      [
        "ĠAt",
        -1.0
      ],
      [
        "Ġachieve",
        -1.0
      ],
      [
        "Ġprevious",
        -1.0
      ],
      [
        "t",
        -1.0
      ],
      [
        "ê",
        -1.0
      ],
      [
        "Ġagainst",
        -1.0
      ],
      [
        "ĠP",
        -1.0
      ],
      [
        "ĠZ",
        -1.0
      ],
      [
        "´",
        -1.0
      ],
      [
        "ward",
        -1.0
      ],
      [
        "Ġare",
        -1.0
      ],
      [
        "Ġfive",
        -1.0
      ],
      [
        "Ġlearning",
        -1.0
      ],
      [
        "If",
        -1.0
      ],
      [
        "ing",
        -1.0
      ],
      [
        "Ġdoctor",
        -1.0
      ],
      [
        "day",
        -1.0
      ],
      [
        "Ġhand",
        -1.0
      ],
      [
        "Ġaway",
        -1.0
      ],
      [
        "Ġcommercial",
        -1.0
      ],
      [
        "ĠDecember",
        -1.0
      ],
      [
        "Ġout",
        -1.0
      ],
      [
        "«",
        -1.0
      ],
      [
        "Í",
        -1.0
      ],
      [
        "Ġresearchers",
        -1.0
      ],
      [
        "Ġcause",
        -1.0
      ],
      [
        "www",
        -1.0
      ],
      [
        "Ġdemand",
        -1.0
      ],
      [
        "Ġfamily",
        -1.0
      ],
      [
        "Ġcertain",
        -1.0
      ],
      [
        "Ñ",
        -1.0
      ],
      [
        "Ġunder",
        -1.0
      ],
      [
        "Ġthough",
        -1.0
      ],
      [
        "Ġrecord",
        -1.0
      ],
      [
        "Ġwithin",
        -1.0
      ],
      [
        "Ġunderstand",
        -1.0
      ],
      [
        "Ġterm",
        -1.0
      ],
      [
        "Ã",
        -1.0
      ],
      [
        "Ġtreatment",
        -1.0
      ],
      [
        "17",
        -1.0
      ],
      [
        "The",
        -1.0
      ],
      [
        "Ġcourse",
        -1.0
      ],
      [
        "Ġuntil",
        -1.0
      ],
      [
        "Ġfour",
        -1.0
      ],
      [
        "Ġareas",
        -1.0
      ],
      [
        "Ġright",
        -1.0
      ],
      [
        "×",
        -1.0
      ],
      [
        "ĠApril",
        -1.0
      ],
      [
        "Ġestablish",
        -1.0
      ],
      [
        "Ġbe",
        -1.0
      ],
      [
        "Ġsuch",
        -1.0
      ],
      [
        "Ġsupport",
        -1.0
      ],
      [
        "Ġchild",
        -1.0
      ],
      [
        "Ġhigh",
        -1.0
      ],
      [
        "ĠAn",
        -1.0
      ],
      [
        "Ġfeel",
        -1.0
      ],
      [
        "H",
        -1.0
      ],
      [
        "ings",
        -1.0
      ],
      [
        "Ġlate",
        -1.0
      ],
      [
        "Ġshort",
        -1.0
      ],
      [
        "È",
        -1.0
      ],
      [
        "Ġus",
        -1.0
      ],
      [
        ":",
        -1.0
      ],
      [
        "j",
        -1.0
      ],
      [
        "Ġabove",
        -1.0
      ],
      [
        "Ġvery",
        -1.0
      ],
      [
        "one",
        -1.0
      ],
      [
        "ĠCalifornia",
        -1.0
      ],
      [
        "Ġk",
        -1.0
      ],
      [
        "Ġturn",
        -1.0
      ],
      [
        "!",
        -1.0
      ],
      [
        "to",
        -1.0
      ],
      [
        "ĠFor",
        -1.0
      ],
      [
        "Ġwork",
        -1.0
      ],
      [
        "ĠGovernment",
        -1.0
      ],
      [
        "Ġ18",
        -1.0
      ],
      [
        "ĠNovember",
        -1.0
      ],
      [
        "Ġmeans",
        -1.0
      ],
      [
        "ized",
        -1.0
      ],
      [
        "Ġpopular",
        -1.0
      ],
      [
        "...",
        -1.0
      ],
      [
        "Ġclear",
        -1.0
      ],
      [
        "We",
        -1.0
      ],
      [
        "}",
        -1.0
      ],
      [
        "i",
        -1.0
      ],
      [
        "ĠTo",
        -1.0
      ],
      [
        "Ġeach",
        -1.0
      ],
      [
        "Ġexperience",
        -1.0
      ],
      [
        "Ġhead",
        -1.0
      ],
      [
        "\".",
        -1.0
      ],
      [
        "Ġcost",
        -1.0
      ],
      [
        "Ġsometimes",
        -1.0
      ],
      [
        "Ġcentury",
        -1.0
      ],
      [
        "Ļ",
        -1.0
      ],
      [
        "Ġbusiness",
        -1.0
      ],
      [
        "00",
        -1.0
      ],
      [
        "Ġas",
        -1.0
      ],
      [
        "As",
        -1.0
      ],
      [
        "Ġ3",
        -1.0
      ],
      [
        "ĠâĢĺ",
        -1.0
      ],
      [
        "ĥ",
        -1.0
      ],
      [
        "Ġmicro",
        -1.0
      ],
      [
        "c",
        -1.0
      ],
      [
        "Ġdisease",
        -1.0
      ],
      [
        "Ġ16",
        -1.0
      ],
      [
        "Ġwhether",
        -1.0
      ],
      [
        "Ġseparate",
        -1.0
      ],
      [
        "¡",
        -1.0
      ],
      [
        "Ġfar",
        -1.0
      ],
      [
        "ĠâĢĶ",
        -1.0
      ],
      [
        "ĠSeptember",
        -1.0
      ],
      [
        "Ġsimply",
        -1.0
      ],
      [
        "ĳ",
        -1.0
      ],
      [
        "Ġmeet",
        -1.0
      ],
      [
        "Ġmean",
        -1.0
      ],
      [
        "ment",
        -1.0
      ],
      [
        "30",
        -1.0
      ],
      [
        "Ġstudents",
        -1.0
      ],
      [
        "Ġaverage",
        -1.0
      ],
      [
        "ĠEnvironment",
        -1.0
      ],
      [
        "Ġhttp",
        -1.0
      ],
      [
        "ĠU",
        -1.0
      ],
      [
        "ĠG",
        -1.0
      ],
      [
        "Ġspecific",
        -1.0
      ],
      [
        "ness",
        -1.0
      ],
      [
        "ĠVirginia",
        -1.0
      ],
      [
        "Ġdifferent",
        -1.0
      ],
      [
        "Ġ19",
        -1.0
      ],
      [
        "Ġpressure",
        -1.0
      ],
      [
        "Ġnot",
        -1.0
      ],
      [
        "Ġclaim",
        -1.0
      ],
      [
        "ĠService",
        -1.0
      ],
      [
        "Ġsource",
        -1.0
      ],
      [
        "?",
        -1.0
      ],
      [
        "Å",
        -1.0
      ],
      [
        "\"",
        -1.0
      ],
      [
        "Ġpurpose",
        -1.0
      ],
      [
        "ation",
        -1.0
      ],
      [
        "Ġwant",
        -1.0
      ],
      [
        "Ġcharacter",
        -1.0
      ],
      [
        "Ġyour",
        -1.0
      ],
      [
        "[PAD]",
        -1.0
      ],
      [
        "ĠAssociation",
        -1.0
      ],
      [
        "It",
        -1.0
      ],
      [
        "ed",
        -1.0
      ],
      [
        "Ġchurch",
        -1.0
      ],
      [
        "Ġvariety",
        -1.0
      ],
      [
        "Ġat",
        -1.0
      ],
      [
        "Ġclimate",
        -1.0
      ],
      [
        "Ġspace",
        -1.0
      ],
      [
        "Ġmight",
        -1.0
      ],
      [
        "É",
        -1.0
      ],
      [
        "Ġlast",
        -1.0
      ],
      [
        "Ġ15",
        -1.0
      ],
      [
        "ĠMassachusetts",
        -1.0
      ],
      [
        "k",
        -1.0
      ],
      [
        "Ġme",
        -1.0
      ],
      [
        "Ġlive",
        -1.0
      ],
      [
        "ĠThey",
        -1.0
      ],
      [
        "Ġobject",
        -1.0
      ],
      [
        "Ġsomething",
        -1.0
      ],
      [
        "Ġknow",
        -1.0
      ],
      [
        "Ġgiven",
        -1.0
      ],
      [
        "Ġget",
        -1.0
      ],
      [
        "Ġeffects",
        -1.0
      ],
      [
        "Ġun",
        -1.0
      ],
      [
        "p",
        -1.0
      ],
      [
        "Ġ.",
        -1.0
      ],
      [
        "an",
        -1.0
      ],
      [
        "com",
        -1.0
      ],
      [
        "Ġlittle",
        -1.0
      ],
      [
        "Ġstandard",
        -1.0
      ],
      [
        "Ġresult",
        -1.0
      ],
      [
        "ĠISBN",
        -1.0
      ],
      [
        "Ġplant",
        -1.0
      ],
      [
        "ĠThese",
        -1.0
      ],
      [
        "¶",
        -1.0
      ],
      [
        "Ġput",
        -1.0
      ],
      [
        "[UNK]",
        -1.0
      ],
      [
        "Ġmanufactur",
        -1.0
      ],
      [
        "Ġwords",
        -1.0
      ],
      [
        "ĠWar",
        -1.0
      ],
      [
        "Ġcontrol",
        -1.0
      ],
      [
        "Ġanti",
        -1.0
      ],
      [
        "Ġhad",
        -1.0
      ],
      [
        "Ġmemory",
        -1.0
      ],
      [
        "Ġby",
        -1.0
      ],
      [
        "Ġmy",
        -1.0
      ],
      [
        "Ġproduction",
        -1.0
      ],
      [
        "ĠI",
        -1.0
      ],
      [
        "Ġ&",
        -1.0
      ],
      [
        "Ġis",
        -1.0
      ],
      [
        "ĩ",
        -1.0
      ],
      [
        "Ġfield",
        -1.0
      ],
      [
        "Į",
        -1.0
      ],
      [
        "Ġfocus",
        -1.0
      ],
      [
        "Ġlook",
        -1.0
      ],
      [
        "ĠSchool",
        -1.0
      ],
      [
        "Ġlevels",
        -1.0
      ],
      [
        "Ġper",
        -1.0
      ],
      [
        "Æ",
        -1.0
      ],
      [
        "ĵ",
        -1.0
      ],
      [
        "Ġperhaps",
        -1.0
      ],
      [
        "ĠUnited",
        -1.0
      ],
      [
        "Ġstrong",
        -1.0
      ],
      [
        "ĠAfter",
        -1.0
      ],
      [
        "Ġen",
        -1.0
      ],
      [
        "st",
        -1.0
      ],
      [
        "Ġ",
        -1.0
      ],
      [
        "Ġprevent",
        -1.0
      ],
      [
        "Ġfollowing",
        -1.0
      ],
      [
        "µ",
        -1.0
      ],
      [
        "For",
        -1.0
      ],
      [
        "Ġlater",
        -1.0
      ],
      [
        "ex",
        -1.0
      ],
      [
        "Ġman",
        -1.0
      ],
      [
        "ç",
        -1.0
      ],
      [
        "ķ",
        -1.0
      ],
      [
        "Ġalong",
        -1.0
      ],
      [
        "Ġtake",
        -1.0
      ],
      [
        "Ġpublic",
        -1.0
      ],
      [
        "16",
        -1.0
      ],
      [
        "Ġwell",
        -1.0
      ],
      [
        "Ġcompanies",
        -1.0
      ],
      [
        "ĠE",
        -1.0
      ],
      [
        "Ġsignificant",
        -1.0
      ],
      [
        "Ġtime",
        -1.0
      ],
      [
        "ĠWhen",
        -1.0
      ],
      [
        "Ġage",
        -1.0
      ],
      [
        "Ġhealth",
        -1.0
      ],
      [
        "Ġwomen",
        -1.0
      ],
      [
        "Ġbelieve",
        -1.0
      ],
      [
        "Ġfor",
        -1.0
      ],
      [
        "^",
        -1.0
      ],
      [
        "ly",
        -1.0
      ],
      [
        "Ġtaken",
        -1.0
      ],
      [
        "Ê",
        -1.0
      ],
      [
        "âĢľ",
        -1.0
      ],
      [
        "by",
        -1.0
      ],
      [
        "Ġamount",
        -1.0
      ],
      [
        "Ġfuture",
        -1.0
      ],
      [
        "Ġdid",
        -1.0
      ],
      [
        "X",
        -1.0
      ],
      [
        "Ġimprove",
        -1.0
      ],
      [
        "ĠScience",
        -1.0
      ],
      [
        "ĠA",
        -1.0
      ],
      [
        "ĠS",
        -1.0
      ],
      [
        "[CLS]",
        -1.0
      ],
      [
        ".\"",
        -1.0
      ],
      [
        "âĢĶ",
        -1.0
      ],
      [
        "ĠInstitute",
        -1.0
      ],
      [
        "¦",
        -1.0
      ],
      [
        "ĠâĢĵ",
        -1.0
      ],
      [
        "Ġ194",
        -1.0
      ],
      [
        "Ġon",
        -1.0
      ],
      [
        "¿",
        -1.0
      ],
      [
        "u",
        -1.0
      ],
      [
        "ĠAnd",
        -1.0
      ],
      [
        "N",
        -1.0
      ],
      [
        "Ġline",
        -1.0
      ],
      [
        "ĠWe",
        -1.0
      ],
      [
        "Ġlike",
        -1.0
      ],
      [
        "Ġperiod",
        -1.0
      ],
      [
        "Ġused",
        -1.0
      ],
      [
        "&",
        -1.0
      ],
      [
        "Ġthrough",
        -1.0
      ],
      [
        "ĠâĢľ",
        -1.0
      ],
      [
        "Ġconsider",
        -1.0
      ],
      [
        "7",
        -1.0
      ],
      [
        "Ġnegative",
        -1.0
      ],
      [
        "Ġdegree",
        -1.0
      ],
      [
        "Ġtechnology",
        -1.0
      ],
      [
        "Ī",
        -1.0
      ],
      [
        "Ł",
        -1.0
      ],
      [
        "ľ",
        -1.0
      ],
      [
        "Ġother",
        -1.0
      ],
      [
        "ĠIt",
        -1.0
      ],
      [
        "Ġsystems",
        -1.0
      ],
      [
        "Ġ9",
        -1.0
      ],
      [
        "Ġdocument",
        -1.0
      ],
      [
        "Ġcome",
        -1.0
      ],
      [
        "Ġhere",
        -1.0
      ],
      [
        "¬",
        -1.0
      ],
      [
        "Ġobserv",
        -1.0
      ],
      [
        "Ġword",
        -1.0
      ],
      [
        "è",
        -1.0
      ],
      [
        "Ġtoday",
        -1.0
      ],
      [
        "Ġcan",
        -1.0
      ],
      [
        "Ġsee",
        -1.0
      ],
      [
        "Ġsituation",
        -1.0
      ],
      [
        "ĠUniversity",
        -1.0
      ],
      [
        "ĠGerman",
        -1.0
      ],
      [
        "Ġnon",
        -1.0
      ],
      [
        "Ġproblem",
        -1.0
      ],
      [
        "Ġcell",
        -1.0
      ],
      [
        "Ġperson",
        -1.0
      ],
      [
        "ë",
        -1.0
      ],
      [
        "Ġfirst",
        -1.0
      ],
      [
        "Ġtype",
        -1.0
      ],
      [
        "Ġtimes",
        -1.0
      ],
      [
        "Ġeffort",
        -1.0
      ],
      [
        "Ġclass",
        -1.0
      ],
      [
        "Ġleft",
        -1.0
      ],
      [
        "Ġpart",
        -1.0
      ],
      [
        "ĠJ",
        -1.0
      ],
      [
        "Ġgovernment",
        -1.0
      ],
      [
        "Ġblood",
        -1.0
      ],
      [
        "Ġstudies",
        -1.0
      ],
      [
        "|",
        -1.0
      ],
      [
        "ĠFebruary",
        -1.0
      ],
      [
        "ħ",
        -1.0
      ],
      [
        "å",
        -1.0
      ],
      [
        "Ġminutes",
        -1.0
      ],
      [
        ",âĢĿ",
        -1.0
      ],
      [
        "Ġsouth",
        -1.0
      ],
      [
        "Ġbody",
        -1.0
      ],
      [
        "Ġleast",
        -1.0
      ],
      [
        "Ġdone",
        -1.0
      ],
      [
        "s",
        -1.0
      ],
      [
        "Ġcare",
        -1.0
      ],
      [
        ",",
        -1.0
      ],
      [
        "Ġextreme",
        -1.0
      ],
      [
        "Ġbook",
        -1.0
      ],
      [
        "ĠK",
        -1.0
      ],
      [
        "Ġpoint",
        -1.0
      ],
      [
        "<",
        -1.0
      ],
      [
        "Ð",
        -1.0
      ],
      [
        "Ġstudy",
        -1.0
      ],
      [
        "[EOS]",
        -1.0
      ],
      [
        "Ġissue",
        -1.0
      ],
      [
        "Ġ7",
        -1.0
      ],
      [
        "Ġsays",
        -1.0
      ],
      [
        "ĠResearch",
        -1.0
      ],
      [
        "ĠEducation",
        -1.0
      ],
      [
        "20",
        -1.0
      ],
      [
        "ĠInternational",
        -1.0
      ],
      [
        "Ġaround",
        -1.0
      ],
      [
        "g",
        -1.0
      ],
      [
        "Ģ",
        -1.0
      ],
      [
        "m",
        -1.0
      ],
      [
        "Ġfull",
        -1.0
      ],
      [
        "Ò",
        -1.0
      ],
      [
        "Ġday",
        -1.0
      ],
      [
        "50",
        -1.0
      ],
      [
        "[MASK]",
        -1.0
      ],
      [
        "ĠR",
        -1.0
      ],
      [
        "Ġ(",
        -1.0
      ],
      [
        "\\",
        -1.0
      ],
      [
        "ĠAmerica",
        -1.0
      ],
      [
        "Ġplay",
        -1.0
      ],
      [
        "th",
        -1.0
      ],
      [
        "a",
        -1.0
      ],
      [
        "Ġwhich",
        -1.0
      ],
      [
        "Ġbeen",
        -1.0
      ],
      [
        "Ġalso",
        -1.0
      ],
      [
        "Ġcells",
        -1.0
      ],
      [
        "Ġattempt",
        -1.0
      ],
      [
        "Ġalmost",
        -1.0
      ],
      [
        "`",
        -1.0
      ],
      [
        "Ġ197",
        -1.0
      ],
      [
        "ĠWhat",
        -1.0
      ],
      [
        "ĠIn",
        -1.0
      ],
      [
        "Ġmade",
        -1.0
      ],
      [
        "à",
        -1.0
      ],
      [
        "ĠV",
        -1.0
      ],
      [
        "Ġplace",
        -1.0
      ],
      [
        "Ġ6",
        -1.0
      ],
      [
        "Ġdue",
        -1.0
      ],
      [
        "Ġown",
        -1.0
      ],
      [
        "ĭ",
        -1.0
      ],
      [
        "Ġcase",
        -1.0
      ],
      [
        "Ġp",
        -1.0
      ],
      [
        "According",
        -1.0
      ],
      [
        "Ġgive",
        -1.0
      ],
      [
        "ĠAfrica",
        -1.0
      ],
      [
        "Ġgoing",
        -1.0
      ],
      [
        "3",
        -1.0
      ],
      [
        "ner",
        -1.0
      ],
      [
        "Ġbehind",
        -1.0
      ],
      [
        "and",
        -1.0
      ],
      [
        "Ġtrans",
        -1.0
      ],
      [
        "ship",
        -1.0
      ],
      [
        "ary",
        -1.0
      ],
      [
        "Ġsite",
        -1.0
      ],
      [
        "Ġwe",
        -1.0
      ],
      [
        "Ġmachine",
        -1.0
      ],
      [
        "Ġtoo",
        -1.0
      ],
      [
        "Ġnatural",
        -1.0
      ],
      [
        "Ġincreasing",
        -1.0
      ],
      [
        "ĸ",
        -1.0
      ],
      [
        "ĠThat",
        -1.0
      ],
      [
        "Ġallow",
        -1.0
      ],
      [
        "n",
        -1.0
      ],
      [
        "ĠSome",
        -1.0
      ],
      [
        "Ġwhen",
        -1.0
      ],
      [
        "Ġvideo",
        -1.0
      ],
      [
        "ĠIf",
        -1.0
      ],
      [
        "Ġwar",
        -1.0
      ],
      [
        "Ġchildren",
        -1.0
      ],
      [
        "Ġhuman",
        -1.0
      ],
      [
        "Ġhospital",
        -1.0
      ],
      [
        "Ġevery",
        -1.0
      ],
      [
        "Ġearly",
        -1.0
      ],
      [
        "Ġand",
        -1.0
      ],
      [
        "Ġpatients",
        -1.0
      ],
      [
        "G",
        -1.0
      ],
      [
        "ĠYork",
        -1.0
      ],
      [
        "Ġdon",
        -1.0
      ],
      [
        "£",
        -1.0
      ],
      [
        "Ġreceive",
        -1.0
      ],
      [
        "R",
        -1.0
      ],
      [
        "âĢĻ",
        -1.0
      ],
      [
        "Ġdevelop",
        -1.0
      ],
      [
        "Ġmost",
        -1.0
      ],
      [
        "ization",
        -1.0
      ],
      [
        "Ġrelationship",
        -1.0
      ],
      [
        "Ġmanagement",
        -1.0
      ],
      [
        "Ġcalled",
        -1.0
      ],
      [
        "Ġmeasure",
        -1.0
      ],
      [
        "Ġappear",
        -1.0
      ],
      [
        "Ġnew",
        -1.0
      ],
      [
        "Ġ14",
        -1.0
      ],
      [
        "Ó",
        -1.0
      ],
      [
        "Ġground",
        -1.0
      ],
      [
        "Ġthings",
        -1.0
      ],
      [
        "ĠWilliam",
        -1.0
      ],
      [
        "Ġhe",
        -1.0
      ],
      [
        "Ġ2012",
        -1.0
      ],
      [
        "Ġsecond",
        -1.0
      ],
      [
        "Ġdifficult",
        -1.0
      ],
      [
        "ï",
        -1.0
      ],
      [
        "ĠOn",
        -1.0
      ],
      [
        "Ġtemperature",
        -1.0
      ],
      [
        "Ġthen",
        -1.0
      ],
      [
        "Ġsmall",
        -1.0
      ],
      [
        "Ġaddition",
        -1.0
      ],
      [
        "ĠHealth",
        -1.0
      ],
      [
        "Ġnecessary",
        -1.0
      ],
      [
        "Ġa",
        -1.0
      ],
      [
        "Ġwater",
        -1.0
      ],
      [
        "Ġfind",
        -1.0
      ],
      [
        "Ġapproach",
        -1.0
      ],
      [
        "K",
        -1.0
      ],
      [
        "ĠThe",
        -1.0
      ],
      [
        "»",
        -1.0
      ],
      [
        "ations",
        -1.0
      ],
      [
        "Ġde",
        -1.0
      ],
      [
        "Ġprogram",
        -1.0
      ],
      [
        "Ġdamage",
        -1.0
      ],
      [
        "Ġothers",
        -1.0
      ],
      [
        "y",
        -1.0
      ],
      [
        "Ġmore",
        -1.0
      ],
      [
        "ĠM",
        -1.0
      ],
      [
        "Ġstill",
        -1.0
      ],
      [
        "ĠLondon",
        -1.0
      ],
      [
        "Ġavailable",
        -1.0
      ],
      [
        "Ġprocess",
        -1.0
      ],
      [
        "Ġ[",
        -1.0
      ],
      [
        "Ġbenefit",
        -1.0
      ],
      [
        "Ľ",
        -1.0
      ],
      [
        "Ġ1",
        -1.0
      ],
      [
        "#",
        -1.0
      ],
      [
        "Ġnever",
        -1.0
      ],
      [
        "ĠOne",
        -1.0
      ],
      [
        "x",
        -1.0
      ],
      [
        "Ġwhy",
        -1.0
      ],
      [
        "Ġbased",
        -1.0
      ],
      [
        "Ġland",
        -1.0
      ],
      [
        "Ġknown",
        -1.0
      ]
    ],
    "byte_fallback": false
  }
}