{
  "version": "1.0",
  "truncation": null,
  "padding": null,
  "added_tokens": [
    {
      "id": 0,
      "content": "[UNK]",
      "single_word": false,
      "lstrip": false,
      "rstrip": false,
      "normalized": false,
      "special": true
    },
    {
      "id": 1,
      "content": "[CLS]",
      "single_word": false,
      "lstrip": false,
      "rstrip": false,
      "normalized": false,
      "special": true
    },
    {
      "id": 2,
      "content": "[SEP]",
      "single_word": false,
      "lstrip": false,
      "rstrip": false,
      "normalized": false,
      "special": true
    },
    {
      "id": 3,
      "content": "[PAD]",
      "single_word": false,
      "lstrip": false,
      "rstrip": false,
      "normalized": false,
      "special": true
    },
    {
      "id": 4,
      "content": "[MASK]",
      "single_word": false,
      "lstrip": false,
      "rstrip": false,
      "normalized": false,
      "special": true
    },
    {
      "id": 5,
      "content": "[EOS]",
      "single_word": false,
      "lstrip": false,
      "rstrip": false,
      "normalized": false,
      "special": true
    }
  ],
  "normalizer": null,
  "pre_tokenizer": {
    "type": "ByteLevel",
    "add_prefix_space": false,
    "trim_offsets": true,
    "use_regex": true
  },
  "post_processor": null,
  "decoder": null,
  "model": {
    "type": "BPE",
    "dropout": null,
    "unk_token": "[UNK]",
    "continuing_subword_prefix": null,
    "end_of_word_suffix": null,
    "fuse_unk": false,
    "byte_fallback": false,
    "ignore_merges": false,
    "vocab": {
      "[UNK]": 0,
      "[CLS]": 1,
      "[SEP]": 2,
      "[PAD]": 3,
      "[MASK]": 4,
      "[EOS]": 5,
      "!": 6,
      "\"": 7,
      "#": 8,
      "$": 9,
      "%": 10,
      "&": 11,
      "'": 12,
      "(": 13,
      ")": 14,
      "*": 15,
      "+": 16,
      ",": 17,
      "-": 18,
      ".": 19,
      "/": 20,
      "0": 21,
      "1": 22,
      "2": 23,
      "3": 24,
      "4": 25,
      "5": 26,
      "6": 27,
      "7": 28,
      "8": 29,
      "9": 30,
      ":": 31,
      ";": 32,
      "<": 33,
      "=": 34,
      ">": 35,
      "?": 36,
      "@": 37,
      "A": 38,
      "B": 39,
      "C": 40,
      "D": 41,
      "E": 42,
      "F": 43,
      "G": 44,
      "H": 45,
      "I": 46,
      "J": 47,
      "K": 48,
      "L": 49,
      "M": 50,
      "N": 51,
      "O": 52,
      "P": 53,
      "Q": 54,
      "R": 55,
      "S": 56,
      "T": 57,
      "U": 58,
      "V": 59,
      "W": 60,
      "X": 61,
      "Y": 62,
      "Z": 63,
      "[": 64,
      "\\": 65,
      "]": 66,
      "^": 67,
      "_": 68,
      "`": 69,
      "a": 70,
      "b": 71,
      "c": 72,
      "d": 73,
      "e": 74,
      "f": 75,
      "g": 76,
      "h": 77,
      "i": 78,
      "j": 79,
      "k": 80,
      "l": 81,
      "m": 82,
      "n": 83,
      "o": 84,
      "p": 85,
      "q": 86,
      "r": 87,
      "s": 88,
      "t": 89,
      "u": 90,
      "v": 91,
      "w": 92,
      "x": 93,
      "y": 94,
      "z": 95,
      "|": 96,
      "~": 97,
      "¡": 98,
      "¢": 99,
      "£": 100,
      "¤": 101,
      "¥": 102,
      "¦": 103,
      "§": 104,
      "¨": 105,
      "©": 106,
      "ª": 107,
      "«": 108,
      "¬": 109,
      "®": 110,
      "¯": 111,
      "°": 112,
      "±": 113,
      "²": 114,
      "³": 115,
      "´": 116,
      "µ": 117,
      "¶": 118,
      "·": 119,
      "¸": 120,
      "¹": 121,
      "º": 122,
      "»": 123,
      "¼": 124,
      "½": 125,
      "¾": 126,
      "¿": 127,
      "Â": 128,
      "Ã": 129,
      "Ä": 130,
      "Å": 131,
      "Ġ": 132,
      "Ģ": 133,
      "ģ": 134,
      "Ĥ": 135,
      "ĥ": 136,
      "Ħ": 137,
      "ħ": 138,
      "Ĩ": 139,
      "ĩ": 140,
      "Ī": 141,
      "ī": 142,
      "Ĭ": 143,
      "ĭ": 144,
      "Į": 145,
      "İ": 146,
      "ı": 147,
      "Ĳ": 148,
      "ĳ": 149,
      "ķ": 150,
      "ĸ": 151,
      "Ĺ": 152,
      "ĺ": 153,
      "Ļ": 154,
      "ļ": 155,
      "Ľ": 156,
      "ł": 157,
      "Ń": 158,
      "Äł": 159,
      "Äłt": 160,
      "ĠÄł": 161,
      "he": 162,
      "in": 163,
      "Äła": 164,
      "re": 165,
      "Äłthe": 166,
      "on": 167,
      "er": 168,
      "at": 169,
      "Äłs": 170,
      "Äło": 171,
      "en": 172,
      "an": 173,
      "es": 174,
      "is": 175,
      "Äłc": 176,
      "or": 177,
      "it": 178,
      "Äłw": 179,
      "al": 180,
      "ed": 181,
      "ing": 182,
      "Äłp": 183,
      "Äłan": 184,
      "ou": 185,
      "ar": 186,
      "Äłb": 187,
      "Äłf": 188,
      "Äłof": 189,
      "Äłto": 190,
      "ic": 191,
      "Äłin": 192,
      "¢Ä": 193,
      "ion": 194,
      "ÄĬ": 195,
      "Äłm": 196,
      "Äłand": 197,
      "Äłd": 198,
      "le": 199,
      "ro": 200,
      "as": 201,
      "ent": 202,
      "Äłth": 203,
      "Äłh": 204,
      "ct": 205,
      "il": 206,
      "st": 207,
      "ve": 208,
      "om": 209,
      "Äłe": 210,
      "Äłre": 211,
      "ly": 212,
      "Ã¢Ä": 213,
      "Äłl": 214,
      "Äłn": 215,
      "Ã¢Ä¢Ä": 216,
      "et": 217,
      "se": 218,
      "ol": 219,
      "ation": 220,
      "im": 221,
      "Äłis": 222,
      "id": 223,
      "ot": 224,
      "ÄłT": 225,
      "ch": 226,
      "ce": 227,
      "ur": 228,
      "Äłbe": 229,
      "ut": 230,
      "ow": 231,
      "Äłg": 232,
      "ra": 233,
      "ig": 234,
      "Äłthat": 235,
      "ver": 236,
      "ir": 237,
      "Äłfor": 238,
      "and": 239,
      "ÄłA": 240,
      "un": 241,
      "ul": 242,
      "us": 243,
      "Äłon": 244,
      "ÄłS": 245,
      "ĠÄłthe": 246,
      "Äłst": 247,
      "Äły": 248,
      "am": 249,
      "ay": 250,
      "ad": 251,
      "ith": 252,
      "el": 253,
      "ÄłI": 254,
      "ÄłC": 255,
      "her": 256,
      "Ġ.": 257,
      "Ġ,": 258,
      "if": 259,
      "Äłas": 260,
      "Äłpro": 261,
      "ter": 262,
      "Äłare": 263,
      "od": 264,
      "Äłcon": 265,
      "Äłyou": 266,
      "ment": 267,
      "ge": 268,
      "Äłwith": 269,
      "op": 270,
      "ab": 271,
      "Äłwh": 272,
      "Äłit": 273,
      "th": 274,
      "Äłor": 275,
      "ate": 276,
      "Äłal": 277,
      "ist": 278,
      "ers": 279,
      "ess": 280,
      "ÄłThe": 281,
      "ill": 282,
      "ies": 283,
      "res": 284,
      "ÄłM": 285,
      "ect": 286,
      "um": 287,
      "ere": 288,
      "em": 289,
      "Ã¢Ä¢Ä»": 290,
      "ac": 291,
      "est": 292,
      "ĠÄłw": 293,
      "ity": 294,
      "of": 295,
      "ÄłP": 296,
      "ore": 297,
      "ive": 298,
      "rom": 299,
      "Äłhe": 300,
      "qu": 301,
      "os": 302,
      "ld": 303,
      "oun": 304,
      "ke": 305,
      "ant": 306,
      "Äłex": 307,
      "ec": 308,
      "iv": 309,
      "pp": 310,
      "ain": 311,
      "Äłcom": 312,
      "ĠÄłc": 313,
      "ĠÄłs": 314,
      "ÄłB": 315,
      "igh": 316,
      "ĠÄłp": 317,
      "ave": 318,
      "ud": 319,
      "ort": 320,
      "oc": 321,
      "Äłv": 322,
      "ĠÄłof": 323,
      "Äłsu": 324,
      "ĠÄła": 325,
      "ÄłH": 326,
      "Äłby": 327,
      "ial": 328,
      "ĠÄłb": 329,
      "ÄłW": 330,
      "ĠÄłf": 331,
      "Äłcan": 332,
      "ure": 333,
      "The": 334,
      "Äłat": 335,
      "ĠÄłin": 336,
      "Äłch": 337,
      "Äłde": 338,
      "ÄłD": 339,
      "Äłfrom": 340,
      "ri": 341,
      "Äłwas": 342,
      "art": 343,
      "ical": 344,
      "ew": 345,
      "ÄłE": 346,
      "ĠÄłand": 347,
      "ÄłR": 348,
      "ÄłF": 349,
      "og": 350,
      "Äłr": 351,
      "ear": 352,
      "all": 353,
      "ĠÄłm": 354,
      "our": 355,
      "ĠÄłto": 356,
      "Äłle": 357,
      "ÄłÃ¢Ä¢Ä": 358,
      "Äłthis": 359,
      "out": 360,
      "Äłhave": 361,
      "Äłnot": 362,
      "du": 363,
      "ight": 364,
      "ÄłN": 365,
      "pt": 366,
      "00": 367,
      "ich": 368,
      "Äłun": 369,
      "ĠÄłd": 370,
      "ions": 371,
      "ost": 372,
      "ould": 373,
      "ÄłG": 374,
      "gh": 375,
      "end": 376,
      "Äłsh": 377,
      "ĠÄĬ": 378,
      "ated": 379,
      "ome": 380,
      "ÄłL": 381,
      "Äłsp": 382,
      "ine": 383,
      "per": 384,
      "use": 385,
      "ag": 386,
      "ard": 387,
      "act": 388,
      "Äłab": 389,
      "pl": 390,
      "Äłwe": 391,
      "ast": 392,
      "Äłwor": 393,
      "Äłse": 394,
      "ell": 395,
      "ans": 396,
      "Äłim": 397,
      "age": 398,
      "ough": 399,
      "ust": 400,
      "are": 401,
      "iz": 402,
      "Äłpl": 403,
      "ff": 404,
      "ther": 405,
      "ide": 406,
      "ÄłIn": 407,
      "ous": 408,
      "ak": 409,
      "ound": 410,
      "ult": 411,
      "Äłus": 412,
      "Äłtheir": 413,
      "hen": 414,
      "ood": 415,
      "Äłen": 416,
      "ĠÄłh": 417,
      "der": 418,
      "ib": 419,
      "19": 420,
      "ia": 421,
      "Äłint": 422,
      "Äłyour": 423,
      "ong": 424,
      "ru": 425,
      "ap": 426,
      "Ã¢Ä¢Ä¿": 427,
      "ip": 428,
      "orm": 429,
      "ÄłO": 430,
      "ations": 431,
      "vel": 432,
      "Äłk": 433,
      "Äłthey": 434,
      "cc": 435,
      "Äłwhich": 436,
      "Äład": 437,
      "able": 438,
      "Äłwill": 439,
      "ater": 440,
      "ary": 441,
      "av": 442,
      "Äłcont": 443,
      "ÄłU": 444,
      "ire": 445,
      "Äłall": 446,
      "ild": 447,
      "Äłdis": 448,
      "nt": 449,
      "so": 450,
      "Äłinc": 451,
      "ence": 452,
      "one": 453,
      "Äłne": 454,
      "up": 455,
      "Äłres": 456,
      "Äłmore": 457,
      "ks": 458,
      "ally": 459,
      "ep": 460,
      "ÄłJ": 461,
      "Äłcomp": 462,
      "Äłhas": 463,
      "ry": 464,
      "ĠÄłt": 465,
      "Äłar": 466,
      "ents": 467,
      "20": 468,
      "ach": 469,
      "ass": 470,
      "ind": 471,
      "ign": 472,
      "ance": 473,
      "Äłdo": 474,
      "ake": 475,
      "Ġ-": 476,
      "ase": 477,
      "Äłman": 478,
      "ĠÄłn": 479,
      "ÄłTh": 480,
      "ose": 481,
      "reat": 482,
      "ition": 483,
      "ction": 484,
      "Äłbut": 485,
      "ime": 486,
      "Äłcl": 487,
      "Äłimp": 488,
      "Äłwere": 489,
      "ĠÄłre": 490,
      "ress": 491,
      "Äłte": 492,
      "ice": 493,
      "Äłother": 494,
      "ber": 495,
      "very": 496,
      "ace": 497,
      "ÄłÃ¢Ä¢Ä¾": 498,
      "ens": 499,
      "Äłper": 500,
      "Äłme": 501,
      "ount": 502,
      "'s": 503,
      "ub": 504,
      "ish": 505,
      "ĠÄłl": 506,
      "ors": 507,
      "Äłalso": 508,
      "ory": 509,
      "Äłone": 510,
      ").": 511,
      "ame": 512,
      "ok": 513,
      "ord": 514,
      "ack": 515,
      "ang": 516,
      "Äłj": 517,
      "Äłpre": 518,
      "Äłthan": 519,
      "ite": 520,
      "ike": 521,
      "ree": 522,
      "eop": 523,
      "now": 524,
      "ue": 525,
      "Äłapp": 526,
      "ces": 527,
      "Äłout": 528,
      "ci": 529,
      "low": 530,
      "ren": 531,
      "mer": 532,
      "ie": 533,
      "iff": 534,
      "ĠÄłe": 535,
      "olog": 536,
      "form": 537,
      "Äłabout": 538,
      "eople": 539,
      "Äłstud": 540,
      "Äłev": 541,
      "ric": 542,
      "Äłwho": 543,
      "Äłso": 544,
      "ĠÄłis": 545,
      "Äłpart": 546,
      "ail": 547,
      "ays": 548,
      "ile": 549,
      "ates": 550,
      "Äłthem": 551,
      "ons": 552,
      "ÄłSt": 553,
      "Äłsy": 554,
      "ings": 555,
      "ĠÄłS": 556,
      "Äłhis": 557,
      "ian": 558,
      "ĠÄłA": 559,
      "erv": 560,
      "Äłqu": 561,
      "te": 562,
      "over": 563,
      "ific": 564,
      "ll": 565,
      "ĠÄłg": 566,
      "In": 567,
      "ph": 568,
      "ÄłIt": 569,
      "ual": 570,
      "Äłyear": 571,
      "irst": 572,
      "Äłup": 573,
      "tern": 574,
      "rit": 575,
      "Äłmay": 576,
      "Äłcomm": 577,
      "Äłbec": 578,
      "here": 579,
      "ÄłK": 580,
      "Äłsome": 581,
      "ause": 582,
      "Äłrec": 583,
      "rough": 584,
      "vers": 585,
      "Äłbeen": 586,
      "lic": 587,
      "ove": 588,
      "lud": 589,
      "row": 590,
      "Äłwhen": 591,
      "ob": 592,
      "ond": 593,
      "alth": 594,
      "ĠÄłC": 595,
      "Äłtime": 596,
      "ms": 597,
      "lect": 598,
      "Äłthere": 599,
      "we": 600,
      "ys": 601,
      "ities": 602,
      "ÄłCh": 603,
      "Äłover": 604,
      "Äłpeople": 605,
      "velop": 606,
      "Äłhow": 607,
      "ĠÄłbe": 608,
      "Äłinto": 609,
      "ÄłThis": 610,
      "Äłwork": 611,
      "ts": 612,
      "ject": 613,
      "les": 614,
      "Äłtra": 615,
      "ments": 616,
      "Äłour": 617,
      "stem": 618,
      "Äłdiff": 619,
      "ning": 620,
      "Äłits": 621,
      "lp": 622,
      "Äłtr": 623,
      "Äłcol": 624,
      "ĠÄłthat": 625,
      "ple": 626,
      "red": 627,
      "Äłag": 628,
      "ffect": 629,
      "ook": 630,
      "Äłthese": 631,
      "ating": 632,
      "Äłcons": 633,
      "ÄłV": 634,
      "ious": 635,
      "ced": 636,
      "Äłknow": 637,
      "ative": 638,
      "Äłuse": 639,
      "Äłbet": 640,
      "Äłro": 641,
      "wo": 642,
      "ular": 643,
      "Äłmost": 644,
      "uc": 645,
      "hed": 646,
      "Äłlike": 647,
      "ov": 648,
      "ool": 649,
      "Äłneed": 650,
      "ational": 651,
      "Äłact": 652,
      "Äłacc": 653,
      "Äłra": 654,
      "Äłunder": 655,
      "ĠÄłfor": 656,
      "Äłbl": 657,
      "10": 658,
      "Äłnew": 659,
      "200": 660,
      "fter": 661,
      "yp": 662,
      "Äłhelp": 663,
      "ath": 664,
      "Äłhad": 665,
      "ÄłY": 666,
      "Äłif": 667,
      "Äłdes": 668,
      "Äłany": 669,
      "Äłchild": 670,
      "Äłsa": 671,
      "Äłgr": 672,
      "ise": 673,
      "its": 674,
      "uring": 675,
      "iet": 676,
      "Äłwould": 677,
      "18": 678,
      "Äłrep": 679,
      "iss": 680,
      "ont": 681,
      "oss": 682,
      "ĠÄłst": 683,
      "Äłthrough": 684,
      "Äłwhat": 685,
      "ics": 686,
      "Äłsuch": 687,
      "Äłrel": 688,
      "Äłfirst": 689,
      "rib": 690,
      "ark": 691,
      "),": 692,
      "Äłph": 693,
      "Äłprodu": 694,
      "Äłinclud": 695,
      "rop": 696,
      "eth": 697,
      "ful": 698,
      "ne": 699,
      "oth": 700,
      "ener": 701,
      "oin": 702,
      "Äłprov": 703,
      "als": 704,
      "Äłac": 705,
      "ink": 706,
      "Äłdevelop": 707,
      "ange": 708,
      "ÄłUn": 709,
      "ert": 710,
      "ied": 711,
      "xt": 712,
      "erm": 713,
      "Äłam": 714,
      "uch": 715,
      "ÄłAn": 716,
      "Äłind": 717,
      "own": 718,
      "Äłused": 719,
      "ility": 720,
      "Äłfe": 721,
      "other": 722,
      "old": 723,
      "ten": 724,
      "ĠÄłM": 725,
      "Äłoff": 726,
      "ĠÄłon": 727,
      "ef": 728,
      "Äłsc": 729,
      "Äłmany": 730,
      "Äłspec": 731,
      "cess": 732,
      "ible": 733,
      "ife": 734,
      "ĠÄłP": 735,
      "Th": 736,
      "ased": 737,
      "ower": 738,
      "ract": 739,
      "ween": 740,
      "ble": 741,
      "aw": 742,
      "Äłem": 743,
      "sel": 744,
      "Äłreg": 745,
      "Äłonly": 746,
      "ures": 747,
      "Äłpr": 748,
      "ĠÄłwith": 749,
      "ution": 750,
      "ĠÄłas": 751,
      "Äłinf": 752,
      "Äłdiffere": 753,
      "ĠÄły": 754,
      "ram": 755,
      "Äłass": 756,
      "hes": 757,
      "ting": 758,
      "Äłexp": 759,
      "Äłtwo": 760,
      "ĠÄłwh": 761,
      "cy": 762,
      "Äłsystem": 763,
      "ily": 764,
      "vent": 765,
      "Äładd": 766,
      "ÄłÃ¢Ä¢Äµ": 767,
      "Äłdec": 768,
      "omm": 769,
      "ade": 770,
      "ever": 771,
      "gan": 772,
      "Äłno": 773,
      "Äłsupp": 774,
      "ss": 775,
      "meric": 776,
      "ered": 777,
      "arch": 778,
      "ident": 779,
      "ted": 780,
      "ĠÄłThe": 781,
      "201": 782,
      "chool": 783,
      "ick": 784,
      "fore": 785,
      "ants": 786,
      "ĠÄłpro": 787,
      "Äłwater": 788,
      "Äłwell": 789,
      "Äłshould": 790,
      "Äłsub": 791,
      "any": 792,
      "Äłob": 793,
      "Äłyears": 794,
      "ork": 795,
      "ology": 796,
      "Äłhealth": 797,
      "Äłsur": 798,
      "chn": 799,
      "ural": 800,
      "Ġ:": 801,
      "ÄłHe": 802,
      "ĠÄłI": 803,
      "Äłsm": 804,
      "Äłfl": 805,
      "Äłrem": 806,
      "ness": 807,
      "Äłpres": 808,
      "ĠÄłB": 809,
      "Äłatt": 810,
      "ists": 811,
      "ĠÄłare": 812,
      "Äłget": 813,
      "ines": 814,
      "Äłhigh": 815,
      "ivers": 816,
      "ature": 817,
      "ited": 818,
      "Äłgo": 819,
      "Ãĥ": 820,
      "ĠÄłor": 821,
      "land": 822,
      "Äłinv": 823,
      "Äłbetween": 824,
      "get": 825,
      "ins": 826,
      "ives": 827,
      "Äłmake": 828,
      "wn": 829,
      "oy": 830,
      "gy": 831,
      "ata": 832,
      "ually": 833,
      "Äłrese": 834,
      "Äłcould": 835,
      "cept": 836,
      "ĠÄłR": 837,
      "Äłbu": 838,
      "Äłmod": 839,
      "Äłimport": 840,
      "formation": 841,
      "ĠÄłH": 842,
      "Äłform": 843,
      "cer": 844,
      "erson": 845,
      "Äłwhere": 846,
      "Äłnum": 847,
      "ically": 848,
      "ollow": 849,
      "urn": 850,
      "arm": 851,
      "ng": 852,
      "ved": 853,
      "ict": 854,
      "Äłear": 855,
      "oup": 856,
      "hat": 857,
      "Äłinter": 858,
      "Äłexper": 859,
      "Äłlear": 860,
      "ds": 861,
      "Äłafter": 862,
      "Äłtrans": 863,
      "Äłher": 864,
      "iew": 865,
      "ism": 866,
      "Äłpol": 867,
      "Äłinst": 868,
      "led": 869,
      "Äłdifferent": 870,
      "eg": 871,
      "Äłthose": 872,
      "Äłthen": 873,
      "Äłfound": 874,
      "tle": 875,
      "ases": 876,
      "ues": 877,
      "Ã¢Ä¢Ä¾": 878,
      "aking": 879,
      "..": 880,
      "ather": 881,
      "Äłsim": 882,
      "ages": 883,
      "Äłsign": 884,
      "Äłmed": 885,
      "Äłlong": 886,
      "Äłed": 887,
      "Äłresp": 888,
      "Äłincre": 889,
      "cent": 890,
      "Äłcar": 891,
      "ruct": 892,
      "ĠÄłit": 893,
      "ices": 894,
      "ized": 895,
      "Äłeven": 896,
      "Äłjust": 897,
      "Äłeffect": 898,
      "Äłlar": 899,
      "Äłvar": 900,
      "ĠÄłD": 901,
      "ÄłAmeric": 902,
      "ublic": 903,
      "Äłcent": 904,
      "iron": 905,
      "ize": 906,
      "Äłway": 907,
      "Äłexam": 908,
      "Äłworld": 909,
      "Äłbecause": 910,
      "Äłhum": 911,
      "hip": 912,
      "Äłevery": 913,
      "ck": 914,
      "Äłprocess": 915,
      "ward": 916,
      "Äłtyp": 917,
      "ody": 918,
      "ĠÄłE": 919,
      "ĠÄłby": 920,
      "imes": 921,
      "gg": 922,
      "Äłref": 923,
      "ĠÄłv": 924,
      "Äłke": 925,
      "Äłchildren": 926,
      "ĠÄłW": 927,
      "air": 928,
      "Äłcount": 929,
      "Äłdet": 930,
      "Äłgener": 931,
      "Äłcall": 932,
      "ection": 933,
      "ock": 934,
      "Äłvery": 935,
      "overn": 936,
      "io": 937,
      "Äłprog": 938,
      "rain": 939,
      "Äłsec": 940,
      "ĠÄłhe": 941,
      "ĠÄłan": 942,
      "onom": 943,
      "Äłsee": 944,
      "Äłbeing": 945,
      "ivid": 946,
      "Äłdisc": 947,
      "Äłsaid": 948,
      "omp": 949,
      "app": 950,
      "Äłfun": 951,
      "ential": 952,
      "Äłca": 953,
      "Äłlife": 954,
      "Äłresult": 955,
      "This": 956,
      "ÄłWe": 957,
      "Äłimportant": 958,
      "to": 959,
      "Äłeach": 960,
      "Äłrequ": 961,
      "Ã¢Ä¢Äµ": 962,
      "Äłgrow": 963,
      "ĠÄłwas": 964,
      "ĠÄłse": 965,
      "ĠÄłat": 966,
      "Äłsk": 967,
      "Äłtechn": 968,
      "Äłpat": 969,
      "ality": 970,
      "Äłext": 971,
      "Äłmuch": 972,
      "Ġ)": 973,
      "Äłlead": 974,
      "Äłsoc": 975,
      "ale": 976,
      "cient": 977,
      "viron": 978,
      "read": 979,
      "Äłcre": 980,
      "ĠÄłG": 981,
      "||": 982,
      "15": 983,
      "ient": 984,
      "Äłart": 985,
      "Äłshe": 986,
      "Äłdep": 987,
      "iversity": 988,
      "Äłset": 989,
      "inal": 990,
      "Äłfact": 991,
      "Äłlevel": 992,
      "Äłcommun": 993,
      "stand": 994,
      "iel": 995,
      "ĠÄłF": 996,
      "ex": 997,
      "ĠÄłex": 998,
      "ĠÄłN": 999,
      "ÄłPro": 1000,
      "hem": 1001,
      "Äłduring": 1002,
      "Äłread": 1003,
      "ral": 1004,
      "ÄłThey": 1005,
      "imate": 1006,
      "12": 1007,
      "Äłloc": 1008,
      "uth": 1009,
      "Äłfollow": 1010,
      "Äłmin": 1011,
      "pec": 1012,
      "Äłfam": 1013,
      "Äłpartic": 1014,
      "ĠÃ¢Ä¢Ä»": 1015,
      "ÄłAs": 1016,
      "Äłproble": 1017,
      "Äłstudents": 1018,
      "iqu": 1019,
      "akes": 1020,
      "ven": 1021,
      "ands": 1022,
      "ÄłAl": 1023,
      "ĠÄłL": 1024,
      "rol": 1025,
      "ix": 1026,
      "Äłmon": 1027,
      "Äłdef": 1028,
      "Äłstudy": 1029,
      "ars": 1030,
      "Äłfood": 1031,
      "Äłdoes": 1032,
      "Äłinformation": 1033,
      "Äłstr": 1034,
      "000": 1035,
      "ince": 1036,
      "Äłexpl": 1037,
      "ier": 1038,
      "ran": 1039,
      "Äłgra": 1040,
      "Äłins": 1041,
      "Äłent": 1042,
      "orn": 1043,
      "Äłcur": 1044,
      "omen": 1045,
      "port": 1046,
      "Äłown": 1047,
      "Äłright": 1048,
      "irect": 1049,
      "Äłmade": 1050,
      "ĠÄłfrom": 1051,
      "ax": 1052,
      "Äłschool": 1053,
      "Äłav": 1054,
      "self": 1055,
      "the": 1056,
      "Ġs": 1057,
      "ĠÄłal": 1058,
      "ute": 1059,
      "Äłgl": 1060,
      "Äłmy": 1061,
      "ished": 1062,
      "ulation": 1063,
      "ty": 1064,
      "Äłfind": 1065,
      "Äłgroup": 1066,
      "Äłhist": 1067,
      "ides": 1068,
      "17": 1069,
      "ron": 1070,
      "Äłdist": 1071,
      "Äłdata": 1072,
      "ury": 1073,
      "oh": 1074,
      "eng": 1075,
      "Äłpop": 1076,
      "Äłend": 1077,
      "Äłthree": 1078,
      "vironment": 1079,
      "dition": 1080,
      "ĠÄłnot": 1081,
      "lear": 1082,
      "ÄłIf": 1083,
      "iety": 1084,
      "Äłsmall": 1085,
      "199": 1086,
      "eed": 1087,
      "Äłperson": 1088,
      "Äłsame": 1089,
      "ital": 1090,
      "ency": 1091,
      "ee": 1092,
      "Ã¢Ä¢Ä¶": 1093,
      "Äłdi": 1094,
      "ÄłFor": 1095,
      "Äłlit": 1096,
      "cl": 1097,
      "ves": 1098,
      "Äłsol": 1099,
      "ĠÄłT": 1100,
      "nce": 1101,
      "Äłtest": 1102,
      "Äłshow": 1103,
      "Äłdise": 1104,
      "Äłtreat": 1105,
      "Äłboth": 1106,
      "iving": 1107,
      "oint": 1108,
      "aj": 1109,
      "ft": 1110,
      "Äłgood": 1111,
      "ross": 1112,
      "ains": 1113,
      "Äłtake": 1114,
      "ouse": 1115,
      "uss": 1116,
      "Äłback": 1117,
      "hers": 1118,
      "16": 1119,
      "pect": 1120,
      "Äłday": 1121,
      "Äłusing": 1122,
      "ead": 1123,
      "day": 1124,
      "Äłoften": 1125,
      "Äłprot": 1126,
      "Äłcomple": 1127,
      "owever": 1128,
      "ÄłAr": 1129,
      "outh": 1130,
      "Äłmain": 1131,
      "Äłbefore": 1132,
      "Äłresearch": 1133,
      "ergy": 1134,
      "Äłwhile": 1135,
      "Äłvis": 1136,
      "Äłocc": 1137,
      "Äłco": 1138,
      "ĠÄłch": 1139,
      "Äłec": 1140,
      "ters": 1141,
      "Äłmust": 1142,
      "ah": 1143,
      "Äłnumber": 1144,
      "Äłthough": 1145,
      "Äłval": 1146,
      "ional": 1147,
      "Äłnow": 1148,
      "Äłserv": 1149,
      "ets": 1150,
      "Äłsupport": 1151,
      "ividual": 1152,
      "ring": 1153,
      "Äłagain": 1154,
      "used": 1155,
      "ared": 1156,
      "Äłbo": 1157,
      "Äłless": 1158,
      "ĠÄłcan": 1159,
      "ÄłNew": 1160,
      "aterial": 1161,
      "Äłaround": 1162,
      "ĠÄłJ": 1163,
      "overnment": 1164,
      "way": 1165,
      "Äłbel": 1166,
      "Äłhuman": 1167,
      "ris": 1168,
      "Äłpower": 1169,
      "Äłredu": 1170,
      "Äłser": 1171,
      "Äłris": 1172,
      "Äłbody": 1173,
      "ids": 1174,
      "Äłsom": 1175,
      "ĠÄłun": 1176,
      "iven": 1177,
      "Äłmem": 1178,
      "Äłelect": 1179,
      "Äłorgan": 1180,
      "acter": 1181,
      "Äłest": 1182,
      "osed": 1183,
      "Äłactiv": 1184,
      "de": 1185,
      "Äłposs": 1186,
      "amp": 1187,
      "ially": 1188,
      "ium": 1189,
      "ined": 1190,
      "ash": 1191,
      "ug": 1192,
      "Äłplan": 1193,
      "rent": 1194,
      "itions": 1195,
      "oci": 1196,
      "Äłstart": 1197,
      "ired": 1198,
      "Äłcare": 1199,
      "ĠÄłhave": 1200,
      "ording": 1201,
      "Äłstate": 1202,
      "ration": 1203,
      "Äłconf": 1204,
      "agn": 1205,
      "az": 1206,
      "Äłchar": 1207,
      "30": 1208,
      "ull": 1209,
      "ization": 1210,
      "ger": 1211,
      "Ã¢Ä¢": 1212,
      "bers": 1213,
      "Äłdesign": 1214,
      "els": 1215,
      "Äłclass": 1216,
      "Äłcommon": 1217,
      "Äłreport": 1218,
      "Äłcell": 1219,
      "Äłdown": 1220,
      "Äłeduc": 1221,
      "Äłthink": 1222,
      "raph": 1223,
      "Äłincluding": 1224,
      "ries": 1225,
      "ination": 1226,
      "oms": 1227,
      "ption": 1228,
      "man": 1229,
      "ffic": 1230,
      "ived": 1231,
      "aving": 1232,
      "Äłlook": 1233,
      "Äłdid": 1234,
      "erest": 1235,
      "ÃĤ": 1236,
      "Äłcour": 1237,
      "orth": 1238,
      "ÄłInd": 1239,
      ".,": 1240,
      "angu": 1241,
      "Äłknown": 1242,
      "less": 1243,
      "Äłequ": 1244,
      "ĠÄłO": 1245,
      "ĠÄłIn": 1246,
      "Äłexperi": 1247,
      "Äłcor": 1248,
      "itive": 1249,
      "Äłeas": 1250,
      "arent": 1251,
      "Äłop": 1252,
      "Äłwrit": 1253,
      "iod": 1254,
      "Äłhim": 1255,
      "50": 1256,
      "ton": 1257,
      "Äłallow": 1258,
      "ethod": 1259,
      "ev": 1260,
      "Äłlarge": 1261,
      "ources": 1262,
      "Äłunderstand": 1263,
      "ering": 1264,
      "stit": 1265,
      "duct": 1266,
      "Äłquest": 1267,
      "ertain": 1268,
      "ense": 1269,
      "ĠÄłsh": 1270,
      "ÄłThere": 1271,
      "iness": 1272,
      "Äłcalled": 1273,
      "cience": 1274,
      "Äłdr": 1275,
      "ĠÄłcon": 1276,
      "ability": 1277,
      "Äłbuild": 1278,
      "bs": 1279,
      "reen": 1280,
      "rap": 1281,
      "line": 1282,
      "ify": 1283,
      "hy": 1284,
      "Äłchange": 1285,
      "Äłconsid": 1286,
      "Äłpo": 1287,
      "Äłgreat": 1288,
      "Äłplace": 1289,
      "Äładv": 1290,
      "fess": 1291,
      "Äłpract": 1292,
      "lish": 1293,
      "Äłindividual": 1294,
      "ĠÄłthis": 1295,
      "ĠÄłr": 1296,
      "ajor": 1297,
      "ner": 1298,
      "ason": 1299,
      "Äłstill": 1300,
      "Äłcontin": 1301,
      "Äłpur": 1302,
      "ior": 1303,
      "Äłmet": 1304,
      "ified": 1305,
      "Ġ'": 1306,
      "14": 1307,
      "Äłwant": 1308,
      "illion": 1309,
      "Äłwithout": 1310,
      "Äłpublic": 1311,
      "An": 1312,
      "Äłmight": 1313,
      "cing": 1314,
      "lu": 1315,
      "ÄłThese": 1316,
      "Äłexample": 1317,
      "au": 1318,
      "ians": 1319,
      "ÄłBut": 1320,
      "Äłenergy": 1321,
      "Äłphys": 1322,
      "atural": 1323,
      "Äłmaterial": 1324,
      "ently": 1325,
      "alk": 1326,
      "Äłfew": 1327,
      "ills": 1328,
      "ÄłÃ¢Ä¢Äº": 1329,
      "Äłbeh": 1330,
      "ision": 1331,
      "Äłpot": 1332,
      "ole": 1333,
      "Äłdisease": 1334,
      "ield": 1335,
      "ats": 1336,
      "atic": 1337,
      "Äłproduct": 1338,
      "ÄłAnd": 1339,
      "gin": 1340,
      "Äłenvironment": 1341,
      "Äłhand": 1342,
      "ĠÄłwhich": 1343,
      "com": 1344,
      "Äłlight": 1345,
      "ained": 1346,
      "ological": 1347,
      "ĠÄłim": 1348,
      "Äłdirect": 1349,
      "Äłdevelopment": 1350,
      "eb": 1351,
      "ental": 1352,
      "ected": 1353,
      "Äłimm": 1354,
      "ean": 1355,
      "Äłide": 1356,
      "Äłwithin": 1357,
      "Äłchang": 1358,
      "ĠÄłyou": 1359,
      "iver": 1360,
      "ways": 1361,
      "rist": 1362,
      "Äłdon": 1363,
      "und": 1364,
      "uses": 1365,
      "ccess": 1366,
      "Ġ;": 1367,
      "Äłiss": 1368,
      "Äłplay": 1369,
      "veral": 1370,
      "Äłappro": 1371,
      "Äłgu": 1372,
      "ĠÄłle": 1373,
      "Äłgen": 1374,
      "ÄłYou": 1375,
      "enef": 1376,
      "Äłbre": 1377,
      "Äłarea": 1378,
      "Äłsym": 1379,
      "Äłlearn": 1380,
      "cial": 1381,
      "Äłair": 1382,
      "Äłmat": 1383,
      "Äłpresent": 1384,
      "tt": 1385,
      "ern": 1386,
      "ik": 1387,
      "ples": 1388,
      "ÄłIs": 1389,
      "Äłve": 1390,
      "Äłident": 1391,
      "ator": 1392,
      "Äłproject": 1393,
      "Äłimpro": 1394,
      "ission": 1395,
      "It": 1396,
      "lished": 1397,
      "oid": 1398,
      "Äłtem": 1399,
      "Äłret": 1400,
      "Äłdem": 1401,
      "ÄłUniversity": 1402,
      "Äłbelie": 1403,
      "Äłbas": 1404,
      "ogn": 1405,
      "Äłeconom": 1406,
      "13": 1407,
      "Äłbest": 1408,
      "arc": 1409,
      "ÄłSp": 1410,
      "str": 1411,
      "ards": 1412,
      "Äłblood": 1413,
      "Äładdition": 1414,
      "ware": 1415,
      "Äłant": 1416,
      "ÄłCon": 1417,
      "resent": 1418,
      "ÄłAmerican": 1419,
      "Äłprogram": 1420,
      "crib": 1421,
      "Äłcap": 1422,
      "ites": 1423,
      "ients": 1424,
      "ailable": 1425,
      ".\"": 1426,
      "upp": 1427,
      "icle": 1428,
      "ĠÄłtheir": 1429,
      "ograph": 1430,
      "Äłinvol": 1431,
      "sy": 1432,
      "ww": 1433,
      "Äłbetter": 1434,
      "orld": 1435,
      "ote": 1436,
      "ling": 1437,
      "me": 1438,
      "Äłlast": 1439,
      "Äłorder": 1440,
      "Äłhistory": 1441,
      "acc": 1442,
      "ource": 1443,
      "Äłmeas": 1444,
      "ificant": 1445,
      "Äłsocial": 1446,
      "ank": 1447,
      "ilar": 1448,
      "Äłprovide": 1449,
      "Äłtoo": 1450,
      "ended": 1451,
      "til": 1452,
      "Äłmus": 1453,
      "ĠÄłab": 1454,
      "ences": 1455,
      "ÄłSh": 1456,
      "Äłeng": 1457,
      "Äłpos": 1458,
      "ĠÄłwere": 1459,
      "ĠÄłU": 1460,
      "ories": 1461,
      "Äłwomen": 1462,
      "Äłinclude": 1463,
      "Äłcause": 1464,
      "Äłstand": 1465,
      "ĠÄłwe": 1466,
      "aper": 1467,
      "ret": 1468,
      "ably": 1469,
      "Äłcontrol": 1470,
      "isc": 1471,
      "Äłrisk": 1472,
      "Äłpain": 1473,
      "Äłanother": 1474,
      "11": 1475,
      "ÄłEx": 1476,
      "Äłoccur": 1477,
      "Äłtop": 1478,
      "anguage": 1479,
      "Äłmove": 1480,
      "Äłmark": 1481,
      "ends": 1482,
      "Äłsl": 1483,
      "Äłpass": 1484,
      "ots": 1485,
      "Äłlow": 1486,
      "ÄłRes": 1487,
      "olution": 1488,
      "Äłseveral": 1489,
      "Äłcult": 1490,
      "osp": 1491,
      "Äłopp": 1492,
      "Äłanal": 1493,
      "ĠÄłthey": 1494,
      "earch": 1495,
      "Äłbecome": 1496,
      "Äłable": 1497,
      "Äłplant": 1498,
      "Äłkeep": 1499,
      "round": 1500,
      "Äłold": 1501,
      "Äłreal": 1502,
      "idence": 1503,
      "Äłthings": 1504,
      "irc": 1505,
      "ÄłEng": 1506,
      "Äłlearning": 1507,
      "ĠThe": 1508,
      "25": 1509,
      "Äłter": 1510,
      "ÄłHowever": 1511,
      "uthor": 1512,
      "icult": 1513,
      "Äłhome": 1514,
      "ÄłAd": 1515,
      "Äłconst": 1516,
      "ĠÄłpl": 1517,
      "Äłoper": 1518,
      "Äłele": 1519,
      "ina": 1520,
      "ining": 1521,
      "Äłland": 1522,
      "Äłareas": 1523,
      "Äłearly": 1524,
      "Äłfamily": 1525,
      "Äłinterest": 1526,
      "'t": 1527,
      "Äłanim": 1528,
      "hile": 1529,
      "Äłsaf": 1530,
      "ĠÄłall": 1531,
      "ames": 1532,
      "Äłsecond": 1533,
      "ĠÄłres": 1534,
      "ones": 1535,
      "Äłmethod": 1536,
      "What": 1537,
      "rodu": 1538,
      "Äłche": 1539,
      "Äłcal": 1540,
      "urther": 1541,
      "par": 1542,
      "Äłmajor": 1543,
      "Äłdev": 1544,
      "af": 1545,
      "por": 1546,
      "ately": 1547,
      "Äłperform": 1548,
      "Äłmean": 1549,
      "erc": 1550,
      "Ġ).": 1551,
      "Äłorig": 1552,
      "Äłhere": 1553,
      "Äłes": 1554,
      "Äłpar": 1555,
      "Äłlaw": 1556,
      "Äłgovernment": 1557,
      "Äłprevent": 1558,
      "ystem": 1559,
      "ances": 1560,
      "ecess": 1561,
      "min": 1562,
      "usiness": 1563,
      "Äłpercent": 1564,
      "Äłmeans": 1565,
      "Äłel": 1566,
      "Äłet": 1567,
      "ided": 1568,
      "une": 1569,
      "Äłleg": 1570,
      "Äłmil": 1571,
      "Äłcurrent": 1572,
      "inc": 1573,
      "ears": 1574,
      "ÄłCl": 1575,
      "Äłbenef": 1576,
      "Äłhig": 1577,
      "ledge": 1578,
      "Äłintern": 1579,
      "Äłproper": 1580,
      "ÄłÃ¢Ä¢Ä¶": 1581,
      "We": 1582,
      "Äłopen": 1583,
      "ised": 1584,
      "ÄłPh": 1585,
      "Äłagainst": 1586,
      "Äłcost": 1587,
      "40": 1588,
      "ĠÄłk": 1589,
      "Äłscient": 1590,
      "Äłwar": 1591,
      "oks": 1592,
      "ither": 1593,
      "Äłhapp": 1594,
      "Äłhead": 1595,
      "ploy": 1596,
      "atory": 1597,
      "view": 1598,
      "aster": 1599,
      "ned": 1600,
      "ÄłUnited": 1601,
      "Äłage": 1602,
      "eral": 1603,
      "Äłsw": 1604,
      "ged": 1605,
      "Ġ/": 1606,
      "Äłindu": 1607,
      "ope": 1608,
      "Äłlittle": 1609,
      "urop": 1610,
      "ÄłCol": 1611,
      "ething": 1612,
      "not": 1613,
      "Äłfree": 1614,
      "ÄłWhen": 1615,
      "ÄłEn": 1616,
      "Äłamong": 1617,
      "Äłavailable": 1618,
      "vious": 1619,
      "Äłfore": 1620,
      "Äłnon": 1621,
      "ÄłStates": 1622,
      "Äłsignificant": 1623,
      "Äłrest": 1624,
      "Äłnear": 1625,
      "uture": 1626,
      "elf": 1627,
      "Äłaccess": 1628,
      "ggest": 1629,
      "Äłproblem": 1630,
      "Äłlim": 1631,
      "ape": 1632,
      "Äłamount": 1633,
      "ek": 1634,
      "Äłwhe": 1635,
      "ird": 1636,
      "Äłrun": 1637,
      "ĠÄłhis": 1638,
      "If": 1639,
      "aps": 1640,
      "aken": 1641,
      "ried": 1642,
      "ending": 1643,
      "Äłpossible": 1644,
      "pr": 1645,
      "ortun": 1646,
      "agement": 1647,
      "Äłaffect": 1648,
      "Äłfeel": 1649,
      "ention": 1650,
      "though": 1651,
      "ĠÄłcont": 1652,
      "Äłuntil": 1653,
      "Äłobject": 1654,
      "asing": 1655,
      "ÄłCan": 1656,
      "pecially": 1657,
      "rans": 1658,
      "Äłdel": 1659,
      "Äłnatural": 1660,
      "gen": 1661,
      "Äłsays": 1662,
      "Äłfin": 1663,
      "Äłlab": 1664,
      "ÄłPl": 1665,
      "ication": 1666,
      "raw": 1667,
      "Äłcho": 1668,
      "Äłparticular": 1669,
      "ĠÄład": 1670,
      "ĠÄłhas": 1671,
      "Äłbi": 1672,
      "icro": 1673,
      "etic": 1674,
      "Äłconn": 1675,
      "ured": 1676,
      "198": 1677,
      "Äłtreatment": 1678,
      "--": 1679,
      "Â¦": 1680,
      "ox": 1681,
      "Äłfac": 1682,
      "Äłimpact": 1683,
      "Äłothers": 1684,
      "ators": 1685,
      "ths": 1686,
      "ember": 1687,
      "Äłess": 1688,
      "ilt": 1689,
      "ively": 1690,
      "24": 1691,
      "Äłsince": 1692,
      "idd": 1693,
      "ours": 1694,
      "Äłfollowing": 1695,
      "Äłpoint": 1696,
      "ÄłSe": 1697,
      "ĠÄłbut": 1698,
      "Äłperiod": 1699,
      "Äłassoci": 1700,
      "fric": 1701,
      "Äłalong": 1702,
      "ression": 1703,
      "ĠS": 1704,
      "Äłfre": 1705,
      "ps": 1706,
      "ĠÄłK": 1707,
      "Äłstruct": 1708,
      "ored": 1709,
      "Äłcountry": 1710,
      "ique": 1711,
      "ym": 1712,
      "Äłmar": 1713,
      "Äłdue": 1714,
      "Äłpost": 1715,
      "Äłbased": 1716,
      "Äłlist": 1717,
      "obal": 1718,
      "Äłhard": 1719,
      "ÄłWhat": 1720,
      "Äłspecies": 1721,
      "work": 1722,
      "ĠÄłone": 1723,
      "Äłput": 1724,
      "Äłbook": 1725,
      "Äłfour": 1726,
      "Äłlevels": 1727,
      "Äłeducation": 1728,
      "ĠÄłmore": 1729,
      "Äłname": 1730,
      "ohn": 1731,
      "oes": 1732,
      "Äłfoc": 1733,
      "Äłcome": 1734,
      "Äłneeds": 1735,
      "Äłproblems": 1736,
      "lo": 1737,
      "Äłtimes": 1738,
      "Äłlo": 1739,
      "oney": 1740,
      "Äłacross": 1741,
      "Äłturn": 1742,
      "Äłpress": 1743,
      "ÄłAt": 1744,
      "Äłpotential": 1745,
      "Äłtre": 1746,
      "Äłsay": 1747,
      "Äłcomput": 1748,
      "Äłmen": 1749,
      "ÄłCent": 1750,
      "Äłyoung": 1751,
      "ems": 1752,
      "be": 1753,
      "ÄłZ": 1754,
      "Äłprom": 1755,
      "Äłinvest": 1756,
      "Äłflow": 1757,
      "ÄłTe": 1758,
      "Äłsuccess": 1759,
      "Äłspecific": 1760,
      "Äłcourse": 1761,
      ",\"": 1762,
      "pro": 1763,
      "ÄłTo": 1764,
      "Äłgiven": 1765,
      "ĠÄłwill": 1766,
      "aining": 1767,
      "ĠÄłinc": 1768,
      "As": 1769,
      "Äłcertain": 1770,
      "hern": 1771,
      "Äłcomb": 1772,
      "ÄłGod": 1773,
      "Â¢": 1774,
      "Äłalways": 1775,
      "gether": 1776,
      "int": 1777,
      "omes": 1778,
      "Äłcond": 1779,
      "Äłheart": 1780,
      "face": 1781,
      "ĠÄłÃ¢Ä¢Ä¾": 1782,
      "atch": 1783,
      "ray": 1784,
      "100": 1785,
      "Äłcase": 1786,
      "Äłrece": 1787,
      "Äłlikely": 1788,
      "rid": 1789,
      "oft": 1790,
      "Äłdifficult": 1791,
      "Äłfar": 1792,
      "rad": 1793,
      "Äłvol": 1794,
      "Äłlocal": 1795,
      "fact": 1796,
      "Äłlater": 1797,
      "utions": 1798,
      "ÄłComm": 1799,
      "ÄłQ": 1800,
      "Äłsing": 1801,
      "ĠÄłde": 1802,
      "apt": 1803,
      "Äłprofess": 1804,
      "Äłview": 1805,
      "Äłsystems": 1806,
      "pos": 1807,
      "cri": 1808,
      "Äłmult": 1809,
      "Äłspecial": 1810,
      "Äłtechnology": 1811,
      "ables": 1812,
      "Äłcommunity": 1813,
      "ateg": 1814,
      "Äłvir": 1815,
      "ÄłDe": 1816,
      "Äłenc": 1817,
      "Äłteac": 1818,
      "fer": 1819,
      "ires": 1820,
      "Ġ2": 1821,
      "Äłcreat": 1822,
      "Äłbro": 1823,
      "ilities": 1824,
      "Äłlet": 1825,
      "Äłconsum": 1826,
      "rim": 1827,
      "alf": 1828,
      "Äłparent": 1829,
      "omet": 1830,
      "Äłsuggest": 1831,
      "Äłshort": 1832,
      "ode": 1833,
      "ÄłOn": 1834,
      "60": 1835,
      "ler": 1836,
      "sw": 1837,
      "oring": 1838,
      "Äłey": 1839,
      "urity": 1840,
      "rug": 1841,
      "ĠÄłother": 1842,
      "Äłlanguage": 1843,
      "Äłincrease": 1844,
      "Äłtype": 1845,
      "Äłresults": 1846,
      "most": 1847,
      "ights": 1848,
      "Äłpast": 1849,
      "amm": 1850,
      "ÄłMed": 1851,
      "ptoms": 1852,
      "Äłapplic": 1853,
      "Äłcreate": 1854,
      "Ãİ": 1855,
      "Äłdays": 1856,
      "aves": 1857,
      "Äłnext": 1858,
      "Äłcells": 1859,
      "ument": 1860,
      "ene": 1861,
      "ÄłNational": 1862,
      "Äłsimilar": 1863,
      "Äłvarious": 1864,
      "nal": 1865,
      "edi": 1866,
      "yd": 1867,
      "Äłbusiness": 1868,
      "Äłspace": 1869,
      "ÄłAll": 1870,
      "aching": 1871,
      "Äłmaking": 1872,
      "Äłbegin": 1873,
      "mit": 1874,
      "Äłill": 1875,
      "Äłcancer": 1876,
      "ready": 1877,
      "side": 1878,
      "Äłaut": 1879,
      "Äłdeath": 1880,
      "Äłfunction": 1881,
      "Äłexperience": 1882,
      "cle": 1883,
      "ream": 1884,
      "Äłmillion": 1885,
      "Äłrad": 1886,
      "val": 1887,
      "Äłfuture": 1888,
      "Äłgive": 1889,
      "acy": 1890,
      "ĠÄłapp": 1891,
      "iting": 1892,
      "Äłpe": 1893,
      "thing": 1894,
      "ruction": 1895,
      "Äłsomething": 1896,
      "oot": 1897,
      "Äłer": 1898,
      "ane": 1899,
      "Äłwhy": 1900,
      "for": 1901,
      "lement": 1902,
      "NA": 1903,
      "tal": 1904,
      "Äłbrain": 1905,
      "Äłtogether": 1906,
      "Äłmov": 1907,
      "Äłpolit": 1908,
      "hemical": 1909,
      "istic": 1910,
      "ification": 1911,
      "Äłmot": 1912,
      "oll": 1913,
      "ĠÄłper": 1914,
      "Äławay": 1915,
      "aces": 1916,
      "Äłusually": 1917,
      "ÄłOr": 1918,
      "ysis": 1919,
      "selves": 1920,
      "ĠÄłj": 1921,
      "lease": 1922,
      "Äłwords": 1923,
      "197": 1924,
      "Äłbehav": 1925,
      "chie": 1926,
      "Äłask": 1927,
      "overed": 1928,
      "aid": 1929,
      "rel": 1930,
      "lection": 1931,
      "ÄłAfric": 1932,
      "bon": 1933,
      "ches": 1934,
      "ales": 1935,
      "Äłtoday": 1936,
      "olic": 1937,
      "ecause": 1938,
      "ĠÄłyour": 1939,
      "Äłcentury": 1940,
      "Äłestab": 1941,
      "Äłsit": 1942,
      "Äłobs": 1943,
      "21": 1944,
      "aim": 1945,
      "Äłnecess": 1946,
      "sych": 1947,
      "//": 1948,
      "ung": 1949,
      "There": 1950,
      "Äłcirc": 1951,
      "ĠÄłsp": 1952,
      "Äłrespons": 1953,
      "Äłdiscuss": 1954,
      "SA": 1955,
      "Äłsens": 1956,
      "Äłopt": 1957,
      "urb": 1958,
      "orts": 1959,
      "cul": 1960,
      "Äłdam": 1961,
      "ley": 1962,
      "erence": 1963,
      "Äłenough": 1964,
      "Äłpopulation": 1965,
      "St": 1966,
      "oon": 1967,
      "Äłz": 1968,
      "Äłterm": 1969,
      "Äłhaving": 1970,
      "ott": 1971,
      "Äłplants": 1972,
      "Äłtemper": 1973,
      "ush": 1974,
      "Äłleast": 1975,
      "Äłworking": 1976,
      "Äłespecially": 1977,
      "23": 1978,
      "ĠÄłen": 1979,
      "leep": 1980,
      "ĠÄłalso": 1981,
      "ĠA": 1982,
      "Äłleft": 1983,
      "Äłrequire": 1984,
      "Äłlower": 1985,
      "urch": 1986,
      "Äłexist": 1987,
      "Äłworks": 1988,
      "ĠÄłSt": 1989,
      "ÄłChrist": 1990,
      "ae": 1991,
      "ĠÄłpart": 1992,
      "Äłdescrib": 1993,
      "Äłclear": 1994,
      "Äłresearc": 1995,
      "Äłconditions": 1996,
      "Â©": 1997,
      "Äłdeterm": 1998,
      "Äłcomplete": 1999,
      "You": 2000,
      "ipp": 2001,
      "ued": 2002,
      "Äłcases": 2003,
      "Äłfil": 2004,
      "iol": 2005,
      "Äłauthor": 2006,
      "Äłconcer": 2007,
      "ĠÄłCh": 2008,
      "ann": 2009,
      "ormal": 2010,
      "Äłkey": 2011,
      "Äłphysical": 2012,
      "ext": 2013,
      "roll": 2014,
      "oman": 2015,
      "ER": 2016,
      "mber": 2017,
      "ĠÄłout": 2018,
      "Äłways": 2019,
      "arth": 2020,
      "Äłwhole": 2021,
      "Äłstrong": 2022,
      "ving": 2023,
      "Äłtry": 2024,
      "lean": 2025,
      "Äłabove": 2026,
      "Äłseen": 2027,
      "epend": 2028,
      "iation": 2029,
      "nd": 2030,
      "atter": 2031,
      "ections": 2032,
      "plic": 2033,
      "ibility": 2034,
      "For": 2035,
      "Äłself": 2036,
      "Äłimprove": 2037,
      "Äłhigher": 2038,
      "ges": 2039,
      "icial": 2040,
      "Äłrange": 2041,
      "atures": 2042,
      "ĠÄłhad": 2043,
      "Äłknowledge": 2044,
      "Äłsubject": 2045,
      "by": 2046,
      "reg": 2047,
      "Äłpaper": 2048,
      "lying": 2049,
      "ols": 2050,
      "ĠÄłcomp": 2051,
      "ords": 2052,
      "Äłstudies": 2053,
      "wards": 2054,
      "Äłgrowth": 2055,
      "Äłquestion": 2056,
      "22": 2057,
      "When": 2058,
      "Ġ\"": 2059,
      "ĠC": 2060,
      "using": 2061,
      "Äłchall": 2062,
      "Äłrole": 2063,
      "Äłaccording": 2064,
      "iam": 2065,
      "ĠÄłup": 2066,
      "Äłmakes": 2067,
      "utes": 2068,
      "ÄłWith": 2069,
      "Äłens": 2070,
      "Äłtext": 2071,
      "Äłcharacter": 2072,
      "ivity": 2073,
      "Äłtypes": 2074,
      "Äłproducts": 2075,
      "ĠÄłthem": 2076,
      "Äłdeveloped": 2077,
      "Äłmodel": 2078,
      "Äłfurther": 2079,
      "Äłmind": 2080,
      "amin": 2081,
      "ival": 2082,
      "Äłdeg": 2083,
      "ips": 2084,
      "Äłrecogn": 2085,
      "erve": 2086,
      "Äłfull": 2087,
      "ask": 2088,
      "ÄłSc": 2089,
      "ĠÄłthere": 2090,
      "Äłalready": 2091,
      "iple": 2092,
      "Äłchanges": 2093,
      "Äłnet": 2094,
      "ample": 2095,
      "ump": 2096,
      "Äłnever": 2097,
      "Äłpolic": 2098,
      "Äłskills": 2099,
      "fficient": 2100,
      "ĠÄłabout": 2101,
      "Äłcy": 2102,
      "Äłbr": 2103,
      "Äłhouse": 2104,
      "Äłline": 2105,
      "eter": 2106,
      "Äłstep": 2107,
      "ounds": 2108,
      "Äłsoil": 2109,
      "Äłproduction": 2110,
      "Äłgoing": 2111,
      "Äłrelations": 2112,
      "Äłprotect": 2113,
      "uation": 2114,
      "Äłwr": 2115,
      "osis": 2116,
      "Äłsure": 2117,
      "Äłinflu": 2118,
      "sp": 2119,
      "enn": 2120,
      "Äłloss": 2121,
      "ivil": 2122,
      "Äłkind": 2123,
      "sc": 2124,
      "Ġ?": 2125,
      "Äłbig": 2126,
      "Äłdiet": 2127,
      "ÄłCar": 2128,
      "ÄłOne": 2129,
      "Äłeffects": 2130,
      "Äłthought": 2131,
      "Ãł": 2132,
      "ĠÄłthan": 2133,
      "ÄłEurop": 2134,
      "ildren": 2135,
      "ĠÄłwho": 2136,
      "hib": 2137,
      "rams": 2138,
      "onse": 2139,
      "Äłdig": 2140,
      "cell": 2141,
      "Äłteam": 2142,
      "...": 2143,
      "Äłactivity": 2144,
      "ison": 2145,
      "Äłnut": 2146,
      "ibr": 2147,
      "tic": 2148,
      "Äłtru": 2149,
      "ctor": 2150,
      "stry": 2151,
      "ĠÄłme": 2152,
      "ublished": 2153,
      "Äłindic": 2154,
      "Äłcountries": 2155,
      "Äłgeneral": 2156,
      "ÄłSome": 2157,
      "ÄłBl": 2158,
      "ĠÄłits": 2159,
      "oura": 2160,
      "ĠÄłcl": 2161,
      "Äłcrit": 2162,
      "Äłstat": 2163,
      "Äłbecame": 2164,
      "Äłrepresent": 2165,
      "rect": 2166,
      "Äłsum": 2167,
      "org": 2168,
      "Äłwhether": 2169,
      "ÄłRe": 2170,
      "Äłcollect": 2171,
      "ÄłAmerica": 2172,
      "ront": 2173,
      "ule": 2174,
      "ÃĲ": 2175,
      "itud": 2176,
      "Äłbir": 2177,
      "Äłdog": 2178,
      "Äłgre": 2179,
      "oph": 2180,
      "ening": 2181,
      "Äłclimate": 2182,
      "Äłprim": 2183,
      "To": 2184,
      "ns": 2185,
      "ĠÄłV": 2186,
      "Äłpred": 2187,
      "ervation": 2188,
      "ney": 2189,
      "Äłreduce": 2190,
      "ety": 2191,
      "illed": 2192,
      "Äłabs": 2193,
      "Äłword": 2194,
      "Äłcontrib": 2195,
      "ÄłJohn": 2196,
      "Äłquality": 2197,
      "Äłpatients": 2198,
      "put": 2199,
      "estern": 2200,
      "iding": 2201,
      "Äłsymptoms": 2202,
      "ÄłBrit": 2203,
      "like": 2204,
      "Äłansw": 2205,
      "aring": 2206,
      "Äłreally": 2207,
      "augh": 2208,
      "Äłsingle": 2209,
      "aced": 2210,
      "Äłhowever": 2211,
      "vention": 2212,
      "atives": 2213,
      "Äłfat": 2214,
      "ults": 2215,
      "ĠÄłop": 2216,
      "reme": 2217,
      "Äłsite": 2218,
      "ĠÄłdo": 2219,
      "Äłbuilding": 2220,
      "Äłside": 2221,
      "abit": 2222,
      "ournal": 2223,
      "Äłglobal": 2224,
      "Äłgroups": 2225,
      "bo": 2226,
      "ober": 2227,
      "ĠÄłthese": 2228,
      "Äłprob": 2229,
      "ĠÄłcons": 2230,
      "Äłactivities": 2231,
      "iddle": 2232,
      "ÄłShe": 2233,
      "ÄłIntern": 2234,
      "Äłemploy": 2235,
      "Äłarticle": 2236,
      "Äłconsider": 2237,
      "my": 2238,
      "vere": 2239,
      "Äłeff": 2240,
      "Äłaccount": 2241,
      "sh": 2242,
      "Äłachie": 2243,
      "Äłevent": 2244,
      "ditional": 2245,
      "light": 2246,
      "Äłmass": 2247,
      "ows": 2248,
      "ÄłWorld": 2249,
      "ÄłNorth": 2250,
      "Äłassociated": 2251,
      "Äłscience": 2252,
      "Äłdone": 2253,
      "Äłsize": 2254,
      "Äłitself": 2255,
      "ÄłDr": 2256,
      "ĠÄłbeen": 2257,
      "Äłsun": 2258,
      "Äłdom": 2259,
      "Äłeither": 2260,
      "Äłreason": 2261,
      "ĠÄłcomm": 2262,
      "Äłvalue": 2263,
      "Äłquestions": 2264,
      "gest": 2265,
      "lor": 2266,
      "Äłpers": 2267,
      "usion": 2268,
      "ĠÄłmay": 2269,
      "aged": 2270,
      "Äłresources": 2271,
      "Äłclose": 2272,
      "Äłincreased": 2273,
      "aut": 2274,
      "nces": 2275,
      "rated": 2276,
      "ufact": 2277,
      "Äłwind": 2278,
      "irm": 2279,
      "rict": 2280,
      "ÄłHealth": 2281,
      "Äłmembers": 2282,
      "Äłissues": 2283,
      "Äłver": 2284,
      "Äłcover": 2285,
      "Äłred": 2286,
      "Äłbelow": 2287,
      "verage": 2288,
      "Äłcannot": 2289,
      "Äłdetail": 2290,
      "Äłparticip": 2291,
      "Äłessential": 2292,
      "ES": 2293,
      "ĠÄłth": 2294,
      "inter": 2295,
      "alt": 2296,
      "sequ": 2297,
      "ÄłSo": 2298,
      "ÄłMar": 2299,
      "ume": 2300,
      "ÄłGe": 2301,
      "Äłresearchers": 2302,
      "Äłtaken": 2303,
      "Äłpay": 2304,
      "Äłlive": 2305,
      "ÄłWar": 2306,
      "ÄłUS": 2307,
      "ÄłThat": 2308,
      "Äłtell": 2309,
      "ĠÄłqu": 2310,
      "Äłsource": 2311,
      "Äłwide": 2312,
      "Äłfail": 2313,
      "icine": 2314,
      "Äłlot": 2315,
      "acks": 2316,
      "Äłevidence": 2317,
      "Äłquick": 2318,
      "Äłphot": 2319,
      "Äłflu": 2320,
      "Äłmedical": 2321,
      "80": 2322,
      "rate": 2323,
      "ened": 2324,
      "Äłmoney": 2325,
      "Äłproduce": 2326,
      "Äłopportun": 2327,
      "son": 2328,
      "yn": 2329,
      "oles": 2330,
      "Äłstory": 2331,
      "ĠÄłso": 2332,
      "Äłrather": 2333,
      "ÄłGerm": 2334,
      "izing": 2335,
      "ery": 2336,
      "ÄłCal": 2337,
      "ĠÄłwhen": 2338,
      "ÄłBe": 2339,
      "artment": 2340,
      "Äłrecomm": 2341,
      "ging": 2342,
      "Ġ.,": 2343,
      "Äłprovides": 2344,
      "Äłrequired": 2345,
      "rapy": 2346,
      "Äłmarket": 2347,
      "itary": 2348,
      "Äłfield": 2349,
      "ÄłIm": 2350,
      "ĠÄłinto": 2351,
      "ĠÄłtime": 2352,
      "26": 2353,
      "27": 2354,
      "Äłfall": 2355,
      "Äłinit": 2356,
      "Äłlay": 2357,
      "urs": 2358,
      "ÄłAm": 2359,
      "emic": 2360,
      "Äłsent": 2361,
      "orks": 2362,
      "Äłfive": 2363,
      "Äłdrug": 2364,
      "ĠÄłcom": 2365,
      "ched": 2366,
      "ÄłSouth": 2367,
      "ÄłBy": 2368,
      "Äłskin": 2369,
      "uman": 2370,
      "Äłrate": 2371,
      "Äłmeet": 2372,
      "Äłmaterials": 2373,
      "Äłcity": 2374,
      "ensive": 2375,
      "Äłparts": 2376,
      "Äłfrequ": 2377,
      "Ch": 2378,
      "ai": 2379,
      "Äłcame": 2380,
      "Äłliving": 2381,
      "Äłability": 2382,
      "Äłsurface": 2383,
      "ÄłEnglish": 2384,
      "based": 2385,
      "go": 2386,
      "hood": 2387,
      "anced": 2388,
      "let": 2389,
      "room": 2390,
      "abor": 2391,
      "Äłunderstanding": 2392,
      "Äłfish": 2393,
      "Äłnational": 2394,
      "Äłexerc": 2395,
      "ĠÄłint": 2396,
      "ÄłRep": 2397,
      "aging": 2398,
      "Äłeconomic": 2399,
      "ding": 2400,
      "erous": 2401,
      "ÄłAss": 2402,
      "erved": 2403,
      "uck": 2404,
      "Äłpressure": 2405,
      "yle": 2406,
      "eds": 2407,
      "ÄłAust": 2408,
      "Äłsuper": 2409,
      "Äłanimals": 2410,
      "Äłvers": 2411,
      "Äłground": 2412,
      "Äładdress": 2413,
      "Äłsimple": 2414,
      "mon": 2415,
      "Äłdoc": 2416,
      "ÄłHis": 2417,
      "ÄłHow": 2418,
      "astic": 2419,
      "fully": 2420,
      "Äłidea": 2421,
      "ply": 2422,
      "ĠÄłover": 2423,
      "att": 2424,
      "Äłcut": 2425,
      "arget": 2426,
      "Äłfri": 2427,
      "iment": 2428,
      "Äłrelated": 2429,
      "Äłpractice": 2430,
      "ĠÄłdiff": 2431,
      "Äłneg": 2432,
      "Äłmaint": 2433,
      "Äłsleep": 2434,
      "ili": 2435,
      "vey": 2436,
      "ulations": 2437,
      "Äłonline": 2438,
      "ÄłMay": 2439,
      "empt": 2440,
      "ĠÄłte": 2441,
      "Äłrecent": 2442,
      "Äłcolor": 2443,
      "Äłactually": 2444,
      "ĠÄłstud": 2445,
      "Äłrelig": 2446,
      "hing": 2447,
      "uel": 2448,
      "igure": 2449,
      "Äłjob": 2450,
      "Äłeasy": 2451,
      "Äłcomputer": 2452,
      "Äłonce": 2453,
      "Äłprop": 2454,
      "Äłwhite": 2455,
      "Äłweek": 2456,
      "ropri": 2457,
      "lands": 2458,
      "imately": 2459,
      "Äłentire": 2460,
      "Äłrelationship": 2461,
      "ma": 2462,
      "pid": 2463,
      "Äłconduct": 2464,
      "Äłcomes": 2465,
      "ĠÄłpeople": 2466,
      "Äłregular": 2467,
      "Äłavoid": 2468,
      "Äłvisit": 2469,
      "Äłindividuals": 2470,
      "Â°": 2471,
      "Äłcamp": 2472,
      "arr": 2473,
      "Äłmicro": 2474,
      "Äłge": 2475,
      "Äłconcept": 2476,
      "Äłhealthy": 2477,
      "Äłcreated": 2478,
      "ederal": 2479,
      "Äłann": 2480,
      "umb": 2481,
      "place": 2482,
      "ronic": 2483,
      "Äłservice": 2484,
      "Äłparents": 2485,
      "lex": 2486,
      "etween": 2487,
      "Äłmanagement": 2488,
      "Äłthroughout": 2489,
      "oints": 2490,
      "iction": 2491,
      "Äłrights": 2492,
      "Äłoil": 2493,
      "istance": 2494,
      "ÄłMan": 2495,
      "Äłsuff": 2496,
      "Äłsomet": 2497,
      "Äłinvolved": 2498,
      "minist": 2499,
      "://": 2500,
      "IN": 2501,
      "Äłhold": 2502,
      "Äłnature": 2503,
      "ider": 2504,
      "ÄłAb": 2505,
      "Äłalmost": 2506,
      "ĠÄłsome": 2507,
      "ÄłWh": 2508,
      "reng": 2509,
      "Äłconsidered": 2510,
      "How": 2511,
      "ores": 2512,
      "order": 2513,
      "Äłgas": 2514,
      "duc": 2515,
      "ccording": 2516,
      "Äłbuilt": 2517,
      "yl": 2518,
      "ese": 2519,
      "Äłever": 2520,
      "Äłweight": 2521,
      "Äłnecessary": 2522,
      "Äłwon": 2523,
      "chan": 2524,
      "Äłbegan": 2525,
      "2010": 2526,
      "Äłappear": 2527,
      "On": 2528,
      "Äłdest": 2529,
      "Äłhalf": 2530,
      "verse": 2531,
      "Äłstress": 2532,
      "ops": 2533,
      "istory": 2534,
      "ĠÄłwould": 2535,
      "ÄłJew": 2536,
      "Äłarr": 2537,
      "ĠÄłrel": 2538,
      "Äłcaused": 2539,
      "Äłliter": 2540,
      "Äłmusic": 2541,
      "Äłcat": 2542,
      "Äłarch": 2543,
      "rought": 2544,
      "Äłengine": 2545,
      "But": 2546,
      "ners": 2547,
      "rs": 2548,
      "ze": 2549,
      "ising": 2550,
      "Äłhours": 2551,
      "ades": 2552,
      "Äłsepar": 2553,
      "ideo": 2554,
      "Äłintrodu": 2555,
      "Äłcontent": 2556,
      "ÄłStud": 2557,
      "Äłneeded": 2558,
      "ĠÄłIt": 2559,
      "Äłfactors": 2560,
      "Äłhistor": 2561,
      "Äłpolitical": 2562,
      "90": 2563,
      "__": 2564,
      "ÄłX": 2565,
      "ĠÄłif": 2566,
      "hest": 2567,
      "uted": 2568,
      "ÄłComp": 2569,
      "alled": 2570,
      "196": 2571,
      "rown": 2572,
      "Äłeffective": 2573,
      "Äłmonths": 2574,
      "Äłservices": 2575,
      "ÄłResearch": 2576,
      "45": 2577,
      "ming": 2578,
      "ĠÄłuse": 2579,
      "Äłport": 2580,
      "ĠÄłpre": 2581,
      "Äłinteg": 2582,
      "Äłfeed": 2583,
      "ID": 2584,
      "Äłtw": 2585,
      "udd": 2586,
      "rior": 2587,
      "ÄłGu": 2588,
      "Äłmeasure": 2589,
      "Äłposition": 2590,
      "Äłsometimes": 2591,
      "oor": 2592,
      "Ġ3": 2593,
      "Äłslow": 2594,
      "Äłsoft": 2595,
      "lev": 2596,
      "Äłcondition": 2597,
      "Äłupon": 2598,
      "Äłtraining": 2599,
      "Äłsix": 2600,
      "Äłclean": 2601,
      "itor": 2602,
      "itation": 2603,
      "Äłprote": 2604,
      "aches": 2605,
      "Äłcontain": 2606,
      "ĠÄłno": 2607,
      "Äłlonger": 2608,
      "Äłpopular": 2609,
      "uge": 2610,
      "Äłthemselves": 2611,
      "Äłvariety": 2612,
      "Äłbasic": 2613,
      "Al": 2614,
      "roup": 2615,
      "isions": 2616,
      "Äłchemical": 2617,
      "Äłbar": 2618,
      "Äłcoll": 2619,
      "2012": 2620,
      "Äłcauses": 2621,
      "Äłcomplex": 2622,
      "Äłterms": 2623,
      "cies": 2624,
      "eak": 2625,
      "gar": 2626,
      "aling": 2627,
      "Äłfire": 2628,
      "Äłlink": 2629,
      "ules": 2630,
      "off": 2631,
      "ender": 2632,
      "Äłrecord": 2633,
      "Äłprovided": 2634,
      "ĠÄłonly": 2635,
      "Äłmodern": 2636,
      "Äłschools": 2637,
      "ĠÄłunder": 2638,
      "Äłwriting": 2639,
      "Ġ),": 2640,
      "arily": 2641,
      "Äłstates": 2642,
      "ÄłEarth": 2643,
      "ĠÄłman": 2644,
      "ĠÄłreg": 2645,
      "Äłblack": 2646,
      "stitute": 2647,
      "Äłmeaning": 2648,
      "Äłut": 2649,
      "aily": 2650,
      "Äłincreasing": 2651,
      "Äłidentify": 2652,
      "70": 2653,
      "mb": 2654,
      "rew": 2655,
      "itiz": 2656,
      "erent": 2657,
      "ĠÄłwork": 2658,
      "ĠÄłdes": 2659,
      "ellow": 2660,
      "Äłcarbon": 2661,
      "stitution": 2662,
      "Ġt": 2663,
      "Äłinj": 2664,
      "Äłste": 2665,
      "Äłcontact": 2666,
      "Äłinteract": 2667,
      "pose": 2668,
      "Äłaction": 2669,
      "ister": 2670,
      "Äłce": 2671,
      "ÄłCont": 2672,
      "avy": 2673,
      "Äłcompany": 2674,
      "AR": 2675,
      "dom": 2676,
      "ls": 2677,
      "oly": 2678,
      "inally": 2679,
      "Äłfarm": 2680,
      "ached": 2681,
      "Äłheat": 2682,
      "ĠÄłsu": 2683,
      "Äłtravel": 2684,
      "eneral": 2685,
      "Äłregard": 2686,
      "28": 2687,
      "ĠM": 2688,
      "ĠÄłour": 2689,
      "ari": 2690,
      "icles": 2691,
      "Äłreact": 2692,
      "aff": 2693,
      "raft": 2694,
      "ada": 2695,
      "Äłaccept": 2696,
      "Äłresponse": 2697,
      "Äłreading": 2698,
      "Äłapproach": 2699,
      "ground": 2700,
      "Äłgreen": 2701,
      "Äłconc": 2702,
      "ĠÄłind": 2703,
      "iber": 2704,
      "Äłmanufact": 2705,
      "Äłassess": 2706,
      "Äłvari": 2707,
      "Äłshows": 2708,
      "Äłreturn": 2709,
      "ĠÄłThis": 2710,
      "Äłpath": 2711,
      "Äłtook": 2712,
      "Äłtotal": 2713,
      "ÄłPr": 2714,
      "ÄłLe": 2715,
      "elling": 2716,
      "Äłhelps": 2717,
      "ÄłYork": 2718,
      "Äłprin": 2719,
      "ttp": 2720,
      "ography": 2721,
      "rast": 2722,
      "Äłpublished": 2723,
      "Äłface": 2724,
      "lege": 2725,
      "Äłemer": 2726,
      "urg": 2727,
      "Äłevents": 2728,
      "ength": 2729,
      "Äłsafe": 2730,
      "AT": 2731,
      "cil": 2732,
      "know": 2733,
      "Â¤": 2734,
      "ĠÄłac": 2735,
      "anies": 2736,
      "iter": 2737,
      "Äłmor": 2738,
      "asc": 2739,
      "ÄłDep": 2740,
      "useum": 2741,
      "ricult": 2742,
      "Äłpattern": 2743,
      "Äłdiagn": 2744,
      "Ä£": 2745,
      "oud": 2746,
      "imum": 2747,
      "ÄłAct": 2748,
      "ÄłSchool": 2749,
      "ÄłPres": 2750,
      "Äłclaim": 2751,
      "Äłindustry": 2752,
      "Äłcr": 2753,
      "ĠÄłact": 2754,
      "Äłarg": 2755,
      "ĠÄłrec": 2756,
      "Äłprevious": 2757,
      "rench": 2758,
      "Äłstudent": 2759,
      "Äłfeet": 2760,
      "Äłsubst": 2761,
      "Äłbreak": 2762,
      "Äłchalleng": 2763,
      "arge": 2764,
      "Äłmach": 2765,
      "Äłwebs": 2766,
      "Äłdoing": 2767,
      "ief": 2768,
      "Äłfocus": 2769,
      "hold": 2770,
      "ror": 2771,
      "ÃĦ": 2772,
      "aries": 2773,
      "Äłfru": 2774,
      "Äłdraw": 2775,
      "ocial": 2776,
      "ĠÄłUn": 2777,
      "rig": 2778,
      "vest": 2779,
      "enced": 2780,
      "ÄłAfter": 2781,
      "ift": 2782,
      "ustom": 2783,
      "Äłstructure": 2784,
      "Äłsat": 2785,
      "Äłrev": 2786,
      "Äłforms": 2787,
      "abet": 2788,
      "Äłdeb": 2789,
      "apan": 2790,
      "ÄłState": 2791,
      "Äłserious": 2792,
      "Äłwritten": 2793,
      "aun": 2794,
      "lin": 2795,
      "Äłpict": 2796,
      "Äłbacter": 2797,
      "ÄłWhile": 2798,
      "Äłdeep": 2799,
      "Äłsurv": 2800,
      "Äłmatter": 2801,
      "Äłbenefits": 2802,
      "iency": 2803,
      "inary": 2804,
      "Äłsense": 2805,
      "amed": 2806,
      "ads": 2807,
      "ĠÄłag": 2808,
      "Äłsex": 2809,
      "29": 2810,
      "Ġ1": 2811,
      "Äłtaking": 2812,
      "Äłcop": 2813,
      "ÄłNo": 2814,
      "Äłshown": 2815,
      "ĠÄłnew": 2816,
      "Äłsociety": 2817,
      "Äłenvironmental": 2818,
      "Äłdamage": 2819,
      "bor": 2820,
      "fect": 2821,
      "ceed": 2822,
      "ÄłAg": 2823,
      "istics": 2824,
      "ivate": 2825,
      "Äłunc": 2826,
      "Äłdeveloping": 2827,
      "IC": 2828,
      "Äłbring": 2829,
      "Äłlate": 2830,
      "Äłsomeone": 2831,
      "oved": 2832,
      "Äłproduced": 2833,
      "www": 2834,
      "Äłmethods": 2835,
      "):": 2836,
      "Äłthreat": 2837,
      "2011": 2838,
      "ĠB": 2839,
      "ĠÄłany": 2840,
      "Äłeat": 2841,
      "amb": 2842,
      "issions": 2843,
      "Äłregion": 2844,
      "Äłinside": 2845,
      "Äłissue": 2846,
      "itude": 2847,
      "ĠÃ¢Ä¢Äµ": 2848,
      "iles": 2849,
      "Äłspread": 2850,
      "Äłtemperature": 2851,
      "ÃĻ": 2852,
      "Äłlives": 2853,
      "osition": 2854,
      "ÄłBritish": 2855,
      "mar": 2856,
      "part": 2857,
      "Äłtax": 2858,
      "ĠÄłem": 2859,
      "rag": 2860,
      "ĠÄłsuch": 2861,
      "Äłdesigned": 2862,
      "Äłanalysis": 2863,
      "Äłcheck": 2864,
      "Äłteachers": 2865,
      "ience": 2866,
      "ĠÄłro": 2867,
      "Äłmagn": 2868,
      "ÄłApp": 2869,
      "Äłunique": 2870,
      "ension": 2871,
      "Äłpersonal": 2872,
      "ĠÃ¢Ä¢Ä¿": 2873,
      "ana": 2874,
      "atively": 2875,
      "Äłearth": 2876,
      "Äłsolar": 2877,
      "ashing": 2878,
      "lies": 2879,
      "ĠÄłar": 2880,
      "Äłaverage": 2881,
      "Äłsources": 2882,
      "Äłlog": 2883,
      "ÄłKing": 2884,
      "Äłstarted": 2885,
      "undred": 2886,
      "Äłculture": 2887,
      "Äłetc": 2888,
      "ha": 2889,
      "pe": 2890,
      "ĠP": 2891,
      "Äłri": 2892,
      "Äłled": 2893,
      "imal": 2894,
      "ÄłCO": 2895,
      "ĠÄłlike": 2896,
      "Äłrespect": 2897,
      "ugust": 2898,
      "Äłbelieve": 2899,
      "\".": 2900,
      "Äłyet": 2901,
      "osing": 2902,
      "Äłmedia": 2903,
      "Äłstandard": 2904,
      "right": 2905,
      "ĠD": 2906,
      "Äłtalk": 2907,
      "ĠÄłass": 2908,
      "anks": 2909,
      "Äłprof": 2910,
      "Äłoffer": 2911,
      "Äłmovement": 2912,
      "cript": 2913,
      "ÄłAustral": 2914,
      "IS": 2915,
      "Äłtarget": 2916,
      "aly": 2917,
      "ulate": 2918,
      "ÄłCount": 2919,
      "ĠÄłcol": 2920,
      "ÄłEd": 2921,
      "Äłimage": 2922,
      "Äłuses": 2923,
      "Äłgetting": 2924,
      "Äłgenerally": 2925,
      "Äłensure": 2926,
      ".)": 2927,
      "nov": 2928,
      "oub": 2929,
      "Äłtown": 2930,
      "Äłsea": 2931,
      "avor": 2932,
      "Äłscientists": 2933,
      "pril": 2934,
      "ÃĻÄ": 2935,
      "hel": 2936,
      "leb": 2937,
      "ilies": 2938,
      "Äłheld": 2939,
      "play": 2940,
      "Äłprograms": 2941,
      "Äłseries": 2942,
      "Äłveget": 2943,
      "Äłpositive": 2944,
      "Äłoriginal": 2945,
      "ises": 2946,
      "Äłpsych": 2947,
      "olar": 2948,
      "ÄłII": 2949,
      "ĠÄłsc": 2950,
      "Äłviol": 2951,
      "Äłsust": 2952,
      "Äłspeed": 2953,
      "Äłreported": 2954,
      "Äłcorrect": 2955,
      "ropriate": 2956,
      "equ": 2957,
      "ster": 2958,
      "ĠÄłfirst": 2959,
      "Äłindepend": 2960,
      "Äłeasily": 2961,
      "OR": 2962,
      "overy": 2963,
      "pite": 2964,
      "Äłox": 2965,
      "Äłbur": 2966,
      "Äłthing": 2967,
      "ctions": 2968,
      "Äłlove": 2969,
      "Äłrout": 2970,
      "Äłcompon": 2971,
      "velopment": 2972,
      "Äłnumbers": 2973,
      "Äłperformance": 2974,
      "new": 2975,
      "ancy": 2976,
      "Äłpage": 2977,
      "Äłoutside": 2978,
      "Äłincludes": 2979,
      "Äłsupply": 2980,
      "And": 2981,
      "ĠÄłknow": 2982,
      "Äłtrue": 2983,
      "AN": 2984,
      "lied": 2985,
      "ÄłÃĤ": 2986,
      "ĠÄłam": 2987,
      "ros": 2988,
      "Äłhyd": 2989,
      "Äłlif": 2990,
      "Äłstop": 2991,
      "Äłstreng": 2992,
      "ÄłPar": 2993,
      "Äłsecurity": 2994,
      "Äłparticularly": 2995,
      "Äłinvestig": 2996,
      "Äłdetermine": 2997,
      "Äłnetwork": 2998,
      "uly": 2999,
      "uary": 3000,
      "uild": 3001,
      "wh": 3002,
      "ĠÄłY": 3003,
      "ĠÄłob": 3004,
      "onstr": 3005,
      "Äłsil": 3006,
      "Äłwarm": 3007,
      "leg": 3008,
      "Äłreview": 3009,
      "ĠÄłtwo": 3010,
      "ype": 3011,
      "Äłemot": 3012,
      "Äłinfection": 3013,
      "Äłinternational": 3014,
      "Äłscientific": 3015,
      "Äłencoura": 3016,
      "ĠÄłus": 3017,
      "Äłsal": 3018,
      "ancial": 3019,
      "Äłwild": 3020,
      "Äłaltern": 3021,
      "ÄłMin": 3022,
      "Äłvacc": 3023,
      "outhern": 3024,
      "Äłimplement": 3025,
      "Äłsafety": 3026,
      "ÄłCenter": 3027,
      "Äłwood": 3028,
      "Äłmental": 3029,
      "Äłnormal": 3030,
      "Äłforce": 3031,
      "umber": 3032,
      "Äłmechan": 3033,
      "Äłgrowing": 3034,
      "ÄłIndia": 3035,
      "Äłestablished": 3036,
      "Ġ4": 3037,
      "ĠÄłTh": 3038,
      "Äłcivil": 3039,
      "ilos": 3040,
      "Äłquite": 3041,
      "Äłconsist": 3042,
      "Äłattention": 3043,
      "Äłsimply": 3044,
      "Äłestim": 3045,
      "Äłpoor": 3046,
      "AS": 3047,
      "haps": 3048,
      "yond": 3049,
      "atur": 3050,
      "oper": 3051,
      "orthern": 3052,
      "ĠÄłmany": 3053,
      "Äłcompet": 3054,
      "2013": 3055,
      "Äłtrees": 3056,
      "Äławare": 3057,
      "Äłbab": 3058,
      "ipment": 3059,
      "Äłeye": 3060,
      "Äłexercise": 3061,
      "35": 3062,
      "EN": 3063,
      "Ġc": 3064,
      "inate": 3065,
      "attle": 3066,
      "Äłbal": 3067,
      "iforn": 3068,
      "Äłconcent": 3069,
      "istor": 3070,
      "ÄłMore": 3071,
      "ĠÄłbetween": 3072,
      "Äłcommit": 3073,
      "2008": 3074,
      "Äłelectric": 3075,
      "joy": 3076,
      "ony": 3077,
      "edia": 3078,
      "ils": 3079,
      "Äłnuc": 3080,
      "ÄłEm": 3081,
      "ÄłYour": 3082,
      "Äłdirectly": 3083,
      "Äłanswer": 3084,
      "Äłfem": 3085,
      "rogen": 3086,
      "Äłproced": 3087,
      "ĠÄłbl": 3088,
      "ously": 3089,
      "Äłincluded": 3090,
      "ĠÄłwhat": 3091,
      "Äłrefer": 3092,
      "Äłbehavior": 3093,
      "ifornia": 3094,
      "uk": 3095,
      "Ġ5": 3096,
      "Äłtakes": 3097,
      "isms": 3098,
      "Äłbit": 3099,
      "Äłnight": 3100,
      "ÄłCo": 3101,
      "ĠÄłsystem": 3102,
      "ĠÄłdec": 3103,
      "hens": 3104,
      "Äłacid": 3105,
      "Äłpoll": 3106,
      "Äłdoesn": 3107,
      "Äłallows": 3108,
      "Äłprobably": 3109,
      "iers": 3110,
      "ties": 3111,
      "Â¼": 3112,
      "Äłtend": 3113,
      "uries": 3114,
      "istry": 3115,
      "estic": 3116,
      "aint": 3117,
      "ÄłDo": 3118,
      "ĠÄłdis": 3119,
      "ervice": 3120,
      "Äłfoods": 3121,
      "Äłanaly": 3122,
      "Äłanimal": 3123,
      "36": 3124,
      "lim": 3125,
      "Äłvideo": 3126,
      "rie": 3127,
      "Äłprep": 3128,
      "iece": 3129,
      "lected": 3130,
      "ĠÄłprov": 3131,
      "iques": 3132,
      "Äładditional": 3133,
      "Äłpolicy": 3134,
      "ducation": 3135,
      "gram": 3136,
      "rees": 3137,
      "ouble": 3138,
      "asons": 3139,
      "ĠÄłsupp": 3140,
      "ÄłBo": 3141,
      "orders": 3142,
      "Äłthinking": 3143,
      "Äłdevices": 3144,
      "mall": 3145,
      "ino": 3146,
      "Äłaff": 3147,
      "Äłcoun": 3148,
      "itis": 3149,
      "oming": 3150,
      "see": 3151,
      "ÄłScience": 3152,
      "194": 3153,
      "ÄłJapan": 3154,
      "Äłcompanies": 3155,
      "2006": 3156,
      "Äłextreme": 3157,
      "Äłforest": 3158,
      "lation": 3159,
      "mosp": 3160,
      "Äłtiss": 3161,
      "inated": 3162,
      "Äłsn": 3163,
      "Äłsection": 3164,
      "Äłwent": 3165,
      "Äłlack": 3166,
      "Äłnation": 3167,
      "ÄłMost": 3168,
      "ÄłPre": 3169,
      "ĠÄłmost": 3170,
      "Äłseem": 3171,
      "Äłsevere": 3172,
      "Äłquickly": 3173,
      "IV": 3174,
      "One": 3175,
      "ĠÄłused": 3176,
      "otic": 3177,
      "ĠÄłph": 3178,
      "ĠÄłoff": 3179,
      "Äłemb": 3180,
      "Äłpatient": 3181,
      "Äłdiseases": 3182,
      "Äłgreater": 3183,
      "ON": 3184,
      "uff": 3185,
      "ĠH": 3186,
      "orpor": 3187,
      "Äłdry": 3188,
      "term": 3189,
      "ÄłUs": 3190,
      "Äłinstit": 3191,
      "airs": 3192,
      "ĠÄłinclud": 3193,
      "abetes": 3194,
      "33": 3195,
      "coh": 3196,
      "ius": 3197,
      "sec": 3198,
      "ching": 3199,
      "irit": 3200,
      "amples": 3201,
      "odies": 3202,
      "ÄłPer": 3203,
      "ÄłDay": 3204,
      "ÄłRev": 3205,
      "Äłattempt": 3206,
      "Äłtypically": 3207,
      "ields": 3208,
      "Äłdistrib": 3209,
      "strial": 3210,
      "ÄłAfrica": 3211,
      "Äłwrite": 3212,
      "Un": 3213,
      "gn": 3214,
      "ications": 3215,
      "omb": 3216,
      "unity": 3217,
      "elt": 3218,
      "ondon": 3219,
      "2007": 3220,
      "ossible": 3221,
      "Äłhumans": 3222,
      "ĠÄłatt": 3223,
      "ĠÄłshould": 3224,
      "cks": 3225,
      "ĠÄłacc": 3226,
      "Äłsqu": 3227,
      "rote": 3228,
      "ulf": 3229,
      "Äłkids": 3230,
      "Äładop": 3231,
      "ressed": 3232,
      "Äłaccur": 3233,
      "Äłcapt": 3234,
      "rance": 3235,
      "Äłir": 3236,
      "Äłmother": 3237,
      "Äłhands": 3238,
      "Äłexc": 3239,
      "ĠÄłform": 3240,
      "ÄłDes": 3241,
      "ĠÄłneed": 3242,
      "Äłprec": 3243,
      "inking": 3244,
      "Äłdifference": 3245,
      "Äłdecre": 3246,
      "Äłattack": 3247,
      "Äłlarger": 3248,
      "Äłprocesses": 3249,
      "Äłdefin": 3250,
      "rition": 3251,
      "set": 3252,
      "where": 3253,
      "Äłcross": 3254,
      "Äłtowards": 3255,
      "Äłdaily": 3256,
      "alls": 3257,
      "ÄłChina": 3258,
      "merican": 3259,
      "ĠÄłHe": 3260,
      "Äłinstead": 3261,
      "Äłapplication": 3262,
      "Äłdocument": 3263,
      "ashington": 3264,
      "fort": 3265,
      "na": 3266,
      "Äłsound": 3267,
      "Äłfit": 3268,
      "Äłmess": 3269,
      "Äłmount": 3270,
      "urrent": 3271,
      "Äłgard": 3272,
      "rab": 3273,
      "oses": 3274,
      "ĠÄłspec": 3275,
      "ĠÄłinter": 3276,
      "Äłshare": 3277,
      "ÄłOther": 3278,
      "2000": 3279,
      "Äłprimary": 3280,
      "Äłachieve": 3281,
      "Äłbacteria": 3282,
      "65": 3283,
      "AC": 3284,
      "Äłtree": 3285,
      "anc": 3286,
      "arian": 3287,
      "Äłhabit": 3288,
      "Äłlands": 3289,
      "resh": 3290,
      "Äłago": 3291,
      "Äłstrateg": 3292,
      "Äłvalues": 3293,
      "itizens": 3294,
      "31": 3295,
      "38": 3296,
      "While": 3297,
      "Â¡": 3298,
      "Äłeth": 3299,
      "vert": 3300,
      "ulated": 3301,
      "key": 3302,
      "ĠÄłinf": 3303,
      "Äłtraditional": 3304,
      "Äłbehind": 3305,
      "Äłimmedi": 3306,
      "Äłsymb": 3307,
      "Ġ0": 3308,
      "Äłwalk": 3309,
      "Äłhot": 3310,
      "ully": 3311,
      "ÄłPart": 3312,
      "izations": 3313,
      "ĠÄłrem": 3314,
      "Äłuseful": 3315,
      "2009": 3316,
      "Äłexpect": 3317,
      "2014": 3318,
      "Äłtransport": 3319,
      "urban": 3320,
      "'re": 3321,
      "back": 3322,
      "year": 3323,
      "ĠIn": 3324,
      "erg": 3325,
      "icip": 3326,
      "cember": 3327,
      "rael": 3328,
      "Äłwhose": 3329,
      "Äłcommer": 3330,
      "Äłsugar": 3331,
      "195": 3332,
      "Äładapt": 3333,
      "Äłlooking": 3334,
      "ÄłIndian": 3335,
      "Äłbeginning": 3336,
      "ey": 3337,
      "lier": 3338,
      "mission": 3339,
      "het": 3340,
      "inct": 3341,
      "Äłdiv": 3342,
      "roy": 3343,
      "Äłharm": 3344,
      "unction": 3345,
      "ÄłSec": 3346,
      "Äłexact": 3347,
      "ÄłEl": 3348,
      "ÄłRec": 3349,
      "Äłrates": 3350,
      "Äłdoctor": 3351,
      "ception": 3352,
      "Äłmonth": 3353,
      "Äłelements": 3354,
      "ÄłQu": 3355,
      "ĠÄłÃ¢Ä¢Äµ": 3356,
      "Äłbad": 3357,
      "Äłfast": 3358,
      "Äłdang": 3359,
      "ctober": 3360,
      "cean": 3361,
      "urt": 3362,
      "illiam": 3363,
      "ÄłNe": 3364,
      "ĠÄłtra": 3365,
      "ĠÄłtrans": 3366,
      "ridge": 3367,
      "cription": 3368,
      "lamm": 3369,
      "head": 3370,
      "Äłfront": 3371,
      "enty": 3372,
      "Äłthus": 3373,
      "Äłnorth": 3374,
      "Äłgot": 3375,
      "Äłstay": 3376,
      "ÄłBar": 3377,
      "ÄłNot": 3378,
      "ellig": 3379,
      "ĠÄłhow": 3380,
      "Äłcompared": 3381,
      "Äłcold": 3382,
      "Äłleaders": 3383,
      "Äłideas": 3384,
      "ÃĹ": 3385,
      "anish": 3386,
      "Äłpoints": 3387,
      "Äłbrought": 3388,
      "Äłhor": 3389,
      "idents": 3390,
      "ÄłGl": 3391,
      "ĠÄłyears": 3392,
      "chnology": 3393,
      "Äłleading": 3394,
      "ÄłAlthough": 3395,
      "ÄłCalifornia": 3396,
      "34": 3397,
      "ED": 3398,
      "Äłice": 3399,
      "Äłsus": 3400,
      "esus": 3401,
      "Äłcool": 3402,
      "Äłhost": 3403,
      "ÄłMy": 3404,
      "ests": 3405,
      "ĠÄłsur": 3406,
      "ÄłFirst": 3407,
      "Äładults": 3408,
      "Äłblock": 3409,
      "Äłwebsite": 3410,
      "ees": 3411,
      "oke": 3412,
      "ĠR": 3413,
      "ĠÄłthrough": 3414,
      "reet": 3415,
      "ero": 3416,
      "anuary": 3417,
      "Äłancient": 3418,
      "ogen": 3419,
      "Äłrecently": 3420,
      "Äłtherefore": 3421,
      "Äłcentral": 3422,
      "ĠÄłhelp": 3423,
      "Äłrequires": 3424,
      "Äłextra": 3425,
      "Äłgradu": 3426,
      "Äłpurpose": 3427,
      "load": 3428,
      "ibrary": 3429,
      "rin": 3430,
      "ĠF": 3431,
      "Äłfight": 3432,
      "Äłfoot": 3433,
      "Äłthird": 3434,
      "osure": 3435,
      "ÄłBi": 3436,
      "Äłoverall": 3437,
      "Äłofficial": 3438,
      "Äłtests": 3439,
      "Äłcontinue": 3440,
      "So": 3441,
      "ximately": 3442,
      "Â±": 3443,
      "Ã¢Ä¢Äº": 3444,
      "sect": 3445,
      "ament": 3446,
      "Äłleaves": 3447,
      "Äłmultiple": 3448,
      "39": 3449,
      "oe": 3450,
      "itamin": 3451,
      "Äłeating": 3452,
      "olit": 3453,
      "ÄłReg": 3454,
      "ptember": 3455,
      "Äłweather": 3456,
      "Äłseason": 3457,
      "Äłeval": 3458,
      "rick": 3459,
      "inese": 3460,
      "Äłlimited": 3461,
      "Äłeyes": 3462,
      "Äłbehavi": 3463,
      "Äłbirth": 3464,
      "Äłceleb": 3465,
      "Äłsustain": 3466,
      "wise": 3467,
      "ÄłÃ": 3468,
      "Äłsearch": 3469,
      "oul": 3470,
      "Äłfa": 3471,
      "Äłmole": 3472,
      "Äłdark": 3473,
      "Äłhundred": 3474,
      "Äłreve": 3475,
      "amic": 3476,
      "ĠÄłsub": 3477,
      "occ": 3478,
      "ociety": 3479,
      "Äłund": 3480,
      "izes": 3481,
      "ÄłInstitute": 3482,
      "Äłcontains": 3483,
      "Äłlargest": 3484,
      "ÄłEuropean": 3485,
      "IT": 3486,
      "With": 3487,
      "ingu": 3488,
      "ÄłAc": 3489,
      "ĠÄłcould": 3490,
      "ÄłWest": 3491,
      "Äłwaste": 3492,
      "ÄłFrom": 3493,
      "ÄłFrench": 3494,
      "Äłplaces": 3495,
      "Äłprogress": 3496,
      "ÄłDepartment": 3497,
      "just": 3498,
      "Äłtri": 3499,
      "itect": 3500,
      "Äłfram": 3501,
      "olved": 3502,
      "Äłstri": 3503,
      "illing": 3504,
      "reek": 3505,
      "Äłquant": 3506,
      "Äłfamilies": 3507,
      "Äłequipment": 3508,
      "Äłprojects": 3509,
      "Äłlabor": 3510,
      "ÄłAfrican": 3511,
      "Äłresponsible": 3512,
      "ham": 3513,
      "Äłthous": 3514,
      "Äłhy": 3515,
      "Äłones": 3516,
      "These": 3517,
      "aste": 3518,
      "190": 3519,
      "Äłteaching": 3520,
      "Äłactive": 3521,
      "Äłfeatures": 3522,
      "exic": 3523,
      "ospital": 3524,
      "Äłelse": 3525,
      "Äłprofessional": 3526,
      "Ex": 3527,
      "bit": 3528,
      "eks": 3529,
      "life": 3530,
      "Â¸": 3531,
      "ĠÄłear": 3532,
      "inks": 3533,
      "Äłaud": 3534,
      "reed": 3535,
      "era": 3536,
      "Äłsites": 3537,
      "Äłcard": 3538,
      "oration": 3539,
      "Äłfather": 3540,
      "Äłegg": 3541,
      "Äłlength": 3542,
      "ĠÄłthen": 3543,
      "ÄłMany": 3544,
      "rugg": 3545,
      "ciples": 3546,
      "Äłprotection": 3547,
      "Äłbooks": 3548,
      "Äłanti": 3549,
      "Äłcritical": 3550,
      "500": 3551,
      "At": 3552,
      "aign": 3553,
      "ded": 3554,
      "ĠÄłher": 3555,
      "Äłcustom": 3556,
      "aled": 3557,
      "Äłprior": 3558,
      "Äłang": 3559,
      "Äłdied": 3560,
      "ĠÄłwell": 3561,
      "ÄłFran": 3562,
      "Äłclin": 3563,
      "Äłdecision": 3564,
      "Äłcommunities": 3565,
      "Äłstandards": 3566,
      "Äłmilitary": 3567,
      "Äłapplications": 3568,
      "Äłdescribed": 3569,
      "ÄłCounty": 3570,
      "He": 3571,
      "Äłult": 3572,
      "Äłgame": 3573,
      "ÄłMarch": 3574,
      "emy": 3575,
      "que": 3576,
      "Äłshape": 3577,
      "Äłweb": 3578,
      "Äłenjoy": 3579,
      "Äłrare": 3580,
      "Äłnews": 3581,
      "Äładded": 3582,
      "2016": 3583,
      "ÄłAmericans": 3584,
      "pective": 3585,
      "Äłpractices": 3586,
      "PA": 3587,
      "come": 3588,
      "cape": 3589,
      "pris": 3590,
      "water": 3591,
      "ĠÄłwhere": 3592,
      "eck": 3593,
      "ÄłRiver": 3594,
      "Äłspeak": 3595,
      "Äłimages": 3596,
      "ought": 3597,
      "ructure": 3598,
      "Äłcenter": 3599,
      "fficiency": 3600,
      "rust": 3601,
      "encies": 3602,
      "Äłpen": 3603,
      "Äłhar": 3604,
      "ĠÄłafter": 3605,
      "Äłshall": 3606,
      "ÄłInt": 3607,
      "Äłteach": 3608,
      "Äłpregn": 3609,
      "ĠÄłeffect": 3610,
      "Äłsoon": 3611,
      "ovember": 3612,
      "ÄłChar": 3613,
      "Äłsurround": 3614,
      "Äłhighly": 3615,
      "Äłgoal": 3616,
      "Äłimportance": 3617,
      "Äłdemonstr": 3618,
      "Äłbasis": 3619,
      "Äłcultural": 3620,
      "Äłcreating": 3621,
      "37": 3622,
      "RE": 3623,
      "men": 3624,
      "med": 3625,
      "Äłfair": 3626,
      "Äłmom": 3627,
      "ÄłAugust": 3628,
      "ÄłSch": 3629,
      "ama": 3630,
      "Äłteeth": 3631,
      "Äłtrial": 3632,
      "Äłmodels": 3633,
      "Äłrespond": 3634,
      "Äłopportunity": 3635,
      "Äłversion": 3636,
      "Äłsoftware": 3637,
      "ÄłPresident": 3638,
      "cohol": 3639,
      "Ġf": 3640,
      "Äłi": 3641,
      "Äłcrop": 3642,
      "itable": 3643,
      "Äłwinter": 3644,
      "Äłbul": 3645,
      "Äłlines": 3646,
      "ÄłTra": 3647,
      "Äłaspect": 3648,
      "ÄłMus": 3649,
      "ÄłRuss": 3650,
      "Äłusers": 3651,
      "apter": 3652,
      "Äłappropriate": 3653,
      "Äłbecomes": 3654,
      "Äłagree": 3655,
      "Äłremain": 3656,
      "Äłbreast": 3657,
      "Äłeconomy": 3658,
      "Äłprotein": 3659,
      "rates": 3660,
      "ĠI": 3661,
      "Äłtold": 3662,
      "Äłmouth": 3663,
      "oma": 3664,
      "Äłbeaut": 3665,
      "ÄłHere": 3666,
      "ÄłDav": 3667,
      "ÄłEducation": 3668,
      "Äłworkers": 3669,
      "Äłanything": 3670,
      "Äłexpected": 3671,
      "Äłdecl": 3672,
      "ĠÄłsec": 3673,
      "Äłcapital": 3674,
      "Äłmeasures": 3675,
      "Äłconsumption": 3676,
      "Äłautom": 3677,
      "aters": 3678,
      "Äłcra": 3679,
      "Äłlost": 3680,
      "ĠÄłcount": 3681,
      "ruary": 3682,
      "Äłcommunication": 3683,
      "ebruary": 3684,
      "Äłdemand": 3685,
      "Äłfinancial": 3686,
      "mitted": 3687,
      "related": 3688,
      "Äłestablish": 3689,
      "Äłtheory": 3690,
      "ÄłApril": 3691,
      "ÄłSystem": 3692,
      "ading": 3693,
      "ÄłCons": 3694,
      "ÄłMc": 3695,
      "ĠÄłmy": 3696,
      "Äładminist": 3697,
      "Äłcolon": 3698,
      "Äłrapid": 3699,
      "2017": 3700,
      "Äłtechniques": 3701,
      "Äłlocated": 3702,
      "Äłminutes": 3703,
      "Äłdogs": 3704,
      "con": 3705,
      "ying": 3706,
      "ĠN": 3707,
      "Äłcred": 3708,
      "Äłfinal": 3709,
      "Äłhous": 3710,
      "ula": 3711,
      "ĠÄłmod": 3712,
      "Äłleave": 3713,
      "Äłdisplay": 3714,
      "ologies": 3715,
      "2005": 3716,
      "Äłemp": 3717,
      "Äłolder": 3718,
      "Äłbenefit": 3719,
      "Äłbroad": 3720,
      "ÄłInternational": 3721,
      "time": 3722,
      "atab": 3723,
      "Äłcou": 3724,
      "asks": 3725,
      "Äłbeyond": 3726,
      "ector": 3727,
      "estion": 3728,
      "ÄłPark": 3729,
      "ÄłHar": 3730,
      "Äłatmosp": 3731,
      "ibly": 3732,
      "ologist": 3733,
      "ternal": 3734,
      "Äłroom": 3735,
      "Äłroad": 3736,
      "2004": 3737,
      "Äłcoast": 3738,
      "Äłmemory": 3739,
      "Äłnearly": 3740,
      "Äłdigital": 3741,
      "king": 3742,
      "ĠÄłed": 3743,
      "Äłtherapy": 3744,
      "itch": 3745,
      "Äłtools": 3746,
      "Äłinform": 3747,
      "Äłliqu": 3748,
      "ÄłLear": 3749,
      "ÄłOur": 3750,
      "Äłinterp": 3751,
      "Äłreduced": 3752,
      "Äłpurch": 3753,
      "Äłpromot": 3754,
      "Äłreceived": 3755,
      "Äłteacher": 3756,
      "ÄłEurope": 3757,
      "book": 3758,
      "Äłsold": 3759,
      "Äłbott": 3760,
      "Äłreach": 3761,
      "Äłgives": 3762,
      "Äłgovern": 3763,
      "ÄłAnt": 3764,
      "Äłvia": 3765,
      "ÄłHer": 3766,
      "ĠÄłbecause": 3767,
      "Äłnothing": 3768,
      "Äłweeks": 3769,
      "ĠÄłhim": 3770,
      "2015": 3771,
      "Äłtesting": 3772,
      "Äłmiles": 3773,
      "Äłasked": 3774,
      "Ġd": 3775,
      "reak": 3776,
      "atin": 3777,
      "Äłson": 3778,
      "enge": 3779,
      "ett": 3780,
      "amily": 3781,
      "erences": 3782,
      "ocks": 3783,
      "ĠÄłhigh": 3784,
      "rows": 3785,
      "Äłcarry": 3786,
      "ixed": 3787,
      "Äłplanet": 3788,
      "Äłoccurs": 3789,
      "Äłtrying": 3790,
      "Äłfriends": 3791,
      "Äłfruit": 3792,
      "Pro": 3793,
      "eal": 3794,
      "ira": 3795,
      "Äłx": 3796,
      "iny": 3797,
      "Äłpack": 3798,
      "ara": 3799,
      "Äłmill": 3800,
      "Äłstim": 3801,
      "pped": 3802,
      "ÄłWater": 3803,
      "ÄłOf": 3804,
      "Äłcontroll": 3805,
      "Äłprivate": 3806,
      "Äłconstant": 3807,
      "Äłlaws": 3808,
      "Äłlegal": 3809,
      "Äłinfluence": 3810,
      "Äłnegative": 3811,
      "uments": 3812,
      "Ġth": 3813,
      "Äłmo": 3814,
      "Äłbeg": 3815,
      "acity": 3816,
      "ÄłEven": 3817,
      "Äłseems": 3818,
      "Äłrob": 3819,
      "Äłsmaller": 3820,
      "Äłconflic": 3821,
      "porary": 3822,
      "Äłobjects": 3823,
      "Äłillness": 3824,
      "Äłsituation": 3825,
      "ilosop": 3826,
      "ford": 3827,
      "Äłaim": 3828,
      "Äłcru": 3829,
      "Äłtool": 3830,
      "ÄłSun": 3831,
      "oday": 3832,
      "abilities": 3833,
      "Äłcommand": 3834,
      "ĠÄłbeing": 3835,
      "Äłeveryone": 3836,
      "Äłchanged": 3837,
      "Äłcurrently": 3838,
      "ĠÄłdifferent": 3839,
      "rieved": 3840,
      "rehens": 3841,
      "Äłsouth": 3842,
      "orage": 3843,
      "Äłtox": 3844,
      "Äłmiddle": 3845,
      "Äłep": 3846,
      "Äłgold": 3847,
      "odes": 3848,
      "Äłdeal": 3849,
      "rief": 3850,
      "Äłyourself": 3851,
      "ensity": 3852,
      "ictim": 3853,
      "Äłsett": 3854,
      "standing": 3855,
      "eech": 3856,
      "ociation": 3857,
      "Äłcosts": 3858,
      "Äłreceive": 3859,
      "force": 3860,
      "ÄłGerman": 3861,
      "Äłmaintain": 3862,
      "ÄłJewish": 3863,
      "cular": 3864,
      "ses": 3865,
      "wide": 3866,
      "zz": 3867,
      "Ġ(": 3868,
      "heck": 3869,
      "Äłpan": 3870,
      "icate": 3871,
      "Äłhope": 3872,
      "ille": 3873,
      "ouncil": 3874,
      "ĠÄłbel": 3875,
      "ĠÄłfollow": 3876,
      "ÄłGo": 3877,
      "rupt": 3878,
      "phas": 3879,
      "ÄłArt": 3880,
      "ÄłIsrael": 3881,
      "ÄłCanada": 3882,
      ");": 3883,
      "32": 3884,
      "75": 3885,
      "AL": 3886,
      "II": 3887,
      "aul": 3888,
      "pond": 3889,
      "rant": 3890,
      "uit": 3891,
      "uous": 3892,
      "Äłfert": 3893,
      "icians": 3894,
      "Äłmiss": 3895,
      "ÄłAccording": 3896,
      "Äłconsequ": 3897,
      "ĠÄłbec": 3898,
      "Äłrise": 3899,
      "ÄłJuly": 3900,
      "igned": 3901,
      "ĠÄłrequ": 3902,
      "cious": 3903,
      "Äłallowed": 3904,
      "Äłrunning": 3905,
      "Äłsummer": 3906,
      "By": 3907,
      "iable": 3908,
      "Ġ%": 3909,
      "Äłten": 3910,
      "orb": 3911,
      "Äłbreat": 3912,
      "Äłtoward": 3913,
      "Äłmig": 3914,
      "imilar": 3915,
      "idel": 3916,
      "ÄłSw": 3917,
      "Äłstyle": 3918,
      "ifically": 3919,
      "Äłord": 3920,
      "ÄłWashington": 3921,
      "ĠÄłfact": 3922,
      "irection": 3923,
      "ĠÄłev": 3924,
      "Äłdifferences": 3925,
      "Äłsolution": 3926,
      "fessor": 3927,
      "Äłbelief": 3928,
      "Äłsuccessful": 3929,
      "Äłeffort": 3930,
      "Äłefforts": 3931,
      "78": 3932,
      "OS": 3933,
      "aur": 3934,
      "cast": 3935,
      "ference": 3936,
      "oice": 3937,
      "ĠL": 3938,
      "Ġp": 3939,
      "ĠÄłvery": 3940,
      "ald": 3941,
      "Äłfederal": 3942,
      "iring": 3943,
      "Äłking": 3944,
      "Äłjoin": 3945,
      "isease": 3946,
      "Äłacad": 3947,
      "Äłformed": 3948,
      "Äłlocation": 3949,
      "Äładvant": 3950,
      "Äłveh": 3951,
      "Äłchoose": 3952,
      "Äłcompletely": 3953,
      "plications": 3954,
      "Äłtissue": 3955,
      "Ãı": 3956,
      "ĠG": 3957,
      "Ġm": 3958,
      "Äłsch": 3959,
      "Äłefficient": 3960,
      "irt": 3961,
      "ĠÄłpr": 3962,
      "ÄłDis": 3963,
      "ÄłRead": 3964,
      "Äłkid": 3965,
      "Äłapplied": 3966,
      "ails": 3967,
      "Äłtrack": 3968,
      "Äłremains": 3969,
      "Äłdevice": 3970,
      "Äłdegree": 3971,
      "Äłnutri": 3972,
      "Äłreligious": 3973,
      "Äłseparate": 3974,
      "ky": 3975,
      "Â·": 3976,
      "Ġ10": 3977,
      "Äłtable": 3978,
      "ingly": 3979,
      "stead": 3980,
      "ÄłTrans": 3981,
      "Äłitems": 3982,
      "Äłalthough": 3983,
      "ÄłMon": 3984,
      "ÄłHistory": 3985,
      "Äłdead": 3986,
      "ÄłRed": 3987,
      "ÄłGreat": 3988,
      "Äłimag": 3989,
      "ÄłInc": 3990,
      "Äłenh": 3991,
      "Äłneigh": 3992,
      "ÄłJesus": 3993,
      "lick": 3994,
      "gypt": 3995,
      "Äłhimself": 3996,
      "ĠÄłimport": 3997,
      "Äłimmune": 3998,
      "Äłcalcul": 3999,
      "Äłconnect": 4000,
      "Äłvirus": 4001,
      "ait": 4002,
      "rand": 4003,
      "Äłwrote": 4004,
      "Äłhttp": 4005,
      "Äłreasons": 4006,
      "Äłstar": 4007,
      "iful": 4008,
      "ĠÄłpat": 4009,
      "ocal": 4010,
      "ĠÄłgo": 4011,
      "Äłagricult": 4012,
      "Äłemissions": 4013,
      "iox": 4014,
      "Äłdiscovered": 4015,
      "ĠÄłexper": 4016,
      "vironmental": 4017,
      "Äłoccup": 4018,
      "Äłreports": 4019,
      "Äłhighest": 4020,
      "ÄłChristian": 4021,
      "kin": 4022,
      "Äłtrib": 4023,
      "ĠÄłent": 4024,
      "ĠÄłart": 4025,
      "orge": 4026,
      "itors": 4027,
      "Äłbase": 4028,
      "Äłfavor": 4029,
      "Äłhom": 4030,
      "Äłhyp": 4031,
      "iments": 4032,
      "ÄłSan": 4033,
      "ÄłMod": 4034,
      "ĠÄłworld": 4035,
      "ĠÄłsign": 4036,
      "ÄłDuring": 4037,
      "Äłrat": 4038,
      "ĠÄłdet": 4039,
      "ĠÄłext": 4040,
      "Äłoffers": 4041,
      "Äłobt": 4042,
      "Äłexamples": 4043,
      "ĠÄłNew": 4044,
      "Äłvisual": 4045,
      "known": 4046,
      "Äłpicture": 4047,
      "iance": 4048,
      "ÄłÃ¢Ä¢": 4049,
      "Äłtask": 4050,
      "ĠÄłet": 4051,
      "road": 4052,
      "Äłalone": 4053,
      "rome": 4054,
      "ocr": 4055,
      "Äłcompar": 4056,
      "reatment": 4057,
      "Äłperfect": 4058,
      "Äłblue": 4059,
      "Äłdepend": 4060,
      "Äłelectr": 4061,
      "Äłconstruct": 4062,
      "Äłchoice": 4063,
      "ĠÄłincre": 4064,
      "Äłrecommend": 4065,
      "Äłstrategies": 4066,
      "cles": 4067,
      "xiety": 4068,
      "Ġ|": 4069,
      "ĠÄłlear": 4070,
      "asure": 4071,
      "Äłstra": 4072,
      "ÄłIS": 4073,
      "Äłexhib": 4074,
      "ÄłBecause": 4075,
      "ÄłRoman": 4076,
      "ourt": 4077,
      "ÄłLaw": 4078,
      "Äłsequ": 4079,
      "Äłplaced": 4080,
      "aven": 4081,
      "ÄłJune": 4082,
      "Äłrain": 4083,
      "Äłsaw": 4084,
      "Äłpresence": 4085,
      "ÃĥÄ": 4086,
      "Äłcarried": 4087,
      "anguages": 4088,
      "Äłbelieved": 4089,
      "Äłmajority": 4090,
      "Äłlimit": 4091,
      "aught": 4092,
      "64": 4093,
      "Ad": 4094,
      "All": 4095,
      "ares": 4096,
      "ĠÄłthose": 4097,
      "rest": 4098,
      "alysis": 4099,
      "Äłder": 4100,
      "unt": 4101,
      "ÄłCity": 4102,
      "ÄłHigh": 4103,
      "ÄłDNA": 4104,
      "ework": 4105,
      "ager": 4106,
      "2020": 4107,
      "Äłjud": 4108,
      "Äłappears": 4109,
      "cipl": 4110,
      "ĠÄłeven": 4111,
      "Äłfeature": 4112,
      "Äłscreen": 4113,
      "Äłexperiences": 4114,
      "Äłvirt": 4115,
      "Äłillust": 4116,
      "Äłchallenges": 4117,
      "bl": 4118,
      "Äłcorn": 4119,
      "ica": 4120,
      "ulum": 4121,
      "Äłstrugg": 4122,
      "ÄłCong": 4123,
      "ÄłThen": 4124,
      "ĠÄłduring": 4125,
      "ĠÄłdisc": 4126,
      "Äłcontext": 4127,
      "Äłtrig": 4128,
      "Äłinstall": 4129,
      "Äłeverything": 4130,
      "Äłreflect": 4131,
      "ĠÄłval": 4132,
      "Äłfollowed": 4133,
      "Äłorganic": 4134,
      "Äłaffected": 4135,
      "iliar": 4136,
      "Â½": 4137,
      "Ãĳ": 4138,
      "ĠE": 4139,
      "Äłurban": 4140,
      "Äłwave": 4141,
      "Äłfile": 4142,
      "Äłfuel": 4143,
      "Äłmis": 4144,
      "Äłmid": 4145,
      "Äłdivid": 4146,
      "Äłrele": 4147,
      "etrieved": 4148,
      "Äłisn": 4149,
      "ida": 4150,
      "Äłgir": 4151,
      "Äłformer": 4152,
      "Äłforward": 4153,
      "Äłstories": 4154,
      "ÄłMexic": 4155,
      "ogle": 4156,
      "oods": 4157,
      "anges": 4158,
      "Äłrot": 4159,
      "othing": 4160,
      "Äłscale": 4161,
      "Äłremember": 4162,
      "onomic": 4163,
      "Äłdiabetes": 4164,
      "clusion": 4165,
      "Äłinvolves": 4166,
      "Äłconstruction": 4167,
      "Äłproperties": 4168,
      "ÄłPlan": 4169,
      "Äłstatus": 4170,
      "Äłbaby": 4171,
      "bi": 4172,
      "care": 4173,
      "ĠT": 4174,
      "Äłcry": 4175,
      "imens": 4176,
      "Äłstage": 4177,
      "ÄłPat": 4178,
      "Äłchurch": 4179,
      "Äłrule": 4180,
      "ÄłUse": 4181,
      "ube": 4182,
      "ĠÄłAl": 4183,
      "tee": 4184,
      "Äłtrade": 4185,
      "Äłcollection": 4186,
      "Äłrock": 4187,
      "ĠÄłprocess": 4188,
      "Äłsigns": 4189,
      "Äłready": 4190,
      "uthors": 4191,
      "Äłorganization": 4192,
      "Äłpoly": 4193,
      "Äłcommercial": 4194,
      "Some": 4195,
      "more": 4196,
      "uable": 4197,
      "ygen": 4198,
      "Â³": 4199,
      "Äłing": 4200,
      "essel": 4201,
      "orial": 4202,
      "eder": 4203,
      "asion": 4204,
      "Äłlat": 4205,
      "Äłgain": 4206,
      "Äłgave": 4207,
      "ĠÄłway": 4208,
      "Äłexec": 4209,
      "ĠÄłsaid": 4210,
      "Äłroot": 4211,
      "Äłproviding": 4212,
      "Äłexpand": 4213,
      "Äłexposure": 4214,
      "Äłexperts": 4215,
      "ĠÄłchildren": 4216,
      "Äłserve": 4217,
      "Äłmember": 4218,
      "ÄłSeptember": 4219,
      "Äłmoved": 4220,
      "Äłiniti": 4221,
      "can": 4222,
      "craft": 4223,
      "ias": 4224,
      "Äłur": 4225,
      "rete": 4226,
      "onst": 4227,
      "Äłcitizens": 4228,
      "Äłplease": 4229,
      "Äłbatter": 4230,
      "Äłtooth": 4231,
      "Äłdate": 4232,
      "Äłstream": 4233,
      "eces": 4234,
      "Äłcoming": 4235,
      "ÄłHouse": 4236,
      "ÄłGeneral": 4237,
      "Äłcontract": 4238,
      "ÄłChinese": 4239,
      "Äłconservation": 4240,
      "Äłsurvey": 4241,
      "Äłgoes": 4242,
      "Äłmedicine": 4243,
      "Äłdefined": 4244,
      "Äłexplore": 4245,
      "Äłinteresting": 4246,
      "Äłhappen": 4247,
      "Äłsignificantly": 4248,
      "Äłcombination": 4249,
      "ÄłBlack": 4250,
      "Äłhistorical": 4251,
      "US": 4252,
      "che": 4253,
      "cont": 4254,
      "pan": 4255,
      "Äłswe": 4256,
      "Äłcode": 4257,
      "Äłpiece": 4258,
      "Äłbillion": 4259,
      "Äłinnov": 4260,
      "Äłmut": 4261,
      "enth": 4262,
      "ÄłGen": 4263,
      "Äłneu": 4264,
      "ypes": 4265,
      "Äłacqu": 4266,
      "ditionally": 4267,
      "Äłvision": 4268,
      "upper": 4269,
      "ographic": 4270,
      "Äłelim": 4271,
      "Äłproperty": 4272,
      "Äłturned": 4273,
      "ometimes": 4274,
      "Äłconducted": 4275,
      "\",": 4276,
      "44": 4277,
      "95": 4278,
      "Äłbran": 4279,
      "Äłfully": 4280,
      "Äłmal": 4281,
      "Äłmap": 4282,
      "Äłmob": 4283,
      "igen": 4284,
      "ĠÄłwater": 4285,
      "ĠÄłfound": 4286,
      "Äłnotes": 4287,
      "oster": 4288,
      "ÄłLondon": 4289,
      "Äłplastic": 4290,
      "Äłuser": 4291,
      "ÄłOctober": 4292,
      "ÄłChurch": 4293,
      "2003": 4294,
      "Äłtransfer": 4295,
      "Äłinstru": 4296,
      "hemat": 4297,
      "Äłgraph": 4298,
      "Äłmotor": 4299,
      "ÄłInternet": 4300,
      "After": 4301,
      "ET": 4302,
      "house": 4303,
      "reated": 4304,
      "ittle": 4305,
      "Äłbed": 4306,
      "Äłmission": 4307,
      "Äłhon": 4308,
      "Äłreplace": 4309,
      "ĠÄłdef": 4310,
      "Äłseed": 4311,
      "Äłincreases": 4312,
      "ĠÄłsee": 4313,
      "ÄłProt": 4314,
      "Äłboard": 4315,
      "Äłoperations": 4316,
      "Äłinternal": 4317,
      "poses": 4318,
      "Äłmoving": 4319,
      "ĠÄłjust": 4320,
      "Äłopportunities": 4321,
      "uilding": 4322,
      "ped": 4323,
      "Äłtur": 4324,
      "ĠÄłown": 4325,
      "Äłmag": 4326,
      "ilit": 4327,
      "Äłevolution": 4328,
      "ÄłWeb": 4329,
      "Äłcommonly": 4330,
      "Äłgarden": 4331,
      "AM": 4332,
      "However": 4333,
      "Ġ||": 4334,
      "hether": 4335,
      "inn": 4336,
      "Äłcities": 4337,
      "icular": 4338,
      "Äłmax": 4339,
      "Äłeight": 4340,
      "Äłrepl": 4341,
      "Äłlaun": 4342,
      "ÄłAre": 4343,
      "ÄłMe": 4344,
      "umn": 4345,
      "ĠÄłcent": 4346,
      "ĠÄłsame": 4347,
      "ĠÄłpop": 4348,
      "Äłrules": 4349,
      "ÄłJanuary": 4350,
      "ĠÄłref": 4351,
      "ressive": 4352,
      "ĠÄłAn": 4353,
      "Äłprinc": 4354,
      "Äłinfections": 4355,
      "Äłearlier": 4356,
      "hips": 4357,
      "gery": 4358,
      "Äłcontinued": 4359,
      "ÄłEngland": 4360,
      "Äłtreated": 4361,
      "Äłpeace": 4362,
      "Äłbirds": 4363,
      "Äłimmediately": 4364,
      "55": 4365,
      "ken": 4366,
      "rong": 4367,
      "Äłfigure": 4368,
      "semb": 4369,
      "raction": 4370,
      "Äłchance": 4371,
      "ĠÄłmake": 4372,
      "ĠÄłmade": 4373,
      "ÄłJournal": 4374,
      "rices": 4375,
      "ĠÄłAr": 4376,
      "onomy": 4377,
      "Äłinsp": 4378,
      "Äłshowed": 4379,
      "Äłclassroom": 4380,
      "Äłwrong": 4381,
      "Äłdrugs": 4382,
      "Äłmanufacture": 4383,
      "AD": 4384,
      "EC": 4385,
      "EM": 4386,
      "bal": 4387,
      "mp": 4388,
      "Ãħ": 4389,
      "Äłtit": 4390,
      "ĠÄłra": 4391,
      "atform": 4392,
      "Äłsand": 4393,
      "Äłsave": 4394,
      "edic": 4395,
      "Äłfresh": 4396,
      "roid": 4397,
      "ams": 4398,
      "Äłalcohol": 4399,
      "ÄłTheir": 4400,
      "Äłheavy": 4401,
      "Äłspect": 4402,
      "asses": 4403,
      "Äłperhaps": 4404,
      "ĠÄłeach": 4405,
      "Äłactions": 4406,
      "Äłrepe": 4407,
      "ĠÄłThey": 4408,
      "....": 4409,
      "Äłbackground": 4410,
      "Äłpowerful": 4411,
      "Äłplanning": 4412,
      "Äłdidn": 4413,
      "Äłidentified": 4414,
      "ÄłMedicine": 4415,
      "Äłoptions": 4416,
      "gency": 4417,
      "onic": 4418,
      "olid": 4419,
      "ÄłSur": 4420,
      "ÄłFebruary": 4421,
      "Äłweak": 4422,
      "ĠÄłlife": 4423,
      "Äłhelped": 4424,
      "ĠÄłstate": 4425,
      "ÄłUnion": 4426,
      "Äłoffice": 4427,
      "Äłattract": 4428,
      "Äłfactor": 4429,
      "Äłminor": 4430,
      "pected": 4431,
      "Äłeducational": 4432,
      "Äłgenes": 4433,
      "Äłgenetic": 4434,
      "Äłelement": 4435,
      "ortunately": 4436,
      "Äłconcerns": 4437,
      "Äłsteps": 4438,
      "Äłeventually": 4439,
      "Äłnuclear": 4440,
      "Äłmoment": 4441,
      "ios": 4442,
      "inating": 4443,
      "Äłap": 4444,
      "Äłsample": 4445,
      "Äłwear": 4446,
      "alm": 4447,
      "Äłden": 4448,
      "omas": 4449,
      "Äłnamed": 4450,
      "ÄłTest": 4451,
      "change": 4452,
      "ÄłCom": 4453,
      "ĠÄłsmall": 4454,
      "ĠÄłfind": 4455,
      "ÄłChildren": 4456,
      "Äłdecisions": 4457,
      "oyal": 4458,
      "ĠÄłhealth": 4459,
      "Äłexisting": 4460,
      "99": 4461,
      "co": 4462,
      "eared": 4463,
      "ij": 4464,
      "la": 4465,
      "Åĥ": 4466,
      "Äłpow": 4467,
      "Äłmention": 4468,
      "ander": 4469,
      "Äłstore": 4470,
      "opy": 4471,
      "ÄłMuseum": 4472,
      "Äłvill": 4473,
      "ÄłWestern": 4474,
      "ÄłWilliam": 4475,
      "Äłrich": 4476,
      "ĠÄłdid": 4477,
      "Äłworth": 4478,
      "Äłmanage": 4479,
      "ishing": 4480,
      "ĠÄłevery": 4481,
      "ologists": 4482,
      "oving": 4483,
      "Äłanyone": 4484,
      "efore": 4485,
      "Äłcourt": 4486,
      "Äłapproximately": 4487,
      "Äłpresented": 4488,
      "ÄłDecember": 4489,
      "Äłdetails": 4490,
      "Äłpatterns": 4491,
      "Äłbalance": 4492,
      "Äłevalu": 4493,
      "Äłliquid": 4494,
      "ÃıÄ": 4495,
      "lant": 4496,
      "with": 4497,
      "Äłast": 4498,
      "Äłpet": 4499,
      "Äłinsect": 4500,
      "Äłdirection": 4501,
      "roph": 4502,
      "Äłhuge": 4503,
      "ĠÄłcar": 4504,
      "Äłnote": 4505,
      "Äłunf": 4506,
      "Äłunit": 4507,
      "Äłspring": 4508,
      "Äłspirit": 4509,
      "Äłintellig": 4510,
      "Äłdisorder": 4511,
      "ĠÄłlong": 4512,
      "anging": 4513,
      "ÄłVal": 4514,
      "ointed": 4515,
      "Äłassist": 4516,
      "Äłexperiment": 4517,
      "Äłeffectively": 4518,
      "Äłleads": 4519,
      "Äłdepression": 4520,
      "comes": 4521,
      "Äłguide": 4522,
      "Äłpassed": 4523,
      "Äłmilk": 4524,
      "Äłcollabor": 4525,
      "Äłmachine": 4526,
      "85": 4527,
      "Sh": 4528,
      "tical": 4529,
      "Ġ6": 4530,
      "Äłcere": 4531,
      "Äłwin": 4532,
      "Äłbra": 4533,
      "Äłbone": 4534,
      "Äłdatab": 4535,
      "olve": 4536,
      "ÄłSpec": 4537,
      "ÄłNow": 4538,
      "ĠÄłdist": 4539,
      "ago": 4540,
      "Äłplans": 4541,
      "apers": 4542,
      "2019": 4543,
      "Äłjour": 4544,
      "Äłactual": 4545,
      "Äłemail": 4546,
      "Äłassum": 4547,
      "Äłnumerous": 4548,
      "clus": 4549,
      "ĠÄłimp": 4550,
      "ognitive": 4551,
      "Äłtopic": 4552,
      "Äłletter": 4553,
      "Äłcomponents": 4554,
      "PS": 4555,
      "ras": 4556,
      "void": 4557,
      "ato": 4558,
      "atric": 4559,
      "encing": 4560,
      "Äłcam": 4561,
      "Äłphen": 4562,
      "Äłbodies": 4563,
      "Äłefficiency": 4564,
      "Äłnorm": 4565,
      "Äłexcess": 4566,
      "ÄłBra": 4567,
      "ĠÄłfe": 4568,
      "ÄłDec": 4569,
      "ÄłRel": 4570,
      "ĠÄłmust": 4571,
      "ourse": 4572,
      "aped": 4573,
      "Äłapply": 4574,
      "Äłoutput": 4575,
      "plete": 4576,
      "Äłconsult": 4577,
      "Äłregions": 4578,
      "Äłfund": 4579,
      "Äłexplain": 4580,
      "iveness": 4581,
      "Äłequal": 4582,
      "Äłobserved": 4583,
      "aturally": 4584,
      "Äłextremely": 4585,
      "gi": 4586,
      "rations": 4587,
      "works": 4588,
      "Äłcand": 4589,
      "Äłfig": 4590,
      "Äłdrop": 4591,
      "lements": 4592,
      "rog": 4593,
      "uty": 4594,
      "ÄłSm": 4595,
      "Äłstaff": 4596,
      "Äłconvers": 4597,
      "ocol": 4598,
      "Äłselect": 4599,
      "Äłdisorders": 4600,
      "ÄłJames": 4601,
      "riculum": 4602,
      "Äłqual": 4603,
      "ĠÄłget": 4604,
      "ĠÄłgroup": 4605,
      "Äłinstance": 4606,
      "Äłdetect": 4607,
      "Äłgeneration": 4608,
      "Äłliterature": 4609,
      "Äłarchitect": 4610,
      "Äłfarmers": 4611,
      "Äłriver": 4612,
      "ÄłAustralia": 4613,
      "Äłoxygen": 4614,
      "Äłstrength": 4615,
      "Äłestimated": 4616,
      "Is": 4617,
      "Res": 4618,
      "Wh": 4619,
      "Ã¡": 4620,
      "Ġthe": 4621,
      "Äłwatch": 4622,
      "arter": 4623,
      "Äłisland": 4624,
      "ÄłSince": 4625,
      "ÄłPeople": 4626,
      "Äłvary": 4627,
      "ĠÄłboth": 4628,
      "ÄłWork": 4629,
      "ÄłEast": 4630,
      "ÄłRo": 4631,
      "ĠÄłmon": 4632,
      "oking": 4633,
      "Äłworked": 4634,
      "Äłtruth": 4635,
      "Äłrelatively": 4636,
      "Äłdecades": 4637,
      "ĠÄłprodu": 4638,
      "Äłpresident": 4639,
      "Äłpopulations": 4640,
      "Äłbuildings": 4641,
      "Äłgene": 4642,
      "Äłpolicies": 4643,
      "Äłcycle": 4644,
      "board": 4645,
      "ÄłGermany": 4646,
      "Äłjobs": 4647,
      "Äłutil": 4648,
      "Äłprinciples": 4649,
      "which": 4650,
      "Äłfemale": 4651,
      "47": 4652,
      "rum": 4653,
      "ux": 4654,
      "Â§": 4655,
      "Äłcert": 4656,
      "icted": 4657,
      "ste": 4658,
      "Äłforces": 4659,
      "andom": 4660,
      "adian": 4661,
      "Ġ.\"": 4662,
      "Äłwhom": 4663,
      "Äłvessel": 4664,
      "Äłincome": 4665,
      "Äłresource": 4666,
      "Äłjournal": 4667,
      "That": 4668,
      "Äłgoals": 4669,
      "Äłbuy": 4670,
      "Äłfunctions": 4671,
      "Äłsolutions": 4672,
      "Äłreducing": 4673,
      "Äłchanging": 4674,
      "Äłantib": 4675,
      "Äłsuggests": 4676,
      "Äłtemperatures": 4677,
      "cellent": 4678,
      "Äłrecommended": 4679,
      "Äłfriend": 4680,
      "Äłdestroy": 4681,
      "ĠÄłagain": 4682,
      "Äłsexual": 4683,
      "Äłvegetables": 4684,
      "Our": 4685,
      "UR": 4686,
      "ugh": 4687,
      "Âº": 4688,
      "Â»": 4689,
      "Ãĺ": 4690,
      "Ġ7": 4691,
      "Äłwoman": 4692,
      "Äłpul": 4693,
      "Äłfol": 4694,
      "Äłdoub": 4695,
      "ÄłMal": 4696,
      "ÄłEgypt": 4697,
      "ĠÄłdoes": 4698,
      "Äładult": 4699,
      "Äłupd": 4700,
      "ĠÄłprot": 4701,
      "Äłremoved": 4702,
      "Äłgets": 4703,
      "Äłresulting": 4704,
      "ÄłAsia": 4705,
      "Äłfindings": 4706,
      "Äłrisks": 4707,
      "Äłallowing": 4708,
      "ĠÄłlevel": 4709,
      "Äłlooks": 4710,
      "Äłfailure": 4711,
      "Why": 4712,
      "iant": 4713,
      "ieces": 4714,
      "met": 4715,
      "Äłcook": 4716,
      "Äłreality": 4717,
      "Äłgames": 4718,
      "ÄłService": 4719,
      "ession": 4720,
      "acing": 4721,
      "ĠÄłmuch": 4722,
      "ÄłNet": 4723,
      "ÄłNovember": 4724,
      "ĠÄłdem": 4725,
      "ĠÄłreport": 4726,
      "ĠÄłbefore": 4727,
      "Äłcollege": 4728,
      "Äłagg": 4729,
      "hesis": 4730,
      "Äłexpress": 4731,
      "Äłsubs": 4732,
      "Äłremove": 4733,
      "Äłcreation": 4734,
      "ĠÄłexp": 4735,
      "Äłopin": 4736,
      "Äłmetal": 4737,
      "roduction": 4738,
      "Äłvolume": 4739,
      "Äłsitu": 4740,
      "Äłcampaign": 4741,
      "Äłthousands": 4742,
      "HE": 4743,
      "mark": 4744,
      "zing": 4745,
      "Â´": 4746,
      "Äłtum": 4747,
      "Äłtren": 4748,
      "Äłpages": 4749,
      "ctors": 4750,
      "uration": 4751,
      "uter": 4752,
      "ulner": 4753,
      "Äłyellow": 4754,
      "ĠÄłschool": 4755,
      "ĠÄłinv": 4756,
      "ĠÄłinformation": 4757,
      "ÄłFrance": 4758,
      "ÄłNA": 4759,
      "Äłunivers": 4760,
      "ÄłJust": 4761,
      "ĠÄłrese": 4762,
      "ĠÄłgood": 4763,
      "Äłinflamm": 4764,
      "ĠÄłIs": 4765,
      "ĠÄłBut": 4766,
      "ÄłTherefore": 4767,
      "ndrome": 4768,
      "Äłlayer": 4769,
      "Äłmeeting": 4770,
      "Äłbottom": 4771,
      "atically": 4772,
      "Äłcateg": 4773,
      "itz": 4774,
      "Äłple": 4775,
      "Äłpun": 4776,
      "aria": 4777,
      "Äłfields": 4778,
      "Äłhomes": 4779,
      "Äłnative": 4780,
      "ceived": 4781,
      "uting": 4782,
      "Äłstorage": 4783,
      "ĠÄłperson": 4784,
      "ÄłWhy": 4785,
      "They": 4786,
      "ÄłOb": 4787,
      "ÄłOnce": 4788,
      "Äłpartners": 4789,
      "erves": 4790,
      "ÄłUnder": 4791,
      "Äłorganizations": 4792,
      "Äłeasier": 4793,
      "ttps": 4794,
      "ÄłSpanish": 4795,
      "Äłindustrial": 4796,
      "Äłrelationships": 4797,
      "ÄłDavid": 4798,
      "Äłatmosphere": 4799,
      "41": 4800,
      "BN": 4801,
      "nic": 4802,
      "Â¶": 4803,
      "Â¹": 4804,
      "Ġ]": 4805,
      "Äłsem": 4806,
      "Äłborn": 4807,
      "ionals": 4808,
      "Äłdri": 4809,
      "Äłnames": 4810,
      "Äłvictim": 4811,
      "ervices": 4812,
      "ĠÄłyear": 4813,
      "Äłnovel": 4814,
      "Äłreference": 4815,
      "Äłenter": 4816,
      "1990": 4817,
      "Äłlearned": 4818,
      "Äłterrit": 4819,
      "Äłamounts": 4820,
      "Äłconnected": 4821,
      "ÄłSea": 4822,
      "Äłfreed": 4823,
      "Äłclearly": 4824,
      "aughter": 4825,
      "ING": 4826,
      "ÃĦÄ£": 4827,
      "ÃĳÄ": 4828,
      "48": 4829,
      "win": 4830,
      "alle": 4831,
      "eding": 4832,
      "Äłburn": 4833,
      "Äłbattle": 4834,
      "ician": 4835,
      "Äłdoll": 4836,
      "Äłlived": 4837,
      "ategy": 4838,
      "Äłchronic": 4839,
      "ÄłFore": 4840,
      "ightly": 4841,
      "acters": 4842,
      "ĠÄłret": 4843,
      "ensus": 4844,
      "Äłsetting": 4845,
      "ÄłAlso": 4846,
      "Äłstrategy": 4847,
      "Äłbox": 4848,
      "iverse": 4849,
      "Äłimproved": 4850,
      "Äłstructures": 4851,
      "Äłpromote": 4852,
      "Äłdiscussion": 4853,
      "Äłprepared": 4854,
      "idelines": 4855,
      "46": 4856,
      "Â«": 4857,
      "Ġh": 4858,
      "Äłtour": 4859,
      "onn": 4860,
      "Äłsamples": 4861,
      "Äłanxiety": 4862,
      "Äłmale": 4863,
      "Äłdie": 4864,
      "roke": 4865,
      "Äłhorm": 4866,
      "Äłrelease": 4867,
      "etter": 4868,
      "otes": 4869,
      "otics": 4870,
      "Äłgiving": 4871,
      "ÄłSee": 4872,
      "ÄłSociety": 4873,
      "ÄłMary": 4874,
      "ÄłMount": 4875,
      "ÄłFound": 4876,
      "ĠÄłdata": 4877,
      "Äłkilled": 4878,
      "2018": 4879,
      "ĠÄłnow": 4880,
      "overty": 4881,
      "ieties": 4882,
      "ĠÄłorgan": 4883,
      "Äłtechnique": 4884,
      "ĠÄłFor": 4885,
      "ÄłProgram": 4886,
      "Äłfamous": 4887,
      "ĠÄłimm": 4888,
      "Äłforeign": 4889,
      "Äłnutrition": 4890,
      "Äłfrequently": 4891,
      "ÄłAssociation": 4892,
      "Äłregularly": 4893,
      "Äłwonder": 4894,
      "ault": 4895,
      "field": 4896,
      "Â¿": 4897,
      "Äłupper": 4898,
      "Äłtou": 4899,
      "rep": 4900,
      "Äłsac": 4901,
      "Äłsort": 4902,
      "isation": 4903,
      "Äłcovered": 4904,
      "itoring": 4905,
      "Äłbound": 4906,
      "Äłfine": 4907,
      "Äłgender": 4908,
      "acific": 4909,
      "ÄłPort": 4910,
      "anted": 4911,
      "ĠÄłdown": 4912,
      "ÄłGreen": 4913,
      "Äłspeech": 4914,
      "Äłintended": 4915,
      "ĠÄłAs": 4916,
      "ĠÄłgreat": 4917,
      "186": 4918,
      "ĠÄłPro": 4919,
      "Äłprocessing": 4920,
      "raining": 4921,
      "Äłowners": 4922,
      "Äłvaluable": 4923,
      "Äłdrive": 4924,
      "Äłlegis": 4925,
      "Äłproperly": 4926,
      "ĠÄłappro": 4927,
      "Äłchallenge": 4928,
      "Äłdegrees": 4929,
      "obert": 4930,
      "Äłintroduced": 4931,
      "Äłrevolution": 4932,
      "Äłdistribution": 4933,
      "Äłeggs": 4934,
      "Äłclinical": 4935,
      "eaking": 4936,
      "ixt": 4937,
      "pen": 4938,
      "su": 4939,
      "then": 4940,
      "Äłmist": 4941,
      "Äłthr": 4942,
      "Äłthick": 4943,
      "Äłhun": 4944,
      "urd": 4945,
      "ÄłCor": 4946,
      "ÄłPress": 4947,
      "ĠÄłfl": 4948,
      "ÄłEach": 4949,
      "ÄłLatin": 4950,
      "ÄłUK": 4951,
      "Äłcomprehens": 4952,
      "ÄłThus": 4953,
      "bert": 4954,
      "riting": 4955,
      "ÄłAng": 4956,
      "Äłemphas": 4957,
      "ĠÄłIf": 4958,
      "Äłexplained": 4959,
      "ÄłArch": 4960,
      "Äłcapacity": 4961,
      "Äłrequirements": 4962,
      "Äłhousehold": 4963,
      "Äłkinds": 4964,
      "ÄłGeorge": 4965,
      "ÄłWhite": 4966,
      "Äłlinked": 4967,
      "Äłregarding": 4968,
      "Äłmoist": 4969,
      "EL": 4970,
      "tion": 4971,
      "za": 4972,
      "ĠÄłest": 4973,
      "requ": 4974,
      "Äłsounds": 4975,
      "Äłsouthern": 4976,
      "Äłwall": 4977,
      "Äłpump": 4978,
      "Äłbud": 4979,
      "Äłball": 4980,
      "Äłinh": 4981,
      "Äłnorthern": 4982,
      "utive": 4983,
      "ÄłST": 4984,
      "Äłconv": 4985,
      "ĠÄłpract": 4986,
      "ÄłDon": 4987,
      "ĠÄłdep": 4988,
      "Äłplatform": 4989,
      "Äłresistance": 4990,
      "ĠÄłgovernment": 4991,
      "ÄłVir": 4992,
      "Äłinstruct": 4993,
      "ÄłProfessor": 4994,
      "Äłshowing": 4995,
      "ifying": 4996,
      "Äłwanted": 4997,
      "Äłhappens": 4998,
      "Äłprofessor": 4999,
      "Äłconcepts": 5000,
      "ÄłCongress": 5001,
      "des": 5002,
      "hav": 5003,
      "van": 5004,
      "Â¥": 5005,
      "Ġ8": 5006,
      "ĠÄłec": 5007,
      "Äłoption": 5008,
      "Äłbrief": 5009,
      "Äłinvent": 5010,
      "level": 5011,
      "state": 5012,
      "olars": 5013,
      "ulating": 5014,
      "ÄłSu": 5015,
      "ÄłCouncil": 5016,
      "Äłalt": 5017,
      "ÄłPublic": 5018,
      "oung": 5019,
      "ĠÄłcond": 5020,
      "ĠÄłset": 5021,
      "ÄłLord": 5022,
      "ÄłKe": 5023,
      "athy": 5024,
      "Äłgrass": 5025,
      "Äłoffered": 5026,
      "Äłtransl": 5027,
      "Äłdistinct": 5028,
      "Äłthoughts": 5029,
      "ÄłPhil": 5030,
      "ÄłRepublic": 5031,
      "levant": 5032,
      "Äłrecorded": 5033,
      "Äłalternative": 5034,
      "Äłfertil": 5035,
      "ND": 5036,
      "Now": 5037,
      "ST": 5038,
      "ii": 5039,
      "och": 5040,
      "Äłtim": 5041,
      "ĠÄłusing": 5042,
      "Äłfear": 5043,
      "uts": 5044,
      "ÄłSy": 5045,
      "ÄłPal": 5046,
      "ounced": 5047,
      "ÄłFl": 5048,
      "ĠÄłmin": 5049,
      "Äłunits": 5050,
      "Äłclick": 5051,
      "Äłprefer": 5052,
      "onds": 5053,
      "Äłhelping": 5054,
      "185": 5055,
      "Äłoffic": 5056,
      "Äłexposed": 5057,
      "Äłdiscover": 5058,
      "Äłgrade": 5059,
      "Äłcharge": 5060,
      "Äłorigin": 5061,
      "Äłdescribe": 5062,
      "Äłindependent": 5063,
      "Äłvaccine": 5064,
      "Äłacademic": 5065,
      "ĠÄłimportant": 5066,
      "AP": 5067,
      "Ar": 5068,
      "MS": 5069,
      "band": 5070,
      "col": 5071,
      "nel": 5072,
      "Âµ": 5073,
      "hetic": 5074,
      "eters": 5075,
      "oted": 5076,
      "urance": 5077,
      "eles": 5078,
      "opes": 5079,
      "respond": 5080,
      "keep": 5081,
      "Äłexcept": 5082,
      "Äłexcellent": 5083,
      "ÄłHIV": 5084,
      "ÄłInter": 5085,
      "ÄłOver": 5086,
      "ĠÄłless": 5087,
      "anged": 5088,
      "ĠÄłAmerican": 5089,
      "rowing": 5090,
      "188": 5091,
      "Äłflood": 5092,
      "cientists": 5093,
      "exas": 5094,
      "Äłexplan": 5095,
      "Äłdistance": 5096,
      "risk": 5097,
      "Another": 5098,
      "Äłrecognize": 5099,
      "____": 5100,
      "ÄłLearning": 5101,
      "Äłtoxic": 5102,
      "300": 5103,
      "gment": 5104,
      "ping": 5105,
      "Ġb": 5106,
      "esis": 5107,
      "isher": 5108,
      "itage": 5109,
      "inger": 5110,
      "Äłbank": 5111,
      "Äłbird": 5112,
      "Äłfoss": 5113,
      "Äłinput": 5114,
      "iling": 5115,
      "ota": 5116,
      "igation": 5117,
      "ÄłMiss": 5118,
      "oser": 5119,
      "ĠÄłco": 5120,
      "riage": 5121,
      "Äłnoted": 5122,
      "ags": 5123,
      "active": 5124,
      "apes": 5125,
      "Äłarm": 5126,
      "ciences": 5127,
      "Äłbecoming": 5128,
      "Äłtrust": 5129,
      "ÄłVol": 5130,
      "Äłmostly": 5131,
      "Äłphase": 5132,
      "Äłobvious": 5133,
      "ĠÄłWe": 5134,
      "Äłfinding": 5135,
      "Äłmuscle": 5136,
      "Äłoccurred": 5137,
      "Äłinternet": 5138,
      "ÄłPhys": 5139,
      "Äłflowers": 5140,
      "Äłmulti": 5141,
      "Äłradio": 5142,
      "Äłcollected": 5143,
      "Äłpredict": 5144,
      "going": 5145,
      "Äłannual": 5146,
      "Äłsteel": 5147,
      "97": 5148,
      "More": 5149,
      "uzz": 5150,
      "war": 5151,
      "west": 5152,
      "ĠÄłthree": 5153,
      "enry": 5154,
      "Äłmer": 5155,
      "Äłlanguages": 5156,
      "ÄłTr": 5157,
      "Äłstation": 5158,
      "Äłstars": 5159,
      "ado": 5160,
      "Äłalg": 5161,
      "ested": 5162,
      "Äłcompl": 5163,
      "ĠÄłgl": 5164,
      "2002": 5165,
      "Äłdespite": 5166,
      "Äłscen": 5167,
      "ĠÄłEng": 5168,
      "apping": 5169,
      "Äłsupported": 5170,
      "Äłclasses": 5171,
      "Äłexperienced": 5172,
      "Äłperformed": 5173,
      "Äłfocused": 5174,
      "Äłradiation": 5175,
      "Äłcharacteristics": 5176,
      "Äłviolence": 5177,
      "Äłelectricity": 5178,
      "ĠÄłsupport": 5179,
      "Äłcounter": 5180,
      "Äłexactly": 5181,
      "Äłsustainable": 5182,
      "Äłaspects": 5183,
      "RI": 5184,
      "name": 5185,
      "wood": 5186,
      "Ġ!": 5187,
      "Ġe": 5188,
      "Äłtasks": 5189,
      "ĠÄłocc": 5190,
      "inder": 5191,
      "eries": 5192,
      "Äłsav": 5193,
      "ishes": 5194,
      "Äłcore": 5195,
      "Äłwest": 5196,
      "alse": 5197,
      "Äłpieces": 5198,
      "Äłflex": 5199,
      "Äłmath": 5200,
      "Äłdra": 5201,
      "roc": 5202,
      "Äłhair": 5203,
      "Äłhaz": 5204,
      "ÄłAD": 5205,
      "ÄłCath": 5206,
      "Äłaren": 5207,
      "Äłheight": 5208,
      "ĠÄłpower": 5209,
      "ÄłHuman": 5210,
      "ĠÄłmem": 5211,
      "Äłspot": 5212,
      "aker": 5213,
      "Äłdisp": 5214,
      "cium": 5215,
      "Äłphilosop": 5216,
      "Äłsecret": 5217,
      "Äłarticles": 5218,
      "Äłdepending": 5219,
      "1997": 5220,
      "ÄłArmy": 5221,
      "Äłinvolve": 5222,
      "Äłdetailed": 5223,
      "Äłchemicals": 5224,
      "Äłsymbol": 5225,
      "Äłfaith": 5226,
      "Äłbeautiful": 5227,
      "Äłstraight": 5228,
      "CO": 5229,
      "cest": 5230,
      "mal": 5231,
      "Ġa": 5232,
      "Äłtips": 5233,
      "ĠÄłend": 5234,
      "rem": 5235,
      "organ": 5236,
      "Äłfib": 5237,
      "Äłhospital": 5238,
      "struct": 5239,
      "stream": 5240,
      "Äłreached": 5241,
      "rade": 5242,
      "Äłfort": 5243,
      "ÄłSam": 5244,
      "ÄłMich": 5245,
      "osystem": 5246,
      "Äłcomfort": 5247,
      "ÄłDem": 5248,
      "ria": 5249,
      "ÄłEc": 5250,
      "ÄłRem": 5251,
      "Äłspent": 5252,
      "ĠÄłredu": 5253,
      "ÄłIts": 5254,
      "2001": 5255,
      "tenance": 5256,
      "ĠÄłwhile": 5257,
      "Äłformation": 5258,
      "Äłtechnologies": 5259,
      "rolog": 5260,
      "Äłconfirm": 5261,
      "Äłtopics": 5262,
      "Äłoperating": 5263,
      "ĠÄładv": 5264,
      "Äłcontribute": 5265,
      "Äłwidely": 5266,
      "Äłinjury": 5267,
      "Äłpreviously": 5268,
      "Äłemotional": 5269,
      "Äładopted": 5270,
      "Äłdangerous": 5271,
      "Äładvantage": 5272,
      "From": 5273,
      "OT": 5274,
      "iology": 5275,
      "las": 5276,
      "Äłocean": 5277,
      "ita": 5278,
      "itness": 5279,
      "Äłpick": 5280,
      "Äłconver": 5281,
      "ÄłMiddle": 5282,
      "Äłheard": 5283,
      "Äłvent": 5284,
      "Äłvitamin": 5285,
      "ÄłHol": 5286,
      "ĠÄłday": 5287,
      "ÄłLet": 5288,
      "Äładjust": 5289,
      "Äłcontrast": 5290,
      "Äłincorpor": 5291,
      "rence": 5292,
      "Äłspecifically": 5293,
      "Äłexpression": 5294,
      "Äłsurgery": 5295,
      "Äłcalls": 5296,
      "Äłcausing": 5297,
      "ÄłProject": 5298,
      "Äłtreatments": 5299,
      "Äłlargely": 5300,
      "ĠÄłplace": 5301,
      "Äłelev": 5302,
      "ĠÄłresp": 5303,
      "Äłcircum": 5304,
      "Äłconcern": 5305,
      "Äłinitial": 5306,
      "Äłassessment": 5307,
      "Äłprocedure": 5308,
      "Äłpollution": 5309,
      "ÄłJapanese": 5310,
      "Äłaccurate": 5311,
      "According": 5312,
      "DF": 5313,
      "ball": 5314,
      "ye": 5315,
      "reate": 5316,
      "reci": 5317,
      "atus": 5318,
      "Äłprices": 5319,
      "olute": 5320,
      "ÄłTur": 5321,
      "resents": 5322,
      "ĠÄłcare": 5323,
      "ĠÄłcap": 5324,
      "ĠÄłcalled": 5325,
      "ÄłDi": 5326,
      "Äłrul": 5327,
      "Äłkm": 5328,
      "ĠÄłnumber": 5329,
      "ĠÄłrep": 5330,
      "Äłmeat": 5331,
      "Äłcompleted": 5332,
      "Äłserved": 5333,
      "Äłstarting": 5334,
      "Äładvoc": 5335,
      "Äłimmig": 5336,
      "ĠÄłresult": 5337,
      "Äłconnection": 5338,
      "ÄłTechnology": 5339,
      "Äłreligion": 5340,
      "Äłcopy": 5341,
      "Äłconcentration": 5342,
      "Äłcredit": 5343,
      "67": 5344,
      "CC": 5345,
      "Im": 5346,
      "run": 5347,
      "tes": 5348,
      "well": 5349,
      "Ġg": 5350,
      "ÄłÃ¢Ä": 5351,
      "Äłiron": 5352,
      "inant": 5353,
      "Äłauthors": 5354,
      "Äłtherap": 5355,
      "Äłsector": 5356,
      "ancing": 5357,
      "oral": 5358,
      "itt": 5359,
      "Äłnaturally": 5360,
      "ÄłSal": 5361,
      "ÄłSub": 5362,
      "ÄłSupp": 5363,
      "Äłoral": 5364,
      "istan": 5365,
      "emporary": 5366,
      "Äłhear": 5367,
      "ĠÄłprop": 5368,
      "ĠÄłpublic": 5369,
      "ÄłFood": 5370,
      "Äłwealth": 5371,
      "Äłimpl": 5372,
      "Äłrail": 5373,
      "Äłphone": 5374,
      "ĠÄłwithout": 5375,
      "Äłsubsequ": 5376,
      "Äłattacks": 5377,
      "vironments": 5378,
      "ĠÄłexpl": 5379,
      "1998": 5380,
      "rison": 5381,
      "Äłcharacters": 5382,
      "Äłdrink": 5383,
      "ĠÄłconf": 5384,
      "Äłpurposes": 5385,
      "Äłkeeping": 5386,
      "Äłimpacts": 5387,
      "ĠÄłdevelop": 5388,
      "Äłfiles": 5389,
      "plicated": 5390,
      "ÄłJews": 5391,
      "Äłprocedures": 5392,
      "Äłreferred": 5393,
      "Äłmessage": 5394,
      "Äłbehaviour": 5395,
      "Äłsurrounding": 5396,
      "Ph": 5397,
      "Qu": 5398,
      "RO": 5399,
      "Us": 5400,
      "body": 5401,
      "chers": 5402,
      "iated": 5403,
      "nam": 5404,
      "oo": 5405,
      "ya": 5406,
      "Ġ000": 5407,
      "Äław": 5408,
      "Äłpp": 5409,
      "Äłpark": 5410,
      "ouis": 5411,
      "astern": 5412,
      "Äłhit": 5413,
      "Äłnit": 5414,
      "Äłforced": 5415,
      "ÄłMac": 5416,
      "ĠÄłback": 5417,
      "ÄłElect": 5418,
      "ÄłRich": 5419,
      "ÄłUp": 5420,
      "Äłoutcomes": 5421,
      "Äłparty": 5422,
      "oviet": 5423,
      "eneration": 5424,
      "ĠÄłwithin": 5425,
      "ĠÄłGod": 5426,
      "1996": 5427,
      "Äłcoal": 5428,
      "Äłcooper": 5429,
      "Äłbelong": 5430,
      "Äłreduction": 5431,
      "Äłstatement": 5432,
      "ĠÄłInd": 5433,
      "ÄłIsland": 5434,
      "ÄłConf": 5435,
      "Äłinterested": 5436,
      "Äłcombined": 5437,
      "Äłbrother": 5438,
      "Äłconflict": 5439,
      "Äłcrucial": 5440,
      "Äłgirls": 5441,
      "ÄłMexico": 5442,
      "down": 5443,
      "uing": 5444,
      "Â£": 5445,
      "Â¨": 5446,
      "ĠJ": 5447,
      "ĠÄłant": 5448,
      "eria": 5449,
      "Äłsin": 5450,
      "Äłchem": 5451,
      "ctic": 5452,
      "ston": 5453,
      "Äłreb": 5454,
      "Äłlung": 5455,
      "iders": 5456,
      "Äłstorm": 5457,
      "iform": 5458,
      "atever": 5459,
      "ÄłBay": 5460,
      "Äłvital": 5461,
      "ÄłDist": 5462,
      "Äłnotice": 5463,
      "Äładequ": 5464,
      "ÄłUN": 5465,
      "ignment": 5466,
      "ĠÄłnon": 5467,
      "Äłimpossible": 5468,
      "ĠÄłSh": 5469,
      "Äłcolle": 5470,
      "Äłminimum": 5471,
      "Äłparticles": 5472,
      "risis": 5473,
      "Äłideal": 5474,
      "ĠÄłcontin": 5475,
      "Äłessay": 5476,
      "Äłabsorb": 5477,
      "lorida": 5478,
      "Äłroutine": 5479,
      "Äławareness": 5480,
      "Äłphenomen": 5481,
      "ught": 5482,
      "Äłfreedom": 5483,
      "'ll": 5484,
      "400": 5485,
      "IL": 5486,
      "ael": 5487,
      "cers": 5488,
      "li": 5489,
      "lan": 5490,
      "mary": 5491,
      "pat": 5492,
      "Ġ9": 5493,
      "ĠÄłel": 5494,
      "ĠÄłcell": 5495,
      "Äłod": 5496,
      "Äłwife": 5497,
      "arrow": 5498,
      "stood": 5499,
      "uls": 5500,
      "Äłonto": 5501,
      "Äłstored": 5502,
      "eline": 5503,
      "ÄłCourt": 5504,
      "Ġ,\"": 5505,
      "ache": 5506,
      "ÄłPol": 5507,
      "Äłheav": 5508,
      "Äłhearing": 5509,
      "Äłvulner": 5510,
      "Äłdiss": 5511,
      "ĠÄłne": 5512,
      "ĠÄłlarge": 5513,
      "Äłrecords": 5514,
      "Äłgrand": 5515,
      "ĠÄłPh": 5516,
      "ventional": 5517,
      "Äłsurpris": 5518,
      "Äłsmart": 5519,
      "Äłtransform": 5520,
      "Äłsignal": 5521,
      "Äłrefers": 5522,
      "Äłshel": 5523,
      "Äłexplains": 5524,
      "1995": 5525,
      "1999": 5526,
      "Äłcareer": 5527,
      "Äłoperation": 5528,
      "ÄłEnergy": 5529,
      "ÄłOrgan": 5530,
      "Äłobserv": 5531,
      "ipped": 5532,
      "Äłfrequency": 5533,
      "rastructure": 5534,
      "Äłencourage": 5535,
      "Äłpregnancy": 5536,
      "Äłnutrients": 5537,
      "49": 5538,
      "DC": 5539,
      "IR": 5540,
      "TS": 5541,
      "ooth": 5542,
      "othe": 5543,
      "ÄłTwo": 5544,
      "Äłgod": 5545,
      "terol": 5546,
      "osite": 5547,
      "ĠÄłshe": 5548,
      "ĠÄłmed": 5549,
      "Äłshared": 5550,
      "Äłseven": 5551,
      "ulture": 5552,
      "Äłinches": 5553,
      "Äłperman": 5554,
      "orses": 5555,
      "Äłjoint": 5556,
      "Äłstudied": 5557,
      "Äłdecline": 5558,
      "Ġ://": 5559,
      "Äłtypical": 5560,
      "ÄłProv": 5561,
      "Äłdrinking": 5562,
      "Äładvanced": 5563,
      "ĠÄłright": 5564,
      "Äłcontinues": 5565,
      "Äłpotentially": 5566,
      "being": 5567,
      "Äłsuffering": 5568,
      "ÄłStudents": 5569,
      "Äłreaction": 5570,
      "Äłcomponent": 5571,
      "Äłinterpret": 5572,
      "Äłbegins": 5573,
      "Äłreleased": 5574,
      "Äłbattery": 5575,
      "Äłdatabase": 5576,
      "DA": 5577,
      "Te": 5578,
      "ny": 5579,
      "rating": 5580,
      "ville": 5581,
      "Â¾": 5582,
      "Äłsong": 5583,
      "Äłwestern": 5584,
      "arp": 5585,
      "Äłfaster": 5586,
      "Äłfirm": 5587,
      "Äłdyn": 5588,
      "iginal": 5589,
      "under": 5590,
      "emper": 5591,
      "ĠÄłsim": 5592,
      "ĠÄłsocial": 5593,
      "Äłvoice": 5594,
      "riers": 5595,
      "ÄłLake": 5596,
      "agers": 5597,
      "Äłkill": 5598,
      "ĠÄłtake": 5599,
      "ailed": 5600,
      "ĠÄłAd": 5601,
      "ĠÄłAnd": 5602,
      "ĠÄłgu": 5603,
      "ĠÄłstill": 5604,
      "Äłtechnical": 5605,
      "cientific": 5606,
      "Äłsettle": 5607,
      "Äłfacts": 5608,
      "Äłsolid": 5609,
      "Äłtested": 5610,
      "Äłlesson": 5611,
      "ÄłCollege": 5612,
      "Äłprofessionals": 5613,
      "Äłsuggested": 5614,
      "Äłprimarily": 5615,
      "Äłfluid": 5616,
      "ĠÄłinterest": 5617,
      "Äłproposed": 5618,
      "Äłproteins": 5619,
      "Äłinjuries": 5620,
      "Äłdiagnosis": 5621,
      "Äłcrops": 5622,
      "BC": 5623,
      "Cl": 5624,
      "Here": 5625,
      "Many": 5626,
      "Other": 5627,
      "burg": 5628,
      "gans": 5629,
      "rus": 5630,
      "rite": 5631,
      "rants": 5632,
      "Â²": 5633,
      "Ġin": 5634,
      "Äłsalt": 5635,
      "arious": 5636,
      "icks": 5637,
      "Äłdouble": 5638,
      "stances": 5639,
      "Äłnarr": 5640,
      "cel": 5641,
      "umin": 5642,
      "ÄłPacific": 5643,
      "ÄłBer": 5644,
      "ÄłBas": 5645,
      "rier": 5646,
      "ĠÄłmethod": 5647,
      "ÄłGovernment": 5648,
      "Äłpret": 5649,
      "Äłrelative": 5650,
      "Äłinfected": 5651,
      "Äłdecided": 5652,
      "ĠÄłarea": 5653,
      "Äłdiam": 5654,
      "Äłdiverse": 5655,
      "Äłprotected": 5656,
      "ÄłNews": 5657,
      "ĠÄłshow": 5658,
      "Äładvance": 5659,
      "Äładvice": 5660,
      "ĠÄłlead": 5661,
      "ÄłSpace": 5662,
      "ĠÄłplan": 5663,
      "Äłconnections": 5664,
      "1970": 5665,
      "olesterol": 5666,
      "Äłengineering": 5667,
      "Äłemergency": 5668,
      "Äłdrawing": 5669,
      "Äłinstitutions": 5670,
      "Äłsquare": 5671,
      "Äłlandscape": 5672,
      "Äłcouple": 5673,
      "Äłdivided": 5674,
      "Äłfossil": 5675,
      "'ve": 5676,
      "Most": 5677,
      "do": 5678,
      "lam": 5679,
      "liam": 5680,
      "inet": 5681,
      "ona": 5682,
      "ittee": 5683,
      "Äłmaster": 5684,
      "Äłdro": 5685,
      "Äłliver": 5686,
      "ÄłTw": 5687,
      "ÄłArab": 5688,
      "ulin": 5689,
      "ifies": 5690,
      "ÄłMark": 5691,
      "Äłvast": 5692,
      "ÄłDirect": 5693,
      "Äłrough": 5694,
      "Äłrandom": 5695,
      "ÄłNature": 5696,
      "Äłcontaining": 5697,
      "ĠÄłtr": 5698,
      "inding": 5699,
      "Äłmanner": 5700,
      "ifications": 5701,
      "phone": 5702,
      "ternational": 5703,
      "ĠÄłThere": 5704,
      "ĠÄłproduct": 5705,
      "Äłformat": 5706,
      "Äłpolice": 5707,
      "Äłcurriculum": 5708,
      "ĠÄłchar": 5709,
      "Äłdirector": 5710,
      "Äłfinally": 5711,
      "Äłchoices": 5712,
      "ÄłCentral": 5713,
      "Äłemployees": 5714,
      "ĠÄłstudy": 5715,
      "Äłportion": 5716,
      "offee": 5717,
      "ĠÄłindividual": 5718,
      "Äłmanufacturing": 5719,
      "Äłwarming": 5720,
      "Äłlatest": 5721,
      "ÄłNASA": 5722,
      "42": 5723,
      "Âª": 5724,
      "Äłly": 5725,
      "Äłfle": 5726,
      "iced": 5727,
      "olina": 5728,
      "irus": 5729,
      "ellect": 5730,
      "Äłpros": 5731,
      "essment": 5732,
      "ĠÄłpar": 5733,
      "ortion": 5734,
      "ĠÄłoften": 5735,
      "ÄłEvery": 5736,
      "ÄłRobert": 5737,
      "Äłspend": 5738,
      "ague": 5739,
      "Äłseeds": 5740,
      "Äłneut": 5741,
      "berg": 5742,
      "enses": 5743,
      "ĠÄłlaw": 5744,
      "ificial": 5745,
      "Äłrecip": 5746,
      "Äłraised": 5747,
      "Äłassistance": 5748,
      "ĠÄłanother": 5749,
      "azine": 5750,
      "Äłpractical": 5751,
      "afe": 5752,
      "ĠÄłdevelopment": 5753,
      "Äłconcerned": 5754,
      "ĠÄłChrist": 5755,
      "Äłwindow": 5756,
      "Äłtells": 5757,
      "Äłhabitat": 5758,
      "ÄłAcad": 5759,
      "ÄłMuslim": 5760,
      "Äłenhance": 5761,
      "Äłingred": 5762,
      "CE": 5763,
      "normal": 5764,
      "Äłtaught": 5765,
      "ĠÄłide": 5766,
      "ĠÄłÃ¢Ä¢Äº": 5767,
      "inations": 5768,
      "Äłaqu": 5769,
      "Äłther": 5770,
      "esity": 5771,
      "Äłmort": 5772,
      "Äłmix": 5773,
      "Äłdram": 5774,
      "Äłnan": 5775,
      "irds": 5776,
      "eli": 5777,
      "ÄłCare": 5778,
      "ÄłMr": 5779,
      "ÄłMat": 5780,
      "osen": 5781,
      "ocation": 5782,
      "ĠÄłmar": 5783,
      "ĠÄłtoo": 5784,
      "acts": 5785,
      "Äłabuse": 5786,
      "Äłdisapp": 5787,
      "oseph": 5788,
      "ĠÄłlater": 5789,
      "Äłju": 5790,
      "Äłprepar": 5791,
      "ĠÄłequ": 5792,
      "Äłrace": 5793,
      "Äłprice": 5794,
      "Äładding": 5795,
      "ĠÄłproble": 5796,
      "Äłflat": 5797,
      "ĠÄłRes": 5798,
      "Äłexperiments": 5799,
      "ĠÄłexample": 5800,
      "ĠÄłchange": 5801,
      "Äłcourses": 5802,
      "Äłmathemat": 5803,
      "Äłpaint": 5804,
      "Äłload": 5805,
      "olicy": 5806,
      "Äłexistence": 5807,
      "ivalent": 5808,
      "Äłsubstant": 5809,
      "ĠÄłUniversity": 5810,
      "edicated": 5811,
      "liament": 5812,
      "76": 5813,
      "98": 5814,
      "De": 5815,
      "aud": 5816,
      "ca": 5817,
      "oil": 5818,
      "rd": 5819,
      "rich": 5820,
      "uh": 5821,
      "ester": 5822,
      "Äłcoin": 5823,
      "orith": 5824,
      "Äłban": 5825,
      "Äłhour": 5826,
      "stone": 5827,
      "ompl": 5828,
      "Äłnor": 5829,
      "olf": 5830,
      "ÄłToday": 5831,
      "igital": 5832,
      "anda": 5833,
      "istent": 5834,
      "ÄłMart": 5835,
      "ivision": 5836,
      "Äłcomment": 5837,
      "ĠÄłcor": 5838,
      "ÄłDef": 5839,
      "ĠÄłmight": 5840,
      "ĠÄłmove": 5841,
      "ÄłLeg": 5842,
      "ÄłOff": 5843,
      "ava": 5844,
      "Äłmeant": 5845,
      "ĠÄłelect": 5846,
      "Äłsyn": 5847,
      "rowth": 5848,
      "Äłregional": 5849,
      "Äłsimpl": 5850,
      "Äłmedium": 5851,
      "Äłmedications": 5852,
      "Äłgrown": 5853,
      "Äłfamiliar": 5854,
      "Äłsolve": 5855,
      "Äłmainly": 5856,
      "Äłecosystem": 5857,
      "arents": 5858,
      "Äłdriving": 5859,
      "ÄłClass": 5860,
      "Äłswim": 5861,
      "ÄłDevelopment": 5862,
      "Äłmotion": 5863,
      "Stud": 5864,
      "Ġ\".": 5865,
      "Äłrecognized": 5866,
      "Äłdomestic": 5867,
      "Äłsatis": 5868,
      "Äłsatell": 5869,
      "Äłmillions": 5870,
      "Äłjourney": 5871,
      "ki": 5872,
      "last": 5873,
      "long": 5874,
      "rine": 5875,
      "rish": 5876,
      "Äłcast": 5877,
      "Äłwaters": 5878,
      "Äłpip": 5879,
      "Äłpool": 5880,
      "Äłpoverty": 5881,
      "Äłmuseum": 5882,
      "Äłdiversity": 5883,
      "Äłdental": 5884,
      "Äłrein": 5885,
      "Äłnav": 5886,
      "olt": 5887,
      "ÄłTexas": 5888,
      "rav": 5889,
      "ÄłAir": 5890,
      "ÄłSen": 5891,
      "isted": 5892,
      "ÄłMass": 5893,
      "ivities": 5894,
      "ÄłBel": 5895,
      "ÄłHistor": 5896,
      "ÄłData": 5897,
      "riend": 5898,
      "ÄłRef": 5899,
      "Äłship": 5900,
      "ells": 5901,
      "ansion": 5902,
      "Äłkn": 5903,
      "ÄłStand": 5904,
      "ĠÄłSp": 5905,
      "oves": 5906,
      "ropical": 5907,
      "ĠÄłproper": 5908,
      "ÃĥÅĥ": 5909,
      "Äłmedication": 5910,
      "Äłrespir": 5911,
      "Äłstudying": 5912,
      "Äłplaying": 5913,
      "ĠÄłleg": 5914,
      "Äłcapable": 5915,
      "Äłfeeling": 5916,
      "Äłfacilit": 5917,
      "ĠÄłcommun": 5918,
      "udden": 5919,
      "ĠÄłamong": 5920,
      "ĠÄłearly": 5921,
      "ÄłCharles": 5922,
      "Äłkidney": 5923,
      "ÄłFoundation": 5924,
      "88": 5925,
      "92": 5926,
      "93": 5927,
      "Ab": 5928,
      "Do": 5929,
      "SS": 5930,
      "nes": 5931,
      "pre": 5932,
      "rors": 5933,
      "vailable": 5934,
      "Äłtun": 5935,
      "Äłmere": 5936,
      "Äłthin": 5937,
      "Äłnerve": 5938,
      "celer": 5939,
      "abil": 5940,
      "ÄłMont": 5941,
      "umes": 5942,
      "emia": 5943,
      "ÄłBudd": 5944,
      "ĠÄłmark": 5945,
      "pert": 5946,
      "ÄłJer": 5947,
      "ĠÄłSe": 5948,
      "Äłacknow": 5949,
      "ĠÄłHowever": 5950,
      "Äłinstruction": 5951,
      "ĠÄłDe": 5952,
      "Äłkept": 5953,
      "Äłleader": 5954,
      "Äłcorrespond": 5955,
      "Äłslightly": 5956,
      "Äłoriginally": 5957,
      "ÄłColumb": 5958,
      "Äłaffects": 5959,
      "ymptoms": 5960,
      "Äłresponsibility": 5961,
      "Äłfilm": 5962,
      "ourage": 5963,
      "Äłperspective": 5964,
      "Äłfighting": 5965,
      "Äłelectrical": 5966,
      "Äłmaximum": 5967,
      "ĠÄłresearch": 5968,
      "Äłcomprehensive": 5969,
      "TI": 5970,
      "flow": 5971,
      "Äłtried": 5972,
      "Äłax": 5973,
      "oured": 5974,
      "ario": 5975,
      "Äłbones": 5976,
      "Äłfif": 5977,
      "icit": 5978,
      "omething": 5979,
      "Äłepid": 5980,
      "unte": 5981,
      "ÄłSim": 5982,
      "ounter": 5983,
      "Äłchapter": 5984,
      "Äłuns": 5985,
      "Äłunlike": 5986,
      "ÄłGreek": 5987,
      "ÄłLife": 5988,
      "agues": 5989,
      "ounded": 5990,
      "Äłintake": 5991,
      "Äłotherwise": 5992,
      "ĠÄłlook": 5993,
      "obe": 5994,
      "Äłhelpful": 5995,
      "Äłseek": 5996,
      "Äłelectron": 5997,
      "Äłplayed": 5998,
      "ĠÄłcontrol": 5999,
      "Äłera": 6000,
      "ĠÄłparticular": 6001,
      "Äłintroduction": 6002,
      "Although": 6003,
      "Äłinstitution": 6004,
      "ĠÄłeduc": 6005,
      "Äłcontrolled": 6006,
      "ocratic": 6007,
      "igenous": 6008,
      "ÄłVirgin": 6009,
      "96": 6010,
      "New": 6011,
      "fortunately": 6012,
      "hi": 6013,
      "ooks": 6014,
      "ĠO": 6015,
      "ĠÄłdu": 6016,
      "ini": 6017,
      "erb": 6018,
      "Äłwet": 6019,
      "Äłwww": 6020,
      "Äłpig": 6021,
      "arant": 6022,
      "Äłbus": 6023,
      "omy": 6024,
      "otential": 6025,
      "igher": 6026,
      "iral": 6027,
      "odium": 6028,
      "abul": 6029,
      "abric": 6030,
      "istant": 6031,
      "ÄłMake": 6032,
      "esting": 6033,
      "osc": 6034,
      "ivation": 6035,
      "rian": 6036,
      "ÄłFort": 6037,
      "ĠÄłmen": 6038,
      "ĠÄłmain": 6039,
      "dule": 6040,
      "Äłsharing": 6041,
      "action": 6042,
      "Äłselection": 6043,
      "akers": 6044,
      "Äłdiscipl": 6045,
      "Äłdoor": 6046,
      "reating": 6047,
      "Äłapparent": 6048,
      "Äłappeared": 6049,
      "Äłsyndrome": 6050,
      "text": 6051,
      "Äłexpert": 6052,
      "Äłextract": 6053,
      "Äłlessons": 6054,
      "cribed": 6055,
      "Äłsecondary": 6056,
      "afety": 6057,
      "Äłfeelings": 6058,
      "ÄłCanadian": 6059,
      "Äłperiods": 6060,
      "Äłsaying": 6061,
      "ÄłMedical": 6062,
      "Äłdeaths": 6063,
      "cules": 6064,
      "Äłmassive": 6065,
      "Äłincreasingly": 6066,
      "Äłmorning": 6067,
      "ĠÄłaround": 6068,
      "ÄłAustralian": 6069,
      "Äłforests": 6070,
      "Äłdefinition": 6071,
      "Äłhundreds": 6072,
      "Äłcardi": 6073,
      "Äłconsequences": 6074,
      "Äłfigures": 6075,
      "ĠÄłagainst": 6076,
      "Äłbudget": 6077,
      "56": 6078,
      "Con": 6079,
      "Dr": 6080,
      "Since": 6081,
      "eper": 6082,
      "mat": 6083,
      "mic": 6084,
      "uy": 6085,
      "zil": 6086,
      "Ã¥": 6087,
      "Ä¯": 6088,
      "ĠW": 6089,
      "Äłtro": 6090,
      "Äłsed": 6091,
      "Äłcognitive": 6092,
      "Äłwid": 6093,
      "arly": 6094,
      "Äłmel": 6095,
      "Äłmeth": 6096,
      "Äłdial": 6097,
      "omach": 6098,
      "ÄłTV": 6099,
      "racy": 6100,
      "igious": 6101,
      "aying": 6102,
      "throp": 6103,
      "ÄłMet": 6104,
      "ĠÄłwomen": 6105,
      "Äłexternal": 6106,
      "ÄłWind": 6107,
      "arts": 6108,
      "ĠÄłmajor": 6109,
      "ĠÄłdirect": 6110,
      "ÄłGroup": 6111,
      "ipal": 6112,
      "Äłkil": 6113,
      "rying": 6114,
      "Äłclim": 6115,
      "ĠÄłrest": 6116,
      "ÄłKnow": 6117,
      "Äłcolors": 6118,
      "plex": 6119,
      "Äłaccomp": 6120,
      "Äłaccompl": 6121,
      "Äłrelax": 6122,
      "Äłproducing": 6123,
      "Äłacids": 6124,
      "Äłinterview": 6125,
      "Äłcenturies": 6126,
      "Äłdiscovery": 6127,
      "Äłgoods": 6128,
      "Äłmaintenance": 6129,
      "Äłcoord": 6130,
      "Äłsupports": 6131,
      "Äłstarts": 6132,
      "hyth": 6133,
      "ÄłConstitution": 6134,
      "Äłsensitive": 6135,
      "Äłsubjects": 6136,
      "Äłindicates": 6137,
      "Äłparticipants": 6138,
      "Äłslowly": 6139,
      "ĠÄłincluding": 6140,
      "olitical": 6141,
      "Äłinflammation": 6142,
      ".|": 6143,
      "break": 6144,
      "yroid": 6145,
      "zy": 6146,
      "zed": 6147,
      "inf": 6148,
      "Äłaer": 6149,
      "Äłaid": 6150,
      "onal": 6151,
      "Äłsend": 6152,
      "ora": 6153,
      "Äłpaid": 6154,
      "Äłpush": 6155,
      "arn": 6156,
      "Äłbrown": 6157,
      "icide": 6158,
      "asy": 6159,
      "Äłhus": 6160,
      "race": 6161,
      "uns": 6162,
      "ÄłSouthern": 6163,
      "Äłyouth": 6164,
      "mentation": 6165,
      "Äłorgans": 6166,
      "osa": 6167,
      "ÄłBook": 6168,
      "ÄłRetrieved": 6169,
      "ÄłFederal": 6170,
      "earing": 6171,
      "Äłleaf": 6172,
      "ÄłNations": 6173,
      "elled": 6174,
      "ustain": 6175,
      "Äłplays": 6176,
      "ÄłInf": 6177,
      "Äłarmy": 6178,
      "Äłclosed": 6179,
      "ĠÄłAmeric": 6180,
      "teen": 6181,
      "ĠÄłComm": 6182,
      "ÄłAnother": 6183,
      "idential": 6184,
      "Äłattrib": 6185,
      "Äłsecure": 6186,
      "Äłextensive": 6187,
      "Äłdistingu": 6188,
      "Äłpossess": 6189,
      "Äłpossibly": 6190,
      "Äłidentity": 6191,
      "Äłmovements": 6192,
      "Äłprevention": 6193,
      "Äłhappened": 6194,
      "Äłdiscussed": 6195,
      "Äłachieved": 6196,
      "Äłpersons": 6197,
      "Äłreturned": 6198,
      "Äłconsistent": 6199,
      "Äłintelligence": 6200,
      "No": 6201,
      "].": 6202,
      "ht": 6203,
      "iate": 6204,
      "lines": 6205,
      "pet": 6206,
      "word": 6207,
      "zen": 6208,
      "Â¬": 6209,
      "Ġre": 6210,
      "Äłtal": 6211,
      "ĠÄłident": 6212,
      "erals": 6213,
      "Äłpair": 6214,
      "Äłfelt": 6215,
      "Äłdream": 6216,
      "Äłreform": 6217,
      "Äłlic": 6218,
      "Äłlik": 6219,
      "Äłnations": 6220,
      "imize": 6221,
      "Äłgone": 6222,
      "unk": 6223,
      "add": 6224,
      "Äłproport": 6225,
      "osph": 6226,
      "pping": 6227,
      "ĠÄłpres": 6228,
      "ÄłHel": 6229,
      "ÄłWorks": 6230,
      "ÄłDisc": 6231,
      "ÄłFlorida": 6232,
      "outs": 6233,
      "ÄłLa": 6234,
      "izer": 6235,
      "ĠÄłhand": 6236,
      "ifferent": 6237,
      "ÄłStreet": 6238,
      "ĠÄłCon": 6239,
      "Äłpron": 6240,
      "ventions": 6241,
      "Ġ):": 6242,
      "Äłmonitoring": 6243,
      "ÄłAdv": 6244,
      "Äłinterests": 6245,
      "ÄłEnvironmental": 6246,
      "Äłfacilities": 6247,
      "idden": 6248,
      "Äłviruses": 6249,
      "Äłmachines": 6250,
      "Äłpictures": 6251,
      "ÄłUsing": 6252,
      "Äłcandid": 6253,
      "87": 6254,
      "RC": 6255,
      "een": 6256,
      "lers": 6257,
      "yth": 6258,
      "Ä»": 6259,
      "ÄłÃİ": 6260,
      "heast": 6261,
      "orter": 6262,
      "itc": 6263,
      "Äłwa": 6264,
      "Äłwalls": 6265,
      "ala": 6266,
      "arb": 6267,
      "icago": 6268,
      "Äłhttps": 6269,
      "ola": 6270,
      "Äłisol": 6271,
      "urric": 6272,
      "usal": 6273,
      "ÄłSocial": 6274,
      "ÄłMor": 6275,
      "ÄłPower": 6276,
      "ĠÄłprom": 6277,
      "Äłsufficient": 6278,
      "ĠÄłbody": 6279,
      "ĠÄłfood": 6280,
      "Äłchick": 6281,
      "Äłunable": 6282,
      "Äłunless": 6283,
      "ĠÄłdr": 6284,
      "ĠÄłhuman": 6285,
      "rue": 6286,
      "ÄłOld": 6287,
      "Äłsynt": 6288,
      "ritis": 6289,
      "luded": 6290,
      "Äłroll": 6291,
      "Äłedge": 6292,
      "Äłextent": 6293,
      "Äłdepends": 6294,
      "Äłglass": 6295,
      "ĠÄłchild": 6296,
      "Äłdownload": 6297,
      "Äłlooked": 6298,
      "Äłcalcium": 6299,
      "ÄłClin": 6300,
      "ÄłCommission": 6301,
      "ependent": 6302,
      "ÄłGeorg": 6303,
      "ÄłManagement": 6304,
      "Äłconcrete": 6305,
      "Äłhydrogen": 6306,
      "Äłmountain": 6307,
      "ĠÄłbecome": 6308,
      "Äłvehicle": 6309,
      "Äłneighb": 6310,
      "Äłnormally": 6311,
      "ÄłCatholic": 6312,
      "51": 6313,
      "Be": 6314,
      "Read": 6315,
      "UT": 6316,
      "from": 6317,
      "fish": 6318,
      "lar": 6319,
      "oose": 6320,
      "Äłign": 6321,
      "hedule": 6322,
      "indu": 6323,
      "aniel": 6324,
      "Äłcup": 6325,
      "Äłpull": 6326,
      "Äłpray": 6327,
      "Äłdent": 6328,
      "rot": 6329,
      "iled": 6330,
      "omic": 6331,
      "Äłeast": 6332,
      "Äłlun": 6333,
      "opic": 6334,
      "abb": 6335,
      "ogs": 6336,
      "ogue": 6337,
      "earchers": 6338,
      "ĠÄłmult": 6339,
      "ĠÄłdi": 6340,
      "ÄłLibrary": 6341,
      "Äłspending": 6342,
      "Äłplate": 6343,
      "ibilities": 6344,
      "1960": 6345,
      "aph": 6346,
      "Äłknew": 6347,
      "ÄłThose": 6348,
      "ieve": 6349,
      "ĠÄłiss": 6350,
      "ĠÄłgen": 6351,
      "ÄłKen": 6352,
      "jects": 6353,
      "Äłages": 6354,
      "ÄłVis": 6355,
      "Äłfloor": 6356,
      "inson": 6357,
      "Äłgenerate": 6358,
      "Äłfunding": 6359,
      "Äłartist": 6360,
      "1994": 6361,
      "Äłelectro": 6362,
      "Äłcorpor": 6363,
      "ecessary": 6364,
      "ÄłQue": 6365,
      "rimination": 6366,
      "ediatric": 6367,
      "Äłbusinesses": 6368,
      "Äłanswers": 6369,
      "ĠÄłcommon": 6370,
      "ĠÄłstudents": 6371,
      "Äłsuffer": 6372,
      "Äłclaims": 6373,
      "ÄłRussian": 6374,
      "Äłrapidly": 6375,
      "Äłpurchase": 6376,
      "ÄłGoogle": 6377,
      "Äłbeliefs": 6378,
      "Äłobtained": 6379,
      "Äłinstrument": 6380,
      "Äłmentioned": 6381,
      "ellectual": 6382,
      "VID": 6383,
      "den": 6384,
      "faces": 6385,
      "Äłtail": 6386,
      "Äłapart": 6387,
      "Äłsan": 6388,
      "asp": 6389,
      "ilitary": 6390,
      "Äłlib": 6391,
      "etry": 6392,
      "idance": 6393,
      "utrition": 6394,
      "Äłgather": 6395,
      "ÄłSum": 6396,
      "tery": 6397,
      "iest": 6398,
      "estyle": 6399,
      "ÄłPers": 6400,
      "ighter": 6401,
      "ĠÄłpossible": 6402,
      "ĠÄłfour": 6403,
      "ÄłNative": 6404,
      "ella": 6405,
      "iah": 6406,
      "Äłallerg": 6407,
      "Äłresidents": 6408,
      "ĠÄłtreatment": 6409,
      "ĠÄłread": 6410,
      "luding": 6411,
      "Äłunderlying": 6412,
      "180": 6413,
      "Äłinfrastructure": 6414,
      "ĠÄłorder": 6415,
      "Äłlocations": 6416,
      "Äłorganized": 6417,
      "Äłgreatly": 6418,
      "Äłmetab": 6419,
      "Äłmeasured": 6420,
      "Äłmuscles": 6421,
      "Äłdeliver": 6422,
      "Äłputting": 6423,
      "ÄłAtlant": 6424,
      "Äłcomputers": 6425,
      "Äłyounger": 6426,
      "Äłdifficulty": 6427,
      "ÄłOnly": 6428,
      "ĠÄłperform": 6429,
      "Äłindicate": 6430,
      "Äłvisitors": 6431,
      "ministration": 6432,
      "ĠÄłdesign": 6433,
      "Äłfruits": 6434,
      "Äłsurvive": 6435,
      "Äłafford": 6436,
      "Äłrevealed": 6437,
      "forcement": 6438,
      "ioxide": 6439,
      "Äłrepeated": 6440,
      "Äłvessels": 6441,
      "Äłopinion": 6442,
      "During": 6443,
      "fall": 6444,
      "kes": 6445,
      "no": 6446,
      "ua": 6447,
      "ÅĤ": 6448,
      "ĠÃ¢Ä¢Ä¶": 6449,
      "Äłtank": 6450,
      "ĠÄłhere": 6451,
      "Äłaf": 6452,
      "roduct": 6453,
      "asive": 6454,
      "Äłnurs": 6455,
      "ether": 6456,
      "olving": 6457,
      "andon": 6458,
      "ÄłAtt": 6459,
      "Äłstem": 6460,
      "Äłstated": 6461,
      "ÄłMicro": 6462,
      "empl": 6463,
      "estions": 6464,
      "ÄłBur": 6465,
      "ÄłLand": 6466,
      "Äłweap": 6467,
      "Äłworse": 6468,
      "Äłplenty": 6469,
      "Äłenvironments": 6470,
      "ÄłThomas": 6471,
      "Äłcloud": 6472,
      "ishment": 6473,
      "Äłrecovery": 6474,
      "erman": 6475,
      "Äłpriv": 6476,
      "cycl": 6477,
      "Äłdecide": 6478,
      "Äłsupplement": 6479,
      "Äłremained": 6480,
      "Äłremote": 6481,
      "ictor": 6482,
      "Äłcars": 6483,
      "ĠÄłview": 6484,
      "Äłgenerated": 6485,
      "150": 6486,
      "Äłvisible": 6487,
      "Äłfewer": 6488,
      "Äłengage": 6489,
      "Äłmarked": 6490,
      "ercury": 6491,
      "prise": 6492,
      "Äłlabel": 6493,
      "Äłbiological": 6494,
      "ĠÄłoper": 6495,
      "Äłsubstance": 6496,
      "Äłnucle": 6497,
      "ÄłRevolution": 6498,
      "Äłtrials": 6499,
      "Äłhouses": 6500,
      "Äłratio": 6501,
      "otherapy": 6502,
      "LE": 6503,
      "free": 6504,
      "ka": 6505,
      "uke": 6506,
      "Ä´": 6507,
      "ĠÄłeng": 6508,
      "itter": 6509,
      "Äłwel": 6510,
      "Äłble": 6511,
      "Äłbread": 6512,
      "Äłment": 6513,
      "eting": 6514,
      "irth": 6515,
      "Äłforth": 6516,
      "Äłstable": 6517,
      "Äłstret": 6518,
      "Äłstores": 6519,
      "Äłconstitution": 6520,
      "umps": 6521,
      "acher": 6522,
      "ÄłPan": 6523,
      "aine": 6524,
      "ĠÄłpresent": 6525,
      "ĠÄłfamily": 6526,
      "Äłleaving": 6527,
      "Äłwors": 6528,
      "Äłdoctors": 6529,
      "Äłparties": 6530,
      "ÄłSte": 6531,
      "ervous": 6532,
      "jected": 6533,
      "Äłrepresents": 6534,
      "energy": 6535,
      "ommod": 6536,
      "Äłflight": 6537,
      "Äłtransition": 6538,
      "ĠÄłvis": 6539,
      "Äłsets": 6540,
      "Äłcommunicate": 6541,
      "Äłserver": 6542,
      "Äłelectronic": 6543,
      "Äłgreatest": 6544,
      "Äłimproving": 6545,
      "ÄłEngine": 6546,
      "Äłbeneficial": 6547,
      "Äłopened": 6548,
      "1980": 6549,
      "ÄłCommon": 6550,
      "Äłresponses": 6551,
      "Äłzero": 6552,
      "ĠÄłStates": 6553,
      "Äłnetworks": 6554,
      "Äłabsolute": 6555,
      "Äłdocuments": 6556,
      "ÄłAbout": 6557,
      "ascular": 6558,
      "Äłchallenging": 6559,
      "Äłwildlife": 6560,
      "ĠÄłprovide": 6561,
      "Äłcapture": 6562,
      "Äłethnic": 6563,
      "Äłmolecules": 6564,
      "Äłaudience": 6565,
      "Äłstruggle": 6566,
      "Äłmobile": 6567,
      "sembly": 6568,
      "Äłsituations": 6569,
      "Äłpretty": 6570,
      "58": 6571,
      "CS": 6572,
      "My": 6573,
      "eenth": 6574,
      "hop": 6575,
      "hio": 6576,
      "mas": 6577,
      "rat": 6578,
      "Â¯": 6579,
      "Ġw": 6580,
      "heim": 6581,
      "inction": 6582,
      "erior": 6583,
      "Äłcm": 6584,
      "Äłbow": 6585,
      "Äłband": 6586,
      "Äłfly": 6587,
      "Äłfiber": 6588,
      "Äłtoler": 6589,
      "Äłmild": 6590,
      "Äłdedicated": 6591,
      "Äłrenew": 6592,
      "imals": 6593,
      "imental": 6594,
      "uten": 6595,
      "radu": 6596,
      "ÄłAI": 6597,
      "ÄłAlex": 6598,
      "Äłstone": 6599,
      "amental": 6600,
      "isting": 6601,
      "ĠÄłsit": 6602,
      "ude": 6603,
      "ÄłDel": 6604,
      "ÄłRad": 6605,
      "early": 6606,
      "Äłuniverse": 6607,
      "ÄłLouis": 6608,
      "Äłspl": 6609,
      "Äłsports": 6610,
      "Äłselected": 6611,
      "ÄłUSA": 6612,
      "Äłprem": 6613,
      "hered": 6614,
      "ÄłKore": 6615,
      "Äłtrain": 6616,
      "Äłaccident": 6617,
      "ĠÄłstart": 6618,
      "ĠÄłRep": 6619,
      "Äłmode": 6620,
      "ĠÄłEn": 6621,
      "Äłskill": 6622,
      "Äłshell": 6623,
      "Äłfollows": 6624,
      "arsh": 6625,
      "Äłpurs": 6626,
      "Äłmatch": 6627,
      "ÄłExpl": 6628,
      "prove": 6629,
      "Äłcertainly": 6630,
      "Äłvolt": 6631,
      "Äłerror": 6632,
      "Äłnecessarily": 6633,
      "ipping": 6634,
      "ĠÄłupon": 6635,
      "Äłclosely": 6636,
      "Äłemotions": 6637,
      "Äłagricultural": 6638,
      "Äłinsects": 6639,
      "Äłalgorith": 6640,
      "Äłpermanent": 6641,
      "66": 6642,
      "72": 6643,
      "American": 6644,
      "EP": 6645,
      "but": 6646,
      "press": 6647,
      "ĠThis": 6648,
      "Äłsight": 6649,
      "especially": 6650,
      "isters": 6651,
      "Äłcrisis": 6652,
      "orse": 6653,
      "Äłpup": 6654,
      "Äłancest": 6655,
      "arl": 6656,
      "stries": 6657,
      "Äłrelevant": 6658,
      "Äłlots": 6659,
      "etics": 6660,
      "Äłconclusion": 6661,
      "illa": 6662,
      "ÄłMa": 6663,
      "ects": 6664,
      "achers": 6665,
      "ÄłPost": 6666,
      "ĠÄłpass": 6667,
      "ÄłWil": 6668,
      "ÄłFin": 6669,
      "ÄłFurther": 6670,
      "ÄłLong": 6671,
      "ÄłInstead": 6672,
      "Äładj": 6673,
      "ubl": 6674,
      "ysical": 6675,
      "Äłtrad": 6676,
      "Äłcolour": 6677,
      "Äłraise": 6678,
      "Äłamaz": 6679,
      "Äłfever": 6680,
      "olds": 6681,
      "ommon": 6682,
      "airy": 6683,
      "Äłreader": 6684,
      "rane": 6685,
      "Äłcarefully": 6686,
      "Äłcontinuous": 6687,
      "ployment": 6688,
      "Äłconsumers": 6689,
      "Äłzone": 6690,
      "Äłauthority": 6691,
      "itudes": 6692,
      "ÄłBritain": 6693,
      "levision": 6694,
      "Äłsubstances": 6695,
      "Äłsurvival": 6696,
      "Äłearthqu": 6697,
      "Äłdecrease": 6698,
      "Äłhorse": 6699,
      "ÄłRussia": 6700,
      "ĠÄłsecond": 6701,
      "LA": 6702,
      "Sp": 6703,
      "ih": 6704,
      "iological": 6705,
      "ĠÄłZ": 6706,
      "rey": 6707,
      "Äłsick": 6708,
      "Äłsides": 6709,
      "Äłcart": 6710,
      "Äłcrow": 6711,
      "orous": 6712,
      "Äłwish": 6713,
      "arks": 6714,
      "Äłborder": 6715,
      "Äłfrag": 6716,
      "Äłdrain": 6717,
      "ented": 6718,
      "Äłhorses": 6719,
      "ette": 6720,
      "idity": 6721,
      "ÄłTer": 6722,
      "utch": 6723,
      "Äłgap": 6724,
      "rays": 6725,
      "Äłstages": 6726,
      "Äłstands": 6727,
      "amination": 6728,
      "heric": 6729,
      "abits": 6730,
      "ÄłPe": 6731,
      "ivated": 6732,
      "ÄłHall": 6733,
      "ĠÄłfew": 6734,
      "Äłcholesterol": 6735,
      "ÄłEv": 6736,
      "ĠÄłdon": 6737,
      "pling": 6738,
      "ormous": 6739,
      "ĠÄłter": 6740,
      "ĠÄłtimes": 6741,
      "Äłappreci": 6742,
      "teg": 6743,
      "nee": 6744,
      "Äłsmoking": 6745,
      "Äłhighlight": 6746,
      "Äłmoder": 6747,
      "Äłcounty": 6748,
      "Äłreaders": 6749,
      "ĠÄłOn": 6750,
      "Äłinvestment": 6751,
      "Äłletters": 6752,
      "Äłdetermined": 6753,
      "Äłauthorities": 6754,
      "Äłbiggest": 6755,
      "ĠÄłmeans": 6756,
      "Äłentirely": 6757,
      "Äłarrived": 6758,
      "ÄłStudies": 6759,
      "Äłmoral": 6760,
      "ĠÄłknown": 6761,
      "ĠÄłinclude": 6762,
      "ÄłSecond": 6763,
      "Äłleadership": 6764,
      "Äłofficials": 6765,
      "Äłharvest": 6766,
      "Äłfavorite": 6767,
      "ĠÄłlearning": 6768,
      "stein": 6769,
      "Äłingredients": 6770,
      "Cont": 6771,
      "Des": 6772,
      "Se": 6773,
      "bur": 6774,
      "fts": 6775,
      "ien": 6776,
      "pic": 6777,
      "ycl": 6778,
      "Â®": 6779,
      "Ä³": 6780,
      "Åģ": 6781,
      "anes": 6782,
      "Äłcatch": 6783,
      "alian": 6784,
      "Äłbiod": 6785,
      "Äłfill": 6786,
      "Äłfell": 6787,
      "Äłfasc": 6788,
      "Äłduty": 6789,
      "Äłlatter": 6790,
      "sey": 6791,
      "ÄłSoviet": 6792,
      "Äłstick": 6793,
      "Äłstomach": 6794,
      "that": 6795,
      "ÄłMad": 6796,
      "ÄłPenn": 6797,
      "quit": 6798,
      "ĠÄłcal": 6799,
      "ÄłBoth": 6800,
      "ĠÄłfore": 6801,
      "Äłchief": 6802,
      "ÄłDisease": 6803,
      "ÄłExt": 6804,
      "ĠÄłmaterial": 6805,
      "Äłships": 6806,
      "Äłshift": 6807,
      "Äłenable": 6808,
      "ĠÄłhouse": 6809,
      "Äłincl": 6810,
      "inds": 6811,
      "Äłcloser": 6812,
      "ĠÄłreal": 6813,
      "ĠÄłlow": 6814,
      "Äłpref": 6815,
      "Äłpreval": 6816,
      "Äłthanks": 6817,
      "ÄłItaly": 6818,
      "ritical": 6819,
      "ĠÄłCent": 6820,
      "Äłagencies": 6821,
      "Äłdescription": 6822,
      "Äłprint": 6823,
      "Äłartists": 6824,
      "Äłdepth": 6825,
      "Äłdepartment": 6826,
      "ports": 6827,
      "Äłends": 6828,
      "Äłboost": 6829,
      "Äłsomew": 6830,
      "amps": 6831,
      "Äłapproaches": 6832,
      "Äłprogramming": 6833,
      "Äłobjectives": 6834,
      "Äłassociation": 6835,
      "Äłvolunte": 6836,
      "Äłparticipate": 6837,
      "ÄłCompany": 6838,
      "Äłindependence": 6839,
      "Äłprecise": 6840,
      "Äłultimately": 6841,
      "ĠÄłfollowing": 6842,
      "Äłagriculture": 6843,
      "Äłprinciple": 6844,
      "Äłtitle": 6845,
      "Äłspiritual": 6846,
      "Äłcamera": 6847,
      "Äłarchitecture": 6848,
      "77": 6849,
      "91": 6850,
      "HO": 6851,
      "IG": 6852,
      "IP": 6853,
      "See": 6854,
      "hma": 6855,
      "ĠÄłve": 6856,
      "reland": 6857,
      "ano": 6858,
      "Äłcats": 6859,
      "Äłcoffee": 6860,
      "Äłpil": 6861,
      "Äłpure": 6862,
      "Äłfalse": 6863,
      "ione": 6864,
      "Äłdu": 6865,
      "aser": 6866,
      "oto": 6867,
      "Äłgal": 6868,
      "Äłgum": 6869,
      "Äłgram": 6870,
      "ulates": 6871,
      "ulatory": 6872,
      "ÄłSl": 6873,
      "Äłstock": 6874,
      "ÄłPsych": 6875,
      "ocus": 6876,
      "ocument": 6877,
      "Äłsuc": 6878,
      "Äłsuitable": 6879,
      "ÄłEss": 6880,
      "ÄłFinally": 6881,
      "Äłrid": 6882,
      "ĠÄłdev": 6883,
      "ostic": 6884,
      "Äłshot": 6885,
      "arding": 6886,
      "ultural": 6887,
      "Äłdisaster": 6888,
      "Äłtea": 6889,
      "itely": 6890,
      "Äłtraffic": 6891,
      "Äłacts": 6892,
      "Äłraw": 6893,
      "Äłnewsp": 6894,
      "ribution": 6895,
      "Äłphr": 6896,
      "ÄłAny": 6897,
      "Äłobesity": 6898,
      "Äłworldwide": 6899,
      "ĠÄłEurop": 6900,
      "Äłdepos": 6901,
      "Äłgluc": 6902,
      "1993": 6903,
      "agnetic": 6904,
      "Äłhandle": 6905,
      "Äłpresentation": 6906,
      "ÄłExper": 6907,
      "Äłpreventing": 6908,
      "Äłconsumer": 6909,
      "rimary": 6910,
      "Äłbright": 6911,
      "ĠÄłclass": 6912,
      "Äłappearance": 6913,
      "Äłtwice": 6914,
      "ÄłGuide": 6915,
      "ÄłControl": 6916,
      "haust": 6917,
      "Äłcommitted": 6918,
      "Äłprepare": 6919,
      "Äłfairly": 6920,
      "Äładministration": 6921,
      "Äłhousing": 6922,
      "Äłscholars": 6923,
      "Äłtouch": 6924,
      "Äłrespiratory": 6925,
      "ÄłVirginia": 6926,
      "HD": 6927,
      "MP": 6928,
      "bing": 6929,
      "bra": 6930,
      "ĠÄłable": 6931,
      "Äłath": 6932,
      "Äłsnow": 6933,
      "ena": 6934,
      "Äłwitness": 6935,
      "Äłpy": 6936,
      "Äłfilled": 6937,
      "Äłmac": 6938,
      "Äłmoon": 6939,
      "sts": 6940,
      "Äłrecept": 6941,
      "Äłlose": 6942,
      "Äłlibrary": 6943,
      "Äłneck": 6944,
      "Äłnarrow": 6945,
      "etime": 6946,
      "ÄłTHE": 6947,
      "ceive": 6948,
      "Äłforget": 6949,
      "ÄłIP": 6950,
      "ÄłCivil": 6951,
      "acent": 6952,
      "ĠÄłwar": 6953,
      "ĠÄłwant": 6954,
      "Äłheating": 6955,
      "Äłcomments": 6956,
      "Äłvac": 6957,
      "ĠÄłins": 6958,
      "ript": 6959,
      "ÄłRock": 6960,
      "Äłrub": 6961,
      "ĠÄłdel": 6962,
      "ÄłGood": 6963,
      "ÄłGold": 6964,
      "ÄłLike": 6965,
      "Äłcomposed": 6966,
      "ubes": 6967,
      "Äłroof": 6968,
      "Äłroots": 6969,
      "Äłexpensive": 6970,
      "Äłobl": 6971,
      "Äłattend": 6972,
      "Äłintervention": 6973,
      "Äłtransmission": 6974,
      "century": 6975,
      "venue": 6976,
      "theless": 6977,
      "ĠÄłuntil": 6978,
      "Äłwriter": 6979,
      "Äłpoison": 6980,
      "coming": 6981,
      "ĠÄłplay": 6982,
      "Äłparam": 6983,
      "Äłparalle": 6984,
      "Äłpeak": 6985,
      "ĠÄłperiod": 6986,
      "Äłfilter": 6987,
      "annel": 6988,
      "Äłimprovement": 6989,
      "scale": 6990,
      "ÄłReport": 6991,
      "Äłinteraction": 6992,
      "Äłargument": 6993,
      "Äłtalking": 6994,
      "Äłimplemented": 6995,
      "ÄłReview": 6996,
      "ÄłFrank": 6997,
      "Äłvehicles": 6998,
      "Äłhypot": 6999,
      "Äłexplanation": 7000,
      "ÄłGeorgia": 7001,
      "61": 7002,
      "BS": 7003,
      "CR": 7004,
      "CT": 7005,
      "Lear": 7006,
      "auc": 7007,
      "born": 7008,
      "mm": 7009,
      "pire": 7010,
      "uan": 7011,
      "Ã£": 7012,
      "Äłtiny": 7013,
      "atal": 7014,
      "Äłsell": 7015,
      "esides": 7016,
      "edu": 7017,
      "icon": 7018,
      "Äłmand": 7019,
      "lets": 7020,
      "asters": 7021,
      "Äłnine": 7022,
      "igate": 7023,
      "ÄłAut": 7024,
      "aming": 7025,
      "ÄłIN": 7026,
      "Äłpromin": 7027,
      "abs": 7028,
      "ÄłMem": 7029,
      "umer": 7030,
      "osquit": 7031,
      "ĠÄłcase": 7032,
      "ĠÄłsince": 7033,
      "ocabul": 7034,
      "ocracy": 7035,
      "Äłvit": 7036,
      "ÄłHaw": 7037,
      "ÄłWomen": 7038,
      "ÄłRights": 7039,
      "ÄłFe": 7040,
      "Äłrural": 7041,
      "ĠÄłmet": 7042,
      "ĠÄłmean": 7043,
      "Äłspeaking": 7044,
      "ansas": 7045,
      "Äłintense": 7046,
      "Äłcompare": 7047,
      "Äłmanip": 7048,
      "ÄłThrough": 7049,
      "ubs": 7050,
      "Äłsole": 7051,
      "ĠÄłCol": 7052,
      "ÄłChild": 7053,
      "Äłunderstood": 7054,
      "ÄłYet": 7055,
      "Äłoffering": 7056,
      "Äłremaining": 7057,
      "Äłformal": 7058,
      "Äłmining": 7059,
      "Äłguidelines": 7060,
      "Äłaircraft": 7061,
      "Äłpainting": 7062,
      "Äłmarried": 7063,
      "Äłsuccessfully": 7064,
      "riminal": 7065,
      "Äłdescribes": 7066,
      "rolled": 7067,
      "ÄłCarolina": 7068,
      "Äłdigest": 7069,
      "Äłintegrated": 7070,
      "ĠÄłUnited": 7071,
      "Äłwalking": 7072,
      "Äłframework": 7073,
      "Äłdemonstrate": 7074,
      "Äłsoldiers": 7075,
      "Äłneighbor": 7076,
      "Äłcomparison": 7077,
      "Äładequate": 7078,
      "ÄłColumbia": 7079,
      "ocabulary": 7080,
      "73": 7081,
      "Int": 7082,
      "OL": 7083,
      "dent": 7084,
      "pread": 7085,
      "uilt": 7086,
      "Äłtall": 7087,
      "Äłsen": 7088,
      "isp": 7089,
      "orough": 7090,
      "iti": 7091,
      "Äłwire": 7092,
      "Äłbill": 7093,
      "Äłfav": 7094,
      "iciency": 7095,
      "Äłdioxide": 7096,
      "rooms": 7097,
      "Äłholid": 7098,
      "Äłlies": 7099,
      "Äłlinks": 7100,
      "oting": 7101,
      "Äłbear": 7102,
      "Äłgall": 7103,
      "igue": 7104,
      "ÄłIll": 7105,
      "Äłconventional": 7106,
      "Äłexchange": 7107,
      "ĠÄłbest": 7108,
      "ÄłWell": 7109,
      "ĠÄłinst": 7110,
      "rip": 7111,
      "ÄłEqu": 7112,
      "oston": 7113,
      "actions": 7114,
      "Äłabund": 7115,
      "ÄłInformation": 7116,
      "aping": 7117,
      "apse": 7118,
      "ÄłOF": 7119,
      "ÄłOut": 7120,
      "rency": 7121,
      "ĠÄłAt": 7122,
      "ificance": 7123,
      "ritten": 7124,
      "Äłcolumn": 7125,
      "Äłconscious": 7126,
      "oven": 7127,
      "Äłindex": 7128,
      "ĠÄłThese": 7129,
      "Äłhealthcare": 7130,
      "ersonal": 7131,
      "Äłfoundation": 7132,
      "Äłjustice": 7133,
      "ĠÄłEx": 7134,
      "Äłresulted": 7135,
      "ĠÄłseveral": 7136,
      "Äłgrav": 7137,
      "Äłentered": 7138,
      "Äłequivalent": 7139,
      "Äłphysics": 7140,
      "ÄłCancer": 7141,
      "Äłmarine": 7142,
      "Äłviews": 7143,
      "Äłpolitics": 7144,
      "Äłtruly": 7145,
      "olesc": 7146,
      "Äłsuperior": 7147,
      "ĠÄłsuccess": 7148,
      "Äłstrengthen": 7149,
      "ÄłParis": 7150,
      "Äłcompetition": 7151,
      "Äłharmful": 7152,
      "ÄłSecurity": 7153,
      "Äłlaboratory": 7154,
      "Äłsweet": 7155,
      "Äłdoubt": 7156,
      "Äłhazard": 7157,
      "53": 7158,
      "54": 7159,
      "CA": 7160,
      "DP": 7161,
      "En": 7162,
      "First": 7163,
      "Sc": 7164,
      "aired": 7165,
      "oys": 7166,
      "soft": 7167,
      "Ä¤": 7168,
      "isk": 7169,
      "itivity": 7170,
      "Äłpand": 7171,
      "Äłdim": 7172,
      "ÄłTimes": 7173,
      "ÄłSuch": 7174,
      "amine": 7175,
      "aded": 7176,
      "Äłprove": 7177,
      "istical": 7178,
      "ivered": 7179,
      "ĠÄłcertain": 7180,
      "ocy": 7181,
      "ÄłHenry": 7182,
      "ÄłWild": 7183,
      "ÄłWik": 7184,
      "ĠÄłfree": 7185,
      "ÄłRob": 7186,
      "ÄłFree": 7187,
      "Äłuniversity": 7188,
      "ĠÄłdays": 7189,
      "agraph": 7190,
      "Äłimplications": 7191,
      "izers": 7192,
      "1950": 7193,
      "Äłcontamin": 7194,
      "ĠÄłnext": 7195,
      "ĠÄłlight": 7196,
      "anger": 7197,
      "Äłquarter": 7198,
      "Äłchildhood": 7199,
      "ĠÄłstand": 7200,
      "Äłproduces": 7201,
      "Äłindeed": 7202,
      "Äłprison": 7203,
      "Äłassume": 7204,
      "Äłexpansion": 7205,
      "Äłsmoke": 7206,
      "Äłflo": 7207,
      "Äłcarb": 7208,
      "ashion": 7209,
      "ociated": 7210,
      "ÄłConn": 7211,
      "Äłcreative": 7212,
      "Äłphotos": 7213,
      "Äłsentence": 7214,
      "ĠÄłtechn": 7215,
      "ĠÄłstudies": 7216,
      "Äłidentifying": 7217,
      "Äłaccepted": 7218,
      "Äłvariable": 7219,
      "Äłdebate": 7220,
      "Äłmagnetic": 7221,
      "ĠÄłYork": 7222,
      "Äłbabies": 7223,
      "urrently": 7224,
      "Äłbehaviors": 7225,
      "Äłmolecular": 7226,
      "Äłagreement": 7227,
      "Äłtrigger": 7228,
      "ixture": 7229,
      "Äłmoisture": 7230,
      "Äłheavily": 7231,
      "**": 7232,
      "CH": 7233,
      "Rec": 7234,
      "look": 7235,
      "lamic": 7236,
      "yles": 7237,
      "ĠÄłYou": 7238,
      "esh": 7239,
      "ingle": 7240,
      "Äłmit": 7241,
      "Äłdin": 7242,
      "ilation": 7243,
      "Äłla": 7244,
      "Äłlin": 7245,
      "Äłnervous": 7246,
      "older": 7247,
      "Äłyield": 7248,
      "Äłpropos": 7249,
      "ÄłMag": 7250,
      "uma": 7251,
      "umbers": 7252,
      "ÄłPaul": 7253,
      "Äłexists": 7254,
      "ĠÄłcome": 7255,
      "ÄłBen": 7256,
      "ÄłBible": 7257,
      "ÄłBank": 7258,
      "Äłvote": 7259,
      "ÄłHave": 7260,
      "ÄłRome": 7261,
      "ÄłForm": 7262,
      "Äłunus": 7263,
      "peror": 7264,
      "astro": 7265,
      "Äłimper": 7266,
      "ulty": 7267,
      "ruit": 7268,
      "ÄłOx": 7269,
      "Äłcontained": 7270,
      "Äłcomposition": 7271,
      "ressing": 7272,
      "ublish": 7273,
      "ĠÄłlast": 7274,
      "ĠÄłlocal": 7275,
      "Äłtheme": 7276,
      "Äłtrained": 7277,
      "ffects": 7278,
      "Äłknowing": 7279,
      "ĠÄłstrong": 7280,
      "Äłacceler": 7281,
      "Äłscan": 7282,
      "Äłregulations": 7283,
      "everal": 7284,
      "Äłsupplies": 7285,
      "ĠÄłprog": 7286,
      "Äłminerals": 7287,
      "Äłentry": 7288,
      "idespread": 7289,
      "ohyd": 7290,
      "Äłveter": 7291,
      "Äłopposite": 7292,
      "ĠÄłallow": 7293,
      "Äłopening": 7294,
      "Äłaccessible": 7295,
      "Äłruns": 7296,
      "Äłdeli": 7297,
      "Äłprompt": 7298,
      "ÄłTechn": 7299,
      "Äłcreates": 7300,
      "ÄłScot": 7301,
      "ĠÄłquestion": 7302,
      "Äłholding": 7303,
      "ÄłStudy": 7304,
      "Äłlifestyle": 7305,
      "ÄłBoard": 7306,
      "Äłgovernments": 7307,
      "ioxid": 7308,
      "Äłbranches": 7309,
      "Äłantibi": 7310,
      "Äłphilosophy": 7311,
      "Äłvulnerable": 7312,
      "bean": 7313,
      "point": 7314,
      "rity": 7315,
      "uels": 7316,
      "xts": 7317,
      "yal": 7318,
      "Ġst": 7319,
      "ĠIt": 7320,
      "Äłturb": 7321,
      "ĠÄłill": 7322,
      "ĠÄłold": 7323,
      "ĠÄłrisk": 7324,
      "Äłahead": 7325,
      "Äłpal": 7326,
      "Äłben": 7327,
      "Äłfest": 7328,
      "Äłmm": 7329,
      "Äłmaps": 7330,
      "Äłdust": 7331,
      "ady": 7332,
      "ÄłChe": 7333,
      "ÄłCur": 7334,
      "oding": 7335,
      "eren": 7336,
      "Äłhem": 7337,
      "ounce": 7338,
      "Äłcomplicated": 7339,
      "ĠÄłsk": 7340,
      "ĠÄłside": 7341,
      "ÄłBro": 7342,
      "ĠÄłage": 7343,
      "Äłchain": 7344,
      "Äłround": 7345,
      "ÄłNor": 7346,
      "Äłabandon": 7347,
      "Äłintellectual": 7348,
      "ĠÄłland": 7349,
      "Äłprev": 7350,
      "jection": 7351,
      "Äłourselves": 7352,
      "Äłtrouble": 7353,
      "oval": 7354,
      "ÄłYear": 7355,
      "erted": 7356,
      "Äłscript": 7357,
      "Äłdetection": 7358,
      "Äłinsulin": 7359,
      "Äłsupporting": 7360,
      "Äłpossibility": 7361,
      "Äłstatements": 7362,
      "Äłissued": 7363,
      "Äłguarant": 7364,
      "enefits": 7365,
      "Äłpercentage": 7366,
      "Äłlegs": 7367,
      "Äłfishing": 7368,
      "ictionary": 7369,
      "Äłcleaning": 7370,
      "Äłmechanisms": 7371,
      "Äłestimates": 7372,
      "Äłtransportation": 7373,
      "Äłgradually": 7374,
      "ĠÄłeffects": 7375,
      "ÄłReading": 7376,
      "Äłpowers": 7377,
      "Äłvillage": 7378,
      "ÄłBrazil": 7379,
      "giene": 7380,
      "Äłlegislation": 7381,
      "Äłhusband": 7382,
      "IA": 7383,
      "bed": 7384,
      "eh": 7385,
      "eat": 7386,
      "how": 7387,
      "mph": 7388,
      "rative": 7389,
      "spec": 7390,
      "vis": 7391,
      "Äłtube": 7392,
      "heets": 7393,
      "orption": 7394,
      "Äłwants": 7395,
      "Äłbanks": 7396,
      "Äłbomb": 7397,
      "Äłinner": 7398,
      "Äłmales": 7399,
      "Äłdaughter": 7400,
      "Äłhabits": 7401,
      "Äłrely": 7402,
      "Äłnose": 7403,
      "Äłgro": 7404,
      "irty": 7405,
      "ÄłSk": 7406,
      "ÄłCheck": 7407,
      "ĠÄłwords": 7408,
      "osion": 7409,
      "ÄłBr": 7410,
      "Äłvs": 7411,
      "ĠÄłbased": 7412,
      "oga": 7413,
      "ogether": 7414,
      "ÄłNatural": 7415,
      "ĠÄłdisease": 7416,
      "Äłabnormal": 7417,
      "plant": 7418,
      "ruption": 7419,
      "iana": 7420,
      "weight": 7421,
      "Äłrelation": 7422,
      "Äłamb": 7423,
      "Äłexpressed": 7424,
      "ĠÄłWhat": 7425,
      "ocked": 7426,
      "azon": 7427,
      "ĠÄłOne": 7428,
      "ĠÄłconcer": 7429,
      "Äłmeters": 7430,
      "Äłcalories": 7431,
      "Äłlimits": 7432,
      "ĠÄładd": 7433,
      "Äłfacility": 7434,
      "ÄłCommun": 7435,
      "ÄłCommittee": 7436,
      "Äłensuring": 7437,
      "Äłaccounts": 7438,
      "Äłphoto": 7439,
      "Äłfrequent": 7440,
      "Äłmaintaining": 7441,
      "ÄłGlobal": 7442,
      "Äłframe": 7443,
      "Äłcustomers": 7444,
      "ÄłFranc": 7445,
      "ĠÄłrequire": 7446,
      "Äłlaunched": 7447,
      "ĠÄłpopulation": 7448,
      "ÄłSmith": 7449,
      "ÄłNetwork": 7450,
      "Äłdollars": 7451,
      "Äłhormone": 7452,
      "havior": 7453,
      "vania": 7454,
      "ÄłKeep": 7455,
      "%)": 7456,
      "01": 7457,
      "79": 7458,
      "CD": 7459,
      "MA": 7460,
      "Once": 7461,
      "dis": 7462,
      "east": 7463,
      "fit": 7464,
      "gl": 7465,
      "gers": 7466,
      "oz": 7467,
      "oids": 7468,
      "pes": 7469,
      "rary": 7470,
      "vant": 7471,
      "wer": 7472,
      "western": 7473,
      "ycle": 7474,
      "Äłsections": 7475,
      "Äłcle": 7476,
      "Äłcav": 7477,
      "Äłcards": 7478,
      "orrow": 7479,
      "Äłwaves": 7480,
      "Äłdates": 7481,
      "etting": 7482,
      "ÄłTor": 7483,
      "ushed": 7484,
      "Äłstones": 7485,
      "eless": 7486,
      "ifts": 7487,
      "aby": 7488,
      "lder": 7489,
      "ĠÄłca": 7490,
      "ÄłBC": 7491,
      "ĠÄłpred": 7492,
      "ĠÄłpotential": 7493,
      "ĠÄłfin": 7494,
      "Äłdeeper": 7495,
      "Äłwasn": 7496,
      "ÄłRom": 7497,
      "Äłunknown": 7498,
      "ĠÄłdest": 7499,
      "Äłshop": 7500,
      "agon": 7501,
      "agram": 7502,
      "ÄłObs": 7503,
      "Äłteen": 7504,
      "ailability": 7505,
      "Äłagency": 7506,
      "Äłdesire": 7507,
      "Äłgrid": 7508,
      "Äłpharm": 7509,
      "ÄłAnn": 7510,
      "Äłdecade": 7511,
      "Äłseeing": 7512,
      "Äłartificial": 7513,
      "rank": 7514,
      "Äłended": 7515,
      "Äłcontrols": 7516,
      "Äłdelay": 7517,
      "Äłbroken": 7518,
      "Äłasking": 7519,
      "Äłdamaged": 7520,
      "Äłemployment": 7521,
      "Äłdiagnosed": 7522,
      "borne": 7523,
      "ENT": 7524,
      "ÄłDesign": 7525,
      "Äłdecreased": 7526,
      "reedom": 7527,
      "Äłpregnant": 7528,
      "Äłinformed": 7529,
      "Äłsettings": 7530,
      "ÄłISBN": 7531,
      "Äłderived": 7532,
      "Äłdestroyed": 7533,
      "Äłcircumstances": 7534,
      "Äłsucceed": 7535,
      "Äłdelivery": 7536,
      "'m": 7537,
      "43": 7538,
      "68": 7539,
      "Let": 7540,
      "Med": 7541,
      "cons": 7542,
      "comp": 7543,
      "making": 7544,
      "sis": 7545,
      "uro": 7546,
      "Ä¶": 7547,
      "Ġl": 7548,
      "ĠÄłess": 7549,
      "ĠÄłkeep": 7550,
      "Äławard": 7551,
      "atial": 7552,
      "Äłsudden": 7553,
      "Äłfabric": 7554,
      "Äłmamm": 7555,
      "Äłmixed": 7556,
      "cture": 7557,
      "stant": 7558,
      "Äłnob": 7559,
      "idered": 7560,
      "otion": 7561,
      "Äłbeings": 7562,
      "Äłforg": 7563,
      "ulus": 7564,
      "ÄłSil": 7565,
      "ifer": 7566,
      "estock": 7567,
      "ÄłProp": 7568,
      "Äłexhaust": 7569,
      "iva": 7570,
      "ivestock": 7571,
      "ÄłBang": 7572,
      "ÄłBuilding": 7573,
      "ÄłBefore": 7574,
      "ocity": 7575,
      "ĠÄłauthor": 7576,
      "ĠÄłindu": 7577,
      "Äłdealing": 7578,
      "ÄłRoyal": 7579,
      "Äłrig": 7580,
      "ustral": 7581,
      "Äłenemy": 7582,
      "Äłenormous": 7583,
      "upreme": 7584,
      "ĠÄłtext": 7585,
      "Äłmanif": 7586,
      "Äłclust": 7587,
      "Äłmeals": 7588,
      "ĠÄłlittle": 7589,
      "erving": 7590,
      "ĠÄłgener": 7591,
      "Äłagents": 7592,
      "Äłracial": 7593,
      "Äłblog": 7594,
      "aths": 7595,
      "Äłproven": 7596,
      "Äłschem": 7597,
      "Äłearn": 7598,
      "Äłcentre": 7599,
      "Äłgenerations": 7600,
      "Äłfunds": 7601,
      "Äłrequest": 7602,
      "Äłsky": 7603,
      "Äłextended": 7604,
      "Äłmonitor": 7605,
      "ĠÄłalong": 7606,
      "1992": 7607,
      "Äłoccasion": 7608,
      "Äłdesigns": 7609,
      "ĠÄłleft": 7610,
      "syl": 7611,
      "incol": 7612,
      "ÄłCommunity": 7613,
      "Äłfunctional": 7614,
      "ÄłScott": 7615,
      "Äłbrings": 7616,
      "Äłinfluenced": 7617,
      "Äłtowns": 7618,
      "Äłroute": 7619,
      "Äłconstructed": 7620,
      "Äłsequence": 7621,
      "Äłreplaced": 7622,
      "Äłtrends": 7623,
      "Äłcolleagues": 7624,
      "ÄłAcademy": 7625,
      "Äłtroops": 7626,
      "cyclop": 7627,
      "800": 7628,
      "BT": 7629,
      "Can": 7630,
      "Per": 7631,
      "Re": 7632,
      "ban": 7633,
      "bial": 7634,
      "cend": 7635,
      "wing": 7636,
      "ĠV": 7637,
      "Ġto": 7638,
      "reation": 7639,
      "reens": 7640,
      "isdom": 7641,
      "Äłcoc": 7642,
      "Äłcash": 7643,
      "asant": 7644,
      "Äłthyroid": 7645,
      "oli": 7646,
      "olves": 7647,
      "otal": 7648,
      "otype": 7649,
      "charge": 7650,
      "raham": 7651,
      "ÄłAp": 7652,
      "Äłstroke": 7653,
      "adder": 7654,
      "estinal": 7655,
      "Äłhero": 7656,
      "ĠÄłsm": 7657,
      "ials": 7658,
      "ĠÄłbetter": 7659,
      "ÄłDet": 7660,
      "riz": 7661,
      "Äłrank": 7662,
      "ĠÄłmaking": 7663,
      "ÄłNon": 7664,
      "ptic": 7665,
      "Äłunt": 7666,
      "ideos": 7667,
      "ipher": 7668,
      "ÄłOpen": 7669,
      "Äłcontemporary": 7670,
      "Äłdispl": 7671,
      "Äłarms": 7672,
      "eoples": 7673,
      "ricts": 7674,
      "uality": 7675,
      "ÄłChicago": 7676,
      "Äłconsists": 7677,
      "Äłsupplements": 7678,
      "Äłattached": 7679,
      "ĠÄłRe": 7680,
      "Äłsignals": 7681,
      "Äłeffectiveness": 7682,
      "ocking": 7683,
      "ĠÄłhead": 7684,
      "Äłdistrict": 7685,
      "Äłconfidence": 7686,
      "Äłapproved": 7687,
      "Äłguidance": 7688,
      "ĠÄłlet": 7689,
      "acco": 7690,
      "ĠÄłabove": 7691,
      "ÄłClimate": 7692,
      "ÄłColor": 7693,
      "Äłnearby": 7694,
      "Äłfacing": 7695,
      "Äłturns": 7696,
      "Äłcriteria": 7697,
      "Äłrepresented": 7698,
      "Äłholds": 7699,
      "Äłarchae": 7700,
      "Äłtwenty": 7701,
      "iterature": 7702,
      "ÄłAgricult": 7703,
      "Äłuncertain": 7704,
      "ÄłCOVID": 7705,
      "Äłencouraged": 7706,
      "Äłirrit": 7707,
      "Äłrarely": 7708,
      "ĠÄłcountry": 7709,
      "Äłmissing": 7710,
      "Äłbreathing": 7711,
      "Äłturning": 7712,
      "Äłupdated": 7713,
      "Äłsubsequent": 7714,
      "Äłswimming": 7715,
      "Äłglucose": 7716,
      "sylvania": 7717,
      ".;": 7718,
      "63": 7719,
      "Bl": 7720,
      "Comp": 7721,
      "Ed": 7722,
      "UN": 7723,
      "bre": 7724,
      "bably": 7725,
      "door": 7726,
      "oons": 7727,
      "pd": 7728,
      "Ġ19": 7729,
      "ĠÃ¢Ä¢Ä¾": 7730,
      "ĠÃĤ": 7731,
      "Äłvel": 7732,
      "ĠÄłment": 7733,
      "Äłtheories": 7734,
      "anied": 7735,
      "Äłpapers": 7736,
      "ico": 7737,
      "Äłmice": 7738,
      "Äłhop": 7739,
      "stract": 7740,
      "char": 7741,
      "rack": 7742,
      "iger": 7743,
      "ÄłAP": 7744,
      "Äłongoing": 7745,
      "ÄłSant": 7746,
      "ÄłCP": 7747,
      "abled": 7748,
      "ablish": 7749,
      "osh": 7750,
      "pper": 7751,
      "Äłcomplications": 7752,
      "ĠÄłcost": 7753,
      "ĠÄłcases": 7754,
      "ĠÄłsl": 7755,
      "ĠÄłpoint": 7756,
      "ÄłHoly": 7757,
      "ĠÄłbook": 7758,
      "ĠÄłinvest": 7759,
      "ÄłNorthern": 7760,
      "Äłspin": 7761,
      "aka": 7762,
      "ĠÄłhome": 7763,
      "ÄłOhio": 7764,
      "Äłwilling": 7765,
      "Äłresolution": 7766,
      "ÄłJac": 7767,
      "ÄłJud": 7768,
      "Äłarray": 7769,
      "ĠÄłnever": 7770,
      "Äłtele": 7771,
      "Äłtexts": 7772,
      "rene": 7773,
      "ÄłItalian": 7774,
      "although": 7775,
      "ĠÄłCl": 7776,
      "ffective": 7777,
      "ÄłVictor": 7778,
      "Äłaccommod": 7779,
      "Äłsubt": 7780,
      "Äłremark": 7781,
      "Äłfounded": 7782,
      "Äłseeking": 7783,
      "Äłdepart": 7784,
      "hemistry": 7785,
      "Äłdisturb": 7786,
      "pects": 7787,
      "ĠÄłJohn": 7788,
      "ĠÄłrather": 7789,
      "Äłengaged": 7790,
      "isco": 7791,
      "Äłparas": 7792,
      "Äłwheat": 7793,
      "Äłlisted": 7794,
      "Äłreceiving": 7795,
      "ĠÄłothers": 7796,
      "Äłcircle": 7797,
      "regon": 7798,
      "Äłemployed": 7799,
      "Äłdomain": 7800,
      "Äłannounced": 7801,
      "Äłgreenhouse": 7802,
      "Äłvariables": 7803,
      "Äłcrime": 7804,
      "ÃĦÄ": 7805,
      "Äłdebt": 7806,
      "Äłbringing": 7807,
      "criptions": 7808,
      "Äłhydro": 7809,
      "Äłhoriz": 7810,
      "Äłdeclared": 7811,
      "ĠÄłcountries": 7812,
      "Äłpanel": 7813,
      "Äłinnovative": 7814,
      "Äłbranch": 7815,
      "Äłfundamental": 7816,
      "Äłterritory": 7817,
      "elesc": 7818,
      "ustainable": 7819,
      "86": 7820,
      "Figure": 7821,
      "LS": 7822,
      "OP": 7823,
      "Your": 7824,
      "car": 7825,
      "called": 7826,
      "di": 7827,
      "def": 7828,
      "gu": 7829,
      "rif": 7830,
      "she": 7831,
      "while": 7832,
      "whel": 7833,
      "ĠÄłthings": 7834,
      "Äłu": 7835,
      "Äłtut": 7836,
      "ati": 7837,
      "Äłske": 7838,
      "ori": 7839,
      "edy": 7840,
      "Äłinhib": 7841,
      "roat": 7842,
      "rovers": 7843,
      "Äłhole": 7844,
      "struction": 7845,
      "Äłreward": 7846,
      "Äłreaching": 7847,
      "Äłlake": 7848,
      "etary": 7849,
      "ÄłTime": 7850,
      "Äłgases": 7851,
      "igration": 7852,
      "unicip": 7853,
      "uscript": 7854,
      "Äłstrict": 7855,
      "ami": 7856,
      "estine": 7857,
      "ÄłPC": 7858,
      "ÄłDoes": 7859,
      "ograp": 7860,
      "ÄłNaz": 7861,
      "ÄłLab": 7862,
      "asty": 7863,
      "Äładvert": 7864,
      "Äłdisabilities": 7865,
      "Äłneur": 7866,
      "rypt": 7867,
      "Äłarrest": 7868,
      "inded": 7869,
      "Äłbutter": 7870,
      "ĠÄłlim": 7871,
      "angle": 7872,
      "Äłjump": 7873,
      "ieval": 7874,
      "ailing": 7875,
      "ĠÄłSec": 7876,
      "ĠÄłAll": 7877,
      "Äłrab": 7878,
      "ontal": 7879,
      "ĠÄłBrit": 7880,
      "ĠÄłRetrieved": 7881,
      "arming": 7882,
      "athers": 7883,
      "Äłexamine": 7884,
      "Äłexamined": 7885,
      "Äłinsurance": 7886,
      "Äłserving": 7887,
      "ĠÄłJew": 7888,
      "Äłestimate": 7889,
      "stitutes": 7890,
      "Äłlearners": 7891,
      "Äłtemporary": 7892,
      "cribe": 7893,
      "Äłinvolving": 7894,
      "Äłpassage": 7895,
      "Äłswitch": 7896,
      "Äłdelivered": 7897,
      "Äłdifficulties": 7898,
      "Äłoptim": 7899,
      "Äłstronger": 7900,
      "Äłrecognition": 7901,
      "ÄłAmong": 7902,
      "Äłexercises": 7903,
      "ucky": 7904,
      "IDS": 7905,
      "Äłmeaningful": 7906,
      "Äłimplementation": 7907,
      "ĠÄłspecies": 7908,
      "Äłimmediate": 7909,
      "Äłdanger": 7910,
      "Äłcooling": 7911,
      "ogenic": 7912,
      "Äłtrip": 7913,
      "Äłangle": 7914,
      "Äłconstantly": 7915,
      "ĠÄłdiscuss": 7916,
      "ĠÄłvalue": 7917,
      "Äłspectrum": 7918,
      "Äłexcessive": 7919,
      "ÄłObama": 7920,
      "ĠÄłconditions": 7921,
      "ĠÄłmembers": 7922,
      "Äłnitrogen": 7923,
      "Äłsubstantial": 7924,
      "ÄłBuddh": 7925,
      "htm": 7926,
      "ÄłAtlantic": 7927,
      "Äłparallel": 7928,
      "94": 7929,
      "EE": 7930,
      "Go": 7931,
      "ML": 7932,
      "aith": 7933,
      "fl": 7934,
      "kins": 7935,
      "pir": 7936,
      "rical": 7937,
      "top": 7938,
      "uits": 7939,
      "Ġand": 7940,
      "Ġ12": 7941,
      "ÄłÃĥÄ": 7942,
      "Äłtaste": 7943,
      "Äłtheore": 7944,
      "onia": 7945,
      "Äłsoph": 7946,
      "Äłov": 7947,
      "Äłcord": 7948,
      "Äłwidespread": 7949,
      "Äłpra": 7950,
      "Äłtom": 7951,
      "omal": 7952,
      "Äłnone": 7953,
      "Äłnice": 7954,
      "imm": 7955,
      "ÄłTake": 7956,
      "igan": 7957,
      "ÄłSol": 7958,
      "Äłstrain": 7959,
      "ÄłCamp": 7960,
      "ĠÄłworks": 7961,
      "ÄłPM": 7962,
      "quar": 7963,
      "quare": 7964,
      "ĠÄłcame": 7965,
      "ĠÄłcourse": 7966,
      "ĠÄłsimilar": 7967,
      "ĠÄłsomething": 7968,
      "ĠÄłpain": 7969,
      "Äłvocabulary": 7970,
      "ĠÄłfunction": 7971,
      "ÄłRet": 7972,
      "ÄłFamily": 7973,
      "ĠÄłmus": 7974,
      "Äłunex": 7975,
      "ĠÄłdone": 7976,
      "Äłsport": 7977,
      "ĠÄłhistory": 7978,
      "ÄłOcean": 7979,
      "Äłmanaged": 7980,
      "oken": 7981,
      "Äłpreced": 7982,
      "ĠÄłgive": 7983,
      "version": 7984,
      "lication": 7985,
      "obile": 7986,
      "ĠÄłCar": 7987,
      "Äłaccum": 7988,
      "ypically": 7989,
      "Äłscore": 7990,
      "Äłscope": 7991,
      "Äłscene": 7992,
      "Äłschedule": 7993,
      "Äłpresents": 7994,
      "Äłmodified": 7995,
      "Äłmedic": 7996,
      "Äłrefuge": 7997,
      "example": 7998,
      "Äłdefine": 7999,
      "eeding": 8000,
      "ÄłForce": 8001,
      "Äłserves": 8002,
      "Äłelected": 8003,
      "Äłconsidering": 8004,
      "Äłcontinu": 8005,
      "Äłlighting": 8006,
      "ÄłSpain": 8007,
      "ĠÄłabs": 8008,
      "Äłoccurring": 8009,
      "Äłopposed": 8010,
      "Äłoldest": 8011,
      "Äłterror": 8012,
      "Äłesc": 8013,
      "Äłhappy": 8014,
      "Äłindustries": 8015,
      "Äłmarriage": 8016,
      "oftware": 8017,
      "Äłfunctioning": 8018,
      "Äłcircuit": 8019,
      "Step": 8020,
      "aska": 8021,
      "Äłsunlight": 8022,
      "Äłcoverage": 8023,
      "Äłsleeping": 8024,
      "Äłcontainer": 8025,
      "itizen": 8026,
      "Äłinteractions": 8027,
      "ĠÄłsuggest": 8028,
      "Äłpsychological": 8029,
      "Äłmechanism": 8030,
      "ÄłPrevention": 8031,
      "ÄłDespite": 8032,
      "Äłmessages": 8033,
      "Äłdivision": 8034,
      "Äłthousand": 8035,
      "Äłpromoting": 8036,
      "ealand": 8037,
      "Äłmigration": 8038,
      "ÄłSpecial": 8039,
      "ÄłMichael": 8040,
      "ĠÄłrespons": 8041,
      "About": 8042,
      "Äłprominent": 8043,
      "83": 8044,
      "CL": 8045,
      "DR": 8046,
      "Pl": 8047,
      "Pre": 8048,
      "People": 8049,
      "aus": 8050,
      "eor": 8051,
      "eut": 8052,
      "eff": 8053,
      "iop": 8054,
      "iability": 8055,
      "zheim": 8056,
      "ĠÄłthink": 8057,
      "ĠWe": 8058,
      "ĠÄłce": 8059,
      "ĠÄłrad": 8060,
      "inity": 8061,
      "reater": 8062,
      "Äłsought": 8063,
      "orph": 8064,
      "ici": 8065,
      "Äłinher": 8066,
      "omer": 8067,
      "Äłloved": 8068,
      "ÄłSat": 8069,
      "eling": 8070,
      "Äłconven": 8071,
      "abeth": 8072,
      "Äłwhatever": 8073,
      "Äłorient": 8074,
      "ÄłMS": 8075,
      "ÄłPract": 8076,
      "ĠÄłsays": 8077,
      "ĠÄłpe": 8078,
      "ĠÄłpost": 8079,
      "ÄłHy": 8080,
      "ÄłHome": 8081,
      "ĠÄłbas": 8082,
      "ÄłWall": 8083,
      "Äłchart": 8084,
      "ÄłFre": 8085,
      "Äłrhyth": 8086,
      "ÄłIndu": 8087,
      "ĠÄłhapp": 8088,
      "ĠÄłhowever": 8089,
      "Äłdisrupt": 8090,
      "ÄłJoseph": 8091,
      "Äłarts": 8092,
      "ĠÄłneg": 8093,
      "ĠÄłnatural": 8094,
      "resses": 8095,
      "ĠÄłeither": 8096,
      "Äłevil": 8097,
      "ÄłKh": 8098,
      "Äłtradition": 8099,
      "Äłaging": 8100,
      "ÄłVen": 8101,
      "Äłgrant": 8102,
      "Äłrepair": 8103,
      "Äłrelief": 8104,
      "neys": 8105,
      "ĠÄłPress": 8106,
      "aware": 8107,
      "Äłinfect": 8108,
      "Äłassigned": 8109,
      "ĠÄłprogram": 8110,
      "Äłsurve": 8111,
      "ÄłHeart": 8112,
      "ollowing": 8113,
      "ictions": 8114,
      "ictory": 8115,
      "Äłeditor": 8116,
      "ĠÄłWest": 8117,
      "ĠÄłNo": 8118,
      "ÄłAsian": 8119,
      "ranean": 8120,
      "Äłcareful": 8121,
      "Äłeducators": 8122,
      "Äłprogramme": 8123,
      "Äłmarkets": 8124,
      "Äłcultures": 8125,
      "Äłplanted": 8126,
      "Äłkeeps": 8127,
      "Äłoperate": 8128,
      "viously": 8129,
      "Äłlisten": 8130,
      "Äłlistening": 8131,
      "Äłsitting": 8132,
      "ÄłJohnson": 8133,
      "Äłcovers": 8134,
      "Äłparticipation": 8135,
      "Äłlayers": 8136,
      "ĠÄłcomplete": 8137,
      "Äładdressed": 8138,
      "Äłwebsites": 8139,
      "Äłseriously": 8140,
      "ceedings": 8141,
      "ÄłAgency": 8142,
      "Äłinvestigation": 8143,
      "Äłsilver": 8144,
      "Under": 8145,
      "Äłvirtual": 8146,
      "Äłacquired": 8147,
      "Äłevaluate": 8148,
      "Äłdriver": 8149,
      "ĠÄłEnglish": 8150,
      "Äłobservations": 8151,
      "Äłdiameter": 8152,
      "ÄłDirector": 8153,
      "Äłroughly": 8154,
      "Äłproportion": 8155,
      "Äłvoltage": 8156,
      "71": 8157,
      "Each": 8158,
      "Every": 8159,
      "OD": 8160,
      "Of": 8161,
      "ao": 8162,
      "gov": 8163,
      "rateg": 8164,
      "vard": 8165,
      "wan": 8166,
      "Ä·": 8167,
      "ĠK": 8168,
      "Ġn": 8169,
      "ĠÄłenergy": 8170,
      "health": 8171,
      "Äłastr": 8172,
      "real": 8173,
      "erts": 8174,
      "Äłshed": 8175,
      "Äłpounds": 8176,
      "Äłpestic": 8177,
      "Äłbond": 8178,
      "Äłfer": 8179,
      "Äłfulf": 8180,
      "icing": 8181,
      "icts": 8182,
      "Äłdrought": 8183,
      "Äłdensity": 8184,
      "lete": 8185,
      "Äłhurt": 8186,
      "Äłren": 8187,
      "Äłlie": 8188,
      "sell": 8189,
      "ÄłAND": 8190,
      "ÄłSign": 8191,
      "Äłstations": 8192,
      "oded": 8193,
      "Äłconj": 8194,
      "Äłconqu": 8195,
      "iller": 8196,
      "ĠÄłways": 8197,
      "ÄłPeter": 8198,
      "Äłhealing": 8199,
      "aints": 8200,
      "ĠÄłser": 8201,
      "ÄłBrown": 8202,
      "ĠÄławay": 8203,
      "ÄłHand": 8204,
      "ĠÄłbo": 8205,
      "ÄłWhere": 8206,
      "Äłchrom": 8207,
      "ÄłDen": 8208,
      "ÄłFind": 8209,
      "ÄłFund": 8210,
      "ogy": 8211,
      "Äłran": 8212,
      "Äłuniform": 8213,
      "ÄłGard": 8214,
      "Äłshut": 8215,
      "Äłshapes": 8216,
      "ÄłLim": 8217,
      "ÄłLabor": 8218,
      "Äłspaces": 8219,
      "Äłplates": 8220,
      "ouses": 8221,
      "ĠÄłhttp": 8222,
      "apor": 8223,
      "ipedia": 8224,
      "ĠÄłturn": 8225,
      "achus": 8226,
      "achine": 8227,
      "ĠÄłname": 8228,
      "ĠÄłnational": 8229,
      "ishop": 8230,
      "ÄłStep": 8231,
      "ĠÄłSc": 8232,
      "Ind": 8233,
      "herent": 8234,
      "lude": 8235,
      "ĠÄłCan": 8236,
      "uclear": 8237,
      "ovascular": 8238,
      "Äłrac": 8239,
      "Äłanywhere": 8240,
      "ĠÄłonce": 8241,
      "awn": 8242,
      "Äłdecay": 8243,
      "Äłnoise": 8244,
      "forest": 8245,
      "ĠÄłproject": 8246,
      "Äłflag": 8247,
      "ĠÄłareas": 8248,
      "ĠÄłHis": 8249,
      "Äłsigned": 8250,
      "Äłeveryday": 8251,
      "ĠÄłviol": 8252,
      "ĠÄłWhen": 8253,
      "Äłdiscrimination": 8254,
      "Äłcaught": 8255,
      "ĠÄłNational": 8256,
      "ĠÄłalways": 8257,
      "Äłplanned": 8258,
      "mann": 8259,
      "ĠÄłconn": 8260,
      "Äłantioxid": 8261,
      "ographs": 8262,
      "ĠThere": 8263,
      "ÄłAdditionally": 8264,
      "Äłseconds": 8265,
      "Äłrestrict": 8266,
      "Äłharder": 8267,
      "ÄłZealand": 8268,
      "Äłcombat": 8269,
      "Äłmoves": 8270,
      "Äłcontributed": 8271,
      "ĠÄłcommunity": 8272,
      "ĠÄłdifficult": 8273,
      "Äłhistoric": 8274,
      "ĠÄłprevent": 8275,
      "Äłprinted": 8276,
      "ÄłKingdom": 8277,
      "ĠÄłobs": 8278,
      "ĠÄłinflu": 8279,
      "Äłimagine": 8280,
      "Äłcrypt": 8281,
      "Äłexecutive": 8282,
      "Äłeliminate": 8283,
      "Äłinstruments": 8284,
      "Äłasthma": 8285,
      "Äłuniversities": 8286,
      "Äłcategory": 8287,
      "Äłinstructions": 8288,
      "ÄłSuper": 8289,
      "ÄłRichard": 8290,
      "ÄłDistrict": 8291,
      "Äłgalax": 8292,
      "Äłneighborhood": 8293,
      "Äłpandemic": 8294,
      "incoln": 8295,
      "App": 8296,
      "Cs": 8297,
      "Please": 8298,
      "comm": 8299,
      "rink": 8300,
      "zym": 8301,
      "Ä¼": 8302,
      "ĠÄłarm": 8303,
      "ĠÄłself": 8304,
      "athered": 8305,
      "Äłsoul": 8306,
      "oug": 8307,
      "arg": 8308,
      "Äłfashion": 8309,
      "Äłmosquit": 8310,
      "Äłhoney": 8311,
      "Äłlaid": 8312,
      "Äłlivestock": 8313,
      "etts": 8314,
      "irs": 8315,
      "ÄłAS": 8316,
      "Äłstreet": 8317,
      "amber": 8318,
      "amins": 8319,
      "elve": 8320,
      "ÄłIreland": 8321,
      "ÄłCamb": 8322,
      "mented": 8323,
      "mentia": 8324,
      "ÄłMer": 8325,
      "ÄłMars": 8326,
      "emies": 8327,
      "ÄłBig": 8328,
      "ÄłBill": 8329,
      "ĠÄłavailable": 8330,
      "ÄłWord": 8331,
      "ĠÄłfive": 8332,
      "ÄłDom": 8333,
      "ÄłEU": 8334,
      "allow": 8335,
      "ÄłGal": 8336,
      "ÄłList": 8337,
      "ÄłLanguage": 8338,
      "akistan": 8339,
      "ultane": 8340,
      "ĠÄłhigher": 8341,
      "rub": 8342,
      "ĠÄłtemper": 8343,
      "2021": 8344,
      "Äłmanager": 8345,
      "Äłclot": 8346,
      "Äłjoy": 8347,
      "ervative": 8348,
      "Äłrecording": 8349,
      "fulness": 8350,
      "Äłprovider": 8351,
      "ÄłHeb": 8352,
      "Äłexploring": 8353,
      "Äłowner": 8354,
      "claim": 8355,
      "Äłreporting": 8356,
      "Äłequality": 8357,
      "ĠÄłOr": 8358,
      "Äłexperiencing": 8359,
      "ĠÄłrights": 8360,
      "Äłimmun": 8361,
      "Äłdemands": 8362,
      "Äłobjective": 8363,
      "Äłlabour": 8364,
      "ometry": 8365,
      "ĠÄłpercent": 8366,
      "Äłminds": 8367,
      "Äłfatigue": 8368,
      "abitants": 8369,
      "Äłacceptable": 8370,
      "Äłargue": 8371,
      "ĠÄłrole": 8372,
      "Äłattempts": 8373,
      "ÄłParty": 8374,
      "Äłsuscept": 8375,
      "Äłgraduate": 8376,
      "Äłbreath": 8377,
      "Äłnutrient": 8378,
      "ĠÄłexperience": 8379,
      "ĠÄłsignificant": 8380,
      "Äłcollaboration": 8381,
      "ĠÄłrepresent": 8382,
      "ĠÄłcells": 8383,
      "Äłmathematics": 8384,
      "Äłsatellite": 8385,
      "ĠÄłeducation": 8386,
      "Äłamazing": 8387,
      "ÄłPennsylvania": 8388,
      "02": 8389,
      "Don": 8390,
      "OW": 8391,
      "Over": 8392,
      "hand": 8393,
      "Ä¦": 8394,
      "Ä²": 8395,
      "onents": 8396,
      "enza": 8397,
      "ani": 8398,
      "Äłcort": 8399,
      "itative": 8400,
      "itled": 8401,
      "Äłboy": 8402,
      "Äłbridge": 8403,
      "Äłbrows": 8404,
      "Äłfro": 8405,
      "Äłfixed": 8406,
      "illeg": 8407,
      "ura": 8408,
      "Äłbees": 8409,
      "Äłgut": 8410,
      "ÄłAccess": 8411,
      "ÄłCorn": 8412,
      "Ġ.;": 8413,
      "ifted": 8414,
      "Äłprohib": 8415,
      "ÄłMD": 8416,
      "ĠÄłwee": 8417,
      "ÄłPet": 8418,
      "ĠÄłcause": 8419,
      "ĠÄłservices": 8420,
      "ĠÄłposs": 8421,
      "ĠÄłpaper": 8422,
      "ocated": 8423,
      "ĠÄłair": 8424,
      "ĠÄłaction": 8425,
      "ĠÄłaffect": 8426,
      "ÄłHam": 8427,
      "ÄłWood": 8428,
      "ĠÄłfurther": 8429,
      "ÄłDivision": 8430,
      "ÄłEth": 8431,
      "ÄłFace": 8432,
      "Äłrice": 8433,
      "ĠÄłtook": 8434,
      "ĠÄłdam": 8435,
      "ÄłGree": 8436,
      "ĠÄłhaving": 8437,
      "1920": 8438,
      "Äłincred": 8439,
      "Äłclothing": 8440,
      "Äłperceived": 8441,
      "oked": 8442,
      "ÄłStart": 8443,
      "ĠÄłbegin": 8444,
      "Äłaged": 8445,
      "ÄłVer": 8446,
      "Äłblocks": 8447,
      "Äłdesired": 8448,
      "Äłreprodu": 8449,
      "aws": 8450,
      "Äłsupposed": 8451,
      "Äłpreserve": 8452,
      "Äłinterventions": 8453,
      "Äłtransp": 8454,
      "Äłexamination": 8455,
      "Äłdetected": 8456,
      "ocket": 8457,
      "ÄłAlzheim": 8458,
      "Äłexploration": 8459,
      "Äłinsight": 8460,
      "Äłreduces": 8461,
      "Äłeastern": 8462,
      "Äłwriters": 8463,
      "fessional": 8464,
      "Äłplayers": 8465,
      "Äłrealize": 8466,
      "print": 8467,
      "Äłbiology": 8468,
      "Äłstructural": 8469,
      "regation": 8470,
      "Äłlosses": 8471,
      "Äłdietary": 8472,
      "Äłteams": 8473,
      "ibraries": 8474,
      "Äłsummary": 8475,
      "Äłnegot": 8476,
      "Äłsuffered": 8477,
      "Äłseparated": 8478,
      "Äłcopper": 8479,
      "ÄłIII": 8480,
      "Äłburning": 8481,
      "Äłlifetime": 8482,
      "Äłmechanical": 8483,
      "ilosoph": 8484,
      "ÄłEmpire": 8485,
      "ĠÄłaccount": 8486,
      "Äłcarrying": 8487,
      "ĠÄłdeterm": 8488,
      "Äłrecommendations": 8489,
      "Äłweakness": 8490,
      "ÄłValley": 8491,
      "ĠÄłreturn": 8492,
      "Äłcooperation": 8493,
      "ÄłMartin": 8494,
      "Äłmerely": 8495,
      "ĠÄłdue": 8496,
      "Äłkilomet": 8497,
      "Äłaccompanied": 8498,
      "05": 8499,
      "1000": 8500,
      "AA": 8501,
      "Because": 8502,
      "EF": 8503,
      "IF": 8504,
      "Last": 8505,
      "Not": 8506,
      "Ps": 8507,
      "brid": 8508,
      "gent": 8509,
      "mail": 8510,
      "miss": 8511,
      "nals": 8512,
      "uber": 8513,
      "ugg": 8514,
      "words": 8515,
      "yes": 8516,
      "Ãĸ": 8517,
      "Ä½": 8518,
      "ĠÄłarr": 8519,
      "Äłsodium": 8520,
      "itual": 8521,
      "Äłpuzz": 8522,
      "ouds": 8523,
      "Äłbot": 8524,
      "Äłfurn": 8525,
      "Äłflying": 8526,
      "Äłmine": 8527,
      "Äłthorough": 8528,
      "Äłreverse": 8529,
      "Äłlakes": 8530,
      "Äłnest": 8531,
      "Äłislands": 8532,
      "otton": 8533,
      "urse": 8534,
      "Äłgrain": 8535,
      "raine": 8536,
      "ÄłAcc": 8537,
      "ÄłAvoid": 8538,
      "ÄłSometimes": 8539,
      "amiliar": 8540,
      "adel": 8541,
      "ela": 8542,
      "ÄłCa": 8543,
      "istered": 8544,
      "ĠÄłclear": 8545,
      "ĠÄłsay": 8546,
      "ÄłBoston": 8547,
      "ĠÄłaut": 8548,
      "Äłchap": 8549,
      "Äłchances": 8550,
      "Äłchosen": 8551,
      "rix": 8552,
      "ÄłGovern": 8553,
      "agan": 8554,
      "Äłworry": 8555,
      "izabeth": 8556,
      "ĠÄłhard": 8557,
      "ibl": 8558,
      "1930": 8559,
      "ÄłOper": 8560,
      "Äłdispos": 8561,
      "Äłmanual": 8562,
      "ĠÄłnet": 8563,
      "ÄłThough": 8564,
      "ĠÄłlower": 8565,
      "ologically": 8566,
      "tein": 8567,
      "ĠÄłgrowth": 8568,
      "Äłtract": 8569,
      "Äłtrail": 8570,
      "Äłtraits": 8571,
      "Äłagent": 8572,
      "Äłrocks": 8573,
      "Äłblo": 8574,
      "Äłblind": 8575,
      "Äłphosph": 8576,
      "Äłproviders": 8577,
      "ĠÄłMed": 8578,
      "Äłscar": 8579,
      "Äłsurfaces": 8580,
      "Äłwhereas": 8581,
      "Äłinterface": 8582,
      "Äłsignificance": 8583,
      "Äłvariation": 8584,
      "ĠÄłWar": 8585,
      "Äłcrew": 8586,
      "Äłdefend": 8587,
      "Äłecological": 8588,
      "ugar": 8589,
      "Äłplane": 8590,
      "Äłconfig": 8591,
      "Äłpublication": 8592,
      "ÄłAdministration": 8593,
      "Äłparagraph": 8594,
      "including": 8595,
      "Äłbiom": 8596,
      "1985": 8597,
      "Äłmarks": 8598,
      "ĠÄłdeath": 8599,
      "ometric": 8600,
      "Äłfeeding": 8601,
      "ÄłEdward": 8602,
      "ÄłMoreover": 8603,
      "Äłtissues": 8604,
      "Äłmountains": 8605,
      "Äłbeauty": 8606,
      "Äłcolonial": 8607,
      "ĠÄłevidence": 8608,
      "Äłlaunch": 8609,
      "Äłattractive": 8610,
      "ÄłForest": 8611,
      "Äłdrawn": 8612,
      "Äłcomfortable": 8613,
      "ĠÄłcharacter": 8614,
      "Äłmortality": 8615,
      "ÄłOffice": 8616,
      "ĠÄłAmerica": 8617,
      "Äłunusual": 8618,
      "59": 8619,
      "700": 8620,
      "EA": 8621,
      "Where": 8622,
      "draw": 8623,
      "iat": 8624,
      "iÃĥ": 8625,
      "lav": 8626,
      "lined": 8627,
      "such": 8628,
      "uum": 8629,
      "worth": 8630,
      "ĠU": 8631,
      "Ġor": 8632,
      "ĠÃ¢Ä¢": 8633,
      "Ġ14": 8634,
      "reets": 8635,
      "iser": 8636,
      "Äłcow": 8637,
      "Äłcos": 8638,
      "iture": 8639,
      "Äłped": 8640,
      "Äłpill": 8641,
      "Äłblow": 8642,
      "Äłfellow": 8643,
      "Äłtot": 8644,
      "Äłinn": 8645,
      "Äłmood": 8646,
      "Äłmixture": 8647,
      "ila": 8648,
      "stru": 8649,
      "Äłnom": 8650,
      "idation": 8651,
      "Äłgly": 8652,
      "usive": 8653,
      "Äłstead": 8654,
      "ÄłCard": 8655,
      "ÄłCap": 8656,
      "oda": 8657,
      "istically": 8658,
      "ership": 8659,
      "essions": 8660,
      "ÄłMil": 8661,
      "ÄłMid": 8662,
      "ÄłMental": 8663,
      "emb": 8664,
      "ÄłPage": 8665,
      "Äłexclus": 8666,
      "ĠÄłcirc": 8667,
      "ĠÄłcreate": 8668,
      "ĠÄłsw": 8669,
      "ĠÄłput": 8670,
      "ÄłHill": 8671,
      "ĠÄłbusiness": 8672,
      "ÄłEr": 8673,
      "ÄłEarly": 8674,
      "ÄłFour": 8675,
      "Äłleak": 8676,
      "outheast": 8677,
      "ptom": 8678,
      "endment": 8679,
      "Äłweigh": 8680,
      "Äłseat": 8681,
      "aren": 8682,
      "Äłintent": 8683,
      "Äłcompound": 8684,
      "Äłcompris": 8685,
      "2022": 8686,
      "achment": 8687,
      "Äłbutton": 8688,
      "ĠÄłrev": 8689,
      "ensed": 8690,
      "Äłmeal": 8691,
      "Äłoutcome": 8692,
      "ĠÄłAss": 8693,
      "Äłoverwhel": 8694,
      "Äłroles": 8695,
      "ova": 8696,
      "Äłreliable": 8697,
      "Äłphones": 8698,
      "Äłdevelops": 8699,
      "olding": 8700,
      "ĠÄłyoung": 8701,
      "Äłdecor": 8702,
      "ĠÄłBe": 8703,
      "Äłheritage": 8704,
      "Äłevening": 8705,
      "ĠÄłanalysis": 8706,
      "Äłminute": 8707,
      "enger": 8708,
      "ointment": 8709,
      "Äłrising": 8710,
      "Äłmemb": 8711,
      "Äłbreeding": 8712,
      "ographical": 8713,
      "Äłstanding": 8714,
      "Äłpassion": 8715,
      "Äłhappening": 8716,
      "Äłswit": 8717,
      "Äłfaced": 8718,
      "Äłfourth": 8719,
      "riday": 8720,
      "ĠÄłStud": 8721,
      "Äłstrongly": 8722,
      "ĠCh": 8723,
      "ĠÄłthemselves": 8724,
      "Äłindicated": 8725,
      "Äłabsence": 8726,
      "Äłcontribution": 8727,
      "Äłfatty": 8728,
      "books": 8729,
      "Äłvertical": 8730,
      "Äłfailed": 8731,
      "Äłinitially": 8732,
      "Äłmaintained": 8733,
      "Äłmicrosc": 8734,
      "Äłcattle": 8735,
      "Äłmeasurement": 8736,
      "ĠÄłunderstand": 8737,
      "arios": 8738,
      "iterranean": 8739,
      "liest": 8740,
      "Äłrespectively": 8741,
      "ĠÄłusually": 8742,
      "Äłalternatives": 8743,
      "ĠÄłThat": 8744,
      "Äłfemales": 8745,
      "ĠÄłblood": 8746,
      "ĠÄłspecific": 8747,
      "Äłevaluation": 8748,
      "ÄłSystems": 8749,
      "ĠÄłincrease": 8750,
      "Äłvirtually": 8751,
      "onstruction": 8752,
      "Äłprincipal": 8753,
      "Äłceremon": 8754,
      "Äłtrend": 8755,
      "ĠÄłoccur": 8756,
      "Äłelevated": 8757,
      "ÄłConfeder": 8758,
      "Äłsatisf": 8759,
      "riendly": 8760,
      "roductive": 8761,
      "Äłweapons": 8762,
      "\")": 8763,
      ".'": 8764,
      "62": 8765,
      "Are": 8766,
      "ION": 8767,
      "Le": 8768,
      "MO": 8769,
      "Note": 8770,
      "OM": 8771,
      "da": 8772,
      "mes": 8773,
      "net": 8774,
      "rons": 8775,
      "zer": 8776,
      "Ä¢": 8777,
      "Ġ16": 8778,
      "ĠÄłX": 8779,
      "onym": 8780,
      "atched": 8781,
      "Äłsales": 8782,
      "Äłsizes": 8783,
      "esium": 8784,
      "orus": 8785,
      "itarian": 8786,
      "Äłwing": 8787,
      "Äłwait": 8788,
      "Äłfract": 8789,
      "icious": 8790,
      "Äłmir": 8791,
      "Äłdairy": 8792,
      "asm": 8793,
      "asures": 8794,
      "Äłhidden": 8795,
      "Äłlists": 8796,
      "Äłlaser": 8797,
      "oline": 8798,
      "otor": 8799,
      "chain": 8800,
      "urning": 8801,
      "Äłbeans": 8802,
      "Äłbears": 8803,
      "raq": 8804,
      "ÄłAT": 8805,
      "Äłonset": 8806,
      "Äłstood": 8807,
      "Äłstuff": 8808,
      "ayer": 8809,
      "ablished": 8810,
      "umatic": 8811,
      "ÄłPo": 8812,
      "Äłexceed": 8813,
      "Äłexception": 8814,
      "ĠÄłsym": 8815,
      "ĠÄłpur": 8816,
      "ĠÄłpers": 8817,
      "orted": 8818,
      "Äłvideos": 8819,
      "ĠÄłfar": 8820,
      "ĠÄłfac": 8821,
      "riends": 8822,
      "ÄłFar": 8823,
      "ĠÄłmind": 8824,
      "duction": 8825,
      "enda": 8826,
      "eller": 8827,
      "Äłplus": 8828,
      "ÄłOregon": 8829,
      "Äłcontrovers": 8830,
      "Äłneither": 8831,
      "Äłtelevision": 8832,
      "acking": 8833,
      "ĠÄłgiven": 8834,
      "Äłmaybe": 8835,
      "ietnam": 8836,
      "Äłprovin": 8837,
      "Äłinfant": 8838,
      "archy": 8839,
      "Äłformula": 8840,
      "Äłreflected": 8841,
      "ĠÄłvarious": 8842,
      "Äłgrows": 8843,
      "ĠÄłseem": 8844,
      "Äłstring": 8845,
      "Äłmyth": 8846,
      "Äłorganisms": 8847,
      "Äłequally": 8848,
      "Äłdriven": 8849,
      "hyd": 8850,
      "ĠÄłrange": 8851,
      "Äłphysicians": 8852,
      "Äłphysician": 8853,
      "Äłproductive": 8854,
      "Äłbreed": 8855,
      "Äłengaging": 8856,
      "Äłpositions": 8857,
      "Äłsla": 8858,
      "Äłelection": 8859,
      "1981": 8860,
      "Äłflows": 8861,
      "faction": 8862,
      "ediate": 8863,
      "Äłautism": 8864,
      "Äłobserve": 8865,
      "Äłobservation": 8866,
      "Äłsensors": 8867,
      "Äłdegrad": 8868,
      "Äłbigger": 8869,
      "Äłrepresentative": 8870,
      "ĠÄłconsidered": 8871,
      "Äłconsideration": 8872,
      "Äłverb": 8873,
      "Äłcutting": 8874,
      "Äłarrange": 8875,
      "Äłfeedback": 8876,
      "Äłinteractive": 8877,
      "Äłreactions": 8878,
      "Äłemerging": 8879,
      "Äłthreats": 8880,
      "ÃĻÄ°": 8881,
      "ĠÄłknowledge": 8882,
      "Äłinvestigate": 8883,
      "Äłanalyzed": 8884,
      "ĠÄłmodel": 8885,
      "Äłaims": 8886,
      "Äłjoined": 8887,
      "Äłtribes": 8888,
      "Äłelectrons": 8889,
      "Äłinnovation": 8890,
      "Äłhonor": 8891,
      "Äłmanufacturers": 8892,
      "ÄłTestament": 8893,
      "Äłtumors": 8894,
      "ĠÄłpractice": 8895,
      "Äłsettlement": 8896,
      "Äłnarrative": 8897,
      "Äłdistinguish": 8898,
      "Äłchicken": 8899,
      "Äłcorporate": 8900,
      "Äłbiodiversity": 8901,
      "achusetts": 8902,
      "zymes": 8903,
      "07": 8904,
      "57": 8905,
      "84": 8906,
      "CP": 8907,
      "hire": 8908,
      "human": 8909,
      "law": 8910,
      "sm": 8911,
      "uv": 8912,
      "Äłtables": 8913,
      "Äłtropical": 8914,
      "ĠÄłkey": 8915,
      "inates": 8916,
      "atis": 8917,
      "enh": 8918,
      "itted": 8919,
      "Äłwings": 8920,
      "ali": 8921,
      "also": 8922,
      "Äłfires": 8923,
      "Äłthread": 8924,
      "Äłhaven": 8925,
      "ilm": 8926,
      "Äłlip": 8927,
      "ÄłTom": 8928,
      "ÄłTable": 8929,
      "ÄłServices": 8930,
      "ÄłSciences": 8931,
      "advant": 8932,
      "ifier": 8933,
      "istence": 8934,
      "ÄłMethod": 8935,
      "uming": 8936,
      "Äłhel": 8937,
      "ĠÄłsum": 8938,
      "ÄłWhether": 8939,
      "ureau": 8940,
      "Äłnotion": 8941,
      "ÄłNavy": 8942,
      "ptions": 8943,
      "Äłunn": 8944,
      "ÄłLook": 8945,
      "Äłspine": 8946,
      "aret": 8947,
      "Äłenables": 8948,
      "iph": 8949,
      "Äładolesc": 8950,
      "ÄłUV": 8951,
      "ÄłJul": 8952,
      "Äłcomprom": 8953,
      "Äłcompens": 8954,
      "ĠÄłterm": 8955,
      "ĠÄłtaken": 8956,
      "Äłdoi": 8957,
      "ĠÄłlist": 8958,
      "ĠÄłlanguage": 8959,
      "Äłoutbreak": 8960,
      "ÄłKn": 8961,
      "lict": 8962,
      "Äłrose": 8963,
      "Äłnewly": 8964,
      "Äłacres": 8965,
      "Äłacute": 8966,
      "ĠÄłMan": 8967,
      "Äłscores": 8968,
      "ĠÄłask": 8969,
      "Äłassign": 8970,
      "ĠÄłwhole": 8971,
      "Äładds": 8972,
      "adequ": 8973,
      "Äłsmooth": 8974,
      "Äłcouldn": 8975,
      "Äłears": 8976,
      "ĠÄłvol": 8977,
      "ĠÄłWorld": 8978,
      "rained": 8979,
      "Äłsheet": 8980,
      "exp": 8981,
      "Äłparticle": 8982,
      "akespe": 8983,
      "Äłstrange": 8984,
      "Äłexplo": 8985,
      "ĠÄłchanges": 8986,
      "Äłhumanity": 8987,
      "ĠÄłleast": 8988,
      "Äłslaves": 8989,
      "ÄłResources": 8990,
      "Äłanalys": 8991,
      "Äłheads": 8992,
      "isticated": 8993,
      "Äłoptimal": 8994,
      "Äłcritic": 8995,
      "Äłstatistics": 8996,
      "Äłcovering": 8997,
      "Äłversions": 8998,
      "Äłliteracy": 8999,
[...]
