{
  "version": "1.0",
  "truncation": null,
  "padding": null,
  "added_tokens": [
    {
      "id": 0,
      "content": "<|bos|>",
      "single_word": false,
      "lstrip": false,
      "rstrip": false,
      "normalized": false,
      "special": true
    },
    {
      "id": 1,
      "content": "<|user_start|>",
      "single_word": false,
      "lstrip": false,
      "rstrip": false,
      "normalized": false,
      "special": true
    },
    {
      "id": 2,
      "content": "<|user_end|>",
      "single_word": false,
      "lstrip": false,
      "rstrip": false,
      "normalized": false,
      "special": true
    },
    {
      "id": 3,
      "content": "<|assistant_start|>",
      "single_word": false,
      "lstrip": false,
      "rstrip": false,
      "normalized": false,
      "special": true
    },
    {
      "id": 4,
      "content": "<|assistant_end|>",
      "single_word": false,
      "lstrip": false,
      "rstrip": false,
      "normalized": false,
      "special": true
    },
    {
      "id": 5,
      "content": "<|python_start|>",
      "single_word": false,
      "lstrip": false,
      "rstrip": false,
      "normalized": false,
      "special": true
    },
    {
      "id": 6,
      "content": "<|python_end|>",
      "single_word": false,
      "lstrip": false,
      "rstrip": false,
      "normalized": false,
      "special": true
    },
    {
      "id": 7,
      "content": "<|output_start|>",
      "single_word": false,
      "lstrip": false,
      "rstrip": false,
      "normalized": false,
      "special": true
    },
    {
      "id": 8,
      "content": "<|output_end|>",
      "single_word": false,
      "lstrip": false,
      "rstrip": false,
      "normalized": false,
      "special": true
    },
    {
      "id": 9,
      "content": "<|unk|>",
      "single_word": false,
      "lstrip": false,
      "rstrip": false,
      "normalized": false,
      "special": true
    }
  ],
  "normalizer": null,
  "pre_tokenizer": {
    "type": "Sequence",
    "pretokenizers": [
      {
        "type": "Split",
        "pattern": {
          "Regex": "'(?i:[sdmt]|ll|ve|re)|[^\\r\\n\\p{L}\\p{N}]?+\\p{L}+|\\p{N}{1,2}| ?[^\\s\\p{L}\\p{N}]++[\\r\\n]*|\\s*[\\r\\n]|\\s+(?!\\S)|\\s+"
        },
        "behavior": "Isolated",
        "invert": false
      },
      {
        "type": "ByteLevel",
        "add_prefix_space": false,
        "trim_offsets": true,
        "use_regex": false
      }
    ]
  },
  "post_processor": {
    "type": "TemplateProcessing",
    "single": [
      {
        "Sequence": {
          "id": "A",
          "type_id": 0
        }
      }
    ],
    "pair": [
      {
        "Sequence": {
          "id": "A",
          "type_id": 0
        }
      },
      {
        "Sequence": {
          "id": "B",
          "type_id": 1
        }
      }
    ],
    "special_tokens": {}
  },
  "decoder": null,
  "model": {
    "type": "Unigram",
    "unk_id": 9,
    "vocab": [
      [
        "<|bos|>",
        0.0
      ],
      [
        "<|user_start|>",
        0.0
      ],
      [
        "<|user_end|>",
        0.0
      ],
      [
        "<|assistant_start|>",
        0.0
      ],
      [
        "<|assistant_end|>",
        0.0
      ],
      [
        "<|python_start|>",
        0.0
      ],
      [
        "<|python_end|>",
        0.0
      ],
      [
        "<|output_start|>",
        0.0
      ],
      [
        "<|output_end|>",
        0.0
      ],
      [
        "<|unk|>",
        0.0
      ],
      [
        "s",
        -2.9144523291632627
      ],
      [
        "Ġ",
        -3.3736717138970107
      ],
      [
        "Ġthe",
        -3.5043604339253474
      ],
      [
        ",",
        -3.566943910425426
      ],
      [
        ".",
        -3.837196453358128
      ],
      [
        "Ġand",
        -4.041948437707992
      ],
      [
        "Ġto",
        -4.085013013090743
      ],
      [
        "Ġof",
        -4.095789250411412
      ],
      [
        "Ġa",
        -4.178698163696902
      ],
      [
        "ing",
        -4.3409075175683896
      ],
      [
        "Ġin",
        -4.5481501361338506
      ],
      [
        "e",
        -4.666615340234914
      ],
      [
        "ed",
        -4.696748551738997
      ],
      [
        "Ġis",
        -4.719358798745279
      ],
      [
        "d",
        -4.7443528563861594
      ],
      [
        "t",
        -4.864276887349082
      ],
      [
        "y",
        -4.885514149392481
      ],
      [
        "'",
        -5.035345850391934
      ],
      [
        "ly",
        -5.103004446771566
      ],
      [
        "0",
        -5.1216402594925
      ],
      [
        "Ġfor",
        -5.142382941925112
      ],
      [
        "Ġthat",
        -5.143931471859151
      ],
      [
        "Ċ",
        -5.262955643413882
      ],
      [
        "1",
        -5.296451741925745
      ],
      [
        ":",
        -5.327647542537271
      ],
      [
        "-",
        -5.336810962838024
      ],
      [
        "Ġare",
        -5.357334819724873
      ],
      [
        "Ġbe",
        -5.373777558661336
      ],
      [
        "a",
        -5.382283756235246
      ],
      [
        "Ġwith",
        -5.391095704578099
      ],
      [
        ".Ċ",
        -5.403006501296385
      ],
      [
        "Ġit",
        -5.435585874895887
      ],
      [
        "Ġyou",
        -5.441333187222872
      ],
      [
        ".ĊĊ",
        -5.451581213083932
      ],
      [
        "2",
        -5.520764292438528
      ],
      [
        "n",
        -5.557530048102219
      ],
      [
        "Ġon",
        -5.568866357642639
      ],
      [
        "Ġcan",
        -5.602738707582155
      ],
      [
        "Ġor",
        -5.614568974189416
      ],
      [
        "r",
        -5.636126015118817
      ],
      [
        "ĊĊ",
        -5.645085430689742
      ],
      [
        "o",
        -5.758867320005665
      ],
      [
        "Ġyour",
        -5.7753853736956415
      ],
      [
        "i",
        -5.8023821857523075
      ],
      [
        "Ġ(",
        -5.854359226872585
      ],
      [
        "Ġas",
        -5.866061531443515
      ],
      [
        "\"",
        -5.892552658925307
      ],
      [
        "er",
        -5.918170289358004
      ],
      [
        "ĠThe",
        -5.965591520932334
      ],
      [
        "Ġfrom",
        -5.9854727023563825
      ],
      [
        "Ġhave",
        -5.993826023306939
      ],
      [
        "ĠI",
        -6.051914046800732
      ],
      [
        "?",
        -6.053882293547554
      ],
      [
        "Ġby",
        -6.068155466305921
      ],
      [
        ")",
        -6.089861255297796
      ],
      [
        "Ġan",
        -6.107878945832077
      ],
      [
        "3",
        -6.180240996289523
      ],
      [
        "Ġthis",
        -6.182718693911925
      ],
      [
        "5",
        -6.1918846224102335
      ],
      [
        "Ġnot",
        -6.211993145760879
      ],
      [
        "m",
        -6.212941914313758
      ],
      [
        "al",
        -6.220115030191836
      ],
      [
        "on",
        -6.261560210361642
      ],
      [
        "re",
        -6.267410817057614
      ],
      [
        "Ġat",
        -6.290874682899185
      ],
      [
        "Ġwill",
        -6.307826440292686
      ],
      [
        "l",
        -6.312788034903527
      ],
      [
        "c",
        -6.332089242401398
      ],
      [
        "Ġtheir",
        -6.335480378898334
      ],
      [
        "4",
        -6.363804708695019
      ],
      [
        "in",
        -6.426553118584854
      ],
      [
        "9",
        -6.428535406367789
      ],
      [
        "Ġwas",
        -6.476965829330865
      ],
      [
        "ies",
        -6.477106718340231
      ],
      [
        "Ġmore",
        -6.482766728451059
      ],
      [
        "or",
        -6.485167399291305
      ],
      [
        "Ġthey",
        -6.498986551763112
      ],
      [
        "The",
        -6.526351884702459
      ],
      [
        "Ġbut",
        -6.573606043053038
      ],
      [
        "Ġhas",
        -6.5740937915079165
      ],
      [
        "g",
        -6.586766200390112
      ],
      [
        "ĠA",
        -6.587138151942899
      ],
      [
        "Ġwhich",
        -6.600049893976161
      ],
      [
        "p",
        -6.606204194131907
      ],
      [
        "Ġwe",
        -6.609383443131376
      ],
      [
        "6",
        -6.641033909052696
      ],
      [
        "A",
        -6.641649438187841
      ],
      [
        "Question",
        -6.655505801171943
      ],
      [
        "Ġalso",
        -6.679409223417938
      ],
      [
        "Ġone",
        -6.69545471933036
      ],
      [
        "8",
        -6.6994537491068105
      ],
      [
        "ĠAnswer",
        -6.701121599770477
      ],
      [
        "about",
        -6.759945987498035
      ],
      [
        "7",
        -6.764636744444944
      ],
      [
        "f",
        -6.767415606267752
      ],
      [
        "b",
        -6.774759737204882
      ],
      [
        "Ġall",
        -6.787593875766486
      ],
      [
        "Ġother",
        -6.8262846176264365
      ],
      [
        "ĠIt",
        -6.851773755416605
      ],
      [
        "Ġsome",
        -6.862745171377018
      ],
      [
        "Ġwhen",
        -6.863211339924
      ],
      [
        "Ġso",
        -6.866571648800573
      ],
      [
        "Ġdo",
        -6.880160535041931
      ],
      [
        "le",
        -6.88968071887944
      ],
      [
        "Ġup",
        -6.8944649404496445
      ],
      [
        "Ġmay",
        -6.903147869184021
      ],
      [
        "Ġif",
        -6.906499020014365
      ],
      [
        "Ġtime",
        -6.910403001755478
      ],
      [
        "Ġuse",
        -6.92164188721434
      ],
      [
        "able",
        -6.933317901825292
      ],
      [
        "Ġinto",
        -6.935734578410624
      ],
      [
        "Ġthem",
        -6.946860471528817
      ],
      [
        "Ġlike",
        -6.9576737744692885
      ],
      [
        "ĠIn",
        -6.958254642551083
      ],
      [
        "Ġhow",
        -6.959451482963461
      ],
      [
        "h",
        -6.968376543289748
      ],
      [
        "ĠS",
        -6.971570486136178
      ],
      [
        "ion",
        -6.977733856705978
      ],
      [
        "ĠThis",
        -6.985944457350026
      ],
      [
        "ĠC",
        -6.997944049769094
      ],
      [
        "Ġout",
        -7.01222704854939
      ],
      [
        "ĠWhat",
        -7.022650077703668
      ],
      [
        "ce",
        -7.027153713965571
      ],
      [
        "Ġthan",
        -7.0299212837285285
      ],
      [
        "is",
        -7.035038450832667
      ],
      [
        "ation",
        -7.055197247229929
      ],
      [
        "Ġthese",
        -7.059296685555562
      ],
      [
        "Ġwater",
        -7.066286443623142
      ],
      [
        "u",
        -7.078622594141805
      ],
      [
        "Ġwhat",
        -7.091972916322318
      ],
      [
        "ic",
        -7.098253085523446
      ],
      [
        "it",
        -7.101002773065257
      ],
      [
        "I",
        -7.109860762029763
      ],
      [
        "en",
        -7.131607947284717
      ],
      [
        "Ġthere",
        -7.144545295552762
      ],
      [
        "Ġused",
        -7.146765346519951
      ],
      [
        "k",
        -7.161701405265994
      ],
      [
        "Ġour",
        -7.163063246488319
      ],
      [
        "Ġmake",
        -7.177351600694223
      ],
      [
        "/",
        -7.18419554675299
      ],
      [
        "th",
        -7.1866304029679675
      ],
      [
        "Ġneed",
        -7.1885095032030115
      ],
      [
        "Ġsuch",
        -7.195704446027603
      ],
      [
        "Ġmost",
        -7.201651058903275
      ],
      [
        "ity",
        -7.202501931758135
      ],
      [
        "ĠB",
        -7.221371452475804
      ],
      [
        "Ġany",
        -7.227027286050573
      ],
      [
        "Ġwere",
        -7.235294858056983
      ],
      [
        "S",
        -7.236646119764941
      ],
      [
        "Ġover",
        -7.2451524438841535
      ],
      [
        "Ġbeen",
        -7.253130515333883
      ],
      [
        "Ġnew",
        -7.258362642365565
      ],
      [
        "an",
        -7.258633907031594
      ],
      [
        "Ġpeople",
        -7.273623269898554
      ],
      [
        "Ġsystem",
        -7.282961839455355
      ],
      [
        "um",
        -7.304854036674483
      ],
      [
        "Ġget",
        -7.305091070011052
      ],
      [
        "Ġhelp",
        -7.319319219050868
      ],
      [
        "D",
        -7.319682221207739
      ],
      [
        "Ġshould",
        -7.3393146128587965
      ],
      [
        "Ġjust",
        -7.34805912477276
      ],
      [
        "B",
        -7.349147705072531
      ],
      [
        ";",
        -7.354521002710635
      ],
      [
        "ers",
        -7.358759617876547
      ],
      [
        "Ġonly",
        -7.361543834774066
      ],
      [
        "C",
        -7.36468672682372
      ],
      [
        "Ġwould",
        -7.365163531281347
      ],
      [
        "cause",
        -7.367554434448579
      ],
      [
        "Ġwho",
        -7.36795689780852
      ],
      [
        "?Ċ",
        -7.369619186261399
      ],
      [
        "Ġhigh",
        -7.389621216027427
      ],
      [
        "Ġmany",
        -7.394183026470792
      ],
      [
        "us",
        -7.395443336047523
      ],
      [
        "ll",
        -7.395510235065915
      ],
      [
        "ar",
        -7.397056812088186
      ],
      [
        "Ġno",
        -7.402919696964316
      ],
      [
        "ĠF",
        -7.403172351426273
      ],
      [
        "!",
        -7.409030245750872
      ],
      [
        "ve",
        -7.409129786887707
      ],
      [
        "Ġits",
        -7.41310297043565
      ],
      [
        "ĠP",
        -7.414863425526621
      ],
      [
        "Ġtwo",
        -7.421383395930839
      ],
      [
        "ever",
        -7.433191654358248
      ],
      [
        "Ġtake",
        -7.438405532044918
      ],
      [
        "Ġwell",
        -7.445627753521043
      ],
      [
        "ive",
        -7.459142726401879
      ],
      [
        "Ġmy",
        -7.4688404930020145
      ],
      [
        "Ġfirst",
        -7.470758803371329
      ],
      [
        "Ġwork",
        -7.475500437422577
      ],
      [
        "ur",
        -7.4771681284074685
      ],
      [
        "ment",
        -7.477460675665599
      ],
      [
        "Ġlong",
        -7.478749976895736
      ],
      [
        "Ġhe",
        -7.482398040807228
      ],
      [
        "Ġway",
        -7.483476973258368
      ],
      [
        "Ġbetween",
        -7.490643311841067
      ],
      [
        "Ġgo",
        -7.495823047341506
      ],
      [
        "Ġwhere",
        -7.506669534877536
      ],
      [
        "Ġthrough",
        -7.506768813228668
      ],
      [
        "F",
        -7.520153603078297
      ],
      [
        "Ġdifferent",
        -7.532566909042529
      ],
      [
        "Ġsee",
        -7.540690573059843
      ],
      [
        "Ġprovide",
        -7.54280840534042
      ],
      [
        "In",
        -7.551583938245768
      ],
      [
        "T",
        -7.556551729756629
      ],
      [
        "at",
        -7.558043523384979
      ],
      [
        "v",
        -7.562880348487861
      ],
      [
        "Ġevery",
        -7.564055181486694
      ],
      [
        "very",
        -7.573182261827009
      ],
      [
        "ĠE",
        -7.578807958374488
      ],
      [
        "Ġcould",
        -7.5790046273842915
      ],
      [
        "ch",
        -7.579197966659903
      ],
      [
        "P",
        -7.58241679484331
      ],
      [
        "Ġusing",
        -7.582863974865701
      ],
      [
        "Ġeven",
        -7.6032674165676735
      ],
      [
        "ĠIf",
        -7.605101047327832
      ],
      [
        "ĠHow",
        -7.611824686313989
      ],
      [
        "ent",
        -7.615667561864344
      ],
      [
        "Ġun",
        -7.622021779390906
      ],
      [
        "out",
        -7.623024434081717
      ],
      [
        "ĠT",
        -7.632413504121102
      ],
      [
        "M",
        -7.637021896104599
      ],
      [
        "ĠThey",
        -7.642292554357621
      ],
      [
        "Ġmuch",
        -7.666832516061303
      ],
      [
        "Ġhealth",
        -7.688177722202452
      ],
      [
        "ĠM",
        -7.688671376357132
      ],
      [
        ").",
        -7.689117017858572
      ],
      [
        "E",
        -7.707849465200243
      ],
      [
        "while",
        -7.717677681866374
      ],
      [
        "Ġchange",
        -7.718669085286634
      ],
      [
        "Ġprocess",
        -7.72088417567444
      ],
      [
        "Ġwant",
        -7.724204248544525
      ],
      [
        "Ġgood",
        -7.724902709935856
      ],
      [
        "Ġhad",
        -7.725914679873995
      ],
      [
        "Ġimportant",
        -7.726882216342126
      ],
      [
        "w",
        -7.736711832564218
      ],
      [
        "Ġsmall",
        -7.73723909829815
      ],
      [
        "est",
        -7.739110650223318
      ],
      [
        "ĠâĢĵ",
        -7.740505100122477
      ],
      [
        "Ġhis",
        -7.740667275749376
      ],
      [
        "x",
        -7.743972998326035
      ],
      [
        "ĠYou",
        -7.745082555187298
      ],
      [
        "one",
        -7.746369216557341
      ],
      [
        "Ġcause",
        -7.746572009355501
      ],
      [
        "and",
        -7.747629561552685
      ],
      [
        "Ġdoes",
        -7.747689864981268
      ],
      [
        "Ġknow",
        -7.75477572363922
      ],
      [
        "ĠD",
        -7.756064960313389
      ],
      [
        "Ġfood",
        -7.756942776518238
      ],
      [
        "Ġyears",
        -7.758575909832368
      ],
      [
        "Ġeach",
        -7.759620408175616
      ],
      [
        "Ġstart",
        -7.761126157046604
      ],
      [
        "Ġdesign",
        -7.782729608932383
      ],
      [
        "Ġafter",
        -7.78455275853293
      ],
      [
        "Ġarea",
        -7.794024770288725
      ],
      [
        "G",
        -7.805694560957048
      ],
      [
        "Ġlevel",
        -7.816930960431073
      ],
      [
        "Ġdon",
        -7.817784881204814
      ],
      [
        "Ġworld",
        -7.82734709907233
      ],
      [
        "Ġfound",
        -7.838244124280644
      ],
      [
        "Ġcreate",
        -7.838764542171655
      ],
      [
        "Ġlarge",
        -7.856076970290793
      ],
      [
        "Ġdata",
        -7.858065073627518
      ],
      [
        "ĠG",
        -7.861565746729927
      ],
      [
        "made",
        -7.864055404329344
      ],
      [
        "Ġlife",
        -7.865196139386006
      ],
      [
        "Ġlight",
        -7.866042715405234
      ],
      [
        "ĠH",
        -7.86717184508688
      ],
      [
        "Ġproblem",
        -7.869566753993024
      ],
      [
        "Ġboth",
        -7.872760183941651
      ],
      [
        "Ġbefore",
        -7.874567713731981
      ],
      [
        "Ġde",
        -7.875995072857611
      ],
      [
        "z",
        -7.880213840218363
      ],
      [
        "around",
        -7.882660014211386
      ],
      [
        "ry",
        -7.888031917761914
      ],
      [
        "ĠFor",
        -7.888893353846862
      ],
      [
        "%",
        -7.8889948925814
      ],
      [
        "Ġoften",
        -7.889434087874646
      ],
      [
        "Ġthose",
        -7.8895885559746
      ],
      [
        "ate",
        -7.892376089926951
      ],
      [
        "Ġthing",
        -7.894045696442303
      ],
      [
        "Ġback",
        -7.895482817136175
      ],
      [
        "Ġsam",
        -7.896921779907133
      ],
      [
        "V",
        -7.904809965112611
      ],
      [
        "ne",
        -7.914397676334025
      ],
      [
        "Ġhuman",
        -7.915768447950458
      ],
      [
        "Ġmaterial",
        -7.918721404531304
      ],
      [
        "Ġplace",
        -7.918748985460291
      ],
      [
        "ĠWe",
        -7.92471453161542
      ],
      [
        "(",
        -7.925853749824969
      ],
      [
        "Ġpart",
        -7.926370282731773
      ],
      [
        "Ġallow",
        -7.928426544277125
      ],
      [
        "Ġright",
        -7.933646713689541
      ],
      [
        "age",
        -7.934567563778181
      ],
      [
        "Ġdown",
        -7.936308417547206
      ],
      [
        "Ġenergy",
        -7.943608910279115
      ],
      [
        "Ġbody",
        -7.944540242114456
      ],
      [
        "Ġnumber",
        -7.94593958328191
      ],
      [
        "ary",
        -7.946353596695622
      ],
      [
        "Ġlook",
        -7.946955498617196
      ],
      [
        "L",
        -7.948989124372738
      ],
      [
        "Ġunder",
        -7.950059186328286
      ],
      [
        "Ġkeep",
        -7.952104398294254
      ],
      [
        "),",
        -7.952966306408815
      ],
      [
        "ness",
        -7.959592910343326
      ],
      [
        "to",
        -7.960506100175223
      ],
      [
        "H",
        -7.960928797924513
      ],
      [
        "ĠTo",
        -7.961743199855107
      ],
      [
        "Ġanimal",
        -7.965591500268335
      ],
      [
        "Ġform",
        -7.965734066786053
      ],
      [
        "W",
        -7.965794487095502
      ],
      [
        "Ġcommon",
        -7.967866914448256
      ],
      [
        "Ġbeing",
        -7.969320731396341
      ],
      [
        "during",
        -7.971486742808252
      ],
      [
        "ĠW",
        -7.973636368496168
      ],
      [
        "N",
        -7.974848756362857
      ],
      [
        "What",
        -7.975421620443744
      ],
      [
        "Ġinformation",
        -7.977382902559908
      ],
      [
        "O",
        -7.98228095569932
      ],
      [
        "Ġme",
        -7.984112248782673
      ],
      [
        "Ġexample",
        -7.986462377202917
      ],
      [
        "Ġper",
        -7.988759883173036
      ],
      [
        "Ġyear",
        -7.999090904505175
      ],
      [
        "Ġhome",
        -8.00354981595494
      ],
      [
        "Ġbest",
        -8.005922867210199
      ],
      [
        "Ġincrease",
        -8.007767403700761
      ],
      [
        "Ġfind",
        -8.008042391786853
      ],
      [
        "Ġcar",
        -8.011719915580453
      ],
      [
        "ter",
        -8.013739850807445
      ],
      [
        "Ġshow",
        -8.016555294462043
      ],
      [
        ":Ċ",
        -8.019159697975143
      ],
      [
        "R",
        -8.020829420119602
      ],
      [
        "...",
        -8.02090097747556
      ],
      [
        "Ġinclude",
        -8.02936479378025
      ],
      [
        "Ġtest",
        -8.032636572359252
      ],
      [
        "Ġlead",
        -8.035087119764155
      ],
      [
        "ĠRe",
        -8.036647786510677
      ],
      [
        "Ġday",
        -8.040040339695008
      ],
      [
        "Ġher",
        -8.042830802369828
      ],
      [
        "Ġplant",
        -8.044775604521057
      ],
      [
        "Ġadd",
        -8.04714485393518
      ],
      [
        "Ġmain",
        -8.050251804333083
      ],
      [
        "Ġsay",
        -8.051319804349875
      ],
      [
        "Ġresearch",
        -8.056605050177442
      ],
      [
        "ĠK",
        -8.057965640742818
      ],
      [
        "ĠR",
        -8.06575974943298
      ],
      [
        "Ġexperience",
        -8.071612706613138
      ],
      [
        "ĠL",
        -8.074187727452584
      ],
      [
        "Ġp",
        -8.07652450180966
      ],
      [
        "ul",
        -8.077430269495455
      ],
      [
        "im",
        -8.079464748057426
      ],
      [
        "the",
        -8.081955120848887
      ],
      [
        "Ġsaid",
        -8.086704650745606
      ],
      [
        "Ġpower",
        -8.089206416937406
      ],
      [
        "Ġend",
        -8.090382715248989
      ],
      [
        "How",
        -8.091767029070777
      ],
      [
        "Ġal",
        -8.099161804995667
      ],
      [
        "Ġmight",
        -8.100532595731746
      ],
      [
        "Ġus",
        -8.100915175217747
      ],
      [
        "Ġspecies",
        -8.101043943315574
      ],
      [
        "ian",
        -8.101660689576676
      ],
      [
        "Ġbase",
        -8.106501093005605
      ],
      [
        "Ġstudy",
        -8.107290481926878
      ],
      [
        "ĠThese",
        -8.109163650125039
      ],
      [
        "Ġsupport",
        -8.109254971349209
      ],
      [
        "Ġnow",
        -8.120455408969185
      ],
      [
        "Ġgrow",
        -8.121733926587549
      ],
      [
        "Ġfew",
        -8.125338629013134
      ],
      [
        "Ġbetter",
        -8.135452220576278
      ],
      [
        "Ġgreat",
        -8.140843536429673
      ],
      [
        "Ġown",
        -8.141571510936444
      ],
      [
        "Ġstill",
        -8.141897958598552
      ],
      [
        "il",
        -8.147368685703977
      ],
      [
        "ability",
        -8.14787472284528
      ],
      [
        "ge",
        -8.148573401531708
      ],
      [
        "Ġw",
        -8.149499792247273
      ],
      [
        "Ġair",
        -8.152315000228393
      ],
      [
        "self",
        -8.153327549795797
      ],
      [
        "less",
        -8.157444292516226
      ],
      [
        "Ġproduct",
        -8.15755532055407
      ],
      [
        "Ġcase",
        -8.159892208227888
      ],
      [
        "Ġplants",
        -8.164387581060133
      ],
      [
        "Ġincluding",
        -8.168057529702443
      ],
      [
        "be",
        -8.168794165662652
      ],
      [
        "Ġset",
        -8.169919971841459
      ],
      [
        "Ġoff",
        -8.176524305668881
      ],
      [
        "ance",
        -8.178874459119825
      ],
      [
        "Ġcontrol",
        -8.179362070137493
      ],
      [
        "This",
        -8.182062072867165
      ],
      [
        "Ġnatural",
        -8.182881825032721
      ],
      [
        "Ġprevent",
        -8.190150605451665
      ],
      [
        "Ġstudents",
        -8.19401294176827
      ],
      [
        "Ġthink",
        -8.200177909147598
      ],
      [
        "Ġrisk",
        -8.201581496030098
      ],
      [
        "Ġless",
        -8.205707903865939
      ],
      [
        "It",
        -8.20917682847442
      ],
      [
        "K",
        -8.209428750000786
      ],
      [
        "Ġeffect",
        -8.216618452330898
      ],
      [
        "Ġagain",
        -8.217228131781198
      ],
      [
        "Ġissue",
        -8.217301196855924
      ],
      [
        "Ġear",
        -8.220533211718461
      ],
      [
        "ĠBut",
        -8.222763267657777
      ],
      [
        "Ġmethod",
        -8.225346701673132
      ],
      [
        "ous",
        -8.228082403154186
      ],
      [
        "Ġknown",
        -8.230085778172946
      ],
      [
        "If",
        -8.230759776735557
      ],
      [
        "Ġco",
        -8.230785364551718
      ],
      [
        "Ġline",
        -8.235064125274052
      ],
      [
        "Ġtype",
        -8.235068448162785
      ],
      [
        "Ġspecific",
        -8.235502245647744
      ],
      [
        "Ġdog",
        -8.236202280888158
      ],
      [
        "Ġmaking",
        -8.238453180409689
      ],
      [
        "Ġtemperature",
        -8.239092113786466
      ],
      [
        "ĠSo",
        -8.23969651886122
      ],
      [
        "Ġindividual",
        -8.244453131083782
      ],
      [
        "Ġcurrent",
        -8.244453624642514
      ],
      [
        "Ġoffer",
        -8.24470307503235
      ],
      [
        "ĠBe",
        -8.244775946106145
      ],
      [
        "ĠHe",
        -8.245623890348796
      ],
      [
        "Ġchildren",
        -8.24691911616737
      ],
      [
        "Ġresult",
        -8.248694083443727
      ],
      [
        "Ġsize",
        -8.253568197207208
      ],
      [
        "Ġsoil",
        -8.25673406944857
      ],
      [
        "ally",
        -8.260550115424298
      ],
      [
        "Ġpotential",
        -8.263230210223245
      ],
      [
        "Ġshe",
        -8.263338377984319
      ],
      [
        "Ġproject",
        -8.268748368766357
      ],
      [
        "Ġgive",
        -8.275299558275329
      ],
      [
        "tic",
        -8.275470485880806
      ],
      [
        "Ġfish",
        -8.277158524243479
      ],
      [
        "Ġgroup",
        -8.279709454781939
      ],
      [
        "Ġmust",
        -8.279920541411112
      ],
      [
        "Ġprogram",
        -8.287033941360471
      ],
      [
        "Ġmodel",
        -8.291373907519864
      ],
      [
        "Ġpoint",
        -8.294422778196925
      ],
      [
        "Ġthree",
        -8.298072297380283
      ],
      [
        "Ġsurface",
        -8.301606206788087
      ],
      [
        "ĠV",
        -8.302222638926157
      ],
      [
        "ten",
        -8.303711093368928
      ],
      [
        "Ġvalue",
        -8.305059677884971
      ],
      [
        "Ġplay",
        -8.305690327374698
      ],
      [
        "Ġheat",
        -8.307084153681703
      ],
      [
        "am",
        -8.307428922076925
      ],
      [
        "Ġlow",
        -8.31874862847068
      ],
      [
        "ĠN",
        -8.319932494082966
      ],
      [
        "Ġsure",
        -8.325222394095817
      ],
      [
        ":ĊĊ",
        -8.325588416597336
      ],
      [
        "âĢĻ",
        -8.330853707832903
      ],
      [
        "Ġdevelop",
        -8.332737028778514
      ],
      [
        "Ġcome",
        -8.33656954868359
      ],
      [
        "Ġtoo",
        -8.337185161124168
      ],
      [
        "Ġblood",
        -8.337834447104473
      ],
      [
        "ĠJ",
        -8.33807840749589
      ],
      [
        "co",
        -8.33897806683379
      ],
      [
        "Ġdue",
        -8.339854333227548
      ],
      [
        "ant",
        -8.340400608869892
      ],
      [
        "Ġreduce",
        -8.345886879188754
      ],
      [
        "Ġspace",
        -8.3494405999792
      ],
      [
        "Ġname",
        -8.349592373575856
      ],
      [
        "Ġwithin",
        -8.35452342658757
      ],
      [
        "Ġlearn",
        -8.356691843094513
      ],
      [
        "ĠAnd",
        -8.360115974563534
      ],
      [
        "Ġbecome",
        -8.361661558176154
      ],
      [
        "line",
        -8.362127473953503
      ],
      [
        "Ġwhy",
        -8.362132830999094
      ],
      [
        "day",
        -8.363223119127383
      ],
      [
        "Ġclose",
        -8.36361507712023
      ],
      [
        "ĠWhen",
        -8.366896432365825
      ],
      [
        "Ġcost",
        -8.371430464513693
      ],
      [
        "ut",
        -8.37217187424374
      ],
      [
        "Ġweek",
        -8.374590725108899
      ],
      [
        "un",
        -8.374982070738307
      ],
      [
        "Ġvarious",
        -8.377086152571948
      ],
      [
        "Ġensure",
        -8.377875882334486
      ],
      [
        "ĠU",
        -8.382569425323737
      ],
      [
        "Ġfunction",
        -8.384207173040078
      ],
      [
        "ĠSt",
        -8.385370541946699
      ],
      [
        "ke",
        -8.386009724443053
      ],
      [
        "iv",
        -8.386530678719321
      ],
      [
        "Ġrange",
        -8.38677882037869
      ],
      [
        "Ġfield",
        -8.387430200798075
      ],
      [
        "Ġb",
        -8.38948292505154
      ],
      [
        "Ġdisease",
        -8.390871322528664
      ],
      [
        "Ġschool",
        -8.392212129904877
      ],
      [
        "Ġcalled",
        -8.393820131167349
      ],
      [
        "Ġcolor",
        -8.395150744763054
      ],
      [
        "ĠThere",
        -8.39604948881908
      ],
      [
        "li",
        -8.396648820567545
      ],
      [
        "Ġusual",
        -8.396686917760128
      ],
      [
        "Ġreally",
        -8.401688108440487
      ],
      [
        "Ġcare",
        -8.403607542423645
      ],
      [
        "Ġimpact",
        -8.411236436141706
      ],
      [
        "Ġdi",
        -8.411661974861573
      ],
      [
        "Ġamount",
        -8.412491321607511
      ],
      [
        "Ġhard",
        -8.4128354907504
      ],
      [
        "Ġbenefit",
        -8.413363673380609
      ],
      [
        "ful",
        -8.414706841221786
      ],
      [
        "ish",
        -8.419640879101717
      ],
      [
        "Ġlot",
        -8.421568848683954
      ],
      [
        "Ġsource",
        -8.423933481938763
      ],
      [
        "Ġside",
        -8.425525021519004
      ],
      [
        "Ġaffect",
        -8.428396910828912
      ],
      [
        "op",
        -8.432431431653455
      ],
      [
        "Ġenvironment",
        -8.432777012239235
      ],
      [
        "ver",
        -8.434194524107145
      ],
      [
        "ĠO",
        -8.435969238549784
      ],
      [
        "Ġtry",
        -8.436845593590474
      ],
      [
        "Ġfollowing",
        -8.437493631570572
      ],
      [
        "Ġpossible",
        -8.437654475015272
      ],
      [
        "Ġstate",
        -8.438475838638112
      ],
      [
        "Ġhere",
        -8.439318253489457
      ],
      [
        "Ġdevice",
        -8.440733858641508
      ],
      [
        "Ġhand",
        -8.441943314127355
      ],
      [
        "Ġturn",
        -8.445694361460292
      ],
      [
        "Ġoil",
        -8.453461541734292
      ],
      [
        "ill",
        -8.459284784941701
      ],
      [
        "Ġmeans",
        -8.45928495455242
      ],
      [
        "Ġtreatment",
        -8.460228009494257
      ],
      [
        "ence",
        -8.46352338394442
      ],
      [
        "Ġactual",
        -8.46596770965856
      ],
      [
        "ated",
        -8.467256640921093
      ],
      [
        "Ġcon",
        -8.469982625012904
      ],
      [
        "Ġcells",
        -8.474129567218498
      ],
      [
        "Ġ$",
        -8.475076932794634
      ],
      [
        "Ġrequire",
        -8.476918167638779
      ],
      [
        "Ġsignificant",
        -8.47761952820767
      ],
      [
        "Ġdevelopment",
        -8.480860888452089
      ],
      [
        "something",
        -8.482425451662088
      ],
      [
        "Ġorder",
        -8.485007180353033
      ],
      [
        "Ġlearning",
        -8.485120294370823
      ],
      [
        "Ġimage",
        -8.485501495856234
      ],
      [
        "Ġtree",
        -8.48555645374855
      ],
      [
        "Ġdid",
        -8.48811257341713
      ],
      [
        "Ġoption",
        -8.488139227867972
      ],
      [
        ",\"",
        -8.491288342166637
      ],
      [
        "Ġopen",
        -8.49404683906495
      ],
      [
        "Ġlittle",
        -8.494739429967941
      ],
      [
        "Ġcat",
        -8.496100119138665
      ],
      [
        "Ġcover",
        -8.500294889185797
      ],
      [
        "me",
        -8.500734495219218
      ],
      [
        "Ġcontain",
        -8.501294693346914
      ],
      [
        "if",
        -8.503811139190528
      ],
      [
        "Ġnear",
        -8.505629354572966
      ],
      [
        "ĠAs",
        -8.50603445282343
      ],
      [
        "Ġgeneral",
        -8.507174720060654
      ],
      [
        "Ġtext",
        -8.50966146062791
      ],
      [
        "technology",
        -8.510283056103322
      ],
      [
        "Ġlast",
        -8.510625746211918
      ],
      [
        "Ġavailable",
        -8.510763892249756
      ],
      [
        "Ġpre",
        -8.5121540563248
      ],
      [
        "Ġfocus",
        -8.513193237607535
      ],
      [
        "U",
        -8.52118267796958
      ],
      [
        "Ġleave",
        -8.521307520715613
      ],
      [
        "ĠWhich",
        -8.521950428306486
      ],
      [
        "Ġimprove",
        -8.525472210531081
      ],
      [
        "Ġfree",
        -8.531081764971589
      ],
      [
        "ating",
        -8.53241140767139
      ],
      [
        "Ġperson",
        -8.534319066145155
      ],
      [
        "Ġnon",
        -8.537578326058586
      ],
      [
        "Ġconsider",
        -8.53766398708673
      ],
      [
        "ĠAn",
        -8.539809735369838
      ],
      [
        "Ġlive",
        -8.5421426383912
      ],
      [
        "ves",
        -8.542697598232998
      ],
      [
        "Ġeye",
        -8.543119405914725
      ],
      [
        "alway",
        -8.543268523117023
      ],
      [
        "Ġhappen",
        -8.546363043285332
      ],
      [
        "Ġ=",
        -8.548581303658796
      ],
      [
        "ial",
        -8.5498335028277
      ],
      [
        "Ġhead",
        -8.551780606797372
      ],
      [
        "Ġshort",
        -8.551830408748582
      ],
      [
        "ure",
        -8.552897017934987
      ],
      [
        "up",
        -8.553518314667386
      ],
      [
        "Ġessential",
        -8.553585843770087
      ],
      [
        "Ġcomplete",
        -8.554644766952778
      ],
      [
        "Ġfeel",
        -8.556218556696345
      ],
      [
        "Ġreal",
        -8.558525226155194
      ],
      [
        "Ġuntil",
        -8.560124906552623
      ],
      [
        "ma",
        -8.560314952691382
      ],
      [
        "Ġcertain",
        -8.561763174005081
      ],
      [
        "lu",
        -8.563199475918118
      ],
      [
        "Ġquality",
        -8.563977457687031
      ],
      [
        "Ġseveral",
        -8.564156945536121
      ],
      [
        "*",
        -8.564232276095682
      ],
      [
        "Ġterm",
        -8.564445434606029
      ],
      [
        "ĠAl",
        -8.568051092267755
      ],
      [
        "Ġeffective",
        -8.568755569495934
      ],
      [
        "ow",
        -8.572788517346506
      ],
      [
        "ĠUniversity",
        -8.574960944286698
      ],
      [
        "Ġrate",
        -8.578846457190847
      ],
      [
        "Ġgarden",
        -8.57961557162054
      ],
      [
        "Ġsecond",
        -8.582113777357522
      ],
      [
        "Ġcourse",
        -8.5847359251448
      ],
      [
        "enough",
        -8.589388925918211
      ],
      [
        "Ġlocal",
        -8.592675897669388
      ],
      [
        "Ġpressure",
        -8.594392311174492
      ],
      [
        "Ġage",
        -8.594429996516212
      ],
      [
        "Ġkey",
        -8.595727160412661
      ],
      [
        "Ġparticular",
        -8.596073409194611
      ],
      [
        "Ġunderstand",
        -8.596645647996596
      ],
      [
        "Ġteam",
        -8.597712305970383
      ],
      [
        "Ġcommunit",
        -8.599401185984311
      ],
      [
        "per",
        -8.60051405868959
      ],
      [
        "Ġpatient",
        -8.601405092750309
      ],
      [
        "Ġdiet",
        -8.601885336105878
      ],
      [
        "hether",
        -8.602070794475745
      ],
      [
        "We",
        -8.607870136344665
      ],
      [
        "man",
        -8.610195681253641
      ],
      [
        "Ġdifference",
        -8.610688867822134
      ],
      [
        "Ġpresent",
        -8.612608156052627
      ],
      [
        "Ġconditions",
        -8.61487383397207
      ],
      [
        "Ġchild",
        -8.616618782526299
      ],
      [
        "Ġgrowth",
        -8.617105308657614
      ],
      [
        "Ġwide",
        -8.621589710095218
      ],
      [
        "]",
        -8.621896106329151
      ],
      [
        "Ġsolution",
        -8.624651051487024
      ],
      [
        "Ġpost",
        -8.630366175628792
      ],
      [
        "Ġfamily",
        -8.630625749023338
      ],
      [
        "Ġcheck",
        -8.631377756792572
      ],
      [
        "not",
        -8.63621758205091
      ],
      [
        "Ġtypes",
        -8.639595172192333
      ],
      [
        "Ġevent",
        -8.640915027823556
      ],
      [
        "ory",
        -8.642579811908256
      ],
      [
        "ling",
        -8.64333326280662
      ],
      [
        "Ġneeds",
        -8.643619843936246
      ],
      [
        "Ġsince",
        -8.645891635747226
      ],
      [
        "When",
        -8.649570818810226
      ],
      [
        "Ġput",
        -8.650932892978947
      ],
      [
        "You",
        -8.653501733374654
      ],
      [
        "Ġmeasure",
        -8.654544531637413
      ],
      [
        "Ġmarket",
        -8.656714166566516
      ],
      [
        "Ġsimple",
        -8.657600249108135
      ],
      [
        "Ġaccess",
        -8.65852980422856
      ],
      [
        "Ġobject",
        -8.663229573928984
      ],
      [
        "Ġalong",
        -8.66581912084735
      ],
      [
        "ru",
        -8.666237205372134
      ],
      [
        "land",
        -8.66781565459703
      ],
      [
        "min",
        -8.667992154140963
      ],
      [
        "!Ċ",
        -8.668989527031773
      ],
      [
        "ĠWith",
        -8.669072981965726
      ],
      [
        "Ġremain",
        -8.671305325650646
      ],
      [
        "Ġaway",
        -8.672346433131604
      ],
      [
        "Ġlower",
        -8.673862574259598
      ],
      [
        "Ġclear",
        -8.674992537818177
      ],
      [
        "ĠBy",
        -8.677813619146221
      ],
      [
        "Ġfact",
        -8.67905561061739
      ],
      [
        "Ġstructure",
        -8.679609516303131
      ],
      [
        "Ġrun",
        -8.6819795750493
      ],
      [
        "ber",
        -8.682041789418257
      ],
      [
        "Ġprotect",
        -8.68247362678089
      ],
      [
        "Ġtop",
        -8.687635759856404
      ],
      [
        "J",
        -8.69040489448405
      ],
      [
        "Y",
        -8.690423667219473
      ],
      [
        "ĠNo",
        -8.690991801676756
      ],
      [
        "Ġ&",
        -8.69337682905982
      ],
      [
        "Ġperiod",
        -8.693915903074874
      ],
      [
        "Ġproper",
        -8.694073492710157
      ],
      [
        "Ġvariet",
        -8.69434369365709
      ],
      [
        "Ġnature",
        -8.694554604014632
      ],
      [
        "Ġhigher",
        -8.695168386217283
      ],
      [
        "To",
        -8.697221486172639
      ],
      [
        "Ġrole",
        -8.697776560289029
      ],
      [
        "ster",
        -8.698634768539325
      ],
      [
        "_",
        -8.698823455785575
      ],
      [
        "Ġweight",
        -8.69927492134128
      ],
      [
        "Ġlet",
        -8.700298005758759
      ],
      [
        "Ġread",
        -8.70087464849179
      ],
      [
        "Ġseem",
        -8.701853074374942
      ],
      [
        "ĠThat",
        -8.704311819462424
      ],
      [
        "ized",
        -8.706671427378495
      ],
      [
        "ph",
        -8.708962268571183
      ],
      [
        "Ġnormal",
        -8.709593062058314
      ],
      [
        "Ġpopulation",
        -8.712617154289244
      ],
      [
        "Ġproduce",
        -8.713108540752366
      ],
      [
        "no",
        -8.713366908690382
      ],
      [
        "Ġtogether",
        -8.713598354552532
      ],
      [
        "âĢĶ",
        -8.714062440263254
      ],
      [
        "having",
        -8.714602617903783
      ],
      [
        "Ġunique",
        -8.716516860383482
      ],
      [
        "ĠDe",
        -8.717087423617489
      ],
      [
        "Ġplan",
        -8.71736084717321
      ],
      [
        "ĠNew",
        -8.717851972318066
      ],
      [
        "Ġfollow",
        -8.71797317228571
      ],
      [
        "stead",
        -8.718365705845034
      ],
      [
        "tro",
        -8.720078649034269
      ],
      [
        "va",
        -8.721008335529046
      ],
      [
        "Ġtypical",
        -8.7230239233058
      ],
      [
        "Ġground",
        -8.72493810928908
      ],
      [
        "Ġfuture",
        -8.728066758110725
      ],
      [
        "though",
        -8.729581411034797
      ],
      [
        "Ġheart",
        -8.730030632633508
      ],
      [
        "Ġloss",
        -8.732558645785709
      ],
      [
        "next",
        -8.732772641741722
      ],
      [
        "Ġsimilar",
        -8.734886023651082
      ],
      [
        "Ġsea",
        -8.735422100831796
      ],
      [
        "ard",
        -8.735920900612658
      ],
      [
        "Ġdirect",
        -8.735966046830132
      ],
      [
        "Ġworking",
        -8.736064866486757
      ],
      [
        "Ġdays",
        -8.737432600142505
      ],
      [
        "Ġsafe",
        -8.73888660664689
      ],
      [
        "Ġmakes",
        -8.740143953365159
      ],
      [
        "especial",
        -8.740469640761535
      ],
      [
        "Ġgas",
        -8.740680703060367
      ],
      [
        "Ġstep",
        -8.742866148994
      ],
      [
        "Ġcomes",
        -8.745430970332553
      ],
      [
        "Ġhim",
        -8.749599192499016
      ],
      [
        "another",
        -8.75004727287157
      ],
      [
        "Ġlove",
        -8.754419303217926
      ],
      [
        "Ġforce",
        -8.754659124670788
      ],
      [
        "Ġsuggest",
        -8.75484387881831
      ],
      [
        "Ġreason",
        -8.75760156677406
      ],
      [
        "Ġeasy",
        -8.760697731171286
      ],
      [
        "Ġcancer",
        -8.763955381126223
      ],
      [
        "thing",
        -8.764350614428558
      ],
      [
        "Ġbalance",
        -8.764406974448825
      ],
      [
        "Ġfull",
        -8.764450655317605
      ],
      [
        "Ġhealthy",
        -8.764745252734254
      ],
      [
        "Ġold",
        -8.766163049643055
      ],
      [
        "Ġdepend",
        -8.766972192822266
      ],
      [
        "There",
        -8.76794304034329
      ],
      [
        "Ġresults",
        -8.768719400237375
      ],
      [
        "Ġlikely",
        -8.76969014747521
      ],
      [
        "Ġchemical",
        -8.770654491311761
      ],
      [
        "Ġclean",
        -8.772594812557237
      ],
      [
        "Ġphysical",
        -8.772732401912396
      ],
      [
        "Ġfactors",
        -8.77744177960436
      ],
      [
        "ize",
        -8.777450421032974
      ],
      [
        "Ġmove",
        -8.778533311652373
      ],
      [
        "Ġcreat",
        -8.782799443058824
      ],
      [
        "Ġskin",
        -8.783068078063408
      ],
      [
        ")Ċ",
        -8.786119834611574
      ],
      [
        "Ġanswer",
        -8.78795516996529
      ],
      [
        "Ġcontinue",
        -8.78797345505728
      ],
      [
        "Ġwhite",
        -8.790003169197991
      ],
      [
        "Ġmillion",
        -8.790569997813462
      ],
      [
        "der",
        -8.79083802320169
      ],
      [
        "Ġbuilding",
        -8.791940425604782
      ],
      [
        "ĠPa",
        -8.79251730517925
      ],
      [
        "Ġdamage",
        -8.795988351395897
      ],
      [
        "Ġdoesn",
        -8.79708304847549
      ],
      [
        "our",
        -8.79801982885796
      ],
      [
        "Ġblack",
        -8.798611470804376
      ],
      [
        "Ġpaper",
        -8.804411013374377
      ],
      [
        "ĠYour",
        -8.805270130411571
      ],
      [
        "Ġpet",
        -8.808506366162389
      ],
      [
        "Ġnever",
        -8.808591914658269
      ],
      [
        "ĠDr",
        -8.808854172386859
      ],
      [
        "Ġmo",
        -8.81087492328718
      ],
      [
        "Ġpublic",
        -8.814831570141482
      ],
      [
        "Ġdifficult",
        -8.817586177784735
      ],
      [
        "Ġclimate",
        -8.817660981330498
      ],
      [
        "ha",
        -8.817869616504291
      ],
      [
        "Ġactivit",
        -8.819663056267846
      ],
      [
        "Ġcondition",
        -8.820918598667681
      ],
      [
        "most",
        -8.821266983895498
      ],
      [
        "Ġcut",
        -8.82147807563475
      ],
      [
        "Ġdry",
        -8.821585316009863
      ],
      [
        "Ġabove",
        -8.823993393446383
      ],
      [
        "Ġask",
        -8.824153227312419
      ],
      [
        "Ġfar",
        -8.828982606073431
      ],
      [
        "ism",
        -8.829381548151535
      ],
      [
        "For",
        -8.83003867981225
      ],
      [
        "Ġavoid",
        -8.830447067474385
      ],
      [
        "Ġscience",
        -8.830822438500164
      ],
      [
        "Ġproduction",
        -8.831352638507944
      ],
      [
        "Ġlist",
        -8.831617625441401
      ],
      [
        "Ġinterest",
        -8.832440185871867
      ],
      [
        "Ġresource",
        -8.832609840089724
      ],
      [
        "Ġnecessar",
        -8.833680955097705
      ],
      [
        "Ġkind",
        -8.837114519790436
      ],
      [
        "vi",
        -8.837510250478694
      ],
      [
        "Ġacross",
        -8.83803030641658
      ],
      [
        "Ġstrong",
        -8.838556582018342
      ],
      [
        "Ġsocial",
        -8.839111521045005
      ],
      [
        "ĠSome",
        -8.83949412670113
      ],
      [
        "uc",
        -8.840085024393257
      ],
      [
        "Ġbatter",
        -8.840283671824647
      ],
      [
        "light",
        -8.841798209441857
      ],
      [
        "ack",
        -8.842166696427263
      ],
      [
        "Ġrecommend",
        -8.842596814356071
      ],
      [
        "Ġdis",
        -8.843727070367716
      ],
      [
        "Ġarticle",
        -8.844513482217904
      ],
      [
        "ĠCo",
        -8.845255044261165
      ],
      [
        "ell",
        -8.847416591325484
      ],
      [
        "Ġsun",
        -8.847640463367565
      ],
      [
        "act",
        -8.84827157876107
      ],
      [
        "ide",
        -8.848407585219675
      ],
      [
        "ok",
        -8.84867515564568
      ],
      [
        "Ġremove",
        -8.848814980212625
      ],
      [
        ")ĊĊ",
        -8.851507109445208
      ],
      [
        "ions",
        -8.851956297653238
      ],
      [
        "Ġbook",
        -8.85359600961413
      ],
      [
        "we",
        -8.853894001259402
      ],
      [
        "Ġcontent",
        -8.855560439275004
      ],
      [
        "Ġstress",
        -8.856658451292073
      ],
      [
        "Ġcell",
        -8.858003623942228
      ],
      [
        "Ġmetal",
        -8.859140065145107
      ],
      [
        "Ġdogs",
        -8.859797833551092
      ],
      [
        "Ġtimes",
        -8.859957955050838
      ],
      [
        "Ġmatter",
        -8.860073039073566
      ],
      [
        "Ġeat",
        -8.860436992575806
      ],
      [
        "Ġyoung",
        -8.86097977841308
      ],
      [
        "Ġleft",
        -8.864437903973148
      ],
      [
        "Ġgiven",
        -8.865060588065418
      ],
      [
        "Ġland",
        -8.865140714575672
      ],
      [
        "Ġdiscover",
        -8.866403675278466
      ],
      [
        "Ġbit",
        -8.868356752849643
      ],
      [
        "ug",
        -8.86970091062738
      ],
      [
        "least",
        -8.869799388401685
      ],
      [
        "either",
        -8.872171848209732
      ],
      [
        "ex",
        -8.872325595265398
      ],
      [
        "Ġbring",
        -8.87484935305293
      ],
      [
        "Ġmean",
        -8.874876120383849
      ],
      [
        "ĠDo",
        -8.875987942253289
      ],
      [
        "Ġface",
        -8.876260977201039
      ],
      [
        "ca",
        -8.876753092511915
      ],
      [
        "Ġposition",
        -8.876871612800642
      ],
      [
        "Ġwarm",
        -8.878377928606737
      ],
      [
        "Ġsingle",
        -8.881507252862185
      ],
      [
        "Ġamong",
        -8.883650534385648
      ],
      [
        "coming",
        -8.884088765497665
      ],
      [
        "Ġaddition",
        -8.884281509458674
      ],
      [
        "Ġstandard",
        -8.884809348831343
      ],
      [
        "ĠLa",
        -8.887993379185627
      ],
      [
        "Ġflow",
        -8.888483671099234
      ],
      [
        "Ġaccording",
        -8.888947085742696
      ],
      [
        "tra",
        -8.889608528527894
      ],
      [
        "by",
        -8.890641940768015
      ],
      [
        "pe",
        -8.89086606332732
      ],
      [
        "Ġrecent",
        -8.891942416011165
      ],
      [
        "mm",
        -8.89209649144362
      ],
      [
        "Ġstore",
        -8.89378935639779
      ],
      [
        "Ġgreen",
        -8.894339449767232
      ],
      [
        "ick",
        -8.89437333401414
      ],
      [
        "ang",
        -8.89449849470495
      ],
      [
        "Ġquestion",
        -8.896691929976221
      ],
      [
        "Ġvideo",
        -8.897328687279451
      ],
      [
        "So",
        -8.897535209039345
      ],
      [
        "Ġbreak",
        -8.898217279840598
      ],
      [
        "ĠMa",
        -8.899547333488218
      ],
      [
        "Ġdeep",
        -8.900063494112413
      ],
      [
        "Ġthought",
        -8.902398024566228
      ],
      [
        "Ġdone",
        -8.904661183455605
      ],
      [
        "Ġregion",
        -8.907143071121645
      ],
      [
        "Ġexist",
        -8.907883589089684
      ],
      [
        "Ġprotein",
        -8.908849145003838
      ],
      [
        "end",
        -8.909015276531449
      ],
      [
        "ĠAmerican",
        -8.910380845266957
      ],
      [
        "Ġhistor",
        -8.911229932429102
      ],
      [
        "Ġmajor",
        -8.91193035363446
      ],
      [
        "Ġparent",
        -8.912553775232482
      ],
      [
        "ible",
        -8.914556652480034
      ],
      [
        "king",
        -8.915065236467772
      ],
      [
        "Ġmachine",
        -8.91556543651041
      ],
      [
        "Ġenvironmental",
        -8.91634531675609
      ],
      [
        "Ġroom",
        -8.916599998096473
      ],
      [
        "Ġpersonal",
        -8.919616439961748
      ],
      [
        "ical",
        -8.924043080805
      ],
      [
        "Ġcool",
        -8.925499005598152
      ],
      [
        "Ġ[",
        -8.926462762017842
      ],
      [
        "Ġgame",
        -8.928208028242327
      ],
      [
        "Ġspeed",
        -8.929027699473231
      ],
      [
        "Ġwomen",
        -8.9301295770964
      ],
      [
        "Ġview",
        -8.931844863715416
      ],
      [
        "Ġsugar",
        -8.93252271537676
      ],
      [
        "Ġsignal",
        -8.933834308422048
      ],
      [
        "Ġappear",
        -8.934625830659513
      ],
      [
        "Ġfall",
        -8.935861098711037
      ],
      [
        "Ġcomputer",
        -8.937087653001882
      ],
      [
        "hi",
        -8.937326799196878
      ],
      [
        "Ġreach",
        -8.93826556914296
      ],
      [
        "Ġwild",
        -8.938507818056816
      ],
      [
        "Ġtraining",
        -8.938815339678607
      ],
      [
        "Ġart",
        -8.93974404766535
      ],
      [
        "Ġpast",
        -8.940397409707028
      ],
      [
        "mp",
        -8.940411629171226
      ],
      [
        "Ġunderstanding",
        -8.941338924971376
      ],
      [
        "Ġfour",
        -8.942577112419315
      ],
      [
        "Ġenjoy",
        -8.945734132263567
      ],
      [
        "Ġbelieve",
        -8.945762460507925
      ],
      [
        "side",
        -8.946676816673824
      ],
      [
        "ĠâĢĶ",
        -8.947800008043263
      ],
      [
        "ach",
        -8.947980942001383
      ],
      [
        "Ġminute",
        -8.948177712803336
      ],
      [
        "Ġpattern",
        -8.95180238554737
      ],
      [
        "Ġfit",
        -8.95185129604585
      ],
      [
        "Ġadult",
        -8.953112641614407
      ],
      [
        "Ġcontact",
        -8.955462395492152
      ],
      [
        "Ġfarm",
        -8.9567269993164
      ],
      [
        "Ġrecord",
        -8.957068627768571
      ],
      [
        "Ġreport",
        -8.957278942817322
      ],
      [
        "Ġaction",
        -8.958157970339673
      ],
      [
        "Ġshare",
        -8.958335503188264
      ],
      [
        "Ġred",
        -8.95895375440869
      ],
      [
        "Ġassociate",
        -8.960892828618313
      ],
      [
        "her",
        -8.96240732152843
      ],
      [
        "wa",
        -8.962680539191622
      ],
      [
        "Ġmention",
        -8.965527801296663
      ],
      [
        "Ġacid",
        -8.96662606870747
      ],
      [
        "Ġapproach",
        -8.96770567181334
      ],
      [
        "Ġbehavior",
        -8.967769026344005
      ],
      [
        "ative",
        -8.968855575696786
      ],
      [
        "Ġfurther",
        -8.970247938402878
      ],
      [
        "taking",
        -8.970634929927435
      ],
      [
        "ier",
        -8.970851205514611
      ],
      [
        "ring",
        -8.971105501466422
      ],
      [
        "Ġlooking",
        -8.971911994671935
      ],
      [
        "Ġperform",
        -8.972634245009765
      ],
      [
        "nother",
        -8.972699342202992
      ],
      [
        "Ġpurpose",
        -8.97388676497264
      ],
      [
        "ĠRo",
        -8.975025018739306
      ],
      [
        "Ġelectric",
        -8.975419708118292
      ],
      [
        "Ġskills",
        -8.975617931197739
      ],
      [
        "Ġmaintain",
        -8.976081565572251
      ],
      [
        "cu",
        -8.976495891051691
      ],
      [
        "Ġpro",
        -8.976631529114073
      ],
      [
        "Ġrequired",
        -8.97690114095421
      ],
      [
        "Ġflower",
        -8.979981021788106
      ],
      [
        "Ġunit",
        -8.980101231059631
      ],
      [
        "Ġmoney",
        -8.980267078908454
      ],
      [
        "ization",
        -8.981255309136415
      ],
      [
        "+",
        -8.982428048216821
      ],
      [
        "Ġpain",
        -8.98457268307973
      ],
      [
        "ual",
        -8.984911015254266
      ],
      [
        "Ġbo",
        -8.986053446016076
      ],
      [
        "way",
        -8.987862265452495
      ],
      [
        "Ġreceive",
        -8.987971643627358
      ],
      [
        "bi",
        -8.988746784744661
      ],
      [
        "Ġcarbon",
        -8.988775287368355
      ],
      [
        "Ġstudie",
        -8.989004117334119
      ],
      [
        "Ġbasic",
        -8.989101445153818
      ],
      [
        "Ġbrain",
        -8.990386633682677
      ],
      [
        "tion",
        -8.99216355901476
      ],
      [
        "Ġbusiness",
        -8.992306379697958
      ],
      [
        "Ġbig",
        -8.992481375139485
      ],
      [
        "ĠBa",
        -8.992545683034361
      ],
      [
        "Ġpositive",
        -8.99280160004133
      ],
      [
        "ium",
        -8.992991512407784
      ],
      [
        "Ġlayer",
        -8.995448470699149
      ],
      [
        "Ġservice",
        -8.997408361122574
      ],
      [
        "Ġtalk",
        -8.997906145306821
      ],
      [
        "Ġact",
        -8.998151236954776
      ],
      [
        "Ġaverage",
        -8.999172929698467
      ],
      [
        "Ġselect",
        -8.999349785764707
      ],
      [
        "Ġresearcher",
        -8.999753235255659
      ],
      [
        "Ġcold",
        -9.000363299971067
      ],
      [
        "Ġstrateg",
        -9.000440072783487
      ],
      [
        "Ġorganic",
        -9.001529857985119
      ],
      [
        "Ġtoward",
        -9.00297447113213
      ],
      [
        "Ġmonths",
        -9.003633264864092
      ],
      [
        "Ġexplain",
        -9.004348764643975
      ],
      [
        "Ġliving",
        -9.005570861606184
      ],
      [
        "Ġinfection",
        -9.006139826311045
      ],
      [
        "ember",
        -9.007438675640348
      ],
      [
        "Ġfruit",
        -9.008138383685356
      ],
      [
        "Ġmind",
        -9.008348026497234
      ],
      [
        "he",
        -9.009435517741306
      ],
      [
        "ctivities",
        -9.00962471171037
      ],
      [
        "Ġtreat",
        -9.009944976016746
      ],
      [
        "Ġsymptoms",
        -9.011332133237484
      ],
      [
        "ub",
        -9.011484246892888
      ],
      [
        "Ġindustr",
        -9.011884648125982
      ],
      [
        "Ġpass",
        -9.01253950579338
      ],
      [
        "Ġinput",
        -9.012848127073545
      ],
      [
        "Ġchallenge",
        -9.014477812820571
      ],
      [
        "Ġclass",
        -9.017303891877903
      ],
      [
        "Ġwalk",
        -9.017812053408488
      ],
      [
        "Ġperformance",
        -9.018836385529902
      ],
      [
        "Ġspecial",
        -9.02056074555112
      ],
      [
        "Ġperfect",
        -9.02109981134996
      ],
      [
        "Ġtell",
        -9.022784658506772
      ],
      [
        "Ġgetting",
        -9.022971630932052
      ],
      [
        "ck",
        -9.024154954474128
      ],
      [
        "Ġinside",
        -9.02416538933678
      ],
      [
        "Ġauthor",
        -9.024945080623183
      ],
      [
        "Ġbuy",
        -9.027320882405672
      ],
      [
        "gg",
        -9.032723561025628
      ],
      [
        "Ġscientist",
        -9.03291043388838
      ],
      [
        "gen",
        -9.035325754945834
      ],
      [
        "Ġcorrect",
        -9.036714231369109
      ],
      [
        "Ġseason",
        -9.04063050843784
      ],
      [
        "ov",
        -9.043468775755652
      ],
      [
        "Ġknowledge",
        -9.043527767503935
      ],
      [
        "already",
        -9.043566415681934
      ],
      [
        "Ġbelow",
        -9.048311258643178
      ],
      [
        "ship",
        -9.04922526375488
      ],
      [
        "Re",
        -9.050528613043506
      ],
      [
        "refore",
        -9.050995881939
      ],
      [
        "Ġmedical",
        -9.051573712970209
      ],
      [
        "Ġsense",
        -9.053661040249755
      ],
      [
        "Ġshape",
        -9.054152403372996
      ],
      [
        "red",
        -9.05456631873643
      ],
      [
        "ĠOne",
        -9.055295183626278
      ],
      [
        "Ġfeed",
        -9.057808779559435
      ],
      [
        "Ġplastic",
        -9.058196387553942
      ],
      [
        "Ġself",
        -9.05896550354266
      ],
      [
        "Ġtotal",
        -9.060710411822658
      ],
      [
        "mer",
        -9.061745383967944
      ],
      [
        "An",
        -9.062360374767088
      ],
      [
        "Ġidea",
        -9.063072558949717
      ],
      [
        "go",
        -9.064890873303966
      ],
      [
        "Ġbuild",
        -9.065623672200548
      ],
      [
        "ect",
        -9.066460565647189
      ],
      [
        "âĢ¦",
        -9.067206843912432
      ],
      [
        "ches",
        -9.068159145517182
      ],
      [
        "Ġaddress",
        -9.069220571166262
      ],
      [
        "Ġwall",
        -9.069673003934035
      ],
      [
        "cy",
        -9.06987100086161
      ],
      [
        "Ġsound",
        -9.070275544131444
      ],
      [
        "\\",
        -9.07028236527938
      ],
      [
        "Ġways",
        -9.070718762033824
      ],
      [
        "Ġsub",
        -9.071358667625368
      ],
      [
        "ĠAt",
        -9.075252601781028
      ],
      [
        "Ġcall",
        -9.075282523250424
      ],
      [
        "Ġtools",
        -9.078540023346024
      ],
      [
        "Ġprofessional",
        -9.07872738352014
      ],
      [
        "Ġentire",
        -9.078834268501346
      ],
      [
        "Ġcr",
        -9.079213096270111
      ],
      [
        "Ġhouse",
        -9.079257585265736
      ],
      [
        "Ġstage",
        -9.07956104772985
      ],
      [
        "Ġstay",
        -9.079931725100472
      ],
      [
        "Ġitem",
        -9.081078715999002
      ],
      [
        "ture",
        -9.081495243611782
      ],
      [
        "Ġfuel",
        -9.081633678836226
      ],
      [
        "Ġprovid",
        -9.082473843762871
      ],
      [
        "ger",
        -9.082727329952933
      ],
      [
        "ology",
        -9.082946881025816
      ],
      [
        "ĠUnit",
        -9.083284702414751
      ],
      [
        "Ġpercent",
        -9.084284273637088
      ],
      [
        "Ġnetwork",
        -9.084403244829485
      ],
      [
        "ction",
        -9.084506816708773
      ],
      [
        "Ġmanagement",
        -9.084785043545782
      ],
      [
        "over",
        -9.08706560827444
      ],
      [
        "Ġmix",
        -9.087086487856007
      ],
      [
        "Ġslow",
        -9.087199166200428
      ],
      [
        "Ġfeatures",
        -9.087769549677422
      ],
      [
        "Ġbreed",
        -9.08815609289396
      ],
      [
        "ĠMo",
        -9.08836044612652
      ],
      [
        "ile",
        -9.088840410286751
      ],
      [
        "Ġpopular",
        -9.090619347017949
      ],
      [
        "Ġconsidered",
        -9.09063425487797
      ],
      [
        "ĠOn",
        -9.091118269227303
      ],
      [
        "Ġbegin",
        -9.091306785266418
      ],
      [
        "Ġcompany",
        -9.091351124931425
      ],
      [
        "Ġpay",
        -9.092190852529956
      ],
      [
        "Ġhours",
        -9.09356316770646
      ],
      [
        "Ġuser",
        -9.093590569100169
      ],
      [
        "Ġparts",
        -9.09407248133772
      ],
      [
        "Ġopportunit",
        -9.09415404971648
      ],
      [
        "Ġcrucial",
        -9.094157646577532
      ],
      [
        "cal",
        -9.095242061347392
      ],
      [
        "Ġdetermine",
        -9.095284313889769
      ],
      [
        "Ġoverall",
        -9.097616217598578
      ],
      [
        "Ġlanguage",
        -9.098373464647247
      ],
      [
        "Ġdoing",
        -9.099976355747174
      ],
      [
        "Ġprice",
        -9.101040705956525
      ],
      [
        "Ġreturn",
        -9.10121504376325
      ],
      [
        ".\"Ċ",
        -9.101675216305551
      ],
      [
        ").Ċ",
        -9.102363801797136
      ],
      [
        "Ġsp",
        -9.10281412662622
      ],
      [
        "Ġwhole",
        -9.105710955361946
      ],
      [
        "Ġtri",
        -9.1062271085414
      ],
      [
        "âĢĵ",
        -9.106815253852488
      ],
      [
        "Ġglobal",
        -9.106890441125028
      ],
      [
        ".\"ĊĊ",
        -9.107928881162898
      ],
      [
        "gan",
        -9.112130532208354
      ],
      [
        "Ġcomplex",
        -9.113502299892373
      ],
      [
        "}",
        -9.115431444493977
      ],
      [
        "Ġinvolve",
        -9.11730894333271
      ],
      [
        "ĠPro",
        -9.118869980557122
      ],
      [
        "Ġstop",
        -9.120615476425751
      ],
      [
        "afety",
        -9.120625771641818
      ],
      [
        "ĠDi",
        -9.12064388651976
      ],
      [
        "Ġquickly",
        -9.121559009293003
      ],
      [
        "Ġam",
        -9.12238813687658
      ],
      [
        "hind",
        -9.122414093103997
      ],
      [
        "Ġdescribe",
        -9.12260467393517
      ],
      [
        "ĠCon",
        -9.123450527819228
      ],
      [
        "ather",
        -9.123533464740088
      ],
      [
        "Ġresponse",
        -9.125517983637533
      ],
      [
        "Ġmovement",
        -9.126321872417805
      ],
      [
        "online",
        -9.126847608175645
      ],
      [
        "Ġeducation",
        -9.129261564980787
      ],
      [
        "ĠCan",
        -9.130868639653762
      ],
      [
        "ĠLi",
        -9.131315919522551
      ],
      [
        "Ġwear",
        -9.13343494347291
      ],
      [
        "Ġrelative",
        -9.134389225921938
      ],
      [
        "Ġtraditional",
        -9.135280592691071
      ],
      [
        ">",
        -9.136895585903728
      ],
      [
        "Ġsetting",
        -9.13744670424258
      ],
      [
        "Ġmass",
        -9.137555117853346
      ],
      [
        "Ġchoose",
        -9.13808035804306
      ],
      [
        "Ġserve",
        -9.138092568086906
      ],
      [
        "Ġprint",
        -9.138397383778589
      ],
      [
        "Ġwind",
        -9.138990920134209
      ],
      [
        "ĠCar",
        -9.140102975583146
      ],
      [
        "Ġeasily",
        -9.140106146886527
      ],
      [
        "Ġtask",
        -9.14010660768504
      ],
      [
        "ng",
        -9.141022774314532
      ],
      [
        "ka",
        -9.14107468166793
      ],
      [
        "ping",
        -9.142155519375876
      ],
      [
        "Ġthroughout",
        -9.142629251014158
      ],
      [
        "ĠMe",
        -9.142954419312812
      ],
      [
        "ĠAll",
        -9.143204631322146
      ],
      [
        "ĠBo",
        -9.144334568182572
      ],
      [
        "X",
        -9.14583439927699
      ],
      [
        "Ġbad",
        -9.14757920616996
      ],
      [
        "Ġman",
        -9.14877381340763
      ],
      [
        "Ġsubject",
        -9.148962296953028
      ],
      [
        "Ġwinter",
        -9.149209990388009
      ],
      [
        "lic",
        -9.149992735088931
      ],
      [
        "=",
        -9.150427428926228
      ],
      [
        "Ġfire",
        -9.15440632001934
      ],
      [
        "Ġgot",
        -9.15515952335024
      ],
      [
        "Ġblue",
        -9.156408046510222
      ],
      [
        "Ġmonitor",
        -9.157898022590643
      ],
      [
        "Ġmultiple",
        -9.157899743826835
      ],
      [
        "ĠHa",
        -9.158885888825406
      ],
      [
        "Ġetc",
        -9.160159144315296
      ],
      [
        "Ġrelated",
        -9.161373957262231
      ],
      [
        "Al",
        -9.162720149611417
      ],
      [
        "Ġglass",
        -9.162847258508332
      ],
      [
        "Ġengine",
        -9.163273252269857
      ],
      [
        "-base",
        -9.164604249008317
      ],
      [
        "Ġfat",
        -9.164853701377249
      ],
      [
        "Ġcode",
        -9.165596781244552
      ],
      [
        "Ġthough",
        -9.166422512381576
      ],
      [
        "ĠWhil",
        -9.167658175461543
      ],
      [
        "Ġscreen",
        -9.16776861313886
      ],
      [
        "Ġmodern",
        -9.17021439265081
      ],
      [
        "âĢĿ",
        -9.171455639649292
      ],
      [
        "Ġplayer",
        -9.172352315546648
      ],
      [
        "Ġelements",
        -9.173451687790337
      ],
      [
        "Ġwaste",
        -9.17428064632413
      ],
      [
        "pp",
        -9.174497966282145
      ],
      [
        "Ġvisit",
        -9.174538266042676
      ],
      [
        "Ġstatement",
        -9.175680260792609
      ],
      [
        "Ġoutside",
        -9.175715541221592
      ],
      [
        "Ġrelease",
        -9.175827608462145
      ],
      [
        "lin",
        -9.176937947054244
      ],
      [
        "Ġothers",
        -9.178641135277903
      ],
      [
        "Ġrelationship",
        -9.179096195479977
      ],
      [
        "Ġtable",
        -9.181948724593177
      ],
      [
        "for",
        -9.183241768742164
      ],
      [
        "Ġactive",
        -9.183474645709987
      ],
      [
        "Ġtravel",
        -9.183656854063244
      ],
      [
        "Ġprobabl",
        -9.183663822914603
      ],
      [
        "where",
        -9.183708662531288
      ],
      [
        "Ġlocation",
        -9.185612216939884
      ],
      [
        "oid",
        -9.18572454144626
      ],
      [
        "Ġprimary",
        -9.18673117460082
      ],
      [
        "Ġsoftware",
        -9.1883316820784
      ],
      [
        "Ġlength",
        -9.18943293378326
      ],
      [
        "Ġpo",
        -9.190915936981352
      ],
      [
        "[",
        -9.191935297856006
      ],
      [
        "Ġcenter",
        -9.192646979617004
      ],
      [
        "Ġeyes",
        -9.194451962464765
      ],
      [
        "Ġincreasing",
        -9.19445912229534
      ],
      [
        "Ġpa",
        -9.19510561884285
      ],
      [
        "Ġtechniques",
        -9.19524840255765
      ],
      [
        "Ġrest",
        -9.19672441516397
      ],
      [
        "Ġspread",
        -9.196810920876684
      ],
      [
        "Ġpractice",
        -9.198511464918813
      ],
      [
        "Ġfun",
        -9.199124917487534
      ],
      [
        "Ġdaily",
        -9.1991262523543
      ],
      [
        "Ġoriginal",
        -9.199835107447122
      ],
      [
        "ze",
        -9.200612069388075
      ],
      [
        "Ġmilk",
        -9.200696823965988
      ],
      [
        "Ġcamera",
        -9.20069862781709
      ],
      [
        "Ġexplore",
        -9.200814959756212
      ],
      [
        "ĠEarth",
        -9.202496850794574
      ],
      [
        "Ġregard",
        -9.205380153054676
      ],
      [
        "Ġbirds",
        -9.206884096448809
      ],
      [
        "Ġwebsite",
        -9.206968580121352
      ],
      [
        "As",
        -9.208340973655538
      ],
      [
        "Ġexpert",
        -9.208523250740274
      ],
      [
        "Ġdrive",
        -9.209457531198108
      ],
      [
        "Ġgenetic",
        -9.209825831437405
      ],
      [
        "Ġequipment",
        -9.210165558415753
      ],
      [
        "ities",
        -9.211213557126912
      ],
      [
        "Ġice",
        -9.212277835755506
      ],
      [
        "Ġcountry",
        -9.212296459033684
      ],
      [
        "Ġhold",
        -9.212545234198192
      ],
      [
        "ĠPo",
        -9.212638431544322
      ],
      [
        "Ġattention",
        -9.213254506203963
      ],
      [
        "Ġconcept",
        -9.213349559903046
      ],
      [
        "Ġsensor",
        -9.213365784083194
      ],
      [
        "Ġachieve",
        -9.21337544569652
      ],
      [
        "ĠMi",
        -9.213403145081704
      ],
      [
        "Ġfeet",
        -9.213633474342366
      ],
      [
        "Ġball",
        -9.213722737131778
      ],
      [
        "Ġdrink",
        -9.214836902219623
      ],
      [
        "simply",
        -9.21504335813129
      ],
      [
        "Ġextreme",
        -9.216420786440084
      ],
      [
        "all",
        -9.21877351033328
      ],
      [
        "of",
        -9.218987672900797
      ],
      [
        "Ma",
        -9.219474290467986
      ],
      [
        "che",
        -9.222593018314836
      ],
      [
        "ĠHere",
        -9.222785203169405
      ],
      [
        "Ġstyle",
        -9.22415416527939
      ],
      [
        "uch",
        -9.224300016800235
      ],
      [
        "Ġquestions",
        -9.2247291635181
      ],
      [
        "ĠNational",
        -9.225478239904977
      ],
      [
        "Ġthemsel",
        -9.225500253436929
      ],
      [
        "Ġweather",
        -9.22580540210246
      ],
      [
        "Q",
        -9.227019450617496
      ],
      [
        "Ġregular",
        -9.227898715896934
      ],
      [
        "ĠZ",
        -9.229578629538947
      ],
      [
        "j",
        -9.231009731930463
      ],
      [
        "Ġcompar",
        -9.231450017078837
      ],
      [
        "Ġsite",
        -9.233051940730004
      ],
      [
        "Ġdigital",
        -9.234551529078855
      ],
      [
        "Ġhot",
        -9.235933214208345
      ],
      [
        "Ġhelps",
        -9.236588869410433
      ],
      [
        "#",
        -9.237083947393511
      ],
      [
        "ĠX",
        -9.23727094437437
      ],
      [
        "ĠSa",
        -9.23768007164222
      ],
      [
        "Ġenhance",
        -9.237756174727387
      ],
      [
        "Ġrepresent",
        -9.237890814548155
      ],
      [
        "Ġsleep",
        -9.238703602419882
      ],
      [
        "Ġever",
        -9.238934647621369
      ],
      [
        "fish",
        -9.240332517144566
      ],
      [
        "ĠRa",
        -9.241292194527237
      ],
      [
        "Ġaccount",
        -9.24539297889681
      ],
      [
        "ĠOr",
        -9.246382783838964
      ],
      [
        "pro",
        -9.246501295376037
      ],
      [
        "Why",
        -9.24721336453434
      ],
      [
        "ĠShe",
        -9.248772754410703
      ],
      [
        "Ġlimit",
        -9.251866539604446
      ],
      [
        "Ġfast",
        -9.252128467390447
      ],
      [
        "Ġanalysis",
        -9.252370626243248
      ],
      [
        "Ġlater",
        -9.252455666560696
      ],
      [
        "Ġbaby",
        -9.252844684011476
      ],
      [
        "quite",
        -9.253809584249083
      ],
      [
        "Ġsuccess",
        -9.254634597242834
      ],
      [
        "Ġdiscuss",
        -9.255214595514058
      ],
      [
        "Ġrock",
        -9.255379866208964
      ],
      [
        "Ġyet",
        -9.25542525941198
      ],
      [
        "Ġexercise",
        -9.25637329960045
      ],
      [
        "Ġma",
        -9.257792527432592
      ],
      [
        "Ġload",
        -9.257865284793755
      ],
      [
        "rate",
        -9.25798126949388
      ],
      [
        "Ġtissue",
        -9.25853226098869
      ],
      [
        "Ġidentify",
        -9.260187931504028
      ],
      [
        "Ġprevious",
        -9.26018804766804
      ],
      [
        "Ġtool",
        -9.260538965809152
      ],
      [
        "ign",
        -9.260557061337863
      ],
      [
        "Ġleg",
        -9.261326813222936
      ],
      [
        "Ġreduc",
        -9.262332038468156
      ],
      [
        "Ġadditional",
        -9.262697972743954
      ],
      [
        "Ġgain",
        -9.262901248522711
      ],
      [
        "Ġbrand",
        -9.265178860264726
      ],
      [
        "ĠCa",
        -9.266280097858209
      ],
      [
        "Ġanything",
        -9.26815414256932
      ],
      [
        "Ġtrack",
        -9.268522469482848
      ],
      [
        "qui",
        -9.269761198534573
      ],
      [
        "$",
        -9.27110276376614
      ],
      [
        "Ġhalf",
        -9.271367272273872
      ],
      [
        "ran",
        -9.2714527919855
      ],
      [
        "Ġorganization",
        -9.27189239361956
      ],
      [
        "ĠMar",
        -9.272256273976742
      ],
      [
        "cor",
        -9.272394371667197
      ],
      [
        "Ġsummer",
        -9.273575215089409
      ],
      [
        "Ġfive",
        -9.275723439132545
      ],
      [
        "Ġsometime",
        -9.27618368579569
      ],
      [
        "Ġteeth",
        -9.27689692613681
      ],
      [
        "fer",
        -9.277498677643262
      ],
      [
        "ĠY",
        -9.279129304406265
      ],
      [
        "Ġspot",
        -9.279534337182865
      ],
      [
        "Be",
        -9.279650134625571
      ],
      [
        "Ġcustomer",
        -9.280130886175524
      ],
      [
        "Ġdecision",
        -9.28027267984685
      ],
      [
        "Ġrec",
        -9.280848439321424
      ],
      [
        "Ġestablish",
        -9.28196429129396
      ],
      [
        "Ġoutput",
        -9.282351940286755
      ],
      [
        "comp",
        -9.283573059086132
      ],
      [
        "ward",
        -9.28431351908248
      ],
      [
        "Ġwood",
        -9.284860557064338
      ],
      [
        "Ġguide",
        -9.286035499777284
      ],
      [
        "Ġvi",
        -9.286606963672352
      ],
      [
        "Ġsave",
        -9.288570179885449
      ],
      [
        "Ġphase",
        -9.288764411836755
      ],
      [
        "Ġbank",
        -9.288960622113017
      ],
      [
        "Ġstudent",
        -9.289127300905168
      ],
      [
        "ler",
        -9.28960321186155
      ],
      [
        "Ġvisual",
        -9.292187153468753
      ],
      [
        "Ġmusic",
        -9.292296718248185
      ],
      [
        "Ġreading",
        -9.295271645111823
      ],
      [
        "qu",
        -9.29562847325171
      ],
      [
        "ĠScience",
        -9.295726775653783
      ],
      [
        "Ġexact",
        -9.295729005636122
      ],
      [
        "Ġfile",
        -9.296148731239851
      ],
      [
        "Ġcaus",
        -9.296590625545411
      ],
      [
        "Ġgenerate",
        -9.296729522260565
      ],
      [
        "Ġbird",
        -9.29674502321325
      ],
      [
        "ĠNorth",
        -9.299041253443155
      ],
      [
        "Ġago",
        -9.299131313380872
      ],
      [
        "rac",
        -9.299832090508378
      ],
      [
        "Ġchoice",
        -9.30046002244973
      ],
      [
        "use",
        -9.30186059513978
      ],
      [
        "Ġfactor",
        -9.303914097367002
      ],
      [
        "tain",
        -9.30460541379433
      ],
      [
        "Ġnight",
        -9.306466339190727
      ],
      [
        "life",
        -9.30674517051817
      ],
      [
        "Ġadvantage",
        -9.307694693630568
      ],
      [
        "Ġoperation",
        -9.308417401402036
      ],
      [
        "ox",
        -9.310342073384302
      ],
      [
        "Ġmedia",
        -9.31165973651665
      ],
      [
        "Ġdeal",
        -9.313243040346803
      ],
      [
        "Ġnegative",
        -9.316420772411274
      ],
      [
        "DNA",
        -9.316480965884152
      ],
      [
        "ight",
        -9.317047862381644
      ],
      [
        "Ġsuccessful",
        -9.318808765413618
      ],
      [
        "Ġharm",
        -9.319067552332283
      ],
      [
        "Ġfemale",
        -9.319933352641408
      ],
      [
        "Ġdirection",
        -9.321913472143253
      ],
      [
        "Ġvehicle",
        -9.322056694976094
      ],
      [
        "Ġwon",
        -9.322992684148211
      ],
      [
        "Ġfresh",
        -9.32338708415382
      ],
      [
        "Ġanti",
        -9.324414543587174
      ],
      [
        "Ġblock",
        -9.325012273314076
      ],
      [
        "One",
        -9.325150287956912
      ],
      [
        "mon",
        -9.325677334659222
      ],
      [
        "ĠLe",
        -9.326692413908226
      ],
      [
        "Ġfriend",
        -9.328261798265425
      ],
      [
        "ĠLo",
        -9.330426024389684
      ],
      [
        "Ġocean",
        -9.332322942231489
      ],
      [
        "ĠAI",
        -9.3325922233813
      ],
      [
        "Ġfeature",
        -9.333555401211818
      ],
      [
        "Ġspring",
        -9.334320540779776
      ],
      [
        "Ġinfluence",
        -9.334325425988553
      ],
      [
        "Ġservices",
        -9.335234414211444
      ],
      [
        "val",
        -9.335649700862302
      ],
      [
        "Ġdistance",
        -9.335894309349763
      ],
      [
        "ĠGo",
        -9.33662842259225
      ],
      [
        "Ġextra",
        -9.337660845776767
      ],
      [
        "ĠAfter",
        -9.339286048745976
      ],
      [
        "Ġfinal",
        -9.33962722275289
      ],
      [
        "ĠHealth",
        -9.341892456497266
      ],
      [
        "Ġtarget",
        -9.342315478274784
      ],
      [
        "cent",
        -9.342679211418776
      ],
      [
        "Ġappropriate",
        -9.343065897394723
      ],
      [
        "Ġnotice",
        -9.344061990274463
      ],
      [
        "amp",
        -9.344156036003888
      ],
      [
        "ĠNe",
        -9.3441690746893
      ],
      [
        "Ġcountr",
        -9.344590542651664
      ],
      [
        "Ġconcern",
        -9.344627192166428
      ],
      [
        "Ġiron",
        -9.344923851607785
      ],
      [
        "Ġdidn",
        -9.34861172645786
      ],
      [
        "ĠStates",
        -9.348634547019993
      ],
      [
        ".S",
        -9.348787844453083
      ],
      [
        "work",
        -9.348931500654704
      ],
      [
        "Ġapplication",
        -9.3523803997633
      ],
      [
        "Ġhear",
        -9.35263691547916
      ],
      [
        "time",
        -9.35268794708746
      ],
      [
        "ĠSouth",
        -9.353913979819968
      ],
      [
        "Ġapplications",
        -9.35547234340824
      ],
      [
        "Ġefficient",
        -9.35581978213181
      ],
      [
        "Ġlink",
        -9.355859420242409
      ],
      [
        "Ġboard",
        -9.356010983245376
      ],
      [
        "ification",
        -9.357303202767948
      ],
      [
        "ĠâĢľ",
        -9.357539952640778
      ],
      [
        "Ġcircuit",
        -9.357571571765993
      ],
      [
        "Ġdisplay",
        -9.357634218007275
      ],
      [
        "-in",
        -9.357836234425294
      ],
      [
        "Ġbio",
        -9.35789688961906
      ],
      [
        "Ġcommunication",
        -9.358407706184927
      ],
      [
        "Ġbacteria",
        -9.35971023844013
      ],
      [
        "Ġfill",
        -9.35990671429774
      ],
      [
        "low",
        -9.361380754600066
      ],
      [
        "RE",
        -9.361889463784587
      ],
      [
        "Ġconnect",
        -9.362248487970811
      ],
      [
        "Ġsection",
        -9.363093570720611
      ],
      [
        "ER",
        -9.36362429260289
      ],
      [
        "ists",
        -9.365299201478525
      ],
      [
        "pl",
        -9.366001021541445
      ],
      [
        "Ġconstant",
        -9.366748002630114
      ],
      [
        "ade",
        -9.368579461506862
      ],
      [
        "Ġfront",
        -9.36863826997334
      ],
      [
        "Ġdraw",
        -9.36866769460765
      ],
      [
        "ult",
        -9.370524902303387
      ],
      [
        "Ġexperiment",
        -9.370712506084708
      ],
      [
        "que",
        -9.370853323245528
      ],
      [
        "Ġsustainabl",
        -9.372837578074966
      ],
      [
        "kin",
        -9.3728418185219
      ],
      [
        "Ġconduct",
        -9.373544670199696
      ],
      [
        "ĠSe",
        -9.37360476583402
      ],
      [
        "Ġdoctor",
        -9.374146698839912
      ],
      [
        "Ġequal",
        -9.376010072711974
      ],
      [
        "Ġgovernment",
        -9.376274847243264
      ],
      [
        "ĠUS",
        -9.37641241932895
      ],
      [
        "ose",
        -9.378484878709257
      ],
      [
        "izing",
        -9.378503159247938
      ],
      [
        "mal",
        -9.379553332857844
      ],
      [
        "Ġpage",
        -9.381726653260753
      ],
      [
        "Ġapplie",
        -9.381994071148744
      ],
      [
        "Ġtrue",
        -9.384201197224392
      ],
      [
        "Do",
        -9.384516973018444
      ],
      [
        "Ġ+",
        -9.385768167234358
      ],
      [
        "Ġreaction",
        -9.386179775250463
      ],
      [
        "Ġwave",
        -9.388040894635754
      ],
      [
        "Ġliquid",
        -9.389114696605748
      ],
      [
        "Ġrice",
        -9.389505155300457
      ],
      [
        "Ġwords",
        -9.389589202811852
      ],
      [
        "Ġindicate",
        -9.389756616141794
      ],
      [
        "bra",
        -9.389839174896496
      ],
      [
        "Ġtend",
        -9.3899617680743
      ],
      [
        "Ġmeet",
        -9.3914572387622
      ],
      [
        "Ġcomponents",
        -9.392313604109043
      ],
      [
        "Ġsoft",
        -9.393002102002896
      ],
      [
        "Ġfine",
        -9.393125182455645
      ],
      [
        "Ġteacher",
        -9.394341560953333
      ],
      [
        "Ġhope",
        -9.394585770286902
      ],
      [
        "Ġconnection",
        -9.394723038362947
      ],
      [
        "Ġreview",
        -9.39480853630196
      ],
      [
        "uff",
        -9.3975318106602
      ],
      [
        "Ġrat",
        -9.397762289971542
      ],
      [
        "Ġdark",
        -9.398697994259075
      ],
      [
        "Ġkill",
        -9.398953095088292
      ],
      [
        "Ġeasie",
        -9.400524370930633
      ],
      [
        "Ġnoise",
        -9.400560902900494
      ],
      [
        "Ġapp",
        -9.402968243827152
      ],
      [
        "Ġpromote",
        -9.40430895999685
      ],
      [
        "Ġapply",
        -9.404881085669594
      ],
      [
        "Ġpick",
        -9.40600715757194
      ],
      [
        "Ġoccur",
        -9.408102858752727
      ],
      [
        "Ġtank",
        -9.408334389565502
      ],
      [
        "Ġcharge",
        -9.408352291512324
      ],
      [
        "Ġcarry",
        -9.409812647224982
      ],
      [
        "Ġchance",
        -9.410128626324
      ],
      [
        "Ġkids",
        -9.410894585808524
      ],
      [
        "Ġsolar",
        -9.410969228142472
      ],
      [
        "Ġmulti",
        -9.411251013265373
      ],
      [
        "Ġbox",
        -9.411652223558058
      ],
      [
        "round",
        -9.412963481889122
      ],
      [
        "Ġprocesse",
        -9.413040813627768
      ],
      [
        "Ġenter",
        -9.413046015213268
      ],
      [
        "log",
        -9.41360854546486
      ],
      [
        "Ġevidence",
        -9.413952099070729
      ],
      [
        "bl",
        -9.413989522660348
      ],
      [
        "Ġfix",
        -9.41405805027178
      ],
      [
        "led",
        -9.415715868563808
      ],
      [
        "Ġinter",
        -9.417249563160649
      ],
      [
        "Ġhole",
        -9.417943872254773
      ],
      [
        "uck",
        -9.41880775854962
      ],
      [
        "ound",
        -9.419404236736924
      ],
      [
        "Ġserious",
        -9.419742454239977
      ],
      [
        "Ġdiseases",
        -9.419816360484027
      ],
      [
        "har",
        -9.420328142180471
      ],
      [
        "Ġproduced",
        -9.42064634025321
      ],
      [
        "Ġmoment",
        -9.420778935578394
      ],
      [
        "ĠMore",
        -9.421074659720803
      ],
      [
        "Can",
        -9.421160364634009
      ],
      [
        "Ġsuper",
        -9.423465405160186
      ],
      [
        "men",
        -9.423679483035428
      ],
      [
        "let",
        -9.425222441504772
      ],
      [
        "Ġwatch",
        -9.42589049588284
      ],
      [
        "Ġlack",
        -9.427822030920636
      ],
      [
        "But",
        -9.427905057088068
      ],
      [
        "Ġmembers",
        -9.427928687667904
      ],
      [
        "Ġmale",
        -9.429151886173477
      ],
      [
        "Ã",
        -9.42942428950105
      ],
      [
        "Ġattack",
        -9.42953134507692
      ],
      [
        "Ġisn",
        -9.431071913418725
      ],
      [
        "Ġcollect",
        -9.431490658760636
      ],
      [
        "ĠUse",
        -9.432939576993943
      ],
      [
        "Ġfoot",
        -9.433332103481575
      ],
      [
        "Ġsupply",
        -9.433437223189582
      ],
      [
        "Ġmonth",
        -9.434791415758376
      ],
      [
        "ĠTh",
        -9.4355830263731
      ],
      [
        "rie",
        -9.437022480001628
      ],
      [
        "ner",
        -9.437403959995956
      ],
      [
        "Ġrunning",
        -9.437493215130695
      ],
      [
        "{",
        -9.437978278290856
      ],
      [
        "Their",
        -9.44056267171996
      ],
      [
        "Ġsign",
        -9.440593004320704
      ],
      [
        "Â°",
        -9.441358460175485
      ],
      [
        "cle",
        -9.44152558148005
      ],
      [
        "Ġmemor",
        -9.441533161962049
      ],
      [
        "Ġstem",
        -9.44206452906064
      ],
      [
        "ĠYes",
        -9.442512408228716
      ],
      [
        "Ġmental",
        -9.442740561601571
      ],
      [
        "ven",
        -9.443853984404726
      ],
      [
        "Ġframe",
        -9.445356965035328
      ],
      [
        "Ġcompare",
        -9.446581099959843
      ],
      [
        "Ġpest",
        -9.447410519676508
      ],
      [
        "Ġfilter",
        -9.449331383170112
      ],
      [
        "Ġalternative",
        -9.44945869979836
      ],
      [
        "Ġphoto",
        -9.450184013127044
      ],
      [
        "Ġca",
        -9.45069073342925
      ],
      [
        "Ġeggs",
        -9.451729096516653
      ],
      [
        "port",
        -9.452276928589193
      ],
      [
        "Ġelse",
        -9.453342110254848
      ],
      [
        "Ġmanage",
        -9.4541314567518
      ],
      [
        "Ġaspect",
        -9.45545969984638
      ],
      [
        "ulation",
        -9.45546311792486
      ],
      [
        "Pro",
        -9.455797782608853
      ],
      [
        "ĠUn",
        -9.457127663733342
      ],
      [
        ".\"",
        -9.457253240439655
      ],
      [
        "Ġculture",
        -9.457366574047793
      ],
      [
        "Ġcit",
        -9.457951720369095
      ],
      [
        "Ġpoor",
        -9.459234100573775
      ],
      [
        "Ġburn",
        -9.459335341596631
      ],
      [
        "Ġextend",
        -9.459390055687708
      ],
      [
        "Ġswitch",
        -9.459705039794889
      ],
      [
        "ari",
        -9.459912703236938
      ],
      [
        "Ġimmun",
        -9.461412248329566
      ],
      [
        "Ġhair",
        -9.462091869038884
      ],
      [
        "more",
        -9.462194477618317
      ],
      [
        "Ġpiece",
        -9.46241110607792
      ],
      [
        "Ġpull",
        -9.463402237778748
      ],
      [
        "Ġbuilt",
        -9.463439473353578
      ],
      [
        "Ġplanet",
        -9.46344039919244
      ],
      [
        "ink",
        -9.463981591342607
      ],
      [
        "Ġmuscle",
        -9.46402634357866
      ],
      [
        "ĠBr",
        -9.464415449208175
      ],
      [
        "ĠEx",
        -9.465174165698176
      ],
      [
        "On",
        -9.46583845253532
      ],
      [
        "Ġex",
        -9.467288367087022
      ],
      [
        "Ġword",
        -9.467410019092007
      ],
      [
        "ĠCenter",
        -9.467533336352185
      ],
      [
        "**",
        -9.468420981128247
      ],
      [
        "Ġarm",
        -9.469451423174029
      ],
      [
        "-to",
        -9.469768635029592
      ],
      [
        "Ġconsist",
        -9.46978689800624
      ],
      [
        "like",
        -9.470559184481926
      ],
      [
        "Ġstrength",
        -9.47075356784775
      ],
      [
        "Ġcontribute",
        -9.472217266877047
      ],
      [
        "OR",
        -9.472666089999594
      ],
      [
        "Ġhost",
        -9.473504173267054
      ],
      [
        "Ġroot",
        -9.473809522620442
      ],
      [
        "Ġcombination",
        -9.473947519735642
      ],
      [
        "Ġwar",
        -9.474616023309862
      ],
      [
        "Ġcap",
        -9.475068991484209
      ],
      [
        "Ġsmooth",
        -9.475618917047772
      ],
      [
        "Ġmotor",
        -9.475734142321574
      ],
      [
        "ĠGa",
        -9.47580601455693
      ],
      [
        "ĠKa",
        -9.475974929644597
      ],
      [
        "Ġfr",
        -9.476752410492573
      ],
      [
        "Ġlives",
        -9.4768652388582
      ],
      [
        "Ð",
        -9.477621335254074
      ],
      [
        "Ġinitial",
        -9.47778172182323
      ],
      [
        "Ġpropert",
        -9.478724814343762
      ],
      [
        "ĠResearch",
        -9.479188866750032
      ],
      [
        "Ġvision",
        -9.48077392163712
      ],
      [
        "Ġbag",
        -9.481105487902838
      ],
      [
        "Ġcrop",
        -9.481778710952783
      ],
      [
        "Ġideal",
        -9.483129128437628
      ],
      [
        "ĠJapan",
        -9.483972236067713
      ],
      [
        "Ġparticle",
        -9.484001286223442
      ],
      [
        "ï¿½",
        -9.485169700517968
      ],
      [
        "Ġraise",
        -9.48603137978992
      ],
      [
        "Whil",
        -9.48731407664362
      ],
      [
        "ĠVi",
        -9.487682624807778
      ],
      [
        "Ġscientific",
        -9.488106634955342
      ],
      [
        "Ġvitamin",
        -9.490189982419365
      ],
      [
        "ĠAmerica",
        -9.490517536415105
      ],
      [
        "Ġcount",
        -9.490790873731338
      ],
      [
        "Ġmicro",
        -9.491393993335354
      ],
      [
        "With",
        -9.491532418355614
      ],
      [
        "Ġtaste",
        -9.491704934196957
      ],
      [
        "Ġdetect",
        -9.491844961750552
      ],
      [
        "qua",
        -9.492043234341711
      ],
      [
        "Ġstory",
        -9.492104756865745
      ],
      [
        "ĠAr",
        -9.492244718031056
      ],
      [
        "Ġgreater",
        -9.492323992961424
      ],
      [
        "Ġbar",
        -9.492450624484633
      ],
      [
        "Ġadapt",
        -9.493501390656288
      ],
      [
        "Ġtouch",
        -9.493615753111431
      ],
      [
        "air",
        -9.494618087970853
      ],
      [
        "Ġeating",
        -9.49469977499226
      ],
      [
        "Ġjob",
        -9.495117204119897
      ],
      [
        "Ġsix",
        -9.496132534881207
      ],
      [
        "Ġprogress",
        -9.498566991101365
      ],
      [
        "Ġsearch",
        -9.498673637153823
      ],
      [
        "Ġtrain",
        -9.500479695860124
      ],
      [
        "gue",
        -9.501452149556126
      ],
      [
        "Ġdefine",
        -9.502080820812694
      ],
      [
        "Z",
        -9.502100261838006
      ],
      [
        "Ġmechanism",
        -9.502781945800225
      ],
      [
        "Ġgrass",
        -9.50332932424456
      ],
      [
        "ways",
        -9.50425862976223
      ],
      [
        "itis",
        -9.50447913351788
      ],
      [
        "Ġelectrical",
        -9.504676592993944
      ],
      [
        "Ġtransport",
        -9.50495360033008
      ],
      [
        "tri",
        -9.505583569992265
      ],
      [
        "Ġinstall",
        -9.506155977566358
      ],
      [
        "Ġemission",
        -9.50701507694128
      ],
      [
        "Ġdeath",
        -9.507183430735498
      ],
      [
        "Ġstar",
        -9.507735327915384
      ],
      [
        "Ġexpect",
        -9.508674410624517
      ],
      [
        "Ġdecrease",
        -9.508752789107977
      ],
      [
        "Ġcompound",
        -9.50914130197112
      ],
      [
        "Ġpaint",
        -9.509184258060168
      ],
      [
        "ash",
        -9.510256262472296
      ],
      [
        "Ġfl",
        -9.510896954317031
      ],
      [
        "companie",
        -9.511264628654295
      ],
      [
        "Ġalcohol",
        -9.511265587255538
      ],
      [
        "Ġgoal",
        -9.51234902645634
      ],
      [
        "ray",
        -9.51235271403181
      ],
      [
        "ki",
        -9.5126479926611
      ],
      [
        "Ġcharacter",
        -9.512948085286771
      ],
      [
        "Ġclaim",
        -9.512984489290758
      ],
      [
        "hu",
        -9.51356350218672
      ],
      [
        "Ġdur",
        -9.514495628226149
      ],
      [
        "ĠFrom",
        -9.514783084362044
      ],
      [
        "Ġlate",
        -9.515453821779817
      ],
      [
        "Ġcritical",
        -9.515535751292132
      ],
      [
        "Ġdemand",
        -9.51555136791998
      ],
      [
        "Ġstand",
        -9.515879766652455
      ],
      [
        "form",
        -9.516409923950064
      ],
      [
        "Ġshows",
        -9.51642020269769
      ],
      [
        "Ġelement",
        -9.516998013571309
      ],
      [
        "Ġensur",
        -9.517412999435845
      ],
      [
        "Ġflavor",
        -9.517675974966073
      ],
      [
        "Ġhorse",
        -9.51767737434902
      ],
      [
        "Ġgoe",
        -9.517777925286865
      ],
      [
        "He",
        -9.518430514775892
      ],
      [
        "Ġworks",
        -9.520913848032304
      ],
      [
        "Ġscale",
        -9.52182972926261
      ],
      [
        "Ġphone",
        -9.522356627421118
      ],
      [
        "Ġaim",
        -9.522904638355543
      ],
      [
        "Ġuseful",
        -9.523651607691509
      ],
      [
        "Ġcharacteristic",
        -9.52417785420736
      ],
      [
        "Ġlaw",
        -9.524672438366425
      ],
      [
        "ĠEl",
        -9.524868270238684
      ],
      [
        "Ġvegetables",
        -9.525761351184482
      ],
      [
        "Ġnumbers",
        -9.527798638743665
      ],
      [
        "ĠTa",
        -9.527853303504976
      ],
      [
        "IN",
        -9.5280447703118
      ],
      [
        "Ġinvolved",
        -9.52930085624692
      ],
      [
        "Ġslight",
        -9.529975629790464
      ],
      [
        "Ġten",
        -9.53057769100052
      ],
      [
        "ibility",
        -9.531226738316828
      ],
      [
        "care",
        -9.531228411444705
      ],
      [
        "Ġbottom",
        -9.532794926870892
      ],
      [
        "Ġimmediate",
        -9.53279496967465
      ],
      [
        "Each",
        -9.533224020954847
      ],
      [
        "Ġrefer",
        -9.533350941249472
      ],
      [
        "Ġmeal",
        -9.533961774694252
      ],
      [
        "Ġstick",
        -9.534181521780418
      ],
      [
        "AR",
        -9.535862132190186
      ],
      [
        "ĠMost",
        -9.536284675317187
      ],
      [
        "pos",
        -9.536738436682011
      ],
      [
        "Ġmeat",
        -9.537903220322766
      ],
      [
        "Ġgeneration",
        -9.5380307800696
      ],
      [
        "Ġrequirements",
        -9.538350232034308
      ],
      [
        "ble",
        -9.538870157473127
      ],
      [
        "Ġdocument",
        -9.539346183236145
      ],
      [
        "ware",
        -9.53990475173908
      ],
      [
        "Ġpath",
        -9.540101924480265
      ],
      [
        "Ġoxygen",
        -9.54153816714154
      ],
      [
        "Ġdisorder",
        -9.541538854884736
      ],
      [
        "Ġcontainer",
        -9.543808694425111
      ],
      [
        "Ġpair",
        -9.54483101894801
      ],
      [
        "Ġversion",
        -9.546422100731183
      ],
      [
        "Ġaccurate",
        -9.548146089384016
      ],
      [
        "iness",
        -9.54845099161873
      ],
      [
        "ĠMany",
        -9.5485966424655
      ],
      [
        "Ġreflect",
        -9.548812801561745
      ],
      [
        "Ġerror",
        -9.55036555618253
      ],
      [
        "Ġcycle",
        -9.551543179238422
      ],
      [
        "therapy",
        -9.551785513884075
      ],
      [
        "expensive",
        -9.552575800087167
      ],
      [
        "Ġmoving",
        -9.552591528239049
      ],
      [
        "Ġvary",
        -9.552781143622315
      ],
      [
        "Ġli",
        -9.553430173949865
      ],
      [
        "Ġhandle",
        -9.55378896819495
      ],
      [
        "Ġadjust",
        -9.554258703804702
      ],
      [
        "abl",
        -9.555058875139013
      ],
      [
        "ĠWho",
        -9.556396493725671
      ],
      [
        "col",
        -9.556863670149262
      ],
      [
        "Ġbreath",
        -9.557027849049463
      ],
      [
        "Ġrich",
        -9.557354197016243
      ],
      [
        "rap",
        -9.558989459722683
      ],
      [
        "<",
        -9.55914921488423
      ],
      [
        "Ġcolors",
        -9.559560149495312
      ],
      [
        "ĠAdditional",
        -9.561360394947142
      ],
      [
        "mar",
        -9.561556290032222
      ],
      [
        "Ġconsumpti",
        -9.561894376650333
      ],
      [
        "ĠSchool",
        -9.562184628335425
      ],
      [
        "Ġfoods",
        -9.562401317172773
      ],
      [
        "lat",
        -9.563987468484852
      ],
      [
        "Ġseparate",
        -9.564416562872823
      ],
      [
        "water",
        -9.565448847115382
      ],
      [
        "Ġdate",
        -9.565926102125497
      ],
      [
        "Â",
        -9.56595164481188
      ],
      [
        "Ġcapacit",
        -9.565984881531044
      ],
      [
        "Ġfinish",
        -9.566050271656383
      ],
      [
        "Ġroad",
        -9.568151027300129
      ],
      [
        "Ġtips",
        -9.569044756258997
      ],
      [
        "Ġfloor",
        -9.570520046257048
      ],
      [
        "Ġsigns",
        -9.571391509670718
      ],
      [
        "Ġfeeling",
        -9.57267995652436
      ],
      [
        "gram",
        -9.573229733266848
      ],
      [
        "Ġinstruction",
        -9.575050492482902
      ],
      [
        "ric",
        -9.575623596189502
      ],
      [
        "Ġresponsibl",
        -9.576914553708235
      ],
      [
        "ĠWorld",
        -9.57705636349497
      ],
      [
        "Ġvariable",
        -9.577296165909168
      ],
      [
        "Ġlandscape",
        -9.57742077087369
      ],
      [
        "ix",
        -9.57742719750688
      ],
      [
        "Ġinteresting",
        -9.577585881012766
      ],
      [
        "Ġnote",
        -9.57802329186726
      ],
      [
        "tenance",
        -9.579184338105932
      ],
      [
        "Ġsteps",
        -9.579324347757812
      ],
      [
        "Ġfrequent",
        -9.579574015899803
      ],
      [
        "Ġsevere",
        -9.579901358839429
      ],
      [
        "IS",
        -9.57991216263268
      ],
      [
        "Ġradio",
        -9.581067256939653
      ],
      [
        "ĠHo",
        -9.58208688148023
      ],
      [
        "Ġencourage",
        -9.58317477887227
      ],
      [
        "Ġforest",
        -9.58361303595524
      ],
      [
        "Ġgene",
        -9.584089809165649
      ],
      [
        "nic",
        -9.584704352007972
      ],
      [
        "ĠMy",
        -9.584807681456454
      ],
      [
        "Ġmen",
        -9.5859647266373
      ],
      [
        "Ġmis",
        -9.586314178515645
      ],
      [
        "Ġheavy",
        -9.586439175491789
      ],
      [
        "Ġcity",
        -9.58654308623301
      ],
      [
        "Ġresistance",
        -9.586564727865106
      ],
      [
        "Ġfund",
        -9.588055086700436
      ],
      [
        "Ġconvert",
        -9.588749146323234
      ],
      [
        "Ġcoast",
        -9.588764309363317
      ],
      [
        "-term",
        -9.588875385739431
      ],
      [
        "Ġha",
        -9.589048254166052
      ],
      [
        "pic",
        -9.5906800154999
      ],
      [
        "ese",
        -9.591326431052654
      ],
      [
        "Ġpack",
        -9.592319313333997
      ],
      [
        "Co",
        -9.59240417626248
      ],
      [
        "Ġmeasurement",
        -9.59249321788103
      ],
      [
        "ĠNot",
        -9.59259081599142
      ],
      [
        "ept",
        -9.592859401245937
      ],
      [
        "Ġprett",
        -9.593529125292743
      ],
      [
        "Ġrise",
        -9.593745307154748
      ],
      [
        "ĠPer",
        -9.593941363431682
      ],
      [
        "Ġeconomic",
        -9.59396152698526
      ],
      [
        "set",
        -9.595791974243332
      ],
      [
        "Ġprotection",
        -9.595930302871295
      ],
      [
        "Ġwire",
        -9.597739955957715
      ],
      [
        "lan",
        -9.597869512505303
      ],
      [
        "Ġefficienc",
        -9.598255010278596
      ],
      [
        "ave",
        -9.5995614613942
      ],
      [
        "Ġbasi",
        -9.601718717548165
      ],
      [
        "Ġcareful",
        -9.601957053368466
      ],
      [
        "Ġcame",
        -9.60200577289203
      ],
      [
        "ĠNow",
        -9.602010911380296
      ],
      [
        "Ġrepair",
        -9.60271055115119
      ],
      [
        "Ġfiber",
        -9.602751681307858
      ],
      [
        "Ġcats",
        -9.60295622948847
      ],
      [
        "Ġmatch",
        -9.603249728248317
      ],
      [
        "und",
        -9.604324077611963
      ],
      [
        "Ġcross",
        -9.605058465613071
      ],
      [
        "Ġfigure",
        -9.6053916781852
      ],
      [
        "Ġsolid",
        -9.605875875669266
      ],
      [
        "Ġvolume",
        -9.6073220948027
      ],
      [
        "press",
        -9.607673660178673
      ],
      [
        "Ġearth",
        -9.608693952122255
      ],
      [
        "Ġpush",
        -9.609678416615685
      ],
      [
        "Ġpublished",
        -9.609696481786322
      ],
      [
        "east",
        -9.610078450528938
      ],
      [
        "Ġenable",
        -9.61051333840896
      ],
      [
        "Ġprocedure",
        -9.612021816061416
      ],
      [
        "Ġinjur",
        -9.613212047274123
      ],
      [
        "Ġyellow",
        -9.614380411147655
      ],
      [
        "Ġ--",
        -9.614569150018191
      ],
      [
        "ĠGu",
        -9.616351089101212
      ],
      [
        "Ġaccept",
        -9.616745786441628
      ],
      [
        "Ġwait",
        -9.616818410789548
      ],
      [
        "Ġpoints",
        -9.617717803044156
      ],
      [
        "oxide",
        -9.61865645691978
      ],
      [
        "are",
        -9.618777520107866
      ],
      [
        "ĠUs",
        -9.619565972294206
      ],
      [
        "Ġcard",
        -9.6197551908703
      ],
      [
        "Ġconstruction",
        -9.61980698699182
      ],
      [
        "Ġfe",
        -9.62007237641678
      ],
      [
        "spec",
        -9.620409240445191
      ],
      [
        "Ġnutrients",
        -9.620622789591472
      ],
      [
        "Ġimplement",
        -9.620623112498532
      ],
      [
        "Ġstorage",
        -9.621849783588186
      ],
      [
        "Ġsituation",
        -9.622177583642625
      ],
      [
        "Ġsuit",
        -9.624162330938
      ],
      [
        "han",
        -9.625449758536014
      ],
      [
        "ĠWhy",
        -9.626047157214632
      ],
      [
        "Ġdeveloping",
        -9.626151611192046
      ],
      [
        "Ġmessage",
        -9.626385483256186
      ],
      [
        "ĠNi",
        -9.626600317924808
      ],
      [
        "ole",
        -9.627021464712069
      ],
      [
        "ĠPre",
        -9.628123633223792
      ],
      [
        "ley",
        -9.628493899778608
      ],
      [
        "Ġsalt",
        -9.629083156354598
      ],
      [
        "ren",
        -9.629942760791469
      ],
      [
        "Ġingredients",
        -9.63003440787881
      ],
      [
        "Ġnothing",
        -9.630587406474037
      ],
      [
        "Ġsteel",
        -9.631057636225028
      ],
      [
        "Ġestimate",
        -9.631693260186978
      ],
      [
        "ĠOf",
        -9.632401952089664
      ],
      [
        "Ġtransform",
        -9.632646826116211
      ],
      [
        "Ġremember",
        -9.633451432014985
      ],
      [
        "Ġinstance",
        -9.633475243362213
      ],
      [
        "ock",
        -9.634094321752793
      ],
      [
        "Ġheight",
        -9.634232073392855
      ],
      [
        "Ġpot",
        -9.634514143385418
      ],
      [
        "Ġseeds",
        -9.6346185655141
      ],
      [
        "Ġtechnique",
        -9.634634852595106
      ],
      [
        "Ġflat",
        -9.63486026882687
      ],
      [
        "Ġideas",
        -9.635553557296006
      ],
      [
        "Ġexcellent",
        -9.635861169034598
      ],
      [
        "ious",
        -9.635879590773325
      ],
      [
        "Ġfilm",
        -9.635893297721658
      ],
      [
        "AT",
        -9.63781341698618
      ],
      [
        "Ġpractices",
        -9.637908972683952
      ],
      [
        "Ġmanufactur",
        -9.639754761359065
      ],
      [
        "ĠLet",
        -9.640017067614007
      ],
      [
        "lost",
        -9.640101230096024
      ],
      [
        "And",
        -9.64010252652008
      ],
      [
        "Ġsell",
        -9.640201491077796
      ],
      [
        "Ġdoor",
        -9.640598609825648
      ],
      [
        "Ġmedication",
        -9.64069763419056
      ],
      [
        "Ġcolour",
        -9.640704024621677
      ],
      [
        "Ġready",
        -9.640737153105842
      ],
      [
        "These",
        -9.6416203938299
      ],
      [
        "Ġwriting",
        -9.642313878813969
      ],
      [
        "Ġjourney",
        -9.643124783035482
      ],
      [
        "Ġangle",
        -9.643238387756458
      ],
      [
        "Ġpredict",
        -9.643558413058358
      ],
      [
        "No",
        -9.644747523824725
      ],
      [
        "iabetes",
        -9.645097405585885
      ],
      [
        "Ġserie",
        -9.645352737401058
      ],
      [
        "ĠWar",
        -9.645839508914593
      ],
      [
        "ĠOur",
        -9.647148612182708
      ],
      [
        "Ġwonder",
        -9.647568489478909
      ],
      [
        "Ġrare",
        -9.648237163312391
      ],
      [
        "Ġadopt",
        -9.650653437040152
      ],
      [
        "Ġhi",
        -9.650961284476756
      ],
      [
        "By",
        -9.65117979448754
      ],
      [
        "ung",
        -9.651737599818022
      ],
      [
        "art",
        -9.652765374806608
      ],
      [
        "van",
        -9.65315772855382
      ],
      [
        "Ġhearing",
        -9.653495528293307
      ],
      [
        "Ġusers",
        -9.65438178296847
      ],
      [
        "Ġimportan",
        -9.654763348766918
      ],
      [
        "ĠSp",
        -9.655194036958864
      ],
      [
        "ik",
        -9.656269649161956
      ],
      [
        "Ġmap",
        -9.65675451101643
      ],
      [
        "Ġobtain",
        -9.657813090414406
      ],
      [
        "lar",
        -9.659146638996756
      ],
      [
        "Ġmode",
        -9.659634303033464
      ],
      [
        "Ġemploy",
        -9.660193725224854
      ],
      [
        "Ġseek",
        -9.66223865687374
      ],
      [
        "Ġwrong",
        -9.662758178176864
      ],
      [
        "Ġexposure",
        -9.662859207948602
      ],
      [
        "Ch",
        -9.66321800291918
      ],
      [
        "ants",
        -9.663290684188553
      ],
      [
        "Ġla",
        -9.663412449777963
      ],
      [
        "Some",
        -9.664423808888513
      ],
      [
        "ĠEven",
        -9.664453513311551
      ],
      [
        "ĠSu",
        -9.664985031152431
      ],
      [
        "Ġbeautiful",
        -9.665238690002704
      ],
      [
        "Ġchicken",
        -9.66559806851587
      ],
      [
        "ome",
        -9.665642151011522
      ],
      [
        "Ġseed",
        -9.667239976588627
      ],
      [
        "Ġprinciple",
        -9.667726251973123
      ],
      [
        "Ġgiv",
        -9.671259561690544
      ],
      [
        "Ġpurchase",
        -9.67211952252721
      ],
      [
        "ĠInstitute",
        -9.672720226914931
      ],
      [
        "ES",
        -9.672902625611435
      ],
      [
        "ker",
        -9.67364667098956
      ],
      [
        "old",
        -9.674409379045263
      ],
      [
        "Ġbigge",
        -9.67476403576103
      ],
      [
        "nel",
        -9.675012791970328
      ],
      [
        "Ġconcentration",
        -9.675133944285466
      ],
      [
        "-p",
        -9.67540028646867
      ],
      [
        "Ġgra",
        -9.676026501449474
      ],
      [
        "Ġmeaning",
        -9.676148682478802
      ],
      [
        "Ġtwi",
        -9.676364357829456
      ],
      [
        "own",
        -9.676849706558787
      ],
      [
        "aught",
        -9.677643309778432
      ],
      [
        "Ġrecognize",
        -9.677738846224898
      ],
      [
        "Ġoutdoor",
        -9.677739455622472
      ],
      [
        "Ġclick",
        -9.677739481121169
      ],
      [
        "ĠBlack",
        -9.677970099165425
      ],
      [
        "ĠMay",
        -9.67880847271084
      ],
      [
        "Ġforward",
        -9.6789188396228
      ],
      [
        "Ġdrop",
        -9.679030543128736
      ],
      [
        "bit",
        -9.68008582792682
      ],
      [
        "Ġpicture",
        -9.68151438941984
      ],
      [
        "Ġanyone",
        -9.683101382875028
      ],
      [
        "Pa",
        -9.683113843069574
      ],
      [
        "ool",
        -9.683342860523656
      ],
      [
        "Ġsoon",
        -9.683736444659878
      ],
      [
        "Ġmagnetic",
        -9.684254043431988
      ],
      [
        "mat",
        -9.685007132780353
      ],
      [
        "Ġbi",
        -9.685206385038178
      ],
      [
        "Ġfriends",
        -9.686893957172336
      ],
      [
        "Î",
        -9.68782186913673
      ],
      [
        "ham",
        -9.688684991785768
      ],
      [
        "Ġlo",
        -9.688824473815291
      ],
      [
        "rop",
        -9.68949983016178
      ],
      [
        "Ġsweet",
        -9.690389346805125
      ],
      [
        "Ġsubstance",
        -9.69039751076853
      ],
      [
        "unt",
        -9.691447853764494
      ],
      [
        "ition",
        -9.691618702053956
      ],
      [
        "Ġsend",
        -9.692155203734345
      ],
      [
        "Ġbrown",
        -9.69479585203326
      ],
      [
        "Ġsample",
        -9.695043095319834
      ],
      [
        "ĠSystem",
        -9.698070303784224
      ],
      [
        "Ġtrip",
        -9.698597190380475
      ],
      [
        "ode",
        -9.700323782996303
      ],
      [
        "dom",
        -9.700435092022992
      ],
      [
        "Ġga",
        -9.700479115040864
      ],
      [
        "Ġtire",
        -9.700707517279143
      ],
      [
        "Ġflight",
        -9.700840061804817
      ],
      [
        "Ġmouth",
        -9.70190042894192
      ],
      [
        "ĠState",
        -9.702029874533268
      ],
      [
        "Ġbone",
        -9.70248210522909
      ],
      [
        "chi",
        -9.702824990287944
      ],
      [
        "Ġleaf",
        -9.70322091542316
      ],
      [
        "Ġconsumer",
        -9.70504406691483
      ],
      [
        "thus",
        -9.705275202026275
      ],
      [
        "imp",
        -9.705552808382208
      ],
      [
        "-up",
        -9.705601024376062
      ],
      [
        "Ġreasons",
        -9.70600964853767
      ],
      [
        "ular",
        -9.70690597022544
      ],
      [
        "Ġled",
        -9.708155892309422
      ],
      [
        "Ġthousand",
        -9.708392621411177
      ],
      [
        "Ġeffort",
        -9.708618335594398
      ],
      [
        "Ġsort",
        -9.709223543053652
      ],
      [
        "Ġinteraction",
        -9.709881686539884
      ],
      [
        "ĠNOT",
        -9.71105291483649
      ],
      [
        "book",
        -9.71130163524148
      ],
      [
        "Ġcooking",
        -9.711963236503388
      ],
      [
        "body",
        -9.71225411929978
      ],
      [
        "Ġaid",
        -9.712314104223902
      ],
      [
        "Ġmaximum",
        -9.713594143130294
      ],
      [
        "Ġdegrees",
        -9.71469191514613
      ],
      [
        "Ġpowerful",
        -9.715040951431082
      ],
      [
        "ĠWater",
        -9.715431529897366
      ],
      [
        "ank",
        -9.71572127360367
      ],
      [
        "spite",
        -9.715731522491096
      ],
      [
        "Ġthird",
        -9.716205163795848
      ],
      [
        "Ġidentifie",
        -9.716205905883832
      ],
      [
        "Ġoccurs",
        -9.71686752516022
      ],
      [
        "ĠQu",
        -9.718097077267068
      ],
      [
        "ĠCh",
        -9.719398628443704
      ],
      [
        "Ġcloth",
        -9.72004092899308
      ],
      [
        "Ġmin",
        -9.72026682428919
      ],
      [
        "Ġfaster",
        -9.720681709412103
      ],
      [
        "Ġelectronic",
        -9.720738260020882
      ],
      [
        "Ġcentury",
        -9.721449576578546
      ],
      [
        "win",
        -9.721714674350013
      ],
      [
        "Ġlegal",
        -9.723634730933044
      ],
      [
        "Ġwrite",
        -9.72495649468904
      ],
      [
        "IT",
        -9.725190240128294
      ],
      [
        "Ġcomfort",
        -9.725739001378829
      ],
      [
        "Ġfight",
        -9.729422865805825
      ],
      [
        "part",
        -9.73110709336019
      ],
      [
        "Ġfamilies",
        -9.732015738701454
      ],
      [
        "gar",
        -9.732957326288323
      ],
      [
        "Ġcoat",
        -9.733559747633208
      ],
      [
        "Ġlocated",
        -9.733567272491968
      ],
      [
        "Ġworth",
        -9.733756283103045
      ],
      [
        "Ġdivers",
        -9.733985904694425
      ],
      [
        "Ġfully",
        -9.734133332353618
      ],
      [
        "Ġcontext",
        -9.734733012955356
      ],
      [
        "Ġquant",
        -9.734929759493513
      ],
      [
        "Ġmeter",
        -9.73552646347878
      ],
      [
        "Ġcleaning",
        -9.736895036262414
      ],
      [
        "ĠBi",
        -9.739177857044432
      ],
      [
        "Ġhands",
        -9.739491859172848
      ],
      [
        "AS",
        -9.73996355512094
      ],
      [
        "Ġplatform",
        -9.74001579975755
      ],
      [
        "Step",
        -9.740191509142583
      ],
      [
        "Ġdeliver",
        -9.74046535406576
      ],
      [
        "Ġhit",
        -9.740680686873503
      ],
      [
        "ĠRi",
        -9.74077604470058
      ],
      [
        "ĠOther",
        -9.74085958937984
      ],
      [
        "Ġjoint",
        -9.7418641204647
      ],
      [
        "ĠAir",
        -9.742228538251176
      ],
      [
        "Ġmotion",
        -9.742438902447972
      ],
      [
        "iz",
        -9.742832353421916
      ],
      [
        "raw",
        -9.743701103500804
      ],
      [
        "Ġpractical",
        -9.743981235123552
      ],
      [
        "Ġspend",
        -9.74452150777544
      ],
      [
        "ja",
        -9.744694494407243
      ],
      [
        "Ġsaw",
        -9.745450968130877
      ],
      [
        "Ġfrequenc",
        -9.745951518632015
      ],
      [
        "lac",
        -9.746501582401304
      ],
      [
        "Ġquick",
        -9.747464104040096
      ],
      [
        "Ġhuge",
        -9.748094262033035
      ],
      [
        "Ġfair",
        -9.74814417874016
      ],
      [
        "Now",
        -9.748841871380025
      ],
      [
        "Ġreported",
        -9.749565437435994
      ],
      [
        "Ġreplace",
        -9.750419386032586
      ],
      [
        "Ġpump",
        -9.75070944286554
      ],
      [
        "Ġpieces",
        -9.75095968248419
      ],
      [
        "ĠTe",
        -9.751502484965174
      ],
      [
        "AD",
        -9.751764740887229
      ],
      [
        "Ġpark",
        -9.752587070177338
      ],
      [
        "ĠFe",
        -9.753124323158897
      ],
      [
        "ore",
        -9.754595321646338
      ],
      [
        "Ġstone",
        -9.755752950917577
      ],
      [
        "ĠFi",
        -9.756203255236649
      ],
      [
        "Ġbeyond",
        -9.756220569977938
      ],
      [
        "Ġmarine",
        -9.75645225494934
      ],
      [
        "Ġcutting",
        -9.756472663039728
      ],
      [
        "Ġ#",
        -9.756497672217868
      ],
      [
        "Ġshift",
        -9.757876160894735
      ],
      [
        "top",
        -9.75835596349346
      ],
      [
        "ĠCO",
        -9.75885377522317
      ],
      [
        "Ġshoe",
        -9.758936099350862
      ],
      [
        "ĠMin",
        -9.759477531229926
      ],
      [
        "ĠIndia",
        -9.760170086542542
      ],
      [
        "About",
        -9.761369051030384
      ],
      [
        "Ġreveal",
        -9.76167872766407
      ],
      [
        "ĠPh",
        -9.762179302196907
      ],
      [
        "limited",
        -9.763066863472837
      ],
      [
        "Ġpin",
        -9.764793475177049
      ],
      [
        "Ġpool",
        -9.764833716015833
      ],
      [
        "PS",
        -9.764929988040889
      ],
      [
        "Ġtexture",
        -9.765235581616729
      ],
      [
        "Ġfacilit",
        -9.76635580538778
      ],
      [
        "can",
        -9.766701467324795
      ],
      [
        "ĠPlant",
        -9.76846718163286
      ],
      [
        "Ġgold",
        -9.769000234574804
      ],
      [
        "Ġcombine",
        -9.769497820842568
      ],
      [
        "ĠMan",
        -9.771012131730778
      ],
      [
        "Ġgenes",
        -9.77185724256499
      ],
      [
        "lid",
        -9.771931781449997
      ],
      [
        "Ġweb",
        -9.772102861093568
      ],
      [
        "Ġpresen",
        -9.772185113762209
      ],
      [
        "ĠSea",
        -9.772561296049991
      ],
      [
        "Ġinternational",
        -9.772671757138736
      ],
      [
        "Ġfabric",
        -9.772671809314776
      ],
      [
        "efore",
        -9.772971399992205
      ],
      [
        "Ġformat",
        -9.773114557404696
      ],
      [
        "ĠNa",
        -9.773251770932111
      ],
      [
        "Ġstream",
        -9.775229449012087
      ],
      [
        "Ġrespond",
        -9.775441767979764
      ],
      [
        "Ġcouple",
        -9.77544449471204
      ],
      [
        "Ġnational",
        -9.775951277203642
      ],
      [
        "Ġ|",
        -9.776408391269864
      ],
      [
        "IC",
        -9.77664959955029
      ],
      [
        "oma",
        -9.77797749165554
      ],
      [
        "Ġgenome",
        -9.778223722420552
      ],
      [
        "Ġround",
        -9.779164323966718
      ],
      [
        "Ġstation",
        -9.779478832048556
      ],
      [
        "Ġmoistur",
        -9.779755925897298
      ],
      [
        "Ġstates",
        -9.780382707009805
      ],
      [
        "ped",
        -9.78042774291444
      ],
      [
        "ĠHigh",
        -9.782055923400474
      ],
      [
        "Ġfarmer",
        -9.782077635269822
      ],
      [
        "Ġdegree",
        -9.782622247465136
      ],
      [
        "Ġdetails",
        -9.783095274012842
      ],
      [
        "Ġvia",
        -9.783251154005274
      ],
      [
        "Ġcommercial",
        -9.78382104487998
      ],
      [
        "Ġrain",
        -9.784628017053546
      ],
      [
        "ĠPi",
        -9.784652584205146
      ],
      [
        "pril",
        -9.7848364817858
      ],
      [
        "car",
        -9.784946570072565
      ],
      [
        "Ġexpand",
        -9.786610343598923
      ],
      [
        "Ġadvanced",
        -9.786935026369363
      ],
      [
        "Ġskate",
        -9.787287740535074
      ],
      [
        "Ġmember",
        -9.789005996724384
      ],
      [
        "Ġfashion",
        -9.78940858152344
      ],
      [
        "aging",
        -9.789513790349076
      ],
      [
        "Ġplanning",
        -9.78955570802428
      ],
      [
        "rid",
        -9.790628778905289
      ],
      [
        "Ġcur",
        -9.79075626062954
      ],
      [
        "Ġdecade",
        -9.792231319612185
      ],
      [
        "Ġriver",
        -9.792234916723096
      ],
      [
        "Ġfluid",
        -9.792242126972534
      ],
      [
        "Ġattach",
        -9.792275449951306
      ],
      [
        "bu",
        -9.792679615962191
      ],
      [
        "Ġro",
        -9.793247422405678
      ],
      [
        "Ġthin",
        -9.79364369455724
      ],
      [
        "back",
        -9.79449300971693
      ],
      [
        "Ġoffice",
        -9.797251211273403
      ],
      [
        "Ġspeak",
        -9.798588912844874
      ],
      [
        "RI",
        -9.800186275920035
      ],
      [
        "Ġincluded",
        -9.800600123684887
      ],
      [
        "board",
        -9.800621403862957
      ],
      [
        "Ġfavorite",
        -9.800727388321588
      ],
      [
        "Ġsustain",
        -9.802734453142122
      ],
      [
        "ĠJust",
        -9.803150016212925
      ],
      [
        "Ġsquare",
        -9.8035800596832
      ],
      [
        "Ġfinger",
        -9.803686035636746
      ],
      [
        "Ġinsects",
        -9.803738412220538
      ],
      [
        "Ġrace",
        -9.805651816003095
      ],
      [
        "haps",
        -9.805679352495224
      ],
      [
        "app",
        -9.805727842417502
      ],
      [
        "Ġfail",
        -9.806527653537554
      ],
      [
        "Ġvoltage",
        -9.806541890730225
      ],
      [
        "Ġbright",
        -9.806619079064449
      ],
      [
        "ĠSh",
        -9.806619451357644
      ],
      [
        "Ġdead",
        -9.806729440511916
      ],
      [
        "came",
        -9.807452545535757
      ],
      [
        "LE",
        -9.807533808533352
      ],
      [
        "-free",
        -9.807721886796855
      ],
      [
        "ĠDec",
        -9.807856917331463
      ],
      [
        "AL",
        -9.80841731772504
      ],
      [
        "Ġchang",
        -9.80856331588269
      ],
      [
        "ĠEurope",
        -9.808581382569738
      ],
      [
        "ural",
        -9.809348138047294
      ],
      [
        "Ġbutton",
        -9.809708831972872
      ],
      [
        "Ġpipe",
        -9.8122418729229
      ],
      [
        "Ġoutcome",
        -9.812572444469986
      ],
      [
        "Ġalone",
        -9.81260651392948
      ],
      [
        "osis",
        -9.813022732718975
      ],
      [
        "Ġplate",
        -9.813030052147084
      ],
      [
        "Un",
        -9.813161048578614
      ],
      [
        "Di",
        -9.813626840273333
      ],
      [
        "zz",
        -9.814059826152436
      ],
      [
        "Ġcollection",
        -9.814170743840158
      ],
      [
        "Ġdriv",
        -9.81579179209778
      ],
      [
        "off",
        -9.81758806055071
      ],
      [
        "ĠLearn",
        -9.817783609042753
      ],
      [
        "Ġevolution",
        -9.818632446658482
      ],
      [
        "Ġshot",
        -9.818696885912075
      ],
      [
        "Ġlabel",
        -9.818817439468232
      ],
      [
        "Our",
        -9.819060809799591
      ],
      [
        "Ġdrawing",
        -9.820952345401816
      ],
      [
        "ĠAre",
        -9.820982752250623
      ],
      [
        "Ġroll",
        -9.821339102938488
      ],
      [
        "Ġbecomes",
        -9.82198542355745
      ],
      [
        "Ġhabit",
        -9.821985949646326
      ],
      [
        "Ġseal",
        -9.82373148053054
      ],
      [
        "Ġtechnologie",
        -9.823746579205466
      ],
      [
        "Ġsurger",
        -9.824306428249672
      ],
      [
        "Ġobserve",
        -9.824743541193303
      ],
      [
        "Ġplease",
        -9.82493363710469
      ],
      [
        "Ġlesson",
        -9.825098467342706
      ],
      [
        "Ġsurrounding",
        -9.82536335203044
      ],
      [
        "Ġthinking",
        -9.82611366903237
      ],
      [
        "phy",
        -9.826155902146358
      ],
      [
        "Ġannual",
        -9.826684441825591
      ],
      [
        "ological",
        -9.827099287800506
      ],
      [
        "Ġexpress",
        -9.828217637607809
      ],
      [
        "ban",
        -9.828682567221556
      ],
      [
        "Ġtrans",
        -9.828897631082311
      ],
      [
        "Ġstaff",
        -9.82960039953599
      ],
      [
        "Ġcup",
        -9.82986161011124
      ],
      [
        "Ġï¿½",
        -9.830183561733696
      ],
      [
        "Ġschedule",
        -9.83105280149869
      ],
      [
        "rad",
        -9.831781750008124
      ],
      [
        "Ġrecipe",
        -9.832519323221836
      ],
      [
        "ĠEn",
        -9.83285810093891
      ],
      [
        "Ġhabitat",
        -9.832904113272278
      ],
      [
        "Ġprefer",
        -9.832979256426796
      ],
      [
        "-be",
        -9.83303413941601
      ],
      [
        "Ġwin",
        -9.835039611340548
      ],
      [
        "Ġlargest",
        -9.835546853985964
      ],
      [
        "ĠAls",
        -9.836761065432388
      ],
      [
        "but",
        -9.836929478993149
      ],
      [
        "Ġwash",
        -9.837233474692113
      ],
      [
        "ĠAccording",
        -9.837322254245915
      ],
      [
        "ail",
        -9.837860298241203
      ],
      [
        "Ġattempt",
        -9.8384096023029
      ],
      [
        "Ġsuitabl",
        -9.838682289365671
      ],
      [
        "mark",
        -9.839332175908789
      ],
      [
        "society",
        -9.839488352394916
      ],
      [
        "Ġengage",
        -9.840799411096953
      ],
      [
        ".com",
        -9.84098053416148
      ],
      [
        "Ġmiddle",
        -9.84137636170659
      ],
      [
        "Ġcomment",
        -9.84140529351938
      ],
      [
        "Ġvital",
        -9.841410388217511
      ],
      [
        "Ġsecurit",
        -9.841608907480428
      ],
      [
        "bal",
        -9.842618435465376
      ],
      [
        "Ġhapp",
        -9.843062624093143
      ],
      [
        "place",
        -9.843163123848251
      ],
      [
        "Ġmolecule",
        -9.844335527372197
      ],
      [
        "Ġorganism",
        -9.84622667743421
      ],
      [
        "bin",
        -9.84643756331984
      ],
      [
        "ĠMake",
        -9.847120395298605
      ],
      [
        "Ġvoice",
        -9.84731172837484
      ],
      [
        "Ġstuff",
        -9.847334139796214
      ],
      [
        "ĠProgram",
        -9.847459759127045
      ],
      [
        "Ġskill",
        -9.84750695950312
      ],
      [
        "Ġpound",
        -9.847979498382928
      ],
      [
        "Ġvaluable",
        -9.849242876014673
      ],
      [
        "Ġapproximate",
        -9.850296791884546
      ],
      [
        "how",
        -9.85037965251486
      ],
      [
        "Ġletter",
        -9.851582319744251
      ],
      [
        "Ġteaching",
        -9.852949981772383
      ],
      [
        "went",
        -9.85307964426928
      ],
      [
        "Ġbrush",
        -9.853466103993702
      ],
      [
        "Ġtiny",
        -9.853521781284426
      ],
      [
        "ĠBar",
        -9.853530782612047
      ],
      [
        "Ġbak",
        -9.853557466668896
      ],
      [
        "een",
        -9.854060268676104
      ],
      [
        "-like",
        -9.854362569314112
      ],
      [
        "pol",
        -9.855795562623667
      ],
      [
        "Ġconnected",
        -9.856409166919132
      ],
      [
        "pre",
        -9.86162406239236
      ],
      [
        "Ġthick",
        -9.862052689677505
      ],
      [
        "Ġcentral",
        -9.86233240382843
      ],
      [
        "ĠCalifornia",
        -9.864312264866715
      ],
      [
        "held",
        -9.864815783448146
      ],
      [
        "Ġsecure",
        -9.86520909524889
      ],
      [
        "Ġrule",
        -9.865222959731614
      ],
      [
        "fic",
        -9.865483162119318
      ],
      [
        "Ġcheckbook",
        -9.865565381026334
      ],
      [
        "Ġintroduce",
        -9.86636324047645
      ],
      [
        "Ġproperty",
        -9.86760349866551
      ],
      [
        "Ġlisten",
        -9.867806622065345
      ],
      [
        "ET",
        -9.868155924199243
      ],
      [
        "Ġmold",
        -9.868524029919476
      ],
      [
        "ON",
        -9.8690340243283
      ],
      [
        "well",
        -9.870310175659606
      ],
      [
        "read",
        -9.870791474827982
      ],
      [
        "ĠMu",
        -9.87144152968471
      ],
      [
        "older",
        -9.872192343791134
      ],
      [
        "AN",
        -9.873452889776043
      ],
      [
        "Ġj",
        -9.874594550886888
      ],
      [
        "Ġcomponent",
        -9.875439236126526
      ],
      [
        "Ġinternal",
        -9.876078623728176
      ],
      [
        "Ġtube",
        -9.87610516798664
      ],
      [
        "CT",
        -9.877547683556136
      ],
      [
        "Ġcream",
        -9.877577621439812
      ],
      [
        "worm",
        -9.87759428150054
      ],
      [
        "Ġbackground",
        -9.877799619803312
      ],
      [
        "Ġtrust",
        -9.877946052269929
      ],
      [
        "Ġvirus",
        -9.878536767348766
      ],
      [
        "ST",
        -9.88002826108802
      ],
      [
        "ĠHer",
        -9.88105666624894
      ],
      [
        "EN",
        -9.88127664722239
      ],
      [
        "Ġsites",
        -9.88129318944547
      ],
      [
        "Ġfinding",
        -9.88232610727547
      ],
      [
        "Ġcook",
        -9.882422404151146
      ],
      [
        "Ġhour",
        -9.882581530998142
      ],
      [
        "aff",
        -9.883350997436004
      ],
      [
        "Ġchain",
        -9.885398684768449
      ],
      [
        "Ġattract",
        -9.886346243619046
      ],
      [
        "get",
        -9.886451104766916
      ],
      [
        "Answer",
        -9.88677151155328
      ],
      [
        "field",
        -9.88677605042734
      ],
      [
        "Ġexternal",
        -9.886865187834989
      ],
      [
        "Ġassess",
        -9.88713662148646
      ],
      [
        "ĠGra",
        -9.88753517333164
      ],
      [
        "Le",
        -9.888035601715655
      ],
      [
        "Ġfertilizer",
        -9.888241206300776
      ],
      [
        "wide",
        -9.888474355520746
      ],
      [
        "Ġfeeding",
        -9.889262223735203
      ],
      [
        "Ġrid",
        -9.889568527806158
      ],
      [
        "±",
        -9.88993609704414
      ],
      [
        "Ġoptimal",
        -9.88993691861392
      ],
      [
        "Ġloop",
        -9.89023523854215
      ],
      [
        "Ġlog",
        -9.891882347962934
      ],
      [
        "Tra",
        -9.89224182335834
      ],
      [
        "Ġcha",
        -9.893461677519651
      ],
      [
        "Ġwheel",
        -9.894203433435685
      ],
      [
        "Ġregularly",
        -9.895564878040704
      ],
      [
        "Ġpolicy",
        -9.89610269078051
      ],
      [
        "Ġwor",
        -9.896639277964422
      ],
      [
        "rim",
        -9.897546331425575
      ],
      [
        "Ġpanel",
        -9.899609656861909
      ],
      [
        "tting",
        -9.89998435885547
      ],
      [
        "Ġdynamic",
        -9.900387259855012
      ],
      [
        "ED",
        -9.900473848493624
      ],
      [
        "Ġstock",
        -9.900826881377222
      ],
      [
        "pan",
        -9.901422275447622
      ],
      [
        "ĠAfrica",
        -9.90175142613494
      ],
      [
        "Ġlaunch",
        -9.902500257872118
      ],
      [
        "Ġbond",
        -9.902626347253992
      ],
      [
        "âĢ¢",
        -9.90292219365148
      ],
      [
        "Ġcable",
        -9.903756933443123
      ],
      [
        "ĠAustralia",
        -9.904036873562854
      ],
      [
        "Ġcapture",
        -9.904889138093782
      ],
      [
        "Ġalgorithm",
        -9.905610386300634
      ],
      [
        "Ġcloud",
        -9.9056318805375
      ],
      [
        "Ġconservation",
        -9.90572731773819
      ],
      [
        "Ġconsistent",
        -9.9064028167399
      ],
      [
        "lot",
        -9.906673334814233
      ],
      [
        "Con",
        -9.907874900311043
      ],
      [
        "ĠHar",
        -9.907887564038552
      ],
      [
        "Ġtransfer",
        -9.908454018846506
      ],
      [
        "ĠDon",
        -9.908523946802664
      ],
      [
        "La",
        -9.908796461955635
      ],
      [
        "Ġmedium",
        -9.9090034653131
      ],
      [
        "Ġdriver",
        -9.909264793776488
      ],
      [
        "They",
        -9.909371686758362
      ],
      [
        "stone",
        -9.911882401256076
      ],
      [
        "Ġblade",
        -9.911955058722071
      ],
      [
        "lock",
        -9.912188740771905
      ],
      [
        "Ġboat",
        -9.91368185056836
      ],
      [
        "ified",
        -9.91403370589051
      ],
      [
        "ong",
        -9.914045453401776
      ],
      [
        "wing",
        -9.914339538106656
      ],
      [
        "Ġblend",
        -9.915150689569549
      ],
      [
        "istic",
        -9.915624178075737
      ],
      [
        "Ġedge",
        -9.915949722804651
      ],
      [
        "Ġupdate",
        -9.916566373596735
      ],
      [
        "Ġfinancial",
        -9.918330842464425
      ],
      [
        "Ġdangerous",
        -9.918488851896171
      ],
      [
        "Ġimprov",
        -9.918675603396014
      ],
      [
        "Ġpress",
        -9.918929184940854
      ],
      [
        "ĠCl",
        -9.9197043531078
      ],
      [
        "ĠSi",
        -9.920558868697526
      ],
      [
        "ĠâĢ¢",
        -9.921064800549615
      ],
      [
        "Ġjournal",
        -9.921534279236743
      ],
      [
        "ĠDepartment",
        -9.921534391456332
      ],
      [
        "Ġstraight",
        -9.92153474180126
      ],
      [
        "Ġdental",
        -9.921541190440887
      ],
      [
        "ically",
        -9.921780566917231
      ],
      [
        "Ġlose",
        -9.922379889510012
      ],
      [
        "Ġdu",
        -9.922864530385963
      ],
      [
        "Ġport",
        -9.923374386741134
      ],
      [
        "Ġatmosphere",
        -9.924295907218426
      ],
      [
        "â",
        -9.924703797714184
      ],
      [
        "Ġconsult",
        -9.924770300737148
      ],
      [
        "ING",
        -9.924932006816697
      ],
      [
        "Ġrep",
        -9.924949072431724
      ],
      [
        "ĠPark",
        -9.925149462508038
      ],
      [
        "load",
        -9.925509218872566
      ],
      [
        "Ġdie",
        -9.925967669536025
      ],
      [
        "Here",
        -9.926114554331004
      ],
      [
        "Ġartist",
        -9.926199540278018
      ],
      [
        "Ġcreative",
        -9.926842309577523
      ],
      [
        "Ġbeginning",
        -9.928091939355948
      ],
      [
        "Ġphotograph",
        -9.92818805421377
      ],
      [
        "ĠâĢ¦",
        -9.928724632804029
      ],
      [
        "My",
        -9.928902452894494
      ],
      [
        "tel",
        -9.929603363163393
      ],
      [
        "Ġreli",
        -9.92981050736931
      ],
      [
        "lig",
        -9.930238805407818
      ],
      [
        "Ġassembl",
        -9.931211863071791
      ],
      [
        "Ġbeauty",
        -9.93121254242208
      ],
      [
        "Ġyield",
        -9.931213677991744
      ],
      [
        "ĠGerman",
        -9.931216596244564
      ],
      [
        "Ġsmart",
        -9.931248718605271
      ],
      [
        "Ġcomfortable",
        -9.932413861907126
      ],
      [
        "Ġhighlight",
        -9.93305665316807
      ],
      [
        "Ġcareer",
        -9.933520683256738
      ],
      [
        "Ġdesire",
        -9.93379637576275
      ],
      [
        "par",
        -9.934384296566773
      ],
      [
        "CH",
        -9.934501669292713
      ],
      [
        "Ġcomprehensive",
        -9.93461030928214
      ],
      [
        "ĠEnglish",
        -9.934726093978888
      ],
      [
        "Ġtight",
        -9.934954257493509
      ],
      [
        "Ġho",
        -9.935167706895877
      ],
      [
        "NS",
        -9.936989174547008
      ],
      [
        "ĠOnc",
        -9.937400246275622
      ],
      [
        "Ġefforts",
        -9.937431967683402
      ],
      [
        "Ġfossil",
        -9.937715847338737
      ],
      [
        "Ġexhibit",
        -9.937716246175787
      ],
      [
        "Ġdouble",
        -9.938070412148583
      ],
      [
        "Ġtax",
        -9.938454662797875
      ],
      [
        "Ġratio",
        -9.940962365273297
      ],
      [
        "Ġreferr",
        -9.940979886640608
      ],
      [
        "Ġbeneficial",
        -9.940983819174155
      ],
      [
        "Ġleak",
        -9.94099228060647
      ],
      [
        "ĠFirst",
        -9.94099859169136
      ],
      [
        "Ġnorth",
        -9.941019029075235
      ],
      [
        "Ġcrack",
        -9.941331370737588
      ],
      [
        "ene",
        -9.94155267111836
      ],
      [
        "ĠCha",
        -9.941961790520224
      ],
      [
        "ĠRu",
        -9.942334327762737
      ],
      [
        "Ġmid",
        -9.942869664764242
      ],
      [
        "Ġgrade",
        -9.94287011025706
      ],
      [
        "Ġeconom",
        -9.942912337569094
      ],
      [
        "MO",
        -9.943709240758736
      ],
      [
        "Ġselection",
        -9.943786839225044
      ],
      [
        "ĠGreen",
        -9.943952328907605
      ],
      [
        "Ġvalve",
        -9.94436008392083
      ],
      [
        "Ġspin",
        -9.944376497860182
      ],
      [
        "ĠSince",
        -9.945587679482593
      ],
      [
        "Ġsurvey",
        -9.945680196354628
      ],
      [
        "Ġcorn",
        -9.945752018812463
      ],
      [
        "Ġdepth",
        -9.945787379041173
      ],
      [
        "ĠFood",
        -9.946249097412249
      ],
      [
        "ĠQ",
        -9.946422281602016
      ],
      [
        "Ġexcit",
        -9.948176772333984
      ],
      [
        "Ġappearance",
        -9.94832795354206
      ],
      [
        "Ġpan",
        -9.94849710549834
      ],
      [
        "ame",
        -9.949442549823576
      ],
      [
        "bri",
        -9.94955677099392
      ],
      [
        "Ġdigest",
        -9.950694214002583
      ],
      [
        "Ġmedicine",
        -9.950765994994615
      ],
      [
        "Ġcore",
        -9.952659669621315
      ],
      [
        "com",
        -9.95330767456453
      ],
      [
        "Ġreference",
        -9.954484966333837
      ],
      [
        "onic",
        -9.954857813586298
      ],
      [
        "Ġaren",
        -9.955109915375877
      ],
      [
        "Ġdemonstrate",
        -9.956173041181788
      ],
      [
        "Ġgrain",
        -9.956336618839645
      ],
      [
        "ĠArt",
        -9.956551880637324
      ],
      [
        "Ġgames",
        -9.956593143800552
      ],
      [
        "Ġsymbol",
        -9.957493531895086
      ],
      [
        "ĠChina",
        -9.957508217827096
      ],
      [
        "Dr",
        -9.95751258615938
      ],
      [
        "Ġmother",
        -9.957750448334416
      ],
      [
        "Ġatom",
        -9.959542762172685
      ],
      [
        "Ġextract",
        -9.95987506880342
      ],
      [
        "Ġthreat",
        -9.959957354883278
      ],
      [
        "den",
        -9.960060148552104
      ],
      [
        "Ġweigh",
        -9.960208779535796
      ],
      [
        "Ġbirth",
        -9.960589169191
      ],
      [
        "eel",
        -9.960703374628412
      ],
      [
        "Ġcoffee",
        -9.9608191686168
      ],
      [
        "Ġheal",
        -9.961078395959412
      ],
      [
        "Ġpollution",
        -9.961086191154576
      ],
      [
        "Th",
        -9.961167404316909
      ],
      [
        "Ġnative",
        -9.961174073863187
      ],
      [
        "ĠEvery",
        -9.961378513169226
      ],
      [
        "Ġcarrie",
        -9.961404289851645
      ],
      [
        "ami",
        -9.961996934385496
      ],
      [
        "Ġonto",
        -9.96212552527026
      ],
      [
        "Ġrobot",
        -9.96336057453778
      ],
      [
        "Ġchannel",
        -9.964163936091964
      ],
      [
        "Ã©",
        -9.96418238485743
      ],
      [
        "Ġparameter",
        -9.96419022288164
      ],
      [
        "Ġemail",
        -9.964426714540114
      ],
      [
        "wo",
        -9.96452542300154
      ],
      [
        "Ġdistribution",
        -9.964590210639924
      ],
      [
        "ĠPe",
        -9.964601083264672
      ],
      [
        "Ġmiles",
        -9.96529085627136
      ],
      [
        "wise",
        -9.96547573658048
      ],
      [
        "ional",
        -9.966147811317684
      ],
      [
        "Ġstatus",
        -9.967944302680426
      ],
      [
        "Ġteach",
        -9.967947804719248
      ],
      [
        "ĠNature",
        -9.968093100930275
      ],
      [
        "ĠUK",
        -9.96889569694929
      ],
      [
        "AM",
        -9.969837532076207
      ],
      [
        "rom",
        -9.970329583081735
      ],
      [
        "take",
        -9.970761281737452
      ],
      [
        "Ġroutine",
        -9.970886376896283
      ],
      [
        "Ġharvest",
        -9.970886517534012
      ],
      [
        "Ġcrops",
        -9.97174515487184
      ],
      [
        "Ġinsight",
        -9.971999111675194
      ],
      [
        "ĠAdd",
        -9.9732646106586
      ],
      [
        "Ġmuscles",
        -9.973289658839416
      ],
      [
        "ĠOver",
        -9.97424241498664
      ],
      [
        "Ġbroad",
        -9.974367548374918
      ],
      [
        "Ġgear",
        -9.97440524654995
      ],
      [
        "Ġsuffer",
        -9.974728455556614
      ],
      [
        "Ġbear",
        -9.975600437288891
      ],
      [
        "Ġindependent",
        -9.97734883077501
      ],
      [
        "Ġabsorb",
        -9.977654644015605
      ],
      [
        "Ġknee",
        -9.977658808646492
      ],
      [
        "Ġhelpful",
        -9.978244988223574
      ],
      [
        "-year",
        -9.981060535134986
      ],
      [
        "Ġblog",
        -9.981529258903302
      ],
      [
        "Ġaware",
        -9.981660874550418
      ],
      [
        "Ġmaintaining",
        -9.982691694744268
      ],
      [
        "Ġremov",
        -9.982842638830064
      ],
      [
        "Ġcurve",
        -9.982956747797395
      ],
      [
        "Ġperspective",
        -9.984468892450591
      ],
      [
        "Ġrespect",
        -9.985574024692198
      ],
      [
        "Ġjoin",
        -9.985587734892142
      ],
      [
        "matic",
        -9.985597872116411
      ],
      [
        "Ġminerals",
        -9.986078143924212
      ],
      [
        "Ġdrain",
        -9.987779728950976
      ],
      [
        "Ġnitrogen",
        -9.988067506788742
      ],
      [
        "Ġagricultur",
        -9.988502421154006
      ],
      [
        "That",
        -9.988878770193375
      ],
      [
        "Ġcalculate",
        -9.98993537838623
      ],
      [
        "Ġinsulat",
        -9.990107497762788
      ],
      [
        "Ġpossibilit",
        -9.99137840503099
      ],
      [
        "ria",
        -9.991707718791016
      ],
      [
        "Ġfear",
        -9.99223371903931
      ],
      [
        "ĠJo",
        -9.99257271692323
      ],
      [
        "Ġfunctional",
        -9.993623636153584
      ],
      [
        "Ġspeaker",
        -9.99439021078792
      ],
      [
        "ju",
        -9.994506530570192
      ],
      [
        "Ġclient",
        -9.99477840203367
      ],
      [
        "Ġtrigger",
        -9.994780179545046
      ],
      [
        "After",
        -9.995159698366148
      ],
      [
        "ulate",
        -9.995371545065764
      ],
      [
        "Ġtopic",
        -9.99569597134067
      ],
      [
        "Ġprepared",
        -9.995889345212792
      ],
      [
        "Ġnest",
        -9.996253250520963
      ],
      [
        "my",
        -9.997174212100578
      ],
      [
        "Ġrelevan",
        -9.99823860984552
      ],
      [
        "Ġcommand",
        -9.9982523834744
      ],
      [
        "Ġevolv",
        -9.998345560410446
      ],
      [
        "Ġnerve",
        -9.998350650467955
      ],
      [
        "Ġtru",
        -9.998999270405625
      ],
      [
        "Ġengineering",
        -9.999619375790743
      ],
      [
        "SS",
        -9.999899480769404
      ],
      [
        "lip",
        -10.001072501869071
      ],
      [
        "Ġadvice",
        -10.001712032398082
      ],
      [
        "Ġaudio",
        -10.00174690193699
      ],
      [
        "Ġexamine",
        -10.00226420000743
      ],
      [
        "Ġtitle",
        -10.005207732857077
      ],
      [
        "hose",
        -10.00523923518545
      ],
      [
        "Ġprivate",
        -10.005328460466565
      ],
      [
        "del",
        -10.006115326759936
      ],
      [
        "AC",
        -10.007938734158303
      ],
      [
        "Ġfan",
        -10.008131178051851
      ],
      [
        "Ġnutrient",
        -10.008212983863269
      ],
      [
        "Ġagree",
        -10.008377035817922
      ],
      [
        "Ġdecline",
        -10.008386396679152
      ],
      [
        "Ġclo",
        -10.00844877062225
      ],
      [
        "Ġlung",
        -10.008798524837472
      ],
      [
        "Ro",
        -10.009212072446967
      ],
      [
        "related",
        -10.00945041178995
      ],
      [
        "&",
        -10.00957312958768
      ],
      [
        "SA",
        -10.010175826244716
      ],
      [
        "Ġship",
        -10.010403535488622
      ],
      [
        "Ġdistinct",
        -10.011621544466324
      ],
      [
        "Ġtechnical",
        -10.01220349663297
      ],
      [
        "Ġmark",
        -10.012319318532604
      ],
      [
        "ĠEuropean",
        -10.013075924356617
      ],
      [
        "OS",
        -10.01322738169241
      ],
      [
        "Ġbillion",
        -10.013459030192976
      ],
      [
        "Ġstain",
        -10.013793740909795
      ],
      [
        "Ġeducational",
        -10.013854172267608
      ],
      [
        "Ġbodie",
        -10.013921269120235
      ],
      [
        "Ġlay",
        -10.014066533303822
      ],
      [
        "ĠComp",
        -10.015261317765107
      ],
      [
        "Ġbooks",
        -10.015711060694937
      ],
      [
        "Ġsecret",
        -10.0157214317992
      ],
      [
        "Ġcatch",
        -10.016650535252287
      ],
      [
        "ologist",
        -10.016758034207784
      ],
      [
        "Ġcontract",
        -10.017534981912275
      ],
      [
        "ĠCu",
        -10.018253348844516
      ],
      [
        "Ġtooth",
        -10.018301875577553
      ],
      [
        "Ġcultural",
        -10.018641293334412
      ],
      [
        "Ġgoals",
        -10.018755250168274
      ],
      [
        "Ġofficial",
        -10.01926039884875
      ],
      [
        "Ġboost",
        -10.019336335975726
      ],
      [
        "ĠDay",
        -10.019410276166438
      ],
      [
        "MA",
        -10.019756961500578
      ],
      [
        "Car",
        -10.019844993727917
      ],
      [
        "Ġkit",
        -10.019972014159098
      ],
      [
        "PA",
        -10.021094225493307
      ],
      [
        "ĠInternational",
        -10.021173400742844
      ],
      [
        "Ġroots",
        -10.02123281774304
      ],
      [
        "Ġwindow",
        -10.022144516262202
      ],
      [
        "Ġoperate",
        -10.022473466034114
      ],
      [
        "ĠEducation",
        -10.022801190117026
      ],
      [
        "Ġbiological",
        -10.02294879273412
      ],
      [
        "Ġupper",
        -10.02357914004424
      ],
      [
        "@",
        -10.024129667365187
      ],
      [
        "Ġdirector",
        -10.026038397671584
      ],
      [
        "`",
        -10.026356738740116
      ],
      [
        "Ġparticipant",
        -10.026359789346792
      ],
      [
        "Ġsession",
        -10.02636247576353
      ],
      [
        "Ġmixture",
        -10.0266598441268
      ],
      [
        "Ġbread",
        -10.02667136885668
      ],
      [
        "Ġmaster",
        -10.026782462581902
      ],
      [
        "ĠIsland",
        -10.026867156882982
      ],
      [
        "Ġgrown",
        -10.027365814554486
      ],
      [
        "Ġfundamental",
        -10.029931254124133
      ],
      [
        "Ġprimari",
        -10.029931266532705
      ],
      [
        "Ġemerg",
        -10.029970672134816
      ],
      [
        "Ġdiscussion",
        -10.029984878192808
      ],
      [
        "ĠDuring",
        -10.030009561362494
      ],
      [
        "Ġroof",
        -10.030064228672376
      ],
      [
        "Ġoven",
        -10.030204323591786
      ],
      [
        "Ġstorm",
        -10.030831797717966
      ],
      [
        "Ġgl",
        -10.032686871587714
      ],
      [
        "Ġcm",
        -10.032849298099842
      ],
      [
        "Ġinvest",
        -10.033441664352669
      ],
      [
        "diversity",
        -10.034470070664463
      ],
      [
        "bar",
        -10.035067002625896
      ],
      [
        "||",
        -10.037175245594952
      ],
      [
        "Ġorigin",
        -10.03727392676861
      ],
      [
        "Ġdeposit",
        -10.037334237511912
      ],
      [
        "Ġpropose",
        -10.037463286556312
      ],
      [
        "Ġbill",
        -10.038115115801574
      ],
      [
        "ĠMarch",
        -10.038238988780616
      ],
      [
        "pet",
        -10.03855131525864
      ],
      [
        "struct",
        -10.03865740721656
      ],
      [
        "Ġallerg",
        -10.038898077713265
      ],
      [
        "Ġportion",
        -10.038973953233413
      ],
      [
        "Ġimprovement",
        -10.039694395082655
      ],
      [
        "Thank",
        -10.039741601000822
      ],
      [
        "Ġconstruct",
        -10.03987831362123
      ],
      [
        "Ġartificial",
        -10.040722678080796
      ],
      [
        "nxiety",
        -10.04072268026638
      ],
      [
        "Ġcollege",
        -10.04072270839808
      ],
      [
        "Figure",
        -10.040858639554031
      ],
      [
        "Ġwrit",
        -10.041047499236695
      ],
      [
        "Ġflour",
        -10.041134386100394
      ],
      [
        "kept",
        -10.042106464204585
      ],
      [
        "with",
        -10.042822516704955
      ],
      [
        "Ġsequence",
        -10.043561328990103
      ],
      [
        "pot",
        -10.043996954266465
      ],
      [
        "Ġcredit",
        -10.044063228719033
      ],
      [
        "Ġancient",
        -10.044346005278385
      ],
      [
        "Ġpilot",
        -10.0443471681885
      ],
      [
        "Ġdrug",
        -10.044507272648342
      ],
      [
        "Ġpregnancy",
        -10.044997488301965
      ],
      [
        "Ġscar",
        -10.04597726825866
      ],
      [
        "lie",
        -10.04785048827796
      ],
      [
        "Ġsports",
        -10.047906535563996
      ],
      [
        "Ġradiation",
        -10.047982341229185
      ],
      [
        "Ġmountain",
        -10.04798253012542
      ],
      [
        "Ġtransition",
        -10.048063601519068
      ],
      [
        "type",
        -10.048357924601172
      ],
      [
        "-friendl",
        -10.048523685495647
      ],
      [
        "ĠStart",
        -10.04892024588193
      ],
      [
        "Ġstrain",
        -10.049005138191012
      ],
      [
        "Ġdefinition",
        -10.051631968914617
      ],
      [
        "Ġrequest",
        -10.05165871445672
      ],
      [
        "ou",
        -10.05199892908618
      ],
      [
        "-m",
        -10.054543386710463
      ],
      [
        "Ġband",
        -10.054701980938503
      ],
      [
        "Ġsit",
        -10.054708206651028
      ],
      [
        "oli",
        -10.055064676508437
      ],
      [
        "ĠStep",
        -10.05517383797238
      ],
      [
        "Ġconclusion",
        -10.055294868750927
      ],
      [
        "Ġcreation",
        -10.056292528102857
      ],
      [
        "last",
        -10.05676092338501
      ],
      [
        "Ġrules",
        -10.05682197458233
      ],
      [
        "Ġim",
        -10.0568842648051
      ],
      [
        "vin",
        -10.05743456374251
      ],
      [
        "Ġdetail",
        -10.058347272150302
      ],
      [
        "Ġcompost",
        -10.05844247865236
      ],
      [
        "Ġborn",
        -10.058491703207851
      ],
      [
        "hel",
        -10.059004152106397
      ],
      [
        "ĠNov",
        -10.059135780677549
      ],
      [
        "Ġbreeding",
        -10.06013723040709
      ],
      [
        "test",
        -10.06027055564048
      ],
      [
        "cap",
        -10.06044554171584
      ],
      [
        "what",
        -10.062021551343832
      ],
      [
        "Ġenzyme",
        -10.06266137652164
      ],
      [
        "Ġtraffic",
        -10.062661386532724
      ],
      [
        "Ġemployee",
        -10.062793473667632
      ],
      [
        "len",
        -10.062939678719548
      ],
      [
        "Ġdef",
        -10.063004233443923
      ],
      [
        "Ġpartner",
        -10.063515223320294
      ],
      [
        "ĠCreat",
        -10.06368892928474
      ],
      [
        "ĠCol",
        -10.065285403532936
      ],
      [
        "ĠChine",
        -10.065918190897936
      ],
      [
        "ĠDis",
        -10.066282840959616
      ],
      [
        "Ġconfirm",
        -10.06636508021985
      ],
      [
        "Ġeventually",
        -10.066369319279133
      ],
      [
        "Ġrelax",
        -10.066385912028784
      ],
      [
        "Ġzone",
        -10.066502330854034
      ],
      [
        "All",
        -10.066698020226765
      ],
      [
        "Ġelectron",
        -10.066991969485926
      ],
      [
        "Ġintegrat",
        -10.067388226793138
      ],
      [
        "Ġbones",
        -10.067710808515304
      ],
      [
        "Ġsurvive",
        -10.069323381419371
      ],
      [
        "Ġphotos",
        -10.06988065611689
      ],
      [
        "Ġvariation",
        -10.070082632522414
      ],
      [
        "Ġthrow",
        -10.070089339502353
      ],
      [
        "Ġpets",
        -10.070266453056911
      ],
      [
        "Ġfindings",
        -10.070347484438544
      ],
      [
        "tern",
        -10.071385404652814
      ],
      [
        "that",
        -10.072328659224471
      ],
      [
        "verse",
        -10.072730749252187
      ],
      [
        "Ġgraph",
        -10.073769184547723
      ],
      [
        "Ġvirtual",
        -10.073813904041408
      ],
      [
        "Ġindoor",
        -10.073824414662027
      ],
      [
        "ĠRiver",
        -10.074143210579637
      ],
      [
        "Ġprepare",
        -10.076358399933174
      ],
      [
        "hop",
        -10.076358796416343
      ],
      [
        "Ġmineral",
        -10.07688373297665
      ],
      [
        "Com",
        -10.077029443500855
      ],
      [
        "position",
        -10.077507098802862
      ],
      [
        "Ġlibrar",
        -10.077565396731348
      ],
      [
        "Ġattend",
        -10.07771384022886
      ],
      [
        "Ġpercentage",
        -10.078533245463063
      ],
      [
        "ership",
        -10.079184251781385
      ],
      [
        "Ġsounds",
        -10.079902221264156
      ],
      [
        "/or",
        -10.080339781197132
      ],
      [
        "cro",
        -10.080587226100397
      ],
      [
        "net",
        -10.081131087973745
      ],
      [
        "Ġspa",
        -10.081202861293296
      ],
      [
        "Ġhospital",
        -10.08131861762229
      ],
      [
        "-quality",
        -10.081318640564668
      ],
      [
        "Ġcontinuous",
        -10.081558362046636
      ],
      [
        "Ġexcessive",
        -10.08177458231281
      ],
      [
        "Po",
        -10.082380234542551
      ],
      [
        "pit",
        -10.08247974049652
      ],
      [
        "Ġfa",
        -10.083055200322594
      ],
      [
        "Ġnice",
        -10.083974850526973
      ],
      [
        "cat",
        -10.084079039989742
      ],
      [
        "Ġnutrition",
        -10.084863228033154
      ],
      [
        "some",
        -10.085082825823758
      ],
      [
        "Ġsnake",
        -10.085100609382584
      ],
      [
        "rum",
        -10.085468862962092
      ],
      [
        "ĠLED",
        -10.08551834867964
      ],
      [
        "Ġcomput",
        -10.085582390979756
      ],
      [
        "Ġoperat",
        -10.085663951803156
      ],
      [
        "mine",
        -10.08638839242049
      ],
      [
        "Ġowners",
        -10.086530122272734
      ],
      [
        "rry",
        -10.08661246204652
      ],
      [
        "ĠIndian",
        -10.086730325257175
      ],
      [
        "ĠSept",
        -10.086914127064876
      ],
      [
        "ĠDa",
        -10.08768540664401
      ],
      [
        "ĠCat",
        -10.087703603943462
      ],
      [
        "Ġproduc",
        -10.088692520867056
      ],
      [
        "Ġcreature",
        -10.08960916318238
      ],
      [
        "Ġbusinesses",
        -10.090408303817078
      ],
      [
        "ĠLife",
        -10.091734952844964
      ],
      [
        "Ġcalci",
        -10.09188445710262
      ],
      [
        "Ġnumerou",
        -10.092682387705151
      ],
      [
        "Ġcheese",
        -10.092688813848348
      ],
      [
        "Ġgather",
        -10.092898494474907
      ],
      [
        "Ġprovider",
        -10.094079982130395
      ],
      [
        "MS",
        -10.094292374435152
      ],
      [
        "Ġplent",
        -10.094395602674858
      ],
      [
        "expected",
        -10.095279781362809
      ],
      [
        "iel",
        -10.09589713453732
      ],
      [
        "cho",
        -10.096378857125869
      ],
      [
        "Ġemergenc",
        -10.09647105561102
      ],
      [
        "Ġclimb",
        -10.096499159163711
      ],
      [
        "Ġegg",
        -10.096687231684934
      ],
      [
        "Ġfly",
        -10.098449658277175
      ],
      [
        "Ġbath",
        -10.09855454030153
      ],
      [
        "Ġquantit",
        -10.099984776867338
      ],
      [
        "Ġwhi",
        -10.10015463503617
      ],
      [
        "ĠGe",
        -10.100217038212396
      ],
      [
        "Ġsouth",
        -10.100320304168696
      ],
      [
        "Ġmorning",
        -10.100331339910223
      ],
      [
        "ĠYork",
        -10.100334886849533
      ],
      [
        "Ġafford",
        -10.100342578820612
      ],
      [
        "Ġreduction",
        -10.100697284486294
      ],
      [
        "Ġpolic",
        -10.100729641751798
      ],
      [
        "TH",
        -10.100844612236036
      ],
      [
        "mas",
        -10.101250685445187
      ],
      [
        "Ġformation",
        -10.101813791749432
      ],
      [
        "Ġowner",
        -10.102690655985707
      ],
      [
        "brough",
        -10.103223196323771
      ],
      [
        "ĠWi",
        -10.10336251898926
      ],
      [
        "Ġfi",
        -10.103586047291994
      ],
      [
        "Ġsupplement",
        -10.104176722826995
      ],
      [
        "Ġcomposition",
        -10.104231932734882
      ],
      [
        "ĠSun",
        -10.104588128145531
      ],
      [
        "Ġlens",
        -10.104742205697791
      ],
      [
        "Ġfoundation",
        -10.10482701924012
      ],
      [
        "ĠSan",
        -10.10616723420572
      ],
      [
        "RA",
        -10.106492674108054
      ],
      [
        "Ġherb",
        -10.107189126176316
      ],
      [
        "Mo",
        -10.107429248660656
      ],
      [
        "Ġlock",
        -10.107786142329438
      ],
      [
        "Ġoffering",
        -10.1080319108417
      ],
      [
        "illa",
        -10.10865421834339
      ],
      [
        "Ġassessment",
        -10.108747372160538
      ],
      [
        "ĠHave",
        -10.108751164885051
      ],
      [
        "Ġlatest",
        -10.108903287572671
      ],
      [
        "Ġassume",
        -10.109036224779071
      ],
      [
        "igr",
        -10.109510888469618
      ],
      [
        "Ġchip",
        -10.109827931326416
      ],
      [
        "Ġengineer",
        -10.11020009156058
      ],
      [
        "Ġmechanical",
        -10.1106484833278
      ],
      [
        "comm",
        -10.112299263264932
      ],
      [
        "ĠJohn",
        -10.113581019946476
      ],
      [
        "Ġassist",
        -10.113629712868306
      ],
      [
        "Ġexpression",
        -10.113863315583158
      ],
      [
        "Ġsheet",
        -10.113923512453988
      ],
      [
        "ID",
        -10.114110864915776
      ],
      [
        "ories",
        -10.11535803848784
      ],
      [
        "Ġlab",
        -10.115436425543038
      ],
      [
        "Ġawarenes",
        -10.115591677413518
      ],
      [
        "Ġsport",
        -10.11562618138366
      ],
      [
        "Ġobvious",
        -10.11582378341305
      ],
      [
        "Ġworry",
        -10.116308795813683
      ],
      [
        "?\"",
        -10.116778824164417
      ],
      [
        "Ġski",
        -10.117099120919567
      ],
      [
        "ĠDog",
        -10.117194785171773
      ],
      [
        "ĠJul",
        -10.117414950673124
      ],
      [
        "head",
        -10.117481754419035
      ],
      [
        "path",
        -10.118500072175678
      ],
      [
        "Ġillness",
        -10.119774915218446
      ],
      [
        "cla",
        -10.120204241763751
      ],
      [
        "Ġclasse",
        -10.120219936819716
      ],
      [
        "Ġmission",
        -10.120991702817143
      ],
      [
        "print",
        -10.12150701101881
      ],
      [
        "Ġnation",
        -10.121815824115544
      ],
      [
        "ĠGreat",
        -10.123236948347728
      ],
      [
        "Ġhormone",
        -10.12363257410896
      ],
      [
        "ĠService",
        -10.12363259757856
      ],
      [
        "Ġdedicat",
        -10.1236579048396
      ],
      [
        "SP",
        -10.123685975440448
      ],
      [
        "Source",
        -10.123710847672486
      ],
      [
        "Ġchalleng",
        -10.123994877787982
      ],
      [
        "Ġinteract",
        -10.125524425849152
      ],
      [
        "Ġcraft",
        -10.125709341820771
      ],
      [
        "US",
        -10.126238419761798
      ],
      [
        "Ġraw",
        -10.126502814424398
      ],
      [
        "Conclusion",
        -10.12756957271105
      ],
      [
        "Ġjump",
        -10.127581629584531
      ],
      [
        "Januar",
        -10.127592713141729
      ],
      [
        "Ġwhose",
        -10.128087562130547
      ],
      [
        "Ġconsume",
        -10.12906179448327
      ],
      [
        "vol",
        -10.129426892297218
      ],
      [
        "Ġchanged",
        -10.13048440419221
      ],
      [
        "Ġmeeting",
        -10.131202987714476
      ],
      [
        "Ġencounter",
        -10.131522239462758
      ],
      [
        "Â·",
        -10.131538137914143
      ],
      [
        "ĠAsia",
        -10.131721256979596
      ],
      [
        "aci",
        -10.132146087444069
      ],
      [
        "Ġregulation",
        -10.132272031026408
      ],
      [
        "Are",
        -10.132276666120555
      ],
      [
        "Ġprofessionals",
        -10.132604244523788
      ],
      [
        "Ġdivide",
        -10.133214969086564
      ],
      [
        "Ġweed",
        -10.133585335182277
      ],
      [
        "ĠWell",
        -10.133880215558312
      ],
      [
        "Ġph",
        -10.134076261313364
      ],
      [
        "Ġremote",
        -10.135490417451742
      ],
      [
        "Ġinnovation",
        -10.135490521998676
      ],
      [
        "ĠCanada",
        -10.135490907768377
      ],
      [
        "je",
        -10.135569487231262
      ],
      [
        "Ġsentence",
        -10.135667375027491
      ],
      [
        "Ġplug",
        -10.135852341346078
      ],
      [
        "ĠTE",
        -10.135956260939436
      ],
      [
        "ĠGod",
        -10.136182401166366
      ],
      [
        "Ġstorie",
        -10.137013981792425
      ],
      [
        "long",
        -10.138017602148192
      ],
      [
        "jo",
        -10.13911457605439
      ],
      [
        "|",
        -10.139457047806069
      ],
      [
        "Ġbreast",
        -10.139476056619335
      ],
      [
        "Ġimplant",
        -10.139510768093878
      ],
      [
        "Ġtrail",
        -10.139517004845056
      ],
      [
        "Ġmistake",
        -10.139556019787149
      ],
      [
        "acc",
        -10.140632354711506
      ],
      [
        "Ġpadd",
        -10.14121806919908
      ],
      [
        "hildren",
        -10.14122891753033
      ],
      [
        "uk",
        -10.141300153063415
      ],
      [
        "Ġflex",
        -10.141711284656736
      ],
      [
        "ĠKeep",
        -10.141939777895969
      ],
      [
        "Ġalter",
        -10.142884376104124
      ],
      [
        "point",
        -10.142889572455974
      ],
      [
        "Ġzero",
        -10.14347823133784
      ],
      [
        "Ġshar",
        -10.14397959368632
      ],
      [
        "Ġgum",
        -10.14428337198292
      ],
      [
        "ĠSch",
        -10.144415060895897
      ],
      [
        "Ġearlier",
        -10.144437840319789
      ],
      [
        "Ġworked",
        -10.14512648891787
      ],
      [
        "Ġplane",
        -10.145760346460882
      ],
      [
        "rat",
        -10.147447144148472
      ],
      [
        "ĠType",
        -10.147593618027962
      ],
      [
        "mic",
        -10.148120745231072
      ],
      [
        "Ġinvestment",
        -10.148127780606467
      ],
      [
        "Ġreplacement",
        -10.14833601096787
      ],
      [
        "Ġdish",
        -10.149119983205058
      ],
      [
        "Ġtoxic",
        -10.14933036581821
      ],
      [
        "ĠDoes",
        -10.150283899246254
      ],
      [
        "Ġexplor",
        -10.150318535180704
      ],
      [
        "MP",
        -10.150801631425743
      ],
      [
        "Ġsharp",
        -10.151370570847025
      ],
      [
        "Ġdepression",
        -10.151825709117857
      ],
      [
        "Ġmanual",
        -10.151922735043344
      ],
      [
        "Ġtrend",
        -10.152943992736596
      ],
      [
        "Ġreliabl",
        -10.152986067159068
      ],
      [
        "Ġchoos",
        -10.153253330517432
      ],
      [
        "Ġtall",
        -10.154614440049762
      ],
      [
        "ration",
        -10.15541219039843
      ],
      [
        "Ġhundred",
        -10.155571374649366
      ],
      [
        "Ġbottle",
        -10.1555721517052
      ],
      [
        "Ġflood",
        -10.155572644732242
      ],
      [
        "Ġinternet",
        -10.1556728779033
      ],
      [
        "Hi",
        -10.155759463389444
      ],
      [
        "Ġpara",
        -10.155959577621136
      ],
      [
        "Ġstable",
        -10.156003531759636
      ],
      [
        "Str",
        -10.156020819395776
      ],
      [
        "mount",
        -10.156624410636512
      ],
      [
        "Ġnode",
        -10.157075106819548
      ],
      [
        "right",
        -10.157328634815684
      ],
      [
        "ura",
        -10.158094205328185
      ],
      [
        "Many",
        -10.15813571016153
      ],
      [
        "Ġeliminate",
        -10.158291222779766
      ],
      [
        "Ġsta",
        -10.159533104414976
      ],
      [
        "Ġultimate",
        -10.159636424382024
      ],
      [
        "Ġclassroom",
        -10.159717324630844
      ],
      [
        "Ġspray",
        -10.159842174989976
      ],
      [
        "Ġpreference",
        -10.159928427028142
      ],
      [
        "sel",
        -10.160038094228533
      ],
      [
        "Ġemotional",
        -10.160041137890437
      ],
      [
        "Ġeight",
        -10.160389388080098
      ],
      [
        "Ġobservation",
        -10.160420880249632
      ],
      [
        "cra",
        -10.160777011407353
      ],
      [
        "Ġinfect",
        -10.16185994471424
      ],
      [
        "Your",
        -10.162000152677177
      ],
      [
        "which",
        -10.162223178188336
      ],
      [
        "mate",
        -10.16284146037438
      ],
      [
        "Ġtumor",
        -10.163725106696214
      ],
      [
        "Ð¾",
        -10.163727601976031
      ],
      [
        "Ġfirm",
        -10.163728797396285
      ],
      [
        "ĠFurther",
        -10.163874008529046
      ],
      [
        "Ġadvis",
        -10.163909808582696
      ],
      [
        "lies",
        -10.16413583676674
      ],
      [
        "Ġroute",
        -10.164401783104628
      ],
      [
        "Ġagent",
        -10.164519843471162
      ],
      [
        "ĠTime",
        -10.164832448769658
      ],
      [
        "Ġsong",
        -10.165267733564493
      ],
      [
        "DO",
        -10.16635665541576
      ],
      [
        "Ġadvance",
        -10.166756428956049
      ],
      [
        "Ġworse",
        -10.167442748264676
      ],
      [
        "Ex",
        -10.167581222628504
      ],
      [
        "Ġchronic",
        -10.167816493512964
      ],
      [
        "Ġdensity",
        -10.16794428440486
      ],
      [
        "Ġaircraft",
        -10.168008313469365
      ],
      [
        "Ġpen",
        -10.169103303361844
      ],
      [
        "met",
        -10.169613749009848
      ],
      [
        "q",
        -10.169626837728424
      ],
      [
        "Ġsensitive",
        -10.169898670291794
      ],
      [
        "hen",
        -10.170318235845365
      ],
      [
        "mail",
        -10.170827949926132
      ],
      [
        "Most",
        -10.171157672617964
      ],
      [
        "Ġisland",
        -10.171240119267916
      ],
      [
        "Ġlift",
        -10.171631313415473
      ],
      [
        "Ġcheap",
        -10.1719433274661
      ],
      [
        "acific",
        -10.171990841344536
      ],
      [
        "rig",
        -10.172213453676177
      ],
      [
        "Ġpop",
        -10.172908377840136
      ],
      [
        "ĠMon",
        -10.173792475057898
      ],
      [
        "ĠDu",
        -10.17385077002082
      ],
      [
        "Opt",
        -10.174026683426431
      ],
      [
        "ĠCare",
        -10.174140213321396
      ],
      [
        "rio",
        -10.174180706780753
      ],
      [
        "Ġref",
        -10.174537580814215
      ],
      [
        "Ġleader",
        -10.17513018926424
      ],
      [
        "script",
        -10.176061009451187
      ],
      [
        "ĠGarden",
        -10.17610037107851
      ],
      [
        "Ġmelt",
        -10.176390145851215
      ],
      [
        "put",
        -10.176632982912531
      ],
      [
        "ĠHu",
        -10.17677664685456
      ],
      [
        "Ġdetermined",
        -10.1769245322092
      ],
      [
        "Ġtick",
        -10.177329919323054
      ],
      [
        "Ġsaying",
        -10.177903905471345
      ],
      [
        "ĠCity",
        -10.177911337436743
      ],
      [
        "Ġdetailed",
        -10.178187231299258
      ],
      [
        "Yes",
        -10.178212365069122
      ],
      [
        "tely",
        -10.178641459993392
      ],
      [
        "cha",
        -10.178839351151028
      ],
      [
        "ĠAm",
        -10.17961052474578
      ],
      [
        "Ġdrugs",
        -10.180034966599305
      ],
      [
        "Ġincredibl",
        -10.180213832560192
      ],
      [
        "Ġsnow",
        -10.180252921887623
      ],
      [
        "Ġexam",
        -10.180436984693827
      ],
      [
        "rain",
        -10.180500814307734
      ],
      [
        "Ġcalm",
        -10.18052561254773
      ],
      [
        "Ġconsideration",
        -10.180530913138265
      ],
      [
        "ĠPri",
        -10.18112875387142
      ],
      [
        "zi",
        -10.18132067402386
      ],
      [
        "Ġinsect",
        -10.181746091359276
      ],
      [
        "Ġfurni",
        -10.182520691249248
      ],
      [
        "Ġreact",
        -10.183443029684716
      ],
      [
        "fully",
        -10.184233606814376
      ],
      [
        "Ðµ",
        -10.184366616232449
      ],
      [
        "Ġregister",
        -10.184379902654312
      ],
      [
        "Ġopinion",
        -10.184380451090057
      ],
      [
        "Ġminimum",
        -10.18438127534321
      ],
      [
        "ĠApp",
        -10.18568663295898
      ],
      [
        "ĠEd",
        -10.186275828498513
      ],
      [
        "resistant",
        -10.187517070887182
      ],
      [
        "ute",
        -10.187523680240233
      ],
      [
        "wood",
        -10.187741807123244
      ],
      [
        "Ġstretch",
        -10.18856420301737
      ],
      [
        "accurac",
        -10.188566548997922
      ],
      [
        "Ġinterface",
        -10.18859817014534
      ],
      [
        "Ġrubber",
        -10.18866102998658
      ],
      [
        "Ġloose",
        -10.18879252118445
      ],
      [
        "Ġinvit",
        -10.189010215986508
      ],
      [
        "Ġseat",
        -10.189149250848937
      ],
      [
        "Ġtea",
        -10.189248331884285
      ],
      [
        "Ġtreated",
        -10.189267518691484
      ],
      [
        "Ġsurvival",
        -10.18929871130597
      ],
      [
        "Ġaccident",
        -10.191547302053795
      ],
      [
        "tail",
        -10.19195658492023
      ],
      [
        "Ġvaccine",
        -10.19276568534318
      ],
      [
        "Ġdestroy",
        -10.19276636664284
      ],
      [
        "Ġexchange",
        -10.19281042064748
      ],
      [
        "ĠSee",
        -10.194243974169932
      ],
      [
        "Ġwish",
        -10.194574024788178
      ],
      [
        "Ġshop",
        -10.194777964893632
      ],
      [
        "Ġpeak",
        -10.195913952333616
      ],
      [
        "Ġrealize",
        -10.19644597924206
      ],
      [
        "definitely",
        -10.19698511635715
      ],
      [
        "Ġequation",
        -10.19698587949705
      ],
      [
        "Ġvertical",
        -10.196987427223767
      ],
      [
        "Ġcrystal",
        -10.19698762495661
      ],
      [
        "Ġlarva",
        -10.19763161507703
      ],
      [
        "Ġcontribut",
        -10.197794905309712
      ],
      [
        "Ġalign",
        -10.19809788876583
      ],
      [
        "Ġcast",
        -10.198677537081394
      ],
      [
        "Ġcapabilit",
        -10.19906790095099
      ],
      [
        "-fi",
        -10.199448840417531
      ],
      [
        "Ġorganize",
        -10.200062125804433
      ],
      [
        "Ġurban",
        -10.201251294968747
      ],
      [
        "Ġhousehold",
        -10.20129061066117
      ],
      [
        "Ġgravit",
        -10.20130311392387
      ],
      [
        "Ġlifestyle",
        -10.201456340733245
      ],
      [
        "Ġwet",
        -10.201857610376834
      ],
      [
        "Ġindustrial",
        -10.20188045190504
      ],
      [
        "Ġstrip",
        -10.20188872461006
      ],
      [
        "ram",
        -10.20306683755371
      ],
      [
        "ĠVa",
        -10.204122219793051
      ],
      [
        "ĠPeople",
        -10.204634062697457
      ],
      [
        "Ġinstrument",
        -10.205477712862226
      ],
      [
        "Ġkitchen",
        -10.20547875819882
      ],
      [
        "Ġminimal",
        -10.20562921596546
      ],
      [
        "Ġdirt",
        -10.205645313614797
      ],
      [
        "Ġdamaged",
        -10.205979976160757
      ],
      [
        "arian",
        -10.20612366038596
      ],
      [
        "ĠLu",
        -10.206764081807602
      ],
      [
        "ĠHol",
        -10.207046724597184
      ],
      [
        "Ġfiles",
        -10.20813874181824
      ],
      [
        "Ġapart",
        -10.208782167253684
      ],
      [
        "eath",
        -10.209353391843624
      ],
      [
        "Ġargument",
        -10.209751204799712
      ],
      [
        "Ġpowder",
        -10.209751753734905
      ],
      [
        "exposed",
        -10.21012049025684
      ],
      [
        "Ġguideline",
        -10.210338559415142
      ],
      [
        "Ġrod",
        -10.211971021617156
      ],
      [
        "Ġminimize",
        -10.21198749995131
      ],
      [
        "Ġforests",
        -10.21239264028593
      ],
      [
        "ook",
        -10.212730134624834
      ],
      [
        "ĠAny",
        -10.213533131786107
      ],
      [
        "Ġconsequence",
        -10.214043048065967
      ],
      [
        "Ġextensive",
        -10.214043065213062
      ],
      [
        "Ġcontrast",
        -10.214043382469368
      ],
      [
        "Ġamazing",
        -10.214043548279625
      ],
      [
        "ĠTexas",
        -10.214043710090689
      ],
      [
        "Ġprogramming",
        -10.214222216883162
      ],
      [
        "Ġcolon",
        -10.214229832754182
      ],
      [
        "RO",
        -10.214727084670145
      ],
      [
        "NO",
        -10.21483220214274
      ],
      [
        "Ġkg",
        -10.21503866800456
      ],
      [
        "Ġbug",
        -10.215229174467517
      ],
      [
        "rising",
        -10.215817128510404
      ],
      [
        "Ġspecialize",
        -10.215929687200129
      ],
      [
        "Ġobjective",
        -10.216803034602536
      ],
      [
        "Ġcontinu",
        -10.217260628908315
      ],
      [
        "Ġbike",
        -10.21740855711682
      ],
      [
        "Ġdecide",
        -10.217638026261804
      ],
      [
        "ĠDesign",
        -10.217743693484948
      ],
      [
        "ĠTake",
        -10.217765006387516
      ],
      [
        "Ġpur",
        -10.218063845825569
      ],
      [
        "Ġfamiliar",
        -10.218353392993976
      ],
      [
        "Ġpesticide",
        -10.218353657902489
      ],
      [
        "Ġuniversit",
        -10.218353768501869
      ],
      [
        "Ġprompt",
        -10.218357143310572
      ],
      [
        "Ġbudget",
        -10.218385496823856
      ],
      [
        "Ġshade",
        -10.218488138386505
      ],
      [
        "Ġsufficient",
        -10.218805682882213
      ],
      [
        "ule",
        -10.218822174708423
      ],
      [
        "proof",
        -10.218984559494125
      ],
      [
        "Ġpainting",
        -10.219368751408126
      ],
      [
        "ette",
        -10.219392348279646
      ],
      [
        "other",
        -10.219953114172874
      ],
      [
        "Ġrot",
        -10.220472021935525
      ],
      [
        "Ġchose",
        -10.220496726400237
      ],
      [
        "Ġgr",
        -10.221090858690598
      ],
      [
        "Ġvehicles",
        -10.221787943276665
      ],
      [
        "Ġleaving",
        -10.222682427215902
      ],
      [
        "Ġguy",
        -10.222690638093216
      ],
      [
        "ĠHome",
        -10.222747346641375
      ],
      [
        "Ġconventional",
        -10.22315021579142
      ],
      [
        "Use",
        -10.223689488651113
      ],
      [
        "ĠHuman",
        -10.223975170239612
      ],
      [
        "Ġvarie",
        -10.22407709256074
      ],
      [
        "Ġsolve",
        -10.22463047198447
      ],
      [
        "ĠPart",
        -10.224863052965382
      ],
      [
        "Ġbat",
        -10.225078166499252
      ],
      [
        "ĠRead",
        -10.225657331220384
      ],
      [
        "ney",
        -10.225701753256338
      ],
      [
        "lay",
        -10.226530542874446
      ],
      [
        "Ġstomach",
        -10.227030242372724
      ],
      [
        "ĠFlorida",
        -10.227030420717634
      ],
      [
        "Ġdress",
        -10.22707677250852
      ],
      [
        "Ġrough",
        -10.227129931737483
      ],
      [
        "mus",
        -10.227261659744054
      ],
      [
        "Ġsamples",
        -10.227955781258215
      ],
      [
        "Ġlawn",
        -10.230503662112504
      ],
      [
        "Ġcorner",
        -10.23052157739752
      ],
      [
        "OL",
        -10.23061523134574
      ],
      [
        "Ġenvironments",
        -10.231304764718868
      ],
      [
        "Ġabsolute",
        -10.231397035541969
      ],
      [
        "Ġappreciate",
        -10.231397035777182
      ],
      [
        "Ġpossess",
        -10.231397350091116
      ],
      [
        "Ġsaving",
        -10.231398642228504
      ],
      [
        "Ġgirl",
        -10.23143586311486
      ],
      [
        "Ġsmell",
        -10.231483923997388
      ],
      [
        "âĢĻt",
        -10.231659250737422
      ],
      [
        "Ġpitch",
        -10.232695459892652
      ],
      [
        "bul",
        -10.234365940065814
      ],
      [
        "CD",
        -10.234495070382591
      ],
      [
        "Ġfailure",
        -10.236084032382465
      ],
      [
        "Ġdownload",
        -10.23627235280967
      ],
      [
        "Ġflu",
        -10.23821044098462
      ],
      [
        "ĠWork",
        -10.239266950629188
      ],
      [
        "Ġsituations",
        -10.239410804704224
      ],
      [
        "Ġprofessor",
        -10.240188286911568
      ],
      [
        "Ġexecut",
        -10.240189064698775
      ],
      [
        "ĠMexic",
        -10.240191782768507
      ],
      [
        "Ġcompetition",
        -10.240231443583877
      ],
      [
        "group",
        -10.241379210390235
      ],
      [
        "ĠTri",
        -10.24260260845022
      ],
      [
        "Me",
        -10.242674323670364
      ],
      [
        "LA",
        -10.24363786314784
      ],
      [
        "Ġplanting",
        -10.243697801357472
      ],
      [
        "ĠAct",
        -10.244130041773415
      ],
      [
        "Ġbees",
        -10.244566818090997
      ],
      [
        "Ġthorough",
        -10.244613098595668
      ],
      [
        "Ġcomparison",
        -10.244618423081326
      ],
      [
        "Ġgreenhouse",
        -10.244725718815449
      ],
      [
        "Ġtrick",
        -10.24533904232146
      ],
      [
        "ĠOut",
        -10.246169892067524
      ],
      [
        "Ġshowing",
        -10.24625139688134
      ],
      [
        "Ġfur",
        -10.247365062484809
      ],
      [
        "Ġlayers",
        -10.2486659513757
      ],
      [
        "Ġfeather",
        -10.249249538147245
      ],
      [
        "Ġintake",
        -10.249766374038336
      ],
      [
        "ancy",
        -10.252037504269202
      ],
      [
        "color",
        -10.253310556901363
      ],
      [
        "ella",
        -10.253361242928214
      ],
      [
        "Ġswim",
        -10.25350305737088
      ],
      [
        "Ġscenario",
        -10.25352179576285
      ],
      [
        "Ġinitiative",
        -10.253521893060086
      ],
      [
        "Ġprecise",
        -10.253521895446008
      ],
      [
        "Ġthread",
        -10.25356030747069
      ],
      [
        "atory",
        -10.253921303969069
      ],
      [
        "Photo",
        -10.253929766263816
      ],
      [
        "Ġbelong",
        -10.254303972997084
      ],
      [
        "ĠBoth",
        -10.254912134515443
      ],
      [
        "According",
        -10.255170937535553
      ],
      [
        "TE",
        -10.255503493810608
      ],
      [
        "EL",
        -10.255863795665228
      ],
      [
        "Ġcomputers",
        -10.255915020967686
      ],
      [
        "za",
        -10.257461325733455
      ],
      [
        "Ġedit",
        -10.25833556967386
      ],
      [
        "play",
        -10.258707597040546
      ],
      [
        "iden",
        -10.259644675479851
      ],
      [
        "More",
        -10.259845441448366
      ],
      [
        "ĠGood",
        -10.260165306152444
      ],
      [
        "ĠMedica",
        -10.260188007304317
      ],
      [
        "Ġcontrolle",
        -10.261964418960384
      ],
      [
        "Ġahead",
        -10.262380941653444
      ],
      [
        "Ġcultivat",
        -10.262510616692715
      ],
      [
        "ĠTur",
        -10.2625701080397
      ],
      [
        "rod",
        -10.262923516247506
      ],
      [
        "Ġcreativ",
        -10.26316225030697
      ],
      [
        "Ġsold",
        -10.263483075696298
      ],
      [
        "ĠGet",
        -10.26353967610003
      ],
      [
        "ï¿½ï¿½",
        -10.265036936608643
      ],
      [
        "-time",
        -10.265452916293146
      ],
      [
        "from",
        -10.266125140432074
      ],
      [
        "RT",
        -10.26651081473916
      ],
      [
        "Ġinform",
        -10.266562113702443
      ],
      [
        "Ġtemp",
        -10.26695927541758
      ],
      [
        "Ġantenna",
        -10.26703579144634
      ],
      [
        "Ġtrace",
        -10.26743399882782
      ],
      [
        "scope",
        -10.267508622167847
      ],
      [
        "rush",
        -10.267549043736302
      ],
      [
        "Ġcalories",
        -10.26788887697317
      ],
      [
        "Ġtown",
        -10.268324226238748
      ],
      [
        "Su",
        -10.26909110792813
      ],
      [
        "Ġformula",
        -10.269670576233455
      ],
      [
        "Ġwings",
        -10.2713138366076
      ],
      [
        "Ġ...Ċ",
        -10.271358762621787
      ],
      [
        "Ġreward",
        -10.271758962527668
      ],
      [
        "ĠMal",
        -10.271812791385509
      ],
      [
        "ĠJune",
        -10.271859732823934
      ],
      [
        "ĠConsider",
        -10.27201592277329
      ],
      [
        "gal",
        -10.27232392680546
      ],
      [
        "ula",
        -10.272496384298568
      ],
      [
        "ĠThu",
        -10.273131846788075
      ],
      [
        "ĠChe",
        -10.273199043278671
      ],
      [
        "erial",
        -10.273505006464422
      ],
      [
        "Ġarch",
        -10.274245435710396
      ],
      [
        "word",
        -10.274300777642985
      ],
      [
        "ĠCom",
        -10.274324436035222
      ],
      [
        "ĠSociet",
        -10.276147212631052
      ],
      [
        "Ġappeal",
        -10.276194378632276
      ],
      [
        "otic",
        -10.276393757354562
      ],
      [
        "ators",
        -10.276801600963667
      ],
      [
        "active",
        -10.277183504168033
      ],
      [
        "phi",
        -10.277594188222835
      ],
      [
        "Ġobserv",
        -10.27827848979697
      ],
      [
        "Ġvisibl",
        -10.279012482976928
      ],
      [
        "CO",
        -10.279062221671095
      ],
      [
        "Ġcustom",
        -10.27939187835248
      ],
      [
        "Ġstroke",
        -10.280736578718574
      ],
      [
        "Ġvalid",
        -10.280745870096805
      ],
      [
        "Ġattribute",
        -10.28150488397947
      ],
      [
        "food",
        -10.28343607786318
      ],
      [
        "Ġmolecular",
        -10.285342607993098
      ],
      [
        "Ġstructural",
        -10.285345147057097
      ],
      [
        "Ġboil",
        -10.285370366306031
      ],
      [
        "Ġorange",
        -10.285602998989129
      ],
      [
        "intended",
        -10.285606593326932
      ],
      [
        "vic",
        -10.285702385380525
      ],
      [
        "SE",
        -10.287300754947037
      ],
      [
        "bot",
        -10.287787920357346
      ],
      [
        "Ġbite",
        -10.287924817321285
      ],
      [
        "CC",
        -10.28846514311568
      ],
      [
        "mph",
        -10.289817436898751
      ],
      [
        "Ġacademic",
        -10.289972252669523
      ],
      [
        "Ġcopy",
        -10.290016483589852
      ],
      [
        "Ġimagine",
        -10.290087505314418
      ],
      [
        "Ġtear",
        -10.290227329612804
      ],
      [
        "Ġpond",
        -10.290386005418249
      ],
      [
        "metric",
        -10.290390472395032
      ],
      [
        "Ġcompos",
        -10.290667831425775
      ],
      [
        "Ġplus",
        -10.290846075764373
      ],
      [
        "NT",
        -10.291364134696371
      ],
      [
        "Ġtrade",
        -10.2914359827464
      ],
      [
        "ought",
[...]
