{
  "version": "1.0",
  "truncation": null,
  "padding": null,
  "added_tokens": [
    {
      "id": 0,
      "content": "<|bos|>",
      "single_word": false,
      "lstrip": false,
      "rstrip": false,
      "normalized": false,
      "special": true
    },
    {
      "id": 1,
      "content": "<|user_start|>",
      "single_word": false,
      "lstrip": false,
      "rstrip": false,
      "normalized": false,
      "special": true
    },
    {
      "id": 2,
      "content": "<|user_end|>",
      "single_word": false,
      "lstrip": false,
      "rstrip": false,
      "normalized": false,
      "special": true
    },
    {
      "id": 3,
      "content": "<|assistant_start|>",
      "single_word": false,
      "lstrip": false,
      "rstrip": false,
      "normalized": false,
      "special": true
    },
    {
      "id": 4,
      "content": "<|assistant_end|>",
      "single_word": false,
      "lstrip": false,
      "rstrip": false,
      "normalized": false,
      "special": true
    },
    {
      "id": 5,
      "content": "<|python_start|>",
      "single_word": false,
      "lstrip": false,
      "rstrip": false,
      "normalized": false,
      "special": true
    },
    {
      "id": 6,
      "content": "<|python_end|>",
      "single_word": false,
      "lstrip": false,
      "rstrip": false,
      "normalized": false,
      "special": true
    },
    {
      "id": 7,
      "content": "<|output_start|>",
      "single_word": false,
      "lstrip": false,
      "rstrip": false,
      "normalized": false,
      "special": true
    },
    {
      "id": 8,
      "content": "<|output_end|>",
      "single_word": false,
      "lstrip": false,
      "rstrip": false,
      "normalized": false,
      "special": true
    },
    {
      "id": 9,
      "content": "<|unk|>",
      "single_word": false,
      "lstrip": false,
      "rstrip": false,
      "normalized": false,
      "special": true
    }
  ],
  "normalizer": null,
  "pre_tokenizer": {
    "type": "Sequence",
    "pretokenizers": [
      {
        "type": "Split",
        "pattern": {
          "Regex": "'(?i:[sdmt]|ll|ve|re)|[^\\r\\n\\p{L}\\p{N}]?+\\p{L}+|\\p{N}{1,2}| ?[^\\s\\p{L}\\p{N}]++[\\r\\n]*|\\s*[\\r\\n]|\\s+(?!\\S)|\\s+"
        },
        "behavior": "Isolated",
        "invert": false
      },
      {
        "type": "ByteLevel",
        "add_prefix_space": false,
        "trim_offsets": true,
        "use_regex": false
      }
    ]
  },
  "post_processor": {
    "type": "TemplateProcessing",
    "single": [
      {
        "Sequence": {
          "id": "A",
          "type_id": 0
        }
      }
    ],
    "pair": [
      {
        "Sequence": {
          "id": "A",
          "type_id": 0
        }
      },
      {
        "Sequence": {
          "id": "B",
          "type_id": 1
        }
      }
    ],
    "special_tokens": {}
  },
  "decoder": null,
  "model": {
    "type": "Unigram",
    "unk_id": 9,
    "vocab": [
      [
        "<|bos|>",
        0.0
      ],
      [
        "<|user_start|>",
        0.0
      ],
      [
        "<|user_end|>",
        0.0
      ],
      [
        "<|assistant_start|>",
        0.0
      ],
      [
        "<|assistant_end|>",
        0.0
      ],
      [
        "<|python_start|>",
        0.0
      ],
      [
        "<|python_end|>",
        0.0
      ],
      [
        "<|output_start|>",
        0.0
      ],
      [
        "<|output_end|>",
        0.0
      ],
      [
        "<|unk|>",
        0.0
      ],
      [
        "s",
        -3.0084423102398414
      ],
      [
        "Ġthe",
        -3.3908361421619073
      ],
      [
        ",",
        -3.441939840334035
      ],
      [
        "Ġ",
        -3.5788149048771825
      ],
      [
        ".",
        -3.731900215369704
      ],
      [
        "Ġand",
        -3.926861028758472
      ],
      [
        "Ġto",
        -3.978664005202708
      ],
      [
        "Ġof",
        -3.983178646884676
      ],
      [
        "Ġa",
        -4.187802142422976
      ],
      [
        "ing",
        -4.2179835549118785
      ],
      [
        "Ġin",
        -4.47749093670908
      ],
      [
        "Ġis",
        -4.62189174674322
      ],
      [
        "d",
        -4.83125050169734
      ],
      [
        "y",
        -4.84129665975116
      ],
      [
        "ed",
        -4.905486258938012
      ],
      [
        "'",
        -4.919437610792409
      ],
      [
        "Ġthat",
        -5.0135002455863145
      ],
      [
        "ly",
        -5.047383735951756
      ],
      [
        "Ġfor",
        -5.053164466056904
      ],
      [
        "0",
        -5.082763186114324
      ],
      [
        "e",
        -5.151388432956811
      ],
      [
        "1",
        -5.173869960179504
      ],
      [
        "Ċ",
        -5.239109396716829
      ],
      [
        "Ġare",
        -5.2490432863936665
      ],
      [
        ":",
        -5.2493635171402016
      ],
      [
        ".Ċ",
        -5.2865589471264105
      ],
      [
        ".ĊĊ",
        -5.302750246016645
      ],
      [
        "Ġyou",
        -5.318262302272508
      ],
      [
        "Ġit",
        -5.321802150054891
      ],
      [
        "2",
        -5.34807434988603
      ],
      [
        "Ġwith",
        -5.354838944598013
      ],
      [
        "Ġon",
        -5.355827176250676
      ],
      [
        "Ġbe",
        -5.42360079477076
      ],
      [
        "t",
        -5.452457400741233
      ],
      [
        "Ġcan",
        -5.539725748457471
      ],
      [
        "Ġor",
        -5.543155039267075
      ],
      [
        "Ġas",
        -5.623406309506775
      ],
      [
        "-",
        -5.641105919774494
      ],
      [
        "ĊĊ",
        -5.648923610000642
      ],
      [
        "Ġyour",
        -5.723490833832551
      ],
      [
        "Ġ(",
        -5.7535608022800915
      ],
      [
        "Ġhave",
        -5.8567454884015255
      ],
      [
        "\"",
        -5.891671222455912
      ],
      [
        "Ġfrom",
        -5.901015441316082
      ],
      [
        "ĠThe",
        -5.915203807570061
      ],
      [
        "ĠI",
        -5.917080603129007
      ],
      [
        ")",
        -5.95721955544502
      ],
      [
        "a",
        -5.9643050149760715
      ],
      [
        "Ġby",
        -5.992433982993779
      ],
      [
        "Ġan",
        -6.005443906348207
      ],
      [
        "3",
        -6.03014450488063
      ],
      [
        "Ġthis",
        -6.034534385788444
      ],
      [
        "5",
        -6.088673592135045
      ],
      [
        "Ġnot",
        -6.095108874556505
      ],
      [
        "?",
        -6.099554082590316
      ],
      [
        "Ġat",
        -6.157637904418436
      ],
      [
        "Ġwill",
        -6.190480118680288
      ],
      [
        "4",
        -6.2086244336151815
      ],
      [
        "Ġtheir",
        -6.224639126795903
      ],
      [
        "Ġmore",
        -6.327753357641383
      ],
      [
        "9",
        -6.345921509554254
      ],
      [
        "Ġthey",
        -6.359521032008306
      ],
      [
        "Ġwas",
        -6.364395492278712
      ],
      [
        "The",
        -6.405639368652638
      ],
      [
        "r",
        -6.414832667713979
      ],
      [
        "n",
        -6.421874879187554
      ],
      [
        "6",
        -6.473257931656157
      ],
      [
        "Ġbut",
        -6.476812829431681
      ],
      [
        "Ġwe",
        -6.483554149709461
      ],
      [
        "Ġhas",
        -6.489036381319718
      ],
      [
        "Ġwhich",
        -6.50438057588358
      ],
      [
        "8",
        -6.528291670029219
      ],
      [
        "ies",
        -6.545440642113778
      ],
      [
        "on",
        -6.548226134374675
      ],
      [
        "Ġother",
        -6.565468894501517
      ],
      [
        "Ġalso",
        -6.59966367481548
      ],
      [
        "Ġone",
        -6.600891179741049
      ],
      [
        "Question",
        -6.607825871700667
      ],
      [
        "7",
        -6.623561022318178
      ],
      [
        "ĠAnswer",
        -6.625166428164222
      ],
      [
        "Ġall",
        -6.664699866537251
      ],
      [
        "Ġabout",
        -6.6780590902303185
      ],
      [
        "Ġwhen",
        -6.712883776668958
      ],
      [
        "Ġdo",
        -6.740226974329747
      ],
      [
        "ĠIt",
        -6.7440499919833155
      ],
      [
        "Ġuse",
        -6.766287199812284
      ],
      [
        "Ġtime",
        -6.776350800456553
      ],
      [
        "Ġif",
        -6.777546715393257
      ],
      [
        "Ġthem",
        -6.778645071681364
      ],
      [
        "Ġinto",
        -6.792947563715263
      ],
      [
        "Ġlike",
        -6.798288023213681
      ],
      [
        "ĠA",
        -6.804119486900733
      ],
      [
        "Ġhow",
        -6.836550970332256
      ],
      [
        "Ġneed",
        -6.839551529692935
      ],
      [
        "Ġup",
        -6.840463698726287
      ],
      [
        "ĠThis",
        -6.844529061842682
      ],
      [
        "Ġso",
        -6.848557161200812
      ],
      [
        "Ġmay",
        -6.851985493591002
      ],
      [
        "Ġsome",
        -6.852158304934955
      ],
      [
        "Ġout",
        -6.905079725524985
      ],
      [
        "A",
        -6.914621338934587
      ],
      [
        "ĠWhat",
        -6.91944342702503
      ],
      [
        "Ġthan",
        -6.9239844220291555
      ],
      [
        "Ġthere",
        -6.94086600898725
      ],
      [
        "Ġthese",
        -6.953937164449195
      ],
      [
        "i",
        -6.96142474777889
      ],
      [
        "Ġany",
        -6.978426713692041
      ],
      [
        "Ġwhat",
        -6.986147021743076
      ],
      [
        "Ġused",
        -7.014034326487359
      ],
      [
        "Ġwater",
        -7.0153916800393326
      ],
      [
        "Ġour",
        -7.042254663866009
      ],
      [
        "Ġmake",
        -7.0495270946031106
      ],
      [
        "o",
        -7.069210039348535
      ],
      [
        "m",
        -7.071485123336874
      ],
      [
        "If",
        -7.080542995631777
      ],
      [
        "Ġwere",
        -7.080549216926276
      ],
      [
        "Ġmost",
        -7.109578263839179
      ],
      [
        "Ġhelp",
        -7.114362710095888
      ],
      [
        "Ġsuch",
        -7.1285542700648925
      ],
      [
        "ĠIn",
        -7.139837745268066
      ],
      [
        "Ġbeen",
        -7.144757466474376
      ],
      [
        "Ġits",
        -7.153129907485564
      ],
      [
        "Ġwould",
        -7.173784577708423
      ],
      [
        "Ġpeople",
        -7.1741714662204785
      ],
      [
        "Ġnew",
        -7.174837413008207
      ],
      [
        "Ġwho",
        -7.175382187200302
      ],
      [
        "er",
        -7.181434033418165
      ],
      [
        "Ġshould",
        -7.189332641867066
      ],
      [
        "Ġget",
        -7.192801973988576
      ],
      [
        "al",
        -7.2171317260702015
      ],
      [
        "re",
        -7.22795840027678
      ],
      [
        "Ġjust",
        -7.248777817555725
      ],
      [
        "Ġhigh",
        -7.250166822586529
      ],
      [
        "able",
        -7.251084873933509
      ],
      [
        "Ġmany",
        -7.258600466778722
      ],
      [
        "ity",
        -7.286618470036331
      ],
      [
        "Ġwell",
        -7.294589939707034
      ],
      [
        "Ġtwo",
        -7.309771653682628
      ],
      [
        "Ġplant",
        -7.31925589508627
      ],
      [
        "Ġover",
        -7.32038444719009
      ],
      [
        ";",
        -7.323046795138183
      ],
      [
        "Ġwork",
        -7.325430117463263
      ],
      [
        "/",
        -7.326583954155557
      ],
      [
        "Ġbetween",
        -7.332554523410783
      ],
      [
        "c",
        -7.33418862766732
      ],
      [
        "I",
        -7.342526366167897
      ],
      [
        "Ġway",
        -7.346553587678889
      ],
      [
        "Ġmy",
        -7.349254680264588
      ],
      [
        "Ġdifferent",
        -7.350374821014247
      ],
      [
        "Ġfirst",
        -7.370919374894518
      ],
      [
        "?Ċ",
        -7.378655480461598
      ],
      [
        "Ġno",
        -7.405391937383303
      ],
      [
        "Ġthrough",
        -7.414219228542816
      ],
      [
        "Ġwhere",
        -7.419944270257973
      ],
      [
        "Ġprovide",
        -7.420838384972008
      ],
      [
        "Ġusing",
        -7.421431477882368
      ],
      [
        "ever",
        -7.428623371103118
      ],
      [
        "Ġday",
        -7.434388706419716
      ],
      [
        "!",
        -7.438514292045326
      ],
      [
        "Ġbecaus",
        -7.481312194958429
      ],
      [
        "Ġlook",
        -7.483055352151187
      ],
      [
        "Ġcould",
        -7.493109052907172
      ],
      [
        "Ġeven",
        -7.505828046472143
      ],
      [
        "Ġlong",
        -7.506195331303374
      ],
      [
        "Ġhealth",
        -7.5168232097412755
      ],
      [
        "Ġhad",
        -7.517422272777223
      ],
      [
        "Ġvery",
        -7.535498347013029
      ],
      [
        "l",
        -7.540474760362743
      ],
      [
        "Ġeach",
        -7.5473520918513906
      ],
      [
        "Ġsystem",
        -7.549177841156732
      ],
      [
        "Ġknow",
        -7.562036280985774
      ],
      [
        "ĠThey",
        -7.563450130653246
      ],
      [
        "Ġevery",
        -7.570918506575438
      ],
      [
        "ĠHow",
        -7.573348651497563
      ],
      [
        "?ĊĊ",
        -7.57629310374133
      ],
      [
        "is",
        -7.576548398165086
      ],
      [
        "Ġmuch",
        -7.588214850273194
      ],
      [
        "Ġhe",
        -7.590231532431517
      ],
      [
        "ĠâĢĵ",
        -7.602230947522261
      ],
      [
        "Ġfood",
        -7.604647425832275
      ],
      [
        "Ġdoes",
        -7.608471218367071
      ],
      [
        "Ġthen",
        -7.609995622159042
      ],
      [
        "Ġgood",
        -7.616570360551435
      ],
      [
        "Ġimportant",
        -7.624065670178779
      ],
      [
        "ĠC",
        -7.626180336403377
      ],
      [
        "Ġtake",
        -7.631242610939296
      ],
      [
        ").",
        -7.636849792040605
      ],
      [
        "Ġwhile",
        -7.638454795131679
      ],
      [
        "ĠYou",
        -7.640563927797913
      ],
      [
        "Ġdon",
        -7.641570884448421
      ],
      [
        "In",
        -7.644304065851352
      ],
      [
        "Ġsee",
        -7.646668028180073
      ],
      [
        "Ġhis",
        -7.648988863782948
      ],
      [
        "Ġlarge",
        -7.66319234129689
      ],
      [
        "Ġstart",
        -7.664644045427154
      ],
      [
        "Ġafter",
        -7.66527174683619
      ],
      [
        "Ġbefore",
        -7.66725256736572
      ],
      [
        "Ġyears",
        -7.673144702903373
      ],
      [
        "Ġlevel",
        -7.6876923879449794
      ],
      [
        "Ġhuman",
        -7.698935045348395
      ],
      [
        "Ġworld",
        -7.708610203369412
      ],
      [
        "(",
        -7.708764169583356
      ],
      [
        "ve",
        -7.714339923812305
      ],
      [
        "Ġarea",
        -7.715742321944688
      ],
      [
        "Ġcause",
        -7.715767358487936
      ],
      [
        "Ġthing",
        -7.718228634442086
      ],
      [
        "Ġaround",
        -7.729368090441989
      ],
      [
        "Ġsame",
        -7.734117337220813
      ],
      [
        "Ġcome",
        -7.744380134531325
      ],
      [
        "Ġlife",
        -7.746356050783685
      ],
      [
        "Ġwant",
        -7.74647015234855
      ],
      [
        "Ġlight",
        -7.753720659208323
      ],
      [
        "Ġboth",
        -7.75573068373019
      ],
      [
        "ness",
        -7.756567948062611
      ],
      [
        "Ġdata",
        -7.7573516705602925
      ],
      [
        "Ġfollow",
        -7.760346885220178
      ],
      [
        "Ġduring",
        -7.764124728229709
      ],
      [
        "Ġbeing",
        -7.777401404480266
      ],
      [
        "Ġthink",
        -7.79320551462903
      ],
      [
        "Ġmaterial",
        -7.795622746783339
      ],
      [
        "Ġright",
        -7.796715640354968
      ],
      [
        "ic",
        -7.805389249215159
      ],
      [
        "Ġdown",
        -7.8059412399611645
      ],
      [
        "What",
        -7.80657373088795
      ],
      [
        "h",
        -7.81599252793374
      ],
      [
        "ĠB",
        -7.818374016441128
      ],
      [
        "Ġbody",
        -7.818498263092941
      ],
      [
        "Ġpart",
        -7.819481865758299
      ],
      [
        "us",
        -7.819960354129599
      ],
      [
        "Ġthose",
        -7.820798406248575
      ],
      [
        "ĠS",
        -7.825897743700652
      ],
      [
        "in",
        -7.829655259275049
      ],
      [
        "Ġinclude",
        -7.831355748936127
      ],
      [
        "Ġback",
        -7.836240506704196
      ],
      [
        "),",
        -7.838547861503292
      ],
      [
        "Ġoften",
        -7.840168903362575
      ],
      [
        "Ġfound",
        -7.840799215082648
      ],
      [
        "Ġfind",
        -7.844813043086239
      ],
      [
        "and",
        -7.848425769742555
      ],
      [
        "Ġsmall",
        -7.848617436057334
      ],
      [
        "Ġenergy",
        -7.850057677357157
      ],
      [
        "Ġprocess",
        -7.85683696204467
      ],
      [
        "Ġkeep",
        -7.863433530468682
      ],
      [
        "Ġbest",
        -7.86476070848475
      ],
      [
        "Ġmade",
        -7.869326347846368
      ],
      [
        "%",
        -7.876204974359626
      ],
      [
        "S",
        -7.883874155951055
      ],
      [
        "Ġshow",
        -7.883992059279185
      ],
      [
        "Ġyear",
        -7.89334467552455
      ],
      [
        "x",
        -7.894232374555032
      ],
      [
        "Ġcommon",
        -7.89681296364985
      ],
      [
        "Ġincrease",
        -7.897188225611518
      ],
      [
        "Ġdesign",
        -7.900365794895306
      ],
      [
        "Ġgreat",
        -7.903350473406741
      ],
      [
        "Ġchange",
        -7.912185525773659
      ],
      [
        "Ġrequire",
        -7.913250736756081
      ],
      [
        "ce",
        -7.916339820845515
      ],
      [
        "ĠFor",
        -7.920392018009834
      ],
      [
        "Ġcreate",
        -7.928769405533276
      ],
      [
        "ĠWe",
        -7.93522429001406
      ],
      [
        "This",
        -7.940749498201877
      ],
      [
        "Ġhome",
        -7.942671505469568
      ],
      [
        "Ġinformation",
        -7.943433642967976
      ],
      [
        "How",
        -7.944653360006253
      ],
      [
        "Ġstudents",
        -7.9470410910134355
      ],
      [
        ":Ċ",
        -7.950535119772383
      ],
      [
        "bility",
        -7.95333329063225
      ],
      [
        "Ġallow",
        -7.961537033940845
      ],
      [
        "âĢĻ",
        -7.961756348358157
      ],
      [
        "Ġnow",
        -7.962690823171341
      ],
      [
        "Ġus",
        -7.963569919750222
      ],
      [
        "Ġtemperature",
        -7.9635752997459806
      ],
      [
        "Ġgrow",
        -7.97322538022676
      ],
      [
        "Ġnumber",
        -7.976685065509148
      ],
      [
        "Ġsaid",
        -7.97813485384742
      ],
      [
        "Ġcondition",
        -7.983124278611919
      ],
      [
        "Ġspecies",
        -7.983485727507233
      ],
      [
        "Ġbetter",
        -7.983710078043757
      ],
      [
        "Ġexperience",
        -7.992359583046397
      ],
      [
        "Ġfew",
        -7.999153156912843
      ],
      [
        "Ġresearch",
        -8.00249269333948
      ],
      [
        "Ġchildren",
        -8.005044448811717
      ],
      [
        "Ġgo",
        -8.005395400327302
      ],
      [
        "Ġbecome",
        -8.009650595852838
      ],
      [
        "Ġoff",
        -8.010701735189262
      ],
      [
        "ĠTo",
        -8.015504625070655
      ],
      [
        "Ġdog",
        -8.01712802780926
      ],
      [
        "Ġexample",
        -8.017717527211143
      ],
      [
        "Ġstudy",
        -8.018744322464759
      ],
      [
        "ll",
        -8.023307474425923
      ],
      [
        "Ġstill",
        -8.024825740805438
      ],
      [
        "ĠThese",
        -8.024826540957939
      ],
      [
        "Ġplace",
        -8.02575555586439
      ],
      [
        "Ġform",
        -8.026072880839218
      ],
      [
        "C",
        -8.026211288668122
      ],
      [
        "Ġinclud",
        -8.027807637748516
      ],
      [
        "Ġair",
        -8.0288641384313
      ],
      [
        "Ġher",
        -8.030442484236264
      ],
      [
        "Ġpotential",
        -8.035108057690845
      ],
      [
        "f",
        -8.041780511803436
      ],
      [
        "Ġsupport",
        -8.043125772796236
      ],
      [
        "Ġown",
        -8.044078949452679
      ],
      [
        "Ġme",
        -8.044372535382573
      ],
      [
        "Ġschool",
        -8.048792011050129
      ],
      [
        "without",
        -8.052030887896215
      ],
      [
        "Ġmethod",
        -8.053027275691516
      ],
      [
        "Ġunder",
        -8.061081576211809
      ],
      [
        "D",
        -8.06157820375867
      ],
      [
        "Ġmight",
        -8.081400064893703
      ],
      [
        "Ġissue",
        -8.081613874802152
      ],
      [
        "Ġlead",
        -8.089837301331205
      ],
      [
        "Ġcar",
        -8.091894769095967
      ],
      [
        "Ġcontrol",
        -8.095741957582396
      ],
      [
        "Ġresult",
        -8.097653308968587
      ],
      [
        "Ġpower",
        -8.098707747987572
      ],
      [
        "Ġgive",
        -8.104200367938933
      ],
      [
        "g",
        -8.104588501701004
      ],
      [
        "It",
        -8.105893140960433
      ],
      [
        "Ġun",
        -8.106469666589984
      ],
      [
        "Ġdisease",
        -8.10813890659151
      ],
      [
        "Ġcase",
        -8.10916471657698
      ],
      [
        "Ġgroup",
        -8.110372344052486
      ],
      [
        "Ġknown",
        -8.11957860725514
      ],
      [
        "Ġmaking",
        -8.127424170533732
      ],
      [
        "Ġthree",
        -8.127983011400556
      ],
      [
        "Ġtoo",
        -8.130402617650219
      ],
      [
        "Ġtype",
        -8.131499152618415
      ],
      [
        "ĠBut",
        -8.13673688152642
      ],
      [
        "Ġset",
        -8.136775592317422
      ],
      [
        "Ġend",
        -8.13917181084869
      ],
      [
        "based",
        -8.141728835295154
      ],
      [
        "the",
        -8.14372940353495
      ],
      [
        "ĠE",
        -8.149268039699495
      ],
      [
        "ation",
        -8.150918868353216
      ],
      [
        "Ġnatural",
        -8.153892071008784
      ],
      [
        "Ġreduce",
        -8.15797957705579
      ],
      [
        "Ġless",
        -8.158787692725799
      ],
      [
        "one",
        -8.164832514478867
      ],
      [
        "Ġrisk",
        -8.168895630318415
      ],
      [
        "Ġwithin",
        -8.170632120159334
      ],
      [
        "Ġmean",
        -8.17604215077236
      ],
      [
        "Ġheat",
        -8.176307092120377
      ],
      [
        "Ġenvironment",
        -8.176400155626066
      ],
      [
        "Ġlot",
        -8.179113836075373
      ],
      [
        "Ġplay",
        -8.183534556384014
      ],
      [
        "Ġmust",
        -8.185170738720558
      ],
      [
        "Ġreally",
        -8.192191650175328
      ],
      [
        "um",
        -8.192205987223975
      ],
      [
        "Ġbenefit",
        -8.199627570781223
      ],
      [
        ":ĊĊ",
        -8.201892902310313
      ],
      [
        "Ġwhy",
        -8.20613035990085
      ],
      [
        "Ġquestion",
        -8.207139029595734
      ],
      [
        "Ġdue",
        -8.207221352487606
      ],
      [
        "Ġpoint",
        -8.208261733381256
      ],
      [
        "Ġacid",
        -8.209569378255566
      ],
      [
        "Ġblood",
        -8.210003847265575
      ],
      [
        "Ġtest",
        -8.212840692106408
      ],
      [
        "Ġprevent",
        -8.213449697990747
      ],
      [
        "Ġmain",
        -8.21356302030571
      ],
      [
        "Ġsoil",
        -8.21776176158815
      ],
      [
        "Ġensure",
        -8.220717712424339
      ],
      [
        "Ġsure",
        -8.225934613634337
      ],
      [
        "Ġcost",
        -8.22914182696092
      ],
      [
        "Ġcolor",
        -8.2298392122322
      ],
      [
        "Ġanother",
        -8.233980360235101
      ],
      [
        "Ġcalled",
        -8.234558070057387
      ],
      [
        "ĠAnd",
        -8.236266600550818
      ],
      [
        "ĠWhen",
        -8.240045973173377
      ],
      [
        "...",
        -8.242114688103275
      ],
      [
        "Ġpossible",
        -8.252471452579963
      ],
      [
        "Ġtry",
        -8.254680779939312
      ],
      [
        "Ġturn",
        -8.255081472609195
      ],
      [
        "Ġcare",
        -8.255254569333285
      ],
      [
        "Ġtree",
        -8.260744228520537
      ],
      [
        "Ġvalue",
        -8.26148482749004
      ],
      [
        "Ġlow",
        -8.267409168939952
      ],
      [
        "Ġindividual",
        -8.274685780081303
      ],
      [
        "Ġrange",
        -8.27511113700034
      ],
      [
        "Ġsomething",
        -8.280901809987377
      ],
      [
        "ance",
        -8.287488190603153
      ],
      [
        "or",
        -8.288252980021293
      ],
      [
        "Ġamount",
        -8.288576620892657
      ],
      [
        "Ġhere",
        -8.294400188187259
      ],
      [
        "Ġalways",
        -8.294702330815461
      ],
      [
        "Ġsource",
        -8.296377333735336
      ],
      [
        "Ġdevelop",
        -8.296995679277067
      ],
      [
        "Ġdid",
        -8.297123183531696
      ],
      [
        "Ġproject",
        -8.300211822394
      ],
      [
        "Ġlearn",
        -8.300271303106744
      ],
      [
        "Ġspecific",
        -8.304385110059156
      ],
      [
        "Ġteam",
        -8.306864402646411
      ],
      [
        "Ġvarious",
        -8.319908441830021
      ],
      [
        "Ġlast",
        -8.32130004961078
      ],
      [
        "ĠSo",
        -8.322690126190293
      ],
      [
        "Ġproblem",
        -8.324589104831226
      ],
      [
        "Ġshe",
        -8.326030917501592
      ],
      [
        "Ġanimals",
        -8.32742166311489
      ],
      [
        "ĠThere",
        -8.331578591604611
      ],
      [
        "Ġspace",
        -8.331721502456084
      ],
      [
        "Ġcontain",
        -8.346175300253147
      ],
      [
        "Ġcurrent",
        -8.34841868699176
      ],
      [
        "Ġadd",
        -8.349176658386945
      ],
      [
        "Ġper",
        -8.353119993888429
      ],
      [
        "ĠP",
        -8.357639493668849
      ],
      [
        "Ġpressure",
        -8.358784273122204
      ],
      [
        "Ġsurface",
        -8.359063712050926
      ],
      [
        "Ġlive",
        -8.360395413889385
      ],
      [
        "Ġpresent",
        -8.363220384877271
      ],
      [
        "Ġdevelopment",
        -8.363394040037265
      ],
      [
        "Ġusual",
        -8.363751923040084
      ],
      [
        "Ġlittle",
        -8.371359148771802
      ],
      [
        "Ġgoing",
        -8.372741205376277
      ],
      [
        "ĠD",
        -8.377166738062675
      ],
      [
        "it",
        -8.378600720122733
      ],
      [
        "Ġfactor",
        -8.381765083287991
      ],
      [
        "Ġline",
        -8.38251460995825
      ],
      [
        "Ġsignificant",
        -8.386301770599946
      ],
      [
        "Ġlearning",
        -8.387944513340083
      ],
      [
        "Ġavailable",
        -8.391763991213463
      ],
      [
        "Ġcells",
        -8.392735675623161
      ],
      [
        "est",
        -8.392782472695398
      ],
      [
        "Ġsecond",
        -8.39399407637444
      ],
      [
        "+",
        -8.395282012251695
      ],
      [
        "ous",
        -8.395299903739375
      ],
      [
        "Ġfish",
        -8.396062876016545
      ],
      [
        "Ġorder",
        -8.3965861793944
      ],
      [
        "less",
        -8.396864262756818
      ],
      [
        "Ġrole",
        -8.402464176520791
      ],
      [
        "an",
        -8.402885783967312
      ],
      [
        "Ġquality",
        -8.404710679714587
      ],
      [
        "Ġname",
        -8.406861501431365
      ],
      [
        "ĠAs",
        -8.413349364115998
      ],
      [
        "Ġopen",
        -8.415177554304218
      ],
      [
        "Ġenough",
        -8.416423603744029
      ],
      [
        "ĠM",
        -8.419347257117462
      ],
      [
        "Ġstate",
        -8.421911253843135
      ],
      [
        "Ġfeel",
        -8.422473582500714
      ],
      [
        "Ġsolution",
        -8.425343801777174
      ],
      [
        "thing",
        -8.428132276214164
      ],
      [
        "Ġessential",
        -8.433178804633929
      ],
      [
        "Ġsize",
        -8.433959095301987
      ],
      [
        "Ġobject",
        -8.437474840416002
      ],
      [
        "Ġgeneral",
        -8.439079042868741
      ],
      [
        ",\"",
        -8.439267383302482
      ],
      [
        "Ġfunction",
        -8.44165863114056
      ],
      [
        "Ġtogether",
        -8.444544807218772
      ],
      [
        "Ġal",
        -8.448206829433774
      ],
      [
        "Ġweek",
        -8.451630955171051
      ],
      [
        "Ġconsider",
        -8.452190565755814
      ],
      [
        "Ġproducts",
        -8.458576560366371
      ],
      [
        "several",
        -8.46223075947173
      ],
      [
        "Ġput",
        -8.464873206934492
      ],
      [
        "Ġimpact",
        -8.467626024601596
      ],
      [
        "Ġunderstand",
        -8.471179934343894
      ],
      [
        "Ġleave",
        -8.472268772418008
      ],
      [
        "Ġaway",
        -8.475809154959432
      ],
      [
        "Ġhappen",
        -8.4762147493117
      ],
      [
        "Ġtext",
        -8.477912231009636
      ],
      [
        "Ġproduce",
        -8.480333970186383
      ],
      [
        "th",
        -8.480638901475476
      ],
      [
        "Ġcertain",
        -8.480643547175239
      ],
      [
        "ĠWhich",
        -8.481552492405195
      ],
      [
        "Ġsay",
        -8.483200018826025
      ],
      [
        "Ġgrowth",
        -8.487065332838533
      ],
      [
        "Ġtechnolog",
        -8.488042719666616
      ],
      [
        "Ġperson",
        -8.491043765078484
      ],
      [
        "Ġproblems",
        -8.492646371084472
      ],
      [
        "Ġdifference",
        -8.492756469488155
      ],
      [
        "Ġlocal",
        -8.494583319962732
      ],
      [
        "Ġterm",
        -8.496319459984868
      ],
      [
        "Ġnear",
        -8.497757259157993
      ],
      [
        "Ġparticular",
        -8.497956156270376
      ],
      [
        "When",
        -8.499420587772498
      ],
      [
        "Ġweight",
        -8.502792363809176
      ],
      [
        "p",
        -8.502802533320148
      ],
      [
        "You",
        -8.504205881454919
      ],
      [
        "Ġtechnique",
        -8.50475279930197
      ],
      [
        "Ġhand",
        -8.505470957389264
      ],
      [
        "Ġmodel",
        -8.506353337330756
      ],
      [
        "Ġimprove",
        -8.506687437449203
      ],
      [
        "Ġnon",
        -8.508456348451464
      ],
      [
        "Ġpractice",
        -8.510425129677753
      ],
      [
        "Ġtypes",
        -8.510466011073742
      ],
      [
        "Ġtop",
        -8.510490444062683
      ],
      [
        "having",
        -8.51082899290898
      ],
      [
        "B",
        -8.513384265246582
      ],
      [
        "Ġpatient",
        -8.51499949797481
      ],
      [
        "b",
        -8.51535203614116
      ],
      [
        "Ġfree",
        -8.520980890879958
      ],
      [
        "Ġoil",
        -8.525701997443255
      ],
      [
        "ĠT",
        -8.5264761855183
      ],
      [
        "Ġgarden",
        -8.527095569559311
      ],
      [
        "Ġdiet",
        -8.527857543679755
      ],
      [
        "ally",
        -8.528236972511337
      ],
      [
        "Ġcourse",
        -8.528733785644999
      ],
      [
        "Ġtreatment",
        -8.530519117761388
      ],
      [
        "Ġside",
        -8.53147615043775
      ],
      [
        "ĠSome",
        -8.53482491005623
      ],
      [
        "Ġage",
        -8.535140619427178
      ],
      [
        "Ġleas",
        -8.537808998852238
      ],
      [
        "Ġdamage",
        -8.538514748227755
      ],
      [
        "Ġhard",
        -8.54172865373837
      ],
      [
        "Ġlet",
        -8.54441010491369
      ],
      [
        "Ġmaintain",
        -8.544741566850995
      ],
      [
        "Ġsystems",
        -8.545569429324457
      ],
      [
        "Ġprogram",
        -8.550337851165407
      ],
      [
        "though",
        -8.557087926630937
      ],
      [
        "Ġprotect",
        -8.557726633890997
      ],
      [
        "ion",
        -8.559521320241554
      ],
      [
        "Ġfocus",
        -8.560470813811843
      ],
      [
        "Ġprotein",
        -8.560505888746015
      ],
      [
        "Ġsince",
        -8.561439659275003
      ],
      [
        "ĠThat",
        -8.567223030656102
      ],
      [
        "Ġuntil",
        -8.567274845454628
      ],
      [
        "Ġresults",
        -8.56856617630333
      ],
      [
        "Ġdirect",
        -8.568892792688892
      ],
      [
        "!Ċ",
        -8.570121724955586
      ],
      [
        "Ġshort",
        -8.570936718156638
      ],
      [
        "Ġphysical",
        -8.572753721294417
      ],
      [
        "Ġalong",
        -8.573046499111186
      ],
      [
        "Ġlove",
        -8.574853268603189
      ],
      [
        "Ġproper",
        -8.574886891860915
      ],
      [
        "Ġkey",
        -8.57702857595777
      ],
      [
        "ĠBy",
        -8.57744154918559
      ],
      [
        "Ġearly",
        -8.578690126606832
      ],
      [
        "Ġfamily",
        -8.580250407741953
      ],
      [
        "Ġ&",
        -8.58100188009606
      ],
      [
        "ĠHe",
        -8.581424003807774
      ],
      [
        "Ġmakes",
        -8.584031744576864
      ],
      [
        "hether",
        -8.584329617503194
      ],
      [
        "Ġnext",
        -8.586225406609618
      ],
      [
        "Ġskin",
        -8.58830394438069
      ],
      [
        "We",
        -8.588671769415228
      ],
      [
        "Ġsafe",
        -8.589751875181138
      ],
      [
        "Ġfull",
        -8.590191397955834
      ],
      [
        "Ġworking",
        -8.592132135487647
      ],
      [
        "Ġremain",
        -8.594640384404617
      ],
      [
        "Ġoffer",
        -8.595109498886256
      ],
      [
        "Ġproduction",
        -8.59724827991438
      ],
      [
        "Ġhigher",
        -8.597522862612685
      ],
      [
        "Ġdogs",
        -8.59942531709165
      ],
      [
        "Ġfield",
        -8.601611538262548
      ],
      [
        "Ġ[",
        -8.603090823035656
      ],
      [
        "There",
        -8.603154603606995
      ],
      [
        "T",
        -8.604480695053644
      ],
      [
        "Ġkind",
        -8.605457794372455
      ],
      [
        "Ġrun",
        -8.607997755054528
      ],
      [
        "Ġsite",
        -8.610513190215562
      ],
      [
        "ĠWith",
        -8.612326354462475
      ],
      [
        "Ġchild",
        -8.616984730864521
      ],
      [
        "Ġbusiness",
        -8.618937374188285
      ],
      [
        "Ġcook",
        -8.62037616114577
      ],
      [
        "Ġsimilar",
        -8.623376234381261
      ],
      [
        "Ġchanges",
        -8.623948096949935
      ],
      [
        "]",
        -8.626988654107489
      ],
      [
        "Ġeasy",
        -8.628166395708845
      ],
      [
        "Ġ$",
        -8.631396493202027
      ],
      [
        "Ġanimal",
        -8.632570821073669
      ],
      [
        "Ġdoesn",
        -8.635240146995113
      ],
      [
        "Ġold",
        -8.636538690387809
      ],
      [
        "Ġ=",
        -8.638084367912352
      ],
      [
        "Ġvariet",
        -8.638436268171741
      ],
      [
        "Ġcell",
        -8.639235277629577
      ],
      [
        "To",
        -8.640327033559139
      ],
      [
        "ĠUniversit",
        -8.640661532781905
      ],
      [
        "Ġmachine",
        -8.642125492643707
      ],
      [
        "Ġeffective",
        -8.64303872486342
      ],
      [
        "Ġlikely",
        -8.643280540598768
      ],
      [
        "Ġavoid",
        -8.643687049327156
      ],
      [
        "Ġcheck",
        -8.643936474499668
      ],
      [
        "Ġbuilding",
        -8.646047545627077
      ],
      [
        "Ġlower",
        -8.648344996215014
      ],
      [
        "Ġcover",
        -8.651222019480317
      ],
      [
        "Ġprofessional",
        -8.651466341309575
      ],
      [
        "Ġseem",
        -8.653311954838177
      ],
      [
        "Ġtraining",
        -8.653952380724995
      ],
      [
        "Ġwide",
        -8.656180526033534
      ],
      [
        "Ġfuel",
        -8.656618790838305
      ],
      [
        "Ġunique",
        -8.659711506419853
      ],
      [
        "ry",
        -8.66412678440094
      ],
      [
        "Ġsimple",
        -8.66829221970372
      ],
      [
        "Ġmarket",
        -8.668391439871787
      ],
      [
        "Ġreal",
        -8.66854463147633
      ],
      [
        "Ġfuture",
        -8.669899782411479
      ],
      [
        "Ġnever",
        -8.671278850286082
      ],
      [
        "Ġactually",
        -8.672265023680888
      ],
      [
        "Ġnecessar",
        -8.673447542984588
      ],
      [
        "le",
        -8.674432848300683
      ],
      [
        "Ġcomponent",
        -8.676494041827702
      ],
      [
        "to",
        -8.678347072778912
      ],
      [
        "Ġacross",
        -8.679623028424142
      ],
      [
        "Ġpopulation",
        -8.680488130475712
      ],
      [
        "Ġpost",
        -8.682063379701301
      ],
      [
        "Ġoccur",
        -8.683031447076349
      ],
      [
        ")Ċ",
        -8.683848399037348
      ],
      [
        "Ġexist",
        -8.684473793033629
      ],
      [
        "age",
        -8.684752878674272
      ],
      [
        "against",
        -8.685729899357781
      ],
      [
        "Ġenvironmental",
        -8.68742389035286
      ],
      [
        "Ġsocial",
        -8.68763291942549
      ],
      [
        "Ġgiven",
        -8.690086770856654
      ],
      [
        "ary",
        -8.691020724724492
      ],
      [
        "Ġsuggest",
        -8.692597110975466
      ],
      [
        "v",
        -8.693607516968633
      ],
      [
        "self",
        -8.69396973242164
      ],
      [
        "Ġespeciall",
        -8.69633790335817
      ],
      [
        "Ġgas",
        -8.696536028954037
      ],
      [
        "Ġface",
        -8.697616719372228
      ],
      [
        "Ġfar",
        -8.698120804436776
      ],
      [
        "Ġdry",
        -8.7003476894965
      ],
      [
        "Ġcat",
        -8.700513620296244
      ],
      [
        "Ġproduct",
        -8.702907411886388
      ],
      [
        "Ġbook",
        -8.703095469308149
      ],
      [
        "ive",
        -8.703657852526526
      ],
      [
        "ĠNew",
        -8.703761359724542
      ],
      [
        "Ġstrong",
        -8.704343625217069
      ],
      [
        "Ġimage",
        -8.706489157488633
      ],
      [
        "Ġdone",
        -8.706989776507488
      ],
      [
        "Ġreason",
        -8.707302132945486
      ],
      [
        "Ġstore",
        -8.707430391199583
      ],
      [
        "Ġcomputer",
        -8.709625084515952
      ],
      [
        "Ġeye",
        -8.710062890571539
      ],
      [
        "Ġheart",
        -8.710549444852955
      ],
      [
        "Ġtreat",
        -8.714156607675577
      ],
      [
        "Ġstep",
        -8.714198591536785
      ],
      [
        "Ġresource",
        -8.71507695038157
      ],
      [
        "Ġfact",
        -8.716644690276574
      ],
      [
        "Ġaffect",
        -8.717558685760146
      ],
      [
        "Ġdepend",
        -8.719800010586138
      ],
      [
        "Ġarticle",
        -8.719914360812647
      ],
      [
        "ĠYour",
        -8.720502957532599
      ],
      [
        "ĠAmerican",
        -8.721388723455043
      ],
      [
        "Ġmillion",
        -8.725873251601119
      ],
      [
        "Ġparts",
        -8.725973305540792
      ],
      [
        "Ġelectric",
        -8.729856339992555
      ],
      [
        "Ġtoday",
        -8.73536244246611
      ],
      [
        "Ġminute",
        -8.736084600794761
      ],
      [
        "Ġleft",
        -8.740571038085179
      ],
      [
        "âĢĶ",
        -8.740755222125983
      ],
      [
        "Ġshare",
        -8.742823797965873
      ],
      [
        "ctivity",
        -8.743341036367196
      ],
      [
        "Ġcall",
        -8.744483662154533
      ],
      [
        "Ġrecommend",
        -8.744669231419113
      ],
      [
        "Ġtimes",
        -8.747337029139539
      ],
      [
        "Ġcarbon",
        -8.750180734454698
      ],
      [
        "Ġspeed",
        -8.750754532758693
      ],
      [
        "Ġregular",
        -8.752048633009132
      ],
      [
        "Ġground",
        -8.754028688380126
      ],
      [
        "Ġcontent",
        -8.754914526488601
      ],
      [
        "Ġaccording",
        -8.754992247984287
      ],
      [
        "Ġdifficult",
        -8.755067004236409
      ],
      [
        "Ġvehicle",
        -8.755102046828195
      ],
      [
        "Ġpet",
        -8.75604291477915
      ],
      [
        "Ġeffects",
        -8.756780987678304
      ],
      [
        "Ġloss",
        -8.757400453794602
      ],
      [
        "ĠâĢĶ",
        -8.758611648661581
      ],
      [
        "k",
        -8.759167988691722
      ],
      [
        "Ġabove",
        -8.76011181147905
      ],
      [
        "Ġwhite",
        -8.76412800632076
      ],
      [
        "Ġplan",
        -8.765300974356055
      ],
      [
        "Ġfurther",
        -8.766011442132873
      ],
      [
        "âĢĵ",
        -8.767023630129223
      ],
      [
        "Ġeasi",
        -8.767105231437636
      ],
      [
        "Ġclose",
        -8.767698763991264
      ],
      [
        "Ġindustry",
        -8.770364643710302
      ],
      [
        "Ġparent",
        -8.77619307340718
      ],
      [
        "Ġword",
        -8.777160451518583
      ],
      [
        "Ġsays",
        -8.778023376148399
      ],
      [
        "Ġw",
        -8.778135591123196
      ],
      [
        "E",
        -8.7784335766883
      ],
      [
        "Ġengine",
        -8.779922789848232
      ],
      [
        "Ġfour",
        -8.783928996572257
      ],
      [
        "Ġbig",
        -8.783992794691835
      ],
      [
        "Ġunderstanding",
        -8.785496235621526
      ],
      [
        "Ġactivities",
        -8.78713044459424
      ],
      [
        "Ġask",
        -8.788521527176012
      ],
      [
        "Ġsingle",
        -8.790226340382048
      ],
      [
        "Ġclear",
        -8.793123389659712
      ],
      [
        "Ġunit",
        -8.795010377206467
      ],
      [
        "u",
        -8.796565821540188
      ],
      [
        "*",
        -8.79750993095665
      ],
      [
        "Ġrecent",
        -8.797944414080956
      ],
      [
        "Ġclean",
        -8.799196017500194
      ],
      [
        "Ġfeatures",
        -8.800332928867231
      ],
      [
        "Ġnetwork",
        -8.801544362214194
      ],
      [
        "Ġbasic",
        -8.807268106214973
      ],
      [
        "Ġrate",
        -8.807746496817954
      ],
      [
        "Ġhim",
        -8.808726917804679
      ],
      [
        "Ġmanagement",
        -8.809332642509913
      ],
      [
        "Ġbelieve",
        -8.8106517801587
      ],
      [
        "ĠN",
        -8.811919307101487
      ],
      [
        "Ġbring",
        -8.812862640676395
      ],
      [
        "Ġscience",
        -8.813606862740206
      ],
      [
        "Ġenjoy",
        -8.813692100395834
      ],
      [
        "Ġhours",
        -8.813866408285085
      ],
      [
        "Ġread",
        -8.817553493898998
      ],
      [
        "Ġapproach",
        -8.817850188964908
      ],
      [
        "Ġvideo",
        -8.819773262754527
      ],
      [
        "Ġchoice",
        -8.819848741023849
      ],
      [
        "Ġeffect",
        -8.822781042809758
      ],
      [
        "Ġamong",
        -8.82284473827526
      ],
      [
        "Ġposition",
        -8.82406129734169
      ],
      [
        "Ġclimate",
        -8.82423942940309
      ],
      [
        "Ġcomplex",
        -8.824373156133355
      ],
      [
        "Ġuser",
        -8.82485074042857
      ],
      [
        "Ġaddress",
        -8.826693412794743
      ],
      [
        "Ġaddition",
        -8.826751284468
      ],
      [
        "Ġmatter",
        -8.826846591223521
      ],
      [
        "Ġskills",
        -8.828323694406517
      ],
      [
        "ĠNo",
        -8.831533858362365
      ],
      [
        "Ġstructure",
        -8.833156692369814
      ],
      [
        "Ġb",
        -8.834328393281616
      ],
      [
        "Ġpaper",
        -8.835514036095908
      ],
      [
        "Ġaccess",
        -8.836000269790999
      ],
      [
        "Ġinside",
        -8.84076870993356
      ],
      [
        "Ġsafety",
        -8.841698718289363
      ],
      [
        "Ġwarm",
        -8.842027214534824
      ],
      [
        "For",
        -8.843045830056226
      ],
      [
        "Ġalready",
        -8.844263899503384
      ],
      [
        "Ġeither",
        -8.844816718691193
      ],
      [
        "Ġassociate",
        -8.845022597808477
      ],
      [
        "Ġmove",
        -8.845073525898812
      ],
      [
        "Ġdetail",
        -8.84853807919733
      ],
      [
        "ĠO",
        -8.848987389570224
      ],
      [
        "Ġexplain",
        -8.85290103044136
      ],
      [
        "Ġsense",
        -8.852921503312714
      ],
      [
        "Ġcommunity",
        -8.853911173247155
      ],
      [
        "Ġeat",
        -8.85479395149947
      ],
      [
        "Ġthought",
        -8.85607987103966
      ],
      [
        "Ġresponse",
        -8.857454060506658
      ],
      [
        "Ġstay",
        -8.857971329302838
      ],
      [
        "Ġinterest",
        -8.864628480642946
      ],
      [
        "Ġbehavior",
        -8.864645287373914
      ],
      [
        "Ġcreat",
        -8.86506212591363
      ],
      [
        "Ġanswer",
        -8.86628908218785
      ],
      [
        "Ġshape",
        -8.868091211727078
      ],
      [
        "Ġagain",
        -8.870252988303882
      ],
      [
        "âĢ¦",
        -8.871350246908344
      ],
      [
        "Ġperformance",
        -8.87471334219365
      ],
      [
        "Ġliving",
        -8.878676477409332
      ],
      [
        "Ġbit",
        -8.879227133087207
      ],
      [
        "Ġmention",
        -8.879455796738121
      ],
      [
        "Ġaction",
        -8.880132590621006
      ],
      [
        "Ġtalk",
        -8.88061913479185
      ],
      [
        "Ġpublic",
        -8.881640035332683
      ],
      [
        "ĠR",
        -8.881918129536981
      ],
      [
        "Ġdeep",
        -8.884185163143737
      ],
      [
        "Ġperiod",
        -8.884578592223768
      ],
      [
        "Ġgett",
        -8.887430619606402
      ],
      [
        "ĠOne",
        -8.889211047728976
      ],
      [
        "Ġbelow",
        -8.890385447495742
      ],
      [
        "Ġconcern",
        -8.893799979514762
      ],
      [
        "Ġre",
        -8.89410261407547
      ],
      [
        "Ġcompany",
        -8.895276016282953
      ],
      [
        "Ġmilk",
        -8.896885182449559
      ],
      [
        "stead",
        -8.896929751572682
      ],
      [
        "Ġfall",
        -8.897363793464852
      ],
      [
        "ather",
        -8.898397138701334
      ],
      [
        "Ġfee",
        -8.900933408629623
      ],
      [
        "Ġseen",
        -8.902148841413908
      ],
      [
        "Ġsound",
        -8.902486527655714
      ],
      [
        "Ġstress",
        -8.904900635106152
      ],
      [
        "Ġhead",
        -8.906569168516093
      ],
      [
        "Ġbrain",
        -8.908899419063674
      ],
      [
        "once",
        -8.909082050974263
      ],
      [
        "Ġidea",
        -8.909701414116142
      ],
      [
        "ĠH",
        -8.91074398649441
      ],
      [
        "Ġpopular",
        -8.911248357315081
      ],
      [
        "Ġnature",
        -8.911987392825425
      ],
      [
        "Ġpositive",
        -8.915498307950735
      ],
      [
        "ĠU",
        -8.916579882726609
      ],
      [
        "Ġwomen",
        -8.91877109347772
      ],
      [
        "Ġmajor",
        -8.919548636147205
      ],
      [
        "Ġtoward",
        -8.919678773987169
      ],
      [
        "Ġlist",
        -8.919687447345513
      ],
      [
        "Ġred",
        -8.920767772004323
      ],
      [
        "w",
        -8.924265401997085
      ],
      [
        "Ġmind",
        -8.924891884210316
      ],
      [
        "Ġwhole",
        -8.926216906427584
      ],
      [
        "Ġp",
        -8.926749701970877
      ],
      [
        "P",
        -8.927258578243816
      ],
      [
        "Ġtotal",
        -8.929288532672922
      ],
      [
        "Ġscientist",
        -8.930965223769611
      ],
      [
        "Ġexercise",
        -8.932232159472889
      ],
      [
        "Ġwaste",
        -8.932406285473807
      ],
      [
        "Ġhistor",
        -8.93245345649524
      ],
      [
        "Ġadult",
        -8.935205719662633
      ],
      [
        "Ġbuild",
        -8.935402733069491
      ],
      [
        "Ġmonths",
        -8.938061055798098
      ],
      [
        "Ġsetting",
        -8.938094274390888
      ],
      [
        "Ġresearchers",
        -8.938360866490989
      ],
      [
        "Ġmovement",
        -8.939942824293091
      ],
      [
        "Ġam",
        -8.940403898863968
      ],
      [
        "Ġtools",
        -8.940755856208092
      ],
      [
        "Ġcold",
        -8.941785331159728
      ],
      [
        "ĠWhil",
        -8.942126108085489
      ],
      [
        "Ġsign",
        -8.942265634737915
      ],
      [
        "Ġslow",
        -8.944506120449802
      ],
      [
        "Ġcode",
        -8.946023858470534
      ],
      [
        "ment",
        -8.946775641342828
      ],
      [
        "Ġcool",
        -8.950802435856847
      ],
      [
        "Ġcontinue",
        -8.951613101751068
      ],
      [
        "Ġpersonal",
        -8.953347677119599
      ],
      [
        "Ġcorrect",
        -8.954403030057211
      ],
      [
        "Ġways",
        -8.955481729314858
      ],
      [
        "Ġsugar",
        -8.957744908297382
      ],
      [
        "Ġthough",
        -8.959295643043404
      ],
      [
        "Ġchemical",
        -8.960163641574368
      ],
      [
        "Ġbalance",
        -8.960954255711275
      ],
      [
        "Ġpercent",
        -8.961771573871538
      ],
      [
        "Ġappear",
        -8.963458263867834
      ],
      [
        "Ġtraditional",
        -8.96355534570803
      ],
      [
        "Ġbatter",
        -8.967002564111233
      ],
      [
        "Ġdetermine",
        -8.967887128770002
      ],
      [
        "ĠAI",
        -8.970174052245405
      ],
      [
        "Ġcancer",
        -8.970191740853764
      ],
      [
        "Ġplastic",
        -8.970228586060102
      ],
      [
        "Ġflower",
        -8.971532192252935
      ],
      [
        "Ġgenetic",
        -8.971615545780523
      ],
      [
        "healthy",
        -8.972355648931892
      ],
      [
        "Ġgame",
        -8.972755813460102
      ],
      [
        "Ġbase",
        -8.973303856561433
      ],
      [
        "Ġdoing",
        -8.974190101153962
      ],
      [
        "Ġknowledge",
        -8.975101897099119
      ],
      [
        "Ġcut",
        -8.975577142925173
      ],
      [
        "Ġreceive",
        -8.976341775050495
      ],
      [
        "Ġdiscover",
        -8.978989369256462
      ],
      [
        "Ġblack",
        -8.984741949147303
      ],
      [
        "Ġsomeone",
        -8.985231484823725
      ],
      [
        "Ġfast",
        -8.988086923787632
      ],
      [
        "Ġfruit",
        -8.989766212935011
      ],
      [
        "Ġforce",
        -8.990162691529852
      ],
      [
        "Ġroom",
        -8.990360070804115
      ],
      [
        "taking",
        -8.992022845642213
      ],
      [
        "Ġoutside",
        -8.993842117257444
      ],
      [
        "Ġtypically",
        -8.995001846094699
      ],
      [
        "Ġsymptoms",
        -8.995565507337275
      ],
      [
        "Ġmedical",
        -8.997164123379502
      ],
      [
        "Ġonline",
        -9.000605030485506
      ],
      [
        "Ġoverall",
        -9.001524552295368
      ],
      [
        "Ġaverage",
        -9.001622242724046
      ],
      [
        "Ġactive",
        -9.002697605392115
      ],
      [
        "Ġyoung",
        -9.003962073665484
      ],
      [
        "Ġhelps",
        -9.004009523559343
      ],
      [
        "Ġapplications",
        -9.00434131979869
      ],
      [
        "âĢ¢",
        -9.004398883199041
      ],
      [
        ".\"ĊĊ",
        -9.005448416401103
      ],
      [
        "Ġwinter",
        -9.005534124501143
      ],
      [
        "at",
        -9.005978141393074
      ],
      [
        "Ġmuscle",
        -9.00816760737746
      ],
      [
        "Ġchoose",
        -9.00839463800591
      ],
      [
        "Ġwear",
        -9.008453550004148
      ],
      [
        "most",
        -9.008610647035445
      ],
      [
        "O",
        -9.009074949510945
      ],
      [
        "Ġrepresent",
        -9.010956834628368
      ],
      [
        "Ġview",
        -9.011685765003328
      ],
      [
        "Ġclass",
        -9.012063993608162
      ],
      [
        "Ġservice",
        -9.013538806011184
      ],
      [
        "Ġhouse",
        -9.014132715305342
      ],
      [
        "Ġreach",
        -9.01780379055
      ],
      [
        "Ġinvolve",
        -9.01963758868075
      ],
      [
        "Ġcrucial",
        -9.02004705466193
      ],
      [
        "Ġcamera",
        -9.021805122874651
      ],
      [
        "Ġpast",
        -9.02226120094824
      ],
      [
        "Ġidentify",
        -9.022637642532947
      ],
      [
        "Ġperfect",
        -9.0240151860332
      ],
      [
        "Ġpain",
        -9.024833778701836
      ],
      [
        "Ġexplore",
        -9.025184714873802
      ],
      [
        "not",
        -9.026688483034423
      ],
      [
        "Ġglobal",
        -9.033212719331926
      ],
      [
        "Ġhear",
        -9.036542631412532
      ],
      [
        "Ġbirds",
        -9.036915953265671
      ],
      [
        "Ġguide",
        -9.03756030091758
      ],
      [
        "Ġentire",
        -9.037641894115591
      ],
      [
        "Ġtarget",
        -9.03812677223056
      ],
      [
        "Ġeffort",
        -9.03880411788527
      ],
      [
        "Ġanalysis",
        -9.038978480329195
      ],
      [
        "Ġgreen",
        -9.039612487120138
      ],
      [
        "Ġrule",
        -9.041033220632054
      ],
      [
        "Ġreaction",
        -9.041525876124693
      ],
      [
        "ĠSchool",
        -9.047384936124995
      ],
      [
        "Ġcontact",
        -9.047967269662688
      ],
      [
        "Ġspecial",
        -9.04819473101874
      ],
      [
        "Ġfive",
        -9.04828586832599
      ],
      [
        "Ġrelease",
        -9.048986132052583
      ],
      [
        "Ġhold",
        -9.050420638541365
      ],
      [
        "Ġrelationship",
        -9.052207914813891
      ],
      [
        "Ġprovid",
        -9.05314613856604
      ],
      [
        "Ġbuy",
        -9.053985213939672
      ],
      [
        "ĠW",
        -9.055180873089563
      ],
      [
        "Ġseason",
        -9.055321189646856
      ],
      [
        "Ġbreak",
        -9.055684542107391
      ],
      [
        "Ġtell",
        -9.056397680593347
      ],
      [
        "ĠNational",
        -9.056562068970525
      ],
      [
        "So",
        -9.057035444602556
      ],
      [
        "Ġstrateg",
        -9.057799844915028
      ],
      [
        "Ġprimar",
        -9.058003839322636
      ],
      [
        "Ġchicken",
        -9.059318386269087
      ],
      [
        "Ġmetal",
        -9.062331819305726
      ],
      [
        "Ġmoney",
        -9.064272037473074
      ],
      [
        "en",
        -9.065383891185874
      ],
      [
        "by",
        -9.065527818767729
      ],
      [
        "Ġmodern",
        -9.066313990984122
      ],
      [
        "Ġinfection",
        -9.066538918400177
      ],
      [
        "Ġsituation",
        -9.066726426623289
      ],
      [
        "quickly",
        -9.0677243999816
      ],
      [
        "Ġland",
        -9.067898707400769
      ],
      [
        "Ġenhance",
        -9.068773248141124
      ],
      [
        "Ġsometime",
        -9.070514360455718
      ],
      [
        "Ġflow",
        -9.071698374142873
      ],
      [
        "where",
        -9.072927918095177
      ],
      [
        "F",
        -9.073497099351355
      ],
      [
        "Ġlocation",
        -9.075555920512004
      ],
      [
        "Ġrelated",
        -9.07713835637096
      ],
      [
        "Ġmultiple",
        -9.07724248318968
      ],
      [
        "Ġdescribe",
        -9.077422993247932
      ],
      [
        "_",
        -9.077462690135222
      ],
      [
        "ĠMan",
        -9.077608493267816
      ],
      [
        ".\"Ċ",
        -9.080080985076142
      ],
      [
        "Ġcomplete",
        -9.080522309683506
      ],
      [
        "Ġdevice",
        -9.080848771575308
      ],
      [
        "ĠAn",
        -9.081194296030226
      ],
      [
        "Ġetc",
        -9.082215059390013
      ],
      [
        "Ġdecision",
        -9.083189814593966
      ],
      [
        "Ġdigital",
        -9.084745733933786
      ],
      [
        "Ġregion",
        -9.08482563497572
      ],
      [
        "Ġisn",
        -9.087161449054156
      ],
      [
        "Ġbacteria",
        -9.08820326013774
      ],
      [
        "Ġtool",
        -9.090268382348844
      ],
      [
        "ĠDNA",
        -9.091921167296729
      ],
      [
        "Ġproperties",
        -9.09263094583912
      ],
      [
        "Ġremove",
        -9.094162799137091
      ],
      [
        "Ġstop",
        -9.095251853891655
      ],
      [
        "throughout",
        -9.095865220731582
      ],
      [
        "Ġcycle",
        -9.096201522067751
      ],
      [
        "Ġmonitor",
        -9.098136476684829
      ],
      [
        "Ġauthor",
        -9.098515632401943
      ],
      [
        "Ġsignal",
        -9.099115115363386
      ],
      [
        "Ġgot",
        -9.099870139468567
      ],
      [
        "Ġexpert",
        -9.100158970247836
      ],
      [
        "ĠâĢľ",
        -9.102943563247692
      ],
      [
        ").Ċ",
        -9.10305146293655
      ],
      [
        "ĠHealth",
        -9.104056910731476
      ],
      [
        "M",
        -9.105063664745618
      ],
      [
        "Ġtrue",
        -9.10582455531793
      ],
      [
        "Ġexperiment",
        -9.107163097167929
      ],
      [
        "Ġexact",
        -9.109070346489176
      ],
      [
        "Ġrelative",
        -9.11277451165072
      ],
      [
        "ĠDo",
        -9.11294726016764
      ],
      [
        "Ġelements",
        -9.113389221894105
      ],
      [
        "Ġnutrient",
        -9.114341842047471
      ],
      [
        "Ġcompared",
        -9.11624820421032
      ],
      [
        "As",
        -9.117467706850356
      ],
      [
        "Ġcontribute",
        -9.118287562756375
      ],
      [
        "ĠG",
        -9.120299012773394
      ],
      [
        "Ġhot",
        -9.120789251144345
      ],
      [
        "Ġteacher",
        -9.122384085612609
      ],
      [
        "Ġinvolved",
        -9.12240503881316
      ],
      [
        "Ġsimpl",
        -9.122718463690296
      ],
      [
        "Ġsuccessful",
        -9.123110414030068
      ],
      [
        "Ġnormal",
        -9.12321876190568
      ],
      [
        "Ġblock",
        -9.125887314044878
      ],
      [
        "yet",
        -9.126563875498997
      ],
      [
        "Ġeating",
        -9.126705036889572
      ],
      [
        "Ġlayer",
        -9.127401494221974
      ],
      [
        "Ġselect",
        -9.127708598824064
      ],
      [
        "Ġlength",
        -9.128716446624846
      ],
      [
        "Ġtravel",
        -9.13084249100098
      ],
      [
        "Ġapplication",
        -9.132353274001296
      ],
      [
        "Ġoptions",
        -9.13513795811846
      ],
      [
        "Ġice",
        -9.136044778886184
      ],
      [
        "Ġmemor",
        -9.136175450001806
      ],
      [
        "Ġbad",
        -9.13950854025008
      ],
      [
        "H",
        -9.14094911023549
      ],
      [
        "Ġmeasure",
        -9.142539050335166
      ],
      [
        "Ġtrack",
        -9.14276269561244
      ],
      [
        "Ġsoftware",
        -9.143550889450118
      ],
      [
        "Ġact",
        -9.144651693238831
      ],
      [
        "Ġlanguage",
        -9.145317855046336
      ],
      [
        "Ġfoods",
        -9.146729705602777
      ],
      [
        "Ġself",
        -9.14891993405242
      ],
      [
        "Why",
        -9.15052827985431
      ],
      [
        "Ġperform",
        -9.15275676937431
      ],
      [
        "Ġfarm",
        -9.152897125534874
      ],
      [
        "Ġattention",
        -9.153470360029042
      ],
      [
        "Ġsample",
        -9.154292328025488
      ],
      [
        "Ġsummer",
        -9.154598350480835
      ],
      [
        "Ġsubject",
        -9.154678707189486
      ],
      [
        "Ġachieve",
        -9.15484607334197
      ],
      [
        "Ġequipment",
        -9.154906715252787
      ],
      [
        "ĠAll",
        -9.156648156109156
      ],
      [
        "ĠNorth",
        -9.157629068345909
      ],
      [
        "ĠL",
        -9.157918035833994
      ],
      [
        "Ġtaken",
        -9.158803135757475
      ],
      [
        "Ġserve",
        -9.159695286991289
      ],
      [
        "Ġprobabl",
        -9.160720180449516
      ],
      [
        "One",
        -9.16278932668052
      ],
      [
        "be",
        -9.16383969351108
      ],
      [
        "ach",
        -9.164704929624271
      ],
      [
        "Ġwon",
        -9.165200685043434
      ],
      [
        "Ġingredient",
        -9.165722190579244
      ],
      [
        "Ġvisit",
        -9.167793853443152
      ],
      [
        "Ġeggs",
        -9.169831576455945
      ],
      [
        "Ġincreasing",
        -9.171363811667597
      ],
      [
        "Ġlink",
        -9.172176881995789
      ],
      [
        "Ġapply",
        -9.17242122412124
      ],
      [
        "Ġservices",
        -9.172489943491527
      ],
      [
        "Ġstory",
        -9.173074259127038
      ],
      [
        "Ġextreme",
        -9.17497531129946
      ],
      [
        "Ġefficient",
        -9.177979417101149
      ],
      [
        "Ġdivers",
        -9.17840393798356
      ],
      [
        "Ġoption",
        -9.17885063602094
      ],
      [
        "Ġstudent",
        -9.179157283315966
      ],
      [
        "Ġkill",
        -9.181330364483603
      ],
      [
        "Ġnight",
        -9.182838994170137
      ],
      [
        "Ġdrive",
        -9.182941424450275
      ],
      [
        "Ġconnection",
        -9.18377169678162
      ],
      [
        "Ġnegative",
        -9.186106380320014
      ],
      [
        "Ġdistance",
        -9.188670831219053
      ],
      [
        "Ġfat",
        -9.189367831108935
      ],
      [
        "Ġfinding",
        -9.190277371346962
      ],
      [
        "ĠJ",
        -9.192866306374988
      ],
      [
        "quite",
        -9.193785391657514
      ],
      [
        "Ġadded",
        -9.19529270489781
      ],
      [
        "Ġaccount",
        -9.195428889979668
      ],
      [
        "Ġsleep",
        -9.195763103257493
      ],
      [
        "ĠUnite",
        -9.19616995735479
      ],
      [
        "Ġever",
        -9.196175232454634
      ],
      [
        "Ġcountry",
        -9.197699767859197
      ],
      [
        "Ġshown",
        -9.19972682848104
      ],
      [
        "Ġgain",
        -9.199959950872396
      ],
      [
        "Ġplayer",
        -9.200347473406378
      ],
      [
        "Ġweather",
        -9.201788653427782
      ],
      [
        "Ġeducation",
        -9.20220916369173
      ],
      [
        "ĠF",
        -9.202542805784235
      ],
      [
        "considered",
        -9.203050189562248
      ],
      [
        "yourself",
        -9.205529151977514
      ],
      [
        "ĠAt",
        -9.20655627673928
      ],
      [
        "Ġsearch",
        -9.207052565581346
      ],
      [
        "But",
        -9.207343460189223
      ],
      [
        ".\"",
        -9.207717112141609
      ],
      [
        "Ġmeat",
        -9.208236069140227
      ],
      [
        "Ġwebsite",
        -9.20901890123849
      ],
      [
        "Ġpurpose",
        -9.209429681444664
      ],
      [
        "Ġprice",
        -9.209797024066564
      ],
      [
        "z",
        -9.210620369118304
      ],
      [
        "Ġcompound",
        -9.212947343152448
      ],
      [
        "Ġmonth",
        -9.216295349471714
      ],
      [
        "ĠStates",
        -9.21784803734522
      ],
      [
        "ĠAl",
        -9.21785320584917
      ],
      [
        "ility",
        -9.218758599855713
      ],
      [
        "Ġfun",
        -9.219141487956009
      ],
      [
        "Ġadditional",
        -9.219294180198816
      ],
      [
        "Ġrecord",
        -9.220125888450228
      ],
      [
        "Ġsave",
        -9.220914331553786
      ],
      [
        "Ġparticle",
        -9.221736591016509
      ],
      [
        "Ġspread",
        -9.222915774757366
      ],
      [
        "cy",
        -9.22291627072309
      ],
      [
        "ĠScience",
        -9.22512515285196
      ],
      [
        "Ġevidence",
        -9.226182316332896
      ],
      [
        "hind",
        -9.228458275945789
      ],
      [
        "Ġprocesse",
        -9.228678038191685
      ],
      [
        "Ġindicate",
        -9.22941677969883
      ],
      [
        "Ġsalt",
        -9.230237900301436
      ],
      [
        "Ġsea",
        -9.231635481121383
      ],
      [
        "Ġmolecule",
        -9.231699814292323
      ],
      [
        "ĠOn",
        -9.23278024290794
      ],
      [
        "Ġlonge",
        -9.232873507169746
      ],
      [
        "Ġpattern",
        -9.23295269461001
      ],
      [
        "Ġreport",
        -9.234748887014504
      ],
      [
        "Ġaspect",
        -9.234948646997983
      ],
      [
        "Ġdrink",
        -9.235227829557576
      ],
      [
        "Ġfinal",
        -9.23809782591687
      ],
      [
        "âĢĿ",
        -9.238618778360728
      ],
      [
        "Ġart",
        -9.239078801793353
      ],
      [
        "Ġinput",
        -9.240459347554896
      ],
      [
        "ĠHere",
        -9.241081794898978
      ],
      [
        "Ġscale",
        -9.241207364586504
      ],
      [
        "Ġpass",
        -9.241631375721676
      ],
      [
        "Ġrest",
        -9.242491380395975
      ],
      [
        "more",
        -9.242608427209976
      ],
      [
        "Ġgoal",
        -9.243221515432634
      ],
      [
        "Ġgenes",
        -9.243368866029272
      ],
      [
        "Ġlater",
        -9.243529724737616
      ],
      [
        "Ġoutput",
        -9.244123305045726
      ],
      [
        "Ġattack",
        -9.246232345498871
      ],
      [
        "Ġago",
        -9.247293446719324
      ],
      [
        "Ġconcept",
        -9.247891068177932
      ],
      [
        "N",
        -9.24809333061539
      ],
      [
        "Ġhalf",
        -9.248312534188972
      ],
      [
        "Ġadvance",
        -9.249203320490857
      ],
      [
        "Ġoffers",
        -9.249603708167374
      ],
      [
        "man",
        -9.250719061221638
      ],
      [
        "Ġsensor",
        -9.251882792168288
      ],
      [
        "Ġreturn",
        -9.252552242664796
      ],
      [
        "Ġthemsel",
        -9.253318743046998
      ],
      [
        "Ġappropriate",
        -9.25348698922216
      ],
      [
        "Ġmix",
        -9.253796967246709
      ],
      [
        "Ġwood",
        -9.25537146486096
      ],
      [
        "Ġinfluence",
        -9.256269046992692
      ],
      [
        "Ġdisplay",
        -9.256372314679446
      ],
      [
        "Ġgovernment",
        -9.258491558849702
      ],
      [
        "Ġfront",
        -9.25918680449426
      ],
      [
        "Ġdevices",
        -9.259488484481896
      ],
      [
        "means",
        -9.259931527045936
      ],
      [
        "Ġspot",
        -9.263064935376091
      ],
      [
        "Ġworks",
        -9.263526955047976
      ],
      [
        "Ġsection",
        -9.263671573689788
      ],
      [
        "Ġpoints",
        -9.26458822388841
      ],
      [
        "Ġjob",
        -9.265666343245408
      ],
      [
        "Ġsmaller",
        -9.266888815252171
      ],
      [
        "Ġdidn",
        -9.267681618373537
      ],
      [
        "Ġproduced",
        -9.268354545080744
      ],
      [
        "Ġvolume",
        -9.268419171408338
      ],
      [
        "Ġoriginal",
        -9.269366191406256
      ],
      [
        "running",
        -9.270119291228742
      ],
      [
        "Ġsupply",
        -9.270219389031803
      ],
      [
        "Ġdoctor",
        -9.271273952708649
      ],
      [
        "ves",
        -9.275449548285682
      ],
      [
        "Ġhorse",
        -9.275552411327
      ],
      [
        "Ġnode",
        -9.276394809253947
      ],
      [
        "Ġestimate",
        -9.27751416554744
      ],
      [
        "Ġenter",
        -9.277714487375286
      ],
      [
        "Ġstage",
        -9.277950536062018
      ],
      [
        "Ġseparate",
        -9.280135509058423
      ],
      [
        "ĠAmerica",
        -9.280559821098969
      ],
      [
        "Ġtakes",
        -9.28204199447692
      ],
      [
        "Ġkids",
        -9.282592960360772
      ],
      [
        "Ġoperation",
        -9.283260380218586
      ],
      [
        "Ġcommunication",
        -9.285696588866188
      ],
      [
        "Ġphone",
        -9.285718193171146
      ],
      [
        "ĠCan",
        -9.286240994017923
      ],
      [
        "Ġscientific",
        -9.286471061665214
      ],
      [
        "Ġpay",
        -9.286753251303733
      ],
      [
        "Ġcenter",
        -9.287462643407505
      ],
      [
        "Ġgenerate",
        -9.288696223594728
      ],
      [
        "Ġfeed",
        -9.288842000455716
      ],
      [
        "Ġinsect",
        -9.289173284366044
      ],
      [
        "Ġreading",
        -9.289349611151696
      ],
      [
        "Ġmeet",
        -9.289955030638598
      ],
      [
        "of",
        -9.29070614061381
      ],
      [
        "Ġfile",
        -9.290723358427858
      ],
      [
        "ĠUse",
        -9.291028334142553
      ],
      [
        "Ġpre",
        -9.292059326204503
      ],
      [
        "ĠMore",
        -9.292347225997716
      ],
      [
        "Ġversion",
        -9.294730551555467
      ],
      [
        "Ġcats",
        -9.295631295641334
      ],
      [
        "Ġfresh",
        -9.297302883814837
      ],
      [
        "Ġcharge",
        -9.298657800379065
      ],
      [
        "Ġtank",
        -9.298817080021063
      ],
      [
        "Ġwatch",
        -9.300746205841794
      ],
      [
        "Ġlack",
        -9.30098370910245
      ],
      [
        "Ġspring",
        -9.301877981309849
      ],
      [
        "Ġmanage",
        -9.302495008894311
      ],
      [
        "Ġman",
        -9.30281021679884
      ],
      [
        "Ġleaf",
        -9.305050009799537
      ],
      [
        "Ġstandard",
        -9.307297587381852
      ],
      [
        "Ġlimit",
        -9.310941343269285
      ],
      [
        "\\",
        -9.31141015248707
      ],
      [
        "Ġtend",
        -9.314122089993958
      ],
      [
        "Ġreplace",
        -9.31527471948835
      ],
      [
        "Ġchallenges",
        -9.316077949057908
      ],
      [
        "ĠBe",
        -9.318436767760916
      ],
      [
        "Â°",
        -9.318660477869509
      ],
      [
        "studies",
        -9.318800408884558
      ],
      [
        "Ġdirection",
        -9.323541445908038
      ],
      [
        "Ġgene",
        -9.323610289829286
      ],
      [
        "Ġfeature",
        -9.323843840046177
      ],
      [
        "Ġmental",
        -9.32534892683509
      ],
      [
        "Ġcaus",
        -9.326939586361094
      ],
      [
        "Ġbaby",
        -9.327092266945712
      ],
      [
        "=",
        -9.327176749345629
      ],
      [
        "Ġstrength",
        -9.3274683936613
      ],
      [
        "developed",
        -9.327773747889044
      ],
      [
        "Ġorganic",
        -9.327896923104465
      ],
      [
        "Ġmodels",
        -9.32933432242643
      ],
      [
        "ĠYes",
        -9.329486828911264
      ],
      [
        "Ġenable",
        -9.329634533633456
      ],
      [
        "Ġdark",
        -9.330728818877068
      ],
      [
        "Ġocean",
        -9.33079854866623
      ],
      [
        "-to",
        -9.333257864551094
      ],
      [
        "Ġsix",
        -9.333544998908144
      ],
      [
        "Ġextra",
        -9.333564562365837
      ],
      [
        "Ġmainten",
        -9.33390298959732
      ],
      [
        "Ġcutting",
        -9.334130156004292
      ],
      [
        "Ġconduct",
        -9.334534706378532
      ],
      [
        "ĠAfter",
        -9.335263900196631
      ],
      [
        "Ġwalk",
        -9.336096007378243
      ],
      [
        "Ġideal",
        -9.33644867727833
      ],
      [
        "Ġcity",
        -9.336689762275814
      ],
      [
        "Ġeyes",
        -9.342435663794362
      ],
      [
        "Ġcompletely",
        -9.342549523158691
      ],
      [
        ">",
        -9.343125122246937
      ],
      [
        "Ġdrain",
        -9.343704751726674
      ],
      [
        "Ġsubstance",
        -9.346016026077251
      ],
      [
        "Ġemission",
        -9.34613078798347
      ],
      [
        "Ġrepair",
        -9.346636833845578
      ],
      [
        "Ġlives",
        -9.34741547269492
      ],
      [
        "Because",
        -9.34764078419207
      ],
      [
        "Ġseeds",
        -9.348538642566428
      ],
      [
        "Ġgoe",
        -9.348648354218785
      ],
      [
        "Ġimages",
        -9.349287850688324
      ],
      [
        "Ġtaste",
        -9.349965603787432
      ],
      [
        "Ġcritical",
        -9.35083140170952
      ],
      [
        "care",
        -9.35121237491802
      ],
      [
        "ĠDr",
        -9.352084279314257
      ],
      [
        "companie",
        -9.35313407531475
      ],
      [
        "Ġelse",
        -9.354291402956989
      ],
      [
        "Whil",
        -9.355737270095208
      ],
      [
        "Ġevent",
        -9.356539686183982
      ],
      [
        "land",
        -9.35681229088832
      ],
      [
        "Ġconstant",
        -9.35687014748011
      ],
      [
        "ĠShe",
        -9.35693077222254
      ],
      [
        "Ġglass",
        -9.358383139525026
      ],
      [
        "Ġdai",
        -9.359577615843158
      ],
      [
        "Ġsuccess",
        -9.360380448832236
      ],
      [
        "Ġteeth",
        -9.365851423064424
      ],
      [
        "Ġsolar",
        -9.367615712058925
      ],
      [
        "Ġbegin",
        -9.368012131927877
      ],
      [
        "Ġblue",
        -9.368087379016686
      ],
      [
        "ĠEarth",
        -9.370347734703351
      ],
      [
        "Ġdate",
        -9.37045232731032
      ],
      [
        "ĠK",
        -9.371336578404923
      ],
      [
        "Ġdeath",
        -9.373442488097709
      ],
      [
        "G",
        -9.373471336632402
      ],
      [
        "Ġplann",
        -9.374166977607183
      ],
      [
        "Ġoxygen",
        -9.37833937050656
      ],
      [
        "Ġaim",
        -9.37871852115064
      ],
      [
        "ĠResearch",
        -9.38038458986149
      ],
      [
        "Ġmass",
        -9.382000173933296
      ],
      [
        "Ġdraw",
        -9.382474685924738
      ],
      [
        "Ġfemale",
        -9.38297689084479
      ],
      [
        "Ġflight",
        -9.38340644126356
      ],
      [
        "Ġsun",
        -9.385682862753258
      ],
      [
        "Ġbird",
        -9.387767588224524
      ],
      [
        "Ġstyle",
        -9.387857091879765
      ],
      [
        "Ġcentur",
        -9.387860973487433
      ],
      [
        "Ġitems",
        -9.388092539732543
      ],
      [
        "Ġpump",
        -9.388782456030537
      ],
      [
        "Ġextend",
        -9.389703597698542
      ],
      [
        "Ġaware",
        -9.390247203482868
      ],
      [
        "Ġdefine",
        -9.390317139381192
      ],
      [
        "ful",
        -9.392291599905214
      ],
      [
        "Ġfine",
        -9.392692705865038
      ],
      [
        "fish",
        -9.392751509436115
      ],
      [
        "Ġencourage",
        -9.39309069469455
      ],
      [
        "Ġuseful",
        -9.39326775367392
      ],
      [
        "Ġcircuit",
        -9.394173499281695
      ],
      [
        "Ġdecrease",
        -9.394225114416578
      ],
      [
        "Ġreduc",
        -9.394468930155575
      ],
      [
        "Ġseries",
        -9.39743112118204
      ],
      [
        "Ġmedia",
        -9.398034153715136
      ],
      [
        "Ġcombine",
        -9.401468707027735
      ],
      [
        "Ġresponsibl",
        -9.402154660915077
      ],
      [
        "Ġmeal",
        -9.40244810993988
      ],
      [
        "day",
        -9.40331592287552
      ],
      [
        "Ġdiscuss",
        -9.403607647540746
      ],
      [
        "Ġprotection",
        -9.4043434672751
      ],
      [
        "ĠFrom",
        -9.405211873108154
      ],
      [
        "Ġfeeling",
        -9.406098861835249
      ],
      [
        "Ġhair",
        -9.406321948228392
      ],
      [
        "wise",
        -9.409549740903934
      ],
      [
        "Ġnotice",
        -9.410173535846509
      ],
      [
        "Ġmale",
        -9.4107620383927
      ],
      [
        "ĠUS",
        -9.41123333491129
      ],
      [
        "ĠWorld",
        -9.413805727747764
      ],
      [
        "Ġliquid",
        -9.414114956790058
      ],
      [
        "Ġdiabetes",
        -9.41450610568341
      ],
      [
        "ĠMost",
        -9.415301255001856
      ],
      [
        "Can",
        -9.41548721926613
      ],
      [
        "Ġsteps",
        -9.415570240202287
      ],
      [
        "Ġlate",
        -9.41645115323821
      ],
      [
        "These",
        -9.418191827921063
      ],
      [
        "ĠX",
        -9.418336817387218
      ],
      [
        "Ġbuil",
        -9.419128489314998
      ],
      [
        "Ġremember",
        -9.419434992486496
      ],
      [
        "Ġinjur",
        -9.42033866730428
      ],
      [
        "W",
        -9.420446170210049
      ],
      [
        "ĠSouth",
        -9.42129046302028
      ],
      [
        "Ġengineer",
        -9.42171646460369
      ],
      [
        "Ġdocument",
        -9.423258319007523
      ],
      [
        "**",
        -9.42327523769426
      ],
      [
        "Ġcharacteristic",
        -9.423433965104868
      ],
      [
        "Ġobserve",
        -9.424882711165452
      ],
      [
        "Ġbag",
        -9.425084395542202
      ],
      [
        "Ġmembers",
        -9.425679822141962
      ],
      [
        "Ġfrequent",
        -9.427509474644442
      ],
      [
        "Ġbox",
        -9.428061620122378
      ],
      [
        "Ġmoving",
        -9.428377463728824
      ],
      [
        "ĠAdditional",
        -9.428396380283122
      ],
      [
        "Ġhandle",
        -9.428498706749885
      ],
      [
        "Ġdie",
        -9.428884234474747
      ],
      [
        "Ġseek",
        -9.429070103093302
      ],
      [
        "ĠWhy",
        -9.430156054559056
      ],
      [
        "Ġfilter",
        -9.430324182334427
      ],
      [
        "Ġdetect",
        -9.43040750860993
      ],
      [
        "L",
        -9.432836312215402
      ],
      [
        "Ġconvert",
        -9.433315608401486
      ],
      [
        "Ġdeal",
        -9.433997908215396
      ],
      [
        "Ġconnect",
        -9.434091837323564
      ],
      [
        "Ġlimited",
        -9.43470528570381
      ],
      [
        "ers",
        -9.434904506511014
      ],
      [
        "Ġcarry",
        -9.435027450429892
      ],
      [
        ".S",
        -9.435687555314365
      ],
      [
        "Ġfit",
        -9.436236829430143
      ],
      [
        "Ġsequence",
        -9.436238272568662
      ],
      [
        "Ġpoor",
        -9.436857453395636
      ],
      [
        "Ġball",
        -9.436920417711551
      ],
      [
        "Ġframe",
        -9.438698685635329
      ],
      [
        "Ġtheory",
        -9.440277539346322
      ],
      [
        "Ġvia",
        -9.4411510249951
      ],
      [
        "Ġlocate",
        -9.441696539375204
      ],
      [
        "Ġcombination",
        -9.442149432543806
      ],
      [
        "Another",
        -9.442431223735664
      ],
      [
        "Ġcame",
        -9.4426812600419
      ],
      [
        "Ġculture",
        -9.442882403292328
      ],
      [
        "Ġplatform",
        -9.444626349427434
      ],
      [
        "Ġsustainabl",
        -9.445481431103342
      ],
      [
        "Ġlandscape",
        -9.4468174942752
      ],
      [
        "Ġstone",
        -9.446829173449895
      ],
      [
        "Ġsoft",
        -9.447087311360235
      ],
      [
        "Ġprett",
        -9.447373077700902
      ],
      [
        "Ġedge",
        -9.447531734598218
      ],
      [
        "Ġcollect",
        -9.447885158638575
      ],
      [
        "Ġbone",
        -9.448423642270663
      ],
      [
        "applied",
        -9.44863028843672
      ],
      [
        "Ġraise",
        -9.44961627097848
      ],
      [
        "Ġtransport",
        -9.45197405687964
      ],
      [
        "Ġcloth",
        -9.453489213049192
      ],
      [
        "Some",
        -9.453862450696487
      ],
      [
        "Ġhost",
        -9.455027127947384
      ],
      [
        "Ġnote",
        -9.455758072182626
      ],
      [
        "Ġinitial",
        -9.457142700776924
      ],
      [
        "Ġvisual",
        -9.457238668968532
      ],
      [
        "Ġfill",
        -9.457322692980462
      ],
      [
        "Ġadjust",
        -9.457900034844329
      ],
      [
        "Ġvary",
        -9.45859916044287
      ],
      [
        "Ġelectrical",
        -9.45986773094453
      ],
      [
        "Ġserious",
        -9.460153333248137
      ],
      [
        "Ġalternative",
        -9.460588674511524
      ],
      [
        "Ġde",
        -9.461135921141882
      ],
      [
        "Q",
        -9.462111692215869
      ],
      [
        "Ġbrown",
        -9.464524325583245
      ],
      [
        "R",
        -9.46557891357805
      ],
      [
        "Ġbottom",
        -9.465584940133365
      ],
      [
        "Ġmineral",
        -9.46560172428606
      ],
      [
        "Ġready",
        -9.466081685815633
      ],
      [
        "Ġtable",
        -9.466666755990206
      ],
      [
        "Ġlose",
        -9.46708738697646
      ],
      [
        "[",
        -9.467367202190314
      ],
      [
        "Ġdemand",
        -9.467641583116109
      ],
      [
        "Ġpiece",
        -9.467782446973729
      ],
      [
        "Ġpromote",
        -9.467970198737763
      ],
      [
        "Ġensur",
        -9.468362942474682
      ],
      [
        "Ġbrand",
        -9.46902301863277
      ],
      [
        "Ġcolors",
        -9.469344888228513
      ],
      [
        "Ġrich",
        -9.469710901266836
      ],
      [
        "Ġtip",
        -9.471524572944285
      ],
      [
        "V",
        -9.472134140239104
      ],
      [
        "Ġcommercial",
        -9.472561102165663
      ],
      [
        "Ġcountr",
        -9.472926313150545
      ],
      [
        "Ġegg",
        -9.474425111276588
      ],
      [
        "ĠV",
        -9.475151555147256
      ],
      [
        "-term",
        -9.475662815364757
      ],
      [
        "Ġcount",
        -9.476903517871762
      ],
      [
        "Ġinstance",
        -9.47724084981073
      ],
      [
        "out",
        -9.47730644745636
      ],
      [
        "Ġevents",
        -9.477375860585914
      ],
      [
        "Ġforest",
        -9.480406637293507
      ],
      [
        "Ġrise",
        -9.480631508357469
      ],
      [
        "Ġtouch",
        -9.481070790764536
      ],
      [
        "Ġsupplement",
        -9.481696144360097
      ],
      [
        "Ġrare",
        -9.481982493077547
      ],
      [
        "Ġgeneration",
        -9.482287631879764
      ],
      [
        "Ġinstall",
        -9.484676555283656
      ],
      [
        "ization",
        -9.487389519600642
      ],
      [
        "Ġtissue",
        -9.488277864886994
      ],
      [
        "Ġhope",
        -9.490266342118346
      ],
      [
        "Ġwild",
        -9.490575098033398
      ],
      [
        "And",
        -9.492649732146212
      ],
      [
        "By",
        -9.497161237402963
      ],
      [
        "Ġaccurate",
        -9.497733032450114
      ],
      [
        "Ġprocedure",
        -9.49793587985009
      ],
      [
        "took",
        -9.49835641062062
      ],
      [
        "Ġreasons",
        -9.498919172673908
      ],
      [
        "Ġfriends",
        -9.49952242827356
      ],
      [
        "Ġnothing",
        -9.502234140912288
      ],
      [
        "Ġcollection",
        -9.502371344116584
      ],
      [
        "Ġdesire",
        -9.502701647359896
      ],
      [
        "Ġwall",
        -9.503963881144854
      ],
      [
        "Ġprograms",
        -9.505643117336298
      ],
      [
        "Ġpark",
        -9.5069987832177
      ],
      [
        "Ġyellow",
        -9.507935296217704
      ],
      [
        "Ġcrop",
        -9.50804346557575
      ],
      [
        "Ġfly",
        -9.508991395403896
      ],
      [
        "Ġflavor",
        -9.509082866091653
      ],
      [
        "Ġpair",
        -9.509976347624264
      ],
      [
        "Ġiron",
        -9.510009209053257
      ],
      [
        "Ġwriting",
        -9.510503468859408
      ],
      [
        "Ġshoot",
        -9.511490111057135
      ],
      [
        "Ġwait",
        -9.51154918362275
      ],
      [
        "Ġfire",
        -9.511614424784142
      ],
      [
        "Ġtherefor",
        -9.512569661081391
      ],
      [
        "Ġelement",
        -9.512974092599125
      ],
      [
        "ĠMy",
        -9.51330332963769
      ],
      [
        "Ġusers",
        -9.513618147524005
      ],
      [
        "Ġchance",
        -9.51378395370984
      ],
      [
        "Ġsoon",
        -9.51664444250817
      ],
      [
        "Ġvitamin",
        -9.517215481557423
      ],
      [
        "Ġaid",
        -9.517265145742211
      ],
      [
        "Ġlibrar",
        -9.518245673066888
      ],
      [
        "Ġvision",
        -9.518989470774528
      ],
      [
        "Ġear",
        -9.519895970099927
      ],
      [
        "Ġhearing",
        -9.520165621493428
      ],
      [
        "Ġpublished",
        -9.524763045368658
      ],
      [
        "Ġhands",
        -9.525343272848207
      ],
      [
        "Ġspend",
        -9.525988479881043
      ],
      [
        "Ġfluid",
        -9.52629394597354
      ],
      [
        "Ġapp",
        -9.52728126734786
      ],
      [
        "Ġreference",
        -9.530018885146372
      ],
      [
        "Ġalcohol",
        -9.530148390404058
      ],
      [
        "Ġrecover",
        -9.530175213964323
      ],
      [
        "Ġlesson",
        -9.53026361351462
      ],
      [
        "Ġpresen",
        -9.530341000975024
      ],
      [
        "Ġmusic",
        -9.531331253214333
      ],
      [
        "ĠNot",
        -9.531357190259946
      ],
      [
        "Step",
        -9.532244145380774
      ],
      [
        "Ġpicture",
        -9.53290332535483
      ],
      [
        "Ġslight",
        -9.53326149881256
      ],
      [
        "Ġpest",
        -9.533683872471771
      ],
      [
        "Ġshot",
        -9.536595332820935
      ],
      [
        "Ġpowerful",
        -9.537312550240374
      ],
      [
        "Ġfloor",
        -9.53732655621246
      ],
      [
        "Ġsecurity",
        -9.53733564900985
      ],
      [
        "]Ċ",
        -9.538313440674338
      ],
      [
        "-up",
        -9.540110667359624
      ],
      [
        "Ġefficiency",
        -9.540156400505674
      ],
      [
        "time",
        -9.541456101698436
      ],
      [
        "Ġrequirements",
        -9.541493861585112
      ],
      [
        "Ġbeautiful",
        -9.54180420517413
      ],
      [
        "Ġswitch",
        -9.542417398719904
      ],
      [
        "Ġmode",
        -9.543020890514638
      ],
      [
        "Ġ#",
        -9.543782887447255
      ],
      [
        "Ġfaste",
        -9.543887611899745
      ],
      [
        "Ġlabel",
        -9.544370264148492
      ],
      [
        "all",
        -9.545743726296925
      ],
      [
        "Ġmoisture",
        -9.546091724602196
      ],
      [
        "Ġeasie",
        -9.5462474793237
      ],
      [
        "Ġthus",
        -9.546496576200608
      ],
      [
        "ĠOur",
        -9.547074912215573
      ],
      [
        "Ġcleaning",
        -9.549950108711714
      ],
      [
        "Ġ--",
        -9.550308687476036
      ],
      [
        "Ġconsistent",
        -9.550476756154096
      ],
      [
        "Ġsolid",
        -9.551222307065558
      ],
      [
        "Ġeffectively",
        -9.551680616118468
      ],
      [
        "ĠCenter",
        -9.55208219305349
      ],
      [
        "Ġopportunity",
        -9.55307735738542
      ],
      [
        "Ġthird",
        -9.553400703998513
      ],
      [
        "Ġequal",
        -9.55382071024636
      ],
      [
        "Ġconstruction",
        -9.554734093898531
      ],
      [
        "Ġjourney",
        -9.55492493382912
      ],
      [
        "Ġcapacit",
        -9.5557239375987
      ],
      [
        "ĠAlso",
        -9.555857217075092
      ],
      [
        "Ġfigure",
        -9.556770893130434
      ],
      [
        "Ġresistance",
        -9.558949632518624
      ],
      [
        "Ġpage",
        -9.560233483200603
      ],
      [
        "giving",
        -9.563108821378364
      ],
      [
        "Ġrapid",
        -9.56362730880434
      ],
      [
        "Ġfrequency",
        -9.564431277068262
      ],
      [
        "Ġmoment",
        -9.564772254640918
      ],
      [
        "Ġpick",
        -9.565727614502624
      ],
      [
        "Ġmessage",
        -9.56672360192772
      ],
      [
        "Now",
        -9.56841139650955
      ],
      [
        "Ġforward",
        -9.569431021270624
      ],
      [
        "Ġvariable",
        -9.569806644047173
      ],
      [
        "Ġwrong",
        -9.570961494018835
      ],
      [
        "Ġpull",
        -9.571261431849234
      ],
      [
        "Ġroof",
        -9.57179351936762
      ],
      [
        "Ġregard",
        -9.572237286853271
      ],
      [
        "ĠTheir",
        -9.572782307473773
      ],
      [
        "Ġalgorithm",
        -9.572926771720578
      ],
      [
        "Ġmedication",
        -9.5733003859802
      ],
      [
        "Ġroot",
        -9.573697874999098
      ],
      [
        "Ġobtain",
        -9.573770297885304
      ],
      [
        "Ġrock",
        -9.575717014698268
      ],
      [
        "Ġpurchase",
        -9.576241746966495
      ],
      [
        "Ġsuitabl",
        -9.576956888744135
      ],
      [
        "Ġnumbers",
        -9.577090469520003
      ],
      [
        "Ġtask",
        -9.579678035836016
      ],
      [
        "Ġexpression",
        -9.579721375010514
      ],
      [
        "Ġinteresting",
        -9.580649112853742
      ],
      [
        "Ġvirus",
        -9.582068889557
      ],
      [
        "Ġintroduce",
        -9.582392520046223
      ],
      [
        "Ġconsumption",
        -9.582865278701096
      ],
      [
        "Ġmiddle",
        -9.583385590737716
      ],
      [
        "Ġreview",
        -9.584309436345418
      ],
      [
        "âĪĴ",
        -9.584440532307308
      ],
      [
        "Ġconnected",
        -9.584661761581422
      ],
      [
        "Ġforms",
        -9.58785737939915
      ],
      [
        "Ġestablish",
        -9.589368174407609
      ],
      [
        "storage",
        -9.5902985474988
      ],
      [
        "Ġmother",
        -9.590703388800891
      ],
      [
        "Ġlaw",
        -9.590884087028522
      ],
      [
        "Ġstick",
        -9.591712030108695
      ],
      [
        "Ġquick",
        -9.592107886307154
      ],
      [
        "Ġexposure",
        -9.592649520433964
      ],
      [
        "Ġfiber",
        -9.592725721192942
      ],
      [
        "alone",
        -9.592766467803092
      ],
      [
        "ĠHigh",
        -9.593072872364573
      ],
      [
        "Ġcontext",
        -9.594320439654966
      ],
      [
        "Ġleg",
        -9.59587666864042
      ],
      [
        "Ġvital",
        -9.59690775506121
      ],
      [
        "Ġnative",
        -9.597423453471752
      ],
      [
        "Ġfoot",
        -9.59759771165332
      ],
      [
        "Ġtasks",
        -9.597923274718823
      ],
      [
        "Ġsend",
        -9.599181534013637
      ],
      [
        "Ġcouple",
        -9.60020131727554
      ],
      [
        "Ġpaint",
        -9.600770605261353
      ],
      [
        "Ġrecognize",
        -9.600780486728702
      ],
      [
        "Ġled",
        -9.600790717617574
      ],
      [
        "Ġseed",
        -9.601238336412148
      ],
      [
        "Ġsevere",
        -9.603802762663214
      ],
      [
        "Ġexpect",
        -9.603888169011118
      ],
      [
        "An",
        -9.604395265223514
      ],
      [
        "Ġdrawing",
        -9.604523984130006
      ],
      [
        "Ġvegetables",
        -9.604693900497038
      ],
      [
        "yond",
        -9.60515049635718
      ],
      [
        "Ġprint",
        -9.60539652548259
      ],
      [
        "Ġideas",
        -9.607419239400848
      ],
      [
        "ism",
        -9.60767094454377
      ],
      [
        "Ġroad",
        -9.608639124812292
      ],
      [
        "Ġcolour",
        -9.609506756552312
      ],
      [
        "Ġhighlight",
        -9.6109710582673
      ],
      [
        "went",
        -9.61142712529157
      ],
      [
        "Ġpanel",
        -9.612501161576995
      ],
      [
        "Ġmouth",
        -9.613456303656475
      ],
      [
        "mm",
        -9.613539910673266
      ],
      [
        "Ġinternal",
        -9.613547899299853
      ],
      [
        "fully",
        -9.613570594182535
      ],
      [
        "Ġjoint",
        -9.613819118811287
      ],
      [
        "Ġwonder",
        -9.614496071889697
      ],
      [
        "Ġpath",
        -9.614847609958504
      ],
      [
        "Ġmechanism",
        -9.61485224227058
      ],
      [
        "Ġconcentration",
        -9.61486042313608
      ],
      [
        "Ġdynamic",
        -9.615567454196182
      ],
      [
        "Ġworth",
        -9.615779377296416
      ],
      [
        "Ġmeaning",
        -9.617923226942334
      ],
      [
        "Ġwind",
        -9.61883870421692
      ],
      [
        "Ġreflect",
        -9.619322071903902
      ],
      [
        "Ġolder",
        -9.619582292775874
      ],
      [
        "Ġcommunit",
        -9.61994028730673
      ],
      [
        "Ġchang",
        -9.620258315210844
      ],
      [
        "Ġclaim",
        -9.621462288624848
      ],
      [
        "Ġmulti",
        -9.621591155377338
      ],
      [
        "ĠGod",
        -9.623166217376037
      ],
      [
        "With",
        -9.623538103094177
      ],
      [
        "They",
        -9.62475500651038
      ],
      [
        "Ġco",
        -9.625159990877329
      ],
      [
        "Ġerror",
        -9.626760887936571
      ],
      [
        "Ġexpensive",
        -9.629329423330894
      ],
      [
        "Ġdeliver",
        -9.629540160015768
      ],
      [
        "came",
        -9.630515325521324
      ],
      [
        "gan",
        -9.631482794982157
      ],
      [
        "ĠOnc",
        -9.631508333889457
      ],
      [
        "ĠAre",
        -9.63167636258636
      ],
      [
        "Ġboard",
        -9.632683159516388
      ],
      [
        "Ġtexture",
        -9.633379271610815
      ],
      [
        "Ġcomfortabl",
        -9.635281409921149
      ],
      [
        "Ġtrain",
        -9.635341382759377
      ],
      [
        "ĠNow",
        -9.64455564543344
      ],
      [
        "Ġstuff",
        -9.644891647009054
      ],
      [
        "Ġdead",
        -9.64606922024806
      ],
      [
        "Ġlens",
        -9.646396358348648
      ],
      [
        "Ġmedium",
        -9.646687011930332
      ],
      [
        "Ġheavy",
        -9.6479360846351
      ],
      [
        "ĠOf",
        -9.648133087056111
      ],
      [
        "ĠLet",
        -9.648162651304611
      ],
      [
        "Ġthousand",
        -9.648940663596616
      ],
      [
        "written",
        -9.650440281802286
      ],
      [
        "Ġsport",
        -9.650787555252162
      ],
      [
        "Ġprevious",
        -9.650983043647386
      ],
      [
        "Ġaccept",
        -9.651867635762391
      ],
      [
        "Ġimport",
        -9.652206050722524
      ],
      [
        "Ġfamili",
        -9.65463337573748
      ],
      [
        "Ġreported",
        -9.65646844061306
      ],
      [
        "Ġdepth",
        -9.657208703532202
      ],
      [
        "Ġpropert",
        -9.65726707303262
      ],
      [
        "Do",
        -9.65765717354477
      ],
      [
        "Ġpush",
        -9.658322543584331
      ],
      [
        "Ġsweet",
        -9.658372522068433
      ],
      [
        "Ġsteel",
        -9.658904972660276
      ],
      [
        "ĠMake",
        -9.658958755551804
      ],
      [
        "Ġwire",
        -9.659351730988208
      ],
      [
        "Ġbar",
        -9.659809338899354
      ],
      [
        "hap",
        -9.661446562663317
      ],
      [
        "Ġstates",
        -9.661984363956735
      ],
      [
        "ĠState",
        -9.661984545232576
      ],
      [
        "aught",
        -9.662429428978047
      ],
      [
        "ĠWho",
        -9.66337528874616
      ],
      [
        "Ġoperat",
        -9.66465500461177
      ],
      [
        "Ġphase",
        -9.666488852847944
      ],
      [
        "ĠDay",
        -9.670041454374209
      ],
      [
        "Ġtechnologies",
        -9.67119977378437
      ],
      [
        "Ġearth",
        -9.673503438102252
      ],
      [
        "ĠEnglish",
        -9.673890956994178
      ],
      [
        "Ġimplement",
        -9.674744033372662
      ],
      [
        "Ġdemonstrate",
        -9.675731219485185
      ],
      [
        "Ġfair",
        -9.67682291281386
      ],
      [
        "Ġrefer",
        -9.67831930300504
      ],
      [
        "Ġwindow",
        -9.67984787309804
      ],
      [
        "Ġrecycl",
        -9.682032710267588
      ],
      [
        "Ġwrite",
        -9.682472074536896
      ],
      [
        "Ġsurrounding",
        -9.68368208756164
      ],
      [
        "Ġnoise",
        -9.68377998380775
      ],
      [
        "Ġreveal",
        -9.683886482029395
      ],
      [
        "Ġfinancial",
        -9.684113155381423
      ],
      [
        "Ġround",
        -9.684198284166875
      ],
      [
        "Ġblade",
        -9.684623858939856
      ],
      [
        "ĠFirst",
        -9.68493961758692
      ],
      [
        "Ġsort",
        -9.68744106389019
      ],
      [
        "Ġsmell",
        -9.69340186156098
      ],
      [
        "Ġchallenge",
        -9.693697819026964
      ],
      [
        "Ġstand",
        -9.694332669764451
      ],
      [
        "Ġmatch",
        -9.694697512901914
      ],
      [
        "Ġstem",
        -9.695953887414005
      ],
      [
        "Ġsociet",
        -9.696338243781163
      ],
      [
        "Ġcontainer",
        -9.696478512547138
      ],
      [
        "Ġcarrie",
        -9.69699734814801
      ],
      [
        "Ġattempt",
        -9.697183955070209
      ],
      [
        "Ġcapture",
        -9.697343498869584
      ],
      [
        "Ġinsight",
        -9.698095032887707
      ],
      [
        "Ġgrass",
        -9.698183785742838
      ],
      [
        "Ġcheese",
        -9.698557683612094
      ],
      [
        "Ġonto",
        -9.700237032031543
      ],
      [
        "Ġcoming",
        -9.701787473168526
      ],
      [
        "Ġfund",
        -9.701959045415505
      ],
      [
        "Ġdriv",
        -9.702367149590414
      ],
      [
        "Ġhapp",
        -9.703205510636916
      ],
      [
        "Ġsell",
        -9.703818919647391
      ],
      [
        "Ġpot",
        -9.704981885277506
      ],
      [
        "ĠLake",
        -9.706180672240794
      ],
      [
        "Ġoutcome",
        -9.706460292479823
      ],
      [
        "Ġstudie",
        -9.707333321987605
      ],
      [
        "for",
        -9.707713391452993
      ],
      [
        "About",
        -9.709592563681404
      ],
      [
        "created",
        -9.709639384175984
      ],
      [
        "Ġfunctions",
        -9.710347833526209
      ],
      [
        "Ġdrug",
        -9.710596390540172
      ],
      [
        "ĠWater",
        -9.712864685157353
      ],
      [
        "Ġfight",
        -9.714921051965778
      ],
      [
        "Ġmotion",
        -9.71593613806829
      ],
      [
        "Ġconsumer",
        -9.71633451643642
      ],
      [
        "are",
        -9.716793939684042
      ],
      [
        "Ġvoltage",
        -9.718047045352174
      ],
      [
        "Y",
        -9.718062905970651
      ],
      [
        "Ġfriend",
        -9.718743886336917
      ],
      [
        "Ġimmune",
        -9.719299552671668
      ],
      [
        "Ġhydrogen",
        -9.719484141630396
      ],
      [
        "body",
        -9.719811030412446
      ],
      [
        "Ġassessment",
        -9.720880992536896
      ],
      [
        "ĠOr",
        -9.72128569998894
      ],
      [
        "Ġpredict",
        -9.721518049761794
      ],
      [
        "ĠAccording",
        -9.721685526275635
      ],
      [
        "held",
        -9.722385947115374
      ],
      [
        "Ġwar",
        -9.722652937704948
      ],
      [
        "-base",
        -9.72270230176064
      ],
      [
        "Ġhuge",
        -9.723601323668454
      ],
      [
        "$",
        -9.723871733229783
      ],
      [
        "Ġdrop",
        -9.72529827955979
      ],
      [
        "ĠCO",
        -9.72545239749788
      ],
      [
        "Ġdegrees",
        -9.725928043797778
      ],
      [
        "Ġgames",
        -9.726526050218816
      ],
      [
        "ything",
        -9.726648857929913
      ],
      [
        "head",
        -9.727424312835437
      ],
      [
        "Ġorganization",
        -9.727686938441156
      ],
      [
        "ĠUs",
        -9.728682865726917
      ],
      [
        "Ġphotograph",
        -9.728962217811985
      ],
      [
        "Ġspeak",
        -9.729131774031472
      ],
      [
        "Ġplanet",
        -9.729672710688137
      ],
      [
        "ĠPlant",
        -9.730850439615391
      ],
      [
        "ite",
        -9.732344804159576
      ],
      [
        "Ġflat",
        -9.732973484852897
      ],
      [
        "Ġsmooth",
        -9.733751854714946
      ],
      [
        "ĠRNA",
        -9.73414515654978
      ],
      [
        "Ġexpand",
        -9.734369718148557
      ],
      [
        "Ġdouble",
        -9.735425979880263
      ],
      [
        ".com",
        -9.736093865794215
      ],
      [
        "Ġbiological",
        -9.736221551301242
      ],
      [
        "efore",
        -9.736417171878234
      ],
      [
        "Ġpractical",
        -9.737887352119916
      ],
      [
        "if",
        -9.738773721956226
      ],
      [
        "Ġweb",
        -9.73887011812356
      ],
      [
        "Ġpieces",
        -9.739349818802095
      ],
      [
        "Ġtherap",
        -9.739633793766966
      ],
      [
        "Ġsecure",
        -9.739800944548236
      ],
      [
        "work",
        -9.740534683734303
      ],
      [
        "Ġevolution",
        -9.743128157046032
      ],
      [
        "Ġscreen",
        -9.74328740040205
      ],
      [
        "Ġperspective",
        -9.743528379805204
      ],
      [
        "Ġregions",
        -9.745095629062252
      ],
      [
        "That",
        -9.74589904394991
      ],
      [
        "Ġlearned",
        -9.74602260535222
      ],
      [
        "Ġsurvive",
        -9.747301424858223
      ],
      [
        "Ġheight",
        -9.74743117658441
      ],
      [
        "ĠNOT",
        -9.747983778081757
      ],
      [
        "Ġwanted",
        -9.748874274981215
      ],
      [
        "ily",
        -9.749897876221588
      ],
      [
        "Ġmen",
        -9.749924293086558
      ],
      [
        "Ġnational",
        -9.74993318747876
      ],
      [
        "Ġrain",
        -9.750678947301813
      ],
      [
        "Ġadvantage",
        -9.751059078631908
      ],
      [
        "Ġmeasures",
        -9.751853599704637
      ],
      [
        "Ġsurvey",
        -9.752116848663686
      ],
      [
        "Ġanti",
        -9.75276855049988
      ],
      [
        "Ġhabitat",
        -9.75432110332542
      ],
      [
        "ship",
        -9.755401775620603
      ],
      [
        "Ġaffected",
        -9.756576388329286
      ],
      [
        "ĠService",
        -9.757351053608415
      ],
      [
        "Ġstructures",
        -9.757478222027869
      ],
      [
        "Ġadapt",
        -9.75750708935571
      ],
      [
        "Ġmedicine",
        -9.75808647153402
      ],
      [
        "Ġteaching",
        -9.760976845839911
      ],
      [
        "Ġbackground",
        -9.761337115797737
      ],
      [
        "Ġmiss",
        -9.761909142558626
      ],
      [
        "Ġfail",
        -9.761933476190473
      ],
      [
        "Ġcatch",
        -9.762658161531853
      ],
      [
        "Ġmaximu",
        -9.76296828204118
      ],
      [
        "ĠOther",
        -9.763545153066286
      ],
      [
        "Ġfarmer",
        -9.76412061324607
      ],
      [
        "Ġappearance",
        -9.764436648105974
      ],
      [
        "Ġopportunit",
        -9.765256705676055
      ],
      [
        "Ġinternational",
        -9.765296193323008
      ],
      [
        "Ġmeasurement",
        -9.767285463425624
      ],
      [
        "Ġinches",
        -9.767597323819356
      ],
      [
        "Ġexcellent",
        -9.769889219614647
      ],
      [
        "ĠUK",
        -9.770318882396
      ],
      [
        "Ġexamples",
        -9.770441698430336
      ],
      [
        "Ġdriver",
        -9.771425541273508
      ],
      [
        "Ġcalculate",
        -9.771476906530776
      ],
      [
        "Ġaren",
        -9.772873330100175
      ],
      [
        "Ġmixture",
        -9.773957180851166
      ],
      [
        "Ġmember",
        -9.774849684411812
      ],
      [
        "Ġecosystem",
        -9.775522118797255
      ],
      [
        "Ġconservation",
        -9.775600745888134
      ],
      [
        "Ġassist",
        -9.776064395338272
      ],
      [
        "water",
        -9.776176756020163
      ],
      [
        "ĠInstitute",
        -9.776356787038988
      ],
      [
        "expected",
        -9.777983396251456
      ],
      [
        "being",
        -9.779842295813122
      ],
      [
        "Ġmanual",
        -9.780489855085388
      ],
      [
        "ĠMay",
        -9.780675565993535
      ],
      [
        "Ġbasi",
        -9.783347953900284
      ],
      [
        ".)Ċ",
        -9.783574768032937
      ],
      [
        "Ġselection",
        -9.784523247151432
      ],
      [
        "ĠEven",
        -9.78515199918176
      ],
      [
        "Ġclick",
        -9.787121339192629
      ],
      [
        "Ġcapabilit",
        -9.787360079750968
      ],
      [
        "ish",
        -9.78781910861604
      ],
      [
        "Ġsaw",
        -9.788161180788602
      ],
      [
        "Ġstaff",
        -9.78907329198054
      ],
      [
        "Ġenzyme",
        -9.792326924057276
      ],
      [
        "Ġgreate",
        -9.792448896231832
      ],
      [
        "over",
        -9.792563290775714
      ],
      [
        "ĠCalifornia",
        -9.793180779550472
      ],
      [
        "Ġgrade",
        -9.793703640592923
      ],
      [
        "ĠQ",
        -9.793780652318056
      ],
      [
        "Ġhit",
        -9.79379438411734
      ],
      [
        "Here",
        -9.794736516894265
      ],
      [
        "Ġsession",
        -9.794877553058951
      ],
      [
        "Ġvaluable",
        -9.795044255146236
      ],
      [
        ".[",
        -9.795708903216823
      ],
      [
        "Ġchain",
        -9.798003410106432
      ],
      [
        "Ġplaces",
        -9.798511373051364
      ],
      [
        "Ġsub",
        -9.79918991237221
      ],
      [
        "Ġsymbol",
        -9.799569558537698
      ],
      [
        "Ġvoice",
        -9.799729701378055
      ],
      [
        "Ġplease",
        -9.799891041298924
      ],
      [
        "Ġcoast",
        -9.80135537253733
      ],
      [
        "Ġoffice",
        -9.802540412683278
      ],
      [
        "Ġroutine",
        -9.803611161153452
      ],
      [
        "Ġclasses",
        -9.803743046868057
      ],
      [
        "Ġbooks",
        -9.804380780216588
      ],
      [
        "Ġbodie",
        -9.805021417560134
      ],
      [
        "On",
        -9.805212798769508
      ],
      [
        "Ġequation",
        -9.80712442840756
      ],
      [
        "Ġshade",
        -9.810835113299662
      ],
      [
        "tiny",
        -9.811513841776677
      ],
      [
        "ĠâĢ¦",
        -9.811873013781426
      ],
      [
        "Ġpossibilit",
        -9.81242983247211
      ],
      [
        "Ġwildlif",
        -9.81286806010641
      ],
      [
        "Ġannual",
        -9.8133897357215
      ],
      [
        "side",
        -9.813645608943384
      ],
      [
        "ar",
        -9.813784950687833
      ],
      [
        "Ġoptimal",
        -9.813893219351511
      ],
      [
        "Ġparticipant",
        -9.815201270809006
      ],
      [
        "Ġcreative",
        -9.815743290479483
      ],
      [
        "Ġdangerous",
        -9.815793185805418
      ],
      [
        "ĠTherefor",
        -9.81583318978521
      ],
      [
        "Our",
        -9.816720464632304
      ],
      [
        "Ġbottle",
        -9.819230559988323
      ],
      [
        "Ġraw",
        -9.81936208923176
      ],
      [
        "Ġexpose",
        -9.819698070328306
      ],
      [
        "Ġapproximate",
        -9.819997891369862
      ],
      [
        "ctober",
        -9.82063030113035
      ],
      [
        "Ġisland",
        -9.8207132484549
      ],
      [
        "lost",
        -9.821106881166216
      ],
      [
        "-like",
        -9.821110647589578
      ],
      [
        "Ġprogress",
        -9.82114797645168
      ],
      [
        "Ġcore",
        -9.821299078447405
      ],
      [
        "Ġactual",
        -9.821404420177478
      ],
      [
        "X",
        -9.821409810080254
      ],
      [
        "Ġyield",
        -9.821621393284005
      ],
      [
        "Ġeventual",
        -9.821901705680922
      ],
      [
        "Ġlegal",
        -9.821963636440245
      ],
      [
        "Ġcoat",
        -9.825494714339234
      ],
      [
        "Ġcross",
        -9.82587918484967
      ],
      [
        "Ġagent",
        -9.827844821097528
      ],
      [
        "Ġhabit",
        -9.829568285944887
      ],
      [
        "Ġbirth",
        -9.82980134458278
      ],
      [
        "Ġbright",
        -9.830103250368378
      ],
      [
        "Ġcup",
        -9.830107371988248
      ],
      [
        "Ġburn",
        -9.830763804924093
      ],
      [
        "Ġcustomer",
        -9.831283504976597
      ],
      [
        "Ġchemicals",
        -9.83179401209723
      ],
      [
        "Ġinform",
        -9.831820559862
      ],
      [
        "Ġbreed",
        -9.831943511795114
      ],
      [
        "Ġschedule",
        -9.83236388896212
      ],
      [
        "ĠDur",
        -9.832617431421498
      ],
      [
        "Ġstrain",
        -9.833208510062011
      ],
      [
        "âĢĻt",
        -9.833241427814144
      ],
      [
        "Ġnumer",
        -9.833477424904872
      ],
      [
        "Ġbeginning",
        -9.834333183020368
      ],
      [
        "Ġdecade",
        -9.834504167527086
      ],
      [
        "Ġfashion",
        -9.83467886826948
      ],
      [
        "Ġfeeding",
        -9.835171900194007
      ],
      [
        "Ġmanufacturer",
        -9.83527074594392
      ],
      [
        "|",
        -9.83534749267538
      ],
      [
        "Ġmembrane",
        -9.836573270145973
      ],
      [
        "-free",
        -9.83686889294005
      ],
      [
        "Ġconcrete",
        -9.837285333832051
      ],
      [
        "Ġprocessing",
        -9.837663161970593
      ],
      [
        "Ġsquare",
        -9.83802383823742
      ],
      [
        "Ġrespond",
        -9.838519409332813
      ],
      [
        "ĠDepartment",
        -9.838948808105778
      ],
      [
        "Ġrates",
        -9.839419594254291
      ],
      [
        "Ġcentral",
        -9.839744754537085
      ],
      [
        "Ġatmosphere",
        -9.839818439498025
      ],
      [
        "Ġadvice",
        -9.840003194694589
      ],
      [
        "Ġtransfer",
        -9.840208754962951
      ],
      [
        "After",
        -9.840394988472006
      ],
      [
        "Ġbillion",
        -9.841511905096088
      ],
      [
        "Ġfinish",
        -9.841727430516972
      ],
      [
        "Ġreduction",
        -9.841763674199528
      ],
      [
        "Ġsports",
        -9.841908530299248
      ],
      [
        "Ġcomprehensive",
        -9.84370135339874
      ],
      [
        "Ġatom",
        -9.84410618969784
      ],
      [
        "Ġartist",
        -9.844394793244248
      ],
      [
        "Ġroots",
        -9.8446364473284
      ],
      [
        "Ġstandards",
        -9.84540827802708
      ],
      [
        "wide",
        -9.846193168380037
      ],
      [
        "Ġcommand",
        -9.84757337513706
      ],
      [
        "which",
        -9.847866884285374
      ],
      [
        "Ġhour",
        -9.848742829008174
      ],
      [
        "Ġsounds",
        -9.849393470292114
      ],
      [
        "Ġangle",
        -9.850988414119184
      ],
      [
        "Ġpolluti",
        -9.85257837624053
      ],
      [
        "ĠAfrica",
        -9.853616647623756
      ],
      [
        "Ġmiles",
        -9.853842576569075
      ],
      [
        "Al",
        -9.854633771656609
      ],
      [
        "Ġclassroom",
        -9.85662357171909
      ],
      [
        "ĠIndia",
        -9.8566679929436
      ],
      [
        "Ġnice",
        -9.858929513086869
      ],
      [
        "Ġbroad",
        -9.859443361778077
      ],
      [
        "Ġhundred",
        -9.86032855690926
      ],
      [
        "Ġcard",
        -9.860334635292327
      ],
      [
        "Ġantibiotic",
        -9.860384621511676
      ],
      [
        "Ġload",
        -9.861263924932397
      ],
      [
        "ĠPark",
        -9.862524525763236
      ],
      [
        "Ġ|",
        -9.862723987102772
      ],
      [
        "Ġphotos",
        -9.863543492487317
      ],
      [
        "Ġshell",
        -9.863959207152837
      ],
      [
        "Ġidentifie",
        -9.864249886573193
      ],
      [
        "ĠpH",
        -9.864654350730708
      ],
      [
        "Ġfossil",
        -9.866793329250772
      ],
      [
        "tips",
        -9.867767355921451
      ],
      [
        "Ġshift",
        -9.867902192822688
      ],
      [
        "Ġflood",
        -9.868396478352944
      ],
      [
        "Ġcloud",
        -9.868916462278976
      ],
      [
        "Ġearlie",
        -9.869401546067737
      ],
      [
        "Ġmotor",
        -9.86982497417772
      ],
      [
        "Ġexternal",
        -9.870226097577138
      ],
      [
        "ĠFood",
        -9.871831719428318
      ],
      [
        "Ġtransform",
        -9.871946454629429
      ],
      [
        "Ġeconomic",
        -9.872379228074008
      ],
      [
        "ĠSince",
        -9.872430783598158
      ],
      [
        "Ġfavorite",
        -9.873442843810338
      ],
      [
        "Ġemotion",
        -9.873598922482891
      ],
      [
        "Ġresident",
        -9.874977550374933
      ],
      [
        "Ġcomfort",
        -9.87561273531362
      ],
      [
        "Ġcategor",
        -9.876125544538729
      ],
      [
        "Ġdistribution",
        -9.877324285281649
      ],
      [
        "Ġabsorb",
        -9.877542150504585
      ],
      [
        "Ġoperate",
        -9.87884636525165
      ],
      [
        "Ġsolve",
        -9.87919642698129
      ],
      [
        "Ġstraight",
        -9.880199413260208
      ],
      [
        "Ġinstructions",
        -9.88167284497889
      ],
      [
        "leading",
        -9.881940214219329
      ],
      [
        "ĠOver",
        -9.882622287838135
      ],
      [
        "Ġartificial",
        -9.88280184344872
      ],
      [
        "Ġtopic",
        -9.883224292536005
      ],
      [
        "Ġdiagram",
        -9.883506262740855
      ],
      [
        "related",
        -9.883820042387864
      ],
      [
        "Ġthin",
        -9.883881064542743
      ],
      [
        "Ġreliabl",
        -9.887016116364954
      ],
      [
        "Ġdoor",
        -9.88871536094019
      ],
      [
        "immediately",
        -9.88924945092761
      ],
      [
        "ĠAustralia",
        -9.889442236471982
      ],
      [
        "Ġtransition",
        -9.889906956068517
      ],
      [
        "Ġlab",
        -9.890737386547505
      ],
      [
        "Ġlung",
        -9.89098722602796
      ],
      [
        "ĠRiver",
        -9.891098081192975
      ],
      [
        "Ġblog",
        -9.892575273804798
      ],
      [
        "Ġcomment",
        -9.894003761018926
      ],
      [
        "Ġmarine",
        -9.895736492052755
      ],
      [
        "ĠJust",
        -9.896289470509087
      ],
      [
        "Ġcontrast",
        -9.89677226501913
      ],
      [
        "ber",
        -9.89796856923268
      ],
      [
        "Ġfix",
        -9.89798982358478
      ],
      [
        "Ġinterface",
        -9.899881992851144
      ],
      [
        "Ġcustomers",
        -9.899934207188332
      ],
      [
        "Ġfabric",
        -9.899974058321318
      ],
      [
        "Ġbutton",
        -9.900679277769452
      ],
      [
        "that",
        -9.901324032733203
      ],
      [
        "K",
        -9.902568240981765
      ],
      [
        "Ġconclusion",
        -9.903374617218873
      ],
      [
        "Ġsuit",
        -9.90457830215401
      ],
      [
        "Ġemotional",
        -9.904827797987682
      ],
      [
        "Ġelectronic",
        -9.904839597270922
      ],
      [
        "stock",
        -9.905518006142652
      ],
      [
        "Ġprefer",
        -9.907607197173071
      ],
      [
        "Ġinvestment",
        -9.90821806850147
      ],
      [
        "Ġdegree",
        -9.908226401909989
      ],
      [
        "ĠStudent",
        -9.909370015021098
      ],
      [
        "Ġchocolate",
        -9.91022627034582
      ],
      [
        "Ġsnail",
        -9.910487807207636
      ],
      [
        "Ġbeneficial",
        -9.910593737208066
      ],
      [
        "Ġdiscussion",
        -9.91063424620667
      ],
      [
        "Ġauto",
        -9.910653377070645
      ],
      [
        "ĠEvery",
        -9.910698078995637
      ],
      [
        "Ġsector",
        -9.910856302585156
      ],
      [
        "Ġengage",
        -9.910905325017357
      ],
      [
        "rought",
        -9.911961430175046
      ],
      [
        "Ġtypical",
        -9.912681254889158
      ],
      [
        "ĠLife",
        -9.914701499541746
      ],
      [
        "Ġchalleng",
        -9.91636206366216
      ],
      [
        "Ġweed",
        -9.91705197073656
      ],
      [
        "Ġinternet",
        -9.917302428600864
      ],
      [
        "Ġskill",
        -9.918043189371213
      ],
      [
        "Ġblend",
        -9.918348368950005
      ],
      [
        "Ġvirtual",
        -9.919129965104002
      ],
      [
        "Ġeducational",
        -9.919217618341484
      ],
      [
        "Ġorganisms",
        -9.919631926904987
      ],
      [
        "Ġexpress",
        -9.921693765183573
      ],
      [
        "ĠEuropean",
        -9.921792407663713
      ],
      [
        "Ġindependent",
        -9.921884486707205
      ],
      [
        "ĠEducation",
        -9.922631407367566
      ],
      [
        "Ġindustrial",
        -9.923166852513098
      ],
      [
        "Ġstorie",
        -9.924935982557445
      ],
      [
        "board",
        -9.926010394506037
      ],
      [
        "No",
        -9.927289438571323
      ],
      [
        "Ġthreat",
        -9.92734186429671
      ],
      [
        "Ġrespect",
        -9.927627985420164
      ],
      [
        "Ġgoals",
        -9.927873628817762
      ],
      [
        "Ġassess",
        -9.927966397346063
      ],
      [
        "Ġhazard",
        -9.928032339945194
      ],
      [
        "All",
        -9.929506000106551
      ],
      [
        "Ġformation",
        -9.930355209566148
      ],
      [
        "up",
        -9.930544985839292
      ],
      [
        "#",
        -9.931057468351844
      ],
      [
        "Ġstock",
        -9.931167242704186
      ],
      [
        "Man",
        -9.932606310374876
      ],
      [
        "Ġnest",
        -9.932781975597669
      ],
      [
        "Ġconsume",
        -9.933355871147484
      ],
      [
        "Ġstation",
        -9.935609174973235
      ],
      [
        "Ġremoved",
        -9.936119608935424
      ],
      [
        "kept",
        -9.93768508627057
      ],
      [
        "Ġvariation",
        -9.937885637594125
      ],
      [
        "visible",
        -9.93823760201829
      ],
      [
        "Ġfailure",
        -9.938569542002986
      ],
      [
        "Ġrid",
        -9.938878954811717
      ],
      [
        "Ġemergenc",
        -9.9401278903373
      ],
      [
        "Ġimprov",
        -9.94050912990343
      ],
      [
        "told",
        -9.940937178697938
      ],
      [
        "ĠYork",
        -9.941015633653857
      ],
      [
        "ification",
        -9.94119761889696
      ],
      [
        "Ġbroke",
        -9.941329113938654
      ],
      [
        "Ġportion",
        -9.942499263976444
      ],
      [
        "Ġoffering",
        -9.943616807814744
      ],
      [
        "Ġmelt",
        -9.945290812909509
      ],
      [
        "Ġtrigger",
        -9.945413995780822
      ],
      [
        "Ġharmful",
        -9.945486990864946
      ],
      [
        "Ġcompost",
        -9.946390036437757
      ],
      [
        "Ġtrip",
        -9.946390444205134
      ],
      [
        "Ġkitchen",
        -9.948273588886526
      ],
      [
        "Ġcomposition",
        -9.949124526865372
      ],
      [
        "Ġoutdoor",
        -9.950523096916209
      ],
      [
        "Ġgenome",
        -9.950715191671335
      ],
      [
        "Ġwalls",
        -9.951526835746638
      ],
      [
        "Ġmold",
        -9.952568942694214
      ],
      [
        "Ġtransmission",
        -9.952717694267331
      ],
      [
        "Ġpregnanc",
        -9.953514102884846
      ],
      [
        "Ġmid",
        -9.955936582879945
      ],
      [
        "ought",
        -9.955954464108007
      ],
      [
        "Ġinnovation",
        -9.9560492862913
      ],
      [
        "Ġzone",
        -9.9561377710489
      ],
      [
        "Ġcultural",
        -9.95713667414138
      ],
      [
        "Ġlay",
        -9.958315516202958
      ],
      [
        "latest",
        -9.95936284583549
      ],
      [
        "Ġinvest",
        -9.95940710563162
      ],
      [
        "Ġaudio",
        -9.960469957816445
      ],
      [
        "Ġobvious",
        -9.960570941620428
      ],
      [
        "ĠFurther",
        -9.960758841802509
      ],
      [
        "Ġsnow",
        -9.963583183040706
      ],
      [
        "Ġteach",
        -9.96447497264188
      ],
      [
        "Ġowner",
        -9.964734558802
      ],
      [
        "Ġscore",
        -9.964779492247173
      ],
      [
        "Ġaircraft",
        -9.965213180968414
      ],
      [
        "Ġfan",
        -9.96620219507664
      ],
      [
        "Ġcarefully",
        -9.967445317584795
      ],
      [
        "Ġregulator",
        -9.967527926098263
      ],
      [
        "Ġratio",
        -9.967740204316769
      ],
      [
        "Ġgets",
        -9.969081396383787
      ],
      [
        "Ġattract",
        -9.969614663411551
      ],
      [
        "tion",
        -9.969852176025508
      ],
      [
        "Ġultimate",
        -9.970449974724836
      ],
      [
        "Ġinstallation",
        -9.970655754700203
      ],
      [
        "Ġheal",
        -9.971600369797995
      ],
      [
        "what",
        -9.971713480286466
      ],
      [
        "Ġcream",
        -9.971715902761378
      ],
      [
        "Ġextract",
        -9.973028138199568
      ],
      [
        "ĠRe",
        -9.974134473335155
      ],
      [
        "Ġhole",
        -9.975672076684564
      ],
      [
        "Ġharvest",
        -9.976200971198288
      ],
      [
        "Ġletter",
        -9.979777062306292
      ],
      [
        "Ġcanno",
        -9.98012883158967
      ],
      [
        "Ġcharacter",
        -9.980340960967268
      ],
      [
        "ĠPeople",
        -9.98084502313497
      ],
      [
        "Ġagriculture",
        -9.981120073615664
      ],
      [
        "Ġguid",
        -9.981120369328178
      ],
      [
        "Ġcable",
        -9.981442140154968
      ],
      [
        "Ġreward",
        -9.98149860477468
      ],
      [
        "Ġwaves",
        -9.981749332559058
      ],
      [
        "Ġpounds",
        -9.981783759751382
      ],
      [
        "Ġedit",
        -9.982313068862704
      ],
      [
        "upon",
        -9.982625930386076
      ],
      [
        "Ġgap",
        -9.983068877128854
      ],
      [
        "Ġupdate",
        -9.984584552080406
      ],
      [
        "-quality",
        -9.985035027613636
      ],
      [
        "ities",
        -9.985227562011522
      ],
      [
        "Ġinteract",
        -9.985683042571
      ],
      [
        "Ġarrow",
        -9.986631753091238
      ],
      [
        "Ġtrust",
        -9.986977179765695
      ],
      [
        "Ġmorning",
        -9.98919946472324
      ],
      [
        "Ġcreature",
        -9.989295946766012
      ],
      [
        "Ġdioxide",
        -9.989849473320042
      ],
      [
        "Ġutilize",
        -9.989892909933204
      ],
      [
        "Ġphoto",
        -9.990161198777676
      ],
      [
        "ĠKeep",
        -9.992365005319956
      ],
      [
        "Ġcreation",
        -9.993057933504936
      ],
      [
        "Ġrace",
        -9.993798589475327
      ],
      [
        "tely",
        -9.993907848723966
      ],
      [
        "Ġboat",
        -9.99418505592458
      ],
      [
        "Ġautomatic",
        -9.99437182145485
      ],
      [
        "-friendly",
        -9.994398603443418
      ],
      [
        "Ġhunting",
        -9.995161861360488
      ],
      [
        "tic",
        -9.995194578591468
      ],
      [
        "Ġexamine",
        -9.995610811536896
      ],
      [
        "Ġamazing",
        -9.995767662715462
      ],
      [
        "Ġbleed",
        -9.996033375569022
      ],
      [
        "adding",
        -9.99627538018495
      ],
      [
        "Are",
        -9.996377390704144
      ],
      [
        "Ġhelpful",
        -9.99640657791613
      ],
      [
        "ĠAir",
        -9.996537360738731
      ],
      [
        "Ġimprovement",
        -9.99679590282047
      ],
      [
        "Ġroll",
        -9.997454842439732
      ],
      [
        "Ġmaster",
        -9.999348218654395
      ],
      [
        "Ġfiles",
        -9.99945386926278
      ],
      [
        "-in",
        -9.999628018322095
      ],
      [
        "Ġsheet",
        -10.002138804775312
      ],
      [
        "Ġprivate",
        -10.002449225820447
      ],
      [
        "-time",
        -10.00288823677231
      ],
      [
        "Ġconsequence",
        -10.002991578233974
      ],
      [
        "Ġagree",
        -10.003717448299444
      ],
      [
        "Ġtechnical",
        -10.004161898983204
      ],
      [
        "Ġwave",
        -10.004175522090048
      ],
      [
        "Ġabsolute",
        -10.004184018012277
      ],
      [
        "Ġbaking",
        -10.004206177855044
      ],
      [
        "Ġplanting",
        -10.00426291892554
      ],
      [
        "ĠEurope",
        -10.004301334591943
      ],
      [
        "Ġrestaurant",
        -10.00442729222811
      ],
      [
        "Ġtests",
        -10.00474115962313
      ],
      [
        "Ġcurve",
        -10.005296500192712
      ],
      [
        "Ġupper",
        -10.007222799122175
      ],
      [
        "Ġinteractions",
        -10.007442320234937
      ],
      [
        "Ġtooth",
        -10.00767711260059
      ],
      [
        "Ġregulations",
        -10.008485599581007
      ],
      [
        "Ġdefinition",
        -10.008658788503794
      ],
      [
        "Ġlake",
        -10.009602184410287
      ],
      [
        "Ġwheel",
        -10.009635049461885
      ],
      [
        "Ġdimension",
        -10.009731046153137
      ],
      [
        "Ġchannel",
        -10.010400441688642
      ],
      [
        "ĠBritish",
        -10.010418396700002
      ],
      [
        "Ġthorough",
        -10.010787864859688
      ],
      [
        "Ġfirm",
        -10.011825756456746
      ],
      [
        "Ġassume",
        -10.01218569976296
      ],
      [
        "ĠWell",
        -10.014087801522452
      ],
      [
        "Ġbatteries",
        -10.014228266178405
      ],
      [
        "Ġrenewable",
        -10.01447144061694
      ],
      [
        "Ġrelevan",
        -10.015343897677909
      ],
      [
        "Ġcontinuous",
        -10.01567784219209
      ],
      [
        "words",
        -10.01589649680135
      ],
      [
        "Ġtrial",
        -10.019534073617075
      ],
      [
        "Ġtru",
        -10.019558803579988
      ],
      [
        "Ġlift",
        -10.019642270389523
      ],
      [
        "Ġowners",
        -10.019899090149366
      ],
      [
        "Ġintegrate",
        -10.020464894174104
      ],
      [
        "Ġconsideration",
        -10.020810157637548
      ],
      [
        "Ġindoor",
        -10.02084529333368
      ],
      [
        "Ġexhibit",
        -10.021427701032934
      ],
      [
        "Ġfilm",
        -10.021600190442866
      ],
      [
        "Your",
        -10.021702613446395
      ],
      [
        "Ġprimari",
        -10.021751186147924
      ],
      [
        "ĠDon",
        -10.021770825352949
      ],
      [
        "Ġjoin",
        -10.022168530458853
      ],
      [
        "/or",
        -10.022394562060589
      ],
      [
        "Ġtri",
        -10.022810906400148
      ],
      [
        "ĠEnergy",
        -10.023406088173084
      ],
      [
        "Ġmutation",
        -10.023414615266269
      ],
      [
        "Ġgirl",
        -10.023439692666036
      ],
      [
        "Ġbike",
        -10.024579230250731
      ],
      [
        "Ġtopics",
        -10.024857649750327
      ],
      [
        "Ġprepare",
        -10.024889584284184
      ],
      [
        "Ġdetermined",
        -10.025898316490863
      ],
      [
        "Ġleak",
        -10.026832773735237
      ],
      [
        "Ġplent",
        -10.026886685696844
      ],
      [
        "-year",
        -10.027050884416605
      ],
      [
        "Ġopinion",
        -10.027490747214344
      ],
      [
        "Ġpreviously",
        -10.027882081478268
      ],
      [
        "Ġmajority",
        -10.028072040566752
      ],
      [
        "Ġpainting",
        -10.028658810555354
      ],
      [
        "Ġclinical",
        -10.028858137139132
      ],
      [
        "Ġpack",
        -10.028887236913524
      ],
      [
        "ĠChina",
        -10.029674133151548
      ],
      [
        "Ġhistorical",
        -10.029746840962206
      ],
      [
        "referred",
        -10.030057808960995
      ],
      [
        "Ġstomach",
        -10.03023868175905
      ],
      [
        "Yes",
        -10.03065499386632
      ],
      [
        "Ġmeeting",
        -10.03200130614427
      ],
      [
        "Ġsaving",
        -10.032570403055242
      ],
      [
        "Ġborder",
        -10.032976505564823
      ],
      [
        "Ġversatil",
        -10.033660369362345
      ],
      [
        "Ġweld",
        -10.03402293219943
      ],
      [
        "Ġbreath",
        -10.03420870396188
      ],
      [
        "Ġvessel",
        -10.035569054884256
      ],
      [
        "Ġinner",
        -10.036562972788069
      ],
      [
        "Ġleav",
        -10.037171862929846
      ],
      [
        "ĠJohn",
        -10.038084825629998
      ],
      [
        "Ġlayers",
        -10.04025444261124
      ],
      [
        "Ġtea",
        -10.040428921388337
      ],
      [
        "ĠY",
        -10.0405908193863
      ],
      [
        "ĠMarch",
        -10.041533898633348
      ],
      [
        "mobile",
        -10.04228099511904
      ],
      [
        "Ġgift",
        -10.042574838008033
      ],
      [
        "Ġnutrition",
        -10.042887779868977
      ],
      [
        "ĠAfrican",
        -10.043608152239456
      ],
      [
        "ĠCanada",
        -10.04413676035164
      ],
      [
        "Ġbecom",
        -10.044662678235431
      ],
      [
        "ĠGoogle",
        -10.044919170516115
      ],
      [
        "Ġwouldn",
        -10.045362503560662
      ],
      [
        "Ġminimum",
        -10.046474016107672
      ],
      [
        "Ġbreast",
        -10.046978259932096
      ],
      [
        "Use",
        -10.047195886597848
      ],
      [
        "Answer",
        -10.047269274080453
      ],
      [
        "coming",
        -10.047657532883708
      ],
      [
        "Ġprinciples",
        -10.04884471767138
      ],
      [
        "Ġhormone",
        -10.048875626053878
      ],
      [
        "Ġeight",
        -10.048922776350532
      ],
      [
        "Ġfuse",
        -10.049390565020822
      ],
      [
        "Ġexcessive",
        -10.049392227256988
      ],
      [
        "Ġuniverse",
        -10.049781043961868
      ],
      [
        "Ġemployee",
        -10.049798190247309
      ],
      [
        "Ġgrain",
        -10.050573276826206
      ],
      [
        "Ġeconom",
        -10.050695195762891
      ],
      [
        "Most",
        -10.05090672437692
      ],
      [
        "Ġmath",
        -10.051432843100066
      ],
      [
        "Ġguidelines",
        -10.05456762926817
      ],
      [
        "Ġbill",
        -10.055572660529275
      ],
      [
        "Ġcontract",
        -10.056100647866044
      ],
      [
        "Ġurban",
        -10.056258196091507
      ],
      [
        "Ġpathogen",
        -10.058551008638275
      ],
      [
        "Ġspray",
        -10.058590375058287
      ],
      [
        "Ġharm",
        -10.058960934001432
      ],
      [
        "Ġstatement",
        -10.059317865055457
      ],
      [
        "Ġdivide",
        -10.05933943288329
      ],
      [
        "Ġthick",
        -10.060213107522658
      ],
      [
        "Ġresponsibilit",
        -10.06114677052555
      ],
      [
        "Ġintelligence",
        -10.06165481977719
      ],
      [
        "Ġprior",
        -10.062185232637797
      ],
      [
        "Ġformula",
        -10.063211785295229
      ],
      [
        "Ġlaser",
        -10.063597114034446
      ],
      [
        "Ġimportan",
        -10.06515793798579
      ],
      [
        "Ġanxiet",
        -10.065359097697476
      ],
      [
        "ical",
        -10.067511852778154
      ],
      [
        "Ġobjective",
        -10.06753556271904
      ],
      [
        "Ġglucos",
        -10.06933176778132
      ],
      [
        "Ġdish",
        -10.069391662748307
      ],
      [
        "Ġdesigne",
        -10.069422042552006
      ],
      [
        "Ġdefinite",
        -10.070408560170431
      ],
      [
        "ĠApril",
        -10.071345206882068
      ],
      [
        "Ġdecide",
        -10.07170244386991
      ],
      [
        "Ġsurvival",
        -10.072531509950188
      ],
      [
        "Ġnamed",
        -10.072591907228324
      ],
      [
        "Ġpro",
        -10.072732017779488
      ],
      [
        "ĠTake",
        -10.07287255464965
      ],
      [
        "Ġbeauty",
        -10.073413266511563
      ],
      [
        "ĠRead",
        -10.073487207468348
      ],
      [
        "Ġillness",
        -10.073630802017266
      ],
      [
        "Ġcoffee",
        -10.073903194865716
      ],
      [
        "According",
        -10.074480747198432
      ],
      [
        "regarding",
        -10.074509798214748
      ],
      [
        "ĠHis",
        -10.074762056854354
      ],
      [
        "Ġradio",
        -10.075405523487817
      ],
      [
        "Ġmap",
        -10.07556030902483
      ],
      [
        "Ġcircle",
        -10.077408816841354
      ],
      [
        "Ġtube",
        -10.078021696738524
      ],
      [
        "Ġofficial",
        -10.07810564804304
      ],
      [
        "Ġkidney",
        -10.078211812376038
      ],
      [
        "Ġcompetition",
        -10.07932291749476
      ],
      [
        "Ġsmart",
        -10.079361842611757
      ],
      [
        "Ġmission",
        -10.081321472408426
      ],
      [
        "Ġproduc",
        -10.08229232731696
      ],
      [
        "Ġcommunicate",
        -10.082786559000578
      ],
      [
        "Ġborn",
        -10.08342987173593
      ],
      [
        "Ġfoundation",
        -10.084767240399088
      ],
      [
        "Ġfields",
        -10.084776932331206
      ],
      [
        "Ġgear",
        -10.085215638712407
      ],
      [
        "Ġextensive",
        -10.085677383540146
      ],
      [
        "Ġfundamental",
        -10.08742557040749
      ],
      [
        "Ġprepared",
        -10.088213900136136
      ],
      [
        "Ġorigin",
        -10.088564211392322
      ],
      [
        "Ġminimize",
        -10.088579239777369
      ],
      [
        "Ġtitle",
        -10.089250374458931
      ],
      [
        "Ġrealize",
        -10.090523613553358
      ],
      [
        "Ġcomparison",
        -10.091056752279306
      ],
      [
        "ĠJune",
        -10.091222791346349
      ],
      [
        "Ġnerve",
        -10.091298973602216
      ],
      [
        "Ġshark",
        -10.091541153808318
      ],
      [
        "ĠInternational",
        -10.092631053821329
      ],
      [
        "Conclusion",
        -10.093603936046442
      ],
      [
        "Ġsunlight",
        -10.093733227675454
      ],
      [
        "Ġcareer",
        -10.094142203710566
      ],
      [
        "Ġsong",
        -10.095148466770944
      ],
      [
        "Ġpathway",
        -10.095372319729869
      ],
      [
        "Ġstring",
        -10.09578976384236
      ],
      [
        "Ġwasn",
        -10.095804562511509
      ],
      [
        "Ġsauce",
        -10.0960238603623
      ],
      [
        "ĠWar",
        -10.10041132144058
      ],
      [
        "Ġconstruct",
        -10.101631566465642
      ],
      [
        "Ġconsist",
        -10.101647838576532
      ],
      [
        "Ġfoster",
        -10.101889768873022
      ],
      [
        "Ġcalci",
        -10.102036036309116
      ],
      [
        "Ġsuper",
        -10.102189816451835
      ],
      [
        "nflammation",
        -10.102904729278322
      ],
      [
        "Ġfear",
        -10.103020589782798
      ],
      [
        "Ġtight",
        -10.103393473205642
      ],
      [
        "Ġprinter",
        -10.103660467726964
      ],
      [
        "Ġeliminate",
        -10.104320147574374
      ],
      [
        "ĠLike",
        -10.104419370930298
      ],
      [
        "Ġlaws",
        -10.10476528260055
      ],
      [
        "Ġinnovative",
        -10.106053254838464
      ],
      [
        "Ġshar",
        -10.106331407183715
      ],
      [
        "Ġremov",
        -10.10673311377728
      ],
      [
        "ĠGreat",
        -10.106794456657417
      ],
      [
        "Ġconventional",
        -10.107208128612116
      ],
      [
        "Ġclient",
        -10.107638053621937
      ],
      [
        "Ġintend",
        -10.10874487142189
      ],
      [
        "ence",
        -10.110491061844105
      ],
      [
        "Ġorgan",
        -10.110503247823123
      ],
      [
        "ial",
        -10.11300670818528
      ],
      [
        "My",
        -10.11321393041678
      ],
      [
        "Ġpress",
        -10.113911020727327
      ],
      [
        "Ġdental",
        -10.114352562164417
      ],
      [
        "Ġwoman",
        -10.11512447140403
      ],
      [
        "Ġbehaviour",
        -10.115199734819669
      ],
      [
        "U",
        -10.115564074464311
      ],
      [
        "Ġsit",
        -10.116161370821931
      ],
      [
        "Be",
        -10.116363694501098
      ],
      [
        "ge",
        -10.116394084551647
      ],
      [
        "Ġliver",
        -10.116885811157562
      ],
      [
        "Ġdomain",
        -10.117189943531972
      ],
      [
        "line",
        -10.118172939196878
      ],
      [
        "Ġexplor",
        -10.11893655592063
      ],
      [
        "Ġformat",
        -10.1196157046386
      ],
      [
        "Ġaudience",
        -10.119643676623827
      ],
      [
        "Ġparameter",
        -10.119720381862994
      ],
      [
        "Ġbrick",
        -10.12035723256884
      ],
      [
        "Ġchronic",
        -10.120508697593904
      ],
      [
        "Ġseat",
        -10.120822640737051
      ],
      [
        "Ġstroke",
        -10.12179862594006
      ],
      [
        "Ġprofile",
        -10.122171929509609
      ],
      [
        "Ġorganizations",
        -10.12258134627394
      ],
      [
        "Ġcloser",
        -10.12313188024365
      ],
      [
        "ĠSea",
        -10.123337206944226
      ],
      [
        "ĠAdd",
        -10.123604620660892
      ],
      [
        "Ġmask",
        -10.124147207440572
      ],
      [
        "ĠZ",
        -10.124670422951452
      ],
      [
        "Ġhorses",
        -10.125564947284886
      ],
      [
        "Ġopening",
        -10.125647452658756
      ],
      [
        "Ġprecise",
        -10.128028294352976
      ],
      [
        "Ġderive",
        -10.128510254338654
      ],
      [
        "Ġemail",
        -10.128608652074998
      ],
      [
        "Ġradiation",
        -10.128825485724644
      ],
      [
        "Ġmeasur",
        -10.129002346563858
      ],
      [
        "Ġworksheet",
        -10.131112855560254
      ],
      [
        "Ġapart",
        -10.131557249251331
      ],
      [
        "Ġinteraction",
        -10.131721819579823
      ],
      [
        "Ġexcess",
        -10.131756706578944
      ],
      [
        "Ġrely",
        -10.131997505198738
      ],
      [
        "times",
        -10.132137360383371
      ],
      [
        "Ġarchitecture",
        -10.133189149261536
      ],
      [
        "Ġpromot",
        -10.13341373483932
      ],
      [
        "Ġadvantages",
        -10.133590062597762
      ],
      [
        "Ġdecided",
        -10.135471234596489
      ],
      [
        "Ġregulate",
        -10.1355636095301
      ],
      [
        "Ġjump",
        -10.135906668230415
      ],
      [
        "Ġsaying",
        -10.136224102249002
      ],
      [
        "Ġappeal",
        -10.136395206773734
      ],
      [
        "Ġthrow",
        -10.137015803864276
      ],
      [
        "Ġchose",
        -10.137528966284105
      ],
      [
        "Ġpackag",
        -10.138059561908673
      ],
      [
        "Ġseven",
        -10.138674903984414
      ],
      [
        "Ġones",
        -10.139057441762432
      ],
      [
        "allowing",
        -10.139698323558536
      ],
      [
        "More",
        -10.139860874441952
      ],
      [
        "Ġarray",
        -10.140010293582607
      ],
      [
        "Ġdensit",
        -10.142586316487511
      ],
      [
        "Ġmanag",
        -10.143059742670278
      ],
      [
        "Figure",
        -10.143262135931913
      ],
      [
        "Ġprove",
        -10.143521166659928
      ],
      [
        "Ġprinting",
        -10.144073601575736
      ],
      [
        "ĠâĢĺ",
        -10.144293863105924
      ],
      [
        "Ġhousehold",
        -10.14440940851949
      ],
      [
        "Ġarm",
        -10.144429021599391
      ],
      [
        "Ġworm",
        -10.145155281029233
      ],
      [
        "Ġpane",
        -10.14518100309352
      ],
      [
        "Ġsteam",
        -10.146002647351384
      ],
      [
        "Ġmanufacturing",
        -10.146596104348047
      ],
      [
        "Ġbond",
        -10.14777665501793
      ],
      [
        "Ġevolve",
        -10.148166799184674
      ],
      [
        "like",
        -10.149741361164066
      ],
      [
        "ĠProgram",
        -10.150176129624214
      ],
      [
        "Ġzero",
        -10.151310065615071
      ],
      [
        "November",
        -10.153112217273192
      ],
      [
        "ring",
        -10.15485188821406
      ],
      [
        "He",
        -10.154909144964773
      ],
      [
        "Ġship",
        -10.155011007614812
      ],
      [
        "Ġchoos",
        -10.155560338659694
      ],
      [
        "ĠThrough",
        -10.15657730122983
      ],
      [
        "Ġputt",
        -10.156712127838244
      ],
      [
        "Ġquantit",
        -10.15688953687006
      ],
      [
        "going",
        -10.157351794179116
      ],
      [
        "Ġroute",
        -10.157448574768624
      ],
      [
        "he",
        -10.157481503458056
      ],
      [
        "Ġspin",
        -10.158655679734135
      ],
      [
        "Ġanalyze",
        -10.15935712145022
      ],
      [
        "Ġpool",
        -10.159424354301208
      ],
      [
        "Ġplate",
        -10.16054797585374
      ],
      [
        "Ġusage",
        -10.160565966810433
      ],
      [
        "Ġseal",
        -10.160570830947265
      ],
      [
        "Ġinstitution",
        -10.161172717766192
      ],
      [
        "can",
        -10.161622290235837
      ],
      [
        "Ġpreparation",
        -10.16261387472714
      ],
      [
        "Ġdatabase",
        -10.162822277960714
      ],
      [
        "ĠBoth",
        -10.163127492312718
      ],
      [
        "Ġconsists",
        -10.163329849894565
      ],
      [
        "Ġwash",
        -10.163531776984684
      ],
      [
        "City",
        -10.164626682214443
      ],
      [
        "Ġrecorded",
        -10.165259365843088
      ],
      [
        "Ġstar",
        -10.165339514084112
      ],
      [
        "Let",
        -10.165389532995436
      ],
      [
        "ĠHave",
        -10.165404814404312
      ],
      [
        "Ġgate",
        -10.166402148060826
      ],
      [
        "Ġencounter",
        -10.16681413048285
      ],
      [
        "Ġpictures",
        -10.16777995303719
      ],
      [
        "Ġincorporate",
        -10.167986571115234
      ],
      [
        "Ġancient",
        -10.16853743473746
      ],
      [
        "gave",
        -10.16869216097708
      ],
      [
        "Ġbug",
        -10.169151870710008
      ],
      [
        "Ġvarie",
        -10.169290093810698
      ],
      [
        "Ġinstrument",
        -10.170028591705035
      ],
      [
        "Ġrandom",
        -10.170832949823836
      ],
      [
        "ture",
        -10.171819083456327
      ],
      [
        "Ġinspire",
        -10.171933257005062
      ],
      [
        "Ġconfirm",
        -10.172007767881794
      ],
      [
        "Ġpolicy",
        -10.172017501495665
      ],
      [
        "Ġbarrier",
        -10.172316292570862
      ],
      [
        "Ġagricultural",
        -10.172485074520548
      ],
      [
        "from",
        -10.173148076176584
      ],
      [
        "Ġstable",
        -10.173493189717789
      ],
      [
        "Ġmagnetic",
        -10.175309155227342
      ],
      [
        "Ġweigh",
        -10.175834113154908
      ],
      [
        "ĠLight",
        -10.176225869770882
      ],
      [
        "Ġshapes",
        -10.176835942386958
      ],
      [
        "Ġconsult",
        -10.17768767589738
      ],
      [
        "Ġwish",
        -10.178315835395978
      ],
      [
        "Ġalter",
        -10.178585968183569
      ],
      [
        "ĠTime",
        -10.178812709025523
      ],
      [
        "Ġcrack",
        -10.178867913408173
      ],
      [
        "ble",
        -10.179377213367882
      ],
      [
        "Ġten",
        -10.1794355491754
      ],
      [
        "Ġlaunch",
        -10.17986921417353
      ],
      [
        "allows",
        -10.180161254680108
      ],
      [
        "Ġvaccine",
        -10.181084459857598
      ],
      [
        "VCA",
        -10.181512171522552
      ],
      [
        "ĠBlack",
        -10.181861587081473
      ],
      [
        "Ġthread",
        -10.182302589942925
      ],
      [
        "Ġinitiative",
        -10.18419704554346
      ],
      [
        "cognition",
        -10.185016625926796
      ],
      [
        "ĠIndian",
        -10.185568696247271
      ],
      [
        "Ġframework",
        -10.18630999491514
      ],
      [
        "Ġcapabl",
        -10.18659036106575
      ],
      [
        "ĠDoes",
        -10.187494856934682
      ],
      [
        "Ġsensitive",
        -10.188693812417846
      ],
      [
        "Ġtomato",
        -10.189257853609089
      ],
      [
        "Ġboundar",
        -10.189383747310249
      ],
      [
        "Ġpan",
        -10.190712137721064
      ],
      [
        "Ġsnake",
        -10.190800609576842
      ],
      [
        "ĠSan",
        -10.191527724948848
      ],
      [
        "Ġwarming",
        -10.191542258880848
      ],
      [
        "Ġsharp",
        -10.191678759916616
      ],
      [
        "ĠAct",
        -10.192243154948734
      ],
      [
        "Ġstatus",
        -10.193031314030314
      ],
      [
        "Ġsufficient",
        -10.193253260421692
      ],
      [
        "Ġdownload",
        -10.193629040904032
      ],
      [
        "idden",
        -10.194122028031448
      ],
      [
        "Ġdistinct",
        -10.194433557919048
      ],
      [
        "Ġpowder",
        -10.195448024354558
      ],
      [
        "ng",
        -10.195608346652858
      ],
      [
        "Ġbulb",
        -10.195676505734871
      ],
      [
        "ĠAny",
        -10.195763907260144
      ],
      [
        "ĠFoundation",
        -10.195974626159014
      ],
      [
        "Ġforces",
        -10.19655044097934
      ],
      [
        "Ġwor",
        -10.196786728887243
      ],
      [
        "ĠGreen",
        -10.198239799491418
      ],
      [
        "Ġindustries",
        -10.198389336760291
      ],
      [
        "Ġbrush",
        -10.198428327348182
      ],
      [
        "Ġrequest",
        -10.1987198057643
      ],
      [
        "ĠWeb",
        -10.20043904367164
      ],
      [
        "Ġbutter",
        -10.200843685733783
      ],
      [
        "Ġtrouble",
        -10.20156669911972
      ],
      [
        "Ġstabilit",
        -10.201747872459803
      ],
      [
        "Ġsmoke",
        -10.201828851103008
      ],
      [
        "ĠII",
        -10.201959170132724
      ],
      [
        "Ġpad",
        -10.202954630954684
      ],
      [
        "Ġperiods",
        -10.203759665324863
      ],
      [
        "Ġmammal",
        -10.204283814626727
      ],
      [
        "Ġwrot",
        -10.20431705658859
      ],
      [
        "Ġsignals",
        -10.204324022642886
      ],
      [
        "testing",
        -10.204357899175855
      ],
      [
        "pecifically",
        -10.204616599436452
      ],
      [
        "Ġantibod",
        -10.204771265456094
      ],
      [
        "Ġspen",
        -10.204921544767808
      ],
      [
        "Ġwet",
        -10.20520995252016
      ],
      [
        "Ġclock",
        -10.20568011343086
      ],
      [
        "Ġspecialize",
        -10.206168077048664
      ],
      [
        "Ġrice",
        -10.206791994160785
      ],
      [
        "Ġclothes",
        -10.207505033391673
      ],
      [
        "Ġpredator",
        -10.207572546048365
      ],
      [
        "Ġamino",
        -10.208141453211963
      ],
      [
        "Ġappreciate",
        -10.208285575500994
      ],
      [
        "Ġhospital",
        -10.20832293021716
      ],
      [
        "Ġcollege",
        -10.208716641848108
      ],
      [
        "Ġbreeding",
        -10.211430944841778
      ],
      [
        "Ġcalculation",
        -10.211814218295595
      ],
      [
        "Ġworkshop",
        -10.212086455195305
      ],
      [
        "twic",
        -10.212522043104356
      ],
      [
        "From",
        -10.212602013739495
      ],
      [
        "Ġpropose",
        -10.21279909651764
      ],
      [
        "Ġcredit",
        -10.214199368811045
      ],
      [
        "Ġband",
        -10.21493858565511
      ],
      [
        "Ġlisten",
        -10.217386400960068
      ],
      [
        "Ġsurger",
        -10.21807888688663
      ],
      [
        "sium",
        -10.220486505525583
      ],
      [
        "Ġdiagnose",
        -10.221295854039614
      ],
      [
        "Ġgold",
        -10.22179047637778
      ],
      [
        "Ġcompare",
        -10.221845644649749
      ],
      [
        "Ġelevate",
        -10.221937180062312
      ],
      [
        "Ġrepeat",
        -10.222163613103614
      ],
      [
        "Ġsurprise",
        -10.22228255258372
      ],
      [
        "Ġoven",
        -10.223067652313857
      ],
      [
        "we",
        -10.225221561676904
      ],
      [
        "Ġnose",
        -10.225324384788228
      ],
      [
        "Ġmanner",
        -10.225782236185372
      ],
      [
        "Ġspeech",
        -10.225802078295375
      ],
      [
        "Ġprovider",
        -10.22621746231956
      ],
      [
        "Ġuniversit",
        -10.226270708273058
      ],
      [
        "Ġpound",
        -10.226466080545096
      ],
      [
        "Ġthrive",
        -10.226468778631444
      ],
      [
        "Ġcollaboration",
        -10.226532364045651
      ],
      [
        "ard",
        -10.227147374722405
      ],
      [
        "Ġtrade",
        -10.228944263879717
      ],
      [
        "Ġpasse",
        -10.229527818477404
      ],
      [
        "Ġfisher",
        -10.230291544316618
      ],
      [
        "Ġtrait",
        -10.230470170589571
      ],
      [
        "Ġprogramm",
        -10.23122228111573
      ],
      [
        "Ġintake",
        -10.23158666655324
      ],
      [
        "Ġjournal",
        -10.23285214226016
      ],
      [
        "ĠJanuary",
        -10.233786287564588
      ],
      [
        "Ġplane",
        -10.233832681607884
      ],
      [
        "Ġforget",
        -10.233841200422829
      ],
      [
        "Ġnet",
        -10.234773416076605
      ],
      [
        "Ġouter",
        -10.235588223194668
      ],
      [
        "Ġlinked",
        -10.235705772230345
      ],
      [
        "itis",
        -10.236488300303924
      ],
      [
        "Ġpercentage",
        -10.237138617993024
      ],
      [
        "Ġadequate",
        -10.237694488923696
      ],
      [
        "Ġcake",
        -10.2381374847722
      ],
      [
        "Ġsharks",
        -10.238531141090116
      ],
      [
        "ĠChrist",
        -10.23873885333639
      ],
      [
        "Onc",
        -10.238794446116064
      ],
      [
        "za",
        -10.2388934281296
      ],
      [
        "Ġrealit",
        -10.24056496142439
      ],
      [
        "Ġspeaker",
        -10.24166012551381
      ],
      [
        "ĠLong",
        -10.24207607475215
      ],
      [
        "Ġcraft",
        -10.242520168699826
      ],
      [
        "Ġwalking",
        -10.243179064900753
      ],
      [
        "Ġattend",
        -10.24358484338017
      ],
      [
        "ĠDesign",
        -10.244259042356704
      ],
      [
        "Ġfault",
        -10.244755947120796
      ],
      [
        "with",
        -10.244763492703916
      ],
      [
        "Ġsignificance",
        -10.24493870693164
      ],
      [
        "Ġbeer",
        -10.245156400998944
      ],
      [
        "Ġlaborator",
        -10.24556974866879
      ],
      [
        "Ġdust",
        -10.245800962707118
      ],
      [
        "--",
        -10.24601873430874
      ],
      [
        "Ġdespi",
        -10.246161754038166
      ],
      [
        "Ġevaluate",
        -10.247366913909165
      ],
      [
        "Ġmolecular",
        -10.24768366229792
      ],
      [
        "Ġstands",
        -10.248454923355496
      ],
      [
        "ĠWhere",
        -10.249011314082884
      ],
      [
        "-on",
        -10.249390387038972
      ],
      [
        "Ġopposite",
        -10.24975980946318
      ],
      [
        "uary",
        -10.249986135097457
      ],
      [
        "Ġlifestyle",
        -10.250172390439904
      ],
      [
        "Ġarrive",
        -10.250593630050265
      ],
      [
        "Ġtoxic",
        -10.251006124748471
      ],
      [
        "Ġrecommendation",
        -10.251024193853189
      ],
      [
        "ĠHuman",
        -10.251747750798277
      ],
      [
        "Ġutiliz",
        -10.251758238006406
      ],
      [
        "Ġtown",
        -10.251903961842832
      ],
      [
        "Ġdescription",
        -10.252314388295384
      ],
      [
        "Ġalign",
        -10.252345245966657
      ],
      [
        "ĠCounty",
        -10.252457781184896
      ],
      [
        "Ġpreserve",
        -10.25259295872138
      ],
      [
        "Ġcontinues",
        -10.252872994711383
      ],
      [
        "-be",
        -10.252907486164318
      ],
      [
        "Ġbite",
        -10.253070840270016
      ],
      [
        "ory",
        -10.254132584054648
      ],
      [
        "Ġexpense",
        -10.254305063025647
      ],
      [
        "Ġscenario",
        -10.254307924643172
      ],
      [
        "Ġshop",
        -10.254705718064823
      ],
      [
        "Ġdepartment",
        -10.255196633699631
      ],
      [
        "Ġnovel",
        -10.255260788090238
      ],
      [
        "Ġapproaches",
        -10.256260253268106
      ],
      [
        "Ġguess",
        -10.256410845778811
      ],
      [
        "ĠSt",
        -10.256587965112082
      ],
      [
        "Ġscene",
        -10.25660844581238
      ],
      [
        "Ġgenerat",
        -10.257315496240231
      ],
      [
        "Ġpepper",
        -10.25734015995728
      ],
      [
        "wood",
        -10.25740909125323
      ],
      [
        "Ġriver",
        -10.25767948651665
      ],
      [
        "Ġwindows",
        -10.258688747135668
      ],
      [
        "Ġkg",
        -10.259130494949003
      ],
      [
        "ĠAgricultur",
        -10.259315275966948
      ],
      [
        "Ġvolunteer",
        -10.259706736394463
      ],
      [
        "Ġengagement",
        -10.259757924565754
      ],
      [
        "ĠFish",
        -10.260025025228398
      ],
      [
        "Ġparticipati",
        -10.260219608067398
      ],
      [
        "Ġvast",
        -10.260237128874111
      ],
      [
        "Ġadjustment",
        -10.260279940597826
      ],
      [
        "Ġgraph",
        -10.260500554587498
      ],
      [
        "ĠPacific",
        -10.26091031041937
      ],
      [
        "Ġstructural",
        -10.26130823571398
      ],
      [
        "ĠAugust",
        -10.261329775569996
      ],
      [
        "ĠRed",
        -10.261852378641596
      ],
      [
        "ĠWest",
        -10.262667248665537
      ],
      [
        "Ġbeans",
        -10.263174277150371
      ],
      [
        "how",
        -10.263584866921622
      ],
      [
        "Ġdestroy",
        -10.263594041349188
      ],
      [
        "Ġpurposes",
        -10.264307607289464
      ],
      [
        "ĠNatur",
        -10.264584466796984
      ],
      [
        "ĠControl",
        -10.264742306615188
      ],
      [
        "Ġmechanical",
        -10.265260190547025
      ],
      [
        "Ġprompt",
        -10.265491365703925
      ],
      [
        "Ġbloom",
        -10.265517843806323
      ],
      [
        "Ġdetection",
        -10.265718254434177
      ],
      [
        "Ġessay",
        -10.266538949933674
      ],
      [
        "ĠGroup",
        -10.267126747250872
      ],
      [
        "Ġshirt",
        -10.268950609523817
      ],
      [
        "Since",
        -10.26938326103874
      ],
      [
        "Ġcalm",
        -10.2698554165691
      ],
      [
        "Ġregister",
        -10.269984923604586
      ],
      [
        "ĠOpen",
        -10.270695670045356
      ],
      [
        "Ġwhale",
        -10.270773459874931
      ],
      [
        "Ġaccurac",
        -10.270944429391353
      ],
      [
        "Ġreports",
        -10.271046595763265
      ],
      [
        "Ġpermanent",
        -10.27253833147502
      ],
      [
        "Ġacademic",
        -10.272936839018808
      ],
      [
        "ĠMicro",
        -10.273258360617715
      ],
      [
        "Ġboost",
        -10.273785450079584
      ],
      [
        "ĠNatural",
        -10.27559942177651
      ],
      [
        "Ġalmo",
        -10.275660688770609
      ],
      [
        "Ġreact",
        -10.27577095322285
      ],
      [
        "Ġconfidence",
        -10.276982066144583
      ],
      [
        "ĠLook",
        -10.2770022708744
      ],
      [
        "Ġorange",
        -10.277430205609726
      ],
      [
        "Ġcorn",
        -10.277768507914177
      ],
      [
        "...Ċ",
        -10.277881769354492
      ],
      [
        "ĠThus",
        -10.278002867653674
      ],
      [
        "ĠSystem",
        -10.2780350801314
      ],
      [
        "Ġfelt",
        -10.278690857004502
      ],
      [
        "Ġdecline",
        -10.278802100843116
      ],
      [
        "Ġpure",
        -10.279771832672091
      ],
      [
        "soft",
        -10.279967596577574
      ],
      [
        "Ġtraffic",
        -10.280627354748225
      ],
      [
        "Ġenhanc",
        -10.280782591733708
      ],
      [
        "Ġrecipe",
        -10.280974445768242
      ],
      [
        "way",
        -10.28177512164708
      ],
      [
        "Ġprey",
        -10.281869798988758
      ],
      [
        "Ġfroze",
        -10.281895339604496
      ],
      [
        "Ġremote",
        -10.284993036148135
      ],
      [
        "iness",
        -10.28605724661938
      ],
      [
        "made",
        -10.28628687003676
      ],
      [
        "Ġdream",
        -10.286755731367744
      ],
      [
        "Ġleader",
        -10.287277196558424
      ],
      [
        "Ġcontroll",
        -10.287911883473535
      ],
      [
        "mixed",
        -10.288323370824685
      ],
      [
        "Ġbegins",
        -10.288520979133873
      ],
      [
        "Ġsent",
        -10.288791173346052
      ],
      [
        "Ġscratch",
        -10.28897928807709
      ],
      [
        "ĠApple",
        -10.289247579821478
      ],
      [
        "Ġspider",
        -10.28935003676819
      ],
      [
        "Ġrecording",
        -10.289555547058155
      ],
      [
        "Ġpossibl",
        -10.290030342437944
      ],
      [
        "Ġparticipate",
        -10.290512477722285
      ],
      [
        "Ġbigge",
        -10.291055274913926
      ],
      [
        "Ġbreastfeed",
        -10.291273635791493
      ],
      [
        "Ġdrugs",
        -10.293642697502476
      ],
      [
        "Ġprocessor",
        -10.293796519987248
      ],
      [
        "Ġdelicious",
        -10.29412514891623
      ],
      [
        "ĠIsland",
        -10.29434093306124
      ],
      [
        "Ġgradual",
        -10.294751127603512
      ],
      [
        "Ġfamous",
        -10.294846474096223
      ],
      [
        "Ġbinding",
        -10.29484737884878
      ],
      [
        "Ġmild",
        -10.29509139808412
      ],
      [
        "Ġmovie",
        -10.295583764465142
      ],
      [
        "Ġcompleted",
        -10.296288346303996
      ],
      [
        "Ġstorm",
        -10.296595285694252
      ],
      [
        "Ġconversation",
        -10.296737002079889
      ],
      [
        "Ġloop",
        -10.29713532749346
      ],
      [
        "Ġfunctional",
        -10.29922899151298
      ],
      [
        "Ġterminal",
        -10.29984396619546
      ],
      [
        "Ġ**",
        -10.300076540377738
      ],
      [
        "but",
        -10.300599886420976
      ],
      [
        "Ġgreenhouse",
        -10.301655012074423
      ],
      [
        "Ġinvestigate",
        -10.301715433354786
      ],
      [
        "Ġhandl",
        -10.302309266215785
      ],
      [
        "Ġdishe",
        -10.302575280397662
      ],
      [
        "no",
        -10.302706492762995
      ],
      [
        "Ġpartial",
        -10.302755401486223
      ],
      [
        "Ġunlike",
        -10.303219521343252
      ],
      [
        "Florida",
        -10.303943265593835
      ],
      [
        "Ġbreathing",
        -10.304081155485388
      ],
      [
        "Ġdelay",
        -10.30454792311212
      ],
      [
        "Ġworkers",
        -10.3049030310506
      ],
      [
        "Ġfertilizer",
        -10.305227552427326
      ],
      [
        "Ġnarrow",
        -10.305575371091702
      ],
      [
        "ĠAssociation",
        -10.306008212146985
      ],
      [
        "Ġbelief",
        -10.306150854284793
      ],
      [
        "Ġchapter",
        -10.306399106787085
      ],
      [
        "Ġsustainab",
        -10.307275158423652
      ],
      [
        "accessible",
        -10.30800543149211
      ],
      [
        "Ġassembl",
        -10.30813867853151
      ],
      [
        "Ġdiffer",
        -10.309681459010836
      ],
      [
        "Ġboil",
        -10.309811039678472
      ],
      [
        "Ġsex",
        -10.309992015524031
      ],
      [
        "Ġvalve",
        -10.31033824835544
      ],
      [
        "Ġflu",
        -10.31092770808982
      ],
      [
        "Ġcoating",
        -10.311060587786525
      ],
      [
        "Ġexcit",
        -10.311419161466157
      ],
      [
        "Ġeco",
        -10.311680807403093
      ],
      [
        "Ġbread",
        -10.311786322565856
      ],
      [
        "].",
        -10.311827605743376
      ],
      [
        "ĠSeptem",
        -10.312067894274977
      ],
      [
        "Ġquant",
        -10.31291963299766
      ],
      [
        "Ġtutorial",
        -10.31449769905444
      ],
      [
        "ĠAsia",
        -10.314563806733789
      ],
      [
        "Ġjuice",
        -10.314852720653
      ],
      [
        "Ġcommitment",
        -10.314865680001002
      ],
      [
        "Ġdelve",
        -10.315912155404568
      ],
      [
        "Ġvertical",
        -10.316200881817071
      ],
      [
        "ĠGet",
        -10.316216784230091
      ],
      [
        "ĠFrench",
        -10.31658734806911
      ],
      [
        "Ġcement",
        -10.316911817331176
      ],
      [
        "ĠClass",
        -10.318264866288484
      ],
      [
        "ĠJuly",
        -10.318283281847588
      ],
      [
        "chemistry",
        -10.318763328985431
      ],
      [
        "OVID",
        -10.319334311799778
      ],
      [
        "Ġintricate",
        -10.319347400625436
      ],
      [
        "Ġmilitar",
        -10.31960022424638
      ],
      [
        "Not",
        -10.321532058216688
      ],
      [
        "Ġfamiliar",
        -10.32185326787819
      ],
      [
        "Ġlense",
        -10.322010182503176
      ],
      [
        "Ġease",
        -10.322441106741133
      ],
      [
        "Ġengag",
        -10.322737799269692
      ],
      [
        "Ġclosed",
        -10.324401049906951
      ],
      [
        "ian",
        -10.325013017727864
      ],
      [
        "Ġmining",
        -10.325059856957528
      ],
      [
        "Ġpuppy",
        -10.325479529553842
      ],
      [
        "ĠSA",
        -10.32559624788446
      ],
      [
        "Ġcoral",
        -10.325848312449333
      ],
      [
        "Ġcouldn",
        -10.325957001919877
      ],
      [
        "ions",
        -10.326092875963752
      ],
      [
        "Ġshadow",
        -10.326096890592
      ],
      [
        "ĠWild",
        -10.326732615210958
      ],
      [
        "ĠIP",
        -10.327045499852517
      ],
      [
        "Ġlogic",
        -10.327179579042648
      ],
      [
        "Ġbigger",
        -10.327232470443208
      ],
      [
        "Ġdedicate",
        -10.328015613701144
      ],
      [
        "ĠPlease",
        -10.329383456025106
      ],
      [
        "Ġsupplie",
        -10.329977021775871
      ],
      [
        "Ġadopt",
        -10.330089418887372
      ],
      [
        "Ġworse",
        -10.33111912400004
      ],
      [
        "Ġfeedback",
        -10.331658310486953
      ],
      [
        "Ġpages",
        -10.331780298826123
      ],
      [
        "Ġgum",
        -10.333755830274642
      ],
      [
        "Ġstream",
        -10.333937780027991
      ],
      [
        "Ġnitrogen",
        -10.334276600957953
      ],
      [
        "ĠRemember",
        -10.33447394712649
      ],
      [
        "Ġtrends",
        -10.33449047596149
      ],
      [
        "Ġride",
        -10.334955707012345
      ],
      [
        "Ġcluster",
        -10.33525754033638
      ],
      [
        "Ġmistake",
        -10.336028802202687
      ],
      [
        "Ġthermal",
        -10.336883817754767
      ],
      [
        "Ġallerg",
        -10.337456205115526
      ],
      [
        "Ġdiagnosi",
        -10.337569531884292
      ],
      [
        "Ġfac",
        -10.337608876112206
      ],
      [
        "Ġdisorders",
        -10.337832947854036
      ],
      [
        "Ġyouth",
        -10.338957612324764
      ],
      [
        "Unfortuna",
        -10.340216170456864
      ],
      [
        "ĠLearn",
        -10.340393113336138
      ],
      [
        "ĠFeb",
        -10.340535482113305
      ],
      [
        "life",
        -10.340848290207536
      ],
      [
        "Ġcareful",
        -10.341053447498195
      ],
      [
        "Ġweak",
        -10.341092005745269
      ],
      [
        "Ġholding",
        -10.34153611245418
      ],
      [
        "ĠPh",
        -10.34186764984608
      ],
      [
        "Ġfed",
        -10.341989064371262
      ],
      [
        "ries",
        -10.342224946847868
      ],
      [
        "normally",
        -10.34318226158188
      ],
      [
        "ĠChildren",
        -10.34329813054601
      ],
      [
        "Ġattribute",
        -10.344859465332569
      ],
      [
        "Ġfascinating",
        -10.345510947058294
      ],
      [
        "Ġprofessor",
        -10.345511699175669
      ],
      [
        "Ġherb",
        -10.34553668697141
      ],
      [
        "Ġbowl",
        -10.347487941760727
      ],
      [
        "wimming",
        -10.347716488766912
      ],
      [
        "ten",
        -10.34778894637596
      ],
      [
        "Ġestablishe",
        -10.347834857457345
      ],
      [
        "Ġdirector",
        -10.347867617680212
      ],
      [
        "Ġnuclea",
        -10.3492680630483
      ],
      [
        "ĠPro",
        -10.349292163251018
      ],
      [
        "Ġcharging",
        -10.349406941762645
      ],
      [
        "Ġcustom",
        -10.349929107774738
      ],
      [
        "Ġplot",
        -10.350032214212863
      ],
      [
        "ĠColor",
        -10.350309165379944
      ],
      [
        "Ġblow",
        -10.35093559786121
      ],
      [
        "anagement",
        -10.351784312857594
      ],
      [
        "ĠWindow",
        -10.352940593774251
      ],
      [
        "Ġplays",
        -10.35414354299477
      ],
      [
        "Ġmenu",
        -10.355153262038376
      ],
      [
        "Ġattach",
        -10.355178152484823
      ],
      [
        "ĠPC",
        -10.355727727495765
      ],
      [
        "Ġbi",
        -10.355786181871297
      ],
      [
        "Ġfold",
        -10.356032491987165
      ],
      [
        "afety",
        -10.356079134895015
      ],
      [
        "Ġlifespan",
        -10.356199371423138
      ],
      [
        "Ġdepression",
        -10.356233694909037
      ],
      [
        "Ġhelmet",
        -10.35683843485791
      ],
      [
        "Ġgut",
        -10.357008187420332
      ],
      [
        "Ġintervention",
        -10.357126032120544
      ],
      [
        "Ġaesthetic",
        -10.357883875922552
      ],
      [
        "Ġfocuse",
        -10.35910859552732
      ],
      [
        "Ġserver",
        -10.359108934502157
      ],
      [
        "ĠUnit",
        -10.359125566498696
      ],
      [
        "Ġcontribut",
        -10.360135149458507
      ],
      [
        "ĠDog",
        -10.36110826123738
      ],
      [
        "ĠFree",
        -10.361756117643948
      ],
      [
        "Over",
        -10.362022550489629
      ],
      [
        "Ġdanger",
        -10.362653288125555
      ],
      [
        "Ġstretch",
        -10.362733503441856
      ],
      [
        "weight",
        -10.363369410975434
      ],
      [
        "Ġmark",
        -10.363626872340252
      ],
      [
        "Ġclub",
        -10.364680087140265
      ],
      [
        "ĠFind",
        -10.364996334549168
      ],
      [
        "Texas",
        -10.36560838056552
      ],
      [
        "Ġcheap",
        -10.367157608980444
      ],
      [
        "Ġvibrant",
        -10.367268263819604
      ],
      [
        "Ġmetabolism",
        -10.367276546538246
      ],
      [
        "Ġcompressor",
        -10.367439261333844
      ],
      [
        "Ġextent",
        -10.36767025069664
      ],
      [
        "Ġpond",
        -10.367743523710583
      ],
      [
        "ĠWhite",
        -10.367974834294838
      ],
      [
        "Ġcolumn",
        -10.368133405758892
      ],
      [
        "ĠJesu",
        -10.369649970731103
      ],
      [
        "?\"",
        -10.36984663543859
      ],
      [
        "Ġlie",
        -10.370457573241383
      ],
      [
        "Ġshoes",
        -10.370601212455613
      ],
      [
        "ĠCheck",
        -10.37115875325738
      ],
      [
        "you",
        -10.372511889915176
      ],
      [
        "Ġcit",
        -10.37258610074505
      ],
      [
        "Ġmoved",
        -10.372663539078191
      ],
      [
        "ĠEast",
        -10.37329533824011
      ],
      [
        "Ġclay",
        -10.373662303666086
      ],
      [
        "Ġveterinarian",
        -10.373782953107812
      ],
      [
        "Ġathlete",
        -10.374929421633109
      ],
      [
        "Ġsecret",
        -10.375095882788322
      ],
      [
        "ĠFinal",
        -10.375227512698974
      ],
      [
        "Ġtradition",
        -10.37533445869461
      ],
      [
        "Ġcelebrate",
        -10.37749817979658
      ],
      [
        "Ġshelter",
        -10.378453265601088
      ],
      [
        "ĠTV",
        -10.380088383835991
      ],
      [
        "Ġeveryday",
        -10.380290161201684
      ],
      [
        "Ġcopper",
        -10.381706170439356
      ],
      [
        "Ġplug",
        -10.381737246149504
      ],
      [
        "Ġoccurr",
        -10.381746737280675
      ],
      [
        "Ġneck",
        -10.382181063017274
      ],
      [
        "Ġpilot",
        -10.382934142609344
      ],
      [
        "Ġhomes",
        -10.382953637641382
      ],
      [
        "Ġstyles",
        -10.383834267692652
      ],
      [
        "Ġsubsequent",
        -10.38430107226969
      ],
      [
        "-level",
        -10.384321765010366
      ],
      [
        "Ġchamber",
        -10.38432854304844
      ],
      [
        "Ġimpacts",
        -10.384634501243475
      ],
      [
        "Ġsuffer",
        -10.38466384186967
      ],
      [
        "ĠMichigan",
        -10.384938491635236
      ],
      [
        "ĠPower",
        -10.385071510701115
      ],
      [
        "Ġorganize",
        -10.385337516818783
      ],
      [
        "ĠCommon",
        -10.385350555273966
      ],
      [
        "well",
        -10.385548377587238
      ],
      [
        "Ġvisitor",
        -10.38557192323286
      ],
      [
        "Ġexcept",
        -10.386894673571764
      ],
      [
        "Ġdelicate",
        -10.388874826480476
      ],
      [
        "ĠHelp",
        -10.388906012701115
      ],
      [
        "Ġtract",
        -10.38907460860522
      ],
      [
        "Ġrelief",
        -10.389129744921936
      ],
      [
        "Ġknew",
        -10.389804481032108
      ],
      [
        "Ġintroduction",
        -10.390405663272825
      ],
      [
        "Ġlarva",
        -10.390761578731858
      ],
      [
        "ĠCollege",
        -10.390801614946618
      ],
      [
        "individuals",
        -10.391377509469097
      ],
      [
        "Ġgases",
        -10.392193313589331
      ],
      [
        "Ġaluminum",
        -10.39230404549742
      ],
      [
        "First",
        -10.393122046260425
      ],
      [
        "our",
        -10.393614005805178
      ],
      [
        "ĠUp",
        -10.39391540872553
      ],
      [
        "Ġrealm",
        -10.393955844849618
      ],
      [
        "Ġrobot",
        -10.394041080023136
      ],
      [
        "Ġmindset",
        -10.394548807455063
      ],
      [
        "Ġequivalent",
        -10.395408264750955
      ],
      [
        "Ġdetermining",
        -10.39649384509369
      ],
      [
        "Ġstrip",
        -10.39786761052702
      ],
      [
        "Ġbear",
        -10.397902920210152
      ],
      [
        "Ġdisorder",
        -10.39855778778288
      ],
      [
        "Ġheater",
        -10.39870102397616
      ],
      [
        "friendly",
        -10.399724228814968
      ],
      [
        "Ġethical",
        -10.400238688088002
      ],
      [
        "Ġmeant",
        -10.400596629391952
      ],
      [
        "Ġinterior",
        -10.400754945976145
      ],
      [
        "making",
        -10.400898583974469
      ],
      [
        "Ġwarning",
        -10.40110122403333
      ],
      [
        "Ġcm",
        -10.401343019058178
      ],
      [
        "-of",
        -10.401433092895978
      ],
      [
        "Ġhabitats",
        -10.402074708686865
      ],
      [
        "Ġnews",
        -10.40306519173075
      ],
      [
        "Ġport",
        -10.403341407086518
      ],
      [
        "Ġimagine",
        -10.40365615597472
      ],
      [
        "Ġpromise",
        -10.403901234120951
      ],
      [
        "Ġformer",
        -10.404769919732768
      ],
      [
        "Ġsodium",
        -10.405003678803991
      ],
      [
        "Ġagenc",
        -10.406011400201924
      ],
      [
        "Ġmirror",
        -10.406242277038324
      ],
      [
        "Ġsouth",
        -10.406277057236023
      ],
      [
        "ĠEnvironmental",
        -10.407007370391598
      ],
      [
        "placed",
        -10.407335501187989
      ],
      [
        "Ġobes",
        -10.40759223811629
      ],
      [
        "Ġwidth",
        -10.40780811923792
      ],
      [
        "Ġhoney",
        -10.407843779842713
      ],
      [
        "Ġanswers",
        -10.408147471384016
      ],
      [
        "pm",
        -10.408906677836583
      ],
      [
        "ĠGeneral",
        -10.409291912589108
      ],
      [
        "ural",
        -10.40964382939346
      ],
      [
        "Ġleaders",
        -10.409814753686089
      ],
      [
        "Ġdesigner",
        -10.409949843659128
      ],
      [
        "Ġreceptor",
        -10.410029061231617
      ],
      [
        "Ġinfant",
        -10.410781573655656
      ],
      [
        "Ġboy",
        -10.410807647598002
      ],
      [
        "Ġexploration",
        -10.411641149745762
      ],
      [
        "ĠDecember",
        -10.41238128866867
      ],
      [
        "Ġbudget",
        -10.412630326033575
      ],
      [
        "ized",
        -10.412939711463526
      ],
      [
        "Ġgraphic",
        -10.41302290012435
      ],
      [
        "Ġcalorie",
        -10.414020130746811
      ],
      [
        "Ġtruck",
        -10.41448109147251
      ],
      [
        "Ġtransportation",
        -10.414564496568106
      ],
      [
        "ĉ",
        -10.414819943872864
      ],
      [
        "Ġtail",
        -10.414967354576392
      ],
      [
        "ern",
        -10.416147731481
      ],
      [
        "Ġwin",
        -10.416409460923209
      ],
      [
        "sistance",
        -10.416999553662512
      ],
      [
        "ĠChange",
        -10.417714519451714
      ],
      [
        "Ġsexual",
        -10.41880028189022
      ],
      [
        "ĠGood",
        -10.420344717638136
      ],
      [
        "Ġargument",
        -10.420650488724164
      ],
      [
        "Ġpeak",
        -10.420776165964476
      ],
      [
        "ĠHistory",
        -10.421008948676196
      ],
      [
        "Ġfloat",
        -10.421335175845588
      ],
      [
        "Ġescape",
        -10.421418408036953
      ],
      [
        "Ġgrant",
        -10.421573007275278
      ],
      [
        "Ġpartner",
        -10.42161615169077
      ],
      [
        "ĠType",
        -10.42193960279349
      ],
      [
        "neath",
        -10.422717064908522
      ],
      [
        "Ġpackage",
        -10.423700678057084
      ],
      [
        "Ġinsulin",
        -10.42404304932277
      ],
      [
        "Ġregulation",
        -10.424249571675198
      ],
      [
        "Ġintegration",
        -10.424267406526877
      ],
      [
        "such",
        -10.424316433655427
      ],
      [
        "Ġexam",
        -10.424399986841548
      ],
      [
        "ĠTHE",
        -10.424418606397165
      ],
      [
        "lines",
        -10.424499863263875
      ],
      [
        "Ġshaft",
        -10.424566479657289
      ],
      [
        "Ġremarkabl",
        -10.42506194505175
      ],
      [
        "Ġbrief",
        -10.426009336102442
      ],
      [
        "Understand",
        -10.426049259266298
      ],
      [
        "Ġspectrum",
        -10.426265586953068
      ],
      [
        "Ġworry",
        -10.426300267386244
      ],
      [
        "Ġdirt",
        -10.426612610055056
      ],
      [
        "Ġprotocol",
        -10.428739229978929
      ],
      [
        "Ġallele",
        -10.429182073271043
      ],
      [
        "Ġdeveloper",
        -10.42951689056622
      ],
      [
        "Ġcorresponding",
        -10.43028416983929
      ],
      [
        "Ġcellular",
        -10.430437635381416
      ],
      [
        "ground",
        -10.431209279422337
      ],
      [
        "Ġcounter",
        -10.433637126567792
      ],
      [
        "Ġsets",
        -10.433648450199351
      ],
      [
        "Ġsecondar",
        -10.433932493957958
      ],
      [
        "Ġcleaner",
        -10.434335612874484
      ],
      [
        "rising",
        -10.434986047615482
      ],
      [
        "some",
        -10.435334681140436
      ],
      [
        "Ġsatellite",
        -10.435639860983828
      ],
      [
        "Ġblind",
        -10.435812969025571
      ],
      [
        "Ġsides",
        -10.436307740562238
      ],
      [
        "Ġsudden",
        -10.436590648018829
      ],
      [
        "Ġkick",
        -10.437089564599116
      ],
      [
        "Ġmassive",
        -10.437439596792474
      ],
      [
        "Dur",
        -10.43770297541721
      ],
      [
        "\"The",
        -10.4379626214907
      ],
      [
        "Ġmine",
        -10.438701568994723
      ],
      [
        "vity",
        -10.439805591669872
      ],
      [
        "Ġnames",
        -10.4400398084667
      ],
      [
        "Ġmice",
        -10.440105135053958
      ],
      [
        "Ġfederal",
        -10.44033972817709
      ],
      [
        "Ġcurriculum",
        -10.440348333534525
      ],
      [
        "Ġsegment",
        -10.440691615674671
      ],
      [
        "Ġpassenger",
        -10.441024667938136
      ],
      [
        "Ġspice",
        -10.441125568591474
      ],
      [
        "ch",
        -10.441136709252838
      ],
      [
        "Ġcopy",
        -10.441968674702409
      ],
      [
        "ĠLED",
        -10.443080546703287
      ],
      [
        "Ġpreferences",
        -10.443397148159336
      ],
      [
        "Ġfinger",
        -10.443441344177874
      ],
      [
        "Does",
        -10.44345787909403
      ],
      [
        "bacterial",
        -10.444148496672266
      ],
      [
        "ex",
        -10.444567074537083
      ],
      [
        "Ġ...Ċ",
        -10.444914835334576
      ],
      [
        "Ġlights",
        -10.445465124815769
      ],
      [
        "Ġauthors",
        -10.445471374585486
      ],
      [
        "Ġdeposit",
        -10.445790656286526
      ],
      [
        "Ġstruggle",
        -10.446264973852838
      ],
      [
        "ĠEngland",
        -10.446945719268586
      ],
      [
        "patterns",
        -10.447237354300809
      ],
      [
        "mas",
        -10.448587655896295
      ],
      [
        "Ġfoam",
        -10.448887857615116
      ],
      [
        "ĠDevelopment",
        -10.449423357136313
      ],
      [
        "Ġoccasional",
        -10.449530206374384
      ],
      [
        "Ġflavors",
        -10.449534188116486
      ],
      [
        "Ġdebate",
        -10.450098700153635
      ],
      [
        "Ġgrid",
        -10.450412447524853
      ],
      [
        "Ġimmediate",
        -10.450577650184403
      ],
      [
        "ĠCare",
        -10.450928040236564
      ],
      [
        "Ġneural",
        -10.451001627883493
      ],
      [
        "Ġillustrate",
        -10.451759204607592
      ],
      [
        "Ġvegetable",
        -10.45222844901096
      ],
      [
        "Ġconflict",
        -10.452417416704009
      ],
      [
        "Ġcorner",
        -10.452604436726473
      ],
      [
        "Ġitem",
        -10.452631543282395
      ],
      [
        "Ġmood",
        -10.45275427843075
      ],
      [
        "Ġenabl",
        -10.453365596502271
      ],
      [
        "ĠStart",
        -10.453633855854246
      ],
      [
        "Ġspecialist",
        -10.453917264823676
      ],
      [
        "Researchers",
        -10.456355006833387
      ],
      [
        "Ġcure",
        -10.457176138040428
      ],
      [
        "Ġaward",
        -10.457596041614304
      ],
      [
        "availabilit",
        -10.457796825803722
      ],
      [
        "Ġinfrastructure",
        -10.458010949531747
      ],
      [
        "Ġpesticide",
        -10.458109723915973
      ],
      [
        "Ġinteractive",
        -10.458274136402895
      ],
      [
        "Ġlimitation",
        -10.459258715698686
      ],
      [
        "ivity",
        -10.459554446637956
      ],
      [
        "Ġbridge",
        -10.459795380961967
      ],
      [
        "men",
        -10.460729413809972
      ],
      [
        "Ġmature",
        -10.46083049673378
      ],
      [
        "ĠWork",
        -10.460927475835351
      ],
      [
        "Ġrelax",
        -10.461245577993342
      ],
      [
        "Ġhybrid",
        -10.461451785954583
      ],
      [
        "Ġdesigns",
        -10.4615655467661
      ],
      [
        "Ġfacilitate",
        -10.46242642590414
      ],
      [
        "ĠTest",
        -10.462928494008708
      ],
      [
        "Ġarise",
        -10.464543478315782
      ],
      [
        "linary",
        -10.464769085347935
      ],
      [
        "Ġguarantee",
        -10.465012890002887
      ],
      [
        "Ġreplacement",
        -10.465045148073155
      ],
      [
        "Ġreceiv",
        -10.465071508618864
      ],
      [
        "Ġdistribute",
        -10.465316802706733
      ],
      [
        "ĠSociety",
        -10.465496701611222
      ],
      [
        "ĠUnderstand",
        -10.466545354909226
      ],
      [
        "ier",
        -10.466694179799322
      ],
      [
        "Ġcotton",
        -10.466770805203057
      ],
      [
        "{",
        -10.466992616777665
      ],
      [
        "Have",
        -10.467136592171332
      ],
      [
        "nstead",
        -10.467375514820578
      ],
      [
        "Ġloose",
        -10.468139452724314
      ],
      [
        "Ġpotatoe",
        -10.468291394231086
      ],
      [
        "Ġvet",
        -10.468435124275723
      ],
      [
        "Ġcharacterize",
        -10.468657504001722
      ],
      [
        "ĠGuide",
        -10.469319834879954
      ],
      [
        "Ġconclude",
        -10.4698455172339
      ],
      [
        "ĠTechnology",
        -10.469917996564924
      ],
      [
        "Ġdiamond",
        -10.46992735969921
      ],
      [
        "Ġprobabilit",
        -10.47143893945014
      ],
      [
        "Ġrepeated",
        -10.471566321826655
      ],
      [
        "Ġdi",
        -10.471772414922102
      ],
      [
        "Ġyounger",
        -10.472069959859931
      ],
      [
        "org",
        -10.472777150687552
      ],
      [
        "Ġlitera",
        -10.474078706334844
      ],
      [
        "low",
        -10.474247937251125
      ],
      [
        "ĠSocial",
        -10.475153684083343
      ],
      [
        "Ġsizes",
        -10.475383149506506
      ],
      [
        "ĠFIG",
        -10.476591900664715
      ],
      [
        "Ġrespirator",
        -10.47685367383597
      ],
      [
        "Ġsoap",
        -10.47689389561911
      ],
      [
        "Ġrotation",
        -10.477042026969436
      ],
      [
        "Every",
        -10.47770125892717
      ],
      [
        "Ġparasite",
        -10.477975732838823
      ],
      [
        "Ġarrangement",
        -10.47852077679801
      ],
      [
        "Ġnutritional",
        -10.47904173153094
      ],
      [
        "ĠOnly",
        -10.479042893834428
      ],
      [
        "Where",
        -10.479486765872409
      ],
      [
        "Note",
        -10.47951825582934
      ],
      [
        "Ġtruth",
        -10.479598982148428
      ],
      [
        "ĠHome",
        -10.48000921093055
      ],
      [
        "Ġlock",
        -10.480106227877483
      ],
      [
        "Ġtape",
        -10.48053368523399
      ],
      [
        "Ġfacilit",
        -10.481091911652689
      ],
      [
        "Ġrobust",
        -10.481254530175343
      ],
      [
        "Ġadditive",
        -10.481727744308907
      ],
      [
        "Ġhunt",
        -10.481755981596994
      ],
      [
        "Ġfingers",
        -10.482089820846712
      ],
      [
        "Ġsick",
        -10.482384096355217
      ],
      [
        "ĠSecond",
        -10.48283751860228
      ],
      [
        "Ġnail",
        -10.482869975184144
      ],
      [
        "Ġmountain",
        -10.483386867717492
      ],
      [
        "Ġbab",
        -10.483639160951284
      ],
      [
        "Ġcolon",
        -10.484132573722489
      ],
      [
        "Ġpreferred",
        -10.484358757904754
      ],
      [
        "Ġtax",
        -10.484668190465255
      ],
      [
        "ĠInternet",
        -10.486317436571806
      ],
      [
        "ĠTwo",
        -10.486994260265384
      ],
      [
        "Ġaddresse",
        -10.487469876958034
      ],
      [
        "Ġclassic",
        -10.488240709156043
      ],
      [
        "ĠData",
        -10.488579195365872
      ],
      [
        "Ġprinciple",
        -10.489194389828404
      ],
      [
        "Ġhardware",
        -10.48937324342883
      ],
      [
        "Ġacquire",
        -10.489506778456578
      ],
      [
        "ĠSee",
        -10.490142321895664
      ],
      [
        "Ġwonderful",
        -10.490491800402252
      ],
      [
        "Ġhop",
        -10.490561196732862
      ],
      [
        "resistant",
        -10.490601750547208
      ],
      [
        "Ġgather",
        -10.490657145321313
      ],
      [
        "Ġdollar",
        -10.4917945048355
      ],
      [
        "Ġreache",
        -10.492400387056753
      ],
      [
        "@",
        -10.492499951617884
      ],
      [
        "Ġyes",
        -10.493122778129964
      ],
      [
        "Ġfatigue",
        -10.494013262906176
      ],
      [
        "Ġdecay",
        -10.494237704151686
      ],
      [
        "Ġbreeds",
        -10.494249752502416
      ],
      [
        "Ġelectrode",
        -10.494279297437298
      ],
      [
        "Ġstrengthen",
        -10.494710446009249
      ],
      [
        "Ġprediction",
        -10.4949557687267
      ],
      [
        "Ġsubstantial",
        -10.495001721374772
      ],
      [
        "Ġtall",
        -10.495514351354531
      ],
      [
        "Ġlaptop",
        -10.495690304762288
      ],
      [
        "Ġsitting",
        -10.496060715446593
      ],
      [
        "):",
        -10.49669303396855
      ],
      [
        "Ġsold",
        -10.496763510935084
      ],
      [
        "ĠWestern",
        -10.496781819359905
      ],
      [
        "Ġattache",
        -10.497474675637346
      ],
      [
        "Ġbiolog",
        -10.497596289179528
      ],
      [
        "rich",
        -10.497883243315147
      ],
      [
        "Ġbio",
        -10.4984689978153
      ],
      [
        "Also",
        -10.4986069027888
      ],
      [
        "am",
        -10.498788972066604
      ],
      [
        "Ġsupposed",
        -10.499803789450244
      ],
      [
        "Ġvacuum",
        -10.500412744432472
      ],
      [
        "Ġsilver",
        -10.50056221999668
      ],
      [
        "Ġinvestigation",
        -10.500585942937745
      ],
      [
        "Ġintense",
        -10.501071059174134
      ],
      [
        "ĠBay",
        -10.501285480151854
      ],
      [
        "Ġtumor",
        -10.50158598433678
      ],
      [
        "Ġcamp",
        -10.502044723278567
      ],
      [
        "Ġtrend",
        -10.502115437814393
      ],
      [
        "//",
        -10.50214047871806
      ],
      [
        "Ġodd",
        -10.50218138441933
      ],
      [
        "Ġimplementation",
[...]
