{
  "version": "1.0",
  "truncation": null,
  "padding": null,
  "added_tokens": [
    {
      "id": 0,
      "content": "<|bos|>",
      "single_word": false,
      "lstrip": false,
      "rstrip": false,
      "normalized": false,
      "special": true
    },
    {
      "id": 1,
      "content": "<|user_start|>",
      "single_word": false,
      "lstrip": false,
      "rstrip": false,
      "normalized": false,
      "special": true
    },
    {
      "id": 2,
      "content": "<|user_end|>",
      "single_word": false,
      "lstrip": false,
      "rstrip": false,
      "normalized": false,
      "special": true
    },
    {
      "id": 3,
      "content": "<|assistant_start|>",
      "single_word": false,
      "lstrip": false,
      "rstrip": false,
      "normalized": false,
      "special": true
    },
    {
      "id": 4,
      "content": "<|assistant_end|>",
      "single_word": false,
      "lstrip": false,
      "rstrip": false,
      "normalized": false,
      "special": true
    },
    {
      "id": 5,
      "content": "<|python_start|>",
      "single_word": false,
      "lstrip": false,
      "rstrip": false,
      "normalized": false,
      "special": true
    },
    {
      "id": 6,
      "content": "<|python_end|>",
      "single_word": false,
      "lstrip": false,
      "rstrip": false,
      "normalized": false,
      "special": true
    },
    {
      "id": 7,
      "content": "<|output_start|>",
      "single_word": false,
      "lstrip": false,
      "rstrip": false,
      "normalized": false,
      "special": true
    },
    {
      "id": 8,
      "content": "<|output_end|>",
      "single_word": false,
      "lstrip": false,
      "rstrip": false,
      "normalized": false,
      "special": true
    },
    {
      "id": 9,
      "content": "<|unk|>",
      "single_word": false,
      "lstrip": false,
      "rstrip": false,
      "normalized": false,
      "special": true
    }
  ],
  "normalizer": null,
  "pre_tokenizer": {
    "type": "Sequence",
    "pretokenizers": [
      {
        "type": "Split",
        "pattern": {
          "Regex": "'(?i:[sdmt]|ll|ve|re)|[^\\r\\n\\p{L}\\p{N}]?+\\p{L}+|\\p{N}{1,2}| ?[^\\s\\p{L}\\p{N}]++[\\r\\n]*|\\s*[\\r\\n]|\\s+(?!\\S)|\\s+"
        },
        "behavior": "Isolated",
        "invert": false
      },
      {
        "type": "ByteLevel",
        "add_prefix_space": false,
        "trim_offsets": true,
        "use_regex": false
      }
    ]
  },
  "post_processor": {
    "type": "TemplateProcessing",
    "single": [
      {
        "Sequence": {
          "id": "A",
          "type_id": 0
        }
      }
    ],
    "pair": [
      {
        "Sequence": {
          "id": "A",
          "type_id": 0
        }
      },
      {
        "Sequence": {
          "id": "B",
          "type_id": 1
        }
      }
    ],
    "special_tokens": {}
  },
  "decoder": {
    "type": "ByteLevel",
    "add_prefix_space": true,
    "trim_offsets": true,
    "use_regex": true
  },
  "model": {
    "type": "Unigram",
    "unk_id": 9,
    "vocab": [
      [
        "<|bos|>",
        0.0
      ],
      [
        "<|user_start|>",
        0.0
      ],
      [
        "<|user_end|>",
        0.0
      ],
      [
        "<|assistant_start|>",
        0.0
      ],
      [
        "<|assistant_end|>",
        0.0
      ],
      [
        "<|python_start|>",
        0.0
      ],
      [
        "<|python_end|>",
        0.0
      ],
      [
        "<|output_start|>",
        0.0
      ],
      [
        "<|output_end|>",
        0.0
      ],
      [
        "<|unk|>",
        0.0
      ],
      [
        "Ġ",
        -2.6406641066571694
      ],
      [
        ",",
        -4.199237054535345
      ],
      [
        ".",
        -4.481612149755266
      ],
      [
        "à°¿",
        -4.643854919186108
      ],
      [
        "à±ģ",
        -4.91344514064868
      ],
      [
        "Ċ",
        -4.916909613802597
      ],
      [
        "Ø©",
        -4.950979245893079
      ],
      [
        "à°Ĥ",
        -5.122726439390242
      ],
      [
        ".Ċ",
        -5.2817863997288
      ],
      [
        "1",
        -5.298785343849568
      ],
      [
        "à¥ĩ",
        -5.298869790512734
      ],
      [
        "s",
        -5.29902855507666
      ],
      [
        "0",
        -5.299204437042807
      ],
      [
        "Ġà¤ķ",
        -5.3995429027856385
      ],
      [
        "-",
        -5.411625174111956
      ],
      [
        "à¤¾",
        -5.43755122546429
      ],
      [
        "à±į",
        -5.506285575604666
      ],
      [
        "ĠØ§ÙĦ",
        -5.521336827869595
      ],
      [
        "2",
        -5.534474860232798
      ],
      [
        "à°¾",
        -5.601952824293976
      ],
      [
        "à¥Ģ",
        -5.644748677579701
      ],
      [
        "Ġà°ª",
        -5.791109751072838
      ],
      [
        "à±ĭ",
        -5.826885895460503
      ],
      [
        "à°¾à°°",
        -5.847229884584367
      ],
      [
        "à¹Ī",
        -5.924210582915926
      ],
      [
        "Ġà°µ",
        -5.926952357187767
      ],
      [
        "ĠÙĪ",
        -5.953810534009428
      ],
      [
        "ØĮ",
        -5.967820636382568
      ],
      [
        "ĠÙģÙĬ",
        -5.9998498814443
      ],
      [
        "Ġ(",
        -6.007715776574019
      ],
      [
        "Ġà°ķ",
        -6.023315520334888
      ],
      [
        "a",
        -6.037175782212964
      ],
      [
        "Ġde",
        -6.043121372769745
      ],
      [
        "Ġya",
        -6.059994422542697
      ],
      [
        "ĠÙħÙĨ",
        -6.0644798179427255
      ],
      [
        "e",
        -6.068509697230716
      ],
      [
        "Ġà¤¹",
        -6.076802960833202
      ],
      [
        "Ġthe",
        -6.083284847769345
      ],
      [
        "à±įà°¨",
        -6.1219131421039545
      ],
      [
        "à°¦",
        -6.145363650818844
      ],
      [
        "Ġna",
        -6.1548460062258386
      ],
      [
        "3",
        -6.172016653094177
      ],
      [
        "Ġà°¸",
        -6.187343730086951
      ],
      [
        "à±ĩ",
        -6.202928841900267
      ],
      [
        "à¸µà¹Ī",
        -6.2081035087657614
      ],
      [
        "Ġà¤¸",
        -6.224693427040348
      ],
      [
        "Ġà°®",
        -6.24334938130205
      ],
      [
        "5",
        -6.2506128437624024
      ],
      [
        "à±įà°°",
        -6.272009812366177
      ],
      [
        ")",
        -6.273284931586055
      ],
      [
        "Ġà°ļ",
        -6.276377572092388
      ],
      [
        ":",
        -6.280726581458973
      ],
      [
        "à°ļ",
        -6.318514613436694
      ],
      [
        "à°¾à°¨",
        -6.322239420795556
      ],
      [
        "Ġa",
        -6.325107267474737
      ],
      [
        "à±įà°¤",
        -6.339816866492232
      ],
      [
        "Ġà¤®",
        -6.346718278715372
      ],
      [
        "à°¾à°²",
        -6.362252606282093
      ],
      [
        "9",
        -6.369728087196657
      ],
      [
        "Ġà°¨",
        -6.390275817862552
      ],
      [
        "à±įà°²",
        -6.41129326901566
      ],
      [
        "à°¿à°¨",
        -6.411632022175851
      ],
      [
        "à°¿à°ķ",
        -6.4136146261625075
      ],
      [
        "Ġwa",
        -6.4168650728255106
      ],
      [
        "Ø§",
        -6.42021890295627
      ],
      [
        "4",
        -6.437817069975555
      ],
      [
        "à¥ĭ",
        -6.456982347628227
      ],
      [
        "ÙĬØ©",
        -6.475232356861808
      ],
      [
        "à±įà°¯",
        -6.4847227302528
      ],
      [
        "'",
        -6.494218436068445
      ],
      [
        "à°²",
        -6.52923211025827
      ],
      [
        "ĠÐ²",
        -6.5322345798725365
      ],
      [
        "ĠÐ¸",
        -6.575880105094468
      ],
      [
        "à°Ł",
        -6.579556064807168
      ],
      [
        "o",
        -6.593396935021094
      ],
      [
        "8",
        -6.59473929069118
      ],
      [
        "à±ģà°²",
        -6.598557903716314
      ],
      [
        "à¹ī",
        -6.602308873987814
      ],
      [
        "à±Ģ",
        -6.608992730324834
      ],
      [
        "à±įà°Ł",
        -6.618499845976261
      ],
      [
        "6",
        -6.633507112494639
      ],
      [
        "t",
        -6.664448422927764
      ],
      [
        "à¥ĩà¤Ĥ",
        -6.675873615776785
      ],
      [
        "à±ģà°ķ",
        -6.69975253584337
      ],
      [
        "Ġla",
        -6.701957783167588
      ],
      [
        "Ġm",
        -6.7034414857996545
      ],
      [
        "à±ģà°¨",
        -6.707914971273077
      ],
      [
        "à°¨",
        -6.7107117508142675
      ],
      [
        "à±ģà°Ĥ",
        -6.717679199820569
      ],
      [
        "ĠØ¹ÙĦÙī",
        -6.721206498425648
      ],
      [
        "Ġto",
        -6.72867122857148
      ],
      [
        "7",
        -6.731104768087205
      ],
      [
        "ĠØ¨",
        -6.743986422733242
      ],
      [
        "Ġve",
        -6.744022491233913
      ],
      [
        "à¸·",
        -6.745419160156686
      ],
      [
        "Ġkwa",
        -6.751987605335252
      ],
      [
        "à¤¿",
        -6.7567516630301
      ],
      [
        "Ġand",
        -6.771365833198217
      ],
      [
        "Ġof",
        -6.787855048612283
      ],
      [
        "à±ģ.",
        -6.793227244169424
      ],
      [
        "à¤¾à¤°",
        -6.80098316166897
      ],
      [
        "à°¡",
        -6.8014944140427005
      ],
      [
        "à°ª",
        -6.823836796205338
      ],
      [
        "ï¼Į",
        -6.828035332827868
      ],
      [
        "Ùĭ",
        -6.8313970183890955
      ],
      [
        "Ġà°°",
        -6.838621863766184
      ],
      [
        "ÙĩØ§",
        -6.8414295355744255
      ],
      [
        "à°¤",
        -6.846382309953347
      ],
      [
        "à°¿.",
        -6.872296352574931
      ],
      [
        "à¤¨",
        -6.877770732697632
      ],
      [
        "Ġà¤ª",
        -6.888804003841665
      ],
      [
        "Ġku",
        -6.890789867450252
      ],
      [
        "i",
        -6.899152383662162
      ],
      [
        "Ð°",
        -6.899296317698198
      ],
      [
        "ĠØĮ",
        -6.900202025341015
      ],
      [
        "Ð¸",
        -6.912527954873854
      ],
      [
        "Ùĩ",
        -6.913311486131242
      ],
      [
        "Ðµ",
        -6.944512741586557
      ],
      [
        "Ġà°¤",
        -6.950610144805193
      ],
      [
        "/",
        -6.971567512451523
      ],
      [
        "à¤ķ",
        -6.980565860549605
      ],
      [
        "à°ķ",
        -6.9826861745089985
      ],
      [
        "à¥įà¤°",
        -6.98411860330055
      ],
      [
        "ed",
        -6.996515046132496
      ],
      [
        "y",
        -7.0157276344424435
      ],
      [
        "à±įà°ª",
        -7.017890692186775
      ],
      [
        "Ġd",
        -7.021459692580883
      ],
      [
        "Ġin",
        -7.028897070950228
      ],
      [
        "âĢĻ",
        -7.031303440980054
      ],
      [
        "ÙĬÙĨ",
        -7.038713300265448
      ],
      [
        "Ġà¤ľ",
        -7.049689903589538
      ],
      [
        "ĠØ£ÙĨ",
        -7.058763201462236
      ],
      [
        "Ġà¤¦",
        -7.06654355166112
      ],
      [
        "à¥ĭà¤Ĥ",
        -7.067261766679392
      ],
      [
        "à¸´",
        -7.0700176816225095
      ],
      [
        "Ġet",
        -7.078484783271934
      ],
      [
        "\"",
        -7.09012439154742
      ],
      [
        "Ġl",
        -7.090292869185655
      ],
      [
        "à¸Ļ",
        -7.091166897802552
      ],
      [
        "à¤¤",
        -7.092616175211729
      ],
      [
        "ĠÑģ",
        -7.097552510402416
      ],
      [
        "Ġbir",
        -7.111451494676373
      ],
      [
        "à¥Ī",
        -7.112941708296702
      ],
      [
        "à±įà°ļ",
        -7.122631974311538
      ],
      [
        "Ñĭ",
        -7.129532846907486
      ],
      [
        "ing",
        -7.141744307891605
      ],
      [
        "Ġ\"",
        -7.148611592158327
      ],
      [
        "à°Ĥà°Ĺ",
        -7.1508369009140615
      ],
      [
        "ĠÐ½Ð°",
        -7.158619888839716
      ],
      [
        "Ġà°²",
        -7.1845832630789275
      ],
      [
        "à°¿à°¤",
        -7.191142001537138
      ],
      [
        "à¤¾à¤¨",
        -7.197265981453718
      ],
      [
        "à±įà°ķ",
        -7.203921115990353
      ],
      [
        "Ġà°¦",
        -7.207372123479052
      ],
      [
        "à±ĩà°¸",
        -7.211092793714053
      ],
      [
        "à¸±à¹ī",
        -7.211227490393746
      ],
      [
        "Ġle",
        -7.221416248607818
      ],
      [
        "n",
        -7.22156567622369
      ],
      [
        "Ãł",
        -7.230748756546907
      ],
      [
        "er",
        -7.232481987561568
      ],
      [
        "Ġà¤²",
        -7.234533642485127
      ],
      [
        "à°¾à°¯",
        -7.239342930449693
      ],
      [
        "à¸µ",
        -7.244813787445651
      ],
      [
        "Ġà¤¬",
        -7.246838441446386
      ],
      [
        "Ġà°¬",
        -7.2502320491464864
      ],
      [
        "à¹Į",
        -7.253159243901555
      ],
      [
        "à±įà°µ",
        -7.259953509519633
      ],
      [
        "Ġà°Ĺ",
        -7.2621681367788735
      ],
      [
        "à°®",
        -7.263251708346722
      ],
      [
        "ĠÐ½Ðµ",
        -7.267687733240759
      ],
      [
        "à±įà°¸",
        -7.26988289550701
      ],
      [
        "à±Ĩ",
        -7.274867185593983
      ],
      [
        "Ġà¤¨",
        -7.276533787384608
      ],
      [
        "à°¿à°²",
        -7.280381014518165
      ],
      [
        "à°¿à°¸",
        -7.283226681932428
      ],
      [
        "Ġà°ħà°¨",
        -7.283508788384621
      ],
      [
        "Ùİ",
        -7.2840763779373585
      ],
      [
        "à°Ĺ",
        -7.287068719580528
      ],
      [
        "à°¿à°¯",
        -7.310532068445696
      ],
      [
        "à¹Ħà¸Ķ",
        -7.317073382334168
      ],
      [
        "ĠÙĪØ§ÙĦ",
        -7.319144497828949
      ],
      [
        "es",
        -7.322547659187411
      ],
      [
        "Ø§Øª",
        -7.3267447606001745
      ],
      [
        "Ġà¤µ",
        -7.328256758820718
      ],
      [
        "u",
        -7.331001627398962
      ],
      [
        "à°Ĥà°¦",
        -7.333658697211167
      ],
      [
        "à¤¿à¤¯",
        -7.333811058956474
      ],
      [
        "à°¾à°¡",
        -7.340562640416955
      ],
      [
        "à°Ĥà°Ł",
        -7.342124471225397
      ],
      [
        "à¥įà¤¯",
        -7.348692445152022
      ],
      [
        "à±ģà°¤",
        -7.355222668749741
      ],
      [
        "ĠM",
        -7.356041842167324
      ],
      [
        "Ð¾Ð¹",
        -7.368389675413479
      ],
      [
        "Ġni",
        -7.370499623720242
      ],
      [
        "da",
        -7.383847654454984
      ],
      [
        "à±Ĥ",
        -7.390503952156296
      ],
      [
        "ãĢĤ",
        -7.398382838660616
      ],
      [
        "à±Ĭ",
        -7.399148185214193
      ],
      [
        "à¸Ĺ",
        -7.404251106494989
      ],
      [
        "Ġà°ħ",
        -7.415399711182701
      ],
      [
        "Ø¥ÙĦÙī",
        -7.426124992599039
      ],
      [
        "Ġen",
        -7.428452317147192
      ],
      [
        "k",
        -7.429793676979468
      ],
      [
        "r",
        -7.433309240977209
      ],
      [
        "Ġles",
        -7.434913967290585
      ],
      [
        ":Ċ",
        -7.439544300586459
      ],
      [
        "à°¸",
        -7.44296829749482
      ],
      [
        "Ġà¤Ķà¤°",
        -7.456171586037399
      ],
      [
        "à°¾à°Ĥ",
        -7.459641592490227
      ],
      [
        "Ġà°ĩ",
        -7.460529263551685
      ],
      [
        "à±Ī",
        -7.462797844310609
      ],
      [
        "à°¿à°Ĺ",
        -7.463790832973084
      ],
      [
        "à°°",
        -7.464117662361538
      ],
      [
        "Ñĥ",
        -7.464507598029128
      ],
      [
        "ĠÙĦÙĦ",
        -7.485035993566724
      ],
      [
        "à°Ĥà°¤",
        -7.490708940087597
      ],
      [
        "ãĢĤĊ",
        -7.492039390572854
      ],
      [
        "ĠÙĦ",
        -7.492855449246512
      ],
      [
        "Ġdes",
        -7.496043823044433
      ],
      [
        "ĠS",
        -7.501045761675069
      ],
      [
        "à±ģà°¡",
        -7.502018641720408
      ],
      [
        "©",
        -7.514574355031511
      ],
      [
        "à¸§",
        -7.520215298918378
      ],
      [
        "Ùī",
        -7.52316953761421
      ],
      [
        "ĠØ¹ÙĨ",
        -7.527370143941328
      ],
      [
        "d",
        -7.531214157195199
      ],
      [
        "çļĦ",
        -7.53395948132431
      ],
      [
        "à¤¸",
        -7.543338084413762
      ],
      [
        "à±ģà°Ĺ",
        -7.555718407988648
      ],
      [
        "Ġis",
        -7.565946867815096
      ],
      [
        "Ġà°ī",
        -7.566944435120771
      ],
      [
        "à°¾à°¤",
        -7.568674511816717
      ],
      [
        "à°¿à°ª",
        -7.57324672301853
      ],
      [
        "à±Ĩà°²",
        -7.575795183436172
      ],
      [
        "Ġza",
        -7.578751606565298
      ],
      [
        "Øª",
        -7.580384566992796
      ],
      [
        "Ġma",
        -7.580412374801076
      ],
      [
        "ÙĴ",
        -7.595612372187881
      ],
      [
        "Ġ:",
        -7.603878991293774
      ],
      [
        "ĠI",
        -7.605906331728116
      ],
      [
        "à¸¶",
        -7.606775617842432
      ],
      [
        "m",
        -7.60760616243846
      ],
      [
        "ÑģÑı",
        -7.611753996431506
      ],
      [
        "à±Ĩà°Ĥ",
        -7.613947699330931
      ],
      [
        "ĠØ§ÙĦØªÙĬ",
        -7.614855712988088
      ],
      [
        "à±Īà°¨",
        -7.615226936290314
      ],
      [
        "à°µ",
        -7.618243080426952
      ],
      [
        "à¸µà¹ī",
        -7.619414216816532
      ],
      [
        "ĠÙĬ",
        -7.621387252468573
      ],
      [
        "Ġbe",
        -7.624945434996198
      ],
      [
        "ĠÐ¿Ð¾",
        -7.625006351485778
      ],
      [
        "à¹Ħà¸¡",
        -7.626607917814843
      ],
      [
        "à¤Ĥ",
        -7.626735181463552
      ],
      [
        "à¸¹à¹ī",
        -7.626994061577198
      ],
      [
        "ÑĭÑħ",
        -7.627552575213212
      ],
      [
        "ĠA",
        -7.630152444892012
      ],
      [
        "Ġs",
        -7.631815865678931
      ],
      [
        "katika",
        -7.640475341822132
      ],
      [
        "ÙĲ",
        -7.6415324183559985
      ],
      [
        "ÙĩÙħ",
        -7.644500295010609
      ],
      [
        "ĠÙĦØ§",
        -7.646547820347049
      ],
      [
        "à°¿à°°",
        -7.647501964521728
      ],
      [
        "à¹Ģà¸Ľ",
        -7.658545926592396
      ],
      [
        "à¸¡",
        -7.668978845494275
      ],
      [
        "Ġà°Ī",
        -7.674134071465749
      ],
      [
        "à¹Īà¸²",
        -7.688641156145033
      ],
      [
        "ÙĨØ§",
        -7.688886786025288
      ],
      [
        "en",
        -7.69090871695496
      ],
      [
        "à°¬",
        -7.692347807101363
      ],
      [
        "ĠØ£",
        -7.692578630429905
      ],
      [
        "ĠâĢľ",
        -7.694974863019763
      ],
      [
        "Ġà¤ªà¤°",
        -7.69744475133459
      ],
      [
        "Ġà¤Ĺ",
        -7.697459774842683
      ],
      [
        "Ġfor",
        -7.69790711248636
      ],
      [
        ";",
        -7.700618729676488
      ],
      [
        "(",
        -7.702725776122794
      ],
      [
        "à°¾à°ķ",
        -7.706107904428276
      ],
      [
        "de",
        -7.711075095777611
      ],
      [
        "Ġà¤Ń",
        -7.716759339945091
      ],
      [
        "à¸ª",
        -7.718671678386784
      ],
      [
        "ĠØª",
        -7.718937571028096
      ],
      [
        "ĠØ£ÙĪ",
        -7.721483085705586
      ],
      [
        "à±įà°®",
        -7.723143315027466
      ],
      [
        "à¸¸",
        -7.736262037952597
      ],
      [
        "ĠÑĩÑĤÐ¾",
        -7.739133125648612
      ],
      [
        "à±ģà°°",
        -7.740358759092189
      ],
      [
        "ĠÙħØ§",
        -7.745517042433999
      ],
      [
        "ÑĤÑĮ",
        -7.751569679358873
      ],
      [
        "à¸±à¸ļ",
        -7.751989377403824
      ],
      [
        "à°¾à°Ł",
        -7.756887003044751
      ],
      [
        "ĠØ§ÙĦÙĦÙĩ",
        -7.760454366279667
      ],
      [
        "à±ģà°µ",
        -7.761633719226435
      ],
      [
        "à¤¿à¤ķ",
        -7.762620741437521
      ],
      [
        "ya",
        -7.768795090778248
      ],
      [
        "Ġon",
        -7.780771577972111
      ],
      [
        "âĢĿ",
        -7.782960972192752
      ],
      [
        "Ġà°®à°°",
        -7.785749700395739
      ],
      [
        "Ġà¤¤",
        -7.788111603133201
      ],
      [
        "Â«",
        -7.788675175956959
      ],
      [
        "Ġun",
        -7.789594755198326
      ],
      [
        "Ġw",
        -7.793875314037695
      ],
      [
        "ÙĪØ§",
        -7.798293625298383
      ],
      [
        "Ġdu",
        -7.803569832952332
      ],
      [
        "Ð¾Ð³Ð¾",
        -7.805809156765799
      ],
      [
        "ĠC",
        -7.806977574095496
      ],
      [
        "Ġà¤°",
        -7.807084466822152
      ],
      [
        "à¸Ķ",
        -7.80985293310969
      ],
      [
        "ÙĬ",
        -7.810188360210818
      ],
      [
        "Ñı",
        -7.815748214787927
      ],
      [
        "à¥įà¤¤",
        -7.816107930346977
      ],
      [
        "?",
        -7.82170874834503
      ],
      [
        "à¤¾à¤²",
        -7.826470387321519
      ],
      [
        "à°Ĥà°¡",
        -7.827864789442643
      ],
      [
        "à¤¯",
        -7.829854416788837
      ],
      [
        "à¹ĥà¸«",
        -7.844266391151859
      ],
      [
        "à¸ķ",
        -7.844551973894692
      ],
      [
        "à°¾à°Ĺ",
        -7.844875548848286
      ],
      [
        "ĠÙģ",
        -7.845388490700499
      ],
      [
        "Ġà°Ń",
        -7.84745663984992
      ],
      [
        "ke",
        -7.847851424818456
      ],
      [
        "Ġau",
        -7.852627192346722
      ],
      [
        "ãĢģ",
        -7.856365699652079
      ],
      [
        "à±Ĥà°¡",
        -7.858037492619875
      ],
      [
        ")Ċ",
        -7.859694046503806
      ],
      [
        "ÙĩØ°Ùĩ",
        -7.865148885075213
      ],
      [
        "Ĭ",
        -7.868249903611588
      ],
      [
        "à¤¾à¤¤",
        -7.870557131601544
      ],
      [
        "Ð¾Ð¼",
        -7.871167105980305
      ],
      [
        "ÙĪÙĨ",
        -7.87333614202039
      ],
      [
        "à¸Ńà¸¢",
        -7.878003655840656
      ],
      [
        "ly",
        -7.880103401993077
      ],
      [
        "Ġu",
        -7.884743468196042
      ],
      [
        "Ġà¤ķà¤°",
        -7.889944708002881
      ],
      [
        "à±ĩà°¦",
        -7.891393362260008
      ],
      [
        "Ġà°ľ",
        -7.892842877488936
      ],
      [
        "ĠÙĩØ°Ø§",
        -7.895921114093696
      ],
      [
        "Ġtha",
        -7.896557226915748
      ],
      [
        "Ġà°Ĩ",
        -7.89785689000159
      ],
      [
        "Ùı",
        -7.902275275777779
      ],
      [
        "wa",
        -7.904941917884619
      ],
      [
        "Ġk",
        -7.907495111831267
      ],
      [
        "Ð¾Ð²",
        -7.925446382993858
      ],
      [
        "à¥Īà¥¤",
        -7.9306127363392385
      ],
      [
        "Ùĳ",
        -7.934373736207851
      ],
      [
        "à¤®",
        -7.934854862884356
      ],
      [
        "Ġà°¯",
        -7.936389587737493
      ],
      [
        "Ġki",
        -7.942513775248475
      ],
      [
        "Ġkuwa",
        -7.947194619357115
      ],
      [
        "à°¾à°¦",
        -7.949902280540037
      ],
      [
        "à±ĩà°¶",
        -7.951812486558195
      ],
      [
        "à¤¿à¤¤",
        -7.952498942521498
      ],
      [
        "à±ĭà°¨",
        -7.952587576465495
      ],
      [
        "¸",
        -7.959949233186716
      ],
      [
        "à¸¹à¹Ī",
        -7.962552510615982
      ],
      [
        "à¤Ĺ",
        -7.967483685824337
      ],
      [
        "à°¾à°¸",
        -7.968448242203074
      ],
      [
        "à¸±",
        -7.970492820063086
      ],
      [
        "âĢĵ",
        -7.972875326110479
      ],
      [
        "à°¾à°®",
        -7.976615687260868
      ],
      [
        "à¸±à¸Ļ",
        -7.982915430291463
      ],
      [
        "Ġn",
        -7.983187462671568
      ],
      [
        "à¹ĩà¸Ļ",
        -7.986668971994348
      ],
      [
        "à¤¦",
        -7.990940166619243
      ],
      [
        "ÑĭÐµ",
        -7.99320065453028
      ],
      [
        "in",
        -7.997034685883895
      ],
      [
        "Ġpour",
        -7.998750679489756
      ],
      [
        "à¥Īà¤Ĥ",
        -8.000908774296189
      ],
      [
        "ī",
        -8.001759738443523
      ],
      [
        "ĠÐº",
        -8.002154767747196
      ],
      [
        "à¤¼",
        -8.005904002998482
      ],
      [
        "¹",
        -8.006131007120795
      ],
      [
        "Ùĥ",
        -8.008676923601412
      ],
      [
        "[",
        -8.009009379600045
      ],
      [
        "Ã©",
        -8.01090099755203
      ],
      [
        "à¸·à¸Ń",
        -8.012291745711437
      ],
      [
        "à°¿à°®",
        -8.013834850184685
      ],
      [
        "à¥ģ",
        -8.014548538165327
      ],
      [
        "à°¯",
        -8.015170757166603
      ],
      [
        "Ġà¤ĩà¤¸",
        -8.018732205349592
      ],
      [
        "Ġc",
        -8.020875692148284
      ],
      [
        "re",
        -8.021226769685644
      ],
      [
        "à±Ĩà°Ł",
        -8.02560991757942
      ],
      [
        "Ġà°Ĵà°ķ",
        -8.025925063249478
      ],
      [
        "?Ċ",
        -8.027277293136706
      ],
      [
        "à¤¿à¤²",
        -8.02885583487093
      ],
      [
        "Ùħ",
        -8.030248492071502
      ],
      [
        "à¤¿à¤ı",
        -8.03340328113329
      ],
      [
        "ni",
        -8.043341305963544
      ],
      [
        "Ġbu",
        -8.043822666734593
      ],
      [
        "à°¾à°µ",
        -8.047264498516464
      ],
      [
        "Ġà¤ļ",
        -8.051798288687433
      ],
      [
        "ĠÙħ",
        -8.052515377373833
      ],
      [
        "|",
        -8.053867054530311
      ],
      [
        "Ġwith",
        -8.056071026626213
      ],
      [
        "le",
        -8.059062839637239
      ],
      [
        "à¥įà¤Ł",
        -8.062631547350728
      ],
      [
        "à¸Ń",
        -8.065036783855753
      ],
      [
        "A",
        -8.067093775667654
      ],
      [
        "à¤°",
        -8.067481011858948
      ],
      [
        "ĠÙħØ¹",
        -8.071204134251152
      ],
      [
        "âĢľ",
        -8.071592789111083
      ],
      [
        "à±įà°¡",
        -8.072152390625371
      ],
      [
        "à±įà°¥",
        -8.075841827199275
      ],
      [
        "à±įà°¦",
        -8.076107054788901
      ],
      [
        "à°¿à°µ",
        -8.077756214719692
      ],
      [
        "à¸ģ",
        -8.083219704079351
      ],
      [
        "Ġcha",
        -8.085281365024782
      ],
      [
        "na",
        -8.087622555450698
      ],
      [
        "Ġà°¹",
        -8.08883793185125
      ],
      [
        "ĠØ§ÙĦØ°ÙĬ",
        -8.090512725327159
      ],
      [
        "à±Ĥà°°",
        -8.090717135435895
      ],
      [
        "à¸£",
        -8.091954326102506
      ],
      [
        "Ġà¤¥",
        -8.095835661457794
      ],
      [
        "ĠiÃ§in",
        -8.099257153580517
      ],
      [
        "ÑĭÐ¹",
        -8.10495610934552
      ],
      [
        "Ġà°¶",
        -8.109711269178794
      ],
      [
        "!",
        -8.112089088933564
      ],
      [
        "yo",
        -8.112349679907847
      ],
      [
        "à±Ģà°°",
        -8.115216850129887
      ],
      [
        "Ð¸Ñħ",
        -8.118629764456209
      ],
      [
        "ĠÙĥØ§ÙĨ",
        -8.119326371992083
      ],
      [
        "Ġà¤¶",
        -8.121013739149177
      ],
      [
        "ĠÙĥÙĦ",
        -8.130440395774963
      ],
      [
        "ir",
        -8.130681336449744
      ],
      [
        "à¤ı",
        -8.133873611826854
      ],
      [
        "à±ĩà°°",
        -8.137499623636504
      ],
      [
        "à±įà°·",
        -8.137863041031403
      ],
      [
        "ĠØ¨Ø§ÙĦ",
        -8.140159075068198
      ],
      [
        "à°¾à°²à°¨",
        -8.1431773943901
      ],
      [
        "Ø°ÙĦÙĥ",
        -8.147419851738263
      ],
      [
        "à¥Ĥ",
        -8.147892504672644
      ],
      [
        "à¤¾à¤¯",
        -8.150565002795945
      ],
      [
        "ĠB",
        -8.150735202035586
      ],
      [
        "à°³",
        -8.154314137400384
      ],
      [
        "Ġque",
        -8.157271345042414
      ],
      [
        "Ġà°İ",
        -8.157575022234145
      ],
      [
        "Ġqui",
        -8.158010734854695
      ],
      [
        "ÙĪ",
        -8.158982377642035
      ],
      [
        "à¤¿à¤¸",
        -8.1593534175095
      ],
      [
        "à¤²",
        -8.163957211098525
      ],
      [
        "à¤¾à¤®",
        -8.164989257809308
      ],
      [
        "à¥įà¤µ",
        -8.165413665113068
      ],
      [
        "à¥Ģà¤Ĥ",
        -8.17281213107256
      ],
      [
        "ÙİÙĳ",
        -8.173989018962295
      ],
      [
        "an",
        -8.177644268510175
      ],
      [
        "à¤¾à¤Ĥ",
        -8.178263780920046
      ],
      [
        "à¤ļ",
        -8.17975265392524
      ],
      [
        "à¹īà¸²",
        -8.193718289681609
      ],
      [
        "al",
        -8.199683497541738
      ],
      [
        "Ġit",
        -8.201491131990176
      ],
      [
        "ĠT",
        -8.203446175093534
      ],
      [
        "Ġamba",
        -8.215095295804087
      ],
      [
        "ÐµÐ¹",
        -8.223218802141279
      ],
      [
        "à¸¢",
        -8.23050889086626
      ],
      [
        "ĠÐ¾",
        -8.23610673099602
      ],
      [
        "Ġune",
        -8.237685902427295
      ],
      [
        "Ġile",
        -8.240009116887721
      ],
      [
        "åĴĮ",
        -8.241281254249994
      ],
      [
        "Ð°Ñı",
        -8.243708690991237
      ],
      [
        "Ġà¤°à¤¹",
        -8.244383247827384
      ],
      [
        "à¤Ī",
        -8.253293049782242
      ],
      [
        "Ñİ",
        -8.254172977816086
      ],
      [
        "Ġà¤ıà¤ķ",
        -8.254296205657505
      ],
      [
        "à±Ĭà°¨",
        -8.258637914141381
      ],
      [
        "Ġkama",
        -8.262396520545837
      ],
      [
        "à¤¿à¤¨",
        -8.262796664281467
      ],
      [
        "ye",
        -8.263003691912678
      ],
      [
        "Ġà°ªà°°",
        -8.263094727389277
      ],
      [
        "Ġt",
        -8.263218750821839
      ],
      [
        "Ġpar",
        -8.27431330861614
      ],
      [
        "Ġb",
        -8.278785046077765
      ],
      [
        "Ġsur",
        -8.278997855668875
      ],
      [
        "Ġà°«",
        -8.279506141453512
      ],
      [
        "ĠØ§ÙĨ",
        -8.279768722598895
      ],
      [
        "à°īà°¨",
        -8.280880643954692
      ],
      [
        "à±ĩà°ķ",
        -8.285887830788926
      ],
      [
        "Â»",
        -8.289270747980389
      ],
      [
        "Ġse",
        -8.294567541385145
      ],
      [
        "ĠÑĤÐ°Ðº",
        -8.296022825423966
      ],
      [
        "ĠU",
        -8.30457657132849
      ],
      [
        "à±Ģà°¸",
        -8.306302353932372
      ],
      [
        "à°¾à°ľ",
        -8.3067920221378
      ],
      [
        "à¤¨à¤¹",
        -8.313077030003125
      ],
      [
        "Ġdans",
        -8.316831636748933
      ],
      [
        "ĠD",
        -8.32476187925529
      ],
      [
        "Ġest",
        -8.325312134543278
      ],
      [
        "moja",
        -8.32592746076992
      ],
      [
        "Ð´Ð»Ñı",
        -8.3261980277364
      ],
      [
        "à¥įà¤®",
        -8.327808853957102
      ],
      [
        "mba",
        -8.330311003810806
      ],
      [
        "...",
        -8.332352139729352
      ],
      [
        "à¸ĩ",
        -8.339487263219008
      ],
      [
        "ĠØ¹ÙĦÙĬÙĩ",
        -8.341233699517922
      ],
      [
        "Ġp",
        -8.343963412696986
      ],
      [
        "den",
        -8.344718159121484
      ],
      [
        "Ġat",
        -8.347153883520841
      ],
      [
        "Ġas",
        -8.347326442647379
      ],
      [
        "à¤¾à¤¦",
        -8.34777420033996
      ],
      [
        "¡",
        -8.347962456498106
      ],
      [
        "à±Ĩà°¨",
        -8.348304265045922
      ],
      [
        "),",
        -8.353065295315439
      ],
      [
        "à±ĩà°¨",
        -8.355516556325524
      ],
      [
        "ĠÐºÐ°Ðº",
        -8.356014581846683
      ],
      [
        "]Ċ",
        -8.35827391488456
      ],
      [
        "âĢĶ",
        -8.36172765495047
      ],
      [
        "]",
        -8.364075803950048
      ],
      [
        "°",
        -8.365327171224326
      ],
      [
        "à±įà°Ĺ",
        -8.365530075718967
      ],
      [
        "Ġson",
        -8.365714996068434
      ],
      [
        "%",
        -8.36638292230014
      ],
      [
        "à¤µ",
        -8.368498510065201
      ],
      [
        "ĠThe",
        -8.369641714912817
      ],
      [
        "Ġne",
        -8.369798548029596
      ],
      [
        "ĠÙĩÙĪ",
        -8.370450884308129
      ],
      [
        "à±įà°³",
        -8.372365889542223
      ],
      [
        "à¹Ģà¸£",
        -8.372990961702147
      ],
      [
        "ĠÐ¾ÑĤ",
        -8.375300157874399
      ],
      [
        "ĠÑįÑĤÐ¾",
        -8.382038940722982
      ],
      [
        "Ġà¤īà¤¸",
        -8.385176908471514
      ],
      [
        "Ġyou",
        -8.390109335954623
      ],
      [
        "à¸´à¸Ķ",
        -8.390151823219902
      ],
      [
        "à°¾à°ª",
        -8.394463647273014
      ],
      [
        "Ġare",
        -8.395534574225223
      ],
      [
        "à¸±à¸ĩ",
        -8.396968907461511
      ],
      [
        "à¤¯à¤¹",
        -8.39778639720677
      ],
      [
        "à¸",
        -8.401341282057349
      ],
      [
        "ĠK",
        -8.405524314830444
      ],
      [
        "ĠØ¨ÙĬÙĨ",
        -8.408515131350505
      ],
      [
        "à¥įà¤·",
        -8.411024681428882
      ],
      [
        "à°¿à°¦",
        -8.411798228388824
      ],
      [
        "Ġà¤«",
        -8.41507508301051
      ],
      [
        "à±Ĩà°°",
        -8.418998903857695
      ],
      [
        "ĠÐ¸Ð·",
        -8.419280162263826
      ],
      [
        "à¸ĸ",
        -8.42026624037358
      ],
      [
        "à¹īà¸§",
        -8.42383243156078
      ],
      [
        "li",
        -8.430755571032883
      ],
      [
        "||",
        -8.43134302272783
      ],
      [
        "S",
        -8.432322136771123
      ],
      [
        "Ñħ",
        -8.437245072752454
      ],
      [
        "à¥įà¤²",
        -8.438504073126673
      ],
      [
        "Ġà¸Ĺ",
        -8.44098717199266
      ],
      [
        "ĠP",
        -8.44195047089357
      ],
      [
        "à¸«à¸Ļ",
        -8.444024525799144
      ],
      [
        "à¤¬",
        -8.444070342954447
      ],
      [
        "p",
        -8.445664349831574
      ],
      [
        "à°µà°ļ",
        -8.446097164072324
      ],
      [
        "|Ċ",
        -8.446217643282207
      ],
      [
        "ï¼ļ",
        -8.44630521506959
      ],
      [
        "Ð¹",
        -8.446839017374558
      ],
      [
        "ĠÐ·Ð°",
        -8.448577351594889
      ],
      [
        "ĠH",
        -8.451858377983356
      ],
      [
        "à±įà°§",
        -8.453771154915398
      ],
      [
        "à¤īà¤¨",
        -8.454073000394827
      ],
      [
        "ÐµÐ³Ð¾",
        -8.455513051910435
      ],
      [
        "si",
        -8.456484156303642
      ],
      [
        "!Ċ",
        -8.45701455416187
      ],
      [
        "Ġmi",
        -8.464786808494871
      ],
      [
        "åľ¨",
        -8.466791924950018
      ],
      [
        "Ġà¤¯",
        -8.467577808091189
      ],
      [
        "·",
        -8.475689004950581
      ],
      [
        "it",
        -8.478515684508142
      ],
      [
        "à¤¾à¤¸",
        -8.479797896796697
      ],
      [
        "Ġda",
        -8.48027733266594
      ],
      [
        "äºĨ",
        -8.48476749224072
      ],
      [
        "ĠF",
        -8.48837765312226
      ],
      [
        "ÑĮ",
        -8.48909039019224
      ],
      [
        "Ġwas",
        -8.490543724093712
      ],
      [
        "à¤¿à¤°",
        -8.491618039295606
      ],
      [
        "Ġor",
        -8.496132343632688
      ],
      [
        "à¥įà¤¥",
        -8.499036828445917
      ],
      [
        "ÙħØ§",
        -8.499491359269715
      ],
      [
        "à±Ģà°¨",
        -8.502500767067737
      ],
      [
        "Ġpas",
        -8.504839350929126
      ],
      [
        "à±ģà°¸",
        -8.505732424044778
      ],
      [
        "ĠÙĦÙħ",
        -8.510971084236454
      ],
      [
        "à±įà°°à°®",
        -8.513032612691223
      ],
      [
        "à¥ĭà¤Ĺ",
        -8.513508141585657
      ],
      [
        "à¤ª",
        -8.515235255540972
      ],
      [
        "Ġby",
        -8.51572893086979
      ],
      [
        "à¹īà¸Ńà¸ĩ",
        -8.51648657280304
      ],
      [
        "µ",
        -8.517518603708076
      ],
      [
        "à±ĩà°µ",
        -8.518440658461309
      ],
      [
        "à±ĭà°Ĺ",
        -8.521946249770924
      ],
      [
        "Ġà°ķà°²",
        -8.523189067946664
      ],
      [
        "ce",
        -8.525774871267284
      ],
      [
        "Ġà¤ĸ",
        -8.52630303526124
      ],
      [
        "à±ĩà°¯",
        -8.527295524088686
      ],
      [
        "à±ĭà°²",
        -8.53677091144132
      ],
      [
        "M",
        -8.539225122012303
      ],
      [
        "nin",
        -8.540180198994005
      ],
      [
        "Ð¸Ð»Ð¸",
        -8.541332863851082
      ],
      [
        "f",
        -8.542731611237297
      ],
      [
        "à°Ĥà°ª",
        -8.54582523056689
      ],
      [
        "ÐµÑĤÑģÑı",
        -8.546649955791185
      ],
      [
        "ĠÐĴ",
        -8.547411182262913
      ],
      [
        "à°¦à°°",
        -8.54802920725717
      ],
      [
        "Ġà¤Ĩ",
        -8.549045368407558
      ],
      [
        ").",
        -8.550452017090839
      ],
      [
        "à±ĭà°°",
        -8.551605281726884
      ],
      [
        "à°¾à°§",
        -8.558689953689111
      ],
      [
        "ÑĥÑİ",
        -8.560511163036342
      ],
      [
        "ĠÐºÐ¾ÑĤÐ¾ÑĢ",
        -8.560718420128875
      ],
      [
        "dan",
        -8.561250740792707
      ],
      [
        "à¤¾à¤¹",
        -8.562517821252413
      ],
      [
        "à°²à°¨",
        -8.563369569696196
      ],
      [
        "à°ľ",
        -8.569941032320948
      ],
      [
        "à°¾à°£",
        -8.570833736931942
      ],
      [
        "ĠÐ¿ÑĢÐ¸",
        -8.57270556895841
      ],
      [
        "Ġnot",
        -8.572841596616524
      ],
      [
        "à¤ķà¤°",
        -8.573210217947747
      ],
      [
        "à±Ģà°²",
        -8.575265181639338
      ],
      [
        "à¤¾à¥¤",
        -8.5789359916236
      ],
      [
        "Ġqu",
        -8.583283339962861
      ],
      [
        "à±įà°°à°¤",
        -8.583520163099042
      ],
      [
        "à±ĭà°¯",
        -8.584555863171687
      ],
      [
        "à¹Ģà¸Ķ",
        -8.591032704926526
      ],
      [
        "ĠE",
        -8.591745765571675
      ],
      [
        "ĠBu",
        -8.596517016980954
      ],
      [
        ".com",
        -8.600325468485384
      ],
      [
        "ment",
        -8.602568408458858
      ],
      [
        "z",
        -8.6035414077833
      ],
      [
        "à°¿à°Ł",
        -8.603669007133758
      ],
      [
        "à¤§",
        -8.605521987255592
      ],
      [
        "ant",
        -8.606919338742427
      ],
      [
        "Ġce",
        -8.610802688051441
      ],
      [
        "ÙĨ",
        -8.613071048146795
      ],
      [
        "Ð¾",
        -8.613634298469089
      ],
      [
        "à¥Ĥà¤°",
        -8.61397806124737
      ],
      [
        "à°Ĥà°ļ",
        -8.61600656850885
      ],
      [
        "ĠØ¨ÙĨ",
        -8.616821713840846
      ],
      [
        "à°¾à°¬",
        -8.616916562228383
      ],
      [
        "à¥ĩà¤¶",
        -8.619567671963779
      ],
      [
        "Ø§ÙĦÙī",
        -8.619865439267185
      ],
      [
        "à¤«",
        -8.62315963214504
      ],
      [
        "Ġj",
        -8.624124079223167
      ],
      [
        "à¹Īà¸²à¸ĩ",
        -8.625960511349458
      ],
      [
        "à¹ĩ",
        -8.62789196543862
      ],
      [
        "ĠØ§ÙĪ",
        -8.629706300577945
      ],
      [
        "à°§",
        -8.638191002835578
      ],
      [
        "olarak",
        -8.639093610293294
      ],
      [
        "à¸ĭ",
        -8.640574591459202
      ],
      [
        "à¤Ń",
        -8.641951535099677
      ],
      [
        "à±ĭà°¸",
        -8.642016805187122
      ],
      [
        "ĠÙĨ",
        -8.643768328330168
      ],
      [
        "à°¶",
        -8.645894519977617
      ],
      [
        "ĠL",
        -8.64925114355011
      ],
      [
        "à¸´à¸Ļ",
        -8.649834328384932
      ],
      [
        "à¹Īà¸²à¸Ļ",
        -8.65013469657368
      ],
      [
        "this",
        -8.650252957131725
      ],
      [
        "à±Į",
        -8.650416890317533
      ],
      [
        "Ġà¤ħà¤ª",
        -8.650899105926179
      ],
      [
        "à±Ĩà°ķ",
        -8.653386464741253
      ],
      [
        "à¸Ħ",
        -8.654652965562022
      ],
      [
        "Ġhu",
        -8.655193919064367
      ],
      [
        "Ġà°ħà°¯",
        -8.656177862965762
      ],
      [
        "from",
        -8.657055946316532
      ],
      [
        "ji",
        -8.65731045743257
      ],
      [
        "Ġre",
        -8.658527182797549
      ],
      [
        "à¸Ĭ",
        -8.659756882958153
      ],
      [
        "ne",
        -8.661332973569001
      ],
      [
        "plus",
        -8.662482889191628
      ],
      [
        "Ġà°¤à°¨",
        -8.66649609844428
      ],
      [
        "Ġvi",
        -8.666699590966978
      ],
      [
        "Ð¾Ðµ",
        -8.66777930475674
      ],
      [
        "à¥įà¤¸",
        -8.67311358563644
      ],
      [
        "wenye",
        -8.673495659232614
      ],
      [
        "ation",
        -8.67588883001224
      ],
      [
        "ĠØ¨Ø¹Ø¯",
        -8.678603997814744
      ],
      [
        "à±Ĭà°ķ",
        -8.683093042387807
      ],
      [
        "Ġà°¡",
        -8.686209205348575
      ],
      [
        "ĠØ§ÙĦÙħ",
        -8.686972480939387
      ],
      [
        "à¤¾à¤ľ",
        -8.689799711486934
      ],
      [
        "Ġan",
        -8.695725941547735
      ],
      [
        "aux",
        -8.696600881404805
      ],
      [
        "à¤¹",
        -8.701479211192012
      ],
      [
        "à¹īà¸§à¸¢",
        -8.70188117759782
      ],
      [
        "à°¿à°·",
        -8.702366517783041
      ],
      [
        "à¸¹",
        -8.709104872249263
      ],
      [
        "ÐµÐ¼",
        -8.710879245769046
      ],
      [
        "on",
        -8.71183769434447
      ],
      [
        "à¹Ģà¸Ĭ",
        -8.716442166281922
      ],
      [
        "ĠÃ§ok",
        -8.718851292703278
      ],
      [
        "Ä±",
        -8.721130993017143
      ],
      [
        "à¸Ī",
        -8.721784237371846
      ],
      [
        "have",
        -8.72223996639896
      ],
      [
        "ĠÑĥ",
        -8.722319412714855
      ],
      [
        "à¥ģà¤°",
        -8.722985085939294
      ],
      [
        "te",
        -8.72326618207535
      ],
      [
        "à¸ŀ",
        -8.724494302868742
      ],
      [
        "à±ĭà°Ł",
        -8.725073798276178
      ],
      [
        "à°¿à°¶",
        -8.726155347340038
      ],
      [
        "à¤°à¤¨",
        -8.729192378788605
      ],
      [
        "Ġher",
        -8.729925273556013
      ],
      [
        "Ġsa",
        -8.73024990588106
      ],
      [
        "à¸«à¸£",
        -8.734178032549952
      ],
      [
        "à±ģà°ª",
        -8.738688412671689
      ],
      [
        "ĠÙĦÙĩ",
        -8.742773040085334
      ],
      [
        "à¸¥",
        -8.742786185297465
      ],
      [
        "ĠO",
        -8.742803185657827
      ],
      [
        "B",
        -8.743062089272623
      ],
      [
        "à¸¶à¸ĩ",
        -8.756117632087625
      ],
      [
        "D",
        -8.75873701572306
      ],
      [
        "à°¿à°ļ",
        -8.759339918695115
      ],
      [
        "ĠÐ²Ñĭ",
        -8.761278712503913
      ],
      [
        "à°¾à°³",
        -8.762262013499981
      ],
      [
        "ma",
        -8.763384597056127
      ],
      [
        "Ð°Ð¼Ð¸",
        -8.764537389281502
      ],
      [
        "à¹Īà¸Ļ",
        -8.76970716298301
      ],
      [
        "à¸±à¸Ķ",
        -8.773090880863286
      ],
      [
        "à±Ģà°µ",
        -8.773599207822603
      ],
      [
        "ĠÙĪÙĦØ§",
        -8.774538969613193
      ],
      [
        "nÄ±n",
        -8.774632278658137
      ],
      [
        "Ø§Ø¡",
        -8.774660939040423
      ],
      [
        "Ġà¸ª",
        -8.779861322965932
      ],
      [
        "ki",
        -8.780778215598964
      ],
      [
        "Ġà¤ķà¤¹",
        -8.78400411269172
      ],
      [
        "à±ĭà°ķ",
        -8.785209313228677
      ],
      [
        "à±Ģà°ķ",
        -8.785727068294843
      ],
      [
        "ĠG",
        -8.786568287431582
      ],
      [
        "à¤¡",
        -8.78713603512846
      ],
      [
        "Ġà¸¡",
        -8.791545633495733
      ],
      [
        "à¤ľ",
        -8.791846168473448
      ],
      [
        "à¹Ģà¸ģ",
        -8.792435212733025
      ],
      [
        "ĠR",
        -8.793918380886257
      ],
      [
        "la",
        -8.796709425863558
      ],
      [
        "Ð¼",
        -8.796882175288836
      ],
      [
        "Ġà°¸à°®",
        -8.799369313978309
      ],
      [
        "Ġà°Ł",
        -8.802094832659964
      ],
      [
        "ĠÙĤØ¯",
        -8.802692096498628
      ],
      [
        "The",
        -8.802973681742499
      ],
      [
        "Ø§ÙĨ",
        -8.803333282091845
      ],
      [
        "à¥Īà¤Ĥà¥¤",
        -8.804570061652054
      ],
      [
        "à±ĭà°µ",
        -8.805586268215853
      ],
      [
        "æĺ¯",
        -8.806280973615443
      ],
      [
        "à±ģà°¦",
        -8.807481928646487
      ],
      [
        "ĠâĢĺ",
        -8.810615346096954
      ],
      [
        "Ġà¸ģ",
        -8.81142583007877
      ],
      [
        "ķ",
        -8.812336699964128
      ],
      [
        "à±Ĩà°¡",
        -8.812492085607676
      ],
      [
        "Ġà°¤à°°",
        -8.813260227187978
      ],
      [
        "à¸ľ",
        -8.814017382614129
      ],
      [
        "C",
        -8.816162264908701
      ],
      [
        "ĠÐ²ÑģÐµ",
        -8.817313782087009
      ],
      [
        "ĠN",
        -8.823289063975283
      ],
      [
        "ent",
        -8.824694737279863
      ],
      [
        "à¸±à¸§",
        -8.826432755650227
      ],
      [
        "à±Ĥà°ª",
        -8.82940489058469
      ],
      [
        "ont",
        -8.830605778204408
      ],
      [
        "Ġdo",
        -8.8308418129268
      ],
      [
        "à¤¶",
        -8.834087648486763
      ],
      [
        "à°¿à°§",
        -8.835623866964092
      ],
      [
        "à±ĩà°Ĥ",
        -8.83591049841603
      ],
      [
        ").Ċ",
        -8.836234709292931
      ],
      [
        "à¥ĭà¤¨",
        -8.837046055803135
      ],
      [
        "ĠÙĥÙħØ§",
        -8.838119691290462
      ],
      [
        "à¤Ł",
        -8.83927969164329
      ],
      [
        "ler",
        -8.8395476915377
      ],
      [
        "dir",
        -8.840598996867284
      ],
      [
        "Ä±n",
        -8.843723528615499
      ],
      [
        "à¤£",
        -8.843825287294386
      ],
      [
        "à¸ļ",
        -8.847021715522189
      ],
      [
        "Ġwe",
        -8.847704599382922
      ],
      [
        "à±ĭà°¤",
        -8.854992729956894
      ],
      [
        "à¥Į",
        -8.855066630817234
      ],
      [
        "...Ċ",
        -8.857292593947463
      ],
      [
        "à¸Ħà¸§à¸²à¸¡",
        -8.858474330585775
      ],
      [
        "à¸±à¸ģ",
        -8.861583489608282
      ],
      [
        "ÙİØ§",
        -8.862313968121594
      ],
      [
        "à¹īà¸²à¸Ļ",
        -8.862792286265194
      ],
      [
        "Ġtu",
        -8.863808124994645
      ],
      [
        "à¤¾à¤µ",
        -8.864819479637909
      ],
      [
        "à¤µà¤¹",
        -8.867544531440412
      ],
      [
        "lÄ±",
        -8.869341989659215
      ],
      [
        "à¥įà¤ķ",
        -8.87154378133555
      ],
      [
        "à±ģà°Ł",
        -8.872543523773876
      ],
      [
        "Ġà¤ħ",
        -8.872700872707547
      ],
      [
        "vec",
        -8.873785619554678
      ],
      [
        "Ġwake",
        -8.874647028818618
      ],
      [
        "ĠØ§ÙĦØ£",
        -8.874784366500174
      ],
      [
        "lar",
        -8.875036315478352
      ],
      [
        "Ø§ÙĦ",
        -8.875058195954484
      ],
      [
        "à¥ģà¤",
        -8.87665660244041
      ],
      [
        "à±įà°¯à°ķ",
        -8.877503889928207
      ],
      [
        "ement",
        -8.878012753010632
      ],
      [
        "à±Ĩà°¸",
        -8.878110518924185
      ],
      [
        "ĠØ¹ÙĨØ¯",
        -8.878216253477065
      ],
      [
        "à¥ĩà¤ķ",
        -8.88007191417022
      ],
      [
        "à±Ĥà°¸",
        -8.881576554232801
      ],
      [
        "se",
        -8.883846639111294
      ],
      [
        "Ġju",
        -8.886002073688896
      ],
      [
        "Ġà°ħà°®",
        -8.886109871709158
      ],
      [
        "c",
        -8.887471229684095
      ],
      [
        "Ġà¹ģà¸¥à¸°",
        -8.887663159966465
      ],
      [
        "Ľ",
        -8.88877618041052
      ],
      [
        "à¥įà¤¹",
        -8.889463973733925
      ],
      [
        "Ġà°ħà°¦",
        -8.88983647445282
      ],
      [
        "ĠÙĩÙĬ",
        -8.89055894633757
      ],
      [
        "à±Ģà°¯",
        -8.890786238090636
      ],
      [
        "à±ĩà°²",
        -8.892003209499855
      ],
      [
        "ĠÐ°",
        -8.892688205935102
      ],
      [
        "ĠÑĤ",
        -8.893862829104155
      ],
      [
        "ers",
        -8.894060292163607
      ],
      [
        "vous",
        -8.895465787394864
      ],
      [
        "Ġà¤Ĩà¤ª",
        -8.896316347258796
      ],
      [
        "à±ģà°®",
        -8.898548283424777
      ],
      [
        "I",
        -8.89856729705297
      ],
      [
        "E",
        -8.902295482784067
      ],
      [
        "à¸´à¸ķ",
        -8.903785031583242
      ],
      [
        "à°·",
        -8.904585500473313
      ],
      [
        "ĠØºÙĬØ±",
        -8.904875077000685
      ],
      [
        "Ġolan",
        -8.906815680524321
      ],
      [
        "à¤¿à¤¶",
        -8.90741225580475
      ],
      [
        "à°«",
        -8.907710767491071
      ],
      [
        "ØŃÙĬØ«",
        -8.908865419550619
      ],
      [
        "ĠÐ´Ð¾",
        -8.913395742904346
      ],
      [
        "Ġà°ľà°°",
        -8.914939075777902
      ],
      [
        "Ġili",
        -8.915330495236564
      ],
      [
        "Ġcan",
        -8.915630253413894
      ],
      [
        "Ġgibi",
        -8.919645589397238
      ],
      [
        "Ø¨",
        -8.922110873172922
      ],
      [
        "à°¹",
        -8.926275963176781
      ],
      [
        "âĢ¦",
        -8.928878728178484
      ],
      [
        "âĢĻs",
        -8.929795003606703
      ],
      [
        "Ġou",
        -8.93004477768504
      ],
      [
        "will",
        -8.933087642180325
      ],
      [
        "Ġà¤ħà¤¨",
        -8.935965788339445
      ],
      [
        "à¥ģà¤²",
        -8.936240117955293
      ],
      [
        "me",
        -8.939600157659392
      ],
      [
        "à¤ĸ",
        -8.941858699732112
      ],
      [
        "à°Ĥà°ķ",
        -8.942094463578709
      ],
      [
        "à±ĩà°¤",
        -8.942492727893027
      ],
      [
        "Ġà¸Ħ",
        -8.942492863799618
      ],
      [
        "à¤¾à¤¥",
        -8.942559251194302
      ],
      [
        "Ġil",
        -8.944212480408549
      ],
      [
        "à°²à°ķ",
        -8.944956074659224
      ],
      [
        "Ġh",
        -8.945397248036354
      ],
      [
        "Ġà°İà°ķ",
        -8.947024842118928
      ],
      [
        "à¥ĩà¤¤",
        -8.947082252381438
      ],
      [
        "ĠWa",
        -8.947661547974356
      ],
      [
        "Ġhas",
        -8.950158124981364
      ],
      [
        "est",
        -8.956869798067288
      ],
      [
        "ĠW",
        -8.95699256250032
      ],
      [
        "ÙĦ",
        -8.958201744047383
      ],
      [
        "à±ĩà°®",
        -8.958214948432936
      ],
      [
        "à±įà°¬",
        -8.958744737695872
      ],
      [
        "ĠØ¨Ø¹Ø¶",
        -8.963519252522854
      ],
      [
        "à¹Ģà¸ŀ",
        -8.96558864095989
      ],
      [
        "à¥įà¤ª",
        -8.96870677027549
      ],
      [
        "ãĢĤâĢĿ",
        -8.9702052856682
      ],
      [
        "Ð°Ñħ",
        -8.972709912724444
      ],
      [
        "à°¾à°¶",
        -8.974488911410923
      ],
      [
        "Ġwatu",
        -8.97499311404627
      ],
      [
        "à°¿à°¡",
        -8.975659122541437
      ],
      [
        "ĠØ£ÙĬ",
        -8.97593256189299
      ],
      [
        "ÑģÐ»Ð¸",
        -8.9796896930435
      ],
      [
        "à±ĩà°Ł",
        -8.982524879282646
      ],
      [
        "à¸Ľ",
        -8.982680904831213
      ],
      [
        "daha",
        -8.984499472606029
      ],
      [
        "à±ĭà°ľ",
        -8.987708350261276
      ],
      [
        "Ġà°ķà°¨",
        -8.98918202014433
      ],
      [
        "x",
        -8.989671572094618
      ],
      [
        "à¸±à¸ķ",
        -8.990992721343924
      ],
      [
        "Ġf",
        -8.992892633699135
      ],
      [
        "th",
        -8.99428907751166
      ],
      [
        "à¹Ģà¸¡",
        -8.995416157087526
      ],
      [
        "Ġà°ħà°²",
        -8.99733008186331
      ],
      [
        "Ġvya",
        -8.997439682234425
      ],
      [
        "Ġje",
        -8.997485120426202
      ],
      [
        "ÙĥØ§ÙĨØª",
        -8.998073807235055
      ],
      [
        "à¹Ģà¸¥",
        -9.000887824960655
      ],
      [
        "ÑĤ",
        -9.003597444325862
      ],
      [
        "Ġ[",
        -9.003672193959705
      ],
      [
        "ĠØ¨Ùĩ",
        -9.004849201323832
      ],
      [
        "à¥ĩà¤°",
        -9.00996781465338
      ],
      [
        "sema",
        -9.010668233634515
      ],
      [
        "à¥įà¤¦",
        -9.011384946467254
      ],
      [
        "à±įà°ķà°¡",
        -9.011467316399838
      ],
      [
        "hiyo",
        -9.013548417115
      ],
      [
        "Ġà¸ĭ",
        -9.017280233722513
      ],
      [
        "à¸Ĥ",
        -9.01778683182529
      ],
      [
        "ÙĬØ§",
        -9.017978038079995
      ],
      [
        "à¥¤",
        -9.019440832131814
      ],
      [
        "que",
        -9.022710409457172
      ],
      [
        "Ġà¹ģà¸ķ",
        -9.022927170749544
      ],
      [
        "L",
        -9.023894684108974
      ],
      [
        "Ġà°¸à°°",
        -9.02403184782473
      ],
      [
        "Ø¯",
        -9.024054362283383
      ],
      [
        "à¹īà¸Ļ",
        -9.024059552875611
      ],
      [
        "ĠØ«Ùħ",
        -9.026483876391822
      ],
      [
        "ion",
        -9.026613020279008
      ],
      [
        "à°¾à°¹",
        -9.026829833590234
      ],
      [
        "à¸Ĥà¸Ńà¸ĩ",
        -9.029028474228182
      ],
      [
        "Mungu",
        -9.029098567744215
      ],
      [
        "ĠØ¥ÙĨ",
        -9.03097529061842
      ],
      [
        "à°ĩà°¦",
        -9.03317326500163
      ],
      [
        "l",
        -9.033298112759624
      ],
      [
        "à¤ĵ",
        -9.034695651247764
      ],
      [
        "Ġà°Ĩà°°",
        -9.035683081129935
      ],
      [
        "K",
        -9.037555807781027
      ],
      [
        "à¥Ģà¤¨",
        -9.037657098352671
      ],
      [
        "ani",
        -9.0392964358433
      ],
      [
        "Ġà¤¹à¤®",
        -9.040971880282507
      ],
      [
        "Ġso",
        -9.041204705025669
      ],
      [
        "à¸Ħà¸£",
        -9.041579865446142
      ],
      [
        "Ã©s",
        -9.044159297471293
      ],
      [
        "hii",
        -9.045794274701286
      ],
      [
        "à¸µà¸ģ",
        -9.046786984456016
      ],
      [
        "ĠØ¨ÙĩØ§",
        -9.047186587300928
      ],
      [
        "Ġà°ı",
        -9.04786473511462
      ],
      [
        "your",
        -9.048278746070585
      ],
      [
        "à¸¸à¸Ķ",
        -9.050516846333885
      ],
      [
        "à¸ģà¸²à¸£",
        -9.051265284792478
      ],
      [
        "ĠÙĬÙĥÙĪÙĨ",
        -9.051950855668464
      ],
      [
        "Ġà¤Ł",
        -9.052359368644268
      ],
      [
        "ÙĤ",
        -9.054583826254778
      ],
      [
        "ĠÑģÐ¾",
        -9.055149415030307
      ],
      [
        "à°Łà°°",
        -9.057792651092065
      ],
      [
        "à¥ģà¤¨",
        -9.05840456966568
      ],
      [
        "à¹īà¸²à¸ĩ",
        -9.058943377972597
      ],
      [
        "Ùģ",
        -9.059552061806642
      ],
      [
        "*",
        -9.063854713079945
      ],
      [
        "à¸į",
        -9.064001847494168
      ],
      [
        "ÐµÐµ",
        -9.06591045450326
      ],
      [
        "Ġà°ħà°µ",
        -9.066211463484816
      ],
      [
        "à¥ī",
        -9.066768409211123
      ],
      [
        "ĠÙĪÙĩÙĪ",
        -9.067626051166574
      ],
      [
        "¨",
        -9.06843276761593
      ],
      [
        "h",
        -9.069485141562232
      ],
      [
        "ÐĴ",
        -9.070020192594242
      ],
      [
        "idi",
        -9.070785855216307
      ],
      [
        "Ġbut",
        -9.071788951592096
      ],
      [
        "ĠÐ±Ñĭ",
        -9.072452210156008
      ],
      [
        "Ð¸Ðµ",
        -9.074647884918498
      ],
      [
        "à¤¾à¤Ī",
        -9.074882976121351
      ],
      [
        "ĠÙĪÙħÙĨ",
        -9.075410711880831
      ],
      [
        "Ã©e",
        -9.077229863863124
      ],
      [
        "à¸±à¸¢",
        -9.080185345570449
      ],
      [
        "ĠÙĥ",
        -9.084170485189697
      ],
      [
        "ĠÐ¡",
        -9.085383688216336
      ],
      [
        "ĠÙĤØ¨ÙĦ",
        -9.08722144919166
      ],
      [
        "ä¸Ń",
        -9.08741803682932
      ],
      [
        "Ġsi",
        -9.087562362925976
      ],
      [
        "Ġwana",
        -9.08773516376991
      ],
      [
        "Ġpa",
        -9.089924509473471
      ],
      [
        "Ð¸Ð¹",
        -9.093096011766455
      ],
      [
        "ve",
        -9.094207468833002
      ],
      [
        "Ġsonra",
        -9.094373872973753
      ],
      [
        "à¸¨",
        -9.0951138533665
      ],
      [
        "able",
        -9.096941174234871
      ],
      [
        "à¹ĥà¸Ļ",
        -9.097444772180328
      ],
      [
        "à¥ĩà¤¨",
        -9.097891211153838
      ],
      [
        "po",
        -9.098352655746638
      ],
      [
        "&",
        -9.09867938682713
      ],
      [
        "Ð»Ð¸",
        -9.099437081431734
      ],
      [
        "à°Ĥà°§",
        -9.100237144132738
      ],
      [
        "à±Ĥà°²",
        -9.103555256386532
      ],
      [
        "Ġkazi",
        -9.103914244094192
      ],
      [
        "à¹Īà¸¡",
        -9.104075617460223
      ],
      [
        "Ġhiv",
        -9.104300226762806
      ],
      [
        "ĊĊ",
        -9.104315997798864
      ],
      [
        "Ĥ",
        -9.104421417671006
      ],
      [
        "à°ªà°Ł",
        -9.105017566306335
      ],
      [
        "P",
        -9.105690459916495
      ],
      [
        "Ġà°®à°¨",
        -9.107226378298416
      ],
      [
        "Ø±",
        -9.110012097250744
      ],
      [
        "rÃ¨s",
        -9.110260910321088
      ],
      [
        "Ġall",
        -9.11235402126899
      ],
      [
        "dÄ±r",
        -9.11280718449797
      ],
      [
        "à¸Ńà¸£",
        -9.113363152070498
      ],
      [
        "T",
        -9.11361234594847
      ],
      [
        "à¤ķà¤¤",
        -9.117573400992494
      ],
      [
        "à¸ģà¸§",
        -9.118069326983267
      ],
      [
        "Ð±Ñĭ",
        -9.11973440923695
      ],
      [
        "ĠJ",
        -9.12179047559973
      ],
      [
        "à¤¿à¤µ",
        -9.121921535125736
      ],
      [
        "Ġà¤²à¤Ĺ",
        -9.123020958112786
      ],
      [
        "sa",
        -9.12305945252814
      ],
      [
        "ĠLa",
        -9.124037852679304
      ],
      [
        "ngu",
        -9.124064484074395
      ],
      [
        "ĠØ®ÙĦØ§ÙĦ",
        -9.125408507259994
      ],
      [
        "mbali",
        -9.126294874414253
      ],
      [
        "ï¼Ī",
        -9.12661417172668
      ],
      [
        "à±Ģà°¦",
        -9.129017156575364
      ],
      [
        "à¹Ģà¸Ħà¸£",
        -9.13187011080216
      ],
      [
        "ĠÐ½Ð¾",
        -9.132214493713018
      ],
      [
        "ĠLe",
        -9.1329712497555
      ],
      [
        "ĠÙģÙĬÙĩ",
        -9.132989282008904
      ],
      [
        "ĠØŃØªÙ",
        -9.133394208838382
      ],
      [
        "ãĢĮ",
        -9.1341344290376
      ],
      [
        "à¤Ĥà¤¤",
        -9.13480404996289
      ],
      [
        "Ġà¤¬à¤¨",
        -9.13651238087346
      ],
      [
        "ĠÐĺ",
        -9.13715414189818
      ],
      [
        "Ø£",
        -9.13793367312541
      ],
      [
        "more",
        -9.139981838618626
      ],
      [
        "leri",
        -9.141976037286042
      ],
      [
        "à°¦à°¨",
        -9.142521754569572
      ],
      [
        "ĠÙģÙĬÙĩØ§",
        -9.143546657233124
      ],
      [
        "à¥ģà¤ķ",
        -9.144407960055611
      ],
      [
        "ÐµÐ½Ð¸Ñı",
        -9.146451223965585
      ],
      [
        "à±ĥà°",
        -9.147545905751567
      ],
      [
        "à¥Ģà¥¤",
        -9.147692559902866
      ],
      [
        "à¹Ģà¸Ĥ",
        -9.147944605109496
      ],
      [
        "ĠØ¹Ø§Ùħ",
        -9.149765009130537
      ],
      [
        "à±įà°£",
        -9.150017889492812
      ],
      [
        "à¤¼à¤¾",
        -9.150739894712313
      ],
      [
        "N",
        -9.150761729105376
      ],
      [
        "à¸Ĺà¸³à¹ĥà¸«",
        -9.151978716599984
      ],
      [
        "Ġà¤¸à¤®",
        -9.15474618317594
      ],
      [
        "à¸µà¸¢",
        -9.15647445942408
      ],
      [
        "ä¸Ĭ",
        -9.15759725764408
      ],
      [
        "tout",
        -9.158122907189693
      ],
      [
        "ĠØ§ÙĦØ§",
        -9.159132810571482
      ],
      [
        "us",
        -9.160161930412723
      ],
      [
        "Ġà¸«à¸£",
        -9.162176205522096
      ],
      [
        "eux",
        -9.163771730804696
      ],
      [
        "Ġà¤¡",
        -9.166077777242434
      ],
      [
        "à±įà°°à°¯",
        -9.170805578818824
      ],
      [
        "Ġhe",
        -9.173418899333807
      ],
      [
        "di",
        -9.173436784759572
      ],
      [
        "ĠÙĪÙĬ",
        -9.173648779804957
      ],
      [
        "ĠÑĤÐ¾",
        -9.174070470573284
      ],
      [
        "ĠKi",
        -9.175037194345837
      ],
      [
        "um",
        -9.175261374372012
      ],
      [
        "ĠÙĤØ§ÙĦ",
        -9.176132040515226
      ],
      [
        "à°µà°°",
        -9.17693404264703
      ],
      [
        "mais",
        -9.177750073363104
      ],
      [
        "à¥ĭà¤°",
        -9.179480637031052
      ],
      [
        "Ð¶Ðµ",
        -9.179690403189282
      ],
      [
        "à°Ĥà°¦à°°",
        -9.18037437436191
      ],
      [
        "à°ļà°¡",
        -9.181680729541206
      ],
      [
        "Ġà°ªà°¦",
        -9.18196017875782
      ],
      [
        "à±Ĩà°¦",
        -9.182080748119024
      ],
      [
        "hich",
        -9.182376228417631
      ],
      [
        "å¹´",
        -9.182450163409452
      ],
      [
        "Ġà¸Ī",
        -9.185482938792228
      ],
      [
        "à¹Īà¸Ń",
        -9.185560336361435
      ],
      [
        "ĠÐ¿ÑĢÐµÐ´",
        -9.186255800635674
      ],
      [
        "ĠÑı",
        -9.190266763592852
      ],
      [
        "à±ģà°²à°ķ",
        -9.190728697768176
      ],
      [
        "Ġà°Ĩà°¯à°¨",
        -9.191818295650766
      ],
      [
        "Ð¸Ð¼",
        -9.192033278361947
      ],
      [
        "ĠØ¥ÙĦØ§",
        -9.192122383315922
      ],
      [
        "zi",
        -9.192345741302738
      ],
      [
        "à±ģà°ĸ",
        -9.19238927964231
      ],
      [
        "à¤ķà¤°à¤¤",
        -9.194987172052686
      ],
      [
        "ÑĭÐ¼",
        -9.195593776494572
      ],
      [
        "à°¿à°ľ",
        -9.197010168728148
      ],
      [
        "ko",
        -9.198297578978949
      ],
      [
        "æľī",
        -9.19950498530315
      ],
      [
        "âĢĻun",
        -9.205102062915827
      ],
      [
        "ĠÙĪÙĤØ¯",
        -9.205363886144138
      ],
      [
        "à¹ģà¸¥",
        -9.20590394828297
      ],
      [
        "à¹īà¸Ńà¸¡",
        -9.206801694542513
      ],
      [
        "à¤¥",
        -9.207869552582409
      ],
      [
        "Ġme",
        -9.208833637566938
      ],
      [
        "//",
        -9.210045915181286
      ],
      [
        "à°¾à°·",
        -9.210124292371855
      ],
      [
        "ĠÐ¾Ð½",
        -9.210511952333295
      ],
      [
        "à¹Īà¸ĩ",
        -9.21073979409045
      ],
      [
        "Ġup",
        -9.211060173856158
      ],
      [
        "à°¿à°·à°¯",
        -9.213845778140405
      ],
      [
        "Ġsana",
        -9.21443824737784
      ],
      [
        "à¹ģà¸¥à¸°",
        -9.215637890360512
      ],
      [
        "Ġà°ħà°°",
        -9.216128045876706
      ],
      [
        "à¥įà¤ļ",
        -9.216276103276686
      ],
      [
        "à¥įà¤¨",
        -9.218715860503066
      ],
      [
        "à±ĥà°¤",
        -9.219229567032654
      ],
      [
        "à±įà°ľ",
        -9.221584586836798
      ],
      [
        "zo",
        -9.22359080126597
      ],
      [
        "à°Ĥà°¸",
        -9.227233945742412
      ],
      [
        "nous",
        -9.2283618226142
      ],
      [
        ".âĢĿ",
        -9.229401719789632
      ],
      [
        "à°ħà°§",
        -9.230879467102271
      ],
      [
        "Ġà¹Ģà¸Ľ",
        -9.231075528877806
      ],
      [
        "http",
        -9.232047865135955
      ],
      [
        "ĠÐ¿ÑĢÐ¾",
        -9.23650866494074
      ],
      [
        "à¤µà¤°",
        -9.238203906202788
      ],
      [
        "à¹ģà¸ķ",
        -9.23899254458586
      ],
      [
        "à±įà°¯à°®",
        -9.239299848604272
      ],
      [
        "ĠÙħØ«ÙĦ",
        -9.239376333547185
      ],
      [
        "larÄ±",
        -9.239553411013354
      ],
      [
        "G",
        -9.239754304275127
      ],
      [
        "à¸µà¸¢à¸Ļ",
        -9.241099843115537
      ],
      [
        "Ġali",
        -9.241913530401153
      ],
      [
        "à¸µà¸¢à¸ĩ",
        -9.24322453738342
      ],
      [
        "à¥ĩà¤Ł",
        -9.244155355700457
      ],
      [
        "Ġout",
        -9.245209650152432
      ],
      [
        "ĠØ¥",
        -9.245878044642916
      ],
      [
        "ØªÙĩ",
        -9.247467328337546
      ],
      [
        "il",
        -9.247645680561792
      ],
      [
        "ĠÑģÐ²Ð¾",
        -9.248936355964354
      ],
      [
        "ĠMa",
        -9.25017208115211
      ],
      [
        "Ġana",
        -9.25093282283871
      ],
      [
        "Ø°ÙĬÙĨ",
        -9.251738118345038
      ],
      [
        "Ð½Ð¾Ð¹",
        -9.253696206827268
      ],
      [
        "\"Ċ",
        -9.253778794709085
      ],
      [
        "à±ĭà°ª",
        -9.254151248395743
      ],
      [
        "ingine",
        -9.254832429964594
      ],
      [
        "à¹īà¸Ńà¸¢",
        -9.255551900424978
      ],
      [
        "Ġv",
        -9.256022693017208
      ],
      [
        "à±įà°°à°Ń",
        -9.256032429040108
      ],
      [
        "ÑĤÐ¾",
        -9.256499294703389
      ],
      [
        "ĠØ£ÙĨÙĩ",
        -9.258902630322
      ],
      [
        "à¸µà¸§",
        -9.263149008352991
      ],
      [
        "or",
        -9.264516924244823
      ],
      [
        "ĠÙĬÙħÙĥÙĨ",
        -9.266478736366686
      ],
      [
        "¦",
        -9.267366823328077
      ],
      [
        "à±Ģà°®",
        -9.267514130983194
      ],
      [
        "à¸¸à¸ĵ",
        -9.271427052324448
      ],
      [
        "ÑĭÐ¼Ð¸",
        -9.272579964230118
      ],
      [
        "ÙĲÙĬ",
        -9.273559825563256
      ],
      [
        "Ġhis",
        -9.274517231994444
      ],
      [
        "à¸´à¸Ī",
        -9.275965167791238
      ],
      [
        "åĪ°",
        -9.27613015652866
      ],
      [
        "Ð¾Ð³Ð´Ð°",
        -9.27774560345361
      ],
      [
        "ĠØ¨ÙĦ",
        -9.278186819993298
      ],
      [
        "à¥ĩà¤ĸ",
        -9.27827617903092
      ],
      [
        "Ġà°ħà°ª",
        -9.280749475379396
      ],
      [
        "kutoka",
        -9.28642966877732
      ],
      [
        "ÐµÑĤ",
        -9.288754669360555
      ],
      [
        "à°¾à°²à°ķ",
        -9.28902206802572
      ],
      [
        "à±ĩà°·",
        -9.289641691136604
      ],
      [
        "à¹īà¸£",
        -9.290281548665371
      ],
      [
        "Ġà°ĵ",
        -9.290539000649822
      ],
      [
        "ĠØ§Ø¨ÙĨ",
        -9.29062535120201
      ],
      [
        "à¹Īà¸²à¸¢",
        -9.291865851168804
      ],
      [
        "Ġà¸ķ",
        -9.292532287361178
      ],
      [
        "ĠØ¥Ø°Ø§",
        -9.29299009473175
      ],
      [
        "Ø³ÙĨØ©",
        -9.29511603985617
      ],
      [
        "our",
        -9.295793258074871
      ],
      [
        "Ġpeu",
        -9.297131362063336
      ],
      [
        "ould",
        -9.30256826877999
      ],
      [
        "ÙĩÙĨØ§Ùĥ",
        -9.30439534336055
      ],
      [
        "Ġmtu",
        -9.306943645619082
      ],
      [
        "à¹Įà¸Ĺ",
        -9.30892447169936
      ],
      [
        "à¸¹à¸ģ",
        -9.309608747600333
      ],
      [
        "H",
        -9.310943258497216
      ],
      [
        "nt",
        -9.312150032943396
      ],
      [
        "wakati",
        -9.313012494912485
      ],
      [
        "ÙİÙĦ",
        -9.31368617914498
      ],
      [
        "ĠØ§ÙĦØ¯ÙĪÙĦ",
        -9.314793244389705
      ],
      [
        "Ø³",
        -9.315337663528894
      ],
      [
        "äºº",
        -9.316824833061544
      ],
      [
        "www",
        -9.317657957126627
      ],
      [
        "à¥ģà¤¤",
        -9.31778657411568
      ],
      [
        "we",
        -9.31871551366407
      ],
      [
        "ÐºÐ¸",
        -9.31960427308511
      ],
      [
        "Ġà¤ĩ",
        -9.32019160344965
      ],
      [
        "à¥ĩà¥¤",
        -9.32152738935679
      ],
      [
        "à±Ģà°¡",
        -9.322237012578428
      ],
      [
        "à¸´à¸¡",
        -9.32252108722317
      ],
      [
        "Ð°Ð¼",
        -9.32520227309289
      ],
      [
        "F",
        -9.3269134847261
      ],
      [
        "Ġhali",
        -9.327677419572767
      ],
      [
        "Ġame",
        -9.330382378183929
      ],
      [
        "ubwa",
        -9.330787985893677
      ],
      [
        "ĠØ¹ÙĦÙĬ",
        -9.331943483585269
      ],
      [
        "Ġbaa",
        -9.334041267489528
      ],
      [
        "à°¿à°µà°°",
        -9.336645222118864
      ],
      [
        "ĠØ§ÙĦØ¥Ø³ÙĦØ§Ùħ",
        -9.336924040849748
      ],
      [
        "ØªÙĩØ§",
        -9.33730857312393
      ],
      [
        "ait",
        -9.33755821347905
      ],
      [
        "à¹Ģà¸Ļ",
        -9.338052448203976
      ],
      [
        "Ùį",
        -9.340246007255622
      ],
      [
        "Ġmy",
        -9.340941493459308
      ],
      [
        "à¤Ľ",
        -9.344011030379932
      ],
      [
        "ti",
        -9.344443601546102
      ],
      [
        "Ġà¸Ń",
        -9.34554343247299
      ],
      [
        "à±Ĭà°¦",
        -9.346298998612728
      ],
      [
        "à¸±à¸Ļà¸Ĺ",
        -9.34859373379468
      ],
      [
        "Ð¾Ð¼Ñĥ",
        -9.349207936760456
      ],
      [
        "ĠÙĪÙģÙĬ",
        -9.349265184617575
      ],
      [
        "Ġone",
        -9.349492277308231
      ],
      [
        "à°Ĩà°®",
        -9.35039477816964
      ],
      [
        "à¥ĩà¤²",
        -9.351401478085192
      ],
      [
        "à¤¾à¤ª",
        -9.351989269274767
      ],
      [
        "ĠØ§ÙĦØ£ÙĪÙĦ",
        -9.352249176735416
      ],
      [
        "Ġkadar",
        -9.353305402428322
      ],
      [
        "à¤¾à¤ķ",
        -9.355600334101773
      ],
      [
        "ÑĤÑģÑı",
        -9.356182728239766
      ],
      [
        "ÙĢ",
        -9.360371495937692
      ],
      [
        "ĠØ§ÙĦØ¯ÙĬÙĨ",
        -9.361627421506478
      ],
      [
        "ªà¸²à¸¡à¸²à¸£à¸ĸ",
        -9.364544110892956
      ],
      [
        "à¸«",
        -9.365212430926087
      ],
      [
        "à¹Ģà¸ª",
        -9.365274021993285
      ],
      [
        "Ø¹ÙĦÙī",
        -9.365437630287763
      ],
      [
        "ux",
        -9.366386953550752
      ],
      [
        "other",
        -9.36643075202704
      ],
      [
        "à±ĭà°¡",
        -9.36748334798255
      ],
      [
        "à¥įà¤§",
        -9.367986937501946
      ],
      [
        "à±įà°°à°¸",
        -9.369985966890138
      ],
      [
        "à°·à°¨",
        -9.37055806729716
      ],
      [
        "ĠØ§ÙĦØ¹Ø§Ùħ",
        -9.375177572597991
      ],
      [
        "à¹īà¸¡",
        -9.376237612229216
      ],
      [
        "à¤Ĥà¤Ĺ",
        -9.377417323679218
      ],
      [
        "à°¾à°°à°£",
        -9.377969820684482
      ],
      [
        "ĠNa",
        -9.37905674185864
      ],
      [
        "à¸³à¸«à¸£",
        -9.37944993330075
      ],
      [
        "Ð½ÑĭÐ¹",
        -9.380370318157636
      ],
      [
        "à¤°à¤£",
        -9.381023282355354
      ],
      [
        "ons",
        -9.381078087296888
      ],
      [
        "Ð¾ÑģÑĤÐ¸",
        -9.387674679443004
      ],
      [
        "ĠÐļ",
        -9.388018265323538
      ],
      [
        "ĠÐ¿Ð¾Ð´",
        -9.390345705723863
      ],
      [
        "Ġà°īà°¦",
        -9.390683579925565
      ],
      [
        "ĠÙħØŃÙħØ¯",
        -9.393047351797012
      ],
      [
        "Ġà°µà°°",
        -9.39426381470764
      ],
      [
        "'un",
        -9.395530533992725
      ],
      [
        "à±Īà°²",
        -9.395846513911165
      ],
      [
        "Ġà°ħà°¤",
        -9.397850737603957
      ],
      [
        "à¥Ģà¤¯",
        -9.39926914653768
      ],
      [
        "ØŁ",
        -9.40217150149519
      ],
      [
        "à¹Īà¸Ńà¸Ļ",
        -9.402650046494346
      ],
      [
        "ı",
        -9.404888254144314
      ],
      [
        "ĠÙĪØª",
        -9.405638390989695
      ],
      [
        "ĠÐĲ",
        -9.406704937960612
      ],
      [
        "à¹ĥà¸«à¸¡",
        -9.40672587466008
      ],
      [
        "Ġà¸£",
        -9.408696639455735
      ],
      [
        "ies",
        -9.409337789125894
      ],
      [
        "yla",
        -9.410831647250388
      ],
      [
        "à¹ĥà¸",
        -9.4109929023187
      ],
      [
        "Ġà°µà°¸",
        -9.412582909020312
      ],
      [
        "à¹Ħà¸§",
        -9.41330758860476
      ],
      [
        "ĠÑįÑĤ",
        -9.413475492683403
      ],
      [
        "Ġmu",
        -9.413766839935018
      ],
      [
        "æĪĸ",
        -9.417177661875282
      ],
      [
        "ia",
        -9.41920174294498
      ],
      [
        "à±Ģà°¤",
        -9.41989058554205
      ],
      [
        "à¸µà¸Ĺ",
        -9.420721198367904
      ],
      [
        "Ġà¸Ķ",
        -9.422491447298182
      ],
      [
        "Ð¾ÑģÑĤÑĮ",
        -9.42612635155058
      ],
      [
        "à°ħà°Ń",
        -9.426796344137006
      ],
      [
        "Ġà¸ŀ",
        -9.428303430657422
      ],
      [
        "Ġà¹Ĩ",
        -9.429070929392726
      ],
      [
        "à¸´à¸§",
        -9.430615832494253
      ],
      [
        "ĠKu",
        -9.432838519934728
      ],
      [
        "ez",
        -9.43354005444823
      ],
      [
        "à°Ĥà°¬",
        -9.43398546023023
      ],
      [
        "b",
        -9.434338198243198
      ],
      [
        "Ãªtre",
        -9.43454075797429
      ],
      [
        "âĢĻest",
        -9.434810727213431
      ],
      [
        "el",
        -9.435129192305869
      ],
      [
        "kila",
        -9.435979816643732
      ],
      [
        "year",
        -9.436655620316971
      ],
      [
        "à¥ĩà¤¸",
        -9.43688719017543
      ],
      [
        "V",
        -9.437245185697254
      ],
      [
        "à¤ħà¤§",
        -9.437795720051378
      ],
      [
        "Ġà¤¤à¤ķ",
        -9.438675709870491
      ],
      [
        "ca",
        -9.438873878884332
      ],
      [
        "ĠÙĦÙĩØ§",
        -9.439246000464816
      ],
      [
        "à±Ģà°Ł",
        -9.439838948720451
      ],
      [
        "cette",
        -9.439839306417255
      ],
      [
        "Ġny",
        -9.440599414584495
      ],
      [
        "ãĢį",
        -9.4411310388269
      ],
      [
        "mi",
        -9.442939077748232
      ],
      [
        "Ġà¹Ģà¸ŀ",
        -9.4440003530697
      ],
      [
        "à°®à°§",
        -9.444401342926652
      ],
      [
        "ØŁĊ",
        -9.444423829431567
      ],
      [
        "Ġfait",
        -9.44531430834401
      ],
      [
        "ĠÙĥØªØ§Ø¨",
        -9.446605767899038
      ],
      [
        "day",
        -9.44890202375334
      ],
      [
        "à¸´à¸ĺ",
        -9.449060240366832
      ],
      [
        "à°£",
        -9.452482512725467
      ],
      [
        "ĠV",
        -9.45297672380144
      ],
      [
        "¤",
        -9.453466483363934
      ],
      [
        "yote",
        -9.453844572344815
      ],
      [
        "ÙİÙĨ",
        -9.453866853161983
      ],
      [
        "à¤Ĥà¤¦",
        -9.453992301556925
      ],
      [
        "Ð¾Ð»ÑĮÐºÐ¾",
        -9.45491359840864
      ],
      [
        "à°ªà°¨",
        -9.455470179117013
      ],
      [
        "ÙĨÙĬ",
        -9.4561926574098
      ],
      [
        "Ð½ÑĭÐµ",
        -9.45661031979111
      ],
      [
        "âĢ¢",
        -9.45708993464685
      ],
      [
        "ote",
        -9.45719441196456
      ],
      [
        "à±ĩà°ľ",
        -9.459491214034768
      ],
      [
        "Ð³Ð¾",
        -9.459851929746709
      ],
      [
        "W",
        -9.46091939767869
      ],
      [
        "ĠÐ¸ÑģÐ¿Ð¾Ð»ÑĮÐ·",
        -9.46218911968228
      ],
      [
        "à°¬à°¡",
        -9.464316230085869
      ],
      [
        "Ġg",
        -9.464535479978409
      ],
      [
        "tir",
        -9.466071169117647
      ],
      [
        "ĠÙĦÙĥÙĨ",
        -9.466149534980374
      ],
      [
        "ĠØ¯ÙĪÙĨ",
        -9.467938766339012
      ],
      [
        "à¸Ńà¸ĩ",
        -9.468457795374858
      ],
      [
        "à¸ģà¸¥",
        -9.470141425335123
      ],
      [
        "Ġà¤ħà¤²",
        -9.47098182099598
      ],
      [
        "Ġà°¤à°®",
        -9.471995235675752
      ],
      [
        "ĠÑģÐ°Ð¼",
        -9.472245442189944
      ],
      [
        "ĠÙģØ¥ÙĨ",
        -9.472525363696803
      ],
      [
        "à°İà°²",
        -9.47281850643374
      ],
      [
        "ta",
        -9.472858454197128
      ],
      [
        "Ġiyi",
        -9.473132504276489
      ],
      [
        "Ø®Ø±Ùī",
        -9.473917361740115
      ],
      [
        "à¥ģà¤®",
        -9.474145164506282
      ],
      [
        "à±Ĩà°¯",
        -9.47518942117733
      ],
      [
        "¾",
        -9.476166775128188
      ],
      [
        ".w",
        -9.476813974718866
      ],
      [
        "ĠØ¹",
        -9.478787967297412
      ],
      [
        "à¸´à¸ĩ",
        -9.48033090026606
      ],
      [
        "Ġabout",
        -9.481601968094369
      ],
      [
        "ĠÑĢÐ°Ð·",
        -9.482176369231734
      ],
      [
        "ient",
        -9.482610511239198
      ],
      [
        "chini",
        -9.483537648500011
      ],
      [
        "à¹īà¸Ń",
        -9.484051357288656
      ],
      [
        "leur",
        -9.485989272337868
      ],
      [
        "ÙĥÙħ",
        -9.489966399367807
      ],
      [
        "ĠKwa",
        -9.490025930633331
      ],
      [
        "à¹ģà¸«",
        -9.490761277068028
      ],
      [
        "yi",
        -9.49144621961509
      ],
      [
        "à¥įà¤",
        -9.492219841942092
      ],
      [
        "Ø¹Ø¯Ùħ",
        -9.492417304246736
      ],
      [
        "à¸Ł",
        -9.492695662285175
      ],
      [
        "ĠÙĪØ¨",
        -9.493646229376562
      ],
      [
        "=",
        -9.494243635331774
      ],
      [
        "ka",
        -9.494325308305044
      ],
      [
        "Ġà°īà°ª",
        -9.494520539190052
      ],
      [
        "Ø§ÙĦØ¹Ø±Ø¨ÙĬØ©",
        -9.494636665687892
      ],
      [
        "Ġà¸Ļ",
        -9.498576350294908
      ],
      [
        "Ġà°ħà°ķ",
        -9.499171215681308
      ],
      [
        "ise",
        -9.50240776849049
      ],
      [
        "à°µà°°à°ķ",
        -9.502417586336968
      ],
      [
        "ĠØ¹Ø¨Ø¯",
        -9.502664117280258
      ],
      [
        "à¥ģà¤¦",
        -9.503750237736728
      ],
      [
        "ĠÐ¼Ñĭ",
        -9.50400669906665
      ],
      [
        "åıĬ",
        -9.505226104113158
      ],
      [
        "kuu",
        -9.505623455950118
      ],
      [
        "Ġà¤ĩà¤¨",
        -9.506815275719504
      ],
      [
        "Ġà°ªà°¡",
        -9.507136886366109
      ],
      [
        "à¥Ģà¤°",
        -9.507204332659844
      ],
      [
        "is",
        -9.508226687649
      ],
      [
        "yle",
        -9.508388667880183
      ],
      [
        "ine",
        -9.508393051312456
      ],
      [
        "+",
        -9.50850545729842
      ],
      [
        "Ġà¤Ľ",
        -9.509429445393575
      ],
      [
        "à¹īà¸³",
        -9.510200360577812
      ],
      [
        "å¤§",
        -9.510288313779387
      ],
      [
        "à¸ĺà¸£à¸£à¸¡",
        -9.510688113277164
      ],
      [
        "ï¼Ł",
        -9.510694031583236
      ],
      [
        "ÙĲÙĨ",
        -9.512585148361552
      ],
      [
        "ĠJe",
        -9.513202710403176
      ],
      [
        "à¹Īà¸²à¸§",
        -9.513238121855244
      ],
      [
        "ĠØ§ÙĦØ¥ÙĨØ³Ø§ÙĨ",
        -9.513877602330703
      ],
      [
        "à¹Ģà¸Ĺ",
        -9.514233629615294
      ],
      [
        "Ð±ÑĭÐ»Ð¾",
        -9.515016292992383
      ],
      [
        "à¹Īà¸§à¸¢",
        -9.516231824926532
      ],
      [
        "age",
        -9.51645306443472
      ],
      [
        "Ġwho",
        -9.518248794430631
      ],
      [
        "O",
        -9.52104703719451
      ],
      [
        "kuwa",
        -9.525446271578964
      ],
      [
        "à±įà°°à°ª",
        -9.526725702092827
      ],
      [
        "à°®à°¨",
        -9.526983780733072
      ],
      [
        "Ġvar",
        -9.527649039161284
      ],
      [
        "husu",
        -9.528550373387054
      ],
      [
        "Ġyer",
        -9.529424577419766
      ],
      [
        "à±įà°µà°°",
        -9.529640648368089
      ],
      [
        "Ġus",
        -9.53084147664087
      ],
      [
        "à¸¸à¸ģ",
        -9.531460169389122
      ],
      [
        "Ġà¸§",
        -9.535715792912116
      ],
      [
        "à±ģà°ļ",
        -9.535847192882668
      ],
      [
        "ĠÐ¶Ðµ",
        -9.53735498754424
      ],
      [
        "à°Ń",
        -9.537924078425782
      ],
      [
        "à¸ĩà¸Ĺ",
        -9.539248491567228
      ],
      [
        "ÙıÙħ",
        -9.540323469939176
      ],
      [
        "Ð²ÑĢÐµÐ¼Ñı",
        -9.541213133691247
      ],
      [
        "Ð¸ÑĤÑĮ",
        -9.541512711134754
      ],
      [
        "Ġ..",
        -9.542408380141149
      ],
      [
        "ĠØ³",
        -9.54513874809494
      ],
      [
        "ï¼ģ",
        -9.546872444016476
      ],
      [
        "said",
        -9.547827131856412
      ],
      [
        "ĠY",
        -9.547978974202532
      ],
      [
        "ĠØ§ÙĦØ¹Ø±Ø§ÙĤ",
        -9.548005368858746
      ],
      [
        "à¸Īà¸£",
        -9.54878161157789
      ],
      [
        "à¥įà¤¯à¤ķ",
        -9.55000535295921
      ],
      [
        "Ġà°ħà°¡",
        -9.550988826671402
      ],
      [
        "Ġà¤¬à¤¹",
        -9.551137028003646
      ],
      [
        "Ġtime",
        -9.55118649592426
      ],
      [
        "lakini",
        -9.551190685716872
      ],
      [
        "Ð¼Ð¸",
        -9.551421010729433
      ],
      [
        "ÙĩØ°Ø§",
        -9.551436996703352
      ],
      [
        "à¥ģà¤µ",
        -9.55197328503173
      ],
      [
        "à¸«à¸¥",
        -9.554728259323465
      ],
      [
        "à¤ģ",
        -9.5553451854425
      ],
      [
        "ĠÙĪÙĦÙĥÙĨ",
        -9.55754025638755
      ],
      [
        "ĠÙĪØ§ØŃØ¯",
        -9.558113009744266
      ],
      [
        "Ð¼Ð¾Ð¶ÐµÑĤ",
        -9.560467003617225
      ],
      [
        "à¹ĥà¸Ļà¸ģà¸²à¸£",
        -9.560762741539612
      ],
      [
        "ĠÙĪÙĩÙĬ",
        -9.560782703679456
      ],
      [
        "ĠAl",
        -9.561074965663938
      ],
      [
        "à¸Ńà¸ĩà¸Ħ",
        -9.561556707331889
      ],
      [
        "Ġà¸Ľ",
        -9.563449127055122
      ],
      [
        "Ð½Ð¾Ð³Ð¾",
        -9.56603234324526
      ],
      [
        "à¸Ŀ",
        -9.566054125232348
      ],
      [
        "fu",
        -9.566305834381366
      ],
      [
        "à±Ĥà°¨",
        -9.566934002892287
      ],
      [
        "U",
        -9.566989977265845
      ],
      [
        "Ãªme",
        -9.569008122007777
      ],
      [
        "ĠRe",
        -9.570493541707677
      ],
      [
        "uch",
        -9.571465289863571
      ],
      [
        "Ġhad",
        -9.571558164619711
      ],
      [
        "à¥ģà¤¸",
        -9.57184853091416
      ],
      [
        "Ġina",
        -9.57229586162525
      ],
      [
        "à¤¾à¤ģ",
        -9.573431617027769
      ],
      [
        "Ã©es",
        -9.57351046233531
      ],
      [
        "à°µà°¡",
        -9.57403868156992
      ],
      [
        "_",
        -9.574104304261352
      ],
      [
        "Ø±Ø©",
        -9.5742476405971
      ],
      [
        "à¤ľà¤¨",
        -9.574690377755214
      ],
      [
        "à¥įà¤ľ",
        -9.57598141857261
      ],
      [
        "Ġmwak",
        -9.57639095336923
      ],
      [
        "ĠØ§ÙĦØ¹ÙħÙĦ",
        -9.577517254373804
      ],
      [
        "à¤ªà¤¹à¤²",
        -9.57926113818265
      ],
      [
        "à¸´à¸ļ",
        -9.57981760397348
      ],
      [
        "ä¸į",
        -9.580172849345397
      ],
      [
        "ĠIn",
        -9.580591141205774
      ],
      [
        "à¥Ģà¤ķ",
        -9.581861257269548
      ],
      [
        "This",
        -9.581865400434012
      ],
      [
        "ĠÐ±ÑĭÐ»",
        -9.584120677948455
      ],
      [
        "Ġhata",
        -9.584199342133765
      ],
      [
        "ÑİÑĤ",
        -9.584688200467486
      ],
      [
        "ababu",
        -9.585651842450089
      ],
      [
        "Ġses",
        -9.5865077135787
      ],
      [
        "à±įà°°à°ķ",
        -9.587923632028032
      ],
      [
        "ĠØªÙĥÙĪÙĨ",
        -9.588301819013893
      ],
      [
        "Le",
        -9.588469694339963
      ],
      [
        "à°¾à°ļ",
        -9.589235248012145
      ],
      [
        "à±Īà°Ł",
        -9.590961117949291
      ],
      [
        "à¹Ģà¸Ī",
        -9.59112265182442
      ],
      [
        "à¥¤Ċ",
        -9.591950932987857
      ],
      [
        "Ġà¤®à¤¹",
        -9.592085015125946
      ],
      [
        "sÄ±",
        -9.59210846520693
      ],
      [
        "Ġbin",
        -9.592270827914165
      ],
      [
        "ten",
        -9.593631214939528
      ],
      [
        "à±Ģà°ª",
        -9.59412392115118
      ],
      [
        "Ã©tÃ©",
        -9.595244582915736
      ],
      [
        "åľ°",
        -9.59779892105676
      ],
      [
        "tume",
        -9.60149438033785
      ],
      [
        "Ø¬",
        -9.601607396666958
      ],
      [
        "à¥Ĥà¤ª",
        -9.602318212794277
      ],
      [
        "Ġsu",
        -9.602814436628442
      ],
      [
        "ÑĤÐµÐ»ÑĮÐ½Ð¾",
        -9.602951404809724
      ],
      [
        "à¸´à¸ģ",
        -9.604414761460276
      ],
      [
        "Ð¼Ð¾Ð¶Ð½Ð¾",
        -9.604757236945712
      ],
      [
        "à¤¾à¤¬",
        -9.605029328808923
      ],
      [
        "ĠØ§ÙĦØ¹Ø§ÙĦÙħ",
        -9.6060513712482
      ],
      [
        "Ġcomme",
        -9.60642465137088
      ],
      [
        "Ø®Ø§ØµØ©",
        -9.60763928074281
      ],
      [
        "ÙģÙī",
        -9.608039376749446
      ],
      [
        ">",
        -9.611385483060118
      ],
      [
        "Ġany",
        -9.611501985914073
      ],
      [
        "Ġà°ıà°°",
        -9.61328387386938
      ],
      [
        "ĠØ¹ÙħÙĦ",
        -9.615191758128177
      ],
      [
        "Ġzaman",
        -9.61537463506975
      ],
      [
        "Ġama",
        -9.615583605991672
      ],
      [
        "Ġhuo",
        -9.617290895670678
      ],
      [
        "ï¼ī",
        -9.618560478170036
      ],
      [
        "Ġlike",
        -9.61964606617953
      ],
      [
        "Ø¯Ùī",
        -9.620716805123084
      ],
      [
        "à°Ī",
        -9.621274175259115
      ],
      [
        "vile",
        -9.622581996719004
      ],
      [
        "à¹Īà¸§à¸Ļ",
        -9.622849136884891
      ],
      [
        "à¤¹à¤¤",
        -9.622854773000736
      ],
      [
        "ĠIl",
        -9.623035174211026
      ],
      [
        "ÙĪÙĩØ°Ø§",
        -9.624776248272555
      ],
      [
        "pia",
        -9.626845427416246
      ],
      [
        "lik",
        -9.627457542631827
      ],
      [
        "Ð»Ð¸ÑģÑĮ",
        -9.62764920526556
      ],
      [
        "à¥įà¤¡",
        -9.627671876631556
      ],
      [
        "ÑģÐº",
        -9.628303713065549
      ],
      [
        "Ġaka",
        -9.62857013879381
      ],
      [
        "à¸Ļà¸Ĺ",
        -9.628585738524947
      ],
      [
        "ĠÐķ",
        -9.629379902624756
      ],
      [
        "à¤¼à¥Ģ",
        -9.629824326994726
      ],
      [
        "ĠØ¨Ø£ÙĨ",
        -9.631659099307289
      ],
      [
        "Ġà°İà°¨",
        -9.632537721969513
      ],
      [
        "Ġbasi",
        -9.633801713942873
      ],
      [
        "âĢĻa",
        -9.634176852663156
      ],
      [
        "Ð¸Ð¸",
        -9.63446282265284
      ],
      [
        "ŀ",
        -9.635639135321917
      ],
      [
        "à¤¹à¤°",
        -9.635987659508537
      ],
      [
        "Ġhuu",
        -9.636237532991473
      ],
      [
        "ÙģÙĬ",
        -9.636508590339192
      ],
      [
        "Ġà°·",
        -9.637683501994992
      ],
      [
        "§",
        -9.637922823599656
      ],
      [
        "ÙİÙĬ",
        -9.6389732987753
      ],
      [
        "Ġà°®à°¹",
        -9.639319433621218
      ],
      [
        "à¥ĭà¤²",
        -9.64020167090204
      ],
      [
        "ä¸Ģ",
        -9.640392891402556
      ],
      [
        "ĠØ§ÙĦÙĬÙĪÙħ",
        -9.640746834673248
      ],
      [
        "ĠÐ²Ð¾",
        -9.64087491011427
      ],
      [
        "à¸µà¸Ħà¸§à¸²à¸¡",
        -9.64150318387411
      ],
      [
        "ä¹Ł",
        -9.641662446079332
      ],
      [
        "Ġà°Ĵ",
        -9.64185197690102
      ],
      [
        "à¹īà¸²à¸Ĺ",
        -9.642447234818905
      ],
      [
        "Ġbien",
        -9.642839267997427
      ],
      [
        "were",
        -9.642901720794946
      ],
      [
        "ä¸İ",
        -9.64517292340061
      ],
      [
        "à¸µà¸Ļ",
        -9.64522308079054
      ],
      [
        "à±įà°°à°¦",
        -9.64602023537188
      ],
      [
        "ry",
        -9.646257376635456
      ],
      [
        "J",
        -9.64762279130773
      ],
      [
        "Ġà°ĩà°ķ",
        -9.648578381527328
      ],
      [
        "ĠÙĬÙĪÙħ",
        -9.64928876889786
      ],
      [
        "à¤·",
        -9.64974311661393
      ],
      [
        "siniz",
        -9.650072076234952
      ],
      [
        "Ø¥Ø°Ø§",
        -9.650312313358263
      ],
      [
        "asi",
        -9.651431697025693
      ],
      [
        "Ġà°ļà°°",
        -9.652833817979651
      ],
      [
        "lÄ±k",
        -9.65294699510913
      ],
      [
        "ra",
        -9.653069897452042
      ],
      [
        "æĪĳ",
        -9.653445842660991
      ],
      [
        "w",
        -9.6547688114924
      ],
      [
        "à¥ĭà¤¡",
        -9.654851129565852
      ],
      [
        "kweli",
        -9.654909276807173
      ],
      [
        "à±ĩà°¡",
        -9.655254816030158
      ],
      [
        "Ġà°¤à°ª",
        -9.655548670332434
      ],
      [
        "è¢«",
        -9.656071142424969
      ],
      [
        "ume",
        -9.656969641590615
      ],
      [
        "nda",
        -9.658707260299495
      ],
      [
        "à¸Ĺà¸ĺ",
        -9.659229158912614
      ],
      [
        "æľĪ",
        -9.659744349086722
      ],
      [
        "Ġà¸",
        -9.660208769833936
      ],
      [
        "engine",
        -9.660226229435317
      ],
      [
        "à¸·à¸Ńà¸Ļ",
        -9.660666810644091
      ],
      [
        "Ġyeni",
        -9.661039303515942
      ],
      [
        "$",
        -9.662106511744506
      ],
      [
        "ÙİÙħ",
        -9.662488907159894
      ],
      [
        "ÙĬØ§Øª",
        -9.662655804419504
      ],
      [
        "Ġmwa",
        -9.663188567865834
      ],
      [
        "à¸ļà¸£",
        -9.663409993585228
      ],
      [
        "tÄ±r",
        -9.66496186545776
      ],
      [
        "Ġsome",
        -9.665004586851754
      ],
      [
        "ÐµÐ½Ð¸Ðµ",
        -9.665207408628518
      ],
      [
        "first",
        -9.667861916105425
      ],
      [
        "à¹Ģà¸Ľà¸¥",
        -9.669087368091642
      ],
      [
        "à¸Īà¸°",
        -9.669262732349267
      ],
      [
        "ÙĦØ©",
        -9.669446322373656
      ],
      [
        "ndani",
        -9.672693097601355
      ],
      [
        "Je",
        -9.673610047840912
      ],
      [
        "maisha",
        -9.674672077159968
      ],
      [
        "à¸µà¸¢à¸§",
        -9.67643858440136
      ],
      [
        "à¤¿à¤®",
        -9.6772491848325
      ],
      [
        "Ġà¹Ĥà¸Ķà¸¢",
        -9.678457651429303
      ],
      [
        "Ġiki",
        -9.67894273955747
      ],
      [
        "ĠÙĦÙĬØ³",
        -9.678971231276376
      ],
      [
        "arak",
        -9.680131126574851
      ],
      [
        "à¥įà¤°à¤®",
        -9.680624995289891
      ],
      [
        "à¥ĩà¤µ",
        -9.681755297690682
      ],
      [
        "Ġà¤§",
        -9.682310567362634
      ],
      [
        "Ġhiz",
        -9.682986620686156
      ],
      [
        "ÑĩÐµÐ½ÑĮ",
        -9.685448483318842
      ],
      [
        "Ġà¤ľà¤¬",
        -9.686034702094188
      ],
      [
        "à°īà°¤",
        -9.687520402138254
      ],
      [
        "à¥Ģà¤¤",
        -9.688614312400324
      ],
      [
        "ĠØ´Ø¹Ø¨",
        -9.690196859406123
      ],
      [
        "what",
        -9.690610965403328
      ],
      [
        "à±Ĭà°²",
        -9.690919896788264
      ],
      [
        "ĠgÃ¶re",
        -9.691382099886464
      ],
      [
        "Ð»Ð°",
        -9.691762169716046
      ],
      [
        "ĠØ£ÙĥØ«Ø±",
        -9.692032307381211
      ],
      [
        "à±įà°·à°£",
        -9.69233543724754
      ],
      [
        "ĠolduÄŁu",
        -9.69299989195602
      ],
      [
        "à¸¶à¸ģ",
        -9.693007589165877
      ],
      [
        "ĠØ§ÙĦÙĨØ§Ø³",
        -9.694643335708191
      ],
      [
        "uz",
        -9.695493104397752
      ],
      [
        "nchi",
        -9.696225200254144
      ],
      [
        "à¸£à¸°à¸Ķ",
        -9.697518480961769
      ],
      [
        "ts",
        -9.698837639096164
      ],
      [
        "ally",
        -9.69934773164864
      ],
      [
        "Ġal",
        -9.699582907220574
      ],
      [
        "Ð¾Ð²Ð°ÑĤÑĮ",
        -9.699858800023884
      ],
      [
        "Ġno",
        -9.699891757244416
      ],
      [
        "Ġà¸ľ",
        -9.700422795744505
      ],
      [
        "Windows",
        -9.701271557342512
      ],
      [
        "ĠÙĪÙħØ§",
        -9.702438079122572
      ],
      [
        "ĠØ¬ÙħÙĬØ¹",
        -9.70471285857408
      ],
      [
        "à¸µà¸ª",
        -9.704783009222584
      ],
      [
        "Ð»Ñı",
        -9.704937974960403
      ],
      [
        "Ġà¤Ĳà¤",
        -9.70660015817417
      ],
      [
        "ĠÐ¢",
        -9.708598594501094
      ],
      [
        "ĠØŃØ§ÙĦ",
        -9.710800958783846
      ],
      [
        "à¥ģà¤ĸ",
        -9.710976645194918
      ],
      [
        "ÙħÙĨ",
        -9.711035146120146
      ],
      [
        "ÐŃÑĤÐ¾",
        -9.712008649078328
      ],
      [
        "ÑģÑĮ",
        -9.712191693102678
      ],
      [
        "R",
        -9.71219293417376
      ],
      [
        "Ġover",
        -9.712379678263249
      ],
      [
        "Ð±ÑĥÐ´ÐµÑĤ",
        -9.713459066964004
      ],
      [
        "à±Ĭà°°",
        -9.713464487422955
      ],
      [
        "bila",
        -9.714382146246274
      ],
      [
        "à°ĩà°µ",
        -9.71639432330736
      ],
      [
        "à¸Ĭà¸²à¸ķ",
        -9.7174850477101
      ],
      [
        "à¸Ħà¸§à¸²à¸¡à¸£",
        -9.717894897702635
      ],
      [
        "²",
        -9.718297022426356
      ],
      [
        "ĠØ§ÙĦÙħØ³ÙĦÙħ",
        -9.718387726892956
      ],
      [
        "ĠHotel",
        -9.71939230707806
      ],
      [
        "im",
        -9.720189316868854
      ],
      [
        "ĠbÃ¼yÃ¼k",
        -9.72046540495317
      ],
      [
        "à¤ªà¤¤",
        -9.72056827999114
      ],
      [
        "à¹ĩà¸¡",
        -9.722012972831491
      ],
      [
        "à¤¿à¤¦",
        -9.722484655915258
      ],
      [
        "no",
        -9.722972465899844
      ],
      [
        "ÙĩÙħØ§",
        -9.723678563209734
      ],
      [
        "ÙĬØ¶Ø§",
        -9.724225413727584
      ],
      [
        "à±įà°°à°¹",
        -9.724325673769076
      ],
      [
        "ØªØ¹Ø§ÙĦÙī",
        -9.724707591602543
      ],
      [
        "ĠMu",
        -9.725916519084445
      ],
      [
        "Bu",
        -9.730375901520286
      ],
      [
        "à¥Ģà¤ľ",
        -9.730472800269098
      ],
      [
        "bu",
        -9.731336934882336
      ],
      [
        "Â",
        -9.73350455249028
      ],
      [
        "à¹Ĭ",
        -9.733733098687546
      ],
      [
        "ĠÙĥØ¨ÙĬØ±",
        -9.734889535746568
      ],
      [
        "à¹Ģà¸«à¸¥",
        -9.735107448412268
      ],
      [
        "Ġà¤ķà¤®",
        -9.735237432154172
      ],
      [
        "à¹īà¸Ĺ",
        -9.735613873307774
      ],
      [
        "à¤¾à¤°à¤¤",
        -9.736405357236949
      ],
      [
        "à¥į",
        -9.737059108077723
      ],
      [
        "à°µà°¤",
        -9.737717178800708
      ],
      [
        "à±ĩà°ª",
        -9.738131848592053
      ],
      [
        "Ġà¸ĸ",
        -9.738327951693236
      ],
      [
        "Ġwao",
        -9.7384748872905
      ],
      [
        "æĹ¶",
        -9.73920574904177
      ],
      [
        "ans",
        -9.739563712015077
      ],
      [
        "à±įà°¯à°¤",
        -9.73956405305713
      ],
      [
        "ÙĦÙĩÙħ",
        -9.739909194604763
      ],
      [
        "Ġdon",
        -9.7408327410525
      ],
      [
        "à°¿à°ķà°²",
        -9.741169844979876
      ],
      [
        "à°¬à°°",
        -9.741899773301055
      ],
      [
        "à¸±à¸Ļà¸ĺ",
        -9.742054064978667
      ],
      [
        "Ġmw",
        -9.742188103713309
      ],
      [
        "islam",
        -9.742704579059165
      ],
      [
        "à¹ĩà¸Ļà¸ķ",
        -9.744446793044672
      ],
      [
        "ĠØ¹ÙĦÙħ",
        -9.744818322383782
      ],
      [
        "eurs",
        -9.745208718275595
      ],
      [
        "La",
        -9.745599274286946
      ],
      [
        "à°ħà°¤à°¨",
        -9.748280363692846
      ],
      [
        "wili",
        -9.75038795976172
      ],
      [
        "à¸Ħà¸¥",
        -9.750824975332486
      ],
      [
        "ĠÙĦØ£ÙĨ",
        -9.7509594045692
      ],
      [
        "à¤¾à¤Ĺ",
        -9.7513729793086
      ],
      [
        "ÑĤÐ¾Ð³Ð¾",
        -9.752413207721636
      ],
      [
        "likuwa",
        -9.75258153864447
      ],
      [
        "à¸Īà¸²à¸ģ",
        -9.752872343435364
      ],
      [
        "Ġthere",
        -9.75305174530449
      ],
      [
        "ÙħØ¯ÙĬÙĨØ©",
        -9.753568320530878
      ],
      [
        "à¤ł",
        -9.754870506479678
      ],
      [
        "Ġvot",
        -9.755278949169783
      ],
      [
        "Ġjust",
        -9.755421539197751
      ],
      [
        "à°¾à°²à°²",
        -9.756175639681796
      ],
      [
        "à¸Ħà¸§à¸²à¸¡à¸ª",
        -9.756200981253173
      ],
      [
        "à°Ĥà°Ń",
        -9.756922117870785
      ],
      [
        "à¥ģà¤Ĩ",
        -9.7569235435793
      ],
      [
        "Ø§ÙĦÙħØ±Ø£",
        -9.757097721401546
      ],
      [
        "®",
        -9.757678046316638
      ],
      [
        "å°±",
        -9.757950224994053
      ],
      [
        "Ġif",
        -9.758617265865167
      ],
      [
        "à¥ĩà¤Ĺ",
        -9.759587692457783
      ],
      [
        "à±įà°°à°µ",
        -9.759878694683229
      ],
      [
        "ĠÑĢÐ°Ð±Ð¾ÑĤ",
        -9.760121889219484
      ],
      [
        "Y",
        -9.760315575448605
      ],
      [
        "ĠÐ±Ð¾Ð»ÐµÐµ",
        -9.761142859931695
      ],
      [
        "à¸¶à¸ģà¸©à¸²",
        -9.761894860912737
      ],
      [
        "ÐµÑģÑĤÑĮ",
        -9.763258535471062
      ],
      [
        "ÙĨÙģØ³Ùĩ",
        -9.76329538424054
      ],
      [
        "ĵ",
        -9.763469160247316
      ],
      [
        "ØªÙĦÙĥ",
        -9.764080659574285
      ],
      [
        "Ð¾Ð½Ð¸",
        -9.764275158583242
      ],
      [
        "Z",
        -9.765333192344722
      ],
      [
        "ĠØ¹Ø¯Ø¯",
        -9.765747562430304
      ],
      [
        "Ġà°Ĩà°²",
        -9.766209231787116
      ],
      [
        "à¥ĭà¤Ł",
        -9.766664998723384
      ],
      [
        "Ø§ÙĦØ«Ø§ÙĨÙĬ",
        -9.76785331722062
      ],
      [
        "ini",
        -9.768575564444337
      ],
      [
        "ÑĥÐ¶Ðµ",
        -9.768788050760596
      ],
      [
        "Ø¨Ø´ÙĥÙĦ",
        -9.76988256638391
      ],
      [
        "engi",
        -9.77019389055338
      ],
      [
        "à±įà°¸à°°",
        -9.77042498571312
      ],
      [
        "Ø°",
        -9.770564347375077
      ],
      [
        "à¹Īà¸Ńà¸¢",
        -9.77072655155235
      ],
      [
        "ĠØ§ÙĦØ¹ÙĦÙħ",
        -9.771122334363676
      ],
      [
        "Ġnew",
        -9.772385698977637
      ],
      [
        "à¹ģà¸¡",
        -9.773662055040162
      ],
      [
        "toto",
        -9.774177497270577
      ],
      [
        "Ġà¤ĺ",
        -9.774597747357337
      ],
      [
        "ä¸º",
        -9.774839834476722
      ],
      [
        "ä»¥",
        -9.775314156626887
      ],
      [
        "Ð»",
        -9.775538070914894
      ],
      [
        "à±Īà°¤",
        -9.77582607409525
      ],
      [
        "à¤¼à¥ĩ",
        -9.775863875772249
      ],
      [
        "ations",
        -9.776142690506616
      ],
      [
        "Mwenyezi",
        -9.77714593595068
      ],
      [
        "æĹ¥",
        -9.77777605685544
      ],
      [
        "Ġthem",
        -9.778225719038382
      ],
      [
        "ĠØ·Ø±ÙĬÙĤ",
        -9.779210480202028
      ],
      [
        "nzo",
        -9.779817632788328
      ],
      [
        "ØĽ",
        -9.780251574573096
      ],
      [
        "\".Ċ",
        -9.78045588994754
      ],
      [
        "ĠÑĢÐ°Ñģ",
        -9.781160832853304
      ],
      [
        "à¹ĩà¸ģ",
        -9.781388939984978
      ],
      [
        "thing",
        -9.781614445952338
      ],
      [
        "hilo",
        -9.782442503240969
      ],
      [
        "its",
        -9.783913854444329
      ],
      [
        "Ġmo",
        -9.784493388457884
      ],
      [
        "Ġplace",
        -9.7848442611553
      ],
      [
        "à¤ľà¤°",
        -9.785201437514832
      ],
      [
        "ajili",
        -9.78564576529248
      ],
      [
        "way",
        -9.785834770171045
      ],
      [
        "Ð»Ð¾ÑģÑĮ",
        -9.786845285359952
      ],
      [
        "lui",
        -9.787949432209356
      ],
      [
        "eur",
        -9.790175868520226
      ],
      [
        "ÙİØ±",
        -9.791038643795403
      ],
      [
        "Ġà¤īà¤ª",
        -9.792257713390512
      ],
      [
        "ÙĨØ©",
        -9.794160706799094
      ],
      [
        "ous",
        -9.79417924843994
      ],
      [
        "Ġà°Ĩà°¸",
        -9.794942923062491
      ],
      [
        "à¹ģà¸ģ",
        -9.796408526660986
      ],
      [
        "weza",
        -9.796450762743415
      ],
      [
        "Ã¨re",
        -9.7964820519398
      ],
      [
        "ÙĤØ©",
        -9.79699458035036
      ],
      [
        "ĠyÄ±l",
        -9.797616517349477
      ],
      [
        "à¹īà¸ģ",
        -9.7980335036105
      ],
      [
        "faire",
        -9.798175640770046
      ],
      [
        "tarafÄ±ndan",
        -9.799092394799086
      ],
      [
        "ĠIt",
        -9.799168361912477
      ],
      [
        "Na",
        -9.800734409481688
      ],
      [
        "ĠØ§ÙĦØ¹ÙĦÙħÙĬ",
        -9.80130655392746
      ],
      [
        "à¹Īà¸°",
        -9.801507984351012
      ],
      [
        "Ġsite",
        -9.80158119469873
      ],
      [
        "Ġsiku",
        -9.802089834693527
      ],
      [
        "mektedir",
        -9.802388816671971
      ],
      [
        "hili",
        -9.804269885903317
      ],
      [
        "ä¸ĭ",
        -9.804510786075102
      ],
      [
        "à¥ĩà¤¡",
        -9.80468019208887
      ],
      [
        "elle",
        -9.805655543444296
      ],
      [
        "jamii",
        -9.806942891707696
      ],
      [
        "à±įà°¨à°¦",
        -9.807245779528394
      ],
      [
        "Ġservice",
        -9.807972375359403
      ],
      [
        "Ġget",
        -9.808114832725304
      ],
      [
        "Ġmara",
        -9.80820412739522
      ],
      [
        "lors",
        -9.808734020714898
      ],
      [
        "ques",
        -9.808781584310417
      ],
      [
        "Ð¡",
        -9.809292893769928
      ],
      [
        "-Ċ",
        -9.80991730133588
      ],
      [
        "ĠAllah",
        -9.810649687648658
      ],
      [
        "ÑĮÑİ",
        -9.81066738697998
      ],
      [
        "à°¾à°°à°¤",
        -9.810747733561833
      ],
      [
        "ï¼Ľ",
        -9.81182110075996
      ],
      [
        "Ø±Ùī",
        -9.812460706306512
      ],
      [
        "ÙĮ",
        -9.81273699885766
      ],
      [
        "ÙħÙĨÙĩØ§",
        -9.814302700065978
      ],
      [
        "Ġà¹Ģà¸ŀà¸£à¸²à¸°",
        -9.816261098584263
      ],
      [
        "one",
        -9.816350753856218
      ],
      [
        "à±ģà°£",
        -9.8167844796041
      ],
      [
        "à±Ĭà°¡",
        -9.816872187679676
      ],
      [
        "à¥Ģà¤®",
        -9.81842545610828
      ],
      [
        "è¯´",
        -9.819190391135034
      ],
      [
        "Ľà¸£à¸°à¹Ģà¸Ĺà¸¨",
        -9.819376755603926
      ],
      [
        "Ġco",
        -9.81965271714633
      ],
      [
        "ur",
        -9.820314444312215
      ],
      [
        "nini",
        -9.820407821883308
      ],
      [
        "ĠØ¹ÙĨÙĩ",
        -9.820792797338
      ],
      [
        "ĠÙħÙĨÙĩ",
        -9.821549740623867
      ],
      [
        "Ġà°°à°ķ",
        -9.821710084428798
      ],
      [
        "à°ĸ",
        -9.821844825346837
      ],
      [
        "cho",
        -9.822409620658032
      ],
      [
        "à¥ĩà¤ľ",
        -9.822587263921466
      ],
      [
        "ĠÙģÙĤØ¯",
        -9.824113581417231
      ],
      [
        "Ġpart",
        -9.824993722500306
      ],
      [
        "ĠÂ»",
        -9.825320170628652
      ],
      [
        "à¤¬à¤¸",
        -9.825367694407984
      ],
      [
        "alikuwa",
        -9.826782435790264
      ],
      [
        "@",
        -9.827167162517917
      ],
      [
        "ª",
        -9.827769276274946
      ],
      [
        "Ġà°ıà°®",
        -9.829206230993352
      ],
      [
        "Ġà¤Ĩà¤°",
        -9.829602492926412
      ],
      [
        "Ġà¤ªà¤¹",
        -9.829858154482965
      ],
      [
        "à¤¿à¤ľ",
        -9.82998205996839
      ],
      [
        "à¸Ĺà¸²à¸ĩ",
        -9.830186588483835
      ],
      [
        "erek",
        -9.830504590811689
      ],
      [
        "à¥įà¤°à¤ķ",
        -9.83060997059943
      ],
      [
        "ĠØŃÙĪÙĦ",
        -9.831709972161027
      ],
      [
        "autre",
        -9.8318240196262
      ],
      [
        "ĠÙĤ",
        -9.832956763536991
      ],
      [
        ".)",
        -9.833091973036236
      ],
      [
        "ä»ĸ",
        -9.833708681254272
      ],
      [
        "Ġthan",
        -9.835478701523302
      ],
      [
        "ĠÐ»Ð¸",
        -9.83595288861463
      ],
      [
        "Ġà°µà°¦",
        -9.83640927549414
      ],
      [
        "Ġgo",
        -9.836483767542372
      ],
      [
        "à¸´à¸£",
        -9.836893858808915
      ],
      [
        "les",
        -9.83707014710126
      ],
      [
        "à¸³à¸Ħ",
        -9.837444841436197
      ],
      [
        "çŃī",
        -9.83758727113401
      ],
      [
        "à¸¡à¸²à¸ģ",
        -9.839132922144357
      ],
      [
        "njia",
        -9.839260314326465
      ],
      [
        "à¹Īà¸²à¸ĩà¹Ĩ",
        -9.839555864678225
      ],
      [
        "habari",
        -9.84087519268115
      ],
      [
        "ĠEn",
        -9.841012263298149
      ],
      [
        "ĠØ§ÙĦØ´Ø¹Ø¨",
        -9.841194918242078
      ],
      [
        "ussi",
        -9.84164013626116
      ],
      [
        "à±ĥ",
        -9.842444893295196
      ],
      [
        "ĠBir",
        -9.84313757829544
      ],
      [
        "å¯¹",
        -9.843232375084773
      ],
      [
        "sasa",
        -9.843344845626888
      ],
      [
        "Ð³Ð¾Ð´Ð°",
        -9.844116628308887
      ],
      [
        "à±ĭà°·",
        -9.84420401779084
      ],
      [
        "ä½ł",
        -9.844850020365422
      ],
      [
        "sel",
        -9.844875581247852
      ],
      [
        "à¹Ģà¸ķ",
        -9.845049403359615
      ],
      [
        "à¹Ĥà¸Ķà¸¢",
        -9.84592590752566
      ],
      [
        "à¸¸à¸Ĺà¸ĺ",
        -9.846123243734963
      ],
      [
        "à¤ļà¤²",
        -9.84623269685337
      ],
      [
        "Ġfilm",
        -9.846537608752293
      ],
      [
        "Ġinto",
        -9.8467219589794
      ],
      [
        "à¤¤à¤°à¤¹",
        -9.84737253166059
      ],
      [
        "à¸¸à¸¡",
        -9.84866267006464
      ],
      [
        "fanya",
        -9.848690084499715
      ],
      [
        "à¤¿à¤ĸ",
        -9.850216066328883
      ],
      [
        "à°®à°°",
        -9.850367804787036
      ],
      [
        "ity",
        -9.850595071154912
      ],
      [
        "and",
        -9.853412562532313
      ],
      [
        "endelea",
        -9.854592845675487
      ],
      [
        "Ġkum",
        -9.854878081133409
      ],
      [
        "åİ»",
        -9.854908001929855
      ],
      [
        "à¸¹à¸Ķ",
        -9.8549929262929
      ],
      [
        "ĠÐ¾Ð±",
        -9.85510774327399
      ],
      [
        "ĠØªÙħ",
        -9.856197935542689
      ],
      [
        "Ġà°ħà°¸",
        -9.85636045982281
      ],
      [
        "ģ",
        -9.857507083939186
      ],
      [
        "'a",
        -9.85777572008258
      ],
      [
        "à±Ĥà°Ł",
        -9.85790749711644
      ],
      [
        "hariri",
        -9.860154749758106
      ],
      [
        "ÑįÑĤÐ¾Ð¼",
        -9.86250186938863
      ],
      [
        "à¤¢",
        -9.86326694521494
      ],
      [
        "ĠØ£ØŃØ¯",
        -9.863305054411716
      ],
      [
        "ĠÙĥØ«ÙĬØ±",
        -9.863694975839207
      ],
      [
        "Ð¾Ð²Ð°Ð½Ð¸Ñı",
        -9.863986570444492
      ],
      [
        "à°ĩ",
        -9.864020133561857
      ],
      [
        "à°Ĥà°¤à°°",
        -9.864302283475013
      ],
      [
        "ĠÃ¶nce",
        -9.864374855829231
      ],
      [
        "Ð¾Ð½Ð°",
        -9.866963709638098
      ],
      [
        "Ø§ÙĦÙĦØºØ©",
        -9.867143359004633
      ],
      [
        "à¤¸à¤°",
        -9.867744935192391
      ],
      [
        "à¥Ĥà¤²",
        -9.868328626917384
      ],
      [
        "nu",
        -9.868714906312626
      ],
      [
        "à¤¿à¤Ł",
        -9.869643788925597
      ],
      [
        "Ġbi",
        -9.86978565911527
      ],
      [
        "name",
        -9.87031014926401
      ],
      [
        "à¸Ńà¸²à¸«à¸²à¸£",
        -9.870843243329158
      ],
      [
        "à¹īà¸Ķ",
        -9.871737881798254
      ],
      [
        "ĠÐŀÐ½",
        -9.87434096445462
      ],
      [
        "lso",
        -9.876367238309856
      ],
      [
        "most",
        -9.87655350544716
      ],
      [
        "ĠÐ¼ÐµÐ½Ñı",
        -9.876961646946295
      ],
      [
        "à±ģà°·",
        -9.878044961854688
      ],
      [
        "à¥Įà¤°",
        -9.87930756965507
      ],
      [
        "Ġmon",
        -9.880160386998938
      ],
      [
        "Ġà¹Ģà¸Ĭ",
        -9.88017577627107
      ],
      [
        "kufanya",
        -9.881079450356877
      ],
      [
        "Ġkitu",
        -9.881560535102304
      ],
      [
        "tokana",
        -9.881762450719874
      ],
      [
        "zuri",
        -9.883462390395517
      ],
      [
        "à±įà°¯à°²",
        -9.883592296896596
      ],
      [
        "¯",
        -9.88457725170368
      ],
      [
        "à±įà°Ń",
        -9.88625079738145
      ],
      [
        "ĠÙĪÙĦÙħ",
        -9.886631318450242
      ],
      [
        "ĠÙĪÙĥØ§ÙĨ",
        -9.886665527507432
      ],
      [
        "³",
        -9.886948104442624
      ],
      [
        "à¤¾à¤§",
        -9.886972315561229
      ],
      [
        "Ġà°¤à°Ĺ",
        -9.88863865578146
      ],
      [
        "ci",
        -9.888699751246154
      ],
      [
        "ÙħØ±Ø©",
        -9.889668432854965
      ],
      [
        "à¤Ĥà¤¡",
        -9.88998991518818
      ],
      [
        "ãĢĬ",
        -9.89000530830562
      ],
      [
        "ĠUn",
        -9.89120748400571
      ],
      [
        "ÙĪØ°ÙĦÙĥ",
        -9.891253968968684
      ],
      [
        "Ġà¸Ĭ",
        -9.891430435922024
      ],
      [
        "ĠÙĦÙĬ",
        -9.891787145796547
      ],
      [
        "Ġuna",
        -9.892935134594634
      ],
      [
        "à±įà°°à°ľà°²",
        -9.89332429365973
      ],
      [
        "ĠÐ¿ÐµÑĢÐµ",
        -9.894304672764564
      ],
      [
        "à¸¹à¸ĩ",
        -9.89455125409269
      ],
      [
        "ĠØ¬",
        -9.896634122796083
      ],
      [
        "information",
        -9.896967878692427
      ],
      [
        "taifa",
        -9.897279000360705
      ],
      [
        "Ġben",
        -9.897923032630056
      ],
      [
        "à¸±à¸Ļà¸Ļ",
        -9.898913166191232
      ],
      [
        "à¸ģà¸³à¸¥",
        -9.899550502932591
      ],
      [
        "ĠØ¹Ø´Ø±",
        -9.900263427140022
      ],
      [
        "ĠiÃ§inde",
        -9.900619995209292
      ],
      [
        "à°¦à°Ĺ",
        -9.90067728922972
      ],
      [
        "à¸Ńà¸Ļ",
        -9.900850672059631
      ],
      [
        "ĠØ¢Ø®Ø±",
        -9.90123833814885
      ],
      [
        "à±",
        -9.901862548039423
      ],
      [
        "ĠDe",
        -9.902782054477465
      ],
      [
        "Ġkui",
        -9.902838009567349
      ],
      [
        "ĠiÅŁ",
        -9.903651473508358
      ],
      [
        "ÙģÙĤØ·",
        -9.90461285917506
      ],
      [
        "Ġime",
        -9.905953465970176
      ],
      [
        "tan",
        -9.906116699164755
      ],
      [
        "à¸Ļà¸ķà¸£",
        -9.907031342415324
      ],
      [
        "et",
        -9.90752058902613
      ],
      [
        "ĠØ§ÙĦØª",
        -9.907666814184228
      ],
      [
        "ĠÐĶ",
        -9.907767566535776
      ],
      [
        "Ġkati",
        -9.908402512788136
      ],
      [
        "Ð²",
        -9.908532524981217
      ],
      [
        "à°¨à°®",
        -9.908728962754417
      ],
      [
        "ĠÐ´ÑĢÑĥÐ³",
        -9.909805938321984
      ],
      [
        "à±Īà°ķ",
        -9.910069850692397
      ],
      [
        "éĥ½",
        -9.910811462034593
      ],
      [
        "Ġà¹ģà¸¥",
        -9.91177821544532
      ],
      [
        "à¸·à¸Ńà¸ĩ",
        -9.911888196832802
      ],
      [
        "à±ģà°¬",
        -9.912188932361111
      ],
      [
        "ĠØ§ÙĦØ¹Ø±Ø§ÙĤÙĬ",
        -9.91256440479338
      ],
      [
        "Ġà¤¸à¤¹",
        -9.913111536511138
      ],
      [
        "Ġà¤īà¤¤",
        -9.913157252109269
      ],
      [
        "ĠØ¨ÙħØ§",
        -9.91363337905732
      ],
      [
        "ivyo",
        -9.913962407345467
      ],
      [
        "{",
        -9.91498874770093
      ],
      [
        "ĠÐ½Ð¾Ð²",
        -9.915324257678654
      ],
      [
        "¥",
        -9.915729457038267
      ],
      [
        "Ġinclu",
        -9.916304892412434
      ],
      [
        "people",
        -9.91727370525403
      ],
      [
        "à¤¿à¤ª",
        -9.91778387118702
      ],
      [
        "sha",
        -9.918944201806651
      ],
      [
        "èĪĩ",
        -9.91915196969346
      ],
      [
        "ĠLes",
        -9.919225062995189
      ],
      [
        "à°¿à°¨à°ª",
        -9.921500905265129
      ],
      [
        "dogo",
        -9.921673863546458
      ],
      [
        "Ø¥ÙĨ",
        -9.92319236657378
      ],
      [
        "à¥įà¤¶",
        -9.924162301487328
      ],
      [
        "Ġuse",
        -9.924211354373018
      ],
      [
        "à¸¸à¸Ļ",
        -9.92443487050864
      ],
      [
        "ĠÐ¿ÐµÑĢÐ²",
        -9.924719606206404
      ],
      [
        "Ù",
        -9.924721377441124
      ],
      [
        "à¸±à¸ļà¸ģà¸²à¸£",
        -9.924803110976235
      ],
      [
        "tes",
        -9.9257928322512
      ],
      [
        "ĠØ§ÙĦØŃÙĬØ§",
        -9.926414854931089
      ],
      [
        "ĠÐ²Ð°ÑĪ",
        -9.926646191159987
      ],
      [
        "Ġshe",
        -9.92745411582558
      ],
      [
        "à¸¹à¸¥",
        -9.927953308779106
      ],
      [
        "ance",
        -9.928020084431214
      ],
      [
        "Ġiliyo",
        -9.929280755703877
      ],
      [
        "Ġhem",
        -9.930982478343337
      ],
      [
        "ĠarasÄ±nda",
        -9.931033288609877
      ],
      [
        "è¦ģ",
        -9.931169543504511
      ],
      [
        "à¤Ĥà¤¸",
        -9.931253593476058
      ],
      [
        "fasihi",
        -9.931422463012552
      ],
      [
        "ĠÃ¶nemli",
        -9.93214515629504
      ],
      [
        "à°¤à°¨",
        -9.932470304150446
      ],
      [
        "ĠÐĿÐ¾",
        -9.932720469912589
      ],
      [
        "Ð°ÑģÑĮ",
        -9.932905303059645
      ],
      [
        "Ġà°ĸ",
        -9.932977645210103
      ],
      [
        "à°Ĩà°°",
        -9.934183393690294
      ],
      [
        "à¸´à¸©",
        -9.934797789449217
      ],
      [
        "}",
        -9.93564065357543
      ],
      [
        "Ġmake",
        -9.935932636897276
      ],
      [
        "ÙĤØ§ÙĦ",
        -9.936872607338092
      ],
      [
        "g",
        -9.936878833705933
      ],
      [
        "Ġha",
        -9.937154574394032
      ],
      [
        "Ġmaji",
        -9.937421897345583
      ],
      [
        "ĠÙĪØ£",
        -9.937801582296458
      ],
      [
        "Ġolur",
        -9.938071087416285
      ],
      [
        "enzi",
        -9.93842360444848
      ],
      [
        "à¤¸à¤Ń",
        -9.938507707302875
      ],
      [
        "à¤¬à¤°",
        -9.938561736199135
      ],
      [
        "\".",
        -9.939377168546187
      ],
      [
        "Â».",
        -9.939414463137371
      ],
      [
        "ĠÐ¼Ð½Ðµ",
        -9.939979535682468
      ],
      [
        "hayo",
        -9.94057967340807
      ],
      [
        "maana",
        -9.940936214475544
      ],
      [
        "à¹Ģà¸ķà¸Ńà¸£",
        -9.94124819535918
      ],
      [
        "Ĳ",
        -9.941418713800276
      ],
      [
        "à±Ĥà°¤",
        -9.942095968730875
      ],
      [
        "à±Ĭà°¦à°²",
        -9.942659926697305
      ],
      [
        "à±Ĥà°®",
        -9.944311404992709
      ],
      [
        "vyo",
        -9.94533610276329
      ],
      [
        "Ġà¤°à¤ĸ",
        -9.945576633203416
      ],
      [
        "ndan",
        -9.9459579186681
      ],
      [
        "à¹ĩà¸Ķ",
        -9.946467000232056
      ],
      [
        "ØªÙĩÙħ",
        -9.948152593758929
      ],
      [
        "£",
        -9.948931222741937
      ],
      [
        "Ġpoint",
        -9.949606095255284
      ],
      [
        "Ġà¹Ģà¸¡",
        -9.94995693816718
      ],
      [
        "à¹īà¸²à¸¢",
        -9.950474802427664
      ],
      [
        "zake",
        -9.95083600561097
      ],
      [
        "Ġhawa",
        -9.950963117954718
      ],
      [
        "Ġdata",
        -9.950976102429117
      ],
      [
        "à¤¶à¤¨",
        -9.95140079081742
      ],
      [
        "ĠSi",
        -9.951508812746518
      ],
      [
        "ĠdeÄŁil",
        -9.951883917311095
      ],
      [
        "ĠÙħÙħØ§",
        -9.952543300323123
      ],
      [
        "Ðļ",
        -9.952727818267329
      ],
      [
        "Microsoft",
        -9.952780126006374
      ],
      [
        "ÙĥØ°ÙĦÙĥ",
        -9.95334944822967
      ],
      [
        "Ġà°ľà°¨",
        -9.953473723844107
      ],
      [
        "ĠÙĪØ³ÙĦÙħ",
        -9.953686676824464
      ],
      [
        "à¸ģà¸£à¸£à¸¡",
        -9.95479725896218
      ],
      [
        "Â·",
        -9.956864864032246
      ],
      [
        "à¤¤à¤°",
        -9.95702327782693
      ],
      [
        "à±Ĥà°ķ",
        -9.957673323991369
      ],
      [
        "ĠÙĬØ¬Ø¨",
        -9.958168836009405
      ],
      [
        "à°ļà°¬à°¡",
        -9.9584998714833
      ],
      [
        "èĢĮ",
        -9.958831865045866
      ],
      [
        "¾Ðº",
        -9.959206577024773
      ],
      [
        "à¸±à¸Ĵà¸Ļà¸²",
        -9.960070995501004
      ],
      [
        "Ġmay",
        -9.960426340141913
      ],
      [
        "à¸´à¹Į",
        -9.961754524383286
      ],
      [
        "Kwa",
        -9.961997280796968
      ],
      [
        "ÙħÙĨØ°",
        -9.963365731711235
      ],
      [
        "ĠØ§ÙĦÙĥØ«ÙĬØ±",
        -9.963411925406636
      ],
      [
        "à±įà°²à°²",
        -9.963674050104093
      ],
      [
        "aires",
        -9.96374491612056
      ],
      [
        "à°¿à°¬",
        -9.964483828530632
      ],
      [
        "à¸Ĺà¸³à¸ĩà¸²à¸Ļ",
        -9.964933378696848
      ],
      [
        "à¸´à¸ª",
        -9.965024988995784
      ],
      [
        "Ġilk",
        -9.966239628757496
      ],
      [
        "à°ł",
        -9.966340811576345
      ],
      [
        "Ġsee",
        -9.967510862389258
      ],
      [
        "à°¥",
        -9.971087414633292
      ],
      [
        "çĶ¨",
        -9.971351614085744
      ],
      [
        "Ġces",
        -9.971675463301269
      ],
      [
        "two",
        -9.972229449969578
      ],
      [
        "hemu",
        -9.973430668761283
      ],
      [
        "ÑĩÐµÑģÐº",
        -9.973750747179311
      ],
      [
        "each",
        -9.974338137090449
      ],
      [
        "ĠÙĪØ¬ÙĪØ¯",
        -9.975650657683705
      ],
      [
        "Ġwhe",
        -9.975768834719595
      ],
      [
        "åĩº",
        -9.976767232872223
      ],
      [
        "à¹ĩà¸ļ",
        -9.977880111889814
      ],
      [
        "nde",
        -9.978525168699424
      ],
      [
        "Ð¸Ñİ",
        -9.97861808874716
      ],
      [
        "à¸±à¸Īà¸Ī",
        -9.980043599129694
      ],
      [
        "à°Ľ",
        -9.980417742661889
      ],
      [
        "ĠÐŀ",
        -9.980542726768242
      ],
      [
        "Ð±ÑĭÐ»Ð¸",
        -9.980752168175131
      ],
      [
        "à¤¸à¤°à¤ķ",
        -9.981270973554151
      ],
      [
        "ĠÐ¿Ð¾ÑģÐ»Ðµ",
        -9.982959099955584
      ],
      [
        "ØŃ",
        -9.983178760122303
      ],
      [
        "âĢĻil",
        -9.983951100613
      ],
      [
        "à¸«à¸¡à¸²à¸¢",
        -9.984079489604351
      ],
      [
        "à¥ģà¤ª",
        -9.984133227830675
      ],
      [
        "Ð½Ð°Ñı",
        -9.984399291642166
      ],
      [
        "PM",
        -9.984485846864866
      ],
      [
        "ÐºÐ°",
        -9.98507323901294
      ],
      [
        "ge",
        -9.985682642550472
      ],
      [
        "ĠÐĿÐ°",
        -9.985886680276831
      ],
      [
        "à¸±à¸į",
        -9.986294492114768
      ],
      [
        "åĲİ",
        -9.986334761590896
      ],
      [
        "Ġà¹Ħà¸¡",
        -9.986393267903257
      ],
      [
        "un",
        -9.986855782555436
      ],
      [
        "ĠØ§ÙĦØ³ÙĬØ§Ø³ÙĬ",
        -9.987007783261884
      ],
      [
        "à¥Ģà¤µ",
        -9.987058516531851
      ],
      [
        "ĠÐĴÑĭ",
        -9.987272669143788
      ],
      [
        "à¹ĩà¸Ļà¸ª",
        -9.988089483602666
      ],
      [
        "Ġà°İà°µà°°",
        -9.988491643989706
      ],
      [
        "well",
        -9.988538047082807
      ],
      [
        "à¤¦à¤°",
        -9.98877126279366
      ],
      [
        "ĠÑĤÐ¾Ð¼",
        -9.989616198631325
      ],
      [
        "Ī",
        -9.989701069497352
      ],
      [
        "ar",
        -9.99082377934053
      ],
      [
        "à±Īà°°",
        -9.991056993008884
      ],
      [
        "ØŃØ±ÙĥØ©",
        -9.991613333260275
      ],
      [
        "ÙħØ¹ÙĦÙĪÙħØ§Øª",
        -9.992915543250133
      ],
      [
        "à¤¿à¤·",
        -9.99357988023961
      ],
      [
        "ĠWe",
        -9.993739708802272
      ],
      [
        "Ġorta",
        -9.99444516730615
      ],
      [
        "âĢĻt",
        -9.99492638697199
      ],
      [
        "ĠNi",
        -9.99512740308966
      ],
      [
        "aire",
        -9.995854753727908
      ],
      [
        "ĠÃ©ta",
        -9.996485934047431
      ],
      [
        "à±įà°ķà°°",
        -9.996603333833498
      ],
      [
        "Ø¯Ø©",
        -9.996841105485125
      ],
      [
        "yÄ±",
        -9.997134515959834
      ],
      [
        "à¤Łà¤²",
        -9.997417524656084
      ],
      [
        "ĠÐ¶Ð¸Ð·Ð½",
        -9.999766130737626
      ],
      [
        "oni",
        -10.000305989759536
      ],
      [
        "°ÑĨÐ¸Ð¸",
        -10.000965062538569
      ],
      [
        "Ġcar",
        -10.0020924213188
      ],
      [
        "ÐµÐ±Ñı",
        -10.00216825550577
      ],
      [
        "à±įà°¶",
        -10.00285541599998
      ],
      [
        "Ġà°¸à°®à°¯",
        -10.002901137055204
      ],
      [
        "à¤ħà¤¤",
        -10.003581023335734
      ],
      [
        "ĠÐŁÐ¾",
        -10.004607855063371
      ],
      [
        "Ð³",
        -10.004821425576177
      ],
      [
        "ÙĦØ§",
        -10.00610268954571
      ],
      [
        "Ġyok",
        -10.006782991984508
      ],
      [
        "Ġà°ĩà°¤à°°",
        -10.007064310181512
      ],
      [
        "ken",
        -10.008309725493522
      ],
      [
        "ĠAli",
        -10.008809572243292
      ],
      [
        "Pour",
        -10.009116143107953
      ],
      [
        "à¥ģà¤Ŀ",
        -10.009554770021069
      ],
      [
        "Ġwalio",
        -10.00956227050542
      ],
      [
        "à¥įà¤£",
        -10.009634884797128
      ],
      [
        "ĠÐ»ÐµÑĤ",
        -10.010040134784727
      ],
      [
        "Ġà¸¥",
        -10.010745022487844
      ],
      [
        "Ġbad",
        -10.010776837822094
      ],
      [
        "mambo",
        -10.01190264277659
      ],
      [
        "Ġà¤ħà¤¬",
        -10.012176981332551
      ],
      [
        "ÑĤÐµÐ»ÑĮÐ½",
        -10.012408564108064
      ],
      [
        "ä½¿çĶ¨",
        -10.012555136298763
      ],
      [
        "à±įà°°à°§",
        -10.012710005717434
      ],
      [
        "ÙģÙĬÙħØ§",
        -10.013641798811076
      ],
      [
        "ä¹ĭ",
        -10.013774482502429
      ],
      [
        "åı¯ä»¥",
        -10.01422342895873
      ],
      [
        "Ø±ØºÙħ",
        -10.01470779780325
      ],
      [
        "à±įà°¥à°²",
        -10.014872705931433
      ],
      [
        "æĿ¥",
        -10.015312398215826
      ],
      [
        "à¹Ĵ",
        -10.016042199642548
      ],
      [
        "jibu",
        -10.016346217300027
      ],
      [
        "ĠÐ´Ð°Ð½Ð½",
        -10.01648134451642
      ],
      [
        "ix",
        -10.016497964936503
      ],
      [
        "à¸ĩà¸Ļ",
        -10.016913003924897
      ],
      [
        "Ð¸Ð¼Ð¸",
        -10.01695400398724
      ],
      [
        "Ġà¤®à¤¨",
        -10.017186850049796
      ],
      [
        "ÙĪÙī",
        -10.017376539561536
      ],
      [
        "ty",
        -10.018808849780484
      ],
      [
        "ĠÙĬØ§",
        -10.020357493463486
      ],
      [
        "ÐµÑīÐµ",
        -10.020683038496976
      ],
      [
        "ĠÃ¼zerin",
        -10.021892718028283
      ],
      [
        "taka",
        -10.02215486234481
      ],
      [
        "à¹Ģà¸«à¸¡",
        -10.022189331409024
      ],
      [
        "à°¹à°°",
        -10.022445348007617
      ],
      [
        "à¸·à¸Ńà¸ģ",
        -10.022912771194395
      ],
      [
        "example",
        -10.02304477383477
      ],
      [
        "Ø§ÙĦØ³ÙĦØ§Ùħ",
        -10.023541789704648
      ],
      [
        "avoir",
        -10.023544600899491
      ],
      [
        "ĠÙĨÙģØ³",
        -10.023885306222716
      ],
      [
        "å°ı",
        -10.024162218749922
      ],
      [
        "zote",
        -10.024808147008724
      ],
      [
        "Ġà°ķà°°",
        -10.024828530611472
      ],
      [
        "Ø§ÙĦØ¬Ø¯ÙĬØ¯",
        -10.02497554267118
      ],
      [
        "à¹Ģà¸§à¸¥à¸²",
        -10.025015722672885
      ],
      [
        "Ġplan",
        -10.025353052033182
      ],
      [
        "à¹Ģà¸ĩ",
        -10.025375147148557
      ],
      [
        "Ġà°µà°²",
        -10.025446778140685
      ],
      [
        "à±ĭà°¦",
        -10.026441224096027
      ],
      [
        ")ØĮ",
        -10.026482467508064
      ],
      [
        "ĠÙ±ÙĦ",
        -10.026551123269003
      ],
      [
        "ie",
        -10.02796436756404
      ],
      [
        "Ġà°Ĩà°ķ",
        -10.027988963375115
      ],
      [
        "Google",
        -10.028923169409731
      ],
      [
        "à¹ĩà¸Ī",
        -10.029099345611275
      ],
      [
        "ĠØ³ÙĬ",
        -10.02943681925382
      ],
      [
        "à°¾à°¯à°ķ",
        -10.029506195714184
      ],
      [
        "siz",
        -10.030531531497896
      ],
      [
        "Ġwork",
        -10.030598149847346
      ],
      [
        "èĳĹ",
        -10.030741760030445
      ],
      [
        "lu",
        -10.03094138198227
      ],
      [
        "à°¤à°ķ",
        -10.031063641529144
      ],
      [
        "ĠÃĩ",
        -10.031131642472143
      ],
      [
        "Ġquel",
        -10.03253706814196
      ],
      [
        "ł",
        -10.032583744329106
      ],
      [
        "ĠØ¥ÙĦÙĬÙĩ",
        -10.032589173106118
      ],
      [
        "ØªÙĬÙĨ",
        -10.03314798060006
      ],
      [
        "anza",
        -10.033316705074014
      ],
      [
        "âĢĺ",
        -10.03367011976783
      ],
      [
        "Ð¸Ñı",
        -10.034386286437034
      ],
      [
        "ĠNew",
        -10.034633689015571
      ],
      [
        "Ġaki",
        -10.034719871855035
      ],
      [
        "à¸±à¸ª",
        -10.034779511493966
      ],
      [
        "à±įà°Ĺà°°",
        -10.034799497039128
      ],
      [
        "ĠÐ±ÐµÐ·",
        -10.0348134943621
      ],
      [
        "à¸´à¸ģà¸²à¸£",
        -10.035193051564749
      ],
      [
        "ĠÙĬØªÙħ",
        -10.035483188200516
      ],
      [
        "Ġà¸¢",
        -10.035650632151986
      ],
      [
        "Ġ!",
        -10.036915382098694
      ],
      [
        "à¹ģà¸ªà¸Ķà¸ĩ",
        -10.037033241691685
      ],
      [
        "Ġ...",
        -10.037187561194582
      ],
      [
        "Ġndi",
        -10.038097888808114
      ],
      [
        "ĠZ",
        -10.038204889491718
      ],
      [
        "ary",
        -10.038429499691777
      ],
      [
        "Ġhapa",
        -10.038520816268292
      ],
      [
        "ongozi",
        -10.0394722004846
      ],
      [
        "à¸Ļà¸Ķ",
        -10.039677735677916
      ],
      [
        "Ġneed",
        -10.039740493424508
      ],
      [
        "Ġlong",
        -10.04013860198383
      ],
      [
        "à±įà°«",
        -10.041037016811998
      ],
      [
        "Ġmk",
        -10.041251219283254
      ],
      [
        "à¤Ĥà¤ª",
        -10.0421469140953
      ],
      [
        "Ø¹",
        -10.0424201382124
      ],
      [
        "Ð±ÑĭÐ»Ð°",
        -10.042566909162574
      ],
      [
        "à¸ªà¸¡",
        -10.0453175865726
      ],
      [
        "à¤Łà¤°",
        -10.045330218500698
      ],
      [
        "à°Ĩà°«",
        -10.045531091654516
      ],
      [
        "à¹Įà¸ķ",
        -10.04623500229601
      ],
      [
        "à°ķà°°",
        -10.04694932911458
      ],
      [
        "à±ĩà°³",
        -10.047555738588432
      ],
      [
        "Ġwali",
        -10.049008056313887
      ],
      [
        "kazi",
        -10.049693171752152
      ],
      [
        "ever",
        -10.050536607794871
      ],
      [
        "X",
        -10.050998744692018
      ],
      [
        "à¥Ī.",
        -10.051143373851083
      ],
      [
        "ĠØ±Ø¦ÙĬØ³",
        -10.051522281197062
      ],
      [
        "deki",
        -10.05264523579362
      ],
      [
        "à¤¸à¤®à¤¯",
        -10.052730340746212
      ],
      [
        "Ġà¤Ĩà¤¯",
        -10.05370933614272
      ],
      [
        "ï¼Įåľ¨",
        -10.054584037598095
      ],
      [
        "ãĢĭ",
        -10.05494108278287
      ],
      [
        "ĠÐ±Ð¾Ð»ÑĮÑĪ",
        -10.055019005778895
      ],
      [
        "how",
        -10.055282670287369
      ],
      [
        "izi",
        -10.05556881606388
      ],
      [
        "çĤº",
        -10.0556493052411
      ],
      [
        "up",
        -10.055860037962432
      ],
      [
        "ujour",
        -10.05644501493368
      ],
      [
        "Ø¦Ø©",
        -10.05644638546594
      ],
      [
        "à¸±à¸Ļà¸ķ",
        -10.057039561250193
      ],
      [
        "à¥Ģà¤²",
        -10.05728668787444
      ],
      [
        "à¸ªà¸£",
        -10.057688611115417
      ],
      [
        "à¸´à¸Ķà¸ķ",
        -10.058032029051816
      ],
      [
        "ĠÅŁekilde",
        -10.058116733253891
      ],
      [
        "ĠÐ¯",
        -10.058229461124707
      ],
      [
        "ĠÃ¼zerinde",
        -10.058721492518746
      ],
      [
        "Ġbiz",
        -10.059400794261553
      ],
      [
        "à¥įà¤°à¤µ",
        -10.059500533349912
      ],
      [
        "ÙĦØ°ÙĦÙĥ",
        -10.060175227562349
      ],
      [
        "Ġsans",
        -10.060657896689245
      ],
      [
        "ĠÐ»ÑİÐ±",
        -10.06141700556551
      ],
      [
        "ĠØ§ÙĦÙĥØªØ§Ø¨",
        -10.061510934102303
      ],
      [
        "ĠÐ£",
        -10.06223176117265
      ],
      [
        "Ġper",
        -10.06288621448471
      ],
      [
        "à¤Ĥà¤§",
        -10.064425607685534
      ],
      [
        "etu",
        -10.065422535060058
      ],
      [
        "voir",
        -10.065669838409509
      ],
      [
        "ic",
        -10.06675717821652
      ],
      [
        "à¤¬à¤¢",
        -10.06685991438416
      ],
      [
        "à±ĥà°¦",
        -10.067867247361557
      ],
      [
        "¬",
        -10.068433969392188
      ],
      [
        "paka",
        -10.070153662993512
      ],
      [
        "Ġà°ķà°³",
        -10.071056252035577
      ],
      [
        "ĠgÃ¼n",
        -10.07112827308782
      ],
      [
        "ÐµÐ¼Ñĥ",
        -10.07121035499317
      ],
      [
        "nza",
        -10.07124284442931
      ],
      [
        "Ġad",
        -10.07126200699494
      ],
      [
        "à¸¢à¸§à¸ģ",
        -10.071792311121271
      ],
      [
        "ĠÑĩÐµÐ»Ð¾Ð²ÐµÐº",
        -10.07204497287914
      ],
      [
        "ĠVi",
        -10.072692691113009
      ],
      [
        "ana",
        -10.07273689151818
      ],
      [
        "ĠMi",
        -10.073107659387098
      ],
      [
        "à°Ĥà°ľ",
        -10.07337190398192
      ],
      [
        "à±įà°®à°ķ",
        -10.073765001486528
      ],
      [
        "à¹Ģà¸ŀà¸£à¸²à¸°",
        -10.07387022580971
      ],
      [
        "ĠrÃ©",
        -10.074286084368763
      ],
      [
        "à¸¹à¸Ļ",
        -10.07457521568228
      ],
      [
        "ĠÐ¼Ð½Ð¾Ð³Ð¾",
        -10.074807318660602
      ],
      [
        "ĠØ§ÙĦÙĨØ¸Ø§Ùħ",
        -10.074823702291036
      ],
      [
        "à¸±à¸ĩà¸Ļ",
        -10.074954000902087
      ],
      [
        "Ġà°İà°¦",
        -10.075393035791617
      ],
      [
        "à¸´à¸Ĺà¸¢à¸²",
        -10.075808417404168
      ],
      [
        "daki",
        -10.075930855286977
      ],
      [
        "za",
        -10.076629178583763
      ],
      [
        "à¤Ĩà¤ľ",
        -10.076739842291945
      ],
      [
        "Ø§ÙĦÙĪÙĤØª",
        -10.07732334565796
      ],
      [
        "tu",
        -10.077355200132663
      ],
      [
        "En",
        -10.078054982139315
      ],
      [
        "ĠØ§ÙĦØŃØ¯ÙĬØ«",
        -10.078165451426075
      ],
      [
        "ÙħØ¬ÙħÙĪØ¹Ø©",
        -10.078647469577096
      ],
      [
        "miÅŁ",
        -10.078708401455964
      ],
      [
        "\",",
        -10.079128535847255
      ],
      [
        "ants",
        -10.08003788029536
      ],
      [
        "à¹ĳ",
        -10.080124895711672
      ],
      [
        "dim",
        -10.080548989388994
      ],
      [
        "Ġgerek",
        -10.080742800318028
      ],
      [
        "ÐĶ",
        -10.081229432957386
      ],
      [
        "Ġà°¸à°¹",
        -10.081390857980574
      ],
      [
        "ĺ",
        -10.08179765459112
      ],
      [
        "à¹ĩà¸ķ",
        -10.081954919388204
      ],
      [
        "Ðº",
        -10.081996864922123
      ],
      [
        "ĠÑĩÐµÐ¼",
        -10.082567851033224
      ],
      [
        "Ġà°¤à°²",
        -10.083546382587834
      ],
      [
        "ĠÐľ",
        -10.084243446551849
      ],
      [
        "''",
        -10.08473352134978
      ],
      [
        "Ġkuna",
        -10.084866310673997
      ],
      [
        "Ġhaya",
        -10.084942871308783
      ],
      [
        "ĠÙģÙĦØ§",
        -10.085053590125137
      ],
      [
        "Ð½Ð°",
        -10.08594299554922
      ],
      [
        "à¤ªà¤¨",
        -10.08728004500558
      ],
      [
        "\\",
        -10.087998051397593
      ],
      [
        "à¸ī",
        -10.089176687284937
      ],
      [
        "ĠÐºÐ¾",
        -10.08960537418919
      ],
      [
        "pedia",
        -10.08961681091555
      ],
      [
        "tumia",
        -10.090303212793485
      ],
      [
        "à¸£à¸°à¸«à¸§",
        -10.090454838164018
      ],
      [
        "à¹Ģà¸«",
        -10.091306247079892
      ],
      [
        "at",
        -10.092363751468678
      ],
      [
        "man",
        -10.092926329008048
      ],
      [
        "à¸Īà¸°à¹Ģà¸Ľ",
        -10.093019223123475
      ],
      [
        "ĠHe",
        -10.093420820868602
      ],
      [
        "à¸µà¸¢à¸ļ",
        -10.093961665538371
      ],
      [
        "ĠÐ½Ð°ÑĪ",
        -10.094162896311868
      ],
      [
        "Les",
        -10.094370190362454
      ],
      [
        "ÙĲÙĦ",
        -10.094494795920896
      ],
      [
        "ions",
        -10.094701947993023
      ],
      [
        "ĠØ§ÙĦØ£ÙħØ±",
        -10.095731221264622
      ],
      [
        "Ð½",
        -10.096119280850136
      ],
      [
        "à¸ĩà¹Ģà¸Ľ",
        -10.096547116083435
      ],
      [
        "Ġsay",
        -10.097754060734792
      ],
      [
        "ï¼Įä½Ĩ",
        -10.09826194746534
      ],
      [
        "larÄ±n",
        -10.09977300097824
      ],
      [
        "ÙİØ¹",
        -10.100559327233992
      ],
      [
        "st",
        -10.100862275510266
      ],
      [
        "à¹īà¹Ģà¸ģ",
        -10.101052730518887
      ],
      [
        "ĠÐ½Ð¸",
        -10.102325711317643
      ],
      [
        "Ġbar",
        -10.103759291111997
      ],
      [
        "ĠgÃ¼zel",
        -10.104695698003544
      ],
      [
        "ette",
        -10.105013060211084
      ],
      [
        "Katika",
        -10.105086526366213
      ],
      [
        "son",
        -10.10541779049075
      ],
      [
        "Ø§ÙĦÙĤÙĬØ§Ùħ",
        -10.106215489626148
      ],
      [
        "à¤¾à¤¶",
        -10.106387427206371
      ],
      [
        "Ġwame",
        -10.10664050626454
      ],
      [
        "zima",
        -10.107105713991878
      ],
      [
        "larÄ±nÄ±",
        -10.107142539119412
      ],
      [
        "ĠÑıÐ²Ð»Ñı",
        -10.107384770345025
      ],
      [
        "ĠØ£ÙĪÙĦ",
        -10.107459821618246
      ],
      [
        "âĢ¦âĢ¦",
        -10.107591964824582
      ],
      [
        "Ġmap",
        -10.107995673375513
      ],
      [
        "à¤ªà¤¡",
        -10.108741295868118
      ],
      [
        "du",
        -10.109042228268104
      ],
      [
        "ĠØ¬Ø¯ÙĬØ¯",
        -10.109940136421525
      ],
      [
        "ÙĬØ§Ø¡",
        -10.110255569174129
      ],
      [
        "à¸³à¹Ģà¸Ļ",
        -10.110490089860695
      ],
      [
        "à¤ªà¤°",
        -10.112593354052771
      ],
      [
        "ive",
        -10.112778101469123
      ],
      [
        "hidi",
        -10.112947400328297
      ],
      [
        "ĠØ´ÙĬØ",
        -10.115333657120512
      ],
      [
        "zao",
        -10.115816117189766
      ],
      [
        "à¸¸à¸ļ",
        -10.116358586390716
      ],
      [
        "Ġhaku",
        -10.116675941108737
      ],
      [
        "à¸µà¸¢à¸ģ",
        -10.117275431948112
      ],
      [
        "km",
        -10.117652896021047
      ],
      [
        "ĠØ°Ø§Øª",
        -10.118633973929407
      ],
      [
        "Ġà°ķà°µ",
        -10.11908728866964
      ],
      [
        "Ø¹Ø©",
        -10.119869476512118
      ],
      [
        "team",
        -10.12010307343134
      ],
      [
        "Ġevery",
        -10.120404382158878
      ],
      [
        "Ð½Ð¸Ñı",
        -10.120527820689524
      ],
      [
        "Ġà¹ĥà¸Ļ",
        -10.122351857543114
      ],
      [
        "eneo",
        -10.12263564695531
      ],
      [
        "ĠNo",
        -10.122996691747352
      ],
      [
        "ÙĨØŃÙĨ",
        -10.123065796346689
      ],
      [
        "maktadÄ±r",
        -10.123330220188937
      ],
      [
        "å¥½",
        -10.123719599185426
      ],
      [
        "Ġdedi",
        -10.125151489055456
      ],
      [
        "Ð½Ð¾",
        -10.126092409150488
      ],
      [
        "à°¾à°Ń",
        -10.126381780275551
      ],
      [
        "ÙģÙĩÙĪ",
        -10.12651895748516
      ],
      [
        "å¾Ĺ",
        -10.126562852521342
      ],
      [
        "himu",
        -10.12673710673366
      ],
      [
        "Ġkuji",
        -10.127319630686028
      ],
      [
        "Ġplay",
        -10.12776649046894
      ],
      [
        "toa",
        -10.12789706957227
      ],
      [
        "Ġhadi",
        -10.128898246615512
      ],
      [
        "nun",
        -10.129767107567426
      ],
      [
        "ĠsÃ¼re",
        -10.130043638692
      ],
      [
        "Ġback",
        -10.130292119191552
      ],
      [
        "ils",
        -10.13043476257834
      ],
      [
        "æĻĤ",
        -10.132444497555094
      ],
      [
        "à±įà°¶à°ķ",
        -10.133151202041905
      ],
      [
        "¶",
        -10.13455719407193
      ],
      [
        "ĠØ£Ùħ",
        -10.134626371744409
      ],
      [
        "Ø¨Ø©",
        -10.135079498618383
      ],
      [
        "In",
        -10.137340286129016
      ],
      [
        "serikali",
        -10.13741640982023
      ],
      [
        "à¹ĩà¸Ļà¸Ĺ",
        -10.138087220153164
      ],
      [
        "know",
        -10.138668157392967
      ],
      [
        "ØªÙĬ",
        -10.139071693608663
      ],
      [
        "Ġà°ªà°²",
        -10.1396185271916
      ],
      [
        "j",
        -10.139638975479963
      ],
      [
        "Ġà°Ĳ",
        -10.13998686705489
      ],
      [
        "ĠtÃ¼m",
        -10.140800414159164
      ],
      [
        "sini",
        -10.1408163267274
      ],
      [
        "à°¿à°ľà°¯",
        -10.14212571139972
      ],
      [
        "ule",
        -10.14249008201618
      ],
      [
        "å°Ĩ",
        -10.142937516308356
      ],
      [
        "à¤Ĥà¤¬",
        -10.14301143323085
      ],
      [
        "ÐµÑģÑĮ",
        -10.14343031006338
      ],
      [
        "à¤¬à¤¡",
        -10.143885226549848
      ],
      [
        "Ġà¸ļ",
        -10.143947464884914
      ],
      [
        "à¥ĥà¤¤",
        -10.144451733305026
      ],
      [
        "ĠØ§ÙĦØ³Ø§Ø¨ÙĤ",
        -10.144468147300898
      ],
      [
        "à¤ļà¤¨",
        -10.145224496341434
      ],
      [
        "ĠÙĩÙĦ",
        -10.146593397092794
      ],
      [
        "Ø¤ÙĦØ§Ø",
        -10.14741968135638
      ],
      [
        "Ġdis",
        -10.148042058633887
      ],
      [
        "fois",
        -10.151509843352386
      ],
      [
        "à¸µà¸Ķ",
        -10.15243658128853
      ],
      [
        "à¸ĩà¹ģà¸ķ",
        -10.153778641250929
      ],
      [
        "à¤¾à¤ĩ",
        -10.15400949480939
      ],
      [
        "ĠØ£Ø¨ÙĬ",
        -10.154667559881169
      ],
      [
        "à¹Įà¸Ķ",
        -10.155209407226346
      ],
      [
        "æīĢ",
        -10.155763314114552
      ],
      [
        "Ġfazla",
        -10.15580320087758
      ],
      [
        "à¤Ĥà¤ķ",
        -10.155838086745543
      ],
      [
        "je",
        -10.15643043095332
      ],
      [
        "Â»Ċ",
        -10.156790046399625
      ],
      [
        "Ġà¤ī",
        -10.157231668202217
      ],
      [
        "à¹ĵ",
        -10.157529803907613
      ],
      [
        "Ġoldu",
        -10.15789184152351
      ],
      [
        "ĠÐ³",
        -10.157897542557269
      ],
      [
        "ĠØ§ÙĦØªØ¹ÙĦÙĬÙħ",
        -10.158876137504537
      ],
      [
        "à¸¹à¸¡",
        -10.160125421041476
      ],
      [
        "à¤ĩà¤¸",
        -10.16134947410288
      ],
      [
        "à¸ģà¸²à¸£à¹ĥà¸",
        -10.161429401481218
      ],
      [
        "v",
        -10.16182792390426
      ],
      [
        "ĠØ§ÙĦØŃÙĥÙĪÙħ",
        -10.16231129975066
      ],
      [
        "à¸ģà¸£à¸ĵ",
        -10.162550693981334
      ],
      [
        "Ġà¤¹à¤°",
        -10.16404297911614
      ],
      [
        "lioni",
        -10.164221734354763
      ],
      [
        "ĠØ§ÙĦØ¯ÙĪÙĦÙĬ",
        -10.16454464159401
      ],
      [
        "ĠØ§ÙĦØ¥",
        -10.164669152167786
      ],
      [
        "ĠkarÅŁÄ±",
        -10.165720501810789
      ],
      [
        "ĠÐ¿",
        -10.166208638098311
      ],
      [
        "ĠÐ²Ð¾Ð·Ð¼Ð¾Ð¶Ð½",
        -10.166440628148626
      ],
      [
        "à¸ľà¸¥",
        -10.167113480474493
      ],
      [
        "Ń",
        -10.167773267959564
      ],
      [
        "Ġentre",
        -10.168043971743565
      ],
      [
        "leurs",
        -10.168278998833747
      ],
      [
        "lerin",
        -10.16833396985426
      ],
      [
        "Ġafter",
        -10.168493170877234
      ],
      [
        "ĠØ¯ÙĪÙĦ",
        -10.169306026335729
      ],
      [
        "à¹Ģà¸īà¸ŀà¸²à¸°",
        -10.169365609311235
      ],
      [
        "à±įà°ŀ",
        -10.170614240337532
      ],
      [
        "ĠØ§ÙĦØŃÙĤ",
        -10.171157614373252
      ],
      [
        "ĠØ§ÙĦÙĤØ§ÙĨÙĪÙĨ",
        -10.171263462991067
      ],
      [
        "à¸µà¸ķ",
        -10.17170323002368
      ],
      [
        "à¥Īà¤¨",
        -10.171967086131197
      ],
      [
        "ÙıÙĪ",
        -10.172326521019247
      ],
      [
        "Ð²Ð°Ð¼",
        -10.172786514467616
      ],
      [
        "ĠYe",
        -10.17290286921671
      ],
      [
        "Ġà¤¸à¤ķ",
        -10.17442576786082
      ],
      [
        "à¹īà¹Ģà¸Ľ",
        -10.17494128569644
      ],
      [
        "muda",
        -10.175080825112346
      ],
      [
        "Ġplu",
        -10.17519391528293
      ],
      [
        "ĠAnd",
        -10.175809843157666
      ],
      [
        "Ġsera",
        -10.175847860550292
      ],
      [
        "Ġshow",
        -10.175989091775952
      ],
      [
        "à°µà°¨",
        -10.176740639479394
      ],
      [
        "à°¾à°¯à°¨",
        -10.178317027567497
      ],
      [
        "Ġà°ħà°µà°ķ",
        -10.178473163741248
      ],
      [
        "ÙħØ©",
        -10.178667881049437
      ],
      [
        "à±įà°ªà°¡",
        -10.179019304597288
      ],
      [
        "à°¶à°ķ",
        -10.179220662000292
      ],
      [
        "ĠÐ¿ÑĢÐ¾ÑģÑĤÐ¾",
        -10.179269488983689
      ],
      [
        "ĠÐºÐ°Ð¶Ð´",
        -10.179313404187289
      ],
      [
        "à¤¸à¤²",
        -10.179381407427016
      ],
      [
        "Ðĺ",
        -10.179452579866158
      ],
      [
        "Ð³Ð´Ðµ",
        -10.18038646450629
      ],
      [
        "Ð¿ÑĢÐ¾Ð³ÑĢÐ°Ð¼Ð¼",
        -10.181641401913728
      ],
      [
        "ĠØ¬Ø¯Ø§",
        -10.18164842462296
      ],
      [
        "à¹īà¸Ńà¸Ļ",
        -10.182274159111826
      ],
      [
        "dece",
        -10.182345539460975
      ],
      [
        "à±ģà°¦à°²",
        -10.182385706104128
      ],
      [
        "su",
        -10.183141937147788
      ],
      [
        "ĠX",
        -10.185016742240984
      ],
      [
        "à¸Ńà¹ĥà¸«",
        -10.185027482641663
      ],
      [
        "à°¾à°®à°¨",
        -10.185652844898131
      ],
      [
        "cause",
        -10.185913022178005
      ],
      [
        "vent",
        -10.186402289734437
      ],
      [
        "Ã¼",
        -10.18701401842968
      ],
      [
        "nje",
        -10.187128410154823
      ],
      [
        "Ġkendi",
        -10.18751946907981
      ],
      [
        "alisema",
        -10.188419173435854
      ],
      [
        "ilgili",
        -10.18900363136331
      ],
      [
        "åŃĲ",
        -10.189645088500182
      ],
      [
        "Ġkabi",
        -10.189996139557865
      ],
      [
        "ĠØ£ÙĩÙħ",
        -10.19053474314651
      ],
      [
        "à±ĩà°µà°²",
        -10.190967346107389
      ],
      [
        "Ø¨Ø§ÙĦÙĨØ³Ø¨",
        -10.192746334187966
      ],
      [
        "Ġaliye",
        -10.192806184550452
      ],
      [
        "Ð½Ð¾Ðµ",
        -10.19300789315637
      ],
      [
        "ĠÙĩÙĨØ§",
        -10.19332110312646
      ],
      [
        "à¥įà¤¤à¤°",
        -10.19419170711311
      ],
      [
        "à¸µà¸ģà¸²à¸£",
        -10.194273987860704
      ],
      [
        "à°¤à°®",
        -10.1943839244091
      ],
      [
        "system",
        -10.1945766195964
      ],
      [
        "à¥ĥà¤",
        -10.195528969920169
      ],
      [
        "Ġà°Ĩà°¨",
        -10.195559299116386
      ],
      [
        "Q",
        -10.197072868947291
      ],
      [
        "ĠÐĿÐµ",
        -10.197073696510447
      ],
      [
        "à¥ĭà¤ķ",
        -10.197352509382451
      ],
      [
        "ĠCe",
        -10.197770808020866
      ],
      [
        "à¤¬à¤¤",
        -10.198110080980843
      ],
      [
        "Ġgood",
        -10.198145457856024
      ],
      [
        "Ġelle",
        -10.198193647653962
      ],
      [
        "Ġnon",
        -10.198513879435584
      ],
      [
        "ĠØ§ÙĦÙħØªØŃØ¯",
        -10.198927783773655
      ],
      [
        "à±įà°¯à°µà°¸",
        -10.19986010288935
      ],
      [
        "Ġlook",
        -10.199941544431518
      ],
      [
        "mo",
        -10.200288163454484
      ],
      [
        "very",
        -10.200494534011243
      ],
      [
        "ÑıÐ¼Ð¸",
        -10.200810274204231
      ],
      [
        "à¹Īà¸ķ",
        -10.20128619847788
      ],
      [
        "æĢ§",
        -10.20171329351342
      ],
      [
        "à¹īà¸²à¸¡",
        -10.201725555681008
      ],
      [
        "à¹īà¸ª",
        -10.20181136963787
      ],
      [
        "tous",
        -10.202471213298812
      ],
      [
        "Ø§ÙĦØ¢ÙĨ",
        -10.203210661420634
      ],
      [
        "Ø§Ø°Ø§",
        -10.203281432856484
      ],
      [
        "Ð³Ð¾Ð´Ñĥ",
        -10.204296808362368
      ],
      [
        "'ai",
        -10.205714174789598
      ],
      [
        "ÙİØ¨",
        -10.205968889570691
      ],
      [
        "Ø¨Ø³Ø¨Ø¨",
        -10.206240105990643
      ],
      [
        "ĠØ£Ø¨ÙĪ",
        -10.206812537693764
      ],
      [
        "ÙĤØ¶Ø§Ø¡",
        -10.207616727672187
      ],
      [
        "à¸ıà¸Ĳ",
        -10.207913497823178
      ],
      [
        "ambo",
        -10.207987573236142
      ],
      [
        "Ġà¸«",
        -10.208276639463982
      ],
      [
        "à±Ĩà°¤",
        -10.208415144173529
      ],
      [
        "ĠØ§ÙĦØ³ÙĬØ¯",
        -10.208455558087806
      ],
      [
        "ĠBen",
        -10.208918314091246
      ],
      [
        "ĠÙĪØ£ÙĨ",
        -10.209524074182522
      ],
      [
        "ĠÐ¾Ð±ÑĢÐ°Ð·",
        -10.209722231299398
      ],
      [
        "Ð½Ð¾ÑģÑĤÑĮ",
        -10.20993972765373
      ],
      [
        "à°İ",
        -10.210868811256695
      ],
      [
        "ØªÙī",
        -10.21110977327366
      ],
      [
        "Ð´Ð°Ð¶Ðµ",
        -10.21203048874575
      ],
      [
        "Ġbas",
        -10.212049237658109
      ],
      [
        "ÑģÐºÐ¾Ð»ÑĮÐºÐ¾",
        -10.212854445827166
      ],
      [
        "ĠÑĢÐ",
        -10.213017378916414
      ],
      [
        "ĠÐ½Ð°Ñģ",
        -10.21342154895078
      ],
      [
        "à°¾?",
        -10.214094170187453
      ],
      [
        "Ġjour",
        -10.2149732769365
      ],
      [
        "à¹Ħà¸Ĺà¸¢",
        -10.215753007675392
      ],
      [
        "à¹Ģà¸¢",
        -10.215845540632705
      ],
      [
        "à±įà°²à°ķ",
        -10.216056062060884
      ],
      [
        "ĠØ§ÙĦÙħØ¬ØªÙħØ¹",
        -10.21645429156371
      ],
      [
        "ÐºÑĤÐ¾",
        -10.216510131106022
      ],
      [
        "ĳ",
        -10.217085260952391
      ],
      [
        "à¹īà¸Ńà¸ĩà¸ģ",
        -10.217343654604187
      ],
      [
        "Ġquestion",
        -10.217651556930416
      ],
      [
        "à±įà°¤à°ķ",
        -10.217775254087172
      ],
      [
        "Ġva",
        -10.217784306565694
      ],
      [
        "Ġstart",
        -10.218289882424871
      ],
      [
        "à¤¤à¤¨",
        -10.218362186129998
      ],
      [
        "à±įà°°à°¶",
        -10.218811004466898
      ],
      [
        "Ñĳ",
        -10.21890219277655
      ],
      [
        "!!!",
        -10.219417710944114
      ],
      [
        "à¤ĺà¤°",
        -10.221008939726604
      ],
      [
        "ĠKa",
        -10.221311603196568
      ],
      [
        "ĠTo",
        -10.22147329616697
      ],
      [
        "Ġap",
        -10.221552795418445
      ],
      [
        "aina",
        -10.222900105235098
      ],
      [
        "à°Ĺà°¤",
        -10.222937845924816
      ],
      [
        "Ġmade",
        -10.22390399631021
      ],
      [
        "à¤¯à¤¦",
        -10.224092614030276
      ],
      [
        "à¸ģà¸²à¸£à¸ŀ",
        -10.224130759418166
      ],
      [
        "ĠOn",
        -10.224838345448145
      ],
      [
        "à¤®à¤°",
        -10.224870166686962
      ],
      [
        "Ð¾Ðº",
        -10.224979456384704
      ],
      [
        "Ġtemp",
        -10.22532359018067
      ],
      [
        "à°Ĩ",
        -10.22542151427344
      ],
      [
        "à°ĸà°°",
        -10.225636260320057
      ],
      [
        "ä¾Ĩ",
        -10.225971939291831
      ],
      [
        "Ġpetit",
        -10.225996557993115
      ],
      [
        "à¹Ģà¸£à¸²",
        -10.226786979194978
      ],
      [
        "åīį",
        -10.227215417116918
      ],
      [
        "be",
        -10.227254497743017
      ],
      [
        "~",
        -10.227634312514034
      ],
      [
        "ique",
        -10.228153196327863
      ],
      [
        "à¸±à¸įà¸«à¸²",
        -10.228523353346873
      ],
      [
        "à¹Īà¸§",
        -10.228613167011662
      ],
      [
        "Ġà°Ĩà°¦",
        -10.22896895001109
      ],
      [
        "org",
        -10.229262808117838
      ],
      [
        "mbo",
        -10.229590660996807
      ],
      [
        "à¸Ńà¸Ńà¸ģ",
        -10.230104917474732
      ],
      [
        "pata",
        -10.231752591483083
      ],
      [
        "åı¯",
        -10.232397975711702
      ],
      [
        "oÃ",
        -10.23250869347498
      ],
      [
        "à¹īà¸ĩ",
        -10.233313126379468
      ],
      [
        "ĠvardÄ±",
        -10.233652433701996
      ],
      [
        "ĠFrance",
        -10.233736094779944
      ],
      [
        "à°Łà°¨",
        -10.235003931576308
      ],
      [
        "ĠÙĪØ§ÙĦØªÙĬ",
        -10.235264512947268
      ],
      [
        "Ø§ÙĦÙĤØ±Ø¢ÙĨ",
        -10.236460327600408
      ],
      [
        "à±Ģà°ľ",
        -10.23665885374754
      ],
      [
        "à¸Ńà¸Ķ",
        -10.236815757930623
      ],
      [
        "`",
        -10.23708978184596
      ],
      [
        "à¤ľà¤¹",
        -10.237811619714996
      ],
      [
        "insi",
        -10.2381332143946
      ],
      [
        "à±įà°¤à°°",
        -10.239422496085796
      ],
      [
        "ware",
        -10.23948327432838
      ],
      [
        "ĠSa",
        -10.240338111375973
      ],
      [
        "Ġhigh",
        -10.2404674169086
      ],
      [
        "yeye",
        -10.241044199116208
      ],
      [
        "Ġà°¨à°¡",
        -10.241122239186677
      ],
      [
        "ĠØ£ÙħØ§",
        -10.241624150443158
      ],
      [
        "Ġcertain",
        -10.24209854284752
      ],
      [
        "ugha",
        -10.2438457815207
      ],
      [
        "Ġmwenye",
        -10.243906498921284
      ],
      [
        "à¹Īà¸§à¸ĩ",
        -10.244375986730327
      ],
      [
        "Ã¨me",
        -10.244584702387328
      ],
      [
        "Ñģ",
        -10.244809122089642
      ],
      [
        "guvu",
        -10.24497308749578
      ],
      [
        "à¥įà¤¬",
        -10.244994090242226
      ],
      [
        "ĠØ§ÙĦÙĨØ¨ÙĬ",
        -10.24575324926938
      ],
      [
        "puis",
        -10.245843939691772
      ],
      [
        "ĠFor",
        -10.246083661192085
      ],
      [
        "Ġdiye",
        -10.24613527096167
      ],
      [
        "out",
        -10.247652472336938
      ],
      [
        "åĲĳ",
        -10.24783264859505
      ],
      [
        "à¸´à¸Ķà¸Ĥ",
        -10.247845455128328
      ],
      [
        "à°ªà°ķ",
        -10.248708378994854
      ],
      [
        "«",
        -10.249065171568123
      ],
      [
        "itÃ©",
        -10.249235209356373
      ],
      [
        "ĠÙĬÙĥÙĨ",
        -10.249524715425297
      ],
      [
        "Ġalan",
        -10.251341651104102
      ],
      [
        "tendo",
        -10.25137940342125
      ],
      [
        "à¸ģà¸²à¸£à¸ĵ",
        -10.25205322244151
      ],
      [
        "à°¾à°ĸ",
        -10.252501543220951
      ],
      [
        "Ø§Ø¯Ø©",
        -10.252551476573746
      ],
      [
        "à°ıà°¦",
        -10.252728114025189
      ],
      [
        "ĠØŃÙĬÙĨ",
        -10.253046385567188
      ],
      [
        "Ð½Ð¾ÑģÑĤÐ¸",
        -10.25455201788324
      ],
      [
        "æĸ°",
        -10.254569972484504
      ],
      [
        "à¥įà¤°à¤¸",
        -10.254598334578588
      ],
      [
        "Ġà¤¸à¤¬",
        -10.25490100196656
      ],
      [
        "ÙĨØ³Ø§Ø¡",
        -10.255443398242855
      ],
      [
        "à¸£à¸²à¸¢",
        -10.255575083984926
      ],
      [
        "à¸´à¸Ľ",
        -10.255820610116848
      ],
      [
        "Ð½Ð¸Ñħ",
        -10.2560248476814
      ],
      [
        "ĠÙĦÙĪ",
        -10.256236445221164
      ],
      [
        "à±ĭà°®",
        -10.256397240550276
      ],
      [
        "ĠÙĪØ¶Ø¹",
        -10.256528290294398
      ],
      [
        "çĶ±",
        -10.256710122027371
      ],
      [
        "Ð²Ð°Ñģ",
        -10.256752144899435
      ],
      [
        "à°ªà°°",
        -10.257337761434124
      ],
      [
        "ĠØ¶Ø¯",
        -10.257622612585536
      ],
      [
        "à±ĩà°Ĺ",
        -10.258802091486965
      ],
      [
        "wenyewe",
        -10.258880995275224
      ],
      [
        "ĠÙĦÙħØ§",
        -10.258920240086743
      ],
      [
        "Ġcho",
        -10.259101430013349
      ],
      [
        "ÙĪÙģÙĬ",
        -10.259657251492843
      ],
      [
        "ÙĬÙĩ",
        -10.260350979814284
      ],
      [
        "Ġà¤ħà¤°",
        -10.261191289990954
      ],
      [
        "ngo",
        -10.26165065282289
      ],
      [
        "fa",
        -10.262020804290657
      ],
      [
        "Ġhatu",
        -10.262654702882273
      ],
      [
        "ĠØ§ÙĦØŃÙĥÙħ",
        -10.26329883083014
      ],
      [
        "Ġinayo",
        -10.263557982147416
      ],
      [
        "à¥ĩà¤·",
        -10.263654397433587
      ],
      [
        "Ġnyu",
        -10.264391195584656
      ],
      [
        "Ð½ÑĭÐ¼",
        -10.264437814733466
      ],
      [
        "à¸ĵà¸ĳ",
        -10.265153827781322
      ],
      [
        "ĠdoÄŁru",
        -10.265265158224585
      ],
      [
        "à±ĩ.",
        -10.265959025397308
      ],
      [
        "ĠÙĦÙĨØ§",
        -10.26597403418464
      ],
      [
        "åĲį",
        -10.266136100559375
      ],
      [
        "à°¤à°¯",
        -10.266164560399972
      ],
      [
        "å¤ļ",
        -10.266268899012942
      ],
      [
        "à¥Ĥà¤Ĥ",
        -10.266635336161103
      ],
      [
        "å¾Į",
        -10.266907820549443
      ],
      [
        "ĠØ§ÙĦØ¢Ø®Ø±",
        -10.267459611673008
      ],
      [
        "larda",
        -10.267811060800254
      ],
      [
        "ĠÙĬÙĤÙĪÙĦ",
        -10.268250980261488
      ],
      [
        "Ġà¸Ĥ",
        -10.268282734129624
      ],
      [
        "à¥įà¤Ĺ",
        -10.268784875026178
      ],
      [
        "annÃ©e",
        -10.2693257197035
      ],
      [
        "ll",
        -10.269759488913518
      ],
      [
        "Ġcas",
        -10.270033125535306
      ],
      [
        "å°į",
        -10.27025876240618
      ],
      [
        "now",
        -10.270610434366173
      ],
      [
        "ĠØ¯Ø§Ø®ÙĦ",
        -10.271188953386249
      ],
      [
        "aynÄ±",
        -10.271297367995585
      ],
      [
        "encore",
        -10.271325923453665
      ],
      [
        "ĠÑĤÐµÐ¼",
        -10.271948349680226
      ],
      [
        "line",
        -10.27289465882999
      ],
      [
        "à¤Ĩà¤¨",
        -10.272948110520934
      ],
      [
        "Ġhaki",
        -10.272954224543597
      ],
      [
        "ĠØµÙĦ",
        -10.274499660694158
      ],
      [
        "Un",
        -10.277882292446533
      ],
      [
        "through",
        -10.277892967000598
      ],
      [
        "tokea",
        -10.27821996729877
      ],
      [
        "à¸´à¸Ĺ",
        -10.27947617139812
      ],
      [
        "æľĥ",
        -10.279978045676703
      ],
      [
        "gani",
        -10.280041161816344
      ],
      [
        "ona",
        -10.280044276319156
      ],
      [
        "Ġwhere",
        -10.280446731901014
      ],
      [
        "ĠÐ»ÑİÐ´",
        -10.281343438128188
      ],
      [
        "à¤ħà¤ļ",
        -10.28173670162596
      ],
      [
        "Ø®",
        -10.28212500207691
      ],
      [
        "à¤§à¤°",
        -10.284067279451412
      ],
      [
        "ÙĩÙĢ",
        -10.284110004802312
      ],
      [
        "à¥Ģà¤¡",
        -10.284865190616175
      ],
      [
        "ĠØ§ÙĦØ¬Ø§ÙħØ¹",
        -10.284897412990896
      ],
      [
        "ding",
        -10.285434185600208
      ],
      [
        "åıĪ",
        -10.285914067859435
      ],
      [
        "à¥ĩà¤¦",
        -10.286001763356683
      ],
      [
        "if",
        -10.286206140208964
      ],
      [
        "à±įà°Łà°®",
        -10.28723256518344
      ],
      [
        "à°ħ",
        -10.287606228193653
      ],
      [
        "à±Ĩà°®",
        -10.288201816323792
      ],
      [
        "à¸ģà¸²à¸£à¸¨",
        -10.288381987410514
      ],
      [
        "à¥ĩà¤®",
        -10.288506125952038
      ],
      [
        "Ø³ÙĨÙĪØ§Øª",
        -10.288977987847897
      ],
      [
        "Ð±Ð¾",
        -10.28934763469954
      ],
      [
        "à¥ĩà¤¹",
        -10.28944908773239
      ],
      [
        "Ľà¸£à¸°à¸¡à¸²à¸ĵ",
        -10.289720363703596
      ],
      [
        "æĬĬ",
        -10.289730118520731
      ],
      [
        "az",
        -10.290214569314266
      ],
      [
        "think",
        -10.290994973824075
      ],
      [
        "à¸¸à¸Ĥ",
        -10.291628861830032
      ],
      [
        "Tanzania",
        -10.292205941149348
      ],
      [
        "ÙĥÙĨØª",
        -10.292589904648697
      ],
      [
        "ĠØµ",
        -10.292709192533056
      ],
      [
        "à¸±à¸ĩà¸ª",
        -10.293127129129198
      ],
      [
        "à°¸à°®à°¸",
        -10.29321271520545
      ],
      [
        "wenda",
        -10.294106883733196
      ],
      [
        "à¸µà¸¢à¸§à¸ģ",
        -10.294248942331338
      ],
      [
        "à¸Ļà¹Ĩ",
        -10.294509668013028
      ],
      [
        "umbe",
        -10.295357174415807
      ],
      [
        "Ġà°¨à°Ĺà°°",
        -10.295552029396283
      ],
      [
        "å®¶",
        -10.296553791792508
      ],
      [
        "ĠÙħØ®ØªÙĦÙģ",
        -10.29667030613884
      ],
      [
        "à¸µà¸£",
        -10.296969984744385
      ],
      [
        "erikali",
        -10.29697601324293
      ],
      [
        "Ġbirlikte",
        -10.297736064909309
      ],
      [
        "Ġful",
        -10.29810685030687
      ],
      [
        "à°Ĥà°¶",
        -10.299743972399142
      ],
      [
        "ĠØ§Ø³ØªØ®Ø¯Ø§Ùħ",
        -10.299774549813606
      ],
      [
        "ndio",
        -10.299802153624263
      ],
      [
        "#",
        -10.299924484624558
      ],
      [
        "ÐµÐ½Ð½",
        -10.300126637078431
      ],
      [
        "à¸¨à¸²à¸ªà¸ķà¸£",
        -10.30027484378223
      ],
      [
        "Â».Ċ",
        -10.30067238897681
      ],
      [
        "ĠÐŁ",
        -10.301065913701834
      ],
      [
        "Ġprocess",
        -10.301188506485715
      ],
      [
        "ĠNe",
        -10.301307849795208
      ],
      [
        "Ġà°§à°°",
        -10.301341776090863
      ],
      [
        "ton",
        -10.301631544634509
      ],
      [
        "tur",
        -10.30202289454554
      ],
      [
        "à¥ĭà¤ľ",
        -10.303719088556592
      ],
      [
        "à¹Įà¸¡",
        -10.304966722675193
      ],
      [
        "à¤Ĥà¤Ł",
        -10.305568429587098
      ],
      [
        "à¥ĭà¤ª",
        -10.306656466211583
      ],
      [
        "à¹Ģà¸§",
        -10.307489591654598
      ],
      [
        "à±Ĥà°ļ",
        -10.308152060251558
      ],
      [
        "aendele",
        -10.308481111065433
      ],
      [
        "æĪĳä»¬",
        -10.308581101922574
      ],
      [
        "vu",
        -10.309096008100427
      ],
      [
        "ĠÙĪÙĤØª",
        -10.309305701427366
      ],
      [
        "ÙħØ§Ø¡",
        -10.311242608398196
      ],
      [
        "Ġà°¨à°Ł",
        -10.311436649937828
      ],
      [
        "ĠÙĦÙĥÙĦ",
        -10.311579271436202
      ],
      [
        "ĠØ¥Ø°",
        -10.311730333765215
      ],
      [
        "ĠÙĪÙħ",
        -10.31202367443693
      ],
      [
        "à¹ĩà¸Ħ",
        -10.313146801366132
      ],
      [
        "sÄ±l",
        -10.313255612966955
      ],
      [
        "great",
        -10.313710503254583
      ],
      [
        "ĸ",
        -10.314341539589638
      ],
      [
        "à¸ŀà¸£à¸°",
        -10.314666647579074
      ],
      [
        "tter",
        -10.315246727264142
      ],
      [
        "lo",
        -10.315605490683977
      ],
      [
        "ĠÙħØ¬ÙĦØ³",
        -10.316014735107457
      ],
      [
        "à¥Ĥà¤¨",
        -10.316768502628651
      ],
      [
        "à¤®à¤²",
        -10.317490622828917
      ],
      [
        "ĠÐ¢Ð°Ðº",
        -10.319459566990524
      ],
      [
        "Ġuj",
        -10.319517595440445
      ],
      [
        "Ġprogram",
        -10.319533451065148
      ],
      [
        "ÙİÙĪ",
        -10.320176620247707
      ],
      [
        "Ġà°Ĩà°¡",
        -10.320916290418268
      ],
      [
        "ĠØŃØ³Ø¨",
        -10.32155026539661
      ],
      [
        "id",
        -10.321762601347531
      ],
      [
        "source",
        -10.321828288691616
      ],
      [
        "à¹Īà¸Ńà¹Ħà¸Ľ",
        -10.322175814431688
      ],
      [
        "Ġhelp",
        -10.322573961495904
      ],
      [
        "à°ľà°°",
        -10.322837083887867
      ],
      [
        "äºİ",
        -10.32360746878591
      ],
      [
        "à°ľà°¨",
        -10.323976372046012
      ],
      [
        "Ġhuy",
        -10.32407953740296
      ],
      [
        "yingi",
        -10.324467437020711
      ],
      [
        "lerde",
        -10.324723664995886
      ],
      [
        "Ð´ÐµÐ»Ð°ÑĤÑĮ",
        -10.324924396970244
      ],
      [
        "che",
        -10.325016191509189
      ],
      [
        "nÄ±",
        -10.326359403754171
      ],
      [
        "à±įà°¨à°ª",
        -10.326559250107184
      ],
      [
        "ÐµÐ²",
        -10.326583012378254
      ],
      [
        "dvisor",
        -10.32687939796793
      ],
      [
        "à¸´à¸Ļà¸Ħ",
        -10.327589720805827
      ],
      [
        "Ä±nÄ±",
        -10.328081197737912
      ],
      [
        "article",
        -10.3282853721712
      ],
      [
        "Ø¹Ø¯Ø©",
        -10.328404150268131
      ],
      [
        "Ġeven",
        -10.328591653271328
      ],
      [
        "ĠÙĨØ³Ø¨",
        -10.32920279761543
      ],
      [
        "inde",
        -10.329705653170848
      ],
      [
        "net",
        -10.329942512284733
      ],
      [
        "Ġà¤¦à¤°",
        -10.330159327769811
      ],
      [
        "ĠØ´ÙĩØ±",
        -10.330343290916922
      ],
      [
        "ĠyapÄ±lan",
        -10.330618158060538
      ],
      [
        "èĩªå·±",
        -10.330840243462962
      ],
      [
        "ĠÃ¶zel",
        -10.330860699047744
      ],
      [
        "Ø´",
        -10.331432767158002
      ],
      [
        "wana",
        -10.331632577561033
      ],
      [
        "à¸¸à¸£",
        -10.33170788569959
      ],
      [
        "à¹Īà¸²à¸ĩà¹Ħà¸£",
        -10.33188983363774
      ],
      [
        "ilikuwa",
        -10.332706028168824
      ],
      [
        "ĠØªØŃØª",
        -10.332891231440184
      ],
      [
        "èĥ½",
        -10.3336372648947
      ],
      [
        "éĩĮ",
        -10.333910221282276
      ],
      [
        "ĠØ§ÙĦØŃØ§ÙĦ",
        -10.334541849481033
      ],
      [
        "Ø¨Ø¹Ø¶",
        -10.334941964326074
      ],
      [
        "Ġkutoa",
        -10.335667373045544
      ],
      [
        "ĠØ¹Ø¨Ø±",
        -10.335843217784763
      ],
      [
        "à¸Ļà¸ģ",
        -10.33696804948287
      ],
      [
        "âĢĻai",
        -10.337166221939196
      ],
      [
        "Ġwale",
        -10.33735668628344
      ],
      [
        "Wa",
        -10.337970651610911
      ],
      [
        "à¹Įà¸ª",
        -10.338761812155443
      ],
      [
        "sawa",
        -10.3387710221055
      ],
      [
        "Ġà¤Ĩà¤µ",
        -10.339052584170329
      ],
      [
        "ÐºÑĥ",
        -10.339214627500237
      ],
      [
        "à±įà°µà°¹",
        -10.339808281289525
      ],
      [
        "à¹Īà¸ģ",
        -10.339955807432393
      ],
      [
        "Ġoff",
        -10.340281210835654
      ],
      [
        "Ø§ÙĦØ¨ØŃØ«",
        -10.340410498755606
      ],
      [
        "ä¼ļ",
        -10.340489974299272
      ],
      [
        "à¸±à¸ĩà¸«à¸§",
        -10.340799718721478
      ],
      [
        "ida",
        -10.341167746472212
      ],
      [
        "à¸´à¸¥",
        -10.341378516969847
      ],
      [
        "à¤Ĥà¤ľ",
        -10.341745657325712
      ],
      [
        "à±Ģà°Ĺ",
        -10.343073207159968
      ],
      [
        "iz",
        -10.343857822393613
      ],
      [
        "é«ĺ",
        -10.344110164294596
      ],
      [
        "à¸²à¸ĺ",
        -10.344699049312974
      ],
      [
        "ĠØ§ÙĦÙĨØ¸Ø±",
        -10.34485413175874
      ],
      [
        "ÑģÑĤÐ²Ð°",
        -10.345367882705949
      ],
      [
        "ici",
        -10.34662120322389
      ],
      [
        "fore",
        -10.346907833894852
      ],
      [
        "Ð¿ÑĢÐ°Ð²Ð¸ÑĤÑĮ",
        -10.347496782907898
      ],
      [
        "Ø¯Ø±Ø¬Ø©",
        -10.349382320040338
      ],
      [
        "ĠÙħÙĪÙĤØ¹",
        -10.351768393437734
      ],
      [
        "à¤ĩà¤²",
        -10.35185312910017
      ],
      [
        "ĠdiÄŁer",
        -10.352191363710146
      ],
      [
        "ĠolduÄŁunu",
        -10.352587299354866
      ],
      [
        "Ð¼Ð¾Ð¶ÐµÑĤÐµ",
        -10.352966944047637
      ],
      [
        "¢",
        -10.353297158336982
      ],
      [
        "Ġwaki",
        -10.354197579288948
      ],
      [
        "µÐ½Ð¸Ñı",
        -10.354635412404065
      ],
      [
        "ĠÙģÙĤØ§ÙĦ",
        -10.354660711413302
      ],
      [
        "à¹Īà¸²à¸ª",
        -10.35503823477067
      ],
      [
        "enda",
        -10.355070219733916
      ],
      [
        "ja",
        -10.355413699835276
      ],
      [
        "ĠØµÙĪØ±",
        -10.35560233007904
      ],
      [
        "Ġkey",
        -10.356118411274334
      ],
      [
        "tatu",
        -10.356298350467084
      ],
      [
        "à¤¬à¤ļ",
        -10.356566224828232
      ],
      [
        "±",
        -10.356774135873987
      ],
      [
        "heria",
        -10.35770763469569
      ],
      [
        "tant",
        -10.357721321022922
      ],
      [
        "Ġà°ķà°¥",
        -10.357744239544926
      ],
      [
        "yetu",
        -10.357874788775348
      ],
      [
        "à¤²à¤¤",
        -10.357882349142107
      ],
      [
        "ĠÙĦÙĨ",
        -10.35820582036361
      ],
      [
        "à¸Īà¸°à¸¡",
        -10.358639636249622
      ],
      [
        "yan",
        -10.359866622794987
      ],
      [
        "ire",
        -10.360042674604175
      ],
      [
        "à¸¡à¸²",
        -10.36041195164271
      ],
      [
        "Ġdevam",
        -10.360558706776793
      ],
      [
        "Ø²",
        -10.360979493731088
      ],
      [
        "Ġsecond",
        -10.361342513424606
      ],
      [
        "à¸µà¸Ħ",
        -10.361504199639857
      ],
      [
        "mam",
        -10.361618397089568
      ],
      [
        "à¸µà¸¢à¸Ķ",
        -10.361818462906486
      ],
      [
        "Ġà¤Ĩà¤¦",
        -10.36233817426714
      ],
      [
        "Ð¯",
        -10.36241746719902
      ],
      [
        "sine",
        -10.363405665508274
      ],
      [
        "Ġweek",
        -10.363471251495064
      ],
      [
        "ĠÑĩÐµÑĢÐµÐ",
        -10.364244632160634
      ],
      [
        "à¸±à¸ĩà¸Ħà¸¡",
        -10.364283000429028
      ],
      [
        "ĠTrip",
        -10.364599818145503
      ],
      [
        "ad",
        -10.36521968786048
      ],
      [
        "à¸µà¸¡",
        -10.365342024738334
      ],
      [
        "pande",
        -10.365552385421434
      ],
      [
        "ÙĨØªÙĬØ¬Ø©",
        -10.36606755838319
      ],
      [
        "Ø§ÙĦØ·ÙģÙĦ",
        -10.367053208078543
      ],
      [
        "Ġà°ħà°µà°¸à°°",
        -10.367962107953222
      ],
      [
        "ĠØŃ",
        -10.368669812861208
      ],
      [
        "è¿ĩ",
        -10.368767694889254
      ],
      [
        ":||",
        -10.37026079078391
      ],
      [
        "akati",
        -10.370991239471785
      ],
      [
        "husika",
        -10.37103012517004
      ],
      [
        "ĠHer",
        -10.371807071045914
      ],
      [
        "ØµØ¨Ø±",
        -10.37284011634317
      ],
      [
        "ĠÙĨØŃÙĪ",
        -10.37311403253102
      ],
      [
        "Ġà¤īà¤¦",
        -10.373894685335465
      ],
      [
        "à°¾à°Łà°²",
        -10.37389537753552
      ],
      [
        "ºÐ°",
        -10.374637449494353
      ],
      [
        "Ð»Ð¾",
        -10.374642957479008
      ],
      [
        "à±Ģà°ķà°°",
        -10.374706257936564
      ],
      [
        "à¹Īà¸²à¸ĩà¸ģ",
        -10.374765440051515
      ],
      [
        "ÐĲ",
        -10.374864414413882
      ],
      [
        "hapo",
        -10.374982606912011
      ],
      [
        "Ġmwana",
        -10.375234673516392
      ],
      [
        "Ġday",
        -10.375290811899644
      ],
      [
        "jua",
        -10.375614179231777
      ],
      [
        "Ø¹Ø¯ÙĦ",
        -10.375734919021234
      ],
      [
        "ĠÙĪÙĦÙĬØ³",
        -10.375938412937668
      ],
      [
        "à°ļà°°",
        -10.376138511466024
      ],
      [
        "à¸Ńà¸§",
        -10.377548817595454
      ],
      [
        "éģĵ",
        -10.3775764441721
      ],
      [
        "ĠÙħØ¹ÙĬÙĨ",
        -10.378532476667155
      ],
      [
        "Ø§Ø¨ÙĨØ§Ø¡",
        -10.378562573762046
      ],
      [
        "à¸Ľà¸£",
        -10.37864927612878
      ],
      [
        "ĠSe",
        -10.378958752824015
      ],
      [
        ",âĢĿ",
        -10.379215059684874
      ],
      [
        "Ġja",
        -10.379226896869705
      ],
      [
        "page",
        -10.37941350018754
      ],
      [
        "ĠØ§ÙĦØ®Ø§Øµ",
        -10.37973409773102
      ],
      [
        "tatizo",
        -10.379870176964568
      ],
      [
        "à¸±à¸Ĺ",
        -10.380123239491788
      ],
      [
        "Ĺ",
        -10.380691329854248
      ],
      [
        "ĠÐ´Ð¾Ð»Ð¶Ð½",
        -10.381194211614272
      ],
      [
        "å¾Ī",
        -10.381806774924206
      ],
      [
        "aji",
        -10.382418279639465
      ],
      [
        "Ġwala",
        -10.383639831313404
      ],
      [
        "Ġmany",
        -10.383771586998286
      ],
      [
        "ĠØ£ÙĩÙĦ",
        -10.383874691905971
      ],
      [
        "Ġpersonne",
        -10.38451276531366
      ],
      [
        "ÙĬÙĬÙĨ",
        -10.385030605006635
      ],
      [
        "à¹ĩà¸Ļà¸ľ",
        -10.386649646648983
      ],
      [
        "à°¿à°¹",
        -10.38732556370563
      ],
      [
        "ÙħÙĨØ·ÙĤØ©",
        -10.387330849079667
      ],
      [
        "take",
        -10.387529932321817
      ],
      [
        "ÙĴØ",
        -10.387825538913289
      ],
      [
        "ĠÐ´Ð°",
        -10.387899096549445
      ],
      [
        "ÑıÑħ",
        -10.388555501156006
      ],
      [
        "à¸¸à¸Ľ",
        -10.388665944637449
      ],
      [
        "à¸ĩà¸ª",
        -10.388744380502242
      ],
      [
        "à¸±à¸ļà¸",
        -10.389535168991747
      ],
      [
        "computer",
        -10.390012393164552
      ],
      [
        "Ġstate",
        -10.390084244730822
      ],
      [
        "à¸±à¸¡à¸ŀ",
        -10.390119692588804
      ],
      [
        "Ġhim",
        -10.390946929691662
      ],
      [
        "ÙİØ¯",
        -10.39128939391584
      ],
      [
        "ĠØŃÙĤ",
        -10.391370140302016
      ],
      [
        "naweza",
        -10.391779076309362
      ],
      [
        "İ",
        -10.39201328137419
      ],
      [
        "à¸ģà¸³à¸«à¸Ļà¸Ķ",
        -10.392264385539494
      ],
      [
        "à¸¢à¸§",
        -10.392528977149883
      ],
      [
        "Ġdi",
        -10.393023704880116
      ],
      [
        "à±įà°£à°¯",
        -10.39307938891535
      ],
      [
        "Ø¡",
        -10.39318617368518
      ],
      [
        "ä»İ",
        -10.39423201292419
      ],
      [
        "to",
        -10.394276653466711
      ],
      [
        "ward",
        -10.394722405023703
      ],
      [
        "ĠØ¯ÙĪØ±",
        -10.395162933049892
      ],
      [
        "à¹Īà¸Ĺ",
        -10.395681203887108
      ],
      [
        "Ø¬ÙħÙĬØ¹",
        -10.396095861641784
      ],
      [
        "Ġà¸ģà¸¥",
        -10.396205771967637
      ],
      [
        "Ø£ÙĨÙĩØ§",
        -10.396386521652014
      ],
      [
        "ces",
        -10.397032553240477
      ],
      [
        "ÙĪÙĤØ¯",
        -10.398043991995582
      ],
      [
        "à¸±à¸ļà¸Ĺ",
        -10.3987295525228
      ],
      [
        "èĢħ",
        -10.398819308892651
      ],
      [
        "jana",
        -10.399410546847491
      ],
      [
        "à¸µà¸ŀ",
        -10.400406985376984
      ],
      [
        "ĠØ´",
        -10.400687187485154
      ],
      [
        "à¸¡à¸Ļ",
        -10.401511769043896
      ],
      [
        "à¹īà¸",
        -10.401530850450794
      ],
      [
        "à¸¹à¸Ľ",
        -10.40182177832022
      ],
      [
        "à¹ĩà¸Ļà¸ģà¸²à¸£",
        -10.40186985588179
      ],
      [
        "Ġhere",
        -10.40209547766644
      ],
      [
        "à±Ĩà°Ĺ",
        -10.402319357300112
      ],
      [
        "à¸±à¸įà¸įà¸²",
        -10.402673799556098
      ],
      [
        "å¥¹",
        -10.40284397875553
      ],
      [
        "à¸Ļà¸ķ",
        -10.403020089967802
      ],
      [
        "pe",
        -10.40305865402714
      ],
      [
        "aadhi",
        -10.40327245109298
      ],
      [
        "ĠØ¯",
        -10.40390323317868
      ],
      [
        "ļ",
        -10.404020488458528
      ],
      [
        "vi",
        -10.404647373419088
      ],
      [
        "à¸±à¸ģà¸©à¸ĵà¸°",
        -10.405078133595415
      ],
      [
        "ĠØ±Ø³ÙĪÙĦ",
        -10.40537147581259
      ],
      [
        "Ġpublic",
        -10.40590563939732
      ],
      [
        "hose",
        -10.405956513565451
      ],
      [
        "à°¸à°°",
        -10.40611231999993
      ],
      [
        "à¸ĩà¸Ħ",
        -10.406294716212384
      ],
      [
        "½",
        -10.407114347522445
      ],
      [
        "kupata",
        -10.407171505597098
      ],
      [
        "Ġsahip",
        -10.4072893932577
      ],
      [
        "Ġhai",
        -10.407569329448735
      ],
      [
        "à¹Ģà¸ŀà¸¥à¸ĩ",
        -10.407702137991311
      ],
      [
        "ĠÄ°",
        -10.407893945284094
      ],
      [
        "bali",
        -10.408578379539149
      ],
      [
        "à¹īà¸²à¸§",
        -10.408746703602556
      ],
      [
        "æ¯Ķ",
        -10.409076460498232
      ],
      [
        "Ġà°Ĩà°¶",
        -10.41018565140874
      ],
      [
        "à¤µà¤²",
        -10.410251162376063
      ],
      [
        "ĠÐ¾Ð¿ÑĢÐµÐ´ÐµÐ»",
        -10.411466707795231
      ],
      [
        "Ġwanao",
        -10.411472066423116
      ],
      [
        "à¹Īà¸²à¸Ĺ",
        -10.412182153932385
      ],
      [
        "Ġshould",
        -10.412514586661109
      ],
      [
        "Ġà°¬à°¯à°Ł",
        -10.412636420853568
      ],
      [
        "à¸ķà¸²à¸¡",
        -10.412795486216371
      ],
      [
        "Ø£ÙĥØ¨Ø±",
        -10.41283088173474
      ],
      [
        "å¾ŀ",
        -10.41361981836566
      ],
      [
        "Ø±ÙĤÙħ",
        -10.414400707417498
      ],
      [
        "ĠØ§ÙĦØŃÙĤÙĬÙĤ",
        -10.414547240709208
      ],
      [
        "We",
        -10.415052617575515
      ],
      [
        "à¹Ģà¸ļ",
        -10.415705612376808
      ],
      [
        "ĠØ§ÙĦÙĪØ·ÙĨÙĬ",
        -10.416217524821551
      ],
      [
        "ure",
        -10.416526228385266
      ],
      [
        "ÙĪÙħÙĨ",
        -10.416546226881538
      ],
      [
        "as",
        -10.4167720255587
      ],
      [
        "ĠÐ²Ð¾Ð¿ÑĢÐ¾Ñģ",
        -10.417075504715797
      ],
      [
        "Ġlast",
        -10.417337395962605
      ],
      [
        "à¸łà¸²à¸ŀ",
        -10.41784805426918
      ],
      [
        "ĠÐŁÑĢÐ¸",
        -10.41788263632165
      ],
      [
        "à¥ĭà¤§",
        -10.418110512109113
      ],
      [
        "à¹ĩà¸§",
        -10.418286130360702
      ],
      [
        "à¸±à¸¡à¸¡à¸²",
        -10.419256828143864
      ],
      [
        "å·²",
        -10.419370879519008
      ],
      [
        "à°µà°²à°¨",
        -10.419736251436284
      ],
      [
        "):",
        -10.420036086478865
      ],
      [
        "Ġhuku",
        -10.420166797852511
      ],
      [
        "à¹Ģà¸Ń",
        -10.421265108664953
      ],
      [
        "Ġam",
        -10.421273080742218
      ],
      [
        "ĠÙĦØ§ÙĨ",
        -10.421397593999275
      ],
      [
        "ĠÐ½ÐµÑĤ",
        -10.421514428631523
      ],
      [
        "à¹ģà¸ļà¸ļ",
        -10.4216129155266
      ],
      [
        "æıĲä¾Ľ",
        -10.421856259450006
      ],
      [
        "Ġmfan",
        -10.421994423103232
      ],
      [
        "elles",
        -10.422285106560672
      ],
      [
        "à¤Ĺà¤¤",
        -10.422546442857726
      ],
      [
        "Ð¸ÑĤÐµ",
        -10.42260447958282
      ],
      [
        "à¹ĥà¸ª",
        -10.42286124040577
      ],
      [
        "ĠØ³ÙĪ",
        -10.422868100756684
      ],
      [
        "ĠÑģÑĤÐ°ÑĤÑĮ",
        -10.423127346419744
      ],
      [
        "à¸£à¸°à¸ļà¸ļ",
        -10.423728119676037
      ],
      [
        "Ļ",
        -10.4242206347228
      ],
      [
        "à¥Īà¤²",
        -10.425236304718466
      ],
      [
        "ĠMe",
        -10.425310926190988
      ],
      [
        "Ġzina",
        -10.425963913254703
      ],
      [
        "Ð¾Ð²Ð°Ð½Ð¸Ðµ",
        -10.426810156696977
      ],
      [
        "Ku",
        -10.42692853465368
      ],
      [
        "ĠØ§ÙĦØ´ÙĬØ®",
        -10.427349319242516
      ],
      [
        "ÙĩÙĦ",
        -10.42736231221241
      ],
      [
        "Ð½Ð¸Ñİ",
        -10.42777379995525
      ],
      [
        "çĿĢ",
        -10.428033183198576
      ],
      [
        "?âĢĿ",
        -10.428207601810744
      ],
      [
        "ĠkiÅŁi",
        -10.428761100127174
      ],
      [
        "!!Ċ",
        -10.429271315309704
      ],
      [
        "ĠAfrika",
        -10.429373985213344
      ],
      [
        "Ø§ÙĦØ¥Ø³ÙĦØ§ÙħÙĬ",
        -10.429618175056572
      ],
      [
        "ĠÙĪØ§ÙĦÙħ",
        -10.431055989279765
      ],
      [
        "à¤Łà¤¨",
        -10.43153141379656
      ],
      [
        "à¹Ķ",
        -10.432997495892652
      ],
      [
        "ÙĪÙĬ",
        -10.43307881332433
      ],
      [
        "Ġchange",
        -10.433415581047452
      ],
      [
        "Ø·",
        -10.43405672051452
      ],
      [
        "ĠØ§ÙĦØ¹Ø¯ÙĬØ¯",
        -10.43468356843426
      ],
      [
        "halisi",
        -10.435315248391714
      ],
      [
        "Ġgrand",
        -10.435340451334696
      ],
      [
        "nombre",
        -10.435952004193624
      ],
      [
        "ĠÙĥÙĬÙģ",
        -10.435988410922626
      ],
      [
        "ĠÐ¼ÐµÐ¶Ð´Ñĥ",
        -10.436219677732796
      ],
      [
        "à¹ĩà¸Ļà¸§",
        -10.436404296956676
      ],
      [
        "à°ļà°¨",
        -10.436497052529326
      ],
      [
        "ĠÐ²ÑĢÐµÐ¼ÐµÐ½",
        -10.436601531942747
      ],
      [
        "ĠØŃØ¯",
        -10.436626452743148
      ],
      [
        "Ġvideo",
        -10.436735386092009
      ],
      [
        "jeshi",
        -10.437053270790637
      ],
      [
        "ĠØ¨ÙĥÙĦ",
        -10.43759962374115
      ],
      [
        "ĠSu",
        -10.437956730423696
      ],
      [
        "Ġvie",
        -10.438177016902966
      ],
      [
        "à¤®à¤¤",
        -10.43846313680157
      ],
      [
        "email",
        -10.438471954858027
      ],
      [
        "ĠØµÙĦÙ",
        -10.439215237174846
      ],
      [
        "HP",
        -10.439742227502704
      ],
      [
        "à°¾à°°à°®",
        -10.440049761324357
      ],
      [
        "à¹ĭ",
        -10.440610076023365
      ],
      [
        "à¸µà¸¥",
        -10.440681419530735
      ],
      [
        "ĠYou",
        -10.44072322015889
      ],
      [
        "à¸Īà¸°à¸ķ",
        -10.441302682034998
      ],
      [
        "Ġmal",
        -10.441356281844488
      ],
      [
        "ĠÑĤÐµ",
        -10.441546930451777
      ],
      [
        "à¸Ħà¸§à¸²à¸¡à¸Ħ",
        -10.44288732543466
      ],
      [
        "Ã¨s",
        -10.44339994157625
      ],
      [
        "ĠYa",
        -10.443438990432362
      ],
      [
        "¢à¸Ĭà¸Ļ",
        -10.44346657761132
      ],
      [
        "ĠÙĦÙĥ",
        -10.443613098568562
      ],
      [
        "ĠSo",
        -10.443614198737537
      ],
      [
        "Ø«ÙĦØ§Ø«Ø©",
        -10.443650348819013
      ],
      [
        "ĠØ§ÙĦÙĤØ±ÙĨ",
        -10.443888696765466
      ],
      [
        "ĠÐ³Ð¾Ð´",
        -10.443893223123922
      ],
      [
        "tÃ©",
        -10.44396904769355
      ],
      [
        "Ġtop",
        -10.44404198507053
      ],
      [
        "Ø£ØŃÙħØ¯",
        -10.445138452104723
      ],
      [
        "Ł",
        -10.44569846906752
      ],
      [
        "à¸¹à¸ģà¸Ħ",
        -10.44617683782495
      ],
      [
        ".[",
        -10.44631619889305
      ],
      [
        "ĠØŁ",
        -10.446890601786894
      ],
      [
        "ĠÑģÑĤÐ¾ÑĢÐ¾Ð½",
        -10.44691258755441
      ],
      [
        "à°¯à°¸",
        -10.446936861795958
      ],
      [
        "à¸·à¸Ńà¸§",
        -10.447541372381371
      ],
      [
        "kwa",
        -10.448151129477647
      ],
      [
        "Ġcompte",
        -10.449626922200652
      ],
      [
        "à°¯à°¨",
        -10.449730285820698
      ],
      [
        "à±įà°¤à°µ",
        -10.450148482577394
      ],
      [
        "à¸±à¸ļà¸ľ",
        -10.450217672976848
      ],
      [
        "ĠØ§ÙĦÙĪØ§ÙĤØ¹",
        -10.45035315105483
      ],
      [
        "Ġgame",
        -10.450429993586734
      ],
      [
        "à¸ĩà¸¡",
        -10.450445420644114
      ],
      [
        "iyle",
        -10.451103885483873
      ],
      [
        "ÙħØ¹ÙĨÙī",
        -10.451121095257207
      ],
      [
        "karibu",
        -10.451152348049057
      ],
      [
        "ÙĪØ²Ø§Ø±Ø©",
        -10.4513075800962
      ],
      [
        "Øµ",
        -10.452236323459314
      ],
      [
        "ries",
        -10.452348654245624
      ],
      [
        "ï¼ŁâĢĿ",
        -10.452433714212557
      ],
      [
        "à¤µà¤¸",
        -10.452608802625388
      ],
      [
        "à¤Ĺà¤°",
        -10.45267389301143
      ],
      [
        "Ġulio",
        -10.452840438769847
      ],
      [
        "à±ĩà°¦à°¨",
        -10.453347825834832
      ],
      [
        "tofauti",
        -10.453914196767323
      ],
      [
        "Ġà°¬à°²",
        -10.45406485889022
      ],
      [
        "ĠAM",
        -10.454210696133313
      ],
      [
        "bora",
        -10.454690021526408
      ],
      [
        "nouvelle",
        -10.45470619518198
      ],
      [
        "ÙĦÙĤØ¯",
        -10.455012195033682
      ],
      [
        "Ġman",
        -10.45518909788732
      ],
      [
        "à¹Įà¸ģ",
        -10.456408806784308
      ],
      [
        "droit",
        -10.456771568771366
      ],
      [
        "Ġdur",
        -10.456955896242086
      ],
      [
        "à°¡à°¬",
        -10.457065247273816
      ],
      [
        "Ġeder",
        -10.45716132261773
      ],
      [
        "çļĦäºº",
        -10.457790398928864
      ],
      [
        "à¸±à¸ļà¸ª",
        -10.459392600857406
      ],
      [
        "Ġpost",
        -10.459503181080438
      ],
      [
        "Ø£Ø·ÙģØ§ÙĦ",
        -10.459895932123654
      ],
      [
        "à¹Ĩ",
        -10.459914651444954
      ],
      [
        "ÑĩÐ°Ñģ",
        -10.459927878396671
      ],
      [
        "ĠØ¬Ø§ÙħØ¹",
        -10.460029789216405
      ],
      [
        "ØªÙħ",
        -10.4601789287569
      ],
      [
        "mu",
        -10.461125915568577
      ],
      [
        "à¸ģà¸²à¸£à¸Ħ",
        -10.461318026842363
      ],
      [
        "à¸±à¸Ĵà¸Ļ",
        -10.461582104505494
      ],
      [
        "ĠÙħØµØ±",
        -10.464453184557858
      ],
      [
        "Ġgelen",
        -10.464693174630543
      ],
      [
        "à¸Ĥà¸Ńà¸ĩà¸Ħ",
        -10.466085158353843
      ],
      [
        "Ð§ÑĤÐ¾",
        -10.466289332231767
      ],
      [
        "ful",
        -10.466299696651577
      ],
      [
        "ÙİØ§ÙĦ",
        -10.46639249261552
      ],
      [
        "ĠÑģÑĤÑĢÐ°Ð½",
        -10.46640060894466
      ],
      [
        "the",
        -10.467122784659084
      ],
      [
        "Ġhome",
        -10.46769111502131
      ],
      [
        "ĠØ£ÙģØ¶ÙĦ",
        -10.46769843074581
      ],
      [
        "ÑģÑĤÐ²Ð¾",
        -10.467731436942646
      ],
      [
        "ow",
        -10.467751121530682
      ],
      [
        "Ä±r",
        -10.467977421926433
      ],
      [
        "Ġbilgi",
        -10.468971392426043
      ],
      [
        "à±įà°°à°²",
        -10.469078308965262
      ],
      [
        "è¿Ļ",
        -10.469350350216466
      ],
      [
        "ors",
        -10.469627931360302
      ],
      [
        "à¥Īà¤ķ",
        -10.46973550436801
      ],
      [
        "Ã§",
        -10.470480051924326
      ],
      [
        "hammad",
        -10.470595034365845
      ],
      [
        "ÐľÑĭ",
        -10.470797758437026
      ],
      [
        "à¹īà¹ģà¸ģ",
        -10.470907017364617
      ],
      [
        "Ġà°ļà°¦",
        -10.471316381157658
      ],
      [
        "ft",
        -10.47136426528798
      ],
      [
        "à¹īà¸Ħ",
        -10.472011727727178
      ],
      [
        ".\"",
        -10.472597902614105
      ],
      [
        "while",
        -10.473107742898575
      ],
      [
        "ĠÅŁey",
        -10.473133346645028
      ],
      [
        "ĠÑĢÑĥÐº",
        -10.473179846532588
      ],
      [
        "à¹Įà¸Ļ",
        -10.473488769436706
      ],
      [
        "Ø³ÙĪÙģ",
        -10.473819394561763
      ],
      [
        "å¤©",
        -10.474117736728353
      ],
      [
        "ĠÙĪØ¬Ùĩ",
        -10.474169177402793
      ],
      [
        "à¸Ļà¸ª",
        -10.474400232571714
      ],
      [
        "à¹Ģà¸¥à¸¢",
        -10.47457315266366
      ],
      [
        "ØªÙĨØ§",
        -10.47470502640922
      ],
      [
        "ĠÑħÐ¾ÑĤ",
        -10.4749780902541
      ],
      [
        "Ð½ÑĥÑİ",
        -10.474994035492244
      ],
      [
        "ï¼Įä»ĸ",
        -10.475448492168796
      ],
      [
        "arekani",
        -10.47548656831658
      ],
      [
        "ĠÑģÐ¿Ð¾ÑģÐ¾Ð±",
        -10.475791488746363
      ],
      [
        "akini",
        -10.478402779910112
      ],
      [
        "à¸¸à¸£à¸ģ",
        -10.47851175922303
      ],
      [
        "going",
        -10.478684110259092
      ],
      [
        "jeune",
        -10.47892635935235
      ],
      [
        "à°ĺ",
        -10.478957726631654
      ],
      [
        "à¹ģà¸Ī",
        -10.480240835935696
      ],
      [
        "Ġbulunan",
        -10.480925922328709
      ],
      [
        "ul",
        -10.481017694391658
      ],
      [
        "ĠAd",
        -10.481087720394612
      ],
      [
        "<",
        -10.481468011213074
      ],
      [
        "Ġmis",
        -10.48152518302853
      ],
      [
        "èªª",
        -10.481810252349934
      ],
      [
        "à¥īà¤",
        -10.482569081734322
      ],
      [
        "æĸ¼",
        -10.482755535385628
      ],
      [
        "å¿ĥ",
        -10.482822167085184
      ],
      [
        "ĠØ§ÙĦØ¬ÙĨ",
        -10.483184516399811
      ],
      [
        "aarifa",
        -10.48481788728365
      ],
      [
        "Ð¿ÑĢÐ¾Ð¸Ð·Ð²Ð¾Ð´",
        -10.485610232883614
      ],
      [
        "Ġright",
        -10.48586770051614
      ],
      [
        "ox",
        -10.486128283886467
      ],
      [
        "Ø·Ø±ÙĬÙĤØ©",
        -10.486252445382522
      ],
      [
        "Ð½Ð¸Ðµ",
        -10.486843586734262
      ],
      [
        "Ø§ÙĦØ§Ø¬ØªÙħØ§Ø¹",
[...]
