{
  "version": "1.0",
  "truncation": null,
  "padding": null,
  "added_tokens": [
    {
      "id": 0,
      "content": "<|bos|>",
      "single_word": false,
      "lstrip": false,
      "rstrip": false,
      "normalized": false,
      "special": true
    },
    {
      "id": 1,
      "content": "<|user_start|>",
      "single_word": false,
      "lstrip": false,
      "rstrip": false,
      "normalized": false,
      "special": true
    },
    {
      "id": 2,
      "content": "<|user_end|>",
      "single_word": false,
      "lstrip": false,
      "rstrip": false,
      "normalized": false,
      "special": true
    },
    {
      "id": 3,
      "content": "<|assistant_start|>",
      "single_word": false,
      "lstrip": false,
      "rstrip": false,
      "normalized": false,
      "special": true
    },
    {
      "id": 4,
      "content": "<|assistant_end|>",
      "single_word": false,
      "lstrip": false,
      "rstrip": false,
      "normalized": false,
      "special": true
    },
    {
      "id": 5,
      "content": "<|python_start|>",
      "single_word": false,
      "lstrip": false,
      "rstrip": false,
      "normalized": false,
      "special": true
    },
    {
      "id": 6,
      "content": "<|python_end|>",
      "single_word": false,
      "lstrip": false,
      "rstrip": false,
      "normalized": false,
      "special": true
    },
    {
      "id": 7,
      "content": "<|output_start|>",
      "single_word": false,
      "lstrip": false,
      "rstrip": false,
      "normalized": false,
      "special": true
    },
    {
      "id": 8,
      "content": "<|output_end|>",
      "single_word": false,
      "lstrip": false,
      "rstrip": false,
      "normalized": false,
      "special": true
    },
    {
      "id": 9,
      "content": "<|unk|>",
      "single_word": false,
      "lstrip": false,
      "rstrip": false,
      "normalized": false,
      "special": true
    }
  ],
  "normalizer": null,
  "pre_tokenizer": {
    "type": "Sequence",
    "pretokenizers": [
      {
        "type": "Split",
        "pattern": {
          "Regex": "'(?i:[sdmt]|ll|ve|re)|[^\\r\\n\\p{L}\\p{N}]?+\\p{L}+|\\p{N}{1,2}| ?[^\\s\\p{L}\\p{N}]++[\\r\\n]*|\\s*[\\r\\n]|\\s+(?!\\S)|\\s+"
        },
        "behavior": "Isolated",
        "invert": false
      },
      {
        "type": "ByteLevel",
        "add_prefix_space": false,
        "trim_offsets": true,
        "use_regex": false
      }
    ]
  },
  "post_processor": {
    "type": "TemplateProcessing",
    "single": [
      {
        "Sequence": {
          "id": "A",
          "type_id": 0
        }
      }
    ],
    "pair": [
      {
        "Sequence": {
          "id": "A",
          "type_id": 0
        }
      },
      {
        "Sequence": {
          "id": "B",
          "type_id": 1
        }
      }
    ],
    "special_tokens": {}
  },
  "decoder": null,
  "model": {
    "type": "BPE",
    "dropout": null,
    "unk_token": "<|unk|>",
    "continuing_subword_prefix": null,
    "end_of_word_suffix": null,
    "fuse_unk": false,
    "byte_fallback": false,
    "ignore_merges": false,
    "vocab": {
      "<|bos|>": 0,
      "<|user_start|>": 1,
      "<|user_end|>": 2,
      "<|assistant_start|>": 3,
      "<|assistant_end|>": 4,
      "<|python_start|>": 5,
      "<|python_end|>": 6,
      "<|output_start|>": 7,
      "<|output_end|>": 8,
      "<|unk|>": 9,
      "!": 10,
      "\"": 11,
      "#": 12,
      "$": 13,
      "%": 14,
      "&": 15,
      "'": 16,
      "(": 17,
      ")": 18,
      "*": 19,
      "+": 20,
      ",": 21,
      "-": 22,
      ".": 23,
      "/": 24,
      "0": 25,
      "1": 26,
      "2": 27,
      "3": 28,
      "4": 29,
      "5": 30,
      "6": 31,
      "7": 32,
      "8": 33,
      "9": 34,
      ":": 35,
      ";": 36,
      "<": 37,
      "=": 38,
      ">": 39,
      "?": 40,
      "@": 41,
      "A": 42,
      "B": 43,
      "C": 44,
      "D": 45,
      "E": 46,
      "F": 47,
      "G": 48,
      "H": 49,
      "I": 50,
      "J": 51,
      "K": 52,
      "L": 53,
      "M": 54,
      "N": 55,
      "O": 56,
      "P": 57,
      "Q": 58,
      "R": 59,
      "S": 60,
      "T": 61,
      "U": 62,
      "V": 63,
      "W": 64,
      "X": 65,
      "Y": 66,
      "Z": 67,
      "[": 68,
      "\\": 69,
      "]": 70,
      "^": 71,
      "_": 72,
      "`": 73,
      "a": 74,
      "b": 75,
      "c": 76,
      "d": 77,
      "e": 78,
      "f": 79,
      "g": 80,
      "h": 81,
      "i": 82,
      "j": 83,
      "k": 84,
      "l": 85,
      "m": 86,
      "n": 87,
      "o": 88,
      "p": 89,
      "q": 90,
      "r": 91,
      "s": 92,
      "t": 93,
      "u": 94,
      "v": 95,
      "w": 96,
      "x": 97,
      "y": 98,
      "z": 99,
      "{": 100,
      "|": 101,
      "}": 102,
      "~": 103,
      "¡": 104,
      "¢": 105,
      "£": 106,
      "¤": 107,
      "¥": 108,
      "¦": 109,
      "§": 110,
      "¨": 111,
      "©": 112,
      "ª": 113,
      "«": 114,
      "¬": 115,
      "®": 116,
      "¯": 117,
      "°": 118,
      "±": 119,
      "²": 120,
      "³": 121,
      "´": 122,
      "µ": 123,
      "¶": 124,
      "·": 125,
      "¸": 126,
      "¹": 127,
      "º": 128,
      "»": 129,
      "¼": 130,
      "½": 131,
      "¾": 132,
      "¿": 133,
      "À": 134,
      "Á": 135,
      "Â": 136,
      "Ã": 137,
      "Ä": 138,
      "Å": 139,
      "Æ": 140,
      "Ç": 141,
      "È": 142,
      "É": 143,
      "Ê": 144,
      "Ë": 145,
      "Ì": 146,
      "Í": 147,
      "Î": 148,
      "Ï": 149,
      "Ð": 150,
      "Ñ": 151,
      "Ò": 152,
      "Ó": 153,
      "Ô": 154,
      "Õ": 155,
      "Ö": 156,
      "×": 157,
      "Ø": 158,
      "Ù": 159,
      "Ú": 160,
      "Û": 161,
      "Ü": 162,
      "Ý": 163,
      "Þ": 164,
      "ß": 165,
      "à": 166,
      "á": 167,
      "â": 168,
      "ã": 169,
      "ä": 170,
      "å": 171,
      "æ": 172,
      "ç": 173,
      "è": 174,
      "é": 175,
      "ê": 176,
      "ë": 177,
      "ì": 178,
      "í": 179,
      "î": 180,
      "ï": 181,
      "ð": 182,
      "ñ": 183,
      "ò": 184,
      "ó": 185,
      "ô": 186,
      "õ": 187,
      "ö": 188,
      "÷": 189,
      "ø": 190,
      "ù": 191,
      "ú": 192,
      "û": 193,
      "ü": 194,
      "ý": 195,
      "þ": 196,
      "ÿ": 197,
      "Ā": 198,
      "ā": 199,
      "Ă": 200,
      "ă": 201,
      "Ą": 202,
      "ą": 203,
      "Ć": 204,
      "ć": 205,
      "Ĉ": 206,
      "ĉ": 207,
      "Ċ": 208,
      "ċ": 209,
      "Č": 210,
      "č": 211,
      "Ď": 212,
      "ď": 213,
      "Đ": 214,
      "đ": 215,
      "Ē": 216,
      "ē": 217,
      "Ĕ": 218,
      "ĕ": 219,
      "Ė": 220,
      "ė": 221,
      "Ę": 222,
      "ę": 223,
      "Ě": 224,
      "ě": 225,
      "Ĝ": 226,
      "ĝ": 227,
      "Ğ": 228,
      "ğ": 229,
      "Ġ": 230,
      "ġ": 231,
      "Ģ": 232,
      "ģ": 233,
      "Ĥ": 234,
      "ĥ": 235,
      "Ħ": 236,
      "ħ": 237,
      "Ĩ": 238,
      "ĩ": 239,
      "Ī": 240,
      "ī": 241,
      "Ĭ": 242,
      "ĭ": 243,
      "Į": 244,
      "į": 245,
      "İ": 246,
      "ı": 247,
      "Ĳ": 248,
      "ĳ": 249,
      "Ĵ": 250,
      "ĵ": 251,
      "Ķ": 252,
      "ķ": 253,
      "ĸ": 254,
      "Ĺ": 255,
      "ĺ": 256,
      "Ļ": 257,
      "ļ": 258,
      "Ľ": 259,
      "ľ": 260,
      "Ŀ": 261,
      "ŀ": 262,
      "Ł": 263,
      "ł": 264,
      "Ń": 265,
      "Ġt": 266,
      "Ġa": 267,
      "in": 268,
      "he": 269,
      "re": 270,
      "on": 271,
      "Ġthe": 272,
      "er": 273,
      "Ġs": 274,
      "at": 275,
      "Ġc": 276,
      "Ġo": 277,
      "es": 278,
      "en": 279,
      "Ġw": 280,
      "nd": 281,
      "ing": 282,
      "it": 283,
      "is": 284,
      "Ġp": 285,
      "Ġb": 286,
      "or": 287,
      "Ġf": 288,
      "ou": 289,
      "al": 290,
      "an": 291,
      "Ġm": 292,
      "ed": 293,
      "Ġto": 294,
      "Ġof": 295,
      "Ġin": 296,
      "ar": 297,
      "Ġand": 298,
      "Ġd": 299,
      "ion": 300,
      "ic": 301,
      "le": 302,
      "ro": 303,
      "Ġth": 304,
      "as": 305,
      "Ġh": 306,
      "ct": 307,
      "ent": 308,
      "Ġe": 309,
      "il": 310,
      "Ġl": 311,
      "ve": 312,
      "Ġre": 313,
      "om": 314,
      "Ġis": 315,
      "us": 316,
      ".Ċ": 317,
      "Ġy": 318,
      "Ġn": 319,
      "ly": 320,
      "et": 321,
      "Ġg": 322,
      "Ġyou": 323,
      "ow": 324,
      "Ġbe": 325,
      "ot": 326,
      "ut": 327,
      "im": 328,
      "ĠT": 329,
      "id": 330,
      "st": 331,
      "ol": 332,
      "ra": 333,
      "Ġfor": 334,
      "ce": 335,
      "ig": 336,
      "ch": 337,
      "ur": 338,
      "ĠA": 339,
      "Ġon": 340,
      "ation": 341,
      "ĠI": 342,
      "Ġthat": 343,
      "Ġst": 344,
      "ir": 345,
      "ver": 346,
      "el": 347,
      "ay": 348,
      "Ġit": 349,
      "Ġare": 350,
      "ul": 351,
      "ith": 352,
      "Ġpro": 353,
      "if": 354,
      "se": 355,
      "Ġan": 356,
      "Ġwith": 357,
      "ĠS": 358,
      ".ĊĊ": 359,
      "Ġor": 360,
      "am": 361,
      "Ġcon": 362,
      "Ġas": 363,
      "od": 364,
      "est": 365,
      "her": 366,
      "Ġal": 367,
      "ĊĊ": 368,
      "ad": 369,
      "ter": 370,
      "ĠC": 371,
      "ke": 372,
      "Ġcan": 373,
      "un": 374,
      "Ġwh": 375,
      "ure": 376,
      "ge": 377,
      "ess": 378,
      "ill": 379,
      "ab": 380,
      "ate": 381,
      "ĠThe": 382,
      "um": 383,
      "Ġcom": 384,
      "Ġhe": 385,
      "Ġha": 386,
      "Ġex": 387,
      "ant": 388,
      "ers": 389,
      "ore": 390,
      "qu": 391,
      "ĠW": 392,
      "pe": 393,
      "Ġyour": 394,
      "th": 395,
      "ive": 396,
      "'s": 397,
      "igh": 398,
      "Ġus": 399,
      "em": 400,
      "Ġv": 401,
      "ac": 402,
      "ies": 403,
      "ment": 404,
      "Ġwe": 405,
      "ity": 406,
      "op": 407,
      "ain": 408,
      "os": 409,
      "ld": 410,
      "ist": 411,
      "Ġde": 412,
      "Ġse": 413,
      "Ġne": 414,
      "ĠP": 415,
      "Ġ(": 416,
      "ĠM": 417,
      "rom": 418,
      "pp": 419,
      "Ġr": 420,
      "Ġat": 421,
      "ĠB": 422,
      "Ġen": 423,
      "Ġsu": 424,
      "Ġch": 425,
      "ect": 426,
      "Ġsh": 427,
      "ial": 428,
      "ort": 429,
      "Ġhave": 430,
      "Ġfrom": 431,
      "Ġdo": 432,
      "Ġle": 433,
      "iv": 434,
      "ight": 435,
      "res": 436,
      "and": 437,
      "Ġpl": 438,
      "Ġnot": 439,
      "nt": 440,
      "Ġby": 441,
      "ĠH": 442,
      "per": 443,
      "art": 444,
      "oc": 445,
      "ĠF": 446,
      "ĠD": 447,
      "ud": 448,
      "Ġthis": 449,
      "ust": 450,
      "all": 451,
      "ome": 452,
      "ri": 453,
      "ical": 454,
      "ide": 455,
      "ould": 456,
      "Ġu": 457,
      "Ġab": 458,
      "rou": 459,
      "ine": 460,
      "pt": 461,
      "act": 462,
      "out": 463,
      "ost": 464,
      "Ġim": 465,
      "Ġma": 466,
      "ĠE": 467,
      "ard": 468,
      "ns": 469,
      "og": 470,
      "Ġwhe": 471,
      "ions": 472,
      "du": 473,
      "Ġwill": 474,
      "ĠR": 475,
      "ell": 476,
      "âĢ": 477,
      "ood": 478,
      "Ġcomp": 479,
      "red": 480,
      "Ġwor": 481,
      "ast": 482,
      "Ġk": 483,
      "ich": 484,
      "ther": 485,
      "ff": 486,
      "gh": 487,
      "Ġtheir": 488,
      "Ġthey": 489,
      "Ġint": 490,
      "our": 491,
      "king": 492,
      "iz": 493,
      "Ġad": 494,
      "age": 495,
      "The": 496,
      "ater": 497,
      "pl": 498,
      "ĠN": 499,
      "Ġall": 500,
      "able": 501,
      "ag": 502,
      "ĠL": 503,
      "Ġmore": 504,
      "ated": 505,
      "Ġwas": 506,
      "end": 507,
      "ally": 508,
      "ĠG": 509,
      "Ġcont": 510,
      "Ġbut": 511,
      "ere": 512,
      "hat": 513,
      "ans": 514,
      "oo": 515,
      "Ġso": 516,
      "ind": 517,
      "ib": 518,
      "ip": 519,
      "ĠO": 520,
      "Ġinc": 521,
      "ep": 522,
      "are": 523,
      "so": 524,
      "ru": 525,
      "ous": 526,
      "ult": 527,
      "Ġte": 528,
      "Ġme": 529,
      "ks": 530,
      "wer": 531,
      "orm": 532,
      "Ġj": 533,
      "cc": 534,
      "ike": 535,
      "Ġres": 536,
      "ry": 537,
      "estion": 538,
      "Ġhas": 539,
      "ong": 540,
      "Ġcl": 541,
      "ance": 542,
      "Qu": 543,
      "Ġout": 544,
      "Ġdis": 545,
      "Ġwhich": 546,
      "Ġimp": 547,
      "Ġun": 548,
      "Ġ\"": 549,
      "Ġsp": 550,
      "ear": 551,
      "vel": 552,
      "one": 553,
      "ie": 554,
      "Ġother": 555,
      "ations": 556,
      "ction": 557,
      "his": 558,
      "ents": 559,
      "Ġalso": 560,
      "Ġtim": 561,
      "'t": 562,
      "Ġone": 563,
      "Ġman": 564,
      "nswer": 565,
      "reat": 566,
      "Question": 567,
      "ach": 568,
      "ice": 569,
      "aus": 570,
      "20": 571,
      "very": 572,
      "av": 573,
      "ĠAnswer": 574,
      "ens": 575,
      "ition": 576,
      "Ġspe": 577,
      "ence": 578,
      "ace": 579,
      "ress": 580,
      "ass": 581,
      "ack": 582,
      "Ġper": 583,
      "Ġthem": 584,
      "ase": 585,
      "ĠU": 586,
      "low": 587,
      "ign": 588,
      "ap": 589,
      "Ġfe": 590,
      "ĠIn": 591,
      "Ġup": 592,
      "ary": 593,
      "Ġlike": 594,
      "Ġabout": 595,
      "Ġqu": 596,
      "Ġpre": 597,
      "ĠIt": 598,
      "ors": 599,
      "Ġsc": 600,
      "Ġev": 601,
      "Ġwhen": 602,
      "iff": 603,
      "ild": 604,
      "ue": 605,
      "Ġif": 606,
      "Ġsome": 607,
      "now": 608,
      "ia": 609,
      "ire": 610,
      "Ġro": 611,
      "ile": 612,
      "Ġneed": 613,
      "ite": 614,
      "Ġsy": 615,
      "Ġmay": 616,
      "ound": 617,
      "form": 618,
      "Ġinto": 619,
      "Ġapp": 620,
      "ail": 621,
      "Ġtime": 622,
      "Ġuse": 623,
      "ame": 624,
      "ces": 625,
      "Ġpart": 626,
      "Ġdiff": 627,
      "Ġhel": 628,
      "Ġbl": 629,
      "Ġhow": 630,
      "ĠY": 631,
      "ose": 632,
      "Ġthan": 633,
      "ĠThis": 634,
      "ric": 635,
      "ll": 636,
      "Ġcol": 637,
      "Ġtra": 638,
      "Ġthere": 639,
      "Ġany": 640,
      "ays": 641,
      "ber": 642,
      "lect": 643,
      "..": 644,
      "ree": 645,
      "cess": 646,
      "ak": 647,
      "Ġhelp": 648,
      "Ġits": 649,
      "ings": 650,
      "Ġpe": 651,
      "row": 652,
      "Ġbec": 653,
      "Ġar": 654,
      "ause": 655,
      "Ġover": 656,
      "ĠWhat": 657,
      "Ġrec": 658,
      "Ġknow": 659,
      "Ġcomm": 660,
      "Ġgo": 661,
      "Ġcons": 662,
      "ove": 663,
      "Ġtr": 664,
      "ang": 665,
      "nder": 666,
      "ake": 667,
      "ond": 668,
      "ough": 669,
      "Ġbet": 670,
      "als": 671,
      "Ġthese": 672,
      "les": 673,
      "Ġget": 674,
      "ating": 675,
      "ific": 676,
      "Ġsa": 677,
      "Ġspec": 678,
      "ord": 679,
      "ting": 680,
      "te": 681,
      "ish": 682,
      "Ġstud": 683,
      "Ġdes": 684,
      "Ġwater": 685,
      "hy": 686,
      "ĠâĢ": 687,
      "we": 688,
      "rough": 689,
      "ning": 690,
      "ons": 691,
      "Ġeff": 692,
      "Ġact": 693,
      "Ġused": 694,
      "stem": 695,
      "alth": 696,
      "Ġmost": 697,
      "ari": 698,
      "ub": 699,
      "olog": 700,
      "Ġwhat": 701,
      "Ġfl": 702,
      "ount": 703,
      "ular": 704,
      "Ġco": 705,
      "Ġprodu": 706,
      "Ġind": 707,
      "Ġour": 708,
      "ook": 709,
      "Ġdiffere": 710,
      "ck": 711,
      "ory": 712,
      "Ġmake": 713,
      "Ġyear": 714,
      "ne": 715,
      "ople": 716,
      "Ġgen": 717,
      "round": 718,
      "Ġoff": 719,
      "ms": 720,
      "ient": 721,
      "eth": 722,
      "Ġra": 723,
      "Ġwho": 724,
      "Ġprov": 725,
      "int": 726,
      "lud": 727,
      "ature": 728,
      "Ġadd": 729,
      "Ġacc": 730,
      "ple": 731,
      "ĠJ": 732,
      "ful": 733,
      "ick": 734,
      "Ġsuch": 735,
      "Ġshould": 736,
      "Ġunder": 737,
      "vers": 738,
      "Ġam": 739,
      "Ġnew": 740,
      "Ġwere": 741,
      "Ġag": 742,
      "ility": 743,
      "Ġsm": 744,
      "ĠSt": 745,
      "ower": 746,
      "Ġwould": 747,
      "Ġpeople": 748,
      "uring": 749,
      "Ġbeen": 750,
      "irst": 751,
      "ates": 752,
      "Ġtw": 753,
      "ange": 754,
      "ph": 755,
      "erv": 756,
      "Ġem": 757,
      "oss": 758,
      "10": 759,
      "xt": 760,
      "Ġmy": 761,
      "oth": 762,
      "Ġwork": 763,
      "Ġinclud": 764,
      "Ġthrough": 765,
      "Ġsystem": 766,
      "Ġty": 767,
      "ov": 768,
      "ject": 769,
      "ments": 770,
      "Ġcar": 771,
      "Ġdi": 772,
      "Ġjust": 773,
      "Ġplant": 774,
      "erg": 775,
      "ced": 776,
      "Ġonly": 777,
      "ities": 778,
      "ble": 779,
      "Ġke": 780,
      "hes": 781,
      "ise": 782,
      "ten": 783,
      "ative": 784,
      "Ġinter": 785,
      "Ġhealth": 786,
      "Ġwell": 787,
      "ob": 788,
      "ract": 789,
      "ĠK": 790,
      "Ġpr": 791,
      "ark": 792,
      "Ġno": 793,
      "Ġmany": 794,
      "fore": 795,
      "Ġreg": 796,
      "Ġsur": 797,
      "Ġhigh": 798,
      "ible": 799,
      "Ġbu": 800,
      "Ġdoes": 801,
      "ics": 802,
      "tain": 803,
      "fter": 804,
      "hen": 805,
      "ink": 806,
      "ren": 807,
      "its": 808,
      "Ġpo": 809,
      "ĠV": 810,
      "Ġrel": 811,
      "Ġpat": 812,
      "Ġ-": 813,
      "ual": 814,
      "Ġrem": 815,
      "own": 816,
      "Ġexper": 817,
      "Ġdifferent": 818,
      "Ġfirst": 819,
      "Ġtwo": 820,
      "Ġwhere": 821,
      "Ġtrans": 822,
      "ram": 823,
      "ually": 824,
      "Ġac": 825,
      "ased": 826,
      "velop": 827,
      "chn": 828,
      "old": 829,
      "ience": 830,
      "?Ċ": 831,
      "Ġlong": 832,
      "lic": 833,
      "Ġprocess": 834,
      "ft": 835,
      "Ġsupp": 836,
      "Ġmod": 837,
      "get": 838,
      "Ġche": 839,
      "hed": 840,
      "Ġimport": 841,
      "ĠIf": 842,
      "Ġcould": 843,
      "ween": 844,
      "Ġway": 845,
      "19": 846,
      "ize": 847,
      "Ġatt": 848,
      "uch": 849,
      "Ġthen": 850,
      "Ġass": 851,
      "Ġusing": 852,
      "cy": 853,
      "Ġsim": 854,
      "Ġrep": 855,
      "Ġdec": 856,
      "Ġdet": 857,
      "rit": 858,
      "Ġeven": 859,
      "ential": 860,
      "Ġvari": 861,
      "Ġinf": 862,
      "ade": 863,
      "ef": 864,
      "erm": 865,
      "Ġfood": 866,
      "In": 867,
      "Ġbetween": 868,
      "Ġinst": 869,
      "Ġdevelop": 870,
      "ife": 871,
      "wn": 872,
      "Ġevery": 873,
      "arm": 874,
      "Ġbecause": 875,
      "Ġob": 876,
      "iss": 877,
      "rib": 878,
      "Ġcre": 879,
      "00": 880,
      "ĠCh": 881,
      "vent": 882,
      "ily": 883,
      "ĠHow": 884,
      "ts": 885,
      "ious": 886,
      "ever": 887,
      "ps": 888,
      "ically": 889,
      "Ġeffect": 890,
      "Ġvery": 891,
      "ody": 892,
      "Ġdog": 893,
      "ĠYou": 894,
      "Ġsk": 895,
      "Ġform": 896,
      "Ġmain": 897,
      "Ġsee": 898,
      "'re": 899,
      "Ġph": 900,
      "ines": 901,
      "pect": 902,
      "Ġlear": 903,
      "Ġback": 904,
      "gan": 905,
      "Ġtechn": 906,
      "Ġrequ": 907,
      "iron": 908,
      "Ġnum": 909,
      "Ġgrow": 910,
      "Ġsub": 911,
      "ution": 912,
      "ures": 913,
      "Ġmin": 914,
      "ural": 915,
      "ness": 916,
      "ool": 917,
      "oy": 918,
      "Ġeach": 919,
      "iqu": 920,
      "ĠThey": 921,
      "Ġpers": 922,
      "Ġgood": 923,
      "arch": 924,
      "Ġchild": 925,
      "Ġlar": 926,
      "Ġhum": 927,
      "Ġmuch": 928,
      "Ġgra": 929,
      "Ġwant": 930,
      "Ġext": 931,
      "gg": 932,
      "Ġgener": 933,
      "Ġimportant": 934,
      "Ġins": 935,
      "ins": 936,
      ").": 937,
      "Ġhad": 938,
      "Ġinv": 939,
      "ollow": 940,
      "ĠĠ": 941,
      "Ġmed": 942,
      "Ġdon": 943,
      "Ġexp": 944,
      "ety": 945,
      "Ġfun": 946,
      "ĠâĢĵ": 947,
      "Ġdisc": 948,
      "?ĊĊ": 949,
      "ruct": 950,
      "Ġfind": 951,
      "Ġrese": 952,
      "Ġear": 953,
      "Ġexam": 954,
      "Ġsol": 955,
      "Ġincre": 956,
      "Ġcle": 957,
      "Ġset": 958,
      "Ġafter": 959,
      "Ġve": 960,
      "mer": 961,
      "elf": 962,
      "Ġav": 963,
      "ata": 964,
      "other": 965,
      "ology": 966,
      "land": 967,
      "cial": 968,
      "Ġyears": 969,
      "Ġelect": 970,
      "Ġwhile": 971,
      "Ġtake": 972,
      "ec": 973,
      "ality": 974,
      "Ġstart": 975,
      "ĠWh": 976,
      "Ġsmall": 977,
      "ues": 978,
      "uc": 979,
      "Ġsec": 980,
      "Ġcur": 981,
      "urn": 982,
      "ock": 983,
      "ont": 984,
      "Ġsign": 985,
      "stand": 986,
      "Ġhis": 987,
      "ied": 988,
      "ss": 989,
      "Ġher": 990,
      "ian": 991,
      "Ġfound": 992,
      "viron": 993,
      "Ġval": 994,
      "Ġresult": 995,
      "Ġdesign": 996,
      "Ġshe": 997,
      "),": 998,
      "Ġair": 999,
      "ational": 1000,
      "ergy": 1001,
      "Ġpres": 1002,
      "Ġbeing": 1003,
      "ix": 1004,
      "Ġfollow": 1005,
      "Ġref": 1006,
      "Ġbefore": 1007,
      "read": 1008,
      "Ġeas": 1009,
      "ices": 1010,
      "Ġfact": 1011,
      "nce": 1012,
      "cept": 1013,
      "ists": 1014,
      "Ġaround": 1015,
      "Ġallow": 1016,
      "Ġworld": 1017,
      "Ġpot": 1018,
      "Ġown": 1019,
      "Ġbr": 1020,
      "Ġhand": 1021,
      "Ġpower": 1022,
      "Ġent": 1023,
      "formation": 1024,
      "Ġcell": 1025,
      "ds": 1026,
      "Ġcomple": 1027,
      "Ġduring": 1028,
      "aterial": 1029,
      "Ġart": 1030,
      "air": 1031,
      "dition": 1032,
      "Ġbody": 1033,
      "Ġloc": 1034,
      "Ġdep": 1035,
      "ider": 1036,
      "Ġsame": 1037,
      "Ġlight": 1038,
      "Ġlevel": 1039,
      "Ġaut": 1040,
      "ĠUn": 1041,
      "Ġprog": 1042,
      "atter": 1043,
      "Ġdown": 1044,
      "Ġmon": 1045,
      "rop": 1046,
      "els": 1047,
      "tle": 1048,
      "Ġcall": 1049,
      "Ġread": 1050,
      "ĠWe": 1051,
      "omm": 1052,
      "Ġcontro": 1053,
      "ases": 1054,
      "Ġgl": 1055,
      "Ġcor": 1056,
      "ages": 1057,
      "eg": 1058,
      "Ġproble": 1059,
      "ward": 1060,
      "Ġbest": 1061,
      "Ġtyp": 1062,
      "Ġthose": 1063,
      "Ġkeep": 1064,
      "Ġoften": 1065,
      "Ġexpl": 1066,
      "Ġstr": 1067,
      "Ġtem": 1068,
      "Ġredu": 1069,
      "ather": 1070,
      "tern": 1071,
      "ized": 1072,
      "vironment": 1073,
      "Ġright": 1074,
      "Ġcare": 1075,
      "Ġed": 1076,
      "Ġpartic": 1077,
      "Ġperson": 1078,
      "ium": 1079,
      "Ġtoo": 1080,
      "Ġgu": 1081,
      "ives": 1082,
      "ty": 1083,
      "Ġshow": 1084,
      ".\"": 1085,
      "Ġdist": 1086,
      "ys": 1087,
      "Ġless": 1088,
      "Ġplay": 1089,
      "cer": 1090,
      "ĠFor": 1091,
      "Ġtest": 1092,
      "Ġchar": 1093,
      "chool": 1094,
      "Ġanim": 1095,
      "Ġmaterial": 1096,
      "ining": 1097,
      "Ġopt": 1098,
      "Ġvis": 1099,
      "led": 1100,
      "ats": 1101,
      "Ġlife": 1102,
      "ger": 1103,
      "Ġcommon": 1104,
      "Ġlead": 1105,
      "aw": 1106,
      "Ġsom": 1107,
      ":Ċ": 1108,
      "ĠSc": 1109,
      "Ġmade": 1110,
      "Ġbo": 1111,
      "Ġ'": 1112,
      "ets": 1113,
      "ides": 1114,
      "ew": 1115,
      "ving": 1116,
      "-b": 1117,
      "ien": 1118,
      "Ġenergy": 1119,
      "Ġboth": 1120,
      "Ġdata": 1121,
      "Ġtreat": 1122,
      "Ġbre": 1123,
      "Ġday": 1124,
      "ident": 1125,
      "Ġdr": 1126,
      "What": 1127,
      "ull": 1128,
      "Ġend": 1129,
      "Ġposs": 1130,
      "ave": 1131,
      "ath": 1132,
      "Ġmet": 1133,
      "aking": 1134,
      "iew": 1135,
      "acter": 1136,
      "Ġsaid": 1137,
      "rent": 1138,
      "ĠHe": 1139,
      "Ġadv": 1140,
      "Ġprot": 1141,
      "ars": 1142,
      "ict": 1143,
      "io": 1144,
      "ale": 1145,
      "12": 1146,
      "ethod": 1147,
      "Ġpop": 1148,
      "ited": 1149,
      "ĠPro": 1150,
      "eng": 1151,
      "ute": 1152,
      "âĢĻ": 1153,
      "Ġens": 1154,
      "ason": 1155,
      "Ġsaf": 1156,
      "der": 1157,
      "Ġplan": 1158,
      "iving": 1159,
      "Ġdef": 1160,
      "Ġinformation": 1161,
      "Ġproper": 1162,
      "reen": 1163,
      "ivers": 1164,
      "Ġhome": 1165,
      "Ġnumber": 1166,
      "Ġlit": 1167,
      "Ġcommun": 1168,
      "ng": 1169,
      "cing": 1170,
      "Ġproduct": 1171,
      "ved": 1172,
      "ĠAs": 1173,
      "up": 1174,
      "imate": 1175,
      "ĠAl": 1176,
      "any": 1177,
      "ids": 1178,
      "Ġeng": 1179,
      "Ġenvironment": 1180,
      "Ġpress": 1181,
      "Ġresp": 1182,
      "ional": 1183,
      "Ġunderstand": 1184,
      "rain": 1185,
      "ven": 1186,
      "cl": 1187,
      "How": 1188,
      "ection": 1189,
      "Ġequ": 1190,
      "oci": 1191,
      "ier": 1192,
      "Ġaw": 1193,
      "Ġben": 1194,
      "ash": 1195,
      "Ġlook": 1196,
      "Ġimpro": 1197,
      "Ġmight": 1198,
      "ves": 1199,
      "Ġdire": 1200,
      "Ġmethod": 1201,
      "Ġstudents": 1202,
      "Ġnow": 1203,
      "ivid": 1204,
      "hys": 1205,
      "Ġpoint": 1206,
      "ted": 1207,
      "the": 1208,
      "iel": 1209,
      "perature": 1210,
      "ĠThese": 1211,
      "Ġspecies": 1212,
      "ead": 1213,
      "Ġgreat": 1214,
      "ork": 1215,
      "Ġorgan": 1216,
      "Ġcent": 1217,
      "Ġprovide": 1218,
      "Ġey": 1219,
      "Ġfam": 1220,
      "Ġbetter": 1221,
      "ways": 1222,
      "Ġsupport": 1223,
      "ired": 1224,
      "Ġwithout": 1225,
      "ĠTo": 1226,
      "cent": 1227,
      "Ġplants": 1228,
      "day": 1229,
      "Ġbeh": 1230,
      "Ġresearch": 1231,
      "This": 1232,
      "ĠAn": 1233,
      "Ġactiv": 1234,
      "ĠTh": 1235,
      "Ġthink": 1236,
      "Ġop": 1237,
      "Ġstill": 1238,
      "Ġcal": 1239,
      "Ġflow": 1240,
      "Ġprof": 1241,
      "bs": 1242,
      "Ġpol": 1243,
      ":ĊĊ": 1244,
      "Ġstudy": 1245,
      "itive": 1246,
      "If": 1247,
      "Ġmaking": 1248,
      "Ġbuild": 1249,
      "Ġserv": 1250,
      "Ġaff": 1251,
      "ips": 1252,
      "inal": 1253,
      "line": 1254,
      "rap": 1255,
      "Ġexample": 1256,
      "Ġpur": 1257,
      "Ġiss": 1258,
      "Ġperform": 1259,
      "-s": 1260,
      "Ġap": 1261,
      "Ġtemperature": 1262,
      "ert": 1263,
      "Ġlarge": 1264,
      "itions": 1265,
      "ants": 1266,
      "Ġocc": 1267,
      ",\"": 1268,
      "Ġdid": 1269,
      "Ġhy": 1270,
      "...": 1271,
      "--": 1272,
      "Ġris": 1273,
      "ince": 1274,
      "ĠThere": 1275,
      "und": 1276,
      "Ġclass": 1277,
      "ĠBut": 1278,
      "ined": 1279,
      "kes": 1280,
      "less": 1281,
      "ability": 1282,
      "ior": 1283,
      "ots": 1284,
      "Ġtop": 1285,
      "Ġfew": 1286,
      "ex": 1287,
      "ering": 1288,
      "Ġagain": 1289,
      "Ġcontrol": 1290,
      "It": 1291,
      "Ġchange": 1292,
      "Ġmem": 1293,
      "ĠAnd": 1294,
      "Ġincluding": 1295,
      "15": 1296,
      "Ġcreat": 1297,
      "apt": 1298,
      "ron": 1299,
      "Ġpract": 1300,
      "Ġbenef": 1301,
      "iness": 1302,
      "ouse": 1303,
      "Ġthough": 1304,
      "Ġnat": 1305,
      "Ġblood": 1306,
      "Ġpos": 1307,
      "atch": 1308,
      "ulation": 1309,
      "Ġrun": 1310,
      "oid": 1311,
      "Ġsure": 1312,
      "Ġcaus": 1313,
      "Ġhuman": 1314,
      "Ġmeas": 1315,
      "Ġcreate": 1316,
      "Ġtype": 1317,
      "Ġthree": 1318,
      "Ġstand": 1319,
      "gen": 1320,
      "Ġdel": 1321,
      "ters": 1322,
      "Ġhard": 1323,
      "ustr": 1324,
      "ole": 1325,
      "ording": 1326,
      "-f": 1327,
      "Ġgrou": 1328,
      "ross": 1329,
      "Ġchang": 1330,
      "Ġcurrent": 1331,
      "Ġide": 1332,
      "ared": 1333,
      "ention": 1334,
      "ner": 1335,
      "Ġknown": 1336,
      "Ġcontain": 1337,
      "Ġsl": 1338,
      "ug": 1339,
      "Ġbas": 1340,
      "Ġbir": 1341,
      "Ġpain": 1342,
      "Ġhapp": 1343,
      "Ġclean": 1344,
      "iven": 1345,
      "Ġser": 1346,
      "ital": 1347,
      "Ġthings": 1348,
      "'ll": 1349,
      "Ġdise": 1350,
      "Ġappro": 1351,
      "hers": 1352,
      "Ġchildren": 1353,
      "30": 1354,
      "Ġbel": 1355,
      "ization": 1356,
      "here": 1357,
      "ething": 1358,
      "ooking": 1359,
      "Ġcause": 1360,
      "ills": 1361,
      "Ġlearn": 1362,
      "ify": 1363,
      "ĠHowever": 1364,
      "Ġarea": 1365,
      "Ġdev": 1366,
      "Ġplace": 1367,
      "Ġpotential": 1368,
      "Ġlow": 1369,
      "Ġfeel": 1370,
      "Ġmus": 1371,
      "Ġpressure": 1372,
      "Ġconst": 1373,
      "br": 1374,
      "Ġtext": 1375,
      "Ġhead": 1376,
      "aring": 1377,
      "ĠAd": 1378,
      "Ġmust": 1379,
      "Ġgr": 1380,
      "18": 1381,
      "Ġcount": 1382,
      "oms": 1383,
      "Ġsw": 1384,
      "rodu": 1385,
      "Ġschool": 1386,
      "Ġstep": 1387,
      "Ġele": 1388,
      "Ġproject": 1389,
      "Ġtry": 1390,
      "Ġreal": 1391,
      "cle": 1392,
      "Ġprevent": 1393,
      "Ġcost": 1394,
      "Ġess": 1395,
      "ism": 1396,
      "raw": 1397,
      "Ġexperience": 1398,
      "iver": 1399,
      "Ġstate": 1400,
      "Ġwhy": 1401,
      "co": 1402,
      "-t": 1403,
      "ique": 1404,
      "ĠWhen": 1405,
      "ax": 1406,
      "ator": 1407,
      "Ġsomething": 1408,
      "Ġcap": 1409,
      "Ġfunction": 1410,
      "icle": 1411,
      "'ve": 1412,
      "Ġwithin": 1413,
      "Ġwee": 1414,
      "eds": 1415,
      "Ġconf": 1416,
      "Ġphys": 1417,
      "Ġaddition": 1418,
      "11": 1419,
      "Ġcalled": 1420,
      "Ġindivid": 1421,
      "omp": 1422,
      "ered": 1423,
      "Ġdam": 1424,
      "Ġcontin": 1425,
      "Ġbus": 1426,
      "Ġsecond": 1427,
      "Ġsit": 1428,
      "ĠSo": 1429,
      "Ġable": 1430,
      "Ġconsider": 1431,
      "Ġrest": 1432,
      "ime": 1433,
      "Ġbi": 1434,
      "Ġconn": 1435,
      "pr": 1436,
      "Ġfollowing": 1437,
      "Ġinclude": 1438,
      "Ġdirect": 1439,
      "ertain": 1440,
      "ients": 1441,
      "Ġpub": 1442,
      "Ġsurf": 1443,
      "Ġreally": 1444,
      "ends": 1445,
      "Ġput": 1446,
      "me": 1447,
      "ently": 1448,
      "ank": 1449,
      "Ġmark": 1450,
      "ination": 1451,
      "-c": 1452,
      "Ġspecific": 1453,
      "Ġtre": 1454,
      "Ġanother": 1455,
      "Ġoper": 1456,
      "Ġfree": 1457,
      "Ġimm": 1458,
      "Ġpossible": 1459,
      "Ġavail": 1460,
      "Ġgoing": 1461,
      "ense": 1462,
      "St": 1463,
      "akes": 1464,
      "port": 1465,
      "Ġamount": 1466,
      "Ġlast": 1467,
      "Ġphot": 1468,
      "ental": 1469,
      "ield": 1470,
      "Ġdue": 1471,
      "Ġel": 1472,
      "iversity": 1473,
      "ling": 1474,
      "Ġprogram": 1475,
      "meric": 1476,
      "ape": 1477,
      "Ġtool": 1478,
      "ern": 1479,
      "Ġcour": 1480,
      "Ġbecome": 1481,
      "Ġmove": 1482,
      "Ġlet": 1483,
      "uss": 1484,
      "Ġlim": 1485,
      "Ġneeds": 1486,
      "Ġhere": 1487,
      "Ġalways": 1488,
      "Ġcr": 1489,
      "50": 1490,
      "ush": 1491,
      "Ġcome": 1492,
      "erest": 1493,
      "Ġlay": 1494,
      "Ġlittle": 1495,
      "Ġlot": 1496,
      "Ġnatural": 1497,
      "ee": 1498,
      "Ġsignific": 1499,
      "Ġsour": 1500,
      "ones": 1501,
      "Ġvarious": 1502,
      "ĠPl": 1503,
      "Ġimpact": 1504,
      "osed": 1505,
      "aper": 1506,
      "ems": 1507,
      "Ġland": 1508,
      "Ġsym": 1509,
      "ocus": 1510,
      "Ġanal": 1511,
      "Ġopen": 1512,
      "Ġstruct": 1513,
      "Ġcond": 1514,
      "Ġfish": 1515,
      "Ġcolor": 1516,
      "Ġident": 1517,
      "Ġcomput": 1518,
      "Ġsoil": 1519,
      "ished": 1520,
      "de": 1521,
      "Ġprovid": 1522,
      "bers": 1523,
      "Ġret": 1524,
      "Ġpar": 1525,
      "Ġcells": 1526,
      "ccess": 1527,
      "Ġlearning": 1528,
      "Ġensure": 1529,
      "Ġes": 1530,
      "Ġvol": 1531,
      "ption": 1532,
      "Ġinvol": 1533,
      "Ġcut": 1534,
      "Ġmeans": 1535,
      "sc": 1536,
      "icro": 1537,
      "Ġsever": 1538,
      "Ġfil": 1539,
      "hip": 1540,
      "ox": 1541,
      "oes": 1542,
      "Ġold": 1543,
      "Ġsay": 1544,
      "Ġspace": 1545,
      "Ġsize": 1546,
      "Ġavailable": 1547,
      "thing": 1548,
      "ected": 1549,
      "oot": 1550,
      "aves": 1551,
      "âĢĶ": 1552,
      "Ġcam": 1553,
      "Ġheat": 1554,
      "Ġaccess": 1555,
      "over": 1556,
      "Ġhig": 1557,
      "of": 1558,
      "hor": 1559,
      "iod": 1560,
      "irc": 1561,
      "Ġrange": 1562,
      "Ġtimes": 1563,
      "aste": 1564,
      "ateg": 1565,
      "ably": 1566,
      "Ġfin": 1567,
      "Ġrequire": 1568,
      "ilar": 1569,
      "Ġproblem": 1570,
      "Ġareas": 1571,
      "ended": 1572,
      "-p": 1573,
      "Ġtypes": 1574,
      "Ġappe": 1575,
      "Ġnut": 1576,
      "Ġmonth": 1577,
      "Ġpass": 1578,
      "ane": 1579,
      "arden": 1580,
      "ĠEx": 1581,
      "orn": 1582,
      "ĠAmeric": 1583,
      "Ġquality": 1584,
      "Ġest": 1585,
      "Ġgive": 1586,
      "Ġmot": 1587,
      "ocial": 1588,
      "Ġmult": 1589,
      "Ġbeg": 1590,
      "ified": 1591,
      "Ġweight": 1592,
      "fort": 1593,
      "Ġpresent": 1594,
      "af": 1595,
      "Ġside": 1596,
      "Ġsens": 1597,
      "Ġusually": 1598,
      "ration": 1599,
      "be": 1600,
      "Ġbased": 1601,
      "arent": 1602,
      "ieve": 1603,
      "Ġant": 1604,
      "Ġeffective": 1605,
      "Ġmean": 1606,
      "Ġpost": 1607,
      "Ġdeterm": 1608,
      "ĠWhich": 1609,
      "13": 1610,
      "Ġenough": 1611,
      "ending": 1612,
      "Ġcat": 1613,
      "ĠAr": 1614,
      "Ġprom": 1615,
      "urther": 1616,
      "Ġactually": 1617,
      "Ġkey": 1618,
      "ĠIs": 1619,
      "Ġcomb": 1620,
      "Ġoccur": 1621,
      "Ġorder": 1622,
      "oad": 1623,
      "Ġcertain": 1624,
      "Ġrisk": 1625,
      "Ġunt": 1626,
      "Ġseveral": 1627,
      "Ġsignificant": 1628,
      "-d": 1629,
      "Ġet": 1630,
      "Ġeduc": 1631,
      "aces": 1632,
      "pecial": 1633,
      "iting": 1634,
      "atic": 1635,
      "ision": 1636,
      "Ġfocus": 1637,
      "Ġprofess": 1638,
      "Ġinterest": 1639,
      "Ġsystems": 1640,
      "ours": 1641,
      "'m": 1642,
      "Ġlist": 1643,
      "Ġessential": 1644,
      "Ġteam": 1645,
      "Ġoil": 1646,
      "Ġapplic": 1647,
      "Ġdem": 1648,
      "__": 1649,
      "outh": 1650,
      "Ġ&": 1651,
      "ring": 1652,
      "omes": 1653,
      "view": 1654,
      "Ġscient": 1655,
      "Ġgas": 1656,
      "Ġconditions": 1657,
      "ency": 1658,
      "ĠRe": 1659,
      "Ġspecial": 1660,
      "We": 1661,
      "ah": 1662,
      "ĠCl": 1663,
      "ately": 1664,
      "ote": 1665,
      "Ġimprove": 1666,
      "Ġfeature": 1667,
      "cul": 1668,
      "Ġeffic": 1669,
      "Ġvalue": 1670,
      "ires": 1671,
      "ĠSh": 1672,
      "ances": 1673,
      "Ġparticular": 1674,
      "Ġmakes": 1675,
      "Ġanimals": 1676,
      "14": 1677,
      "Ġsal": 1678,
      "Ġdevelopment": 1679,
      "Ġcy": 1680,
      "Ġopp": 1681,
      "ware": 1682,
      "Ġrecomm": 1683,
      "con": 1684,
      "Ġfre": 1685,
      "ables": 1686,
      "az": 1687,
      "Ġmach": 1688,
      "Ġcho": 1689,
      "As": 1690,
      "Ġsound": 1691,
      "Ġdig": 1692,
      "16": 1693,
      "arc": 1694,
      "Ġtechnology": 1695,
      "oose": 1696,
      "Ġmaterials": 1697,
      "utes": 1698,
      "alk": 1699,
      "self": 1700,
      "Ġ$": 1701,
      "Ġconsum": 1702,
      "Ġbig": 1703,
      "Ġnon": 1704,
      "Ġ=": 1705,
      "Ġhist": 1706,
      "Ġdays": 1707,
      "Ġtreatment": 1708,
      "âĢĻs": 1709,
      "ories": 1710,
      "Ġfamily": 1711,
      "Ġbusiness": 1712,
      "Ġnext": 1713,
      "Ġdesc": 1714,
      "oring": 1715,
      "Ġengine": 1716,
      "When": 1717,
      "par": 1718,
      "aster": 1719,
      "ards": 1720,
      "Ġcase": 1721,
      "inter": 1722,
      "Ġrepl": 1723,
      "orts": 1724,
      "uture": 1725,
      "Ġhaving": 1726,
      "Ġwind": 1727,
      "Ġdisease": 1728,
      "Ġbehav": 1729,
      "**": 1730,
      "Ġaway": 1731,
      "ĠBe": 1732,
      "asing": 1733,
      "Ġlevels": 1734,
      "Ġnecess": 1735,
      "ustom": 1736,
      "put": 1737,
      "Ġter": 1738,
      "Ġchem": 1739,
      "oney": 1740,
      "ication": 1741,
      "Ġmill": 1742,
      "let": 1743,
      "Ġincrease": 1744,
      "Ġfull": 1745,
      "Ġsurface": 1746,
      "Ġobject": 1747,
      "ury": 1748,
      "Ġname": 1749,
      "Ġquick": 1750,
      "ĠInd": 1751,
      "ode": 1752,
      "Ġrele": 1753,
      "ames": 1754,
      "Ġsince": 1755,
      "Ġsugg": 1756,
      "Ġtoget": 1757,
      "Ġtogether": 1758,
      "ored": 1759,
      "ĠWith": 1760,
      "ott": 1761,
      "Ġdogs": 1762,
      "ĠĠĠĠ": 1763,
      "Ġfeed": 1764,
      "Ġmaintain": 1765,
      "ĠNew": 1766,
      "ipp": 1767,
      "aut": 1768,
      "Ġfore": 1769,
      "astic": 1770,
      "Ġthing": 1771,
      "Ġcirc": 1772,
      "lu": 1773,
      "Ġsuccess": 1774,
      "Ġalong": 1775,
      "Ġproblems": 1776,
      "Ġkind": 1777,
      "Ġmeasure": 1778,
      "etic": 1779,
      "Ġworking": 1780,
      "omen": 1781,
      "Ġnear": 1782,
      "Ġleg": 1783,
      "Ġperiod": 1784,
      "Ġuntil": 1785,
      "Ġvide": 1786,
      "Ġleast": 1787,
      "au": 1788,
      "olution": 1789,
      "ĠBy": 1790,
      "fer": 1791,
      "ĠThat": 1792,
      "work": 1793,
      "Ġproducts": 1794,
      "Ġshort": 1795,
      "Ġcomplete": 1796,
      "ains": 1797,
      "ĠRes": 1798,
      "Ġbra": 1799,
      "Ġdiet": 1800,
      "Ġbatter": 1801,
      "Ġearly": 1802,
      "Ġsocial": 1803,
      "Ġfac": 1804,
      "Ġenc": 1805,
      "Ġsuggest": 1806,
      "-l": 1807,
      "ember": 1808,
      "Ġprim": 1809,
      "osp": 1810,
      "ither": 1811,
      "Ġcomes": 1812,
      "Ġprotect": 1813,
      "Ġfri": 1814,
      "Ġresults": 1815,
      "fact": 1816,
      "Ġcou": 1817,
      "Ġline": 1818,
      "ological": 1819,
      "Ġlikely": 1820,
      "Ġhigher": 1821,
      "pecially": 1822,
      "Ġreason": 1823,
      "Ġmov": 1824,
      "imes": 1825,
      "Ġeasy": 1826,
      "Ġ[": 1827,
      "ĠCan": 1828,
      "Ġsing": 1829,
      "Ġgroup": 1830,
      "Ġchanges": 1831,
      "ries": 1832,
      "Ġdry": 1833,
      "Ġcourse": 1834,
      "-m": 1835,
      "ĠAt": 1836,
      "gn": 1837,
      "ised": 1838,
      "There": 1839,
      "ĠSe": 1840,
      ")ĊĊ": 1841,
      "Ġlower": 1842,
      "Ġmanage": 1843,
      "Ġreduce": 1844,
      "Ġgame": 1845,
      "ivity": 1846,
      ")Ċ": 1847,
      "ret": 1848,
      "Ġhealthy": 1849,
      "Ġsimilar": 1850,
      "You": 1851,
      "oor": 1852,
      "Ġsun": 1853,
      "Ġstrong": 1854,
      "Ġprote": 1855,
      "Ġothers": 1856,
      "rag": 1857,
      "Ġz": 1858,
      "ples": 1859,
      "Ġmodel": 1860,
      "17": 1861,
      "Ġloss": 1862,
      "Ġcheck": 1863,
      "Ġeye": 1864,
      "Ġissues": 1865,
      "Ġchall": 1866,
      "Ġsoft": 1867,
      "Ġgarden": 1868,
      "duct": 1869,
      "Ġworks": 1870,
      "Ġtru": 1871,
      "icult": 1872,
      "Ġassoci": 1873,
      "por": 1874,
      "ogn": 1875,
      "erc": 1876,
      "oint": 1877,
      "Ġmil": 1878,
      "une": 1879,
      "Ġred": 1880,
      "Ġturn": 1881,
      "Ġeat": 1882,
      "Ġcompon": 1883,
      "Ġans": 1884,
      "Ġpie": 1885,
      "Ġnever": 1886,
      "Ġfar": 1887,
      "Ġavoid": 1888,
      "Ġsum": 1889,
      "Ġfuture": 1890,
      "Ġlocal": 1891,
      "ĠUniversity": 1892,
      "ches": 1893,
      "Ġgiven": 1894,
      "jor": 1895,
      "Ġdoesn": 1896,
      "Ġprob": 1897,
      "vious": 1898,
      "Ġi": 1899,
      "Ġbook": 1900,
      "uro": 1901,
      "Ġwarm": 1902,
      "Ġmar": 1903,
      "Ġground": 1904,
      "not": 1905,
      "rect": 1906,
      "bon": 1907,
      "Ġlive": 1908,
      "ilities": 1909,
      "aging": 1910,
      "âĢ¦": 1911,
      "Ġbit": 1912,
      "man": 1913,
      "Ġmass": 1914,
      "usion": 1915,
      "ĠCon": 1916,
      "Ġweek": 1917,
      "ming": 1918,
      "ral": 1919,
      "Ġunique": 1920,
      "Ġtraining": 1921,
      "Ġaccording": 1922,
      "An": 1923,
      "Ġways": 1924,
      "Ġdone": 1925,
      "Ġgreen": 1926,
      "Ġabove": 1927,
      "Ġespecially": 1928,
      "atory": 1929,
      "agn": 1930,
      "anced": 1931,
      "Ġmind": 1932,
      "Ġorig": 1933,
      "Ġsimple": 1934,
      "Ġfr": 1935,
      "Ġpred": 1936,
      "ĠTe": 1937,
      "!ĊĊ": 1938,
      "ler": 1939,
      "Ġcustom": 1940,
      "Ġbegin": 1941,
      "NA": 1942,
      "Ġmicro": 1943,
      "Ġfour": 1944,
      "Ġsafe": 1945,
      "Ġlab": 1946,
      "40": 1947,
      "Ġhelps": 1948,
      "inc": 1949,
      "25": 1950,
      "Ġproduction": 1951,
      "joy": 1952,
      "Ġintern": 1953,
      "Ġhouse": 1954,
      "ĠSome": 1955,
      "Ġnorm": 1956,
      "Ġacross": 1957,
      "Ġheart": 1958,
      "Ġelectric": 1959,
      "ump": 1960,
      "ledge": 1961,
      "light": 1962,
      "ooks": 1963,
      "Ġrole": 1964,
      "ope": 1965,
      "Ġhim": 1966,
      "Ġpaper": 1967,
      "ression": 1968,
      "Ġdetail": 1969,
      "Ġauthor": 1970,
      "ĠYour": 1971,
      "ission": 1972,
      "21": 1973,
      "ffic": 1974,
      "fect": 1975,
      "Ġaffect": 1976,
      "Ġgrowth": 1977,
      "Ġmarket": 1978,
      "Ġtur": 1979,
      "Ġleft": 1980,
      "Ġcondition": 1981,
      "ĠCol": 1982,
      "Ġcult": 1983,
      "yle": 1984,
      "Ġregular": 1985,
      "Ġfrequ": 1986,
      "Ġdifficult": 1987,
      "Ġdamage": 1988,
      "Ġresour": 1989,
      "Ġpast": 1990,
      "ird": 1991,
      "ER": 1992,
      "Ġbacter": 1993,
      "wards": 1994,
      "Ġpublic": 1995,
      "Ġmajor": 1996,
      "ney": 1997,
      "Ġdiscuss": 1998,
      "though": 1999,
      "Ġage": 2000,
      "Ġbro": 2001,
      "Ġlooking": 2002,
      "Ġagainst": 2003,
      "Ġskin": 2004,
      "hem": 2005,
      "izing": 2006,
      "Ġflu": 2007,
      "ĠDe": 2008,
      "Ġrece": 2009,
      "verage": 2010,
      "to": 2011,
      "alf": 2012,
      "ibility": 2013,
      "ived": 2014,
      "Ġreport": 2015,
      "Ġwhite": 2016,
      "Ġsingle": 2017,
      "ators": 2018,
      "Ġwrit": 2019,
      "Ġinvest": 2020,
      "Ġvir": 2021,
      "most": 2022,
      "Ġeffects": 2023,
      "orth": 2024,
      "Ġgetting": 2025,
      "Ġabs": 2026,
      "Ġevent": 2027,
      "Ġparts": 2028,
      "ufact": 2029,
      "Ġill": 2030,
      "Ġcharacter": 2031,
      "avor": 2032,
      "ream": 2033,
      "lement": 2034,
      "Ġpet": 2035,
      "ustain": 2036,
      "Ġnet": 2037,
      "Ġresist": 2038,
      "Ġgre": 2039,
      "Ġterm": 2040,
      "Ġtoday": 2041,
      "idence": 2042,
      "ĠZ": 2043,
      "aching": 2044,
      "Ġclear": 2045,
      "Ġste": 2046,
      "etimes": 2047,
      "idd": 2048,
      "chan": 2049,
      "Ġphysical": 2050,
      "Ġonce": 2051,
      "resh": 2052,
      "Ġsmo": 2053,
      "Ġpopular": 2054,
      "ĠSp": 2055,
      "ensive": 2056,
      "Ġenjoy": 2057,
      "Ġreact": 2058,
      "ruction": 2059,
      "Ġrad": 2060,
      "lish": 2061,
      "igns": 2062,
      "Ġsafety": 2063,
      "Ġcra": 2064,
      "ising": 2065,
      "ton": 2066,
      "Ġdraw": 2067,
      "Ġwhether": 2068,
      "ĠBl": 2069,
      "Ġenh": 2070,
      "Ġmat": 2071,
      "Ġfield": 2072,
      "ym": 2073,
      "ĠEn": 2074,
      "Ġsays": 2075,
      "iment": 2076,
      "Ġcomplex": 2077,
      "Ġdesigned": 2078,
      "Ġallows": 2079,
      "Ġtri": 2080,
      "Ġclose": 2081,
      "angu": 2082,
      "To": 2083,
      "Ġach": 2084,
      "Ġnecessary": 2085,
      "Ġbal": 2086,
      "Ġwood": 2087,
      "Ġdeg": 2088,
      "Ġskills": 2089,
      "Ġfactors": 2090,
      "side": 2091,
      "ctor": 2092,
      "Ġrespons": 2093,
      "estions": 2094,
      "Ġpercent": 2095,
      "com": 2096,
      "Ġfurther": 2097,
      "Ġeither": 2098,
      "ĠOn": 2099,
      "Ġspeed": 2100,
      "Ġmatter": 2101,
      "Ġoffer": 2102,
      "Ġbenefits": 2103,
      "Ġthin": 2104,
      "ĠEng": 2105,
      "Ġtravel": 2106,
      "ploy": 2107,
      "Ġclimate": 2108,
      "Ġvac": 2109,
      "Ġdifference": 2110,
      "Ġchemical": 2111,
      "Ġcru": 2112,
      "Ġscience": 2113,
      "Ġfall": 2114,
      "Ġmedical": 2115,
      "Ġperformance": 2116,
      "Ġhold": 2117,
      "Ġprovides": 2118,
      "inary": 2119,
      "Ġanimal": 2120,
      "Ġwr": 2121,
      "ortun": 2122,
      "Ġrepres": 2123,
      "Ġhyd": 2124,
      "ĠOr": 2125,
      "Ġneeded": 2126,
      "otland": 2127,
      "Wh": 2128,
      "edi": 2129,
      "Ġegg": 2130,
      "Ġveget": 2131,
      "Ġteac": 2132,
      "Ġinteract": 2133,
      "ask": 2134,
      "60": 2135,
      "ready": 2136,
      "Ġwide": 2137,
      "Ġselect": 2138,
      "Ġpatient": 2139,
      "ift": 2140,
      "Ġability": 2141,
      "leep": 2142,
      "ery": 2143,
      "ptoms": 2144,
      "aken": 2145,
      "Ġproduce": 2146,
      "ustry": 2147,
      ",Ċ": 2148,
      "Ġsource": 2149,
      "Ġcontrib": 2150,
      "Ġblack": 2151,
      "Ġexist": 2152,
      "Ġvariety": 2153,
      "Ġcool": 2154,
      "Ġminim": 2155,
      "Ġlove": 2156,
      "Ġbuy": 2157,
      "Ġbrain": 2158,
      "hing": 2159,
      "ĠâĢĶ": 2160,
      "Ġstop": 2161,
      "Ġexperien": 2162,
      "For": 2163,
      "bo": 2164,
      "iple": 2165,
      "Ġexpect": 2166,
      "ray": 2167,
      "Ġbelow": 2168,
      "Ġconcer": 2169,
      "ĠX": 2170,
      "Ġsn": 2171,
      "Ġveh": 2172,
      "Ġpersonal": 2173,
      "ilt": 2174,
      "ĠOne": 2175,
      "istic": 2176,
      "Ġmanufact": 2177,
      "Ġarticle": 2178,
      "Ġhours": 2179,
      "ĠUS": 2180,
      "ength": 2181,
      "ule": 2182,
      "Ġpath": 2183,
      "uals": 2184,
      "Ġut": 2185,
      "Ġrecord": 2186,
      "Ġresearc": 2187,
      "Ġquestion": 2188,
      "lished": 2189,
      "Ġuser": 2190,
      "Ġindic": 2191,
      "Ġemb": 2192,
      "Ġremov": 2193,
      "era": 2194,
      "ĠPh": 2195,
      "Ġcomputer": 2196,
      "Ġknowledge": 2197,
      "ification": 2198,
      "Ġobs": 2199,
      "ann": 2200,
      "Ġvideo": 2201,
      "Ġconnect": 2202,
      "Ġcrit": 2203,
      "gar": 2204,
      "ystem": 2205,
      "Ġalready": 2206,
      "Ġindividual": 2207,
      "ening": 2208,
      "Ġdescrib": 2209,
      "Ġinit": 2210,
      "ĠInst": 2211,
      "Ġunderstanding": 2212,
      "Ġview": 2213,
      "ging": 2214,
      "li": 2215,
      "Ġtell": 2216,
      ".,": 2217,
      "Ġparent": 2218,
      "Ġseen": 2219,
      "raph": 2220,
      "Ġrequired": 2221,
      "Ġfu": 2222,
      "Ġneg": 2223,
      "ĠNo": 2224,
      "Ġbuilding": 2225,
      "overed": 2226,
      "ditional": 2227,
      "app": 2228,
      "Ġfru": 2229,
      "Ġlonger": 2230,
      "24": 2231,
      "ows": 2232,
      "Ġwhole": 2233,
      "mit": 2234,
      "Ġinside": 2235,
      "Ġwild": 2236,
      "ysis": 2237,
      "ĠAll": 2238,
      "Ġcontent": 2239,
      "Ġdoing": 2240,
      "Ġsubst": 2241,
      "ĠScotland": 2242,
      "Ġhistory": 2243,
      "for": 2244,
      "Ġvers": 2245,
      "Ġleaves": 2246,
      "Ġcoll": 2247,
      "Ġask": 2248,
      "Ġstress": 2249,
      "rown": 2250,
      "Ġcommunity": 2251,
      "Ġamong": 2252,
      "Ġcompany": 2253,
      "aps": 2254,
      "Ġactivities": 2255,
      "lection": 2256,
      "amm": 2257,
      "eter": 2258,
      "Ġmonths": 2259,
      "ding": 2260,
      "ik": 2261,
      "nam": 2262,
      "ument": 2263,
      "Ġcorrect": 2264,
      "rate": 2265,
      "ĠIm": 2266,
      "Ġelectr": 2267,
      "Ġpurp": 2268,
      "ply": 2269,
      "Ġmix": 2270,
      "Ġfat": 2271,
      "room": 2272,
      "Ġonline": 2273,
      "!Ċ": 2274,
      "Ġtree": 2275,
      "Ġbattery": 2276,
      "Ġtaking": 2277,
      "urs": 2278,
      "Ġver": 2279,
      "rel": 2280,
      "Ġmethods": 2281,
      "Ġever": 2282,
      "Ġactivity": 2283,
      "Ġhab": 2284,
      "Ġminutes": 2285,
      "Ġopportun": 2286,
      "Ġmo": 2287,
      "Ġhot": 2288,
      "Ġeasily": 2289,
      "Ġport": 2290,
      "ured": 2291,
      "Ġindustry": 2292,
      "fully": 2293,
      "Ġmole": 2294,
      "Ġla": 2295,
      "Ġcontact": 2296,
      "Ġsolution": 2297,
      "lying": 2298,
      "Ġexerc": 2299,
      "Ġanswer": 2300,
      "Ġslow": 2301,
      "Ġbar": 2302,
      "osing": 2303,
      "Ġself": 2304,
      "utions": 2305,
      "verse": 2306,
      "Ġentire": 2307,
      "upp": 2308,
      "uck": 2309,
      "iques": 2310,
      "Ġsqu": 2311,
      "Ġwar": 2312,
      "illed": 2313,
      "âĢĵ": 2314,
      "Ġstay": 2315,
      "Ġimage": 2316,
      "arget": 2317,
      "erence": 2318,
      "Ġtypically": 2319,
      "Ġtot": 2320,
      "Ġprop": 2321,
      "ĠEar": 2322,
      "Ġextra": 2323,
      "Ġassociated": 2324,
      "Ġquant": 2325,
      "Ġeducation": 2326,
      "obal": 2327,
      "Ġpan": 2328,
      "Ġisn": 2329,
      "osis": 2330,
      "Ġperfect": 2331,
      "Ġprep": 2332,
      "Ġpay": 2333,
      "Ġsitu": 2334,
      "Ġfeatures": 2335,
      "Ġjob": 2336,
      "ura": 2337,
      "Ġox": 2338,
      "Ġsustain": 2339,
      "Ġprec": 2340,
      "Ġgeneral": 2341,
      "Ġencou": 2342,
      "Ġpositive": 2343,
      "Ġbehavior": 2344,
      "Ġtools": 2345,
      "Ġdeep": 2346,
      "Ġsomeone": 2347,
      "Ġseason": 2348,
      "Ġapproach": 2349,
      "anguage": 2350,
      "Ġmention": 2351,
      "Ġstrateg": 2352,
      "ges": 2353,
      "Ġsymptoms": 2354,
      "Ġidea": 2355,
      "Ġmechan": 2356,
      "eral": 2357,
      "ae": 2358,
      "amp": 2359,
      "Ġaddress": 2360,
      "sel": 2361,
      "reng": 2362,
      "Al": 2363,
      "Ġoptim": 2364,
      "ĠQu": 2365,
      "Ġyoung": 2366,
      "Ġcomfort": 2367,
      "aving": 2368,
      "just": 2369,
      "Ġjour": 2370,
      "ores": 2371,
      "80": 2372,
      "Ġmoney": 2373,
      "Ġhumans": 2374,
      "nces": 2375,
      "Ġetc": 2376,
      "cre": 2377,
      "Ġwa": 2378,
      "Ġbreak": 2379,
      "-w": 2380,
      "Ġquestions": 2381,
      "itch": 2382,
      "ales": 2383,
      "Ġrate": 2384,
      "idered": 2385,
      "Ġquickly": 2386,
      "aches": 2387,
      "use": 2388,
      ".\"Ċ": 2389,
      "-based": 2390,
      "Ġfit": 2391,
      "Ġbring": 2392,
      "cell": 2393,
      "Ġinstall": 2394,
      "ctions": 2395,
      "Ġsuper": 2396,
      "aily": 2397,
      "Ġharm": 2398,
      "22": 2399,
      "Ch": 2400,
      "Ġcold": 2401,
      ").Ċ": 2402,
      "Ġhalf": 2403,
      "Ġgot": 2404,
      "by": 2405,
      "Ġcrucial": 2406,
      "ina": 2407,
      "ises": 2408,
      "Ġyourself": 2409,
      "Ġcases": 2410,
      "Ġpatients": 2411,
      "Ġpoll": 2412,
      "tic": 2413,
      "Ġcarbon": 2414,
      "ene": 2415,
      "Ġchalleng": 2416,
      "mon": 2417,
      "iency": 2418,
      "Ġprobably": 2419,
      "So": 2420,
      "Ġrather": 2421,
      "Ġconsidered": 2422,
      "Ġnature": 2423,
      "Ġstra": 2424,
      "Ġpractice": 2425,
      "Ġthought": 2426,
      "ung": 2427,
      "Ġappl": 2428,
      "Ġliving": 2429,
      "ĠWor": 2430,
      "Ġmeet": 2431,
      "Ġoverall": 2432,
      "Ġrelations": 2433,
      "aling": 2434,
      "selves": 2435,
      "ume": 2436,
      "ounds": 2437,
      "Ġstructure": 2438,
      "Ġhor": 2439,
      "cks": 2440,
      "Ġeyes": 2441,
      "erous": 2442,
      "ibr": 2443,
      "Ġattention": 2444,
      "Ġgrowing": 2445,
      "Ġconduct": 2446,
      "ĠAI": 2447,
      "ĠCO": 2448,
      "aced": 2449,
      "ites": 2450,
      "Ġhowever": 2451,
      "Ġcollect": 2452,
      "Ġrecogn": 2453,
      "ze": 2454,
      "Ġball": 2455,
      "ograp": 2456,
      "Ġexc": 2457,
      "Ġcancer": 2458,
      "Ġlayer": 2459,
      "Ġ.": 2460,
      "Ġing": 2461,
      "Ġsleep": 2462,
      "Ġposition": 2463,
      "Ġmanagement": 2464,
      "Ġer": 2465,
      "Ġprotein": 2466,
      "ties": 2467,
      "Ġfeet": 2468,
      "Ġwall": 2469,
      "ĠAmerican": 2470,
      "Ġmachine": 2471,
      "Ġresearchers": 2472,
      "itable": 2473,
      "Ġenvironmental": 2474,
      "Ġappear": 2475,
      "IN": 2476,
      "Ġdevice": 2477,
      "ands": 2478,
      "erve": 2479,
      "Ġpri": 2480,
      "ext": 2481,
      "onst": 2482,
      "Ġwomen": 2483,
      "Ġlater": 2484,
      "aged": 2485,
      "reme": 2486,
      "Ġthroughout": 2487,
      "itor": 2488,
      "Ġfail": 2489,
      "Ġcompet": 2490,
      "Ġintrodu": 2491,
      "Ġprofessional": 2492,
      "Ġpack": 2493,
      "Ġstreng": 2494,
      "Ġcreating": 2495,
      "Ġlarger": 2496,
      "rams": 2497,
      "Ġassess": 2498,
      "Ġsam": 2499,
      "eding": 2500,
      "Ġincludes": 2501,
      "Th": 2502,
      "Ġtakes": 2503,
      "Ġcook": 2504,
      "Ġlif": 2505,
      "Ġchoose": 2506,
      "acks": 2507,
      ".\"ĊĊ": 2508,
      "Ġfarm": 2509,
      "Ġsimply": 2510,
      "iation": 2511,
      "Ġissue": 2512,
      "play": 2513,
      "Ġfast": 2514,
      "Ġweather": 2515,
      "Ġcauses": 2516,
      "amin": 2517,
      "ĠCent": 2518,
      "ĠGu": 2519,
      "23": 2520,
      "ropri": 2521,
      "pro": 2522,
      "Ġwinter": 2523,
      "rogen": 2524,
      "----": 2525,
      "Ġaud": 2526,
      "Ġindividuals": 2527,
      "Ġtarget": 2528,
      "ĠWhile": 2529,
      "sy": 2530,
      "Ġmillion": 2531,
      "ĠShe": 2532,
      "Ġtechniques": 2533,
      "Ġservice": 2534,
      "oll": 2535,
      "ĠComp": 2536,
      "Ġcover": 2537,
      "Ġresources": 2538,
      "uff": 2539,
      "Ġoptions": 2540,
      "way": 2541,
      "Ġfram": 2542,
      "Ġcreated": 2543,
      "Ġnormal": 2544,
      "ellow": 2545,
      "conom": 2546,
      "Ġinteg": 2547,
      "val": 2548,
      "ĠTr": 2549,
      "Ġcapt": 2550,
      "Ġprimary": 2551,
      "lor": 2552,
      "Ġconsist": 2553,
      "Ġactive": 2554,
      "Ġinflu": 2555,
      "Ġinstead": 2556,
      "lease": 2557,
      "Ġuses": 2558,
      "Ġemploy": 2559,
      "Ġsubject": 2560,
      "hern": 2561,
      "Ġroom": 2562,
      "Ġbacteria": 2563,
      "Ġshows": 2564,
      "Ġadapt": 2565,
      "Ġrepresent": 2566,
      "lex": 2567,
      "Ġaverage": 2568,
      "Ġsepar": 2569,
      "Ġfoods": 2570,
      "Ġwon": 2571,
      "Ġcompan": 2572,
      "Ġfib": 2573,
      "rict": 2574,
      "Ġcannot": 2575,
      "Ġlog": 2576,
      "ĠDr": 2577,
      "Ġbeaut": 2578,
      "Ġoutside": 2579,
      "90": 2580,
      "Ġproviding": 2581,
      "Ġann": 2582,
      "Ġfund": 2583,
      "ulations": 2584,
      "Ġquite": 2585,
      "Ġpict": 2586,
      "nov": 2587,
      "Ad": 2588,
      "Ġaccount": 2589,
      "ned": 2590,
      "ĠCal": 2591,
      "Ġpopulation": 2592,
      "Ġconcept": 2593,
      "umb": 2594,
      "Ġfront": 2595,
      "Ġheav": 2596,
      "Ġincreased": 2597,
      "Ġdetermine": 2598,
      "ĠCar": 2599,
      "Ġidentify": 2600,
      "Ġyet": 2601,
      "Ġforce": 2602,
      "Ġaltern": 2603,
      "Ġbad": 2604,
      "Ġdeveloped": 2605,
      "ĠLe": 2606,
      "ipment": 2607,
      "ĠHere": 2608,
      "izes": 2609,
      "Ġremove": 2610,
      "AT": 2611,
      "Ġincreasing": 2612,
      "Ġadult": 2613,
      "xim": 2614,
      "Ġautom": 2615,
      "Ġlaw": 2616,
      "Ġgover": 2617,
      "Ġmen": 2618,
      "ĠDo": 2619,
      "Ġparticip": 2620,
      "Ġefficient": 2621,
      "Ġwebs": 2622,
      "Ġbirds": 2623,
      "icles": 2624,
      "ils": 2625,
      "Ġtraditional": 2626,
      "Ġreading": 2627,
      "-in": 2628,
      "Ġservices": 2629,
      "earch": 2630,
      "Ġmetal": 2631,
      "Ġdevices": 2632,
      "Ġplastic": 2633,
      "Ġsite": 2634,
      "Ġbab": 2635,
      "urope": 2636,
      "igure": 2637,
      "Ġtend": 2638,
      "ĠComm": 2639,
      "Ġsoftware": 2640,
      "Ġsense": 2641,
      "Ġwords": 2642,
      "Ġcountry": 2643,
      "Ġstandard": 2644,
      "Ġexact": 2645,
      "Ġseem": 2646,
      "Ġtaken": 2647,
      "Ġnight": 2648,
      "Ġshape": 2649,
      "Ġbasic": 2650,
      "Ġtrees": 2651,
      "Ġadvant": 2652,
      "illing": 2653,
      "ival": 2654,
      "Ġlanguage": 2655,
      "Ġtable": 2656,
      "aim": 2657,
      "ese": 2658,
      "Ġdark": 2659,
      "ĠMed": 2660,
      "Ġprevious": 2661,
      "Ġsometimes": 2662,
      "cies": 2663,
      "Ġlength": 2664,
      "where": 2665,
      "Ġbur": 2666,
      "Ġfoot": 2667,
      "rug": 2668,
      "Ġsil": 2669,
      "Ġblock": 2670,
      "Ġrelated": 2671,
      "ground": 2672,
      "ison": 2673,
      "Ġang": 2674,
      "asons": 2675,
      "sect": 2676,
      "Ġanything": 2677,
      "Ġface": 2678,
      "Ġdy": 2679,
      "Ġhappen": 2680,
      "urity": 2681,
      "Ġalmost": 2682,
      "ĠNational": 2683,
      "Ġelements": 2684,
      "Ġstudies": 2685,
      "ĠUs": 2686,
      "atively": 2687,
      "ĠUnited": 2688,
      "yl": 2689,
      "Ġextreme": 2690,
      "Ġsummer": 2691,
      "ĠApp": 2692,
      "Ġsat": 2693,
      "Ġteeth": 2694,
      "rad": 2695,
      "Ġchoice": 2696,
      "Ġwaste": 2697,
      "ervation": 2698,
      "icial": 2699,
      "Ġdaily": 2700,
      "Ġbehind": 2701,
      "ched": 2702,
      "Ġdefin": 2703,
      "Ġcomponents": 2704,
      "Ġdri": 2705,
      "Ġgenerally": 2706,
      "Ġcop": 2707,
      "uit": 2708,
      "Ġmedic": 2709,
      "Ġspread": 2710,
      "Ġsteps": 2711,
      "oon": 2712,
      "ouch": 2713,
      "Ġcaused": 2714,
      "Why": 2715,
      "Ġec": 2716,
      "ement": 2717,
      "ged": 2718,
      "Ġcapac": 2719,
      "Ġsugar": 2720,
      "Ġfem": 2721,
      "mb": 2722,
      "Ġfresh": 2723,
      "aff": 2724,
      "Ġtiss": 2725,
      "Ġstarted": 2726,
      "ES": 2727,
      "ipe": 2728,
      "Ġice": 2729,
      "âĢĿ": 2730,
      "Ġfive": 2731,
      "Ġoffers": 2732,
      "Ġstudent": 2733,
      "Ġexplain": 2734,
      "Ġones": 2735,
      "Ġadditional": 2736,
      "Ġwond": 2737,
      "alking": 2738,
      "Ġtotal": 2739,
      "One": 2740,
      "Ġremain": 2741,
      "ĠAf": 2742,
      "ĠFe": 2743,
      "Ġtrying": 2744,
      "Ġscientists": 2745,
      "Ġgain": 2746,
      "ĠAfter": 2747,
      "Ġcontinu": 2748,
      "Ġkids": 2749,
      "Ġmodern": 2750,
      "Ġbelieve": 2751,
      "Ġbird": 2752,
      "Ġmultiple": 2753,
      "Ġunit": 2754,
      "Ġrob": 2755,
      "Ġestab": 2756,
      "70": 2757,
      "iddle": 2758,
      "Ġcontroll": 2759,
      "Ġtrue": 2760,
      "gest": 2761,
      "Ġitems": 2762,
      "ograph": 2763,
      ").ĊĊ": 2764,
      "imately": 2765,
      "Ġevents": 2766,
      "Ġprovided": 2767,
      "Ġfuel": 2768,
      "ĠCont": 2769,
      "Ġglobal": 2770,
      ".S": 2771,
      "ians": 2772,
      "asc": 2773,
      "Ġge": 2774,
      "ĠHealth": 2775,
      "Ġeconom": 2776,
      "Ġmagn": 2777,
      "ecause": 2778,
      "ED": 2779,
      "Ġeverything": 2780,
      "Ġguide": 2781,
      "icy": 2782,
      "Ġsmaller": 2783,
      "Ġmom": 2784,
      "ension": 2785,
      "rig": 2786,
      "oses": 2787,
      "elling": 2788,
      "Ġanalysis": 2789,
      "Ġhabit": 2790,
      "Ġcompared": 2791,
      "Ġreplace": 2792,
      "Ġassist": 2793,
      "min": 2794,
      "AR": 2795,
      "Ġ/": 2796,
      "Ġir": 2797,
      "arily": 2798,
      "Ġrequires": 2799,
      "ences": 2800,
      "cean": 2801,
      "Ġarr": 2802,
      "Ġgames": 2803,
      "abor": 2804,
      "onse": 2805,
      "Ġgovern": 2806,
      "OT": 2807,
      "Â°": 2808,
      "augh": 2809,
      "Ġgroups": 2810,
      "ules": 2811,
      "Ġprior": 2812,
      "Ġregard": 2813,
      "Ġreview": 2814,
      "ĠEurope": 2815,
      "sh": 2816,
      "Ġinj": 2817,
      "Ġappropri": 2818,
      "Ġfire": 2819,
      "Ġthemselves": 2820,
      "Ġshown": 2821,
      "Ġnumbers": 2822,
      "Ġapplications": 2823,
      "Ġterms": 2824,
      "oh": 2825,
      "Ġswe": 2826,
      "Ġsea": 2827,
      "Ġstory": 2828,
      "Ġequipment": 2829,
      "raft": 2830,
      "Ġcalcul": 2831,
      "Ġdirectly": 2832,
      "Ġpurch": 2833,
      "Ġcard": 2834,
      "rist": 2835,
      "Ġbott": 2836,
      "Ġmor": 2837,
      "ley": 2838,
      "ĠCons": 2839,
      "Ġshare": 2840,
      "Ġmentioned": 2841,
      "Ġseeds": 2842,
      "Ġrout": 2843,
      "ĠFr": 2844,
      "ditionally": 2845,
      "AS": 2846,
      "Ġrecommend": 2847,
      "ĠOf": 2848,
      "Ġemerg": 2849,
      "-g": 2850,
      "Ġbelie": 2851,
      "Pro": 2852,
      "Ġsolar": 2853,
      "ON": 2854,
      "ĠAm": 2855,
      "Ġadded": 2856,
      "Ġproperties": 2857,
      "Ġeggs": 2858,
      "ĠEarth": 2859,
      "Ġitself": 2860,
      "Ġemot": 2861,
      "Ġbox": 2862,
      "ĠKe": 2863,
      "ners": 2864,
      "rapy": 2865,
      "Ġmess": 2866,
      "Ġnutri": 2867,
      "ino": 2868,
      "'d": 2869,
      "oph": 2870,
      "Ġsupply": 2871,
      "Ġvacc": 2872,
      "Ġguid": 2873,
      "Ġparticularly": 2874,
      "unch": 2875,
      "Ġadjust": 2876,
      "iring": 2877,
      "...ĊĊ": 2878,
      "Ġsurv": 2879,
      "iot": 2880,
      "Ġhar": 2881,
      "Ġload": 2882,
      "Ġago": 2883,
      "Ġdigital": 2884,
      "ID": 2885,
      "ights": 2886,
      "sych": 2887,
      "Ġlink": 2888,
      "nter": 2889,
      "ĠDes": 2890,
      "ription": 2891,
      "ĠStud": 2892,
      "Ġingred": 2893,
      "Ġaspect": 2894,
      "ĠStates": 2895,
      "artment": 2896,
      "Ġacid": 2897,
      "clusion": 2898,
      "Ġaware": 2899,
      "new": 2900,
      "rim": 2901,
      "Ġtowards": 2902,
      "Ġweeks": 2903,
      "ccording": 2904,
      "hib": 2905,
      "Ġ--": 2906,
      "Ġexplore": 2907,
      "Ġoption": 2908,
      "Ex": 2909,
      "ana": 2910,
      "ĠCo": 2911,
      "Ġdiagn": 2912,
      "Ġur": 2913,
      "Ġeating": 2914,
      "abet": 2915,
      "ĠMay": 2916,
      "Ġther": 2917,
      "iles": 2918,
      "Ġrot": 2919,
      "Ġrecommended": 2920,
      "ulate": 2921,
      "Ġconcent": 2922,
      "Ġparents": 2923,
      "Ġuseful": 2924,
      "Ġachieve": 2925,
      "Ġdou": 2926,
      "ively": 2927,
      "Ġimmedi": 2928,
      "tage": 2929,
      "Ġcats": 2930,
      "Ġdom": 2931,
      "Ġtransport": 2932,
      "Ġglass": 2933,
      "vant": 2934,
      "itud": 2935,
      "Ġattract": 2936,
      "Ġvisit": 2937,
      "Ġstri": 2938,
      "Ġmaxim": 2939,
      "ĠMy": 2940,
      "aries": 2941,
      "ustral": 2942,
      "pper": 2943,
      "Ġtips": 2944,
      "irm": 2945,
      "Ġpret": 2946,
      "osure": 2947,
      "isms": 2948,
      "Ġstat": 2949,
      "Ġeveryone": 2950,
      "Ġstore": 2951,
      "Ġalg": 2952,
      "Ġrespect": 2953,
      "Ġvehicle": 2954,
      "Ġproperly": 2955,
      "Ġpurpose": 2956,
      "ls": 2957,
      "Ġprice": 2958,
      "ronic": 2959,
      "come": 2960,
      "Ġinfect": 2961,
      "wh": 2962,
      "inct": 2963,
      "Ġdistrib": 2964,
      "Ġelse": 2965,
      "acy": 2966,
      "Ġseems": 2967,
      "Ġimplement": 2968,
      "Ġfriend": 2969,
      "rees": 2970,
      "-st": 2971,
      "rated": 2972,
      "rec": 2973,
      "Ġmodels": 2974,
      "Ġconstant": 2975,
      "Ġdecre": 2976,
      "Ġbag": 2977,
      "Ġdang": 2978,
      "Ġmoist": 2979,
      "Ġhun": 2980,
      "Ġresponse": 2981,
      "Ġelectrical": 2982,
      "aur": 2983,
      "Ġpoints": 2984,
      "vere": 2985,
      "Ġreach": 2986,
      "Ġsequ": 2987,
      "Ġbrand": 2988,
      "ades": 2989,
      "But": 2990,
      "ĠAre": 2991,
      "ĠAss": 2992,
      "ĠNorth": 2993,
      "Ġproduced": 2994,
      "Ġdest": 2995,
      "Ġdoc": 2996,
      "Ġhighly": 2997,
      "sequ": 2998,
      "Ġapplication": 2999,
      "Ġfamil": 3000,
      "Ġrunning": 3001,
      "pid": 3002,
      "orpor": 3003,
      "Ġkit": 3004,
      "Ġmeat": 3005,
      "tenance": 3006,
      "like": 3007,
      "Ġfix": 3008,
      "vert": 3009,
      "Ġinvolved": 3010,
      "Ġbenefit": 3011,
      "ygen": 3012,
      "Ġtesting": 3013,
      "ĠAfric": 3014,
      "alu": 3015,
      "Ġwear": 3016,
      "reg": 3017,
      "Ġrain": 3018,
      "emic": 3019,
      "itation": 3020,
      "Ġcommunication": 3021,
      "Ġexercise": 3022,
      "ĠNot": 3023,
      "Ġflowers": 3024,
      "Ġinitial": 3025,
      "____": 3026,
      "Ġeasier": 3027,
      "\",": 3028,
      "ests": 3029,
      "Ġaction": 3030,
      "Ġlo": 3031,
      "-to": 3032,
      "Ġcontinue": 3033,
      "ĠTra": 3034,
      "Ġpiece": 3035,
      "Sh": 3036,
      "wise": 3037,
      "Ġbase": 3038,
      "rition": 3039,
      "ĠUse": 3040,
      "Ġmotor": 3041,
      "oles": 3042,
      "ĠNe": 3043,
      "Ġmembers": 3044,
      "Ġsix": 3045,
      "isc": 3046,
      "Ġsearch": 3047,
      "Ġroad": 3048,
      "AN": 3049,
      "Ġdrug": 3050,
      "Ġregion": 3051,
      "Ġready": 3052,
      "Ġwebsite": 3053,
      "cles": 3054,
      "Ġcolors": 3055,
      "ĠâĢ¦": 3056,
      "Is": 3057,
      "Ġdidn": 3058,
      "istics": 3059,
      "Ġobserv": 3060,
      "Ġlives": 3061,
      "Ġcamp": 3062,
      "fl": 3063,
      "Ġrefer": 3064,
      "Ġful": 3065,
      "char": 3066,
      "Ġspring": 3067,
      "yp": 3068,
      "Ġbalance": 3069,
      "Ġinsect": 3070,
      "ĠMe": 3071,
      "Ġleading": 3072,
      "icate": 3073,
      "ĠYes": 3074,
      "ricult": 3075,
      "head": 3076,
      "iding": 3077,
      "Ġanaly": 3078,
      "Ġliqu": 3079,
      "oming": 3080,
      "Ġcamera": 3081,
      "Be": 3082,
      "Ġcode": 3083,
      "ĠGen": 3084,
      "Ġfriends": 3085,
      "back": 3086,
      "ister": 3087,
      "ĠThen": 3088,
      "Ġsuitable": 3089,
      "Ġword": 3090,
      "ĠMore": 3091,
      "Ġworth": 3092,
      "Ġserious": 3093,
      "urer": 3094,
      "Ġmedia": 3095,
      "Ġsus": 3096,
      "ĠâĢľ": 3097,
      "ĠMost": 3098,
      "Ġdro": 3099,
      "Ġclaim": 3100,
      "Ġoutput": 3101,
      "Ġgets": 3102,
      "airs": 3103,
      "Ġseries": 3104,
      "Ġorganic": 3105,
      "Ġutil": 3106,
      "ography": 3107,
      "Ġstyle": 3108,
      "rehe": 3109,
      "anks": 3110,
      "Ġvalues": 3111,
      "Ġmeaning": 3112,
      "Ġbed": 3113,
      "Ġearth": 3114,
      "EN": 3115,
      "Ġhearing": 3116,
      "Ġtemperatures": 3117,
      "Ġproced": 3118,
      "Ġcompletely": 3119,
      "-h": 3120,
      "omet": 3121,
      "ĠInt": 3122,
      "Ġblue": 3123,
      "Ġefficiency": 3124,
      "Ġinnov": 3125,
      "Ġcosts": 3126,
      "Ġnetwork": 3127,
      "ĠMany": 3128,
      "Ġdiseases": 3129,
      "Ġvit": 3130,
      "Ġreasons": 3131,
      "Ġstrength": 3132,
      "go": 3133,
      "ancy": 3134,
      "Ġresistance": 3135,
      "Ġbul": 3136,
      "ĠAb": 3137,
      "Ġallowing": 3138,
      "ociety": 3139,
      "Ġmusic": 3140,
      "Ġenhance": 3141,
      "Ġinput": 3142,
      "Ġseed": 3143,
      "Ġrecent": 3144,
      "Ġcontains": 3145,
      "Ġappropriate": 3146,
      "Can": 3147,
      "vest": 3148,
      "Ġlines": 3149,
      "Ġlocation": 3150,
      "fficient": 3151,
      "Ġfruit": 3152,
      "Ġmilk": 3153,
      "Ġnegative": 3154,
      "che": 3155,
      "ĠMod": 3156,
      "Ġprotection": 3157,
      "ĠAustral": 3158,
      "Ġprefer": 3159,
      "Ġsurround": 3160,
      "Ġsection": 3161,
      "Ġprint": 3162,
      "Ġcommonly": 3163,
      "Ġreturn": 3164,
      "mission": 3165,
      "Ġtalk": 3166,
      "iful": 3167,
      "Ġgreater": 3168,
      "ĠPer": 3169,
      "Ġrare": 3170,
      "Ġnews": 3171,
      "Ġsand": 3172,
      "orage": 3173,
      "Ġscreen": 3174,
      "Ġgoes": 3175,
      "Ġforest": 3176,
      "terns": 3177,
      "Ġpretty": 3178,
      "Ġ+": 3179,
      "Ġevidence": 3180,
      "Ġtransform": 3181,
      "ĠFrom": 3182,
      "Ġcarry": 3183,
      "Ġcountries": 3184,
      "Ġaim": 3185,
      "Ġgraph": 3186,
      "enn": 3187,
      "Ġgoal": 3188,
      "Ġevolution": 3189,
      "Ġmemory": 3190,
      "Ġgrass": 3191,
      "nal": 3192,
      "ĠSchool": 3193,
      "Ġusers": 3194,
      "Ġhands": 3195,
      "Ġsources": 3196,
      "Ġtub": 3197,
      "Ġthreat": 3198,
      "Ġpage": 3199,
      "01": 3200,
      "Ġdeath": 3201,
      "aks": 3202,
      "inate": 3203,
      "Ġtouch": 3204,
      "Ġlimited": 3205,
      "more": 3206,
      "ĠDNA": 3207,
      "Cl": 3208,
      "rast": 3209,
      "itute": 3210,
      "Ġimages": 3211,
      "ĠMan": 3212,
      "Ġoriginal": 3213,
      "Ġtail": 3214,
      "ĠPre": 3215,
      "Ġvisual": 3216,
      "Ġcross": 3217,
      "Ġexcept": 3218,
      "Ġrat": 3219,
      "ĠDep": 3220,
      "Ġmoving": 3221,
      "uted": 3222,
      "Ġhair": 3223,
      "Ġarg": 3224,
      "Ġproperty": 3225,
      "Ġleave": 3226,
      "ĠGo": 3227,
      "Ġ|": 3228,
      "ĠIntern": 3229,
      "Ġsignal": 3230,
      "Ġdepending": 3231,
      "ĠWhy": 3232,
      "Ġdeal": 3233,
      "rick": 3234,
      "lands": 3235,
      "Ġcharge": 3236,
      "Ġobtain": 3237,
      "Ġcleaning": 3238,
      "-e": 3239,
      "osition": 3240,
      "Ġinstruct": 3241,
      "Ġinfection": 3242,
      "Ġcompanies": 3243,
      "ĠPe": 3244,
      "AC": 3245,
      "oe": 3246,
      "ror": 3247,
      "ached": 3248,
      "ightly": 3249,
      "Ġprocesses": 3250,
      "Ġforms": 3251,
      "Ġindustr": 3252,
      "overy": 3253,
      "Ġfavor": 3254,
      "Ġlat": 3255,
      "Ġpatterns": 3256,
      "ops": 3257,
      "With": 3258,
      "bol": 3259,
      "elt": 3260,
      "issions": 3261,
      "term": 3262,
      "ĠScience": 3263,
      "Step": 3264,
      "Ġfine": 3265,
      "While": 3266,
      "Ġmental": 3267,
      "Ġabsor": 3268,
      "Ġhope": 3269,
      "Ġx": 3270,
      "Ġprograms": 3271,
      "OR": 3272,
      "Ġ,": 3273,
      "Ġexcess": 3274,
      "These": 3275,
      "Ġroot": 3276,
      "Ġcritical": 3277,
      "care": 3278,
      "Ġfert": 3279,
      "ried": 3280,
      "Ġremember": 3281,
      "yond": 3282,
      "Ġspeak": 3283,
      "He": 3284,
      "orith": 3285,
      "Ġjo": 3286,
      "Ġdemonst": 3287,
      "Ġbaby": 3288,
      "ĠPr": 3289,
      "Ġbreat": 3290,
      "Ġdisplay": 3291,
      "Ġbuilt": 3292,
      "Ġbud": 3293,
      "Ġevalu": 3294,
      "uge": 3295,
      "zz": 3296,
      "Ġsuff": 3297,
      "ellig": 3298,
      "Ġ#": 3299,
      "Ġaqu": 3300,
      "istry": 3301,
      "ĠWorld": 3302,
      "abetes": 3303,
      "ĠSouth": 3304,
      "Ġsave": 3305,
      "Ġimportance": 3306,
      "load": 3307,
      "Ġoxygen": 3308,
      "amed": 3309,
      "ĠReg": 3310,
      "Ġapply": 3311,
      "Ġsigns": 3312,
      "Ġwatch": 3313,
      "Ġpick": 3314,
      "Ġprogress": 3315,
      "Ġcurrently": 3316,
      "Ġconstruction": 3317,
      "><": 3318,
      "tings": 3319,
      "ero": 3320,
      "Ġthick": 3321,
      "iny": 3322,
      "inally": 3323,
      "They": 3324,
      "Ġoutd": 3325,
      "Ġtransfer": 3326,
      "Ġdeveloping": 3327,
      "Ġcenter": 3328,
      "Ġmovement": 3329,
      "Ġscientific": 3330,
      "Con": 3331,
      "Ġvoltage": 3332,
      "Ġhost": 3333,
      "Ġlate": 3334,
      "vey": 3335,
      "atives": 3336,
      "ma": 3337,
      "Ġprojects": 3338,
      "Ġpoly": 3339,
      "Ġmuscle": 3340,
      "mber": 3341,
      "Ġcro": 3342,
      "ula": 3343,
      "Ġreflect": 3344,
      "Ġfactor": 3345,
      "Ġshap": 3346,
      "Ġbutter": 3347,
      "Ġaccept": 3348,
      "Ġmaintenance": 3349,
      "Ġkn": 3350,
      "Ġsoon": 3351,
      "Ġjourney": 3352,
      "water": 3353,
      "ĠLear": 3354,
      "epend": 3355,
      "Ġpublished": 3356,
      "Ġtherm": 3357,
      "abric": 3358,
      "Ġchallenges": 3359,
      "arian": 3360,
      "Ġinvolves": 3361,
      "set": 3362,
      "Ġgar": 3363,
      "onds": 3364,
      "35": 3365,
      "iable": 3366,
      "Ġdirection": 3367,
      "Ġideal": 3368,
      "hood": 3369,
      "ĠAmerica": 3370,
      "asks": 3371,
      "Ġlens": 3372,
      "Ġdetect": 3373,
      "ucle": 3374,
      "Ġensuring": 3375,
      "rum": 3376,
      "Ġsent": 3377,
      "odies": 3378,
      "Ġsevere": 3379,
      "Ġplat": 3380,
      "Ġgovernment": 3381,
      "ĠChe": 3382,
      "Ġideas": 3383,
      "Ġapplied": 3384,
      "Ġstates": 3385,
      "Ġexpress": 3386,
      "Ġaren": 3387,
      "By": 3388,
      "cking": 3389,
      "Ġvary": 3390,
      "Ġupon": 3391,
      "standing": 3392,
      "Ġgives": 3393,
      "Ġimag": 3394,
      "Ġdrive": 3395,
      "Ġelement": 3396,
      "Ġtask": 3397,
      "Ġult": 3398,
      "Ġcooking": 3399,
      "Ġalgorith": 3400,
      "life": 3401,
      "Ġmouth": 3402,
      "irt": 3403,
      "Ġexcell": 3404,
      "Ġowners": 3405,
      "oud": 3406,
      "order": 3407,
      "Ġrev": 3408,
      "ologies": 3409,
      "Ġvalu": 3410,
      "Ġobjects": 3411,
      "IS": 3412,
      "Ġcolle": 3413,
      "ocks": 3414,
      "At": 3415,
      "Ġfinal": 3416,
      "ĠResearch": 3417,
      "Ġprinc": 3418,
      "Ġthinking": 3419,
      "Ġcame": 3420,
      "isions": 3421,
      "Ġgene": 3422,
      "Ġnothing": 3423,
      "ĠGl": 3424,
      "Ġpen": 3425,
      "Ġpattern": 3426,
      "Ġpredict": 3427,
      "Ġstarting": 3428,
      "empt": 3429,
      "iet": 3430,
      "Ġanc": 3431,
      "Ġchick": 3432,
      "Ġaccur": 3433,
      "erson": 3434,
      "ensity": 3435,
      "Ġvegetables": 3436,
      "ĠAct": 3437,
      "iforn": 3438,
      "Ġinfl": 3439,
      "Ġthr": 3440,
      "Ġsetting": 3441,
      "26": 3442,
      "Ġsmooth": 3443,
      "28": 3444,
      "aly": 3445,
      "idge": 3446,
      "ster": 3447,
      "ulated": 3448,
      "Ġpowerful": 3449,
      "hips": 3450,
      "ony": 3451,
      "Ġinform": 3452,
      "ros": 3453,
      "ifically": 3454,
      "Ġsolutions": 3455,
      "rehens": 3456,
      "rew": 3457,
      "ĠOur": 3458,
      "Ġsuccessful": 3459,
      "Ġcomponent": 3460,
      "Ġpractices": 3461,
      "Ġpieces": 3462,
      "Ġbottom": 3463,
      "Ġbecomes": 3464,
      "Ġforward": 3465,
      "Ġtook": 3466,
      "Ġvirus": 3467,
      "Ġingredients": 3468,
      "Ġstorage": 3469,
      "Ġteaching": 3470,
      "Ġcentury": 3471,
      "den": 3472,
      "Ġthird": 3473,
      "Ġpriv": 3474,
      "Ġhappens": 3475,
      "Ġrich": 3476,
      "ffect": 3477,
      "Ġspot": 3478,
      "Ġadding": 3479,
      "Ġlimit": 3480,
      "Ġcapacity": 3481,
      "On": 3482,
      "Ġfro": 3483,
      "Ġcalc": 3484,
      "Ġtissue": 3485,
      "Ġrock": 3486,
      "Ġvision": 3487,
      "Ġstraight": 3488,
      "ĠAlso": 3489,
      "board": 3490,
      "Ġbeautiful": 3491,
      "And": 3492,
      "Ġincorpor": 3493,
      "Ġsustainable": 3494,
      "Ġliquid": 3495,
      ".com": 3496,
      "ogen": 3497,
      "Ġgenetic": 3498,
      "Ġreducing": 3499,
      "27": 3500,
      "IC": 3501,
      "acing": 3502,
      "ibly": 3503,
      "vention": 3504,
      "Ġoccurs": 3505,
      "Ġsituation": 3506,
      "Ġgradu": 3507,
      "odes": 3508,
      "ĠRem": 3509,
      "Ġbirth": 3510,
      "Ġrequirements": 3511,
      "oun": 3512,
      "Ġyellow": 3513,
      "Ġcycle": 3514,
      "Ġpow": 3515,
      "duc": 3516,
      "Ġthread": 3517,
      "Ġeffectively": 3518,
      "ifornia": 3519,
      "Re": 3520,
      "ĠSw": 3521,
      "âĢ¢": 3522,
      "ĠWho": 3523,
      "Ġlocated": 3524,
      "Ġdegrees": 3525,
      "02": 3526,
      "Ġcausing": 3527,
      "wor": 3528,
      "Ġce": 3529,
      "isp": 3530,
      "rol": 3531,
      "Ġresponsible": 3532,
      "Ġteachers": 3533,
      "Ġboard": 3534,
      "rought": 3535,
      "Ġplatform": 3536,
      "mosp": 3537,
      "inks": 3538,
      "Ġweb": 3539,
      "ĠLet": 3540,
      "Ġimmune": 3541,
      "ushing": 3542,
      "Ġcutting": 3543,
      "iate": 3544,
      "Ġstage": 3545,
      "Ġexperiment": 3546,
      "Ġpromot": 3547,
      "Ġ*": 3548,
      "Ġfly": 3549,
      "Ġmoment": 3550,
      "Ġroll": 3551,
      "Ġtechnique": 3552,
      "Ġdetails": 3553,
      "mp": 3554,
      "my": 3555,
      "oration": 3556,
      "Ġmount": 3557,
      "Ġpsych": 3558,
      "Ġinfections": 3559,
      "Ġwalk": 3560,
      "rage": 3561,
      "Ġrapid": 3562,
      "Ġinteresting": 3563,
      "45": 3564,
      "pite": 3565,
      "mat": 3566,
      "Ġcoming": 3567,
      "Ġincluded": 3568,
      "IG": 3569,
      "ĠState": 3570,
      "Ġwrong": 3571,
      "Ġmanufacturer": 3572,
      "Ġexactly": 3573,
      "eration": 3574,
      "Ġsecurity": 3575,
      "Ġantib": 3576,
      "arr": 3577,
      "Ġdisp": 3578,
      "Ġinterf": 3579,
      ".g": 3580,
      "Ġdistance": 3581,
      "Ġillustr": 3582,
      "Ġnutrients": 3583,
      "Ġfabric": 3584,
      "itude": 3585,
      "ping": 3586,
      "Ġwet": 3587,
      "ĠNow": 3588,
      "Ġdepend": 3589,
      "att": 3590,
      "Ġfaster": 3591,
      "06": 3592,
      "ai": 3593,
      "enge": 3594,
      "ocol": 3595,
      "Ġadvanced": 3596,
      "\".": 3597,
      "hether": 3598,
      "Ġvia": 3599,
      "Ġdead": 3600,
      "Ġanyone": 3601,
      "-term": 3602,
      "ault": 3603,
      "Ġcity": 3604,
      "09": 3605,
      "ky": 3606,
      "ĠSm": 3607,
      "Ġplaces": 3608,
      "Ġtherefore": 3609,
      "Ġfinan": 3610,
      "Ġtaste": 3611,
      "Ġfile": 3612,
      "Ġdrain": 3613,
      "Ġiron": 3614,
      "Ġgold": 3615,
      "Ġbill": 3616,
      "ĠGe": 3617,
      "Ġwriting": 3618,
      "hetic": 3619,
      "ĠMar": 3620,
      "Ġdecision": 3621,
      "Ġopportunity": 3622,
      "inting": 3623,
      "Ġphotos": 3624,
      "-y": 3625,
      "29": 3626,
      "Ġmiss": 3627,
      "ĠRed": 3628,
      "Ġlandsc": 3629,
      "Ġfemale": 3630,
      "ball": 3631,
      "Ġmonit": 3632,
      "Ġsalt": 3633,
      "ript": 3634,
      "ĠRec": 3635,
      "Ġresid": 3636,
      "hel": 3637,
      "ields": 3638,
      "Ġnit": 3639,
      "Ġexcellent": 3640,
      "ĠOnce": 3641,
      "Ġexpensive": 3642,
      "Ġswim": 3643,
      "Ġheavy": 3644,
      "bit": 3645,
      "Ġbow": 3646,
      "Ġbone": 3647,
      "Ġreceive": 3648,
      "Ġrelationship": 3649,
      "Ġpref": 3650,
      "rench": 3651,
      "Ġnutrition": 3652,
      "Ġbehavi": 3653,
      "cular": 3654,
      "inking": 3655,
      "ĠBrit": 3656,
      "Ġinsp": 3657,
      "hold": 3658,
      "Ġbrown": 3659,
      "ĠCalifornia": 3660,
      "36": 3661,
      "ixt": 3662,
      "Ġnotice": 3663,
      "Ġtrack": 3664,
      "Ġexperiences": 3665,
      "crete": 3666,
      "tes": 3667,
      "ĠAc": 3668,
      "ĠGra": 3669,
      "Ġphone": 3670,
      "ET": 3671,
      "hol": 3672,
      "Ġocean": 3673,
      "Ġdriving": 3674,
      "Do": 3675,
      "Ġlack": 3676,
      "ĠWest": 3677,
      "ĠAdditionally": 3678,
      "place": 3679,
      "ken": 3680,
      "Ġonto": 3681,
      "Ġliter": 3682,
      "Ġinvestig": 3683,
      "Ġreaction": 3684,
      "ying": 3685,
      "Ġimpl": 3686,
      "Ġclin": 3687,
      "Ġarch": 3688,
      "Ġcommit": 3689,
      "Ġprocessing": 3690,
      "ĠAg": 3691,
      "ĠOther": 3692,
      "Ġbreed": 3693,
      "IT": 3694,
      "OS": 3695,
      "Ġnative": 3696,
      "....": 3697,
      "Ġcircuit": 3698,
      "xi": 3699,
      "Ġreve": 3700,
      "Ġcomfortable": 3701,
      "Pl": 3702,
      "ashion": 3703,
      "Some": 3704,
      "Ġtheory": 3705,
      "Ġjoint": 3706,
      "Ġpoor": 3707,
      "Ġchance": 3708,
      "Ġagricult": 3709,
      "ux": 3710,
      "Ġhorse": 3711,
      "Ġdim": 3712,
      "Ġlost": 3713,
      "oman": 3714,
      "pped": 3715,
      "ĠBecause": 3716,
      "ĠTheir": 3717,
      "Ġund": 3718,
      "ously": 3719,
      "Ġfully": 3720,
      "Ġwire": 3721,
      "Ġmis": 3722,
      "Ġnote": 3723,
      "ogs": 3724,
      "othing": 3725,
      "book": 3726,
      "off": 3727,
      "Ġmiddle": 3728,
      "eters": 3729,
      "ĠMake": 3730,
      "ails": 3731,
      "Ġpresence": 3732,
      "Ġelim": 3733,
      "31": 3734,
      "Ġtank": 3735,
      "Ġfurn": 3736,
      "Ġupd": 3737,
      "Ġexpert": 3738,
      "Ġreduced": 3739,
      "gery": 3740,
      "Ġsignificantly": 3741,
      "Ġwat": 3742,
      "Ġscale": 3743,
      "Ġstructures": 3744,
      "Ġdescribed": 3745,
      "ĠÂ": 3746,
      "roll": 3747,
      "urt": 3748,
      "ada": 3749,
      "ĠFl": 3750,
      "Ġcontext": 3751,
      "ĠUK": 3752,
      "Ġrelease": 3753,
      "Ġtox": 3754,
      "Ġlooks": 3755,
      "ĠWater": 3756,
      "izations": 3757,
      "Ġattempt": 3758,
      "Ġteacher": 3759,
      "Ġtherapy": 3760,
      "ided": 3761,
      "Ġconvers": 3762,
      "pping": 3763,
      "erences": 3764,
      "Ġparam": 3765,
      "Ġinches": 3766,
      "Ġeffort": 3767,
      "ĠEnglish": 3768,
      "iar": 3769,
      "lier": 3770,
      "ipes": 3771,
      "Ġmeasures": 3772,
      "Ġpicture": 3773,
      "Ġextremely": 3774,
      "Ġhuge": 3775,
      "Ġcoast": 3776,
      "Ġcars": 3777,
      "AL": 3778,
      "Ġgiving": 3779,
      "umin": 3780,
      "Ġestim": 3781,
      "Ġwin": 3782,
      "Ġthus": 3783,
      "uration": 3784,
      "Ġagg": 3785,
      "know": 3786,
      "omb": 3787,
      "ĠRead": 3788,
      "Ġtests": 3789,
      "ĠTechn": 3790,
      "haps": 3791,
      "ses": 3792,
      "Ġsaw": 3793,
      "Un": 3794,
      "inding": 3795,
      "Ġcry": 3796,
      "Ġflex": 3797,
      "ĠAir": 3798,
      "ĠDon": 3799,
      "Ġdate": 3800,
      "ĠNOT": 3801,
      "ĠOver": 3802,
      "Ġdoctor": 3803,
      "Ġvaluable": 3804,
      "ran": 3805,
      "Ġdemand": 3806,
      "cast": 3807,
      "Ġbroad": 3808,
      "Ġmother": 3809,
      "ĠChrist": 3810,
      "Ġdepth": 3811,
      "Ġwonder": 3812,
      "pen": 3813,
      "zy": 3814,
      "ĠJust": 3815,
      "Ġhealthcare": 3816,
      "oors": 3817,
      "Ġthous": 3818,
      "abilities": 3819,
      "Ġbecame": 3820,
      "32": 3821,
      "Ġbeyond": 3822,
      "Ġflight": 3823,
      "Ġfair": 3824,
      "Ġled": 3825,
      "ĠFirst": 3826,
      "Ġengage": 3827,
      "abol": 3828,
      "Ġkid": 3829,
      "rows": 3830,
      "Ġincreases": 3831,
      "Ġolder": 3832,
      "Ġmaximum": 3833,
      "craft": 3834,
      "ĠSystem": 3835,
      "house": 3836,
      "Ġexec": 3837,
      "osystem": 3838,
      "Ġcommunities": 3839,
      "Ġexpected": 3840,
      "Ġimmediately": 3841,
      "Ġmob": 3842,
      "Ġconver": 3843,
      "Ġslightly": 3844,
      "Now": 3845,
      "Ġstim": 3846,
      "Ġgoals": 3847,
      "Ġsolid": 3848,
      "Ġâ": 3849,
      "Ġtit": 3850,
      "Ġhit": 3851,
      "ĠAut": 3852,
      "ificial": 3853,
      "Ġhandle": 3854,
      "Ġsounds": 3855,
      "itis": 3856,
      "Ġexposure": 3857,
      "Ġmoisture": 3858,
      "Ġflavor": 3859,
      "Ġcollabor": 3860,
      "aser": 3861,
      "Ġfunctions": 3862,
      "Ġcontribute": 3863,
      "Ph": 3864,
      "Ġrelatively": 3865,
      "Ġlargest": 3866,
      "bor": 3867,
      "ĠMin": 3868,
      "uild": 3869,
      "ĠEach": 3870,
      "roduction": 3871,
      "Ġcombination": 3872,
      "RE": 3873,
      "Sc": 3874,
      "Ġstream": 3875,
      "Ġatmosp": 3876,
      "Ġpregn": 3877,
      "Ġbackground": 3878,
      "Ġopportunities": 3879,
      "onic": 3880,
      "Ġsess": 3881,
      "âĢĻt": 3882,
      "Ġadvantage": 3883,
      "Ġinstance": 3884,
      "zing": 3885,
      "Ġcateg": 3886,
      "Ġmid": 3887,
      "Ġdiv": 3888,
      "Ġnucle": 3889,
      "Ġdepends": 3890,
      "08": 3891,
      "ober": 3892,
      "iling": 3893,
      "oice": 3894,
      "Ġpric": 3895,
      "urally": 3896,
      "Ġresulting": 3897,
      "Ġcentral": 3898,
      "Ġschools": 3899,
      "Ġshar": 3900,
      "riend": 3901,
      "enty": 3902,
      "Ġbegan": 3903,
      "Ġfeeling": 3904,
      "ĠEven": 3905,
      "Ġintellig": 3906,
      "Ġtrend": 3907,
      "Ġparticles": 3908,
      "Ġalternative": 3909,
      "Ġep": 3910,
      "Ġmedium": 3911,
      "Ġstrategies": 3912,
      "Ġdish": 3913,
      "Ġwritten": 3914,
      "Ġ:": 3915,
      "Ġweak": 3916,
      "Ġdin": 3917,
      "Ġexpand": 3918,
      "Ġchanging": 3919,
      "Ġsymbol": 3920,
      "Ġkill": 3921,
      "Ġdiabetes": 3922,
      "Ġplanning": 3923,
      "ened": 3924,
      "ief": 3925,
      "Ġsurpr": 3926,
      "Ġwrite": 3927,
      "ximately": 3928,
      "Ġpull": 3929,
      "Ġdoor": 3930,
      "Ġfilter": 3931,
      "Ġcouple": 3932,
      "03": 3933,
      "ĠSim": 3934,
      "Ġconnected": 3935,
      "Ġfinancial": 3936,
      "met": 3937,
      "inating": 3938,
      "Ġdiscovered": 3939,
      "xiety": 3940,
      "Ġround": 3941,
      "Ġcommer": 3942,
      "Ġtechnologies": 3943,
      "Ġswitch": 3944,
      "-up": 3945,
      "99": 3946,
      "Ġsmart": 3947,
      "Ġplayers": 3948,
      "Ġrespond": 3949,
      "Ġcomprehens": 3950,
      "cules": 3951,
      "Ġspect": 3952,
      "Ġrecently": 3953,
      "Ġkeeping": 3954,
      "ha": 3955,
      "Ġburn": 3956,
      "Ġplaced": 3957,
      "hyd": 3958,
      "Ġattack": 3959,
      "Ġenter": 3960,
      "Ġplanet": 3961,
      "Ġmotion": 3962,
      "Ġbeginning": 3963,
      "EM": 3964,
      "ĠQ": 3965,
      "Ġalthough": 3966,
      "Ġscen": 3967,
      "Ġexamples": 3968,
      "Ġelectro": 3969,
      "Ġfrequency": 3970,
      "omy": 3971,
      "Ġpool": 3972,
      "Ġdistinct": 3973,
      "Ġaffected": 3974,
      "Ġtooth": 3975,
      "Ġvirt": 3976,
      "bing": 3977,
      "Ġast": 3978,
      "ancing": 3979,
      "elines": 3980,
      "Ġvent": 3981,
      "Ġqual": 3982,
      "Ġdiscover": 3983,
      "Ġbooks": 3984,
      "ĠDoes": 3985,
      "Ġvolume": 3986,
      "Ġproteins": 3987,
      "ipl": 3988,
      "na": 3989,
      "Ġmatch": 3990,
      "ffee": 3991,
      "Ġspir": 3992,
      "ĠTw": 3993,
      "Ġsex": 3994,
      "Ġtasks": 3995,
      "Ġpul": 3996,
      "uries": 3997,
      "Ġblog": 3998,
      "Ġflav": 3999,
      "ĠJoh": 4000,
      "Ġsecure": 4001,
      "Im": 4002,
      "icious": 4003,
      "Ġgenes": 4004,
      "Ġplaying": 4005,
      "Ġdocument": 4006,
      "que": 4007,
      "Ġconsumption": 4008,
      "Res": 4009,
      "vity": 4010,
      "olar": 4011,
      "Ġwel": 4012,
      "Ġrise": 4013,
      "ĠAlthough": 4014,
      "Ġconnection": 4015,
      "Ġculture": 4016,
      "Ġsort": 4017,
      "ads": 4018,
      "ender": 4019,
      "Ġdifferences": 4020,
      "fess": 4021,
      "Ġelectricity": 4022,
      "Ġframe": 4023,
      "ĠTH": 4024,
      "ester": 4025,
      "ĠEd": 4026,
      "Ġmaintaining": 4027,
      "Ġfluid": 4028,
      "ching": 4029,
      "Ġconsult": 4030,
      "Ġadults": 4031,
      "Ġnav": 4032,
      "Ġfloor": 4033,
      "ĠAccording": 4034,
      "ought": 4035,
      "raction": 4036,
      "Ġefforts": 4037,
      "ups": 4038,
      "amb": 4039,
      "Ġheight": 4040,
      "Ġtrig": 4041,
      "Ġdynam": 4042,
      "ressive": 4043,
      "Ġbright": 4044,
      "Ġprofession": 4045,
      "eed": 4046,
      "Ġactual": 4047,
      "oom": 4048,
      "omic": 4049,
      "Ġnoise": 4050,
      "Ġwent": 4051,
      "Ġstuff": 4052,
      "agram": 4053,
      "Ġroots": 4054,
      "Ġnational": 4055,
      "Ġinternal": 4056,
      "orthern": 4057,
      "Ġclim": 4058,
      "Ġspend": 4059,
      "ipped": 4060,
      "Ġregularly": 4061,
      "AM": 4062,
      "inated": 4063,
      "Ġcovered": 4064,
      "Ġju": 4065,
      "Ġreported": 4066,
      "Ġchemicals": 4067,
      "ĠPhot": 4068,
      "Ġfertil": 4069,
      "ĠPC": 4070,
      "Ġchallenge": 4071,
      "Ġtrou": 4072,
      "Ġdeb": 4073,
      "ials": 4074,
      "nderstanding": 4075,
      "Ġgenerate": 4076,
      "05": 4077,
      "07": 4078,
      "eing": 4079,
      "othes": 4080,
      "Ġrub": 4081,
      "Ġrules": 4082,
      "apan": 4083,
      "ishing": 4084,
      "Ġsample": 4085,
      "gram": 4086,
      "unction": 4087,
      "Ġsynt": 4088,
      "undred": 4089,
      "75": 4090,
      "uth": 4091,
      "ĠĠĠĠĠĠĠĠ": 4092,
      "aught": 4093,
      "IM": 4094,
      "Ġtopic": 4095,
      "cription": 4096,
      "ĠServ": 4097,
      "Ġimproved": 4098,
      "Ġsites": 4099,
      "Ġecosystem": 4100,
      "med": 4101,
      "tical": 4102,
      "ĠHigh": 4103,
      "Ġadop": 4104,
      "Ġshel": 4105,
      "Ġcommercial": 4106,
      "AD": 4107,
      "Ġpets": 4108,
      "ĠRep": 4109,
      "anging": 4110,
      "Ġequal": 4111,
      "cohol": 4112,
      "ĠCenter": 4113,
      "Ġbodies": 4114,
      "Ġhosp": 4115,
      "Ġrisks": 4116,
      "pre": 4117,
      "hest": 4118,
      "Ġserve": 4119,
      "Ġachie": 4120,
      "All": 4121,
      "Ġmale": 4122,
      "lebr": 4123,
      "umber": 4124,
      "Ġremains": 4125,
      "azing": 4126,
      "Ġremoved": 4127,
      "Here": 4128,
      "time": 4129,
      "ĠTrans": 4130,
      "Ġmachines": 4131,
      "-like": 4132,
      "used": 4133,
      "ĠIts": 4134,
      "Ġbasis": 4135,
      "Ġhappy": 4136,
      "pril": 4137,
      "Ġsnow": 4138,
      "Ġfight": 4139,
      "Ġlov": 4140,
      "rier": 4141,
      "Ġsports": 4142,
      "Ġallowed": 4143,
      "ĠInstitute": 4144,
      "minist": 4145,
      "Ġregarding": 4146,
      "Ġdangerous": 4147,
      "04": 4148,
      "iol": 4149,
      "ctors": 4150,
      "ĠSec": 4151,
      "ĠSince": 4152,
      "Ġmag": 4153,
      "Ġregions": 4154,
      "iction": 4155,
      "ĠIndia": 4156,
      "Ġsweet": 4157,
      "Ġinstructions": 4158,
      "Ġreality": 4159,
      "Ġbecoming": 4160,
      "Ġmolecules": 4161,
      "rupt": 4162,
      "iveness": 4163,
      "Ġoperation": 4164,
      "Ġsuggests": 4165,
      "Ġfrequently": 4166,
      "ok": 4167,
      "erate": 4168,
      "Ġstar": 4169,
      "Ġvital": 4170,
      "Ġapprec": 4171,
      "Ġformed": 4172,
      "Ġplease": 4173,
      "key": 4174,
      "ĠDis": 4175,
      "ĠArt": 4176,
      "Ġexisting": 4177,
      "Ġcomplic": 4178,
      "ashing": 4179,
      "dom": 4180,
      "Ġhyp": 4181,
      "ĠUsing": 4182,
      "uary": 4183,
      "Ġstaff": 4184,
      "outhern": 4185,
      "Ġcustomers": 4186,
      "ĠAfrica": 4187,
      "Ġhear": 4188,
      "Ġspecifically": 4189,
      "Ġbusinesses": 4190,
      "EC": 4191,
      "equ": 4192,
      "Ġalone": 4193,
      "ternal": 4194,
      "-year": 4195,
      "Ġder": 4196,
      "Ġdat": 4197,
      "ida": 4198,
      "Ġacqu": 4199,
      "ĠTherefore": 4200,
      "hop": 4201,
      "However": 4202,
      "Ġcred": 4203,
      "Ġfoss": 4204,
      "Ġlose": 4205,
      "resp": 4206,
      "Ġveter": 4207,
      "Ġinsects": 4208,
      "lean": 4209,
      "ĠMon": 4210,
      "ĠEduc": 4211,
      "Ġphase": 4212,
      "/or": 4213,
      "right": 4214,
      "ÂŃ": 4215,
      "Ġpal": 4216,
      "Ġmut": 4217,
      "encies": 4218,
      "Ġfashion": 4219,
      "Ġrepe": 4220,
      "Ġtrust": 4221,
      "Ġindepend": 4222,
      "ĠPart": 4223,
      "Ġsche": 4224,
      "Ġdiam": 4225,
      "olved": 4226,
      "ĠAC": 4227,
      "Ġstored": 4228,
      "ogle": 4229,
      "Ġrelax": 4230,
      "Ġboost": 4231,
      "icated": 4232,
      "Ġhour": 4233,
      "Ġeth": 4234,
      "ĠRiver": 4235,
      "Ġclos": 4236,
      "Ġhistor": 4237,
      "Ġlegs": 4238,
      "iments": 4239,
      "Ġteach": 4240,
      "Ġaspects": 4241,
      "Ġdura": 4242,
      "Ġhelpful": 4243,
      "Ġasked": 4244,
      "33": 4245,
      "iant": 4246,
      "Ġsold": 4247,
      "apter": 4248,
      "Ġhelping": 4249,
      "known": 4250,
      "Ġgear": 4251,
      "Ġrepair": 4252,
      "Ġ...": 4253,
      "Ġpupp": 4254,
      "ĠPar": 4255,
      "Ġrecy": 4256,
      "Ġphoto": 4257,
      "Ġfilm": 4258,
      "inger": 4259,
      "ocal": 4260,
      "Ġnearly": 4261,
      "Ġcharacteristics": 4262,
      "ndom": 4263,
      "Ġhomes": 4264,
      "ĠSu": 4265,
      "Ġrates": 4266,
      "Ġupper": 4267,
      "Ġadvice": 4268,
      "Ġlabor": 4269,
      "oly": 4270,
      "Ġfung": 4271,
      "Ġstick": 4272,
      "Ġconcrete": 4273,
      "oday": 4274,
      "Ġneck": 4275,
      "Ġplans": 4276,
      "After": 4277,
      "utor": 4278,
      "Ġlearned": 4279,
      "Ġamounts": 4280,
      "Ġpromote": 4281,
      "za": 4282,
      "Ġflat": 4283,
      "iter": 4284,
      "Ġheating": 4285,
      "55": 4286,
      "That": 4287,
      "wers": 4288,
      "Ġsociety": 4289,
      "Ġfract": 4290,
      "Ġpollution": 4291,
      "gs": 4292,
      "ped": 4293,
      "Ġfill": 4294,
      "Ġfigure": 4295,
      "Ġhundred": 4296,
      "celer": 4297,
      "Ġpaint": 4298,
      "Another": 4299,
      "Ġhabitat": 4300,
      "Ġfavorite": 4301,
      "Ġign": 4302,
      "iture": 4303,
      "ica": 4304,
      "Ġemissions": 4305,
      "Ġillness": 4306,
      "Ġversion": 4307,
      "imal": 4308,
      "Ġplayer": 4309,
      "ĠDepartment": 4310,
      "Ġded": 4311,
      "umn": 4312,
      "arium": 4313,
      "Ġbran": 4314,
      "itely": 4315,
      "Ġhighlight": 4316,
      "Ġdegree": 4317,
      "Us": 4318,
      "fish": 4319,
      "Ġ<": 4320,
      "Ġtour": 4321,
      "Ġcert": 4322,
      "Ġphen": 4323,
      "Ġthor": 4324,
      "unk": 4325,
      "Ġmostly": 4326,
      "Ġinfluence": 4327,
      "No": 4328,
      "Ġleaf": 4329,
      "Ġfinding": 4330,
      "Ġchicken": 4331,
      "ĠJapan": 4332,
      "Ġfol": 4333,
      "ĠGod": 4334,
      "Ġwanted": 4335,
      "Ġbond": 4336,
      "aled": 4337,
      "ĠAnt": 4338,
      "...Ċ": 4339,
      "uly": 4340,
      "atically": 4341,
      "Ġperformed": 4342,
      "Ġexperienced": 4343,
      "EL": 4344,
      "bed": 4345,
      "uce": 4346,
      "Ġcore": 4347,
      "Ġsurgery": 4348,
      "Ġsquare": 4349,
      "Ġsatis": 4350,
      "Ġfamilies": 4351,
      "riendly": 4352,
      "oding": 4353,
      "Ġreleased": 4354,
      "word": 4355,
      "atural": 4356,
      "ĠJan": 4357,
      "ĠĠĠ": 4358,
      "vironments": 4359,
      "Ġpractical": 4360,
      "Ġcounter": 4361,
      "ĠAustralia": 4362,
      "Ġdental": 4363,
      "icking": 4364,
      "semb": 4365,
      "Ġseparate": 4366,
      "ĠFood": 4367,
      "Ġworked": 4368,
      "-free": 4369,
      "Ġdrawing": 4370,
      "ta": 4371,
      "wide": 4372,
      "Ġstru": 4373,
      "Ġmeal": 4374,
      "Ġmaybe": 4375,
      "Ġbeneficial": 4376,
      "Ġprepared": 4377,
      "Se": 4378,
      "Ġdrop": 4379,
      "ĠDay": 4380,
      "Ġapproximately": 4381,
      "ded": 4382,
      "ĠSpe": 4383,
      "related": 4384,
      "Ġappearance": 4385,
      "Ġencourag": 4386,
      "ira": 4387,
      "Ġhorm": 4388,
      "ĠAug": 4389,
      "Ġsettings": 4390,
      "Ġmuscles": 4391,
      "Ġoperations": 4392,
      "Ġinternational": 4393,
      "Ġharmful": 4394,
      "Ġfiber": 4395,
      "Ġindustrial": 4396,
      "-qu": 4397,
      "Ġcatch": 4398,
      "Ġpig": 4399,
      "Ġbound": 4400,
      "Ġtold": 4401,
      "Ġanxiety": 4402,
      "Ġvehicles": 4403,
      "Ġaccurate": 4404,
      "ees": 4405,
      "atever": 4406,
      "ĠStep": 4407,
      "Ġlayers": 4408,
      "Ġmel": 4409,
      "Ġdefined": 4410,
      "Ġoccas": 4411,
      "Ġten": 4412,
      "ĠAv": 4413,
      "orders": 4414,
      "Ġdigest": 4415,
      "||": 4416,
      "Ġdouble": 4417,
      "Ġmode": 4418,
      "Ġwindow": 4419,
      "****": 4420,
      "Ġinjury": 4421,
      "eline": 4422,
      "ĠBra": 4423,
      "Ġchann": 4424,
      "ĠHum": 4425,
      "Ġflo": 4426,
      "Ġgeneration": 4427,
      "Ġleaders": 4428,
      "--------": 4429,
      "ype": 4430,
      "Ġsell": 4431,
      "Ġpump": 4432,
      "Ġmic": 4433,
      "ĠGerm": 4434,
      "Ġlatest": 4435,
      "Ġdra": 4436,
      "urance": 4437,
      "Ġheld": 4438,
      "ĠEm": 4439,
      "Ġestablished": 4440,
      "ares": 4441,
      "acking": 4442,
      "oxide": 4443,
      "Ġhydrogen": 4444,
      "itect": 4445,
      "Ġfear": 4446,
      "Ġdrink": 4447,
      "Ġrobot": 4448,
      "Ġpurchase": 4449,
      "asp": 4450,
      "eties": 4451,
      "Ġcoffee": 4452,
      "Ġearlier": 4453,
      "Ġmember": 4454,
      "Ġfeeding": 4455,
      "Ġmorning": 4456,
      "itary": 4457,
      "Ġmixt": 4458,
      "Ġpotentially": 4459,
      "Ġroutine": 4460,
      "Ġ\\": 4461,
      "ĠWhether": 4462,
      "ĠBar": 4463,
      "Ġcompar": 4464,
      "Ġobserved": 4465,
      "My": 4466,
      "Ġpair": 4467,
      "Ġconservation": 4468,
      "Ġcustomer": 4469,
      "Ġtax": 4470,
      "oma": 4471,
      "Ġstone": 4472,
      "ĠSte": 4473,
      "aming": 4474,
      "Ġmetabol": 4475,
      "Ġestablish": 4476,
      "ĠSk": 4477,
      "Ġadvance": 4478,
      "iology": 4479,
      "Ġsav": 4480,
      "Ġclick": 4481,
      "Ġdesired": 4482,
      "Ġtiny": 4483,
      "Ġrandom": 4484,
      "Ġdivers": 4485,
      "Ġwildlife": 4486,
      "ING": 4487,
      "II": 4488,
      "ams": 4489,
      "Ġrule": 4490,
      "Ġwheel": 4491,
      "pective": 4492,
      "Ġedge": 4493,
      "Ġnaturally": 4494,
      "Ġsaying": 4495,
      "Ġenvironments": 4496,
      "Ġtrain": 4497,
      "Ġtypical": 4498,
      "iced": 4499,
      "Ġelectron": 4500,
      "Ġsensor": 4501,
      "Ġconcerns": 4502,
      "ĠKeep": 4503,
      "Ġsteel": 4504,
      "wing": 4505,
      "ĠOut": 4506,
      "ĠFeb": 4507,
      "Ġeconomic": 4508,
      "Ġmonitoring": 4509,
      "ban": 4510,
      "Ġcontract": 4511,
      "Ġspin": 4512,
      "Ġdecisions": 4513,
      "Ġseconds": 4514,
      "Ġharvest": 4515,
      "Ġdivid": 4516,
      "omach": 4517,
      "Ġnumerous": 4518,
      "Ġclasses": 4519,
      "zen": 4520,
      "Ġnamed": 4521,
      "uting": 4522,
      "Ġtrip": 4523,
      "Ġbat": 4524,
      "Ġmig": 4525,
      "Ġstro": 4526,
      "Ġinterested": 4527,
      "Ġmarine": 4528,
      "isher": 4529,
      "Ġselection": 4530,
      "Ġoptimal": 4531,
      "Ġord": 4532,
      "Ġconsequ": 4533,
      "ĠDuring": 4534,
      "aws": 4535,
      "Ġstatement": 4536,
      "Ġsod": 4537,
      "Ġassign": 4538,
      "Ġpolit": 4539,
      "Ġoperating": 4540,
      "Ġhydro": 4541,
      "ST": 4542,
      "flow": 4543,
      "Ġtalking": 4544,
      "Ġdie": 4545,
      "ĠApril": 4546,
      "Ġstre": 4547,
      "Ġriver": 4548,
      "ĠEl": 4549,
      "ager": 4550,
      "Ġemail": 4551,
      "Ġartificial": 4552,
      "Ġorganization": 4553,
      "Ġapart": 4554,
      "Ġprimarily": 4555,
      "rates": 4556,
      "Ġspl": 4557,
      "Ġexperts": 4558,
      "cling": 4559,
      "Ġcomprehensive": 4560,
      "Ġnavig": 4561,
      "Ġpest": 4562,
      "Ġstem": 4563,
      "Ġoffice": 4564,
      "Ġtreatments": 4565,
      "Ġfruits": 4566,
      "Ġdistribution": 4567,
      "ulf": 4568,
      "Ġtransmission": 4569,
      "Ġgrown": 4570,
      "Ġreference": 4571,
      "Ġcertainly": 4572,
      "Ġengineering": 4573,
      "ologist": 4574,
      "Ġcreative": 4575,
      "-le": 4576,
      "hab": 4577,
      "Ġmold": 4578,
      "icks": 4579,
      "ille": 4580,
      "olute": 4581,
      "ĠAN": 4582,
      "Ġroof": 4583,
      "Ġple": 4584,
      "Ġconven": 4585,
      "Ġcolour": 4586,
      "Ġfindings": 4587,
      "Ġshowed": 4588,
      "Ġoutdoor": 4589,
      "Ġcelebr": 4590,
      "phas": 4591,
      "?\"": 4592,
      "Our": 4593,
      "alt": 4594,
      "rans": 4595,
      "Ġsizes": 4596,
      "Ġexhib": 4597,
      "Ġsets": 4598,
      "Ġensures": 4599,
      "Ġrelevant": 4600,
      "Ġresource": 4601,
      "Ġprocedure": 4602,
      "Ġcalcium": 4603,
      "mar": 4604,
      "inder": 4605,
      "Ġacceler": 4606,
      "Ġstarts": 4607,
      "Ġconstruct": 4608,
      "Ġbatteries": 4609,
      "Ġassessment": 4610,
      "ius": 4611,
      "Ġalcohol": 4612,
      "Ġsimpl": 4613,
      "Ġesc": 4614,
      "Ġmanufacturing": 4615,
      "-r": 4616,
      "Des": 4617,
      "OU": 4618,
      "olid": 4619,
      "estyle": 4620,
      "Ġheard": 4621,
      "ĠGet": 4622,
      "Ġstandards": 4623,
      "Are": 4624,
      "ications": 4625,
      "Ġstret": 4626,
      "Ġreceived": 4627,
      "Ġantibiot": 4628,
      "Ġuns": 4629,
      "Ġeventually": 4630,
      "Ġfailure": 4631,
      "Ġatmosphere": 4632,
      "95": 4633,
      "Ke": 4634,
      "org": 4635,
      "Ġmist": 4636,
      "Ġpopulations": 4637,
      "Ġchanged": 4638,
      "Ġdetailed": 4639,
      "ometimes": 4640,
      "osite": 4641,
      "Ġprecise": 4642,
      "Ġencourage": 4643,
      "gra": 4644,
      "ĠWar": 4645,
      "rief": 4646,
      "oughly": 4647,
      "Ġofficial": 4648,
      ".e": 4649,
      "Ã©": 4650,
      "Ġband": 4651,
      "ource": 4652,
      "Ġraw": 4653,
      "Ġmiles": 4654,
      "Ġminimum": 4655,
      "Ġbrought": 4656,
      "Ġnice": 4657,
      "Ġforces": 4658,
      "ĠGreen": 4659,
      "Ġcollection": 4660,
      "ructure": 4661,
      "Ġflower": 4662,
      "Ġsituations": 4663,
      "ny": 4664,
      "Ġsem": 4665,
      "ĠChar": 4666,
      "iverse": 4667,
      "ĠElect": 4668,
      "Ġdiverse": 4669,
      "Ġsurfaces": 4670,
      "Ġprivate": 4671,
      "ĠSur": 4672,
      "ublic": 4673,
      "phone": 4674,
      "-being": 4675,
      "iences": 4676,
      "Ġidentified": 4677,
      "Ġstrategy": 4678,
      "rant": 4679,
      "Ġfields": 4680,
      "Ġchain": 4681,
      "Ġcrus": 4682,
      "erals": 4683,
      "Ġsty": 4684,
      "ĠWell": 4685,
      "Ġadvantages": 4686,
      "icip": 4687,
      "Ġcarefully": 4688,
      "Ġtreated": 4689,
      "Ġalgorithm": 4690,
      "-C": 4691,
      "bl": 4692,
      "ek": 4693,
      "ĠWind": 4694,
      "Ġimproving": 4695,
      "lies": 4696,
      "Ġgut": 4697,
      "osa": 4698,
      "ĠBo": 4699,
      "Ġemp": 4700,
      "Int": 4701,
      "alse": 4702,
      "ceed": 4703,
      "plant": 4704,
      "ĠOct": 4705,
      "Ġunits": 4706,
      "weight": 4707,
      "Ġmainly": 4708,
      "-re": 4709,
      "Ġbones": 4710,
      "Ġincred": 4711,
      "Ġmonitor": 4712,
      "Ġmeasured": 4713,
      "Ġinternet": 4714,
      "Ġwalls": 4715,
      "which": 4716,
      "Your": 4717,
      "pan": 4718,
      "Ġbath": 4719,
      "Ġconclusion": 4720,
      "ums": 4721,
      "Ġshop": 4722,
      "Ġtruly": 4723,
      "Ġstatus": 4724,
      "Yes": 4725,
      "ĠAny": 4726,
      "Ġwave": 4727,
      "Ġmaster": 4728,
      "ament": 4729,
      "Ġmap": 4730,
      "irect": 4731,
      "Ġopin": 4732,
      "Ġmedicine": 4733,
      "Ġancient": 4734,
      "PS": 4735,
      "ĠCount": 4736,
      "ĠPres": 4737,
      "ĠEvery": 4738,
      "ruary": 4739,
      "Ġdeliver": 4740,
      "charge": 4741,
      "part": 4742,
      "Ġlots": 4743,
      "ste": 4744,
      "ĠIns": 4745,
      "Ġbutton": 4746,
      "Ġkept": 4747,
      "ĠEuropean": 4748,
      "lines": 4749,
      "anning": 4750,
      "Ġplays": 4751,
      "Ġformation": 4752,
      "Ġfollowed": 4753,
      "Ġconsistent": 4754,
      "Ġprofessionals": 4755,
      "Most": 4756,
      "rid": 4757,
      "Ġalign": 4758,
      "Ġindicate": 4759,
      "ech": 4760,
      "fortun": 4761,
      "BC": 4762,
      "Ġfed": 4763,
      "Ġhoney": 4764,
      "Ġworry": 4765,
      "Ġobvious": 4766,
      "!!": 4767,
      "chen": 4768,
      "eper": 4769,
      "rus": 4770,
      "Ġshoes": 4771,
      "Ġlights": 4772,
      "-friendly": 4773,
      "Ġanti": 4774,
      "En": 4775,
      "bre": 4776,
      "iat": 4777,
      "Ġstomach": 4778,
      "Ġdecor": 4779,
      "Ġfishing": 4780,
      "Ġdetermined": 4781,
      "la": 4782,
      "ivil": 4783,
      "ĠFurther": 4784,
      "rix": 4785,
      "Ġsignals": 4786,
      "Ġwait": 4787,
      "-M": 4788,
      "Ġlic": 4789,
      "ĠMarch": 4790,
      "Ġchoosing": 4791,
      "Ġsurrounding": 4792,
      "Ġ)": 4793,
      "Ġpil": 4794,
      "ighter": 4795,
      "Ġrid": 4796,
      "Ġemergency": 4797,
      "ĠModel": 4798,
      "Once": 4799,
      "Ġfle": 4800,
      "Ġhon": 4801,
      "Ġcoord": 4802,
      "Ġreliable": 4803,
      "Ġcareer": 4804,
      "ibrary": 4805,
      "ĠGoogle": 4806,
      "Ġshapes": 4807,
      "Ġthousands": 4808,
      "ĠEducation": 4809,
      "ias": 4810,
      "och": 4811,
      "Ġnerv": 4812,
      "ĠLab": 4813,
      "Ġsyn": 4814,
      "ĠYork": 4815,
      "Ġrelationships": 4816,
      "bles": 4817,
      "wood": 4818,
      "Ġblow": 4819,
      "ifying": 4820,
      "Ġax": 4821,
      "Ġpounds": 4822,
      "Ġden": 4823,
      "ilit": 4824,
      "Ġallerg": 4825,
      "Ġtele": 4826,
      "ĠProgram": 4827,
      "Ġangle": 4828,
      "Ġlandscape": 4829,
      "Ġmixture": 4830,
      "but": 4831,
      "ios": 4832,
      "lets": 4833,
      "irds": 4834,
      "Ġship": 4835,
      "Ġdesigns": 4836,
      "Ġamazing": 4837,
      "Ġskill": 4838,
      "Ġvideos": 4839,
      "urrent": 4840,
      "Ġdiss": 4841,
      "Ġlighting": 4842,
      "roduct": 4843,
      "arant": 4844,
      "ulating": 4845,
      "ĠProfess": 4846,
      "Ġsensitive": 4847,
      "Ġwidely": 4848,
      "AP": 4849,
      "Many": 4850,
      "aid": 4851,
      "Ġhole": 4852,
      "olf": 4853,
      "Ġvs": 4854,
      "rome": 4855,
      "ĠChild": 4856,
      "Ġseek": 4857,
      "Ġextract": 4858,
      "Ġgenerated": 4859,
      "Ġexposed": 4860,
      "Ġfoundation": 4861,
      "Ġplane": 4862,
      "ĠSept": 4863,
      "Ġprepare": 4864,
      "Ab": 4865,
      "Ġbees": 4866,
      "Ġconc": 4867,
      "Ġexternal": 4868,
      "Ġvoice": 4869,
      "Ġsmell": 4870,
      "Ġacad": 4871,
      "Ġeducational": 4872,
      "lt": 4873,
      "Ġmembr": 4874,
      "Ġhighest": 4875,
      "Ġchoices": 4876,
      "Ġiniti": 4877,
      "ĠPeople": 4878,
      "34": 4879,
      "VID": 4880,
      "Ġbio": 4881,
      "rot": 4882,
      "Ġlaser": 4883,
      "Ġnest": 4884,
      "cel": 4885,
      "ologists": 4886,
      "Ġexpression": 4887,
      "Ġbiological": 4888,
      "Ġsensors": 4889,
      "Ġcrops": 4890,
      "inn": 4891,
      "Ġhaz": 4892,
      "Ġcreation": 4893,
      "ipping": 4894,
      "TI": 4895,
      "cil": 4896,
      "Ġwest": 4897,
      "Ġmit": 4898,
      "Ġvibr": 4899,
      "Ġbreeding": 4900,
      "-sh": 4901,
      "Ġlegal": 4902,
      "gl": 4903,
      "Ġod": 4904,
      "allow": 4905,
      "Ġsport": 4906,
      "ĠJune": 4907,
      "mitted": 4908,
      "Ġprices": 4909,
      "Ġstable": 4910,
      "osph": 4911,
      "ĠHy": 4912,
      "Ġfocused": 4913,
      "Ġturned": 4914,
      "Ġemotional": 4915,
      "Ġinflamm": 4916,
      "with": 4917,
      "Ġcream": 4918,
      "Ġcreates": 4919,
      "Ġfunctional": 4920,
      "ĠBlack": 4921,
      "force": 4922,
      "Ġbudget": 4923,
      "Ġcolon": 4924,
      "Ġplanting": 4925,
      "ĠDesign": 4926,
      "Ġfurniture": 4927,
      "Ġintelligence": 4928,
      "Ġstrugg": 4929,
      "mm": 4930,
      "ued": 4931,
      "Ġbike": 4932,
      "ĠGreat": 4933,
      "asses": 4934,
      "Ġremote": 4935,
      "ĠChina": 4936,
      "Ġwants": 4937,
      "Ġsequence": 4938,
      "ĠBritish": 4939,
      "Ġreduction": 4940,
      "Ġimpacts": 4941,
      "Bl": 4942,
      "sp": 4943,
      "Ġtrop": 4944,
      "Ġcul": 4945,
      "Ġneut": 4946,
      "ĠFlor": 4947,
      "ĠFrench": 4948,
      "Ġshowing": 4949,
      "Ġpreviously": 4950,
      "Ġdrugs": 4951,
      "bur": 4952,
      "oster": 4953,
      "Ġtransl": 4954,
      "clus": 4955,
      "Ġorganizations": 4956,
      "Ġcontainer": 4957,
      "Ġradio": 4958,
      "Ġscenari": 4959,
      "-quality": 4960,
      "Ġwaves": 4961,
      "change": 4962,
      "ĠCom": 4963,
      "Ġneigh": 4964,
      "Ġplenty": 4965,
      "Ġemphas": 4966,
      "Ġmessage": 4967,
      "crib": 4968,
      "Ġisol": 4969,
      "Ġvess": 4970,
      "Ġdefinitely": 4971,
      "Ar": 4972,
      "Ġdrag": 4973,
      "ico": 4974,
      "ĠTest": 4975,
      "pert": 4976,
      "Ġflood": 4977,
      "ĠJuly": 4978,
      "Ġaircraft": 4979,
      "porary": 4980,
      "Ġcontrolled": 4981,
      "Ġnan": 4982,
      "Ġtexture": 4983,
      "Ġselected": 4984,
      "TS": 4985,
      "Ġfrag": 4986,
      "Ġgun": 4987,
      "asting": 4988,
      "izer": 4989,
      "orms": 4990,
      "Ġactions": 4991,
      "Ġbreast": 4992,
      "Ġmicrob": 4993,
      "Ġconcern": 4994,
      "Ġawareness": 4995,
      "Ġaer": 4996,
      "add": 4997,
      "ĠWhere": 4998,
      "Ġattrib": 4999,
      "Ġshell": 5000,
      "Ġcorresp": 5001,
      "Ġclassroom": 5002,
      "ĠCanada": 5003,
      "ĠDevelop": 5004,
      "rs": 5005,
      "Ġcand": 5006,
      "Ġeight": 5007,
      "ĠDi": 5008,
      "Ġleads": 5009,
      "43": 5010,
      "Ġsend": 5011,
      "Ġshower": 5012,
      "oves": 5013,
      "Ġwaiting": 5014,
      "==": 5015,
      "Ġcm": 5016,
      "Ġcup": 5017,
      "Ġpup": 5018,
      "Ġassum": 5019,
      "Ġconsidering": 5020,
      "Ġaudio": 5021,
      "ĠAbout": 5022,
      "ĠJohn": 5023,
      "can": 5024,
      "gy": 5025,
      "ye": 5026,
      "Ġwalking": 5027,
      "Ġtomat": 5028,
      "Ġhous": 5029,
      "idity": 5030,
      "Ġstories": 5031,
      "Ġitem": 5032,
      "DA": 5033,
      "Ġped": 5034,
      "ĠPark": 5035,
      "active": 5036,
      "Ġelev": 5037,
      "Ġlabel": 5038,
      "Ġpurposes": 5039,
      "Ġtoxic": 5040,
      "ĠAugust": 5041,
      "Ġmild": 5042,
      "Ġcompost": 5043,
      "Ġcoal": 5044,
      "Ġoffering": 5045,
      "Ġowner": 5046,
      "Ġorganisms": 5047,
      "Ġpolicy": 5048,
      "print": 5049,
      "-S": 5050,
      "RO": 5051,
      "Ġtoward": 5052,
      "Ġnames": 5053,
      "Ġratio": 5054,
      "Ġsud": 5055,
      "-time": 5056,
      "Ġappears": 5057,
      "paration": 5058,
      "Ġaffects": 5059,
      "ĠEnvironment": 5060,
      "Ġintroduced": 5061,
      "Ġlifestyle": 5062,
      "Pre": 5063,
      "alle": 5064,
      "arn": 5065,
      "body": 5066,
      "tered": 5067,
      "Ġtechnical": 5068,
      "Ġafford": 5069,
      "Ġtried": 5070,
      "cers": 5071,
      "iers": 5072,
      "Ġrenew": 5073,
      "ulner": 5074,
      "ĠWill": 5075,
      "Ġarm": 5076,
      "Ġinstit": 5077,
      "Ġguidelines": 5078,
      "ĠAssoci": 5079,
      "Ġsed": 5080,
      "Ġplug": 5081,
      "Ġadvent": 5082,
      "Ġproducing": 5083,
      "Ġrespir": 5084,
      "Ġpictures": 5085,
      "65": 5086,
      "nes": 5087,
      "ingu": 5088,
      "Ġfo": 5089,
      "Ġdress": 5090,
      "Ġrecept": 5091,
      "acc": 5092,
      "opy": 5093,
      "Ġshared": 5094,
      "Ġvaccine": 5095,
      "Ġreferred": 5096,
      "Ġvitamin": 5097,
      "48": 5098,
      "Ġwouldn": 5099,
      "Ġsurvey": 5100,
      "Ġtransition": 5101,
      "edia": 5102,
      "Ġjump": 5103,
      "Ġmixed": 5104,
      "Ġarchitect": 5105,
      "Ġmobile": 5106,
      "des": 5107,
      "lements": 5108,
      "unity": 5109,
      "ĠMicro": 5110,
      "dule": 5111,
      "Ġmeals": 5112,
      "Ġinvolve": 5113,
      "uracy": 5114,
      "sec": 5115,
      "uments": 5116,
      "Ġleaving": 5117,
      "Ġcompounds": 5118,
      "Ġprinting": 5119,
      "roup": 5120,
      "acters": 5121,
      "Ġcontrast": 5122,
      "pected": 5123,
      "Ġrefers": 5124,
      "Ġcontinues": 5125,
      "Ġchallenging": 5126,
      "anes": 5127,
      "Ġplate": 5128,
      "rowing": 5129,
      "Ġfarmers": 5130,
      "ĠInternational": 5131,
      "-on": 5132,
      "bal": 5133,
      "iples": 5134,
      "asive": 5135,
      "osen": 5136,
      "ĠBet": 5137,
      "ormal": 5138,
      "Ġperhaps": 5139,
      "ĠUp": 5140,
      "Ġrow": 5141,
      "Ġhardware": 5142,
      "Ġprogramming": 5143,
      "fortunately": 5144,
      "Ġsudden": 5145,
      "mary": 5146,
      "Ġbot": 5147,
      "Ġshot": 5148,
      "ĠHis": 5149,
      "Ġdefinition": 5150,
      "Ġclinical": 5151,
      "Ġspirit": 5152,
      "top": 5153,
      "Ġkil": 5154,
      "Ġlooked": 5155,
      "Ġfeedback": 5156,
      "Ġfossil": 5157,
      "uk": 5158,
      "Ġpure": 5159,
      "ĠHer": 5160,
      "Ġconsists": 5161,
      "Ġformula": 5162,
      "Ġboat": 5163,
      "Ġdriver": 5164,
      "Ġfur": 5165,
      "Ġfilled": 5166,
      "ulum": 5167,
      "ĠST": 5168,
      "Ġotherwise": 5169,
      "Ġkinds": 5170,
      "Ġnormally": 5171,
      "Ġconcentration": 5172,
      "Ġsou": 5173,
      "Ġwhatever": 5174,
      "Ġintake": 5175,
      "Ġturns": 5176,
      "Ġestimated": 5177,
      "organ": 5178,
      "Ġprem": 5179,
      "Ġmajority": 5180,
      "37": 5181,
      "mic": 5182,
      "Ġcrop": 5183,
      "antic": 5184,
      "Ġsunlight": 5185,
      "Ġerror": 5186,
      "Ġreplacement": 5187,
      "works": 5188,
      "ĠFebruary": 5189,
      "-D": 5190,
      "Ġ...ĊĊ": 5191,
      "Ġbread": 5192,
      "Ġfasc": 5193,
      "Ġhop": 5194,
      "Ġunless": 5195,
      "ĠEnergy": 5196,
      "',": 5197,
      "Ġtun": 5198,
      "ĠBas": 5199,
      "Ġsufficient": 5200,
      "Ġdishes": 5201,
      "Ġminerals": 5202,
      "Ġabsolute": 5203,
      "Ġportion": 5204,
      "olve": 5205,
      "Ġwhose": 5206,
      "Ġshoot": 5207,
      "ially": 5208,
      "ĠHar": 5209,
      "Ġrecovery": 5210,
      "Ġdecided": 5211,
      "Ġpotat": 5212,
      "Ġdamaged": 5213,
      "Ġcardi": 5214,
      "-related": 5215,
      "Answer": 5216,
      "ĠSaf": 5217,
      "Ġcomment": 5218,
      "ĠFound": 5219,
      "ĠEngine": 5220,
      "Ġlawn": 5221,
      "ĠConsider": 5222,
      "-B": 5223,
      "lim": 5224,
      "Ġgir": 5225,
      "rip": 5226,
      "Ġcheese": 5227,
      "Ġlocations": 5228,
      "Ġrights": 5229,
      "hemat": 5230,
      "Ġconcepts": 5231,
      "Ġsurvive": 5232,
      "More": 5233,
      "Not": 5234,
      "cious": 5235,
      "ii": 5236,
      "ĪĴ": 5237,
      "requ": 5238,
      "Ġmath": 5239,
      "Ġtoler": 5240,
      "see": 5241,
      "Ġadminist": 5242,
      "ovember": 5243,
      "Ġcompleted": 5244,
      "Ġdestro": 5245,
      "Ġsen": 5246,
      "Ġborn": 5247,
      "Ġstrain": 5248,
      "Ġoccup": 5249,
      "Ġthoughts": 5250,
      ".)": 5251,
      "LE": 5252,
      "itting": 5253,
      "Ġdust": 5254,
      "ĠAM": 5255,
      "Ġclosed": 5256,
      "Ġstanding": 5257,
      "Ġconfig": 5258,
      "Ġmotiv": 5259,
      "Ġslowly": 5260,
      "ĠFlorida": 5261,
      "comes": 5262,
      "Ġfig": 5263,
      "rie": 5264,
      "ĠLike": 5265,
      "Ġconfirm": 5266,
      "Ġpercentage": 5267,
      "Ġisland": 5268,
      "Ġviol": 5269,
      "ĠBoth": 5270,
      "Ġproduces": 5271,
      "Ġcorrectly": 5272,
      "Ġhospital": 5273,
      "mark": 5274,
      "uum": 5275,
      "Ġring": 5276,
      "Ġshad": 5277,
      "Ġrelative": 5278,
      "Ġbeauty": 5279,
      "nect": 5280,
      "oke": 5281,
      "ĠTake": 5282,
      "ĠWild": 5283,
      "emy": 5284,
      "Ġatoms": 5285,
      "Ġcharacters": 5286,
      "Ġcapable": 5287,
      "Ġsamples": 5288,
      "Fe": 5289,
      "Ġtight": 5290,
      "Ġsides": 5291,
      "Ġpush": 5292,
      "ulin": 5293,
      "Ġassemb": 5294,
      "Ġchart": 5295,
      "ube": 5296,
      "Ġnovel": 5297,
      "ĠColle": 5298,
      "Ġbillion": 5299,
      "Ġmamm": 5300,
      "Ġhom": 5301,
      "Ġnorth": 5302,
      "ample": 5303,
      "ĠCB": 5304,
      "Ġdelicious": 5305,
      "Ġbuying": 5306,
      "Ġobtained": 5307,
      "New": 5308,
      "].": 5309,
      "Ġtutor": 5310,
      "Ġextensive": 5311,
      "ĠAdd": 5312,
      "Ġrestaur": 5313,
      "Ġperiods": 5314,
      "First": 5315,
      "]Ċ": 5316,
      "hus": 5317,
      "what": 5318,
      "inations": 5319,
      "Ġzero": 5320,
      "Ġdescribe": 5321,
      "ĠCOVID": 5322,
      "Ġinfluen": 5323,
      "Ġdecrease": 5324,
      "):": 5325,
      "chers": 5326,
      "Ġath": 5327,
      "eli": 5328,
      "Ġworldwide": 5329,
      "Ġcorn": 5330,
      "ographic": 5331,
      "Ġmac": 5332,
      "arter": 5333,
      "otic": 5334,
      "Ġclothing": 5335,
      "ossible": 5336,
      "Ġcit": 5337,
      "anges": 5338,
      "Ġagre": 5339,
      "ĠKnow": 5340,
      "oys": 5341,
      "Ġprompt": 5342,
      "Ġcapture": 5343,
      "ĠJanuary": 5344,
      "Ġban": 5345,
      "icon": 5346,
      "ĠSub": 5347,
      "apor": 5348,
      "Ġrocks": 5349,
      "Ġcoat": 5350,
      "Ġmedication": 5351,
      "ĠCheck": 5352,
      ");": 5353,
      "-th": 5354,
      "umps": 5355,
      "ĠVal": 5356,
      "Ġsupplement": 5357,
      "going": 5358,
      "oons": 5359,
      "ocolate": 5360,
      "ishes": 5361,
      "Ġinject": 5362,
      "rote": 5363,
      "ĠInc": 5364,
      "Ġindex": 5365,
      "Ġdiagram": 5366,
      "hemical": 5367,
      "39": 5368,
      "ionally": 5369,
      "ĠMc": 5370,
      "Ġcarried": 5371,
      "Ġvisible": 5372,
      "Ġcombined": 5373,
      "Ġcraft": 5374,
      "Over": 5375,
      "ĠCare": 5376,
      "ardens": 5377,
      "Ġbrush": 5378,
      "Ġbacterial": 5379,
      "Ġbroken": 5380,
      "Ġparticipants": 5381,
      "Ġwaters": 5382,
      "Ġble": 5383,
      "idth": 5384,
      "ĠII": 5385,
      "asts": 5386,
      "airy": 5387,
      "Ġsitting": 5388,
      "Ġopening": 5389,
      "Ġremoving": 5390,
      "Ġversat": 5391,
      "Ġfamiliar": 5392,
      "Ġphenomen": 5393,
      "ĠSeptember": 5394,
      "Ġacids": 5395,
      "Ġelectronic": 5396,
      "Ġmechanical": 5397,
      "uilding": 5398,
      "CO": 5399,
      "RI": 5400,
      "ugg": 5401,
      "Ġdu": 5402,
      "Ġstability": 5403,
      "Ġformat": 5404,
      "Ġrequest": 5405,
      "Ġears": 5406,
      "Ġsecret": 5407,
      "pring": 5408,
      "Ġputting": 5409,
      "ypes": 5410,
      "EO": 5411,
      "Ġnose": 5412,
      "Ġstock": 5413,
      "Ġshut": 5414,
      "Ġunc": 5415,
      "Ġtrail": 5416,
      "Ġcovers": 5417,
      "Ġtopics": 5418,
      "ĠIndian": 5419,
      "Ġannual": 5420,
      "Don": 5421,
      "Ġdent": 5422,
      "oper": 5423,
      "erent": 5424,
      "hyl": 5425,
      "Ġcontaining": 5426,
      "Ġcomputers": 5427,
      "Ġinteractions": 5428,
      "ĠInstead": 5429,
      "Ġcopy": 5430,
      "Ġkitchen": 5431,
      "59": 5432,
      "De": 5433,
      "uzz": 5434,
      "Ġseeing": 5435,
      "Ġvolun": 5436,
      "Ġintended": 5437,
      "ressed": 5438,
      "Ġadds": 5439,
      "arsh": 5440,
      "bris": 5441,
      "Ġconducted": 5442,
      "Ġsharp": 5443,
      "Use": 5444,
      "zer": 5445,
      "that": 5446,
      "Ġchrom": 5447,
      "Ġspent": 5448,
      "Ġattached": 5449,
      "Ġcharging": 5450,
      "Ġbegins": 5451,
      "Ġmeeting": 5452,
      "Ġtum": 5453,
      "Ġmal": 5454,
      "ĠSupp": 5455,
      "ĠMex": 5456,
      "Ġperman": 5457,
      "Ġtrade": 5458,
      "Ġtested": 5459,
      "Ġjournal": 5460,
      "Ġhunting": 5461,
      "Ġtal": 5462,
      "Ġgall": 5463,
      "Ġbee": 5464,
      "ĠHist": 5465,
      "Ġaccuracy": 5466,
      "rence": 5467,
      "Ġvarieties": 5468,
      "Ġmatrix": 5469,
      "Ġclosely": 5470,
      "According": 5471,
      "ophy": 5472,
      "Ġsheet": 5473,
      "Ġlesson": 5474,
      "ĠPlant": 5475,
      "Ġstructural": 5476,
      "vents": 5477,
      "Ġstages": 5478,
      "Ġseven": 5479,
      "ĠGood": 5480,
      "Ġrecipe": 5481,
      "obe": 5482,
      "ĠOrgan": 5483,
      "Ġdoub": 5484,
      "isation": 5485,
      "Ġrein": 5486,
      "Ġvulner": 5487,
      "ĠPat": 5488,
      "Ġsharing": 5489,
      "ocking": 5490,
      "Ġabund": 5491,
      "Ġdisorders": 5492,
      "Ġwarming": 5493,
      "idden": 5494,
      "rial": 5495,
      "isk": 5496,
      "ags": 5497,
      "Ġtall": 5498,
      "itivity": 5499,
      "ĠPower": 5500,
      "ĠStart": 5501,
      "Ġdecide": 5502,
      "Ġinnovative": 5503,
      "iated": 5504,
      "Ġwoman": 5505,
      "Ġlung": 5506,
      "Ġlessons": 5507,
      "Ġfelt": 5508,
      "Ġdensity": 5509,
      "orses": 5510,
      "Ġgreenhouse": 5511,
      "Ġbelieved": 5512,
      "Ġinformed": 5513,
      "Ġpregnancy": 5514,
      "Ġcloser": 5515,
      "Ġvel": 5516,
      "Ġinner": 5517,
      "Ġdirt": 5518,
      "Ġmeant": 5519,
      "Ġpartners": 5520,
      "Ġphysic": 5521,
      "Ġclearly": 5522,
      "Ġvirtual": 5523,
      "Ġdivided": 5524,
      "Ġbrief": 5525,
      "anc": 5526,
      "ache": 5527,
      "Ġunivers": 5528,
      "Ġhelped": 5529,
      "Ġmeasurements": 5530,
      "Ġlinked": 5531,
      "Cons": 5532,
      "Ġstain": 5533,
      "ventional": 5534,
      "Ġcooling": 5535,
      "Ġinstalled": 5536,
      "CH": 5537,
      "Ġpark": 5538,
      "Ġbaking": 5539,
      "igan": 5540,
      "Ġends": 5541,
      "Ġtwice": 5542,
      "Ġrepresents": 5543,
      "Ġemotions": 5544,
      "ĠLearning": 5545,
      "Let": 5546,
      "Ġinvent": 5547,
      "asters": 5548,
      "Ġnurs": 5549,
      "Ġstation": 5550,
      "Ġcompare": 5551,
      "Ġwindows": 5552,
      "Ġhousehold": 5553,
      "Ġprocedures": 5554,
      "PA": 5555,
      "ĠPM": 5556,
      "Ġinsights": 5557,
      "Ġbelong": 5558,
      "Ġfiles": 5559,
      "Ġbalanced": 5560,
      "US": 5561,
      "Ġdoll": 5562,
      "berry": 5563,
      "Ġreduces": 5564,
      "Ġcareful": 5565,
      "Ġpossess": 5566,
      "Ġbuildings": 5567,
      "Ġmulti": 5568,
      "Ġaquarium": 5569,
      "Ġpowder": 5570,
      "Ġrapidly": 5571,
      "Ġpreferences": 5572,
      "Ġdatab": 5573,
      "41": 5574,
      "Ġbank": 5575,
      "Ġtow": 5576,
      "Ġnation": 5577,
      "cember": 5578,
      "ĠClean": 5579,
      "oyal": 5580,
      "Conclusion": 5581,
      "42": 5582,
      "ĠHome": 5583,
      "ether": 5584,
      "estone": 5585,
      "ĠMac": 5586,
      "ĠGold": 5587,
      "ibilities": 5588,
      "ifications": 5589,
      "Ġdecades": 5590,
      "Ġminute": 5591,
      "Ġmetals": 5592,
      "Ġfixed": 5593,
      "ĠCollege": 5594,
      "\"The": 5595,
      "tion": 5596,
      "Ġfirm": 5597,
      "amental": 5598,
      "ĠDC": 5599,
      "Ġcompr": 5600,
      "Ġuniverse": 5601,
      "Ġspray": 5602,
      "Ġblocks": 5603,
      "ĠInternet": 5604,
      "Ġthermal": 5605,
      "Ġimagine": 5606,
      "Ġparameters": 5607,
      "OW": 5608,
      "rest": 5609,
      "onge": 5610,
      "Ġinch": 5611,
      "ara": 5612,
      "ensions": 5613,
      "Ġtraffic": 5614,
      "Ġworkers": 5615,
      "Ġcultural": 5616,
      "Ġinteraction": 5617,
      "Ġarrange": 5618,
      "ĠStudents": 5619,
      "-F": 5620,
      "iam": 5621,
      "Ġahead": 5622,
      "het": 5623,
      "Ġsouth": 5624,
      "iled": 5625,
      "Ġgather": 5626,
      "Ġgave": 5627,
      "Ġgift": 5628,
      "ĠSan": 5629,
      "ĠCor": 5630,
      "ĠDiff": 5631,
      "ĠExpl": 5632,
      "Ġanswers": 5633,
      "Ġhoriz": 5634,
      "dy": 5635,
      "point": 5636,
      "Ġaid": 5637,
      "Ġneuro": 5638,
      "ĠMet": 5639,
      "Ġenable": 5640,
      "ĠHel": 5641,
      "ĠOff": 5642,
      "reek": 5643,
      "Ġgrade": 5644,
      "Ġcommunicate": 5645,
      "Ġsurvival": 5646,
      "ĠLearn": 5647,
      "aul": 5648,
      "ker": 5649,
      "Ġ{": 5650,
      "Ġlux": 5651,
      "Ġoral": 5652,
      "Ġwasn": 5653,
      "Ġcalories": 5654,
      "Ġturning": 5655,
      "Ġremoval": 5656,
      "Ġnitrogen": 5657,
      "vision": 5658,
      "aint": 5659,
      "ĠBen": 5660,
      "ĠData": 5661,
      "Ġdisorder": 5662,
      "ava": 5663,
      "Ġthanks": 5664,
      "Ġinterior": 5665,
      "Ġexplains": 5666,
      "ĠAnother": 5667,
      "Ġpreventing": 5668,
      "Ġdiscussion": 5669,
      "Ġexcessive": 5670,
      "een": 5671,
      "ĠFree": 5672,
      "Ġoutcomes": 5673,
      "Ġflour": 5674,
      "ĠProject": 5675,
      "ĠThrough": 5676,
      "Ġpresented": 5677,
      "Ġrecords": 5678,
      "Ġtor": 5679,
      "Ġguess": 5680,
      "brid": 5681,
      "Ġlaws": 5682,
      "Ġhappened": 5683,
      "Ġexplained": 5684,
      "Ġschedule": 5685,
      "rating": 5686,
      "ĠIS": 5687,
      "Ġcomposition": 5688,
      "ichigan": 5689,
      "ĠGarden": 5690,
      "Ġscr": 5691,
      "Ġanywhere": 5692,
      "Ġembod": 5693,
      "Ġcorrespond": 5694,
      "38": 5695,
      "cule": 5696,
      "Ġtire": 5697,
      "Ġforget": 5698,
      "Ġrice": 5699,
      "Ġagree": 5700,
      "Ġfacts": 5701,
      "Ġfinish": 5702,
      "Ġsuggested": 5703,
      "Ġmedications": 5704,
      "Ġveterin": 5705,
      "Ġcart": 5706,
      "Ġnar": 5707,
      "iform": 5708,
      "Ġran": 5709,
      "Ġchronic": 5710,
      "ĠInter": 5711,
      "Ġraised": 5712,
      "Ġdiscovery": 5713,
      "Ġfacilit": 5714,
      "Ġdiagnosis": 5715,
      "ĠRemember": 5716,
      "iest": 5717,
      "ĠCam": 5718,
      "acts": 5719,
      "Ġadequ": 5720,
      "Ġdespite": 5721,
      "Ġedges": 5722,
      "Ġconfidence": 5723,
      "Ġcourses": 5724,
      "Ġreactions": 5725,
      "Ġexciting": 5726,
      "Ġguidance": 5727,
      "44": 5728,
      "fall": 5729,
      "Ġsick": 5730,
      "athy": 5731,
      "asure": 5732,
      "Ġdebris": 5733,
      "Ġfacilities": 5734,
      "Ġorigin": 5735,
      "Ġmolecular": 5736,
      "-n": 5737,
      "Comp": 5738,
      "bird": 5739,
      "Ġpin": 5740,
      "Ġdram": 5741,
      "stone": 5742,
      "Ġpros": 5743,
      "Ġvast": 5744,
      "Ġplayed": 5745,
      "Ġmechanism": 5746,
      "Ġcampa": 5747,
      "Ġbehaviors": 5748,
      "52": 5749,
      "Dr": 5750,
      "IL": 5751,
      "gers": 5752,
      "Ġpages": 5753,
      "Ġregist": 5754,
      "Ġdecl": 5755,
      "Ġseeking": 5756,
      "Ġfollows": 5757,
      "Ġdownload": 5758,
      "Ġkeeps": 5759,
      "Ġsilver": 5760,
      "gin": 5761,
      "Ġbear": 5762,
      "ĠIP": 5763,
      "Ġcann": 5764,
      "Ġdeeper": 5765,
      "ĠMain": 5766,
      "iber": 5767,
      "Ġreports": 5768,
      "Ġexplan": 5769,
      "Ġletter": 5770,
      "Ġaccessible": 5771,
      "Ġfinally": 5772,
      "Ġexercises": 5773,
      "Ġentirely": 5774,
      "Ġfriendly": 5775,
      "Ġdynamic": 5776,
      "Ġbite": 5777,
      "Ġfold": 5778,
      "Ġgate": 5779,
      "Ġcultiv": 5780,
      "Ġminimal": 5781,
      "Although": 5782,
      "Ġdiversity": 5783,
      "Ġinflammation": 5784,
      "Ġcable": 5785,
      "aker": 5786,
      "Ġconsume": 5787,
      "Ġfacility": 5788,
      "51": 5789,
      "Ġsong": 5790,
      "Ġdial": 5791,
      "icing": 5792,
      "Ġperspective": 5793,
      "Ġruns": 5794,
      "Ġpanel": 5795,
      "]ĊĊ": 5796,
      "gans": 5797,
      "mas": 5798,
      "Ġloose": 5799,
      "ressure": 5800,
      "Ġvacuum": 5801,
      "Ġefficiently": 5802,
      "ĠService": 5803,
      "ĠOctober": 5804,
      "stract": 5805,
      "ĠSy": 5806,
      "ĠSil": 5807,
      "ĠMark": 5808,
      "ĠBre": 5809,
      "Ġworse": 5810,
      "Ġclothes": 5811,
      "hesis": 5812,
      "Ġvegan": 5813,
      "Ġcorner": 5814,
      "Ġquantum": 5815,
      "Cont": 5816,
      "mal": 5817,
      "mers": 5818,
      "ĠIN": 5819,
      "Ġtruth": 5820,
      "Ġmyself": 5821,
      "Ġtransp": 5822,
      "Ġbreeds": 5823,
      "Ġessay": 5824,
      "Ġsuccessfully": 5825,
      "apping": 5826,
      "Ġproposed": 5827,
      "Ġassistance": 5828,
      "bra": 5829,
      "stream": 5830,
      "amins": 5831,
      "anted": 5832,
      "Ġpoison": 5833,
      "ception": 5834,
      "Ġpossibly": 5835,
      "Ġpassed": 5836,
      "Ġlisted": 5837,
      "Ġsales": 5838,
      "Ġrecognize": 5839,
      "Ġcopper": 5840,
      "pec": 5841,
      "ĠPhys": 5842,
      "ĠBr": 5843,
      "ĠLa": 5844,
      "ĠUV": 5845,
      "ĠKing": 5846,
      "Ġmeasuring": 5847,
      "Ġapproaches": 5848,
      "Ġprotective": 5849,
      "Ġcompetition": 5850,
      "Ġemployees": 5851,
      "Or": 5852,
      "Reg": 5853,
      "kin": 5854,
      "oline": 5855,
      "ifies": 5856,
      "Ġshift": 5857,
      "Ġgrain": 5858,
      "Ġconnections": 5859,
      "Ġconstantly": 5860,
      "Ġsatisf": 5861,
      "From": 5862,
      "Ġfa": 5863,
      "olving": 5864,
      "ĠCity": 5865,
      "Ġhaven": 5866,
      "Ġwearing": 5867,
      "Ġmanaging": 5868,
      "Ġheads": 5869,
      "Ġcooked": 5870,
      "Ġpriority": 5871,
      "ĠAfrican": 5872,
      "Ġfer": 5873,
      "Ġment": 5874,
      "eless": 5875,
      "ĠSch": 5876,
      "Ġknows": 5877,
      "Ġrelig": 5878,
      "Ġfamous": 5879,
      "Ġfeelings": 5880,
      "Ġcapabilities": 5881,
      "Ġbiggest": 5882,
      "Ġelectrons": 5883,
      "ascular": 5884,
      "Ġspeaker": 5885,
      "Ġprinciples": 5886,
      "Ġagriculture": 5887,
      ";ĊĊ": 5888,
      "CE": 5889,
      "Ġtip": 5890,
      "Ġcoc": 5891,
      "ĠOpen": 5892,
      "apers": 5893,
      "Ġinstruction": 5894,
      "Ġcapital": 5895,
      "Ġoperate": 5896,
      "rastructure": 5897,
      "Ġcollege": 5898,
      "Ġmm": 5899,
      "Ġstars": 5900,
      "Ġproport": 5901,
      "Ġwash": 5902,
      "ĠSea": 5903,
      "Ġradiation": 5904,
      "Ġsubstances": 5905,
      "Ġbelief": 5906,
      "Sp": 5907,
      "lers": 5908,
      "Ġol": 5909,
      "Ġwish": 5910,
      "ĠpH": 5911,
      "ĠToday": 5912,
      "Ġpreparation": 5913,
      "Ġblind": 5914,
      "Ġarray": 5915,
      "Ġsolve": 5916,
      "Ġcollected": 5917,
      "Ġcogn": 5918,
      "ircle": 5919,
      "Ġenab": 5920,
      "ĠLED": 5921,
      "riculum": 5922,
      "Ġregulations": 5923,
      "Ġmovements": 5924,
      "Ġjobs": 5925,
      "aired": 5926,
      "ĠCre": 5927,
      "ĠDet": 5928,
      "alled": 5929,
      "Ġspr": 5930,
      "98": 5931,
      "vis": 5932,
      "itors": 5933,
      "aked": 5934,
      "Ġattend": 5935,
      "ĠWhite": 5936,
      "ĠProt": 5937,
      "Ġbigger": 5938,
      "Ġmeasurement": 5939,
      "Ġinstallation": 5940,
      "Ġswimming": 5941,
      "Ġcryst": 5942,
      "##": 5943,
      "vit": 5944,
      "Ġsouthern": 5945,
      "ompl": 5946,
      "agement": 5947,
      "Ġvariable": 5948,
      "Ġphotograph": 5949,
      "ĠEngland": 5950,
      "Ġkidney": 5951,
      "uls": 5952,
      "ĠCat": 5953,
      "uma": 5954,
      "ĠPlease": 5955,
      "Ġchlor": 5956,
      "Ġwheels": 5957,
      "Ġspaces": 5958,
      "Ġprey": 5959,
      "ondon": 5960,
      "Ġraise": 5961,
      "Ġmining": 5962,
      "Ġinspect": 5963,
      "Ġenthus": 5964,
      "Ġcreatures": 5965,
      "Ġdescription": 5966,
      "Ġforests": 5967,
      "\"Ċ": 5968,
      "46": 5969,
      "Rem": 5970,
      "Read": 5971,
      "Ġsight": 5972,
      "Ġcos": 5973,
      "itter": 5974,
      "urch": 5975,
      "enses": 5976,
      "Ġmineral": 5977,
      "Ġvalve": 5978,
      "Ġinvestment": 5979,
      "Ġsessions": 5980,
      "Ġstroke": 5981,
      "Ġrespiratory": 5982,
      "nel": 5983,
      "Ġnotes": 5984,
      "Ġpainting": 5985,
      "Ġdiscussed": 5986,
      "Ġsubstance": 5987,
      "Ġfundamental": 5988,
      "Ġindependent": 5989,
      "ĠJapanese": 5990,
      "Ġcab": 5991,
      "Ġwal": 5992,
      "ĠWork": 5993,
      "Ġchocolate": 5994,
      "ĠNovember": 5995,
      "Ġjud": 5996,
      "Ġunlike": 5997,
      "Ġmanner": 5998,
      "Ġstring": 5999,
      "Ġreplaced": 6000,
      "Ġcontinued": 6001,
      "ffective": 6002,
      "Ġtitle": 6003,
      "ĠTwo": 6004,
      "Ġdedicated": 6005,
      "Ġmembrane": 6006,
      "Ġtap": 6007,
      "Ġflying": 6008,
      "Ġholes": 6009,
      "soft": 6010,
      "Ġmanual": 6011,
      "Ġdepression": 6012,
      "Ġrecognition": 6013,
      "Ġagricultural": 6014,
      "Ġaest": 6015,
      "Ġpand": 6016,
      "icides": 6017,
      "Ġnorthern": 6018,
      "ĠSometimes": 6019,
      "ĠDec": 6020,
      "Ġclub": 6021,
      "inese": 6022,
      "Ġphysics": 6023,
      "Ġpanels": 6024,
      "Ġsustainability": 6025,
      "ometry": 6026,
      "Ġlenses": 6027,
      "Ġhistorical": 6028,
      "orous": 6029,
      "Ġyog": 6030,
      "ado": 6031,
      "Ġrural": 6032,
      "Ġplus": 6033,
      "ĠEast": 6034,
      "Ġamb": 6035,
      "Ġrefrig": 6036,
      "Ġconsumers": 6037,
      "Ġverte": 6038,
      "Ġsusp": 6039,
      "Ġinnovation": 6040,
      "-se": 6041,
      "Te": 6042,
      "inction": 6043,
      "Ġindoor": 6044,
      "Ġinterp": 6045,
      "Ġeffectiveness": 6046,
      "Ġtissues": 6047,
      "Ġirrit": 6048,
      "Ġwonderful": 6049,
      "App": 6050,
      "hors": 6051,
      "Ġion": 6052,
      "Ġoven": 6053,
      "Ġmort": 6054,
      "Ġmission": 6055,
      "ĠPol": 6056,
      "ĠLook": 6057,
      "Ġspots": 6058,
      "Ġphosph": 6059,
      "Ġherb": 6060,
      "Ġbasically": 6061,
      "Ġrestrict": 6062,
      "Ġargument": 6063,
      "Ġpolitical": 6064,
      "DF": 6065,
      "entle": 6066,
      "Ġliver": 6067,
      "ama": 6068,
      "istant": 6069,
      "Ġmanip": 6070,
      "Ġknowing": 6071,
      "Ġphotography": 6072,
      "Ġrecorded": 6073,
      "Ġ-->": 6074,
      "Ġasking": 6075,
      "ĠFore": 6076,
      "Ġkg": 6077,
      "Ġpreserv": 6078,
      "ĠThus": 6079,
      "Ġbiod": 6080,
      "Ġsafely": 6081,
      "Ġholds": 6082,
      "ĠPhil": 6083,
      "Ġsubstant": 6084,
      "Ġmagnetic": 6085,
      "Before": 6086,
      "\"ĊĊ": 6087,
      "85": 6088,
      "box": 6089,
      "ĠTex": 6090,
      "ĠHave": 6091,
      "outs": 6092,
      "Ġoverl": 6093,
      "ontal": 6094,
      "Ġparas": 6095,
      "Ġminimize": 6096,
      "Ġmanufacturers": 6097,
      "ĠTechnology": 6098,
      "Ġtrigger": 6099,
      "96": 6100,
      "inant": 6101,
      "ndrome": 6102,
      "Ġmer": 6103,
      "ĠTV": 6104,
      "osion": 6105,
      "ĠMus": 6106,
      "ĠExt": 6107,
      "Ġcloud": 6108,
      "Ġguarant": 6109,
      "Ġlisten": 6110,
      "Ġmarketing": 6111,
      "Ġmolecule": 6112,
      "Ġaudience": 6113,
      "Ġremaining": 6114,
      "________": 6115,
      "Ġtube": 6116,
      "Me": 6117,
      "rations": 6118,
      "Ġlock": 6119,
      "Ġyard": 6120,
      "ĠSee": 6121,
      "Ġseg": 6122,
      "eren": 6123,
      "Ġobst": 6124,
      "ĠClass": 6125,
      "Ġcircum": 6126,
      "Ġsmoke": 6127,
      "Ġbreath": 6128,
      "-the": 6129,
      "53": 6130,
      "Get": 6131,
      "no": 6132,
      "ras": 6133,
      "vin": 6134,
      "Ġalumin": 6135,
      "Ġaccum": 6136,
      "Ġstands": 6137,
      "Ġprofessor": 6138,
      "Ġinjuries": 6139,
      "Ġpuppy": 6140,
      "-of": 6141,
      "47": 6142,
      "orter": 6143,
      "Ġfan": 6144,
      "ald": 6145,
      "Ġrab": 6146,
      "Ġprovider": 6147,
      "ĠVis": 6148,
      "Ġvet": 6149,
      "ommod": 6150,
      "Ġpolar": 6151,
      "Ġfrequent": 6152,
      "Ġbreathing": 6153,
      "/s": 6154,
      "54": 6155,
      "AB": 6156,
      "ait": 6157,
      "men": 6158,
      "ĠÎ": 6159,
      "ĠBro": 6160,
      "Ġcommand": 6161,
      "Ġextended": 6162,
      "Ġprotected": 6163,
      "Ġstudying": 6164,
      "Ġautomatically": 6165,
      "Ġcolleag": 6166,
      "ris": 6167,
      "Ġcivil": 6168,
      "Ġpests": 6169,
      "irrel": 6170,
      "unning": 6171,
      "ĠDist": 6172,
      "Ġknew": 6173,
      "ĠLong": 6174,
      "Ġpeace": 6175,
      "Ġexperiments": 6176,
      "cover": 6177,
      "Ġopposite": 6178,
      "Ġhabits": 6179,
      "Ġflavors": 6180,
      "Ġloved": 6181,
      "heet": 6182,
      "Ġpipe": 6183,
      "Ġdream": 6184,
      "Ġfewer": 6185,
      "Ġtrained": 6186,
      "Ġgenet": 6187,
      "Ġexploring": 6188,
      "Ġmassive": 6189,
      "ĠGuide": 6190,
      "Ġrevolution": 6191,
      "97": 6192,
      "how": 6193,
      "Ġcards": 6194,
      "enous": 6195,
      "ĠSociety": 6196,
      "Ġseal": 6197,
      "aping": 6198,
      "Ġdioxide": 6199,
      "Ġcalls": 6200,
      "ugs": 6201,
      "Ġconflic": 6202,
      "Ġ>": 6203,
      "Ġcrow": 6204,
      "ayer": 6205,
      "Ġorange": 6206,
      "ĠInf": 6207,
      "ientists": 6208,
      "Ġgluc": 6209,
      "Ġdefic": 6210,
      "Ġinteractive": 6211,
      "Ġfairly": 6212,
      "ua": 6213,
      "Ġnerve": 6214,
      "Ġstores": 6215,
      "Ġarticles": 6216,
      "ĠBefore": 6217,
      "ĠDecember": 6218,
      "Ġcord": 6219,
      "ĠCS": 6220,
      "ĠRef": 6221,
      "asty": 6222,
      "earchers": 6223,
      "Ġrod": 6224,
      "Ġgrows": 6225,
      "Ġtransportation": 6226,
      "Ġathlet": 6227,
      "uing": 6228,
      "Ġwings": 6229,
      "ĠTime": 6230,
      "tery": 6231,
      "Ġweigh": 6232,
      "Ġkne": 6233,
      "Ġscrew": 6234,
      "Ġoffered": 6235,
      "Ġauto": 6236,
      "Ġbiology": 6237,
      "Ġstronger": 6238,
      "eries": 6239,
      "eria": 6240,
      "Ġluck": 6241,
      "Ġalter": 6242,
      "Ġseam": 6243,
      "ĠLight": 6244,
      "Ġunus": 6245,
      "Ġdetection": 6246,
      "ommon": 6247,
      "Ġcontrols": 6248,
      "ĠExper": 6249,
      "ĠControl": 6250,
      "Ġimmediate": 6251,
      "Ġconsequences": 6252,
      "ĠFurthermore": 6253,
      "OL": 6254,
      "rors": 6255,
      "asy": 6256,
      "Ġgone": 6257,
      "sts": 6258,
      "Ġride": 6259,
      "ĠOF": 6260,
      "ĠAtl": 6261,
      "Ġconcerned": 6262,
      "Ġtrends": 6263,
      ".[": 6264,
      "itches": 6265,
      "ĠBel": 6266,
      "ritis": 6267,
      "-pro": 6268,
      "Ġincreasingly": 6269,
      "Ġmenu": 6270,
      "Ġeconomy": 6271,
      "Ġopinion": 6272,
      "west": 6273,
      "ora": 6274,
      "Ġdairy": 6275,
      "ĠSat": 6276,
      "Ġheater": 6277,
      "âĢĭ": 6278,
      "Ġcontamin": 6279,
      "ĠYear": 6280,
      "Ġinfrastructure": 6281,
      "Ġdepos": 6282,
      "Ġsupporting": 6283,
      "Ġnuts": 6284,
      "itus": 6285,
      "Ġmice": 6286,
      "rooms": 6287,
      "ĠPal": 6288,
      "Ġnoticed": 6289,
      "ĠNatural": 6290,
      "earing": 6291,
      "Ġunderlying": 6292,
      "Ġsupplies": 6293,
      "Ġterrit": 6294,
      "Ġcredit": 6295,
      "Since": 6296,
      "ivery": 6297,
      "Ġshed": 6298,
      "Ġretain": 6299,
      "Ġhem": 6300,
      "ĠBi": 6301,
      "Ġwilling": 6302,
      "Ġapplying": 6303,
      "Ġaccident": 6304,
      "Ġphil": 6305,
      "Ġserves": 6306,
      "ĠPlan": 6307,
      "Ġfinished": 6308,
      "Ġteams": 6309,
      "Ġmilitary": 6310,
      "Ġdigestive": 6311,
      "Ġdestroy": 6312,
      "ĠTur": 6313,
      "Ġchosen": 6314,
      "ĠLife": 6315,
      "Ġgravity": 6316,
      "ĠAsia": 6317,
      "Ġequation": 6318,
      "Ġselecting": 6319,
      "Ġurban": 6320,
      "Gen": 6321,
      "Ind": 6322,
      "ford": 6323,
      "Ġcere": 6324,
      "Ġcock": 6325,
      "roph": 6326,
      "uter": 6327,
      "ĠDav": 6328,
      "ĠLondon": 6329,
      "Ġtea": 6330,
      "Ġunw": 6331,
      "Ġvitamins": 6332,
      "Ġcompl": 6333,
      "Ġspeaking": 6334,
      "Ġeveryday": 6335,
      "ĠColl": 6336,
      "Ġresistant": 6337,
      "ĠCommon": 6338,
      "Share": 6339,
      "âĪĴ": 6340,
      "roid": 6341,
      "imens": 6342,
      "umes": 6343,
      "Ġsoap": 6344,
      "Ġimpossible": 6345,
      "Ġtreating": 6346,
      "ĠColor": 6347,
      "Ġsnake": 6348,
      "Ġabsorb": 6349,
      "></": 6350,
      "Ġthrive": 6351,
      "Ġhundreds": 6352,
      "Ġtropical": 6353,
      "72": 6354,
      "MS": 6355,
      "lin": 6356,
      "Ġgerm": 6357,
      "iration": 6358,
      "Ġprol": 6359,
      "ĠSun": 6360,
      "ĠCD": 6361,
      "ĠOpt": 6362,
      "appe": 6363,
      "Ġrace": 6364,
      "Ġaccommod": 6365,
      "Ġregul": 6366,
      "Ġreput": 6367,
      "Ġentertain": 6368,
      "Ġdelivery": 6369,
      "Ġmoved": 6370,
      "Ġvolunte": 6371,
      "-day": 6372,
      "then": 6373,
      "Ġsac": 6374,
      "acific": 6375,
      "Ġshru": 6376,
      "ĠOcean": 6377,
      "Ġincl": 6378,
      "Ġarms": 6379,
      "Ġaccompl": 6380,
      "Ġages": 6381,
      "Ġminor": 6382,
      "Ġgreatly": 6383,
      "Ġspecialized": 6384,
      "ĠMedical": 6385,
      "Ġdil": 6386,
      "ĠId": 6387,
      "ĠWashing": 6388,
      "Ġgoods": 6389,
      "Ġdrinking": 6390,
      "Le": 6391,
      "ikes": 6392,
      "yth": 6393,
      "Ġcott": 6394,
      "Ġgases": 6395,
      "mented": 6396,
      "ĠOb": 6397,
      "ensis": 6398,
      "Ġcheap": 6399,
      "Ġpersist": 6400,
      "Ġresponses": 6401,
      "Ġvegetable": 6402,
      "Ġindustries": 6403,
      "Ġrenewable": 6404,
      "64": 6405,
      "mi": 6406,
      "unt": 6407,
      "Ġrats": 6408,
      "ideo": 6409,
      "Ġreserv": 6410,
      "ĠJour": 6411,
      "Ġforming": 6412,
      "Ġsubs": 6413,
      "Ġbowl": 6414,
      "Ġflexibility": 6415,
      "Ġacademic": 6416,
      "-T": 6417,
      "sm": 6418,
      "ctic": 6419,
      "uts": 6420,
      "ĠSum": 6421,
      "Ġouter": 6422,
      "Ġcolumn": 6423,
      "Ġremark": 6424,
      "Ġvalid": 6425,
      "Ġpolic": 6426,
      "Ġindicates": 6427,
      "Ġalgorithms": 6428,
      "Ġfrozen": 6429,
      "Rel": 6430,
      "volution": 6431,
      "Ġbought": 6432,
      "Ġspeech": 6433,
      "Ġinsulin": 6434,
      "Ġsupports": 6435,
      "Ġapproved": 6436,
      "azon": 6437,
      "Ġzone": 6438,
      "Ġburning": 6439,
      "Ġplatforms": 6440,
      "ĠFoundation": 6441,
      "ĠTexas": 6442,
      "-res": 6443,
      "bility": 6444,
      "Ġhorses": 6445,
      "Ġlinks": 6446,
      "Ġhandling": 6447,
      "Ġmoves": 6448,
      "âĢ¦ĊĊ": 6449,
      "ĠWorks": 6450,
      "'.": 6451,
      "Ġtires": 6452,
      "erts": 6453,
      "Ġmes": 6454,
      "ĠFIG": 6455,
      "agers": 6456,
      "ĠLake": 6457,
      "Ġmeters": 6458,
      "Ġcalm": 6459,
      "auge": 6460,
      "Ġsession": 6461,
      "Ġchannel": 6462,
      "Ġveterinarian": 6463,
      "rument": 6464,
      "uis": 6465,
      "you": 6466,
      "Ġok": 6467,
      "ifier": 6468,
      "lectric": 6469,
      "Ġsupported": 6470,
      "Ġmechanisms": 6471,
      "Ġeliminate": 6472,
      "Ġachieved": 6473,
      "ĠMexico": 6474,
      "ham": 6475,
      "tt": 6476,
      "atus": 6477,
      "Ġhidden": 6478,
      "Ġrely": 6479,
      "Ġrig": 6480,
      "ocy": 6481,
      "Ġabilities": 6482,
      "Ġdetermining": 6483,
      "Ġnecessarily": 6484,
      "Ġfacing": 6485,
      "Ġfibers": 6486,
      "Ġbags": 6487,
      "Ġmountain": 6488,
      "Ġinterface": 6489,
      "49": 6490,
      "Rec": 6491,
      "ao": 6492,
      "pes": 6493,
      "Ġlik": 6494,
      "Ġyield": 6495,
      "ĠWood": 6496,
      "Ġdeer": 6497,
      "ĠRuss": 6498,
      "ago": 6499,
      "Ġinterview": 6500,
      "ĠWeb": 6501,
      "Ġharder": 6502,
      "Ġfunctionality": 6503,
      "idents": 6504,
      "ĠSal": 6505,
      "Ġalle": 6506,
      "riers": 6507,
      "Ġattractive": 6508,
      "Ġexpertise": 6509,
      "ĠAssociation": 6510,
      ";Ċ": 6511,
      "Ġtables": 6512,
      "Ġwrote": 6513,
      "Ġease": 6514,
      "Ġgentle": 6515,
      "ĠAS": 6516,
      "ĠSet": 6517,
      "Ġshif": 6518,
      "Ġhappening": 6519,
      "ĠMedic": 6520,
      "flies": 6521,
      "Ġdrops": 6522,
      "Ġtrouble": 6523,
      "eah": 6524,
      "aped": 6525,
      "Ġcouldn": 6526,
      "Ġimprovement": 6527,
      "Ġcontinuous": 6528,
      "Ġcannab": 6529,
      "log": 6530,
      "Ġpink": 6531,
      "Ġlake": 6532,
      "thritis": 6533,
      "ĠRet": 6534,
      "ourse": 6535,
      "eping": 6536,
      "Ġuniversity": 6537,
      "Ġtrim": 6538,
      "Ġampl": 6539,
      "Ġattacks": 6540,
      "Â°C": 6541,
      "Ġbehaviour": 6542,
      "Ġpermanent": 6543,
      "rite": 6544,
      "Ġchances": 6545,
      "Ġadvert": 6546,
      "Ġincome": 6547,
      "Ġapparent": 6548,
      "overn": 6549,
      "Ġperfectly": 6550,
      "Ġfitness": 6551,
      "ĠApple": 6552,
      "ĠWindows": 6553,
      "ĠCounty": 6554,
      "Ġpilot": 6555,
      "-A": 6556,
      "-ch": 6557,
      "ket": 6558,
      "|Ċ": 6559,
      "Ġbrows": 6560,
      "Ġnoted": 6561,
      "Ġscene": 6562,
      "Ġparty": 6563,
      "Ġinsurance": 6564,
      "Ġmillions": 6565,
      "Ġnetworks": 6566,
      "Ġmathemat": 6567,
      "ogenic": 6568,
      "Ġgradually": 6569,
      "\"We": 6570,
      "OD": 6571,
      "zym": 6572,
      "arge": 6573,
      "Ġcomments": 6574,
      "Ġunable": 6575,
      "Ġshoulder": 6576,
      "Ġdelay": 6577,
      "Ġcomputing": 6578,
      "Ġexistence": 6579,
      "Also": 6580,
      "Ġjoin": 6581,
      "Ġstyles": 6582,
      "ĠDevelopment": 6583,
      "ĠCBD": 6584,
      "Ġtherap": 6585,
      "omfort": 6586,
      "Ġorgans": 6587,
      "Ġvine": 6588,
      "Ġatom": 6589,
      "ĠNet": 6590,
      "agine": 6591,
      "Ġfeels": 6592,
      "Ġchemistry": 6593,
      "ĠProfessor": 6594,
      "Does": 6595,
      "heets": 6596,
      "Ġpod": 6597,
      "Ġreward": 6598,
      "ocation": 6599,
      "ĠâĢ¢": 6600,
      "Ġgrains": 6601,
      "Ġrealize": 6602,
      "Ġdirector": 6603,
      "ivalent": 6604,
      "Ġcontrolling": 6605,
      "Ġdurable": 6606,
      "During": 6607,
      "Other": 6608,
      "Ġtons": 6609,
      "Ġpel": 6610,
      "orge": 6611,
      "Ġconventional": 6612,
      "opl": 6613,
      "ĠPort": 6614,
      "Ġunf": 6615,
      "ounced": 6616,
      "ĠHuman": 6617,
      "Ġculinary": 6618,
      "-P": 6619,
      "Ġson": 6620,
      "Ġmood": 6621,
      "Ġhur": 6622,
      "Ġlived": 6623,
      "ĠTru": 6624,
      "irty": 6625,
      "ĠPract": 6626,
      "ĠNature": 6627,
      "Ġblend": 6628,
      "Ġbrings": 6629,
      "Ġfemales": 6630,
      "down": 6631,
      "gical": 6632,
      "net": 6633,
      "alysis": 6634,
      "Ġindu": 6635,
      "Ġyes": 6636,
      "Ġgardens": 6637,
      "Ġvict": 6638,
      "Ġseat": 6639,
      "ocity": 6640,
      "ĠDogs": 6641,
      "Ġcompat": 6642,
      "Ġunknown": 6643,
      "Ġaccomp": 6644,
      "Ġattach": 6645,
      "Ġsignificance": 6646,
      "ĠAtt": 6647,
      "Ġquantization": 6648,
      "Ġwatching": 6649,
      "Ġmissing": 6650,
      "Ġnervous": 6651,
      "CS": 6652,
      "TR": 6653,
      "Ġwidth": 6654,
      "Ġlapt": 6655,
      "ĠMiddle": 6656,
      "ĠUnderstanding": 6657,
      "Ġevolved": 6658,
      "phones": 6659,
      "ĠThanks": 6660,
      "Ġprofile": 6661,
      "Ġphotograp": 6662,
      "Ġpredators": 6663,
      "Ġexcited": 6664,
      "Ġintroduction": 6665,
      "Ġloop": 6666,
      ".C": 6667,
      "IP": 6668,
      "eling": 6669,
      "Ġstudied": 6670,
      "Ġpossibility": 6671,
      "Ġcrack": 6672,
      "Ġnutrient": 6673,
      "Ġgraphics": 6674,
      "uous": 6675,
      "esides": 6676,
      "Ġgal": 6677,
      "rab": 6678,
      "ĠDef": 6679,
      "ĠDraw": 6680,
      "ĠVe": 6681,
      "Ġsuffering": 6682,
      "Ġmicrow": 6683,
      "Ġconvenient": 6684,
      "rich": 6685,
      "Ġfault": 6686,
      "ented": 6687,
      "oto": 6688,
      "Ġshade": 6689,
      "Ġplanted": 6690,
      "Ġregister": 6691,
      "Ġsupposed": 6692,
      "Ġsupplements": 6693,
      "Ġsky": 6694,
      "Ġdistingu": 6695,
      "Ġengaging": 6696,
      "Ġsecondary": 6697,
      "Ġcalculate": 6698,
      "Ġrecommendations": 6699,
      "Ġcognitive": 6700,
      "Ġov": 6701,
      "Ġpaid": 6702,
      "Ġsector": 6703,
      "ĠRob": 6704,
      "Ġmanaged": 6705,
      "ĠUnder": 6706,
      "Ġscore": 6707,
      "Ġblank": 6708,
      "althy": 6709,
      "ĠChinese": 6710,
      "Ġancest": 6711,
      "Ġcoastal": 6712,
      "Using": 6713,
      "pm": 6714,
      "rical": 6715,
      "Ġtrick": 6716,
      "esity": 6717,
      "Ġfather": 6718,
      "race": 6719,
      "ĠDog": 6720,
      "Ġsauce": 6721,
      "ework": 6722,
      "âĢĻre": 6723,
      "Ġdefine": 6724,
      "Ġdescribes": 6725,
      "Ġdrivers": 6726,
      "Ġbranches": 6727,
      "under": 6728,
      "well": 6729,
      "Ġtough": 6730,
      "Ġmales": 6731,
      "Ġlift": 6732,
      "ĠRock": 6733,
      "berries": 6734,
      "Ġrelief": 6735,
      "Ġparticle": 6736,
      "Ġreviews": 6737,
      "haust": 6738,
      "Ġdatabase": 6739,
      "ĠWashington": 6740,
      "Ġske": 6741,
      "Ġmir": 6742,
      "ĠTable": 6743,
      "state": 6744,
      "ĠAP": 6745,
      "Ġstraw": 6746,
      "Ġstems": 6747,
      "Ġserved": 6748,
      "Ġbabies": 6749,
      "CC": 6750,
      "uits": 6751,
      "Ġtoys": 6752,
      "Ġdive": 6753,
      "Ġgro": 6754,
      "ĠTreat": 6755,
      "ĠSn": 6756,
      "Ġusage": 6757,
      "akers": 6758,
      "Ġentry": 6759,
      "Ġauthors": 6760,
      "ĠShould": 6761,
      "Ġultimately": 6762,
      "Ġecosystems": 6763,
      "Ġvibrant": 6764,
      "Ġsenior": 6765,
      "Ġglucose": 6766,
      "-old": 6767,
      "Water": 6768,
      "from": 6769,
      "gien": 6770,
      "Ġinver": 6771,
      "Ġreb": 6772,
      "uses": 6773,
      "Ġchapter": 6774,
      "Ġdisrupt": 6775,
      "Ġtrad": 6776,
      "Ġwhereas": 6777,
      "Ġequipped": 6778,
      "atching": 6779,
      "Ġholding": 6780,
      "Ġlaboratory": 6781,
      "ĠChildren": 6782,
      "(s": 6783,
      ".âĢĿ": 6784,
      "Figure": 6785,
      "Ġcaught": 6786,
      "Ġpipes": 6787,
      "ilation": 6788,
      "Ġbeam": 6789,
      "ĠMount": 6790,
      "Ġresolution": 6791,
      "Ġinfest": 6792,
      "Ġinfected": 6793,
      "ĠSpace": 6794,
      "Ġenthusi": 6795,
      "91": 6796,
      "Where": 6797,
      "normal": 6798,
      "Ġcas": 6799,
      "Ġcast": 6800,
      "using": 6801,
      "Ġgaming": 6802,
      "Ġyouth": 6803,
      "opic": 6804,
      "ĠPost": 6805,
      "ints": 6806,
      "Ġtwist": 6807,
      "Ġsubsequ": 6808,
      "Ġexpans": 6809,
      "ĠExp": 6810,
      "Ġengineers": 6811,
      "Ġvisitors": 6812,
      "Ġcollaboration": 6813,
      "Ġfascinating": 6814,
      "Ġaward": 6815,
      "eras": 6816,
      "Ġholid": 6817,
      "pling": 6818,
      "Ġwatering": 6819,
      "coming": 6820,
      "ĠGerman": 6821,
      "IV": 6822,
      "Ġcities": 6823,
      "Ġmature": 6824,
      "Ġduration": 6825,
      "Ġreached": 6826,
      "advant": 6827,
      "ĠMal": 6828,
      "Ġking": 6829,
      "angle": 6830,
      "Ġextend": 6831,
      "Ġconsumer": 6832,
      "Ġhabitats": 6833,
      "Ġrespectively": 6834,
      "ĠAcad": 6835,
      "Ġcategory": 6836,
      "allel": 6837,
      "Pr": 6838,
      "Ref": 6839,
      "Ġfant": 6840,
      "ĠRel": 6841,
      "ĠInformation": 6842,
      "ĠVol": 6843,
      "Ġleader": 6844,
      "Ġcreativity": 6845,
      "Ġfreeze": 6846,
      "Ġpromoting": 6847,
      "Every": 6848,
      "fra": 6849,
      "pet": 6850,
      "Ġcow": 6851,
      "Ġlies": 6852,
      "ĠPet": 6853,
      "Ġchips": 6854,
      "ander": 6855,
      "Ġkilled": 6856,
      "Ġempt": 6857,
      "Ġreli": 6858,
      "ĠArch": 6859,
      "Ġfalls": 6860,
      "ĠAustralian": 6861,
      "ĠRegular": 6862,
      "Ġflexible": 6863,
      "ĠHistory": 6864,
      "66": 6865,
      "68": 6866,
      "othe": 6867,
      "rape": 6868,
      "amily": 6869,
      "Ġchair": 6870,
      "arded": 6871,
      "Ġoverw": 6872,
      "-by": 6873,
      "Ġpurs": 6874,
      "Ġrobust": 6875,
      "Ġnutritional": 6876,
      "fe": 6877,
      "lings": 6878,
      "such": 6879,
      "Ġmere": 6880,
      "Ġham": 6881,
      "ading": 6882,
      "ĠLaw": 6883,
      "efits": 6884,
      "Ġfilters": 6885,
      "Ġcommitment": 6886,
      "Ġderived": 6887,
      "Ġcrusher": 6888,
      "Understanding": 6889,
      "Ġlibrary": 6890,
      "utive": 6891,
      "Ġenables": 6892,
      "ources": 6893,
      "Ġcurriculum": 6894,
      "-sc": 6895,
      "Ġhybrid": 6896,
      "Ġresponsibility": 6897,
      "Ġexperiencing": 6898,
      "ĠPhotos": 6899,
      "Ġantibiotics": 6900,
      "Ġunusual": 6901,
      "Because": 6902,
      "Just": 6903,
      "cher": 6904,
      "nger": 6905,
      "Ġbeans": 6906,
      "Ġthank": 6907,
      "Ġgenome": 6908,
      "ĠStr": 6909,
      "Ġinstrument": 6910,
      "afe": 6911,
      "bohyd": 6912,
      "Ġwarning": 6913,
      "ĠTHE": 6914,
      "AA": 6915,
      "atin": 6916,
      "edom": 6917,
      "Ġtown": 6918,
      "Ġinhib": 6919,
      "Ġongoing": 6920,
      "ĠIll": 6921,
      "estic": 6922,
      "Ġweap": 6923,
      "osal": 6924,
      "ĠBay": 6925,
      "Ġsuit": 6926,
      "ĠDise": 6927,
      "Ġintric": 6928,
      "ĠStand": 6929,
      "Ġchecking": 6930,
      "Ġinstant": 6931,
      "Ġartist": 6932,
      "Ġserver": 6933,
      "Ġsensitivity": 6934,
      "Ġsmoking": 6935,
      "Ġaims": 6936,
      "Ġinterpret": 6937,
      "Pe": 6938,
      "oids": 6939,
      "Ġtaught": 6940,
      "Ġfinger": 6941,
      "ĠHouse": 6942,
      "Ġresil": 6943,
      "ĠâĢĺ": 6944,
      "Ġproven": 6945,
      "Ġprevention": 6946,
      "Ġmovie": 6947,
      "Ġsuscept": 6948,
      "Ġappreciate": 6949,
      "Ġversatile": 6950,
      "Ġbiodiversity": 6951,
      "Ġcolleagues": 6952,
      "63": 6953,
      "EP": 6954,
      "bits": 6955,
      "Ġcoding": 6956,
      "Ġgast": 6957,
      "otes": 6958,
      "ĠTer": 6959,
      "amps": 6960,
      "Ġalt": 6961,
      "terior": 6962,
      "Ġexchange": 6963,
      "ĠPot": 6964,
      "Ġwashing": 6965,
      "Ġuniform": 6966,
      "Ġformer": 6967,
      "Ġexploration": 6968,
      "ĠAmericans": 6969,
      "Ġvertical": 6970,
      "Ġparticipate": 6971,
      "Lear": 6972,
      "ĠAng": 6973,
      "Ġusual": 6974,
      "Ġsections": 6975,
      "ĠPacific": 6976,
      "Ġdoctors": 6977,
      "Ġworn": 6978,
      "Ġflies": 6979,
      "ĠIsland": 6980,
      "Ġgardening": 6981,
      "Ġcookies": 6982,
      "Ġinitially": 6983,
      "ĠMoreover": 6984,
      "81": 6985,
      "esium": 6986,
      "Ġfav": 6987,
      "astern": 6988,
      "imental": 6989,
      "ĠAR": 6990,
      "ogens": 6991,
      "Ġintense": 6992,
      "Ġclus": 6993,
      "Ġherbs": 6994,
      "Ġdistur": 6995,
      "Ġsuffer": 6996,
      "Ġincorporate": 6997,
      "Ġrefriger": 6998,
      "Che": 6999,
      "band": 7000,
      "case": 7001,
      "rass": 7002,
      "Ġton": 7003,
      "Ġsail": 7004,
      "Ġcav": 7005,
      "Ġwires": 7006,
      "asant": 7007,
      "Ġgauge": 7008,
      "ceans": 7009,
      "osaur": 7010,
      "ague": 7011,
      "ĠList": 7012,
      "Ġrecipes": 7013,
      "Ġdecay": 7014,
      "Ġadvoc": 7015,
      "Ġpassion": 7016,
      "Ġcultures": 7017,
      "Ġvaccines": 7018,
      "Ġdurability": 7019,
      "Ġfracture": 7020,
      "Ġadequate": 7021,
      "TH": 7022,
      "Ġsch": 7023,
      "Ġfing": 7024,
      "ĠTem": 7025,
      "amic": 7026,
      "ĠMa": 7027,
      "ĠFish": 7028,
      "ĠOld": 7029,
      "Ġclients": 7030,
      "Ġappoint": 7031,
      "Ġbuff": 7032,
      "Ġengines": 7033,
      "Ġlimits": 7034,
      "Ġfarming": 7035,
      "Ġjoints": 7036,
      "Ġjuice": 7037,
      "Ġaluminum": 7038,
      "82": 7039,
      "PU": 7040,
      "zed": 7041,
      "acebook": 7042,
      "Ġbreaks": 7043,
      "Ġcontainers": 7044,
      "hemistry": 7045,
      "Ġenhancing": 7046,
      "ĠChristmas": 7047,
      "Ġvessels": 7048,
      "Ġpolicies": 7049,
      "88": 7050,
      "comp": 7051,
      "ju": 7052,
      "pat": 7053,
      "Â·": 7054,
      "Ġconvert": 7055,
      "ĠMot": 7056,
      "ĠChoose": 7057,
      "engers": 7058,
      "Ġmoon": 7059,
      "Ġencounter": 7060,
      "Ġpackaging": 7061,
      "riction": 7062,
      "Ġspectrum": 7063,
      "ĠAvoid": 7064,
      "Ġnarrow": 7065,
      "CD": 7066,
      "cont": 7067,
      "fit": 7068,
      "yn": 7069,
      "ynt": 7070,
      "Ġsoph": 7071,
      "Ġcash": 7072,
      "Ġstated": 7073,
      "Ġexhaust": 7074,
      "Ġshock": 7075,
      "ĠHand": 7076,
      "Ġcompound": 7077,
      "Ġclar": 7078,
      "Ġpartner": 7079,
      "Ġassume": 7080,
      "exp": 7081,
      "âĢĶâĢĶ": 7082,
      "aughter": 7083,
      "Ġharness": 7084,
      "Ġvulnerable": 7085,
      "Ġembodiment": 7086,
      "Ġcircumst": 7087,
      "zymes": 7088,
      "Ġtrib": 7089,
      "reens": 7090,
      "ingly": 7091,
      "ĠSl": 7092,
      "Ġtheme": 7093,
      "pha": 7094,
      "Ġdesigners": 7095,
      "certain": 7096,
      "Ġcharged": 7097,
      "iox": 7098,
      "ĠOnly": 7099,
      "ĠAmazon": 7100,
      "Ġdomain": 7101,
      "Ġcomparison": 7102,
      "osaurs": 7103,
      "Ġpairs": 7104,
      "Ġdealing": 7105,
      "Ġrib": 7106,
      "ĠEss": 7107,
      "ogether": 7108,
      "izers": 7109,
      "Ġhealthier": 7110,
      "Ġdiscomfort": 7111,
      "Ġfocusing": 7112,
      "Ġlistening": 7113,
      "ĠBlue": 7114,
      "Ġcalculated": 7115,
      "Ġengagement": 7116,
      "56": 7117,
      "58": 7118,
      "itan": 7119,
      "abil": 7120,
      "ĠFind": 7121,
      "action": 7122,
      "ĠNews": 7123,
      "Ġfunding": 7124,
      "ĠFrance": 7125,
      "Ġutilize": 7126,
      "Ġprinciple": 7127,
      "-cl": 7128,
      "57": 7129,
      "FA": 7130,
      "Ġcircle": 7131,
      "Ġow": 7132,
      "Ġbind": 7133,
      "Ġreef": 7134,
      "Ġintensity": 7135,
      "Ġacts": 7136,
      "Ġvariables": 7137,
      "Ġbreaking": 7138,
      "Ġanalog": 7139,
      "Ġcompetitive": 7140,
      "innitus": 7141,
      "Ġvelocity": 7142,
      "62": 7143,
      "BS": 7144,
      "rin": 7145,
      "Â®": 7146,
      "heel": 7147,
      "ĠRight": 7148,
      "Ġintest": 7149,
      "Ġcontem": 7150,
      "forest": 7151,
      "Ġsubt": 7152,
      "Ġartists": 7153,
      "Ġdelight": 7154,
      "Ġdifficulty": 7155,
      "Ġcovering": 7156,
      "Of": 7157,
      "col": 7158,
      "erally": 7159,
      "Ġcake": 7160,
      "itness": 7161,
      "Ġproof": 7162,
      "ĠOh": 7163,
      "Ġcrushing": 7164,
      "Ġrecognized": 7165,
      "Ġmessages": 7166,
      "Ġexplanation": 7167,
      "Make": 7168,
      "son": 7169,
      "anish": 7170,
      "ota": 7171,
      "ĠMach": 7172,
      "ĠBest": 7173,
      "Ġjew": 7174,
      "avy": 7175,
      "Ġtract": 7176,
      "Ġboil": 7177,
      "Ġliterature": 7178,
      "ĠSuper": 7179,
      "Ġbattle": 7180,
      "etal": 7181,
      "Ġstorm": 7182,
      "Ġrivers": 7183,
      "ĠHard": 7184,
      "Ġclay": 7185,
      "angered": 7186,
      "Ġdecline": 7187,
      "Ġextent": 7188,
      "Ġcorros": 7189,
      "Ġgreatest": 7190,
      "Ġsteam": 7191,
      "proof": 7192,
      "Ġrubber": 7193,
      "Ġthoroughly": 7194,
      "Ġstreet": 7195,
      "Ġwestern": 7196,
      "Tra": 7197,
      "vol": 7198,
      "Ġpond": 7199,
      "icity": 7200,
      "Ġloud": 7201,
      "ady": 7202,
      "ĠJe": 7203,
      "Ġincorporating": 7204,
      "Ġcomplications": 7205,
      "Ġsodium": 7206,
      "Ġcitiz": 7207,
      "ĠMedicine": 7208,
      "uel": 7209,
      "Ġtack": 7210,
      "etch": 7211,
      "Ġgum": 7212,
      "Ġbears": 7213,
      "amil": 7214,
      "istor": 7215,
      "ĠMer": 7216,
      "Ġshorter": 7217,
      "ĠLand": 7218,
      "ricks": 7219,
      "anged": 7220,
      "Ġprofit": 7221,
      "Ġperforming": 7222,
      "lessly": 7223,
      "Ġbiom": 7224,
      "ĠPlay": 7225,
      "Ġoutdoors": 7226,
      "Ġpix": 7227,
      "Ġeco": 7228,
      "Ġnor": 7229,
      "ĠTry": 7230,
      "Ġstead": 7231,
      "ulent": 7232,
      "ĠMo": 7233,
      "ĠMass": 7234,
      "ĠGroup": 7235,
      "Ġdisappe": 7236,
      "Ġgrand": 7237,
      "Ġletters": 7238,
      "Ġturb": 7239,
      "Ġprecision": 7240,
      "Ġlifes": 7241,
      "Ġbrands": 7242,
      "Ġsexual": 7243,
      "cribed": 7244,
      "Ġassembly": 7245,
      "-ph": 7246,
      ".org": 7247,
      "Ġdow": 7248,
      "ĠTom": 7249,
      "stood": 7250,
      "Ġgenerator": 7251,
      "Ġfocuses": 7252,
      "liance": 7253,
      "Ġdiameter": 7254,
      "car": 7255,
      "sor": 7256,
      "Ġhook": 7257,
      "ctu": 7258,
      "Ġgap": 7259,
      "heric": 7260,
      "ĠFollow": 7261,
      "Ġoutcome": 7262,
      "Ġunex": 7263,
      "Ġvector": 7264,
      "Ġproductivity": 7265,
      "ĠAdv": 7266,
      "Ġparallel": 7267,
      "Ġscientist": 7268,
      "ĠKey": 7269,
      "Ġrestaurant": 7270,
      "Ġdoubt": 7271,
      "Ġcorresponding": 7272,
      "Ġphilos": 7273,
      "92": 7274,
      "Ġwiring": 7275,
      "igue": 7276,
      "Ġhealing": 7277,
      "rian": 7278,
      "Ġpeak": 7279,
      "Ġrarely": 7280,
      "Ġresidents": 7281,
      "Ġpotatoes": 7282,
      "-off": 7283,
      "71": 7284,
      "86": 7285,
      "Ġpun": 7286,
      "usiness": 7287,
      "imer": 7288,
      "amber": 7289,
      "amination": 7290,
      "ĠForm": 7291,
      "Ġmodule": 7292,
      "Ġhumidity": 7293,
      "Ġdried": 7294,
      "ĠManagement": 7295,
      "Ġcomplicated": 7296,
      "Even": 7297,
      "auc": 7298,
      "Ġmoth": 7299,
      "Ġine": 7300,
      "otal": 7301,
      "iders": 7302,
      "ĠIce": 7303,
      "Ġsurge": 7304,
      "Ġpersonality": 7305,
      "Ġdriven": 7306,
      "ĠProper": 7307,
      "Ġmarked": 7308,
      "Ġretur": 7309,
      "Ġretail": 7310,
      "Ġtells": 7311,
      "Ġfuels": 7312,
      "Ġcontroller": 7313,
      ".m": 7314,
      "ION": 7315,
      "Per": 7316,
      "ked": 7317,
      "hent": 7318,
      "ounce": 7319,
      "etime": 7320,
      "ĠMag": 7321,
      "ĠRad": 7322,
      "Ġcomprom": 7323,
      "Ġbugs": 7324,
      "Ġcrew": 7325,
      "Ġdepartment": 7326,
      "Ġconsideration": 7327,
      "Ġcyl": 7328,
      "Ġsnakes": 7329,
      "while": 7330,
      "Ġcategories": 7331,
      "Ġhormone": 7332,
      "ython": 7333,
      "Ġmask": 7334,
      "Ġdoors": 7335,
      "Ġunne": 7336,
      "Ġdied": 7337,
      "Ġgenerations": 7338,
      "Ġlargely": 7339,
      "Ġcleaner": 7340,
      "Ġbarrier": 7341,
      "Ġpropag": 7342,
      "Ġquantities": 7343,
      "Ġnuclear": 7344,
      "Ġfertilizer": 7345,
      "Ġrepeated": 7346,
      "Ġconclud": 7347,
      "Ġtape": 7348,
      "reated": 7349,
      "encing": 7350,
      "ĠMult": 7351,
      "ĠMiss": 7352,
      "ĠLou": 7353,
      "Ġjack": 7354,
      "Ġprocessed": 7355,
      "Inst": 7356,
      "ĠChange": 7357,
      "Ġprotocol": 7358,
      "Ġdemonstrated": 7359,
      "Ġscenario": 7360,
      "pecific": 7361,
      "Ġtag": 7362,
      "atal": 7363,
      "Ġcort": 7364,
      "Ġrear": 7365,
      "eterm": 7366,
      "Ġyounger": 7367,
      "ĠAT": 7368,
      "illa": 7369,
      "ĠBig": 7370,
      "ria": 7371,
      "astics": 7372,
      "Ġformal": 7373,
      "ĠĠĠĠĠĠĠ": 7374,
      "Ġballs": 7375,
      "Ġdemonstrate": 7376,
      "Ġaggressive": 7377,
      "Ġcotton": 7378,
      "fill": 7379,
      "ona": 7380,
      "Ġca": 7381,
      "esla": 7382,
      "Ġbonds": 7383,
      "Ġfisher": 7384,
      "alian": 7385,
      "Ġthrow": 7386,
      "ashes": 7387,
      "eting": 7388,
      "ĠCost": 7389,
      "assium": 7390,
      "Ġrecover": 7391,
      "Ġcarbohyd": 7392,
      "Ġreprodu": 7393,
      "Ġdefect": 7394,
      "Ġcuts": 7395,
      "ĠZe": 7396,
      "Ġlaunch": 7397,
      "Ġroute": 7398,
      "Ġconversation": 7399,
      "Ġmitig": 7400,
      "Ġneighb": 7401,
      "Ġcampaign": 7402,
      ",ĊĊ": 7403,
      "CT": 7404,
      "onal": 7405,
      "Ġsulf": 7406,
      "Ġbeds": 7407,
      "Ġlighter": 7408,
      "inea": 7409,
      "Ġsole": 7410,
      "Ġcloth": 7411,
      "Ġsyndrome": 7412,
      "Ġcoverage": 7413,
      "Ġprocessor": 7414,
      "cycle": 7415,
      "Ġguard": 7416,
      "ĠThose": 7417,
      "Ġpasta": 7418,
      "Ġcarrying": 7419,
      "Ġevaluation": 7420,
      "-level": 7421,
      "Ġincredibly": 7422,
      "PT": 7423,
      "bage": 7424,
      "paper": 7425,
      "Ġwed": 7426,
      "Ġprove": 7427,
      "alls": 7428,
      "Ġclock": 7429,
      "Ġspending": 7430,
      "Ġremed": 7431,
      "Ġequivalent": 7432,
      "ĠAnimal": 7433,
      "Ġconsumed": 7434,
      "Ġdietary": 7435,
      "Ġviews": 7436,
      "Ġintroduce": 7437,
      "Ġidentifying": 7438,
      "ĠSecond": 7439,
      "-E": 7440,
      "Have": 7441,
      "medi": 7442,
      "Ġpill": 7443,
      "Ġdense": 7444,
      "Ġgiant": 7445,
      "umbers": 7446,
      "Ġexists": 7447,
      "ĠMr": 7448,
      "Ġriding": 7449,
      "Ġshore": 7450,
      "endar": 7451,
      "Ġflash": 7452,
      "Ġinvasive": 7453,
      "Ġediting": 7454,
      "ĠPlace": 7455,
      "Ġposts": 7456,
      "Ġpersonalized": 7457,
      "Ġobserve": 7458,
      "Ġwarrant": 7459,
      "Â°F": 7460,
      "working": 7461,
      "Ġolive": 7462,
      "89": 7463,
      "UV": 7464,
      "ÃĹ": 7465,
      "orrect": 7466,
      "Ġrect": 7467,
      "occ": 7468,
      "Ġcompens": 7469,
      "Ġtraits": 7470,
      "Ġcheaper": 7471,
      "Ġexamine": 7472,
      "Ġhygien": 7473,
      "Ġdirections": 7474,
      "Ġidentity": 7475,
      "Ġcombine": 7476,
      "Ġprobability": 7477,
      "Ġaffecting": 7478,
      "Ġsquirrel": 7479,
      "ĠCentral": 7480,
      "Ġingredient": 7481,
      "Ġpreferred": 7482,
      "ĠSimilar": 7483,
      "'ĊĊ": 7484,
      "SA": 7485,
      "rem": 7486,
      "Ġfox": 7487,
      "Ġfilling": 7488,
      "Ġreaching": 7489,
      "Ġheated": 7490,
      "quit": 7491,
      "ĠHaw": 7492,
      "ĠFalse": 7493,
      "agen": 7494,
      "Ġjoy": 7495,
      "ĠIncre": 7496,
      "Ġtrauma": 7497,
      "Ġshouldn": 7498,
      "Ġchildhood": 7499,
      "iances": 7500,
      "Ġcenturies": 7501,
      "Ġoccurred": 7502,
      "Ġconsuming": 7503,
      "Ġreasonable": 7504,
      "Which": 7505,
      "ĠUSA": 7506,
      "Ġclaims": 7507,
      "Ġevaluate": 7508,
      "Ġaccurately": 7509,
      "Ġrevealed": 7510,
      "night": 7511,
      "onia": 7512,
      "Ġtheore": 7513,
      "Ġcater": 7514,
      "Ġwast": 7515,
      "Ġwax": 7516,
      "olves": 7517,
      "ĠAD": 7518,
      "ude": 7519,
      "Ġconscious": 7520,
      "fulness": 7521,
      "Ġinsulation": 7522,
      "Ġpreparing": 7523,
      "Ġdecreased": 7524,
      "Ġdocuments": 7525,
      "Ġmetabolism": 7526,
      "Ġabsolutely": 7527,
      "73": 7528,
      "Col": 7529,
      "Ġtension": 7530,
      "Ġbub": 7531,
      "Ġborder": 7532,
      "rav": 7533,
      "aby": 7534,
      "izz": 7535,
      "Ġappet": 7536,
      "Ġagents": 7537,
      "Ġtransmit": 7538,
      "Ġprocessors": 7539,
      "Ġobesity": 7540,
      "Ġenhanced": 7541,
      "Who": 7542,
      "Ġframework": 7543,
      "Ġdimensions": 7544,
      "Ġchromos": 7545,
      "67": 7546,
      "Well": 7547,
      "Ġid": 7548,
      "itative": 7549,
      "aning": 7550,
      "roat": 7551,
      "Ġhip": 7552,
      "Ġnone": 7553,
      "adian": 7554,
      "ĠCy": 7555,
      "Ġvill": 7556,
      "ĠMor": 7557,
      "ĠNorthern": 7558,
      "cessary": 7559,
      "Ġtransformation": 7560,
      "Ġopened": 7561,
      "Ġlaun": 7562,
      "Ġviruses": 7563,
      "Ġpregnant": 7564,
      "ĠAND": 7565,
      "Ġmammals": 7566,
      "Ġtorque": 7567,
      ".The": 7568,
      "Ġfats": 7569,
      "ano": 7570,
      "icit": 7571,
      "Ġlunch": 7572,
      "ĠTool": 7573,
      "ĠSuch": 7574,
      "ĠFinally": 7575,
      "ĠDire": 7576,
      "Ġtech": 7577,
      "Ġsomewhere": 7578,
      "Ġvariations": 7579,
      "Ġinstrum": 7580,
      "aterials": 7581,
      "Ġforeign": 7582,
      "Ġintegrated": 7583,
      "Ġsubjects": 7584,
      "Ġsurprising": 7585,
      "Ġphenomenon": 7586,
      "87": 7587,
      "icians": 7588,
      "Ġbeings": 7589,
      "ĠSM": 7590,
      "thal": 7591,
      "Ġaging": 7592,
      "Ġgenerating": 7593,
      "Ġavailability": 7594,
      "ĠPlus": 7595,
      "ĠClimate": 7596,
      "Ġpriorit": 7597,
      "Ġpenet": 7598,
      "ĠHyd": 7599,
      "Ġbottle": 7600,
      "Related": 7601,
      "AI": 7602,
      "hav": 7603,
      "Ġfif": 7604,
      "oured": 7605,
      "anta": 7606,
      "Ġleather": 7607,
      "ĠProcess": 7608,
      "ports": 7609,
      "Ġvegetation": 7610,
      "Ġbringing": 7611,
      "Ġprinted": 7612,
      "ĠWestern": 7613,
      "ĠEnvironmental": 7614,
      "Ġcircumstances": 7615,
      "78": 7616,
      "hand": 7617,
      "inent": 7618,
      "erior": 7619,
      "Ġsan": 7620,
      "isition": 7621,
      "lete": 7622,
      "otive": 7623,
      "ĠTop": 7624,
      "uning": 7625,
      "opes": 7626,
      "Ġspinal": 7627,
      "reating": 7628,
      "Ġgenus": 7629,
      "luding": 7630,
      "Ġintervention": 7631,
      "Ġmodified": 7632,
      "Ġdetected": 7633,
      "ĠReview": 7634,
      "Ġtotally": 7635,
      "Ġrepresented": 7636,
      "Ġevolutionary": 7637,
      "zyme": 7638,
      "Ġremarkable": 7639,
      "cled": 7640,
      "fly": 7641,
      "wo": 7642,
      "win": 7643,
      "Ġ...Ċ": 7644,
      "Ġlip": 7645,
      "Ġbeet": 7646,
      "rade": 7647,
      "pection": 7648,
      "emia": 7649,
      "Ġenzymes": 7650,
      "Ġresc": 7651,
      "Ġscanning": 7652,
      "taining": 7653,
      "Ġchest": 7654,
      "Ġmini": 7655,
      "Ġgrid": 7656,
      "Ġlimestone": 7657,
      "Ġcameras": 7658,
      "Ġnearby": 7659,
      "ĠConst": 7660,
      "Ġpaying": 7661,
      "Add": 7662,
      "Ġimplementation": 7663,
      "Ġincredible": 7664,
      "93": 7665,
      "ka": 7666,
      "Ġsoci": 7667,
      "ĠSym": 7668,
      "mentation": 7669,
      "ĠPan": 7670,
      "ĠPsych": 7671,
      "ĠMat": 7672,
      "riage": 7673,
      "Ġket": 7674,
      "Ġspo": 7675,
      "Ġpreval": 7676,
      "Ġsched": 7677,
      "Ġcoating": 7678,
      "Ġgrams": 7679,
      "Ġserving": 7680,
      "Ġclassic": 7681,
      "Ġprotecting": 7682,
      "Ġcharacterized": 7683,
      "Ġpackage": 7684,
      "Ġexpressed": 7685,
      "********": 7686,
      "Ġneutral": 7687,
      "Ġmicrowave": 7688,
      "hum": 7689,
      "Ġsaving": 7690,
      "rost": 7691,
      "Ġgly": 7692,
      "elly": 7693,
      "Ġseaf": 7694,
      "Ġspine": 7695,
      "Ġsomewhat": 7696,
      "Ġblo": 7697,
      "Ġreaders": 7698,
      "cope": 7699,
      "Ġreceiving": 7700,
      "anguages": 7701,
      "Ġalternatives": 7702,
      "Ġpurchasing": 7703,
      "Ġsynthetic": 7704,
      "Ġlaptop": 7705,
      "Ġempty": 7706,
      "(a": 7707,
      "Sim": 7708,
      "lig": 7709,
      "Ġbare": 7710,
      "Ġinvention": 7711,
      "ĠSqu": 7712,
      "ĠBack": 7713,
      "Ġships": 7714,
      "ĠDel": 7715,
      "nsure": 7716,
      "ĠNon": 7717,
      "Ġperce": 7718,
      "Ġquiet": 7719,
      "riting": 7720,
      "ĠPlants": 7721,
      "Ġmatters": 7722,
      "Ġembry": 7723,
      "Ġgarlic": 7724,
      "Ġrecycling": 7725,
      "Ġaffordable": 7726,
      "Ġvinegar": 7727,
      "rapeut": 7728,
      "74": 7729,
      "Dis": 7730,
      "gal": 7731,
      "Ġoceans": 7732,
      "ometer": 7733,
      "ette": 7734,
      "ĠLess": 7735,
      "ovascular": 7736,
      "Ġdelicate": 7737,
      "Ġinvolving": 7738,
      "ĠConf": 7739,
      "Ġsatell": 7740,
      "Ġregardless": 7741,
      "Ġthreats": 7742,
      "ersonal": 7743,
      "Ġastron": 7744,
      "NC": 7745,
      "PR": 7746,
      "aj": 7747,
      "Ġgently": 7748,
      "Ġexclus": 7749,
      "osquit": 7750,
      "ĠMuse": 7751,
      "Ġrough": 7752,
      "Ġoffic": 7753,
      "oving": 7754,
      "Ġtransplant": 7755,
      "Ġpossibilities": 7756,
      "Ġproviders": 7757,
      "Ġhimself": 7758,
      "Ġupdate": 7759,
      "Ġleadership": 7760,
      "-shaped": 7761,
      "Ġspiritual": 7762,
      "ront": 7763,
      "hered": 7764,
      "enger": 7765,
      "Ġrept": 7766,
      "Ġstuck": 7767,
      "ĠSocial": 7768,
      "ibration": 7769,
      "apes": 7770,
      "Ġvariant": 7771,
      "Ġgrad": 7772,
      "Ġpositions": 7773,
      "Ġintegration": 7774,
      "ĠSilver": 7775,
      "Ġexpansion": 7776,
      "ioxid": 7777,
      "-R": 7778,
      "Finally": 7779,
      "lo": 7780,
      "pread": 7781,
      "uber": 7782,
      "Ġsle": 7783,
      "Ġpock": 7784,
      "Ġreverse": 7785,
      "olph": 7786,
      "ĠMath": 7787,
      "Ġchip": 7788,
      "Ġplot": 7789,
      "ruit": 7790,
      "Ġprevents": 7791,
      "Ġsoils": 7792,
      "Ġinterests": 7793,
      "Ġcontributing": 7794,
      "Ġoxid": 7795,
      "ASA": 7796,
      "About": 7797,
      "Ġinstitutions": 7798,
      "77": 7799,
      "Fig": 7800,
      "even": 7801,
      "zil": 7802,
      "Ġtel": 7803,
      "Ġselling": 7804,
      "Ġpy": 7805,
      "Ġpip": 7806,
      "Ġbars": 7807,
      "owered": 7808,
      "irus": 7809,
      "ĠMel": 7810,
      "ĠBook": 7811,
      "Ġchol": 7812,
      "ĠDid": 7813,
      "Ġabuse": 7814,
      "Ġcomposed": 7815,
      "Ġjar": 7816,
      "velength": 7817,
      "Ġguy": 7818,
      "Ġdrinks": 7819,
      "Ġessentially": 7820,
      "Ġoils": 7821,
      "Ġpopularity": 7822,
      "Ġconnecting": 7823,
      "Ġelectronics": 7824,
      "ongevity": 7825,
      "Ġ?": 7826,
      "onom": 7827,
      "Ġwra": 7828,
      "Ġmine": 7829,
      "ĠSand": 7830,
      "rous": 7831,
      "ĠEqu": 7832,
      "ella": 7833,
      "Ġovercome": 7834,
      "Ġourselves": 7835,
      "Ġvariation": 7836,
      "Ġbridge": 7837,
      "Ġorganized": 7838,
      "Ġgrill": 7839,
      "Ġquantity": 7840,
      "Ġwondering": 7841,
      "ĠMaybe": 7842,
      "Ġconcentrations": 7843,
      "Ġfrost": 7844,
      "ĠSafety": 7845,
      "Sub": 7846,
      "hea": 7847,
      "Ġpuzz": 7848,
      "Ġdough": 7849,
      "Ġbeach": 7850,
      "amples": 7851,
      "ĠCur": 7852,
      "Ġvaries": 7853,
      "Ġteen": 7854,
      "Ġapps": 7855,
      "Ġarts": 7856,
      "Ġrays": 7857,
      "Ġsubsc": 7858,
      "egin": 7859,
      "Ġestimate": 7860,
      "Ġeaten": 7861,
      "Any": 7862,
      "ikip": 7863,
      "Ġdanger": 7864,
      "Ġdivision": 7865,
      "words": 7866,
      "Ġdentist": 7867,
      "76": 7868,
      "94": 7869,
      "AG": 7870,
      "Ġcer": 7871,
      "Ġcub": 7872,
      "Ġpace": 7873,
      "arks": 7874,
      "omer": 7875,
      "Ġstrict": 7876,
      "Ġweeds": 7877,
      "ĠLow": 7878,
      "Ġspeeds": 7879,
      "Ġdesire": 7880,
      "Ġphr": 7881,
      "Ġgray": 7882,
      "Ġhyper": 7883,
      "Ġcris": 7884,
      "Ġauthority": 7885,
      "Ġabsence": 7886,
      "reshold": 7887,
      "Ġadaptive": 7888,
      "ĠGeneral": 7889,
      "ĠJournal": 7890,
      "overnment": 7891,
      "Ġlifespan": 7892,
      "-L": 7893,
      "61": 7894,
      "OC": 7895,
      "inity": 7896,
      "Ġhat": 7897,
      "ĠCut": 7898,
      "abul": 7899,
      "Ġrh": 7900,
      "Ġsucc": 7901,
      "Ġplates": 7902,
      "Ġimaging": 7903,
      "ĠUlt": 7904,
      "Ġprinter": 7905,
      "Ġrelation": 7906,
      "Ġrepairs": 7907,
      "Ġentering": 7908,
      "Ġimmun": 7909,
      "Ġobjective": 7910,
      "ĠTeac": 7911,
      "Ġshelter": 7912,
      "Ġnavigate": 7913,
      "ĠEngineering": 7914,
      "erenn": 7915,
      "ikipedia": 7916,
      "rane": 7917,
      "sis": 7918,
      "herent": 7919,
      "Ġpale": 7920,
      "Ġfaces": 7921,
      "Ġhence": 7922,
      "ĠBIM": 7923,
      "ĠFacebook": 7924,
      "Ġoutl": 7925,
      "Ġmyth": 7926,
      "Stud": 7927,
      "Ġappeal": 7928,
      "Ġoccurring": 7929,
      "Ġchecked": 7930,
      "Ġanalyze": 7931,
      "Ġstimul": 7932,
      "Ġboundaries": 7933,
      "Ġhazard": 7934,
      "Ġhorizontal": 7935,
      "Ġoverwhel": 7936,
      "\"I": 7937,
      "May": 7938,
      "born": 7939,
      "gent": 7940,
      "Ġions": 7941,
      "Ġwing": 7942,
      "Ġmouse": 7943,
      "Ġtoile": 7944,
      "Ġthumb": 7945,
      "Ġshrim": 7946,
      "Ġbutt": 7947,
      "Ġscar": 7948,
      "ĠProv": 7949,
      "Ġdefault": 7950,
      "Ġwarmer": 7951,
      "Ġoriginally": 7952,
      "Ġbulbs": 7953,
      "ini": 7954,
      "icide": 7955,
      "Ġven": 7956,
      "ĠPen": 7957,
      "ĠPublic": 7958,
      "ĠMax": 7959,
      "rium": 7960,
      "ĠLim": 7961,
      "Ġdispl": 7962,
      "ubric": 7963,
      "Ġgrab": 7964,
      "Ġdesigning": 7965,
      "Ġsheets": 7966,
      "Ġpreserve": 7967,
      "Ġversus": 7968,
      "Ġapplies": 7969,
      "Ġantibiotic": 7970,
      "Ġhouses": 7971,
      "Ġtutorial": 7972,
      "Ġunexpected": 7973,
      "igital": 7974,
      "ĠID": 7975,
      "adder": 7976,
      "Ġkilling": 7977,
      "Ġfeather": 7978,
      "Ġspecified": 7979,
      "Ġindoors": 7980,
      "cknow": 7981,
      "Ġguys": 7982,
      "Ġpassengers": 7983,
      "Ġgasoline": 7984,
      "Ġcircular": 7985,
      "Ġintegr": 7986,
      "Ġintricate": 7987,
      "Ġcables": 7988,
      "Ġwides": 7989,
      "oral": 7990,
      "Ġhide": 7991,
      "Ġrent": 7992,
      "Ġexce": 7993,
      "ĠFigure": 7994,
      "Ġpractition": 7995,
      "Ġfunctioning": 7996,
      "aneously": 7997,
      "Ġcomplexity": 7998,
      "Ġcriteria": 7999,
      "Ġappliances": 8000,
      "Ġdistributed": 8001,
      "Ġallergies": 8002,
      "Ġtomatoes": 8003,
      "Ġpandemic": 8004,
      "ĠTrue": 8005,
      "ĠPhotoshop": 8006,
      "Sm": 8007,
      "birds": 8008,
      "lied": 8009,
      "ville": 8010,
      "ĠCap": 8011,
      "Ġworst": 8012,
      "ĠNASA": 8013,
      "Ġagent": 8014,
      "Ġpharm": 8015,
      "Ġcirculation": 8016,
      "Ġhunt": 8017,
      "Ġchannels": 8018,
      "Ġaxis": 8019,
      "Ġadventure": 8020,
      "Ġathletes": 8021,
      "ĠMuseum": 8022,
      "Red": 8023,
      "Ġtick": 8024,
      "onus": 8025,
      "Ġneur": 8026,
      "ĠMill": 8027,
      "izza": 8028,
      "Ġblade": 8029,
      "Ġrecording": 8030,
      "Ġpurple": 8031,
      "Ġbusy": 8032,
      "Ġpresentation": 8033,
      "Ġreplacing": 8034,
      "Ġfalling": 8035,
      "Ġlogic": 8036,
      "Ġupdated": 8037,
      "Ġhormones": 8038,
      "roductive": 8039,
      "Ġcandid": 8040,
      "Ġcorrosion": 8041,
      "Further": 8042,
      "Sum": 8043,
      "fting": 8044,
      "ĠÐ": 8045,
      "Ġsale": 8046,
      "ala": 8047,
      "Ġharsh": 8048,
      "Ġnail": 8049,
      "ĠTesla": 8050,
      "ĠAcc": 8051,
      "ĠFarm": 8052,
      "Ġcompact": 8053,
      "Ġwhenever": 8054,
      "Ġtracking": 8055,
      "onday": 8056,
      "Ġflows": 8057,
      "Ġidentification": 8058,
      "Ġrobots": 8059,
      "Ġconversion": 8060,
      ">>": 8061,
      "ðŁ": 8062,
      "Ġ**": 8063,
      "Ġpine": 8064,
      "ican": 8065,
      "oli": 8066,
      "Ġanten": 8067,
      "Ġconvey": 8068,
      "Ġrising": 8069,
      "Ġphysically": 8070,
      "-con": 8071,
      "Ġrequirement": 8072,
      "Ġpassing": 8073,
      "Ġtruck": 8074,
      "agnetic": 8075,
      "Ġerrors": 8076,
      "ĠNeed": 8077,
      "awn": 8078,
      "power": 8079,
      "itage": 8080,
      "ett": 8081,
      "Ġstiff": 8082,
      "Ġranging": 8083,
      "Ġpresents": 8084,
      "Ġcombat": 8085,
      "Ġdrying": 8086,
      "ĠMicrosoft": 8087,
      "Ġmortality": 8088,
      "Ġsubstantial": 8089,
      "-H": 8090,
      "Am": 8091,
      "oted": 8092,
      "olars": 8093,
      "ĠAud": 8094,
      "Ġdeck": 8095,
      "ĠHor": 8096,
      "ĠFin": 8097,
      "ĠOx": 8098,
      "Ġimpressive": 8099,
      "Ġunderstood": 8100,
      "Ġtender": 8101,
      "Ġlimitations": 8102,
      "/d": 8103,
      "Aut": 8104,
      "Go": 8105,
      "LS": 8106,
      "cm": 8107,
      "Ġera": 8108,
      "Ġhang": 8109,
      "Ġgroom": 8110,
      "imm": 8111,
      "Ġfort": 8112,
      "ĠCoun": 8113,
      "Ġvapor": 8114,
      "Ġshall": 8115,
      "ĠOper": 8116,
      "Ġroles": 8117,
      "Ġarthritis": 8118,
      "ĠJo": 8119,
      "ĠVer": 8120,
      "Ġdecade": 8121,
      "Ġdiscipl": 8122,
      "ĠThink": 8123,
      "Ġeleph": 8124,
      "Ġsalmon": 8125,
      "Ġstrongly": 8126,
      "ĠBlood": 8127,
      "Ġstopped": 8128,
      "Ġknife": 8129,
      "Ġfoam": 8130,
      "Ġjewel": 8131,
      "UR": 8132,
      "ga": 8133,
      "was": 8134,
      "Ġtab": 8135,
      "inates": 8136,
      "Ġwider": 8137,
      "Ġbinding": 8138,
      "Ġfalse": 8139,
      "Ġdrought": 8140,
      "Ġencl": 8141,
      "perm": 8142,
      "aret": 8143,
      "Ġbloom": 8144,
      "Ġundert": 8145,
      "chnology": 8146,
      "ĠâĢĵĊĊ": 8147,
      "Ġexamination": 8148,
      "Ġbasics": 8149,
      "Ġenhances": 8150,
      "Ġmixing": 8151,
      "Ġfatty": 8152,
      "monia": 8153,
      "Ġgained": 8154,
      "Ġgraduate": 8155,
      "Ġarchitecture": 8156,
      "(b": 8157,
      "uard": 8158,
      "edge": 8159,
      "Ġlongevity": 8160,
      "utch": 8161,
      "ĠType": 8162,
      "ĠSer": 8163,
      "this": 8164,
      "ĠLead": 8165,
      "Ġscope": 8166,
      "Ġtrace": 8167,
      "hyth": 8168,
      "Ġamino": 8169,
      "obby": 8170,
      "Ġremind": 8171,
      "Ġearn": 8172,
      "Ġsecre": 8173,
      "Ġconfident": 8174,
      "Ġantioxid": 8175,
      "Ġfatigue": 8176,
      "Ġoptimization": 8177,
      "Ġsuperior": 8178,
      "Ġheavily": 8179,
      "Ġdeaths": 8180,
      "Ġthreads": 8181,
      "Ġsediment": 8182,
      "Ġwidespread": 8183,
      "//": 8184,
      "84": 8185,
      "Ġtends": 8186,
      "Ġbass": 8187,
      "Ġfriction": 8188,
      "Ġlosing": 8189,
      "amine": 8190,
      "ĠCurrent": 8191
    },
    "merges": [
      [
        "Ġ",
        "t"
      ],
      [
        "Ġ",
        "a"
      ],
      [
        "i",
        "n"
      ],
      [
        "h",
        "e"
      ],
      [
        "r",
        "e"
      ],
      [
        "o",
        "n"
      ],
      [
        "Ġt",
        "he"
      ],
      [
        "e",
        "r"
      ],
      [
        "Ġ",
        "s"
      ],
      [
        "a",
        "t"
      ],
      [
        "Ġ",
        "c"
      ],
      [
        "Ġ",
        "o"
      ],
      [
        "e",
        "s"
      ],
      [
        "e",
        "n"
      ],
      [
        "Ġ",
        "w"
      ],
      [
        "n",
        "d"
      ],
      [
        "in",
        "g"
      ],
      [
        "i",
        "t"
      ],
      [
        "i",
        "s"
      ],
      [
        "Ġ",
        "p"
      ],
      [
        "Ġ",
        "b"
      ],
      [
        "o",
        "r"
      ],
      [
        "Ġ",
        "f"
      ],
      [
        "o",
        "u"
      ],
      [
        "a",
        "l"
      ],
      [
        "a",
        "n"
      ],
      [
        "Ġ",
        "m"
      ],
      [
        "e",
        "d"
      ],
      [
        "Ġt",
        "o"
      ],
      [
        "Ġo",
        "f"
      ],
      [
        "Ġ",
        "in"
      ],
      [
        "a",
        "r"
      ],
      [
        "Ġa",
        "nd"
      ],
      [
        "Ġ",
        "d"
      ],
      [
        "i",
        "on"
      ],
      [
        "i",
        "c"
      ],
      [
        "l",
        "e"
      ],
      [
        "r",
        "o"
      ],
      [
        "Ġt",
        "h"
      ],
      [
        "a",
        "s"
      ],
      [
        "Ġ",
        "h"
      ],
      [
        "c",
        "t"
      ],
      [
        "en",
        "t"
      ],
      [
        "Ġ",
        "e"
      ],
      [
        "i",
        "l"
      ],
      [
        "Ġ",
        "l"
      ],
      [
        "v",
        "e"
      ],
      [
        "Ġ",
        "re"
      ],
      [
        "o",
        "m"
      ],
      [
        "Ġ",
        "is"
      ],
      [
        "u",
        "s"
      ],
      [
        ".",
        "Ċ"
      ],
      [
        "Ġ",
        "y"
      ],
      [
        "Ġ",
        "n"
      ],
      [
        "l",
        "y"
      ],
      [
        "e",
        "t"
      ],
      [
        "Ġ",
        "g"
      ],
      [
        "Ġy",
        "ou"
      ],
      [
        "o",
        "w"
      ],
      [
        "Ġb",
        "e"
      ],
      [
        "o",
        "t"
      ],
      [
        "u",
        "t"
      ],
      [
        "i",
        "m"
      ],
      [
        "Ġ",
        "T"
      ],
      [
        "i",
        "d"
      ],
      [
        "s",
        "t"
      ],
      [
        "o",
        "l"
      ],
      [
        "r",
        "a"
      ],
      [
        "Ġf",
        "or"
      ],
      [
        "c",
        "e"
      ],
      [
        "i",
        "g"
      ],
      [
        "c",
        "h"
      ],
      [
        "u",
        "r"
      ],
      [
        "Ġ",
        "A"
      ],
      [
        "Ġ",
        "on"
      ],
      [
        "at",
        "ion"
      ],
      [
        "Ġ",
        "I"
      ],
      [
        "Ġth",
        "at"
      ],
      [
        "Ġs",
        "t"
      ],
      [
        "i",
        "r"
      ],
      [
        "v",
        "er"
      ],
      [
        "e",
        "l"
      ],
      [
        "a",
        "y"
      ],
      [
        "Ġ",
        "it"
      ],
      [
        "Ġa",
        "re"
      ],
      [
        "u",
        "l"
      ],
      [
        "it",
        "h"
      ],
      [
        "Ġp",
        "ro"
      ],
      [
        "i",
        "f"
      ],
      [
        "s",
        "e"
      ],
      [
        "Ġa",
        "n"
      ],
      [
        "Ġw",
        "ith"
      ],
      [
        "Ġ",
        "S"
      ],
      [
        ".Ċ",
        "Ċ"
      ],
      [
        "Ġo",
        "r"
      ],
      [
        "a",
        "m"
      ],
      [
        "Ġc",
        "on"
      ],
      [
        "Ġa",
        "s"
      ],
      [
        "o",
        "d"
      ],
      [
        "es",
        "t"
      ],
      [
        "he",
        "r"
      ],
      [
        "Ġa",
        "l"
      ],
      [
        "Ċ",
        "Ċ"
      ],
      [
        "a",
        "d"
      ],
      [
        "t",
        "er"
      ],
      [
        "Ġ",
        "C"
      ],
      [
        "k",
        "e"
      ],
      [
        "Ġc",
        "an"
      ],
      [
        "u",
        "n"
      ],
      [
        "Ġw",
        "h"
      ],
      [
        "u",
        "re"
      ],
      [
        "g",
        "e"
      ],
      [
        "es",
        "s"
      ],
      [
        "il",
        "l"
      ],
      [
        "a",
        "b"
      ],
      [
        "at",
        "e"
      ],
      [
        "ĠT",
        "he"
      ],
      [
        "u",
        "m"
      ],
      [
        "Ġc",
        "om"
      ],
      [
        "Ġ",
        "he"
      ],
      [
        "Ġh",
        "a"
      ],
      [
        "Ġe",
        "x"
      ],
      [
        "an",
        "t"
      ],
      [
        "er",
        "s"
      ],
      [
        "o",
        "re"
      ],
      [
        "q",
        "u"
      ],
      [
        "Ġ",
        "W"
      ],
      [
        "p",
        "e"
      ],
      [
        "Ġyou",
        "r"
      ],
      [
        "t",
        "h"
      ],
      [
        "i",
        "ve"
      ],
      [
        "'",
        "s"
      ],
      [
        "ig",
        "h"
      ],
      [
        "Ġ",
        "us"
      ],
      [
        "e",
        "m"
      ],
      [
        "Ġ",
        "v"
      ],
      [
        "a",
        "c"
      ],
      [
        "i",
        "es"
      ],
      [
        "m",
        "ent"
      ],
      [
        "Ġw",
        "e"
      ],
      [
        "it",
        "y"
      ],
      [
        "o",
        "p"
      ],
      [
        "a",
        "in"
      ],
      [
        "o",
        "s"
      ],
      [
        "l",
        "d"
      ],
      [
        "is",
        "t"
      ],
      [
        "Ġd",
        "e"
      ],
      [
        "Ġs",
        "e"
      ],
      [
        "Ġn",
        "e"
      ],
      [
        "Ġ",
        "P"
      ],
      [
        "Ġ",
        "("
      ],
      [
        "Ġ",
        "M"
      ],
      [
        "ro",
        "m"
      ],
      [
        "p",
        "p"
      ],
      [
        "Ġ",
        "r"
      ],
      [
        "Ġa",
        "t"
      ],
      [
        "Ġ",
        "B"
      ],
      [
        "Ġ",
        "en"
      ],
      [
        "Ġs",
        "u"
      ],
      [
        "Ġc",
        "h"
      ],
      [
        "e",
        "ct"
      ],
      [
        "Ġs",
        "h"
      ],
      [
        "i",
        "al"
      ],
      [
        "or",
        "t"
      ],
      [
        "Ġha",
        "ve"
      ],
      [
        "Ġf",
        "rom"
      ],
      [
        "Ġd",
        "o"
      ],
      [
        "Ġ",
        "le"
      ],
      [
        "i",
        "v"
      ],
      [
        "igh",
        "t"
      ],
      [
        "re",
        "s"
      ],
      [
        "a",
        "nd"
      ],
      [
        "Ġp",
        "l"
      ],
      [
        "Ġn",
        "ot"
      ],
      [
        "n",
        "t"
      ],
      [
        "Ġb",
        "y"
      ],
      [
        "Ġ",
        "H"
      ],
      [
        "p",
        "er"
      ],
      [
        "ar",
        "t"
      ],
      [
        "o",
        "c"
      ],
      [
        "Ġ",
        "F"
      ],
      [
        "Ġ",
        "D"
      ],
      [
        "u",
        "d"
      ],
      [
        "Ġth",
        "is"
      ],
      [
        "us",
        "t"
      ],
      [
        "al",
        "l"
      ],
      [
        "om",
        "e"
      ],
      [
        "r",
        "i"
      ],
      [
        "ic",
        "al"
      ],
      [
        "id",
        "e"
      ],
      [
        "ou",
        "ld"
      ],
      [
        "Ġ",
        "u"
      ],
      [
        "Ġa",
        "b"
      ],
      [
        "r",
        "ou"
      ],
      [
        "in",
        "e"
      ],
      [
        "p",
        "t"
      ],
      [
        "a",
        "ct"
      ],
      [
        "ou",
        "t"
      ],
      [
        "o",
        "st"
      ],
      [
        "Ġ",
        "im"
      ],
      [
        "Ġm",
        "a"
      ],
      [
        "Ġ",
        "E"
      ],
      [
        "ar",
        "d"
      ],
      [
        "n",
        "s"
      ],
      [
        "o",
        "g"
      ],
      [
        "Ġw",
        "he"
      ],
      [
        "ion",
        "s"
      ],
      [
        "d",
        "u"
      ],
      [
        "Ġw",
        "ill"
      ],
      [
        "Ġ",
        "R"
      ],
      [
        "el",
        "l"
      ],
      [
        "â",
        "Ģ"
      ],
      [
        "o",
        "od"
      ],
      [
        "Ġcom",
        "p"
      ],
      [
        "re",
        "d"
      ],
      [
        "Ġw",
        "or"
      ],
      [
        "as",
        "t"
      ],
      [
        "Ġ",
        "k"
      ],
      [
        "ic",
        "h"
      ],
      [
        "t",
        "her"
      ],
      [
        "f",
        "f"
      ],
      [
        "g",
        "h"
      ],
      [
        "Ġthe",
        "ir"
      ],
      [
        "Ġthe",
        "y"
      ],
      [
        "Ġin",
        "t"
      ],
      [
        "ou",
        "r"
      ],
      [
        "k",
        "ing"
      ],
      [
        "i",
        "z"
      ],
      [
        "Ġa",
        "d"
      ],
      [
        "a",
        "ge"
      ],
      [
        "T",
        "he"
      ],
      [
        "at",
        "er"
      ],
      [
        "p",
        "l"
      ],
      [
        "Ġ",
        "N"
      ],
      [
        "Ġal",
        "l"
      ],
      [
        "ab",
        "le"
      ],
      [
        "a",
        "g"
      ],
      [
        "Ġ",
        "L"
      ],
      [
        "Ġm",
        "ore"
      ],
      [
        "at",
        "ed"
      ],
      [
        "Ġw",
        "as"
      ],
      [
        "en",
        "d"
      ],
      [
        "al",
        "ly"
      ],
      [
        "Ġ",
        "G"
      ],
      [
        "Ġcon",
        "t"
      ],
      [
        "Ġb",
        "ut"
      ],
      [
        "e",
        "re"
      ],
      [
        "h",
        "at"
      ],
      [
        "an",
        "s"
      ],
      [
        "o",
        "o"
      ],
      [
        "Ġs",
        "o"
      ],
      [
        "in",
        "d"
      ],
      [
        "i",
        "b"
      ],
      [
        "i",
        "p"
      ],
      [
        "Ġ",
        "O"
      ],
      [
        "Ġin",
        "c"
      ],
      [
        "e",
        "p"
      ],
      [
        "a",
        "re"
      ],
      [
        "s",
        "o"
      ],
      [
        "r",
        "u"
      ],
      [
        "ou",
        "s"
      ],
      [
        "ul",
        "t"
      ],
      [
        "Ġt",
        "e"
      ],
      [
        "Ġm",
        "e"
      ],
      [
        "k",
        "s"
      ],
      [
        "w",
        "er"
      ],
      [
        "or",
        "m"
      ],
      [
        "Ġ",
        "j"
      ],
      [
        "c",
        "c"
      ],
      [
        "i",
        "ke"
      ],
      [
        "Ġre",
        "s"
      ],
      [
        "r",
        "y"
      ],
      [
        "est",
        "ion"
      ],
      [
        "Ġh",
        "as"
      ],
      [
        "on",
        "g"
      ],
      [
        "Ġc",
        "l"
      ],
      [
        "an",
        "ce"
      ],
      [
        "Q",
        "u"
      ],
      [
        "Ġo",
        "ut"
      ],
      [
        "Ġd",
        "is"
      ],
      [
        "Ġwh",
        "ich"
      ],
      [
        "Ġim",
        "p"
      ],
      [
        "Ġ",
        "un"
      ],
      [
        "Ġ",
        "\""
      ],
      [
        "Ġs",
        "p"
      ],
      [
        "e",
        "ar"
      ],
      [
        "ve",
        "l"
      ],
      [
        "on",
        "e"
      ],
      [
        "i",
        "e"
      ],
      [
        "Ġo",
        "ther"
      ],
      [
        "ation",
        "s"
      ],
      [
        "ct",
        "ion"
      ],
      [
        "h",
        "is"
      ],
      [
        "ent",
        "s"
      ],
      [
        "Ġal",
        "so"
      ],
      [
        "Ġt",
        "im"
      ],
      [
        "'",
        "t"
      ],
      [
        "Ġon",
        "e"
      ],
      [
        "Ġm",
        "an"
      ],
      [
        "ns",
        "wer"
      ],
      [
        "re",
        "at"
      ],
      [
        "Qu",
        "estion"
      ],
      [
        "a",
        "ch"
      ],
      [
        "ic",
        "e"
      ],
      [
        "a",
        "us"
      ],
      [
        "2",
        "0"
      ],
      [
        "ver",
        "y"
      ],
      [
        "a",
        "v"
      ],
      [
        "ĠA",
        "nswer"
      ],
      [
        "en",
        "s"
      ],
      [
        "it",
        "ion"
      ],
      [
        "Ġs",
        "pe"
      ],
      [
        "en",
        "ce"
      ],
      [
        "a",
        "ce"
      ],
      [
        "res",
        "s"
      ],
      [
        "as",
        "s"
      ],
      [
        "ac",
        "k"
      ],
      [
        "Ġp",
        "er"
      ],
      [
        "Ġthe",
        "m"
      ],
      [
        "as",
        "e"
      ],
      [
        "Ġ",
        "U"
      ],
      [
        "l",
        "ow"
      ],
      [
        "ig",
        "n"
      ],
      [
        "a",
        "p"
      ],
      [
        "Ġf",
        "e"
      ],
      [
        "ĠI",
        "n"
      ],
      [
        "Ġu",
        "p"
      ],
      [
        "ar",
        "y"
      ],
      [
        "Ġl",
        "ike"
      ],
      [
        "Ġab",
        "out"
      ],
      [
        "Ġ",
        "qu"
      ],
      [
        "Ġp",
        "re"
      ],
      [
        "ĠI",
        "t"
      ],
      [
        "or",
        "s"
      ],
      [
        "Ġs",
        "c"
      ],
      [
        "Ġe",
        "v"
      ],
      [
        "Ġwhe",
        "n"
      ],
      [
        "if",
        "f"
      ],
      [
        "il",
        "d"
      ],
      [
        "u",
        "e"
      ],
      [
        "Ġ",
        "if"
      ],
      [
        "Ġs",
        "ome"
      ],
      [
        "n",
        "ow"
      ],
      [
        "i",
        "a"
      ],
      [
        "i",
        "re"
      ],
      [
        "Ġ",
        "ro"
      ],
      [
        "i",
        "le"
      ],
      [
        "Ġne",
        "ed"
      ],
      [
        "it",
        "e"
      ],
      [
        "Ġs",
        "y"
      ],
      [
        "Ġm",
        "ay"
      ],
      [
        "ou",
        "nd"
      ],
      [
        "f",
        "orm"
      ],
      [
        "Ġint",
        "o"
      ],
      [
        "Ġa",
        "pp"
      ],
      [
        "a",
        "il"
      ],
      [
        "Ġtim",
        "e"
      ],
      [
        "Ġus",
        "e"
      ],
      [
        "am",
        "e"
      ],
      [
        "c",
        "es"
      ],
      [
        "Ġp",
        "art"
      ],
      [
        "Ġd",
        "iff"
      ],
      [
        "Ġhe",
        "l"
      ],
      [
        "Ġb",
        "l"
      ],
      [
        "Ġh",
        "ow"
      ],
      [
        "Ġ",
        "Y"
      ],
      [
        "o",
        "se"
      ],
      [
        "Ġth",
        "an"
      ],
      [
        "ĠT",
        "his"
      ],
      [
        "r",
        "ic"
      ],
      [
        "l",
        "l"
      ],
      [
        "Ġc",
        "ol"
      ],
      [
        "Ġt",
        "ra"
      ],
      [
        "Ġthe",
        "re"
      ],
      [
        "Ġan",
        "y"
      ],
      [
        "ay",
        "s"
      ],
      [
        "b",
        "er"
      ],
      [
        "le",
        "ct"
      ],
      [
        ".",
        "."
      ],
      [
        "re",
        "e"
      ],
      [
        "c",
        "ess"
      ],
      [
        "a",
        "k"
      ],
      [
        "Ġhel",
        "p"
      ],
      [
        "Ġit",
        "s"
      ],
      [
        "ing",
        "s"
      ],
      [
        "Ġp",
        "e"
      ],
      [
        "ro",
        "w"
      ],
      [
        "Ġbe",
        "c"
      ],
      [
        "Ġa",
        "r"
      ],
      [
        "aus",
        "e"
      ],
      [
        "Ġo",
        "ver"
      ],
      [
        "ĠW",
        "hat"
      ],
      [
        "Ġre",
        "c"
      ],
      [
        "Ġk",
        "now"
      ],
      [
        "Ġcom",
        "m"
      ],
      [
        "Ġg",
        "o"
      ],
      [
        "Ġcon",
        "s"
      ],
      [
        "o",
        "ve"
      ],
      [
        "Ġt",
        "r"
      ],
      [
        "an",
        "g"
      ],
      [
        "nd",
        "er"
      ],
      [
        "a",
        "ke"
      ],
      [
        "on",
        "d"
      ],
      [
        "ou",
        "gh"
      ],
      [
        "Ġb",
        "et"
      ],
      [
        "al",
        "s"
      ],
      [
        "Ġthe",
        "se"
      ],
      [
        "l",
        "es"
      ],
      [
        "Ġg",
        "et"
      ],
      [
        "at",
        "ing"
      ],
      [
        "if",
        "ic"
      ],
      [
        "Ġs",
        "a"
      ],
      [
        "Ġspe",
        "c"
      ],
      [
        "or",
        "d"
      ],
      [
        "t",
        "ing"
      ],
      [
        "t",
        "e"
      ],
      [
        "is",
        "h"
      ],
      [
        "Ġst",
        "ud"
      ],
      [
        "Ġd",
        "es"
      ],
      [
        "Ġw",
        "ater"
      ],
      [
        "h",
        "y"
      ],
      [
        "Ġ",
        "âĢ"
      ],
      [
        "w",
        "e"
      ],
      [
        "rou",
        "gh"
      ],
      [
        "n",
        "ing"
      ],
      [
        "on",
        "s"
      ],
      [
        "Ġe",
        "ff"
      ],
      [
        "Ġa",
        "ct"
      ],
      [
        "Ġus",
        "ed"
      ],
      [
        "st",
        "em"
      ],
      [
        "al",
        "th"
      ],
      [
        "Ġm",
        "ost"
      ],
      [
        "ar",
        "i"
      ],
      [
        "u",
        "b"
      ],
      [
        "ol",
        "og"
      ],
      [
        "Ġwh",
        "at"
      ],
      [
        "Ġf",
        "l"
      ],
      [
        "ou",
        "nt"
      ],
      [
        "ul",
        "ar"
      ],
      [
        "Ġc",
        "o"
      ],
      [
        "Ġpro",
        "du"
      ],
      [
        "Ġin",
        "d"
      ],
      [
        "Ġo",
        "ur"
      ],
      [
        "oo",
        "k"
      ],
      [
        "Ġdiff",
        "ere"
      ],
      [
        "c",
        "k"
      ],
      [
        "or",
        "y"
      ],
      [
        "Ġma",
        "ke"
      ],
      [
        "Ġy",
        "ear"
      ],
      [
        "n",
        "e"
      ],
      [
        "op",
        "le"
      ],
      [
        "Ġg",
        "en"
      ],
      [
        "rou",
        "nd"
      ],
      [
        "Ġof",
        "f"
      ],
      [
        "m",
        "s"
      ],
      [
        "i",
        "ent"
      ],
      [
        "et",
        "h"
      ],
      [
        "Ġ",
        "ra"
      ],
      [
        "Ġwh",
        "o"
      ],
      [
        "Ġpro",
        "v"
      ],
      [
        "in",
        "t"
      ],
      [
        "l",
        "ud"
      ],
      [
        "at",
        "ure"
      ],
      [
        "Ġad",
        "d"
      ],
      [
        "Ġa",
        "cc"
      ],
      [
        "p",
        "le"
      ],
      [
        "Ġ",
        "J"
      ],
      [
        "f",
        "ul"
      ],
      [
        "ic",
        "k"
      ],
      [
        "Ġsu",
        "ch"
      ],
      [
        "Ġsh",
        "ould"
      ],
      [
        "Ġu",
        "nder"
      ],
      [
        "ver",
        "s"
      ],
      [
        "Ġa",
        "m"
      ],
      [
        "Ġne",
        "w"
      ],
      [
        "Ġwe",
        "re"
      ],
      [
        "Ġa",
        "g"
      ],
      [
        "il",
        "ity"
      ],
      [
        "Ġs",
        "m"
      ],
      [
        "ĠS",
        "t"
      ],
      [
        "ow",
        "er"
      ],
      [
        "Ġw",
        "ould"
      ],
      [
        "Ġpe",
        "ople"
      ],
      [
        "ur",
        "ing"
      ],
      [
        "Ġbe",
        "en"
      ],
      [
        "ir",
        "st"
      ],
      [
        "at",
        "es"
      ],
      [
        "Ġt",
        "w"
      ],
      [
        "an",
        "ge"
      ],
      [
        "p",
        "h"
      ],
      [
        "er",
        "v"
      ],
      [
        "Ġe",
        "m"
      ],
      [
        "os",
        "s"
      ],
      [
        "1",
        "0"
      ],
      [
        "x",
        "t"
      ],
      [
        "Ġm",
[...]
