{
  "version": "1.0",
  "truncation": null,
  "padding": null,
  "added_tokens": [
    {
      "id": 0,
      "content": "<|bos|>",
      "single_word": false,
      "lstrip": false,
      "rstrip": false,
      "normalized": false,
      "special": true
    },
    {
      "id": 1,
      "content": "<|user_start|>",
      "single_word": false,
      "lstrip": false,
      "rstrip": false,
      "normalized": false,
      "special": true
    },
    {
      "id": 2,
      "content": "<|user_end|>",
      "single_word": false,
      "lstrip": false,
      "rstrip": false,
      "normalized": false,
      "special": true
    },
    {
      "id": 3,
      "content": "<|assistant_start|>",
      "single_word": false,
      "lstrip": false,
      "rstrip": false,
      "normalized": false,
      "special": true
    },
    {
      "id": 4,
      "content": "<|assistant_end|>",
      "single_word": false,
      "lstrip": false,
      "rstrip": false,
      "normalized": false,
      "special": true
    },
    {
      "id": 5,
      "content": "<|python_start|>",
      "single_word": false,
      "lstrip": false,
      "rstrip": false,
      "normalized": false,
      "special": true
    },
    {
      "id": 6,
      "content": "<|python_end|>",
      "single_word": false,
      "lstrip": false,
      "rstrip": false,
      "normalized": false,
      "special": true
    },
    {
      "id": 7,
      "content": "<|output_start|>",
      "single_word": false,
      "lstrip": false,
      "rstrip": false,
      "normalized": false,
      "special": true
    },
    {
      "id": 8,
      "content": "<|output_end|>",
      "single_word": false,
      "lstrip": false,
      "rstrip": false,
      "normalized": false,
      "special": true
    },
    {
      "id": 9,
      "content": "<|unk|>",
      "single_word": false,
      "lstrip": false,
      "rstrip": false,
      "normalized": false,
      "special": true
    }
  ],
  "normalizer": null,
  "pre_tokenizer": {
    "type": "Sequence",
    "pretokenizers": [
      {
        "type": "Split",
        "pattern": {
          "Regex": "'(?i:[sdmt]|ll|ve|re)|[^\\r\\n\\p{L}\\p{N}]?+\\p{L}+|\\p{N}{1,2}| ?[^\\s\\p{L}\\p{N}]++[\\r\\n]*|\\s*[\\r\\n]|\\s+(?!\\S)|\\s+"
        },
        "behavior": "Isolated",
        "invert": false
      },
      {
        "type": "ByteLevel",
        "add_prefix_space": false,
        "trim_offsets": true,
        "use_regex": false
      }
    ]
  },
  "post_processor": {
    "type": "TemplateProcessing",
    "single": [
      {
        "Sequence": {
          "id": "A",
          "type_id": 0
        }
      }
    ],
    "pair": [
      {
        "Sequence": {
          "id": "A",
          "type_id": 0
        }
      },
      {
        "Sequence": {
          "id": "B",
          "type_id": 1
        }
      }
    ],
    "special_tokens": {}
  },
  "decoder": null,
  "model": {
    "type": "Unigram",
    "unk_id": 9,
    "vocab": [
      [
        "<|bos|>",
        0.0
      ],
      [
        "<|user_start|>",
        0.0
      ],
      [
        "<|user_end|>",
        0.0
      ],
      [
        "<|assistant_start|>",
        0.0
      ],
      [
        "<|assistant_end|>",
        0.0
      ],
      [
        "<|python_start|>",
        0.0
      ],
      [
        "<|python_end|>",
        0.0
      ],
      [
        "<|output_start|>",
        0.0
      ],
      [
        "<|output_end|>",
        0.0
      ],
      [
        "<|unk|>",
        0.0
      ],
      [
        "Ġ",
        -3.0293789818592973
      ],
      [
        "s",
        -3.039297998491392
      ],
      [
        "Ġthe",
        -3.5128958459774235
      ],
      [
        ",",
        -3.565076747438045
      ],
      [
        ".",
        -3.84985145765527
      ],
      [
        "a",
        -3.8649240722258273
      ],
      [
        "Ġand",
        -4.0549015716520795
      ],
      [
        "Ġto",
        -4.096063775323964
      ],
      [
        "Ġof",
        -4.100083935132659
      ],
      [
        "ing",
        -4.403679191638798
      ],
      [
        "e",
        -4.519908267328111
      ],
      [
        "Ġin",
        -4.5750924317260395
      ],
      [
        "Ġis",
        -4.732239516476254
      ],
      [
        "t",
        -4.7393028114187725
      ],
      [
        "ed",
        -4.764799901619858
      ],
      [
        "d",
        -4.893852593613561
      ],
      [
        "'",
        -5.016399123756411
      ],
      [
        "y",
        -5.066472215487034
      ],
      [
        "0",
        -5.117333857844947
      ],
      [
        "Ġthat",
        -5.134837005884183
      ],
      [
        "Ġfor",
        -5.153310591460951
      ],
      [
        "Ċ",
        -5.258971426639654
      ],
      [
        "1",
        -5.280378564695054
      ],
      [
        ":",
        -5.300076569520101
      ],
      [
        "-",
        -5.301044966429487
      ],
      [
        "ly",
        -5.33002846385534
      ],
      [
        "Ġare",
        -5.348848925769712
      ],
      [
        ".Ċ",
        -5.3973443307428965
      ],
      [
        "Ġyou",
        -5.4283752583788925
      ],
      [
        ".ĊĊ",
        -5.438702383453462
      ],
      [
        "Ġit",
        -5.442139586522542
      ],
      [
        "2",
        -5.461592994559664
      ],
      [
        "Ġwith",
        -5.481871403959234
      ],
      [
        "Ġbe",
        -5.530130155137773
      ],
      [
        "Ġon",
        -5.6057262427456465
      ],
      [
        "Ġcan",
        -5.616820427066999
      ],
      [
        "Ġas",
        -5.631945646589751
      ],
      [
        "n",
        -5.632179788152678
      ],
      [
        "Ġor",
        -5.648301202531764
      ],
      [
        "o",
        -5.670512360851564
      ],
      [
        "ĊĊ",
        -5.815289115820773
      ],
      [
        "i",
        -5.838734029490421
      ],
      [
        "Ġyour",
        -5.8448660695525945
      ],
      [
        "er",
        -5.859862581749903
      ],
      [
        "Ġ(",
        -5.867135938820871
      ],
      [
        "r",
        -5.873856716676148
      ],
      [
        "ĠI",
        -5.938973380113401
      ],
      [
        "\"",
        -5.9462574548651705
      ],
      [
        "Ġhave",
        -5.985342497399424
      ],
      [
        "Ġfrom",
        -6.019311110785591
      ],
      [
        "ĠThe",
        -6.03642474377329
      ],
      [
        "Ġan",
        -6.0606980907599795
      ],
      [
        "Ġby",
        -6.097532445627179
      ],
      [
        ")",
        -6.104791212728317
      ],
      [
        "3",
        -6.129601540172304
      ],
      [
        "Ġthis",
        -6.158222145192173
      ],
      [
        "5",
        -6.17710377995026
      ],
      [
        "re",
        -6.179230644023365
      ],
      [
        "Ġnot",
        -6.198855301018188
      ],
      [
        "l",
        -6.199738093872174
      ],
      [
        "m",
        -6.2012166118281336
      ],
      [
        "?",
        -6.201484501843691
      ],
      [
        "al",
        -6.231892276448612
      ],
      [
        "Ġat",
        -6.232529534026581
      ],
      [
        "Ġwill",
        -6.2991158423274545
      ],
      [
        "4",
        -6.312100871933579
      ],
      [
        "p",
        -6.319768163533174
      ],
      [
        "g",
        -6.3291795965326365
      ],
      [
        "Ġtheir",
        -6.334203993334819
      ],
      [
        "in",
        -6.412999804387967
      ],
      [
        "on",
        -6.414691110757012
      ],
      [
        "c",
        -6.418993545095198
      ],
      [
        "Ġthey",
        -6.4500038941726014
      ],
      [
        "Ġmore",
        -6.458548750410831
      ],
      [
        "9",
        -6.466499095042726
      ],
      [
        "or",
        -6.47245804370835
      ],
      [
        "Ġwas",
        -6.4882552379797005
      ],
      [
        "The",
        -6.494981537442875
      ],
      [
        "ĠA",
        -6.534234934122903
      ],
      [
        "Ġwe",
        -6.5494061506542245
      ],
      [
        "6",
        -6.586423233470443
      ],
      [
        "Ġbut",
        -6.604416813422215
      ],
      [
        "Ġwhich",
        -6.619553738487982
      ],
      [
        "Ġhas",
        -6.61969408387748
      ],
      [
        "f",
        -6.625033361778408
      ],
      [
        "b",
        -6.643021195457836
      ],
      [
        "8",
        -6.646767548375797
      ],
      [
        "Ġother",
        -6.682995070088131
      ],
      [
        "Ġone",
        -6.694947926443605
      ],
      [
        "Question",
        -6.695708302247812
      ],
      [
        "Ġalso",
        -6.712652631528359
      ],
      [
        "ĠAnswer",
        -6.730899076734728
      ],
      [
        "7",
        -6.7440058668355345
      ],
      [
        "A",
        -6.74911598182803
      ],
      [
        "Ġall",
        -6.755297322909335
      ],
      [
        "Ġabout",
        -6.78001167922533
      ],
      [
        "Ġdo",
        -6.806740454692637
      ],
      [
        "ies",
        -6.8490551779423114
      ],
      [
        "Ġwhen",
        -6.851286402367208
      ],
      [
        "Ġso",
        -6.8533099857726185
      ],
      [
        "ĠIt",
        -6.873229241241999
      ],
      [
        "Ġtime",
        -6.875896183456883
      ],
      [
        "Ġif",
        -6.898372797737396
      ],
      [
        "Ġuse",
        -6.900061889275294
      ],
      [
        "Ġup",
        -6.901703133962307
      ],
      [
        "Ġinto",
        -6.901882468356874
      ],
      [
        "u",
        -6.916134344096973
      ],
      [
        "Ġlike",
        -6.924071222789781
      ],
      [
        "Ġthem",
        -6.939475866079762
      ],
      [
        "is",
        -6.944432714467421
      ],
      [
        "I",
        -6.961665836147837
      ],
      [
        "h",
        -6.962702796573636
      ],
      [
        "Ġmay",
        -6.9674392608670725
      ],
      [
        "Ġhow",
        -6.96790742951727
      ],
      [
        "Ġout",
        -6.970426633627248
      ],
      [
        "ĠThis",
        -6.981745920858232
      ],
      [
        "an",
        -7.011041204277358
      ],
      [
        "ic",
        -7.012089346242156
      ],
      [
        "ation",
        -7.01319250835679
      ],
      [
        "Ġthan",
        -7.018771538866623
      ],
      [
        "Ġsome",
        -7.019474506943427
      ],
      [
        "ĠWhat",
        -7.03276494140075
      ],
      [
        "ion",
        -7.038643651422971
      ],
      [
        "Ġwater",
        -7.050189950696314
      ],
      [
        "ĠIn",
        -7.055261234706464
      ],
      [
        "le",
        -7.07522478975107
      ],
      [
        "Ġthese",
        -7.076659391601897
      ],
      [
        "k",
        -7.082155915081062
      ],
      [
        "ĠB",
        -7.0871443416619115
      ],
      [
        "Ġget",
        -7.100981202187917
      ],
      [
        "Ġwhat",
        -7.102654169408289
      ],
      [
        "it",
        -7.107750492522504
      ],
      [
        "/",
        -7.109399142849261
      ],
      [
        "able",
        -7.1125579817064075
      ],
      [
        "S",
        -7.118539264207467
      ],
      [
        "Ġany",
        -7.123598973553001
      ],
      [
        "Ġthere",
        -7.128540657740791
      ],
      [
        "Ġused",
        -7.132761849133656
      ],
      [
        "Ġneed",
        -7.14102600931197
      ],
      [
        "Ġmake",
        -7.155499879240173
      ],
      [
        "Ġour",
        -7.156023666690276
      ],
      [
        "ĠS",
        -7.177931108084813
      ],
      [
        "ity",
        -7.214751021864702
      ],
      [
        "If",
        -7.218805693791698
      ],
      [
        "Ġwere",
        -7.222943014064187
      ],
      [
        "Ġmost",
        -7.223305132097302
      ],
      [
        "ĠC",
        -7.227508022967298
      ],
      [
        "Ġsuch",
        -7.24141804386101
      ],
      [
        "Ġnew",
        -7.254569751828067
      ],
      [
        "Ġshould",
        -7.258294576367371
      ],
      [
        "th",
        -7.269084747666383
      ],
      [
        "Ġover",
        -7.270082356470462
      ],
      [
        "v",
        -7.275900098778379
      ],
      [
        "Ġhelp",
        -7.276275942278565
      ],
      [
        "Ġbeen",
        -7.280182474369328
      ],
      [
        "Ġpeople",
        -7.280757355094769
      ],
      [
        "Ġwho",
        -7.3089281221823885
      ],
      [
        "Ġwould",
        -7.328456690708315
      ],
      [
        "Ġjust",
        -7.334118295965842
      ],
      [
        "ve",
        -7.335746401917806
      ],
      [
        "us",
        -7.351316556170207
      ],
      [
        "ive",
        -7.356597955755157
      ],
      [
        "ers",
        -7.35697872719218
      ],
      [
        "x",
        -7.359339754273158
      ],
      [
        "Ġonly",
        -7.359438712823797
      ],
      [
        "B",
        -7.363182401176399
      ],
      [
        "w",
        -7.371400251337326
      ],
      [
        "Ġits",
        -7.374024308470755
      ],
      [
        "Ġwork",
        -7.379329404860725
      ],
      [
        "ĠE",
        -7.382193754017441
      ],
      [
        "Ġmany",
        -7.390196580705648
      ],
      [
        "Ġhigh",
        -7.391652606641044
      ],
      [
        "ar",
        -7.396700643193446
      ],
      [
        ";",
        -7.402509743686453
      ],
      [
        "Ġmy",
        -7.407097793168909
      ],
      [
        "Ġtwo",
        -7.408602954735526
      ],
      [
        "C",
        -7.419526590942917
      ],
      [
        "Ġno",
        -7.425641781137426
      ],
      [
        "Ġwell",
        -7.443248101536319
      ],
      [
        "D",
        -7.451089644875417
      ],
      [
        "ever",
        -7.4535631521911
      ],
      [
        "Ġway",
        -7.475501726841284
      ],
      [
        "Ġdifferent",
        -7.481119584269582
      ],
      [
        "Ġbetween",
        -7.483164812534204
      ],
      [
        "?Ċ",
        -7.483322108428544
      ],
      [
        "Ġwhere",
        -7.48641134495365
      ],
      [
        "Ġfirst",
        -7.4909713506359985
      ],
      [
        "Ġlong",
        -7.5030895318430115
      ],
      [
        "Ġthrough",
        -7.503782118386782
      ],
      [
        "!",
        -7.506823426725827
      ],
      [
        "ment",
        -7.5150759115670045
      ],
      [
        "ur",
        -7.516504871105139
      ],
      [
        "ll",
        -7.525590930040792
      ],
      [
        "um",
        -7.533314177216816
      ],
      [
        "P",
        -7.534984553809206
      ],
      [
        "Ġusing",
        -7.538577132188872
      ],
      [
        "T",
        -7.549785488483865
      ],
      [
        "Ġhe",
        -7.553879838564786
      ],
      [
        "F",
        -7.572659166415926
      ],
      [
        "In",
        -7.57491634305517
      ],
      [
        "Ġbecaus",
        -7.578233585794656
      ],
      [
        "Ġeven",
        -7.582825507474318
      ],
      [
        "Ġun",
        -7.588752399428992
      ],
      [
        "Ġcould",
        -7.591105446145191
      ],
      [
        "Ġlook",
        -7.604914293537861
      ],
      [
        "ĠF",
        -7.619793619216303
      ],
      [
        "ch",
        -7.620321542766451
      ],
      [
        "Ġvery",
        -7.622357235700015
      ],
      [
        "G",
        -7.637471398467914
      ],
      [
        "ĠP",
        -7.643389312801558
      ],
      [
        "Ġknow",
        -7.646449172906038
      ],
      [
        "Ġsystem",
        -7.661318895399626
      ],
      [
        "est",
        -7.66871986804316
      ],
      [
        "ĠG",
        -7.670893413202824
      ],
      [
        "ĠHow",
        -7.672079748889098
      ],
      [
        "ce",
        -7.67647216947922
      ],
      [
        "ĠThey",
        -7.678967520046244
      ],
      [
        "E",
        -7.680941213145266
      ],
      [
        "Ġeach",
        -7.682279549999619
      ],
      [
        "Ġmuch",
        -7.688889168082392
      ],
      [
        "Ġhad",
        -7.689699223722458
      ],
      [
        "ter",
        -7.694952718103291
      ],
      [
        "Ġimportant",
        -7.69977367913199
      ],
      [
        "Ġhealth",
        -7.705159869945321
      ],
      [
        "Ġprovide",
        -7.7099937496544175
      ],
      [
        "Ġdon",
        -7.723097751678637
      ],
      [
        "Ġgood",
        -7.727218108712162
      ],
      [
        "?ĊĊ",
        -7.727795129052229
      ],
      [
        "Ġdoes",
        -7.728247937352515
      ],
      [
        "ĠYou",
        -7.731150032491879
      ],
      [
        "Ġfood",
        -7.737637965978831
      ],
      [
        "Ġtake",
        -7.744485796584483
      ],
      [
        "Ġsee",
        -7.745122783456306
      ],
      [
        "ĠâĢĵ",
        -7.746971738906204
      ],
      [
        "age",
        -7.747159593852105
      ],
      [
        "Ġhis",
        -7.747426351246872
      ],
      [
        "il",
        -7.764804331108765
      ],
      [
        "ĠD",
        -7.765092454961277
      ],
      [
        "Ġthen",
        -7.777104862153658
      ],
      [
        "ĠT",
        -7.781040774174636
      ],
      [
        "Ġwhile",
        -7.781736910329446
      ],
      [
        ").",
        -7.783068598301661
      ],
      [
        "ate",
        -7.785041706433081
      ],
      [
        "z",
        -7.789972674061975
      ],
      [
        "Ġbefore",
        -7.798077470839591
      ],
      [
        "Ġcause",
        -7.801700197978235
      ],
      [
        "Ġyears",
        -7.803326817156295
      ],
      [
        "to",
        -7.8061052916030285
      ],
      [
        "and",
        -7.813212058523607
      ],
      [
        "Ġback",
        -7.813650519496846
      ],
      [
        "(",
        -7.814037102985857
      ],
      [
        "Ġafter",
        -7.816443742424857
      ],
      [
        "Ġworld",
        -7.817944427224054
      ],
      [
        "M",
        -7.8185167127328
      ],
      [
        "Ġdesign",
        -7.825227548766703
      ],
      [
        "W",
        -7.8369814634619
      ],
      [
        "Ġwant",
        -7.847996285285051
      ],
      [
        "ĠWe",
        -7.849481042913576
      ],
      [
        "ĠM",
        -7.85960491435654
      ],
      [
        "Ġduring",
        -7.860359747661342
      ],
      [
        "Ġlife",
        -7.865382003749518
      ],
      [
        "Ġcome",
        -7.867070593302287
      ],
      [
        "Ġboth",
        -7.867258390504203
      ],
      [
        "Ġaround",
        -7.870973314033044
      ],
      [
        "Ġallow",
        -7.871831921326088
      ],
      [
        "N",
        -7.873333139961669
      ],
      [
        "Ġenergy",
        -7.874620547091622
      ],
      [
        "Ġsame",
        -7.876683191020842
      ],
      [
        "Ġevery",
        -7.877901875840617
      ],
      [
        "Ġlight",
        -7.878652962089792
      ],
      [
        "Ġdown",
        -7.886834458196729
      ],
      [
        "ul",
        -7.896866999547276
      ],
      [
        "Ġgreat",
        -7.898823310193608
      ],
      [
        "Ġpart",
        -7.899057249029493
      ],
      [
        "Ġprocess",
        -7.902467063401893
      ],
      [
        "Ġde",
        -7.904579449033607
      ],
      [
        "Ġbeing",
        -7.907027910509388
      ],
      [
        "Ġthose",
        -7.909824653248142
      ],
      [
        "Ġright",
        -7.911318660422888
      ],
      [
        "ĠFor",
        -7.916392326571641
      ],
      [
        "Ġdata",
        -7.923580017528922
      ],
      [
        "ness",
        -7.930962912498638
      ],
      [
        "What",
        -7.932477499844529
      ],
      [
        "),",
        -7.932492181381251
      ],
      [
        "ĠH",
        -7.934622769454727
      ],
      [
        "Ġoften",
        -7.935601255827276
      ],
      [
        "Ġhome",
        -7.939697080336288
      ],
      [
        "Ġfound",
        -7.946700082707169
      ],
      [
        "Ġinclude",
        -7.950549532739254
      ],
      [
        "Ġarea",
        -7.952768328486504
      ],
      [
        "Ġday",
        -7.953342441560887
      ],
      [
        "Ġbody",
        -7.954668748057101
      ],
      [
        "Ġkeep",
        -7.955007026038562
      ],
      [
        "Ġsmall",
        -7.955606307645452
      ],
      [
        "ĠTo",
        -7.956568860398019
      ],
      [
        "Ġfind",
        -7.961671679470463
      ],
      [
        "%",
        -7.965404506724573
      ],
      [
        "ent",
        -7.965920018888966
      ],
      [
        "Ġme",
        -7.9686111633940335
      ],
      [
        "ĠN",
        -7.971128132378201
      ],
      [
        "Ġcreate",
        -7.971336289609587
      ],
      [
        "Ġbest",
        -7.971948382319191
      ],
      [
        "Ġmean",
        -7.988659012162016
      ],
      [
        "Ġgo",
        -7.990158521180817
      ],
      [
        "Ġmade",
        -7.996985140260362
      ],
      [
        "the",
        -8.015620240344225
      ],
      [
        "R",
        -8.016844645667335
      ],
      [
        "li",
        -8.019453392438516
      ],
      [
        "ability",
        -8.020562900567949
      ],
      [
        "Ġher",
        -8.025354898105768
      ],
      [
        "ĠW",
        -8.02913548134732
      ],
      [
        "Ġyear",
        -8.031245218182162
      ],
      [
        "Ġincrease",
        -8.039803513976079
      ],
      [
        "Ġunder",
        -8.042221333181914
      ],
      [
        "V",
        -8.044230780798035
      ],
      [
        "Ġplace",
        -8.04451565601315
      ],
      [
        "Ġcondition",
        -8.04565803634486
      ],
      [
        "O",
        -8.048776129578398
      ],
      [
        ":Ċ",
        -8.05018441797486
      ],
      [
        "Ġrequire",
        -8.053487998279383
      ],
      [
        "Ġsaid",
        -8.060000660603183
      ],
      [
        "H",
        -8.060853156040382
      ],
      [
        "Ġstart",
        -8.061216886023862
      ],
      [
        "Ġinformation",
        -8.061613808771456
      ],
      [
        "Ġnumber",
        -8.062961545156847
      ],
      [
        "Ġend",
        -8.062964146017029
      ],
      [
        "Ġplant",
        -8.065487837448352
      ],
      [
        "Ġcar",
        -8.067223921147066
      ],
      [
        "...",
        -8.068986788146434
      ],
      [
        "How",
        -8.068995653987663
      ],
      [
        "Ġresearch",
        -8.077214973703501
      ],
      [
        "Ġlarge",
        -8.07878843556259
      ],
      [
        "ry",
        -8.080814419959319
      ],
      [
        "Ġtemperature",
        -8.083358347713686
      ],
      [
        "Ġinclud",
        -8.08700220998303
      ],
      [
        "Ġair",
        -8.089452339172722
      ],
      [
        "This",
        -8.09374282379004
      ],
      [
        "Ġlead",
        -8.095755121496017
      ],
      [
        "Ġus",
        -8.10088045339695
      ],
      [
        "Ġper",
        -8.10119034834223
      ],
      [
        "Ġoff",
        -8.101624762934168
      ],
      [
        "Ġpower",
        -8.10331624664518
      ],
      [
        "co",
        -8.103347863939357
      ],
      [
        "Ġstudents",
        -8.105903361017253
      ],
      [
        "ĠO",
        -8.10928258284184
      ],
      [
        "Ġnow",
        -8.113570076174412
      ],
      [
        "Ġspecies",
        -8.118174865060624
      ],
      [
        "Ġhuman",
        -8.118796832072414
      ],
      [
        "Ġform",
        -8.11951754746745
      ],
      [
        "ĠRe",
        -8.120099108345224
      ],
      [
        "based",
        -8.121975786395765
      ],
      [
        "Ġplants",
        -8.127306892805457
      ],
      [
        "one",
        -8.128841952453737
      ],
      [
        "Ġmight",
        -8.130763104410878
      ],
      [
        "Ġstudy",
        -8.13926396459748
      ],
      [
        "ĠThese",
        -8.13974685186479
      ],
      [
        "Ġdog",
        -8.142205204101039
      ],
      [
        "Ġwithout",
        -8.142426824504494
      ],
      [
        "Ġbetter",
        -8.144013623166563
      ],
      [
        "Ġfew",
        -8.146787193616722
      ],
      [
        "tic",
        -8.154471518847465
      ],
      [
        "Ġthink",
        -8.155001373712476
      ],
      [
        "ĠR",
        -8.155183458421364
      ],
      [
        "Ġbecome",
        -8.155979664305436
      ],
      [
        "ance",
        -8.15748784092482
      ],
      [
        "Ġexample",
        -8.157600676875463
      ],
      [
        "Ġchange",
        -8.157731756378043
      ],
      [
        "ĠSo",
        -8.158166191219182
      ],
      [
        "ally",
        -8.163857959245693
      ],
      [
        "be",
        -8.165115621365947
      ],
      [
        "Ġstill",
        -8.172865345909896
      ],
      [
        "im",
        -8.174435780626837
      ],
      [
        "Ġset",
        -8.17533236984897
      ],
      [
        "It",
        -8.176228272024394
      ],
      [
        "Ġown",
        -8.180375574728059
      ],
      [
        "Ġgrow",
        -8.181660326869158
      ],
      [
        "Ġsupport",
        -8.184448758653913
      ],
      [
        "ial",
        -8.185580231521127
      ],
      [
        "ver",
        -8.186575472266602
      ],
      [
        "Ġspecific",
        -8.189157826928302
      ],
      [
        "K",
        -8.194481716497837
      ],
      [
        "Ġcontrol",
        -8.199659842330474
      ],
      [
        "Ġcommon",
        -8.201047358507946
      ],
      [
        "Ġgroup",
        -8.204600591764265
      ],
      [
        "me",
        -8.206200844275456
      ],
      [
        "Ġb",
        -8.206404721327205
      ],
      [
        "less",
        -8.20981869886468
      ],
      [
        "ther",
        -8.211934775329857
      ],
      [
        "Ġexperience",
        -8.212368208092567
      ],
      [
        "ĠAnd",
        -8.215259801719647
      ],
      [
        "Ġpotential",
        -8.220218896933911
      ],
      [
        "ary",
        -8.22039823565625
      ],
      [
        "Ġtype",
        -8.228181522859744
      ],
      [
        "ĠK",
        -8.229280855287628
      ],
      [
        "ĠBut",
        -8.237663830452727
      ],
      [
        "op",
        -8.237728120176389
      ],
      [
        "Ġchildren",
        -8.242501555661462
      ],
      [
        "Ġmaking",
        -8.242564790698948
      ],
      [
        "Ġlot",
        -8.24434846709747
      ],
      [
        "ous",
        -8.245345989271485
      ],
      [
        "Ġgive",
        -8.24555182622183
      ],
      [
        "Ġpoint",
        -8.250912443044239
      ],
      [
        "Ġthree",
        -8.252008138968153
      ],
      [
        "un",
        -8.252472147518805
      ],
      [
        "Ġless",
        -8.253210026684737
      ],
      [
        "âĢĻ",
        -8.258187241521009
      ],
      [
        "Ġnatural",
        -8.259769803193933
      ],
      [
        "ill",
        -8.270000423082301
      ],
      [
        "Ġdisease",
        -8.27110668023939
      ],
      [
        "Ġadd",
        -8.271852190045966
      ],
      [
        "Ġschool",
        -8.27244557163262
      ],
      [
        "Ġknown",
        -8.272788131634762
      ],
      [
        "Ġmust",
        -8.27953978497243
      ],
      [
        "am",
        -8.28225381408325
      ],
      [
        "Ġplay",
        -8.283254077449634
      ],
      [
        "Ġwithin",
        -8.28382822205646
      ],
      [
        "ĠV",
        -8.288347961551546
      ],
      [
        "Ġindividual",
        -8.291138495011449
      ],
      [
        ":ĊĊ",
        -8.298316957699143
      ],
      [
        "Ġrisk",
        -8.301531063984537
      ],
      [
        "Ġthings",
        -8.301774538226471
      ],
      [
        "Ġdevelop",
        -8.302803769493883
      ],
      [
        "Ġproject",
        -8.303417744138798
      ],
      [
        "Ġcolor",
        -8.303907859819804
      ],
      [
        "Ġprevent",
        -8.312690067246786
      ],
      [
        "L",
        -8.315033043476955
      ],
      [
        "Ġsure",
        -8.323659136311207
      ],
      [
        "ĠL",
        -8.324156336593191
      ],
      [
        "Ġenvironment",
        -8.327513475545503
      ],
      [
        "Ġspace",
        -8.332579654147702
      ],
      [
        "Ġmain",
        -8.335445710605734
      ],
      [
        "Ġblood",
        -8.336070483092335
      ],
      [
        "Ġdue",
        -8.336899781533347
      ],
      [
        "Ġwhy",
        -8.338607176814138
      ],
      [
        "ian",
        -8.342191445306074
      ],
      [
        "Ġcalled",
        -8.34338447202701
      ],
      [
        "ĠWhen",
        -8.34392624152171
      ],
      [
        "Ġreally",
        -8.343946675770697
      ],
      [
        "Ġtoo",
        -8.3527740212629
      ],
      [
        "Ġshow",
        -8.354273331896977
      ],
      [
        "ĠHe",
        -8.358283512812214
      ],
      [
        "Ġrange",
        -8.361718211718069
      ],
      [
        "Ġheat",
        -8.361979877013884
      ],
      [
        "Ġco",
        -8.362330985249796
      ],
      [
        "Ġlow",
        -8.365217817497593
      ],
      [
        "Ġhere",
        -8.365554366510965
      ],
      [
        "+",
        -8.375462056864993
      ],
      [
        "Ġlevel",
        -8.378935956822838
      ],
      [
        "Ġreduce",
        -8.379576178875924
      ],
      [
        "Ġanother",
        -8.380755048644644
      ],
      [
        "Ġensure",
        -8.38376996561376
      ],
      [
        "ĠSt",
        -8.38509749003426
      ],
      [
        "Ġvalue",
        -8.385133979318908
      ],
      [
        "if",
        -8.38926888043624
      ],
      [
        "up",
        -8.391309440723528
      ],
      [
        "Ġshe",
        -8.392554344318224
      ],
      [
        "Ġbenefit",
        -8.394076522269355
      ],
      [
        "Ġproblem",
        -8.395553242724315
      ],
      [
        "Ġtry",
        -8.396082142257178
      ],
      [
        "Ġtest",
        -8.401536370077899
      ],
      [
        "Ġpossible",
        -8.402554498686097
      ],
      [
        "ĠAs",
        -8.411644933119618
      ],
      [
        "Ġturn",
        -8.414075657239714
      ],
      [
        "Ġgoing",
        -8.415419630840315
      ],
      [
        "Ġcurrent",
        -8.41710446784845
      ],
      [
        "Ġalways",
        -8.417618951901236
      ],
      [
        "Ġfollowing",
        -8.418359242935693
      ],
      [
        "Ġsomething",
        -8.418604965033492
      ],
      [
        "Ġfish",
        -8.41920406829323
      ],
      [
        "Ġcare",
        -8.419427937592527
      ],
      [
        "Ġsource",
        -8.422828510069863
      ],
      [
        "âĢĶ",
        -8.425291308346758
      ],
      [
        "U",
        -8.428058210298554
      ],
      [
        "Ġamount",
        -8.429341138797918
      ],
      [
        "Ġconsider",
        -8.429520867940678
      ],
      [
        "Ġvarious",
        -8.430289578629079
      ],
      [
        "Ġnon",
        -8.4344144938512
      ],
      [
        "Ġfactor",
        -8.439458014735528
      ],
      [
        "Ġname",
        -8.4440711749438
      ],
      [
        "Ġtree",
        -8.44647512402177
      ],
      [
        "per",
        -8.447128132444378
      ],
      [
        "Ġdid",
        -8.448268559110815
      ],
      [
        "Ġusual",
        -8.454618855517632
      ],
      [
        "ĠThere",
        -8.455425443161142
      ],
      [
        "Ġhand",
        -8.457920862584377
      ],
      [
        "Ġcon",
        -8.45794366849746
      ],
      [
        "Ġpresent",
        -8.465105806700546
      ],
      [
        "ĠAn",
        -8.467764497555567
      ],
      [
        "Ġlearn",
        -8.46779440940372
      ],
      [
        "Ġlive",
        -8.46793167228875
      ],
      [
        "Ġdevelopment",
        -8.471041605198838
      ],
      [
        "Ġresult",
        -8.473968150587357
      ],
      [
        "ĠU",
        -8.477245725915285
      ],
      [
        "Ġlast",
        -8.481168422967961
      ],
      [
        "Ġsize",
        -8.482082363005787
      ],
      [
        "Ġsoil",
        -8.482820921232669
      ],
      [
        "Ġal",
        -8.48369487722922
      ],
      [
        "Ġteam",
        -8.483963117773008
      ],
      [
        "Ġlittle",
        -8.487559941305562
      ],
      [
        "Ġgeneral",
        -8.48795880602092
      ],
      [
        "Ġhappen",
        -8.491250595743136
      ],
      [
        "Ġorder",
        -8.498680440410737
      ],
      [
        "ring",
        -8.503904927937835
      ],
      [
        "Ġtext",
        -8.507249229958406
      ],
      [
        "ke",
        -8.50732861799814
      ],
      [
        "ish",
        -8.50959361627401
      ],
      [
        "We",
        -8.510098230958443
      ],
      [
        "Ġquality",
        -8.514790978550387
      ],
      [
        "Ġpre",
        -8.51785587299947
      ],
      [
        "Ġavailable",
        -8.518006338886728
      ],
      [
        "Ġopen",
        -8.518559273145247
      ],
      [
        "Ġstate",
        -8.519090629537406
      ],
      [
        "ating",
        -8.51931124039486
      ],
      [
        "ge",
        -8.521911212526678
      ],
      [
        "Ġanimals",
        -8.522303770408115
      ],
      [
        "Ġmodel",
        -8.523125585909295
      ],
      [
        "man",
        -8.525308719460881
      ],
      [
        "Ġoil",
        -8.527875797322032
      ],
      [
        "ated",
        -8.533688128971349
      ],
      [
        ",\"",
        -8.535088884941604
      ],
      [
        "Ġshort",
        -8.541435097370258
      ],
      [
        "Ġcells",
        -8.541836207764314
      ],
      [
        "Ġcover",
        -8.54442605687618
      ],
      [
        "Ġfocus",
        -8.546197196197065
      ],
      [
        "ĠBe",
        -8.550513673099307
      ],
      [
        "vi",
        -8.555356160265621
      ],
      [
        "Ġlearning",
        -8.555401460614846
      ],
      [
        "Ġenough",
        -8.556566237775897
      ],
      [
        "Ġpro",
        -8.556939626613097
      ],
      [
        "Ġhard",
        -8.557607243778968
      ],
      [
        "Ġsolution",
        -8.561285318185027
      ],
      [
        "Ġcertain",
        -8.561955034305555
      ],
      [
        "ten",
        -8.561991764002908
      ],
      [
        "Ġessential",
        -8.563696000861198
      ],
      [
        "Ġacid",
        -8.56399943008632
      ],
      [
        "Ġgarden",
        -8.56449362524112
      ],
      [
        "Ġpressure",
        -8.564937696772212
      ],
      [
        ")Ċ",
        -8.56540109034512
      ],
      [
        "Ġseveral",
        -8.56569997407342
      ],
      [
        "Ġlocal",
        -8.566567315744262
      ],
      [
        "Ġnear",
        -8.568484353797675
      ],
      [
        "not",
        -8.572248559269859
      ],
      [
        "Ġterm",
        -8.572660752337523
      ],
      [
        "Ġtogether",
        -8.576147272558128
      ],
      [
        "Ġsurface",
        -8.579768454946782
      ],
      [
        "Ġweek",
        -8.58129029503821
      ],
      [
        "You",
        -8.584892370129328
      ],
      [
        "ĠJ",
        -8.586115743747568
      ],
      [
        "Ġfeel",
        -8.58648432641621
      ],
      [
        "Ġfunction",
        -8.587180614970492
      ],
      [
        "Ġweight",
        -8.589172269250884
      ],
      [
        "out",
        -8.589619575836641
      ],
      [
        "Ġleave",
        -8.589879084509388
      ],
      [
        "When",
        -8.593949881945461
      ],
      [
        "ĠWhich",
        -8.594409244061433
      ],
      [
        "Y",
        -8.595182387800875
      ],
      [
        "]",
        -8.598345210692631
      ],
      [
        "Ġtypes",
        -8.600150312376545
      ],
      [
        "Ġprotein",
        -8.600424003978159
      ],
      [
        "Ġ&",
        -8.602165346567421
      ],
      [
        "Ġrole",
        -8.602303480078799
      ],
      [
        "Ġdifference",
        -8.603221159472959
      ],
      [
        "Ġunderstand",
        -8.603583609458948
      ],
      [
        "Ġput",
        -8.604466883641916
      ],
      [
        "Ġdamage",
        -8.60467449348706
      ],
      [
        "Ġfree",
        -8.609206824458107
      ],
      [
        "ard",
        -8.609338777862519
      ],
      [
        "Ġside",
        -8.611023717127793
      ],
      [
        "Ġtreatment",
        -8.612179630259629
      ],
      [
        "Ġrun",
        -8.614519467148611
      ],
      [
        "Ġsay",
        -8.615237412553848
      ],
      [
        "Ġtechnology",
        -8.617356115624986
      ],
      [
        "Ġ$",
        -8.620107601710943
      ],
      [
        "Ġcost",
        -8.621261415376903
      ],
      [
        "Ġmethod",
        -8.62200423784412
      ],
      [
        "Ġdirect",
        -8.627950721462483
      ],
      [
        "Ġimpact",
        -8.628029940686872
      ],
      [
        "Ġreal",
        -8.628075933569695
      ],
      [
        "Ġam",
        -8.631169760106971
      ],
      [
        "Ġlove",
        -8.631659356008822
      ],
      [
        "Ġproduce",
        -8.632073895965355
      ],
      [
        "ence",
        -8.63299015220168
      ],
      [
        "Ġaway",
        -8.633617598823541
      ],
      [
        "Ġperson",
        -8.633633524115627
      ],
      [
        "Ġmaterial",
        -8.635204105894829
      ],
      [
        "ĠMa",
        -8.637711166560855
      ],
      [
        "thing",
        -8.637788102158094
      ],
      [
        "Ġsince",
        -8.641384881980073
      ],
      [
        "Ġ=",
        -8.64196327801164
      ],
      [
        "Ġhead",
        -8.642267765162096
      ],
      [
        "Ġage",
        -8.642468551013753
      ],
      [
        "Ġcheck",
        -8.644774784623726
      ],
      [
        "Ġcourse",
        -8.646193004292256
      ],
      [
        "Ġcase",
        -8.647094275333906
      ],
      [
        "ship",
        -8.64762718360961
      ],
      [
        "Ġproblems",
        -8.649000914395513
      ],
      [
        "tra",
        -8.650834340663067
      ],
      [
        "land",
        -8.652275873501917
      ],
      [
        "Ġsystems",
        -8.65591330394988
      ],
      [
        "Ġalong",
        -8.659443985613208
      ],
      [
        "line",
        -8.661651981267966
      ],
      [
        "Ġlet",
        -8.663352278723114
      ],
      [
        "Ġfield",
        -8.66391280623768
      ],
      [
        "ph",
        -8.666056325196
      ],
      [
        "Ġdiet",
        -8.666451967632431
      ],
      [
        "ful",
        -8.66663470192822
      ],
      [
        "Ġkey",
        -8.66724617007764
      ],
      [
        "Ġprotect",
        -8.66758060762426
      ],
      [
        "ach",
        -8.669078659230294
      ],
      [
        "Ġfast",
        -8.669314294891805
      ],
      [
        "Ġresults",
        -8.670327793984677
      ],
      [
        "Ġpractice",
        -8.671851527020557
      ],
      [
        "Ġkind",
        -8.673022437156778
      ],
      [
        "Ġpost",
        -8.67315490750418
      ],
      [
        "Ġprogram",
        -8.675359429583665
      ],
      [
        "Ġfact",
        -8.675722778340536
      ],
      [
        "ĠThat",
        -8.677812247092078
      ],
      [
        "Ġproper",
        -8.678792558599971
      ],
      [
        "Ġobject",
        -8.678825500256053
      ],
      [
        "Ġmaterials",
        -8.67956265586152
      ],
      [
        "Ġdi",
        -8.682125241684917
      ],
      [
        "Ġmaintain",
        -8.683494009007966
      ],
      [
        "To",
        -8.686593786202312
      ],
      [
        "Ġsimilar",
        -8.686912564493756
      ],
      [
        "Ġline",
        -8.690724170383419
      ],
      [
        "Ġlevels",
        -8.691039263548571
      ],
      [
        "Ġuntil",
        -8.692978912258429
      ],
      [
        "Ġhaving",
        -8.693036654988113
      ],
      [
        "least",
        -8.693170528097212
      ],
      [
        "Ġfamily",
        -8.694453956372929
      ],
      [
        "Ġsecond",
        -8.696379227189684
      ],
      [
        "Ġneeds",
        -8.696499606901213
      ],
      [
        "Ġphysical",
        -8.698958261122652
      ],
      [
        "ling",
        -8.699024747286849
      ],
      [
        "Ġcomputer",
        -8.699867393930418
      ],
      [
        "Ġearly",
        -8.700181505038977
      ],
      [
        "Ġgrowth",
        -8.70594830273369
      ],
      [
        "Ġeye",
        -8.706910656936987
      ],
      [
        "Ġpopulation",
        -8.708718618928646
      ],
      [
        "ĠNo",
        -8.709028257674397
      ],
      [
        "Ġproducts",
        -8.709286890238992
      ],
      [
        "Ġcreat",
        -8.709903636234568
      ],
      [
        "*",
        -8.712242032185626
      ],
      [
        "ĠWith",
        -8.713035196441476
      ],
      [
        "ĠBy",
        -8.713737774145976
      ],
      [
        "!Ċ",
        -8.714555542079843
      ],
      [
        "There",
        -8.714587109431807
      ],
      [
        "J",
        -8.718247407165572
      ],
      [
        "Ġsp",
        -8.71924092774141
      ],
      [
        "Ġplan",
        -8.722686540649287
      ],
      [
        "Ġnext",
        -8.723262584975227
      ],
      [
        "Ġworking",
        -8.72579557731234
      ],
      [
        "ions",
        -8.726329035537317
      ],
      [
        "ow",
        -8.72747981776973
      ],
      [
        "Ġ[",
        -8.728776212605652
      ],
      [
        "Ġoffer",
        -8.729639352932258
      ],
      [
        "min",
        -8.730130960657323
      ],
      [
        "ĠDe",
        -8.730685152482863
      ],
      [
        "ĠNew",
        -8.731243390445492
      ],
      [
        "Ġtop",
        -8.732942553437155
      ],
      [
        "Ġwide",
        -8.732964962952298
      ],
      [
        "ized",
        -8.733541764561004
      ],
      [
        "Ġdogs",
        -8.733772639683602
      ],
      [
        "Ġbusiness",
        -8.734526453714807
      ],
      [
        "ide",
        -8.73562226285637
      ],
      [
        "Ġspeed",
        -8.736041312129082
      ],
      [
        "Ġdry",
        -8.737602379778929
      ],
      [
        "Ġskin",
        -8.73790507464761
      ],
      [
        "Ġsimple",
        -8.738662708912898
      ],
      [
        "Ġhigher",
        -8.738948847015585
      ],
      [
        "_",
        -8.73971648976357
      ],
      [
        "Ġeasy",
        -8.744012895401706
      ],
      [
        "ster",
        -8.744817163564562
      ],
      [
        "Ġvariet",
        -8.745463942967984
      ],
      [
        "ism",
        -8.752485201945863
      ],
      [
        "Ġfollow",
        -8.753799136914942
      ],
      [
        "Ġdepend",
        -8.75486145962466
      ],
      [
        "Ġstep",
        -8.756442354201665
      ],
      [
        "les",
        -8.757172053213363
      ],
      [
        "Ġmakes",
        -8.759206278809124
      ],
      [
        "Ġthing",
        -8.759391972655706
      ],
      [
        "Ġpet",
        -8.759881642149448
      ],
      [
        "Ġmove",
        -8.76014274077346
      ],
      [
        "Ġavoid",
        -8.760311795825377
      ],
      [
        "Ġgiven",
        -8.760924364903424
      ],
      [
        "Ġlower",
        -8.761343112237281
      ],
      [
        "Ġlikely",
        -8.76144651177579
      ],
      [
        "ize",
        -8.761811611174554
      ],
      [
        "Ġchanges",
        -8.76371982537922
      ],
      [
        "Ġdis",
        -8.769131655786353
      ],
      [
        "Ġold",
        -8.771664528340906
      ],
      [
        "Ġfull",
        -8.77183682473346
      ],
      [
        "Ġdoesn",
        -8.774218310011944
      ],
      [
        "Ġsafe",
        -8.77652152942527
      ],
      [
        "ĠUniversity",
        -8.776792679667427
      ],
      [
        "Ġclose",
        -8.77858088983372
      ],
      [
        "Ġproduct",
        -8.77917165575538
      ],
      [
        "Ġfar",
        -8.781208301167624
      ],
      [
        "Ġcat",
        -8.782135227591908
      ],
      [
        "Ġdays",
        -8.783663738731608
      ],
      [
        "Ġnever",
        -8.783970370721839
      ],
      [
        "Ġclear",
        -8.784808497200949
      ],
      [
        "hi",
        -8.7876317008459
      ],
      [
        "Ġheart",
        -8.78891449797537
      ],
      [
        "Ġclean",
        -8.78926767894886
      ],
      [
        "Ġread",
        -8.789931885183648
      ],
      [
        "Ġactually",
        -8.79040885999791
      ],
      [
        "Ġbuilding",
        -8.790616041348798
      ],
      [
        "Ġissues",
        -8.790662457409613
      ],
      [
        "ub",
        -8.790945854289657
      ],
      [
        "ical",
        -8.791059144973826
      ],
      [
        "uc",
        -8.793387849473
      ],
      [
        "Ġunique",
        -8.794865162235876
      ],
      [
        "Ġgas",
        -8.797599966513847
      ],
      [
        "ect",
        -8.797956907362394
      ],
      [
        "Ġespecially",
        -8.798856008527514
      ],
      [
        "Ġacross",
        -8.799290708825104
      ],
      [
        "Ġeffective",
        -8.799517608395945
      ],
      [
        "Ġbit",
        -8.801956496262523
      ],
      [
        "Ġimprove",
        -8.804480109463466
      ],
      [
        "ĠSome",
        -8.80631978697519
      ],
      [
        "ĠâĢĶ",
        -8.807291423584026
      ],
      [
        "Ġprofessional",
        -8.808615572648126
      ],
      [
        "Ġwhite",
        -8.810494945203539
      ],
      [
        "ĠAmerican",
        -8.81315224733985
      ],
      [
        "Ġexist",
        -8.813393416909921
      ],
      [
        "Ġfuture",
        -8.813495907786667
      ],
      [
        "mm",
        -8.81352996587681
      ],
      [
        "=",
        -8.813797874379135
      ],
      [
        "con",
        -8.813996143539772
      ],
      [
        "Ġproduction",
        -8.81449826146218
      ],
      [
        "So",
        -8.814906945305733
      ],
      [
        "Ġpast",
        -8.816583046534372
      ],
      [
        "Ġart",
        -8.817759946939773
      ],
      [
        "For",
        -8.818426275282793
      ],
      [
        "Ġstore",
        -8.820195393426403
      ],
      [
        "Ġsocial",
        -8.822484877081793
      ],
      [
        "Ġhealthy",
        -8.822997973940568
      ],
      [
        "ĠDr",
        -8.823484922786124
      ],
      [
        "Ġimage",
        -8.825173166984115
      ],
      [
        "Ġquestion",
        -8.825696278641958
      ],
      [
        "Ġcell",
        -8.828045811465891
      ],
      [
        "Ġrecommend",
        -8.828863578025851
      ],
      [
        "Ġarticle",
        -8.832022607993608
      ],
      [
        "Ġpaper",
        -8.832651452514579
      ],
      [
        "Ġsingle",
        -8.832753828537282
      ],
      [
        "Ġminute",
        -8.83359667138975
      ],
      [
        "âĢ¦",
        -8.834141948515313
      ],
      [
        "Ġanimal",
        -8.834272263391433
      ],
      [
        "Ġreason",
        -8.835129758753716
      ],
      [
        "Ġbook",
        -8.835360512373018
      ],
      [
        "Ġsign",
        -8.835756521448406
      ],
      [
        "Ġauthor",
        -8.836167412595032
      ],
      [
        "ex",
        -8.836970415042932
      ],
      [
        "Ġsuggest",
        -8.840386678823203
      ],
      [
        "Ġmillion",
        -8.840744478119664
      ],
      [
        "Ġvideo",
        -8.84098945715417
      ],
      [
        "ck",
        -8.841965797585178
      ],
      [
        "Ġcut",
        -8.842413645042814
      ],
      [
        "Ġground",
        -8.842745182969633
      ],
      [
        ")ĊĊ",
        -8.84387412062043
      ],
      [
        "Ġdone",
        -8.84413091544125
      ],
      [
        "Ġtreat",
        -8.84543152724397
      ],
      [
        "Ġdeep",
        -8.846136184401153
      ],
      [
        "king",
        -8.84620136757555
      ],
      [
        "most",
        -8.847221005668224
      ],
      [
        "Ġoccur",
        -8.848261415233733
      ],
      [
        "against",
        -8.851229378913432
      ],
      [
        "Ġchild",
        -8.852368712070895
      ],
      [
        "Ġaccording",
        -8.855458764206098
      ],
      [
        "Ġcomplex",
        -8.85622651593274
      ],
      [
        "Ġdifficult",
        -8.856759246313644
      ],
      [
        "ure",
        -8.858271661416103
      ],
      [
        "Ġmo",
        -8.858480643249969
      ],
      [
        "Ġelectric",
        -8.858510647232858
      ],
      [
        "Ġregular",
        -8.858893269872008
      ],
      [
        "ĠCo",
        -8.859760730274301
      ],
      [
        "ng",
        -8.860650624150056
      ],
      [
        "den",
        -8.861913602832288
      ],
      [
        "way",
        -8.863551792455336
      ],
      [
        "Ġabove",
        -8.8637111666479
      ],
      [
        "Ġclimate",
        -8.863711300086049
      ],
      [
        "Ġview",
        -8.863951822936208
      ],
      [
        "Ġask",
        -8.865442956191504
      ],
      [
        "go",
        -8.866203980284203
      ],
      [
        "ĠDo",
        -8.866269380194304
      ],
      [
        "Ġleft",
        -8.870169069096299
      ],
      [
        "Ġtoday",
        -8.87068789069783
      ],
      [
        "Ġstructure",
        -8.8708092590302
      ],
      [
        "ang",
        -8.871729398652345
      ],
      [
        "Ġloss",
        -8.872298736649192
      ],
      [
        "gu",
        -8.873821927630368
      ],
      [
        "Ġreach",
        -8.874414220646123
      ],
      [
        "Ġeat",
        -8.876376238262731
      ],
      [
        "Ġland",
        -8.884642759746853
      ],
      [
        "âĢĵ",
        -8.88555452529952
      ],
      [
        "Ġsignificant",
        -8.886492783428096
      ],
      [
        "Ġaccess",
        -8.886711092670359
      ],
      [
        "our",
        -8.887728234621692
      ],
      [
        "Ġfour",
        -8.888798469571073
      ],
      [
        "Ġface",
        -8.889307527548102
      ],
      [
        "Ġbring",
        -8.890382709401187
      ],
      [
        "we",
        -8.89170239558071
      ],
      [
        "Ġcarbon",
        -8.893733203666603
      ],
      [
        "fer",
        -8.894117785178157
      ],
      [
        "Ġcontent",
        -8.894230541649916
      ],
      [
        "Ġtimes",
        -8.896997120008212
      ],
      [
        "ak",
        -8.897009575577641
      ],
      [
        "Ġsound",
        -8.89851657043112
      ],
      [
        "As",
        -8.900215536772688
      ],
      [
        "Ġtraining",
        -8.901279356992392
      ],
      [
        "Ġaddress",
        -8.90145026349093
      ],
      [
        "ĠYour",
        -8.901606369031
      ],
      [
        "Ġsays",
        -8.904966161552679
      ],
      [
        "Ġlist",
        -8.905012968707801
      ],
      [
        "Ġcool",
        -8.907051030298916
      ],
      [
        "Ġcook",
        -8.907422935574406
      ],
      [
        "Ġbelieve",
        -8.908342334084894
      ],
      [
        "Ġfall",
        -8.910697786658561
      ],
      [
        "Ġpersonal",
        -8.910972220676683
      ],
      [
        "ĠLe",
        -8.913947283343285
      ],
      [
        "Ġvehicle",
        -8.914340939652462
      ],
      [
        "Ġenvironmental",
        -8.91596500933046
      ],
      [
        "Ġeither",
        -8.918135028658472
      ],
      [
        "Ġapproach",
        -8.918915630498832
      ],
      [
        "ight",
        -8.919289558774963
      ],
      [
        "Ġrecent",
        -8.919682213550136
      ],
      [
        "Ġstudie",
        -8.920001885487554
      ],
      [
        "activity",
        -8.920295783410289
      ],
      [
        "Ġonce",
        -8.920498299467884
      ],
      [
        "Ġeffect",
        -8.922865783391622
      ],
      [
        "Ġstrong",
        -8.923960548036938
      ],
      [
        "Ġsh",
        -8.924117620965395
      ],
      [
        "\\",
        -8.925675526463511
      ],
      [
        "Ġunderstanding",
        -8.927774990321133
      ],
      [
        "by",
        -8.928452324632657
      ],
      [
        "Ġeffects",
        -8.928802129712654
      ],
      [
        "Ġhouse",
        -8.928811710981222
      ],
      [
        "Ġmatter",
        -8.929279188280873
      ],
      [
        "Ġred",
        -8.92978358425096
      ],
      [
        "Ġperform",
        -8.930428155394596
      ],
      [
        "Ġparent",
        -8.93078462506196
      ],
      [
        "ĠMo",
        -8.931841952178301
      ],
      [
        "Ġmix",
        -8.933256163585568
      ],
      [
        "Ġmarket",
        -8.934162883147657
      ],
      [
        "Ġfuel",
        -8.934964347435368
      ],
      [
        "Ġwaste",
        -8.936667180712341
      ],
      [
        "Ġmetal",
        -8.937872845645028
      ],
      [
        "Ġbasic",
        -8.9380384750263
      ],
      [
        "ble",
        -8.938844413677884
      ],
      [
        "Ġthought",
        -8.938925668957719
      ],
      [
        "Ġwood",
        -8.939996255308031
      ],
      [
        "tion",
        -8.940477780195291
      ],
      [
        "Ġamong",
        -8.941235489382251
      ],
      [
        "Ġtell",
        -8.941319272553542
      ],
      [
        "all",
        -8.942849759341861
      ],
      [
        "Ġhim",
        -8.943123084250232
      ],
      [
        "Ġengine",
        -8.943795712843874
      ],
      [
        "Ġbase",
        -8.945846119432165
      ],
      [
        "che",
        -8.945963185392372
      ],
      [
        "ative",
        -8.947551030432297
      ],
      [
        "Ġperformance",
        -8.948784246393668
      ],
      [
        "Ġparts",
        -8.950380859911556
      ],
      [
        "ĠLa",
        -8.95142913431392
      ],
      [
        "Ġstress",
        -8.952896513206035
      ],
      [
        "Ġaddition",
        -8.954140962962628
      ],
      [
        "Ġfurther",
        -8.955911039819547
      ],
      [
        "Ġenjoy",
        -8.956422078127346
      ],
      [
        "Ġskills",
        -8.9565178453812
      ],
      [
        "ward",
        -8.95762498659512
      ],
      [
        "Ġseason",
        -8.95885167990398
      ],
      [
        "ction",
        -8.960707403661594
      ],
      [
        "qui",
        -8.961370560058958
      ],
      [
        "Ġbehavior",
        -8.962044651085352
      ],
      [
        "Ġbig",
        -8.963665524878827
      ],
      [
        "ĠLi",
        -8.963795379590433
      ],
      [
        "Ġpattern",
        -8.964105382214047
      ],
      [
        "Ġremain",
        -8.966113792713998
      ],
      [
        "Ġbuild",
        -8.967628662932388
      ],
      [
        "cy",
        -8.9683588963089
      ],
      [
        "Ġex",
        -8.968616778635983
      ],
      [
        "Ġgreen",
        -8.970226979802746
      ],
      [
        "Ġbrain",
        -8.971878572070178
      ],
      [
        "Ġposition",
        -8.972151365050397
      ],
      [
        "ĠPo",
        -8.97284942415715
      ],
      [
        "Ġgame",
        -8.973028506849502
      ],
      [
        "Ġalready",
        -8.973045347636967
      ],
      [
        "Ġscience",
        -8.974852139382367
      ],
      [
        "Ġpopular",
        -8.975470033894197
      ],
      [
        "Ġanswer",
        -8.975815201380522
      ],
      [
        "Ġcommunity",
        -8.977345487437429
      ],
      [
        "ha",
        -8.978295959123159
      ],
      [
        "Ġindustry",
        -8.978446788652326
      ],
      [
        "Ġfeatures",
        -8.97971661897203
      ],
      [
        "ier",
        -8.980198982668039
      ],
      [
        "act",
        -8.980924333494267
      ],
      [
        "Ġaction",
        -8.98136359762395
      ],
      [
        "Ġpain",
        -8.981498762355873
      ],
      [
        "mar",
        -8.9844129989113
      ],
      [
        "Ġhours",
        -8.984728171646477
      ],
      [
        "Ġblack",
        -8.986738674638277
      ],
      [
        "necessary",
        -8.987875465485171
      ],
      [
        "Ġdiscover",
        -8.987970361548967
      ],
      [
        "Ġbelow",
        -8.988227272722403
      ],
      [
        "ĠPa",
        -8.988913063619762
      ],
      [
        "Ġinside",
        -8.990418697877328
      ],
      [
        "Ġperiod",
        -8.990814902768124
      ],
      [
        "Ġsub",
        -8.992292849952102
      ],
      [
        "ell",
        -8.992411402221226
      ],
      [
        "Ġways",
        -8.993458063007491
      ],
      [
        "Ġhistory",
        -8.993721877119834
      ],
      [
        "ug",
        -8.99433025262583
      ],
      [
        "side",
        -8.995130235138621
      ],
      [
        "Ġslow",
        -8.996306969818033
      ],
      [
        "ice",
        -8.996441471762905
      ],
      [
        "Ġmind",
        -8.996994674516415
      ],
      [
        "air",
        -8.997059021636577
      ],
      [
        "Re",
        -8.998830434111712
      ],
      [
        "Ġwhe",
        -8.99899260926929
      ],
      [
        "Ġcorrect",
        -8.999614791756233
      ],
      [
        "Ġflower",
        -9.000284593601123
      ],
      [
        "Ġexplain",
        -9.00096750681696
      ],
      [
        "lic",
        -9.001646177548604
      ],
      [
        "for",
        -9.002427707449208
      ],
      [
        "Ġuser",
        -9.002740150961534
      ],
      [
        "Ġmachine",
        -9.005761088562547
      ],
      [
        "gen",
        -9.006137583848417
      ],
      [
        "Ġmention",
        -9.006228646356941
      ],
      [
        "Ġsafety",
        -9.006481827500703
      ],
      [
        "Ġcall",
        -9.00676236837208
      ],
      [
        "Ġeasi",
        -9.007099553965322
      ],
      [
        "Ġthough",
        -9.007148979675028
      ],
      [
        "Ġstay",
        -9.007783499411785
      ],
      [
        "Ġidea",
        -9.008524510944657
      ],
      [
        "Ġshape",
        -9.009699564830818
      ],
      [
        "ĠRo",
        -9.010928194007477
      ],
      [
        "Ġissue",
        -9.011981465852363
      ],
      [
        "Ġbuy",
        -9.014067319259196
      ],
      [
        "Ġpublic",
        -9.014994450079698
      ],
      [
        "Ġaffect",
        -9.017041533717734
      ],
      [
        "Ġrate",
        -9.02024716746934
      ],
      [
        "Ġagain",
        -9.020489766569446
      ],
      [
        "end",
        -9.02102209629617
      ],
      [
        "ization",
        -9.02109035000461
      ],
      [
        "Ġsense",
        -9.02193445527273
      ],
      [
        "over",
        -9.023641868687232
      ],
      [
        "ĠY",
        -9.024064110355322
      ],
      [
        "Ġmajor",
        -9.024526027670088
      ],
      [
        "ĠCan",
        -9.02455700679903
      ],
      [
        "ĠBo",
        -9.024994243513545
      ],
      [
        "Ġflow",
        -9.025139614455066
      ],
      [
        "Ġmanagement",
        -9.025657468027733
      ],
      [
        "ĠRa",
        -9.025838149408736
      ],
      [
        "Ġseen",
        -9.027348110562954
      ],
      [
        "ĠSa",
        -9.02748705332086
      ],
      [
        "taking",
        -9.028034233603464
      ],
      [
        "Ġcr",
        -9.028705018678776
      ],
      [
        "Ġwhole",
        -9.032677294964245
      ],
      [
        "Ġcompany",
        -9.033501166342322
      ],
      [
        "Ġwarm",
        -9.035702278321992
      ],
      [
        "Ġnetwork",
        -9.037351493599331
      ],
      [
        "Ġappear",
        -9.038959726139105
      ],
      [
        "Ġliving",
        -9.039243016619103
      ],
      [
        "Ġactivities",
        -9.039945551199786
      ],
      [
        "Ġknowledge",
        -9.04116138684604
      ],
      [
        "ĠOne",
        -9.04136668743812
      ],
      [
        "he",
        -9.042748042638303
      ],
      [
        "Ġclass",
        -9.043713352315269
      ],
      [
        "Ġtotal",
        -9.043735133651772
      ],
      [
        "Ġtoward",
        -9.044209045016252
      ],
      [
        "Ġconcern",
        -9.04630154815952
      ],
      [
        "Ġresearchers",
        -9.054169391888347
      ],
      [
        "Ġpositive",
        -9.05517633569863
      ],
      [
        "iv",
        -9.0552675820067
      ],
      [
        "Ġtools",
        -9.056045192065207
      ],
      [
        "log",
        -9.056153393024932
      ],
      [
        "ĠAt",
        -9.05706719220516
      ],
      [
        "Ġnature",
        -9.05868521400623
      ],
      [
        "Ġcold",
        -9.061382697035418
      ],
      [
        "Ġsea",
        -9.06277886282722
      ],
      [
        "mer",
        -9.064123426976291
      ],
      [
        "Ġgenetic",
        -9.065755882470617
      ],
      [
        "Ġspecial",
        -9.065939610607952
      ],
      [
        "Ġmedical",
        -9.06648202342584
      ],
      [
        "und",
        -9.068440913841345
      ],
      [
        "Ġdescribe",
        -9.068509949959392
      ],
      [
        "Ġscientist",
        -9.069103339076255
      ],
      [
        "Ġsimpl",
        -9.071266841155207
      ],
      [
        "pe",
        -9.073310503404844
      ],
      [
        "Ġtypically",
        -9.073688443259314
      ],
      [
        "Ġcancer",
        -9.074885147442494
      ],
      [
        "Ġroom",
        -9.07504280374692
      ],
      [
        "Ġresponse",
        -9.075051801007987
      ],
      [
        "ĠCon",
        -9.07744757866999
      ],
      [
        "qua",
        -9.081699783191544
      ],
      [
        "Ġaverage",
        -9.08370805173254
      ],
      [
        "Ġcamera",
        -9.085099314970762
      ],
      [
        "Ġassociated",
        -9.085970766679528
      ],
      [
        "Ġwear",
        -9.086238897094065
      ],
      [
        "ĠWhil",
        -9.0868425269202
      ],
      [
        "Ġcontinue",
        -9.088020232951571
      ],
      [
        "ile",
        -9.088431810332338
      ],
      [
        "lin",
        -9.09227427709338
      ],
      [
        "Ġadult",
        -9.093112732124863
      ],
      [
        "Ġsomeone",
        -9.094248224221769
      ],
      [
        "Ġperfect",
        -9.094383565104456
      ],
      [
        "gan",
        -9.09503097348605
      ],
      [
        "Ġhold",
        -9.095566937572732
      ],
      [
        "Ġdoing",
        -9.09560591554416
      ],
      [
        "ber",
        -9.097370081650856
      ],
      [
        "Ġman",
        -9.097952627972791
      ],
      [
        "X",
        -9.098960706598447
      ],
      [
        "Ġyoung",
        -9.102753474106356
      ],
      [
        "Ġmonths",
        -9.103136390444996
      ],
      [
        "Ġshare",
        -9.103399484604829
      ],
      [
        "Ġmethods",
        -9.104814409083364
      ],
      [
        "Ġrepresent",
        -9.105764308767515
      ],
      [
        "Ġmovement",
        -9.107475792994864
      ],
      [
        "Ġcode",
        -9.107917853989855
      ],
      [
        "Ġsymptoms",
        -9.108559667836284
      ],
      [
        "Ġcontact",
        -9.108761177998389
      ],
      [
        "Ġact",
        -9.10962781450898
      ],
      [
        "Ġfill",
        -9.111980011129766
      ],
      [
        "Ġtool",
        -9.113792004858688
      ],
      [
        "ler",
        -9.11403459344918
      ],
      [
        "rather",
        -9.114456433468948
      ],
      [
        "cu",
        -9.119107548720166
      ],
      [
        "Ġtravel",
        -9.119790441331505
      ],
      [
        "Ġpercent",
        -9.120291578434545
      ],
      [
        "ĠAl",
        -9.12093497610733
      ],
      [
        "Ġfat",
        -9.121410712906926
      ],
      [
        "form",
        -9.121569473163216
      ],
      [
        "Ġtraditional",
        -9.121719379688567
      ],
      [
        "Ġrest",
        -9.123532095996314
      ],
      [
        "Ġsun",
        -9.126672992651828
      ],
      [
        "Ġservice",
        -9.12703181318445
      ],
      [
        "Ġexercise",
        -9.127119896745436
      ],
      [
        "ĠZ",
        -9.12765868605582
      ],
      [
        "ĠHa",
        -9.127905883016783
      ],
      [
        "Ġnormal",
        -9.128044609280362
      ],
      [
        "ĠAll",
        -9.128073644711195
      ],
      [
        "Ġdetermine",
        -9.128362418442505
      ],
      [
        "Ġonline",
        -9.129267074203792
      ],
      [
        "red",
        -9.129413937811304
      ],
      [
        "Ġchoose",
        -9.131648544765763
      ],
      [
        "Ġhumans",
        -9.133512283046612
      ],
      [
        "Ġhelps",
        -9.134913221702345
      ],
      [
        "An",
        -9.13618225882476
      ],
      [
        "Ġforce",
        -9.137762751182503
      ],
      [
        "Ġchemical",
        -9.137768294003266
      ],
      [
        "ping",
        -9.139972047200894
      ],
      [
        "Ġhot",
        -9.140642507936429
      ],
      [
        "Ġidentify",
        -9.14364227217436
      ],
      [
        "Ġapplications",
        -9.144305734840856
      ],
      [
        "ĠAI",
        -9.1444218509395
      ],
      [
        "Ġsite",
        -9.14575024295172
      ],
      [
        "Ġwomen",
        -9.145786842026768
      ],
      [
        "Ġgot",
        -9.147217353817702
      ],
      [
        "Ġquickly",
        -9.147763783458046
      ],
      [
        ".\"ĊĊ",
        -9.148046076902345
      ],
      [
        "Ġinvolve",
        -9.148286922649405
      ],
      [
        "Ġeffort",
        -9.148624491815344
      ],
      [
        "Ġprimar",
        -9.15043570850331
      ],
      [
        "Ġetc",
        -9.15118496972288
      ],
      [
        "Ġentire",
        -9.15291575994637
      ],
      [
        "Ġcrucial",
        -9.1550669334461
      ],
      [
        "Ġanalysis",
        -9.15527586214132
      ],
      [
        "Ġresources",
        -9.157043206290924
      ],
      [
        "Ġmuscle",
        -9.157223672912815
      ],
      [
        "Ġwinter",
        -9.157443223169649
      ],
      [
        "Ġstop",
        -9.158695306056345
      ],
      [
        "cha",
        -9.158866254232976
      ],
      [
        ".\"Ċ",
        -9.159475100762752
      ],
      [
        "Ġoutside",
        -9.16055865612714
      ],
      [
        ">",
        -9.161026949091797
      ],
      [
        "Ġguide",
        -9.161299505772728
      ],
      [
        "Ġmilk",
        -9.162290355591283
      ],
      [
        "|",
        -9.163039024848205
      ],
      [
        "Ġquestions",
        -9.163146290607564
      ],
      [
        "instead",
        -9.16333966038628
      ],
      [
        "Ġtechniques",
        -9.163819624833778
      ],
      [
        "Ġoverall",
        -9.163941875955205
      ],
      [
        "Ġjob",
        -9.16512221963491
      ],
      [
        "Ġmoney",
        -9.165254098653048
      ],
      [
        "Ġdevice",
        -9.165281606042234
      ],
      [
        "ĠDi",
        -9.165692275094324
      ],
      [
        "Q",
        -9.16756919110967
      ],
      [
        "Ġmodern",
        -9.168084851241735
      ],
      [
        "Ġrelationship",
        -9.168857864069237
      ],
      [
        "Ġbalance",
        -9.1710258763893
      ],
      [
        "Ġproperties",
        -9.172467509516895
      ],
      [
        "Ġremove",
        -9.17282605404807
      ],
      [
        "own",
        -9.172991644306062
      ],
      [
        "Ġsugar",
        -9.173210416028176
      ],
      [
        "Ġcases",
        -9.173884509815004
      ],
      [
        "Ġfeed",
        -9.17491549277734
      ],
      [
        "Ġrelated",
        -9.17741837671108
      ],
      [
        "Ġstory",
        -9.177726403332573
      ],
      [
        "ĠDNA",
        -9.17786207127379
      ],
      [
        "Ġbad",
        -9.17811225800299
      ],
      [
        "ĠLo",
        -9.178794538613865
      ],
      [
        "j",
        -9.178899515681533
      ],
      [
        "Ġlocation",
        -9.18262960524331
      ],
      [
        "Ġever",
        -9.184015703448116
      ],
      [
        "Ġbreak",
        -9.184756867081312
      ],
      [
        "rac",
        -9.186184192998274
      ],
      [
        "Ġsignal",
        -9.18795331689186
      ],
      [
        "Ġsometime",
        -9.187960450546814
      ],
      [
        "Ġpay",
        -9.18956454432224
      ],
      [
        "Ġreport",
        -9.189604855748314
      ],
      [
        "ose",
        -9.190333880849812
      ],
      [
        "Ġfl",
        -9.191716251051648
      ],
      [
        "Ġrelative",
        -9.19238732179434
      ],
      [
        "Ġsleep",
        -9.193785922029903
      ],
      [
        "Ġglobal",
        -9.19387150980378
      ],
      [
        "Ġinfection",
        -9.195407065424972
      ],
      [
        "tri",
        -9.19650915162984
      ],
      [
        "Ġspot",
        -9.196742306437113
      ],
      [
        "probably",
        -9.196866193480556
      ],
      [
        "Ġlayer",
        -9.197551372956182
      ],
      [
        "Ġfive",
        -9.197836738855912
      ],
      [
        "Ġself",
        -9.198101670154164
      ],
      [
        ").Ċ",
        -9.198197946022765
      ],
      [
        "Ġtable",
        -9.199223298642885
      ],
      [
        "Qu",
        -9.200409732043587
      ],
      [
        "Ġlanguage",
        -9.200612765635334
      ],
      [
        "Ġnight",
        -9.201591130121631
      ],
      [
        "ĠPro",
        -9.202433110881136
      ],
      [
        "ĠNational",
        -9.203011344391886
      ],
      [
        "$",
        -9.203903571499636
      ],
      [
        "ĠSe",
        -9.205874882520384
      ],
      [
        "Ġplastic",
        -9.206406203508685
      ],
      [
        "Ġlength",
        -9.206643857638674
      ],
      [
        "Ġkill",
        -9.207880868243109
      ],
      [
        "que",
        -9.208030373463355
      ],
      [
        "throughout",
        -9.208641636859715
      ],
      [
        "ick",
        -9.209484363287714
      ],
      [
        "Ġdivers",
        -9.210034072345865
      ],
      [
        "Ġweather",
        -9.210514679182545
      ],
      [
        "Ġexplore",
        -9.210713134938556
      ],
      [
        "Ġmultiple",
        -9.211252937476903
      ],
      [
        "Ġunit",
        -9.211376038889872
      ],
      [
        "Ġsoftware",
        -9.21352089654128
      ],
      [
        "ĠMe",
        -9.213773393963953
      ],
      [
        "Ġfun",
        -9.215011289558053
      ],
      [
        "Ġblock",
        -9.217473766309867
      ],
      [
        "Ġparticular",
        -9.217777788456685
      ],
      [
        "Ġtarget",
        -9.218051697970347
      ],
      [
        "Ġcomponents",
        -9.220240437833858
      ],
      [
        "ĠCar",
        -9.220255688014596
      ],
      [
        "Ġtrack",
        -9.220528011888453
      ],
      [
        "Ġinter",
        -9.22120691121181
      ],
      [
        "ka",
        -9.221899505553283
      ],
      [
        "Ġenhance",
        -9.223705986849469
      ],
      [
        "Ġfeet",
        -9.22399691051716
      ],
      [
        "Ġdrive",
        -9.22525230588258
      ],
      [
        "Ġexperiment",
        -9.227887207844088
      ],
      [
        "Ġinjur",
        -9.228380518851022
      ],
      [
        "Ġcompared",
        -9.229041939431117
      ],
      [
        "mp",
        -9.230328627397403
      ],
      [
        "Ġdetail",
        -9.230422496105785
      ],
      [
        "Ġextreme",
        -9.231137840336464
      ],
      [
        "Ġmonitor",
        -9.231138327819483
      ],
      [
        "Ġsubject",
        -9.231219127256278
      ],
      [
        "Ġactive",
        -9.232006795254424
      ],
      [
        "Ġelements",
        -9.233301983788454
      ],
      [
        "Ġvisit",
        -9.23607235826364
      ],
      [
        "Ġchoice",
        -9.236356618465862
      ],
      [
        "Ġwon",
        -9.236829479106726
      ],
      [
        "Ġdigital",
        -9.237003235998497
      ],
      [
        "ĠShe",
        -9.237764310820864
      ],
      [
        "ĠUnited",
        -9.237906756315612
      ],
      [
        "ĠX",
        -9.238008016991431
      ],
      [
        "Ġapp",
        -9.239508679399938
      ],
      [
        "Ġcontain",
        -9.239564756956408
      ],
      [
        "Ġcomplete",
        -9.2401387445862
      ],
      [
        "of",
        -9.241580336185471
      ],
      [
        "Ġprice",
        -9.241788100206568
      ],
      [
        "Ġfire",
        -9.241841842801364
      ],
      [
        "Ġhear",
        -9.242782543069364
      ],
      [
        "Ġmass",
        -9.244436099252855
      ],
      [
        "ze",
        -9.244932778773322
      ],
      [
        "ĠUS",
        -9.24633711933678
      ],
      [
        "Ġeducation",
        -9.247023764115545
      ],
      [
        "ray",
        -9.247439503822742
      ],
      [
        "board",
        -9.247592697254218
      ],
      [
        "Ġestablish",
        -9.248955853303183
      ],
      [
        "Ġcountry",
        -9.250945386178383
      ],
      [
        "Ġseem",
        -9.252982012848026
      ],
      [
        "Ġreaction",
        -9.253157948485264
      ],
      [
        "yourself",
        -9.253323427785034
      ],
      [
        "Ġcenter",
        -9.25333321770612
      ],
      [
        "Ġvi",
        -9.254203704440936
      ],
      [
        "Ġbirds",
        -9.256617041849312
      ],
      [
        "Ġaccount",
        -9.257055315185356
      ],
      [
        "Ġrelease",
        -9.258867916882426
      ],
      [
        "Ġsummer",
        -9.260279260080983
      ],
      [
        "work",
        -9.261444359489603
      ],
      [
        "Ġprovid",
        -9.261588405663405
      ],
      [
        "Ġpass",
        -9.261874914180927
      ],
      [
        "Ġbattery",
        -9.262625357134294
      ],
      [
        "ok",
        -9.26301792148454
      ],
      [
        "Ġpatients",
        -9.263848404008618
      ],
      [
        "Ġincreasing",
        -9.265026026936043
      ],
      [
        "Ġeating",
        -9.266573619063973
      ],
      [
        "ren",
        -9.266712557468896
      ],
      [
        "Ġconcept",
        -9.268114280612965
      ],
      [
        "Ġadvance",
        -9.268528108909411
      ],
      [
        "ĠOr",
        -9.2688445743379
      ],
      [
        "Ġcycle",
        -9.269601881156394
      ],
      [
        "Ġequipment",
        -9.26984724544078
      ],
      [
        "Ġsuccessful",
        -9.270154841432303
      ],
      [
        "Ġdiscuss",
        -9.270293658304436
      ],
      [
        "ities",
        -9.271366290669365
      ],
      [
        "Ġoptions",
        -9.27252263939014
      ],
      [
        "Ġlater",
        -9.27328283357622
      ],
      [
        "Ġpurpose",
        -9.273660160522969
      ],
      [
        "Ġextra",
        -9.274044120097578
      ],
      [
        "Ma",
        -9.276124894549396
      ],
      [
        "yet",
        -9.276990690295031
      ],
      [
        "Ġinterest",
        -9.27701019590685
      ],
      [
        "Ġmedia",
        -9.277809257393384
      ],
      [
        "Ġmeat",
        -9.278687664015926
      ],
      [
        "Ġfarm",
        -9.28070857295689
      ],
      [
        "Ġtrue",
        -9.281675346205834
      ],
      [
        "Ġtend",
        -9.281829840831689
      ],
      [
        "âĢĿ",
        -9.283285482519544
      ],
      [
        "Ġca",
        -9.283453950481404
      ],
      [
        "Ġgain",
        -9.284484767907587
      ],
      [
        "Ġregion",
        -9.285274172738069
      ],
      [
        "Ġstandard",
        -9.285931070056495
      ],
      [
        "Ġcaus",
        -9.286090458491431
      ],
      [
        "Ġhalf",
        -9.28699729045158
      ],
      [
        "ĠSp",
        -9.287187387422277
      ],
      [
        "Ġoption",
        -9.289263065963825
      ],
      [
        "Ġshown",
        -9.2894495682233
      ],
      [
        "Ġago",
        -9.289636266958604
      ],
      [
        "Ġmeasure",
        -9.29080211444816
      ],
      [
        "**",
        -9.293097150350135
      ],
      [
        "Why",
        -9.293241710292174
      ],
      [
        "Ġspread",
        -9.29375325251884
      ],
      [
        "Ġwebsite",
        -9.294332436511388
      ],
      [
        "Ġconduct",
        -9.298116682989086
      ],
      [
        "One",
        -9.298389433214876
      ],
      [
        "lan",
        -9.298837649121928
      ],
      [
        "Ġservices",
        -9.299123893639846
      ],
      [
        "Ġreturn",
        -9.29929577246403
      ],
      [
        "Ġfront",
        -9.299528100599304
      ],
      [
        "Ġnutrient",
        -9.300615504793251
      ],
      [
        "Ġtaken",
        -9.302034572243
      ],
      [
        "Ġma",
        -9.302720613253342
      ],
      [
        ".\"",
        -9.30482045304684
      ],
      [
        "Ġstarted",
        -9.305100598400164
      ],
      [
        "Ġcharge",
        -9.305755845590824
      ],
      [
        "ĠTh",
        -9.305775860390984
      ],
      [
        "Ġinvolved",
        -9.307168128182925
      ],
      [
        "ible",
        -9.30915670908503
      ],
      [
        "Ġsave",
        -9.309282136327296
      ],
      [
        "quite",
        -9.309713800551451
      ],
      [
        "{",
        -9.310115624658836
      ],
      [
        "Ġefficient",
        -9.312457744070542
      ],
      [
        "Ġlink",
        -9.314303712923383
      ],
      [
        "Ġattention",
        -9.314317980252635
      ],
      [
        "Ġgovernment",
        -9.31433937689408
      ],
      [
        "Ġachieve",
        -9.314904742156909
      ],
      [
        "ĠSchool",
        -9.315178824239768
      ],
      [
        "let",
        -9.317333885517524
      ],
      [
        "ran",
        -9.318407902810332
      ],
      [
        "ular",
        -9.318501433531477
      ],
      [
        "ene",
        -9.319079236484557
      ],
      [
        "Ġbio",
        -9.319975507502402
      ],
      [
        "}",
        -9.320229490297049
      ],
      [
        "Ġchicken",
        -9.320238180060825
      ],
      [
        "ĠHealth",
        -9.320534040351756
      ],
      [
        "Ġstudent",
        -9.321439079711029
      ],
      [
        "time",
        -9.321804789787857
      ],
      [
        "cor",
        -9.323882023778804
      ],
      [
        "Ġfinal",
        -9.32394227948836
      ],
      [
        "Ġpan",
        -9.327669598925915
      ],
      [
        "Ġingredient",
        -9.327882664507069
      ],
      [
        "Ġadditional",
        -9.327996239643968
      ],
      [
        "Ġeggs",
        -9.3287997191864
      ],
      [
        "Ġsample",
        -9.33045452757555
      ],
      [
        "Ġsearch",
        -9.330469531106818
      ],
      [
        "Ġframe",
        -9.330815765671284
      ],
      [
        "ĠUse",
        -9.331567762207808
      ],
      [
        "Ġbacteria",
        -9.332318076830235
      ],
      [
        "Ġisn",
        -9.332976427740064
      ],
      [
        "ĠHere",
        -9.333091581021618
      ],
      [
        "wise",
        -9.333185941621174
      ],
      [
        "ki",
        -9.333198256685296
      ],
      [
        "ĠOn",
        -9.333569405764788
      ],
      [
        "ade",
        -9.334305801385844
      ],
      [
        "ĠMi",
        -9.334578038900858
      ],
      [
        "Ġdistance",
        -9.335599450834142
      ],
      [
        "ĠScience",
        -9.335807851379515
      ],
      [
        "Ġapply",
        -9.33598745060156
      ],
      [
        "Ġindicate",
        -9.33653070956007
      ],
      [
        "ĠâĢľ",
        -9.33685289099378
      ],
      [
        "amp",
        -9.33842400996312
      ],
      [
        "cc",
        -9.339233726257126
      ],
      [
        "But",
        -9.33927154013056
      ],
      [
        "Ġfile",
        -9.340797139925982
      ],
      [
        "Ġitself",
        -9.341840752015926
      ],
      [
        "Ġsolar",
        -9.343295564816962
      ],
      [
        "set",
        -9.3438326691476
      ],
      [
        "Ġdrink",
        -9.344234624598146
      ],
      [
        "Ġflavor",
        -9.34424041498755
      ],
      [
        "Ġinfluence",
        -9.345332821852333
      ],
      [
        "Ġanti",
        -9.345563380835312
      ],
      [
        "Ġtri",
        -9.34567089317148
      ],
      [
        "nd",
        -9.345796253167938
      ],
      [
        "Ġshows",
        -9.345859049773754
      ],
      [
        "Ġnegative",
        -9.345972313451686
      ],
      [
        "Ġdirection",
        -9.347274382853566
      ],
      [
        "oid",
        -9.348529193509982
      ],
      [
        "Ġthemselves",
        -9.348893691562148
      ],
      [
        "Ġplayer",
        -9.348936702600728
      ],
      [
        "Ġextend",
        -9.349470401388134
      ],
      [
        "Ġaspect",
        -9.349471140582214
      ],
      [
        "Ġhandle",
        -9.353109648006114
      ],
      [
        "Ġwind",
        -9.353175235679988
      ],
      [
        "Ġchance",
        -9.35390203040686
      ],
      [
        "Ġoriginal",
        -9.353970179313736
      ],
      [
        "Ġmale",
        -9.356009542256574
      ],
      [
        "Ġprocesses",
        -9.356921072063418
      ],
      [
        "Ġdeal",
        -9.357338547820524
      ],
      [
        "Ġbehind",
        -9.357362517694336
      ],
      [
        "where",
        -9.35884456949861
      ],
      [
        "Ġscale",
        -9.359016142204794
      ],
      [
        "Ġfoods",
        -9.35931668230602
      ],
      [
        "ER",
        -9.361356146655536
      ],
      [
        "row",
        -9.362016660102183
      ],
      [
        "Ġpoints",
        -9.362478809961736
      ],
      [
        "Ġcompound",
        -9.362640473272602
      ],
      [
        "ner",
        -9.363708583033564
      ],
      [
        "Can",
        -9.364302739669466
      ],
      [
        "Ġoffers",
        -9.364392879214988
      ],
      [
        "Ġdark",
        -9.364706467819056
      ],
      [
        "ture",
        -9.365013825069129
      ],
      [
        "Ġsection",
        -9.365326412958645
      ],
      [
        "Ġadded",
        -9.365496754198858
      ],
      [
        "Ġapplication",
        -9.365538957354689
      ],
      [
        "cent",
        -9.366075245954097
      ],
      [
        "Â°",
        -9.366190763810511
      ],
      [
        "Ġfit",
        -9.36805521153905
      ],
      [
        "Ġdail",
        -9.37262622610566
      ],
      [
        "Ġeyes",
        -9.37360433865198
      ],
      [
        "Ġpatient",
        -9.374143329592815
      ],
      [
        "[",
        -9.37499794000252
      ],
      [
        "Ġinsect",
        -9.375088849052554
      ],
      [
        "Ġalternative",
        -9.375244295222362
      ],
      [
        "Ġvisual",
        -9.375969393838927
      ],
      [
        "Ġinstall",
        -9.376869957306807
      ],
      [
        "Ġwatch",
        -9.377377102412009
      ],
      [
        "men",
        -9.378316643674252
      ],
      [
        "Ġblue",
        -9.378861999376896
      ],
      [
        "Ġworks",
        -9.379478414369292
      ],
      [
        "Ġsix",
        -9.37985719471336
      ],
      [
        "ries",
        -9.380443560320565
      ],
      [
        "light",
        -9.380752152310912
      ],
      [
        "ĠHo",
        -9.38097711937878
      ],
      [
        "Ġroad",
        -9.38134182784049
      ],
      [
        "-to",
        -9.382067285805896
      ],
      [
        "Ġlimit",
        -9.382652397699992
      ],
      [
        "Ġsalt",
        -9.382741974568846
      ],
      [
        "Ġcrop",
        -9.38304218888321
      ],
      [
        "ĠCa",
        -9.383291316347982
      ],
      [
        "Ġdisplay",
        -9.385033114827152
      ],
      [
        "Ġadapt",
        -9.385874522592667
      ],
      [
        "Ġscreen",
        -9.386052937747683
      ],
      [
        "Ġreduc",
        -9.38645799602788
      ],
      [
        "Ġfresh",
        -9.386704327756094
      ],
      [
        "head",
        -9.387613679551215
      ],
      [
        "Ġenter",
        -9.387733233080256
      ],
      [
        "Ġparticularly",
        -9.388013211586207
      ],
      [
        "running",
        -9.388667362798998
      ],
      [
        "Ġglass",
        -9.38885026097153
      ],
      [
        "Ġcontribute",
        -9.388941535088268
      ],
      [
        "Ġtrain",
        -9.389320407541131
      ],
      [
        "Ġreading",
        -9.389464017430576
      ],
      [
        "Ġconnection",
        -9.39165603809324
      ],
      [
        "Ġgoal",
        -9.39525219066058
      ],
      [
        "Ġdevices",
        -9.396646180376935
      ],
      [
        "ĠMar",
        -9.397107919456896
      ],
      [
        "Ġwall",
        -9.397510808193315
      ],
      [
        "Ġbar",
        -9.397825055938435
      ],
      [
        "Ġfemale",
        -9.398614809364313
      ],
      [
        "Ġappropriate",
        -9.39884134463446
      ],
      [
        "ĠNe",
        -9.399876715935797
      ],
      [
        "Ġevidence",
        -9.400448747610817
      ],
      [
        "Ġmulti",
        -9.40167396745338
      ],
      [
        "ĠCr",
        -9.4032116612081
      ],
      [
        "Ġload",
        -9.404685731296809
      ],
      [
        "Do",
        -9.405407751585546
      ],
      [
        "ium",
        -9.40542594600683
      ],
      [
        "Ġdidn",
        -9.40605071176779
      ],
      [
        "Ġsuccess",
        -9.406541727003418
      ],
      [
        "Ġdoctor",
        -9.406894762322384
      ],
      [
        "Ġattack",
        -9.40824104274364
      ],
      [
        "ĠTa",
        -9.408442185927017
      ],
      [
        "ĠNorth",
        -9.408514932143412
      ],
      [
        "Ġspring",
        -9.408951592261072
      ],
      [
        "Ġhope",
        -9.409583953554549
      ],
      [
        "Ġice",
        -9.40978680582035
      ],
      [
        "Ġsmaller",
        -9.41085461476465
      ],
      [
        "Ġreview",
        -9.411561748922924
      ],
      [
        "par",
        -9.41207779417683
      ],
      [
        "ĠPer",
        -9.412248959564256
      ],
      [
        "ĠYes",
        -9.412305290869345
      ],
      [
        "Ġwords",
        -9.412402342056764
      ],
      [
        "ĠStates",
        -9.41407295390142
      ],
      [
        "Ġocean",
        -9.414313116001216
      ],
      [
        "Ġball",
        -9.414826504275936
      ],
      [
        "Ġmental",
        -9.416515007619346
      ],
      [
        "Ġinput",
        -9.41655292116012
      ],
      [
        "Ġbag",
        -9.416924430205658
      ],
      [
        "ST",
        -9.417324325796873
      ],
      [
        "Ġnotice",
        -9.41872015517404
      ],
      [
        "day",
        -9.418782768593992
      ],
      [
        "Ġseparate",
        -9.42146759954264
      ],
      [
        "Ġtakes",
        -9.423829850406891
      ],
      [
        "Ġreceive",
        -9.424659796642263
      ],
      [
        "Ġpi",
        -9.424978255838276
      ],
      [
        "ash",
        -9.425551942833208
      ],
      [
        "Ġcl",
        -9.425649978311004
      ],
      [
        "Ġmonth",
        -9.426082124240072
      ],
      [
        "more",
        -9.426244455343102
      ],
      [
        "Ġlack",
        -9.427728039422188
      ],
      [
        "Ġcollect",
        -9.428174237589356
      ],
      [
        "Ġmeet",
        -9.428800895360714
      ],
      [
        "Ġoutput",
        -9.428835287879554
      ],
      [
        "Ġtalk",
        -9.429336284372722
      ],
      [
        "Ġbi",
        -9.429772127130128
      ],
      [
        "water",
        -9.430276245444484
      ],
      [
        "Ġpick",
        -9.43052097952319
      ],
      [
        "ĠAfter",
        -9.431308896266492
      ],
      [
        "Ġtank",
        -9.432158715225736
      ],
      [
        "pro",
        -9.432293749896306
      ],
      [
        "Ġmanage",
        -9.432326328481857
      ],
      [
        "Ġfine",
        -9.432635454130343
      ],
      [
        "ĠEarth",
        -9.433105861638772
      ],
      [
        "Ġdocument",
        -9.4331496456678
      ],
      [
        "cal",
        -9.434767348683808
      ],
      [
        "And",
        -9.435205195400709
      ],
      [
        "care",
        -9.43547920788576
      ],
      [
        "Ġconstant",
        -9.437854570982152
      ],
      [
        "pp",
        -9.437942478989264
      ],
      [
        "Ġrefer",
        -9.438046329597285
      ],
      [
        "Ġsupply",
        -9.438807230207514
      ],
      [
        "Ġarm",
        -9.439415370838484
      ],
      [
        "Ġstyle",
        -9.441219304377654
      ],
      [
        "Ġcritical",
        -9.44145483419624
      ],
      [
        "Ġstrength",
        -9.441895841648943
      ],
      [
        "kin",
        -9.44210331906513
      ],
      [
        "Ġconnect",
        -9.442690858463358
      ],
      [
        "Ġgenerate",
        -9.442692576447604
      ],
      [
        "rat",
        -9.442898299474107
      ],
      [
        "Ġtips",
        -9.44291412514913
      ],
      [
        "Ġuseful",
        -9.444085617862648
      ],
      [
        "Ġprovided",
        -9.445379336622851
      ],
      [
        "Ġcircuit",
        -9.44550558783252
      ],
      [
        "Ġrock",
        -9.44563078792962
      ],
      [
        "chi",
        -9.447582074535717
      ],
      [
        "ger",
        -9.447846884261793
      ],
      [
        "ious",
        -9.448730154971392
      ],
      [
        "Ġpath",
        -9.449225435865989
      ],
      [
        "Ġword",
        -9.449751407531354
      ],
      [
        "Ġseries",
        -9.450434277283527
      ],
      [
        "Ġcompletely",
        -9.450579902254225
      ],
      [
        "low",
        -9.451233309599662
      ],
      [
        "ja",
        -9.45191955886898
      ],
      [
        "Ġwalk",
        -9.45388723036665
      ],
      [
        "Ġmoment",
        -9.45426056844659
      ],
      [
        "Ġfix",
        -9.454623833497156
      ],
      [
        "Ġla",
        -9.45551644370653
      ],
      [
        "Ġmodels",
        -9.456217069020752
      ],
      [
        "Ġtouch",
        -9.456479118968216
      ],
      [
        "Ġculture",
        -9.457568804945588
      ],
      [
        "ock",
        -9.458472631148414
      ],
      [
        "Ġgeneration",
        -9.460014587173202
      ],
      [
        "har",
        -9.4600937825148
      ],
      [
        "Ġselect",
        -9.461111999911829
      ],
      [
        "led",
        -9.46114571558885
      ],
      [
        "Ġmusic",
        -9.462194821381242
      ],
      [
        "Ġorganic",
        -9.462904779814846
      ],
      [
        "Ġeveryone",
        -9.46348279960238
      ],
      [
        "He",
        -9.464258337762317
      ],
      [
        "Ġcats",
        -9.464641773191156
      ],
      [
        "Ġsuper",
        -9.464710043869102
      ],
      [
        "Ġserve",
        -9.464778285525195
      ],
      [
        "Ġbox",
        -9.464836565893815
      ],
      [
        "ĠPre",
        -9.465392613104902
      ],
      [
        "Ġversion",
        -9.465889374425652
      ],
      [
        "ĠAmerica",
        -9.467241924923362
      ],
      [
        "ĠNot",
        -9.46750993769031
      ],
      [
        "larger",
        -9.468802953390211
      ],
      [
        "Ġelse",
        -9.46924820290894
      ],
      [
        "Ġhair",
        -9.46988935780526
      ],
      [
        "Ġpair",
        -9.469903032762382
      ],
      [
        "ĠMore",
        -9.471876793956223
      ],
      [
        "Ġelectrical",
        -9.47210338801883
      ],
      [
        "Ġdraw",
        -9.472210258094234
      ],
      [
        "Ġproduced",
        -9.472618987697825
      ],
      [
        "Ġcharacteristic",
        -9.47279648772044
      ],
      [
        "Ġexpert",
        -9.47280227324265
      ],
      [
        "Ġfruit",
        -9.472867891037517
      ],
      [
        "tru",
        -9.473370440109218
      ],
      [
        "cho",
        -9.473419407972566
      ],
      [
        "Ġdrop",
        -9.47421042017612
      ],
      [
        "Ġpe",
        -9.474761472056922
      ],
      [
        "ĠSouth",
        -9.47571681118119
      ],
      [
        "ology",
        -9.475940830210508
      ],
      [
        "ĠMost",
        -9.476597289297713
      ],
      [
        "izing",
        -9.477192332320652
      ],
      [
        "Ġvision",
        -9.477455293985503
      ],
      [
        "companie",
        -9.478678144314
      ],
      [
        "Because",
        -9.478695654401974
      ],
      [
        "Ġgene",
        -9.479090456432818
      ],
      [
        "Ġeasier",
        -9.479335264205623
      ],
      [
        "Ġleg",
        -9.480372839257187
      ],
      [
        "Ġear",
        -9.480442639207563
      ],
      [
        "val",
        -9.48081604619462
      ],
      [
        "Ġgrass",
        -9.481348438988322
      ],
      [
        "Ġdeath",
        -9.481748099614904
      ],
      [
        "ists",
        -9.482404856177274
      ],
      [
        "Ġwild",
        -9.482684021200471
      ],
      [
        "Ġboard",
        -9.482793540382325
      ],
      [
        "ient",
        -9.483288339559168
      ],
      [
        "Ġconvert",
        -9.483689038122336
      ],
      [
        "Ġmolecule",
        -9.484690614061275
      ],
      [
        "Ġcentur",
        -9.48491695694684
      ],
      [
        "Ġrepair",
        -9.485754222811371
      ],
      [
        "Ġdetect",
        -9.487214311143813
      ],
      [
        "Ġcommunication",
        -9.487971312460814
      ],
      [
        "Ġcity",
        -9.488437476688752
      ],
      [
        "These",
        -9.488879411904296
      ],
      [
        "Ġpiece",
        -9.488992289563187
      ],
      [
        "Ġkids",
        -9.489866916474648
      ],
      [
        "ome",
        -9.489894307878863
      ],
      [
        "Be",
        -9.489959218271132
      ],
      [
        "mic",
        -9.493242750467749
      ],
      [
        "Using",
        -9.494200729565314
      ],
      [
        "Ġbegin",
        -9.494647825004428
      ],
      [
        "Ġoxygen",
        -9.494705349757307
      ],
      [
        "Ġtissue",
        -9.49571297122625
      ],
      [
        "fish",
        -9.496688487227065
      ],
      [
        "Whil",
        -9.497248555775371
      ],
      [
        "tting",
        -9.498997310293303
      ],
      [
        "Ġgl",
        -9.49914079053879
      ],
      [
        "Ġfeature",
        -9.50104092241864
      ],
      [
        "ĠAre",
        -9.501427533584156
      ],
      [
        "rom",
        -9.501792158588312
      ],
      [
        "ĠMy",
        -9.502078336325807
      ],
      [
        "Ġha",
        -9.503380359212365
      ],
      [
        "Ġefficiency",
        -9.50409303465426
      ],
      [
        "hu",
        -9.505635953973766
      ],
      [
        "Ġimages",
        -9.506520967560764
      ],
      [
        "Ġbird",
        -9.506774751241224
      ],
      [
        "ude",
        -9.50700432090412
      ],
      [
        "Ġphotograph",
        -9.50737964688425
      ],
      [
        "Ġchallenges",
        -9.507747224899504
      ],
      [
        "Ġsoft",
        -9.507908037104825
      ],
      [
        "vol",
        -9.509293675932526
      ],
      [
        "Ġfrequent",
        -9.509440679574684
      ],
      [
        "Ġaim",
        -9.509756385234963
      ],
      [
        "Ġtheory",
        -9.51015555697444
      ],
      [
        "Ġprint",
        -9.510302459487756
      ],
      [
        "Ġdate",
        -9.510729929937703
      ],
      [
        "Ġremember",
        -9.510972690918102
      ],
      [
        "Ġsteps",
        -9.51238879019169
      ],
      [
        "Ġitems",
        -9.51303306090134
      ],
      [
        "ix",
        -9.513527445143724
      ],
      [
        "Ġfinish",
        -9.51413079921192
      ],
      [
        "uch",
        -9.5141406827732
      ],
      [
        "Ġvary",
        -9.515582074245016
      ],
      [
        "Ġserious",
        -9.516118543695413
      ],
      [
        "Ġfloor",
        -9.516118554113692
      ],
      [
        "Ġcarry",
        -9.51652905862034
      ],
      [
        "Ġmeal",
        -9.516616281566426
      ],
      [
        "ĠResearch",
        -9.518003665564017
      ],
      [
        "ĠAr",
        -9.51853616536634
      ],
      [
        "com",
        -9.518815234276548
      ],
      [
        "Ġprogress",
        -9.519207429996758
      ],
      [
        "RE",
        -9.519444530771253
      ],
      [
        "Ġgoe",
        -9.520888217636992
      ],
      [
        "ition",
        -9.5211874233002
      ],
      [
        "Ġimportance",
        -9.52138734392866
      ],
      [
        "Ġmode",
        -9.521987958462308
      ],
      [
        "Ġegg",
        -9.522271897455454
      ],
      [
        "Ġfeeling",
        -9.52254112775248
      ],
      [
        "Ġideal",
        -9.523522137493115
      ],
      [
        "use",
        -9.524242454488157
      ],
      [
        "Ġcountries",
        -9.524474937674404
      ],
      [
        "Ġlives",
        -9.524773646615042
      ],
      [
        "Ġseeds",
        -9.525428559285732
      ],
      [
        "ified",
        -9.526205895552966
      ],
      [
        "Ġbaby",
        -9.527557297522584
      ],
      [
        "hen",
        -9.528665716725182
      ],
      [
        "pat",
        -9.528717656021223
      ],
      [
        "Z",
        -9.52905757530839
      ],
      [
        "Ġenable",
        -9.529190428090253
      ],
      [
        "Ġscientific",
        -9.531688067413278
      ],
      [
        "Ġcontains",
        -9.533132666544656
      ],
      [
        "Ġpump",
        -9.533705906829562
      ],
      [
        "Ġpromote",
        -9.533783503895194
      ],
      [
        "Ġdoor",
        -9.534230751380113
      ],
      [
        "Ġfluid",
        -9.536049800259605
      ],
      [
        "Ġphone",
        -9.536291705144944
      ],
      [
        "Ġvolume",
        -9.536936966556748
      ],
      [
        "ĠCh",
        -9.537963108338657
      ],
      [
        "Ġlimited",
        -9.53801256330502
      ],
      [
        "Ġbo",
        -9.53859718125176
      ],
      [
        "Ġdemand",
        -9.53905282383466
      ],
      [
        "Another",
        -9.539070296644212
      ],
      [
        "Ġcame",
        -9.539740409729204
      ],
      [
        "Ġmoving",
        -9.540242230389929
      ],
      [
        "Ġfe",
        -9.541035880061608
      ],
      [
        "Ġjoint",
        -9.54152127919918
      ],
      [
        "ĠMany",
        -9.541577004312622
      ],
      [
        "some",
        -9.54211240045796
      ],
      [
        "Ġpoor",
        -9.543673437284257
      ],
      [
        "AR",
        -9.54514765963312
      ],
      [
        "Ġtaste",
        -9.545431462214042
      ],
      [
        "Ġcount",
        -9.545588034071212
      ],
      [
        "Ġinitial",
        -9.546493658408355
      ],
      [
        "Ġfilter",
        -9.547512197339875
      ],
      [
        "Ġlate",
        -9.547743433412167
      ],
      [
        "IN",
        -9.548082744768609
      ],
      [
        "Ġprett",
        -9.548792249911
      ],
      [
        "Ġencourage",
        -9.54882389833303
      ],
      [
        "Ġwar",
        -9.548986530240352
      ],
      [
        "ĠWhy",
        -9.550012614011507
      ],
      [
        "Ġmaintenanc",
        -9.550740120689056
      ],
      [
        "Ġcross",
        -9.551855642259188
      ],
      [
        "Ġequal",
        -9.552843843386984
      ],
      [
        "Ġlaw",
        -9.552958577260611
      ],
      [
        "Ġpaint",
        -9.55331361607182
      ],
      [
        "Ġangle",
        -9.553736634252065
      ],
      [
        "ĠWorld",
        -9.554338883413347
      ],
      [
        "Ġmatch",
        -9.554737615307712
      ],
      [
        "Ġevent",
        -9.555876967783432
      ],
      [
        "Ġreflect",
        -9.5564893116074
      ],
      [
        "Ġaccurate",
        -9.55712666031132
      ],
      [
        "Ġmemory",
        -9.557128818514713
      ],
      [
        "Ġbrand",
        -9.557196433336529
      ],
      [
        "een",
        -9.557604629607289
      ],
      [
        "rew",
        -9.557659741638124
      ],
      [
        "ack",
        -9.558705624229876
      ],
      [
        "uff",
        -9.5591106189091
      ],
      [
        "Ġsequence",
        -9.55919639926742
      ],
      [
        "Ġbottom",
        -9.559276053297134
      ],
      [
        "ple",
        -9.55940167105825
      ],
      [
        "Ġpa",
        -9.56093659600446
      ],
      [
        "Ġevents",
        -9.56109151931302
      ],
      [
        "Ġfabric",
        -9.561430035470169
      ],
      [
        "Ġfr",
        -9.562362607199049
      ],
      [
        "Ġrec",
        -9.563076410754531
      ],
      [
        "Ġlocate",
        -9.56314101502947
      ],
      [
        "ĠFrom",
        -9.56410617053387
      ],
      [
        "Ġprocedure",
        -9.564669784516768
      ],
      [
        "art",
        -9.564843557542847
      ],
      [
        "ification",
        -9.565905480794772
      ],
      [
        "Ġyellow",
        -9.566835550597036
      ],
      [
        "Ġswitch",
        -9.56683638869938
      ],
      [
        "Ġpull",
        -9.56688278027108
      ],
      [
        "Ġforest",
        -9.56697462138902
      ],
      [
        "-->",
        -9.567794023416408
      ],
      [
        "cer",
        -9.568860606459534
      ],
      [
        "OR",
        -9.569402228870729
      ],
      [
        "ĠTr",
        -9.569730297742494
      ],
      [
        "Ġbone",
        -9.56992650969628
      ],
      [
        "Ġliquid",
        -9.57009300390638
      ],
      [
        "osis",
        -9.571992057745703
      ],
      [
        "Ġflight",
        -9.572537700922538
      ],
      [
        "Ġbuil",
        -9.572563089419344
      ],
      [
        "-in",
        -9.573783331557628
      ],
      [
        "Ġprotection",
        -9.574788905991294
      ],
      [
        "Ġcolors",
        -9.575100503944867
      ],
      [
        "can",
        -9.575387129533343
      ],
      [
        "considered",
        -9.576838006932183
      ],
      [
        "Ġrare",
        -9.577904738741752
      ],
      [
        "top",
        -9.578016522074044
      ],
      [
        "Ġrich",
        -9.578408659552885
      ],
      [
        "Com",
        -9.578560974972469
      ],
      [
        "-up",
        -9.579354155732538
      ],
      [
        "Ġspend",
        -9.579864845673889
      ],
      [
        "Ġgenes",
        -9.581259217888473
      ],
      [
        "Ġpage",
        -9.582610930817037
      ],
      [
        "Ġnote",
        -9.58324276097916
      ],
      [
        "Ġcommonly",
        -9.583896704586234
      ],
      [
        "On",
        -9.584384977439726
      ],
      [
        ".S",
        -9.584532346405975
      ],
      [
        "Ġbrown",
        -9.584970794891042
      ],
      [
        "Ġteeth",
        -9.58654130054018
      ],
      [
        "Ġtransport",
        -9.587854925899324
      ],
      [
        "Ġbond",
        -9.58787086884222
      ],
      [
        "q",
        -9.590164085861636
      ],
      [
        "Ġprograms",
        -9.59020618675372
      ],
      [
        "Ġadjust",
        -9.59042854011714
      ],
      [
        "Ġtherap",
        -9.59044315937495
      ],
      [
        "Ġcleaning",
        -9.590538655289878
      ],
      [
        "Ġfigure",
        -9.590976954708058
      ],
      [
        "Ġleaf",
        -9.59098917738415
      ],
      [
        "Ġpo",
        -9.591308300242174
      ],
      [
        "Ġcloth",
        -9.591750144535384
      ],
      [
        "Ġhearing",
        -9.59199107272201
      ],
      [
        "ric",
        -9.592253011396975
      ],
      [
        "Ġseek",
        -9.592927794574706
      ],
      [
        "Ġhost",
        -9.594040348118783
      ],
      [
        "Ġfund",
        -9.594326134198624
      ],
      [
        "Ġtask",
        -9.594656175105564
      ],
      [
        "Ġcombination",
        -9.59594619670714
      ],
      [
        "Ġelement",
        -9.596778909831023
      ],
      [
        "Ġinstance",
        -9.597678771331216
      ],
      [
        "ĠAdditional",
        -9.598762330188103
      ],
      [
        "Ġalgorithm",
        -9.599896310759451
      ],
      [
        "Ġcosts",
        -9.60034733146222
      ],
      [
        "Ġsituation",
        -9.60385711461606
      ],
      [
        "Ġpublished",
        -9.604306941083296
      ],
      [
        "port",
        -9.605912245451972
      ],
      [
        "Ġlandscape",
        -9.60848942932525
      ],
      [
        "Ġhorse",
        -9.60860028416403
      ],
      [
        "net",
        -9.61076438014996
      ],
      [
        "With",
        -9.611815233141684
      ],
      [
        "ants",
        -9.612094533376256
      ],
      [
        "Ġready",
        -9.612110090081194
      ],
      [
        "Ġwait",
        -9.61281556971982
      ],
      [
        "Ġstorage",
        -9.614585340199024
      ],
      [
        "ĠCenter",
        -9.615724542788811
      ],
      [
        "Ġnative",
        -9.61603908885186
      ],
      [
        "applied",
        -9.616947080715509
      ],
      [
        "istic",
        -9.617278119104313
      ],
      [
        "Ã",
        -9.617888677432775
      ],
      [
        "ari",
        -9.61854280294229
      ],
      [
        "Ġusers",
        -9.619028205403444
      ],
      [
        "Ġdecrease",
        -9.619127677572418
      ],
      [
        "ĠBu",
        -9.619356244133016
      ],
      [
        "Ġrecycl",
        -9.62036847348232
      ],
      [
        "ĠâĢ¦",
        -9.6205741376915
      ],
      [
        "Ġnothing",
        -9.621166181448544
      ],
      [
        "Ġwriting",
        -9.622005896391029
      ],
      [
        "Ġensur",
        -9.623567383808249
      ],
      [
        "nic",
        -9.623966899606572
      ],
      [
        "Ġsubstance",
        -9.624855319212712
      ],
      [
        "Ġrise",
        -9.625022196999051
      ],
      [
        "oma",
        -9.625053396513657
      ],
      [
        "ĠSi",
        -9.625476025661396
      ],
      [
        "Ġslight",
        -9.625484317489228
      ],
      [
        "Ġmoisture",
        -9.626062977645317
      ],
      [
        "Ġmicro",
        -9.626160245221378
      ],
      [
        "Step",
        -9.626216830127326
      ],
      [
        "Ġstone",
        -9.627113788343108
      ],
      [
        "Ġmotor",
        -9.627196402408863
      ],
      [
        "Ġexactly",
        -9.627407543451705
      ],
      [
        "Ġreplace",
        -9.627512285391491
      ],
      [
        "Ġreasons",
        -9.627682189724425
      ],
      [
        "âĢ¢",
        -9.62864417344493
      ],
      [
        "ĠEx",
        -9.628735695928183
      ],
      [
        "Ġdecision",
        -9.630185230885845
      ],
      [
        "ything",
        -9.631041975388406
      ],
      [
        "Ġgr",
        -9.631761869165263
      ],
      [
        "Ġclaim",
        -9.633288963517682
      ],
      [
        "Ġrequirements",
        -9.633977299689969
      ],
      [
        "Ġresponsible",
        -9.63477922288508
      ],
      [
        "Ġmembers",
        -9.63500525037951
      ],
      [
        "Ġsmooth",
        -9.63524777300379
      ],
      [
        "Ġlines",
        -9.635695168661387
      ],
      [
        "Ġtechnique",
        -9.636252325043383
      ],
      [
        "Ġsolid",
        -9.63645816707046
      ],
      [
        "Ġcutting",
        -9.63665390453916
      ],
      [
        "Ġseems",
        -9.638654298951856
      ],
      [
        "efore",
        -9.639092257304632
      ],
      [
        "comp",
        -9.640305611278702
      ],
      [
        "els",
        -9.641756353567835
      ],
      [
        "No",
        -9.642352656467004
      ],
      [
        "By",
        -9.642627711283655
      ],
      [
        "Ġfrequency",
        -9.643406317188331
      ],
      [
        "ven",
        -9.643951985803591
      ],
      [
        "Ġcard",
        -9.644951555011774
      ],
      [
        "ĠVi",
        -9.64534569401821
      ],
      [
        "Ġstand",
        -9.6454683618478
      ],
      [
        "ĠGo",
        -9.64725296873698
      ],
      [
        "came",
        -9.648021651878828
      ],
      [
        "Ġsetting",
        -9.649038072625984
      ],
      [
        "Ġstar",
        -9.64923429395612
      ],
      [
        "developed",
        -9.64938156352897
      ],
      [
        "Ġstage",
        -9.649951809804016
      ],
      [
        "cycl",
        -9.650525404711315
      ],
      [
        "ware",
        -9.65080515714618
      ],
      [
        "lit",
        -9.650842586918664
      ],
      [
        "Ġvia",
        -9.651243745060173
      ],
      [
        "Ġsell",
        -9.651419255216291
      ],
      [
        "Ġdesire",
        -9.651678698890048
      ],
      [
        "vent",
        -9.652250688570984
      ],
      [
        "Ġdu",
        -9.65264410945299
      ],
      [
        "giving",
        -9.652853811377964
      ],
      [
        "Ġdead",
        -9.653732345408928
      ],
      [
        "Ch",
        -9.65449649121786
      ],
      [
        "Ġsoon",
        -9.654749219044694
      ],
      [
        "my",
        -9.655257389480605
      ],
      [
        "Ġsignificantly",
        -9.656225341420573
      ],
      [
        "-term",
        -9.656536442045478
      ],
      [
        "Ġbreed",
        -9.657180002116402
      ],
      [
        "Ġpush",
        -9.657553247543646
      ],
      [
        "gram",
        -9.657886054818407
      ],
      [
        "app",
        -9.65809343905935
      ],
      [
        "Ġweb",
        -9.658102769675931
      ],
      [
        "Ġfoot",
        -9.6585938775547
      ],
      [
        "uck",
        -9.65863424238709
      ],
      [
        "Ġled",
        -9.659918790124916
      ],
      [
        "Ġimp",
        -9.660103564163007
      ],
      [
        "Ġ--",
        -9.661385266125055
      ],
      [
        "ject",
        -9.662296042569418
      ],
      [
        "-b",
        -9.663590396928983
      ],
      [
        "ĠAlso",
        -9.664742839388014
      ],
      [
        "Ġmis",
        -9.665672044150696
      ],
      [
        "Ġsecurity",
        -9.6658924929739
      ],
      [
        "Ġimplement",
        -9.66619034185798
      ],
      [
        "Ġthus",
        -9.666284986550563
      ],
      [
        "ĠLet",
        -9.666678480556255
      ],
      [
        "ĠOur",
        -9.666864455879296
      ],
      [
        "Ġexpress",
        -9.668198549965824
      ],
      [
        "Ġplatform",
        -9.669489611825744
      ],
      [
        "Ġpresence",
        -9.669517019466458
      ],
      [
        "Ġcontext",
        -9.669559771071796
      ],
      [
        "Ġnode",
        -9.670253638116158
      ],
      [
        "Ġroot",
        -9.671501250693114
      ],
      [
        "Ġiron",
        -9.673114526182603
      ],
      [
        "Ġstem",
        -9.675524810169788
      ],
      [
        "ĠThen",
        -9.6756571533228
      ],
      [
        "Ġstates",
        -9.675692749621094
      ],
      [
        "ĠTheir",
        -9.675831430711444
      ],
      [
        "Ġ#",
        -9.676395346484966
      ],
      [
        "Ġearth",
        -9.677246735940528
      ],
      [
        "Ġconstruction",
        -9.67737772021955
      ],
      [
        "Some",
        -9.678779829122018
      ],
      [
        "ncy",
        -9.679010425159763
      ],
      [
        "Ġthird",
        -9.6791472120243
      ],
      [
        "Ġroof",
        -9.679177025786288
      ],
      [
        "Ġideas",
        -9.679336257949137
      ],
      [
        "lar",
        -9.679725803598348
      ],
      [
        "Ġtesting",
        -9.679808613307063
      ],
      [
        "Ġroll",
        -9.679905966882949
      ],
      [
        "Ġdynamic",
        -9.680319739776031
      ],
      [
        "Ġlesson",
        -9.680321328398554
      ],
      [
        "ily",
        -9.68047193320806
      ],
      [
        "Ġcommuniti",
        -9.6814781326631
      ],
      [
        "Ġjourney",
        -9.681574333652854
      ],
      [
        "ĠUn",
        -9.681937192050516
      ],
      [
        "ĠRi",
        -9.68241469790742
      ],
      [
        "Ġaccept",
        -9.682791053739267
      ],
      [
        "Ġtherefor",
        -9.682951847165931
      ],
      [
        "nes",
        -9.683080644502926
      ],
      [
        "Ġseal",
        -9.6837045660821
      ],
      [
        "press",
        -9.684609769942307
      ],
      [
        "Ġsevere",
        -9.684656971194766
      ],
      [
        "Ġexpensive",
        -9.685228420198076
      ],
      [
        "Ġsymbol",
        -9.685231375337356
      ],
      [
        "ĠWho",
        -9.686495649579442
      ],
      [
        "Ġcollection",
        -9.687095544986896
      ],
      [
        "ĠWater",
        -9.687159245939034
      ],
      [
        "Ġeffectively",
        -9.68728315078975
      ],
      [
        "hether",
        -9.687421474290394
      ],
      [
        "Ġolder",
        -9.68764813222694
      ],
      [
        "Ġcommercial",
        -9.687671911656368
      ],
      [
        "mor",
        -9.688148008579413
      ],
      [
        "Ġbeautiful",
        -9.68889592383611
      ],
      [
        "ĠHigh",
        -9.689024273041229
      ],
      [
        "Ġsort",
        -9.689813370193528
      ],
      [
        "Ġmechanism",
        -9.690121392869816
      ],
      [
        "Ġheavy",
        -9.69012217372872
      ],
      [
        "Ġexposure",
        -9.6902669616594
      ],
      [
        "Ġsuitabl",
        -9.692118670890562
      ],
      [
        "Ġstick",
        -9.692659548713925
      ],
      [
        "Ġfiber",
        -9.69269371890491
      ],
      [
        "Ġmessage",
        -9.692743354859502
      ],
      [
        "ept",
        -9.693127441142902
      ],
      [
        "Ġsnow",
        -9.693829021894173
      ],
      [
        "went",
        -9.69477533146667
      ],
      [
        "Ġpowerful",
        -9.695181063914385
      ],
      [
        "lac",
        -9.695973300576988
      ],
      [
        "ES",
        -9.69621508441947
      ],
      [
        "Ġhands",
        -9.696982999969933
      ],
      [
        "Ġho",
        -9.69720986839523
      ],
      [
        "ĠKa",
        -9.697943169375772
      ],
      [
        "back",
        -9.698411498001668
      ],
      [
        "ĠState",
        -9.698663943038174
      ],
      [
        "Ġdefine",
        -9.698872156993762
      ],
      [
        "ĠCO",
        -9.699056936188908
      ],
      [
        "Ġmedication",
        -9.699979804932996
      ],
      [
        "Ġtook",
        -9.700188561752263
      ],
      [
        "Ġmeaning",
        -9.700262545603303
      ],
      [
        "Ġdegrees",
        -9.70085428337971
      ],
      [
        "Ġdiabetes",
        -9.701218915173396
      ],
      [
        "Ġrecognize",
        -9.70121891535556
      ],
      [
        "Ġvirus",
        -9.701294058096916
      ],
      [
        "Ġproperty",
        -9.701371483805284
      ],
      [
        "Ġplate",
        -9.702160665598132
      ],
      [
        "Ġwrite",
        -9.70465589328799
      ],
      [
        "Ġsensor",
        -9.704746257576012
      ],
      [
        "Ġpanel",
        -9.704916151463664
      ],
      [
        "Ġdes",
        -9.70504068572247
      ],
      [
        "Pro",
        -9.705220092378266
      ],
      [
        "Ġlo",
        -9.705623381492614
      ],
      [
        "Ġcur",
        -9.706102927524928
      ],
      [
        "Ġflat",
        -9.706580248530674
      ],
      [
        "ogen",
        -9.706905583384994
      ],
      [
        "Ġthinking",
        -9.706987192023169
      ],
      [
        "ĠPar",
        -9.708186329156968
      ],
      [
        "Ġsustainabl",
        -9.708529810137149
      ],
      [
        "Ġmeasurement",
        -9.709513755953388
      ],
      [
        "ĠPlant",
        -9.709624506252968
      ],
      [
        "Ģ",
        -9.709936267171996
      ],
      [
        "arch",
        -9.70999728381226
      ],
      [
        "Ġwonder",
        -9.71055832090945
      ],
      [
        "but",
        -9.71147769444227
      ],
      [
        "Ġfriends",
        -9.712021284772195
      ],
      [
        "Ġdeliver",
        -9.712396015388418
      ],
      [
        "Ġworth",
        -9.712602777123893
      ],
      [
        "Ġbright",
        -9.71276686764486
      ],
      [
        "Ġpest",
        -9.71306278943906
      ],
      [
        "IS",
        -9.71360787313289
      ],
      [
        "Ġrain",
        -9.714406194066704
      ],
      [
        "Ġaid",
        -9.71450794874253
      ],
      [
        "Ġeconomic",
        -9.71534747062728
      ],
      [
        "Ġtasks",
        -9.716065805927766
      ],
      [
        "Ġdriver",
        -9.717108004227727
      ],
      [
        "Ġshot",
        -9.717457416872554
      ],
      [
        "Ġbear",
        -9.71751384096414
      ],
      [
        "ĠTe",
        -9.717721256166334
      ],
      [
        "Ġfriend",
        -9.718706805838028
      ],
      [
        "written",
        -9.718730313297256
      ],
      [
        "ĠMay",
        -9.71883033105351
      ],
      [
        "Ġresistance",
        -9.718838351500874
      ],
      [
        "ĠOf",
        -9.718931294697544
      ],
      [
        "Ġsend",
        -9.720771373472871
      ],
      [
        "rie",
        -9.721070765878792
      ],
      [
        "Ġparticles",
        -9.721148737271484
      ],
      [
        "Ġrecord",
        -9.721173352074892
      ],
      [
        "Ġmen",
        -9.72429559215797
      ],
      [
        "ĠPi",
        -9.72504038447878
      ],
      [
        "Ġapproximate",
        -9.725059443464112
      ],
      [
        "ool",
        -9.725923508600449
      ],
      [
        "Ġnoise",
        -9.726448781985807
      ],
      [
        "Ġexpos",
        -9.726684358952657
      ],
      [
        "Ġattract",
        -9.727073252504171
      ],
      [
        "lthough",
        -9.727666935229504
      ],
      [
        "Ġlu",
        -9.727838561761622
      ],
      [
        "len",
        -9.728398155884262
      ],
      [
        "spec",
        -9.728769282791143
      ],
      [
        "Ġphase",
        -9.728934254872026
      ],
      [
        "Ġopportunity",
        -9.729263972391074
      ],
      [
        "Ġwrong",
        -9.730151751873398
      ],
      [
        "meter",
        -9.730486772318976
      ],
      [
        "Ġfair",
        -9.731560282016604
      ],
      [
        "Ġmember",
        -9.731979331653408
      ],
      [
        "Ġconsistent",
        -9.733118280409194
      ],
      [
        "Ġcolour",
        -9.7339926117475
      ],
      [
        "Ġmotion",
        -9.734235067844114
      ],
      [
        "mat",
        -9.73426461769696
      ],
      [
        "Ġlose",
        -9.734644794031563
      ],
      [
        "Ġfi",
        -9.73513863575143
      ],
      [
        "â",
        -9.735191943693833
      ],
      [
        "body",
        -9.735248504691455
      ],
      [
        "Di",
        -9.735641409760838
      ],
      [
        "Ġquick",
        -9.735646554119382
      ],
      [
        "Ġstrategies",
        -9.736553816739526
      ],
      [
        "ĠFe",
        -9.73656705526121
      ],
      [
        "Ġconnected",
        -9.7367800520852
      ],
      [
        "Ġten",
        -9.736783445816087
      ],
      [
        "right",
        -9.736836632134676
      ],
      [
        "ĠPe",
        -9.736987969701216
      ],
      [
        "ED",
        -9.737254514712657
      ],
      [
        "Con",
        -9.737472583004164
      ],
      [
        "Ġpicture",
        -9.737631717096082
      ],
      [
        "Ġcapacity",
        -9.737839215881577
      ],
      [
        "ĠArt",
        -9.738189166448276
      ],
      [
        "Ġfunctions",
        -9.738735873790104
      ],
      [
        "Ġorigin",
        -9.741491017299689
      ],
      [
        "Ġcouple",
        -9.741708819940763
      ],
      [
        "Ġattempt",
        -9.741709444035248
      ],
      [
        "mu",
        -9.742791978304057
      ],
      [
        "ĠFi",
        -9.74316407159042
      ],
      [
        "Ġmedium",
        -9.743181189092862
      ],
      [
        "Ġphoto",
        -9.743459377818372
      ],
      [
        "Ġpurchase",
        -9.743621097437028
      ],
      [
        "Ġcombine",
        -9.744211984738085
      ],
      [
        "Ġconsumption",
        -9.74429582729027
      ],
      [
        "Ġheight",
        -9.745537315622954
      ],
      [
        "pen",
        -9.746143877065178
      ],
      [
        "ĠNow",
        -9.74650521569666
      ],
      [
        "lay",
        -9.746626047729492
      ],
      [
        "ĠMan",
        -9.747774572274896
      ],
      [
        "âĪĴ",
        -9.748185472490444
      ],
      [
        "ĠEnglish",
        -9.74862087689976
      ],
      [
        "ĠNa",
        -9.74906425131842
      ],
      [
        "Ġinteresting",
        -9.749650002198898
      ],
      [
        "alone",
        -9.74983912620349
      ],
      [
        "Ġforward",
        -9.751652530621843
      ],
      [
        "Ġpark",
        -9.75393955328525
      ],
      [
        "itis",
        -9.75451148680089
      ],
      [
        "Ġpin",
        -9.754608107001054
      ],
      [
        "her",
        -9.754723162227002
      ],
      [
        "Ġreference",
        -9.756254411869191
      ],
      [
        "Ġchain",
        -9.757475730428068
      ],
      [
        "Ġmother",
        -9.757990784273332
      ],
      [
        "Ġinches",
        -9.758533608125813
      ],
      [
        "Now",
        -9.760917710298024
      ],
      [
        "Ġrespect",
        -9.761260289022768
      ],
      [
        "beyond",
        -9.762693373264272
      ],
      [
        "ĠMake",
        -9.763012510353551
      ],
      [
        "Ġadvantage",
        -9.76363009723678
      ],
      [
        "ĠBar",
        -9.764880572990815
      ],
      [
        "cus",
        -9.76577084374673
      ],
      [
        "rop",
        -9.76618774818737
      ],
      [
        "Â",
        -9.766459798740646
      ],
      [
        "Ġcategor",
        -9.766544145850505
      ],
      [
        "Ġhuge",
        -9.766561602343952
      ],
      [
        "ĠMin",
        -9.766652699206482
      ],
      [
        "Ġidentifi",
        -9.766946634136668
      ],
      [
        "Ġemissions",
        -9.767414307886565
      ],
      [
        "Ġmark",
        -9.767527507019942
      ],
      [
        "Ġlabel",
        -9.767800288986276
      ],
      [
        "rate",
        -9.7678073594461
      ],
      [
        "Ġnumbers",
        -9.769133082867649
      ],
      [
        "ĠEven",
        -9.769896177006412
      ],
      [
        "Ġfully",
        -9.770310807480048
      ],
      [
        "Ġmiddle",
        -9.770528246069333
      ],
      [
        "ĠDay",
        -9.771441318866165
      ],
      [
        "Ġleader",
        -9.7723271391163
      ],
      [
        "Ġmouth",
        -9.77288808518556
      ],
      [
        "rad",
        -9.773538577485498
      ],
      [
        "Ġchang",
        -9.773586372694062
      ],
      [
        "ĠWar",
        -9.774185994483968
      ],
      [
        "Ġevolution",
        -9.774679992090464
      ],
      [
        "Ġorgan",
        -9.774826112381849
      ],
      [
        "ou",
        -9.775055843229648
      ],
      [
        "Ġcomfortabl",
        -9.775168301191949
      ],
      [
        "Ġorganization",
        -9.775649624154129
      ],
      [
        "Ġexpect",
        -9.77566085307114
      ],
      [
        "Ġoutdoor",
        -9.775852252130154
      ],
      [
        "Ġvital",
        -9.775902981348294
      ],
      [
        "Ġvariable",
        -9.777188618790284
      ],
      [
        "ark",
        -9.777399681650447
      ],
      [
        "Ġseed",
        -9.777722049857736
      ],
      [
        "haps",
        -9.77782311510143
      ],
      [
        "ID",
        -9.778938855354864
      ],
      [
        "Ġthousand",
        -9.779867733125176
      ],
      [
        "Ġvitamin",
        -9.779867777213234
      ],
      [
        "ĠGu",
        -9.780013117108904
      ],
      [
        "Ġdepth",
        -9.780394253442664
      ],
      [
        "Ġcoast",
        -9.781412731651054
      ],
      [
        "Ġforms",
        -9.781447784235702
      ],
      [
        "Ġdrawing",
        -9.781616080071224
      ],
      [
        "bility",
        -9.782453138553954
      ],
      [
        "Ġwire",
        -9.782508595237276
      ],
      [
        "AT",
        -9.783771679638663
      ],
      [
        "mark",
        -9.784716441275688
      ],
      [
        "Ġfilm",
        -9.785253310673358
      ],
      [
        "ĠSan",
        -9.786461428533574
      ],
      [
        "Ġsecure",
        -9.786605604823828
      ],
      [
        "ĠEn",
        -9.78710166006418
      ],
      [
        "Ġstream",
        -9.78729238530287
      ],
      [
        "self",
        -9.788949582500358
      ],
      [
        "Ġcommand",
        -9.789303954222907
      ],
      [
        "lock",
        -9.789538184582174
      ],
      [
        "Co",
        -9.790171380010497
      ],
      [
        "OS",
        -9.790499590731134
      ],
      [
        "Ġcup",
        -9.79071979926752
      ],
      [
        "Ġconservation",
        -9.790998202159289
      ],
      [
        "Ġprevious",
        -9.791212563171277
      ],
      [
        "lost",
        -9.791797424640691
      ],
      [
        "Ġcontainer",
        -9.791934490225003
      ],
      [
        "Ġbreath",
        -9.792073927339148
      ],
      [
        "Ġfight",
        -9.792165412844284
      ],
      [
        "lie",
        -9.79220149147303
      ],
      [
        "Ġblog",
        -9.79269860082002
      ],
      [
        "gar",
        -9.792703223945477
      ],
      [
        "Ġmid",
        -9.792714208129835
      ],
      [
        "Ġcatch",
        -9.79322522340251
      ],
      [
        "Ġpieces",
        -9.793733260047922
      ],
      [
        "like",
        -9.793844029229888
      ],
      [
        "ĠOnc",
        -9.793931656908208
      ],
      [
        "Ġtransform",
        -9.794537538680007
      ],
      [
        "iness",
        -9.7955236746979
      ],
      [
        "Ġoperat",
        -9.79562435470686
      ],
      [
        "Ġtrip",
        -9.795880673352386
      ],
      [
        "They",
        -9.796539239273706
      ],
      [
        "ute",
        -9.797220407636432
      ],
      [
        "Ġpress",
        -9.798620539958067
      ],
      [
        "ĠAir",
        -9.798740483176646
      ],
      [
        "Ġecosystem",
        -9.798834426151965
      ],
      [
        "wildlife",
        -9.799086183357858
      ],
      [
        "rib",
        -9.799294373325464
      ],
      [
        "Ġhit",
        -9.801558851193125
      ],
      [
        "Ġsupplement",
        -9.801563430915618
      ],
      [
        "Ġinternal",
        -9.801606060613288
      ],
      [
        "`",
        -9.80293516334393
      ],
      [
        "Ġexcellent",
        -9.802938014994307
      ],
      [
        "Ġcoming",
        -9.804107973867623
      ],
      [
        "ĠOther",
        -9.804249754104152
      ],
      [
        "Ġsociet",
        -9.804308807527374
      ],
      [
        "RI",
        -9.80441614076745
      ],
      [
        "Ġplanet",
        -9.805044462106464
      ],
      [
        "wide",
        -9.805500620318604
      ],
      [
        "Ġnational",
        -9.805581966157751
      ],
      [
        "Ġsweet",
        -9.805700903664489
      ],
      [
        "emi",
        -9.806088652488546
      ],
      [
        "Ġplanning",
        -9.80719114487855
      ],
      [
        "Ġpredict",
        -9.807334518089329
      ],
      [
        "That",
        -9.807568529416685
      ],
      [
        "Ġvegetables",
        -9.808775307865345
      ],
      [
        "Ġemergenc",
        -9.809061454542384
      ],
      [
        "Ġalcohol",
        -9.809822324273036
      ],
      [
        "lies",
        -9.809888055384064
      ],
      [
        "Ġchallenge",
        -9.8099342223149
      ],
      [
        "Ġgames",
        -9.810452146524469
      ],
      [
        "Ġjoin",
        -9.812421948753848
      ],
      [
        "Ġfail",
        -9.812450977270071
      ],
      [
        "Ġsurrounding",
        -9.812555198814582
      ],
      [
        "Ġsuit",
        -9.813005096422533
      ],
      [
        "cur",
        -9.8139725890688
      ],
      [
        "Ġprocessing",
        -9.814874857757491
      ],
      [
        "Ġthin",
        -9.81495337950741
      ],
      [
        "ĠMu",
        -9.815635173151897
      ],
      [
        "Ġbroad",
        -9.815683601052022
      ],
      [
        "pite",
        -9.816378598203258
      ],
      [
        "Ġrecipe",
        -9.818150369347029
      ],
      [
        "Ġlibrar",
        -9.818152524017478
      ],
      [
        "Ġcomment",
        -9.818630343284802
      ],
      [
        "Ġband",
        -9.818681065298918
      ],
      [
        "Ġspeak",
        -9.819597215991214
      ],
      [
        "Ġtexture",
        -9.820232072363297
      ],
      [
        "ung",
        -9.820268030563431
      ],
      [
        "Ġriver",
        -9.821611060780567
      ],
      [
        "Ġneuro",
        -9.822191564036036
      ],
      [
        "Ġpl",
        -9.823139734104627
      ],
      [
        "Ġlegal",
        -9.82506360071864
      ],
      [
        "ì",
        -9.825133105978368
      ],
      [
        "Ġcentral",
        -9.8251479204968
      ],
      [
        "Ġexpand",
        -9.825157381391758
      ],
      [
        "Ġmanufacturer",
        -9.826436139508376
      ],
      [
        "ham",
        -9.82755252454886
      ],
      [
        "Ġresulting",
        -9.827560361442355
      ],
      [
        "CH",
        -9.827705165657855
      ],
      [
        "lot",
        -9.828020483840874
      ],
      [
        "Ġmap",
        -9.828275006620242
      ],
      [
        "AL",
        -9.828410874357385
      ],
      [
        "Ġrep",
        -9.828797612180043
      ],
      [
        "ria",
        -9.828985253765694
      ],
      [
        "Ġtrans",
        -9.829221457784923
      ],
      [
        "ĠNOT",
        -9.829539187475865
      ],
      [
        "Ġattach",
        -9.830377447540858
      ],
      [
        "Ġmiles",
        -9.830478845051942
      ],
      [
        "Ġcomponent",
        -9.830970396238708
      ],
      [
        "Ġsaw",
        -9.831441511933969
      ],
      [
        "Me",
        -9.832190717910596
      ],
      [
        "Ġfamili",
        -9.832804132620842
      ],
      [
        "Ġgrade",
        -9.832852605966515
      ],
      [
        "Ġdriv",
        -9.833484381579458
      ],
      [
        "Ġrule",
        -9.834482096710056
      ],
      [
        "ĠQ",
        -9.834887077732592
      ],
      [
        "point",
        -9.83494790356831
      ],
      [
        "Ġinternational",
        -9.835016321098731
      ],
      [
        "ĠSea",
        -9.835370392895904
      ],
      [
        "Ġexpected",
        -9.835685540093678
      ],
      [
        "Ġhabitat",
        -9.837065167121636
      ],
      [
        "ĠPh",
        -9.837404627274353
      ],
      [
        "ĠWi",
        -9.83789164428427
      ],
      [
        "ley",
        -9.838461258804635
      ],
      [
        "tiny",
        -9.83856711540161
      ],
      [
        "Ġscore",
        -9.838637980019522
      ],
      [
        "Ġfan",
        -9.838671834601364
      ],
      [
        "ĠJust",
        -9.839034813918076
      ],
      [
        "ĠGod",
        -9.840001274282567
      ],
      [
        "Ġtechnologies",
        -9.840701892508443
      ],
      [
        "Ġmiss",
        -9.84084800830906
      ],
      [
        "Ġstructures",
        -9.841777853410669
      ],
      [
        "Ġabsorb",
        -9.842128430903037
      ],
      [
        "#",
        -9.842515023622074
      ],
      [
        "Ġcapture",
        -9.843496887252469
      ],
      [
        "ĠFirst",
        -9.844209474016964
      ],
      [
        "bor",
        -9.847117965766708
      ],
      [
        "Ġsurvey",
        -9.84785510293899
      ],
      [
        "Ġbackground",
        -9.84957804483281
      ],
      [
        "Ġround",
        -9.849668096415051
      ],
      [
        "About",
        -9.850821983554518
      ],
      [
        "ole",
        -9.851139958866076
      ],
      [
        "Ġonto",
        -9.851239115714517
      ],
      [
        "ĠOver",
        -9.851417445235375
      ],
      [
        "Ġstuff",
        -9.852198358385714
      ],
      [
        "ĠHar",
        -9.852569842523604
      ],
      [
        "Ġcarrie",
        -9.852921016231509
      ],
      [
        "Ġhighlight",
        -9.853156664922222
      ],
      [
        "rain",
        -9.854184681231258
      ],
      [
        "tail",
        -9.855537131226065
      ],
      [
        "Ġreveal",
        -9.856519048333316
      ],
      [
        "bro",
        -9.858078284166403
      ],
      [
        "pon",
        -9.858951046983025
      ],
      [
        "Ġsquare",
        -9.860874209726052
      ],
      [
        "Ġexpression",
        -9.861127240194902
      ],
      [
        "Ġlens",
        -9.86128111925187
      ],
      [
        "Ġpot",
        -9.861420649098235
      ],
      [
        "IT",
        -9.861531754227782
      ],
      [
        "RO",
        -9.8615974829394
      ],
      [
        "Here",
        -9.8618654549798
      ],
      [
        "Ġstock",
        -9.86193834178015
      ],
      [
        "Ġfinancial",
        -9.86231656574666
      ],
      [
        "Ġintegrat",
        -9.862418910566442
      ],
      [
        "Ġvaluable",
        -9.862440614115377
      ],
      [
        "Ġcontroll",
        -9.862887281153869
      ],
      [
        "dom",
        -9.863549871763713
      ],
      [
        "Ġdrug",
        -9.864201616198772
      ],
      [
        "Ġregions",
        -9.864323624372297
      ],
      [
        "Ġpractical",
        -9.86452934735772
      ],
      [
        "Ġdie",
        -9.864789208233113
      ],
      [
        "Ġaffected",
        -9.864972816012193
      ],
      [
        "Ġmaximum",
        -9.865234146575798
      ],
      [
        "Ġvoltage",
        -9.865234424463656
      ],
      [
        "Ġbodies",
        -9.866707095618768
      ],
      [
        "ĠSystem",
        -9.866748492413882
      ],
      [
        "Ġteach",
        -9.866770587613148
      ],
      [
        "vid",
        -9.866923095816407
      ],
      [
        "Ġrules",
        -9.867613457865836
      ],
      [
        "Ġdemonstrate",
        -9.868147338378924
      ],
      [
        "Ġopportunit",
        -9.869180385526285
      ],
      [
        "stor",
        -9.869575523545958
      ],
      [
        "Ġresident",
        -9.870239383548512
      ],
      [
        "ĠAccording",
        -9.870533071745276
      ],
      [
        "Ġrespond",
        -9.870746421141682
      ],
      [
        "ju",
        -9.871308451767224
      ],
      [
        "Ġskill",
        -9.872060150130768
      ],
      [
        "pan",
        -9.872840425707649
      ],
      [
        "pre",
        -9.873601018335648
      ],
      [
        "ĠJohn",
        -9.87370296961927
      ],
      [
        ".com",
        -9.873998328265756
      ],
      [
        "Ġhabit",
        -9.874003380568247
      ],
      [
        "Ġtire",
        -9.874189436477254
      ],
      [
        "Ġregard",
        -9.875048639071917
      ],
      [
        "Ġfinger",
        -9.87572053489794
      ],
      [
        "Ġmixture",
        -9.87574016219108
      ],
      [
        "MA",
        -9.876445523378711
      ],
      [
        "old",
        -9.878176921488771
      ],
      [
        "ution",
        -9.87873280127063
      ],
      [
        "ivity",
        -9.879764864107182
      ],
      [
        "held",
        -9.879836759169816
      ],
      [
        "onic",
        -9.880584676182252
      ],
      [
        "Ġdouble",
        -9.881444339104156
      ],
      [
        "Ġinform",
        -9.881527147410145
      ],
      [
        "ĠCl",
        -9.881904567510126
      ],
      [
        "Ġinvest",
        -9.882152435938686
      ],
      [
        "off",
        -9.882448495416298
      ],
      [
        "Hi",
        -9.882554951740603
      ],
      [
        "ĠUK",
        -9.882629703007778
      ],
      [
        "Ġcontract",
        -9.884643374484662
      ],
      [
        "Ġgre",
        -9.884978555404563
      ],
      [
        "ĠEuropean",
        -9.88525238824178
      ],
      [
        "ĠSc",
        -9.886526445376834
      ],
      [
        "Ġmeasures",
        -9.88734449782796
      ],
      [
        "Ġplease",
        -9.887403953432244
      ],
      [
        "rip",
        -9.887934782346864
      ],
      [
        "IC",
        -9.888059836537597
      ],
      [
        "van",
        -9.888241673701271
      ],
      [
        "Ġassess",
        -9.888425348673852
      ],
      [
        "Ġactual",
        -9.889422216339993
      ],
      [
        "Ġva",
        -9.889475240298095
      ],
      [
        "Ġreported",
        -9.889819383351774
      ],
      [
        "Ġimmune",
        -9.89038340341743
      ],
      [
        "Ġlab",
        -9.890466224257285
      ],
      [
        "long",
        -9.891134605812136
      ],
      [
        "-like",
        -9.891295935980772
      ],
      [
        "Ġowner",
        -9.891296596579409
      ],
      [
        "book",
        -9.89173108391537
      ],
      [
        "pot",
        -9.891916951407236
      ],
      [
        "Ġsports",
        -9.892186094339582
      ],
      [
        "Ġlisten",
        -9.892912351005382
      ],
      [
        "Ġintroduce",
        -9.89349329267044
      ],
      [
        "Ġshade",
        -9.89371361881766
      ],
      [
        "Ġprefer",
        -9.893926109043122
      ],
      [
        "Ġshift",
        -9.89489487936095
      ],
      [
        "Ġac",
        -9.895246849391285
      ],
      [
        "Ġnest",
        -9.895511285062245
      ],
      [
        "Ġinsight",
        -9.897715084785316
      ],
      [
        "part",
        -9.89783498191806
      ],
      [
        "Ġsteel",
        -9.897918231829609
      ],
      [
        "ĠSu",
        -9.899180530310858
      ],
      [
        "bal",
        -9.899998708288834
      ],
      [
        "Ġsheet",
        -9.90026127703235
      ],
      [
        "Ġmedicine",
        -9.900925672534507
      ],
      [
        "ĠPark",
        -9.901192764981946
      ],
      [
        "Ġburn",
        -9.90159225803704
      ],
      [
        "Ġtube",
        -9.90225165371328
      ],
      [
        "Ġconcentration",
        -9.90244080974076
      ],
      [
        "Ġmarine",
        -9.902525673678868
      ],
      [
        "Ġsustain",
        -9.902647376291194
      ],
      [
        "Ġelectronic",
        -9.903108956124065
      ],
      [
        "Ġdegree",
        -9.903158123907271
      ],
      [
        "Ġbeginning",
        -9.90402416551813
      ],
      [
        "ÂŃ",
        -9.905487580026028
      ],
      [
        "rry",
        -9.90694325136506
      ],
      [
        "Ġrates",
        -9.90718501926284
      ],
      [
        "Ġselection",
        -9.907208598706951
      ],
      [
        "lip",
        -9.907211011483264
      ],
      [
        "Ġclick",
        -9.90753006913613
      ],
      [
        "Ġbooks",
        -9.908252741186944
      ],
      [
        "Ġequation",
        -9.908524658300198
      ],
      [
        "Ġfeeding",
        -9.909906007905269
      ],
      [
        "Ġannual",
        -9.910053924520028
      ],
      [
        "Ġdisc",
        -9.910191946682904
      ],
      [
        "Ġroots",
        -9.910786642799124
      ],
      [
        "Ġwindow",
        -9.911493570411707
      ],
      [
        "ĠInstitute",
        -9.911580246447675
      ],
      [
        "ĠAlthough",
        -9.91181693673122
      ],
      [
        "LE",
        -9.91261910413196
      ],
      [
        "ids",
        -9.91304556629442
      ],
      [
        "Ġfavorite",
        -9.913134020927409
      ],
      [
        "Ġthick",
        -9.914395027571366
      ],
      [
        "Ġtransfer",
        -9.914574436390817
      ],
      [
        "Ġessay",
        -9.914648580169324
      ],
      [
        "Ġphotos",
        -9.914821995090657
      ],
      [
        "coming",
        -9.915828700386797
      ],
      [
        "Ġstaff",
        -9.916181496046727
      ],
      [
        "Ġpr",
        -9.916390486450345
      ],
      [
        "Ġformula",
        -9.916820513678504
      ],
      [
        "Ġtransition",
        -9.919345021213395
      ],
      [
        "ĠGen",
        -9.919570884808383
      ],
      [
        "Ġgear",
        -9.920994720258324
      ],
      [
        "SE",
        -9.921028354433346
      ],
      [
        "Ġqu",
        -9.92142219509795
      ],
      [
        "Ġgap",
        -9.921745022386672
      ],
      [
        "Ġshell",
        -9.92221391053492
      ],
      [
        "well",
        -9.922440095540232
      ],
      [
        "mod",
        -9.9229490816009
      ],
      [
        "Ġemerg",
        -9.923211703249788
      ],
      [
        "Ġdistribution",
        -9.923238530020631
      ],
      [
        "Ġobserve",
        -9.923874424423332
      ],
      [
        "Ġfly",
        -9.924145117731314
      ],
      [
        "Ġtrust",
        -9.925993253522993
      ],
      [
        "Ġteachers",
        -9.926333535179602
      ],
      [
        "Ġoperation",
        -9.92682688858372
      ],
      [
        "ĠDur",
        -9.926911093053665
      ],
      [
        "Ġresource",
        -9.927421264877257
      ],
      [
        "arm",
        -9.927557796340372
      ],
      [
        "Ġbike",
        -9.928118407352631
      ],
      [
        "Mo",
        -9.928481214711828
      ],
      [
        "ĠDepartment",
        -9.928556054875605
      ],
      [
        "Ġcheese",
        -9.928556969073687
      ],
      [
        "Ġaren",
        -9.928615998232484
      ],
      [
        "All",
        -9.928831587210862
      ],
      [
        "MS",
        -9.929103912505733
      ],
      [
        "Ġassessment",
        -9.929124402345488
      ],
      [
        "Ġcore",
        -9.929698788004853
      ],
      [
        "ĠDa",
        -9.929849228887123
      ],
      [
        "ĠInter",
        -9.930067997295204
      ],
      [
        "Ġteaching",
        -9.930752205217235
      ],
      [
        "ĠLake",
        -9.931120694042956
      ],
      [
        "Ġadvice",
        -9.931673682287482
      ],
      [
        "Ġdangerous",
        -9.93182859435218
      ],
      [
        "Ġboat",
        -9.933121216137362
      ],
      [
        "Ġconsumer",
        -9.933341126972364
      ],
      [
        "rant",
        -9.93339892168154
      ],
      [
        "bra",
        -9.934296123905114
      ],
      [
        "Ġsurvive",
        -9.935455307159463
      ],
      [
        "Ġbillion",
        -9.936050859245704
      ],
      [
        "Ġappearance",
        -9.937074577780956
      ],
      [
        "CE",
        -9.937221200736136
      ],
      [
        "Ġflu",
        -9.93730603376848
      ],
      [
        "Ġconsult",
        -9.937939065226054
      ],
      [
        "last",
        -9.939046433550418
      ],
      [
        "bit",
        -9.93922415258064
      ],
      [
        "east",
        -9.939752752567806
      ],
      [
        "heat",
        -9.940956898739875
      ],
      [
        "Ġexhibit",
        -9.941085513472306
      ],
      [
        "late",
        -9.94123552304788
      ],
      [
        "Ġoutcome",
        -9.941584563356177
      ],
      [
        "ĠCalifornia",
        -9.941722145255753
      ],
      [
        "ĠMon",
        -9.94198363297124
      ],
      [
        "Ġapart",
        -9.942226504682823
      ],
      [
        "Ġfashion",
        -9.942662881031316
      ],
      [
        "Ġcustomer",
        -9.942709003602962
      ],
      [
        "Ġtopic",
        -9.942766359799176
      ],
      [
        "Ġleak",
        -9.94283496921651
      ],
      [
        "phy",
        -9.9435416536355
      ],
      [
        "Ġbirth",
        -9.94538345067125
      ],
      [
        "ĠCor",
        -9.945493827747228
      ],
      [
        "Ġwave",
        -9.945500276343225
      ],
      [
        "matic",
        -9.94788180352882
      ],
      [
        "read",
        -9.948383390272006
      ],
      [
        "ĠFood",
        -9.94885933393332
      ],
      [
        "Ġfarmer",
        -9.949010217890578
      ],
      [
        "round",
        -9.949617203766294
      ],
      [
        "how",
        -9.949663558821609
      ],
      [
        "Ġfo",
        -9.95047471851529
      ],
      [
        "Ġcolon",
        -9.950692715086651
      ],
      [
        "ĠSince",
        -9.950731018180388
      ],
      [
        "bar",
        -9.951249357957728
      ],
      [
        "Ġpartner",
        -9.951351668229249
      ],
      [
        "Ġspeaker",
        -9.95172568885855
      ],
      [
        "Ġcom",
        -9.952139237672514
      ],
      [
        "Ġbasis",
        -9.953225663202762
      ],
      [
        "Ġnucle",
        -9.953644488423262
      ],
      [
        "ģ",
        -9.953714565821912
      ],
      [
        "Ġhappy",
        -9.953775285423044
      ],
      [
        "Ġdecade",
        -9.953775871539955
      ],
      [
        "Ġcheap",
        -9.95386586397996
      ],
      [
        "Ġtests",
        -9.954714942951965
      ],
      [
        "Ġsettings",
        -9.954777195873096
      ],
      [
        "Ġregarding",
        -9.955876488240603
      ],
      [
        "ĠEnergy",
        -9.95700830101422
      ],
      [
        "Ġdrain",
        -9.958543478191912
      ],
      [
        "Ġroutine",
        -9.958574066381104
      ],
      [
        "Ġwi",
        -9.958867526832911
      ],
      [
        "Ġrid",
        -9.959193142584509
      ],
      [
        "ĠRu",
        -9.960170404302913
      ],
      [
        "rought",
        -9.961330930809492
      ],
      [
        "ural",
        -9.96144773835436
      ],
      [
        "ĠIndia",
        -9.96307853226259
      ],
      [
        "Ã©",
        -9.963419980036344
      ],
      [
        "ĠRiver",
        -9.96407414108964
      ],
      [
        "ĠSh",
        -9.964257488689755
      ],
      [
        "ĠDog",
        -9.96446178668586
      ],
      [
        "Ġemotional",
        -9.964873213368415
      ],
      [
        "ĠGreen",
        -9.965032313592868
      ],
      [
        "Ġassembl",
        -9.96506650688078
      ],
      [
        "Ġarray",
        -9.965073041856286
      ],
      [
        "Ġtemp",
        -9.965478003620024
      ],
      [
        "Ġmelt",
        -9.965536078002678
      ],
      [
        "than",
        -9.967565865886382
      ],
      [
        "Ġassist",
        -9.968219059321086
      ],
      [
        "Ġvoice",
        -9.968244075741016
      ],
      [
        "-free",
        -9.969621150061103
      ],
      [
        "Ġconsume",
        -9.969975154849228
      ],
      [
        "Ġpollution",
        -9.970024550119003
      ],
      [
        "Ġinterested",
        -9.970942780078328
      ],
      [
        "Ġaccident",
        -9.971487835042735
      ],
      [
        "Ġcomfort",
        -9.972320498864244
      ],
      [
        "type",
        -9.97242461628032
      ],
      [
        "Ġharm",
        -9.972603301349729
      ],
      [
        "ĠAfrica",
        -9.972817878046456
      ],
      [
        "Ġlearned",
        -9.97314998941296
      ],
      [
        "Ġhour",
        -9.973294107411952
      ],
      [
        "Our",
        -9.974194965975148
      ],
      [
        "car",
        -9.974537480713282
      ],
      [
        "Ġnice",
        -9.974748513061355
      ],
      [
        "mber",
        -9.974888387267796
      ],
      [
        "ature",
        -9.975889051572942
      ],
      [
        "ĠService",
        -9.976373833504509
      ],
      [
        "ĠEducation",
        -9.97637386754258
      ],
      [
        "Ġeventual",
        -9.976464207472436
      ],
      [
        "Ġmold",
        -9.976716292240326
      ],
      [
        "Ġchemicals",
        -9.977274616993384
      ],
      [
        "Ġsession",
        -9.97801076675858
      ],
      [
        "tar",
        -9.978695639787784
      ],
      [
        "aging",
        -9.978769312079216
      ],
      [
        "Ġfinding",
        -9.978878865617498
      ],
      [
        "Ġartist",
        -9.978922529343617
      ],
      [
        "Ġexamples",
        -9.979541102743225
      ],
      [
        "pol",
        -9.97963482386259
      ],
      [
        "Ġstraight",
        -9.979645701148437
      ],
      [
        "Ġsites",
        -9.979801617304396
      ],
      [
        "Ġwheel",
        -9.979934118460887
      ],
      [
        "upon",
        -9.981180102855244
      ],
      [
        "Ġperspective",
        -9.981283817983458
      ],
      [
        "Ġoptimal",
        -9.98128519490364
      ],
      [
        "ically",
        -9.98184586042906
      ],
      [
        "Ġtax",
        -9.982750637107843
      ],
      [
        "Ġchocolate",
        -9.98292585397462
      ],
      [
        "serv",
        -9.984400188499643
      ],
      [
        "Ġpipe",
        -9.985387083443303
      ],
      [
        "Ġcreative",
        -9.98582398015652
      ],
      [
        "ĺ",
        -9.986218034544738
      ],
      [
        "Ġhundred",
        -9.986218053237668
      ],
      [
        "ĠNi",
        -9.986448757490642
      ],
      [
        "Ġthreat",
        -9.987348469003935
      ],
      [
        "ood",
        -9.98859596188008
      ],
      [
        "Ġobserv",
        -9.989108126086608
      ],
      [
        "which",
        -9.989352972712515
      ],
      [
        "After",
        -9.989377453275951
      ],
      [
        "Ġschedule",
        -9.9895211210121
      ],
      [
        "Ġtypical",
        -9.989617108237898
      ],
      [
        "script",
        -9.9896871460804
      ],
      [
        "Ġdivide",
        -9.989765683420115
      ],
      [
        "del",
        -9.990339763314102
      ],
      [
        "Ġexternal",
        -9.991176749384708
      ],
      [
        "Ġearlie",
        -9.993248716053102
      ],
      [
        "Ġcapabilit",
        -9.99347504535686
      ],
      [
        "Ġcomprehensive",
        -9.994629578666055
      ],
      [
        "ĠLu",
        -9.996302143619683
      ],
      [
        "Ġbiological",
        -9.996925222487274
      ],
      [
        "related",
        -9.99740904017606
      ],
      [
        "ĠTherefor",
        -9.997737946510206
      ],
      [
        "Ġbrush",
        -9.998186581715752
      ],
      [
        "Ġvirtual",
        -9.999496236281416
      ],
      [
        "ĠDon",
        -9.999627422136202
      ],
      [
        "ON",
        -10.00037578625146
      ],
      [
        "Ġmeasur",
        -10.000545994237704
      ],
      [
        "PA",
        -10.000548391720276
      ],
      [
        "Ġcustomers",
        -10.00059129937964
      ],
      [
        "Ġtru",
        -10.000718864591931
      ],
      [
        "immediately",
        -10.000855359000788
      ],
      [
        "ĠDis",
        -10.000858434664192
      ],
      [
        "ĠProgram",
        -10.001315477821407
      ],
      [
        "tur",
        -10.002636779292391
      ],
      [
        "Ġmanual",
        -10.002887362624964
      ],
      [
        "Ġparameter",
        -10.004580289115506
      ],
      [
        "cro",
        -10.005236213060853
      ],
      [
        "Ġsmell",
        -10.006326443958333
      ],
      [
        "ker",
        -10.006441326919044
      ],
      [
        "Ġinstructions",
        -10.006637241101188
      ],
      [
        "that",
        -10.006969826051137
      ],
      [
        "Ġbas",
        -10.007095321123684
      ],
      [
        "NO",
        -10.007888730203122
      ],
      [
        "Ġraw",
        -10.0079247424924
      ],
      [
        "Ġsurger",
        -10.008003942468823
      ],
      [
        "Ġtrade",
        -10.008600470048822
      ],
      [
        "Ġtrigger",
        -10.00957227758213
      ],
      [
        "wood",
        -10.010512213499236
      ],
      [
        "Ġoffice",
        -10.011137141263564
      ],
      [
        "PT",
        -10.01180516911352
      ],
      [
        "Ġportion",
        -10.013024187537887
      ],
      [
        "Ġedge",
        -10.01390008140404
      ],
      [
        "ĠEl",
        -10.013907524455286
      ],
      [
        "Ġtea",
        -10.014136916840728
      ],
      [
        "visible",
        -10.015293578241232
      ],
      [
        "ĠJo",
        -10.015676600975787
      ],
      [
        "ians",
        -10.015796765193452
      ],
      [
        "Ġreceived",
        -10.016226028679268
      ],
      [
        "Ġatmosphere",
        -10.01634583665006
      ],
      [
        "Ġsport",
        -10.017842378506373
      ],
      [
        "Ġnumero",
        -10.01838411397695
      ],
      [
        "Ġteacher",
        -10.019505236402926
      ],
      [
        "Ġallerg",
        -10.019523120993767
      ],
      [
        "ĠCat",
        -10.019749275379771
      ],
      [
        "Ġfossil",
        -10.0197511458883
      ],
      [
        "Ġreliabl",
        -10.01980368175316
      ],
      [
        "Ġcharacter",
        -10.02066284984847
      ],
      [
        "Ġvariation",
        -10.02145681795948
      ],
      [
        "Ġcoat",
        -10.02195753185404
      ],
      [
        "Ġstrain",
        -10.02288927870655
      ],
      [
        "Ġratio",
        -10.02305528474658
      ],
      [
        "ĠYork",
        -10.023177604617374
      ],
      [
        "Ġvalve",
        -10.023222069733588
      ],
      [
        "Ġdirt",
        -10.023256653653704
      ],
      [
        "Ġfailure",
        -10.023352134446805
      ],
      [
        "Ġadvis",
        -10.024879972298644
      ],
      [
        "Ġblade",
        -10.024935697979556
      ],
      [
        "ĠEurope",
        -10.025621968866954
      ],
      [
        "fully",
        -10.026455048231336
      ],
      [
        "Ġsounds",
        -10.026574467262948
      ],
      [
        "@",
        -10.026593568482244
      ],
      [
        "Ġhydrogen",
        -10.026712891961886
      ],
      [
        "Ġdimension",
        -10.030033025624263
      ],
      [
        "ĠâĢ¢",
        -10.031253024128516
      ],
      [
        "Ġwash",
        -10.031711635513666
      ],
      [
        "rush",
        -10.031766564273209
      ],
      [
        "Ġbutton",
        -10.032244425162943
      ],
      [
        "Ġpen",
        -10.032251843967224
      ],
      [
        "Ġplaces",
        -10.03245353023623
      ],
      [
        "rig",
        -10.033394314095933
      ],
      [
        "Ġclassroom",
        -10.033590528713024
      ],
      [
        "ĠWell",
        -10.033694791295405
      ],
      [
        "Ġplug",
        -10.033754536080622
      ],
      [
        "Ġmaster",
        -10.033874170862925
      ],
      [
        "Ġconclusion",
        -10.037046637642266
      ],
      [
        "Ġchalleng",
        -10.037069705634831
      ],
      [
        "sol",
        -10.037399799156177
      ],
      [
        "Ġparticipat",
        -10.037435866517551
      ],
      [
        "Ġgraph",
        -10.037446103299256
      ],
      [
        "Ġraise",
        -10.038151035278624
      ],
      [
        "Ġgoals",
        -10.038339261256198
      ],
      [
        "ĠAustralia",
        -10.038345702252784
      ],
      [
        "Ġbreast",
        -10.038684577254855
      ],
      [
        "ING",
        -10.038714781295766
      ],
      [
        "EN",
        -10.038758522225208
      ],
      [
        "ĠPri",
        -10.039111273359064
      ],
      [
        "Ġpara",
        -10.03945719869367
      ],
      [
        "Ġim",
        -10.040443254856624
      ],
      [
        "lov",
        -10.0405556599291
      ],
      [
        "Ġzone",
        -10.040572622766716
      ],
      [
        "stock",
        -10.040688780642936
      ],
      [
        "Ġestimate",
        -10.04185497958692
      ],
      [
        "Ġmorning",
        -10.042168432300002
      ],
      [
        "stro",
        -10.04224479136343
      ],
      [
        "with",
        -10.042940516066896
      ],
      [
        "Ġpack",
        -10.04385009565416
      ],
      [
        "Ġoperate",
        -10.04441159619904
      ],
      [
        "Ġclasses",
        -10.04534507692329
      ],
      [
        "Ġcorn",
        -10.045653565444717
      ],
      [
        "Ġbottle",
        -10.045660328128658
      ],
      [
        "Ġclient",
        -10.045802070791826
      ],
      [
        "dding",
        -10.045876216304483
      ],
      [
        "Ġpolicy",
        -10.04741120785323
      ],
      [
        "hol",
        -10.048466632408523
      ],
      [
        "Ġofficial",
        -10.049166170424584
      ],
      [
        "ĠPeople",
        -10.049279420077903
      ],
      [
        "take",
        -10.05004939770693
      ],
      [
        "ĠGreat",
        -10.050148251945124
      ],
      [
        "win",
        -10.050569396813238
      ],
      [
        "kept",
        -10.050589949540528
      ],
      [
        "Ġcake",
        -10.051023540202342
      ],
      [
        "Ġlayers",
        -10.05116182910087
      ],
      [
        "Ġartificial",
        -10.051271507842406
      ],
      [
        "Ġplanting",
        -10.05133592593101
      ],
      [
        "Ġinvestment",
        -10.051567935376635
      ],
      [
        "Ġwanted",
        -10.052036250120546
      ],
      [
        "ĠFish",
        -10.052046338749332
      ],
      [
        "Ġopt",
        -10.052251002862686
      ],
      [
        "Ġhelpful",
        -10.05259846004672
      ],
      [
        "Ġindustrial",
        -10.052681998406648
      ],
      [
        "Ġcloud",
        -10.05269815805456
      ],
      [
        "Ġradio",
        -10.052917225585665
      ],
      [
        "Ex",
        -10.053027920200469
      ],
      [
        "Ġconcrete",
        -10.05444566805337
      ],
      [
        "Ġreduction",
        -10.054801535057534
      ],
      [
        "Ġrace",
        -10.05489622177755
      ],
      [
        "Answer",
        -10.055809139789806
      ],
      [
        "ĠEvery",
        -10.056018684404002
      ],
      [
        "Ġupper",
        -10.056185933824246
      ],
      [
        "Â·",
        -10.05622042371694
      ],
      [
        "Ġblend",
        -10.056249709942936
      ],
      [
        "Ġshark",
        -10.05638617697538
      ],
      [
        "Ġexamine",
        -10.057036068636114
      ],
      [
        "Ġdistinct",
        -10.057340126732084
      ],
      [
        "AS",
        -10.057425565062136
      ],
      [
        "Ġstorie",
        -10.05794982899146
      ],
      [
        "ĠRead",
        -10.05804458479902
      ],
      [
        "ney",
        -10.058233292607836
      ],
      [
        "Ġstandards",
        -10.058596598828265
      ],
      [
        "met",
        -10.05932673591352
      ],
      [
        "Ġwalls",
        -10.06018821277449
      ],
      [
        "itation",
        -10.06120088060614
      ],
      [
        "Ġchannel",
        -10.061531655805643
      ],
      [
        "Ġsuffer",
        -10.061711642664866
      ],
      [
        "Ġchanged",
        -10.062773111883104
      ],
      [
        "Ġbill",
        -10.063282658967086
      ],
      [
        "Ġharvest",
        -10.063311122180604
      ],
      [
        "Ġvector",
        -10.063311180120577
      ],
      [
        "Ġcredit",
        -10.063331791579603
      ],
      [
        "Ġimprovement",
        -10.063457271544888
      ],
      [
        "?\"",
        -10.063521394406097
      ],
      [
        "Ġdetailed",
        -10.06361776528312
      ],
      [
        "Ġconstruct",
        -10.063866048433482
      ],
      [
        "Ġowners",
        -10.06449226984239
      ],
      [
        "def",
        -10.064533420882237
      ],
      [
        "Ġdress",
        -10.06513413950335
      ],
      [
        "Ġpool",
        -10.06523344917943
      ],
      [
        "My",
        -10.066201642312675
      ],
      [
        "Ġexperiences",
        -10.067458649499244
      ],
      [
        "Ġdigest",
        -10.067461157469229
      ],
      [
        "ĠpH",
        -10.06750791529161
      ],
      [
        "ories",
        -10.06822103131552
      ],
      [
        "ĠRNA",
        -10.06835533016087
      ],
      [
        "Ġprior",
        -10.068908997282588
      ],
      [
        "Ġship",
        -10.069708843692144
      ],
      [
        "han",
        -10.070686462553953
      ],
      [
        "itch",
        -10.071041100259006
      ],
      [
        "tric",
        -10.071096782528793
      ],
      [
        "Ġbatteries",
        -10.07225605171737
      ],
      [
        "Ġsecret",
        -10.072261615705507
      ],
      [
        "Ġlaunch",
        -10.07227541926028
      ],
      [
        "Ġcarefully",
        -10.07262254997796
      ],
      [
        "Ġcultural",
        -10.072639792134186
      ],
      [
        "Ġmagnetic",
        -10.072674348609755
      ],
      [
        "ken",
        -10.072908681900511
      ],
      [
        "Ġcareer",
        -10.072969075576392
      ],
      [
        "Ġhydro",
        -10.073864355194374
      ],
      [
        "ĠCu",
        -10.07522254723884
      ],
      [
        "Ġedit",
        -10.07583592102582
      ],
      [
        "Ġyield",
        -10.075855937800492
      ],
      [
        "Ġtechnical",
        -10.07585630369572
      ],
      [
        "Ġcontrast",
        -10.075856589359892
      ],
      [
        "Ġillness",
        -10.07596234747907
      ],
      [
        "ĠAdd",
        -10.075992346203655
      ],
      [
        "rum",
        -10.076341383764603
      ],
      [
        "Ġformation",
        -10.07643446535446
      ],
      [
        "Ġcreature",
        -10.076446394746837
      ],
      [
        "nel",
        -10.077024018600458
      ],
      [
        "Ġdiscussion",
        -10.078517992090797
      ],
      [
        "Use",
        -10.07888662082461
      ],
      [
        "Ġquant",
        -10.079283988948324
      ],
      [
        "Ġcorner",
        -10.079311047393691
      ],
      [
        "Ġdiagram",
        -10.079474587979002
      ],
      [
        "Ġcontinuous",
        -10.079480491995913
      ],
      [
        "Ġfirm",
        -10.079544748643553
      ],
      [
        "Ġchip",
        -10.07996503539058
      ],
      [
        "âĢĻt",
        -10.080966957448227
      ],
      [
        "Ġcreation",
        -10.081251006823328
      ],
      [
        "ĠApp",
        -10.081451383077187
      ],
      [
        "Ġemail",
        -10.081671628933224
      ],
      [
        "-being",
        -10.081914663287025
      ],
      [
        "gel",
        -10.082512308956282
      ],
      [
        "mel",
        -10.08263580280518
      ],
      [
        "Ġwa",
        -10.08275749042581
      ],
      [
        "Ġsaving",
        -10.08310561068895
      ],
      [
        "Ġsector",
        -10.08310892584328
      ],
      [
        "Ġlake",
        -10.083503808802664
      ],
      [
        "Ġimproved",
        -10.083784695065829
      ],
      [
        "CT",
        -10.08474507457224
      ],
      [
        "Ġgather",
        -10.084925967902509
      ],
      [
        "Ġmountain",
        -10.084940233919854
      ],
      [
        "Ġbank",
        -10.085023624054092
      ],
      [
        "Ġdur",
        -10.08551670551605
      ],
      [
        "UN",
        -10.085639325985088
      ],
      [
        "Ġport",
        -10.08636577132193
      ],
      [
        "Ġinterface",
        -10.086823724733245
      ],
      [
        "Ġemployee",
        -10.086841875153109
      ],
      [
        "urge",
        -10.08721150608604
      ],
      [
        "Ġscar",
        -10.087273119479438
      ],
      [
        "ĠPlan",
        -10.087388908069835
      ],
      [
        "Ġoffering",
        -10.088159006694196
      ],
      [
        "pri",
        -10.08838532877632
      ],
      [
        "ĠWork",
        -10.088458439707033
      ],
      [
        "Ġseat",
        -10.089338016039456
      ],
      [
        "Ġbroke",
        -10.090995551430364
      ],
      [
        "Ġadopt",
        -10.091152222412951
      ],
      [
        "Ġwor",
        -10.091586786662363
      ],
      [
        "Ġstrategy",
        -10.09221993177846
      ],
      [
        "Ġsouth",
        -10.092261145448656
      ],
      [
        "Ġinteract",
        -10.092493105271492
      ],
      [
        "Ġremoved",
        -10.09267090557559
      ],
      [
        "lam",
        -10.09294495120357
      ],
      [
        "Le",
        -10.09357452040588
      ],
      [
        "zz",
        -10.093618818244618
      ],
      [
        "Ġupdate",
        -10.093727588112024
      ],
      [
        "Ġgirl",
        -10.09405485102146
      ],
      [
        "Ġquantit",
        -10.094173328561844
      ],
      [
        "Ġnamed",
        -10.094521798758596
      ],
      [
        "Ġagree",
        -10.095370286946968
      ],
      [
        "Thank",
        -10.09543943600822
      ],
      [
        "AD",
        -10.095524460553474
      ],
      [
        "tech",
        -10.095573994121576
      ],
      [
        "Ġparticipant",
        -10.09589302917005
      ],
      [
        "Ġcalculate",
        -10.095897185167871
      ],
      [
        "Ġerror",
        -10.095938538717476
      ],
      [
        "Most",
        -10.096101762766512
      ],
      [
        "Ġcor",
        -10.096183732401713
      ],
      [
        "uary",
        -10.097044178843106
      ],
      [
        "Ġeconom",
        -10.097159690744878
      ],
      [
        "Ġsit",
        -10.097222952838662
      ],
      [
        "Ġfindings",
        -10.09755654758692
      ],
      [
        "Ġshared",
        -10.097727699886835
      ],
      [
        "Ġcream",
        -10.09774742797232
      ],
      [
        "Ġlaser",
        -10.09812597819626
      ],
      [
        "Ġprimari",
        -10.098618927509689
      ],
      [
        "ologist",
        -10.098745270681407
      ],
      [
        "Ġcraft",
        -10.098957658504794
      ],
      [
        "Ġwin",
        -10.100088683692409
      ],
      [
        "Ġstrip",
        -10.100400953153358
      ],
      [
        "ĠPower",
        -10.100715781246606
      ],
      [
        "Ġeducational",
        -10.1008028814517
      ],
      [
        "ĠLife",
        -10.10097544672957
      ],
      [
        "Ġkitchen",
        -10.101428577467251
      ],
      [
        "Ġlung",
        -10.101766444414356
      ],
      [
        "Ġcounter",
        -10.102288903883776
      ],
      [
        "ĠCol",
        -10.102341116351248
      ],
      [
        "weight",
        -10.10249870035362
      ],
      [
        "Ġoperations",
        -10.103110762904944
      ],
      [
        "Ġcalci",
        -10.103174556895128
      ],
      [
        "-year",
        -10.103285485337835
      ],
      [
        "ball",
        -10.103495205940431
      ],
      [
        "Ġdish",
        -10.103564557667422
      ],
      [
        "Ġguid",
        -10.10383119503559
      ],
      [
        "Ġsolve",
        -10.10429330789009
      ],
      [
        "Ġcast",
        -10.10525544927125
      ],
      [
        "ĠSpec",
        -10.105363276457398
      ],
      [
        "Ġemotion",
        -10.105432086689076
      ],
      [
        "Ġengineering",
        -10.106792795770158
      ],
      [
        "Ġjournal",
        -10.106993973707135
      ],
      [
        "told",
        -10.10809089119801
      ],
      [
        "/or",
        -10.10847000104332
      ],
      [
        "Ġorganisms",
        -10.10910123185526
      ],
      [
        "uk",
        -10.109845089236773
      ],
      [
        "ĠChe",
        -10.110270383321248
      ],
      [
        "Ġhistorical",
        -10.110385365838978
      ],
      [
        "cap",
        -10.11054376218552
      ],
      [
        "Ġstomach",
        -10.110721867427204
      ],
      [
        "Ġscene",
        -10.110742261294767
      ],
      [
        "ctober",
        -10.11079305909383
      ],
      [
        "Ġthrow",
        -10.11080722766419
      ],
      [
        "place",
        -10.110874516666325
      ],
      [
        "Creat",
        -10.111339521297108
      ],
      [
        "Ġlighting",
        -10.11134564075478
      ],
      [
        "rot",
        -10.112053312766577
      ],
      [
        "Fin",
        -10.11336657311908
      ],
      [
        "pur",
        -10.11353286237054
      ],
      [
        "Ġaudio",
        -10.113665853593789
      ],
      [
        "lim",
        -10.113702572801609
      ],
      [
        "ender",
        -10.115592542593708
      ],
      [
        "mate",
        -10.115674202974413
      ],
      [
        "ably",
        -10.11670474513074
      ],
      [
        "Ġimprov",
        -10.11686013808363
      ],
      [
        "Ġpoly",
        -10.117316632823982
      ],
      [
        "Ġtoxic",
        -10.117402672324111
      ],
      [
        "Ġenzyme",
        -10.118219531477456
      ],
      [
        "Ġobvious",
        -10.11821953199822
      ],
      [
        "Ġflood",
        -10.118327322676944
      ],
      [
        ".[",
        -10.118373951747598
      ],
      [
        "-p",
        -10.118618700911346
      ],
      [
        "capable",
        -10.118656749160907
      ],
      [
        "Ġinteractions",
        -10.11917670850974
      ],
      [
        "Ġaware",
        -10.1194916725438
      ],
      [
        "General",
        -10.119659689296116
      ],
      [
        "Ġtalking",
        -10.120082254890583
      ],
      [
        "teen",
        -10.120456061161716
      ],
      [
        "AC",
        -10.121812064775126
      ],
      [
        "Ġuniverse",
        -10.121994201973015
      ],
      [
        "Ġancient",
        -10.121997272926494
      ],
      [
        "Ġdedicat",
        -10.122022309494778
      ],
      [
        "Ġreact",
        -10.12230498950052
      ],
      [
        "load",
        -10.122474854064938
      ],
      [
        "Ġstatement",
        -10.122816835804803
      ],
      [
        "Ġfear",
        -10.123202857063037
      ],
      [
        "ĠHis",
        -10.123839938357149
      ],
      [
        "Ġbeneficial",
        -10.123879922237045
      ],
      [
        "ĠKeep",
        -10.124501038218115
      ],
      [
        "metric",
        -10.125086283094834
      ],
      [
        "Many",
        -10.12514535551081
      ],
      [
        "Ġultimate",
        -10.125773862581909
      ],
      [
        "Ġevolve",
        -10.125774934531975
      ],
      [
        "Ġprepared",
        -10.125785669523797
      ],
      [
        "Ġshowed",
        -10.126837607786904
      ],
      [
        "Ġfacilit",
        -10.127052656551164
      ],
      [
        "cat",
        -10.127144322228505
      ],
      [
        "Ġlay",
        -10.127294844911493
      ],
      [
        "Ġlift",
        -10.128781051226836
      ],
      [
        "Ġthorough",
        -10.129572584360904
      ],
      [
        "Ġengage",
        -10.129700927473523
      ],
      [
        "latest",
        -10.129907403278668
      ],
      [
        "inter",
        -10.130040847808104
      ],
      [
        "ĠDoes",
        -10.130681680324152
      ],
      [
        "Ġdioxide",
        -10.131619514321146
      ],
      [
        "Ġgrain",
        -10.131648960850743
      ],
      [
        "Ġharmful",
        -10.1316993551762
      ],
      [
        "Ġobservation",
        -10.131982205883777
      ],
      [
        "Are",
        -10.132367163925332
      ],
      [
        "Ġrot",
        -10.13297592504978
      ],
      [
        "wer",
        -10.132983358278356
      ],
      [
        "uel",
        -10.133159048305682
      ],
      [
        "Dr",
        -10.133511586425586
      ],
      [
        "logical",
        -10.13413448129274
      ],
      [
        "Ġgenerator",
        -10.134824044228026
      ],
      [
        "graph",
        -10.134908447119267
      ],
      [
        "ĠMarch",
        -10.135145497821584
      ],
      [
        "La",
        -10.135815728492888
      ],
      [
        "room",
        -10.135942648846603
      ],
      [
        "ĠKi",
        -10.135948275467344
      ],
      [
        "AP",
        -10.136260489511407
      ],
      [
        "Ġauto",
        -10.136323672373464
      ],
      [
        "bot",
        -10.136827584905934
      ],
      [
        "Ġhospital",
        -10.137213449293943
      ],
      [
        "-quality",
        -10.137213476108672
      ],
      [
        "Ġnorth",
        -10.137277133384863
      ],
      [
        "cious",
        -10.138346074157711
      ],
      [
        "Ġinstrument",
        -10.139133370443838
      ],
      [
        "Ġcable",
        -10.139153796598894
      ],
      [
        "ĠAfrican",
        -10.139482430240502
      ],
      [
        "Ġbite",
        -10.139946405097238
      ],
      [
        "Ġisland",
        -10.140134996961727
      ],
      [
        "referred",
        -10.1405978813183
      ],
      [
        "Ġmeeting",
        -10.141058919668932
      ],
      [
        "Ġexplor",
        -10.141362940259423
      ],
      [
        "Ġnation",
        -10.141409806488715
      ],
      [
        "Ġestimated",
        -10.1417907201462
      ],
      [
        "Ġfiles",
        -10.14203650949343
      ],
      [
        "Ġnutrition",
        -10.142342202116788
      ],
      [
        "Ġconversation",
        -10.142982841867925
      ],
      [
        "Ġprompt",
        -10.142986983640409
      ],
      [
        "Ġconsideration",
        -10.144152509439046
      ],
      [
        "Ġopinion",
        -10.144914512307937
      ],
      [
        "Ġtransmission",
        -10.144950562215543
      ],
      [
        "Ġdefinition",
        -10.144978409013916
      ],
      [
        "Ġstring",
        -10.145032526729274
      ],
      [
        "cla",
        -10.145378870841707
      ],
      [
        "Yes",
        -10.146186472219243
      ],
      [
        "Ġhelping",
        -10.146267632262852
      ],
      [
        "Ġbutter",
        -10.14630879373678
      ],
      [
        "Ġsold",
        -10.14661112813742
      ],
      [
        "Ġrealize",
        -10.148245601094525
      ],
      [
        "Ġprepare",
        -10.148421828552424
      ],
      [
        "Ġalter",
        -10.14870345569915
      ],
      [
        "Ġfundamental",
        -10.148785580688577
      ],
      [
        "Ġindoor",
        -10.1487958136865
      ],
      [
        "Ġbaking",
        -10.148826981144197
      ],
      [
        "Ġheal",
        -10.1488481782207
      ],
      [
        "tell",
        -10.148920223419594
      ],
      [
        "Ġpop",
        -10.149209909978582
      ],
      [
        "Your",
        -10.149850246830756
      ],
      [
        "PS",
        -10.150254444197902
      ],
      [
        "Ġunits",
        -10.151444470421998
      ],
      [
        "]Ċ",
        -10.15168693916284
      ],
      [
        "stone",
        -10.152386832611384
      ],
      [
        "Ġconsequence",
        -10.152672689335173
      ],
      [
        "Ġconfirm",
        -10.152672905817624
      ],
      [
        "ĠBritish",
        -10.152674135994236
      ],
      [
        "Ġthread",
        -10.152714273311286
      ],
      [
        "Ġdatabase",
        -10.152809122655444
      ],
      [
        "Ġobtain",
        -10.153768744696094
      ],
      [
        "lines",
        -10.15437367109988
      ],
      [
        "ink",
        -10.155204077302024
      ],
      [
        "aught",
        -10.155315781466712
      ],
      [
        "ĠBlack",
        -10.155927958056512
      ],
      [
        "Ġattend",
        -10.156700833569252
      ],
      [
        "ĠDu",
        -10.157212004939058
      ],
      [
        "Ġintend",
        -10.157236623640827
      ],
      [
        "Ġdecisions",
        -10.15730353142414
      ],
      [
        "ĠLike",
        -10.157342511073171
      ],
      [
        "chin",
        -10.157534093360209
      ],
      [
        "Ġtooth",
        -10.157900935190224
      ],
      [
        "ense",
        -10.157931895497049
      ],
      [
        "°",
        -10.158474676893714
      ],
      [
        "´",
        -10.158532079235858
      ],
      [
        "Ġchoosing",
        -10.158532275177103
      ],
      [
        "Ġamazing",
        -10.158532612764116
      ],
      [
        "Ġvessel",
        -10.158533531270251
      ],
      [
        "Â±",
        -10.158556887276529
      ],
      [
        "put",
        -10.158643078668934
      ],
      [
        "Ġguidelines",
        -10.1586626417577
      ],
      [
        "ĠHer",
        -10.158702290306827
      ],
      [
        "Ġplent",
        -10.159073497888
      ],
      [
        "CS",
        -10.160052112111998
      ],
      [
        "Ġeight",
        -10.160354879412594
      ],
      [
        "Ġagent",
        -10.160696670393094
      ],
      [
        "name",
        -10.160927413228393
      ],
      [
        "star",
        -10.161055569287576
      ],
      [
        "Ġsum",
        -10.162355806800749
      ],
      [
        "Ġsunlight",
        -10.162696137834644
      ],
      [
        "Ġreward",
        -10.162806471207626
      ],
      [
        "Ġorganiz",
        -10.162893216072954
      ],
      [
        "Ġbat",
        -10.163303962046294
      ],
      [
        "nstead",
        -10.163511229339925
      ],
      [
        "âĢĭ",
        -10.164426005074471
      ],
      [
        "ram",
        -10.164912627138085
      ],
      [
        "rus",
        -10.16513389473171
      ],
      [
        "Ġpropose",
        -10.165276772780553
      ],
      [
        "Ġwaves",
        -10.165727326777889
      ],
      [
        "Ġcomposition",
        -10.166494271433692
      ],
      [
        "ĠRed",
        -10.167833928474586
      ],
      [
        "US",
        -10.168337674531116
      ],
      [
        "Ġpregnanc",
        -10.168374682315
      ],
      [
        "Ġgift",
        -10.168379135735066
      ],
      [
        "ĠBi",
        -10.169901252355023
      ],
      [
        "Let",
        -10.16996009039239
      ],
      [
        "ache",
        -10.170171199792886
      ],
      [
        "Ġinnovation",
        -10.17036389684705
      ],
      [
        "pin",
        -10.170718952816632
      ],
      [
        "Ġoccurr",
        -10.172184686029109
      ],
      [
        "lum",
        -10.172206028347478
      ],
      [
        "Ġextract",
        -10.17336205641691
      ],
      [
        "Ġorganizations",
        -10.17395707635356
      ],
      [
        "eel",
        -10.173971526381704
      ],
      [
        "-time",
        -10.174076879707572
      ],
      [
        "Ġjump",
        -10.174334975985898
      ],
      [
        "Ġwish",
        -10.174623998528968
      ],
      [
        "RA",
        -10.175102690774596
      ],
      [
        "Ġcurve",
        -10.17574296618642
      ],
      [
        "Ġmammal",
        -10.176319978628634
      ],
      [
        "Ġseven",
        -10.17652478114858
      ],
      [
        "ĠTake",
        -10.176528320834574
      ],
      [
        "Ġstroke",
        -10.177396764517852
      ],
      [
        "Note",
        -10.17751668440948
      ],
      [
        "rack",
        -10.177630533133502
      ],
      [
        "Ġdrugs",
        -10.177733553337331
      ],
      [
        "loc",
        -10.17782313064366
      ],
      [
        "Ġcomput",
        -10.178283227436392
      ],
      [
        "Ġantibiotic",
        -10.178380304190046
      ],
      [
        "Ġparticle",
        -10.178495691667736
      ],
      [
        "Ġradiation",
        -10.178622157000907
      ],
      [
        "Ġproduc",
        -10.178941509297502
      ],
      [
        "Ġassume",
        -10.179121010999706
      ],
      [
        "ĠFurther",
        -10.1791671578086
      ],
      [
        "ough",
        -10.17963290111468
      ],
      [
        "Ġoven",
        -10.180613713871615
      ],
      [
        "Ġcrack",
        -10.180617084245878
      ],
      [
        "Ġletter",
        -10.180859948242954
      ],
      [
        "hose",
        -10.181075185110918
      ],
      [
        "Ġautomatic",
        -10.1813613449449
      ],
      [
        "Ġborn",
        -10.181547714511552
      ],
      [
        "ĠIndian",
        -10.182792252729543
      ],
      [
        "ulation",
        -10.183588051299344
      ],
      [
        "MO",
        -10.183748387746594
      ],
      [
        "ban",
        -10.184675661734955
      ],
      [
        "Ġmajority",
        -10.184682607055828
      ],
      [
        "ĠFr",
        -10.18477973010492
      ],
      [
        "Th",
        -10.184965608326316
      ],
      [
        "get",
        -10.185142132158669
      ],
      [
        "ational",
        -10.185470612870176
      ],
      [
        "SO",
        -10.18553757807824
      ],
      [
        "Ġtraffic",
        -10.186339225776925
      ],
      [
        "Ġfunctional",
        -10.18696224607556
      ],
      [
        "Ġinfect",
        -10.187024043274272
      ],
      [
        "Ġspecializ",
        -10.18768325471158
      ],
      [
        "pod",
        -10.187750790146277
      ],
      [
        "jo",
        -10.187930822317966
      ],
      [
        "Ġintroduc",
        -10.188059696993657
      ],
      [
        "ĠPC",
        -10.188185165135875
      ],
      [
        "Ġprivate",
        -10.188405267193174
      ],
      [
        "Ġawareness",
        -10.18874651236839
      ],
      [
        "bol",
        -10.189853547797632
      ],
      [
        "Ġfields",
        -10.191127538793763
      ],
      [
        "Ġdistribut",
        -10.191236518768829
      ],
      [
        "ĠBio",
        -10.191513045662832
      ],
      [
        "Ġpar",
        -10.191583498671369
      ],
      [
        "Ġstation",
        -10.191757269804704
      ],
      [
        "Ġcoffee",
        -10.192399860618268
      ],
      [
        "Ġanxiet",
        -10.192587654446257
      ],
      [
        "Ġexam",
        -10.192965756823478
      ],
      [
        "Ġlarges",
        -10.19409187709392
      ],
      [
        "ĠGra",
        -10.19412716296702
      ],
      [
        "cher",
        -10.19413846367705
      ],
      [
        "Ġgrown",
        -10.19435121227844
      ],
      [
        "Ġabsolute",
        -10.194428244419653
      ],
      [
        "ĠSw",
        -10.194575981057495
      ],
      [
        "Ġdomain",
        -10.194960355495574
      ],
      [
        "test",
        -10.195097258566744
      ],
      [
        "hood",
        -10.195798981277576
      ],
      [
        "Ġformat",
        -10.195825307738453
      ],
      [
        "Ġrelevant",
        -10.196460765712995
      ],
      [
        "Ġapproximation",
        -10.1964607683093
      ],
      [
        "ators",
        -10.197078602579277
      ],
      [
        "sting",
        -10.198037128962634
      ],
      [
        "Ġextensive",
        -10.198497445181008
      ],
      [
        "Ġaircraft",
        -10.19870661344322
      ],
      [
        "stability",
        -10.19875126421973
      ],
      [
        "ility",
        -10.198849740235367
      ],
      [
        "Ġworse",
        -10.199418341310968
      ],
      [
        "Ġpreviously",
        -10.199701930893276
      ],
      [
        "Ġresponsibilit",
        -10.200538241910834
      ],
      [
        "ĠCanada",
        -10.200549397224332
      ],
      [
        "Ġboost",
        -10.200750072524924
      ],
      [
        "Ġtight",
        -10.20118685666398
      ],
      [
        "Ġdecide",
        -10.202064504619454
      ],
      [
        "Ġstretch",
        -10.202583262291656
      ],
      [
        "Ġinstallation",
        -10.20258990307505
      ],
      [
        "Ġhousehold",
        -10.202702975889895
      ],
      [
        "ĠHu",
        -10.20350921193824
      ],
      [
        "ĠSun",
        -10.203780192773136
      ],
      [
        "Ġpainting",
        -10.203968705588007
      ],
      [
        "ĠTime",
        -10.204259962883578
      ],
      [
        "Î",
        -10.20454733536812
      ],
      [
        "Ġincorporate",
        -10.204632411708108
      ],
      [
        "Ġprecise",
        -10.204632517311984
      ],
      [
        "ĠInternational",
        -10.204632599455628
      ],
      [
        "Ġloose",
        -10.20481854924559
      ],
      [
        "ground",
        -10.205051860353668
      ],
      [
        "bound",
        -10.206399954764482
      ],
      [
        "Ġleaving",
        -10.206685996850943
      ],
      [
        "Ġminimum",
        -10.206686949943462
      ],
      [
        "Ġmembrane",
        -10.207309105606726
      ],
      [
        "Ġtrap",
        -10.207626267445727
      ],
      [
        "Ġplane",
        -10.20907944805903
      ],
      [
        "Pre",
        -10.2091562999264
      ],
      [
        "pu",
        -10.209539371454676
      ],
      [
        "Ġdetermined",
        -10.2095993246482
      ],
      [
        "IV",
        -10.210580991412648
      ],
      [
        "Ġprofile",
        -10.21080623211952
      ],
      [
        "Ġcomparison",
        -10.210806496072482
      ],
      [
        "Ġintelligence",
        -10.210833664006106
      ],
      [
        "Conclusion",
        -10.211015308981864
      ],
      [
        "continu",
        -10.211025815392816
      ],
      [
        "you",
        -10.211546629795883
      ],
      [
        "IP",
        -10.211673026504322
      ],
      [
        "list",
        -10.211745423751102
      ],
      [
        "Ġfamiliar",
        -10.211975239536017
      ],
      [
        "ines",
        -10.21223742497054
      ],
      [
        "Ġversatil",
        -10.21287146610738
      ],
      [
        "Ġchronic",
        -10.212871490972669
      ],
      [
        "Ġprogramm",
        -10.213729119277517
      ],
      [
        "Ġheating",
        -10.214107670640216
      ],
      [
        "Ġdensit",
        -10.214286470394828
      ],
      [
        "Ġhunting",
        -10.214544937157084
      ],
      [
        "Ġwet",
        -10.21493764439738
      ],
      [
        "Ġfault",
        -10.214974920802138
      ],
      [
        "sharing",
        -10.2150594724098
      ],
      [
        "Ġsmart",
        -10.215121467604009
      ],
      [
        "Ġrotation",
        -10.21549450834676
      ],
      [
        "TH",
        -10.21653681924968
      ],
      [
        "Ġcars",
        -10.2173994897208
      ],
      [
        "Ġdelay",
        -10.217587433485535
      ],
      [
        "Ġcompost",
        -10.2176871321453
      ],
      [
        "Ġsaying",
        -10.217722979657747
      ],
      [
        "Ġturning",
        -10.219114912321324
      ],
      [
        "rim",
        -10.219801801158336
      ],
      [
        "RNA",
        -10.22036820375993
      ],
      [
        "ĠEast",
        -10.22050282234222
      ],
      [
        "ł",
        -10.221178801175988
      ],
      [
        "Ġdiagnose",
        -10.221178801302289
      ],
      [
        "ĠWal",
        -10.22133045781388
      ],
      [
        "Ġinternet",
        -10.221377026537336
      ],
      [
        "Ġtrick",
        -10.2219136433039
      ],
      [
        "ĠAct",
        -10.222941201255654
      ],
      [
        "imp",
        -10.223297518935398
      ],
      [
        "Ġopening",
        -10.223872495238428
      ],
      [
        "ĠUp",
        -10.224024224190964
      ],
      [
        "Ġclinical",
        -10.224209274094848
      ],
      [
        "Ġfur",
        -10.224372381263247
      ],
      [
        "Ġcustom",
        -10.224897490286398
      ],
      [
        "Ġforces",
        -10.225029202531648
      ],
      [
        "nov",
        -10.22503110178772
      ],
      [
        "Ġbeauty",
        -10.225358658764254
      ],
      [
        "PR",
        -10.22640617453117
      ],
      [
        "war",
        -10.226426490448908
      ],
      [
        "Ġdisorders",
        -10.226437119192688
      ],
      [
        "mph",
        -10.226919208209168
      ],
      [
        "cid",
        -10.226958156052572
      ],
      [
        "Ġcap",
        -10.227453758822598
      ],
      [
        "definitely",
        -10.2274557881505
      ],
      [
        "Ġurban",
        -10.227483706082907
      ],
      [
        "&",
        -10.2275977925982
      ],
      [
        "Ġexcessive",
        -10.22808916137904
      ],
      [
        "flow",
        -10.228168037768848
      ],
      [
        "ĠJa",
        -10.229988987114425
      ],
      [
        "Ġstable",
        -10.23001165565637
      ],
      [
        "Ġtail",
        -10.23005558717902
      ],
      [
        "ĠAm",
        -10.23102225257929
      ],
      [
        "Ġmat",
        -10.231193849614009
      ],
      [
        "rid",
        -10.231630006842977
      ],
      [
        "Ġcircle",
        -10.23171696064641
      ],
      [
        "Ġshoot",
        -10.232795719306049
      ],
      [
        "Ġfruits",
        -10.233115411204022
      ],
      [
        "ĠClass",
        -10.233380822099122
      ],
      [
        "Ġengineer",
        -10.233407195855513
      ],
      [
        "Ġboil",
        -10.233495490268892
      ],
      [
        "SS",
        -10.23492262183228
      ],
      [
        "mus",
        -10.235582578588874
      ],
      [
        "ĠChina",
        -10.23602318065388
      ],
      [
        "-S",
        -10.23717508260323
      ],
      [
        "Ġrice",
        -10.237705341908336
      ],
      [
        "Ġvaccine",
        -10.238003663596675
      ],
      [
        "Ġmatrix",
        -10.23800399963742
      ],
      [
        "Ġweigh",
        -10.238613623236834
      ],
      [
        "Ġappreciate",
        -10.240126729991465
      ],
      [
        "Ġpowder",
        -10.240126779355892
      ],
      [
        "Ġargument",
        -10.240126798183288
      ],
      [
        "Ġscratch",
        -10.240129924720284
      ],
      [
        "Ġderive",
        -10.2401697296048
      ],
      [
        "color",
        -10.240586683738089
      ],
      [
        "Ġinner",
        -10.241246489534882
      ],
      [
        "Ġpercentage",
        -10.241454963395949
      ],
      [
        "Ġexcess",
        -10.241615231617896
      ],
      [
        "ĠJune",
        -10.241860519711569
      ],
      [
        "pet",
        -10.24215865394177
      ],
      [
        "ĠTest",
        -10.242895918338997
      ],
      [
        "ological",
        -10.243379519676049
      ],
      [
        "los",
        -10.243991776100582
      ],
      [
        "Ġinteraction",
        -10.24460974822209
      ],
      [
        "Ġmission",
        -10.244791999922532
      ],
      [
        "Ġski",
        -10.245398975176046
      ],
      [
        "Ġguy",
        -10.245582592319945
      ],
      [
        "Ġvarie",
        -10.246305690889564
      ],
      [
        "Ġsensitive",
        -10.246600212371863
      ],
      [
        "Ġsituations",
        -10.247534906175796
      ],
      [
        "Ġindependent",
        -10.247762887472836
      ],
      [
        "Ġconsists",
        -10.24831737276191
      ],
      [
        "ĠControl",
        -10.248668548440694
      ],
      [
        "Ġdownload",
        -10.249093130952762
      ],
      [
        "var",
        -10.249951833507328
      ],
      [
        "Ġrandom",
        -10.250817268235664
      ],
      [
        "Ġmistake",
        -10.25088920891913
      ],
      [
        "Ġnerve",
        -10.250899512886816
      ],
      [
        "Ġchose",
        -10.251021897969968
      ],
      [
        "rine",
        -10.25113466413344
      ],
      [
        "Ġlock",
        -10.251172760916036
      ],
      [
        "Ġloop",
        -10.251265701527965
      ],
      [
        "Ġremov",
        -10.251289920686888
      ],
      [
        "zi",
        -10.25206822097697
      ],
      [
        "Ġnail",
        -10.253006232261557
      ],
      [
        "clo",
        -10.253011267479543
      ],
      [
        "oom",
        -10.253079002765109
      ],
      [
        "Ġdepression",
        -10.253231732127723
      ],
      [
        "face",
        -10.253271484712656
      ],
      [
        "Ġaffects",
        -10.25357854491281
      ],
      [
        "Ġrely",
        -10.253943090569404
      ],
      [
        "Ġregister",
        -10.255116302868345
      ],
      [
        "Ġconflict",
        -10.255116308945302
      ],
      [
        "Ġstatus",
        -10.255116375865288
      ],
      [
        "Ġsu",
        -10.255216267244476
      ],
      [
        "Ġmask",
        -10.25543102696229
      ],
      [
        "ĠFree",
        -10.255432284286748
      ],
      [
        "Ġspray",
        -10.255547212228045
      ],
      [
        "LA",
        -10.255713603318677
      ],
      [
        "Ġtall",
        -10.256254655686403
      ],
      [
        "Ġsew",
        -10.256701954929984
      ],
      [
        "see",
        -10.256917988625236
      ],
      [
        "Ġpounds",
        -10.257135034075684
      ],
      [
        "arian",
        -10.257211936240347
      ],
      [
        "Ġmill",
        -10.257274284712482
      ],
      [
        "Ġzero",
        -10.257283009992303
      ],
      [
        "Ġbra",
[...]
