{
  "version": "1.0",
  "truncation": null,
  "padding": null,
  "added_tokens": [
    {
      "id": 0,
      "content": "<|bos|>",
      "single_word": false,
      "lstrip": false,
      "rstrip": false,
      "normalized": false,
      "special": true
    },
    {
      "id": 1,
      "content": "<|user_start|>",
      "single_word": false,
      "lstrip": false,
      "rstrip": false,
      "normalized": false,
      "special": true
    },
    {
      "id": 2,
      "content": "<|user_end|>",
      "single_word": false,
      "lstrip": false,
      "rstrip": false,
      "normalized": false,
      "special": true
    },
    {
      "id": 3,
      "content": "<|assistant_start|>",
      "single_word": false,
      "lstrip": false,
      "rstrip": false,
      "normalized": false,
      "special": true
    },
    {
      "id": 4,
      "content": "<|assistant_end|>",
      "single_word": false,
      "lstrip": false,
      "rstrip": false,
      "normalized": false,
      "special": true
    },
    {
      "id": 5,
      "content": "<|python_start|>",
      "single_word": false,
      "lstrip": false,
      "rstrip": false,
      "normalized": false,
      "special": true
    },
    {
      "id": 6,
      "content": "<|python_end|>",
      "single_word": false,
      "lstrip": false,
      "rstrip": false,
      "normalized": false,
      "special": true
    },
    {
      "id": 7,
      "content": "<|output_start|>",
      "single_word": false,
      "lstrip": false,
      "rstrip": false,
      "normalized": false,
      "special": true
    },
    {
      "id": 8,
      "content": "<|output_end|>",
      "single_word": false,
      "lstrip": false,
      "rstrip": false,
      "normalized": false,
      "special": true
    },
    {
      "id": 9,
      "content": "<|unk|>",
      "single_word": false,
      "lstrip": false,
      "rstrip": false,
      "normalized": false,
      "special": true
    }
  ],
  "normalizer": null,
  "pre_tokenizer": {
    "type": "Sequence",
    "pretokenizers": [
      {
        "type": "Split",
        "pattern": {
          "Regex": "'(?i:[sdmt]|ll|ve|re)|[^\\r\\n\\p{L}\\p{N}]?+\\p{L}+|\\p{N}{1,2}| ?[^\\s\\p{L}\\p{N}]++[\\r\\n]*|\\s*[\\r\\n]|\\s+(?!\\S)|\\s+"
        },
        "behavior": "Isolated",
        "invert": false
      },
      {
        "type": "ByteLevel",
        "add_prefix_space": false,
        "trim_offsets": true,
        "use_regex": false
      }
    ]
  },
  "post_processor": {
    "type": "TemplateProcessing",
    "single": [
      {
        "Sequence": {
          "id": "A",
          "type_id": 0
        }
      }
    ],
    "pair": [
      {
        "Sequence": {
          "id": "A",
          "type_id": 0
        }
      },
      {
        "Sequence": {
          "id": "B",
          "type_id": 1
        }
      }
    ],
    "special_tokens": {}
  },
  "decoder": null,
  "model": {
    "type": "Unigram",
    "unk_id": 9,
    "vocab": [
      [
        "<|bos|>",
        0.0
      ],
      [
        "<|user_start|>",
        0.0
      ],
      [
        "<|user_end|>",
        0.0
      ],
      [
        "<|assistant_start|>",
        0.0
      ],
      [
        "<|assistant_end|>",
        0.0
      ],
      [
        "<|python_start|>",
        0.0
      ],
      [
        "<|python_end|>",
        0.0
      ],
      [
        "<|output_start|>",
        0.0
      ],
      [
        "<|output_end|>",
        0.0
      ],
      [
        "<|unk|>",
        0.0
      ],
      [
        "s",
        -3.1175732278878225
      ],
      [
        "Ġ",
        -3.18958546356618
      ],
      [
        "Ġthe",
        -3.3773166189730723
      ],
      [
        ",",
        -3.431120956496017
      ],
      [
        ".",
        -3.701773138088868
      ],
      [
        "Ġand",
        -3.932800123163945
      ],
      [
        "Ġof",
        -3.968689498010317
      ],
      [
        "Ġto",
        -3.983753782423589
      ],
      [
        "a",
        -4.045101178021714
      ],
      [
        "ing",
        -4.428015751071623
      ],
      [
        "Ġin",
        -4.49147359457756
      ],
      [
        "Ġis",
        -4.601760398256694
      ],
      [
        "ed",
        -4.8545794035043315
      ],
      [
        "d",
        -4.902572633100535
      ],
      [
        "'",
        -4.912314747345333
      ],
      [
        "0",
        -4.995309411209885
      ],
      [
        "Ġthat",
        -5.022622424694756
      ],
      [
        "Ġfor",
        -5.03227961452879
      ],
      [
        "y",
        -5.0562653760998675
      ],
      [
        "1",
        -5.124212674144987
      ],
      [
        "ly",
        -5.180153397512891
      ],
      [
        ":",
        -5.206547311193246
      ],
      [
        "Ġare",
        -5.235130962565426
      ],
      [
        "Ġit",
        -5.299151672143351
      ],
      [
        "Ċ",
        -5.299785455743628
      ],
      [
        "Ġyou",
        -5.302284723015429
      ],
      [
        ".Ċ",
        -5.317851587515271
      ],
      [
        "Ġwith",
        -5.322593088958534
      ],
      [
        "2",
        -5.337956229957699
      ],
      [
        ".ĊĊ",
        -5.353420434623953
      ],
      [
        "Ġbe",
        -5.4524680157906005
      ],
      [
        "Ġon",
        -5.479815549178062
      ],
      [
        "Ġcan",
        -5.4854843010747505
      ],
      [
        "Ġor",
        -5.499338377724936
      ],
      [
        "Ġas",
        -5.517390791317448
      ],
      [
        "t",
        -5.570389963967994
      ],
      [
        "ĊĊ",
        -5.572199381004529
      ],
      [
        "e",
        -5.594028081039243
      ],
      [
        "-",
        -5.6654766231050075
      ],
      [
        "Ġyour",
        -5.707246384635717
      ],
      [
        "Ġ(",
        -5.762020691058256
      ],
      [
        "\"",
        -5.8232683621943835
      ],
      [
        "ĠThe",
        -5.852795624119237
      ],
      [
        "Ġhave",
        -5.871442829468544
      ],
      [
        "Ġfrom",
        -5.883503713754983
      ],
      [
        "Ġby",
        -5.940561742180078
      ],
      [
        "ĠI",
        -5.940661145195779
      ],
      [
        "?",
        -5.946025362845715
      ],
      [
        "3",
        -5.979260571140745
      ],
      [
        "Ġan",
        -6.00152870653274
      ],
      [
        ")",
        -6.027797655498006
      ],
      [
        "5",
        -6.02814508427773
      ],
      [
        "Ġthis",
        -6.044068242099986
      ],
      [
        "Ġat",
        -6.106649748057157
      ],
      [
        "n",
        -6.109671331762113
      ],
      [
        "Ġnot",
        -6.113254657238745
      ],
      [
        "Ġwill",
        -6.205171272675145
      ],
      [
        "Ġtheir",
        -6.218659409511112
      ],
      [
        "4",
        -6.224824555097536
      ],
      [
        "Ġwas",
        -6.297622224163815
      ],
      [
        "Ġmore",
        -6.315652409094369
      ],
      [
        "9",
        -6.3270206781619915
      ],
      [
        "Ġthey",
        -6.340752309689895
      ],
      [
        "The",
        -6.406227332170543
      ],
      [
        "6",
        -6.444494317800816
      ],
      [
        "8",
        -6.472106948787694
      ],
      [
        "Ġhas",
        -6.475608124669041
      ],
      [
        "Ġwhich",
        -6.477888076581575
      ],
      [
        "Ġbut",
        -6.479641232936448
      ],
      [
        "Ġone",
        -6.508111930532937
      ],
      [
        "Ġwe",
        -6.533034011675639
      ],
      [
        "Question",
        -6.554038012766373
      ],
      [
        "Ġalso",
        -6.570265574874613
      ],
      [
        "ĠAnswer",
        -6.579320343924456
      ],
      [
        "ies",
        -6.594308138606431
      ],
      [
        "7",
        -6.605537141341239
      ],
      [
        "Ġother",
        -6.636425272842269
      ],
      [
        "Ġabout",
        -6.654284290163869
      ],
      [
        "Ġall",
        -6.655743327004778
      ],
      [
        "ĠIt",
        -6.706758898476137
      ],
      [
        "Ġwhen",
        -6.75135972076246
      ],
      [
        "Ġthem",
        -6.778665779070353
      ],
      [
        "Ġtime",
        -6.7861637549326925
      ],
      [
        "Ġif",
        -6.789984161073647
      ],
      [
        "Ġdo",
        -6.803728104734185
      ],
      [
        "er",
        -6.808287217474257
      ],
      [
        "Ġinto",
        -6.81367057482775
      ],
      [
        "Ġsome",
        -6.82052287488788
      ],
      [
        "Ġlike",
        -6.820874414552714
      ],
      [
        "Ġhow",
        -6.827541468302016
      ],
      [
        "ĠA",
        -6.841730910939782
      ],
      [
        "Ġso",
        -6.84747563557023
      ],
      [
        "ĠThis",
        -6.864267498620238
      ],
      [
        "Ġuse",
        -6.875367238517084
      ],
      [
        "Ġup",
        -6.880256670217937
      ],
      [
        "Ġout",
        -6.894267002984829
      ],
      [
        "Ġthan",
        -6.894953402387356
      ],
      [
        "ĠWhat",
        -6.903390036301587
      ],
      [
        "Ġmay",
        -6.917743524701004
      ],
      [
        "i",
        -6.91875743001787
      ],
      [
        "r",
        -6.92911967873888
      ],
      [
        "Ġthese",
        -6.9294911821907395
      ],
      [
        "Ġthere",
        -6.973808688397732
      ],
      [
        "on",
        -7.006662459697861
      ],
      [
        "Ġwater",
        -7.022275300024241
      ],
      [
        "Ġused",
        -7.038586814412556
      ],
      [
        "Ġwhat",
        -7.048564074831104
      ],
      [
        "Ġneed",
        -7.05152171863546
      ],
      [
        "re",
        -7.060853178159869
      ],
      [
        "Ġmost",
        -7.072824837652325
      ],
      [
        "Ġmake",
        -7.078052676169721
      ],
      [
        "o",
        -7.080105981132677
      ],
      [
        "Ġwere",
        -7.083112094767346
      ],
      [
        "Ġour",
        -7.088124428085484
      ],
      [
        "Ġsuch",
        -7.092412613235444
      ],
      [
        "ĠIn",
        -7.093954761511599
      ],
      [
        "A",
        -7.100958229290718
      ],
      [
        "m",
        -7.109034143179862
      ],
      [
        "Ġnew",
        -7.142232585383972
      ],
      [
        "Ġany",
        -7.146515106456956
      ],
      [
        "Ġget",
        -7.15604851829271
      ],
      [
        "Ġpeople",
        -7.161609238678652
      ],
      [
        "Ġbeen",
        -7.166707926529707
      ],
      [
        "Ġhelp",
        -7.18984581129531
      ],
      [
        "/",
        -7.19193827806277
      ],
      [
        "able",
        -7.200232657539042
      ],
      [
        "Ġwould",
        -7.206432729062968
      ],
      [
        "Ġshould",
        -7.208689823181032
      ],
      [
        "l",
        -7.209982877333832
      ],
      [
        "Ġits",
        -7.223181726066715
      ],
      [
        "Ġjust",
        -7.243378405201208
      ],
      [
        "Ġwho",
        -7.268052998427283
      ],
      [
        "Ġonly",
        -7.27061498747352
      ],
      [
        "Ġmany",
        -7.2969565272934
      ],
      [
        "?Ċ",
        -7.299094767520327
      ],
      [
        "Ġover",
        -7.317083913936333
      ],
      [
        "Ġtwo",
        -7.317854992704211
      ],
      [
        "Ġwork",
        -7.322826170637297
      ],
      [
        ";",
        -7.323448782943828
      ],
      [
        "Ġwell",
        -7.338705845072536
      ],
      [
        "I",
        -7.355099925024437
      ],
      [
        "Ġmy",
        -7.365409158042354
      ],
      [
        "Ġdifferent",
        -7.369396342132919
      ],
      [
        "Ġfirst",
        -7.373154162322711
      ],
      [
        "Ġthrough",
        -7.375685775070867
      ],
      [
        "Ġway",
        -7.38957412429289
      ],
      [
        "Ġhigh",
        -7.391236173847551
      ],
      [
        "Ġbetween",
        -7.402700038741701
      ],
      [
        "Ġbecause",
        -7.4240891656085
      ],
      [
        "Ġlong",
        -7.428479391066022
      ],
      [
        "Ġno",
        -7.428517938930886
      ],
      [
        "Ġvery",
        -7.43231751062989
      ],
      [
        "Ġsystem",
        -7.4485988012435715
      ],
      [
        "Ġwhere",
        -7.449294419439845
      ],
      [
        "Ġtake",
        -7.471877477794665
      ],
      [
        "Ġeven",
        -7.473026444617556
      ],
      [
        "ity",
        -7.4735345366394785
      ],
      [
        "Ġcould",
        -7.478859306285029
      ],
      [
        "ĠIf",
        -7.479784375767355
      ],
      [
        "Ġpart",
        -7.4917599893459315
      ],
      [
        "Ġchange",
        -7.522508921066489
      ],
      [
        "ĠThey",
        -7.536071433624018
      ],
      [
        "Ġmuch",
        -7.539685438081104
      ],
      [
        "al",
        -7.543764831271181
      ],
      [
        "Ġhad",
        -7.556138339114117
      ],
      [
        "Ġhis",
        -7.563555198302959
      ],
      [
        "Ġhe",
        -7.563943658892837
      ],
      [
        "Ġgood",
        -7.581612083998447
      ],
      [
        "Ġeach",
        -7.585956788590753
      ],
      [
        "Ġsmall",
        -7.590300703532156
      ],
      [
        "Ġimportant",
        -7.60301612473522
      ],
      [
        "ĠYou",
        -7.612605611655017
      ],
      [
        "using",
        -7.6154994475246145
      ],
      [
        "Ġknow",
        -7.617256742919642
      ],
      [
        "Ġdoes",
        -7.622161944563096
      ],
      [
        "Ġfood",
        -7.63041662815991
      ],
      [
        "Ġyears",
        -7.639832180321525
      ],
      [
        "c",
        -7.640807337906828
      ],
      [
        "Ġwhile",
        -7.641030193558251
      ],
      [
        "!",
        -7.643812873329717
      ],
      [
        "In",
        -7.64449518331781
      ],
      [
        "ĠâĢĵ",
        -7.6454351231004605
      ],
      [
        "Ġenergy",
        -7.649299727091609
      ],
      [
        "Ġwant",
        -7.653106529209189
      ],
      [
        "Ġresult",
        -7.654433331551111
      ],
      [
        "ĠC",
        -7.659267214775335
      ],
      [
        "Ġnumber",
        -7.669324059594034
      ],
      [
        "Ġdesign",
        -7.669359213286432
      ],
      [
        ").",
        -7.675811387826396
      ],
      [
        "Ġsee",
        -7.675975987828565
      ],
      [
        "Ġafter",
        -7.678114351164174
      ],
      [
        "Ġdon",
        -7.683888147835367
      ],
      [
        "Ġus",
        -7.698367761407219
      ],
      [
        "Ġhealth",
        -7.703639126974913
      ],
      [
        "Ġhuman",
        -7.71521707335722
      ],
      [
        "Ġsame",
        -7.729879255354733
      ],
      [
        "Ġworld",
        -7.736578543532364
      ],
      [
        "Ġprovide",
        -7.739705151031471
      ],
      [
        "during",
        -7.74072801453905
      ],
      [
        "Ġbefore",
        -7.742584038241338
      ],
      [
        "Ġaround",
        -7.74505405903763
      ],
      [
        "Ġinclude",
        -7.752183171195869
      ],
      [
        "those",
        -7.758737046954888
      ],
      [
        "Ġgreat",
        -7.764693109920829
      ],
      [
        "Ġlight",
        -7.773974864818275
      ],
      [
        "Ġbeing",
        -7.780765844464938
      ],
      [
        "Ġfound",
        -7.78587907098691
      ],
      [
        "Ġlife",
        -7.785960355186205
      ],
      [
        "Ġboth",
        -7.786795058966117
      ],
      [
        "Ġbest",
        -7.8101491339508975
      ],
      [
        "Ġprocess",
        -7.813846411545791
      ],
      [
        "Ġcause",
        -7.82227110616653
      ],
      [
        "Ġdata",
        -7.824310002683763
      ],
      [
        "Ġright",
        -7.827282772018315
      ],
      [
        "Ġplace",
        -7.828316464755279
      ],
      [
        "Ġfind",
        -7.828385162587093
      ],
      [
        "Ġoften",
        -7.839270467917634
      ],
      [
        "Ġmade",
        -7.841933871715206
      ],
      [
        "Ġexample",
        -7.856398551015555
      ],
      [
        "),",
        -7.859272115628883
      ],
      [
        "Ġback",
        -7.866191366610677
      ],
      [
        "ve",
        -7.871505304261563
      ],
      [
        "Ġdown",
        -7.880022790839913
      ],
      [
        "Ġday",
        -7.884996579382053
      ],
      [
        "Ġincrease",
        -7.889037987939556
      ],
      [
        "h",
        -7.889629108252578
      ],
      [
        "ĠFor",
        -7.891890089220912
      ],
      [
        "Ġbody",
        -7.894488888963888
      ],
      [
        "Ġthink",
        -7.906559648807594
      ],
      [
        "Ġform",
        -7.912482333088562
      ],
      [
        "ĠB",
        -7.913155584096014
      ],
      [
        "Ġadd",
        -7.916027250520971
      ],
      [
        "ic",
        -7.918142733621348
      ],
      [
        "Ġdevelop",
        -7.921456696619867
      ],
      [
        "What",
        -7.923080966800617
      ],
      [
        "Ġinformation",
        -7.924849279127864
      ],
      [
        "Ġsaid",
        -7.924979428047754
      ],
      [
        "Ġlook",
        -7.926729331063823
      ],
      [
        "Ġoff",
        -7.9318002499173215
      ],
      [
        "%",
        -7.932167058530718
      ],
      [
        "Ġevery",
        -7.933041784431522
      ],
      [
        "Ġstart",
        -7.937966559688409
      ],
      [
        "Ġpower",
        -7.943205319737489
      ],
      [
        "Ġcreate",
        -7.943657338160913
      ],
      [
        "Ġyear",
        -7.946681451384535
      ],
      [
        ":Ċ",
        -7.97088872297425
      ],
      [
        "Ġspecies",
        -7.974161955657301
      ],
      [
        "ĠThese",
        -7.97425525515537
      ],
      [
        "Ġhome",
        -7.9774640444568
      ],
      [
        "Ġplant",
        -7.977767945432866
      ],
      [
        "ĠWe",
        -7.982624297924355
      ],
      [
        "Ġunder",
        -7.983210099760358
      ],
      [
        "Ġresearch",
        -7.984019950078491
      ],
      [
        "Ġown",
        -7.986205020120963
      ],
      [
        "Ġbetter",
        -7.98987527976144
      ],
      [
        "Ġnow",
        -7.992655787330229
      ],
      [
        "However",
        -7.994348570506865
      ],
      [
        "Ġgrow",
        -7.997973715133179
      ],
      [
        "Ġmight",
        -7.998239527500219
      ],
      [
        "This",
        -8.001007092307553
      ],
      [
        "Ġstudy",
        -8.00143296575892
      ],
      [
        "Ġme",
        -8.005352638381556
      ],
      [
        "ll",
        -8.007310439211578
      ],
      [
        "Ġher",
        -8.009862642493578
      ],
      [
        "Ġgo",
        -8.01329162648151
      ],
      [
        "Ġheat",
        -8.016972233343173
      ],
      [
        "Ġdog",
        -8.019464412579259
      ],
      [
        "Ġbecome",
        -8.02421075490681
      ],
      [
        "Ġfew",
        -8.024340856882837
      ],
      [
        "ness",
        -8.028187739613061
      ],
      [
        "Ġsupport",
        -8.032460986313737
      ],
      [
        "Ġlarge",
        -8.035637481443308
      ],
      [
        "Ġtemperature",
        -8.037951280696916
      ],
      [
        "Ġstill",
        -8.040723212317722
      ],
      [
        "Ġair",
        -8.043793227767
      ],
      [
        "Ġpoint",
        -8.044537542371653
      ],
      [
        "(",
        -8.04500040524777
      ],
      [
        "in",
        -8.050466767643961
      ],
      [
        "Ġexperience",
        -8.053293129755858
      ],
      [
        "is",
        -8.053740315785516
      ],
      [
        "If",
        -8.054843222197531
      ],
      [
        "Ġkeep",
        -8.055456871505976
      ],
      [
        "ĠBut",
        -8.05709345572809
      ],
      [
        "ĠTo",
        -8.064379415966219
      ],
      [
        "Ġtoo",
        -8.076595261886341
      ],
      [
        "Ġstudents",
        -8.07940982221793
      ],
      [
        "us",
        -8.082951096651351
      ],
      [
        "S",
        -8.083176727614806
      ],
      [
        "um",
        -8.084733572197761
      ],
      [
        "Ġincluding",
        -8.085624677287088
      ],
      [
        "Ġcase",
        -8.094056275429619
      ],
      [
        "Ġissue",
        -8.09745914489977
      ],
      [
        "ability",
        -8.099895365549271
      ],
      [
        "Ġcurrent",
        -8.10194774533249
      ],
      [
        "Ġtype",
        -8.102498491225194
      ],
      [
        "Ġplants",
        -8.10373034390235
      ],
      [
        "Ġthree",
        -8.110898677219916
      ],
      [
        "Ġspecific",
        -8.111537312294566
      ],
      [
        "Ġmaking",
        -8.114418795057867
      ],
      [
        "D",
        -8.120111850681168
      ],
      [
        "...",
        -8.127372147725596
      ],
      [
        "Ġless",
        -8.128927133966933
      ],
      [
        "g",
        -8.134092860304255
      ],
      [
        "out",
        -8.135692489379801
      ],
      [
        "and",
        -8.136032382673154
      ],
      [
        "p",
        -8.140468453701253
      ],
      [
        "Ġwithin",
        -8.143451090122793
      ],
      [
        "Ġend",
        -8.145284890271764
      ],
      [
        "Ġlot",
        -8.150537544248024
      ],
      [
        "Ġschool",
        -8.154052856095216
      ],
      [
        "Ġknown",
        -8.154280944656618
      ],
      [
        "It",
        -8.157288428315582
      ],
      [
        "Ġproduce",
        -8.16039960307711
      ],
      [
        "Ġcommon",
        -8.161858203095708
      ],
      [
        "Ġthings",
        -8.163003813677998
      ],
      [
        ":ĊĊ",
        -8.175352385074337
      ],
      [
        "th",
        -8.176055047720315
      ],
      [
        "How",
        -8.177876619485708
      ],
      [
        "Ġmust",
        -8.182687067331287
      ],
      [
        "Ġcontrol",
        -8.183842594297747
      ],
      [
        "Ġreduce",
        -8.184343009062399
      ],
      [
        "Ġoffer",
        -8.186012261592055
      ],
      [
        "ally",
        -8.186615810864359
      ],
      [
        "Ġchildren",
        -8.186806970658674
      ],
      [
        "Ġenvironment",
        -8.189736931340926
      ],
      [
        "Ġindividual",
        -8.191468088382726
      ],
      [
        "Ġcalled",
        -8.192289321313428
      ],
      [
        "Ġset",
        -8.203881556519079
      ],
      [
        "Ġlearn",
        -8.20414349380869
      ],
      [
        "C",
        -8.206785497567836
      ],
      [
        "u",
        -8.209912909730983
      ],
      [
        "Ġsure",
        -8.210861541251507
      ],
      [
        "Ġpotential",
        -8.211822458299261
      ],
      [
        "Ġlow",
        -8.212023062541121
      ],
      [
        "Ġsize",
        -8.212293035764544
      ],
      [
        "Ġanother",
        -8.21670340167454
      ],
      [
        "ĠWhen",
        -8.219673031611794
      ],
      [
        "Ġwhy",
        -8.222205365375176
      ],
      [
        "ĠAnd",
        -8.223118195459893
      ],
      [
        "f",
        -8.224966825355981
      ],
      [
        "Ġallow",
        -8.23625822894103
      ],
      [
        "Ġreally",
        -8.245909313682803
      ],
      [
        "Ġdue",
        -8.2485121451175
      ],
      [
        "Ġfollowing",
        -8.253111393468199
      ],
      [
        "Ġcar",
        -8.253543742127878
      ],
      [
        "Ġvalue",
        -8.25495949870777
      ],
      [
        "Ġlead",
        -8.256029605298387
      ],
      [
        "Ġline",
        -8.263438897754884
      ],
      [
        "Ġsource",
        -8.264196579309267
      ],
      [
        "ĠHow",
        -8.266265285899465
      ],
      [
        "Ġensure",
        -8.273503052368966
      ],
      [
        "Ġcolor",
        -8.274247155799458
      ],
      [
        "Ġvarious",
        -8.276146307600918
      ],
      [
        "Ġsurface",
        -8.278809127259546
      ],
      [
        "Ġspace",
        -8.280502227778797
      ],
      [
        "Ġdid",
        -8.282799960216652
      ],
      [
        "Ġsomething",
        -8.28489452148954
      ],
      [
        "Ġlevel",
        -8.286251289631476
      ],
      [
        "Ġrange",
        -8.28924718425101
      ],
      [
        "Ġprevent",
        -8.292267521501088
      ],
      [
        "Ġnatural",
        -8.292865670701456
      ],
      [
        ",\"",
        -8.29509375602727
      ],
      [
        "b",
        -8.296943290940627
      ],
      [
        "Ġhere",
        -8.297468383040194
      ],
      [
        "Ġlittle",
        -8.298365680592216
      ],
      [
        "Ġuser",
        -8.301773789620242
      ],
      [
        "ĠThere",
        -8.303249387182326
      ],
      [
        "x",
        -8.304254025924374
      ],
      [
        "Ġcome",
        -8.307270633531273
      ],
      [
        "Ġgame",
        -8.30843037193711
      ],
      [
        "Ġname",
        -8.310096514472953
      ],
      [
        "Ġeffective",
        -8.311061909875534
      ],
      [
        "Ġshow",
        -8.31345032325137
      ],
      [
        "possible",
        -8.316791170437707
      ],
      [
        "Ġun",
        -8.322860998758081
      ],
      [
        "Ġlast",
        -8.329254679552879
      ],
      [
        "Ġamount",
        -8.33039545862184
      ],
      [
        "Ġshe",
        -8.333526243074598
      ],
      [
        "Ġrequire",
        -8.340775640890946
      ],
      [
        "Ġper",
        -8.341501366650569
      ],
      [
        "Ġsoil",
        -8.342407875597843
      ],
      [
        "Ġtest",
        -8.343661565802963
      ],
      [
        "Ġalway",
        -8.344042598522428
      ],
      [
        "Ġbenefit",
        -8.345729986561718
      ],
      [
        "Ġcells",
        -8.34687450279163
      ],
      [
        "ĠD",
        -8.349900751560185
      ],
      [
        "Ġ=",
        -8.35149095356072
      ],
      [
        "Ġgeneral",
        -8.35265773748334
      ],
      [
        "Ġimpact",
        -8.353188565702768
      ],
      [
        "Ġprogram",
        -8.356260013036344
      ],
      [
        "Ġdevelopment",
        -8.361270803833623
      ],
      [
        "Ġavailable",
        -8.364838268931443
      ],
      [
        "Ġbased",
        -8.366466124258213
      ],
      [
        "Ġcomplete",
        -8.367984485317104
      ],
      [
        "Ġseveral",
        -8.369531223612512
      ],
      [
        "Ġcare",
        -8.37084125728015
      ],
      [
        "Ġturn",
        -8.373440744157904
      ],
      [
        "Ġplay",
        -8.375133942035072
      ],
      [
        "Ġpresent",
        -8.375889431379598
      ],
      [
        "Ġsignificant",
        -8.377044487511123
      ],
      [
        "ĠSo",
        -8.377081562237759
      ],
      [
        "Ġstate",
        -8.380068493053447
      ],
      [
        "Ġal",
        -8.38136299596335
      ],
      [
        "Ġmeans",
        -8.38488331551612
      ],
      [
        "Ġgive",
        -8.391208558629824
      ],
      [
        "Ġgoing",
        -8.392065693163197
      ],
      [
        "Ġdevice",
        -8.393084517793973
      ],
      [
        "Ġfeel",
        -8.3939442214052
      ],
      [
        "Ġproblem",
        -8.394469148047452
      ],
      [
        "Ġorder",
        -8.39553258001181
      ],
      [
        "Ġmain",
        -8.402034405930138
      ],
      [
        "Ġareas",
        -8.404404990332097
      ],
      [
        "ĠWhich",
        -8.407685999845423
      ],
      [
        "Ġrisk",
        -8.40822398545518
      ],
      [
        "Ġgroup",
        -8.410097649923674
      ],
      [
        "Ġdisease",
        -8.414044290273374
      ],
      [
        "Ġnear",
        -8.416923688050748
      ],
      [
        "Ġtext",
        -8.417274573400984
      ],
      [
        "Ġleave",
        -8.421807863637238
      ],
      [
        "ĠAs",
        -8.424004452110058
      ],
      [
        "Ġcertain",
        -8.424558280977859
      ],
      [
        "Ġusually",
        -8.429577877488587
      ],
      [
        "Ġtreatment",
        -8.433671017848718
      ],
      [
        "Ġreason",
        -8.433956033971718
      ],
      [
        "Ġmaterials",
        -8.434610202208098
      ],
      [
        "Ġessential",
        -8.439709103578245
      ],
      [
        "ĠS",
        -8.441333031773546
      ],
      [
        "Ġcourse",
        -8.441935775011373
      ],
      [
        "the",
        -8.444245558537844
      ],
      [
        "Ġsecond",
        -8.445533305735875
      ],
      [
        "Ġteam",
        -8.452223061491676
      ],
      [
        "Ġblood",
        -8.45890740957287
      ],
      [
        "age",
        -8.459090230501555
      ],
      [
        "Ġlocal",
        -8.459134879230149
      ],
      [
        "Ġunderstand",
        -8.460519190289373
      ],
      [
        "Ġperson",
        -8.461061260034228
      ],
      [
        "Ġsay",
        -8.46262007661321
      ],
      [
        "Ġarea",
        -8.464749814818722
      ],
      [
        "Ġconsider",
        -8.467034625861633
      ],
      [
        "Ġquality",
        -8.46784947703563
      ],
      [
        "Ġtechnology",
        -8.47401106059936
      ],
      [
        "Ġconditions",
        -8.474144534456403
      ],
      [
        "Ġmaterial",
        -8.476161051248884
      ],
      [
        "Ġage",
        -8.476681663116453
      ],
      [
        "ĠM",
        -8.477490017143406
      ],
      [
        "Ġinvolve",
        -8.478840339207533
      ],
      [
        "Ġtypes",
        -8.481427048054492
      ],
      [
        "Ġenough",
        -8.481574770513003
      ],
      [
        "Ġimprove",
        -8.483001840152497
      ],
      [
        "Ġ[",
        -8.48513890316725
      ],
      [
        "Ġtop",
        -8.485278303040758
      ],
      [
        "Ġside",
        -8.485899806325627
      ],
      [
        "Ġsystems",
        -8.49204831275258
      ],
      [
        "Ġunti",
        -8.498427214937111
      ],
      [
        "Ġanimals",
        -8.498490884199871
      ],
      [
        "Ġput",
        -8.499741247596141
      ],
      [
        "Ġdifference",
        -8.500307909006928
      ],
      [
        "ary",
        -8.504202472629096
      ],
      [
        "When",
        -8.505138366493906
      ],
      [
        "Ġlearning",
        -8.50886051202498
      ],
      [
        "less",
        -8.510141381506466
      ],
      [
        "Ġhand",
        -8.518256766121027
      ],
      [
        "Ġmethod",
        -8.519016332938373
      ],
      [
        "Ġneeds",
        -8.52145998930283
      ],
      [
        "Ġfamily",
        -8.522847095200508
      ],
      [
        "ation",
        -8.52556505268639
      ],
      [
        "Ġlevels",
        -8.531310299923735
      ],
      [
        "Ġ&",
        -8.533584237731516
      ],
      [
        "est",
        -8.533879653079632
      ],
      [
        "Ġfunction",
        -8.534465666830108
      ],
      [
        "Ġweight",
        -8.537530585253668
      ],
      [
        "Ġtogether",
        -8.537640761121082
      ],
      [
        "Ġfull",
        -8.53772974907336
      ],
      [
        "You",
        -8.538416352621645
      ],
      [
        "Ġhappen",
        -8.538919067451431
      ],
      [
        "Ġmachine",
        -8.539057869350316
      ],
      [
        "Ġrole",
        -8.542680599763798
      ],
      [
        "Ġkey",
        -8.544577555165393
      ],
      [
        "ĠThat",
        -8.545572333808273
      ],
      [
        "or",
        -8.546713426986187
      ],
      [
        "Ġfree",
        -8.548029572865634
      ],
      [
        "next",
        -8.550371728391196
      ],
      [
        "Ġeat",
        -8.551954214915094
      ],
      [
        "Ġmaintain",
        -8.55225778298517
      ],
      [
        "having",
        -8.552496295823103
      ],
      [
        "While",
        -8.5534716753268
      ],
      [
        "Ġsolution",
        -8.556012570488154
      ],
      [
        "Ġhigher",
        -8.557240891484966
      ],
      [
        "le",
        -8.557724848739012
      ],
      [
        "Ġleast",
        -8.557799765484656
      ],
      [
        "ĠWith",
        -8.558952092017378
      ],
      [
        "]",
        -8.561849924796956
      ],
      [
        "Ġskin",
        -8.563734877594456
      ],
      [
        "Ġlet",
        -8.568154266443173
      ],
      [
        "w",
        -8.568312528835232
      ],
      [
        "Ġclose",
        -8.568515825014732
      ],
      [
        "Ġproblems",
        -8.56958182271369
      ],
      [
        "Ġhour",
        -8.570274262883093
      ],
      [
        "Ġaway",
        -8.570371823744718
      ],
      [
        "Ġlive",
        -8.570450175597614
      ],
      [
        "Ġsince",
        -8.570829244819583
      ],
      [
        "Ġ$",
        -8.571352852906298
      ],
      [
        "Ġcheck",
        -8.573486567901899
      ],
      [
        "Ġopen",
        -8.574811428916696
      ],
      [
        "Ġcost",
        -8.579358633696287
      ],
      [
        "ĠUniversity",
        -8.581274345984319
      ],
      [
        "ĠHe",
        -8.582280351097644
      ],
      [
        "Ġhard",
        -8.582468632410587
      ],
      [
        "Ġpressure",
        -8.583819849263204
      ],
      [
        "Ġforce",
        -8.587847813339696
      ],
      [
        "Ġold",
        -8.588923682603362
      ],
      [
        "Ġshort",
        -8.590556911590294
      ],
      [
        "Ġnon",
        -8.59274669297207
      ],
      [
        "Ġearly",
        -8.595438815107666
      ],
      [
        "Ġactually",
        -8.596849490371815
      ],
      [
        "Ġsimple",
        -8.597077393731679
      ],
      [
        "Ġkind",
        -8.598317166859784
      ],
      [
        "Ġworking",
        -8.59866915351011
      ],
      [
        "Ġfield",
        -8.599041655622534
      ],
      [
        "Ġsafe",
        -8.60163920164387
      ],
      [
        "Ġproject",
        -8.602831144586101
      ],
      [
        "ĠBy",
        -8.603803563127872
      ],
      [
        "Ġeasy",
        -8.605651172810845
      ],
      [
        "Ġgrowth",
        -8.606882454156892
      ],
      [
        "Ġfish",
        -8.610810663706788
      ],
      [
        "Ġeye",
        -8.611209776660056
      ],
      [
        "Ġdiet",
        -8.612079574729053
      ],
      [
        "Ġoil",
        -8.61289008919082
      ],
      [
        "ion",
        -8.614398942432636
      ],
      [
        "Ġquick",
        -8.615943319073205
      ],
      [
        "Ġthing",
        -8.617325332605024
      ],
      [
        "Ġmeasure",
        -8.617901562532484
      ],
      [
        "Ġdigital",
        -8.618137006595887
      ],
      [
        "Ġfuture",
        -8.618457736339973
      ],
      [
        "Ġalong",
        -8.618968272770639
      ],
      [
        "Ġseem",
        -8.62153671266616
      ],
      [
        "Ġphysical",
        -8.621867216989845
      ],
      [
        "Ġdepend",
        -8.625374103481867
      ],
      [
        "ever",
        -8.625987232428805
      ],
      [
        "Ġmodel",
        -8.629722261786567
      ],
      [
        "Ġlower",
        -8.630130716840199
      ],
      [
        "Ġnever",
        -8.633809712149617
      ],
      [
        "Ġhim",
        -8.634638291778417
      ],
      [
        "Ġmakes",
        -8.639219258321418
      ],
      [
        "Ġtypical",
        -8.640305696145466
      ],
      [
        "âĢĻs",
        -8.6416087037815
      ],
      [
        "Ġtraining",
        -8.642471844637075
      ],
      [
        "Ġimage",
        -8.644273880864253
      ],
      [
        "We",
        -8.650995658206522
      ],
      [
        "*",
        -8.654529452831802
      ],
      [
        "Ġindustr",
        -8.655433460739928
      ],
      [
        "Ġdoesn",
        -8.655984784917273
      ],
      [
        "ĠP",
        -8.656045232045251
      ],
      [
        "Ġcomes",
        -8.657659108551668
      ],
      [
        "Ġarticle",
        -8.65900094166798
      ],
      [
        "Ġpopulation",
        -8.659271752088898
      ],
      [
        "Ġunique",
        -8.659795355396607
      ],
      [
        "k",
        -8.663332847104833
      ],
      [
        "Ġmove",
        -8.663543899044477
      ],
      [
        "Ġrun",
        -8.663802986926797
      ],
      [
        "Ġdirect",
        -8.663888773299622
      ],
      [
        "Ġscience",
        -8.665335722949633
      ],
      [
        "Ġespecial",
        -8.667744583812347
      ],
      [
        "Ġlikely",
        -8.667900987847588
      ],
      [
        "Ġlove",
        -8.670125559228627
      ],
      [
        "Ġword",
        -8.670662110026946
      ],
      [
        "Ġmajor",
        -8.670746571134828
      ],
      [
        "Ġclear",
        -8.671597239279766
      ],
      [
        "Ġdamage",
        -8.672002774951238
      ],
      [
        "Ġdays",
        -8.673514169604676
      ],
      [
        "ce",
        -8.675955913075168
      ],
      [
        "Ġsocial",
        -8.6769324711268
      ],
      [
        "Ġacross",
        -8.677345135117745
      ],
      [
        "Ġcell",
        -8.67757115973017
      ],
      [
        "Ġsimilar",
        -8.680542929043177
      ],
      [
        "ĠT",
        -8.681518273874422
      ],
      [
        "Ġproducts",
        -8.683196966847227
      ],
      [
        "Ġsingle",
        -8.686330718628431
      ],
      [
        "Ġfact",
        -8.686717926213248
      ],
      [
        "Ġgarden",
        -8.686985769674887
      ],
      [
        "Ġtimes",
        -8.687895850406605
      ],
      [
        "Ġchild",
        -8.688162536117492
      ],
      [
        "Ġfocus",
        -8.68903790967147
      ],
      [
        "Ġask",
        -8.689062881220273
      ],
      [
        ")ĊĊ",
        -8.69036790552143
      ],
      [
        "Ġtreat",
        -8.69134384865428
      ],
      [
        "Ġcomponent",
        -8.691668423886487
      ],
      [
        "Ġhealthy",
        -8.691957603215254
      ],
      [
        "Ġbusiness",
        -8.692936915541893
      ],
      [
        "Ġunderstanding",
        -8.698599145924135
      ],
      [
        "Ġdone",
        -8.69958727426608
      ],
      [
        "Ġpropert",
        -8.70088292717398
      ],
      [
        "ous",
        -8.701416341229715
      ],
      [
        "ther",
        -8.703845013786577
      ],
      [
        "Ġclimate",
        -8.704381349271436
      ],
      [
        "ĠSome",
        -8.704556031318695
      ],
      [
        "ĠE",
        -8.704922051716704
      ],
      [
        "Ġavoid",
        -8.705136280970322
      ],
      [
        "Ġabove",
        -8.705249464732074
      ],
      [
        "There",
        -8.709069167180822
      ],
      [
        "an",
        -8.711278457472984
      ],
      [
        "Ġaffect",
        -8.714745170130097
      ],
      [
        "Ġvideo",
        -8.715094047682314
      ],
      [
        "Ġground",
        -8.71537783533551
      ],
      [
        "Ġperiod",
        -8.715515545542917
      ],
      [
        "Ġdry",
        -8.716181366138944
      ],
      [
        "Ġoccur",
        -8.718221219870571
      ],
      [
        "Ġcontinue",
        -8.720269591796958
      ],
      [
        "Ġpaper",
        -8.720519237632699
      ],
      [
        "Ġtry",
        -8.722177725763572
      ],
      [
        "Ġperformance",
        -8.723434966107888
      ],
      [
        "Ġcomputer",
        -8.723547943573745
      ],
      [
        "Ġdogs",
        -8.728020003508536
      ],
      [
        "self",
        -8.728091162217662
      ],
      [
        "not",
        -8.728137833243792
      ],
      [
        "Ġaccording",
        -8.728502846075315
      ],
      [
        "Ġdetermine",
        -8.72896724994407
      ],
      [
        "Ġnetwork",
        -8.729651996328066
      ],
      [
        "Ġbook",
        -8.73086584133427
      ],
      [
        "Ġproduction",
        -8.731095469779582
      ],
      [
        "Ġresearcher",
        -8.731458435584326
      ],
      [
        "Ġfactors",
        -8.731567447314347
      ],
      [
        "Ġreal",
        -8.73231664244776
      ],
      [
        "Ġwarm",
        -8.732421303491058
      ],
      [
        "Ġvehicle",
        -8.73281750030715
      ],
      [
        "Ġclean",
        -8.732982613109318
      ],
      [
        "ĠAmerican",
        -8.736095797537633
      ],
      [
        "Ġprotect",
        -8.740255095921073
      ],
      [
        "Ġstep",
        -8.746936934608904
      ],
      [
        "!ĊĊ",
        -8.74834772041023
      ],
      [
        "Ġwhite",
        -8.749799959207774
      ],
      [
        "Ġdeep",
        -8.750974457265244
      ],
      [
        "Ġaccess",
        -8.754341412343223
      ],
      [
        "Ġbasic",
        -8.756485400177539
      ],
      [
        "Ġpopular",
        -8.758277259169658
      ],
      [
        "ready",
        -8.758994909284255
      ],
      [
        "ĠNew",
        -8.759133953151125
      ],
      [
        "Ġregion",
        -8.75935325814263
      ],
      [
        "Ġamong",
        -8.759354900704139
      ],
      [
        "Ġpattern",
        -8.759891697593716
      ],
      [
        "Ġexist",
        -8.761406373035397
      ],
      [
        "Ġblack",
        -8.761665482504078
      ],
      [
        "Ġnormal",
        -8.763205408589256
      ],
      [
        ")Ċ",
        -8.766619657929084
      ],
      [
        "Ġagains",
        -8.76836039042701
      ],
      [
        "Ġspeed",
        -8.769059113979626
      ],
      [
        "ĠâĢĶ",
        -8.769082702200233
      ],
      [
        "Ġgiven",
        -8.772380244719912
      ],
      [
        "Ġpiece",
        -8.774456456511091
      ],
      [
        "Ġremove",
        -8.775347014979424
      ],
      [
        "Ġleft",
        -8.775494635109684
      ],
      [
        "Ġpost",
        -8.776468312481292
      ],
      [
        "Ġmean",
        -8.777788615549234
      ],
      [
        "Ġfurther",
        -8.777794955957733
      ],
      [
        "B",
        -8.77856782602182
      ],
      [
        "ment",
        -8.779614372542195
      ],
      [
        "Ġregular",
        -8.780041384421477
      ],
      [
        "Ġloss",
        -8.782873383943748
      ],
      [
        "Ġwhe",
        -8.784302281317046
      ],
      [
        "Ġmatter",
        -8.784571242276716
      ],
      [
        "T",
        -8.794396340300832
      ],
      [
        "Ġeither",
        -8.795083869151664
      ],
      [
        "ĠH",
        -8.800311164062286
      ],
      [
        "Ġaddition",
        -8.800811724084301
      ],
      [
        "Ġplan",
        -8.801512823257085
      ],
      [
        "Ġcontent",
        -8.801515212720492
      ],
      [
        "Ġrecent",
        -8.803700531201422
      ],
      [
        "Ġsign",
        -8.805169214077285
      ],
      [
        "Ġeffects",
        -8.805875915242385
      ],
      [
        "Ġcat",
        -8.806833282486167
      ],
      [
        "ĠYour",
        -8.80784125570587
      ],
      [
        "Ġgetting",
        -8.80835463357882
      ],
      [
        "Ġquestion",
        -8.808529564225758
      ],
      [
        "Ġfar",
        -8.810060315052745
      ],
      [
        "Ġlooking",
        -8.811365138692281
      ],
      [
        "Ġtoday",
        -8.811389887505218
      ],
      [
        "Ġfour",
        -8.812601723320277
      ],
      [
        "Ġenjoy",
        -8.814507308049631
      ],
      [
        "Ġproduct",
        -8.816108263380352
      ],
      [
        "Ġwide",
        -8.817748744672521
      ],
      [
        "Ġbring",
        -8.817889460448194
      ],
      [
        "necessary",
        -8.817907431572477
      ],
      [
        "Ġassociate",
        -8.821708116777923
      ],
      [
        "Ġpain",
        -8.825665547867008
      ],
      [
        "Ġsays",
        -8.82625884596022
      ],
      [
        "Ġlist",
        -8.826447205238647
      ],
      [
        "Ġstructure",
        -8.828683705524735
      ],
      [
        "Ġheart",
        -8.829150253642371
      ],
      [
        "To",
        -8.829911582760078
      ],
      [
        "Ġred",
        -8.831294161118091
      ],
      [
        "Ġam",
        -8.8334737434421
      ],
      [
        "Ġanimal",
        -8.834610643795624
      ],
      [
        "Ġmarket",
        -8.835095968572446
      ],
      [
        "Ġread",
        -8.838115966740872
      ],
      [
        "Ġeffect",
        -8.83984486070565
      ],
      [
        "Ġexplain",
        -8.841998936053166
      ],
      [
        "Ġcall",
        -8.842458184852521
      ],
      [
        "ory",
        -8.844444850261022
      ],
      [
        "Ġroom",
        -8.845479123232824
      ],
      [
        "âĢĵ",
        -8.846616754178045
      ],
      [
        "Ġthought",
        -8.847651361371025
      ],
      [
        "Ġdifficult",
        -8.847777489553287
      ],
      [
        "For",
        -8.847799782019639
      ],
      [
        "Ġrate",
        -8.848668280729228
      ],
      [
        "Ġfee",
        -8.849239843575079
      ],
      [
        "ry",
        -8.849291328262531
      ],
      [
        "Ġengine",
        -8.849379914738321
      ],
      [
        "Ġbelieve",
        -8.850717161122446
      ],
      [
        "Ġobject",
        -8.850989636067226
      ],
      [
        "Ġfeatures",
        -8.852409797922611
      ],
      [
        "Ġvariety",
        -8.855330365611303
      ],
      [
        "Ġunit",
        -8.855444392084063
      ],
      [
        "Ġcold",
        -8.857713917879881
      ],
      [
        "Ġapproach",
        -8.85806218489673
      ],
      [
        "Ġpurpose",
        -8.85859605521291
      ],
      [
        "Ġperform",
        -8.859453297611633
      ],
      [
        "Ġbig",
        -8.862766983141606
      ],
      [
        "Ġanswer",
        -8.86296732427119
      ],
      [
        "Ġyoung",
        -8.863109440556926
      ],
      [
        "Ġbrain",
        -8.864366993997969
      ],
      [
        "Ġhistory",
        -8.866462906989344
      ],
      [
        "once",
        -8.867022552897962
      ],
      [
        "Ġidea",
        -8.867332965736397
      ],
      [
        "Ġactivity",
        -8.868147900609948
      ],
      [
        "Ġthough",
        -8.868469634092598
      ],
      [
        "Ġways",
        -8.869312588554015
      ],
      [
        "Ġskills",
        -8.870752437051461
      ],
      [
        "Ġposition",
        -8.87177200173727
      ],
      [
        "Ġgas",
        -8.873490451240574
      ],
      [
        "Ġshape",
        -8.875613607499572
      ],
      [
        "_",
        -8.877782168574228
      ],
      [
        "Ġtarget",
        -8.877810754858903
      ],
      [
        ".\"Ċ",
        -8.87827109669
      ],
      [
        "Ġallows",
        -8.87922014905022
      ],
      [
        "Ġbelow",
        -8.879275170893855
      ],
      [
        "ĠOn",
        -8.880075149993928
      ],
      [
        "Ġbit",
        -8.881787707833158
      ],
      [
        "Ġface",
        -8.881830905982572
      ],
      [
        "Ġinside",
        -8.882636913345127
      ],
      [
        "Ġpositive",
        -8.88265259483066
      ],
      [
        "Ġstay",
        -8.883893887321094
      ],
      [
        "Ġcontain",
        -8.885261988827752
      ],
      [
        "ĠNo",
        -8.885548197569516
      ],
      [
        "Ġcommunity",
        -8.891641390257611
      ],
      [
        "Ġacid",
        -8.897003820402619
      ],
      [
        "Ġstress",
        -8.89723202474267
      ],
      [
        "ĠR",
        -8.897854643589392
      ],
      [
        "Ġhead",
        -8.899189534984163
      ],
      [
        "Ġparent",
        -8.899759475148347
      ],
      [
        "Ġshare",
        -8.90041800801464
      ],
      [
        "Ġcomplex",
        -8.900524532587127
      ],
      [
        "Ġopportunit",
        -8.901392538857156
      ],
      [
        "Ġsignal",
        -8.901627950110132
      ],
      [
        "Ġenvironmental",
        -8.902513644419297
      ],
      [
        "Ġknowledge",
        -8.903171603749254
      ],
      [
        "As",
        -8.904940932671037
      ],
      [
        "Ġrequired",
        -8.905817833637897
      ],
      [
        "ĠOne",
        -8.907355884705321
      ],
      [
        "afety",
        -8.90831039254746
      ],
      [
        "Ġcool",
        -8.908331779742833
      ],
      [
        "Ġwhole",
        -8.908577225058309
      ],
      [
        "!Ċ",
        -8.909609677626017
      ],
      [
        "Ġflow",
        -8.909672908234501
      ],
      [
        "Ġlayer",
        -8.911269374490063
      ],
      [
        "Ġbreak",
        -8.912405739633257
      ],
      [
        "âĢĶ",
        -8.914347908723704
      ],
      [
        "Ġsound",
        -8.914405214462338
      ],
      [
        "Ġstrong",
        -8.91597786249637
      ],
      [
        "Ġbehavior",
        -8.917992550145946
      ],
      [
        "Ġagain",
        -8.919352989851133
      ],
      [
        "Ġtree",
        -8.919565650208632
      ],
      [
        "Ġde",
        -8.919908909738318
      ],
      [
        "Ġbase",
        -8.920245414190056
      ],
      [
        "Ġfast",
        -8.921476353775365
      ],
      [
        "Ġhelps",
        -8.922086842480143
      ],
      [
        "Ġslow",
        -8.923798927189855
      ],
      [
        "ĠU",
        -8.92407996974492
      ],
      [
        "Ġpublic",
        -8.92417649631955
      ],
      [
        "Ġhouse",
        -8.928805646930556
      ],
      [
        "Ġweek",
        -8.931932713338817
      ],
      [
        "taking",
        -8.93485765927065
      ],
      [
        "Ġbuild",
        -8.936187379629466
      ],
      [
        "online",
        -8.9377029565748
      ],
      [
        "Ġperfect",
        -8.939169510917843
      ],
      [
        "Ġactivities",
        -8.940472435632937
      ],
      [
        "Ġbacteria",
        -8.940620176325986
      ],
      [
        "Ġprovid",
        -8.941291213022513
      ],
      [
        "Ġsymptom",
        -8.943517313706051
      ],
      [
        "ather",
        -8.944381064365944
      ],
      [
        "Ġliving",
        -8.944700846203675
      ],
      [
        "Ġcancer",
        -8.945593547394434
      ],
      [
        "Ġdoing",
        -8.945727234682899
      ],
      [
        "Ġselect",
        -8.946195246364258
      ],
      [
        "Ġseen",
        -8.947132949543953
      ],
      [
        "Ġresponse",
        -8.948654456490438
      ],
      [
        "Ġclass",
        -8.949257828815103
      ],
      [
        "Ġprotein",
        -8.951347348076439
      ],
      [
        "Ġexercise",
        -8.953073606076995
      ],
      [
        "Ġmethods",
        -8.95318793547202
      ],
      [
        "Ġgot",
        -8.953433788876296
      ],
      [
        "Ġtotal",
        -8.954013124985785
      ],
      [
        "Ġprovides",
        -8.954525441361149
      ],
      [
        "Ġbuilding",
        -8.955293029505793
      ],
      [
        "Ġdescribe",
        -8.955539561695158
      ],
      [
        "Ġstor",
        -8.95614422582816
      ],
      [
        "Ġpractice",
        -8.95777112964064
      ],
      [
        "Ġmind",
        -8.95863520785225
      ],
      [
        "Ġcorrect",
        -8.960142829856194
      ],
      [
        "Ġtools",
        -8.963599666884761
      ],
      [
        "Ġcontact",
        -8.963965985368876
      ],
      [
        "Ġcompare",
        -8.964613777287695
      ],
      [
        "Ġservice",
        -8.96500424267855
      ],
      [
        "Ġlocation",
        -8.966422870646555
      ],
      [
        "Ġtraditional",
        -8.967723970486718
      ],
      [
        "Ġfollow",
        -8.970363507605578
      ],
      [
        "Ġparticular",
        -8.970858404476992
      ],
      [
        "Ġprofessional",
        -8.971377309473208
      ],
      [
        "ĠF",
        -8.971975965471433
      ],
      [
        "Ġwaste",
        -8.972531926960286
      ],
      [
        "Ġcompany",
        -8.972624012888058
      ],
      [
        "Ġmonths",
        -8.973650584918506
      ],
      [
        "Ġoverall",
        -8.974505182572177
      ],
      [
        "Ġmetal",
        -8.975111583582999
      ],
      [
        "Ġtechniques",
        -8.97603626707709
      ],
      [
        "Ġnature",
        -8.976090468584664
      ],
      [
        "Ġresources",
        -8.976580749327338
      ],
      [
        "Ġpersonal",
        -8.976697554806426
      ],
      [
        "Ġgreen",
        -8.979045878499278
      ],
      [
        "Ġbalance",
        -8.979497368589408
      ],
      [
        "Ġprimar",
        -8.983787239056003
      ],
      [
        "Ġcreat",
        -8.983972274481282
      ],
      [
        "Ġsense",
        -8.985393007790385
      ],
      [
        "Ġgenetic",
        -8.985434454623164
      ],
      [
        "Ġsite",
        -8.985736944901776
      ],
      [
        "ĠAI",
        -8.986075622292326
      ],
      [
        "Ġentire",
        -8.989013003241258
      ],
      [
        "Ġmultiple",
        -8.989543666462609
      ],
      [
        "Ġreceive",
        -8.989661722820577
      ],
      [
        "Ġtell",
        -8.991790564423434
      ],
      [
        "Ġinfection",
        -8.992410224547692
      ],
      [
        "Ġmone",
        -8.992728254341142
      ],
      [
        "Ġeasily",
        -8.996011009005109
      ],
      [
        ".\"",
        -8.99858924427733
      ],
      [
        "Ġcrucial",
        -8.999380265152574
      ],
      [
        "Ġaverage",
        -8.999939678423504
      ],
      [
        "Ġsolar",
        -9.002655329121108
      ],
      [
        "Ġspecial",
        -9.003538522802558
      ],
      [
        "Ġmuscle",
        -9.00357045351624
      ],
      [
        "Ġcut",
        -9.004215325275714
      ],
      [
        "Ġcarbon",
        -9.004682665446024
      ],
      [
        "Ġauthor",
        -9.00500109813246
      ],
      [
        "Ġthroughout",
        -9.010769363899898
      ],
      [
        "Ġrelease",
        -9.011424528746316
      ],
      [
        "Ġart",
        -9.01158448029433
      ],
      [
        "Ġlate",
        -9.01590388994182
      ],
      [
        "Ġever",
        -9.016426412359046
      ],
      [
        "Ġsomeone",
        -9.016838452148608
      ],
      [
        "Ġglobal",
        -9.017792716709137
      ],
      [
        "Ġminutes",
        -9.017804654248517
      ],
      [
        "Ġfruit",
        -9.018023301822272
      ],
      [
        "Ġcycle",
        -9.020260320498725
      ],
      [
        "Ġcreated",
        -9.022128510736952
      ],
      [
        "Ġdegree",
        -9.022319869955286
      ],
      [
        "ĠDNA",
        -9.02270245811516
      ],
      [
        "Ġconsidered",
        -9.024335170540972
      ],
      [
        "P",
        -9.025070951972449
      ],
      [
        "Ġetc",
        -9.026024546094742
      ],
      [
        "ten",
        -9.026242351523605
      ],
      [
        "Ġothers",
        -9.026884014857378
      ],
      [
        "âĢ¦",
        -9.02822995375027
      ],
      [
        "Ġquestions",
        -9.028535201773698
      ],
      [
        "Ġsugar",
        -9.02915473683186
      ],
      [
        "Ġsuggest",
        -9.02966575581635
      ],
      [
        "Ġfall",
        -9.030403490244954
      ],
      [
        "ĠNational",
        -9.031295012497594
      ],
      [
        "Ġpast",
        -9.032847157837098
      ],
      [
        "Ġreach",
        -9.034005906163662
      ],
      [
        "\\",
        -9.034111377966074
      ],
      [
        "Ġplastic",
        -9.03420143261545
      ],
      [
        "Ġmodern",
        -9.035069143445751
      ],
      [
        "Ġchoose",
        -9.035297088374758
      ],
      [
        "Ġidentify",
        -9.03627973937261
      ],
      [
        "Ġmix",
        -9.037778837895692
      ],
      [
        "Ġchoice",
        -9.038791591964522
      ],
      [
        "Ġstore",
        -9.040192690106329
      ],
      [
        "Ġhot",
        -9.04232170973462
      ],
      [
        "So",
        -9.042703928910164
      ],
      [
        "Ġmanagement",
        -9.045072982754956
      ],
      [
        "ember",
        -9.046012543574877
      ],
      [
        "Ġwithou",
        -9.046425003562948
      ],
      [
        "Ġsimply",
        -9.046850098863793
      ],
      [
        "Ġaddress",
        -9.047381528928764
      ],
      [
        "Ġprobably",
        -9.04747362310059
      ],
      [
        "Ġlarger",
        -9.048438756447736
      ],
      [
        "to",
        -9.04898834415338
      ],
      [
        "Ġtalk",
        -9.050369832455546
      ],
      [
        "Ġjob",
        -9.052893230821986
      ],
      [
        "ĠScience",
        -9.053463604441587
      ],
      [
        "it",
        -9.054308033992616
      ],
      [
        "Ġyourself",
        -9.056449055210162
      ],
      [
        "#",
        -9.057371009112709
      ],
      [
        "Ġextreme",
        -9.057422327892647
      ],
      [
        "Ġblock",
        -9.05750340490466
      ],
      [
        "Ġmillion",
        -9.059384872081642
      ],
      [
        "Ġpet",
        -9.05981214590329
      ],
      [
        "ĠN",
        -9.061616221250564
      ],
      [
        "Ġlanguage",
        -9.06271769513275
      ],
      [
        "Ġincreasing",
        -9.06394303824197
      ],
      [
        "Ġreturn",
        -9.064190672009037
      ],
      [
        "Ġoptions",
        -9.066742215385649
      ],
      [
        "Ġterm",
        -9.066762599512494
      ],
      [
        "Ġwebsite",
        -9.06939688886528
      ],
      [
        "Ġcondition",
        -9.069501694832644
      ],
      [
        "Ġseason",
        -9.072105618854131
      ],
      [
        "Ġrepresent",
        -9.072772745651047
      ],
      [
        "where",
        -9.074025763745867
      ],
      [
        "Ġscientists",
        -9.076247796367198
      ],
      [
        "Ġadult",
        -9.076363297626484
      ],
      [
        "Ġmovement",
        -9.076432401005327
      ],
      [
        "Ġbad",
        -9.077173075988863
      ],
      [
        "Ġpatients",
        -9.077476832710502
      ],
      [
        "Ġsituation",
        -9.078506626847368
      ],
      [
        "Ġreaction",
        -9.079188411405624
      ],
      [
        "Ġadvantage",
        -9.081479210571572
      ],
      [
        "Ġinterest",
        -9.081914938482686
      ],
      [
        "Ġlater",
        -9.082134671532014
      ],
      [
        "Ġdecision",
        -9.083185605094648
      ],
      [
        "Ġself",
        -9.08516989676086
      ],
      [
        "Ġalmost",
        -9.085468040885996
      ],
      [
        "Ġwomen",
        -9.08591007649527
      ],
      [
        "Ġrelated",
        -9.086515866850116
      ],
      [
        "Ġsometime",
        -9.08781964658719
      ],
      [
        "Ġact",
        -9.088051260946518
      ],
      [
        "Ġexpert",
        -9.088141883492332
      ],
      [
        "Ġsleep",
        -9.089381108581083
      ],
      [
        "Ġrelative",
        -9.09158975487498
      ],
      [
        "Ġcommunication",
        -9.093328174209695
      ],
      [
        "Ġdrive",
        -9.09386402471193
      ],
      [
        "Ġwall",
        -9.093995820907026
      ],
      [
        "Ġeducation",
        -9.09640526105954
      ],
      [
        "Ġbattery",
        -9.096621155664286
      ],
      [
        "Ġregard",
        -9.099081547520836
      ],
      [
        "Ġexact",
        -9.100387665910796
      ],
      [
        "Ġwinter",
        -9.100538295221403
      ],
      [
        "Ġreport",
        -9.10106257823174
      ],
      [
        "ful",
        -9.101221723981991
      ],
      [
        "Ġcode",
        -9.10316433784429
      ],
      [
        "Ġlimit",
        -9.105445770818983
      ],
      [
        "v",
        -9.106196374485588
      ],
      [
        "Ġoutside",
        -9.10671868334364
      ],
      [
        "Ġbreed",
        -9.107894154096638
      ],
      [
        "Ġstop",
        -9.108163399793636
      ],
      [
        "Ġefficient",
        -9.108967630756348
      ],
      [
        "-based",
        -9.109452400184615
      ],
      [
        "by",
        -9.110672097917046
      ],
      [
        "Ġfive",
        -9.112615354022012
      ],
      [
        "Ġdistance",
        -9.113294949037464
      ],
      [
        "Ġpercent",
        -9.113669299384936
      ],
      [
        "Ġspring",
        -9.113986184873266
      ],
      [
        "Ġapplications",
        -9.114708207110546
      ],
      [
        "\"ĊĊ",
        -9.115182701632175
      ],
      [
        "Ġapplication",
        -9.11527152714246
      ],
      [
        "Ġland",
        -9.115388871577442
      ],
      [
        "Ġshown",
        -9.115392980321538
      ],
      [
        "Ġeverything",
        -9.115720984427064
      ],
      [
        "ĠL",
        -9.117600448895937
      ],
      [
        "|",
        -9.117672369619616
      ],
      [
        "Ġsubject",
        -9.118174859770726
      ],
      [
        "Ġgain",
        -9.118206742467738
      ],
      [
        "Ġelements",
        -9.118650970805964
      ],
      [
        "Ġcustomer",
        -9.119111343988278
      ],
      [
        "Ġfuel",
        -9.119903386981967
      ],
      [
        "Ġstarted",
        -9.122184352122646
      ],
      [
        "Ġtool",
        -9.122301058484616
      ],
      [
        "Ġyet",
        -9.122866507767936
      ],
      [
        "Ġcountry",
        -9.124067671184855
      ],
      [
        "Ġinstead",
        -9.124207668018109
      ],
      [
        "Ġexplore",
        -9.12455508923874
      ],
      [
        "Ġsearch",
        -9.12552930284888
      ],
      [
        "ĠAll",
        -9.125870996214791
      ],
      [
        "Ġchemical",
        -9.129747721814663
      ],
      [
        "Ġkids",
        -9.130612440014964
      ],
      [
        "Ġcharge",
        -9.13105538540551
      ],
      [
        "Ġanalysis",
        -9.132056723919842
      ],
      [
        "Ġgenerate",
        -9.132203452956883
      ],
      [
        "One",
        -9.13229265025707
      ],
      [
        "Ġsea",
        -9.13526445777861
      ],
      [
        "Ġactive",
        -9.13707224502318
      ],
      [
        "Ġstation",
        -9.138458383436816
      ],
      [
        "ĠStates",
        -9.138970247957726
      ],
      [
        "Ġpage",
        -9.140665048808833
      ],
      [
        "Ġeffort",
        -9.142517589204608
      ],
      [
        "Ġstudies",
        -9.144147268095344
      ],
      [
        "Ġtravel",
        -9.145306239066912
      ],
      [
        "Ġfinal",
        -9.15037387251467
      ],
      [
        "Ġoriginal",
        -9.153288736744674
      ],
      [
        "Ġattention",
        -9.15357527947194
      ],
      [
        "Ġevidence",
        -9.154407502021586
      ],
      [
        "Ġthemselves",
        -9.155257961712506
      ],
      [
        "Ġmonitor",
        -9.155839105006583
      ],
      [
        "Ġmedical",
        -9.156442725366986
      ],
      [
        "R",
        -9.156816357962452
      ],
      [
        "ĠHere",
        -9.157611142498196
      ],
      [
        "Ġadvance",
        -9.157658322570809
      ],
      [
        "Ġwon",
        -9.158267626359065
      ],
      [
        "Ġlength",
        -9.158535308684431
      ],
      [
        "F",
        -9.158804291335876
      ],
      [
        "ĠAn",
        -9.159567280577097
      ],
      [
        "Ġfactor",
        -9.160259729651596
      ],
      [
        "H",
        -9.16109099323645
      ],
      [
        "Ġanything",
        -9.161898874651705
      ],
      [
        "Ġnight",
        -9.163139431646536
      ],
      [
        "Ġoperation",
        -9.163846885990276
      ],
      [
        "ĠEarth",
        -9.164276305438424
      ],
      [
        "Ġprevious",
        -9.164573212949245
      ],
      [
        "Ġguide",
        -9.16542513794263
      ],
      [
        "Ġear",
        -9.166523551709853
      ],
      [
        "Ġtrees",
        -9.167397965299184
      ],
      [
        "Ġappear",
        -9.167412061263851
      ],
      [
        "Ġoption",
        -9.168162643129984
      ],
      [
        "Ġfinding",
        -9.168193165623569
      ],
      [
        "Ġserve",
        -9.168950539593071
      ],
      [
        "Ġweather",
        -9.170479670235167
      ],
      [
        "Ġmentioned",
        -9.17156369344634
      ],
      [
        "Ġtaken",
        -9.171657019952445
      ],
      [
        "Ġreading",
        -9.17425667989475
      ],
      [
        "Ġspread",
        -9.17517014275061
      ],
      [
        "Ġview",
        -9.175264466200844
      ],
      [
        "Ġadditional",
        -9.177750644493807
      ],
      [
        "Ġequipment",
        -9.177838536196504
      ],
      [
        "Ġwood",
        -9.17988339185442
      ],
      [
        "Ġdrink",
        -9.181088402787896
      ],
      [
        "Ġstrateg",
        -9.182380218309302
      ],
      [
        "Ġlink",
        -9.18238621434692
      ],
      [
        "Ġservices",
        -9.182658721302936
      ],
      [
        "Ġdisplay",
        -9.182907714881615
      ],
      [
        "Ġvisit",
        -9.183146016849696
      ],
      [
        "Ġbuy",
        -9.183330498671172
      ],
      [
        "Ġfun",
        -9.183814599311624
      ],
      [
        "Ġtrying",
        -9.186797976940944
      ],
      [
        "Ġfresh",
        -9.18732727246002
      ],
      [
        "quite",
        -9.188172514895852
      ],
      [
        "Ġstory",
        -9.188183908527634
      ],
      [
        "Ġago",
        -9.18857366584544
      ],
      [
        "ĠAt",
        -9.189542461321787
      ],
      [
        "Ġpay",
        -9.192356729387614
      ],
      [
        "E",
        -9.19257428761665
      ],
      [
        "Ġculture",
        -9.192880381406258
      ],
      [
        "Ġmedia",
        -9.19357281883534
      ],
      [
        "Ġcharacter",
        -9.194108014713622
      ],
      [
        "ĠShe",
        -9.195453462053877
      ],
      [
        "ĠJ",
        -9.19657716206385
      ],
      [
        "Ġindicate",
        -9.197258023626336
      ],
      [
        "Ġshows",
        -9.19737320178434
      ],
      [
        "Ġtrue",
        -9.198757929555532
      ],
      [
        "Ġflower",
        -9.19924325405498
      ],
      [
        "ĠDo",
        -9.19930657170142
      ],
      [
        "Ġstage",
        -9.199729597774589
      ],
      [
        ").Ċ",
        -9.200055179654154
      ],
      [
        "Ġhalf",
        -9.201178766256463
      ],
      [
        "Ġhear",
        -9.202373502569356
      ],
      [
        "Ġstudent",
        -9.20370114176232
      ],
      [
        "Ġstrength",
        -9.204581749689943
      ],
      [
        "Ġsave",
        -9.205052443697165
      ],
      [
        "Ġcamera",
        -9.207491950771196
      ],
      [
        "Ġcenter",
        -9.210020690544043
      ],
      [
        "Ġice",
        -9.210272103199449
      ],
      [
        "Ġmeat",
        -9.211791228452237
      ],
      [
        "Ġpass",
        -9.21210076527307
      ],
      [
        "Ġapply",
        -9.212898929153784
      ],
      [
        "Ġsuccessful",
        -9.212908800238395
      ],
      [
        "Ġcover",
        -9.213894311244758
      ],
      [
        "Ġdark",
        -9.214158289060526
      ],
      [
        "Ġinput",
        -9.214161226698888
      ],
      [
        "Ġgroups",
        -9.214552202306118
      ],
      [
        "Ġdeliver",
        -9.216023066487882
      ],
      [
        "ĠCan",
        -9.216372153602087
      ],
      [
        "Ġworks",
        -9.22053587948714
      ],
      [
        "Ġproper",
        -9.220905093960088
      ],
      [
        "Ġnegative",
        -9.221901357774705
      ],
      [
        "Ġstandard",
        -9.22258050036792
      ],
      [
        "Ġbirds",
        -9.223030665782217
      ],
      [
        "Ġbehind",
        -9.226378872007302
      ],
      [
        "Ġrecord",
        -9.228820041584331
      ],
      [
        "Ġdetail",
        -9.23031490697466
      ],
      [
        "Ġaccount",
        -9.230983774241992
      ],
      [
        "Ġfront",
        -9.232038439855245
      ],
      [
        "N",
        -9.233096778164118
      ],
      [
        "Â°",
        -9.236824737149291
      ],
      [
        "Ġselection",
        -9.236978312416827
      ],
      [
        "Ġmov",
        -9.237201973063758
      ],
      [
        "Ġconstant",
        -9.237750402783927
      ],
      [
        "Ġeyes",
        -9.23866604295743
      ],
      [
        "ĠUnite",
        -9.239514567460123
      ],
      [
        "Ġparticularly",
        -9.240654928341815
      ],
      [
        "Ġwalk",
        -9.242085943876653
      ],
      [
        "Ġscientific",
        -9.243611160725456
      ],
      [
        "ance",
        -9.24394659110488
      ],
      [
        "Ġmass",
        -9.24752264898335
      ],
      [
        "M",
        -9.249442875190978
      ],
      [
        "Ġconnection",
        -9.249534768629855
      ],
      [
        "ĠHealth",
        -9.250571725064283
      ],
      [
        "Ġelectric",
        -9.257218843558416
      ],
      [
        "ĠYes",
        -9.2607929214066
      ],
      [
        "ĠG",
        -9.261935418256066
      ],
      [
        "Ġleading",
        -9.262174378140244
      ],
      [
        "Ġcolors",
        -9.265694352722443
      ],
      [
        "Ġvegetable",
        -9.266420539992524
      ],
      [
        "Ġaction",
        -9.266511965958832
      ],
      [
        "Ġmental",
        -9.266973281701183
      ],
      [
        "Ġfit",
        -9.268112598283288
      ],
      [
        "Why",
        -9.27109975141228
      ],
      [
        "Ġprocesses",
        -9.271799289953972
      ],
      [
        "ĠâĢľ",
        -9.271917385334303
      ],
      [
        "ĠUS",
        -9.27226331921915
      ],
      [
        "ĠAfter",
        -9.27240208325468
      ],
      [
        "Ġsun",
        -9.272574346394071
      ],
      [
        "Ġsummer",
        -9.275131859476872
      ],
      [
        "Ġinfluence",
        -9.275475291082198
      ],
      [
        "+",
        -9.275507576358216
      ],
      [
        "Ġtend",
        -9.27624119369311
      ],
      [
        "Ġsoftware",
        -9.276731114470175
      ],
      [
        "z",
        -9.280890040850975
      ],
      [
        "Ġ+",
        -9.281578088149756
      ],
      [
        "Ġgovernment",
        -9.281837291362644
      ],
      [
        "Ġnotice",
        -9.282030869037628
      ],
      [
        "Ġdiscuss",
        -9.282476102073913
      ],
      [
        "Ġcontribute",
        -9.282730892783349
      ],
      [
        "Ġattack",
        -9.28353888750761
      ],
      [
        "wise",
        -9.28435778337512
      ],
      [
        "Ġcauses",
        -9.284549634530055
      ],
      [
        "ĠSchool",
        -9.284891890252185
      ],
      [
        ">",
        -9.28552760078879
      ],
      [
        "Ġinitial",
        -9.286172261421516
      ],
      [
        "man",
        -9.287454053125709
      ],
      [
        "âĢ¢",
        -9.287767790962649
      ],
      [
        "Ġwind",
        -9.287820225438509
      ],
      [
        "Ġelse",
        -9.289189497397082
      ],
      [
        "Ġinjur",
        -9.290503559371192
      ],
      [
        "Ġdirection",
        -9.290619787290098
      ],
      [
        "Q",
        -9.291314134741413
      ],
      [
        "Ġblue",
        -9.292541406354612
      ],
      [
        "Ġextra",
        -9.292576697218712
      ],
      [
        "Ġcritical",
        -9.29341629908322
      ],
      [
        "land",
        -9.294309948440878
      ],
      [
        "Ġterms",
        -9.29523254321935
      ],
      [
        "Ġocean",
        -9.29617234609411
      ],
      [
        "Ġevents",
        -9.29626931972292
      ],
      [
        "Ġweeks",
        -9.296480820289492
      ],
      [
        "Ġmale",
        -9.297021089295612
      ],
      [
        "Ġseparate",
        -9.297053033603165
      ],
      [
        "ĠDr",
        -9.297638271349165
      ],
      [
        "Ġbuilt",
        -9.297866074637614
      ],
      [
        "Ġenhance",
        -9.29975646718919
      ],
      [
        "Ġlack",
        -9.299813938681911
      ],
      [
        "Ġelectrical",
        -9.299989003124123
      ],
      [
        "Ġtissue",
        -9.300350675741148
      ],
      [
        "Ġvisual",
        -9.30035961782982
      ],
      [
        "Ġcountries",
        -9.30039818105178
      ],
      [
        "ĠAmerica",
        -9.3006787954434
      ],
      [
        "âĢĻ",
        -9.301455984723106
      ],
      [
        "Ġdail",
        -9.304080028939152
      ],
      [
        "Ġfeature",
        -9.305870132645492
      ],
      [
        "Ġcombination",
        -9.306245414370316
      ],
      [
        "Ġeggs",
        -9.30643016062834
      ],
      [
        "But",
        -9.307052321061615
      ],
      [
        "Ġrunning",
        -9.307458084535687
      ],
      [
        "Ġpre",
        -9.307760887949684
      ],
      [
        "ĠNorth",
        -9.310612231376464
      ],
      [
        "more",
        -9.31079547710796
      ],
      [
        "Ġrest",
        -9.311738662830187
      ],
      [
        "Ġeasier",
        -9.311812032131424
      ],
      [
        "Ġequal",
        -9.312872769053696
      ],
      [
        "Ġrequirement",
        -9.313294083499583
      ],
      [
        "Ġsix",
        -9.313295395856075
      ],
      [
        "Ġpaint",
        -9.314701233106597
      ],
      [
        "Ġorganization",
        -9.317081722914097
      ],
      [
        "Ġhorse",
        -9.317148033943436
      ],
      [
        "Ġsalt",
        -9.319163406280126
      ],
      [
        "Ġdeath",
        -9.319169273729752
      ],
      [
        "Ġrecommended",
        -9.319574567479924
      ],
      [
        "Ġfire",
        -9.322940077611465
      ],
      [
        "Ġdidn",
        -9.323356047701482
      ],
      [
        "Ġalternative",
        -9.325552549370846
      ],
      [
        "Ġremain",
        -9.326814678499922
      ],
      [
        "Ġimages",
        -9.32697294293703
      ],
      [
        "ecause",
        -9.327913727268651
      ],
      [
        "Ġhabitat",
        -9.32909115198954
      ],
      [
        "Ġgoal",
        -9.329742668882048
      ],
      [
        "Ġgene",
        -9.329863352675147
      ],
      [
        "Ġingredient",
        -9.331251054354004
      ],
      [
        "Ġuseful",
        -9.334777639666546
      ],
      [
        "Ġcity",
        -9.33679417136332
      ],
      [
        "Ġstyle",
        -9.336938121841882
      ],
      [
        "Ġmeet",
        -9.337677915384688
      ],
      [
        "Ġefficienc",
        -9.33778072902257
      ],
      [
        "ĠMost",
        -9.337968663755936
      ],
      [
        "gan",
        -9.339208239847894
      ],
      [
        "Ġman",
        -9.339295043252548
      ],
      [
        "Ġtopic",
        -9.340734246690795
      ],
      [
        "Ġmonth",
        -9.340891278069794
      ],
      [
        "Ġchance",
        -9.341276364927182
      ],
      [
        "L",
        -9.34373331672317
      ],
      [
        "Ġfine",
        -9.345506568209975
      ],
      [
        "ĠMore",
        -9.348913351001151
      ],
      [
        "Ġoutput",
        -9.34929515206808
      ],
      [
        "Ġappropriate",
        -9.349747141016636
      ],
      [
        "Ġitems",
        -9.349772161026827
      ],
      [
        "Ġfilter",
        -9.350259565013912
      ],
      [
        "Ġboard",
        -9.351241495002082
      ],
      [
        "Ġaim",
        -9.35216885603051
      ],
      [
        "Ġdemand",
        -9.352510363413618
      ],
      [
        "Ġroot",
        -9.353797843001882
      ],
      [
        "Ġprice",
        -9.35579537493406
      ],
      [
        "O",
        -9.359540173613484
      ],
      [
        "Ġtowards",
        -9.359569289862211
      ],
      [
        "Ġeveryone",
        -9.3607075319394
      ],
      [
        "Ġinsect",
        -9.361696302210158
      ],
      [
        "Ġtips",
        -9.3634912360437
      ],
      [
        "Ġsupply",
        -9.363689391777283
      ],
      [
        "Ġcharacteristic",
        -9.364978578866506
      ],
      [
        "Ġdetect",
        -9.365096468832771
      ],
      [
        "ĠOf",
        -9.365659660999736
      ],
      [
        "ĠUse",
        -9.365843051427207
      ],
      [
        "Ġconnect",
        -9.366841133229602
      ],
      [
        ".S",
        -9.367789347270044
      ],
      [
        "Ġevent",
        -9.368416490869336
      ],
      [
        "Ġachieve",
        -9.370150086698178
      ],
      [
        "Ġestablish",
        -9.370262722828224
      ],
      [
        "Ġharm",
        -9.370863874959728
      ],
      [
        "Ġconcern",
        -9.371075862651722
      ],
      [
        "Ġextend",
        -9.371185804269471
      ],
      [
        "Ġsteps",
        -9.372061367257356
      ],
      [
        "Ġcame",
        -9.375206232236028
      ],
      [
        "Ġprint",
        -9.375366164658534
      ],
      [
        "Ġprotection",
        -9.376061000963825
      ],
      [
        "Ġmodels",
        -9.377753555231534
      ],
      [
        "Ġcarry",
        -9.378603800398878
      ],
      [
        "Ġbegin",
        -9.379227581339643
      ],
      [
        "Ġlocate",
        -9.379341363314015
      ],
      [
        "Ġspot",
        -9.379770223287162
      ],
      [
        "Ġfeed",
        -9.38205272985845
      ],
      [
        "=",
        -9.382807921619104
      ],
      [
        "ĠO",
        -9.382926603722492
      ],
      [
        "Ġsensor",
        -9.384685879185731
      ],
      [
        "âĢĿ",
        -9.384988854873182
      ],
      [
        "Ġwriting",
        -9.3853443075686
      ],
      [
        "Ġupon",
        -9.385392836570366
      ],
      [
        "Ġhope",
        -9.385462296461174
      ],
      [
        "Ġhole",
        -9.386563880121226
      ],
      [
        "ĠK",
        -9.386575382450427
      ],
      [
        "Ġhold",
        -9.386792306637046
      ],
      [
        "Ġdeal",
        -9.38714616973681
      ],
      [
        "ĠMany",
        -9.38818002690012
      ],
      [
        "-to",
        -9.38905926033481
      ],
      [
        "\\n",
        -9.389347198060998
      ],
      [
        "Ġorganic",
        -9.389731390732091
      ],
      [
        "Ġmemory",
        -9.389743261253807
      ],
      [
        "Ġfeeling",
        -9.39006047591744
      ],
      [
        "Ġtrain",
        -9.39061404219466
      ],
      [
        "Ġspend",
        -9.391884668033727
      ],
      [
        "ĠMy",
        -9.392433124927043
      ],
      [
        "Ġbrand",
        -9.394537525341857
      ],
      [
        "Ġedge",
        -9.3948749901387
      ],
      [
        "Ġobtain",
        -9.396263995102755
      ],
      [
        "Ġimportance",
        -9.396787421898154
      ],
      [
        "Ġwear",
        -9.397168745743574
      ],
      [
        "Ġserious",
        -9.398188807036412
      ],
      [
        "Ġfoods",
        -9.398624048396396
      ],
      [
        "Ġdate",
        -9.398693276219312
      ],
      [
        "Ġsuccess",
        -9.39879854121874
      ],
      [
        "Ġoxygen",
        -9.399714587962968
      ],
      [
        "Ġfill",
        -9.400175926771308
      ],
      [
        "Ġmilk",
        -9.40040008962253
      ],
      [
        "Ġmoment",
        -9.402111740902122
      ],
      [
        "ĠSouth",
        -9.403309896292807
      ],
      [
        "companie",
        -9.404923252991876
      ],
      [
        "Ġideal",
        -9.406510045903904
      ],
      [
        "Ġideas",
        -9.406838999288224
      ],
      [
        "ĠFrom",
        -9.408066934635396
      ],
      [
        "...ĊĊ",
        -9.408896871624131
      ],
      [
        "Ġfigure",
        -9.409308600409794
      ],
      [
        "Ġencourage",
        -9.41121875914598
      ],
      [
        "Ġslight",
        -9.4120788942501
      ],
      [
        "Ġmen",
        -9.413472664954334
      ],
      [
        "Ġenable",
        -9.41429103492475
      ],
      [
        "Ġpatient",
        -9.415486709663613
      ],
      [
        "Ġtaste",
        -9.416286477711562
      ],
      [
        "Ġsoft",
        -9.418426087028507
      ],
      [
        "Ġinstance",
        -9.419195696529489
      ],
      [
        "ĠResearch",
        -9.419689940463714
      ],
      [
        "ization",
        -9.423197560817034
      ],
      [
        ".com",
        -9.423643338111653
      ],
      [
        "Ġremember",
        -9.424319780822248
      ],
      [
        "Ġfluid",
        -9.425122887270897
      ],
      [
        "Ġmaintenance",
        -9.425419587906038
      ],
      [
        "Ġwatch",
        -9.42711216172689
      ],
      [
        "Ġimmediate",
        -9.428095533404436
      ],
      [
        "Ġdraw",
        -9.428439288202686
      ],
      [
        "Ġmanage",
        -9.428478716304332
      ],
      [
        "Ġseeds",
        -9.428792381166769
      ],
      [
        "Ġseries",
        -9.430686901989356
      ],
      [
        "Ġteeth",
        -9.4309368847375
      ],
      [
        "Ġnothing",
        -9.432733256515723
      ],
      [
        "Ġhandle",
        -9.432890647712792
      ],
      [
        "Ġpromote",
        -9.433158433756777
      ],
      [
        "Ġproperly",
        -9.434620997281522
      ],
      [
        "Ġcommonly",
        -9.43479089049116
      ],
      [
        "Ġdoctor",
        -9.435477315969798
      ],
      [
        "Ġdiseases",
        -9.438853182476604
      ],
      [
        "Ġcircuit",
        -9.439001542107755
      ],
      [
        "Ġtable",
        -9.442508232681805
      ],
      [
        "Ġvision",
        -9.442634249348217
      ],
      [
        "Ġrepair",
        -9.44276715578934
      ],
      [
        "ĠV",
        -9.443752582684844
      ],
      [
        "K",
        -9.444105335194122
      ],
      [
        "Ġobjects",
        -9.444317548188035
      ],
      [
        "Ġpoor",
        -9.444351554484577
      ],
      [
        "Ġaccurate",
        -9.44446526780722
      ],
      [
        "Ġbaby",
        -9.44515899371553
      ],
      [
        "Ġbox",
        -9.445710012064064
      ],
      [
        "Ġfrequent",
        -9.44593155888922
      ],
      [
        "ism",
        -9.447314922178029
      ],
      [
        "Can",
        -9.44769217861868
      ],
      [
        "Ġsection",
        -9.449906124563988
      ],
      [
        "Ġcount",
        -9.451677563765951
      ],
      [
        "Ġpretty",
        -9.452352677666696
      ],
      [
        "Ġhair",
        -9.452718681245884
      ],
      [
        "Ġsort",
        -9.45397840569533
      ],
      [
        "Ġkill",
        -9.45502057980812
      ],
      [
        "Ġliquid",
        -9.455105272517276
      ],
      [
        "Ġproteins",
        -9.456910225258673
      ],
      [
        "Ġcats",
        -9.45952260872094
      ],
      [
        "Ġrelationship",
        -9.460053728701787
      ],
      [
        "Ġseek",
        -9.461542401687108
      ],
      [
        "one",
        -9.461974411170551
      ],
      [
        "These",
        -9.462627530461052
      ],
      [
        "Ġhearing",
        -9.46354473080414
      ],
      [
        "Ġfat",
        -9.463723591492135
      ],
      [
        "Ġlives",
        -9.466058250626848
      ],
      [
        "ĠX",
        -9.466759176337725
      ],
      [
        "Ġanti",
        -9.46911652270484
      ],
      [
        "V",
        -9.469646170474627
      ],
      [
        "came",
        -9.469907572649026
      ],
      [
        "With",
        -9.471119971220215
      ],
      [
        "Ġplanet",
        -9.472897040222891
      ],
      [
        "Ġcentury",
        -9.473623036877749
      ],
      [
        "Ġload",
        -9.474004591671148
      ],
      [
        "Ġtask",
        -9.474306256916778
      ],
      [
        "By",
        -9.474733652667409
      ],
      [
        "ĠWorld",
        -9.478391622219975
      ],
      [
        "Ġcontains",
        -9.478690065038764
      ],
      [
        "Ġapp",
        -9.479159332245144
      ],
      [
        "Ġchallenges",
        -9.480339000711645
      ],
      [
        "Ġinteresting",
        -9.480882374394993
      ],
      [
        "Ġtechnique",
        -9.48123287104142
      ],
      [
        "Ġstand",
        -9.481382208030311
      ],
      [
        "Ġcompound",
        -9.481597788418814
      ],
      [
        "Ġevolution",
        -9.48227024554408
      ],
      [
        "ĠWhy",
        -9.485485896139174
      ],
      [
        "G",
        -9.486995941739048
      ],
      [
        "Ġnoise",
        -9.487413761284468
      ],
      [
        "Ġcouple",
        -9.48841950600713
      ],
      [
        "Ġtouch",
        -9.488659573935593
      ],
      [
        "Ġresponsible",
        -9.48996352660776
      ],
      [
        "Ġphone",
        -9.490335774278638
      ],
      [
        "ĠAdditional",
        -9.491567024865144
      ],
      [
        "Ġcooking",
        -9.491955927362948
      ],
      [
        "Ġcleaning",
        -9.492443470307585
      ],
      [
        "Ġgoe",
        -9.493897307999966
      ],
      [
        "for",
        -9.496830508991998
      ],
      [
        "ĠW",
        -9.498856595153764
      ],
      [
        "Ġcloth",
        -9.498972679862458
      ],
      [
        "Ġenter",
        -9.501691749304694
      ],
      [
        "ĠWater",
        -9.5018196408511
      ],
      [
        "Ġmap",
        -9.50200866415144
      ],
      [
        "Ġmembers",
        -9.502862017463348
      ],
      [
        "Ġreflect",
        -9.504184169646283
      ],
      [
        "Ġphase",
        -9.504680163921352
      ],
      [
        "Ġvia",
        -9.505218271401812
      ],
      [
        "Ġmolecules",
        -9.505333888468058
      ],
      [
        "Ġsmooth",
        -9.506480302920645
      ],
      [
        "Ġrise",
        -9.507683088548628
      ],
      [
        "Ġbeautiful",
        -9.508541065935743
      ],
      [
        "[",
        -9.50876813533023
      ],
      [
        "Ġrich",
        -9.509077072931406
      ],
      [
        "Ġdesire",
        -9.509909514416677
      ],
      [
        "Ġbottom",
        -9.510401147135635
      ],
      [
        "Ġfile",
        -9.510635285732082
      ],
      [
        "Ġstick",
        -9.51138813623903
      ],
      [
        "Ġaccept",
        -9.512593980345024
      ],
      [
        "Ġheavy",
        -9.514324613996273
      ],
      [
        "ive",
        -9.514463370491912
      ],
      [
        "Ġreplace",
        -9.514637942645528
      ],
      [
        "$",
        -9.514823945012756
      ],
      [
        "Ġadapt",
        -9.5157070850791
      ],
      [
        "Ġmaximum",
        -9.518241586950456
      ],
      [
        "Ġsetting",
        -9.519638653320072
      ],
      [
        "ĠNot",
        -9.519923464520527
      ],
      [
        "Ġrefer",
        -9.52109635898702
      ],
      [
        "Ġmechanism",
        -9.521562043155528
      ],
      [
        "Ġconstruction",
        -9.522668990793598
      ],
      [
        "Ġsustainable",
        -9.523959644039508
      ],
      [
        "Ġcollect",
        -9.524505808410346
      ],
      [
        "Ġsoon",
        -9.525048515856351
      ],
      [
        "Ġdecrease",
        -9.525140715676775
      ],
      [
        "Ġwait",
        -9.525694928640508
      ],
      [
        "Ġearth",
        -9.52606920820679
      ],
      [
        "Ġflight",
        -9.526225368174686
      ],
      [
        "Ġwrite",
        -9.529617725421351
      ],
      [
        "inches",
        -9.529760450035475
      ],
      [
        "Ġconcept",
        -9.529864541782176
      ],
      [
        "Ġtherap",
        -9.530480482461634
      ],
      [
        "ĠCenter",
        -9.530646891740084
      ],
      [
        "Ġpull",
        -9.53131398285074
      ],
      [
        "-up",
        -9.532296671739124
      ],
      [
        "Ġelectronic",
        -9.533249099260097
      ],
      [
        "Ġexpand",
        -9.533604659125446
      ],
      [
        "Ġtank",
        -9.533713643878404
      ],
      [
        "Ġensur",
        -9.53379819475229
      ],
      [
        "Ġmoisture",
        -9.53453930764383
      ],
      [
        "Ġprojects",
        -9.534555557101168
      ],
      [
        "Ġswitch",
        -9.535508315818689
      ],
      [
        "Ġcausing",
        -9.536133968989278
      ],
      [
        "Ġcosts",
        -9.53712350510041
      ],
      [
        "Ġball",
        -9.538644416009848
      ],
      [
        "Ġadjust",
        -9.538665240979006
      ],
      [
        "Ġfinish",
        -9.540719497033146
      ],
      [
        "Ġscale",
        -9.543167269710471
      ],
      [
        "Ġbird",
        -9.543399463416431
      ],
      [
        "Ġcontainer",
        -9.544155946696725
      ],
      [
        "ĠAre",
        -9.545687130866645
      ],
      [
        "ĠAlso",
        -9.546449684142534
      ],
      [
        "Ġimplement",
        -9.547661786506728
      ],
      [
        "Ġpanel",
        -9.547879436039835
      ],
      [
        "Ġpark",
        -9.548513614471467
      ],
      [
        "Ġcutting",
        -9.549041162758138
      ],
      [
        "Some",
        -9.549222941583722
      ],
      [
        "Ġhost",
        -9.551494977671895
      ],
      [
        "over",
        -9.552463741206456
      ],
      [
        "Ġapplied",
        -9.552583828282131
      ],
      [
        "ers",
        -9.552887597019591
      ],
      [
        "Ġrare",
        -9.553004211016308
      ],
      [
        "Ġraise",
        -9.553714567006612
      ],
      [
        "Ġroad",
        -9.554357570460231
      ],
      [
        "Ġscreen",
        -9.555433545978255
      ],
      [
        "ĠInstitute",
        -9.555839315998156
      ],
      [
        "Ġplann",
        -9.557023114814786
      ],
      [
        "of",
        -9.55772858653199
      ],
      [
        "Ġfriends",
        -9.557755536205365
      ],
      [
        "Ġpick",
        -9.55834406238627
      ],
      [
        "Ġ--",
        -9.559479086640168
      ],
      [
        "lthough",
        -9.560362065239351
      ],
      [
        "Ġuses",
        -9.560613350461589
      ],
      [
        "Ġwrong",
        -9.56186010073182
      ],
      [
        "ĠWho",
        -9.562378190343896
      ],
      [
        "Ġresistance",
        -9.56256736593421
      ],
      [
        "An",
        -9.563139377499189
      ],
      [
        "Ġpest",
        -9.564879943921165
      ],
      [
        "Ġfrequency",
        -9.565821628724818
      ],
      [
        "Ġbag",
        -9.566096788302591
      ],
      [
        "Ġelement",
        -9.56630560707973
      ],
      [
        "Ġdiscovered",
        -9.566508438456276
      ],
      [
        "-term",
        -9.56716309442658
      ],
      [
        "Ġreducing",
        -9.567371833997935
      ],
      [
        "Ġpound",
        -9.569340023728415
      ],
      [
        "Ġcombine",
        -9.569619670127237
      ],
      [
        "Ġtrack",
        -9.570055942999154
      ],
      [
        "Ġdisorder",
        -9.57151022615981
      ],
      [
        "Ġready",
        -9.572159534036494
      ],
      [
        "Ġleg",
        -9.572376295020042
      ],
      [
        "Ġcapacity",
        -9.572688947667352
      ],
      [
        "ĠGod",
        -9.573184943551055
      ],
      [
        "On",
        -9.573682575857122
      ],
      [
        "Ġplatform",
        -9.574912281000628
      ],
      [
        "ĠOur",
        -9.575911231073992
      ],
      [
        "Ġstem",
        -9.576193862558332
      ],
      [
        "ĠEach",
        -9.578462665730411
      ],
      [
        "Ġshift",
        -9.578490026753329
      ],
      [
        "Ġvoltage",
        -9.579273812428138
      ],
      [
        "Ġrecommend",
        -9.580330779221924
      ],
      [
        "Ġpractices",
        -9.581149743256985
      ],
      [
        "Ġglass",
        -9.582093525924638
      ],
      [
        "Now",
        -9.58295932397964
      ],
      [
        "Ġpowerful",
        -9.583329356265828
      ],
      [
        "Step",
        -9.583694669910514
      ],
      [
        "And",
        -9.584892458053009
      ],
      [
        "Ġmessage",
        -9.58492851737576
      ],
      [
        "Ġvolume",
        -9.587688102851814
      ],
      [
        "Ġclaim",
        -9.589328773767663
      ],
      [
        "Ġfight",
        -9.58953908114444
      ],
      [
        "Ġhands",
        -9.58961308428188
      ],
      [
        "Ġthird",
        -9.592285290158303
      ],
      [
        "Ġwild",
        -9.5974184309676
      ],
      [
        "Ġbrown",
        -9.597512192054204
      ],
      [
        "Ġrapid",
        -9.598608990540589
      ],
      [
        "Ġgiving",
        -9.599824854880268
      ],
      [
        "Ġcommercial",
        -9.600720791913943
      ],
      [
        "Ġanyone",
        -9.60193411099072
      ],
      [
        "Ġjoint",
        -9.602119570739983
      ],
      [
        "Ġdriver",
        -9.602754028570894
      ],
      [
        "Ġphotograph",
        -9.603633238187788
      ],
      [
        "Ġeconomic",
        -9.604292757357458
      ],
      [
        "Ġbond",
        -9.605590741023462
      ],
      [
        "Ġdie",
        -9.60651952472208
      ],
      [
        "Ġmeaning",
        -9.607225675280215
      ],
      [
        "Ġconsist",
        -9.609663637593162
      ],
      [
        "Ġgenes",
        -9.610484343893802
      ],
      [
        "Ġpump",
        -9.61172139715374
      ],
      [
        "Ġcollection",
        -9.612958126064736
      ],
      [
        "Ġreview",
        -9.61387092244312
      ],
      [
        "Ġenzyme",
        -9.614523084043125
      ],
      [
        "Ġsolid",
        -9.61515020282092
      ],
      [
        "ĠThei",
        -9.615213300169072
      ],
      [
        "Ġfarm",
        -9.615246169234675
      ],
      [
        "Ġconcentration",
        -9.615509542323617
      ],
      [
        "Ġnutrients",
        -9.617341372154309
      ],
      [
        "took",
        -9.619072356657943
      ],
      [
        "Ġworth",
        -9.61990755387053
      ],
      [
        "ĠBe",
        -9.620043669663042
      ],
      [
        "Ġsevere",
        -9.6201373928639
      ],
      [
        "ĠNow",
        -9.62019486912106
      ],
      [
        "Ġgives",
        -9.620604186783794
      ],
      [
        "Ġstructures",
        -9.621780935685871
      ],
      [
        "Ġpicture",
        -9.62267662718842
      ],
      [
        "Ġattempt",
        -9.623053416316122
      ],
      [
        "limited",
        -9.62348784296882
      ],
      [
        "Ġversion",
        -9.625366040110908
      ],
      [
        "Ġtherefore",
        -9.627444557943276
      ],
      [
        "Ġgrade",
        -9.628879832249162
      ],
      [
        "Ġmusic",
        -9.629191111664236
      ],
      [
        "Ġchang",
        -9.629750101837145
      ],
      [
        "Ġstates",
        -9.631224879397628
      ],
      [
        "Ġforward",
        -9.631422061042054
      ],
      [
        "Ġthus",
        -9.631989755617152
      ],
      [
        "Ġlaw",
        -9.632732956695286
      ],
      [
        "Ġexcellent",
        -9.633040318135729
      ],
      [
        "Ġexpensive",
        -9.633196816307148
      ],
      [
        "Ġappearance",
        -9.633247297474782
      ],
      [
        "Ġexpected",
        -9.633820698047003
      ],
      [
        "Ġyellow",
        -9.634008403873215
      ],
      [
        "water",
        -9.635363328155425
      ],
      [
        "Ġtransport",
        -9.638955599319734
      ],
      [
        "Ġled",
        -9.639482448756656
      ],
      [
        "Ġdiscover",
        -9.640266354980682
      ],
      [
        "Ġsquare",
        -9.640389631160655
      ],
      [
        "Ġb",
        -9.641058547885178
      ],
      [
        "Do",
        -9.642143751403648
      ],
      [
        "Ġparticles",
        -9.642456005966404
      ],
      [
        "Ġplease",
        -9.643480581590124
      ],
      [
        "Ġsuitabl",
        -9.643912307554093
      ],
      [
        "Ġconsistent",
        -9.645140292450264
      ],
      [
        "Ġexposure",
        -9.64754021299104
      ],
      [
        "Ġfemale",
        -9.647678855820413
      ],
      [
        "care",
        -9.650467965088778
      ],
      [
        "Ġstone",
        -9.65108878804434
      ],
      [
        "Ġcoming",
        -9.65126152069777
      ],
      [
        "Ġco",
        -9.651585843646831
      ],
      [
        "Ġreported",
        -9.653626438336705
      ],
      [
        "Ġpath",
        -9.655414789443796
      ],
      [
        "Ġpractical",
        -9.65574178697564
      ],
      [
        "Ġmouth",
        -9.655798668266884
      ],
      [
        "ish",
        -9.655915900943835
      ],
      [
        "Ġjourney",
        -9.658860977918629
      ],
      [
        "Ġalgorithm",
        -9.65930797891554
      ],
      [
        "Ġsend",
        -9.659944316250211
      ],
      [
        "ĠLet",
        -9.660934498801163
      ],
      [
        "ĠIndia",
        -9.661513742384138
      ],
      [
        "Ġmagnetic",
        -9.661938076426932
      ],
      [
        "Ġbasi",
        -9.661976861352583
      ],
      [
        "Ġintroduce",
        -9.662322470209771
      ],
      [
        "Ġtransition",
        -9.662357559590648
      ],
      [
        "Ġround",
        -9.663797733823964
      ],
      [
        "Ġangle",
        -9.664919792249208
      ],
      [
        "Ġmulti",
        -9.667512368447872
      ],
      [
        "Ġdocument",
        -9.667590754338526
      ],
      [
        "Ġframe",
        -9.668053011079936
      ],
      [
        "Ġtexture",
        -9.668194582955577
      ],
      [
        "Ġsaw",
        -9.668566573683924
      ],
      [
        "Ġweb",
        -9.669727064481542
      ],
      [
        "Ġtesting",
        -9.672062434519638
      ],
      [
        "Ġcontext",
        -9.672132260365762
      ],
      [
        "ĠâĢ¦",
        -9.674372657410776
      ],
      [
        "ĠBlack",
        -9.674763631331537
      ],
      [
        "Ġfund",
        -9.6748202313721
      ],
      [
        "Ġfoot",
        -9.676316472045174
      ],
      [
        "Ġheight",
        -9.676716095359552
      ],
      [
        "Therefore",
        -9.6773285774214
      ],
      [
        "Ġclick",
        -9.678095347381642
      ],
      [
        "Ġnative",
        -9.679485526067102
      ],
      [
        "Ġmedium",
        -9.679709562326586
      ],
      [
        "day",
        -9.680328331905669
      ],
      [
        "Ġaffected",
        -9.680845826115826
      ],
      [
        "Ġlesson",
        -9.680861912982795
      ],
      [
        "Ġfiber",
        -9.681016279133614
      ],
      [
        "ĠNOT",
        -9.681959126755604
      ],
      [
        "ĠState",
        -9.681987949369262
      ],
      [
        "Ġmeasurement",
        -9.682529844746805
      ],
      [
        "Ġdoor",
        -9.68298417614298
      ],
      [
        "ĠOther",
        -9.68310471016443
      ],
      [
        "Ġdecade",
        -9.683274010384457
      ],
      [
        "ĠAlthough",
        -9.68597515388452
      ],
      [
        "Ġerror",
        -9.686567463013771
      ],
      [
        "Ġvital",
        -9.687480780027276
      ],
      [
        "Ġsequence",
        -9.687913594784536
      ],
      [
        "spite",
        -9.689269561488706
      ],
      [
        "Ġplayers",
        -9.69024457447247
      ],
      [
        "Ġflavor",
        -9.69029149370039
      ],
      [
        "Ġtasks",
        -9.69120317273407
      ],
      [
        "Ġjoin",
        -9.691437050849784
      ],
      [
        "Ġbeyond",
        -9.691601749517876
      ],
      [
        "Ġemission",
        -9.69166856746853
      ],
      [
        "Ġpresence",
        -9.691726581918411
      ],
      [
        "Ġhuge",
        -9.69172697534103
      ],
      [
        "Ġexperiment",
        -9.695024455426504
      ],
      [
        "Ġwent",
        -9.696112341836583
      ],
      [
        "Ġabsorb",
        -9.696979396837875
      ],
      [
        "Ġmotion",
        -9.69818971612617
      ],
      [
        "Ġconnected",
        -9.698232818431537
      ],
      [
        "Ġimmune",
        -9.69853403797934
      ],
      [
        "Ġfashion",
        -9.698899472702632
      ],
      [
        "Ġdriving",
        -9.700202543033928
      ],
      [
        "Ġpush",
        -9.70025608394102
      ],
      [
        "Ġrules",
        -9.700822847009924
      ],
      [
        "Ġconvert",
        -9.702454616338413
      ],
      [
        "Ġquant",
        -9.703221180916328
      ],
      [
        "Ġidentifie",
        -9.70440225669785
      ],
      [
        "Ġteachers",
        -9.70489161002877
      ],
      [
        "ĠOnc",
        -9.705095713141064
      ],
      [
        "Ġfunctions",
        -9.705263389343289
      ],
      [
        "Ġspeaker",
        -9.705305009378636
      ],
      [
        "Ġteaching",
        -9.705512446510792
      ],
      [
        "Ġmiss",
        -9.705537548504878
      ],
      [
        "Ġprocessing",
        -9.705747263142486
      ],
      [
        "Ġsuit",
        -9.70616409987339
      ],
      [
        "Ġrobot",
        -9.706168782269224
      ],
      [
        "Ġdistribution",
        -9.706533277126615
      ],
      [
        "Ġmatch",
        -9.707573074425092
      ],
      [
        "Ġonto",
        -9.708265972591516
      ],
      [
        "Ġrecognize",
        -9.70830501710641
      ],
      [
        "time",
        -9.70893379744462
      ],
      [
        "Ġbodie",
        -9.70988309206404
      ],
      [
        "Ġrecipe",
        -9.709978186351597
      ],
      [
        "Ġtechnologies",
        -9.710710881685356
      ],
      [
        "ĠAir",
        -9.710773649297993
      ],
      [
        "Ġsample",
        -9.712814706015957
      ],
      [
        "fully",
        -9.71503058433624
      ],
      [
        "Ġpublishe",
        -9.715145209733151
      ],
      [
        "ĠHigh",
        -9.715195469273556
      ],
      [
        "Ġbackground",
        -9.715200833993975
      ],
      [
        "head",
        -9.715529034313253
      ],
      [
        "Ġsustain",
        -9.7155456833809
      ],
      [
        "Ġwrit",
        -9.716436560844055
      ],
      [
        "Ġfossil",
        -9.716529200908344
      ],
      [
        "Ġsociety",
        -9.716947797983812
      ],
      [
        "Ġmiddle",
        -9.716953322898627
      ],
      [
        "Ġinsight",
        -9.718056509306953
      ],
      [
        "Ġrule",
        -9.719231980309242
      ],
      [
        "Ġdetails",
        -9.719993256997842
      ],
      [
        "ĠMake",
        -9.720416988075886
      ],
      [
        "Ġlose",
        -9.721346966527566
      ],
      [
        "Ġsites",
        -9.721748400930052
      ],
      [
        "ĠEnglish",
        -9.722109322641622
      ],
      [
        "Ġartist",
        -9.72289931846032
      ],
      [
        "Ġvariation",
        -9.725076173309294
      ],
      [
        "comfortable",
        -9.725132402194326
      ],
      [
        "ĠEuropean",
        -9.72588613724064
      ],
      [
        "They",
        -9.727523771559772
      ],
      [
        "Ġphoto",
        -9.728029850883113
      ],
      [
        "Ġapproximate",
        -9.728039559011538
      ],
      [
        "Ġstuff",
        -9.72843930425942
      ],
      [
        "Ġchallenge",
        -9.72919457055627
      ],
      [
        "Ġcolour",
        -9.729451246522768
      ],
      [
        "Ġfamilie",
        -9.73215035145146
      ],
      [
        "Ġwheel",
        -9.73293466725762
      ],
      [
        "Ġbone",
        -9.734309360404191
      ],
      [
        "Ġlandscape",
        -9.735115186084872
      ],
      [
        "Ġreference",
        -9.73520556476809
      ],
      [
        "older",
        -9.736321751511923
      ],
      [
        "Ġecosystem",
        -9.736825386677424
      ],
      [
        "ĠAfrica",
        -9.737879891809204
      ],
      [
        "Ġdivers",
        -9.738628333263978
      ],
      [
        "Ġrock",
        -9.738759309081924
      ],
      [
        "Ġconsumption",
        -9.73881020424417
      ],
      [
        "Ġpurchase",
        -9.739191083593164
      ],
      [
        "Ġhit",
        -9.739197015630666
      ],
      [
        "Ġroots",
        -9.74147251605832
      ],
      [
        "ĠUK",
        -9.74481940949176
      ],
      [
        "ĠEurope",
        -9.74585751469347
      ],
      [
        "Ġbirth",
        -9.74879450129536
      ],
      [
        "Ġcommunit",
        -9.74897610576262
      ],
      [
        "Ġcore",
        -9.7496709476799
      ],
      [
        "bility",
        -9.749708401356386
      ],
      [
        "ĠCalifornia",
        -9.750954615039523
      ],
      [
        "Ġobserved",
        -9.751987239833344
      ],
      [
        "Ġinstructions",
        -9.752157557767267
      ],
      [
        "Ġfabric",
        -9.753097715097486
      ],
      [
        "Ġdrawing",
        -9.753469969539038
      ],
      [
        "Ġblog",
        -9.754569343793904
      ],
      [
        "ĠFirst",
        -9.756043115102038
      ],
      [
        "Ġpainting",
        -9.756440900492588
      ],
      [
        "Ġcultural",
        -9.756812427709605
      ],
      [
        "Ġpair",
        -9.757114285592614
      ],
      [
        "Ġlighting",
        -9.757513038402443
      ],
      [
        "ĠService",
        -9.75780416011472
      ],
      [
        "Ġaid",
        -9.757995210370323
      ],
      [
        "Ġvary",
        -9.758199862624805
      ],
      [
        "Ġaren",
        -9.75833193379513
      ],
      [
        "Ġsecurit",
        -9.761153455009556
      ],
      [
        "Ġchannel",
        -9.761298945586285
      ],
      [
        "Ġbeginning",
        -9.76244860475054
      ],
      [
        "Ġrice",
        -9.762558455668534
      ],
      [
        "Ġdiabetes",
        -9.762926934621184
      ],
      [
        "Ġbright",
        -9.763890614855107
      ],
      [
        "Ġnote",
        -9.764234397800234
      ],
      [
        "Ġlargest",
        -9.764370355969428
      ],
      [
        "Ġremains",
        -9.764452213464557
      ],
      [
        "Ġaspects",
        -9.764571055305812
      ],
      [
        "Ġfavorite",
        -9.765016567394476
      ],
      [
        "ĠJapan",
        -9.76608679971785
      ],
      [
        "ship",
        -9.766299080155424
      ],
      [
        "ĠSystem",
        -9.767078796432664
      ],
      [
        "aught",
        -9.769311590867105
      ],
      [
        "ĠEven",
        -9.770769003231202
      ],
      [
        "ĠMay",
        -9.771210610777104
      ],
      [
        "ĠWar",
        -9.77228085670674
      ],
      [
        "Ġsub",
        -9.773632157640408
      ],
      [
        "ĠAccording",
        -9.775442170307802
      ],
      [
        "Ġdepth",
        -9.77603428698266
      ],
      [
        "Ġroll",
        -9.776886275216263
      ],
      [
        "Ġcapture",
        -9.77822537121218
      ],
      [
        "Ġtrigger",
        -9.778624223525805
      ],
      [
        "ĠOr",
        -9.779885464056388
      ],
      [
        "Ġgeneration",
        -9.780703733082284
      ],
      [
        "Ġfloor",
        -9.780854473080176
      ],
      [
        "Ġemploy",
        -9.782093067380444
      ],
      [
        "Ġsurrounding",
        -9.783358733178492
      ],
      [
        "lost",
        -9.783373955136808
      ],
      [
        "Ġkeeping",
        -9.78422377104972
      ],
      [
        "Ġutilize",
        -9.784276023225654
      ],
      [
        "Ġcreative",
        -9.784431101672771
      ],
      [
        "Ġwar",
        -9.784823962456263
      ],
      [
        "Ġbatteries",
        -9.785105882943544
      ],
      [
        "Ġbooks",
        -9.785265755921795
      ],
      [
        "maybe",
        -9.786559067536782
      ],
      [
        "Ġlabel",
        -9.78657388338327
      ],
      [
        "Ġgrain",
        -9.787045582845558
      ],
      [
        "Ġstock",
        -9.790088173871403
      ],
      [
        "eating",
        -9.790124508024071
      ],
      [
        "Ġdouble",
        -9.792089775827444
      ],
      [
        "Ġrespond",
        -9.792114639425122
      ],
      [
        "||",
        -9.792207883255244
      ],
      [
        "Ġnational",
        -9.792851213686172
      ],
      [
        "Ġletter",
        -9.79326658709429
      ],
      [
        "Y",
        -9.7932877434538
      ],
      [
        "ĠGerman",
        -9.793305217778098
      ],
      [
        "Ġcars",
        -9.793436334155396
      ],
      [
        "Ġcomfort",
        -9.793595500072373
      ],
      [
        "No",
        -9.795113012071251
      ],
      [
        "Ġcovered",
        -9.795621366707277
      ],
      [
        "Ġwonder",
        -9.795862706576171
      ],
      [
        "Ġaircraft",
        -9.797115375224202
      ],
      [
        "Ġdynamic",
        -9.797815797039409
      ],
      [
        "Ġdiamond",
        -9.79810738503724
      ],
      [
        "Ġpress",
        -9.798428434664563
      ],
      [
        "Ġwire",
        -9.798525756681492
      ],
      [
        "Ġthreat",
        -9.799220093532073
      ],
      [
        "Ġstaff",
        -9.800309759122328
      ],
      [
        "Ġregulation",
        -9.800462229159985
      ],
      [
        "Ġdead",
        -9.801008281589752
      ],
      [
        "Ġsession",
        -9.801568485493618
      ],
      [
        "Ġpotato",
        -9.802365447423684
      ],
      [
        "Ġconservation",
        -9.80261455797168
      ],
      [
        "Ġskill",
        -9.802892517555708
      ],
      [
        "Ġcross",
        -9.80308404380952
      ],
      [
        "Ġclient",
        -9.804043271598209
      ],
      [
        "ĠOver",
        -9.804510064512604
      ],
      [
        "**",
        -9.80514681076558
      ],
      [
        "Ġtiny",
        -9.806046218519882
      ],
      [
        "Ġmiles",
        -9.80661256579577
      ],
      [
        "Ġpack",
        -9.806668981085156
      ],
      [
        "Ġhappy",
        -9.80786129462429
      ],
      [
        "Ġpipe",
        -9.808076768576552
      ],
      [
        "Ġfinancial",
        -9.808935049986788
      ],
      [
        "electricity",
        -9.809048363709868
      ],
      [
        "Ġiron",
        -9.80977365694615
      ],
      [
        "Ġindicator",
        -9.810536121980071
      ],
      [
        "Ġmid",
        -9.810742645606751
      ],
      [
        "ĠDur",
        -9.810941416837174
      ],
      [
        "Ġvaluable",
        -9.811030608957497
      ],
      [
        "Ġgrown",
        -9.81146748313362
      ],
      [
        "Ġatmosphere",
        -9.811755722609634
      ],
      [
        "Ġexpect",
        -9.813044273076311
      ],
      [
        "quality",
        -9.813124743469675
      ],
      [
        "Ġrates",
        -9.813283220312364
      ],
      [
        "Ġdrug",
        -9.81481047352288
      ],
      [
        "Ġegg",
        -9.815999780583311
      ],
      [
        "mm",
        -9.816665942041642
      ],
      [
        "ĠJust",
        -9.818403730241387
      ],
      [
        "ĠUsing",
        -9.818527181539936
      ],
      [
        "Ġdemonstrate",
        -9.81870964737029
      ],
      [
        "Ġmedicine",
        -9.818942524082477
      ],
      [
        "held",
        -9.821418935023054
      ],
      [
        "Ġprogress",
        -9.823120826279997
      ],
      [
        "Ġcomment",
        -9.823502313910332
      ],
      [
        "Ġseed",
        -9.823860369227498
      ],
      [
        "Ġsurvive",
        -9.828125563738356
      ],
      [
        "ĠPlant",
        -9.82812697569779
      ],
      [
        "Ġsupplement",
        -9.82826105489509
      ],
      [
        "Ġeventual",
        -9.828794785685991
      ],
      [
        "Ġmother",
        -9.829681506624578
      ],
      [
        "Ġcontrast",
        -9.830303145662114
      ],
      [
        "-like",
        -9.830402147807437
      ],
      [
        "Ġroutine",
        -9.83142949753108
      ],
      [
        "Ġmotor",
        -9.83198532146858
      ],
      [
        "ian",
        -9.835687766870166
      ],
      [
        "Ġoffice",
        -9.835736644898867
      ],
      [
        "Ġcentral",
        -9.836171298305564
      ],
      [
        "Ġagree",
        -9.83626573352782
      ],
      [
        "Ġcommand",
        -9.83676129174873
      ],
      [
        "Ġhundred",
        -9.837742412263443
      ],
      [
        "That",
        -9.83828341270674
      ],
      [
        "Ġfilm",
        -9.838294677589625
      ],
      [
        "Ġalone",
        -9.839684600907596
      ],
      [
        "Ġburn",
        -9.839935185175428
      ],
      [
        "ĠPark",
        -9.842383233584048
      ],
      [
        "Ġratio",
        -9.842544671064369
      ],
      [
        "Ġbutton",
        -9.843903954578048
      ],
      [
        "Ġanxiet",
        -9.844803971508847
      ],
      [
        "Ġmarine",
        -9.845446577701548
      ],
      [
        "Ġinternal",
        -9.84562429467152
      ],
      [
        "Ġfeeding",
        -9.846153132958804
      ],
      [
        "Ġlab",
        -9.84653478948896
      ],
      [
        "Ġfacilit",
        -9.847427746543302
      ],
      [
        "Ġrandom",
        -9.850299311087351
      ],
      [
        "âĢĻt",
        -9.850927466957195
      ],
      [
        "Ġsurger",
        -9.850949793494248
      ],
      [
        "Ġflat",
        -9.85197315204778
      ],
      [
        "Ġmorning",
        -9.851993969668625
      ],
      [
        "Ġactual",
        -9.852030870144633
      ],
      [
        "Ġvirus",
        -9.852176689244724
      ],
      [
        "Ġoperate",
        -9.852281090941158
      ],
      [
        "Ġcable",
        -9.852538783819792
      ],
      [
        "Ġstraight",
        -9.852737193961602
      ],
      [
        "Ġoffering",
        -9.853276639995237
      ],
      [
        "Ġchicken",
        -9.854038522652925
      ],
      [
        "ĠMarch",
        -9.854158862067049
      ],
      [
        "Another",
        -9.854901575184606
      ],
      [
        "Ġexpression",
        -9.856456852859251
      ],
      [
        "Ġminimum",
        -9.856558431369605
      ],
      [
        "Ġmember",
        -9.857000054612646
      ],
      [
        "Ġconsume",
        -9.85725930127992
      ],
      [
        "Ġwaves",
        -9.857372201278167
      ],
      [
        "Here",
        -9.857595910720026
      ],
      [
        "if",
        -9.857931352122172
      ],
      [
        "Ġhighlight",
        -9.858453539712308
      ],
      [
        "Ġdrop",
        -9.858491685714554
      ],
      [
        "Ġcoat",
        -9.858674635724435
      ],
      [
        "ĠSince",
        -9.858901130484307
      ],
      [
        "Ġsecure",
        -9.85894250985265
      ],
      [
        "Ġwildlife",
        -9.860222803829016
      ],
      [
        "Ġcreation",
        -9.860724974740217
      ],
      [
        "Ġmobile",
        -9.861746561681066
      ],
      [
        "Ġteacher",
        -9.862001930408276
      ],
      [
        "Ġconclusion",
        -9.863046920203788
      ],
      [
        "ĠYork",
        -9.863274608088666
      ],
      [
        "ĠGreat",
        -9.863876132861163
      ],
      [
        "Ġtransform",
        -9.864291602379716
      ],
      [
        "Ġaware",
        -9.864307297475332
      ],
      [
        "Ġtrip",
        -9.86448964179085
      ],
      [
        "Ġfriend",
        -9.86539146626587
      ],
      [
        "Ġsounds",
        -9.865769816621574
      ],
      [
        "Ġmanufacturing",
        -9.867161312797498
      ],
      [
        "Ġprefer",
        -9.867638550735492
      ],
      [
        "Ġsteam",
        -9.868258478078932
      ],
      [
        "side",
        -9.868706816297529
      ],
      [
        "Ġclasses",
        -9.868832806818698
      ],
      [
        "Ġtransfer",
        -9.870783540240478
      ],
      [
        "After",
        -9.871223583079178
      ],
      [
        "Ġresource",
        -9.871707193436322
      ],
      [
        "Ġjournal",
        -9.872111576046212
      ],
      [
        "work",
        -9.87218353399502
      ],
      [
        "Ġlisten",
        -9.873212434318322
      ],
      [
        "Ġreliabl",
        -9.87482924942286
      ],
      [
        "Ġcapabilit",
        -9.876025497106044
      ],
      [
        "Ġwidely",
        -9.87712524635214
      ],
      [
        "Ġindoor",
        -9.87998361319026
      ],
      [
        "ĠChina",
        -9.880243270773946
      ],
      [
        "ĠDepartment",
        -9.88099722793832
      ],
      [
        "Ġremov",
        -9.882510890806946
      ],
      [
        "Ġdensit",
        -9.88358014258196
      ],
      [
        "Our",
        -9.883700249430373
      ],
      [
        "Ġchemicals",
        -9.883883491817055
      ],
      [
        "Ġvirtual",
        -9.884051446901369
      ],
      [
        "Ġstatement",
        -9.886945126431955
      ],
      [
        "Ġsweet",
        -9.887611845694568
      ],
      [
        "Ġsymbol",
        -9.888515515791886
      ],
      [
        "Ġthin",
        -9.888525273084277
      ],
      [
        "Ġowners",
        -9.889457007559828
      ],
      [
        "Ġthick",
        -9.889897891500135
      ],
      [
        "ĠDay",
        -9.889977146950349
      ],
      [
        "Ġschedule",
        -9.890926459829362
      ],
      [
        "Ġrequest",
        -9.892142444151563
      ],
      [
        "Ġinternational",
        -9.892454380307983
      ],
      [
        "Ġinteract",
        -9.892949415274432
      ],
      [
        "told",
        -9.89297429218626
      ],
      [
        "Ġcard",
        -9.89373134810788
      ],
      [
        "cy",
        -9.894006670135427
      ],
      [
        "Ġmixture",
        -9.894196765516575
      ],
      [
        "-in",
        -9.89455072261262
      ],
      [
        "Ġchain",
        -9.895491517582943
      ],
      [
        "Ġdust",
        -9.895607037469894
      ],
      [
        "Ġbear",
        -9.89560829030006
      ],
      [
        "Ġformed",
        -9.895710617452046
      ],
      [
        "Ġphysic",
        -9.896319910287035
      ],
      [
        "ĠKeep",
        -9.896444418082028
      ],
      [
        "Ġpreference",
        -9.89682924173239
      ],
      [
        "Ġfundamental",
        -9.897154603908024
      ],
      [
        "X",
        -9.898506243942766
      ],
      [
        "Ġimprov",
        -9.898986731771718
      ],
      [
        "Ġadvice",
        -9.902093618671053
      ],
      [
        "Ġfarmers",
        -9.902439717204448
      ],
      [
        "Ġmanual",
        -9.902525428157674
      ],
      [
        "ĠAfrican",
        -9.9031077580125
      ],
      [
        "Ġpilot",
        -9.903606866730929
      ],
      [
        "Ġradio",
        -9.904536725281638
      ],
      [
        "Ġgoals",
        -9.9052322052936
      ],
      [
        "Ġsmart",
        -9.905588335339996
      ],
      [
        "/or",
        -9.905736358976682
      ],
      [
        "Ġaudio",
        -9.9067763049512
      ],
      [
        "Ġoperat",
        -9.907228994943186
      ],
      [
        "Ġshoes",
        -9.907490536287924
      ],
      [
        ".[",
        -9.907743418912714
      ],
      [
        "Ġsuggests",
        -9.90965302615171
      ],
      [
        "Ġgold",
        -9.910417990748725
      ],
      [
        "Ġtests",
        -9.911290446387495
      ],
      [
        "Ġemotional",
        -9.911368982868895
      ],
      [
        "Ġtube",
        -9.911372529054445
      ],
      [
        "Ġbroad",
        -9.911583435967076
      ],
      [
        "Ġcalorie",
        -9.912177955092316
      ],
      [
        "Ġdiscussion",
        -9.91357540638528
      ],
      [
        "Ġrespect",
        -9.914544067023016
      ],
      [
        "W",
        -9.914631876548782
      ],
      [
        "Ġmechanical",
        -9.91465411517724
      ],
      [
        "Ġplane",
        -9.915317765542303
      ],
      [
        "Ġthread",
        -9.915727586221962
      ],
      [
        "which",
        -9.916632483034212
      ],
      [
        "Ġpixel",
        -9.918798876947683
      ],
      [
        "Ġprimaril",
        -9.919461875163371
      ],
      [
        "numerous",
        -9.919763638186785
      ],
      [
        "Ġarray",
        -9.92008371424147
      ],
      [
        "Ġbiological",
        -9.920108051645254
      ],
      [
        "Ġhighest",
        -9.92097132372386
      ],
      [
        "Ġbillion",
        -9.92098309376658
      ],
      [
        "ier",
        -9.92123414499845
      ],
      [
        "Ġexpress",
        -9.921545819043756
      ],
      [
        "Ġbrake",
        -9.923149688473178
      ],
      [
        "Ġdefinite",
        -9.923761781185512
      ],
      [
        "Ġlooks",
        -9.924086572854453
      ],
      [
        "ĠWhether",
        -9.92410298169025
      ],
      [
        "Ġroof",
        -9.92421641825063
      ],
      [
        "Ġrid",
        -9.924685218041
      ],
      [
        "Ġkitchen",
        -9.925569446701813
      ],
      [
        "Ġdangerous",
        -9.92573244111507
      ],
      [
        "Ġnest",
        -9.926168534671504
      ],
      [
        "Ġinternet",
        -9.927455741010585
      ],
      [
        "Ġkg",
        -9.927598089441448
      ],
      [
        "Ġsamples",
        -9.927673169699688
      ],
      [
        "ĠPeople",
        -9.92957620197939
      ],
      [
        "Ġprivate",
        -9.93259497349082
      ],
      [
        "Ġformation",
        -9.937675621998489
      ],
      [
        "Ġforest",
        -9.937877646783395
      ],
      [
        "Ġcomprehensive",
        -9.93806377485124
      ],
      [
        "reality",
        -9.938119763633871
      ],
      [
        "]ĊĊ",
        -9.938548047346998
      ],
      [
        "Ġtrade",
        -9.938691458973857
      ],
      [
        "Ġtoward",
        -9.938773978506788
      ],
      [
        "Ġpowder",
        -9.939377789096806
      ],
      [
        "Ġplaying",
        -9.940346884222366
      ],
      [
        "Ġvisibl",
        -9.940938280015214
      ],
      [
        "Ġtransmission",
        -9.94228741073417
      ],
      [
        "Ġclassroom",
        -9.943242120233435
      ],
      [
        "Ġbeaut",
        -9.943449882022628
      ],
      [
        "Ġwash",
        -9.944474749084094
      ],
      [
        "ese",
        -9.944850293464858
      ],
      [
        "Ġsports",
        -9.945731706299435
      ],
      [
        "Ġbug",
        -9.946527758324102
      ],
      [
        "Ġnice",
        -9.94717859964107
      ],
      [
        "Ġofficial",
        -9.947567781550912
      ],
      [
        "Ġmeal",
        -9.948628867272078
      ],
      [
        "defined",
        -9.948942003615407
      ],
      [
        "Ġtitle",
        -9.949132170521176
      ],
      [
        "Ġcook",
        -9.949682766683166
      ],
      [
        "Ġoptimal",
        -9.949905770356995
      ],
      [
        "Ġcheese",
        -9.951385209163588
      ],
      [
        "Ġsettings",
        -9.952150659665266
      ],
      [
        "Answer",
        -9.952538996914738
      ],
      [
        "Ġwindow",
        -9.955005902844738
      ],
      [
        "Ġparticipant",
        -9.955945642366174
      ],
      [
        "Ġlegal",
        -9.955947886980692
      ],
      [
        "Ġparameter",
        -9.957847296803546
      ],
      [
        "wide",
        -9.958480939041404
      ],
      [
        "Ġharvest",
        -9.958792400246104
      ],
      [
        "Ġtechnical",
        -9.959416761816986
      ],
      [
        "Ġboundar",
        -9.961048718412842
      ],
      [
        "up",
        -9.961969122940197
      ],
      [
        "Ġfoundation",
        -9.963938556076382
      ],
      [
        "Ġattract",
        -9.964606487226604
      ],
      [
        "Ġfollowed",
        -9.96462805116212
      ],
      [
        "Ġhelping",
        -9.965093131820428
      ],
      [
        "Ġalcohol",
        -9.965461859720603
      ],
      [
        "Ġcup",
        -9.9656491980535
      ],
      [
        "ial",
        -9.96570919205604
      ],
      [
        "Ġsteel",
        -9.96592359791415
      ],
      [
        "Ġemail",
        -9.966263098731758
      ],
      [
        "Ġrisks",
        -9.966958055329773
      ],
      [
        "ĠDon",
        -9.967659925538792
      ],
      [
        "Ġportion",
        -9.967750326386335
      ],
      [
        "Ġbike",
        -9.968543266879646
      ],
      [
        "Ġengage",
        -9.968934920231444
      ],
      [
        "Ġhabit",
        -9.96893631710152
      ],
      [
        "Ġraw",
        -9.969084263941545
      ],
      [
        "Ġzero",
        -9.969105925729249
      ],
      [
        "Ġultimate",
        -9.9692437502657
      ],
      [
        "Ġplate",
        -9.969638062565584
      ],
      [
        "brough",
        -9.969903106133772
      ],
      [
        "Ġstain",
        -9.970878771945571
      ],
      [
        "Ġdental",
        -9.971013643949856
      ],
      [
        "laugh",
        -9.971334420155117
      ],
      [
        "Ġcontinuous",
        -9.971788257840682
      ],
      [
        "Ġexpose",
        -9.971880024113872
      ],
      [
        "All",
        -9.972153844209508
      ],
      [
        "Ġmeeting",
        -9.972468922979566
      ],
      [
        "Ġprocedure",
        -9.972521148099052
      ],
      [
        "ĠDe",
        -9.972652573586288
      ],
      [
        "Ġthousands",
        -9.973187689200596
      ],
      [
        "ĠApril",
        -9.97334414914721
      ],
      [
        "Ġrain",
        -9.973774156405884
      ],
      [
        "Ġshell",
        -9.974510005889556
      ],
      [
        "October",
        -9.974624712644951
      ],
      [
        "Ġancient",
        -9.974803930010909
      ],
      [
        "ĠSea",
        -9.974845552532118
      ],
      [
        "\\u",
        -9.974923894117328
      ],
      [
        "Ġextract",
        -9.974984675273792
      ],
      [
        "Ġcollege",
        -9.975286753353611
      ],
      [
        "Ġcareer",
        -9.97535045150709
      ],
      [
        "Ġclinical",
        -9.975428565561092
      ],
      [
        "Ġgraph",
        -9.975873573657417
      ],
      [
        "Ġcrop",
        -9.976199447442124
      ],
      [
        "Ġeducational",
        -9.976655299057704
      ],
      [
        "Ġassist",
        -9.976779116678523
      ],
      [
        "Ġbrush",
        -9.977978022141972
      ],
      [
        "Ġautomatic",
        -9.977982801969786
      ],
      [
        "ĠDec",
        -9.978413275919609
      ],
      [
        "Ġintelligence",
        -9.97966113321912
      ],
      [
        "Conclusion",
        -9.980244364602315
      ],
      [
        "Ġorganisms",
        -9.980375135077576
      ],
      [
        "Ġuniverse",
        -9.980785751510115
      ],
      [
        "Ġfailure",
        -9.980959423417456
      ],
      [
        "><",
        -9.982125809438102
      ],
      [
        "Ġprecise",
        -9.982358439866427
      ],
      [
        "Ġequation",
        -9.98252041486674
      ],
      [
        "Ġmelt",
        -9.982906386329091
      ],
      [
        "Ġstories",
        -9.983059753062571
      ],
      [
        "Ġradiation",
        -9.984962234919433
      ],
      [
        "Ġcalculate",
        -9.985290948343524
      ],
      [
        "Ġfields",
        -9.985767426998969
      ],
      [
        "Ġconduct",
        -9.986413227860613
      ],
      [
        "Ġpollution",
        -9.986493619250863
      ],
      [
        "Ġcrops",
        -9.986676954254234
      ],
      [
        "Ġstandards",
        -9.98717238997909
      ],
      [
        "Ġwhose",
        -9.98727052583078
      ],
      [
        "Ġworker",
        -9.987648547100676
      ],
      [
        "Ġinteraction",
        -9.987816691506367
      ],
      [
        "ĠEnergy",
        -9.98853336414479
      ],
      [
        "Ġwave",
        -9.98966096636184
      ],
      [
        "Ġassess",
        -9.989869522240324
      ],
      [
        "Ġrealize",
        -9.9903192406855
      ],
      [
        "Ġlaser",
        -9.990885332696752
      ],
      [
        "Ġpool",
        -9.99163362437746
      ],
      [
        "Ġpets",
        -9.992193940073834
      ],
      [
        "Ġsaying",
        -9.992491168838846
      ],
      [
        "Ġexperiences",
        -9.9933238603568
      ],
      [
        "Ġperspective",
        -9.994209730167409
      ],
      [
        "Ġprepare",
        -9.994414925939251
      ],
      [
        "Your",
        -9.99447243151074
      ],
      [
        "ĠGreen",
        -9.995230130587654
      ],
      [
        "Ġhelpful",
        -9.99541735190126
      ],
      [
        "Ġgrass",
        -9.995481265216878
      ],
      [
        "Ġapart",
        -9.99552118669616
      ],
      [
        "Ġevolve",
        -9.997315577957975
      ],
      [
        "Most",
        -9.997601309877384
      ],
      [
        "Ġcoffee",
        -9.997716598298515
      ],
      [
        "Ġartificial",
        -9.998223722825646
      ],
      [
        "Ġmode",
        -10.000901326420417
      ],
      [
        "Ġboost",
        -10.001761095200813
      ],
      [
        "Ġyield",
        -10.00200223614872
      ],
      [
        "Ġbloom",
        -10.0023720911608
      ],
      [
        "Instead",
        -10.00354786281305
      ],
      [
        "Ġcarefully",
        -10.00412445073723
      ],
      [
        "Ġsmell",
        -10.004620728819688
      ],
      [
        "ĠWell",
        -10.0051330696127
      ],
      [
        "Ġearlier",
        -10.005622002746607
      ],
      [
        "Ġvitamin",
        -10.00639363240193
      ],
      [
        "ĠpH",
        -10.006408310404012
      ],
      [
        "Ġheal",
        -10.006478609387136
      ],
      [
        "Ġsunspot",
        -10.00746396573313
      ],
      [
        "Ġobservation",
        -10.007822175742746
      ],
      [
        "Ġobvious",
        -10.008061634522983
      ],
      [
        "Ġdrugs",
        -10.008481287133002
      ],
      [
        "Ġ{",
        -10.008592558756272
      ],
      [
        "Ġessay",
        -10.008835301161684
      ],
      [
        "Ġcompost",
        -10.009260248018586
      ],
      [
        "-free",
        -10.00927024562862
      ],
      [
        "Ġaspect",
        -10.010043353592488
      ],
      [
        "Ġguideline",
        -10.010283327726253
      ],
      [
        "Ġmolecular",
        -10.012511634459358
      ],
      [
        "Ġlifestyle",
        -10.013110888823585
      ],
      [
        "Ġannual",
        -10.014273522876728
      ],
      [
        "ĠAustralia",
        -10.01512743177209
      ],
      [
        "Ġstretch",
        -10.016233000187048
      ],
      [
        "Ġupper",
        -10.016368001704755
      ],
      [
        "Ġappeal",
        -10.017080261250545
      ],
      [
        "Ġvs",
        -10.017439154122629
      ],
      [
        "-year",
        -10.01786732692646
      ],
      [
        "Ġcream",
        -10.01822093141465
      ],
      [
        "Ġtight",
        -10.01830449775087
      ],
      [
        "Ġsurvey",
        -10.018826865633276
      ],
      [
        "Ġcoal",
        -10.018870511773912
      ],
      [
        "Ġexternal",
        -10.019559282901293
      ],
      [
        "Ġdefine",
        -10.019673879513563
      ],
      [
        "Ġplanting",
        -10.021725418680491
      ],
      [
        "producing",
        -10.022045699656324
      ],
      [
        "Ġpredict",
        -10.022289299033645
      ],
      [
        "Ġowner",
        -10.02365750401493
      ],
      [
        "fish",
        -10.024295748321624
      ],
      [
        "Ġvoice",
        -10.025211523093397
      ],
      [
        "Ġintend",
        -10.025711180807509
      ],
      [
        "li",
        -10.02612288975921
      ],
      [
        "Ġpolicy",
        -10.02919943443236
      ],
      [
        "Ġdescription",
        -10.029358430576783
      ],
      [
        "Ġeliminate",
        -10.029653682992937
      ],
      [
        "Ġillness",
        -10.030697981475557
      ],
      [
        "Ġcreatures",
        -10.030779610531669
      ],
      [
        "Ġfear",
        -10.03086744487536
      ],
      [
        "Ġindustrial",
        -10.03407876374732
      ],
      [
        "Ġexamine",
        -10.034462958649906
      ],
      [
        "Ġcomposition",
        -10.034752179210583
      ],
      [
        "Ġassessment",
        -10.035089435611011
      ],
      [
        "Ġbeneficial",
        -10.03676863826626
      ],
      [
        "Ġvessel",
        -10.03699060458428
      ],
      [
        "Ġpeak",
        -10.037119522491365
      ],
      [
        "Ġmaster",
        -10.03765716420434
      ],
      [
        "ĠSt",
        -10.037904799353136
      ],
      [
        "ĠEducation",
        -10.037926132564287
      ],
      [
        "Ġembodiment",
        -10.038904827101303
      ],
      [
        "Ġsuper",
        -10.03900291254503
      ],
      [
        "Ġchalleng",
        -10.039330675960144
      ],
      [
        "Ġstring",
        -10.039775287923012
      ],
      [
        "Ġthermal",
        -10.040789581842567
      ],
      [
        "Ġimprovement",
        -10.041039496073262
      ],
      [
        "Ġcrack",
        -10.041620028379716
      ],
      [
        "ĠRiver",
        -10.04213283289092
      ],
      [
        "Ġteach",
        -10.042179175354514
      ],
      [
        "Ġnation",
        -10.04314579507475
      ],
      [
        "Ġmold",
        -10.043158986790974
      ],
      [
        "Ġreward",
        -10.043367767436855
      ],
      [
        "ĠFood",
        -10.043749351712696
      ],
      [
        "July",
        -10.044210464177349
      ],
      [
        "ul",
        -10.044640289097345
      ],
      [
        "Ġattend",
        -10.044649626968544
      ],
      [
        "Ġstatus",
        -10.045438767250197
      ],
      [
        "Many",
        -10.045587930160943
      ],
      [
        "ĠGroup",
        -10.046060536827884
      ],
      [
        "Ġplayer",
        -10.04614167813699
      ],
      [
        "Ġprove",
        -10.047946699092403
      ],
      [
        "Ġvaccine",
        -10.048039759021703
      ],
      [
        "Ġreduction",
        -10.048475595947329
      ],
      [
        "Ġthorough",
        -10.049076612753275
      ],
      [
        "Ġcatch",
        -10.049376152226309
      ],
      [
        "ĠBoth",
        -10.05079923014126
      ],
      [
        "ĠWhere",
        -10.05088596070336
      ],
      [
        "Ġstrain",
        -10.051211119389718
      ],
      [
        "Ġorgan",
        -10.051414585992356
      ],
      [
        "Ġfault",
        -10.05156370958604
      ],
      [
        "Ġgirl",
        -10.051567022317377
      ],
      [
        "My",
        -10.051622025346097
      ],
      [
        "Ġreveal",
        -10.051855134061622
      ],
      [
        "Ġformula",
        -10.05226242792596
      ],
      [
        "Ġprovider",
        -10.053104518782089
      ],
      [
        "Ġfly",
        -10.05336402906184
      ],
      [
        "Ġopinion",
        -10.053406391602596
      ],
      [
        "ĠCity",
        -10.05357496963017
      ],
      [
        "Ġbreast",
        -10.054358889388917
      ],
      [
        "ĠBritish",
        -10.054771705513463
      ],
      [
        "Ġmainly",
        -10.054957657280283
      ],
      [
        "Ġdish",
        -10.055722616550486
      ],
      [
        "Ġtrust",
        -10.055888256237946
      ],
      [
        "all",
        -10.05668165680215
      ],
      [
        "Ġgear",
        -10.056723028579672
      ],
      [
        "ĠJohn",
        -10.057369996332993
      ],
      [
        "Ġexhibit",
        -10.05861650159355
      ],
      [
        "Ġawareness",
        -10.05892090434632
      ],
      [
        "Ġchoos",
        -10.059858946850492
      ],
      [
        "ĠFurther",
        -10.060058309032256
      ],
      [
        "Ġversatil",
        -10.061244314360696
      ],
      [
        "Ġtraffic",
        -10.061732572257906
      ],
      [
        "ĠGoogle",
        -10.062353414009804
      ],
      [
        "Ġtail",
        -10.063467236959468
      ],
      [
        "Ġengineering",
        -10.063702544394731
      ],
      [
        "kept",
        -10.063896803049346
      ],
      [
        "Ġhazard",
        -10.06533762550922
      ],
      [
        "Ġrough",
        -10.065364018157087
      ],
      [
        "Ġscore",
        -10.06599560252791
      ],
      [
        "Ġoutdoor",
        -10.067208846056392
      ],
      [
        "Ġborn",
        -10.067299468473594
      ],
      [
        "ĠInternational",
        -10.067894502595877
      ],
      [
        "Ġrelevant",
        -10.068464637324055
      ],
      [
        "coming",
        -10.068900366324934
      ],
      [
        "Ġregister",
        -10.072175962551007
      ],
      [
        "Ġrecovery",
        -10.072407940679316
      ],
      [
        "Ġdistinct",
        -10.073275065155984
      ],
      [
        "Ġplent",
        -10.073415019495869
      ],
      [
        "Ġprepared",
        -10.073668722734102
      ],
      [
        "Ġcolon",
        -10.073675428681424
      ],
      [
        "Ġpot",
        -10.07390103653469
      ],
      [
        "Ġpercentage",
        -10.074074258912171
      ],
      [
        "Ġprinciples",
        -10.07408855617193
      ],
      [
        "Ġjump",
        -10.075114330351903
      ],
      [
        "Ġlens",
        -10.075261967174123
      ],
      [
        "ĠHis",
        -10.077334632338292
      ],
      [
        "diversity",
        -10.07799592849285
      ],
      [
        "Yes",
        -10.078722549548782
      ],
      [
        "Ġaudience",
        -10.079770318131176
      ],
      [
        "Ġsunlight",
        -10.080275137106462
      ],
      [
        "Ġprinting",
        -10.08057618780835
      ],
      [
        "Ġcraft",
        -10.080608109970846
      ],
      [
        "Ġtrial",
        -10.08121187021839
      ],
      [
        "Ġobjective",
        -10.081663960553358
      ],
      [
        "ĠEast",
        -10.083220004909386
      ],
      [
        "Ġphotos",
        -10.083913024703543
      ],
      [
        "Ġnaturally",
        -10.083917301825029
      ],
      [
        "ĠNov",
        -10.084397757554244
      ],
      [
        "j",
        -10.084802947400725
      ],
      [
        "ĠDesign",
        -10.08516769699342
      ],
      [
        "Ġfail",
        -10.085770211299934
      ],
      [
        "Ġorigin",
        -10.08804073619203
      ],
      [
        "Ġsell",
        -10.088338936877028
      ],
      [
        "iness",
        -10.089074382070486
      ],
      [
        "ĠCanada",
        -10.08979969968717
      ],
      [
        "Are",
        -10.090061400540382
      ],
      [
        "Ġneural",
        -10.090143634412623
      ],
      [
        "Ġadopt",
        -10.09040725825122
      ],
      [
        "Ġaccident",
        -10.090411399542202
      ],
      [
        "ĠDoes",
        -10.091134864628245
      ],
      [
        "Ġlights",
        -10.091149380305248
      ],
      [
        "Ġchronic",
        -10.091695574050568
      ],
      [
        "Ġscene",
        -10.091754953689035
      ],
      [
        "Ġamazing",
        -10.092248608145486
      ],
      [
        "Ġfirm",
        -10.092711297307671
      ],
      [
        "Ġpredator",
        -10.0928479488796
      ],
      [
        "ence",
        -10.09294556756699
      ],
      [
        "Ġleak",
        -10.093284819018963
      ],
      [
        "Ġcredit",
        -10.09339438362563
      ],
      [
        "Ġleaving",
        -10.094511927659877
      ],
      [
        "Ġexcess",
        -10.094534357661033
      ],
      [
        "Ġextensive",
        -10.094601848250816
      ],
      [
        "Ġsnow",
        -10.09461054201996
      ],
      [
        "Ġassume",
        -10.09491357980598
      ],
      [
        "Ġconcrete",
        -10.095071402360032
      ],
      [
        "Ġprior",
        -10.095185979011845
      ],
      [
        "Ġsit",
        -10.095268670490729
      ],
      [
        "Ġspray",
        -10.095866711022326
      ],
      [
        "Ġ<",
        -10.09666795674353
      ],
      [
        "Ġemotion",
        -10.097241183777705
      ],
      [
        "Ġengag",
        -10.097283573332009
      ],
      [
        "Ġsheet",
        -10.097625220723646
      ],
      [
        "line",
        -10.098130775549834
      ],
      [
        "Ġfunctional",
        -10.098414969462985
      ],
      [
        "Ġnode",
        -10.09888316473004
      ],
      [
        "Ġguy",
        -10.099126297478184
      ],
      [
        "Ġsurvival",
        -10.099243325102517
      ],
      [
        "ĠAbout",
        -10.099613871239656
      ],
      [
        "Ġdownload",
        -10.099775942704351
      ],
      [
        "Ġengineer",
        -10.0998732978341
      ],
      [
        "Ġconsideration",
        -10.100199848280642
      ],
      [
        "Ġrace",
        -10.101183751873506
      ],
      [
        "Ġinvestment",
        -10.10158041335487
      ],
      [
        "Ġbowl",
        -10.10181731161046
      ],
      [
        "Ġpregnancy",
        -10.101899279978207
      ],
      [
        "ĠAsia",
        -10.102534207482172
      ],
      [
        "Ġdecline",
        -10.103118950212156
      ],
      [
        "Ġconsequence",
        -10.103499194816308
      ],
      [
        "Ġbottle",
        -10.103770641397317
      ],
      [
        "tried",
        -10.106914662966147
      ],
      [
        "Ġsector",
        -10.10734718845736
      ],
      [
        "ĠCount",
        -10.1075713803801
      ],
      [
        "ĠLED",
        -10.108771884233663
      ],
      [
        "Ġdestroy",
        -10.110446056616986
      ],
      [
        "Ġlay",
        -10.111434795709002
      ],
      [
        "...Ċ",
        -10.11198459787228
      ],
      [
        "Ġworry",
        -10.112688610020845
      ],
      [
        "Ġencounter",
        -10.113879008956472
      ],
      [
        "Ġabsolute",
        -10.114249604754711
      ],
      [
        "Use",
        -10.117826507427838
      ],
      [
        "Ġdelay",
        -10.118353999365
      ],
      [
        "Ġband",
        -10.118629096516436
      ],
      [
        "Ġcrystal",
        -10.118705379405403
      ],
      [
        "ĠIndian",
        -10.118715716693114
      ],
      [
        "Onc",
        -10.11877857448536
      ],
      [
        "referred",
        -10.11903852170968
      ],
      [
        "Ġsensitive",
        -10.119220648087335
      ],
      [
        "Ġactions",
        -10.11941629443753
      ],
      [
        "Ġindependent",
        -10.120182116967644
      ],
      [
        "Ġresolution",
        -10.120295372885622
      ],
      [
        "Ġhospital",
        -10.12117514180308
      ],
      [
        "Ġexperiments",
        -10.122265059073277
      ],
      [
        "Ġcapabl",
        -10.122359375033223
      ],
      [
        "Ġinstallation",
        -10.122486567554631
      ],
      [
        "Ġrestaurant",
        -10.122662857453498
      ],
      [
        "|Ċ",
        -10.122806239977123
      ],
      [
        "Ġsuffer",
        -10.123517586717306
      ],
      [
        "Ġcm",
        -10.124226477449682
      ],
      [
        "Ġsufficient",
        -10.12424035221032
      ],
      [
        "Ġtrait",
        -10.124295760592416
      ],
      [
        "Ġestimated",
        -10.124528056055688
      ],
      [
        "Ġresident",
        -10.12528446627832
      ],
      [
        "ĠEvery",
        -10.126049445863492
      ],
      [
        "glasses",
        -10.127192890910113
      ],
      [
        "Ġtooth",
        -10.127917743140388
      ],
      [
        "Ġfix",
        -10.129680009191556
      ],
      [
        "Ġprogramm",
        -10.129757355505454
      ],
      [
        "Ġfertilizer",
        -10.129893228524626
      ],
      [
        "cognition",
        -10.131108838826156
      ],
      [
        "Ġdatabase",
        -10.131488821527372
      ],
      [
        "ar",
        -10.132367407881432
      ],
      [
        "what",
        -10.132454067529142
      ],
      [
        "First",
        -10.132915919743152
      ],
      [
        "tic",
        -10.133718669644177
      ],
      [
        "ĠFrench",
        -10.133816518024911
      ],
      [
        "Ġleaf",
        -10.13427982281268
      ],
      [
        "More",
        -10.134329851719896
      ],
      [
        "Ġshar",
        -10.134605455957669
      ],
      [
        "Ġestimate",
        -10.135137756345353
      ],
      [
        "Ġplays",
        -10.135324582306968
      ],
      [
        "Ġconcerns",
        -10.135733903576856
      ],
      [
        "Ġspen",
        -10.135801840182442
      ],
      [
        "ĠJune",
        -10.137030673729306
      ],
      [
        "Ġfelt",
        -10.137402599801284
      ],
      [
        "-time",
        -10.137576186868705
      ],
      [
        "Ġjuice",
        -10.137803408767176
      ],
      [
        "Ġminerals",
        -10.137878530084016
      ],
      [
        "Ġfoster",
        -10.13805329701106
      ],
      [
        "Ġrelationships",
        -10.1393161054345
      ],
      [
        "Ġsport",
        -10.140708943628486
      ],
      [
        "Ġhistorical",
        -10.141387702179
      ],
      [
        "Ġbill",
        -10.142257093419763
      ],
      [
        "ities",
        -10.142340688159068
      ],
      [
        "Ġemergency",
        -10.14297760100986
      ],
      [
        "Ġapproaches",
        -10.143295637195816
      ],
      [
        "Ġlibrar",
        -10.143581760562366
      ],
      [
        "Ġmining",
        -10.14363169003964
      ],
      [
        "ĠLight",
        -10.14369687305598
      ],
      [
        "Ġsaving",
        -10.1446526642395
      ],
      [
        "Ġprofile",
        -10.14552708913948
      ],
      [
        "Ġdefinition",
        -10.145777477612093
      ],
      [
        "Ġpure",
        -10.14605406662021
      ],
      [
        "Ġcompar",
        -10.14769342939615
      ],
      [
        "ĠArt",
        -10.147956524102115
      ],
      [
        "Ġcalci",
        -10.148864270448591
      ],
      [
        "Ġworkshop",
        -10.149241342979613
      ],
      [
        "Ġrely",
        -10.149698438590312
      ],
      [
        "Ġreact",
        -10.149863354127191
      ],
      [
        "Ġagent",
        -10.15080341424957
      ],
      [
        "rote",
        -10.151083404147672
      ],
      [
        "interested",
        -10.151107294552
      ],
      [
        "Ġconfirm",
        -10.151707507962564
      ],
      [
        "Let",
        -10.151818172415991
      ],
      [
        "].",
        -10.152686794440562
      ],
      [
        "Ġshot",
        -10.15329005045847
      ],
      [
        "Ġcharg",
        -10.153639665557892
      ],
      [
        "Ġshowing",
        -10.1536852355069
      ],
      [
        "Ġtrul",
        -10.154193451387313
      ],
      [
        "like",
        -10.15514810303126
      ],
      [
        "ĠWest",
        -10.155193554938474
      ],
      [
        "Ġpolitical",
        -10.155953351676416
      ],
      [
        "Ġinteractions",
        -10.156233189745354
      ],
      [
        "Ġperhap",
        -10.157149027963644
      ],
      [
        "Ġstable",
        -10.157268209914305
      ],
      [
        "Ġcontroll",
        -10.15788607723328
      ],
      [
        "Ġexplor",
        -10.15845939416202
      ],
      [
        "Ġeight",
        -10.15876148733389
      ],
      [
        "Ġremote",
        -10.158790023681656
      ],
      [
        "Ġmask",
        -10.15894241110252
      ],
      [
        "Ġopening",
        -10.159222609499048
      ],
      [
        "ĠSept",
        -10.159285765671129
      ],
      [
        "Ġprinter",
        -10.159317411652072
      ],
      [
        "Ġlaunch",
        -10.159527025017123
      ],
      [
        "Ġthrow",
        -10.160618017301967
      ],
      [
        "Ġanalyze",
        -10.16154502275469
      ],
      [
        "Ġconversation",
        -10.161972712548476
      ],
      [
        "Ġexam",
        -10.162311461470118
      ],
      [
        "Ġbudget",
        -10.162603198231352
      ],
      [
        "Ġinnovation",
        -10.162727652587938
      ],
      [
        "Ġblend",
        -10.16315604382687
      ],
      [
        "am",
        -10.16349756211163
      ],
      [
        "ions",
        -10.164233153449882
      ],
      [
        "Ġgravit",
        -10.164619951546705
      ],
      [
        "Ġstroke",
        -10.165120685057456
      ],
      [
        "Ġmanner",
        -10.16559750532046
      ],
      [
        "Ġmath",
        -10.165955128588951
      ],
      [
        "ĠLife",
        -10.16653895360471
      ],
      [
        "Ġprompt",
        -10.166926484119582
      ],
      [
        "Ġurban",
        -10.166945275943322
      ],
      [
        "\"The",
        -10.167818898401356
      ],
      [
        "Ġcarried",
        -10.16818952717133
      ],
      [
        "Ġallerg",
        -10.168464574218271
      ],
      [
        "Ġdiagnose",
        -10.16873501904205
      ],
      [
        "Ġcompetition",
        -10.169664788511271
      ],
      [
        "Ġmilitar",
        -10.170568873085756
      ],
      [
        "Ġseven",
        -10.17092522975812
      ],
      [
        "Ġspeak",
        -10.171961547610156
      ],
      [
        "ĠHave",
        -10.172134939978354
      ],
      [
        "-friendl",
        -10.173618378142804
      ],
      [
        "Ġnerve",
        -10.174075079074502
      ],
      [
        "Ġmammal",
        -10.174147183445369
      ],
      [
        "ĠCO",
        -10.174207070091182
      ],
      [
        "that",
        -10.175420028176216
      ],
      [
        "Ġloop",
        -10.17605027254205
      ],
      [
        "Ġsolve",
        -10.1764008371666
      ],
      [
        "Ġexciting",
        -10.176512296791978
      ],
      [
        "Ġelectrons",
        -10.176757023006695
      ],
      [
        "Ġdecided",
        -10.176993912526823
      ],
      [
        "Ġdecide",
        -10.177615525979393
      ],
      [
        "Ġwoman",
        -10.177962429029348
      ],
      [
        "Ġdedicate",
        -10.178677273614134
      ],
      [
        "Ġlock",
        -10.178727805834026
      ],
      [
        "Ġdetermin",
        -10.178990410550655
      ],
      [
        "Although",
        -10.179342470292765
      ],
      [
        "Ġcommunicate",
        -10.179446706620446
      ],
      [
        "Ġrow",
        -10.179778226753074
      ],
      [
        "Ġserver",
        -10.18045648284875
      ],
      [
        "Ġmineral",
        -10.18123571520524
      ],
      [
        "Ġfair",
        -10.181851164999111
      ],
      [
        "Ġhydrogen",
        -10.182505313069482
      ],
      [
        "Ġtomato",
        -10.183468235648167
      ],
      [
        "Ġappreciate",
        -10.183659681819446
      ],
      [
        "ĠUE",
        -10.183965578487008
      ],
      [
        "Ġexcessive",
        -10.183966019507402
      ],
      [
        "Ġgap",
        -10.184096787189285
      ],
      [
        "ĠSun",
        -10.18428474797527
      ],
      [
        "cellular",
        -10.184645482819173
      ],
      [
        "Ġsent",
        -10.185586603531275
      ],
      [
        "ĠLike",
        -10.185726787940542
      ],
      [
        "Ġagriculture",
        -10.185804735421268
      ],
      [
        "Ġexplanation",
        -10.185807458845272
      ],
      [
        "Ġfishing",
        -10.18624647801304
      ],
      [
        "Ġwhatever",
        -10.186841091341089
      ],
      [
        "Ġmention",
        -10.18736118385705
      ],
      [
        "ĠConsider",
        -10.18783018847899
      ],
      [
        "Ġacademic",
        -10.188431435607733
      ],
      [
        "ĠUnit",
        -10.188831768906311
      ],
      [
        "Ġnovel",
        -10.188872857261334
      ],
      [
        "ĠIsland",
        -10.189247363032326
      ],
      [
        "Ġsold",
        -10.189549746047485
      ],
      [
        "Ġfiles",
        -10.189565412216982
      ],
      [
        "Ġstomach",
        -10.190046575692604
      ],
      [
        "Ġneck",
        -10.190088715229706
      ],
      [
        "Ġfurniture",
        -10.190151902915732
      ],
      [
        "ĠProgram",
        -10.190505407220638
      ],
      [
        "Ġchocolate",
        -10.190560775001806
      ],
      [
        "Ġinflammation",
        -10.19056321126111
      ],
      [
        "Ġwasn",
        -10.191874384596286
      ],
      [
        "Ġincredibl",
        -10.192623478942028
      ],
      [
        "Ġchair",
        -10.19293874996393
      ],
      [
        "Ġregulate",
        -10.19409482760284
      ],
      [
        "Ġseal",
        -10.194373114254851
      ],
      [
        "ĠPower",
        -10.194933966715954
      ],
      [
        "how",
        -10.19518768922056
      ],
      [
        "Ġstream",
        -10.195367150047169
      ],
      [
        "Ġguid",
        -10.19690861835386
      ],
      [
        "History",
        -10.197038104870252
      ],
      [
        "Ġhousehold",
        -10.197825009076766
      ],
      [
        "Ġchapter",
        -10.197900975374369
      ],
      [
        "ĠGeneral",
        -10.19837998159004
      ],
      [
        "Ġvast",
        -10.199942619629828
      ],
      [
        "made",
        -10.200119796909677
      ],
      [
        "ĠThus",
        -10.200579196673504
      ],
      [
        "Ġweigh",
        -10.200919132693926
      ],
      [
        "Ġbones",
        -10.202978845296048
      ],
      [
        "Ġtall",
        -10.203226473594276
      ],
      [
        "Ġintegrate",
        -10.203551888381424
      ],
      [
        "Ġloose",
        -10.203595313141394
      ],
      [
        "Ġinvolv",
        -10.20367869362033
      ],
      [
        "Ġconducted",
        -10.203801696514534
      ],
      [
        "ought",
        -10.203899872548496
      ],
      [
        "Ġitem",
        -10.204602630159622
      ],
      [
        "Ġsharp",
        -10.204945752149674
      ],
      [
        "Ġincorporate",
        -10.204950426739378
      ],
      [
        "Ġappears",
        -10.205087266716284
      ],
      [
        "Ġglucos",
        -10.20573831073563
      ],
      [
        "Ġintake",
        -10.205915110912953
      ],
      [
        "From",
        -10.20704309460366
      ],
      [
        "standing",
        -10.207128838185596
      ],
      [
        "Ġlinked",
        -10.208064305108213
      ],
      [
        "Ġstorm",
        -10.20848276836101
      ],
      [
        "Ġcomparison",
        -10.209001859298482
      ],
      [
        "ĠRed",
        -10.20938800590426
      ],
      [
        "According",
        -10.209419805048784
      ],
      [
        "Ġsurprise",
        -10.21148692841384
      ],
      [
        "ĠLook",
        -10.212002161680916
      ],
      [
        "Ġlense",
        -10.212131049869289
      ],
      [
        "Ġsubstance",
        -10.21341696530594
      ],
      [
        "ĠGo",
        -10.213758259876588
      ],
      [
        "Ġpepper",
        -10.214087549171987
      ],
      [
        "Ġbroken",
        -10.214471939753292
      ],
      [
        "Ġeconom",
        -10.214859469046164
      ],
      [
        "Ġconcepts",
        -10.214942082788536
      ],
      [
        "ĠHome",
        -10.215041362707922
      ],
      [
        "Ġlaws",
        -10.216042777710877
      ],
      [
        "Ġlift",
        -10.216510107776374
      ],
      [
        "Ġattach",
        -10.217240162895404
      ],
      [
        "Ġscrew",
        -10.217314444947544
      ],
      [
        "Ġchoices",
        -10.217501295204537
      ],
      [
        "Ġcurve",
        -10.218231496858373
      ],
      [
        "Ġwet",
        -10.218312262477976
      ],
      [
        "Ġbar",
        -10.218822428924476
      ],
      [
        "Ġlung",
        -10.219679352601393
      ],
      [
        "Ġaccurac",
        -10.221074408344066
      ],
      [
        "Ġdeposit",
        -10.221309991907887
      ],
      [
        "Ġagenc",
        -10.222442955827171
      ],
      [
        "Ġdamaged",
        -10.222655307037876
      ],
      [
        "Ġnutrition",
        -10.224363825979813
      ],
      [
        "Ġelectron",
        -10.224374746311662
      ],
      [
        "Ġweak",
        -10.224424040557857
      ],
      [
        "ĠCheck",
        -10.224777106478
      ],
      [
        "Ġcloser",
        -10.224822824377926
      ],
      [
        "Ġstability",
        -10.225520404859344
      ],
      [
        "Ġinterior",
        -10.226120695753224
      ],
      [
        "ington",
        -10.226374335547993
      ],
      [
        "Ġdiagnosi",
        -10.228520074529907
      ],
      [
        "ĠSociety",
        -10.228739941610154
      ],
      [
        "with",
        -10.23022240815332
      ],
      [
        "-being",
        -10.23067030257742
      ],
      [
        "Ġrelax",
        -10.231389988837826
      ],
      [
        "Ġten",
        -10.231817465798697
      ],
      [
        "at",
        -10.232895456837708
      ],
      [
        "Ġsudden",
        -10.233179963633177
      ],
      [
        "Ġemployees",
        -10.233316073848798
      ],
      [
        "Ġreplacement",
        -10.233609078368564
      ],
      [
        "Ġsecret",
        -10.233811416379288
      ],
      [
        "cities",
        -10.2340776404334
      ],
      [
        "Ġdirector",
        -10.234735145558968
      ],
      [
        "Ġupdate",
        -10.23480985658647
      ],
      [
        "Ġcareful",
        -10.23571782201337
      ],
      [
        "Ġgun",
        -10.23597725573747
      ],
      [
        "Ġpreparation",
        -10.23828785501179
      ],
      [
        "Ġconstruct",
        -10.238346931974592
      ],
      [
        "Ġmovie",
        -10.2384320411546
      ],
      [
        "Ġinvention",
        -10.238723300149218
      ],
      [
        "Ġmanag",
        -10.23941916364756
      ],
      [
        "Ġship",
        -10.2394258806648
      ],
      [
        "Ġconsult",
        -10.239872352319434
      ],
      [
        "possibly",
        -10.240196285328212
      ],
      [
        "Ġvarie",
        -10.24039886882192
      ],
      [
        "Ġclock",
        -10.240523841450807
      ],
      [
        "Ġarm",
        -10.240593728603006
      ],
      [
        "Over",
        -10.241926670780524
      ],
      [
        "Ġoccurr",
        -10.242913821997384
      ],
      [
        "Ġscenario",
        -10.24308241488188
      ],
      [
        "Ġconfidence",
        -10.24310715923264
      ],
      [
        "Ġbranch",
        -10.24388437410099
      ],
      [
        "Ġnitrogen",
        -10.243989040165054
      ],
      [
        "Ġsnake",
        -10.24412881131916
      ],
      [
        "Ġdiagram",
        -10.245763455126474
      ],
      [
        "Ġprofessor",
        -10.246096360178312
      ],
      [
        "Ġheavi",
        -10.246133150258364
      ],
      [
        "biology",
        -10.246572322667964
      ],
      [
        "Ġputt",
        -10.24664483682849
      ],
      [
        "Ġatoms",
        -10.246683683363216
      ],
      [
        "Ġshop",
        -10.24696098368246
      ],
      [
        "ĠGuide",
        -10.247604894893833
      ],
      [
        "itis",
        -10.247781470611828
      ],
      [
        "ĠUV",
        -10.24880138208832
      ],
      [
        "Ġsizes",
        -10.2488563176207
      ],
      [
        "Ġdirt",
        -10.24938992311826
      ],
      [
        "Ġbecom",
        -10.249435817034694
      ],
      [
        "Ġbegins",
        -10.250270252705125
      ],
      [
        "ĠControl",
        -10.250671210185605
      ],
      [
        "ĠCD",
        -10.250873293207125
      ],
      [
        "Ġcopper",
        -10.250927993364726
      ],
      [
        "gone",
        -10.2515479386645
      ],
      [
        "Ġcloud",
        -10.252164815045152
      ],
      [
        "Ġbigger",
        -10.253211491735945
      ],
      [
        "Ġstudied",
        -10.254012611826877
      ],
      [
        "Ġlaborator",
        -10.254215078707723
      ],
      [
        "Ġpictures",
        -10.255993862310577
      ],
      [
        "Ġaesthetic",
        -10.256343139861308
      ],
      [
        "Ġmicro",
        -10.256908059810918
      ],
      [
        "Ġvariable",
        -10.257557168568177
      ],
      [
        "ĠHuman",
        -10.258123230660605
      ],
      [
        "Ġcovers",
        -10.25919868200128
      ],
      [
        "ĠTwo",
        -10.261511262969291
      ],
      [
        "going",
        -10.262506561198888
      ],
      [
        "Ġprobabilit",
        -10.262904026633432
      ],
      [
        "Ġorange",
        -10.26306943252679
      ],
      [
        "Ġwish",
        -10.263229046636738
      ],
      [
        "Ġincorporat",
        -10.2634799826354
      ],
      [
        "Ġnose",
        -10.264400672166566
      ],
      [
        "Ġminimize",
        -10.264534857876049
      ],
      [
        "ĠJanu",
        -10.264602784377637
      ],
      [
        "Ġgave",
        -10.265748297521558
      ],
      [
        "Ġcotton",
        -10.265933544446977
      ],
      [
        "Ġbelief",
        -10.266163271046985
      ],
      [
        "Ġshapes",
        -10.266335292695974
      ],
      [
        "Ġisland",
        -10.266754717633647
      ],
      [
        "Ġinner",
        -10.267066839684349
      ],
      [
        "-related",
        -10.26781813462665
      ],
      [
        "Ġflying",
        -10.268317028247914
      ],
      [
        "Ġinterface",
        -10.269105759345816
      ],
      [
        "Ġexchange",
        -10.270151809955568
      ],
      [
        "Ġmanufacturer",
        -10.270431734294055
      ],
      [
        "Ġclothes",
        -10.27064029862745
      ],
      [
        "board",
        -10.271800919224098
      ],
      [
        "ĠLearning",
        -10.272267679004054
      ],
      [
        "ĠFebr",
        -10.27259841447798
      ],
      [
        "Ġgradual",
        -10.273059054368808
      ],
      [
        "Ġcooked",
        -10.27355250386664
      ],
      [
        "Ġrecorded",
        -10.274463962354302
      ],
      [
        "ĠAny",
        -10.274709190193583
      ],
      [
        "Ġroute",
        -10.2755710734276
      ],
      [
        "Ġcorresponding",
        -10.276224675370486
      ],
      [
        "Ġfather",
        -10.277035653159809
      ],
      [
        "Ġinstall",
        -10.279094108117452
      ],
      [
        "Ġtruck",
        -10.279468722574483
      ],
      [
        "-of",
        -10.279770829969197
      ],
      [
        "cholesterol",
        -10.280326561275016
      ],
      [
        "Ġcalm",
        -10.28084559401968
      ],
      [
        "Ġcoral",
        -10.28092928359065
      ],
      [
        "Ġinch",
        -10.281358835926603
      ],
      [
        "Ġcampaign",
        -10.281830289639135
      ],
      [
        "ĠCollege",
        -10.28260484346447
      ],
      [
        "Ġmedication",
        -10.282833910260187
      ],
      [
        "Ġfamiliar",
        -10.282851713445542
      ],
      [
        "Ġconflict",
        -10.282922091090049
      ],
      [
        "Ġlonge",
        -10.283161430102414
      ],
      [
        "Ġinsurance",
        -10.283298597246862
      ],
      [
        "Ġderive",
        -10.283387959992837
      ],
      [
        "Ġmanager",
        -10.28352731300816
      ],
      [
        "Ġguess",
        -10.283855475072633
      ],
      [
        "Ġdur",
        -10.283907389295903
      ],
      [
        "-the",
        -10.284299161764672
      ],
      [
        "Ġrespective",
        -10.284319331239258
      ],
      [
        "Ġfamous",
        -10.284524815380497
      ],
      [
        "Ġwouldn",
        -10.28499584470498
      ],
      [
        "Ġtheme",
        -10.285086712313555
      ],
      [
        "ĠCommon",
        -10.285419934239552
      ],
      [
        "Ġcontribution",
        -10.286230783111948
      ],
      [
        "Ġhormone",
        -10.28710702598494
      ],
      [
        "Ġprofessionals",
        -10.287428291513317
      ],
      [
        "Ġmassive",
        -10.287635702540737
      ],
      [
        "Ġvariet",
        -10.28767852625174
      ],
      [
        "ĠII",
        -10.288111988044236
      ],
      [
        "ĠSan",
        -10.288573746525538
      ],
      [
        "Ġwin",
        -10.289321109402836
      ],
      [
        "Ġnet",
        -10.289386197108731
      ],
      [
        "--",
        -10.289476971841404
      ],
      [
        "Ġmolecule",
        -10.28953158309854
      ],
      [
        "Ġdishe",
        -10.290333149116194
      ],
      [
        "Ġinnovative",
        -10.290579174156944
      ],
      [
        "Ġshed",
        -10.290599665506004
      ],
      [
        "Ġedit",
        -10.290948246458193
      ],
      [
        "Ġnotes",
        -10.291955778534252
      ],
      [
        "Ġmembrane",
        -10.293894346025615
      ],
      [
        "ĠPacific",
        -10.29449169329368
      ],
      [
        "Ġvertical",
        -10.294898845332098
      ],
      [
        "ĠFlorid",
        -10.295203041723733
      ],
      [
        "Ġtradition",
        -10.295610328058451
      ],
      [
        "Ġflood",
        -10.296135796398769
      ],
      [
        "Ġmedications",
        -10.296299050829118
      ],
      [
        "Ġrecording",
        -10.296740861460009
      ],
      [
        "ĠGet",
        -10.29773115276944
      ],
      [
        "Ġpackage",
        -10.29837991031508
      ],
      [
        "Ġprocedures",
        -10.299568333229525
      ],
      [
        "Ġseat",
        -10.299994813015095
      ],
      [
        "Ġmarketing",
        -10.300695622448206
      ],
      [
        "Ġliver",
        -10.301679711781382
      ],
      [
        "Ġstronger",
        -10.302286835020062
      ],
      [
        "ĠThrough",
        -10.302324133751094
      ],
      [
        "Ġshoulder",
        -10.302540908488176
      ],
      [
        "Ġmutation",
        -10.302608551823404
      ],
      [
        "Ġillustrate",
        -10.303175005712768
      ],
      [
        "Ġformat",
        -10.30350240839936
      ],
      [
        "Ġfemales",
        -10.304853098509
      ],
      [
        "Ġgrant",
        -10.30542383411946
      ],
      [
        "Ġchemistry",
        -10.305562997114087
      ],
      [
        "Ġshade",
        -10.305872103080093
      ],
      [
        "ĠLake",
        -10.307141387664329
      ],
      [
        "be",
        -10.3085434394189
      ],
      [
        "-level",
        -10.30915188967948
      ],
      [
        "Ġnutrient",
        -10.309450219281878
      ],
      [
        "Ġrecommendation",
        -10.309612642343886
      ],
      [
        "Ġrear",
        -10.309705190775349
      ],
      [
        "ĠY",
        -10.310157874582416
      ],
      [
        "Ġbutter",
        -10.310315321004015
      ],
      [
        "Ġsets",
        -10.310498919487268
      ],
      [
        "Ġcoast",
        -10.311125282183152
      ],
      [
        "Ġbreath",
        -10.31159221785291
      ],
      [
        "Ġopposite",
        -10.31218569217876
      ],
      [
        "Ġhardware",
        -10.312683015838608
      ],
      [
        "Ġcustom",
        -10.314231232531558
      ],
      [
        "men",
        -10.314491071603705
      ],
      [
        "Ġsegment",
        -10.314597138737833
      ],
      [
        "Ġtoxic",
        -10.314714015920485
      ],
      [
        "Ġadequate",
        -10.314730252791357
      ],
      [
        "Ġtile",
        -10.314757012493468
      ],
      [
        "Ġspecialist",
        -10.314921958024854
      ],
      [
        "Ġbean",
        -10.315381563470536
      ],
      [
        "Ġrelation",
        -10.315676541353572
      ],
      [
        "ĠAnimal",
        -10.316434543086618
      ],
      [
        "Ġoven",
        -10.3167200009717
      ],
      [
        "Ġalter",
        -10.317005314464952
      ],
      [
        "Ġimagine",
        -10.317136861866697
      ],
      [
        "ĠEngland",
        -10.31777106411386
      ],
      [
        "itting",
        -10.318054093682417
      ],
      [
        "Ġintroduction",
        -10.318925949998036
      ],
      [
        "Ġsignificance",
        -10.31963574745594
      ],
      [
        "Ġsex",
        -10.320711729734114
      ],
      [
        "Ġminute",
        -10.32072925722326
      ],
      [
        "Ġsilver",
        -10.320735841438086
      ],
      [
        "Ġwashing",
        -10.321090509539069
      ],
      [
        "ĠWindow",
        -10.321329299712756
      ],
      [
        "Ġevaluate",
        -10.321443445441885
      ],
      [
        "ĠUp",
        -10.321471668569789
      ],
      [
        "Ġherb",
        -10.322377425218964
      ],
      [
        "ate",
        -10.32296019218957
      ],
      [
        "Ġdimension",
        -10.323446054065268
      ],
      [
        "Ġconventional",
        -10.324224035453536
      ],
      [
        "Ġdrain",
        -10.325117296080638
      ],
      [
        "Ġluck",
        -10.32531115193522
      ],
      [
        "Ġwearing",
        -10.325435196468566
      ],
      [
        "ĠRead",
        -10.326069600094826
      ],
      [
        "Ġparticipate",
        -10.326077158719418
      ],
      [
        "Ġobes",
        -10.326199468542317
      ],
      [
        "Ġtrouble",
        -10.3264414048448
      ],
      [
        "?\"",
        -10.327239744082132
      ],
      [
        "Ġnames",
        -10.327381387776878
      ],
      [
        "Ġusage",
        -10.327509215140264
      ],
      [
        "Ġpuppy",
        -10.328135112389145
      ],
      [
        "ball",
        -10.328819866004167
      ],
      [
        "U",
        -10.328957037165855
      ],
      [
        "Ġframework",
        -10.330333700671634
      ],
      [
        "Ġmild",
        -10.3304899336745
      ],
      [
        "Ġanswers",
        -10.33101430324576
      ],
      [
        "Ġsubstances",
        -10.33127008394327
      ],
      [
        "Ġexcept",
        -10.332442841798448
      ],
      [
        "Ġfold",
        -10.333076837039222
      ],
      [
        "Ġdanger",
        -10.333382109780189
      ],
      [
        "ĠAugust",
        -10.334374863143832
      ],
      [
        "Ġprinciple",
        -10.335506139918015
      ],
      [
        "Ġcollaboration",
        -10.33555220071062
      ],
      [
        "Ġtwice",
        -10.336326294387709
      ],
      [
        "Ġtrend",
        -10.337847478037723
      ],
      [
        "Ġbehaviour",
        -10.337904027068596
      ],
      [
        "Ġsauce",
        -10.338489662368634
      ],
      [
        "Ġvelocit",
        -10.338922261524312
      ],
      [
        "Ġstar",
        -10.339804919084887
      ],
      [
        "ĠTHE",
        -10.340563024498705
      ],
      [
        "Ġimpossibl",
        -10.341855351222817
      ],
      [
        "Ġpose",
        -10.34341804845771
      ],
      [
        "Ġriver",
        -10.343438485249193
      ],
      [
        "Ġmenu",
        -10.343529963062966
      ],
      [
        "Ġbabies",
        -10.343753234789476
      ],
      [
        "Ġpartner",
        -10.3441023905354
      ],
      [
        "ership",
        -10.34500069801145
      ],
      [
        "ĠToday",
        -10.34569140801685
      ],
      [
        "way",
        -10.34585111040134
      ],
      [
        "uar",
        -10.346400726223717
      ],
      [
        "Ġparticle",
        -10.346560771045285
      ],
      [
        "Ġdepression",
        -10.346607451403628
      ],
      [
        "Ġtrail",
        -10.346796491397235
      ],
      [
        "Ġintroduc",
        -10.347368349534872
      ],
      [
        "Ġdisk",
        -10.34774274106552
      ],
      [
        "ĠBlue",
        -10.349752425426331
      ],
      [
        "ĠRe",
        -10.349858802833404
      ],
      [
        "see",
        -10.350274563216797
      ],
      [
        "Ġmeant",
        -10.351159728793013
      ],
      [
        "Ġride",
        -10.351302815786584
      ],
      [
        "Ġgather",
        -10.351431058911462
      ],
      [
        "ĠTime",
        -10.351495951036178
      ],
      [
        "Ġwine",
        -10.35183188863508
      ],
      [
        "Ġfeedback",
        -10.351914481971086
      ],
      [
        "Ġborder",
        -10.351952672235551
      ],
      [
        "Ġmeals",
        -10.352184112351743
      ],
      [
        "Ġsides",
        -10.352483826043986
      ],
      [
        "ĠAssociation",
        -10.352665081655278
      ],
      [
        "Ġhunting",
        -10.352926603408536
      ],
      [
        "Ġreceptor",
        -10.353636174250047
      ],
      [
        "Ġsatellite",
        -10.354589494114377
      ],
      [
        "Ġvibrant",
        -10.354691637720698
      ],
      [
        "ĠNatural",
        -10.354749630647524
      ],
      [
        "Ġhorses",
        -10.356168796610618
      ],
      [
        "Ġreports",
        -10.35793661826603
      ],
      [
        "He",
        -10.35888402980365
      ],
      [
        "Ġprey",
        -10.358918716968136
      ],
      [
        "Ġstreet",
        -10.359047997314327
      ],
      [
        "ley",
        -10.359727150303724
      ],
      [
        "wood",
        -10.3598871446289
      ],
      [
        "Ġunlike",
        -10.359936219578548
      ],
      [
        "Ġthrive",
        -10.360427031612872
      ],
      [
        "Ġbaking",
        -10.360478888242293
      ],
      [
        "Ġculinar",
        -10.360581163480417
      ],
      [
        "Ġtumor",
        -10.360813501164682
      ],
      [
        "ĠAnother",
        -10.361684699371656
      ],
      [
        "Before",
        -10.36192134666043
      ],
      [
        "Ġcelebrate",
        -10.362414237024415
      ],
      [
        "ĠAdd",
        -10.362876186984291
      ],
      [
        "pp",
        -10.363707782471966
      ],
      [
        "Ġdiameter",
        -10.363953332155743
      ],
      [
        "ĠRemember",
        -10.364334811811585
      ],
      [
        "Ġrecover",
        -10.364944767748849
      ],
      [
        "ĠWhite",
        -10.365844247740274
      ],
      [
        "Ġpublish",
        -10.36584803244724
      ],
      [
        "Ġproductivity",
        -10.36598543002528
      ],
      [
        "ĠPlease",
        -10.366349678434757
      ],
      [
        "Ġworse",
        -10.366666145401616
      ],
      [
        "Ġdebri",
        -10.368398487139864
      ],
      [
        "Ġsouthern",
        -10.368695152589256
      ],
      [
        "Ġprofit",
        -10.369336172339883
      ],
      [
        "Ġhumidity",
        -10.3694053391863
      ],
      [
        "Ġprices",
        -10.370009718675863
      ],
      [
        "accessible",
        -10.37009827321311
      ],
      [
        "Ġpresentation",
        -10.37034190855076
      ],
      [
        "Ġzone",
        -10.374085044183476
      ],
      [
        "Ġfriendly",
        -10.374635292521996
      ],
      [
        "ility",
        -10.374809786463231
      ],
      [
        "Ġchosen",
        -10.375979648703217
      ],
      [
        "Ġoutcomes",
        -10.376006198980502
      ],
      [
        "Ġgum",
        -10.37625113863001
      ],
      [
        "Ġwor",
        -10.376487931054388
      ],
      [
        "Ġdelicious",
        -10.37676086649352
      ],
      [
        "Ġsupplie",
        -10.377536084448357
      ],
      [
        "ĠKing",
        -10.37844229766228
      ],
      [
        "Ġcards",
        -10.37867289316521
      ],
      [
        "Ġmission",
        -10.379419999232043
      ],
      [
        "Ġshock",
        -10.379450671585555
      ],
      [
        "ĠJournal",
        -10.380445196508006
      ],
      [
        "Ġshark",
        -10.381685593790548
      ],
      [
        "Ġgraduate",
        -10.382236943724893
      ],
      [
        "Ġthanks",
        -10.382879291565985
      ],
      [
        "Ġdepartment",
        -10.38298810199174
      ],
      [
        "Ġinteractive",
        -10.383221931095196
      ],
      [
        "Ġfloat",
        -10.383373332413818
      ],
      [
        "Ġagricultural",
        -10.383710949804978
      ],
      [
        "Ġpromoting",
        -10.38383577381688
      ],
      [
        "Ġlie",
        -10.38391283551509
      ],
      [
        "Ġmodule",
        -10.384403131123172
      ],
      [
        "Ġdebate",
        -10.384506877240288
      ],
      [
        "Ġnurse",
        -10.38459806771899
      ],
      [
        "Ġstarch",
        -10.384776905162298
      ],
      [
        "ĠPart",
        -10.384953127590896
      ],
      [
        "ĠMr",
        -10.385432507405994
      ],
      [
        "Ġdiffer",
        -10.385684175910168
      ],
      [
        "Ġmistake",
        -10.386596692149627
      ],
      [
        "Ġforget",
        -10.386618336770242
      ],
      [
        "Ġexpansion",
        -10.386671164323982
      ],
      [
        "Ġtrends",
        -10.386884143413198
      ],
      [
        "Ġcarbohydrate",
        -10.387045903430042
      ],
      [
        "Not",
        -10.38750903131192
      ],
      [
        "installed",
        -10.387822258228448
      ],
      [
        "ĠCo",
        -10.388010538276914
      ],
      [
        "ĠStudents",
        -10.388037031978596
      ],
      [
        "Ġwhereas",
        -10.388551709751203
      ],
      [
        ";Ċ",
        -10.38891783107328
      ],
      [
        "Ġhandling",
        -10.389248226759374
      ],
      [
        "aging",
        -10.3911253678417
      ],
      [
        "Ġserving",
        -10.391168224562136
      ],
      [
        "Ġnorthern",
        -10.391243484340944
      ],
      [
        "Ġvet",
        -10.391296280078723
      ],
      [
        "most",
        -10.39137053980539
      ],
      [
        "Ġstands",
        -10.391695808413466
      ],
      [
        "Ġdrill",
        -10.391863256399546
      ],
      [
        "ĠTechnology",
        -10.39202390021595
      ],
      [
        "Ġsouth",
        -10.392414277109689
      ],
      [
        "ĠWash",
        -10.39242908342172
      ],
      [
        "Ġclimb",
        -10.392452874019746
      ],
      [
        "Ġatom",
        -10.393035427287543
      ],
      [
        "Ġrenewable",
        -10.393348356760242
      ],
      [
        "Ġbiggest",
        -10.394224786958484
      ],
      [
        "ĠAct",
        -10.39659714811106
      ],
      [
        "Ġstores",
        -10.39685348454458
      ],
      [
        "Ġdioxide",
        -10.397218856362032
      ],
      [
        "ĠInternet",
        -10.398261617932132
      ],
      [
        "Ġparallel",
        -10.3982947770551
      ],
      [
        "Ġattribute",
        -10.398336220607684
      ],
      [
        "Ġspecialized",
        -10.398458523122276
      ],
      [
        "ene",
        -10.398652797273217
      ],
      [
        "ING",
        -10.398936665052346
      ],
      [
        "ĠLearn",
        -10.399130945455028
      ],
      [
        "Ġfascinating",
        -10.39952489075324
      ],
      [
        "Ġleader",
        -10.39962925636932
      ],
      [
        "Ġproposed",
        -10.400208846264908
      ],
      [
        "Ġtown",
        -10.400209311336338
      ],
      [
        "Ġtrace",
        -10.400765351422883
      ],
      [
        "Ġpreserve",
        -10.401000939172585
      ],
      [
        "Ġgift",
        -10.401036711722249
      ],
      [
        "Ġreceiv",
        -10.401386156977914
      ],
      [
        "ĠTV",
        -10.401605508028428
      ],
      [
        "Ġinspire",
        -10.402534657754462
      ],
      [
        "Ġreplac",
        -10.402537472503528
      ],
      [
        "Ġcommitment",
        -10.402876024740754
      ],
      [
        "ĠTake",
        -10.403134189878774
      ],
      [
        "Ġintensit",
        -10.403903511215624
      ],
      [
        "Ġinter",
        -10.404264019496928
      ],
      [
        "Ġpan",
        -10.404374634181025
      ],
      [
        "Ġfixed",
        -10.40546236287111
      ],
      [
        "Ġmoon",
        -10.40580867425681
      ],
      [
        "Ġcolumn",
        -10.406341958806628
      ],
      [
        "Ġdomain",
        -10.407647042003802
      ],
      [
        "Ġwindows",
        -10.407860020563936
      ],
      [
        "Ġremaining",
        -10.40817603915136
      ],
      [
        "Ġcomputers",
        -10.408296669465749
      ],
      [
        "Ġwonderful",
        -10.409638249349864
      ],
      [
        "OVID",
        -10.412250876650758
      ],
      [
        "from",
        -10.412652811790794
      ],
      [
        "Ġdetection",
        -10.41266749690211
      ],
      [
        "Ġmeters",
        -10.41353090458122
      ],
      [
        "Ġlawn",
        -10.414117220204062
      ],
      [
        "Ġcorn",
        -10.41415229240486
      ],
      [
        "Ġshoot",
        -10.41431767483184
      ],
      [
        "Ġentry",
        -10.415001424153647
      ],
      [
        "Ġtip",
        -10.415184083199843
      ],
      [
        "ĠChine",
        -10.415451409827632
      ],
      [
        "Ġwing",
        -10.416349786603984
      ],
      [
        "@",
        -10.416460464979387
      ],
      [
        "measuring",
        -10.416752404778975
      ],
      [
        "Ġvalve",
        -10.418056460517516
      ],
      [
        "ĠFoundation",
        -10.418079788225018
      ],
      [
        "ĠOcean",
        -10.419053165863607
      ],
      [
        "ĠLab",
        -10.41963761116948
      ],
      [
        "},",
        -10.419791946967727
      ],
      [
        "ĠStart",
        -10.420243137758474
      ],
      [
        "Ġinitiative",
        -10.420416671382348
      ],
      [
        "Ġgreenhouse",
        -10.42049438228133
      ],
      [
        "can",
        -10.421040862266256
      ],
      [
        "ĠSometime",
        -10.42120001656034
      ],
      [
        "Ġclay",
        -10.421289376437946
      ],
      [
        "den",
        -10.42146035111294
      ],
      [
        "Ġtires",
        -10.421862220299932
      ],
      [
        "ĠChildren",
        -10.422374877824968
      ],
      [
        "ĠLondon",
        -10.422396033450392
      ],
      [
        "Ġnarrow",
        -10.425792459400128
      ],
      [
        "Ġdi",
        -10.426041605259837
      ],
      [
        "Ġease",
        -10.426400887928564
      ],
      [
        "Ġassociation",
        -10.426512416042858
      ],
      [
        "Ġpathway",
        -10.426587085234528
      ],
      [
        "Ġcake",
        -10.426848303554252
      ],
      [
        "Ġboil",
        -10.427182178364822
      ],
      [
        "Ġspectrum",
        -10.427307905645009
      ],
      [
        "Ġweld",
        -10.427700537359378
      ],
      [
        "Ġstars",
        -10.427990507299477
      ],
      [
        "Ġbreathing",
        -10.42819511686805
      ],
      [
        "Ġveterinarian",
        -10.428944527140326
      ],
      [
        "Ġcluster",
        -10.429415510314843
      ],
      [
        "Ġclassic",
        -10.429795201567432
      ],
      [
        "Ġdesigner",
        -10.43007595981963
      ],
      [
        "Ġexperienc",
        -10.430362519583126
      ],
      [
        "q",
        -10.431208252960111
      ],
      [
        "Ġnorth",
        -10.431823437806525
      ],
      [
        "Ġvacuum",
        -10.43228072490129
      ],
      [
        "Dur",
        -10.432808922446018
      ],
      [
        "Ġresponsibilit",
        -10.433001669676331
      ],
      [
        "Ġprogramme",
        -10.433172988010956
      ],
      [
        "New",
        -10.433632788258691
      ],
      [
        "Ġarchitecture",
        -10.434253144479658
      ],
      [
        "ĠProfessor",
        -10.434443183044417
      ],
      [
        "eath",
        -10.436277070288256
      ],
      [
        "Ġcomput",
        -10.43727905712975
      ],
      [
        "Ġbound",
        -10.43730206255064
      ],
      [
        "ĠBefore",
        -10.437504517896116
      ],
      [
        "you",
        -10.437795229038333
      ],
      [
        "Ġsales",
        -10.437859928970044
      ],
      [
        "Ġneuron",
        -10.438445303774
      ],
      [
        "ĠUn",
        -10.439156929507607
      ],
      [
        "ification",
        -10.439532392048696
      ],
      [
        "Ġspice",
        -10.439570301648985
      ],
      [
        "ized",
        -10.440205503028004
      ],
      [
        "Ġouter",
        -10.440209608237415
      ],
      [
        "Ġorganize",
        -10.441115730005038
      ],
      [
        "Ġnuts",
        -10.443345284177171
      ],
      [
        "ĠAC",
        -10.443545447675042
      ],
      [
        "ĠNote",
        -10.443711995060257
      ],
      [
        "Ġgenerator",
        -10.44424100468594
      ],
      [
        "Ġcopy",
        -10.445337003628588
      ],
      [
        "Ġcreativ",
        -10.446012084852182
      ],
      [
        "ĠCouncil",
        -10.44606887152247
      ],
      [
        "Ġdistrict",
        -10.44665870958038
      ],
      [
        "ĠManagement",
        -10.447031078910808
      ],
      [
        "Ġinsert",
        -10.4475573917885
      ],
      [
        "ĠCare",
        -10.448327312671427
      ],
      [
        "Ġexperimental",
        -10.44926330088892
      ],
      [
        "Ġflexible",
        -10.450617441494089
      ],
      [
        "Ġmillions",
        -10.450928317865422
      ],
      [
        "Ġbeef",
        -10.451009371856752
      ],
      [
        "Ġarrive",
        -10.45111133529289
      ],
      [
        "Ġreache",
        -10.451271322665123
      ],
      [
        "Ġdependent",
        -10.451292030109943
      ],
      [
        "Ġoral",
        -10.451785201875111
      ],
      [
        "Ġmine",
        -10.451915330829731
      ],
      [
        "lbs",
        -10.452817478192088
      ],
      [
        "fitness",
        -10.453341905845392
      ],
      [
        "but",
        -10.453377437836304
      ],
      [
        "Ġbees",
        -10.453638315739544
      ],
      [
        "Ġboat",
        -10.4536757998459
      ],
      [
        "Ġtropical",
        -10.454120537528244
      ],
      [
        "Ġbranche",
        -10.454475765657142
      ],
      [
        "ur",
        -10.454638663241884
      ],
      [
        "Ġpartial",
        -10.455355002794176
      ],
      [
        "Ġdried",
        -10.45574957709057
      ],
      [
        "Ġkidney",
        -10.456493284692112
      ],
      [
        "Ġunusual",
        -10.45763976306905
      ],
      [
        "Ġrecycle",
        -10.458231489859966
      ],
      [
        "Ġmanufacture",
        -10.458357286843604
      ],
      [
        "bilities",
        -10.458679306793986
      ],
      [
        "Ġstack",
        -10.459315497137826
      ],
      [
        "Since",
        -10.459361456057708
      ],
      [
        "Ġcircle",
        -10.460039675161758
      ],
      [
        "ĠFrance",
        -10.46005564569527
      ],
      [
        "ĠMan",
        -10.46220079407033
      ],
      [
        "Ġpai",
        -10.462319419185842
      ],
      [
        "Ġtutorial",
        -10.462747106482706
      ],
      [
        "Ġcouldn",
        -10.463371694818647
      ],
      [
        "Ġvector",
        -10.464225415887256
      ],
      [
        "ĠDevelopment",
        -10.464278418875306
      ],
      [
        "Ġpossibility",
        -10.464302731596774
      ],
      [
        "Ġoccasional",
        -10.464373596045538
      ],
      [
        "Ġswimm",
        -10.464488575369517
      ],
      [
        "Ġdairy",
        -10.46450608568738
      ],
      [
        "Ġalign",
        -10.46466092977913
      ],
      [
        "Ġsuspect",
        -10.465257763608856
      ],
      [
        "Ġgrid",
        -10.46566960855045
      ],
      [
        "Ġchart",
        -10.465708942136835
      ],
      [
        "ĠEngineer",
        -10.46585953011954
      ],
      [
        "Based",
        -10.465936361845202
      ],
      [
        "Ġantibiotic",
        -10.46595297809016
      ],
      [
        "Ġinvestigation",
        -10.465986130967543
      ],
      [
        "Ġtap",
        -10.466710287659188
      ],
      [
        "Ġrobotic",
        -10.467098086523729
      ],
      [
        "Ġinstruction",
        -10.467142082533986
      ],
      [
        "Ġmountain",
        -10.467363066495054
      ],
      [
        "Ġtone",
        -10.46755513432916
      ],
      [
        "ĠMedicine",
        -10.46756323067383
      ],
      [
        "Ġalgae",
        -10.467823725952943
      ],
      [
        "gently",
        -10.467835987782198
      ],
      [
        "Ġassistant",
        -10.46845593032536
      ],
      [
        "Ġkm",
        -10.468461030811444
      ],
      [
        "Ġsupposed",
        -10.46876966751784
      ],
      [
        "Ġmyself",
        -10.46929612772096
      ],
      [
        "ĠCentral",
        -10.469647521475174
      ],
      [
        "we",
        -10.470274641193392
      ],
      [
        "making",
        -10.47043111965899
      ],
      [
        "Ġequivalent",
        -10.47051093612054
      ],
      [
        "highly",
        -10.470604306957265
      ],
      [
        "Share",
        -10.470707604588656
      ],
      [
        "are",
        -10.471131723687291
      ],
      [
        "Ġarrangement",
        -10.471507057631468
      ],
      [
        "Ġargument",
        -10.472059934174588
      ],
      [
        "Ġhid",
        -10.47213530547822
      ],
      [
        "Ġbrief",
        -10.472302738688072
      ],
      [
        "talking",
        -10.472643193654084
      ],
      [
        "Ġturns",
        -10.473864627665598
      ],
      [
        "Ġidentit",
        -10.474570945249209
      ],
      [
        "Ġstrengthen",
        -10.47471655572236
      ],
      [
        "Ġprecision",
        -10.476046762185586
      ],
      [
        "Ġinterview",
        -10.476205662957288
      ],
      [
        "Ġpriorit",
        -10.476265529308694
      ],
      [
        "Ġdream",
        -10.476355242874664
      ],
      [
        "Ġequipp",
        -10.477545215874695
      ],
      [
        "Ġevaluation",
        -10.477987754221289
      ],
      [
        "Ġworksheet",
        -10.478623908417129
      ],
      [
        "ĠMuseum",
        -10.478865921458627
      ],
      [
        "Ġlinear",
        -10.479177422368991
      ],
      [
        "ĠProject",
        -10.479306874728936
      ],
      [
        "-on",
        -10.479456240918427
      ],
      [
        "Ġstruggle",
        -10.4796408148499
      ],
      [
        "ĠTest",
        -10.480467432205176
      ],
      [
        "Ġtransportation",
        -10.480863895195563
      ],
      [
        "Ġweapon",
        -10.48102577452918
      ],
      [
        "Ġintervention",
        -10.481162524537304
      ],
      [
        "Ġhappening",
        -10.481182716520912
      ],
      [
        "Ġreverse",
        -10.481566260244511
      ],
      [
        "Ġremoval",
        -10.481613309413843
      ],
      [
        "Ġunknown",
        -10.481907327692186
      ],
      [
        "Ġsemi",
        -10.483424221209663
      ],
      [
        "Ġformer",
        -10.48360762441186
      ],
      [
        "}",
        -10.483873326266936
      ],
      [
        "Ġmemor",
        -10.48405371602222
      ],
      [
        "Ġimplementation",
        -10.48423960865012
      ],
      [
        "Ġretain",
        -10.48540755017818
      ],
      [
        "coastal",
        -10.486054010057796
      ],
      [
        "Ġinform",
        -10.486349296584324
      ],
      [
        "ĠSimilar",
        -10.486715694987884
      ],
      [
        "Ġsubsequent",
        -10.486741039986851
      ],
      [
        "Ġinfrastructure",
        -10.487189772674984
      ],
      [
        "Ġfacilitate",
        -10.48795997741226
      ],
      [
        "Ġparasite",
        -10.488163524194876
      ],
      [
        "Ġcentre",
        -10.489150018586768
      ],
      [
        "Ġsink",
        -10.489434074972856
      ],
      [
        "ĠEnvironmental",
        -10.489727543287774
      ],
      [
        "Ġnecessari",
        -10.490310025454283
      ],
      [
        "Ġtechnological",
        -10.490325959041488
      ],
      [
        "Ġchew",
        -10.490602952136928
      ],
      [
        "Ġfoam",
        -10.491746057227424
      ],
      [
        "Ġcent",
        -10.49223474567841
      ],
      [
        "Ġassistance",
        -10.49318653043565
      ],
      [
        "Ġpreferred",
        -10.493321621959105
      ],
      [
        "Ġpolic",
        -10.493760287540468
      ],
      [
        "Ġparty",
        -10.493864540776414
      ],
      [
        "Ġcompetitive",
        -10.494145459770364
      ],
      [
        "Ġmill",
        -10.494170705506445
      ],
      [
        "Ġachieved",
        -10.494696505536664
      ],
      [
        "Ġrepeat",
        -10.496175888271836
      ],
      [
        "Ġconversion",
        -10.497431380679814
      ],
      [
        "ĠRochester",
        -10.497810226734565
      ],
      [
        "Ġirrigation",
        -10.49787819453464
      ],
      [
        "Ġvitamins",
        -10.49831805465539
      ],
      [
        "Ġdiscomfort",
        -10.499316105428091
      ],
      [
        "Ġmoderate",
        -10.499932385866869
      ],
      [
        "tuck",
        -10.500503093587898
      ],
      [
        "Ġvisitor",
        -10.500690198550773
      ],
      [
        "Ġvariables",
        -10.501467947695224
      ],
      [
        "ĠChange",
        -10.502282122963232
      ],
      [
        "Ġspirit",
        -10.50233323375339
      ],
      [
        "-day",
        -10.502356227218623
      ],
      [
        "Ġdoubt",
        -10.502361257134543
      ],
      [
        "Ġbulbs",
        -10.502704661590723
      ],
      [
        "Ġguarantee",
        -10.50283971567023
      ],
      [
        "Ġintense",
        -10.50310843461963
      ],
      [
        "ĠFind",
        -10.503261988358748
      ],
[...]
