{
  "version": "1.0",
  "truncation": null,
  "padding": null,
  "added_tokens": [
    {
      "id": 0,
      "content": "<|bos|>",
      "single_word": false,
      "lstrip": false,
      "rstrip": false,
      "normalized": false,
      "special": true
    },
    {
      "id": 1,
      "content": "<|user_start|>",
      "single_word": false,
      "lstrip": false,
      "rstrip": false,
      "normalized": false,
      "special": true
    },
    {
      "id": 2,
      "content": "<|user_end|>",
      "single_word": false,
      "lstrip": false,
      "rstrip": false,
      "normalized": false,
      "special": true
    },
    {
      "id": 3,
      "content": "<|assistant_start|>",
      "single_word": false,
      "lstrip": false,
      "rstrip": false,
      "normalized": false,
      "special": true
    },
    {
      "id": 4,
      "content": "<|assistant_end|>",
      "single_word": false,
      "lstrip": false,
      "rstrip": false,
      "normalized": false,
      "special": true
    },
    {
      "id": 5,
      "content": "<|python_start|>",
      "single_word": false,
      "lstrip": false,
      "rstrip": false,
      "normalized": false,
      "special": true
    },
    {
      "id": 6,
      "content": "<|python_end|>",
      "single_word": false,
      "lstrip": false,
      "rstrip": false,
      "normalized": false,
      "special": true
    },
    {
      "id": 7,
      "content": "<|output_start|>",
      "single_word": false,
      "lstrip": false,
      "rstrip": false,
      "normalized": false,
      "special": true
    },
    {
      "id": 8,
      "content": "<|output_end|>",
      "single_word": false,
      "lstrip": false,
      "rstrip": false,
      "normalized": false,
      "special": true
    },
    {
      "id": 9,
      "content": "<|unk|>",
      "single_word": false,
      "lstrip": false,
      "rstrip": false,
      "normalized": false,
      "special": true
    }
  ],
  "normalizer": null,
  "pre_tokenizer": {
    "type": "Sequence",
    "pretokenizers": [
      {
        "type": "Split",
        "pattern": {
          "Regex": "'(?i:[sdmt]|ll|ve|re)|[^\\r\\n\\p{L}\\p{N}]?+\\p{L}+|\\p{N}{1,2}| ?[^\\s\\p{L}\\p{N}]++[\\r\\n]*|\\s*[\\r\\n]|\\s+(?!\\S)|\\s+"
        },
        "behavior": "Isolated",
        "invert": false
      },
      {
        "type": "ByteLevel",
        "add_prefix_space": false,
        "trim_offsets": true,
        "use_regex": false
      }
    ]
  },
  "post_processor": {
    "type": "TemplateProcessing",
    "single": [
      {
        "Sequence": {
          "id": "A",
          "type_id": 0
        }
      }
    ],
    "pair": [
      {
        "Sequence": {
          "id": "A",
          "type_id": 0
        }
      },
      {
        "Sequence": {
          "id": "B",
          "type_id": 1
        }
      }
    ],
    "special_tokens": {}
  },
  "decoder": null,
  "model": {
    "type": "Unigram",
    "unk_id": 9,
    "vocab": [
      [
        "<|bos|>",
        0.0
      ],
      [
        "<|user_start|>",
        0.0
      ],
      [
        "<|user_end|>",
        0.0
      ],
      [
        "<|assistant_start|>",
        0.0
      ],
      [
        "<|assistant_end|>",
        0.0
      ],
      [
        "<|python_start|>",
        0.0
      ],
      [
        "<|python_end|>",
        0.0
      ],
      [
        "<|output_start|>",
        0.0
      ],
      [
        "<|output_end|>",
        0.0
      ],
      [
        "<|unk|>",
        0.0
      ],
      [
        "s",
        -2.995849732877206
      ],
      [
        "Ġthe",
        -3.3783878173593624
      ],
      [
        ",",
        -3.4443324028670936
      ],
      [
        "Ġ",
        -3.5631846813495915
      ],
      [
        ".",
        -3.751296402764005
      ],
      [
        "Ġand",
        -3.9335303119505696
      ],
      [
        "Ġto",
        -3.960989509479285
      ],
      [
        "Ġof",
        -3.984903521484505
      ],
      [
        "Ġa",
        -4.186615032947591
      ],
      [
        "ing",
        -4.251508405347035
      ],
      [
        "Ġin",
        -4.493102261785296
      ],
      [
        "Ġis",
        -4.598645281165082
      ],
      [
        "d",
        -4.801933695000967
      ],
      [
        "y",
        -4.854819080608774
      ],
      [
        "'",
        -4.894416566825125
      ],
      [
        "ed",
        -4.901292378020413
      ],
      [
        "Ġthat",
        -4.995176581311378
      ],
      [
        "Ġfor",
        -5.022724635637314
      ],
      [
        "0",
        -5.047693235197105
      ],
      [
        "ly",
        -5.075986715550924
      ],
      [
        "e",
        -5.207644220757301
      ],
      [
        "Ġare",
        -5.208572241277368
      ],
      [
        ":",
        -5.214555604112029
      ],
      [
        "1",
        -5.219855114905371
      ],
      [
        ".Ċ",
        -5.2476470591840005
      ],
      [
        "Ġyou",
        -5.289215244607002
      ],
      [
        "Ġwith",
        -5.304121509707125
      ],
      [
        "Ġit",
        -5.3044413852399686
      ],
      [
        ".ĊĊ",
        -5.331705514011773
      ],
      [
        "Ċ",
        -5.341719464289088
      ],
      [
        "Ġbe",
        -5.39858204698421
      ],
      [
        "Ġor",
        -5.448541461637257
      ],
      [
        "2",
        -5.453429003384192
      ],
      [
        "t",
        -5.486856367966059
      ],
      [
        "Ġcan",
        -5.5008558875593305
      ],
      [
        "Ġon",
        -5.523823791791694
      ],
      [
        "ĊĊ",
        -5.597909688388118
      ],
      [
        "Ġas",
        -5.652548088742778
      ],
      [
        "Ġyour",
        -5.658862884588158
      ],
      [
        "-",
        -5.671295666771021
      ],
      [
        "Ġ(",
        -5.8373816628866475
      ],
      [
        "Ġfrom",
        -5.869184079792587
      ],
      [
        "Ġhave",
        -5.878869089637634
      ],
      [
        "a",
        -5.911319602106584
      ],
      [
        "ĠThe",
        -5.918403655970222
      ],
      [
        "ĠI",
        -5.923360137091629
      ],
      [
        "\"",
        -5.9428778035387815
      ],
      [
        "Ġby",
        -5.969823099664126
      ],
      [
        ")",
        -6.000264335329481
      ],
      [
        "Ġan",
        -6.014063387872897
      ],
      [
        "Ġthis",
        -6.027924369137574
      ],
      [
        "3",
        -6.046482350155621
      ],
      [
        "Ġnot",
        -6.061824810152453
      ],
      [
        "?",
        -6.118518451664388
      ],
      [
        "5",
        -6.143273860225786
      ],
      [
        "n",
        -6.145087372244786
      ],
      [
        "Ġat",
        -6.150559055013888
      ],
      [
        "Ġwill",
        -6.19732844048656
      ],
      [
        "Ġtheir",
        -6.208892929206501
      ],
      [
        "4",
        -6.29474981906416
      ],
      [
        "Ġmore",
        -6.323022368292243
      ],
      [
        "Ġthey",
        -6.3455577825137635
      ],
      [
        "9",
        -6.410851675686306
      ],
      [
        "The",
        -6.41181722086554
      ],
      [
        "ies",
        -6.41639107453736
      ],
      [
        "Ġwas",
        -6.422460597453062
      ],
      [
        "Ġbut",
        -6.460471391175339
      ],
      [
        "Ġhas",
        -6.497672278603883
      ],
      [
        "Ġwhich",
        -6.500196346849409
      ],
      [
        "r",
        -6.516668130515159
      ],
      [
        "Ġwe",
        -6.5191584229293085
      ],
      [
        "Ġother",
        -6.52735221533422
      ],
      [
        "Ġalso",
        -6.558998239728739
      ],
      [
        "6",
        -6.562554499871505
      ],
      [
        "Ġone",
        -6.587592713055351
      ],
      [
        "Question",
        -6.593867749850006
      ],
      [
        "on",
        -6.599147305946408
      ],
      [
        "ĠAnswer",
        -6.616205929140641
      ],
      [
        "8",
        -6.61874905814366
      ],
      [
        "Ġall",
        -6.629506673299913
      ],
      [
        "Ġlike",
        -6.646990823922122
      ],
      [
        "Ġabout",
        -6.654692925038773
      ],
      [
        "Ġwhen",
        -6.715155796366059
      ],
      [
        "7",
        -6.717616341274496
      ],
      [
        "Ġmay",
        -6.724584785361319
      ],
      [
        "Ġif",
        -6.745688548751032
      ],
      [
        "ĠIt",
        -6.751376737704039
      ],
      [
        "Ġtime",
        -6.752962706759954
      ],
      [
        "Ġthem",
        -6.762442435902214
      ],
      [
        "Ġneed",
        -6.764022064109362
      ],
      [
        "Ġdo",
        -6.7678690310095515
      ],
      [
        "Ġuse",
        -6.785402616983282
      ],
      [
        "Ġinto",
        -6.794591590000266
      ],
      [
        "ĠA",
        -6.808148488371149
      ],
      [
        "Ġup",
        -6.809854513983563
      ],
      [
        "Ġsome",
        -6.819255936191992
      ],
      [
        "Ġhow",
        -6.840375239991161
      ],
      [
        "Ġso",
        -6.8643557011825695
      ],
      [
        "ĠThis",
        -6.884559249397048
      ],
      [
        "o",
        -6.885053774801193
      ],
      [
        "Ġthan",
        -6.900921751378359
      ],
      [
        "ĠWhat",
        -6.935153711788919
      ],
      [
        "Ġout",
        -6.937525235784285
      ],
      [
        "Ġthese",
        -6.945962496748486
      ],
      [
        "Ġthere",
        -6.949270140153262
      ],
      [
        "Ġmake",
        -6.985212874482524
      ],
      [
        "i",
        -7.015036097284932
      ],
      [
        "m",
        -7.015698725105702
      ],
      [
        "Ġwhat",
        -7.0324961538304205
      ],
      [
        "Ġused",
        -7.037218360948959
      ],
      [
        "Ġany",
        -7.038110359818619
      ],
      [
        "Ġwater",
        -7.044718345166981
      ],
      [
        "such",
        -7.055192078193306
      ],
      [
        "Ġmost",
        -7.055940071516586
      ],
      [
        "Ġget",
        -7.081932850236182
      ],
      [
        "A",
        -7.083363231624071
      ],
      [
        "Ġhelp",
        -7.098697584324311
      ],
      [
        "Ġour",
        -7.104959341386586
      ],
      [
        "able",
        -7.112474923631563
      ],
      [
        "re",
        -7.134377781722934
      ],
      [
        "Ġpeople",
        -7.1396367825266225
      ],
      [
        "Ġbeen",
        -7.144295977626722
      ],
      [
        "Ġwho",
        -7.152742341075486
      ],
      [
        "Ġwere",
        -7.153064184695641
      ],
      [
        "Ġshould",
        -7.160404786606879
      ],
      [
        "Ġwould",
        -7.174164172975686
      ],
      [
        "ĠIn",
        -7.177049639364117
      ],
      [
        "Ġthrough",
        -7.191893953412107
      ],
      [
        "Ġits",
        -7.201225070527272
      ],
      [
        "al",
        -7.219135780176007
      ],
      [
        "Ġnew",
        -7.238600860492639
      ],
      [
        "/",
        -7.243174735466905
      ],
      [
        "Ġonly",
        -7.244508997613636
      ],
      [
        "Ġjust",
        -7.249775827547595
      ],
      [
        ";",
        -7.25588617602256
      ],
      [
        "Ġwell",
        -7.268913442400052
      ],
      [
        "?Ċ",
        -7.276049458371366
      ],
      [
        "Ġwork",
        -7.281907163592232
      ],
      [
        "Ġmy",
        -7.286823739562692
      ],
      [
        "Ġmany",
        -7.292793961239337
      ],
      [
        "I",
        -7.295852452291184
      ],
      [
        "er",
        -7.29770781472711
      ],
      [
        "Ġtwo",
        -7.3442023226250495
      ],
      [
        "Ġover",
        -7.363435547787454
      ],
      [
        "Ġfirst",
        -7.367457223282887
      ],
      [
        "ity",
        -7.372667961826457
      ],
      [
        "l",
        -7.379955326358401
      ],
      [
        "Ġway",
        -7.381700848096843
      ],
      [
        "Ġwhere",
        -7.386757481355256
      ],
      [
        "Ġdifferent",
        -7.388829678103521
      ],
      [
        "Ġhigh",
        -7.401011727517922
      ],
      [
        "Ġsee",
        -7.402335167273433
      ],
      [
        "Ġprovide",
        -7.412399167839075
      ],
      [
        "!",
        -7.414009144296163
      ],
      [
        "Ġcould",
        -7.417082153944879
      ],
      [
        "ĠIf",
        -7.42392084690362
      ],
      [
        "Ġno",
        -7.4260037341786305
      ],
      [
        "Ġusing",
        -7.434018640340893
      ],
      [
        "Ġtake",
        -7.437962477148297
      ],
      [
        "Ġbetween",
        -7.442860014092254
      ],
      [
        "Ġbecause",
        -7.466499427907502
      ],
      [
        "out",
        -7.46895456803399
      ],
      [
        "Ġeven",
        -7.473055821300134
      ],
      [
        "Ġpart",
        -7.48621912076845
      ],
      [
        "Ġlook",
        -7.491296814996463
      ],
      [
        "ever",
        -7.510904996526548
      ],
      [
        "Ġvery",
        -7.518102763047347
      ],
      [
        "Ġlong",
        -7.519415082364363
      ],
      [
        "Ġchange",
        -7.52329840193932
      ],
      [
        "Ġsystem",
        -7.535701461222709
      ],
      [
        "Ġhealth",
        -7.541064158884229
      ],
      [
        "Ġknow",
        -7.548093539913161
      ],
      [
        "ĠHow",
        -7.548701281570397
      ],
      [
        "Ġeach",
        -7.553183534102963
      ],
      [
        "c",
        -7.553662362980626
      ],
      [
        "Ġgood",
        -7.568630631155713
      ],
      [
        "Ġwant",
        -7.571803250249312
      ],
      [
        "Ġimportant",
        -7.574285981690226
      ],
      [
        "Ġdog",
        -7.576695068284442
      ],
      [
        "Ġmuch",
        -7.580669154451321
      ],
      [
        "Ġdoes",
        -7.584141489853952
      ],
      [
        "(",
        -7.5843779933045745
      ],
      [
        "ĠThey",
        -7.585030338637052
      ],
      [
        "ĠC",
        -7.589858595692785
      ],
      [
        "ĠâĢĵ",
        -7.593303229156516
      ],
      [
        "Ġhad",
        -7.595438657368584
      ],
      [
        "Ġfood",
        -7.599400433770793
      ],
      [
        "Ġcause",
        -7.60809609456997
      ],
      [
        "ĠYou",
        -7.611819831809892
      ],
      [
        "In",
        -7.623742426489275
      ],
      [
        "?ĊĊ",
        -7.629433283699421
      ],
      [
        "Ġhe",
        -7.642374283084207
      ],
      [
        "Ġwhile",
        -7.660487948227809
      ],
      [
        "Ġevery",
        -7.660513957783918
      ],
      [
        "Ġhis",
        -7.663600329993033
      ],
      [
        "Ġresult",
        -7.668817477642611
      ],
      [
        "is",
        -7.689252450534352
      ],
      [
        "Ġdon",
        -7.689663154190749
      ],
      [
        "Ġafter",
        -7.691102642449832
      ],
      [
        "Ġduring",
        -7.693373174554843
      ],
      [
        "around",
        -7.703629379068481
      ],
      [
        "ness",
        -7.7041238155504
      ],
      [
        "Ġyears",
        -7.705603400955059
      ],
      [
        "ve",
        -7.7107796194646525
      ],
      [
        "Ġbefore",
        -7.712663329078484
      ],
      [
        "âĢĻ",
        -7.730685915757014
      ],
      [
        "Ġnumber",
        -7.732382589176803
      ],
      [
        "Ġallow",
        -7.734766482634756
      ],
      [
        "Ġprocess",
        -7.735815926122754
      ],
      [
        "What",
        -7.736154129628437
      ],
      [
        "Ġbeing",
        -7.739555206518103
      ],
      [
        "Ġreal",
        -7.748579090095591
      ],
      [
        "Ġfollow",
        -7.751499396743803
      ],
      [
        "Ġbest",
        -7.753573232567194
      ],
      [
        "Ġsame",
        -7.758087041383054
      ],
      [
        "Ġbody",
        -7.759270906990979
      ],
      [
        "h",
        -7.760106081650608
      ],
      [
        "Ġoften",
        -7.769700395538823
      ],
      [
        "Ġlevel",
        -7.771084110556467
      ],
      [
        "Ġworld",
        -7.774631064395347
      ],
      [
        "Ġsmall",
        -7.776995564532629
      ],
      [
        "Ġback",
        -7.779691035148264
      ],
      [
        "Ġdesign",
        -7.786748470845419
      ],
      [
        "in",
        -7.79072503951198
      ],
      [
        "Ġright",
        -7.791808879032035
      ],
      [
        ").",
        -7.79755435936546
      ],
      [
        "Ġplant",
        -7.798307915794674
      ],
      [
        "Ġfound",
        -7.799669897034287
      ],
      [
        "Ġlife",
        -7.809280083677994
      ],
      [
        "Ġlight",
        -7.811003018158104
      ],
      [
        "Ġexperience",
        -7.816363144722022
      ],
      [
        "Ġinclude",
        -7.81890199911517
      ],
      [
        "Ġkeep",
        -7.819911177347052
      ],
      [
        "Ġfind",
        -7.82776702443019
      ],
      [
        "Ġcommon",
        -7.830369747048381
      ],
      [
        "Ġmade",
        -7.844172824851429
      ],
      [
        "us",
        -7.849720192116741
      ],
      [
        "S",
        -7.85110017268659
      ],
      [
        "Ġhome",
        -7.851958508765544
      ],
      [
        "Ġcome",
        -7.862152771412741
      ],
      [
        "Ġday",
        -7.864345874738676
      ],
      [
        "Ġyear",
        -7.871297999219483
      ],
      [
        "Ġexample",
        -7.8734072882239055
      ],
      [
        "Ġboth",
        -7.879763822507864
      ],
      [
        "Ġsaid",
        -7.886579976698501
      ],
      [
        "Ġpower",
        -7.890609210477784
      ],
      [
        "ll",
        -7.892135894358441
      ],
      [
        "Ġmean",
        -7.90230471773117
      ],
      [
        "Ġdata",
        -7.908528218882929
      ],
      [
        "How",
        -7.909641361928768
      ],
      [
        "Ġstudents",
        -7.915172157515244
      ],
      [
        "Ġcreate",
        -7.917393031725834
      ],
      [
        "Ġinformation",
        -7.918960318051543
      ],
      [
        "Ġmight",
        -7.92805149608154
      ],
      [
        "Ġenergy",
        -7.930022244047929
      ],
      [
        "Ġstart",
        -7.931204755888595
      ],
      [
        "and",
        -7.931268047813871
      ],
      [
        "Ġher",
        -7.931342085938553
      ],
      [
        "Ġthink",
        -7.933837341978337
      ],
      [
        "This",
        -7.937069330206442
      ],
      [
        "Ġlarge",
        -7.941321465493342
      ],
      [
        "Ġconsider",
        -7.943358398421386
      ],
      [
        "Ġincrease",
        -7.945861762832881
      ],
      [
        "Ġdown",
        -7.946957240939333
      ],
      [
        "ĠFor",
        -7.949284739754449
      ],
      [
        "Ġspecies",
        -7.949411690465463
      ],
      [
        "Ġgo",
        -7.9523833447922465
      ],
      [
        "Ġplace",
        -7.958743343793543
      ],
      [
        "g",
        -7.961188281067155
      ],
      [
        "%",
        -7.961676425277868
      ],
      [
        "Ġplants",
        -7.963619537164051
      ],
      [
        "Ġmak",
        -7.9636747653237805
      ],
      [
        "Ġform",
        -7.967648663785665
      ],
      [
        "ability",
        -7.973677934688631
      ],
      [
        "If",
        -7.974676322341143
      ],
      [
        "Ġnow",
        -7.978147918189422
      ],
      [
        ":Ċ",
        -7.978477418824783
      ],
      [
        "),",
        -7.982649142601101
      ],
      [
        "Ġshow",
        -7.986241603087751
      ],
      [
        "Ġown",
        -7.98705640972667
      ],
      [
        "D",
        -7.987511533279333
      ],
      [
        "ĠWe",
        -7.993207086208867
      ],
      [
        "ĠThese",
        -7.998602426262414
      ],
      [
        "Ġair",
        -8.000817835530256
      ],
      [
        "Ġsupport",
        -8.001391941804602
      ],
      [
        "Ġresearch",
        -8.002537154974865
      ],
      [
        "Ġvalue",
        -8.014691526029967
      ],
      [
        "Ġus",
        -8.01710139261641
      ],
      [
        "Ġcase",
        -8.019856107808083
      ],
      [
        "ĠTo",
        -8.02028192126663
      ],
      [
        "Ġstudy",
        -8.020963823451083
      ],
      [
        "Ġunder",
        -8.022989929615235
      ],
      [
        "Ġcolor",
        -8.024568273412608
      ],
      [
        "Ġme",
        -8.026572518439417
      ],
      [
        "Ġgreat",
        -8.030692853853939
      ],
      [
        "Ġfew",
        -8.031514984363506
      ],
      [
        "Ġpoint",
        -8.0316247347491
      ],
      [
        "Ġbetter",
        -8.03287833930889
      ],
      [
        "ĠB",
        -8.034779121248466
      ],
      [
        "Ġstill",
        -8.03667752667369
      ],
      [
        "Ġoff",
        -8.046724986207714
      ],
      [
        "Ġhuman",
        -8.047136699043108
      ],
      [
        "ation",
        -8.049999363738886
      ],
      [
        "Ġtemperature",
        -8.059103888169567
      ],
      [
        "Ġset",
        -8.059401200872166
      ],
      [
        "Ġtype",
        -8.06027403269213
      ],
      [
        "Ġincluding",
        -8.061870391568881
      ],
      [
        "Ġless",
        -8.072988029431212
      ],
      [
        "Ġprevent",
        -8.074006112668393
      ],
      [
        "Ġnatural",
        -8.078348010875242
      ],
      [
        "Ġcontrol",
        -8.090935508808764
      ],
      [
        "ĠS",
        -8.093577546262324
      ],
      [
        "Ġdevelop",
        -8.097261192188679
      ],
      [
        "Ġgive",
        -8.098983384397215
      ],
      [
        "Ġlead",
        -8.099854339924722
      ],
      [
        "Ġensure",
        -8.10657429356414
      ],
      [
        "Ġoffer",
        -8.107094680841442
      ],
      [
        "Ġwh",
        -8.108495666902082
      ],
      [
        "Ġtest",
        -8.108525740439283
      ],
      [
        "Ġrisk",
        -8.108874197485367
      ],
      [
        "Ġun",
        -8.109637883279937
      ],
      [
        "Ġmain",
        -8.110349960755197
      ],
      [
        "hose",
        -8.113001273612815
      ],
      [
        "Ġend",
        -8.113746494335503
      ],
      [
        "It",
        -8.114341900769205
      ],
      [
        "um",
        -8.115448089632824
      ],
      [
        "Ġchildren",
        -8.120046178581038
      ],
      [
        "Ġproject",
        -8.120763451792195
      ],
      [
        "Ġtoo",
        -8.121620309026241
      ],
      [
        "Ġpotential",
        -8.121683532907142
      ],
      [
        "Ġsure",
        -8.13743955148264
      ],
      [
        "f",
        -8.149995191884464
      ],
      [
        "quality",
        -8.15245776396765
      ],
      [
        "ĠBut",
        -8.153870406962612
      ],
      [
        "C",
        -8.154008366933382
      ],
      [
        "Ġmust",
        -8.1544574525456
      ],
      [
        ":ĊĊ",
        -8.160890606031586
      ],
      [
        "known",
        -8.16343289592074
      ],
      [
        "Ġmodel",
        -8.170044430866602
      ],
      [
        "Ġthree",
        -8.170863707794496
      ],
      [
        "Ġheat",
        -8.177287587968303
      ],
      [
        "Ġtry",
        -8.181114761295579
      ],
      [
        "Ġthings",
        -8.181500386255157
      ],
      [
        "Ġcost",
        -8.186482460815041
      ],
      [
        "Ġcalled",
        -8.189969095783677
      ],
      [
        "Ġlearn",
        -8.190639769232568
      ],
      [
        "...",
        -8.193566035677705
      ],
      [
        "ment",
        -8.19898160414483
      ],
      [
        "Ġblood",
        -8.201626912350974
      ],
      [
        "Ġdisease",
        -8.201733620463333
      ],
      [
        "Ġcurrent",
        -8.202590147876183
      ],
      [
        "ĠAnd",
        -8.203581079036224
      ],
      [
        "Ġcare",
        -8.204793435144406
      ],
      [
        "Ġgrow",
        -8.206031642801909
      ],
      [
        "Ġsomething",
        -8.211350263956826
      ],
      [
        "Ġenvironment",
        -8.217536677425127
      ],
      [
        "the",
        -8.218595270109201
      ],
      [
        "Ġtreatment",
        -8.219315208300058
      ],
      [
        "x",
        -8.219929421726157
      ],
      [
        "ic",
        -8.22149966605387
      ],
      [
        "Ġproduce",
        -8.224820337525642
      ],
      [
        "Ġindividual",
        -8.22955046070172
      ],
      [
        "Ġperson",
        -8.231245357207085
      ],
      [
        "or",
        -8.234054142939947
      ],
      [
        "Ġwithin",
        -8.234453587265822
      ],
      [
        "th",
        -8.234827325294308
      ],
      [
        "Ġshe",
        -8.236929710993557
      ],
      [
        "Ġlot",
        -8.239458103013963
      ],
      [
        "Ġarea",
        -8.241353127523418
      ],
      [
        "Ġdue",
        -8.248662463288705
      ],
      [
        "Ġpressure",
        -8.257905284795983
      ],
      [
        "age",
        -8.259436382302084
      ],
      [
        "Ġpossible",
        -8.25949420626636
      ],
      [
        "Ġeffective",
        -8.263341568836328
      ],
      [
        "Ġsoil",
        -8.26416008155917
      ],
      [
        "Ġlow",
        -8.264313974950056
      ],
      [
        "Ġanother",
        -8.265175890322094
      ],
      [
        "Ġfactor",
        -8.268105585443912
      ],
      [
        "Ġper",
        -8.269075415909517
      ],
      [
        "Ġspace",
        -8.271002169188119
      ],
      [
        "Ġcells",
        -8.271744151535415
      ],
      [
        "Ġcar",
        -8.272113331092882
      ],
      [
        "Ġsecond",
        -8.274104117664123
      ],
      [
        "Ġorder",
        -8.276168402425768
      ],
      [
        "Ġschool",
        -8.28228628458215
      ],
      [
        "Ġrequire",
        -8.284538244097359
      ],
      [
        "Ġname",
        -8.285294331692269
      ],
      [
        "Ġreason",
        -8.289591513768087
      ],
      [
        "Ġlast",
        -8.292043234649615
      ],
      [
        "Ġfish",
        -8.294347030248257
      ],
      [
        "Ġadd",
        -8.294527340770674
      ],
      [
        "Ġbecome",
        -8.294579986287099
      ],
      [
        "ĠWhen",
        -8.296224321817377
      ],
      [
        "Ġalway",
        -8.298131434359824
      ],
      [
        "Ġrange",
        -8.302284237847783
      ],
      [
        "ary",
        -8.305155509850191
      ],
      [
        "p",
        -8.305619525706295
      ],
      [
        "Ġclose",
        -8.308783675759772
      ],
      [
        "Ġspecific",
        -8.310296262716605
      ],
      [
        "Ġleave",
        -8.313180677431586
      ],
      [
        "Ġimpact",
        -8.315436381104615
      ],
      [
        "Ġfunction",
        -8.315771598988903
      ],
      [
        "Ġlearning",
        -8.323368341735707
      ],
      [
        "Ġstate",
        -8.32622401025242
      ],
      [
        "Ġamount",
        -8.326789302807526
      ],
      [
        "Ġplay",
        -8.331416227248166
      ],
      [
        "Ġhere",
        -8.336707100460774
      ],
      [
        "Ġsurface",
        -8.337599873906628
      ],
      [
        "ce",
        -8.33916727392979
      ],
      [
        "Ġavailable",
        -8.339733616233381
      ],
      [
        "Ġgoing",
        -8.340029254589215
      ],
      [
        "Ġsize",
        -8.340835188753275
      ],
      [
        "Ġlittle",
        -8.342043609905838
      ],
      [
        "ĠSo",
        -8.342820458242752
      ],
      [
        "Ġvarious",
        -8.34548413949276
      ],
      [
        "Ġissue",
        -8.348012775469815
      ],
      [
        "Ġcomplete",
        -8.351413070898438
      ],
      [
        "le",
        -8.355571840601776
      ],
      [
        "Ġenough",
        -8.355606961296278
      ],
      [
        "Ġreduce",
        -8.355877868615329
      ],
      [
        "Ġline",
        -8.358574055609472
      ],
      [
        "Ġproblem",
        -8.365997795010887
      ],
      [
        "ĠThere",
        -8.369560417130923
      ],
      [
        "an",
        -8.37987228192467
      ],
      [
        "it",
        -8.383737982645275
      ],
      [
        "Ġfeel",
        -8.385581728577094
      ],
      [
        "Ġdid",
        -8.387698348699052
      ],
      [
        "Ġusually",
        -8.388164458991241
      ],
      [
        "Ġaffect",
        -8.396018227010874
      ],
      [
        "Ġhard",
        -8.396164047463797
      ],
      [
        "Ġsource",
        -8.40497078389416
      ],
      [
        "Ġareas",
        -8.40618895875517
      ],
      [
        "Ġimprove",
        -8.410496768376003
      ],
      [
        "When",
        -8.414086816740845
      ],
      [
        "Ġpatient",
        -8.416708988825865
      ],
      [
        ",\"",
        -8.421542396802057
      ],
      [
        "Ġdevice",
        -8.421929718966256
      ],
      [
        "Ġoption",
        -8.422581961901656
      ],
      [
        "Ġgarden",
        -8.423767628398032
      ],
      [
        "ĠD",
        -8.42385435850016
      ],
      [
        "Ġweight",
        -8.427395067486739
      ],
      [
        "Ġchild",
        -8.428620408184136
      ],
      [
        "less",
        -8.42964755497187
      ],
      [
        "Ġtypes",
        -8.43251833599846
      ],
      [
        "Ġseveral",
        -8.434290409617391
      ],
      [
        "Ġside",
        -8.439110379433023
      ],
      [
        "Ġdamage",
        -8.439414325372347
      ],
      [
        "Ġcat",
        -8.439675840465853
      ],
      [
        "ally",
        -8.44147484249949
      ],
      [
        "Ġlive",
        -8.447373287000321
      ],
      [
        "ion",
        -8.44950015284736
      ],
      [
        "Ġsignificant",
        -8.450192059237644
      ],
      [
        "Ġput",
        -8.455957191647716
      ],
      [
        "ĠWhich",
        -8.456915104083862
      ],
      [
        "Ġessential",
        -8.458618907527299
      ],
      [
        "Ġuser",
        -8.460440950858015
      ],
      [
        "Ġcourse",
        -8.462803426800544
      ],
      [
        "Ġsafe",
        -8.46560345267315
      ],
      [
        "Ġmanage",
        -8.471600904543036
      ],
      [
        "Ġstructure",
        -8.472826287802409
      ],
      [
        "Ġteam",
        -8.473034984181412
      ],
      [
        "Ġopen",
        -8.473077720872428
      ],
      [
        "Ġconditions",
        -8.475935794367462
      ],
      [
        "Ġpresent",
        -8.481791918256
      ],
      [
        "Ġevent",
        -8.482220691662667
      ],
      [
        "Ġunderstand",
        -8.48279294678299
      ],
      [
        "Ġdiet",
        -8.48408897342448
      ],
      [
        "Ġparticular",
        -8.486289238375688
      ],
      [
        "Ġdevelopment",
        -8.48838620005022
      ],
      [
        "Ġinvolve",
        -8.492729021586417
      ],
      [
        "ĠSome",
        -8.493043123513822
      ],
      [
        "Ġproper",
        -8.494149993609863
      ],
      [
        "Ġtext",
        -8.496661692473822
      ],
      [
        "having",
        -8.49787717270161
      ],
      [
        "Ġlocal",
        -8.497951747707667
      ],
      [
        "Ġterm",
        -8.500313571112704
      ],
      [
        "Ġkey",
        -8.500949006179702
      ],
      [
        "self",
        -8.501832161260825
      ],
      [
        "Ġdifference",
        -8.504072381723834
      ],
      [
        "ĠT",
        -8.506108801277197
      ],
      [
        "Ġtop",
        -8.507893732595353
      ],
      [
        "Ġseem",
        -8.508535708201334
      ],
      [
        "Ġuntil",
        -8.510081632198261
      ],
      [
        "Ġfocus",
        -8.51127514533199
      ],
      [
        "based",
        -8.512031229877653
      ],
      [
        "Ġ&",
        -8.517318504879999
      ],
      [
        "Ġnext",
        -8.517908722427816
      ],
      [
        "Ġtechnology",
        -8.518558397209102
      ],
      [
        "Ġcell",
        -8.518746259386358
      ],
      [
        "Ġvariet",
        -8.524030465095134
      ],
      [
        "Ġanimals",
        -8.525536719221801
      ],
      [
        "Ġfree",
        -8.5258642600817
      ],
      [
        "Ġaway",
        -8.527955427365585
      ],
      [
        "Ġhand",
        -8.528810228088489
      ],
      [
        "Ġfamily",
        -8.531875478883855
      ],
      [
        "*",
        -8.5320019850441
      ],
      [
        "Ġfull",
        -8.53207975864084
      ],
      [
        "Ġfuture",
        -8.533842418371137
      ],
      [
        "Ġfield",
        -8.542932923419889
      ],
      [
        "Ġsystems",
        -8.544128338954206
      ],
      [
        "Ġloss",
        -8.545220767052264
      ],
      [
        "Ġmaintain",
        -8.545435350969594
      ],
      [
        "Ġmaterials",
        -8.545595159791397
      ],
      [
        "Ġsince",
        -8.548697238921685
      ],
      [
        "Ġpaper",
        -8.55059606889299
      ],
      [
        "Ġmaterial",
        -8.550846457518187
      ],
      [
        "ĠAs",
        -8.552009115989534
      ],
      [
        "b",
        -8.554916396908151
      ],
      [
        "Ġeye",
        -8.554918975051699
      ],
      [
        "T",
        -8.557704872093824
      ],
      [
        "Ġnecessar",
        -8.55800810844362
      ],
      [
        "ĠThat",
        -8.559670459560147
      ],
      [
        "Ġsimple",
        -8.560548107173934
      ],
      [
        "ĠHe",
        -8.561309796648128
      ],
      [
        "Ġeasy",
        -8.56455296365024
      ],
      [
        "Ġnon",
        -8.564684052048628
      ],
      [
        "Ġtogether",
        -8.564746845026242
      ],
      [
        "Ġtechnique",
        -8.566938723519433
      ],
      [
        "Ġwide",
        -8.568975164584636
      ],
      [
        "Ġoil",
        -8.569236774531106
      ],
      [
        "u",
        -8.570013842685917
      ],
      [
        "Ġsay",
        -8.571702802523552
      ],
      [
        "Ġalong",
        -8.57352514837932
      ],
      [
        "Ġdays",
        -8.573570292771832
      ],
      [
        "]",
        -8.573623933249706
      ],
      [
        "Ġprotect",
        -8.574230757503983
      ],
      [
        "Ġearly",
        -8.574388639985578
      ],
      [
        "Ġeat",
        -8.574523246443233
      ],
      [
        "Ġcheck",
        -8.578644796787703
      ],
      [
        "Ġkind",
        -8.578991689755641
      ],
      [
        "Ġgroup",
        -8.582807027179296
      ],
      [
        "Ġworking",
        -8.58290984731805
      ],
      [
        "Ġproducts",
        -8.582961112260875
      ],
      [
        "Ġgame",
        -8.583740963369875
      ],
      [
        "Ġmethod",
        -8.584319903610798
      ],
      [
        "Ġtypical",
        -8.59008335374819
      ],
      [
        "Ġrole",
        -8.592533925305592
      ],
      [
        "Ġproblems",
        -8.592861732133237
      ],
      [
        "Ġlet",
        -8.592991344849015
      ],
      [
        "Ġ$",
        -8.593296944058325
      ],
      [
        "Ġthing",
        -8.593579325212877
      ],
      [
        "Ġvideo",
        -8.596542334362478
      ],
      [
        "Ġtreat",
        -8.596963927111016
      ],
      [
        "Ġgrowth",
        -8.59761461687299
      ],
      [
        "Ġmeasure",
        -8.598653164598183
      ],
      [
        "Ġshort",
        -8.599168616398334
      ],
      [
        "ither",
        -8.600785932261694
      ],
      [
        "Ġlove",
        -8.60091118191831
      ],
      [
        "Ġsafety",
        -8.601465110485107
      ],
      [
        "Ġplan",
        -8.60295345552223
      ],
      [
        "Ġrun",
        -8.605498374937486
      ],
      [
        "Ġmachine",
        -8.607495131197126
      ],
      [
        "Ġgiven",
        -8.6075577554721
      ],
      [
        "Ġdoesn",
        -8.608015146247784
      ],
      [
        "You",
        -8.609336411333079
      ],
      [
        "ĠBy",
        -8.609782307048988
      ],
      [
        "Ġdepend",
        -8.611702823729534
      ],
      [
        "Ġlower",
        -8.611749266888125
      ],
      [
        "Ġcontain",
        -8.61302842086916
      ],
      [
        "Ġphysical",
        -8.615197435974759
      ],
      [
        "Ġavoid",
        -8.617805224682787
      ],
      [
        "Ġapplication",
        -8.618852271872292
      ],
      [
        "Ġaccess",
        -8.625004054399616
      ],
      [
        "Ġtraining",
        -8.625785293383961
      ],
      [
        "Ġnever",
        -8.625880438428798
      ],
      [
        "Ġsimilar",
        -8.626443375870046
      ],
      [
        "!Ċ",
        -8.627103092112154
      ],
      [
        "There",
        -8.629587063759093
      ],
      [
        "ĠUniversity",
        -8.63153868147503
      ],
      [
        "though",
        -8.633074649029595
      ],
      [
        "Ġmove",
        -8.635555918371615
      ],
      [
        "Ġsocial",
        -8.636178828593678
      ],
      [
        "least",
        -8.639173850519235
      ],
      [
        "Ġdone",
        -8.639843000602944
      ],
      [
        "We",
        -8.640112343889719
      ],
      [
        "Ġprogram",
        -8.642427969187409
      ],
      [
        "Ġ=",
        -8.643809994125057
      ],
      [
        "Ġhigher",
        -8.643974609557494
      ],
      [
        "Ġelectric",
        -8.646783336500743
      ],
      [
        "Ġanswer",
        -8.647362138660977
      ],
      [
        "ĠWith",
        -8.649479771510173
      ],
      [
        "Ġcomponent",
        -8.655919737333967
      ],
      [
        "Ġbuilding",
        -8.655921601990778
      ],
      [
        "Ġage",
        -8.659713105127658
      ],
      [
        "B",
        -8.660905975591158
      ],
      [
        "Ġpropert",
        -8.661676842760325
      ],
      [
        "thos",
        -8.663602472679862
      ],
      [
        "Ġforce",
        -8.673621537356063
      ],
      [
        "Ġfar",
        -8.675505351342261
      ],
      [
        "Ġclean",
        -8.6759822090194
      ],
      [
        "Ġhealthy",
        -8.675989541241009
      ],
      [
        "ĠM",
        -8.676075980058744
      ],
      [
        "Ġclear",
        -8.676286525512609
      ],
      [
        "Ġespecial",
        -8.676721019848
      ],
      [
        "Ġgas",
        -8.679926020016936
      ],
      [
        "Ġremove",
        -8.687223875734393
      ],
      [
        "Ġaccording",
        -8.687434801183743
      ],
      [
        "Ġinfection",
        -8.687607641290896
      ],
      [
        "Ġunique",
        -8.689058229432643
      ],
      [
        "Ġabove",
        -8.689735406394576
      ],
      [
        "Ġred",
        -8.691592898240117
      ],
      [
        "Ġcertain",
        -8.69433038155302
      ],
      [
        "est",
        -8.69656044624013
      ],
      [
        "Ġcomputer",
        -8.697424407900257
      ],
      [
        "against",
        -8.699674797740805
      ],
      [
        "Ġturn",
        -8.701885573885884
      ],
      [
        "Ġtimes",
        -8.705910069372813
      ],
      [
        "ous",
        -8.706362280107221
      ],
      [
        "k",
        -8.70654214887599
      ],
      [
        "ĠP",
        -8.707611157030627
      ],
      [
        "Ġhim",
        -8.709415120042571
      ],
      [
        "Ġmarket",
        -8.709979404954026
      ],
      [
        "Ġrate",
        -8.711018185084667
      ],
      [
        "Ġskin",
        -8.711562522145265
      ],
      [
        "Ġregion",
        -8.712769884308766
      ],
      [
        "Ġstep",
        -8.715082145244697
      ],
      [
        "Ġmajor",
        -8.71555007509472
      ],
      [
        "across",
        -8.715873133301859
      ],
      [
        "Ġproduction",
        -8.716882173441135
      ],
      [
        "Ġstore",
        -8.718018222436562
      ],
      [
        "Ġdetail",
        -8.719969870326327
      ],
      [
        "To",
        -8.720661069980554
      ],
      [
        "Ġbelieve",
        -8.72339698027696
      ],
      [
        "Ġcontinue",
        -8.72345547182038
      ],
      [
        "Ġoccur",
        -8.72662478279642
      ],
      [
        "Ġdifficult",
        -8.727983095272883
      ],
      [
        "ĠYour",
        -8.728896194356302
      ],
      [
        ")ĊĊ",
        -8.72968857718654
      ],
      [
        "Ġwhite",
        -8.731347931280377
      ],
      [
        "Ġmakes",
        -8.73226199565173
      ],
      [
        "Ġitem",
        -8.733585978444133
      ],
      [
        "Ġexist",
        -8.734186324984226
      ],
      [
        "Ġstrong",
        -8.734763258651281
      ],
      [
        "Ġbusiness",
        -8.735813670149511
      ],
      [
        "Ġold",
        -8.737158099978913
      ],
      [
        "Ġchoice",
        -8.739303596643154
      ],
      [
        "Ġparent",
        -8.739613164840492
      ],
      [
        "Ġnear",
        -8.74312860574318
      ],
      [
        "Ġbit",
        -8.74447156952304
      ],
      [
        "Ġelement",
        -8.74495720837886
      ],
      [
        "Ġpopulation",
        -8.74505122400925
      ],
      [
        "Ġweek",
        -8.745826719454282
      ],
      [
        "Ġeffects",
        -8.746734705587157
      ],
      [
        "Ġenjoy",
        -8.747984464289416
      ],
      [
        "Ġground",
        -8.748706537529946
      ],
      [
        "ĠNew",
        -8.749674648797184
      ],
      [
        "Ġbook",
        -8.75011454440177
      ],
      [
        "Ġscience",
        -8.751057222701755
      ],
      [
        "Ġdry",
        -8.751350272757067
      ],
      [
        "Ġclimate",
        -8.751976474404202
      ],
      [
        "Ġbasic",
        -8.754557322350266
      ],
      [
        "Ġcover",
        -8.754982374578073
      ],
      [
        "Ġchemical",
        -8.756256535146981
      ],
      [
        "Ġflow",
        -8.756609277110092
      ],
      [
        "Ġobject",
        -8.756804429285136
      ],
      [
        "Ġspeed",
        -8.75694601122378
      ],
      [
        "Ġtask",
        -8.75718784942452
      ],
      [
        "Ġremain",
        -8.759087787936188
      ],
      [
        "Ġregular",
        -8.759497372095348
      ],
      [
        "ĠE",
        -8.760643820097968
      ],
      [
        "Ġlayer",
        -8.762921946490561
      ],
      [
        "Ġpiece",
        -8.766011643504452
      ],
      [
        "Ġpopular",
        -8.767553107997683
      ],
      [
        "to",
        -8.76856325356367
      ],
      [
        "Ġhouse",
        -8.769950744678916
      ],
      [
        "Ġanimal",
        -8.770109257756772
      ],
      [
        "Ġstay",
        -8.770712807032565
      ],
      [
        "ĠF",
        -8.77107729315584
      ],
      [
        "Ġhead",
        -8.775996788360713
      ],
      [
        "ĠU",
        -8.776048475097863
      ],
      [
        "Ġfact",
        -8.777319619021519
      ],
      [
        "Ġaddition",
        -8.778126322105559
      ],
      [
        "Ġcondition",
        -8.782130917039154
      ],
      [
        "Ġbehavior",
        -8.78322845140876
      ],
      [
        "Ġsingle",
        -8.78348640380895
      ],
      [
        "once",
        -8.788574221062795
      ],
      [
        "Ġtree",
        -8.78860180812143
      ],
      [
        "Ġtoday",
        -8.789163856861869
      ],
      [
        "Ġmatter",
        -8.789724621057193
      ],
      [
        "Ġfurther",
        -8.796087742492274
      ],
      [
        "Ġmedical",
        -8.79656942297796
      ],
      [
        "Ġskills",
        -8.799545447404242
      ],
      [
        "Ġsignal",
        -8.800078847289665
      ],
      [
        "Ġperformance",
        -8.800320896132146
      ],
      [
        "Ġbring",
        -8.80159920683225
      ],
      [
        "âĢĶ",
        -8.801637679668788
      ],
      [
        "Ġcontent",
        -8.802265839770847
      ],
      [
        "Ġleft",
        -8.802487289274186
      ],
      [
        "ĠNo",
        -8.803263095050017
      ],
      [
        "For",
        -8.806282686499696
      ],
      [
        "Ġeffect",
        -8.809126102750572
      ],
      [
        "Ġcommunity",
        -8.809986878391786
      ],
      [
        "Ġshare",
        -8.811480773383272
      ],
      [
        "Ġpain",
        -8.813878498784302
      ],
      [
        "Ġsound",
        -8.819759212522733
      ],
      [
        "Ġeducation",
        -8.821771567365365
      ],
      [
        "Ġrecent",
        -8.824925186282119
      ],
      [
        "thing",
        -8.827866362332651
      ],
      [
        "Ġarticle",
        -8.831115059461421
      ],
      [
        "w",
        -8.83711916578141
      ],
      [
        "Ġhelps",
        -8.837712349081475
      ],
      [
        "Ġnormal",
        -8.838242241258545
      ],
      [
        "Ġread",
        -8.839822448024464
      ],
      [
        "Ġbenefits",
        -8.842560532533453
      ],
      [
        "Ġheart",
        -8.844179088192956
      ],
      [
        "Ġface",
        -8.844415748904165
      ],
      [
        "Ġpublic",
        -8.844869531915673
      ],
      [
        "F",
        -8.845954424626164
      ],
      [
        "Ġsymptom",
        -8.846489674715858
      ],
      [
        "Ġsays",
        -8.847324123683396
      ],
      [
        ".\"Ċ",
        -8.84796675333687
      ],
      [
        "Ġagain",
        -8.848483742798457
      ],
      [
        "Ġhistory",
        -8.84857541288371
      ],
      [
        "Ġassociate",
        -8.852113652382695
      ],
      [
        "Ġbattery",
        -8.854601725552772
      ],
      [
        "ĠOn",
        -8.854795234266264
      ],
      [
        "Ġcomplex",
        -8.85602301529784
      ],
      [
        "Ġperiod",
        -8.857165809748695
      ],
      [
        "Ġ[",
        -8.857716830475766
      ],
      [
        "Ġsolution",
        -8.859409063593823
      ],
      [
        "Ġfour",
        -8.861306423187136
      ],
      [
        "Ġposition",
        -8.862459035806229
      ],
      [
        "Ġconcern",
        -8.862879252933553
      ],
      [
        "Ġcold",
        -8.866525889475067
      ],
      [
        "Ġquestion",
        -8.866611618958409
      ],
      [
        "Ġproduct",
        -8.867037763641317
      ],
      [
        "Ġtell",
        -8.868716134119843
      ],
      [
        "Ġwarm",
        -8.869348842761264
      ],
      [
        "Ġsun",
        -8.869493600224523
      ],
      [
        "Ġpost",
        -8.869913968584974
      ],
      [
        "Ġenvironmental",
        -8.871028823669509
      ],
      [
        "Ġliv",
        -8.873307695110523
      ],
      [
        "Ġindustry",
        -8.876627713526979
      ],
      [
        "Ġgoal",
        -8.876968004360073
      ],
      [
        "Ġbacteria",
        -8.880972930768223
      ],
      [
        "Ġstandard",
        -8.881699106635802
      ],
      [
        "Ġwhole",
        -8.882910530705121
      ],
      [
        "ance",
        -8.883366596881228
      ],
      [
        "Ġtalk",
        -8.884120085955624
      ],
      [
        "Ġmention",
        -8.884622845319036
      ],
      [
        "Ġmillion",
        -8.884656466282554
      ],
      [
        "refore",
        -8.887174044348361
      ],
      [
        "Ġprotein",
        -8.889960276269115
      ],
      [
        "Ġalread",
        -8.891099185739051
      ],
      [
        "Ġrequired",
        -8.893382329242023
      ],
      [
        "Ġgreen",
        -8.894643771573904
      ],
      [
        "Ġsetting",
        -8.894986246030061
      ],
      [
        "Ġlist",
        -8.89517217615455
      ],
      [
        "Ġamong",
        -8.898044666342212
      ],
      [
        "Ġperfect",
        -8.898224667409458
      ],
      [
        "Ġunderstanding",
        -8.898611329526684
      ],
      [
        "Ġdeep",
        -8.899456272040624
      ],
      [
        "Ġreach",
        -8.900759103324699
      ],
      [
        "Ġblock",
        -8.901108232752826
      ],
      [
        "Ġb",
        -8.901207095093667
      ],
      [
        "Ġprofessional",
        -8.901307356042473
      ],
      [
        "Ġcook",
        -8.902178417251685
      ],
      [
        "Ġresearcher",
        -8.903355509974867
      ],
      [
        "Ġeasily",
        -8.90360103684522
      ],
      [
        "ĠH",
        -8.90481965650048
      ],
      [
        "P",
        -8.905045983420365
      ],
      [
        "Ġblack",
        -8.905144886705504
      ],
      [
        "Ġcontact",
        -8.908240659867854
      ],
      [
        "Ġinside",
        -8.908447525103266
      ],
      [
        "Ġcall",
        -8.910235738532041
      ],
      [
        "Ġpet",
        -8.911271250786774
      ],
      [
        "Ġtoward",
        -8.91278133567565
      ],
      [
        "stead",
        -8.913015307140268
      ],
      [
        "Ġpurpose",
        -8.913207259647532
      ],
      [
        "Ġcorrect",
        -8.915972530080344
      ],
      [
        "ĠOne",
        -8.916936082756582
      ],
      [
        "Ġidea",
        -8.917378557654445
      ],
      [
        "be",
        -8.921433975420445
      ],
      [
        "Ġnetwork",
        -8.921510691611866
      ],
      [
        "Ġexplain",
        -8.92284252879705
      ],
      [
        "below",
        -8.923282606240695
      ],
      [
        "Ġprovid",
        -8.92397415849685
      ],
      [
        "Ġpositive",
        -8.924530520253985
      ],
      [
        "âĢĵ",
        -8.924859839167409
      ],
      [
        "Ġapproach",
        -8.925105271142773
      ],
      [
        "ĠR",
        -8.925276811720092
      ],
      [
        ")Ċ",
        -8.926294255365555
      ],
      [
        "Ġcompany",
        -8.926458607832057
      ],
      [
        "Ġopportunit",
        -8.927890164137118
      ],
      [
        "_",
        -8.92913881235177
      ],
      [
        "Ġonline",
        -8.929195059945645
      ],
      [
        "Ġfall",
        -8.931408086087075
      ],
      [
        "Ġreport",
        -8.931818088765855
      ],
      [
        "Ġknowledge",
        -8.932762153674988
      ],
      [
        "Ġmoney",
        -8.93420452670649
      ],
      [
        "Ġbrain",
        -8.934576028432927
      ],
      [
        "ember",
        -8.934892001053562
      ],
      [
        "Ġprobabl",
        -8.935354295069018
      ],
      [
        "Ġactuall",
        -8.936748171584284
      ],
      [
        "Ġspecial",
        -8.936965645063687
      ],
      [
        "Ġpersonal",
        -8.937650179415243
      ],
      [
        "Ġfeatures",
        -8.93890407542152
      ],
      [
        "Ġmonths",
        -8.941226184388034
      ],
      [
        "Ġsomeone",
        -8.941380293261847
      ],
      [
        "Ġways",
        -8.942422186363963
      ],
      [
        "Ġsituation",
        -8.94442193036273
      ],
      [
        "Ġbig",
        -8.944635990448795
      ],
      [
        "Ġtarget",
        -8.944751388060999
      ],
      [
        "Ġlimit",
        -8.94506671078618
      ],
      [
        "Ġmuscle",
        -8.945574631692235
      ],
      [
        "Ġgrowing",
        -8.946343444047447
      ],
      [
        "Ġdoing",
        -8.946508424229146
      ],
      [
        "Ġprint",
        -8.946939054251215
      ],
      [
        "Ġdecision",
        -8.94986498237068
      ],
      [
        "Ġguide",
        -8.95197363683453
      ],
      [
        "Ġbuild",
        -8.952794488473778
      ],
      [
        "Ġyoung",
        -8.954115122474722
      ],
      [
        "Ġcompare",
        -8.954122990281881
      ],
      [
        "Ġthough",
        -8.954662453168844
      ],
      [
        "Ġappear",
        -8.955542268928864
      ],
      [
        "Ġentire",
        -8.957375010336678
      ],
      [
        "Ġtaking",
        -8.960745943475258
      ],
      [
        "-based",
        -8.962747497622775
      ],
      [
        "Ġsleep",
        -8.962907072663103
      ],
      [
        "Ġdescribe",
        -8.966941271990557
      ],
      [
        "Ġcrucial",
        -8.968246543508391
      ],
      [
        "Ġlocation",
        -8.968269574527739
      ],
      [
        "ĠâĢĶ",
        -8.968952874088483
      ],
      [
        "Ġsection",
        -8.970111219147292
      ],
      [
        "Ġrelease",
        -8.971585298709
      ],
      [
        "Ġfruit",
        -8.972158077518
      ],
      [
        "Ġhalf",
        -8.972323751858163
      ],
      [
        "Ġetc",
        -8.9756100360648
      ],
      [
        "Ġyourself",
        -8.977741336732937
      ],
      [
        "Ġbuy",
        -8.983116059750927
      ],
      [
        "ather",
        -8.983876640375009
      ],
      [
        "Ġselect",
        -8.984476060426353
      ],
      [
        "Ġpatients",
        -8.984702807062042
      ],
      [
        "Ġpractice",
        -8.98720706670723
      ],
      [
        "Ġlink",
        -8.988566865515747
      ],
      [
        "Ġtraditional",
        -8.988789903697153
      ],
      [
        "Ġminutes",
        -8.98882691180237
      ],
      [
        "Ġroom",
        -8.989524384508464
      ],
      [
        "ĠAmerican",
        -8.989556465960412
      ],
      [
        "Ġsugar",
        -8.990374069133576
      ],
      [
        "Ġdegree",
        -8.99041240113564
      ],
      [
        "Ġtool",
        -8.990892290083217
      ],
      [
        "Ġprice",
        -8.991704136090572
      ],
      [
        "Ġbone",
        -8.99415175621018
      ],
      [
        "Ġwall",
        -8.997404685721156
      ],
      [
        "quite",
        -8.998148453404808
      ],
      [
        "Ġcancer",
        -8.998593178139622
      ],
      [
        "Ġservice",
        -9.00084977377351
      ],
      [
        "Ġslow",
        -9.001545094074785
      ],
      [
        "Ġlanguage",
        -9.002029730566157
      ],
      [
        "Ġsense",
        -9.002846094735963
      ],
      [
        "Ġlate",
        -9.007634195176136
      ],
      [
        "Ġw",
        -9.008293644053502
      ],
      [
        "Ġdetermine",
        -9.00873951058018
      ],
      [
        "Ġmethods",
        -9.009707338052326
      ],
      [
        "Ġstress",
        -9.010195277315294
      ],
      [
        "Ġmind",
        -9.010381111348664
      ],
      [
        "Ġreceive",
        -9.0105976309742
      ],
      [
        "Ġactive",
        -9.010874374183167
      ],
      [
        "Ġauthor",
        -9.013868262348945
      ],
      [
        "Ġaverage",
        -9.014128567122594
      ],
      [
        "Ġshape",
        -9.01442472453525
      ],
      [
        "Ġthought",
        -9.018596722146206
      ],
      [
        "Ġprimar",
        -9.019834487084866
      ],
      [
        "where",
        -9.020167907254066
      ],
      [
        "Ġeyes",
        -9.020199936320871
      ],
      [
        "Ġgeneral",
        -9.020761370332483
      ],
      [
        "Ġreading",
        -9.022498245155216
      ],
      [
        "Ġchoose",
        -9.023063894244952
      ],
      [
        "Ġvehicle",
        -9.023142598898108
      ],
      [
        "E",
        -9.023194383931578
      ],
      [
        "Ġam",
        -9.023718589045997
      ],
      [
        "coming",
        -9.024387890743029
      ],
      [
        "Ġquestions",
        -9.024752534789467
      ],
      [
        "From",
        -9.028265275574917
      ],
      [
        "Ġlarger",
        -9.0284693420376
      ],
      [
        "Ġhour",
        -9.029212708197033
      ],
      [
        "Ġstudent",
        -9.030108438599957
      ],
      [
        "Ġview",
        -9.032524292337596
      ],
      [
        "Ġapply",
        -9.035229224554222
      ],
      [
        "Ġactivity",
        -9.036115565420182
      ],
      [
        "Ġhold",
        -9.03711298644804
      ],
      [
        "Ġwinter",
        -9.03759963878828
      ],
      [
        "[",
        -9.037860115849329
      ],
      [
        "ĠL",
        -9.039568184447605
      ],
      [
        "Ġwomen",
        -9.040079744200847
      ],
      [
        "Ġaddress",
        -9.040205350155418
      ],
      [
        "ĠAI",
        -9.04030792646875
      ],
      [
        "ves",
        -9.040736024645671
      ],
      [
        "Ġcool",
        -9.040803083826203
      ],
      [
        "Ġcreating",
        -9.040806562730516
      ],
      [
        "Ġexercise",
        -9.041352783617176
      ],
      [
        "Ġactual",
        -9.041547359973563
      ],
      [
        "Ġsimply",
        -9.044319746172372
      ],
      [
        "Ġoverall",
        -9.045896336729168
      ],
      [
        "Ġplastic",
        -9.047227615000288
      ],
      [
        "Ġwon",
        -9.050463596977927
      ],
      [
        "Ġwalk",
        -9.050731837765952
      ],
      [
        "Ġpercent",
        -9.051133692795666
      ],
      [
        "Ġresources",
        -9.052371784243809
      ],
      [
        "Ġfeet",
        -9.054253272791572
      ],
      [
        "Ġoutside",
        -9.0546452747281
      ],
      [
        "Ġenhance",
        -9.05483356310139
      ],
      [
        "Ġtotal",
        -9.055395809487829
      ],
      [
        "Ġtravel",
        -9.057521817702373
      ],
      [
        "Ġsolar",
        -9.057876159808773
      ],
      [
        "Ġnature",
        -9.059138025921571
      ],
      [
        "Ġquick",
        -9.05972386279478
      ],
      [
        "Ġwild",
        -9.061892130075654
      ],
      [
        "Ġeffort",
        -9.062809751275918
      ],
      [
        "Ġbird",
        -9.063355681350236
      ],
      [
        "Ġrule",
        -9.063757506723764
      ],
      [
        "Ġresponse",
        -9.064549871419448
      ],
      [
        "Ġseason",
        -9.064611590177028
      ],
      [
        "Ġfuel",
        -9.064992815814112
      ],
      [
        "Ġgot",
        -9.065121576728007
      ],
      [
        "Ġtaken",
        -9.066058460858049
      ],
      [
        "Ġexpert",
        -9.06627063673394
      ],
      [
        "Ġsuggest",
        -9.06862585379664
      ],
      [
        "Ġservices",
        -9.069044776114035
      ],
      [
        "Ġfast",
        -9.069454386757766
      ],
      [
        "ive",
        -9.069545420427088
      ],
      [
        "Ġland",
        -9.069568364941569
      ],
      [
        "Ġidentify",
        -9.0723071872832
      ],
      [
        "Ġtools",
        -9.072554361297776
      ],
      [
        "one",
        -9.072721647312031
      ],
      [
        "Ġpast",
        -9.075130554102572
      ],
      [
        "Ġself",
        -9.076040964802557
      ],
      [
        "Ġaction",
        -9.076969536631731
      ],
      [
        "Ġbegin",
        -9.078112574579002
      ],
      [
        "Ġrecommend",
        -9.079640846471309
      ],
      [
        "Ġteeth",
        -9.08069685996962
      ],
      [
        "Ġjob",
        -9.08245177929823
      ],
      [
        "Ġtissue",
        -9.082596134165367
      ],
      [
        "Ġsometime",
        -9.082703152128722
      ],
      [
        "Ġwaste",
        -9.082760859127289
      ],
      [
        "So",
        -9.085730438611458
      ],
      [
        "Ġadditional",
        -9.086118535514638
      ],
      [
        "ĠAn",
        -9.087102841575128
      ],
      [
        "Ġclass",
        -9.087873678024035
      ],
      [
        "Ġattention",
        -9.091824136842297
      ],
      [
        "Ġwood",
        -9.092702864213848
      ],
      [
        "Ġbalance",
        -9.093229562128744
      ],
      [
        "Ġstage",
        -9.093929029799742
      ],
      [
        "Ġexperiment",
        -9.09491814659192
      ],
      [
        "Ġrelated",
        -9.09510939815166
      ],
      [
        "Ġsummer",
        -9.095231256489814
      ],
      [
        "land",
        -9.096013766118284
      ],
      [
        "Ġask",
        -9.096336450924744
      ],
      [
        "Ġvegetable",
        -9.09637548208923
      ],
      [
        "As",
        -9.0964175648628
      ],
      [
        "Ġsubject",
        -9.096850030684942
      ],
      [
        "Ġcustomer",
        -9.101856842617275
      ],
      [
        "Ġbirds",
        -9.104454032933187
      ],
      [
        "Why",
        -9.10511949034495
      ],
      [
        "ĠAl",
        -9.10554258048603
      ],
      [
        "Ġbreak",
        -9.10609758374932
      ],
      [
        "âĢ¦",
        -9.106653691640611
      ],
      [
        "Ġtrees",
        -9.106832623552284
      ],
      [
        "ĠAll",
        -9.106875870528654
      ],
      [
        "Ġhappen",
        -9.107712981515208
      ],
      [
        "Ġmetal",
        -9.110766638079982
      ],
      [
        "Ġanything",
        -9.11088275666161
      ],
      [
        "Ġmental",
        -9.111194575670172
      ],
      [
        "Ġrelationship",
        -9.113440846267714
      ],
      [
        "Ġcut",
        -9.114270443643194
      ],
      [
        "Ġsoftware",
        -9.11453355602148
      ],
      [
        "Ġmovement",
        -9.11459287933871
      ],
      [
        "Ġlength",
        -9.119233630529346
      ],
      [
        "Ġrepresent",
        -9.119287816995165
      ],
      [
        "Ġadult",
        -9.121798602301867
      ],
      [
        "Ġrelative",
        -9.122699814357862
      ],
      [
        "ĠMan",
        -9.124269232997346
      ],
      [
        "Ġalmost",
        -9.124356058271296
      ],
      [
        "Ġefficient",
        -9.125071580852277
      ],
      [
        "at",
        -9.125560753592886
      ],
      [
        "Ġthread",
        -9.125654691411595
      ],
      [
        "Ġimage",
        -9.127907016650564
      ],
      [
        "Ġact",
        -9.128820765250977
      ],
      [
        "Ġdaily",
        -9.12890857027283
      ],
      [
        "Ġactiviti",
        -9.128908865483115
      ],
      [
        "One",
        -9.12895235311584
      ],
      [
        "Ġgain",
        -9.129648041784137
      ],
      [
        "ĠHere",
        -9.12981214363248
      ],
      [
        "Ġprevious",
        -9.131564586174717
      ],
      [
        ").Ċ",
        -9.132073695994055
      ],
      [
        "Ġexact",
        -9.132873016405473
      ],
      [
        "Ġcarbon",
        -9.133072464641714
      ],
      [
        "Ġweather",
        -9.133405860177357
      ],
      [
        "ĠN",
        -9.134132785422238
      ],
      [
        "Ġdark",
        -9.134443039953736
      ],
      [
        "Ġacid",
        -9.137473441356654
      ],
      [
        "Ġseeds",
        -9.137518497030042
      ],
      [
        "ĠX",
        -9.13766455235286
      ],
      [
        "Ġhumans",
        -9.13790566404468
      ],
      [
        "yet",
        -9.13840960313857
      ],
      [
        "Ġpay",
        -9.138847997297948
      ],
      [
        "Ġsuccessful",
        -9.140016341720845
      ],
      [
        "Ġstarted",
        -9.14061734115235
      ],
      [
        "Ġfit",
        -9.141259152499693
      ],
      [
        "Ġinjur",
        -9.142339445533086
      ],
      [
        "Ġeasie",
        -9.14236506022418
      ],
      [
        "ĠWhil",
        -9.143545529988607
      ],
      [
        "ĠV",
        -9.144817070162844
      ],
      [
        "cannot",
        -9.145577869931644
      ],
      [
        "Ġstudies",
        -9.145756751155092
      ],
      [
        ".\"",
        -9.145909770709116
      ],
      [
        "Ġstop",
        -9.146833964519942
      ],
      [
        "hether",
        -9.149557168441705
      ],
      [
        "Ġstor",
        -9.151322774079876
      ],
      [
        "Ġfemale",
        -9.154432645693312
      ],
      [
        "Ġcharge",
        -9.158923510666334
      ],
      [
        "Ġvisit",
        -9.1591388790185
      ],
      [
        "Ġincreasing",
        -9.16352851698632
      ],
      [
        "Ġextreme",
        -9.165155447708443
      ],
      [
        "v",
        -9.166057482310284
      ],
      [
        "Ġgenerally",
        -9.167441009244822
      ],
      [
        "Ġsite",
        -9.16752695392179
      ],
      [
        "Ġfile",
        -9.167825089586744
      ],
      [
        "ĠG",
        -9.1679245494206
      ],
      [
        "Ġfront",
        -9.168213533897545
      ],
      [
        "Ġengine",
        -9.169087213536306
      ],
      [
        "L",
        -9.170339558971408
      ],
      [
        "Ġnight",
        -9.171603864499769
      ],
      [
        "Ġengineer",
        -9.173085322905266
      ],
      [
        "Ġcountry",
        -9.176678811783358
      ],
      [
        "ĠNational",
        -9.176988748895887
      ],
      [
        "Ġlater",
        -9.177123346729845
      ],
      [
        "Ġregard",
        -9.178305321051912
      ],
      [
        "Ġdigital",
        -9.178699755009005
      ],
      [
        "Ġbase",
        -9.18149931754688
      ],
      [
        "Ġisn",
        -9.182335752627049
      ],
      [
        "Ġaccount",
        -9.18424242645902
      ],
      [
        "\"ĊĊ",
        -9.185209065554858
      ],
      [
        "Ġoriginal",
        -9.187666552035102
      ],
      [
        "Ġnutrient",
        -9.188163346916395
      ],
      [
        "Ġreview",
        -9.188610070820936
      ],
      [
        "Ġdeliver",
        -9.188837035277473
      ],
      [
        "Ġhot",
        -9.189194429241514
      ],
      [
        "Ġmix",
        -9.190888462206154
      ],
      [
        "ĠK",
        -9.191478743119582
      ],
      [
        "Ġwait",
        -9.1933422098827
      ],
      [
        "ĠO",
        -9.194081613286883
      ],
      [
        "Ġflavor",
        -9.194496694847771
      ],
      [
        "Ġthemsel",
        -9.195342324181052
      ],
      [
        "Ġplayer",
        -9.196085568795624
      ],
      [
        "Ġexplore",
        -9.196203361659082
      ],
      [
        "Ġmultiple",
        -9.19727105041767
      ],
      [
        "Ġchance",
        -9.197515588897591
      ],
      [
        "Ġconnection",
        -9.19864761665794
      ],
      [
        "Ġbad",
        -9.199012619498031
      ],
      [
        "Ġdirectly",
        -9.199393439946222
      ],
      [
        "Ġserve",
        -9.19952288673802
      ],
      [
        "Ġhear",
        -9.2002927414599
      ],
      [
        "Ġwords",
        -9.200301788050584
      ],
      [
        "ĠâĢľ",
        -9.200830977173911
      ],
      [
        "ĠUse",
        -9.201060678930396
      ],
      [
        "Ġde",
        -9.201184278362351
      ],
      [
        "ĠCan",
        -9.203333759809492
      ],
      [
        "Ġfinding",
        -9.20335694686663
      ],
      [
        "Ġinterest",
        -9.204193931266932
      ],
      [
        "Ġcommunication",
        -9.204684621305557
      ],
      [
        "Ġlonge",
        -9.205021668592831
      ],
      [
        "Ġice",
        -9.205079283199431
      ],
      [
        "Ġglobal",
        -9.205212234180753
      ],
      [
        "M",
        -9.205954689654742
      ],
      [
        "Ġtrue",
        -9.206143421607376
      ],
      [
        "Ġnegative",
        -9.207356447936844
      ],
      [
        "Ġunit",
        -9.211579935333322
      ],
      [
        "Ġgenetic",
        -9.213465702475071
      ],
      [
        "Ġfinal",
        -9.21381650994947
      ],
      [
        "ĠDo",
        -9.214130268489434
      ],
      [
        "Ġappropriate",
        -9.215396099645318
      ],
      [
        "Ġscientists",
        -9.215802675080216
      ],
      [
        "Ġfive",
        -9.21657229927445
      ],
      [
        "Ġextra",
        -9.219715548199542
      ],
      [
        "Ġsea",
        -9.221672224032314
      ],
      [
        "Ġdirection",
        -9.223479642859331
      ],
      [
        "Ġshown",
        -9.226354017807733
      ],
      [
        "Ġmeat",
        -9.22672067272875
      ],
      [
        "Â°",
        -9.228478467386834
      ],
      [
        "Ġreturn",
        -9.228644568918114
      ],
      [
        "man",
        -9.231003531046053
      ],
      [
        "Ġfat",
        -9.231792438624062
      ],
      [
        "ry",
        -9.23249364380348
      ],
      [
        "Ġequipment",
        -9.234990097837072
      ],
      [
        "Ġspread",
        -9.235465675142564
      ],
      [
        "Ġmodern",
        -9.236617769675425
      ],
      [
        "Ġtips",
        -9.23669120134734
      ],
      [
        "Ġorganization",
        -9.236739230392914
      ],
      [
        "Ġsave",
        -9.237976261204224
      ],
      [
        "Ġtopic",
        -9.23846994727982
      ],
      [
        "Ġalternative",
        -9.242075606186004
      ],
      [
        "But",
        -9.242779996551558
      ],
      [
        "Ġbenefit",
        -9.24300666100999
      ],
      [
        "Ġsensor",
        -9.2451336522305
      ],
      [
        "Ġflowers",
        -9.246804285160202
      ],
      [
        "Ġsupply",
        -9.24811879508158
      ],
      [
        "Ġsteps",
        -9.250632500921895
      ],
      [
        "Ġkill",
        -9.251205769704782
      ],
      [
        "Ġachieve",
        -9.25160555517606
      ],
      [
        "Ġwebsite",
        -9.252376197993804
      ],
      [
        "ĠHealth",
        -9.252998659407645
      ],
      [
        "Ġreaction",
        -9.253421904759168
      ],
      [
        "Ġglass",
        -9.253639845857396
      ],
      [
        "ĠBe",
        -9.253654031505077
      ],
      [
        "care",
        -9.254310033548643
      ],
      [
        "Ġbehind",
        -9.254439000486958
      ],
      [
        "Ġword",
        -9.254927139470883
      ],
      [
        "ĠAt",
        -9.255457832028366
      ],
      [
        "Ġconnect",
        -9.25607796859979
      ],
      [
        "Ġrunn",
        -9.256323177557936
      ],
      [
        "Ġindicate",
        -9.25694156591163
      ],
      [
        "Ġcode",
        -9.25982519439842
      ],
      [
        "ĠNorth",
        -9.260080765691214
      ],
      [
        "by",
        -9.26072602039207
      ],
      [
        "Ġeggs",
        -9.262190746708017
      ],
      [
        "Ġdirect",
        -9.264645485719612
      ],
      [
        "Ġspring",
        -9.268768344077106
      ],
      [
        "Ġmass",
        -9.269740716555454
      ],
      [
        "Ġaspect",
        -9.27012649917008
      ],
      [
        "Ġforest",
        -9.270332849272702
      ],
      [
        "Ġrequirement",
        -9.270746044483962
      ],
      [
        "Ġelse",
        -9.271265888895217
      ],
      [
        "Ġfine",
        -9.271897006269365
      ],
      [
        "ĠUnite",
        -9.272018133809285
      ],
      [
        "Ġpre",
        -9.272259033591414
      ],
      [
        "Ġlocate",
        -9.272813065669489
      ],
      [
        "Ġfun",
        -9.27350153601686
      ],
      [
        "Ġart",
        -9.274038019557734
      ],
      [
        "Ġadvantage",
        -9.27498459944548
      ],
      [
        "Ġtend",
        -9.275419739928005
      ],
      [
        "Ġaware",
        -9.275531958947376
      ],
      [
        "Ġmonth",
        -9.275787088583108
      ],
      [
        "Ġeveryone",
        -9.275796769827943
      ],
      [
        "Ġrepair",
        -9.27773699413427
      ],
      [
        "Ġdiscuss",
        -9.278865102674072
      ],
      [
        "Ġtable",
        -9.279270303922807
      ],
      [
        "Ġcontribute",
        -9.279487710328931
      ],
      [
        "ĠAfter",
        -9.280375928188455
      ],
      [
        "Ġrest",
        -9.2822825522946
      ],
      [
        "Ġnotice",
        -9.28322171609322
      ],
      [
        "Another",
        -9.28328726185624
      ],
      [
        "ĠScience",
        -9.283924583228384
      ],
      [
        "Ġfriend",
        -9.285243175587588
      ],
      [
        "Ġpass",
        -9.286050803561857
      ],
      [
        "Ġroot",
        -9.28820815872286
      ],
      [
        "Ġingredient",
        -9.29074475998323
      ],
      [
        "Ġmeal",
        -9.29200714419628
      ],
      [
        "Ġwatch",
        -9.292510340516454
      ],
      [
        "Ġmeet",
        -9.293387955364985
      ],
      [
        "-to",
        -9.293399106710144
      ],
      [
        "Ġdrive",
        -9.293868512921478
      ],
      [
        "cy",
        -9.29417480468386
      ],
      [
        "Ġuseful",
        -9.29570159019217
      ],
      [
        "ĠShe",
        -9.295972005994084
      ],
      [
        "Ġprotection",
        -9.296526985831438
      ],
      [
        "Ġmale",
        -9.299192350295645
      ],
      [
        "Ġanalysis",
        -9.29929653496534
      ],
      [
        "Ġgenerate",
        -9.299867390019315
      ],
      [
        "Ġelectrical",
        -9.30023085932317
      ],
      [
        "ese",
        -9.301125307191956
      ],
      [
        "Ġserious",
        -9.3017685383943
      ],
      [
        "ĠStates",
        -9.3023217611519
      ],
      [
        "Ġcenter",
        -9.303454111350415
      ],
      [
        "Ġre",
        -9.30509479962869
      ],
      [
        "Ġconstruction",
        -9.306121651402352
      ],
      [
        "Ġbag",
        -9.306293873726718
      ],
      [
        "of",
        -9.306645861686471
      ],
      [
        "Ġconstant",
        -9.307101955352168
      ],
      [
        "Ġago",
        -9.307667307634429
      ],
      [
        "Ġgroups",
        -9.308266961141817
      ],
      [
        "Ġimmediate",
        -9.311018863900845
      ],
      [
        "Ġadded",
        -9.311255147238477
      ],
      [
        "Ġfresh",
        -9.312417322423592
      ],
      [
        "Ġcount",
        -9.312450737582893
      ],
      [
        "Ġcycle",
        -9.313907838481008
      ],
      [
        "Ġsuitable",
        -9.314382539899418
      ],
      [
        "Ġframe",
        -9.314433830629612
      ],
      [
        "Ġhabitat",
        -9.31444557292113
      ],
      [
        "Ġpage",
        -9.31514243351699
      ],
      [
        "Ġconcept",
        -9.316214893685371
      ],
      [
        "ĠUS",
        -9.31760456155856
      ],
      [
        "Ġal",
        -9.317796224797728
      ],
      [
        "Ġready",
        -9.317942629048236
      ],
      [
        "Whil",
        -9.319540925732332
      ],
      [
        "Ġfrequent",
        -9.320511701283198
      ],
      [
        "Ġdoctor",
        -9.32060354542762
      ],
      [
        "Ġcircuit",
        -9.321070265802351
      ],
      [
        "Ġinfluence",
        -9.321324114334056
      ],
      [
        "ers",
        -9.323145426139964
      ],
      [
        "are",
        -9.324147219037034
      ],
      [
        "Ġscale",
        -9.324998665258116
      ],
      [
        "Ġtrack",
        -9.325951024086915
      ],
      [
        "Ġseek",
        -9.32748438993363
      ],
      [
        "Ġever",
        -9.3277080883921
      ],
      [
        "Ġsample",
        -9.329183558997258
      ],
      [
        "R",
        -9.331166679123235
      ],
      [
        "Ġflight",
        -9.331422073265962
      ],
      [
        "Ġstory",
        -9.331730503663923
      ],
      [
        "Ġnote",
        -9.334860086428584
      ],
      [
        "Ġhearing",
        -9.335363069099207
      ],
      [
        "Ġtaste",
        -9.336577508246643
      ],
      [
        "Ġfeeling",
        -9.337245237158845
      ],
      [
        "ĠDr",
        -9.337524182407464
      ],
      [
        "Ġgovernment",
        -9.337802560320483
      ],
      [
        "ĠEarth",
        -9.339601733643056
      ],
      [
        "hours",
        -9.339900468073422
      ],
      [
        "Ġdiscover",
        -9.340268235465889
      ],
      [
        "Ġfarm",
        -9.340328261077335
      ],
      [
        "Ġfiber",
        -9.34164021058221
      ],
      [
        "Ġweeks",
        -9.344233713600882
      ],
      [
        "z",
        -9.346698869761124
      ],
      [
        "Ġremember",
        -9.347964782025574
      ],
      [
        "Ġboard",
        -9.348536848994756
      ],
      [
        "Ġmemory",
        -9.349252498925356
      ],
      [
        "Ġdate",
        -9.349496341614188
      ],
      [
        "Ġtesting",
        -9.349844147332284
      ],
      [
        "Ġbrand",
        -9.349890672799413
      ],
      [
        "These",
        -9.350729270026092
      ],
      [
        "Ġattack",
        -9.353906178172842
      ],
      [
        "Ġreplace",
        -9.355330759549435
      ],
      [
        "Ġinstruction",
        -9.357359743733344
      ],
      [
        "Ġenter",
        -9.357969351511722
      ],
      [
        "ĠYes",
        -9.358605858066216
      ],
      [
        "Ġinput",
        -9.359363485909697
      ],
      [
        "issues",
        -9.360362236087392
      ],
      [
        "Ġspend",
        -9.360774019853638
      ],
      [
        "Ġcritical",
        -9.361391146184756
      ],
      [
        "Ġdrink",
        -9.362505001525694
      ],
      [
        "Ġprett",
        -9.3627920523902
      ],
      [
        "Ġprocedure",
        -9.362799558144246
      ],
      [
        "Ġserie",
        -9.36747897760717
      ],
      [
        "Ġgreater",
        -9.368824817678076
      ],
      [
        "Ġtouch",
        -9.372815861102689
      ],
      [
        "Ġdistance",
        -9.374524549260157
      ],
      [
        "Ġmembers",
        -9.375129720040178
      ],
      [
        "Ġlack",
        -9.37686096188029
      ],
      [
        "Ġorganic",
        -9.37703414234054
      ],
      [
        "Ġdefine",
        -9.378409657222567
      ],
      [
        ">",
        -9.378425025512175
      ],
      [
        "Using",
        -9.378601867685909
      ],
      [
        "Ġdidn",
        -9.379017609330596
      ],
      [
        "ĠSouth",
        -9.379049810953203
      ],
      [
        "Ġcaus",
        -9.379507021114382
      ],
      [
        "Ġwear",
        -9.37982404167085
      ],
      [
        "Each",
        -9.38058161174462
      ],
      [
        "life",
        -9.38132186296444
      ],
      [
        "Can",
        -9.382035439240752
      ],
      [
        "ĠCalifornia",
        -9.382630223981687
      ],
      [
        "Ġmoment",
        -9.382643762908408
      ],
      [
        "ory",
        -9.385422620226992
      ],
      [
        "wise",
        -9.385930598895056
      ],
      [
        "Some",
        -9.386152419999288
      ],
      [
        "Ġperform",
        -9.386614104551096
      ],
      [
        "+",
        -9.388193284437296
      ],
      [
        "Ġdocument",
        -9.38825283174942
      ],
      [
        "Ġcareful",
        -9.38830621497265
      ],
      [
        "moving",
        -9.389017370838433
      ],
      [
        "ĠSchool",
        -9.389163331729684
      ],
      [
        "Ġequal",
        -9.389214037083816
      ],
      [
        "Ġcleaning",
        -9.390027572741127
      ],
      [
        "Ġseparate",
        -9.390785432188943
      ],
      [
        "Ġman",
        -9.392403659766556
      ],
      [
        "Ġideal",
        -9.39242432131786
      ],
      [
        "Ġcountr",
        -9.392775760797305
      ],
      [
        "Ġco",
        -9.39330220574396
      ],
      [
        "Ġgames",
        -9.39420925108752
      ],
      [
        "gan",
        -9.395002275550087
      ],
      [
        "Ġstrength",
        -9.398631842916515
      ],
      [
        "Ġworks",
        -9.399197532351472
      ],
      [
        "Ġteachers",
        -9.399350049054211
      ],
      [
        "Ġwind",
        -9.399673446362042
      ],
      [
        "Ġconduct",
        -9.400602119385267
      ],
      [
        "ĠMore",
        -9.401322590581389
      ],
      [
        "Ġflower",
        -9.40158750327869
      ],
      [
        "Ġfeature",
        -9.401670100687053
      ],
      [
        "Ġsix",
        -9.401739793815045
      ],
      [
        "Ġplann",
        -9.403095091518324
      ],
      [
        "Ġcombination",
        -9.403641634099342
      ],
      [
        "companie",
        -9.404564520152782
      ],
      [
        "By",
        -9.407025266906798
      ],
      [
        "N",
        -9.40811124243974
      ],
      [
        "Ġpromote",
        -9.410211032379763
      ],
      [
        "Ġjourney",
        -9.410813728121472
      ],
      [
        "tenanc",
        -9.411401359077075
      ],
      [
        "Ġcentur",
        -9.411759787675283
      ],
      [
        "ok",
        -9.411930772979922
      ],
      [
        "Ġchallenges",
        -9.412699550075583
      ],
      [
        "Ġpattern",
        -9.414042431847731
      ],
      [
        "Ġwire",
        -9.414618442681148
      ],
      [
        "Ġhorse",
        -9.4148565885469
      ],
      [
        "Ġpatterns",
        -9.415770513198062
      ],
      [
        "ĠMay",
        -9.416058269211
      ],
      [
        "Ġblue",
        -9.417568251399407
      ],
      [
        "Ġfeed",
        -9.418122937093427
      ],
      [
        "Ġfoods",
        -9.419546553111989
      ],
      [
        "Ġaim",
        -9.4195577294196
      ],
      [
        "Ġdeath",
        -9.420050683539497
      ],
      [
        "Ġimportanc",
        -9.42011521799504
      ],
      [
        "Ġculture",
        -9.421405762224648
      ],
      [
        "Ġfire",
        -9.421679518374816
      ],
      [
        "Ġsecurity",
        -9.42199005845671
      ],
      [
        "Ġclaim",
        -9.42214527854368
      ],
      [
        "Ġstyle",
        -9.4229955554429
      ],
      [
        "Ġhair",
        -9.423431622170453
      ],
      [
        "Ġbaby",
        -9.423985751050758
      ],
      [
        "Ġnative",
        -9.425398616825015
      ],
      [
        "Ġedge",
        -9.4255730685752
      ],
      [
        "Ġhope",
        -9.428479346878142
      ],
      [
        "Ġload",
        -9.430066616526002
      ],
      [
        "Ġgoe",
        -9.430412185001677
      ],
      [
        "Ġevidence",
        -9.430450035299712
      ],
      [
        "Ġrare",
        -9.435092334615362
      ],
      [
        "Ġfilter",
        -9.435508863475905
      ],
      [
        "Ġefficiency",
        -9.436314252904085
      ],
      [
        "ĠMost",
        -9.43740690777777
      ],
      [
        "if",
        -9.439929840729802
      ],
      [
        "Ġrecord",
        -9.440852506609396
      ],
      [
        "Ġreduc",
        -9.440967902799931
      ],
      [
        "Ġresponsibl",
        -9.443246493983416
      ],
      [
        "Ġmusic",
        -9.444192734956632
      ],
      [
        "ĠDNA",
        -9.445549300076696
      ],
      [
        "Ġcamera",
        -9.447120910779413
      ],
      [
        "Ġinstance",
        -9.447200374004774
      ],
      [
        "Ġcarry",
        -9.447213662335251
      ],
      [
        "Ġdemand",
        -9.447306762226322
      ],
      [
        "Ġdeal",
        -9.447803189077248
      ],
      [
        "Ġteaching",
        -9.452133034074958
      ],
      [
        "Ġfoot",
        -9.455676304690886
      ],
      [
        "Ġteacher",
        -9.455798226112762
      ],
      [
        "O",
        -9.455976665270503
      ],
      [
        "Ġinitial",
        -9.456075024647124
      ],
      [
        "Ġvision",
        -9.456355256146844
      ],
      [
        "Ġdetect",
        -9.457225315875815
      ],
      [
        "Ġpanel",
        -9.458710749441634
      ],
      [
        "Ġbuilt",
        -9.459498844834728
      ],
      [
        "Ġprocesses",
        -9.45992235358356
      ],
      [
        "Ġgeneration",
        -9.46007520207058
      ],
      [
        "Ġcouple",
        -9.460157222543156
      ],
      [
        "Ġcapacit",
        -9.46018496247794
      ],
      [
        "Ġcrop",
        -9.462586927172952
      ],
      [
        "Ġbox",
        -9.462772828645988
      ],
      [
        "Ġsigns",
        -9.4627896349228
      ],
      [
        "Ġfracture",
        -9.464759448727015
      ],
      [
        "Ġliquid",
        -9.465097368173796
      ],
      [
        "Ġsevere",
        -9.466738729411825
      ],
      [
        "ĠAmerica",
        -9.466918909307337
      ],
      [
        "Ġresistance",
        -9.467852655655095
      ],
      [
        "kids",
        -9.468970798518557
      ],
      [
        "Ġleg",
        -9.469100021869084
      ],
      [
        "Ġensur",
        -9.469887693427458
      ],
      [
        "Ġdriver",
        -9.471698187496717
      ],
      [
        "Ġworth",
        -9.473330147052916
      ],
      [
        "Ġmouth",
        -9.473634056555074
      ],
      [
        "Ġheavy",
        -9.47393741371095
      ],
      [
        "Ġfly",
        -9.475223300194868
      ],
      [
        "ful",
        -9.478317491592788
      ],
      [
        "Ġfluid",
        -9.479137613622855
      ],
      [
        "Ġversion",
        -9.480044529280278
      ],
      [
        "giving",
        -9.480864259108111
      ],
      [
        "ĠAdditional",
        -9.481326280848446
      ],
      [
        "Ġfix",
        -9.48248548231669
      ],
      [
        ".S",
        -9.48268081612158
      ],
      [
        "Ġadapt",
        -9.483964385160402
      ],
      [
        "created",
        -9.484689994822498
      ],
      [
        "Ġcity",
        -9.485722303526437
      ],
      [
        "Ġparticle",
        -9.485748022552176
      ],
      [
        "eating",
        -9.485830313267956
      ],
      [
        "><",
        -9.487677150686256
      ],
      [
        "ĠOf",
        -9.48974394902552
      ],
      [
        "Ġscientific",
        -9.490146384414963
      ],
      [
        "ĠModel",
        -9.498414028246223
      ],
      [
        "ĠResearch",
        -9.498496489142475
      ],
      [
        "Ġaccurate",
        -9.498619312015856
      ],
      [
        "With",
        -9.49862479065737
      ],
      [
        "Ġinteraction",
        -9.498734952470684
      ],
      [
        "ĠOur",
        -9.499400667937438
      ],
      [
        "Ġvary",
        -9.49971345387618
      ],
      [
        "Ġinches",
        -9.500103603735823
      ],
      [
        "ĠThen",
        -9.50031767939586
      ],
      [
        "Ġobtain",
        -9.50045625402092
      ],
      [
        "ĠWorld",
        -9.500651225770472
      ],
      [
        "Ġwriting",
        -9.500676498877262
      ],
      [
        "Ġdriv",
        -9.501564653832324
      ],
      [
        "Ġwave",
        -9.501775184741009
      ],
      [
        "Ġsearch",
        -9.502743738071176
      ],
      [
        "Ġstand",
        -9.503161243521392
      ],
      [
        "Ġsmooth",
        -9.503736159848142
      ],
      [
        "Ġnothing",
        -9.504901686851134
      ],
      [
        "Ġmeasurement",
        -9.505941959497251
      ],
      [
        "Ġsuccess",
        -9.506577259828363
      ],
      [
        "Ġbeautiful",
        -9.507515272562465
      ],
      [
        "Ġmedication",
        -9.510152822427216
      ],
      [
        "Ġprograms",
        -9.512613578083403
      ],
      [
        "Ġincluded",
        -9.512793959893887
      ],
      [
        "Step",
        -9.513326073498224
      ],
      [
        "Ġvisual",
        -9.513800372770746
      ],
      [
        "Ġraise",
        -9.51439992179019
      ],
      [
        "Ġwrite",
        -9.51480733849846
      ],
      [
        "mm",
        -9.515168612568324
      ],
      [
        "Ġlives",
        -9.517833530360283
      ],
      [
        "Ġfloor",
        -9.518403988559877
      ],
      [
        "Ġstem",
        -9.519215603000331
      ],
      [
        "They",
        -9.521884471108171
      ],
      [
        "time",
        -9.52258924137581
      ],
      [
        "H",
        -9.523527671401304
      ],
      [
        "Ġrapid",
        -9.523559771728523
      ],
      [
        "Ġexposure",
        -9.523781371796488
      ],
      [
        "Ġseed",
        -9.524114703871604
      ],
      [
        "Ġslight",
        -9.524952855824411
      ],
      [
        "Ġmulti",
        -9.52564327551176
      ],
      [
        "Ġenable",
        -9.525852786068011
      ],
      [
        "Ġanyone",
        -9.5270598863984
      ],
      [
        "Ġpublished",
        -9.52711496194847
      ],
      [
        "Ġdraw",
        -9.527386761320194
      ],
      [
        "ĠMy",
        -9.527603245336984
      ],
      [
        "Ġcolour",
        -9.527998148989797
      ],
      [
        "Ġear",
        -9.52836644936824
      ],
      [
        "Ġgene",
        -9.528604397472808
      ],
      [
        "Ġadvanced",
        -9.529487717063017
      ],
      [
        "Ġcharacteristic",
        -9.530265344265658
      ],
      [
        "ĠNot",
        -9.53217874318624
      ],
      [
        "Ġbottom",
        -9.532195200505042
      ],
      [
        "Ġthird",
        -9.532893763879024
      ],
      [
        "-term",
        -9.533512947038142
      ],
      [
        "Ġthinking",
        -9.533558687669768
      ],
      [
        "ĠAre",
        -9.533960202416218
      ],
      [
        "Ġinstall",
        -9.53415825336117
      ],
      [
        "On",
        -9.534426454254715
      ],
      [
        "Ġphotograph",
        -9.53516681099438
      ],
      [
        "Ġfriends",
        -9.53596835192478
      ],
      [
        "Ġsoft",
        -9.536363201238622
      ],
      [
        "Ġapplied",
        -9.536378117390049
      ],
      [
        "Ġrich",
        -9.53707314382768
      ],
      [
        "Ġbright",
        -9.539061256034806
      ],
      [
        "Ġfill",
        -9.539650416133004
      ],
      [
        "ĠState",
        -9.54102908147404
      ],
      [
        "Ġobserve",
        -9.541576213637498
      ],
      [
        "Ġoutput",
        -9.543151371073536
      ],
      [
        "ĠâĢ¦",
        -9.543686606975667
      ],
      [
        "Ġphone",
        -9.54524285692489
      ],
      [
        "Ġhandle",
        -9.545862291293776
      ],
      [
        "Ġmoistur",
        -9.546778488261952
      ],
      [
        "$",
        -9.547792293751815
      ],
      [
        "G",
        -9.549180316946725
      ],
      [
        "Ġyellow",
        -9.550547634458418
      ],
      [
        "Ġlesson",
        -9.551919620950772
      ],
      [
        "Ġpowerful",
        -9.553432280561516
      ],
      [
        "Ġextend",
        -9.557181211603744
      ],
      [
        "Ġpick",
        -9.557715861261665
      ],
      [
        "Ġdiabet",
        -9.55939184509943
      ],
      [
        "line",
        -9.560835672354624
      ],
      [
        "Ġbreed",
        -9.561049408501711
      ],
      [
        "Ġexpand",
        -9.561628118220376
      ],
      [
        "Ġdrain",
        -9.56193715595854
      ],
      [
        "Ġconsist",
        -9.562209862821518
      ],
      [
        "Ġpurchase",
        -9.562733787483186
      ],
      [
        "ĠMake",
        -9.56326726500276
      ],
      [
        "Do",
        -9.563731663201876
      ],
      [
        "Ġtransport",
        -9.56446053178072
      ],
      [
        "Ġrat",
        -9.56456641900341
      ],
      [
        "Ġpull",
        -9.564663013430156
      ],
      [
        "Ġimmune",
        -9.566957466914884
      ],
      [
        "Ġadjust",
        -9.567302474354676
      ],
      [
        "Ġdecrease",
        -9.568660388325558
      ],
      [
        "Ġvaluable",
        -9.56881049620048
      ],
      [
        "Ġimages",
        -9.56941917555313
      ],
      [
        "Ġsolutions",
        -9.570547894766523
      ],
      [
        "Ġmilk",
        -9.570709224203656
      ],
      [
        "Now",
        -9.57232094502918
      ],
      [
        "ecause",
        -9.572592952702117
      ],
      [
        "ĠW",
        -9.572987592723742
      ],
      [
        "**",
        -9.57472072458942
      ],
      [
        "Ġbrown",
        -9.575294668136298
      ],
      [
        "Ġcomfortabl",
        -9.57559470858741
      ],
      [
        "expensive",
        -9.5766031632028
      ],
      [
        "Ġpath",
        -9.57780680230404
      ],
      [
        "Ġhands",
        -9.578038023698262
      ],
      [
        "Ġmeaning",
        -9.580032743950849
      ],
      [
        "Ġconsistent",
        -9.580284406122072
      ],
      [
        "Ġcable",
        -9.581046228743556
      ],
      [
        "Ġpoor",
        -9.581226601292483
      ],
      [
        "Ġsoon",
        -9.582006044770182
      ],
      [
        "Ġpollution",
        -9.582606597279536
      ],
      [
        "Ġsecure",
        -9.583158958006038
      ],
      [
        "Ġquickl",
        -9.583784972050475
      ],
      [
        "Ġideas",
        -9.584504933338728
      ],
      [
        "Ġtrain",
        -9.58457354814595
      ],
      [
        "Ġhit",
        -9.58466913143149
      ],
      [
        "Ġencourage",
        -9.586164040899376
      ],
      [
        "Ġsustainabl",
        -9.587904559361451
      ],
      [
        "Ġpicture",
        -9.589296671011802
      ],
      [
        "Ġstates",
        -9.590091314996918
      ],
      [
        "Ġapp",
        -9.590201730050644
      ],
      [
        "âĢ¢",
        -9.590757015683517
      ],
      [
        "Ġhappens",
        -9.590819438682274
      ],
      [
        "Ġburn",
        -9.591141774629602
      ],
      [
        "Ġvoltage",
        -9.59224147119164
      ],
      [
        "Ġinteresting",
        -9.593115869292566
      ],
      [
        "ĠAfrica",
        -9.595769510255868
      ],
      [
        "ĠTheir",
        -9.59610555872493
      ],
      [
        "Ġfigure",
        -9.5963348543098
      ],
      [
        "Ġmother",
        -9.596370490927637
      ],
      [
        "lost",
        -9.59637259179184
      ],
      [
        "Ġthousand",
        -9.597040344711072
      ],
      [
        "Ġaccept",
        -9.597710410325522
      ],
      [
        "Ġdepth",
        -9.598290993378775
      ],
      [
        "ĠWhy",
        -9.598414087559703
      ],
      [
        "ĠWho",
        -9.59854895602587
      ],
      [
        "came",
        -9.59873553476946
      ],
      [
        "Ġexcellent",
        -9.600845231684929
      ],
      [
        "Ġplatform",
        -9.60125308474311
      ],
      [
        "Ġ#",
        -9.6013828029957
      ],
      [
        "Ġvitamin",
        -9.603047247374615
      ],
      [
        "ĠCenter",
        -9.603618640356071
      ],
      [
        "Ġmanufacturer",
        -9.604506316985876
      ],
      [
        "Ġpest",
        -9.605557939438269
      ],
      [
        "ility",
        -9.605863508623887
      ],
      [
        "Ġsort",
        -9.60739691695628
      ],
      [
        "Ġmap",
        -9.608268544726062
      ],
      [
        "Ġprocessor",
        -9.609547061221535
      ],
      [
        "Ġvolume",
        -9.613530358183828
      ],
      [
        "ĠEnglish",
        -9.61421179691058
      ],
      [
        "Ġmonitor",
        -9.614305822909698
      ],
      [
        "Ġpractices",
        -9.61446626052386
      ],
      [
        "Ġattempt",
        -9.615370996208148
      ],
      [
        "Ġcontainer",
        -9.615854075255548
      ],
      [
        "Ġpaint",
        -9.616959037301246
      ],
      [
        ".com",
        -9.617260007851703
      ],
      [
        "Ġdie",
        -9.617915502057492
      ],
      [
        "Ġestimate",
        -9.617977527435922
      ],
      [
        "Ġdoor",
        -9.618289736032382
      ],
      [
        "Ġpack",
        -9.618719622523908
      ],
      [
        "ĠUK",
        -9.619589735091694
      ],
      [
        "Ġphase",
        -9.619632574559231
      ],
      [
        "Ġrefer",
        -9.619645670734457
      ],
      [
        "light",
        -9.62034884232521
      ],
      [
        "Ġmatch",
        -9.621062405135556
      ],
      [
        "side",
        -9.621713443592329
      ],
      [
        "ĠFirst",
        -9.623001653481593
      ],
      [
        "Ġroad",
        -9.623578711118466
      ],
      [
        "Ġwrong",
        -9.623797925281592
      ],
      [
        "older",
        -9.624407113114705
      ],
      [
        "Ġmedia",
        -9.625131409139383
      ],
      [
        "ĠRead",
        -9.625428552661056
      ],
      [
        "=",
        -9.626512639547665
      ],
      [
        "-up",
        -9.627012661884873
      ],
      [
        "Ġrise",
        -9.62731968083828
      ],
      [
        "Ġfinancial",
        -9.628175940509529
      ],
      [
        "Ġsaw",
        -9.628438709533606
      ],
      [
        "Ġoxygen",
        -9.629840831270254
      ],
      [
        "Before",
        -9.6300730001017
      ],
      [
        "Ġtransfer",
        -9.630323755684593
      ],
      [
        "Ġforward",
        -9.631470560396616
      ],
      [
        "Ġnoise",
        -9.63163394986492
      ],
      [
        "over",
        -9.631910253683284
      ],
      [
        "Ġcame",
        -9.63244203454627
      ],
      [
        "Ġfund",
        -9.63342523961174
      ],
      [
        "Ġangle",
        -9.636450857067498
      ],
      [
        "ical",
        -9.638372439775509
      ],
      [
        "Ġplane",
        -9.639216223947532
      ],
      [
        "Ġball",
        -9.639656382972776
      ],
      [
        "Ġsurrounding",
        -9.639876599366051
      ],
      [
        "Ġvia",
        -9.64031774717054
      ],
      [
        "Ġlaw",
        -9.640843059773866
      ],
      [
        "Ġcap",
        -9.643128120161435
      ],
      [
        "W",
        -9.643764081260318
      ],
      [
        "Ġphoto",
        -9.644662107061196
      ],
      [
        "Ġoutcome",
        -9.646421559783736
      ],
      [
        "Ġsalt",
        -9.647454554260216
      ],
      [
        "Ġintroduce",
        -9.647483978431916
      ],
      [
        "And",
        -9.64821659729466
      ],
      [
        "Ġdangerous",
        -9.649320992471004
      ],
      [
        "Ġtexture",
        -9.649389717877206
      ],
      [
        "Ġsubstance",
        -9.651443246220104
      ],
      [
        "Ġchang",
        -9.652069164740324
      ],
      [
        "Ġcommunit",
        -9.652590552722868
      ],
      [
        "Ġcoast",
        -9.65274481981226
      ],
      [
        "Ġplanet",
        -9.653644883060943
      ],
      [
        "Ġtechnologi",
        -9.653775322905158
      ],
      [
        "Ġnational",
        -9.655477328665004
      ],
      [
        "Ġspeak",
        -9.6586338128777
      ],
      [
        "Ġfabric",
        -9.660398545417266
      ],
      [
        "V",
        -9.660481980516956
      ],
      [
        "Ġled",
        -9.661222116370212
      ],
      [
        "Ġhospital",
        -9.661369883884214
      ],
      [
        "Ġrecover",
        -9.663460628919132
      ],
      [
        "Ġmid",
        -9.663767573041747
      ],
      [
        "more",
        -9.66487629317393
      ],
      [
        "Ġpush",
        -9.665213581873942
      ],
      [
        "Ġreflect",
        -9.666081450673648
      ],
      [
        "Ġrecipe",
        -9.667647391015924
      ],
      [
        "Ġmessage",
        -9.67111109184932
      ],
      [
        "Ġmiddle",
        -9.671185111159346
      ],
      [
        "Ġsign",
        -9.672715479748357
      ],
      [
        "Ġcollection",
        -9.67284448901918
      ],
      [
        "Ġ-->",
        -9.673417335850871
      ],
      [
        "Ġhuge",
        -9.673949237001944
      ],
      [
        "Ġsend",
        -9.674155978673069
      ],
      [
        "Ġiron",
        -9.675011528107952
      ],
      [
        "ĠInstitute",
        -9.675337310692903
      ],
      [
        "Ġpresence",
        -9.67592859722129
      ],
      [
        "Ġvoice",
        -9.676150439986642
      ],
      [
        "Ġskill",
        -9.678446380958343
      ],
      [
        "Ġemployee",
        -9.682283981813985
      ],
      [
        "Ġassessment",
        -9.68240960759525
      ],
      [
        "Ġcutting",
        -9.68246689950172
      ],
      [
        "Ġbackground",
        -9.683804418235852
      ],
      [
        "went",
        -9.683856726720904
      ],
      [
        "Ġmedicine",
        -9.684319560632908
      ],
      [
        "Al",
        -9.684367929430962
      ],
      [
        "Ġscreen",
        -9.684588635791911
      ],
      [
        "Ġjoin",
        -9.685888857857725
      ],
      [
        "Ġ--",
        -9.68605758145178
      ],
      [
        "Ġletter",
        -9.686253522405302
      ],
      [
        "Ġbeginning",
        -9.686531039464722
      ],
      [
        "Ġhapp",
        -9.688658476597867
      ],
      [
        "Ġmaximu",
        -9.689085976710755
      ],
      [
        "Ġswitch",
        -9.689419299846175
      ],
      [
        "ĠJust",
        -9.689739102370927
      ],
      [
        "Ġinternational",
        -9.689747950753125
      ],
      [
        "Ġoffice",
        -9.690365972292737
      ],
      [
        "Ġvaccine",
        -9.691678587165825
      ],
      [
        "Ġorganism",
        -9.692383462523113
      ],
      [
        "Ġpound",
        -9.693208459872992
      ],
      [
        "Ġaid",
        -9.69339374807798
      ],
      [
        "Ġexpected",
        -9.693648703075642
      ],
      [
        "No",
        -9.693743236689873
      ],
      [
        "Ġconnected",
        -9.69475604124897
      ],
      [
        "Ġbusinesses",
        -9.694763285260612
      ],
      [
        "Ġhost",
        -9.695054384553035
      ],
      [
        "thus",
        -9.695239009446006
      ],
      [
        "Ġ|",
        -9.695608253080676
      ],
      [
        "ish",
        -9.696833101476347
      ],
      [
        "Ġbigge",
        -9.696879617453678
      ],
      [
        "Ġfair",
        -9.697113459046086
      ],
      [
        "Ġplaced",
        -9.69812582638163
      ],
      [
        "Ġstaff",
        -9.698873480306254
      ],
      [
        "Ġfully",
        -9.700981182703476
      ],
      [
        "Ġoperation",
        -9.70102357800124
      ],
      [
        "Ġproteins",
        -9.702127377752555
      ],
      [
        "Here",
        -9.703418636951
      ],
      [
        "Ġfilm",
        -9.703526251800517
      ],
      [
        "Ġwritten",
        -9.703887223558404
      ],
      [
        "/or",
        -9.703910802413905
      ],
      [
        "Ġgrain",
        -9.70447819194994
      ],
      [
        "ence",
        -9.704944919916242
      ],
      [
        "Ġanti",
        -9.705067197383194
      ],
      [
        "Ġcross",
        -9.705225329139935
      ],
      [
        "Ġ+",
        -9.705720039668918
      ],
      [
        "Ġemission",
        -9.705753456698952
      ],
      [
        "Ġchallenge",
        -9.705771763985233
      ],
      [
        "Ġstick",
        -9.70655650226307
      ],
      [
        "Ġstrategies",
        -9.706832453964148
      ],
      [
        "Ġtrip",
        -9.707085388401245
      ],
      [
        "ĠSystem",
        -9.707909732825538
      ],
      [
        "ĠLet",
        -9.709208814057437
      ],
      [
        "Ġconcentration",
        -9.709308890787334
      ],
      [
        "work",
        -9.70979693582206
      ],
      [
        "held",
        -9.710286104946118
      ],
      [
        "ĠEven",
        -9.711436849875906
      ],
      [
        "li",
        -9.713317949432373
      ],
      [
        "Ġcloth",
        -9.714260604139472
      ],
      [
        "Ġmotion",
        -9.715675848769797
      ],
      [
        "Ġsweet",
        -9.717854913145318
      ],
      [
        "Ġoutdoor",
        -9.719391385787777
      ],
      [
        "Ġecosystem",
        -9.719485375914816
      ],
      [
        "day",
        -9.720112744975154
      ],
      [
        "Ġrobot",
        -9.72051048287339
      ],
      [
        "Ġowners",
        -9.721041566876082
      ],
      [
        "Ġdental",
        -9.721199815674208
      ],
      [
        "Ġarm",
        -9.723383271606874
      ],
      [
        "Ġmember",
        -9.723419986124089
      ],
      [
        "Ġselection",
        -9.723753357308222
      ],
      [
        "haps",
        -9.724676248824911
      ],
      [
        "ĠNOT",
        -9.725164050056872
      ],
      [
        "Ġplease",
        -9.725607953339548
      ],
      [
        "ization",
        -9.725889673054088
      ],
      [
        "Ġconsumpti",
        -9.726183479483115
      ],
      [
        "ĠRiver",
        -9.726368908169787
      ],
      [
        "Ġpractical",
        -9.726454220460507
      ],
      [
        "K",
        -9.727455548610044
      ],
      [
        "Ġcoffee",
        -9.728103184797058
      ],
      [
        "Ġcomfort",
        -9.728707389325407
      ],
      [
        "Ġrespond",
        -9.729022273788216
      ],
      [
        "wide",
        -9.730424568667448
      ],
      [
        "Ġfoundation",
        -9.731234274200965
      ],
      [
        "Ġvariable",
        -9.73248967055753
      ],
      [
        "body",
        -9.73282599384445
      ],
      [
        "Ġbreath",
        -9.733110417157643
      ],
      [
        "Ġclick",
        -9.733290388436128
      ],
      [
        "Ġcontext",
        -9.733654821738702
      ],
      [
        "Ġtank",
        -9.73402094234125
      ],
      [
        "ĠAls",
        -9.734110493324655
      ],
      [
        "Ġalgorithm",
        -9.73656163690005
      ],
      [
        "Ġupper",
        -9.73697625490884
      ],
      [
        "âĢĿ",
        -9.737173549644684
      ],
      [
        "surgery",
        -9.737330520265225
      ],
      [
        "Ġsequence",
        -9.737459637197826
      ],
      [
        "Ġsustain",
        -9.737734122181374
      ],
      [
        "ship",
        -9.738114017323111
      ],
      [
        "Ġround",
        -9.738186457959385
      ],
      [
        "Ġschools",
        -9.738459215926062
      ],
      [
        "Ġdouble",
        -9.739060175411364
      ],
      [
        "Ġcentral",
        -9.739176962174806
      ],
      [
        "...ĊĊ",
        -9.741084799527057
      ],
      [
        "Ġgrass",
        -9.742713357595049
      ],
      [
        "Ġtube",
        -9.745089857380432
      ],
      [
        "Ġaren",
        -9.745845596734878
      ],
      [
        "Ġvirtual",
        -9.74678716904486
      ],
      [
        "|",
        -9.7478510357876
      ],
      [
        "Ġrock",
        -9.74830491027761
      ],
      [
        "Ġsquare",
        -9.749059822259618
      ],
      [
        "Q",
        -9.749078102291303
      ],
      [
        "Ġrecognize",
        -9.75034678687269
      ],
      [
        "Ġthreat",
        -9.750808968958353
      ],
      [
        "An",
        -9.751255612219964
      ],
      [
        "Ġclassroom",
        -9.751304968932653
      ],
      [
        "Ġlose",
        -9.751653247196929
      ],
      [
        "Ġonto",
        -9.751711548218276
      ],
      [
        "Ġannual",
        -9.751857240705393
      ],
      [
        "pril",
        -9.751867375178367
      ],
      [
        "Ġmedium",
        -9.75297954907179
      ],
      [
        "Ġdiscovered",
        -9.75323119132092
      ],
      [
        "Ġbecomes",
        -9.755791210713472
      ],
      [
        "Ġrain",
        -9.756366448954864
      ],
      [
        "Ġdisplay",
        -9.756814826247858
      ],
      [
        "Ġprogress",
        -9.757367098497856
      ],
      [
        "Ġroots",
        -9.759426725694468
      ],
      [
        "fish",
        -9.759501407842448
      ],
      [
        "Ġones",
        -9.760170393574638
      ],
      [
        "Ġpair",
        -9.760565524811724
      ],
      [
        "ĠJ",
        -9.760896852256591
      ],
      [
        "Ġearth",
        -9.76110928060497
      ],
      [
        "Ġgear",
        -9.762177461300322
      ],
      [
        "Ġelectronic",
        -9.76388269362339
      ],
      [
        "ĠOnc",
        -9.766293746961846
      ],
      [
        "Ġharvest",
        -9.766937757581069
      ],
      [
        "Ġpipe",
        -9.767197579160804
      ],
      [
        "ĠNow",
        -9.76737575939052
      ],
      [
        "Ġsounds",
        -9.768718240842816
      ],
      [
        "Ġexpect",
        -9.769641566289335
      ],
      [
        "ĠOther",
        -9.770419628849432
      ],
      [
        "Ġerror",
        -9.771813853289142
      ],
      [
        "Ġmechanism",
        -9.7718328593863
      ],
      [
        "Ġstuff",
        -9.772641039243869
      ],
      [
        "Ġgate",
        -9.772795156333885
      ],
      [
        "Ġsell",
        -9.773320562119377
      ],
      [
        "Ġbutton",
        -9.773572948614683
      ],
      [
        "Ġprinciple",
        -9.774918311903598
      ],
      [
        "Ġvital",
        -9.775010627148497
      ],
      [
        "Ġdivers",
        -9.77674646824127
      ],
      [
        "Ġpredict",
        -9.777768979670498
      ],
      [
        "Ġchicken",
        -9.77901738105244
      ],
      [
        "Ġspecifically",
        -9.779240960532768
      ],
      [
        "Ġtrust",
        -9.779793015303827
      ],
      [
        "Ġfaste",
        -9.78004346911258
      ],
      [
        "Ġshift",
        -9.780497829572798
      ],
      [
        "Ġregulation",
        -9.780520835405124
      ],
      [
        "ĠWater",
        -9.781312202950684
      ],
      [
        "Ġcareer",
        -9.781595920483348
      ],
      [
        "Ġmiss",
        -9.78192002389062
      ],
      [
        "Ġpark",
        -9.782196551623407
      ],
      [
        "ar",
        -9.782330666453747
      ],
      [
        "ĠAustralia",
        -9.783246860820524
      ],
      [
        "Ġstone",
        -9.783594061456348
      ],
      [
        "Ġdemonstrate",
        -9.783629483014188
      ],
      [
        "Ġcapture",
        -9.784616042682044
      ],
      [
        "ĠDur",
        -9.785289294580862
      ],
      [
        "Ġfavorite",
        -9.787412473922362
      ],
      [
        "Ġworker",
        -9.787763321463922
      ],
      [
        "Ġspot",
        -9.788161516388923
      ],
      [
        "Ġsub",
        -9.788216624525475
      ],
      [
        "Ġbodie",
        -9.788775045382897
      ],
      [
        "Ġillness",
        -9.789800635213115
      ],
      [
        "Ġcomment",
        -9.79059273964048
      ],
      [
        "Ġalone",
        -9.791984085475004
      ],
      [
        "Ġreference",
        -9.792674153786889
      ],
      [
        "Ġidentifie",
        -9.79307794232806
      ],
      [
        "Ġhighlight",
        -9.793397632959918
      ],
      [
        "Ġformed",
        -9.794242137097148
      ],
      [
        "Ġessay",
        -9.795831583494582
      ],
      [
        "Ġreported",
        -9.796023492095172
      ],
      [
        "Ġcommercial",
        -9.797110628362429
      ],
      [
        "Ġcompound",
        -9.797120368510038
      ],
      [
        "Ġsolid",
        -9.797871193355736
      ],
      [
        "Ġmanufactur",
        -9.79787168841187
      ],
      [
        "Ġappearance",
        -9.799247765910536
      ],
      [
        "ĠIndia",
        -9.799402056812408
      ],
      [
        "Ġevolution",
        -9.799406740007036
      ],
      [
        "Ġheight",
        -9.800242114387135
      ],
      [
        "Ġindoor",
        -9.802013413068924
      ],
      [
        "Ġinternal",
        -9.80216802208684
      ],
      [
        "After",
        -9.804710229886126
      ],
      [
        "Ġcup",
        -9.80527079904714
      ],
      [
        "ĠDepartment",
        -9.805363083590446
      ],
      [
        "-like",
        -9.805429759582886
      ],
      [
        "Ġdead",
        -9.80553337651184
      ],
      [
        "bility",
        -9.80670772631333
      ],
      [
        "Ġinterested",
        -9.807214986914072
      ],
      [
        "Ġmixture",
        -9.80815288395874
      ],
      [
        "Ġbutter",
        -9.80855788076515
      ],
      [
        "Man",
        -9.810710932130348
      ],
      [
        "Ġresource",
        -9.811859419897797
      ],
      [
        "Ġtransform",
        -9.813511626494352
      ],
      [
        "Ġharmful",
        -9.813986273288698
      ],
      [
        "Ġinsight",
        -9.815092928382915
      ],
      [
        "ĠEducation",
        -9.815527585034255
      ],
      [
        "Ġbar",
        -9.816333108040896
      ],
      [
        "Ġstatement",
        -9.816932473960769
      ],
      [
        "Ġlegal",
        -9.817840088253416
      ],
      [
        "Ġportion",
        -9.818245506850795
      ],
      [
        "Ġclasses",
        -9.818577735880844
      ],
      [
        "ium",
        -9.819015538452817
      ],
      [
        "Ġgenes",
        -9.819080063860424
      ],
      [
        "Ġeconomic",
        -9.819198112971277
      ],
      [
        "Ġzone",
        -9.820095035642336
      ],
      [
        "Ġattract",
        -9.820326043265926
      ],
      [
        "Ġcharacter",
        -9.820398861488911
      ],
      [
        "Ġdecade",
        -9.820491395390835
      ],
      [
        "ĠEurope",
        -9.821951799346406
      ],
      [
        "Ġpool",
        -9.822553499978287
      ],
      [
        "Ġinstrument",
        -9.823274890597524
      ],
      [
        "Ġfinish",
        -9.824442724138803
      ],
      [
        "ĠOr",
        -9.826386929972228
      ],
      [
        "Ġreveal",
        -9.827165849161286
      ],
      [
        "Ġreferr",
        -9.82717448462956
      ],
      [
        "Ġtail",
        -9.82748707832203
      ],
      [
        "Ġsociety",
        -9.827690440113455
      ],
      [
        "Ġdrawing",
        -9.827928059839063
      ],
      [
        "Ġocean",
        -9.82835113960274
      ],
      [
        "ul",
        -9.828700609964764
      ],
      [
        "ĠAccording",
        -9.829298534616951
      ],
      [
        "Ġcheese",
        -9.83070448332598
      ],
      [
        "Ġexpression",
        -9.83107573633997
      ],
      [
        "Ġrecommende",
        -9.83155254193499
      ],
      [
        "ism",
        -9.831790931403535
      ],
      [
        "Ġwindow",
        -9.831807786156492
      ],
      [
        "Ġhormone",
        -9.8322186987549
      ],
      [
        "ĠService",
        -9.83226571750189
      ],
      [
        "Ġmen",
        -9.83261858156134
      ],
      [
        "head",
        -9.832635995915815
      ],
      [
        "Our",
        -9.832804777076174
      ],
      [
        "Ġcovered",
        -9.833511214095338
      ],
      [
        "Ġneck",
        -9.833573271013492
      ],
      [
        "Ġconclusion",
        -9.83371822993664
      ],
      [
        "Ġsilver",
        -9.834533884229684
      ],
      [
        "Ġbond",
        -9.834605132948468
      ],
      [
        "ware",
        -9.834668857000086
      ],
      [
        "ĠJapan",
        -9.835654862836716
      ],
      [
        "Ġoperat",
        -9.836661983915729
      ],
      [
        "Ġsheet",
        -9.836803740553805
      ],
      [
        "Ġperformed",
        -9.837017562587452
      ],
      [
        "comes",
        -9.83777177927756
      ],
      [
        "Ġimprov",
        -9.838467362733166
      ],
      [
        "Ġofficial",
        -9.839235469007631
      ],
      [
        "Ġcategor",
        -9.839473620553273
      ],
      [
        "Ġmovie",
        -9.839815385061293
      ],
      [
        "Ġequation",
        -9.839937679083116
      ],
      [
        "Ġargument",
        -9.841802292799915
      ],
      [
        "Ġcomprehensive",
        -9.842404957062216
      ],
      [
        "Ġlandscape",
        -9.84301849600969
      ],
      [
        "Ġstraight",
        -9.84342422823996
      ],
      [
        "Ġearlie",
        -9.84439276613783
      ],
      [
        "Ġemail",
        -9.84503766012611
      ],
      [
        "Ġconsume",
        -9.845677312896182
      ],
      [
        "Ġchain",
        -9.845688761257223
      ],
      [
        "Ġregister",
        -9.845881808424457
      ],
      [
        "ne",
        -9.846263924989724
      ],
      [
        "Ġstomach",
        -9.846266037590617
      ],
      [
        "Ġprefer",
        -9.847707738595506
      ],
      [
        "Ġbatter",
        -9.848249559925932
      ],
      [
        "ities",
        -9.849166119123034
      ],
      [
        "Ġpossibilit",
        -9.849501225583964
      ],
      [
        "Ġcalculate",
        -9.84990825431928
      ],
      [
        "Ġassess",
        -9.850603545701055
      ],
      [
        "Ġseal",
        -9.850890333499626
      ],
      [
        "Ġprovider",
        -9.850920117633324
      ],
      [
        "Ġconvert",
        -9.851187583194696
      ],
      [
        "That",
        -9.851435064393725
      ],
      [
        "Ġcalorie",
        -9.851505680184022
      ],
      [
        "Ġbulb",
        -9.852218316115056
      ],
      [
        "Ġasked",
        -9.852975663076208
      ],
      [
        "Ġrelevant",
        -9.85332130897383
      ],
      [
        "Ġagree",
        -9.85396726711842
      ],
      [
        "Ġdrop",
        -9.854541412230589
      ],
      [
        "Ġtransmission",
        -9.855073264327466
      ],
      [
        "Ġhundred",
        -9.8552341429247
      ],
      [
        "Ġpump",
        -9.85593378772569
      ],
      [
        "Ġadvice",
        -9.85597815100763
      ],
      [
        "Ġantibiotic",
        -9.856393495903152
      ],
      [
        "Ġstain",
        -9.857301166679836
      ],
      [
        "Ġindustrial",
        -9.857612411081847
      ],
      [
        "ĠDay",
        -9.858541967351025
      ],
      [
        "Ġeventual",
        -9.858656373219912
      ],
      [
        "Ġtransition",
        -9.85948129509621
      ],
      [
        "All",
        -9.85956859971683
      ],
      [
        "Ġweb",
        -9.859631079560735
      ],
      [
        "Ġcatch",
        -9.860805693281751
      ],
      [
        "Ġtomato",
        -9.86232476471426
      ],
      [
        "-free",
        -9.862838936060934
      ],
      [
        "Ġstrain",
        -9.86322305944162
      ],
      [
        "Ġroutine",
        -9.865981733680645
      ],
      [
        "Ġprivate",
        -9.86604248947731
      ],
      [
        "Ġartificial",
        -9.86627435517826
      ],
      [
        "Ġsmalle",
        -9.867096274746729
      ],
      [
        "Ġnearly",
        -9.867164888501904
      ],
      [
        "Ġpreference",
        -9.867861467066296
      ],
      [
        "Ġsites",
        -9.870237542938252
      ],
      [
        "Ġcore",
        -9.87159714935678
      ],
      [
        "Ġdefinition",
        -9.87200412387821
      ],
      [
        "Ġbasi",
        -9.872042658769752
      ],
      [
        "Ġboat",
        -9.8722265395026
      ],
      [
        "Ġcollect",
        -9.87403532263822
      ],
      [
        "tic",
        -9.874058893127494
      ],
      [
        "Ġhelpful",
        -9.8744618161338
      ],
      [
        "Ġprocessing",
        -9.876302135358724
      ],
      [
        "which",
        -9.876887204446646
      ],
      [
        "Ġnice",
        -9.877905176226648
      ],
      [
        "Ġopinion",
        -9.878362684233757
      ],
      [
        "Ġremov",
        -9.88121067277562
      ],
      [
        "Y",
        -9.881374194521436
      ],
      [
        "Ġteach",
        -9.881642006710376
      ],
      [
        "Ġancient",
        -9.881645653076507
      ],
      [
        "ĠSince",
        -9.88218401203239
      ],
      [
        "Ġcloud",
        -9.883460647569898
      ],
      [
        "Ġcompost",
        -9.88366144339865
      ],
      [
        "Ġdiscussion",
        -9.88542266206944
      ],
      [
        "Ġfrequenc",
        -9.885502891981744
      ],
      [
        "Ġgettin",
        -9.885720195317868
      ],
      [
        "Ġegg",
        -9.886101055591904
      ],
      [
        "Ġinnovation",
        -9.887276451696213
      ],
      [
        "ture",
        -9.888730822431636
      ],
      [
        "rought",
        -9.890648511624622
      ],
      [
        "Ġperspective",
        -9.891314768345309
      ],
      [
        "Ġplate",
        -9.891846790763305
      ],
      [
        "Ġfailure",
        -9.892079778695258
      ],
      [
        "Ġprogramm",
        -9.892809478828587
      ],
      [
        "Ġapart",
        -9.894281182972511
      ],
      [
        "times",
        -9.895765735791612
      ],
      [
        "Ġstation",
        -9.895810863532386
      ],
      [
        "Ġsports",
        -9.897907212029663
      ],
      [
        "Ġrid",
        -9.898570654796249
      ],
      [
        "Ġmiles",
        -9.898669933343784
      ],
      [
        "-in",
        -9.898909881491312
      ],
      [
        "Ġbirth",
        -9.904009337274978
      ],
      [
        "Ġrespect",
        -9.905634319705184
      ],
      [
        "Ġshade",
        -9.906546032540689
      ],
      [
        "Ġinsects",
        -9.907122221946748
      ],
      [
        "Ġsurvey",
        -9.908052182431051
      ],
      [
        "Ġgift",
        -9.908308674874254
      ],
      [
        "Ġhoney",
        -9.908854834774608
      ],
      [
        "Ġchannel",
        -9.90895201246108
      ],
      [
        "Ġclient",
        -9.909367531228348
      ],
      [
        "Ġprepared",
        -9.909596177491846
      ],
      [
        "Ġmotor",
        -9.91078031481904
      ],
      [
        "Ġgets",
        -9.910988574331782
      ],
      [
        "Ġplanting",
        -9.911055640967636
      ],
      [
        "Ġsuggests",
        -9.91107395262223
      ],
      [
        "Ġrealize",
        -9.911444762696236
      ],
      [
        "Ġfunctional",
        -9.911862485640926
      ],
      [
        "Ġorgan",
        -9.912018604857147
      ],
      [
        "Ġexternal",
        -9.912418773015611
      ],
      [
        "Ġtrigger",
        -9.913211359766231
      ],
      [
        "like",
        -9.914105839413104
      ],
      [
        "Ġoperate",
        -9.914272566683582
      ],
      [
        "Ġprimari",
        -9.914457489113405
      ],
      [
        "Ġassist",
        -9.914552031796504
      ],
      [
        "Ġlabel",
        -9.91459520160733
      ],
      [
        "Ġboost",
        -9.914880404915523
      ],
      [
        "Ġbeneficial",
        -9.914981454106924
      ],
      [
        "Ġcars",
        -9.915005988703466
      ],
      [
        "Ġcreative",
        -9.915057875227689
      ],
      [
        "up",
        -9.9162249202708
      ],
      [
        "Ġcarrie",
        -9.916279501727509
      ],
      [
        "Ġestablished",
        -9.916864672405143
      ],
      [
        "Ġwar",
        -9.91710718267846
      ],
      [
        "Ġproduc",
        -9.917201694095953
      ],
      [
        "way",
        -9.917213957972084
      ],
      [
        "Ġrelax",
        -9.91747228221834
      ],
      [
        "ĠDoes",
        -9.917839785375136
      ],
      [
        "Ġtherap",
        -9.91847396536853
      ],
      [
        "Are",
        -9.918590723902833
      ],
      [
        "Ġoptimal",
        -9.920912290527909
      ],
      [
        "Ġnumerous",
        -9.921599899549529
      ],
      [
        "Ġengage",
        -9.922210564265558
      ],
      [
        "Ġresident",
        -9.92247381906697
      ],
      [
        "Ġvirus",
        -9.922706043950267
      ],
      [
        "Ġvariation",
        -9.922772215326283
      ],
      [
        "emergency",
        -9.925325416494095
      ],
      [
        "ĠHigh",
        -9.925374688975952
      ],
      [
        "Ġformation",
        -9.92638804227168
      ],
      [
        "Ġdirt",
        -9.92861311251722
      ],
      [
        "Ġdynamic",
        -9.930339022407534
      ],
      [
        "Ġpets",
        -9.93049344408169
      ],
      [
        "Ġpolicy",
        -9.930583560541592
      ],
      [
        "Ġtechnical",
        -9.930779803268956
      ],
      [
        "Ġdistribution",
        -9.930811025116242
      ],
      [
        "Ġautomatic",
        -9.930985429223018
      ],
      [
        "Ġremote",
        -9.932473830124444
      ],
      [
        "Ġstatus",
        -9.933816001718924
      ],
      [
        "ĠPeople",
        -9.936230431889738
      ],
      [
        "Ġcoat",
        -9.9362515034756
      ],
      [
        "Ġemotional",
        -9.936316792837532
      ],
      [
        "Ġzero",
        -9.936339832339664
      ],
      [
        "Ġmolecules",
        -9.939535913223626
      ],
      [
        "ĠBritish",
        -9.939646697157992
      ],
      [
        "Ġapproximately",
        -9.939943669981323
      ],
      [
        "Ġoffering",
        -9.940130175459444
      ],
      [
        "Ġphotos",
        -9.94029992044824
      ],
      [
        "Ġpot",
        -9.940546337937164
      ],
      [
        "tiny",
        -9.942383835369808
      ],
      [
        "Ġreliabl",
        -9.94321826511448
      ],
      [
        "Ġexpose",
        -9.945433255663364
      ],
      [
        "ĠWhether",
        -9.94544548297506
      ],
      [
        "for",
        -9.946010353394731
      ],
      [
        "kept",
        -9.94607265261822
      ],
      [
        "Ġcollege",
        -9.946949103924924
      ],
      [
        "Ġmonitoring",
        -9.947793036563
      ],
      [
        "Ġmask",
        -9.948353663295624
      ],
      [
        "Ġflat",
        -9.948642342602852
      ],
      [
        "ĠEuropean",
        -9.948944354176929
      ],
      [
        "ĠDon",
        -9.951421412019505
      ],
      [
        "ĠFebruary",
        -9.951541062554412
      ],
      [
        "Ġharm",
        -9.951947380839538
      ],
      [
        "ĠKeep",
        -9.952561772178282
      ],
      [
        "Ġinter",
        -9.95309110983692
      ],
      [
        "Ġcake",
        -9.95322102702673
      ],
      [
        "Ġeducational",
        -9.953303425715475
      ],
      [
        "Ġutilize",
        -9.953347585731429
      ],
      [
        "Ġconsequence",
        -9.953450845523491
      ],
      [
        "Ġmeter",
        -9.953648324930054
      ],
      [
        "Ġconservation",
        -9.953668771959029
      ],
      [
        "Ġsurvive",
        -9.95370788627243
      ],
      [
        "Ġmorning",
        -9.955007190609017
      ],
      [
        "Ġanxiet",
        -9.955115308612864
      ],
      [
        "ĠGoogle",
        -9.956475767883028
      ],
      [
        "Ġchoos",
        -9.957415506618409
      ],
      [
        "Ġfashion",
        -9.959753082076542
      ],
      [
        "Ġisland",
        -9.960321969184925
      ],
      [
        "Conclusion",
        -9.96033777405292
      ],
      [
        "Ġthin",
        -9.960707982590623
      ],
      [
        "Ġminimum",
        -9.960809205437974
      ],
      [
        "Ġnerve",
        -9.96110200785456
      ],
      [
        "Ġmeeting",
        -9.961346721516264
      ],
      [
        "-being",
        -9.962069010484726
      ],
      [
        "Ġspeaker",
        -9.962221296906346
      ],
      [
        "Ġintend",
        -9.963024713461998
      ],
      [
        "Ġmold",
        -9.963041694316672
      ],
      [
        "Ġdrug",
        -9.963243844698184
      ],
      [
        "Ġpercentage",
        -9.964881995685335
      ],
      [
        "Ġsteel",
        -9.967769974758026
      ],
      [
        "Ġlens",
        -9.967996725102449
      ],
      [
        "Ġguideline",
        -9.967997974462332
      ],
      [
        "-year",
        -9.968759758382058
      ],
      [
        "Ġvalve",
        -9.969095610082748
      ],
      [
        "Ġsit",
        -9.969235755564847
      ],
      [
        "Ġoperations",
        -9.969675649363657
      ],
      [
        "Ġabsorb",
        -9.969949727107252
      ],
      [
        "Ġprepare",
        -9.970571024148672
      ],
      [
        "Ġbowl",
        -9.971489943290232
      ],
      [
        "Ġdivide",
        -9.97299437073589
      ],
      [
        "Ġexpress",
        -9.97376237408156
      ],
      [
        "Ġdigesti",
        -9.974099764152292
      ],
      [
        "Onc",
        -9.97420474310908
      ],
      [
        "Ġhazard",
        -9.975822445076252
      ],
      [
        "Ġexamine",
        -9.97643357409294
      ],
      [
        "Ġheal",
        -9.979522197707958
      ],
      [
        "Yes",
        -9.979846400956523
      ],
      [
        "Ġultimate",
        -9.980034090947456
      ],
      [
        "Ġquilt",
        -9.980623256365613
      ],
      [
        "Ġmarine",
        -9.98115286615806
      ],
      [
        "Ġshot",
        -9.981510784062134
      ],
      [
        "ĠRe",
        -9.982865899990529
      ],
      [
        "X",
        -9.98389519596298
      ],
      [
        "Ġdish",
        -9.98458288863825
      ],
      [
        "Ġattend",
        -9.986002256361276
      ],
      [
        "Ġlifestyle",
        -9.986277777476554
      ],
      [
        "Your",
        -9.987259546789709
      ],
      [
        "Ġmode",
        -9.987516455317984
      ],
      [
        "Ġindependent",
        -9.98923882759837
      ],
      [
        "Ġcreation",
        -9.990345615623848
      ],
      [
        "Ġguid",
        -9.990397159203418
      ],
      [
        "Ġintelligence",
        -9.990416150755102
      ],
      [
        "Ġaudio",
        -9.990981179432223
      ],
      [
        "Answer",
        -9.992723713378734
      ],
      [
        "Ġleaf",
        -9.993017875539955
      ],
      [
        "ĠFood",
        -9.99323735969749
      ],
      [
        "Ġthorough",
        -9.993885387400596
      ],
      [
        "ĠWest",
        -9.994014314167242
      ],
      [
        "ĠMarch",
        -9.994712683748244
      ],
      [
        "Ġfight",
        -9.995159565243863
      ],
      [
        "Ġmaster",
        -9.995301799854932
      ],
      [
        "Ġsnake",
        -9.99552417334164
      ],
      [
        "Ġlayers",
        -9.99635477716916
      ],
      [
        "Ġprecise",
        -9.998678420220392
      ],
      [
        "Ġreduction",
        -9.998933305717326
      ],
      [
        "Ġenzyme",
        -9.999270045680806
      ],
      [
        "Ġinvestment",
        -9.999381198444734
      ],
      [
        "Ġbooks",
        -10.000259571779964
      ],
      [
        "-friendl",
        -10.000909914829268
      ],
      [
        "Ġtight",
        -10.000923838520324
      ],
      [
        "Ġcapabilit",
        -10.002009589481808
      ],
      [
        "Ġfirm",
        -10.002821195070748
      ],
      [
        "ĠWell",
        -10.002846637972048
      ],
      [
        "ĠAct",
        -10.003180690082928
      ],
      [
        "Ġbike",
        -10.00345870359641
      ],
      [
        "Ġbread",
        -10.003477840408362
      ],
      [
        "ĠGod",
        -10.004626794604718
      ],
      [
        "Ġinteract",
        -10.00490317954846
      ],
      [
        "Ġthrow",
        -10.006267710768046
      ],
      [
        "Ġrequest",
        -10.006500854002011
      ],
      [
        "Ġfurni",
        -10.007859055349073
      ],
      [
        "Ġcontinuous",
        -10.009831837423956
      ],
      [
        "Ġfeeding",
        -10.010237795075517
      ],
      [
        "Ġapprove",
        -10.01413492479752
      ],
      [
        "Ġsupplie",
        -10.014322794206189
      ],
      [
        "Florida",
        -10.015703229887109
      ],
      [
        "ther",
        -10.01621212744286
      ],
      [
        "Ġstructural",
        -10.01697407825199
      ],
      [
        "ĠRed",
        -10.0174254572716
      ],
      [
        "Ġmembrane",
        -10.018135175760488
      ],
      [
        "Ġimprovement",
        -10.018388135257712
      ],
      [
        "Ġplent",
        -10.018711280871557
      ],
      [
        "Ġartist",
        -10.018875015427804
      ],
      [
        "Ġcrack",
        -10.019347090736275
      ],
      [
        "made",
        -10.019732705696896
      ],
      [
        "Ġkitchen",
        -10.019757264546037
      ],
      [
        "Ġbottle",
        -10.019828996941635
      ],
      [
        "Ġresponsibilit",
        -10.02033802515104
      ],
      [
        "Ġschedule",
        -10.020958551624704
      ],
      [
        "Ġgap",
        -10.021075214365569
      ],
      [
        "Ġsaying",
        -10.02188212137616
      ],
      [
        "ĠStudent",
        -10.021946993561407
      ],
      [
        "Ġreceptor",
        -10.022099898173131
      ],
      [
        "Ġeliminate",
        -10.022320341721615
      ],
      [
        "Ġratio",
        -10.022348002087146
      ],
      [
        "Ġweed",
        -10.02244252474646
      ],
      [
        "ĠDec",
        -10.026866825821422
      ],
      [
        "ĠStep",
        -10.027034101027576
      ],
      [
        "Ġlawn",
        -10.02752386090167
      ],
      [
        "Ġpilot",
        -10.027554263613828
      ],
      [
        "Ġentit",
        -10.027874964625187
      ],
      [
        "desired",
        -10.02794313649272
      ],
      [
        "Ġriver",
        -10.029186585614196
      ],
      [
        "Ġoven",
        -10.031069525711729
      ],
      [
        "Ġsuffer",
        -10.03134018087905
      ],
      [
        "Ġseat",
        -10.031493789137896
      ],
      [
        "Ġblend",
        -10.031655022380082
      ],
      [
        "Ġdescription",
        -10.033066156149324
      ],
      [
        "Ġleav",
        -10.033458727111164
      ],
      [
        "Ġputt",
        -10.03513121059838
      ],
      [
        "Ġconversation",
        -10.0353863014566
      ],
      [
        "Ġkid",
        -10.03564975052111
      ],
      [
        "ĠSept",
        -10.0361896182733
      ],
      [
        "Ġobvious",
        -10.03695367547696
      ],
      [
        "Ġroll",
        -10.037049577045844
      ],
      [
        "Ġlift",
        -10.037265320010013
      ],
      [
        "Ġcharacters",
        -10.03750893520628
      ],
      [
        "Ġdecided",
        -10.038661146092211
      ],
      [
        "Ġbear",
        -10.038986141534998
      ],
      [
        "Ġpress",
        -10.039257064905328
      ],
      [
        "Ġdecide",
        -10.039871287679368
      ],
      [
        "Ġassume",
        -10.040188677514262
      ],
      [
        "Ġbiological",
        -10.040518736750013
      ],
      [
        "Ġbreeding",
        -10.040627838275402
      ],
      [
        "Ġdisorder",
        -10.041406682091637
      ],
      [
        "Ġprotective",
        -10.042159647316293
      ],
      [
        "Ġhole",
        -10.042338948252766
      ],
      [
        "ĠChina",
        -10.043084791002668
      ],
      [
        "Ġincredibl",
        -10.04308508701178
      ],
      [
        "Ġsector",
        -10.043979346727689
      ],
      [
        "Ġchalleng",
        -10.045106594432818
      ],
      [
        "Ġconcrete",
        -10.047159765531273
      ],
      [
        "Ġleader",
        -10.047800913516978
      ],
      [
        "Ġlung",
        -10.049056636145018
      ],
      [
        "&",
        -10.049722050070692
      ],
      [
        "Ġincorporate",
        -10.04976817340922
      ],
      [
        "Ġcream",
        -10.049876969267284
      ],
      [
        "ĠEnergy",
        -10.050474745906117
      ],
      [
        "Ġtitle",
        -10.05089619351866
      ],
      [
        "Ġspecialize",
        -10.051101865419655
      ],
      [
        "Ġgreenhouse",
        -10.051295300083655
      ],
      [
        "Ġband",
        -10.05138575731359
      ],
      [
        "Ġfossil",
        -10.051542837939714
      ],
      [
        "ĠJune",
        -10.051648984953516
      ],
      [
        "ĠDesign",
        -10.051851471124476
      ],
      [
        "Ġemotion",
        -10.051863805493682
      ],
      [
        "Ġatmosphere",
        -10.052179843372524
      ],
      [
        "Ġsuper",
        -10.052211868325944
      ],
      [
        "Use",
        -10.052398755490165
      ],
      [
        "Ġdrugs",
        -10.052440285795036
      ],
      [
        "BIM",
        -10.053138816125262
      ],
      [
        "Ġsmart",
        -10.055510480736212
      ],
      [
        "Ġship",
        -10.05602904718505
      ],
      [
        "Ġnovel",
        -10.056378404990868
      ],
      [
        "Ġsensitive",
        -10.056945189559878
      ],
      [
        "formed",
        -10.05694628586832
      ],
      [
        "ĠNov",
        -10.057517452000395
      ],
      [
        "Ġfacility",
        -10.057855726955074
      ],
      [
        "that",
        -10.05821558657044
      ],
      [
        "ĠGreen",
        -10.058657557565382
      ],
      [
        "ĠFrench",
        -10.05867702011
      ],
      [
        "Ġstable",
        -10.0592070270611
      ],
      [
        "Ġtru",
        -10.059919762597149
      ],
      [
        "ĠAir",
        -10.060329118054389
      ],
      [
        "Ġsnow",
        -10.060636572793012
      ],
      [
        "Â·",
        -10.060756288095138
      ],
      [
        "Ġprofessionals",
        -10.060850385462782
      ],
      [
        "Ġmanual",
        -10.061420743856685
      ],
      [
        "Ġadvance",
        -10.062670193361653
      ],
      [
        "Ġexcessive",
        -10.063201498893491
      ],
      [
        "Ġbrush",
        -10.063210048126605
      ],
      [
        "Ġcookie",
        -10.063835775246426
      ],
      [
        "ĠPlant",
        -10.06407038436406
      ],
      [
        "ĠCanada",
        -10.064910495924558
      ],
      [
        "Ġstorie",
        -10.065940159862109
      ],
      [
        "Ġconstruct",
        -10.066198818753454
      ],
      [
        "Ġreplacement",
        -10.06700018856819
      ],
      [
        "our",
        -10.067045711210197
      ],
      [
        "ĠLearn",
        -10.06734492865915
      ],
      [
        "Ġdishe",
        -10.067508366995678
      ],
      [
        "Ġeight",
        -10.069039867683792
      ],
      [
        "Ġdirector",
        -10.069818053959157
      ],
      [
        "Ġcm",
        -10.07118265091412
      ],
      [
        "Ġ...ĊĊ",
        -10.071725528590235
      ],
      [
        "ĠJul",
        -10.071785729291117
      ],
      [
        "Ġtrade",
        -10.073447975551694
      ],
      [
        "what",
        -10.074008108838978
      ],
      [
        "Ġcompetition",
        -10.0745960529203
      ],
      [
        "nce",
        -10.074688533733212
      ],
      [
        "ĠSt",
        -10.07582834038298
      ],
      [
        "ley",
        -10.07584147183631
      ],
      [
        "Ġcredit",
        -10.07603503389114
      ],
      [
        "Ġchair",
        -10.076250720098455
      ],
      [
        "Ġmainly",
        -10.077763216917456
      ],
      [
        "with",
        -10.078595387407546
      ],
      [
        "Ġdisorders",
        -10.080117022408585
      ],
      [
        "Most",
        -10.08012262732703
      ],
      [
        "Ġsufficient",
        -10.08018657960637
      ],
      [
        "water",
        -10.08133673028792
      ],
      [
        "Ġten",
        -10.081833190484256
      ],
      [
        "Ġvisibl",
        -10.08222779046118
      ],
      [
        "More",
        -10.082710203132002
      ],
      [
        "Ġrough",
        -10.082869706667353
      ],
      [
        "Ġowner",
        -10.083336972759115
      ],
      [
        "Ġdensit",
        -10.083374567765771
      ],
      [
        "Ġbudget",
        -10.083401426708086
      ],
      [
        "Ġbroken",
        -10.086470999970317
      ],
      [
        "ĠGreat",
        -10.086646588320384
      ],
      [
        "Ġattribute",
        -10.087595877534568
      ],
      [
        "Ġgrade",
        -10.087843533334766
      ],
      [
        "Ġclinical",
        -10.08844761946716
      ],
      [
        "ĠLook",
        -10.08921261159396
      ],
      [
        "Ġconsideration",
        -10.089624483774154
      ],
      [
        "ĠCO",
        -10.090075416156328
      ],
      [
        "Ġborn",
        -10.091143793243948
      ],
      [
        "Ġnest",
        -10.091336428450774
      ],
      [
        "Ġpregnanc",
        -10.092897227386024
      ],
      [
        "Ġauto",
        -10.093557395405426
      ],
      [
        "Ġthick",
        -10.093620984922293
      ],
      [
        "Ġsenior",
        -10.094635388631104
      ],
      [
        "Ġunits",
        -10.096810415449806
      ],
      [
        "ball",
        -10.097379258076916
      ],
      [
        "Ġintake",
        -10.097510806317189
      ],
      [
        "ĠLike",
        -10.09780700576498
      ],
      [
        "Ġcreature",
        -10.099034552274142
      ],
      [
        "ĠYork",
        -10.099100695183395
      ],
      [
        "Ġmanag",
        -10.09935630746073
      ],
      [
        "Ġwheel",
        -10.099416892104973
      ],
      [
        "Ġintervention",
        -10.09954786055771
      ],
      [
        "My",
        -10.099748028234744
      ],
      [
        "Ġcolon",
        -10.100111040033974
      ],
      [
        "ĠTest",
        -10.101339350715286
      ],
      [
        "First",
        -10.101802912238709
      ],
      [
        "osis",
        -10.101971473118567
      ],
      [
        "Ġsymbol",
        -10.10221383014574
      ],
      [
        "ĠTime",
        -10.103179203029017
      ],
      [
        "Ġstrateg",
        -10.103655088889152
      ],
      [
        "Ġpainting",
        -10.104496175111562
      ],
      [
        "Ġinstallation",
        -10.104516271799538
      ],
      [
        "Ġbak",
        -10.104635004244027
      ],
      [
        "Ġorigin",
        -10.10509137033591
      ],
      [
        "Ġvs",
        -10.105091500679622
      ],
      [
        "Ġblind",
        -10.10562589123872
      ],
      [
        "Ġprofit",
        -10.105810920365036
      ],
      [
        "Ġcommunicate",
        -10.106323515416006
      ],
      [
        "Ġfail",
        -10.106458735631248
      ],
      [
        "how",
        -10.106536806012706
      ],
      [
        "Ġworry",
        -10.10660768893096
      ],
      [
        "Ġdelicious",
        -10.10703329057214
      ],
      [
        "most",
        -10.107335498255472
      ],
      [
        "Ġwhatever",
        -10.107386812133669
      ],
      [
        "Ġconfirm",
        -10.1079987214346
      ],
      [
        "Ġleak",
        -10.108020713795373
      ],
      [
        "Ġdelay",
        -10.108586729338576
      ],
      [
        "Ġpackage",
        -10.109621963412778
      ],
      [
        "Ġdi",
        -10.110282385479154
      ],
      [
        "Ġparameter",
        -10.1114856668878
      ],
      [
        "Ġfacilit",
        -10.111798627182957
      ],
      [
        "Ġfinger",
        -10.113180689124246
      ],
      [
        "ĠIndian",
        -10.113371449934814
      ],
      [
        "sium",
        -10.115226314371888
      ],
      [
        "Ġdesigne",
        -10.115245595295754
      ],
      [
        "Ġprove",
        -10.115862530839095
      ],
      [
        "Ġgold",
        -10.115987909713237
      ],
      [
        "Ġblog",
        -10.116228803485926
      ],
      [
        "Ġdimension",
        -10.116900064564655
      ],
      [
        "Ġbees",
        -10.11702546280394
      ],
      [
        "ĠCollege",
        -10.11753121766128
      ],
      [
        "Ġloop",
        -10.11774570197717
      ],
      [
        "Ġsaving",
        -10.118034590427758
      ],
      [
        "Ġparticipant",
        -10.11958643967003
      ],
      [
        "Ġalcohol",
        -10.120382948895458
      ],
      [
        "Ġchose",
        -10.120395745655212
      ],
      [
        "ng",
        -10.122506201229744
      ],
      [
        "Ġcard",
        -10.123080716133568
      ],
      [
        "Ġminimize",
        -10.124044418643113
      ],
      [
        "Ġsudden",
        -10.124346788490303
      ],
      [
        "Ġkidney",
        -10.124392383974197
      ],
      [
        "-related",
        -10.1244963824437
      ],
      [
        "ĠEvery",
        -10.125810499804055
      ],
      [
        "Ġcommand",
        -10.12617348235988
      ],
      [
        "Ġfamili",
        -10.127250403339096
      ],
      [
        "Ġroof",
        -10.127272291124596
      ],
      [
        "ĠHis",
        -10.1276151472699
      ],
      [
        "Ġvariant",
        -10.128400244164585
      ],
      [
        "U",
        -10.12889390520184
      ],
      [
        "Ġdefinite",
        -10.130032123560808
      ],
      [
        "Ġwish",
        -10.130890799071654
      ],
      [
        "Ġlab",
        -10.131335633998852
      ],
      [
        "Ġstock",
        -10.131712033431771
      ],
      [
        "ĠOver",
        -10.131772009724608
      ],
      [
        "Ġtall",
        -10.13203413716893
      ],
      [
        "Ġdetermined",
        -10.132451567630085
      ],
      [
        "Ġappeal",
        -10.132582425798834
      ],
      [
        "Ġradio",
        -10.132639419551884
      ],
      [
        "rice",
        -10.132812635213146
      ],
      [
        "ought",
        -10.133169949996962
      ],
      [
        "Ġobjective",
        -10.1337979513808
      ],
      [
        "Ġseven",
        -10.133863533032264
      ],
      [
        "ĠData",
        -10.134939955967557
      ],
      [
        "Ġformat",
        -10.137841419589485
      ],
      [
        "Ġdistinct",
        -10.138010858967313
      ],
      [
        "ĠAugust",
        -10.140230564774177
      ],
      [
        "Ġversatil",
        -10.141304457707944
      ],
      [
        "Ġdiagram",
        -10.141398455860552
      ],
      [
        "Ġextensive",
        -10.141771547493864
      ],
      [
        "Ġwound",
        -10.141910772495969
      ],
      [
        "ĠJanu",
        -10.142351531222513
      ],
      [
        "Ġpermanent",
        -10.14293096455293
      ],
      [
        "Ġsizes",
        -10.143531479591148
      ],
      [
        "Ġprofile",
        -10.144921285450897
      ],
      [
        "Ġsurprise",
        -10.145173513714427
      ],
      [
        "According",
        -10.145486656755748
      ],
      [
        "Ġinternet",
        -10.145887413676174
      ],
      [
        "Ġimplement",
        -10.145973631666752
      ],
      [
        "-time",
        -10.146656485864153
      ],
      [
        "Ġbillion",
        -10.14766645341765
      ],
      [
        "ĠSea",
        -10.148659243642836
      ],
      [
        "Ġvessel",
        -10.150347667731117
      ],
      [
        "Ġprior",
        -10.15055496302211
      ],
      [
        "Ġfarmers",
        -10.15094710562508
      ],
      [
        "Ġlake",
        -10.15214615046757
      ],
      [
        "ĠHome",
        -10.15263507725192
      ],
      [
        "Ġcultural",
        -10.153298696851875
      ],
      [
        "ĠWhere",
        -10.153731831732696
      ],
      [
        "Ġgenerator",
        -10.15414827896498
      ],
      [
        "Ġmanager",
        -10.15429059365827
      ],
      [
        "ĠY",
        -10.15433604307329
      ],
      [
        "Ġfear",
        -10.154722889378045
      ],
      [
        "ĠPark",
        -10.154985689305835
      ],
      [
        "Ġguy",
        -10.155141150642397
      ],
      [
        "OVID",
        -10.155921685503989
      ],
      [
        "Ġfundamental",
        -10.15601642484253
      ],
      [
        "Ġsolve",
        -10.15640359134458
      ],
      [
        "Ġdedicate",
        -10.156892099178664
      ],
      [
        "Ġaccident",
        -10.157939467632431
      ],
      [
        "Ġfoster",
        -10.158469417523676
      ],
      [
        "Ġrandom",
        -10.158910580949096
      ],
      [
        "Ġrabbit",
        -10.159290399561112
      ],
      [
        "ĠJohn",
        -10.15950882883232
      ],
      [
        "Ġtea",
        -10.159774929535654
      ],
      [
        "Ġwindows",
        -10.160739626415644
      ],
      [
        "Ġscenario",
        -10.162602078890654
      ],
      [
        "Ġauthorit",
        -10.1634095721929
      ],
      [
        "Ġyield",
        -10.163690629192692
      ],
      [
        "Ġdomain",
        -10.163968160977404
      ],
      [
        "Ġshoes",
        -10.166612214156569
      ],
      [
        "Ġwoman",
        -10.166979439373916
      ],
      [
        "Ġinsulin",
        -10.167310472480576
      ],
      [
        "Ġrealit",
        -10.16740262872949
      ],
      [
        "Ġquantit",
        -10.167453946495574
      ],
      [
        "Ġderive",
        -10.1675515813571
      ],
      [
        "Ġpreparation",
        -10.1678174963265
      ],
      [
        "Ġcoal",
        -10.169309044197831
      ],
      [
        "Ġwet",
        -10.169783909888402
      ],
      [
        "iness",
        -10.171792277921886
      ],
      [
        "Ġjump",
        -10.171930910133415
      ],
      [
        "Ġpond",
        -10.172295142446709
      ],
      [
        "|Ċ",
        -10.172729305280246
      ],
      [
        "ĠInternational",
        -10.173519286620763
      ],
      [
        "men",
        -10.174463662777184
      ],
      [
        "Ġestablish",
        -10.174970399758042
      ],
      [
        "Ġbill",
        -10.175830165750412
      ],
      [
        "Ġnation",
        -10.175857740651551
      ],
      [
        "ĠPower",
        -10.17636432504543
      ],
      [
        "Ġbeauty",
        -10.176424108727126
      ],
      [
        "Ġbrief",
        -10.176859164356694
      ],
      [
        "Ġbean",
        -10.177319389999834
      ],
      [
        "Ġobservation",
        -10.177342259057976
      ],
      [
        "--",
        -10.177426507436664
      ],
      [
        "Ġinner",
        -10.177547480061977
      ],
      [
        "Ġlimestone",
        -10.180390076739744
      ],
      [
        "Ġrespirator",
        -10.181143025695407
      ],
      [
        "Ġpowder",
        -10.18140852813257
      ],
      [
        "Ġnail",
        -10.18154198600293
      ],
      [
        "Ġmission",
        -10.182083507564853
      ],
      [
        "Ġmechanical",
        -10.183008063185554
      ],
      [
        "dogs",
        -10.183876937919552
      ],
      [
        "Ġmobile",
        -10.184114738166576
      ],
      [
        "itis",
        -10.185159110575077
      ],
      [
        "Ġmolecular",
        -10.185277767842472
      ],
      [
        "Ġbloom",
        -10.185363572976645
      ],
      [
        "Ġopening",
        -10.186168251313848
      ],
      [
        "Ġcircle",
        -10.187020676410068
      ],
      [
        "Ġsmoke",
        -10.187124705331946
      ],
      [
        "Ġherb",
        -10.187907316426733
      ],
      [
        "Ġsharp",
        -10.188083124619505
      ],
      [
        "Ġscore",
        -10.188086793653914
      ],
      [
        "Ġdestroy",
        -10.188205845406005
      ],
      [
        "ĠCount",
        -10.188543779179716
      ],
      [
        "ĠChoos",
        -10.18897142912505
      ],
      [
        "Let",
        -10.190073449038405
      ],
      [
        "Ġevaluate",
        -10.190490950064232
      ],
      [
        "Ġplug",
        -10.190624017906618
      ],
      [
        "spent",
        -10.190879589961575
      ],
      [
        "Ġcampaign",
        -10.192947394357128
      ],
      [
        "Ġsauce",
        -10.19317405323978
      ],
      [
        "not",
        -10.193630636486525
      ],
      [
        "Ġjournal",
        -10.194316525588178
      ],
      [
        "Ġcalci",
        -10.194880783953504
      ],
      [
        "ĠAustralian",
        -10.1959956104701
      ],
      [
        "Ġbite",
        -10.19631967982016
      ],
      [
        "Ġpredator",
        -10.196377211832376
      ],
      [
        "ĠTechnolog",
        -10.196389857893664
      ],
      [
        "ĠGet",
        -10.19639269694276
      ],
      [
        "Ġfloat",
        -10.196524192600428
      ],
      [
        "Ġtooth",
        -10.19661412222074
      ],
      [
        "ĠAfrican",
        -10.196972767192364
      ],
      [
        "Ġwouldn",
        -10.197184457406715
      ],
      [
        "ĠAbou",
        -10.19772514411833
      ],
      [
        "Ġstring",
        -10.19931012943944
      ],
      [
        "upon",
        -10.199348781945602
      ],
      [
        "Ġgirl",
        -10.199616884335349
      ],
      [
        "Ġencounter",
        -10.20042298070577
      ],
      [
        "Ġinnovative",
        -10.200578903255185
      ],
      [
        "Ġillustrate",
        -10.201287970926415
      ],
      [
        "Ġimagine",
        -10.201529504133507
      ],
      [
        "Ġflood",
        -10.201684089940988
      ],
      [
        "Ġassembl",
        -10.20183194661179
      ],
      [
        "Ġadequate",
        -10.202335375626282
      ],
      [
        "Ġshowing",
        -10.203092647968395
      ],
      [
        "Ġrestaurant",
        -10.203562522200212
      ],
      [
        "going",
        -10.20361213154516
      ],
      [
        "Ġradiation",
        -10.204328607188746
      ],
      [
        "Ġdatabase",
        -10.204563902629925
      ],
      [
        "Ġpan",
        -10.205352601486474
      ],
      [
        "Ġbroad",
        -10.205999274033118
      ],
      [
        "Ġcurve",
        -10.206160834628852
      ],
      [
        "Ġcooked",
        -10.206593191583554
      ],
      [
        "Ġloose",
        -10.206786711827837
      ],
      [
        "Ġthrive",
        -10.207309586348774
      ],
      [
        "Ġshrub",
        -10.208213292738476
      ],
      [
        "Ġcollected",
        -10.20857411044678
      ],
      [
        "Ġdesigner",
        -10.209767677990396
      ],
      [
        "Ġsupplement",
        -10.210973155771248
      ],
      [
        "ĠWar",
        -10.211094830700144
      ],
      [
        "Ġvarie",
        -10.21144511349937
      ],
      [
        "Ġcraft",
        -10.211846234706652
      ],
      [
        "Ġshell",
        -10.2124202362832
      ],
      [
        "Ġedit",
        -10.213510877740177
      ],
      [
        "Ġunlike",
        -10.214272997442114
      ],
      [
        "Ġmelt",
        -10.214846491753027
      ],
      [
        "Ġconsult",
        -10.215218479947204
      ],
      [
        "Ġthermal",
        -10.216353450537603
      ],
      [
        "Ġclub",
        -10.216883259829135
      ],
      [
        "Ġsport",
        -10.217844586163803
      ],
      [
        "Ġanalyze",
        -10.218082712972915
      ],
      [
        "Ġkg",
        -10.21825875643176
      ],
      [
        "Ġinvest",
        -10.218950999087353
      ],
      [
        "Ġbarrier",
        -10.218997100816257
      ],
      [
        "Ġfeedback",
        -10.219220159978438
      ],
      [
        "Ġtoxic",
        -10.219623523509998
      ],
      [
        "Ġexhibit",
        -10.221392844974527
      ],
      [
        "Children",
        -10.221455744016126
      ],
      [
        "Ġtraffic",
        -10.221645214888593
      ],
      [
        "Ġcalm",
        -10.222253269040106
      ],
      [
        "Ġrecorded",
        -10.22234383770497
      ],
      [
        "tability",
        -10.222780767321105
      ],
      [
        "Ġsmell",
        -10.222833029136565
      ],
      [
        "Ġcontrolle",
        -10.2231422478775
      ],
      [
        "Ġdust",
        -10.224648007007453
      ],
      [
        "Ġprey",
        -10.224768850869632
      ],
      [
        "Ġbank",
        -10.225462164512196
      ],
      [
        "Ġprofessor",
        -10.226128149693723
      ],
      [
        "twic",
        -10.227029256617904
      ],
      [
        "diversity",
        -10.227232944490098
      ],
      [
        "ial",
        -10.227478501932966
      ],
      [
        "Ġabsolute",
        -10.22752437511774
      ],
      [
        "Ġvisitor",
        -10.228200534433778
      ],
      [
        "Ġobes",
        -10.228688016133797
      ],
      [
        "ĠCheck",
        -10.229107129063683
      ],
      [
        "Ġliver",
        -10.230511885611222
      ],
      [
        "ĠAsia",
        -10.231097429674218
      ],
      [
        "Ġfertilizer",
        -10.231764879308352
      ],
      [
        "Ġexciting",
        -10.232813905686214
      ],
      [
        "Ġcalculation",
        -10.233609341362468
      ],
      [
        "Ġcharging",
        -10.234110803079648
      ],
      [
        "Ġaudience",
        -10.235527275646614
      ],
      [
        "Ġpassenger",
        -10.235834474149696
      ],
      [
        "Ġsecret",
        -10.236079457247447
      ],
      [
        "Ġamazing",
        -10.23642975367209
      ],
      [
        "Ġinterior",
        -10.23652490147175
      ],
      [
        "Ġrecommendation",
        -10.236623912235988
      ],
      [
        "Ġinterface",
        -10.237421789831997
      ],
      [
        "Ġdebri",
        -10.2378363121484
      ],
      [
        "Ġarray",
        -10.238477011673975
      ],
      [
        "Ġformula",
        -10.238907758028711
      ],
      [
        "ĠSan",
        -10.24014931452666
      ],
      [
        "Ġroute",
        -10.240345660820996
      ],
      [
        "Ġpropose",
        -10.240354991206663
      ],
      [
        "#",
        -10.240389535660409
      ],
      [
        "Ġblade",
        -10.240962048893651
      ],
      [
        "Ġdream",
        -10.241009481252412
      ],
      [
        "Ġvast",
        -10.241268759675751
      ],
      [
        "Ġlay",
        -10.242279644585864
      ],
      [
        "Ġguess",
        -10.243355965849016
      ],
      [
        "Ġpure",
        -10.24346033983317
      ],
      [
        "ssistance",
        -10.243903167998749
      ],
      [
        "Ġconfiden",
        -10.245798068292856
      ],
      [
        "Ġparticipate",
        -10.246345704386464
      ],
      [
        "he",
        -10.246517009339277
      ],
      [
        "Ġvector",
        -10.246644680656155
      ],
      [
        "Ġwhe",
        -10.246659097538144
      ],
      [
        "Ġpreserve",
        -10.247088932573996
      ],
      [
        "Ġcontrast",
        -10.247350337616243
      ],
      [
        "Ġmassive",
        -10.24741386236236
      ],
      [
        "ĠLearning",
        -10.249365878358962
      ],
      [
        "Introduction",
        -10.2498324074337
      ],
      [
        "ways",
        -10.24986512059979
      ],
      [
        "Ġflour",
        -10.249938418101758
      ],
      [
        "Ġtip",
        -10.250445940605228
      ],
      [
        "Ġprompt",
        -10.250936348817392
      ],
      [
        "Ġwearing",
        -10.251215484596376
      ],
      [
        "Ġcombined",
        -10.251616374085955
      ],
      [
        "Ġexplor",
        -10.251811719641214
      ],
      [
        "Ġremoval",
        -10.252130117393689
      ],
      [
        "ĠAny",
        -10.253470646602002
      ],
      [
        "Ġcertainly",
        -10.25383952333993
      ],
      [
        "ĠTake",
        -10.254029978004782
      ],
      [
        "Ġhunt",
        -10.254673139531338
      ],
      [
        "Ġmild",
        -10.25506505566856
      ],
      [
        "Ġsuit",
        -10.255361602190192
      ],
      [
        "eath",
        -10.25545314744362
      ],
      [
        "Ġcontrolling",
        -10.255919921689417
      ],
      [
        "Ġpeak",
        -10.256504552734802
      ],
      [
        "Ġforget",
        -10.25736535448988
      ],
      [
        "ĠEast",
        -10.257513364960603
      ],
      [
        "Since",
        -10.257780233758163
      ],
      [
        "adding",
        -10.257860315687708
      ],
      [
        "Ġbug",
        -10.259408847869118
      ],
      [
        "ĠGood",
        -10.259784355428057
      ],
      [
        "Ġpictures",
        -10.25989272355445
      ],
      [
        "ĠWhite",
        -10.259987264538792
      ],
      [
        "Ġexplanation",
        -10.26010355609638
      ],
      [
        "Ġgradual",
        -10.26073891581596
      ],
      [
        "Ġshar",
        -10.26189324452974
      ],
      [
        "hunting",
        -10.262150850528808
      ],
      [
        "Ġaircraft",
        -10.262232771070128
      ],
      [
        "ĠpH",
        -10.262610910348112
      ],
      [
        "Ġmoral",
        -10.263593565059086
      ],
      [
        "ĠRemember",
        -10.264015815102669
      ],
      [
        "Ġyard",
        -10.264133198398136
      ],
      [
        "Ġfreeze",
        -10.264991749149484
      ],
      [
        "Ġnose",
        -10.265181334835848
      ],
      [
        "Ġboil",
        -10.265190620789683
      ],
      [
        "Ġsouthern",
        -10.265565358025524
      ],
      [
        "ĠBoth",
        -10.26591039338718
      ],
      [
        "Ġscene",
        -10.266500167040732
      ],
      [
        "Ġacademic",
        -10.266735921908758
      ],
      [
        "âĢĺ",
        -10.26732107343502
      ],
      [
        "Ġhistorical",
        -10.268044504888222
      ],
      [
        "ĠIsland",
        -10.268707243783457
      ],
      [
        "Ġpages",
        -10.268797110891832
      ],
      [
        "Ġstreet",
        -10.26975769184872
      ],
      [
        "Ġrecognition",
        -10.26986411235223
      ],
      [
        "Ġattach",
        -10.272350479059098
      ],
      [
        "Ġworse",
        -10.273274752391584
      ],
      [
        "Ġrely",
        -10.273619229774628
      ],
      [
        "Ġcorn",
        -10.274175436619448
      ],
      [
        "Ġcomplication",
        -10.274424425441753
      ],
      [
        "Ġlb",
        -10.27463994025038
      ],
      [
        "Ġaccessib",
        -10.274967420717475
      ],
      [
        "Ġwonder",
        -10.27501202168098
      ],
      [
        "ĠAssociation",
        -10.27502626690798
      ],
      [
        "Ġchronic",
        -10.2751094822672
      ],
      [
        "Ġrace",
        -10.276473073184786
      ],
      [
        "ĠLife",
        -10.277054908481366
      ],
      [
        "ĠGarden",
        -10.27766943170572
      ],
      [
        "Ġmining",
        -10.278823761248356
      ],
      [
        "Ġstar",
        -10.278943425014614
      ],
      [
        "Ġrural",
        -10.2793234170259
      ],
      [
        "Ġmeasuring",
        -10.2793249086119
      ],
      [
        "ĠConsider",
        -10.279640377137444
      ],
      [
        "Ġwonderful",
        -10.27967828521592
      ],
      [
        "Ġactivit",
        -10.280078972474374
      ],
      [
        "Ġsexual",
        -10.28068260009779
      ],
      [
        "ĠSilver",
        -10.2807379552853
      ],
      [
        "ier",
        -10.281364488027885
      ],
      [
        "Ġfelt",
        -10.282139947474205
      ],
      [
        "Ġoral",
        -10.283112404854386
      ],
      [
        "Ġmilitary",
        -10.284613039888852
      ],
      [
        "Ġchapter",
        -10.2849528173136
      ],
      [
        "Ġsurvival",
        -10.28501759437292
      ],
      [
        "Ġinflammation",
        -10.285260138146416
      ],
      [
        "Ġorange",
        -10.28531575454297
      ],
      [
        "Ġtwist",
        -10.285448178198084
      ],
      [
        "Ġheater",
        -10.287054316161925
      ],
      [
        "ch",
        -10.28767575611488
      ],
      [
        "Ġinfrastructure",
        -10.289205099305164
      ],
      [
        "Ġraw",
        -10.28947983791068
      ],
      [
        "ĠAdd",
        -10.289537635939444
      ],
      [
        "Ġtrouble",
        -10.289796843345371
      ],
      [
        "ver",
        -10.289805013037302
      ],
      [
        "Ġrespective",
        -10.290920024105915
      ],
      [
        "Ġrecords",
        -10.292106793573618
      ],
      [
        "ĠOctober",
        -10.292478922554391
      ],
      [
        "ĠUV",
        -10.29309160184684
      ],
      [
        "Ġbridge",
        -10.29323887308488
      ],
      [
        "Ġadopt",
        -10.294099188964166
      ],
      [
        "Ġfan",
        -10.29432710148271
      ],
      [
        "Ġexcess",
        -10.295028639649594
      ],
      [
        "Ġhydrogen",
        -10.295578205690695
      ],
      [
        "wimming",
        -10.296715545633612
      ],
      [
        "ĠHuman",
        -10.297161017033044
      ],
      [
        "Ġincome",
        -10.297293083499913
      ],
      [
        "Ġstrip",
        -10.297505381216457
      ],
      [
        "Ġnutrition",
        -10.29766230195657
      ],
      [
        "Ġhighes",
        -10.298640244932828
      ],
      [
        "from",
        -10.29874245368057
      ],
      [
        "Ġplayed",
        -10.299207710391876
      ],
      [
        "Ġreward",
        -10.299336695575692
      ],
      [
        "Ġuniversity",
        -10.299461228455732
      ],
      [
        "ĠGuide",
        -10.29998527955393
      ],
      [
        "Ġthanks",
        -10.301379206399758
      ],
      [
        "Ġinsert",
        -10.301776155291336
      ],
      [
        "Be",
        -10.302817757019112
      ],
      [
        "||",
        -10.30293017084257
      ],
      [
        "Ġapproache",
        -10.303423272942684
      ],
      [
        "Ġcrushing",
        -10.303823546721194
      ],
      [
        "Ġcopy",
        -10.30481459425132
      ],
      [
        "ĠSociety",
        -10.305013015202944
      ],
      [
        "Ġvacuum",
        -10.305187880448534
      ],
      [
        "Ġgun",
        -10.305476059335833
      ],
      [
        "Ġvegan",
        -10.305631763596942
      ],
      [
        "ĠOpen",
        -10.306331689309737
      ],
      [
        "Ġelectrons",
        -10.30737774478784
      ],
      [
        "Ġgenome",
        -10.308118968818173
      ],
      [
        "Ġboy",
        -10.308124098872298
      ],
      [
        "Ġurban",
        -10.308456457399831
      ],
      [
        "Ġallerg",
        -10.3086741590685
      ],
      [
        "ĠTV",
        -10.30955796403336
      ],
      [
        "Ġnorthern",
        -10.30975106637581
      ],
      [
        "Ġdye",
        -10.30987678439826
      ],
      [
        "Ġshop",
        -10.31017013114912
      ],
      [
        "Ġalumin",
        -10.310442608472252
      ],
      [
        "Ġorganize",
        -10.310595457990145
      ],
      [
        "Ġpackag",
        -10.312819192139187
      ],
      [
        "He",
        -10.313026198906751
      ],
      [
        "Ġwash",
        -10.313489904495846
      ],
      [
        "Ġveterinarian",
        -10.3142053384433
      ],
      [
        "Ġbehaviour",
        -10.31515629356106
      ],
      [
        "Ġ\\",
        -10.31544770777066
      ],
      [
        "Ġspin",
        -10.31569056447194
      ],
      [
        "ard",
        -10.315939893118188
      ],
      [
        "Ġintroduction",
        -10.316088841758756
      ],
      [
        "ĠClean",
        -10.316284931890358
      ],
      [
        "Ġalter",
        -10.316423779467211
      ],
      [
        "Ġshapes",
        -10.316607459749978
      ],
      [
        "Ġvet",
        -10.316851500292556
      ],
      [
        "Ġport",
        -10.317052776187564
      ],
      [
        "Ġsong",
        -10.317420228091333
      ],
      [
        "Ġhousehold",
        -10.318161645547104
      ],
      [
        "Ġlimite",
        -10.319112678143629
      ],
      [
        "ĠBay",
        -10.31954306005528
      ],
      [
        "Ġdepression",
        -10.32002271423518
      ],
      [
        "Ġperiods",
        -10.32040114893266
      ],
      [
        "Ġgraph",
        -10.32084200961084
      ],
      [
        "Ġcomput",
        -10.32096865162217
      ],
      [
        "Ġtransportation",
        -10.32100968532678
      ],
      [
        "j",
        -10.32147731894457
      ],
      [
        "Ġphysics",
        -10.323262244298434
      ],
      [
        "Ġextract",
        -10.323263759958635
      ],
      [
        "Ġminimal",
        -10.323374335612492
      ],
      [
        "Ġappreciate",
        -10.323845251474534
      ],
      [
        "Ġcash",
        -10.324762140740413
      ],
      [
        "ĠThrough",
        -10.325764320671537
      ],
      [
        "ĠControl",
        -10.325905209281888
      ],
      [
        "Ġagricultural",
        -10.32628760870682
      ],
      [
        "Ġcord",
        -10.326425799371169
      ],
      [
        "Ġjuice",
        -10.326650778414868
      ],
      [
        "Ġdistribute",
        -10.326794682528618
      ],
      [
        "Ġpasta",
        -10.32695786216529
      ],
      [
        "Ġcomposition",
        -10.32710640676469
      ],
      [
        "ĠAnimal",
        -10.32728496323628
      ],
      [
        "Ġlaborator",
        -10.327358397824977
      ],
      [
        "Ġpro",
        -10.32816464007809
      ],
      [
        "Ġcorner",
        -10.328283822330128
      ],
      [
        "Ġpop",
        -10.328578675891032
      ],
      [
        "Ġnet",
        -10.328684269190628
      ],
      [
        "Ġshock",
        -10.329203868216345
      ],
      [
        "Ġsession",
        -10.329450870386973
      ],
      [
        "Ġagriculture",
        -10.32999769668868
      ],
      [
        "Ġdioxide",
        -10.33033839704332
      ],
      [
        "Ġdentist",
        -10.330769506705591
      ],
      [
        "Ġarrangement",
        -10.33086983352157
      ],
      [
        "Ġsides",
        -10.331218240404487
      ],
      [
        "Ġembodiment",
        -10.333438447879272
      ],
      [
        "ĠInformation",
        -10.333711597185722
      ],
      [
        "Ġlicense",
        -10.333740793242011
      ],
      [
        "ĠPM",
        -10.334169801467866
      ],
      [
        "Ġfamiliar",
        -10.334411165714968
      ],
      [
        "ĠDevelopment",
        -10.334835951226491
      ],
      [
        "ĠCity",
        -10.3350254781985
      ],
      [
        "Ġrow",
        -10.335161529633597
      ],
      [
        "Ġmoth",
        -10.335266047164534
      ],
      [
        "Ġweigh",
        -10.335948463119433
      ],
      [
        "Ġscrew",
        -10.336405698641236
      ],
      [
        "Ġcluster",
        -10.337174995015587
      ],
      [
        "all",
        -10.337558494697934
      ],
      [
        "Ġstroke",
        -10.337626586805342
      ],
      [
        "Ġsew",
        -10.339190449734591
      ],
      [
        "Ġexperienc",
        -10.339416000361496
      ],
      [
        "Ġgraduate",
        -10.33955853122369
      ],
      [
        "gave",
        -10.341439797231123
      ],
      [
        "Ġaccurac",
        -10.341733850441823
      ],
      [
        "Ġdurable",
        -10.34174800856536
      ],
      [
        "Ġbus",
        -10.341767959341116
      ],
      [
        "Ġturning",
        -10.343805665780868
      ],
      [
        "Ġvertical",
        -10.344116908187477
      ],
      [
        "Ġintegrate",
        -10.34582856566375
      ],
      [
        "Ġinteractive",
        -10.345865764062776
      ],
      [
        "Ġdrill",
        -10.34628900158891
      ],
      [
        "Don",
        -10.346682183663832
      ],
      [
        "Ġuniverse",
        -10.346704434988208
      ],
      [
        "Ġbabie",
        -10.34671480745106
      ],
      [
        "Ġcustom",
        -10.34733739883374
      ],
      [
        "Ġfamous",
        -10.34765287753837
      ],
      [
        "ĠKnow",
        -10.347899291999983
      ],
      [
        "Final",
        -10.348386488417862
      ],
      [
        "Ġlunch",
        -10.348890928320284
      ],
      [
        "Ġbranche",
        -10.34932878128189
      ],
      [
        "Ġminute",
        -10.350611070930722
      ],
      [
        "her",
        -10.350700913151808
      ],
      [
        "Ġaesthetic",
        -10.350940671973635
      ],
      [
        "Ġcommitment",
        -10.351345246955086
      ],
      [
        "stream",
        -10.351461232566972
      ],
      [
        "weight",
        -10.351465206783914
      ],
      [
        "Ġtrait",
        -10.352349114196148
      ],
      [
        "Ġstrengthen",
        -10.352610068258045
      ],
      [
        "Ġdischarge",
        -10.353245810301944
      ],
      [
        "ĠUn",
        -10.353434404511306
      ],
      [
        "Ġmeant",
        -10.353469885012256
      ],
      [
        "(b",
        -10.353672523540926
      ],
      [
        "Ġtie",
        -10.35403821543052
      ],
      [
        "ĠTexa",
        -10.35413201859252
      ],
      [
        "Ġborder",
        -10.354317630627907
      ],
      [
        "Ġeconom",
        -10.354524874463056
      ],
      [
        "Ġthoughts",
        -10.354668723924044
      ],
      [
        "ible",
        -10.354684501718936
      ],
      [
        "Ġgut",
        -10.35482412425972
      ],
      [
        "ĠBlack",
        -10.354884084963912
      ],
      [
        "Ġretain",
        -10.35512604018432
      ],
      [
        "Ġsuspect",
        -10.355973122011262
      ],
      [
        "Ġdisaster",
        -10.356053862606974
      ],
      [
        "right",
        -10.35659403487906
      ],
      [
        "Ġmanner",
        -10.356901742248237
      ],
      [
        "Ġinspection",
        -10.357018055583296
      ],
      [
        "Ġbreast",
        -10.357157491144054
      ],
      [
        "rapy",
        -10.357928633450676
      ],
      [
        "Ġstanding",
        -10.358346384483353
      ],
      [
        "Ġrestrict",
        -10.35915961652342
      ],
      [
        "you",
        -10.360567969119236
      ],
      [
        "Ġgrant",
        -10.36145881080249
      ],
      [
        "Ġindex",
        -10.361540158266898
      ],
      [
        "Ġquantum",
        -10.36197655503798
      ],
      [
        "no",
        -10.362324598238924
      ],
      [
        "Ġcentre",
        -10.363008137627869
      ],
      [
        "Ġtradition",
        -10.36317613614388
      ],
      [
        "ĠWild",
        -10.363504954263306
      ],
      [
        "...Ċ",
        -10.363615898789158
      ],
      [
        "Ġmutation",
        -10.363883402819456
      ],
      [
        "Ġexcept",
        -10.364485625043876
      ],
      [
        "Ġsex",
        -10.365407738156796
      ],
      [
        "ate",
        -10.36556338159008
      ],
      [
        "Ġrenewable",
        -10.365643566619864
      ],
      [
        "Ġgraphic",
        -10.366144558688193
      ],
      [
        "Ġinitiative",
        -10.367124212564786
      ],
      [
        "Ġcognitive",
        -10.369198061317547
      ],
      [
        "Dur",
        -10.369300644325229
      ],
      [
        "Ġinstitution",
        -10.36996840597342
      ],
      [
        "ivity",
        -10.370074720989368
      ],
      [
        "Ġregulate",
        -10.371052157818196
      ],
      [
        "Ġfacilitate",
        -10.371078663294549
      ],
      [
        "Ġtough",
        -10.371788034071969
      ],
      [
        "Ġexcited",
        -10.371946326798165
      ],
      [
        "History",
        -10.372250946250151
      ],
      [
        "Ġparty",
        -10.372375928898482
      ],
      [
        "Ġcontract",
        -10.37305964437363
      ],
      [
        "ĠEngland",
        -10.373390145943382
      ],
      [
        "Ġopposite",
        -10.373406667899287
      ],
      [
        "Ġtrend",
        -10.373682825546329
      ],
      [
        "Ġdeer",
        -10.374207295052944
      ],
      [
        "Ġsessions",
        -10.374254950245582
      ],
      [
        "Ġconfiguration",
        -10.374505170492256
      ],
      [
        "Ġconsumers",
        -10.374808877709448
      ],
      [
        "Ġspots",
        -10.375100337859362
      ],
      [
        "Ġactivate",
        -10.375312804090695
      ],
      [
        "Ġpartial",
        -10.375853630414852
      ],
      [
        "gone",
        -10.37627016793328
      ],
      [
        "Ġcurriculum",
        -10.377543302877388
      ],
      [
        "Ġworkshop",
        -10.377904581527716
      ],
      [
        "ĠCommon",
        -10.37796563912258
      ],
      [
        "ification",
        -10.378108906770716
      ],
      [
        "Ġthreaten",
        -10.378738761402635
      ],
      [
        "Ġjoint",
        -10.378778164534124
      ],
      [
        "Ġhip",
        -10.379422867855466
      ],
      [
        "idden",
        -10.381426573433188
      ],
      [
        "ĠDe",
        -10.382014649446544
      ],
      [
        "Ġlisten",
        -10.382117255107104
      ],
      [
        "Ġpractitioner",
        -10.383001555419192
      ],
      [
        "Where",
        -10.383367460115457
      ],
      [
        "Ġkitten",
        -10.38366039065684
      ],
      [
        "Ġconsum",
        -10.383973148514071
      ],
      [
        "Ġequipp",
        -10.384025627758891
      ],
      [
        "Other",
        -10.384852918264404
      ],
      [
        "Ġdetection",
        -10.385478852717291
      ],
      [
        "Ġinspire",
        -10.386102875764898
      ],
      [
        "Ġconditioner",
        -10.387258012995852
      ],
      [
        "ĠNatural",
        -10.38729065351008
      ],
      [
        "Ġcontinu",
        -10.387919426659264
      ],
      [
        "Ġcollaboration",
        -10.388860372078328
      ],
      [
        "Ġcolumn",
        -10.38897966861713
      ],
      [
        "ĠFish",
        -10.389568390173167
      ],
      [
        "-on",
        -10.390086438124808
      ],
      [
        "]Ċ",
        -10.390622021310882
      ],
      [
        "Not",
        -10.391784156978026
      ],
      [
        "ĠProgram",
        -10.392354767785235
      ],
      [
        "Ġpresentation",
        -10.392509309311484
      ],
      [
        "Ġluck",
        -10.392857956644391
      ],
      [
        ".âĢĿ",
        -10.393206242442185
      ],
      [
        "Ġholes",
        -10.39345988650694
      ],
      [
        "ĠSee",
        -10.39387350148485
      ],
      [
        "Add",
        -10.394247102355122
      ],
      [
        "Ġblow",
        -10.395199377639738
      ],
      [
        "}",
        -10.395305359502956
      ],
      [
        "Ġdinosaur",
        -10.395370890957455
      ],
      [
        "Ġmammal",
        -10.395526451649951
      ],
      [
        "Ġaward",
        -10.395747456535794
      ],
      [
        "while",
        -10.395881086872908
      ],
      [
        "\\",
        -10.396229935804037
      ],
      [
        "ĠRight",
        -10.396931090320184
      ],
      [
        "Ġride",
        -10.397036009097558
      ],
      [
        "Ġwarning",
        -10.397135215807214
      ],
      [
        "ĠToday",
        -10.39732177948306
      ],
      [
        "Ġsoup",
        -10.397344402188953
      ],
      [
        "Ġdiagnose",
        -10.397449826451616
      ],
      [
        "Ġmicro",
        -10.397796850186324
      ],
      [
        "Ġhabits",
        -10.398752755242947
      ],
      [
        "Ġweapon",
        -10.39987736708856
      ],
      [
        "ĠII",
        -10.400069987157964
      ],
      [
        "Ġpartner",
        -10.401558001208285
      ],
      [
        "Ġconvenient",
        -10.402121389999394
      ],
      [
        "ĠGo",
        -10.402547626418382
      ],
      [
        "Unfortunatel",
        -10.403185946725362
      ],
      [
        "Ġtrauma",
        -10.403664998984636
      ],
      [
        "Ġbiolog",
        -10.403810861898233
      ],
      [
        "Ġpolitical",
        -10.404347973003553
      ],
      [
        "Ġcapital",
        -10.40484617979753
      ],
      [
        "Ġjobs",
        -10.40485358725756
      ],
      [
        "Ġleads",
        -10.404942717280305
      ],
      [
        "Ġmark",
        -10.405185231937605
      ],
      [
        "Ġsold",
        -10.405642668147111
      ],
      [
        "stock",
        -10.406122391982418
      ],
      [
        "cellular",
        -10.40612593415447
      ],
      [
        "Ġunusual",
        -10.406530862981697
      ],
      [
        "ĠFoundation",
        -10.406532031413622
      ],
      [
        "Ġdecay",
        -10.406825641694024
      ],
      [
        "ĠPlan",
        -10.406835059787264
      ],
      [
        "Ġcent",
        -10.407186900188728
      ],
      [
        "nstead",
        -10.40760408902536
      ],
      [
        "aking",
        -10.40789516348992
      ],
      [
        "Ġimpossibl",
        -10.408119498568702
      ],
      [
        "Ġentry",
        -10.409416414675771
      ],
      [
        "ĠTwo",
        -10.409982110423922
      ],
      [
        "Ġplus",
        -10.41006759488427
      ],
      [
        "Ġsuffering",
        -10.410496905967111
      ],
      [
        "Ġpotatoes",
        -10.410953088847588
      ],
      [
        "Ġacids",
        -10.411111588428277
      ],
      [
        "Ġdur",
        -10.411336532673232
      ],
      [
        "Ġgland",
        -10.411539942315958
      ],
      [
        "ling",
        -10.411793066343646
      ],
      [
        "ĠMexic",
        -10.412165746799523
      ],
      [
        "Ġlights",
        -10.412349250391769
      ],
      [
        "Ġshark",
        -10.412459594173743
      ],
      [
        "Ġnarrow",
        -10.412813733461904
      ],
      [
        "Ġconflict",
        -10.413432715631751
      ],
      [
        "Ġnorth",
        -10.413518010855974
      ],
      [
        "Ġpossibly",
        -10.41387058236156
      ],
      [
        "\"We",
        -10.413905124957529
      ],
      [
        "ĠPleas",
        -10.414081036667806
      ],
      [
        "Ġhomes",
        -10.414422989027772
      ],
      [
        "ĠProject",
        -10.415484876261818
      ],
      [
        "Ġbinding",
        -10.415898436276755
      ],
      [
        "{",
        -10.415998392146436
      ],
      [
        "Ġscar",
        -10.417246062453332
      ],
      [
        "Ġcombine",
        -10.41744189933842
      ],
      [
        "Ġcontaining",
        -10.41775934890463
      ],
      [
        "Ġstands",
        -10.417928805132192
      ],
      [
        "Ġsimulation",
        -10.4179604525558
      ],
      [
        "Ġfold",
        -10.41949875472918
      ],
      [
        "Ġkne",
        -10.41959923823374
      ],
      [
        "lines",
        -10.41963629397663
      ],
      [
        "-of",
        -10.419711148905662
      ],
      [
        "Ġgrid",
        -10.420376926600635
      ],
      [
        "ions",
        -10.420556310732064
      ],
      [
        "ĠFree",
        -10.420977864328444
      ],
      [
        "Ġarrive",
        -10.420994412922022
      ],
      [
        "ether",
        -10.421712967697056
      ],
      [
        "Ġtrial",
        -10.422142311325466
      ],
      [
        "Ġmetals",
        -10.422170676496629
      ],
      [
        "Ġshelter",
        -10.42269911254331
      ],
      [
        "Ġturns",
        -10.42294930817829
      ],
      [
        "Ġplays",
        -10.423103415817891
      ],
      [
        "].",
        -10.423158675533088
      ],
      [
        "Ġconsumer",
        -10.423216387221274
      ],
      [
        "Ġstimulate",
        -10.423433413836484
      ],
      [
        "Ġwidth",
        -10.423667359116022
      ],
      [
        "ĠGerman",
        -10.423694913390898
      ],
      [
        "Ġstove",
        -10.424665785610784
      ],
      [
        "ĠArt",
        -10.424666128884494
      ],
      [
        "Ġspectrum",
        -10.42468408229482
      ],
      [
        "Ġmount",
        -10.42470170778009
      ],
      [
        "Ġmature",
        -10.42487495481271
      ],
      [
        "Ġtract",
        -10.425255885905068
      ],
      [
        "Ġinfect",
        -10.425997773287069
      ],
      [
        "Ġinvolv",
        -10.42630149142369
      ],
      [
        "Ġlearner",
        -10.426734085512315
      ],
      [
        "Ġlaser",
        -10.427865771781914
      ],
      [
        "Ġmodule",
        -10.427997547217077
      ],
      [
        "tion",
        -10.428110094757292
      ],
      [
        "Ġguard",
        -10.428743042493403
      ],
      [
        "Ġdramatic",
        -10.42940667779274
      ],
      [
        "Ġtrie",
        -10.429900513547516
      ],
      [
        "Ġgather",
        -10.430106062144793
      ],
      [
        "Ġhardwa",
        -10.430705019165984
      ],
      [
        "ĠLab",
        -10.43089237416318
      ],
      [
        "Ġsnakes",
        -10.431823030408523
      ],
      [
        "ĠHave",
        -10.43223293707154
      ],
      [
        "Ġstream",
        -10.433686397063065
      ],
      [
        "Ġagenc",
        -10.43410490009773
      ],
      [
        "Ġinsurance",
        -10.435565653163032
      ],
      [
        "Ġcrusher",
        -10.435682684845531
      ],
      [
        "Ġindustri",
        -10.437095019279724
      ],
      [
        "Ġstudie",
        -10.438571773232155
      ],
      [
        "Ġapparent",
        -10.439697120661886
      ],
      [
        "Ġfertil",
        -10.439870800044076
      ],
      [
        "ĠSun",
        -10.440263586349214
      ],
      [
        "ĠCo",
        -10.443368037728398
      ],
      [
        "Ġcounter",
        -10.443490557846182
      ],
      [
        "Ġca",
        -10.443535639660242
      ],
      [
        "Ġdiagnosi",
        -10.443686088417303
      ],
      [
        "Ġuniform",
        -10.444404649721609
      ],
      [
        "Ġstrike",
        -10.444751935591825
      ],
      [
        "ĠThu",
        -10.444954659460672
      ],
      [
        "Ġdiffer",
        -10.44501593909511
      ],
      [
        "Ġoccurr",
        -10.445204680655833
      ],
      [
        "Ġclothes",
        -10.445802932911125
      ],
      [
        "Ġdownload",
        -10.446521445554811
      ],
      [
        "?\"",
        -10.447161045302543
      ],
      [
        "Ġtruth",
        -10.447278206048011
      ],
      [
        "Ġminor",
        -10.447565824017218
      ],
      [
        "Ġculinar",
        -10.449738648256538
      ],
      [
        "Ġpaid",
        -10.449980331971297
      ],
      [
        "ĠQ",
        -10.450543443704216
      ],
      [
        "Ġdiscomfort",
        -10.451023113670336
      ],
      [
        "library",
        -10.451032457931936
      ],
      [
        "Ġholiday",
        -10.45133695048056
      ],
      [
        "Ġsediment",
        -10.45168515090419
      ],
      [
        "Ġballoon",
        -10.451845307251345
      ],
      [
        "Ġaggressive",
        -10.452059348722026
      ],
      [
        "Ġvolunteer",
        -10.452065466866802
      ],
      [
        "Ġcaught",
        -10.452526371687
      ],
      [
        "Ġhandl",
        -10.453405444470723
      ],
      [
        "Ġalign",
        -10.453478375868167
      ],
      [
        "Ġdough",
        -10.454395169459428
      ],
      [
        "-day",
        -10.454417433657431
      ],
      [
        "urthermore",
        -10.454596899835058
      ],
      [
        "ĠYear",
        -10.454672747376089
      ],
      [
        "Als",
        -10.454764690099791
      ],
      [
        "Ġfather",
        -10.455005354188984
      ],
      [
        "ĠGold",
        -10.455288958043358
      ],
      [
        "Ġsteam",
        -10.455418551553056
      ],
      [
        "Ġdecline",
        -10.455480207274295
      ],
      [
        "Ġcheap",
        -10.455548531283371
      ],
      [
        "Ġprinter",
        -10.45599698471061
      ],
      [
        "Ġscientist",
        -10.45613391269372
      ],
      [
        "Understanding",
        -10.456676347951689
      ],
      [
        "Ġpizza",
        -10.457036784481602
      ],
      [
        "Ġinfant",
        -10.457842044376942
      ],
      [
        "Ġsent",
        -10.45863939794924
      ],
      [
        "Ġrear",
        -10.45900223255179
      ],
      [
        "ĠPer",
        -10.459419776596055
      ],
      [
        "Ġhappening",
        -10.46048751589972
      ],
      [
        ">>",
        -10.460976550959302
      ],
      [
        "Ġstorm",
        -10.46110559288258
      ],
      [
        "Ġshoulder",
        -10.46130194995585
      ],
      [
        "Water",
        -10.46156893086113
      ],
      [
        "ĠTable",
        -10.46190199150274
      ],
      [
        "Ġwasn",
        -10.462073131146
      ],
      [
        "Ġpasse",
        -10.462098024572263
      ],
      [
        "Ġvibran",
        -10.46292167728739
      ],
      [
        "Ġsnack",
        -10.463445227185698
      ],
      [
        "wood",
        -10.463955709635352
      ],
      [
        "Ġsitting",
        -10.46429577229502
      ],
      [
        "Ġlaws",
        -10.464885874697972
      ],
      [
        "Ġexchange",
        -10.464898119665126
      ],
      [
        "Ġresistan",
        -10.465275228118005
      ],
      [
        "Ġrelief",
        -10.465542401376595
      ],
      [
        "Ġmice",
        -10.465633665325424
      ],
      [
        "Ġusage",
        -10.466138717558977
      ],
      [
        "Ġtear",
        -10.466421016381243
      ],
      [
        "Ġglove",
        -10.469432848409896
      ],
      [
        "Ġidentit",
        -10.4694742691383
      ],
      [
        "Make",
        -10.469853909284936
      ],
      [
        "Ġchocolate",
        -10.46988219147081
      ],
      [
        "Ġsubstantial",
        -10.470980347336477
      ],
      [
        "Ġdespi",
        -10.471043593295375
      ],
      [
        "Ġspray",
        -10.471405787139794
      ],
      [
        "ĠProfessor",
        -10.471874732784547
      ],
      [
        "Ġabilit",
        -10.472660478762844
      ],
      [
        "Ġtransplant",
        -10.472694971526472
      ],
      [
        "Ġears",
        -10.47380196447146
      ],
      [
        "wrot",
        -10.47394954014197
      ],
      [
        "Which",
        -10.47431339455234
      ],
      [
        "ĠLake",
        -10.474565890916963
      ],
      [
        "Ġappliance",
        -10.475108452467628
      ],
      [
        "ĠMedicine",
        -10.475814611917556
      ],
      [
        "Ġinch",
        -10.4758814382213
      ],
      [
        "Ġdesire",
        -10.476282439172463
      ],
      [
        "Ġholding",
        -10.4763695753727
      ],
      [
        "ĠLED",
        -10.47706231059438
      ],
      [
        "Ġwheels",
        -10.47831441873059
      ],
      [
        "Ġregulator",
        -10.478331857137452
      ],
      [
        "ian",
        -10.47850739860731
      ],
      [
        "Ġease",
        -10.47872678962323
      ],
      [
        "Ġofficer",
        -10.478948764700093
      ],
      [
        "Ġrocks",
        -10.479121497822938
      ],
      [
        "aught",
        -10.479423333166109
      ],
      [
        "Ġbeam",
        -10.480006492160594
      ],
      [
        "Ġstars",
        -10.480809886251183
      ],
      [
        "Ġdepartment",
        -10.481441946916483
      ],
      [
        "Ġwings",
        -10.481643635385204
      ],
      [
        "Ġmountain",
        -10.481803992925697
      ],
      [
        "Ġtailor",
        -10.481935518131028
      ],
      [
        "ĠRegular",
        -10.482955985577966
      ],
      [
        "Read",
        -10.48314038624915
      ],
      [
        "Ġeco",
        -10.483509230369858
      ],
      [
        "Ġserver",
        -10.48426625074704
      ],
      [
        "Ġcontroller",
        -10.48430478924743
      ],
      [
        "Ġattache",
        -10.485524475076952
      ],
      [
        "am",
        -10.485664330021104
      ],
      [
        "\"The",
        -10.485675161518683
      ],
      [
        "Ġreli",
        -10.486472230256478
      ],
      [
        "Ġdisrupt",
        -10.48714408215786
      ],
      [
        "Ġhummingbird",
        -10.487194212715782
      ],
      [
        "Ġfacing",
        -10.487629823028602
      ],
      [
        "ized",
        -10.487659885051706
      ],
      [
        "Ġmat",
        -10.48802688889626
      ],
      [
        "Ġenhanc",
        -10.488599399992012
      ],
      [
        "ĠWashington",
        -10.490196765875108
      ],
      [
        "ĠOF",
        -10.490560027728767
      ],
      [
        "Ġbelief",
        -10.490566829981836
      ],
      [
        "Ġminerals",
        -10.49063301812676
      ],
      [
        "Ġreact",
        -10.491279874594827
      ],
      [
        "Ġmenu",
        -10.491858740527949
      ],
      [
        ".[",
        -10.492847530031264
      ],
      [
        "Related",
        -10.493078167210928
      ],
      [
        "Ġtrends",
        -10.493280498718462
      ],
      [
        "Ġengaging",
        -10.49405503688326
      ],
      [
        "Ġisolate",
        -10.494183445375796
      ],
      [
        "ĠWork",
        -10.494461880819491
      ],
      [
        "tuck",
        -10.495152292920327
      ],
      [
        "Ġrose",
        -10.496339115820604
      ],
      [
        "ĠChristmas",
        -10.49652147997014
      ],
      [
        "Ġfunctionalit",
        -10.498539585949588
      ],
      [
        "Ġprogramme",
        -10.498862826240886
      ],
      [
        "Ġcolleague",
        -10.49907382515486
      ],
      [
        "ĠCare",
        -10.499351762484665
      ],
      [
        "but",
        -10.499479541670548
      ],
      [
        "Ġmagnetic",
        -10.499645470151918
      ],
      [
        "Ġframework",
        -10.499657985942257
      ],
      [
        "Ġheavi",
        -10.499759048357507
      ],
      [
        "Ġnervous",
        -10.500909070299649
      ],
      [
        "ĠChange",
        -10.501036640034282
      ],
      [
        "Ġpersonalize",
        -10.50119056610669
      ],
      [
        "aging",
        -10.502740713994813
      ],
      [
        "Ġgravit",
        -10.503278499502455
      ],
      [
        "see",
        -10.50356991586674
      ],
      [
        "ĠChin",
        -10.503976528336937
      ],
      [
        "Ġcompar",
        -10.50399977809198
      ],
      [
        "Ġnuclear",
        -10.50403832054974
      ],
      [
        "afety",
        -10.504050951812811
      ],
      [
        "Ġburning",
        -10.50517998812258
      ],
      [
        "Ġstruggle",
        -10.50548818937127
      ],
      [
        "Ġlaptop",
        -10.50559643857719
      ],
      [
        "Ġagreement",
        -10.50563343985671
      ],
      [
        "Ġheadphone",
        -10.505644925759768
      ],
      [
        "Ġsignificance",
        -10.505808724917202
      ],
      [
        "Ġwor",
        -10.505955394673204
      ],
      [
        "Ġinvasive",
        -10.506476618497256
      ],
      [
        "Ġtri",
        -10.506667879359808
      ],
      [
        "Ġelephant",
        -10.506671533006871
      ],
      [
        "Ġrelation",
        -10.506778405046298
      ],
      [
        "Ġmolecule",
        -10.50689498985951
      ],
      [
        "Ġunderly",
        -10.507075306487902
      ],
      [
        "Ġprotocol",
        -10.507153026776573
      ],
      [
        "Ġnucle",
        -10.50723247229026
      ],
      [
        "ĠSpace",
        -10.507502094556935
      ],
      [
        "Dr",
        -10.5076286203999
      ],
      [
        "Ġserving",
        -10.50819954363988
      ],
      [
        "Ġlaunch",
        -10.508342154632215
      ],
      [
        "New",
        -10.508949838999875
      ],
      [
        "cause",
        -10.509043341223029
[...]
