{
  "version": "1.0",
  "truncation": null,
  "padding": null,
  "added_tokens": [
    {
      "id": 0,
      "content": "<|bos|>",
      "single_word": false,
      "lstrip": false,
      "rstrip": false,
      "normalized": false,
      "special": true
    },
    {
      "id": 1,
      "content": "<|user_start|>",
      "single_word": false,
      "lstrip": false,
      "rstrip": false,
      "normalized": false,
      "special": true
    },
    {
      "id": 2,
      "content": "<|user_end|>",
      "single_word": false,
      "lstrip": false,
      "rstrip": false,
      "normalized": false,
      "special": true
    },
    {
      "id": 3,
      "content": "<|assistant_start|>",
      "single_word": false,
      "lstrip": false,
      "rstrip": false,
      "normalized": false,
      "special": true
    },
    {
      "id": 4,
      "content": "<|assistant_end|>",
      "single_word": false,
      "lstrip": false,
      "rstrip": false,
      "normalized": false,
      "special": true
    },
    {
      "id": 5,
      "content": "<|python_start|>",
      "single_word": false,
      "lstrip": false,
      "rstrip": false,
      "normalized": false,
      "special": true
    },
    {
      "id": 6,
      "content": "<|python_end|>",
      "single_word": false,
      "lstrip": false,
      "rstrip": false,
      "normalized": false,
      "special": true
    },
    {
      "id": 7,
      "content": "<|output_start|>",
      "single_word": false,
      "lstrip": false,
      "rstrip": false,
      "normalized": false,
      "special": true
    },
    {
      "id": 8,
      "content": "<|output_end|>",
      "single_word": false,
      "lstrip": false,
      "rstrip": false,
      "normalized": false,
      "special": true
    },
    {
      "id": 9,
      "content": "<|unk|>",
      "single_word": false,
      "lstrip": false,
      "rstrip": false,
      "normalized": false,
      "special": true
    }
  ],
  "normalizer": null,
  "pre_tokenizer": {
    "type": "Sequence",
    "pretokenizers": [
      {
        "type": "Split",
        "pattern": {
          "Regex": "'(?i:[sdmt]|ll|ve|re)|[^\\r\\n\\p{L}\\p{N}]?+\\p{L}+|\\p{N}{1,2}| ?[^\\s\\p{L}\\p{N}]++[\\r\\n]*|\\s*[\\r\\n]|\\s+(?!\\S)|\\s+"
        },
        "behavior": "Isolated",
        "invert": false
      },
      {
        "type": "ByteLevel",
        "add_prefix_space": false,
        "trim_offsets": true,
        "use_regex": false
      }
    ]
  },
  "post_processor": {
    "type": "TemplateProcessing",
    "single": [
      {
        "Sequence": {
          "id": "A",
          "type_id": 0
        }
      }
    ],
    "pair": [
      {
        "Sequence": {
          "id": "A",
          "type_id": 0
        }
      },
      {
        "Sequence": {
          "id": "B",
          "type_id": 1
        }
      }
    ],
    "special_tokens": {}
  },
  "decoder": null,
  "model": {
    "type": "Unigram",
    "unk_id": 9,
    "vocab": [
      [
        "<|bos|>",
        0.0
      ],
      [
        "<|user_start|>",
        0.0
      ],
      [
        "<|user_end|>",
        0.0
      ],
      [
        "<|assistant_start|>",
        0.0
      ],
      [
        "<|assistant_end|>",
        0.0
      ],
      [
        "<|python_start|>",
        0.0
      ],
      [
        "<|python_end|>",
        0.0
      ],
      [
        "<|output_start|>",
        0.0
      ],
      [
        "<|output_end|>",
        0.0
      ],
      [
        "<|unk|>",
        0.0
      ],
      [
        "s",
        -2.9398293532688147
      ],
      [
        "Ġthe",
        -3.489681985730577
      ],
      [
        "Ġ",
        -3.4955932599588593
      ],
      [
        ",",
        -3.5654646756562034
      ],
      [
        ".",
        -3.8237022692170353
      ],
      [
        "Ġand",
        -4.0541353936484334
      ],
      [
        "Ġof",
        -4.0750550419327
      ],
      [
        "Ġto",
        -4.098434748146765
      ],
      [
        "Ġa",
        -4.197047439530365
      ],
      [
        "ing",
        -4.307282420419536
      ],
      [
        "Ġin",
        -4.546024912567605
      ],
      [
        "e",
        -4.655694738289792
      ],
      [
        "ed",
        -4.6680248834837474
      ],
      [
        "d",
        -4.701299620141613
      ],
      [
        "Ġis",
        -4.731909633799106
      ],
      [
        "y",
        -4.815615914039332
      ],
      [
        "t",
        -4.851937382437949
      ],
      [
        "0",
        -5.0416958248711605
      ],
      [
        "'",
        -5.052105856098187
      ],
      [
        "Ġfor",
        -5.139719270037773
      ],
      [
        "Ġthat",
        -5.15462681743368
      ],
      [
        "ly",
        -5.157342611611806
      ],
      [
        "1",
        -5.190815543919349
      ],
      [
        "-",
        -5.2880181289667405
      ],
      [
        ":",
        -5.294961709215576
      ],
      [
        "Ċ",
        -5.314477079394377
      ],
      [
        "a",
        -5.365637029771229
      ],
      [
        "2",
        -5.381097139781602
      ],
      [
        "Ġare",
        -5.3929257514590105
      ],
      [
        "Ġbe",
        -5.399170380751205
      ],
      [
        "Ġwith",
        -5.419785071384252
      ],
      [
        "Ġit",
        -5.428723554748462
      ],
      [
        ".Ċ",
        -5.435221837734357
      ],
      [
        "Ġyou",
        -5.473798425704581
      ],
      [
        ".ĊĊ",
        -5.482327866513582
      ],
      [
        "Ġon",
        -5.567772596123694
      ],
      [
        "Ġcan",
        -5.613332513958234
      ],
      [
        "Ġor",
        -5.6458088253181575
      ],
      [
        "er",
        -5.709721784337939
      ],
      [
        "r",
        -5.7237821619898455
      ],
      [
        "ĊĊ",
        -5.748597714708277
      ],
      [
        "n",
        -5.772279152879053
      ],
      [
        "o",
        -5.796151592192134
      ],
      [
        "Ġas",
        -5.847763156399436
      ],
      [
        "Ġ(",
        -5.849421338884095
      ],
      [
        "\"",
        -5.875004763420462
      ],
      [
        "Ġyour",
        -5.897933750454886
      ],
      [
        "ĠThe",
        -5.932509958600765
      ],
      [
        "i",
        -5.952156792909399
      ],
      [
        "ĠI",
        -5.983405231448094
      ],
      [
        "Ġfrom",
        -5.99344832297372
      ],
      [
        "Ġhave",
        -6.0010524180818
      ],
      [
        "Ġby",
        -6.033979189843677
      ],
      [
        "3",
        -6.045599946275054
      ],
      [
        ")",
        -6.046077757954762
      ],
      [
        "?",
        -6.0580924598822055
      ],
      [
        "Ġan",
        -6.094010610494195
      ],
      [
        "5",
        -6.097439904593127
      ],
      [
        "l",
        -6.129052965149343
      ],
      [
        "Ġthis",
        -6.163662452328801
      ],
      [
        "al",
        -6.200269521009535
      ],
      [
        "m",
        -6.2248802692614245
      ],
      [
        "Ġnot",
        -6.238230624541284
      ],
      [
        "Ġat",
        -6.256458379241302
      ],
      [
        "4",
        -6.306211247780237
      ],
      [
        "Ġwill",
        -6.3486519695944885
      ],
      [
        "Ġtheir",
        -6.351341655366971
      ],
      [
        "9",
        -6.3672610222299095
      ],
      [
        "on",
        -6.374771906185849
      ],
      [
        "Ġwas",
        -6.398152827281216
      ],
      [
        "in",
        -6.458015702955576
      ],
      [
        "c",
        -6.461458861802431
      ],
      [
        "Ġmore",
        -6.471094921470858
      ],
      [
        "re",
        -6.480806283113086
      ],
      [
        "Ġthey",
        -6.503410910754301
      ],
      [
        "6",
        -6.510907739931037
      ],
      [
        "ĠA",
        -6.513625034515988
      ],
      [
        "The",
        -6.514873229040944
      ],
      [
        "8",
        -6.51871377456577
      ],
      [
        "ies",
        -6.577238065466043
      ],
      [
        "Ġwhich",
        -6.586910316292219
      ],
      [
        "p",
        -6.593898976818567
      ],
      [
        "g",
        -6.594516301250888
      ],
      [
        "b",
        -6.596002855378616
      ],
      [
        "Ġhas",
        -6.599711428035107
      ],
      [
        "u",
        -6.618537866743521
      ],
      [
        "Ġwe",
        -6.624539909286087
      ],
      [
        "Ġbut",
        -6.629618207196387
      ],
      [
        "or",
        -6.631775507680871
      ],
      [
        "A",
        -6.634009670219497
      ],
      [
        "Ġone",
        -6.64850043770714
      ],
      [
        "Question",
        -6.674435187735153
      ],
      [
        "7",
        -6.677358804588877
      ],
      [
        "ĠAnswer",
        -6.703041427732758
      ],
      [
        "Ġalso",
        -6.707993965555511
      ],
      [
        "Ġother",
        -6.763874740522914
      ],
      [
        "f",
        -6.769947956352647
      ],
      [
        "Ġall",
        -6.774514214282343
      ],
      [
        "Ġabout",
        -6.81403275714394
      ],
      [
        "Ġthem",
        -6.835099405774917
      ],
      [
        "Ġup",
        -6.8402318274091805
      ],
      [
        "ĠIt",
        -6.841292390238603
      ],
      [
        "k",
        -6.854812468772137
      ],
      [
        "Ġso",
        -6.866727171339489
      ],
      [
        "Ġdo",
        -6.882703742816378
      ],
      [
        "Ġwhen",
        -6.888314255272753
      ],
      [
        "ic",
        -6.904006824139767
      ],
      [
        "Ġtime",
        -6.904873695687524
      ],
      [
        "Ġinto",
        -6.910366608295027
      ],
      [
        "is",
        -6.934726444259239
      ],
      [
        "I",
        -6.94820317793333
      ],
      [
        "Ġif",
        -6.954735936146111
      ],
      [
        "Ġsome",
        -6.95826921044182
      ],
      [
        "le",
        -6.962743744861568
      ],
      [
        "ĠC",
        -6.965727683838198
      ],
      [
        "Ġhow",
        -6.965728799514443
      ],
      [
        "ĠThis",
        -6.96585973584995
      ],
      [
        "Ġlike",
        -6.969157481793603
      ],
      [
        "h",
        -6.973275503012141
      ],
      [
        "ĠIn",
        -6.9831612213093965
      ],
      [
        "Ġout",
        -6.9902803297383755
      ],
      [
        "/",
        -6.999103909704418
      ],
      [
        "ĠWhat",
        -7.0040278449614615
      ],
      [
        "Ġthan",
        -7.005524865936451
      ],
      [
        "Ġuse",
        -7.011890884289551
      ],
      [
        "able",
        -7.017533822659896
      ],
      [
        "ion",
        -7.0202993233417725
      ],
      [
        "Ġneed",
        -7.02080209702123
      ],
      [
        "Ġwater",
        -7.045495840054336
      ],
      [
        "ĠS",
        -7.049992423066726
      ],
      [
        "Ġmay",
        -7.058968446621384
      ],
      [
        "Ġthese",
        -7.073136998427753
      ],
      [
        "Ġus",
        -7.088880729825727
      ],
      [
        "ation",
        -7.096376889232573
      ],
      [
        "an",
        -7.126556178445044
      ],
      [
        "en",
        -7.129525561784963
      ],
      [
        "S",
        -7.137318178691764
      ],
      [
        "Ġhelp",
        -7.1459470755166645
      ],
      [
        "Ġhigh",
        -7.151350281885392
      ],
      [
        "Ġthere",
        -7.158876102490051
      ],
      [
        "Ġwhat",
        -7.163355892878039
      ],
      [
        "Ġwere",
        -7.167677031773712
      ],
      [
        "Ġused",
        -7.168194368602885
      ],
      [
        "Ġmake",
        -7.194001462546661
      ],
      [
        "Ġmost",
        -7.20096952498643
      ],
      [
        "Ġour",
        -7.206273330028843
      ],
      [
        "Ġsuch",
        -7.217017637731676
      ],
      [
        "it",
        -7.224532538616781
      ],
      [
        "th",
        -7.229373530305889
      ],
      [
        "C",
        -7.252574673813813
      ],
      [
        "Ġnew",
        -7.252852090210423
      ],
      [
        "Ġover",
        -7.25482082438619
      ],
      [
        "Ġpeople",
        -7.268185403175821
      ],
      [
        "ers",
        -7.270648634424083
      ],
      [
        "ity",
        -7.280602991305816
      ],
      [
        "ĠB",
        -7.280703708665635
      ],
      [
        "Ġget",
        -7.292411342986728
      ],
      [
        "w",
        -7.297549815676161
      ],
      [
        "Ġbeen",
        -7.298043830500481
      ],
      [
        "Ġany",
        -7.300772824080793
      ],
      [
        "D",
        -7.314342732427722
      ],
      [
        "F",
        -7.334877641874572
      ],
      [
        "Ġwould",
        -7.341722466971767
      ],
      [
        "Ġwho",
        -7.342098920096481
      ],
      [
        "Ġshould",
        -7.34302266435847
      ],
      [
        "cause",
        -7.369290709260948
      ],
      [
        "B",
        -7.3719138977521315
      ],
      [
        ";",
        -7.379584433928764
      ],
      [
        "Ġits",
        -7.380698625505119
      ],
      [
        "Ġjust",
        -7.383116353945063
      ],
      [
        "Ġre",
        -7.383480928781427
      ],
      [
        "Ġwork",
        -7.384013449559108
      ],
      [
        "ĠF",
        -7.387509261738153
      ],
      [
        "ve",
        -7.394002861213272
      ],
      [
        "Ġonly",
        -7.402070125020288
      ],
      [
        "Ġmany",
        -7.411620219562064
      ],
      [
        "T",
        -7.413357079477624
      ],
      [
        "Ġtwo",
        -7.416295264320633
      ],
      [
        "Ġno",
        -7.417161281554781
      ],
      [
        "?Ċ",
        -7.429611421395018
      ],
      [
        "ever",
        -7.433894519235418
      ],
      [
        "um",
        -7.459283479288567
      ],
      [
        "Ġfirst",
        -7.4757112365415885
      ],
      [
        "Ġlong",
        -7.48104203917425
      ],
      [
        "Ġwell",
        -7.485388547684059
      ],
      [
        "Ġhealth",
        -7.487900868204784
      ],
      [
        "us",
        -7.4890424580350015
      ],
      [
        "Ġdifferent",
        -7.49056326196634
      ],
      [
        "ur",
        -7.491055226265315
      ],
      [
        "Ġbetween",
        -7.4980069936785725
      ],
      [
        "Ġthrough",
        -7.5014944089765265
      ],
      [
        "Ġmy",
        -7.513911420793859
      ],
      [
        "v",
        -7.515160371094927
      ],
      [
        "ll",
        -7.515292465215612
      ],
      [
        "ĠP",
        -7.520059440295105
      ],
      [
        "Ġhe",
        -7.523668597459389
      ],
      [
        "Ġway",
        -7.533897432915428
      ],
      [
        "Ġpart",
        -7.540299074222588
      ],
      [
        "Ġcould",
        -7.552890147123508
      ],
      [
        "ce",
        -7.561666084429524
      ],
      [
        "Ġwhere",
        -7.567614260300355
      ],
      [
        "ment",
        -7.572629512039578
      ],
      [
        "Ġeven",
        -7.574666674834971
      ],
      [
        "ive",
        -7.578954577552333
      ],
      [
        "Ġvery",
        -7.587390180734053
      ],
      [
        "Ġtake",
        -7.596278915308053
      ],
      [
        "In",
        -7.598422327330836
      ],
      [
        "Ġhis",
        -7.599026374011912
      ],
      [
        "P",
        -7.603870153720134
      ],
      [
        "Ġchange",
        -7.607556816132659
      ],
      [
        "out",
        -7.615717936037905
      ],
      [
        "ĠIf",
        -7.626856689121976
      ],
      [
        "Ġun",
        -7.632665384068071
      ],
      [
        "x",
        -7.635472711234014
      ],
      [
        "ar",
        -7.647090823846387
      ],
      [
        "Ġsystem",
        -7.651484702099777
      ],
      [
        "at",
        -7.656976291914749
      ],
      [
        "ate",
        -7.656983296338451
      ],
      [
        "ĠHow",
        -7.660987517816695
      ],
      [
        "!",
        -7.667105780143203
      ],
      [
        "Ġhad",
        -7.669562544940776
      ],
      [
        "ĠE",
        -7.674311934764722
      ],
      [
        "Ġsmall",
        -7.67862179706515
      ],
      [
        "est",
        -7.688748073915267
      ],
      [
        "ĠThey",
        -7.6941238103127905
      ],
      [
        "M",
        -7.700229528488483
      ],
      [
        ").",
        -7.702673202600661
      ],
      [
        "Ġeach",
        -7.70435583751719
      ],
      [
        "Ġgood",
        -7.704641108165696
      ],
      [
        "z",
        -7.715235010568876
      ],
      [
        "Ġlight",
        -7.715823155569786
      ],
      [
        "Ġnumber",
        -7.719777731867921
      ],
      [
        "Ġmuch",
        -7.720575212176175
      ],
      [
        "Ġknow",
        -7.743788357587544
      ],
      [
        "Ġdon",
        -7.75208484208784
      ],
      [
        "Ġyears",
        -7.755351923975921
      ],
      [
        "Ġresult",
        -7.760184361483794
      ],
      [
        "Ġimportant",
        -7.763450598967306
      ],
      [
        "ĠâĢĵ",
        -7.765884668726345
      ],
      [
        "ĠD",
        -7.76618799882694
      ],
      [
        "Ġdoes",
        -7.766659337081652
      ],
      [
        "E",
        -7.7678507336206435
      ],
      [
        "ĠM",
        -7.771892998513152
      ],
      [
        "Ġsee",
        -7.773239049366753
      ],
      [
        "ĠYou",
        -7.774492227759744
      ],
      [
        "ter",
        -7.779069746598008
      ],
      [
        "Ġafter",
        -7.782093676580443
      ],
      [
        "age",
        -7.786168025070779
      ],
      [
        "Ġlarge",
        -7.788039384758049
      ],
      [
        "ĠR",
        -7.793441719689461
      ],
      [
        "Ġevery",
        -7.796096082369912
      ],
      [
        "Ġhuman",
        -7.798706217561904
      ],
      [
        "Ġwhile",
        -7.80132743333373
      ],
      [
        "(",
        -7.803187081757933
      ],
      [
        "Ġfood",
        -7.804821970565912
      ],
      [
        "Ġdesign",
        -7.804930279493736
      ],
      [
        "Ġcall",
        -7.814991823859302
      ],
      [
        "ĠG",
        -7.817473694791349
      ],
      [
        "G",
        -7.817570400245199
      ],
      [
        "Ġenerg",
        -7.82438696731634
      ],
      [
        "ch",
        -7.825526053836207
      ],
      [
        "Ġcause",
        -7.825793793136042
      ],
      [
        "Ġsame",
        -7.83078846315754
      ],
      [
        "Ġwant",
        -7.834894322918395
      ],
      [
        "Ġde",
        -7.835332683796597
      ],
      [
        "those",
        -7.835744377804418
      ],
      [
        "N",
        -7.840034720729696
      ],
      [
        "Ġlevel",
        -7.846617735501209
      ],
      [
        "Ġthen",
        -7.8510719885236355
      ],
      [
        "Ġunder",
        -7.852009006562321
      ],
      [
        "Ġdata",
        -7.852920181992936
      ],
      [
        "Ġreal",
        -7.855044711575055
      ],
      [
        "Ġbefore",
        -7.856970883422739
      ],
      [
        "H",
        -7.859140764511853
      ],
      [
        "Ġworld",
        -7.859711245740596
      ],
      [
        "Ġprovide",
        -7.863045883903374
      ],
      [
        "Ġfound",
        -7.864132112809193
      ],
      [
        "Ġcreate",
        -7.870903912217035
      ],
      [
        "Ġaround",
        -7.871368357748289
      ],
      [
        "Ġboth",
        -7.873887746620696
      ],
      [
        "Ġgreat",
        -7.875506044663755
      ],
      [
        "V",
        -7.876025447459566
      ],
      [
        "Ġplace",
        -7.87727708285185
      ],
      [
        "and",
        -7.878896799640394
      ],
      [
        "ĠH",
        -7.881550059957059
      ],
      [
        "ness",
        -7.884205296030643
      ],
      [
        "L",
        -7.88618436479058
      ],
      [
        "ĠFor",
        -7.88952706184504
      ],
      [
        "ĠT",
        -7.892075177552055
      ],
      [
        "Ġback",
        -7.8926713935199455
      ],
      [
        "),",
        -7.898286744897425
      ],
      [
        "Ġcome",
        -7.898966126441829
      ],
      [
        "ent",
        -7.906742722817112
      ],
      [
        "during",
        -7.907574233680515
      ],
      [
        "Ġlife",
        -7.909246371918814
      ],
      [
        "Ġform",
        -7.909945347954278
      ],
      [
        "ĠWe",
        -7.927070230606924
      ],
      [
        "Ġdown",
        -7.933098998234826
      ],
      [
        "Ġprocess",
        -7.940687875610659
      ],
      [
        "Ġher",
        -7.942168089295608
      ],
      [
        "R",
        -7.943668383024359
      ],
      [
        "ul",
        -7.946724745884552
      ],
      [
        "Ġshow",
        -7.94917420943415
      ],
      [
        "Ġbest",
        -7.950342777644439
      ],
      [
        "Ġfind",
        -7.953202257872888
      ],
      [
        "ne",
        -7.9574266795608
      ],
      [
        "Ġbeing",
        -7.957591164973611
      ],
      [
        "Ġhome",
        -7.958244229971402
      ],
      [
        "ĠTo",
        -7.958375559229138
      ],
      [
        "Ġexample",
        -7.958741584676544
      ],
      [
        "Ġincrease",
        -7.959499893129334
      ],
      [
        "Ġday",
        -7.959770222010847
      ],
      [
        "Ġmade",
        -7.961650929279048
      ],
      [
        "ary",
        -7.962914160310756
      ],
      [
        "Ġright",
        -7.970532598098111
      ],
      [
        "Ġdevelop",
        -7.972633918693393
      ],
      [
        "Ġgo",
        -7.98007755486106
      ],
      [
        "Ġinclude",
        -7.983897507262418
      ],
      [
        "Ġoften",
        -7.989879054396992
      ],
      [
        "Ġoff",
        -7.996728405002499
      ],
      [
        "Ġme",
        -8.003056563161186
      ],
      [
        "Ġthink",
        -8.01581528937136
      ],
      [
        "Ġstart",
        -8.029982950609234
      ],
      [
        "ry",
        -8.030205783677989
      ],
      [
        "Ġsai",
        -8.031445208469092
      ],
      [
        "Ġadd",
        -8.03251872992465
      ],
      [
        ":Ċ",
        -8.03300678259703
      ],
      [
        "%",
        -8.035223804653675
      ],
      [
        "Ġinformation",
        -8.036157322985272
      ],
      [
        "ĠL",
        -8.038340446258406
      ],
      [
        "Ġyear",
        -8.038355218475942
      ],
      [
        "Ġlook",
        -8.043322279924372
      ],
      [
        "W",
        -8.0440947857931
      ],
      [
        "What",
        -8.047316521606291
      ],
      [
        "the",
        -8.047769238478672
      ],
      [
        "ally",
        -8.051843499588184
      ],
      [
        "Ġtest",
        -8.055062428328313
      ],
      [
        "Ġpoint",
        -8.059492957972436
      ],
      [
        "Ġheat",
        -8.059644439818676
      ],
      [
        "Ġair",
        -8.060695862193638
      ],
      [
        "Ġspecies",
        -8.061064891872126
      ],
      [
        "ĠRe",
        -8.063677555857524
      ],
      [
        "Ġstudy",
        -8.06862478303146
      ],
      [
        "Ġplant",
        -8.070856884673322
      ],
      [
        "Ġexperience",
        -8.074920533589584
      ],
      [
        "to",
        -8.084407255785596
      ],
      [
        "ĠThese",
        -8.084577827551783
      ],
      [
        "Ġbody",
        -8.08935663715793
      ],
      [
        "ance",
        -8.091377640131455
      ],
      [
        "Ġcar",
        -8.095230451283804
      ],
      [
        "ous",
        -8.09549955674714
      ],
      [
        "ĠO",
        -8.095863485698747
      ],
      [
        "Ġgrow",
        -8.09625696268982
      ],
      [
        "li",
        -8.097675325295482
      ],
      [
        "op",
        -8.099019504856141
      ],
      [
        "...",
        -8.10105482864466
      ],
      [
        "ĠK",
        -8.10427306107811
      ],
      [
        "O",
        -8.109058514307122
      ],
      [
        "Ġbetter",
        -8.117798823563689
      ],
      [
        "Ġpower",
        -8.119130454069548
      ],
      [
        "Ġmight",
        -8.122239453144266
      ],
      [
        "Ġinclud",
        -8.124256907670048
      ],
      [
        "This",
        -8.126588098561097
      ],
      [
        "Ġresearch",
        -8.12865606159179
      ],
      [
        "Ġsupport",
        -8.129511119535103
      ],
      [
        "Ġnow",
        -8.130069949896196
      ],
      [
        "Ġbecome",
        -8.1306024956931
      ],
      [
        "Ġkeep",
        -8.131315555271339
      ],
      [
        "co",
        -8.133768787340212
      ],
      [
        "Ġfew",
        -8.136482313328626
      ],
      [
        "Ġown",
        -8.139870710649298
      ],
      [
        "Ġconsider",
        -8.141321097244864
      ],
      [
        "Ġper",
        -8.141704627246817
      ],
      [
        "Ġend",
        -8.145778894733471
      ],
      [
        "ĠN",
        -8.14825884962963
      ],
      [
        "ĠV",
        -8.159096906396183
      ],
      [
        "How",
        -8.16247160973944
      ],
      [
        "Ġdog",
        -8.165704580483482
      ],
      [
        "Ġstudents",
        -8.165818953559619
      ],
      [
        "ant",
        -8.166471787048717
      ],
      [
        "Ġtemperature",
        -8.171929665616467
      ],
      [
        "Ġcase",
        -8.176313840797544
      ],
      [
        "Ġstill",
        -8.181262535394549
      ],
      [
        "Ġcontrol",
        -8.186632744052933
      ],
      [
        "Ġset",
        -8.188484570473928
      ],
      [
        "Ġgroup",
        -8.191529493302287
      ],
      [
        "ability",
        -8.1922519683575
      ],
      [
        "less",
        -8.195185079635564
      ],
      [
        "Ġproduce",
        -8.196048986485835
      ],
      [
        "ĠBut",
        -8.200242215678642
      ],
      [
        "Ġthree",
        -8.201632298481517
      ],
      [
        "Ġal",
        -8.204656660439673
      ],
      [
        "Ġproduct",
        -8.204736491543333
      ],
      [
        "Ġcolor",
        -8.210322374095748
      ],
      [
        "ther",
        -8.217931542800052
      ],
      [
        "ĠSo",
        -8.218583545495866
      ],
      [
        "be",
        -8.222652554085567
      ],
      [
        "\\",
        -8.224104444971037
      ],
      [
        "Ġplants",
        -8.225388697684169
      ],
      [
        "Ġcon",
        -8.225638524185028
      ],
      [
        "ĠBe",
        -8.23151964915461
      ],
      [
        "ĠAnd",
        -8.235604540415963
      ],
      [
        "ian",
        -8.236436336462049
      ],
      [
        "If",
        -8.241294237411228
      ],
      [
        "Ġcurrent",
        -8.244223714746479
      ],
      [
        "Ġtype",
        -8.245286093139079
      ],
      [
        "Ġspecific",
        -8.248339494585903
      ],
      [
        "Ġline",
        -8.250424486573916
      ],
      [
        "Ġless",
        -8.251566115209481
      ],
      [
        "Ġarea",
        -8.25518500273171
      ],
      [
        "It",
        -8.255729135175464
      ],
      [
        "im",
        -8.25854970451314
      ],
      [
        "il",
        -8.259302884590387
      ],
      [
        "Ġmaking",
        -8.26027452654851
      ],
      [
        "Ġknown",
        -8.261020663281018
      ],
      [
        "Ġschool",
        -8.267917638006562
      ],
      [
        "Ġissue",
        -8.269122503787067
      ],
      [
        "un",
        -8.271016253679703
      ],
      [
        "Ġlot",
        -8.272091992698563
      ],
      [
        "Ġ=",
        -8.27232493709705
      ],
      [
        "Ġreduce",
        -8.273296842618816
      ],
      [
        "Ġname",
        -8.27422666908626
      ],
      [
        "Ġenvironment",
        -8.276346740603932
      ],
      [
        "tic",
        -8.278255303273493
      ],
      [
        "Ġmust",
        -8.281426293950117
      ],
      [
        "K",
        -8.281913970480058
      ],
      [
        "Ġallow",
        -8.28483774971868
      ],
      [
        "ĠW",
        -8.289738455658913
      ],
      [
        "Ġmain",
        -8.289804488293928
      ],
      [
        "Ġlow",
        -8.29042430234253
      ],
      [
        "Ġsize",
        -8.29249931178848
      ],
      [
        "ma",
        -8.293554567310876
      ],
      [
        "am",
        -8.297473152706518
      ],
      [
        "Ġindividual",
        -8.299641775345576
      ],
      [
        "Ġcommon",
        -8.309445646161233
      ],
      [
        "Ġspace",
        -8.311100730219888
      ],
      [
        "Ġpotential",
        -8.312722287446812
      ],
      [
        "Ġanother",
        -8.31612044966257
      ],
      [
        ",\"",
        -8.320542958613967
      ],
      [
        "ge",
        -8.320742159279494
      ],
      [
        "Ġfollowing",
        -8.321946918310605
      ],
      [
        "]",
        -8.3268644036253
      ],
      [
        "Ġpossibl",
        -8.332292661914387
      ],
      [
        "Ġprevent",
        -8.335972141619834
      ],
      [
        "Ġoffer",
        -8.339317791919608
      ],
      [
        "Ġplay",
        -8.340667058660994
      ],
      [
        "Ġtoo",
        -8.341506455120925
      ],
      [
        "ĠWhen",
        -8.342975075034428
      ],
      [
        "_",
        -8.346632858893127
      ],
      [
        "Ġwithin",
        -8.347056982662455
      ],
      [
        "up",
        -8.35085640705298
      ],
      [
        "Ġquestion",
        -8.351158845104916
      ],
      [
        ":ĊĊ",
        -8.355781535291243
      ],
      [
        "Ġchildren",
        -8.36297926574866
      ],
      [
        "Ġthings",
        -8.364332122003326
      ],
      [
        "ten",
        -8.366906228761554
      ],
      [
        "Ġlearn",
        -8.369591399140305
      ],
      [
        "Ġcat",
        -8.371374713175955
      ],
      [
        "Ġgame",
        -8.373387431210105
      ],
      [
        "Ġnatural",
        -8.376000395226733
      ],
      [
        "Ġdevelopment",
        -8.37638194217423
      ],
      [
        "line",
        -8.376635556702837
      ],
      [
        "Ġb",
        -8.377022773880181
      ],
      [
        "Ġsure",
        -8.381144480312024
      ],
      [
        "Ġvalue",
        -8.3824597015179
      ],
      [
        "ĠAs",
        -8.382674448409887
      ],
      [
        "ĠHe",
        -8.383272297230281
      ],
      [
        "Ġshe",
        -8.385602609114368
      ],
      [
        "Ġhere",
        -8.387517743554403
      ],
      [
        "Y",
        -8.387691943669285
      ],
      [
        "Ġhard",
        -8.387944898111066
      ],
      [
        "Ġgive",
        -8.390893763212993
      ],
      [
        "Ġlittle",
        -8.391132056400068
      ],
      [
        "Ġcells",
        -8.394724741620378
      ],
      [
        "Ġwhy",
        -8.394932015772099
      ],
      [
        "Ġdid",
        -8.39643877351757
      ],
      [
        "Ġreason",
        -8.400677796952982
      ],
      [
        "Ġhand",
        -8.40162131275678
      ],
      [
        "Ġimpact",
        -8.406182202752806
      ],
      [
        "Ġdue",
        -8.406399912769132
      ],
      [
        "Ġlead",
        -8.409843354736417
      ],
      [
        "Ġeffective",
        -8.414142834354852
      ],
      [
        "ĠThere",
        -8.415922049721331
      ],
      [
        "one",
        -8.416636660738241
      ],
      [
        "ver",
        -8.422362258783295
      ],
      [
        "Ġsoil",
        -8.4236890465852
      ],
      [
        "Ġproblem",
        -8.437570575261727
      ],
      [
        "Ġsource",
        -8.438432308103348
      ],
      [
        "Ġlast",
        -8.44277028767752
      ],
      [
        "ful",
        -8.443362292125272
      ],
      [
        "Ġsurface",
        -8.447746252759483
      ],
      [
        "Ġtry",
        -8.448942503468924
      ],
      [
        "Ġbenefit",
        -8.45061663217935
      ],
      [
        "Ġco",
        -8.451223225295749
      ],
      [
        "Ġvarious",
        -8.453525123570614
      ],
      [
        "Ġamount",
        -8.45357134613026
      ],
      [
        "Ġnear",
        -8.453660371776948
      ],
      [
        "Ġcare",
        -8.456615229219665
      ],
      [
        "Ġensure",
        -8.46066075265334
      ],
      [
        "Ġrange",
        -8.460925489360196
      ],
      [
        "Ġturn",
        -8.46206106164263
      ],
      [
        "way",
        -8.464760013980968
      ],
      [
        "Ġcomplete",
        -8.46486622222703
      ],
      [
        "Ġseveral",
        -8.466620484348454
      ],
      [
        "Ġtext",
        -8.467727536109471
      ],
      [
        "Ġgeneral",
        -8.47106637912168
      ],
      [
        "Ġdisease",
        -8.473541843231146
      ],
      [
        "Ġsomething",
        -8.473920446287595
      ],
      [
        "ĠU",
        -8.475914079508101
      ],
      [
        "Ġpre",
        -8.47610521635966
      ],
      [
        "Ġorder",
        -8.478851998150272
      ],
      [
        "available",
        -8.478966778569816
      ],
      [
        "Ġside",
        -8.480056385205234
      ],
      [
        "per",
        -8.483781619317833
      ],
      [
        "Ġpresent",
        -8.484294358378252
      ],
      [
        "U",
        -8.487553918428532
      ],
      [
        "Ġeat",
        -8.488805412970894
      ],
      [
        "Ġmeans",
        -8.489648047957488
      ],
      [
        "ial",
        -8.490784122361376
      ],
      [
        "Ġsignificant",
        -8.496941792186831
      ],
      [
        "Ġcontain",
        -8.500727499701094
      ],
      [
        "Ġprogram",
        -8.501948782430492
      ],
      [
        "Ġbased",
        -8.504262623751547
      ],
      [
        "ill",
        -8.50896817458213
      ],
      [
        "ĠWhich",
        -8.511442560148694
      ],
      [
        "ha",
        -8.513198488920038
      ],
      [
        "Ġrequire",
        -8.518986705190006
      ],
      [
        "Ġstate",
        -8.520247082521184
      ],
      [
        "Ġgoing",
        -8.52259143530506
      ],
      [
        "Ġrisk",
        -8.526969763431577
      ],
      [
        "Ġblood",
        -8.529368439466271
      ],
      [
        "Ġshort",
        -8.530954372480098
      ],
      [
        "Ġsecond",
        -8.532732191437098
      ],
      [
        "Ġalway",
        -8.534476655700802
      ],
      [
        "Ġlocal",
        -8.546224316880558
      ],
      [
        "Ġinvolve",
        -8.5495066025931
      ],
      [
        "man",
        -8.549792339465068
      ],
      [
        "Ġnon",
        -8.550739867493444
      ],
      [
        "vi",
        -8.551475180304926
      ],
      [
        "Ġdevice",
        -8.553056773769155
      ],
      [
        "Ġareas",
        -8.554557773504342
      ],
      [
        "\\n",
        -8.55499752909708
      ],
      [
        "ut",
        -8.556616040026157
      ],
      [
        "ph",
        -8.558545947791345
      ],
      [
        "if",
        -8.559057032535316
      ],
      [
        "ĠAl",
        -8.561082861534455
      ],
      [
        "Ġessential",
        -8.56269317458435
      ],
      [
        "Ġtreatment",
        -8.56470966019723
      ],
      [
        ")Ċ",
        -8.567154553750617
      ],
      [
        "Ġcourse",
        -8.569557273281056
      ],
      [
        "Ġfeel",
        -8.574860220561119
      ],
      [
        "Ġcertain",
        -8.574866724918603
      ],
      [
        "ish",
        -8.575653414713752
      ],
      [
        "Ġhead",
        -8.576793980417461
      ],
      [
        "nough",
        -8.57752545029967
      ],
      [
        "Ġlearning",
        -8.578114589911962
      ],
      [
        "Ġclose",
        -8.578170304510454
      ],
      [
        "Ġpost",
        -8.578413495270418
      ],
      [
        "ated",
        -8.579019279795773
      ],
      [
        "ĠJ",
        -8.580212809392446
      ],
      [
        "Ġusually",
        -8.581617514039632
      ],
      [
        "Ġfish",
        -8.582939617781562
      ],
      [
        "Ġdifference",
        -8.585562409857246
      ],
      [
        "Ġdi",
        -8.590289209247663
      ],
      [
        "Ġleave",
        -8.593829127185435
      ],
      [
        "We",
        -8.601193587920102
      ],
      [
        "*",
        -8.601767646841108
      ],
      [
        "Ġunderstand",
        -8.60382378249246
      ],
      [
        "ĠDe",
        -8.603985128776355
      ],
      [
        "Ġteam",
        -8.606927108401745
      ],
      [
        "Ġprotect",
        -8.607941325598112
      ],
      [
        "Ġkey",
        -8.608725438705985
      ],
      [
        "Ġconditions",
        -8.609525037021568
      ],
      [
        "j",
        -8.609800687147992
      ],
      [
        "Ġquality",
        -8.609916081700373
      ],
      [
        "Ġanimals",
        -8.614473448873895
      ],
      [
        "Ġmaterial",
        -8.61920689277624
      ],
      [
        "Ġput",
        -8.621567220977159
      ],
      [
        "Ġpatient",
        -8.622173369045809
      ],
      [
        "Ġperson",
        -8.623729662561924
      ],
      [
        "ĠWith",
        -8.624129902197172
      ],
      [
        "Ġunti",
        -8.625374752188625
      ],
      [
        "Ġdiet",
        -8.626020490069266
      ],
      [
        "Ġsay",
        -8.62612033802695
      ],
      [
        "Ġ&",
        -8.626804880994412
      ],
      [
        "Ġfield",
        -8.627161135244586
      ],
      [
        "Ġoil",
        -8.62898334875946
      ],
      [
        "Ġfamily",
        -8.630273286745485
      ],
      [
        "Ġ$",
        -8.63092157016904
      ],
      [
        "Ġtechnology",
        -8.631957748826995
      ],
      [
        "not",
        -8.633017991209329
      ],
      [
        "Ġwide",
        -8.633061702160582
      ],
      [
        "Ġperiod",
        -8.63412731877207
      ],
      [
        "You",
        -8.635231834929925
      ],
      [
        "Ġtogether",
        -8.635500202633573
      ],
      [
        "âĢĶ",
        -8.638227176840644
      ],
      [
        "Ġage",
        -8.638665554575976
      ],
      [
        "ĠAn",
        -8.640679307428893
      ],
      [
        "Ġword",
        -8.640702084591723
      ],
      [
        "Ġproject",
        -8.64201498227767
      ],
      [
        "ure",
        -8.642686354974884
      ],
      [
        "Ġmaterials",
        -8.644086449000621
      ],
      [
        "Ġmethod",
        -8.644159432095815
      ],
      [
        "Ġbase",
        -8.645020508702906
      ],
      [
        "Ġcost",
        -8.645634715852292
      ],
      [
        "When",
        -8.646727818165264
      ],
      [
        "Ġpaper",
        -8.647572807455507
      ],
      [
        "Ġimprove",
        -8.647938131037506
      ],
      [
        "Ġtypes",
        -8.648062166761703
      ],
      [
        "Ġfull",
        -8.648639140455318
      ],
      [
        "Ġhappen",
        -8.652036573719503
      ],
      [
        "Ġearly",
        -8.654462273765564
      ],
      [
        "ory",
        -8.656231278970969
      ],
      [
        "Ġfree",
        -8.65750141202408
      ],
      [
        "ho",
        -8.657662137566273
      ],
      [
        "Ġmachine",
        -8.658379901419355
      ],
      [
        "ling",
        -8.659933007386496
      ],
      [
        "Ġsimple",
        -8.660952264445562
      ],
      [
        "ow",
        -8.66467416022256
      ],
      [
        "Ġrun",
        -8.664895562426405
      ],
      [
        ".\"Ċ",
        -8.66609991982159
      ],
      [
        "Ġsince",
        -8.667209262095692
      ],
      [
        "Ġfact",
        -8.67045661110339
      ],
      [
        "Ġweight",
        -8.670674471614085
      ],
      [
        "ĠSt",
        -8.670844193235762
      ],
      [
        "Ġleast",
        -8.671712547546733
      ],
      [
        "ĠUniversity",
        -8.673164359509112
      ],
      [
        "Ġsimilar",
        -8.67439144274498
      ],
      [
        "While",
        -8.674400055764234
      ],
      [
        "having",
        -8.675384835658981
      ],
      [
        "Ġopen",
        -8.67995048737395
      ],
      [
        "next",
        -8.681609142927805
      ],
      [
        "Ġtechnique",
        -8.68163457941585
      ],
      [
        "her",
        -8.68167857944005
      ],
      [
        "ber",
        -8.683379809527162
      ],
      [
        "Ġseem",
        -8.683842734810028
      ],
      [
        "min",
        -8.684107925726039
      ],
      [
        "Ġsystems",
        -8.687058177115297
      ],
      [
        "Ġlower",
        -8.687181981152598
      ],
      [
        "ĠNew",
        -8.688168618768369
      ],
      [
        "though",
        -8.692610734333561
      ],
      [
        "Ġold",
        -8.693119319532533
      ],
      [
        "Ġhour",
        -8.693824509771916
      ],
      [
        "no",
        -8.695165696071001
      ],
      [
        "Ġmaintain",
        -8.696416893835163
      ],
      [
        "Ġ[",
        -8.698283634377585
      ],
      [
        "Ġcomputer",
        -8.700089328352089
      ],
      [
        "Ġuser",
        -8.700307133747284
      ],
      [
        "Ġmove",
        -8.701942223614093
      ],
      [
        "ism",
        -8.701968390311833
      ],
      [
        "Ġcheck",
        -8.702760077514432
      ],
      [
        "Ġclear",
        -8.702832504713982
      ],
      [
        "ect",
        -8.703420975892298
      ],
      [
        ")ĊĊ",
        -8.704488359483623
      ],
      [
        "Ġhim",
        -8.70472703264878
      ],
      [
        "ice",
        -8.705579142446112
      ],
      [
        "Ġrole",
        -8.705810733043077
      ],
      [
        "Ġalong",
        -8.708327744633593
      ],
      [
        "land",
        -8.708332141302048
      ],
      [
        "hi",
        -8.709047271066282
      ],
      [
        "ized",
        -8.709761357138047
      ],
      [
        "Ġtop",
        -8.710765142292885
      ],
      [
        "Ġdis",
        -8.71113855125418
      ],
      [
        "ard",
        -8.712975333421767
      ],
      [
        "Ġloss",
        -8.715364764416178
      ],
      [
        "Ġproblems",
        -8.71697388503744
      ],
      [
        "âĢĻs",
        -8.71781853256443
      ],
      [
        "Ġcell",
        -8.71990514848833
      ],
      [
        "ip",
        -8.72022397060794
      ],
      [
        "Ġmodel",
        -8.72061022390584
      ],
      [
        "Ġfocus",
        -8.72252554014473
      ],
      [
        "Ġforce",
        -8.722734036735456
      ],
      [
        "me",
        -8.722789907186218
      ],
      [
        "Ġsocial",
        -8.724336261176841
      ],
      [
        "Ġcreat",
        -8.724395739819824
      ],
      [
        "Ġsolution",
        -8.726231324379215
      ],
      [
        "Ġsign",
        -8.726788357876874
      ],
      [
        "Ġpopulation",
        -8.727181607607948
      ],
      [
        "ĠAmerican",
        -8.727527314957479
      ],
      [
        "Ġskin",
        -8.727945085207999
      ],
      [
        "Ġfuture",
        -8.73099284427195
      ],
      [
        "ĠBy",
        -8.732688465261546
      ],
      [
        "Ġeye",
        -8.732823545092447
      ],
      [
        "Ġmeasure",
        -8.733281287602475
      ],
      [
        "Ġgarden",
        -8.734830701860766
      ],
      [
        "Ġdamage",
        -8.73537833937494
      ],
      [
        "Ġlet",
        -8.737703645082506
      ],
      [
        "Ġlove",
        -8.738761091982704
      ],
      [
        "self",
        -8.74082571920498
      ],
      [
        "Ġactually",
        -8.743399797913312
      ],
      [
        "ĠNo",
        -8.743856478331727
      ],
      [
        "Ġdirect",
        -8.744215226792502
      ],
      [
        "Ġcool",
        -8.745483594438
      ],
      [
        "ĠThat",
        -8.745967711462717
      ],
      [
        "Ġworking",
        -8.745979825053736
      ],
      [
        "Ġfunction",
        -8.746021202919039
      ],
      [
        "Ġgrowth",
        -8.747782849079922
      ],
      [
        "Ġaffect",
        -8.748339882615914
      ],
      [
        "Ġphysical",
        -8.749941098133009
      ],
      [
        "Ġdepend",
        -8.750184040590725
      ],
      [
        "Ġstrong",
        -8.752248012576885
      ],
      [
        "Ġexist",
        -8.75255634509788
      ],
      [
        "Ġmajor",
        -8.753194768811944
      ],
      [
        "Ġsafe",
        -8.75480752869611
      ],
      [
        "Ġpro",
        -8.754842872823904
      ],
      [
        "Ġlive",
        -8.759137401733001
      ],
      [
        "Ġground",
        -8.7643104679709
      ],
      [
        "Ġoccur",
        -8.76440629838831
      ],
      [
        "Ġtypical",
        -8.765404782958743
      ],
      [
        "Ġeasy",
        -8.7669575877133
      ],
      [
        "ence",
        -8.767377535633424
      ],
      [
        "Ġkind",
        -8.768138398177532
      ],
      [
        "ĠRo",
        -8.769056498789297
      ],
      [
        "Ġstep",
        -8.769191073893392
      ],
      [
        "Ġfollow",
        -8.769332927164516
      ],
      [
        "Ġlimit",
        -8.770104266265768
      ],
      [
        "Ġthing",
        -8.770657254022655
      ],
      [
        "Ġsuggest",
        -8.77315788659185
      ],
      [
        "Ġpressure",
        -8.776963498119361
      ],
      [
        "Ġunique",
        -8.776981664508742
      ],
      [
        "Ġquick",
        -8.780908686935128
      ],
      [
        "Ġmakes",
        -8.782171429009846
      ],
      [
        "Ġsub",
        -8.782629884940505
      ],
      [
        "Ġchild",
        -8.783269679974483
      ],
      [
        "Ġclimate",
        -8.78427979740295
      ],
      [
        "ions",
        -8.786712005549013
      ],
      [
        "J",
        -8.789744779309775
      ],
      [
        "Ġproper",
        -8.790367012914114
      ],
      [
        "Ġlikely",
        -8.790422601879715
      ],
      [
        "mm",
        -8.790842978728572
      ],
      [
        "Ġclean",
        -8.792769400802413
      ],
      [
        "Ġindustr",
        -8.793829222068261
      ],
      [
        "ating",
        -8.794403244614251
      ],
      [
        "cu",
        -8.795116118920308
      ],
      [
        "qui",
        -8.795151532394039
      ],
      [
        "either",
        -8.795346692816093
      ],
      [
        "Ġfour",
        -8.797309706091047
      ],
      [
        "Ġproduction",
        -8.797794162733503
      ],
      [
        "pe",
        -8.797877989392653
      ],
      [
        "ĠMa",
        -8.798248163110426
      ],
      [
        "There",
        -8.798858023105508
      ],
      [
        "Ġcomponent",
        -8.800156182624638
      ],
      [
        "Ġabove",
        -8.80015930560575
      ],
      [
        "Ġsingle",
        -8.800309574632493
      ],
      [
        "To",
        -8.800728142796306
      ],
      [
        "Ġheart",
        -8.803085592032659
      ],
      [
        "Ġdoesn",
        -8.804741203510922
      ],
      [
        "ĠCo",
        -8.805705233779836
      ],
      [
        ".\"",
        -8.809569651205866
      ],
      [
        "Ġbrain",
        -8.812100616345205
      ],
      [
        "ĠBa",
        -8.812233777201953
      ],
      [
        "ĠâĢĶ",
        -8.812287354934359
      ],
      [
        "Ġleft",
        -8.81231770645111
      ],
      [
        "Ġtreat",
        -8.81463885905223
      ],
      [
        "Ġface",
        -8.815269594094104
      ],
      [
        "den",
        -8.815945210727005
      ],
      [
        "Ġfast",
        -8.816095512661082
      ],
      [
        "Ġbit",
        -8.81638273656149
      ],
      [
        "Ġdetermine",
        -8.818108431511373
      ],
      [
        "Ġresearcher",
        -8.818361756829095
      ],
      [
        "Ġscience",
        -8.818461380024054
      ],
      [
        "Ġacross",
        -8.819801504694617
      ],
      [
        "Ġnever",
        -8.822317409000586
      ],
      [
        "tion",
        -8.823220406942802
      ],
      [
        "Ġsolar",
        -8.82338471456535
      ],
      [
        "ĠPa",
        -8.82348636265672
      ],
      [
        "Ġnecessar",
        -8.823966833230704
      ],
      [
        "ĠDr",
        -8.823974581077351
      ],
      [
        "Ġland",
        -8.824030633425865
      ],
      [
        "Q",
        -8.824881104764955
      ],
      [
        "Ġbook",
        -8.829232301123255
      ],
      [
        "Ġunderstanding",
        -8.831462842644747
      ],
      [
        "Ġagains",
        -8.834821788857129
      ],
      [
        "Ġbreak",
        -8.835208814607512
      ],
      [
        "Ġavoid",
        -8.835563017678638
      ],
      [
        "Ġcut",
        -8.835678996955025
      ],
      [
        "Ġtimes",
        -8.836615243107575
      ],
      [
        "Ġchemical",
        -8.84091717842967
      ],
      [
        "Ġwarm",
        -8.840977188258588
      ],
      [
        "Ġanswer",
        -8.84300878286452
      ],
      [
        "ĠSome",
        -8.84345205841931
      ],
      [
        "Ġdry",
        -8.843475372718732
      ],
      [
        "Ġblack",
        -8.843714338447864
      ],
      [
        "Ġpast",
        -8.84398492783112
      ],
      [
        "Ġdeep",
        -8.845495725283868
      ],
      [
        "Ġespecial",
        -8.846250464377363
      ],
      [
        "our",
        -8.846391485195088
      ],
      [
        "Ġaccording",
        -8.850130837643704
      ],
      [
        "Ġpattern",
        -8.850507762534711
      ],
      [
        "Ġsea",
        -8.851796206859264
      ],
      [
        "Ġrecent",
        -8.852092090908805
      ],
      [
        "Ġcycle",
        -8.852253196085584
      ],
      [
        "ke",
        -8.85365135466328
      ],
      [
        "Ġfar",
        -8.854506440559607
      ],
      [
        "Ġimage",
        -8.854875979893006
      ],
      [
        "Ġdone",
        -8.855176446439048
      ],
      [
        "ical",
        -8.85672384183911
      ],
      [
        "Ġman",
        -8.857873405584765
      ],
      [
        "Ġfactors",
        -8.858890102970033
      ],
      [
        "ĠCon",
        -8.859224680114433
      ],
      [
        "Ġsignal",
        -8.860515814591832
      ],
      [
        ">",
        -8.861240556315206
      ],
      [
        "For",
        -8.864170169842279
      ],
      [
        "ization",
        -8.865060812546403
      ],
      [
        "Ġcontinue",
        -8.86597810532664
      ],
      [
        "Ġregion",
        -8.866358275853713
      ],
      [
        "Ġarticle",
        -8.867027143253708
      ],
      [
        "ize",
        -8.86712177998704
      ],
      [
        "Ġassociate",
        -8.86760846683271
      ],
      [
        "Ġwhite",
        -8.867787918621211
      ],
      [
        "âĢ¦",
        -8.867882657036844
      ],
      [
        "Ġthought",
        -8.868374312925555
      ],
      [
        "Ġminute",
        -8.868978083112573
      ],
      [
        "Ġamong",
        -8.870149791074446
      ],
      [
        "thing",
        -8.871153544276506
      ],
      [
        "Ġinterest",
        -8.872381403919075
      ],
      [
        "Ġbusiness",
        -8.875580840684389
      ],
      [
        "Ġart",
        -8.878676875205255
      ],
      [
        "Ġauthor",
        -8.881666887047235
      ],
      [
        "Ġpopular",
        -8.883339868717748
      ],
      [
        "Ġeffect",
        -8.885679701634507
      ],
      [
        "Ġactivity",
        -8.888933501983455
      ],
      [
        "Ġgetting",
        -8.889413614876762
      ],
      [
        "con",
        -8.891476216321863
      ],
      [
        "Ġred",
        -8.891602981207756
      ],
      [
        "Ġmean",
        -8.894890967720254
      ],
      [
        "ĠYour",
        -8.895055566157676
      ],
      [
        "ĠDi",
        -8.895280805439985
      ],
      [
        "Ġpropert",
        -8.895286435851972
      ],
      [
        "Ġtoday",
        -8.896546646296125
      ],
      [
        "ĠLa",
        -8.898439149067404
      ],
      [
        "Ġpurpose",
        -8.898594572304361
      ],
      [
        "Ġread",
        -8.900421871536837
      ],
      [
        "Ġpain",
        -8.90406286268703
      ],
      [
        "Ġstation",
        -8.904459389433846
      ],
      [
        "Ġbelieve",
        -8.904710046271092
      ],
      [
        "Ġprofessional",
        -8.905783745525023
      ],
      [
        "Ġwhe",
        -8.906750762136035
      ],
      [
        "Ġeffects",
        -8.907414955224166
      ],
      [
        "act",
        -8.907860203995027
      ],
      [
        "he",
        -8.908230722084145
      ],
      [
        "Ġfee",
        -8.908319735195597
      ],
      [
        "Ġremove",
        -8.90833081397244
      ],
      [
        "Ġbasic",
        -8.90899902817339
      ],
      [
        "Ġspeed",
        -8.909108714126674
      ],
      [
        "Ġfurther",
        -8.90927966190753
      ],
      [
        "Ġflow",
        -8.909662531026257
      ],
      [
        "ember",
        -8.909756424321085
      ],
      [
        "Ġstress",
        -8.91062532770858
      ],
      [
        "Ġbring",
        -8.910774262121786
      ],
      [
        "Ġunit",
        -8.912325970406377
      ],
      [
        "Ġdays",
        -8.912660762338344
      ],
      [
        "all",
        -8.912846914856441
      ],
      [
        "Ġsp",
        -8.912970835614034
      ],
      [
        "Ġsays",
        -8.913209856416838
      ],
      [
        "ready",
        -8.913587469959348
      ],
      [
        "Ġgas",
        -8.914139474764344
      ],
      [
        "Ġlist",
        -8.914779709866073
      ],
      [
        "Ġrecord",
        -8.916353054903382
      ],
      [
        "Ġbuild",
        -8.916838597470894
      ],
      [
        "Ġask",
        -8.919265361929533
      ],
      [
        "ster",
        -8.9196012284146
      ],
      [
        "Ġparent",
        -8.919866520534335
      ],
      [
        "Ġvehicle",
        -8.92069234194829
      ],
      [
        "Ġregular",
        -8.920692814494767
      ],
      [
        "ran",
        -8.921045493460953
      ],
      [
        "Ġelectric",
        -8.921684933398756
      ],
      [
        "Ġblock",
        -8.923126516290003
      ],
      [
        "Ġbacteria",
        -8.923130037149031
      ],
      [
        "by",
        -8.926118836001248
      ],
      [
        "pi",
        -8.928486469312691
      ],
      [
        "So",
        -8.92911271294247
      ],
      [
        "+",
        -8.929994424439844
      ],
      [
        "tra",
        -8.930657449910935
      ],
      [
        "Ġvariety",
        -8.932258868463418
      ],
      [
        "Ġclass",
        -8.932416423977912
      ],
      [
        "Ġplan",
        -8.933603546268476
      ],
      [
        "Ġspecial",
        -8.93401180998466
      ],
      [
        "Ġvideo",
        -8.934949806901441
      ],
      [
        "!ĊĊ",
        -8.93513630067482
      ],
      [
        "âĢĻ",
        -8.935683814801674
      ],
      [
        "ĠZ",
        -8.93665325755941
      ],
      [
        "Ġreport",
        -8.937464378108938
      ],
      [
        "Ġacid",
        -8.937571125896069
      ],
      [
        "Ġweek",
        -8.93936691530768
      ],
      [
        "bi",
        -8.939824023992744
      ],
      [
        "Ġnormal",
        -8.941074731300802
      ],
      [
        "Ġmarket",
        -8.943538704689738
      ],
      [
        "taking",
        -8.944379869136684
      ],
      [
        "und",
        -8.947400361498012
      ],
      [
        "Ġmetal",
        -8.947493103581788
      ],
      [
        "Ġlooking",
        -8.947837072579658
      ],
      [
        "Ġanimal",
        -8.948136848775166
      ],
      [
        "Ġsound",
        -8.951592016537047
      ],
      [
        "ight",
        -8.954314075259052
      ],
      [
        "Ġcold",
        -8.95443300184055
      ],
      [
        "Ġperformance",
        -8.955353523355715
      ],
      [
        "Ġbuilding",
        -8.956517870503593
      ],
      [
        "ĠOn",
        -8.958606141903118
      ],
      [
        "Ġview",
        -8.9588449470242
      ],
      [
        "Ġaddition",
        -8.959124886500566
      ],
      [
        "Ġgreen",
        -8.960800194594132
      ],
      [
        "Ġcarbon",
        -8.961341438049384
      ],
      [
        "Ġaccess",
        -8.962435402691646
      ],
      [
        "ier",
        -8.962501587534511
      ],
      [
        "Ġperform",
        -8.96275050666075
      ],
      [
        "Ġobject",
        -8.963684742521446
      ],
      [
        "Ġbig",
        -8.964099320083815
      ],
      [
        "ĠDo",
        -8.966626263764578
      ],
      [
        "Ġmind",
        -8.96708493470421
      ],
      [
        "Ġwood",
        -8.967565604712911
      ],
      [
        "Ġstructure",
        -8.96814928254981
      ],
      [
        "Ġtell",
        -8.970205867988906
      ],
      [
        "Ġgenetic",
        -8.970744823335867
      ],
      [
        "Ġenjoy",
        -8.97159094611606
      ],
      [
        "Ġinter",
        -8.97317754947795
      ],
      [
        "Re",
        -8.973478696506955
      ],
      [
        "ang",
        -8.975181272430795
      ],
      [
        "Ġhistory",
        -8.97646625724408
      ],
      [
        "Ġshare",
        -8.976611212147182
      ],
      [
        "Ġpo",
        -8.977310405074302
      ],
      [
        "Ġpiece",
        -8.97754505706759
      ],
      [
        "Ġcancer",
        -8.97793178714602
      ],
      [
        "Ġcook",
        -8.978338456795965
      ],
      [
        "Ġcommunity",
        -8.978817422332398
      ],
      [
        "ward",
        -8.97884415232296
      ],
      [
        "Ġbehavior",
        -8.978903543528137
      ],
      [
        "Ġprint",
        -8.979829221940525
      ],
      [
        "Ġtree",
        -8.97996030391726
      ],
      [
        "ok",
        -8.980016755395201
      ],
      [
        "Ġrat",
        -8.981906777051714
      ],
      [
        "Ġmillion",
        -8.98215432084158
      ],
      [
        "Ġterm",
        -8.982486936467321
      ],
      [
        "ach",
        -8.984206627958192
      ],
      [
        "Ġreach",
        -8.984249110549428
      ],
      [
        "Ġtalk",
        -8.985054942398367
      ],
      [
        "Ġma",
        -8.986516054113476
      ],
      [
        "ĠUnit",
        -8.986782103073708
      ],
      [
        "Ġperfect",
        -8.98681513987874
      ],
      [
        "Ġwhole",
        -8.987533296636096
      ],
      [
        "Ġpositive",
        -8.987636935395049
      ],
      [
        "Ġdifficult",
        -8.988571845107469
      ],
      [
        "Ġmatter",
        -8.988999296953498
      ],
      [
        "king",
        -8.989009961978967
      ],
      [
        "pro",
        -8.989518051840822
      ],
      [
        "cy",
        -8.991012543187718
      ],
      [
        "Ġcondition",
        -8.992982522481354
      ],
      [
        "ca",
        -8.993258807796646
      ],
      [
        "Ġtraining",
        -8.99493316406988
      ],
      [
        "Ġenvironmental",
        -8.994976476035134
      ],
      [
        "Ġmix",
        -8.995022519231352
      ],
      [
        "Ġliv",
        -8.995691663254217
      ],
      [
        "Ġrate",
        -8.996666217796037
      ],
      [
        "Ġallows",
        -8.996840498159477
      ],
      [
        "Ġroom",
        -8.997903735656013
      ],
      [
        "Ġpass",
        -8.998264833776338
      ],
      [
        "given",
        -8.998462803226323
      ],
      [
        "!Ċ",
        -8.9986205843267
      ],
      [
        "Ġseed",
        -9.000605856195438
      ],
      [
        "As",
        -9.000995270867053
      ],
      [
        "Ġknowledge",
        -9.001079817185502
      ],
      [
        "der",
        -9.001913705705707
      ],
      [
        "Ġskills",
        -9.00234434560038
      ],
      [
        "lic",
        -9.0028173758041
      ],
      [
        "Ġinside",
        -9.002857444857057
      ],
      [
        "ick",
        -9.003240181810524
      ],
      [
        "port",
        -9.004110406755863
      ],
      [
        "lin",
        -9.004651797765089
      ],
      [
        "ven",
        -9.004912063070798
      ],
      [
        "ell",
        -9.007510000331033
      ],
      [
        "Ġidea",
        -9.008103354586684
      ],
      [
        "Ġapproach",
        -9.00987959911852
      ],
      [
        "ĠAll",
        -9.010391371584896
      ],
      [
        "Ġthough",
        -9.010651299177749
      ],
      [
        "Ġcorrect",
        -9.012492257939105
      ],
      [
        "Ġactivities",
        -9.012579723810752
      ],
      [
        "ĠRa",
        -9.015948688470512
      ],
      [
        "Ġposition",
        -9.01611144845247
      ],
      [
        "ĠAt",
        -9.019276439189714
      ],
      [
        "Ġfeatures",
        -9.019411899843192
      ],
      [
        "Ġcontent",
        -9.020732996605435
      ],
      [
        "Ġear",
        -9.022187598254586
      ],
      [
        "Ġexplain",
        -9.022660753164658
      ],
      [
        "Ġcompany",
        -9.023939521195995
      ],
      [
        "Ġbelow",
        -9.024777944051792
      ],
      [
        "ring",
        -9.025385554653743
      ],
      [
        "Ġyoung",
        -9.026480669991145
      ],
      [
        "Ġwind",
        -9.027239423315644
      ],
      [
        "Ġdogs",
        -9.027850136265911
      ],
      [
        "day",
        -9.028350363161463
      ],
      [
        "Ġdrive",
        -9.02839876170628
      ],
      [
        "Ġstay",
        -9.029074704057052
      ],
      [
        "ĠMo",
        -9.02918568850243
      ],
      [
        "Ġengine",
        -9.029212624078468
      ],
      [
        "ĠLe",
        -9.029497847275222
      ],
      [
        "Ġresponse",
        -9.03035780015984
      ],
      [
        "ĠX",
        -9.03102298379716
      ],
      [
        "Ġprovid",
        -9.032256729794929
      ],
      [
        "=",
        -9.032559123128951
      ],
      [
        "ĠCan",
        -9.034182289968497
      ],
      [
        "Ġaverage",
        -9.034240548583195
      ],
      [
        "Ġbuy",
        -9.034408518849483
      ],
      [
        "selve",
        -9.036823419504229
      ],
      [
        "Ġhouse",
        -9.037329731221629
      ],
      [
        "ĠShe",
        -9.042183399056986
      ],
      [
        "gan",
        -9.042489436705168
      ],
      [
        "ble",
        -9.04256193775997
      ],
      [
        "Ġrequired",
        -9.044333700135176
      ],
      [
        "Ġeasi",
        -9.044449462283067
      ],
      [
        "Ġslow",
        -9.044543973122853
      ],
      [
        "ex",
        -9.045094214432709
      ],
      [
        "Ġexercise",
        -9.046962043756835
      ],
      [
        "Ġcomplex",
        -9.047853792067686
      ],
      [
        "ng",
        -9.049288355621888
      ],
      [
        "aid",
        -9.049879622590272
      ],
      [
        "Ġfall",
        -9.051490503422444
      ],
      [
        "Ġestablish",
        -9.05165582489565
      ],
      [
        "Ġnetwork",
        -9.05383664613889
      ],
      [
        "Ġresources",
        -9.054892666104058
      ],
      [
        "Ġpersonal",
        -9.05501866888305
      ],
      [
        "over",
        -9.055200917842711
      ],
      [
        "Ġpublic",
        -9.055887066528648
      ],
      [
        "ĠBo",
        -9.056273083881049
      ],
      [
        "Ġlocation",
        -9.057131194252053
      ],
      [
        "Ġsun",
        -9.059242609699186
      ],
      [
        "Ġflower",
        -9.060021289113452
      ],
      [
        "ear",
        -9.060952200068511
      ],
      [
        "set",
        -9.06136788807834
      ],
      [
        "Ġtotal",
        -9.061597360610088
      ],
      [
        "Ġmo",
        -9.061712364855405
      ],
      [
        "Ġreceive",
        -9.063247185802418
      ],
      [
        "Ġplastic",
        -9.06346251794613
      ],
      [
        "Ġshape",
        -9.065959012952902
      ],
      [
        "ĠOne",
        -9.066268400770763
      ],
      [
        "ug",
        -9.067458219298551
      ],
      [
        "Ġfruit",
        -9.068423222811653
      ],
      [
        "Ġselect",
        -9.068738555199758
      ],
      [
        "Ġaction",
        -9.069209382249843
      ],
      [
        "Ġopportunit",
        -9.069758813140208
      ],
      [
        "Ġsearch",
        -9.071147986183242
      ],
      [
        "ĠY",
        -9.073133900395067
      ],
      [
        "of",
        -9.0732308943938
      ],
      [
        "X",
        -9.07324603420998
      ],
      [
        "ction",
        -9.073591650749012
      ],
      [
        "ĠBr",
        -9.074849028965613
      ],
      [
        "ship",
        -9.076083173125802
      ],
      [
        "Ġtraditional",
        -9.078450532495111
      ],
      [
        "Ġlate",
        -9.080937143445968
      ],
      [
        "end",
        -9.084005507139874
      ],
      [
        "Ġact",
        -9.084417181647584
      ],
      [
        "we",
        -9.085454901740396
      ],
      [
        "side",
        -9.08693745595806
      ],
      [
        "che",
        -9.087037631653544
      ],
      [
        "tro",
        -9.087252565240217
      ],
      [
        "Ġlater",
        -9.087864300597476
      ],
      [
        "Ġnight",
        -9.087949299223034
      ],
      [
        "ĠNational",
        -9.088034878458924
      ],
      [
        "Ġitem",
        -9.088074228661313
      ],
      [
        "ative",
        -9.088450151489702
      ],
      [
        "[",
        -9.088856477507434
      ],
      [
        "ck",
        -9.089948734817847
      ],
      [
        "Ġpet",
        -9.090655641450832
      ],
      [
        "Ġcover",
        -9.095059065182143
      ],
      [
        "go",
        -9.095580385954715
      ],
      [
        "Ġlo",
        -9.09590078831444
      ],
      [
        "Ġways",
        -9.096906881227236
      ],
      [
        "Ġprovides",
        -9.097962211332526
      ],
      [
        "wa",
        -9.098161074145692
      ],
      [
        "Ġgene",
        -9.098797371696786
      ],
      [
        "Ġbegin",
        -9.098838971273263
      ],
      [
        "Ġagain",
        -9.0992587443143
      ],
      [
        "Ġhold",
        -9.101182075977029
      ],
      [
        "Ġgot",
        -9.1027029066937
      ],
      [
        "Ġprimar",
        -9.103335881065432
      ],
      [
        "Ġsubject",
        -9.103822088265616
      ],
      [
        "Ġmultiple",
        -9.10388298641245
      ],
      [
        "Ġadvantage",
        -9.105209009331563
      ],
      [
        "Ġsense",
        -9.10576778730182
      ],
      [
        "Ġtend",
        -9.105923519454729
      ],
      [
        "afety",
        -9.10724776163834
      ],
      [
        "Ġfit",
        -9.10831410982168
      ],
      [
        "Ġfire",
        -9.108940809728026
      ],
      [
        "Ġreturn",
        -9.109545405028069
      ],
      [
        "ium",
        -9.110679314509564
      ],
      [
        "Ġstop",
        -9.111787771903463
      ],
      [
        "Ġpractice",
        -9.11185353453688
      ],
      [
        "Ġwall",
        -9.112924955373508
      ],
      [
        "Ġetc",
        -9.113990708123325
      ],
      [
        "Ġmethods",
        -9.114060433020004
      ],
      [
        "Ġdescribe",
        -9.114246915460496
      ],
      [
        "Ġprotein",
        -9.116082555605873
      ],
      [
        "Ġaddress",
        -9.116387728601786
      ],
      [
        "Ġfun",
        -9.116426737527838
      ],
      [
        "Ġparticular",
        -9.1190246588082
      ],
      [
        "Ġcommunication",
        -9.122008838177727
      ],
      [
        "Ġseen",
        -9.122121455140784
      ],
      [
        "ĠLi",
        -9.12429577319836
      ],
      [
        "mon",
        -9.124469353361704
      ],
      [
        "Ġlanguage",
        -9.126312999861804
      ],
      [
        "Ġcharacter",
        -9.12649819256253
      ],
      [
        "Ġself",
        -9.126940674691127
      ],
      [
        "Ġmuscle",
        -9.129090132816335
      ],
      [
        "Ġprobabl",
        -9.129092656343763
      ],
      [
        "Ġrelative",
        -9.129816732506946
      ],
      [
        "Ġnature",
        -9.130509403868244
      ],
      [
        "ĠDNA",
        -9.131108812379884
      ],
      [
        "ping",
        -9.131316481895368
      ],
      [
        "Ġidentify",
        -9.13193353995278
      ],
      [
        "Ġentire",
        -9.13193394283718
      ],
      [
        "Ġchoice",
        -9.134861158830692
      ],
      [
        "Ġdoing",
        -9.135943197183217
      ],
      [
        "Ġam",
        -9.138075656323617
      ],
      [
        "Ġsugar",
        -9.139119344279909
      ],
      [
        "Ġfat",
        -9.139760770414163
      ],
      [
        "Ġanti",
        -9.141513888772137
      ],
      [
        "Ġmodern",
        -9.143410240049686
      ],
      [
        "Ġlayer",
        -9.144113780675989
      ],
      [
        "Ġwave",
        -9.144317176953235
      ],
      [
        "qua",
        -9.144997544861956
      ],
      [
        "Ġglobal",
        -9.14604201924061
      ],
      [
        "Ġtools",
        -9.14628916607234
      ],
      [
        "Ġconcern",
        -9.146291557657417
      ],
      [
        "Ġtravel",
        -9.146293277824526
      ],
      [
        "ĠUS",
        -9.148166271686929
      ],
      [
        "Ġstory",
        -9.148872614286883
      ],
      [
        "Ġbalance",
        -9.149206544176096
      ],
      [
        "air",
        -9.149972256366318
      ],
      [
        "kin",
        -9.150239207894252
      ],
      [
        "Ġthroughout",
        -9.151763461252315
      ],
      [
        "Ġoverall",
        -9.155949974057313
      ],
      [
        "ĠMar",
        -9.156153895917694
      ],
      [
        "Ġsomeone",
        -9.157155806541962
      ],
      [
        "Ġpaint",
        -9.157686222990794
      ],
      [
        "Ġbad",
        -9.159509049467877
      ],
      [
        "Ġmonths",
        -9.159941280134724
      ],
      [
        "Ġrelease",
        -9.160137023553542
      ],
      [
        "Ġcharge",
        -9.160335899878485
      ],
      [
        "Ġcontact",
        -9.160907847943207
      ],
      [
        "Ġserve",
        -9.162394395538824
      ],
      [
        "Ġeffort",
        -9.163797277446813
      ],
      [
        "Ġpage",
        -9.165974219501166
      ],
      [
        "Ġalmost",
        -9.166883278589632
      ],
      [
        "Ġsymptom",
        -9.16754031870543
      ],
      [
        "Ġeducation",
        -9.167558635941203
      ],
      [
        "Ġseason",
        -9.167783792947542
      ],
      [
        "Ġwaste",
        -9.168065329882683
      ],
      [
        "Ġfuel",
        -9.16971414415828
      ],
      [
        "Ġoption",
        -9.172015848390023
      ],
      [
        "ĠScience",
        -9.175009364880331
      ],
      [
        "ĠAI",
        -9.17617086719892
      ],
      [
        "Ġstudies",
        -9.177130711312635
      ],
      [
        "Ġservice",
        -9.179593474681043
      ],
      [
        "Ġstandard",
        -9.18132354777076
      ],
      [
        "Ġmone",
        -9.18179257464462
      ],
      [
        "Ġcrucial",
        -9.18611956084295
      ],
      [
        "Ġhot",
        -9.186255528429882
      ],
      [
        "Ġcode",
        -9.1865111681842
      ],
      [
        "Ġfive",
        -9.186668745175226
      ],
      [
        "Ġsh",
        -9.18757384099187
      ],
      [
        "Ġbreed",
        -9.189245020355516
      ],
      [
        "lan",
        -9.189468623647087
      ],
      [
        "mp",
        -9.190422344965466
      ],
      [
        "-based",
        -9.190657971015494
      ],
      [
        "Ġchoose",
        -9.19120203073888
      ],
      [
        "ide",
        -9.191484031496328
      ],
      [
        "Ġever",
        -9.19210508759508
      ],
      [
        "hu",
        -9.192500384301898
      ],
      [
        "Ġinfection",
        -9.193349029261103
      ],
      [
        "Ġinstead",
        -9.19370475759978
      ],
      [
        "Ġoperation",
        -9.19458595894298
      ],
      [
        "Ġsite",
        -9.19571825317364
      ],
      [
        "Ġreaction",
        -9.196270611079893
      ],
      [
        "Al",
        -9.196901425389235
      ],
      [
        "Ġspot",
        -9.197904256843382
      ],
      [
        "Ġscientists",
        -9.19942654498412
      ],
      [
        "Ġrelated",
        -9.199453840216126
      ],
      [
        "Ġtip",
        -9.201740240854004
      ],
      [
        "Ġincreasing",
        -9.20281187493376
      ],
      [
        "ĠEarth",
        -9.202821313085742
      ],
      [
        "Ġex",
        -9.203123518245867
      ],
      [
        "Ġdegree",
        -9.20317095466408
      ],
      [
        "cc",
        -9.204323960791104
      ],
      [
        "âĢĵ",
        -9.204746968513325
      ],
      [
        "away",
        -9.204941146162437
      ],
      [
        "Ġgain",
        -9.205002527846862
      ],
      [
        "Ġlink",
        -9.205900189987638
      ],
      [
        "Ġoptions",
        -9.206895132306425
      ],
      [
        "Ġcountry",
        -9.207784131611463
      ],
      [
        "ile",
        -9.207927692146422
      ],
      [
        "Ġstand",
        -9.208093880324352
      ],
      [
        "Ġsleep",
        -9.208588708715798
      ],
      [
        "Ġdiscuss",
        -9.20882877944878
      ],
      [
        "Ġjob",
        -9.210505954193795
      ],
      [
        "Ġdigital",
        -9.212395651981996
      ],
      [
        "ator",
        -9.215510041426237
      ],
      [
        "Ġcl",
        -9.216522069341138
      ],
      [
        "Ġrepresent",
        -9.217288980066638
      ],
      [
        "for",
        -9.21760824673026
      ],
      [
        "ner",
        -9.217814645596892
      ],
      [
        "Ġsituation",
        -9.218232916325832
      ],
      [
        "Ġrest",
        -9.219418146684395
      ],
      [
        "Ġweather",
        -9.220712824324464
      ],
      [
        "Ġtable",
        -9.220840334623652
      ],
      [
        "Ġsimply",
        -9.221351376346195
      ],
      [
        "Ġtarget",
        -9.221357354072053
      ],
      [
        "Ġyet",
        -9.221528713133129
      ],
      [
        "Ġpercent",
        -9.22273777777885
      ],
      [
        "ov",
        -9.22284508082666
      ],
      [
        "Ġhalf",
        -9.223238587088137
      ],
      [
        "Ġdark",
        -9.224551858795191
      ],
      [
        "mer",
        -9.225636908276464
      ],
      [
        "Ġelements",
        -9.22763734650821
      ],
      [
        "Ġconnect",
        -9.228357745453811
      ],
      [
        "Ġoutside",
        -9.228749673422469
      ],
      [
        "ĠPre",
        -9.230373385639616
      ],
      [
        "Ġextreme",
        -9.230742313571447
      ],
      [
        "Ġexpert",
        -9.230744351650385
      ],
      [
        "Ġfinal",
        -9.231498532191894
      ],
      [
        "Ġstarted",
        -9.232550300847947
      ],
      [
        "work",
        -9.233396990857514
      ],
      [
        "Ġexact",
        -9.234034147461974
      ],
      [
        "Ġfactor",
        -9.23417793379471
      ],
      [
        "Ġsometime",
        -9.234829394298185
      ],
      [
        "|",
        -9.23600014090919
      ],
      [
        "ĠMe",
        -9.237263350037065
      ],
      [
        "Ġkids",
        -9.237865808790932
      ],
      [
        "Ġvi",
        -9.23816078575348
      ],
      [
        "ĠEx",
        -9.238447913883835
      ],
      [
        "water",
        -9.238631589328568
      ],
      [
        "ru",
        -9.238825405737586
      ],
      [
        "Ġscreen",
        -9.23895013026388
      ],
      [
        "Ġdecision",
        -9.240228576711
      ],
      [
        "Ġmu",
        -9.241002753657265
      ],
      [
        "ox",
        -9.243129180943782
      ],
      [
        "Ġlength",
        -9.243284444812568
      ],
      [
        "Ġprevious",
        -9.243410950254429
      ],
      [
        "que",
        -9.244027887389596
      ],
      [
        "Ġappear",
        -9.24455082042527
      ],
      [
        "ĠOr",
        -9.245612089300504
      ],
      [
        "ake",
        -9.245633472662131
      ],
      [
        "Ġanything",
        -9.249297385673811
      ],
      [
        "ĠPro",
        -9.249346569448525
      ],
      [
        "ĠStates",
        -9.249559251324158
      ],
      [
        "Ġstore",
        -9.249738015317163
      ],
      [
        "Ġguide",
        -9.251166795029572
      ],
      [
        "ose",
        -9.25134661403261
      ],
      [
        "time",
        -9.25146796270969
      ],
      [
        "Ġwon",
        -9.252205309442726
      ],
      [
        "Ġwalk",
        -9.253061589273212
      ],
      [
        "ack",
        -9.25323158611971
      ],
      [
        "Ġtrees",
        -9.253274960647154
      ],
      [
        "q",
        -9.2533076062203
      ],
      [
        "Ġcenter",
        -9.255107153643952
      ],
      [
        "Ġfresh",
        -9.256242988508978
      ],
      [
        "ware",
        -9.256284913800712
      ],
      [
        "Ġtaken",
        -9.256404844810977
      ],
      [
        "Ġeyes",
        -9.25665622377946
      ],
      [
        "Ġkill",
        -9.257939651854745
      ],
      [
        "Ġadult",
        -9.257974054808678
      ],
      [
        "Ġeggs",
        -9.258449854090316
      ],
      [
        "Ġstyle",
        -9.259598192254082
      ],
      [
        "Ġconnection",
        -9.263027908610724
      ],
      [
        "Ġstage",
        -9.264418188369302
      ],
      [
        "Ġothers",
        -9.266374317604305
      ],
      [
        "Ġstrength",
        -9.266774905113618
      ],
      [
        "Ġtool",
        -9.269846798018838
      ],
      [
        "Ġfinding",
        -9.270544519094962
      ],
      [
        "Ġinitial",
        -9.270905032257202
      ],
      [
        "Ġculture",
        -9.27132578908694
      ],
      [
        "ĠPo",
        -9.27337431241087
      ],
      [
        "ĠLo",
        -9.27388213185676
      ],
      [
        "Ġexplore",
        -9.274336355492853
      ],
      [
        "Be",
        -9.274673091057188
      ],
      [
        "Ġpay",
        -9.275140038183457
      ],
      [
        "Ġapplication",
        -9.27561217621374
      ],
      [
        "Ġmass",
        -9.276130023438164
      ],
      [
        "ĠSouth",
        -9.27664202990319
      ],
      [
        "Ġevidence",
        -9.279099831447084
      ],
      [
        "Ġenhance",
        -9.27919077876209
      ],
      [
        "yourself",
        -9.28027864213064
      ],
      [
        "ĠHere",
        -9.281825852723738
      ],
      [
        "ĠSa",
        -9.282381126201926
      ],
      [
        "Ġdraw",
        -9.28401675378917
      ],
      [
        "Ġcustomer",
        -9.284031303481935
      ],
      [
        "ĠHo",
        -9.286250452797308
      ],
      [
        ").Ċ",
        -9.288078835023349
      ],
      [
        "AR",
        -9.288454874645089
      ],
      [
        "Ġmedical",
        -9.289081990282906
      ],
      [
        "Ġactive",
        -9.28924845331241
      ],
      [
        "Ġoriginal",
        -9.29021583428806
      ],
      [
        "Ġpot",
        -9.293319976817276
      ],
      [
        "Ġregard",
        -9.294081496518404
      ],
      [
        "Ġaccount",
        -9.294085303174771
      ],
      [
        "let",
        -9.294098033899092
      ],
      [
        "mat",
        -9.295179171394562
      ],
      [
        "ĠSe",
        -9.295948371488532
      ],
      [
        "Ġphoto",
        -9.296330079299372
      ],
      [
        "Ġarm",
        -9.29979496543589
      ],
      [
        "Ġcr",
        -9.300617287961764
      ],
      [
        "One",
        -9.301133267296697
      ],
      [
        "Ġefficient",
        -9.302492703104685
      ],
      [
        "ze",
        -9.30324065177219
      ],
      [
        "Ġmanagement",
        -9.30457873531692
      ],
      [
        "Ġtrack",
        -9.305886222972724
      ],
      [
        "Ġmov",
        -9.306067617878362
      ],
      [
        "Ġago",
        -9.3073322745511
      ],
      [
        "Ġdeliver",
        -9.307580573347884
      ],
      [
        "Ġwar",
        -9.308724494711228
      ],
      [
        "quite",
        -9.309407245690242
      ],
      [
        "Ġapplications",
        -9.309478523280792
      ],
      [
        "Ġconstant",
        -9.310982847058796
      ],
      [
        "Ġsuccessful",
        -9.311202950763192
      ],
      [
        "Ġanalysis",
        -9.312688265165292
      ],
      [
        "Ġstor",
        -9.313111113124492
      ],
      [
        "fer",
        -9.313488009386012
      ],
      [
        "Ġpublish",
        -9.31419296079076
      ],
      [
        "Ġvisual",
        -9.31611525008029
      ],
      [
        "tain",
        -9.316224686889967
      ],
      [
        "ĠTa",
        -9.317871462465524
      ],
      [
        "Ġvegetable",
        -9.319543420114403
      ],
      [
        "Ġdistance",
        -9.319548011677137
      ],
      [
        "Ġequal",
        -9.320345537408098
      ],
      [
        "form",
        -9.321229811529264
      ],
      [
        "Ġspread",
        -9.322108476702883
      ],
      [
        "Ġadditional",
        -9.325575859212751
      ],
      [
        "uff",
        -9.325914821692066
      ],
      [
        "Ġmentioned",
        -9.326116494600033
      ],
      [
        "Ġworks",
        -9.326310230193045
      ],
      [
        "Ġwomen",
        -9.326459621043483
      ],
      [
        "Â°",
        -9.326459703986622
      ],
      [
        "low",
        -9.327271237049043
      ],
      [
        "Ġspring",
        -9.327738391927497
      ],
      [
        "Ġpick",
        -9.327949754466742
      ],
      [
        "Ġbirds",
        -9.328153203454008
      ],
      [
        "Ġcity",
        -9.328548528443209
      ],
      [
        "Ġdai",
        -9.329954555154252
      ],
      [
        "Ġli",
        -9.33090660193131
      ],
      [
        "Ġbehind",
        -9.333397360932814
      ],
      [
        "ĠSu",
        -9.333505407073297
      ],
      [
        "Ġwinter",
        -9.333564403631184
      ],
      [
        "Ġwebsite",
        -9.335161018234302
      ],
      [
        "mar",
        -9.335622686982187
      ],
      [
        "Ġdiscover",
        -9.336206653314331
      ],
      [
        "Ġhearing",
        -9.33644395632998
      ],
      [
        "Ġnotice",
        -9.337283105060823
      ],
      [
        "Ġstudent",
        -9.338364398089563
      ],
      [
        "Ġextra",
        -9.338679689462392
      ],
      [
        "Ġcaus",
        -9.3395379247552
      ],
      [
        "ĠAfter",
        -9.33954105276472
      ],
      [
        "ĠMy",
        -9.34010065609952
      ],
      [
        "Ġhear",
        -9.34042455662372
      ],
      [
        "Ġcontribute",
        -9.341060341292316
      ],
      [
        "Ġmental",
        -9.34159247037774
      ],
      [
        "Ġsection",
        -9.3421778505393
      ],
      [
        "Ġindicate",
        -9.342801459420262
      ],
      [
        "Ġachieve",
        -9.343172364076215
      ],
      [
        "ĠCar",
        -9.343754627938496
      ],
      [
        "Ġequipment",
        -9.343913626330298
      ],
      [
        "Ġocean",
        -9.34391407507792
      ],
      [
        "Ġtissue",
        -9.343938294800978
      ],
      [
        "ĠTh",
        -9.344365170282554
      ],
      [
        "ki",
        -9.34441153994703
      ],
      [
        "ĠNe",
        -9.345586437570924
      ],
      [
        "Ġpi",
        -9.347024996795042
      ],
      [
        "Ġshows",
        -9.347314043425271
      ],
      [
        "Ġnegative",
        -9.347444159240048
      ],
      [
        "Ġmeat",
        -9.347645795961403
      ],
      [
        "Ġinfluence",
        -9.347670996816456
      ],
      [
        "Ġservices",
        -9.34806853307673
      ],
      [
        "Ġmovement",
        -9.348431720145792
      ],
      [
        "online",
        -9.349697146231309
      ],
      [
        "Ġsave",
        -9.351108546176048
      ],
      [
        "Ġmale",
        -9.3511460424569
      ],
      [
        "ĠNorth",
        -9.351217595434072
      ],
      [
        "Ġorganization",
        -9.351442298488193
      ],
      [
        "ĠHealth",
        -9.352069998714466
      ],
      [
        "Ġisn",
        -9.354093099042228
      ],
      [
        "can",
        -9.355094964864698
      ],
      [
        "Ġdeal",
        -9.355503993398294
      ],
      [
        "Ġice",
        -9.355906516875796
      ],
      [
        "pl",
        -9.356257015272792
      ],
      [
        "Ġstrateg",
        -9.356490529840814
      ],
      [
        "Ġhorse",
        -9.356998612317463
      ],
      [
        "Ġfill",
        -9.35784833152834
      ],
      [
        "Ġroad",
        -9.358011873099258
      ],
      [
        "cid",
        -9.358356479966712
      ],
      [
        "cor",
        -9.358702199903025
      ],
      [
        "ja",
        -9.35926223420427
      ],
      [
        "$",
        -9.359887733351574
      ],
      [
        "Ġseparate",
        -9.360102337572162
      ],
      [
        "ĠResearch",
        -9.360345168686464
      ],
      [
        "ĠSchool",
        -9.360451790117168
      ],
      [
        "Ġdetail",
        -9.3609720415764
      ],
      [
        "Ġapply",
        -9.361562175085862
      ],
      [
        "Ġdrink",
        -9.36169193724314
      ],
      [
        "Ġfilter",
        -9.36169262734903
      ],
      [
        "Ġfeed",
        -9.362059060245835
      ],
      [
        "Ġbo",
        -9.362879240689082
      ],
      [
        "Ġgovernment",
        -9.363902046303911
      ],
      [
        "Ġbattery",
        -9.365286897929384
      ],
      [
        "ric",
        -9.366164303307006
      ],
      [
        "ĠUse",
        -9.369510304183528
      ],
      [
        "Ġmulti",
        -9.370631259103355
      ],
      [
        "rac",
        -9.371424806978428
      ],
      [
        "Ġleading",
        -9.371622687712785
      ],
      [
        "ade",
        -9.371762591888295
      ],
      [
        "Ġpe",
        -9.372409213330124
      ],
      [
        "Ġlack",
        -9.372706569615978
      ],
      [
        "ient",
        -9.375413165586767
      ],
      [
        "Ġevents",
        -9.375662602383926
      ],
      [
        "An",
        -9.376155147030849
      ],
      [
        "Ġvisit",
        -9.376697402748604
      ],
      [
        "Ġbuil",
        -9.377271247459747
      ],
      [
        "ulat",
        -9.377396959795734
      ],
      [
        "ities",
        -9.378005337378102
      ],
      [
        "Ġadvance",
        -9.378203697647114
      ],
      [
        "Ġattention",
        -9.378596458496954
      ],
      [
        "Ġcolour",
        -9.379847730515324
      ],
      [
        "Ġbio",
        -9.380310548601628
      ],
      [
        "Ġreading",
        -9.381593140335168
      ],
      [
        "Ġdisplay",
        -9.381681766258216
      ],
      [
        "Ġmedia",
        -9.384416604574994
      ],
      [
        "Ġhope",
        -9.384670177102077
      ],
      [
        "Ġbr",
        -9.384776731896324
      ],
      [
        "Ġremain",
        -9.384985434417269
      ],
      [
        "wise",
        -9.38577816488108
      ],
      [
        "Ġburn",
        -9.386412594586572
      ],
      [
        "Ġcompar",
        -9.386912824481172
      ],
      [
        "Ġfemale",
        -9.387124873669126
      ],
      [
        "Why",
        -9.38819081996112
      ],
      [
        "ĠHa",
        -9.389133573001228
      ],
      [
        "Ġdirection",
        -9.390152886650814
      ],
      [
        "Ġattack",
        -9.390829911960273
      ],
      [
        "ash",
        -9.39102895692249
      ],
      [
        "Ġharm",
        -9.391301110075954
      ],
      [
        "Ġglass",
        -9.39176891680652
      ],
      [
        "Ġsuper",
        -9.392323067330056
      ],
      [
        "Ġmonitor",
        -9.39451162559242
      ],
      [
        "Ġfront",
        -9.39473466015345
      ],
      [
        "Ġsalt",
        -9.394816038684244
      ],
      [
        "oid",
        -9.395392224960204
      ],
      [
        "ER",
        -9.39566446270349
      ],
      [
        "like",
        -9.395759870457567
      ],
      [
        "cent",
        -9.396569096255336
      ],
      [
        "-to",
        -9.397137279406248
      ],
      [
        "Ġsupply",
        -9.398225834254038
      ],
      [
        "Ġchance",
        -9.39828346446365
      ],
      [
        "ĠAmerica",
        -9.398853657016229
      ],
      [
        "Ġ{",
        -9.400275090409211
      ],
      [
        "Ġparticularly",
        -9.400302240066196
      ],
      [
        "head",
        -9.40090909644127
      ],
      [
        "Ġstick",
        -9.40112296857678
      ],
      [
        "Ġblue",
        -9.40163131942676
      ],
      [
        "Ġ+",
        -9.401910735816934
      ],
      [
        "}",
        -9.402012403151268
      ],
      [
        "Ġmicro",
        -9.403150683678504
      ],
      [
        "Ġevent",
        -9.403261936574523
      ],
      [
        "Ġtri",
        -9.403529776892873
      ],
      [
        "ung",
        -9.40508944828192
      ],
      [
        "Ġcompare",
        -9.40595120077364
      ],
      [
        "Ġcritical",
        -9.406641421113854
      ],
      [
        "Ġenzyme",
        -9.407571460382384
      ],
      [
        "ible",
        -9.407912080797534
      ],
      [
        "Ġmusic",
        -9.4082538603367
      ],
      [
        "\\u",
        -9.410040760155969
      ],
      [
        "Ġfarm",
        -9.410408526634708
      ],
      [
        "ĠPh",
        -9.41121989563048
      ],
      [
        "gra",
        -9.411650548370403
      ],
      [
        "Ġplayer",
        -9.412128346030634
      ],
      [
        "Ġinsect",
        -9.412475816707325
      ],
      [
        "Ġorganic",
        -9.412600027721377
      ],
      [
        "Ġsix",
        -9.412614594521116
      ],
      [
        "more",
        -9.415636855598658
      ],
      [
        "Ġho",
        -9.416263559064513
      ],
      [
        "ĠWater",
        -9.416342779882047
      ],
      [
        "Ġearth",
        -9.416895263178615
      ],
      [
        "Can",
        -9.41772361467584
      ],
      [
        "âĢĿ",
        -9.418437392128618
      ],
      [
        "ign",
        -9.418548290278924
      ],
      [
        "Ġscientific",
        -9.418903022825845
      ],
      [
        "Ġfine",
        -9.4191525620485
      ],
      [
        "Ġweeks",
        -9.420710463258928
      ],
      [
        "Ġdefine",
        -9.421172518807104
      ],
      [
        "ĠMi",
        -9.421338378766713
      ],
      [
        "Ġdate",
        -9.42164952815353
      ],
      [
        "Ġbox",
        -9.422330484572436
      ],
      [
        "Ġhole",
        -9.423330142814498
      ],
      [
        "uck",
        -9.423501602261284
      ],
      [
        "Ġca",
        -9.4244813746077
      ],
      [
        "cal",
        -9.424656564251986
      ],
      [
        "Ġprotection",
        -9.424935852462273
      ],
      [
        "ification",
        -9.426668837232524
      ],
      [
        "Ġelse",
        -9.426692534756445
      ],
      [
        "Ġscale",
        -9.426996122443851
      ],
      [
        "Ġcontainer",
        -9.427278334439013
      ],
      [
        "ists",
        -9.427904184433425
      ],
      [
        "Ġfight",
        -9.428501338270866
      ],
      [
        "But",
        -9.428516135149362
      ],
      [
        "Ġalternative",
        -9.428585374857844
      ],
      [
        "ĠSp",
        -9.43003732762578
      ],
      [
        "Ġtransport",
        -9.430470739413124
      ],
      [
        "Ġreview",
        -9.430591175737131
      ],
      [
        "Ġgoal",
        -9.431896729142917
      ],
      [
        "Ġtrue",
        -9.433458183203465
      ],
      [
        "Ġfeature",
        -9.433750149009205
      ],
      [
        "Ġdemand",
        -9.434226893827788
      ],
      [
        "Ġmonth",
        -9.435455170097114
      ],
      [
        "ult",
        -9.437757854700344
      ],
      [
        "amp",
        -9.438179083512264
      ],
      [
        "Ġfl",
        -9.438867981625169
      ],
      [
        "Ġroot",
        -9.439797654261152
      ],
      [
        "ĠAre",
        -9.439949647324983
      ],
      [
        "Ġmodels",
        -9.4399792166081
      ],
      [
        "Ġliquid",
        -9.440018719739914
      ],
      [
        "Ġbond",
        -9.44009924021311
      ],
      [
        "Ġsummer",
        -9.440661762865812
      ],
      [
        "ition",
        -9.442089153289682
      ],
      [
        "**",
        -9.44244363752993
      ],
      [
        "ĠYes",
        -9.44304795569473
      ],
      [
        "Ġpair",
        -9.44339654681234
      ],
      [
        "Ġdoor",
        -9.443418670665498
      ],
      [
        "Ġsunspot",
        -9.443880941974076
      ],
      [
        "Ġpump",
        -9.443982804277027
      ],
      [
        "tter",
        -9.444191184850355
      ],
      [
        "ious",
        -9.44508193940212
      ],
      [
        "Ġhair",
        -9.445882267980558
      ],
      [
        "where",
        -9.4465757360887
      ],
      [
        "Ġversion",
        -9.446747301875906
      ],
      [
        "Ġelectrical",
        -9.4467831134729
      ],
      [
        "Ġcharacteristic",
        -9.447897088865624
      ],
      [
        "Ġterms",
        -9.447906778986976
      ],
      [
        "com",
        -9.449895944011375
      ],
      [
        "ology",
        -9.45090840937663
      ],
      [
        "ĠâĢľ",
        -9.451074864202504
      ],
      [
        "Ġtopic",
        -9.45132809707155
      ],
      [
        "ĠPi",
        -9.451485259726372
      ],
      [
        "ger",
        -9.452737706435665
      ],
      [
        "Ġbone",
        -9.4529592717254
      ],
      [
        "Ġsuccess",
        -9.45343402025872
      ],
      [
        "gg",
        -9.453911397965294
      ],
      [
        "Ġhabitat",
        -9.454142636100617
      ],
      [
        "Ġcamera",
        -9.455673770423816
      ],
      [
        "Ġfoods",
        -9.456958361739726
      ],
      [
        "Ġwild",
        -9.457632948632362
      ],
      [
        "Ġswitch",
        -9.457907119133864
      ],
      [
        "Ġprocesses",
        -9.45794666886323
      ],
      [
        "Ġbaby",
        -9.459608635608316
      ],
      [
        "Ġrunning",
        -9.459699403563029
      ],
      [
        "ĠNa",
        -9.459805656941054
      ],
      [
        "Ġfly",
        -9.460228876388555
      ],
      [
        "Ġappropriate",
        -9.460872782826716
      ],
      [
        "Ġuseful",
        -9.462885132555876
      ],
      [
        "ĠWar",
        -9.46457019773484
      ],
      [
        "Ġfeeling",
        -9.46499176137674
      ],
      [
        "ĠCa",
        -9.465050464313332
      ],
      [
        "Ġcolors",
        -9.466314985719468
      ],
      [
        "Ġinjur",
        -9.467956876913057
      ],
      [
        "Ġcountr",
        -9.469123840857469
      ],
      [
        "gen",
        -9.46932907550594
      ],
      [
        "Ġbrand",
        -9.469980066818852
      ],
      [
        "ĠMost",
        -9.470899424079771
      ],
      [
        "companie",
        -9.47156185012762
      ],
      [
        "Ġdeath",
        -9.471737005588732
      ],
      [
        "Ġdrop",
        -9.472062207188028
      ],
      [
        "Ġmen",
        -9.473775346962253
      ],
      [
        "Ġconcept",
        -9.473996017797775
      ],
      [
        "Ġevolution",
        -9.47408931967852
      ],
      [
        "Ġimportance",
        -9.475646415869235
      ],
      [
        "Ġseries",
        -9.475665814534198
      ],
      [
        "Ġcame",
        -9.47571112696502
      ],
      [
        ".S",
        -9.475802308933336
      ],
      [
        "led",
        -9.475993284843168
      ],
      [
        "ler",
        -9.476146078878752
      ],
      [
        "Ġwear",
        -9.478124998136078
      ],
      [
        "atch",
        -9.478274241467016
      ],
      [
        "Ġadapt",
        -9.478327452128918
      ],
      [
        "ĠAir",
        -9.478490905131338
      ],
      [
        "Ġprice",
        -9.47853158126204
      ],
      [
        "ple",
        -9.478615498341815
      ],
      [
        "Some",
        -9.480872491958344
      ],
      [
        "iv",
        -9.48261052969646
      ],
      [
        "own",
        -9.483102077864476
      ],
      [
        "Ġpromote",
        -9.48363177635058
      ],
      [
        "ĠUn",
        -9.48425546148888
      ],
      [
        "Another",
        -9.48454085806284
      ],
      [
        "Ġrise",
        -9.485783601445643
      ],
      [
        "Ġbag",
        -9.485890972807072
      ],
      [
        "Ġlocate",
        -9.486367147138209
      ],
      [
        "Ġenter",
        -9.488470451874834
      ],
      [
        "Ġingredient",
        -9.48972907993714
      ],
      [
        "Ġwatch",
        -9.489754132787883
      ],
      [
        "Ġnoise",
        -9.489812813034405
      ],
      [
        "Ġinput",
        -9.489950349923356
      ],
      [
        "Ġapplie",
        -9.490076597391994
      ],
      [
        "Ġrecommended",
        -9.490480399183063
      ],
      [
        "Ġrelationship",
        -9.492068784973426
      ],
      [
        "Ġapp",
        -9.492402157687607
      ],
      [
        "Ġaim",
        -9.492751812768342
      ],
      [
        "Ġtowards",
        -9.492862832787289
      ],
      [
        "ĠOf",
        -9.49341314298954
      ],
      [
        "Ma",
        -9.49384170755248
      ],
      [
        "Ġrepair",
        -9.494024979976931
      ],
      [
        "ĠNot",
        -9.49419398561188
      ],
      [
        "cha",
        -9.494535985875592
      ],
      [
        "Ġrequirement",
        -9.495183415697031
      ],
      [
        "Ġoutput",
        -9.496420869241271
      ],
      [
        "ĠGo",
        -9.496639860705375
      ],
      [
        "bu",
        -9.49731573514787
      ],
      [
        "ches",
        -9.49741115980151
      ],
      [
        "Ġfile",
        -9.498156359757044
      ],
      [
        "Ġwriting",
        -9.498416017847951
      ],
      [
        "Ġeasier",
        -9.49908766032238
      ],
      [
        "Ġmeet",
        -9.499137800950386
      ],
      [
        "Ġmolecules",
        -9.500629686535053
      ],
      [
        "har",
        -9.50092706131525
      ],
      [
        "Ġefficienc",
        -9.501402241719202
      ],
      [
        "board",
        -9.502599577404272
      ],
      [
        "Ġsoft",
        -9.503586334218785
      ],
      [
        "Ġideal",
        -9.503696209257969
      ],
      [
        "Ġball",
        -9.503853667835866
      ],
      [
        "Ġpotato",
        -9.504106782751382
      ],
      [
        "Ġframe",
        -9.505107590512443
      ],
      [
        "Ġhandle",
        -9.505909360401226
      ],
      [
        "Ġgenerate",
        -9.50614285194677
      ],
      [
        "came",
        -9.506956437930114
      ],
      [
        "Ġfr",
        -9.508701387844887
      ],
      [
        "bility",
        -9.509206234797098
      ],
      [
        "Ġinstruction",
        -9.510345355104564
      ],
      [
        "Ġinstall",
        -9.511592113204824
      ],
      [
        "Ġeveryone",
        -9.511654118494938
      ],
      [
        "ĠCh",
        -9.51559496709626
      ],
      [
        "Ġboard",
        -9.51606663033211
      ],
      [
        "ture",
        -9.516319867233076
      ],
      [
        "Ġclaim",
        -9.518389968798283
      ],
      [
        "Ġflavor",
        -9.518689735468472
      ],
      [
        "Ġextend",
        -9.518701624360984
      ],
      [
        "Ġrock",
        -9.518748795556624
      ],
      [
        "Ġcombination",
        -9.519032475200389
      ],
      [
        "Ġcount",
        -9.520006177708982
      ],
      [
        "Ġdocument",
        -9.520788545446582
      ],
      [
        "Ġrefer",
        -9.521443348945445
      ],
      [
        "fully",
        -9.521488255504972
      ],
      [
        "Ġbi",
        -9.524612010839425
      ],
      [
        "ĠWorld",
        -9.5251665981746
      ],
      [
        "ES",
        -9.525192484759213
      ],
      [
        "Ġsteps",
        -9.52660709305326
      ],
      [
        "Ġdetect",
        -9.527000817843382
      ],
      [
        "Ġcentury",
        -9.527118925676191
      ],
      [
        "uch",
        -9.527606060845764
      ],
      [
        "gar",
        -9.52889813366274
      ],
      [
        "tri",
        -9.529196238238775
      ],
      [
        "Ġhit",
        -9.529684040687853
      ],
      [
        "Ġload",
        -9.530581324326771
      ],
      [
        "Ġfluid",
        -9.53136792725784
      ],
      [
        "press",
        -9.532793449879035
      ],
      [
        "Z",
        -9.532800285452293
      ],
      [
        "Ġproteins",
        -9.532963627371378
      ],
      [
        "Ġenable",
        -9.532984099682146
      ],
      [
        "Ġflight",
        -9.533655820623288
      ],
      [
        "On",
        -9.534872829832494
      ],
      [
        "par",
        -9.535056597718643
      ],
      [
        "Ã",
        -9.535562235637544
      ],
      [
        "Ġmaximu",
        -9.535619044397418
      ],
      [
        "Ġspend",
        -9.537554723192097
      ],
      [
        "Ġsensor",
        -9.537760462467975
      ],
      [
        "Ġpanel",
        -9.538161553530353
      ],
      [
        "Ġcrop",
        -9.538688067477144
      ],
      [
        "Ġresponsibl",
        -9.539896302798727
      ],
      [
        "cle",
        -9.540035142508811
      ],
      [
        "Ġmatch",
        -9.541418414915494
      ],
      [
        "ome",
        -9.541441557791623
      ],
      [
        "Ġencourage",
        -9.542042215762256
      ],
      [
        "Ġmechanism",
        -9.542042247733171
      ],
      [
        "Ġlives",
        -9.543127348150476
      ],
      [
        "Ġleg",
        -9.543906338939216
      ],
      [
        "Ġtank",
        -9.544199248333788
      ],
      [
        "Ġmotor",
        -9.544393728776756
      ],
      [
        "once",
        -9.545214141763612
      ],
      [
        "ka",
        -9.545838919122051
      ],
      [
        "Ġbear",
        -9.5464788678946
      ],
      [
        "-in",
        -9.547638538983731
      ],
      [
        "Ġdecrease",
        -9.55110883573477
      ],
      [
        "Ġmoment",
        -9.551499414132556
      ],
      [
        "Ġreflect",
        -9.553670682638176
      ],
      [
        "Ġgra",
        -9.553767965900915
      ],
      [
        "Ġrich",
        -9.554638256438825
      ],
      [
        "ual",
        -9.554797234166344
      ],
      [
        "Ġcollect",
        -9.55534501248225
      ],
      [
        "-up",
        -9.561128902691522
      ],
      [
        "ĠJu",
        -9.561357170404747
      ],
      [
        "Ġexpand",
        -9.561575359926682
      ],
      [
        "spite",
        -9.561604571319483
      ],
      [
        "Ġcarry",
        -9.563093192398368
      ],
      [
        "Ġtask",
        -9.563556681350065
      ],
      [
        "ĠBlack",
        -9.563722338521842
      ],
      [
        "Ġcloth",
        -9.564141676975254
      ],
      [
        "Ġelectronic",
        -9.564324891258655
      ],
      [
        "Ġgeneration",
        -9.564489752007152
      ],
      [
        "ather",
        -9.56567659833975
      ],
      [
        "Ġteeth",
        -9.56815931669961
      ],
      [
        "Ġvoltage",
        -9.568227602773508
      ],
      [
        "Ġprett",
        -9.568342592307411
      ],
      [
        "Ġphone",
        -9.570251117761211
      ],
      [
        "Ġmaintenance",
        -9.570377939716222
      ],
      [
        "Ġpoor",
        -9.570593524573074
      ],
      [
        "Do",
        -9.572340034562906
      ],
      [
        "Ġtaste",
        -9.572586028592625
      ],
      [
        "chi",
        -9.573027685993983
      ],
      [
        "ĠMore",
        -9.573407265280755
      ],
      [
        "ular",
        -9.573553347230384
      ],
      [
        "comp",
        -9.573595435809557
      ],
      [
        "Ġbar",
        -9.573768730918292
      ],
      [
        "Ġgrade",
        -9.574397172715685
      ],
      [
        "-p",
        -9.575581684150634
      ],
      [
        "ĠDec",
        -9.575865732762203
      ],
      [
        "Ġserious",
        -9.577024564809651
      ],
      [
        "Ġwait",
        -9.57705886626605
      ],
      [
        "Ġmother",
        -9.577225570780222
      ],
      [
        "ĠFrom",
        -9.577379507367642
      ],
      [
        "Ġsort",
        -9.5776628567652
      ],
      [
        "ese",
        -9.577742245262076
      ],
      [
        "ants",
        -9.577801603686982
      ],
      [
        "With",
        -9.577938991022172
      ],
      [
        "ĠWho",
        -9.57906925808548
      ],
      [
        "Ġobtain",
        -9.579245778307872
      ],
      [
        "-term",
        -9.579641028039962
      ],
      [
        "ĠAdditional",
        -9.580188106874978
      ],
      [
        "Ġimmediate",
        -9.58147776039322
      ],
      [
        "Ġtrans",
        -9.581550079944932
      ],
      [
        "Ġsoftware",
        -9.581582078308111
      ],
      [
        "ĠMany",
        -9.581720343935912
      ],
      [
        "Ġten",
        -9.581925992766342
      ],
      [
        "Ġslight",
        -9.5830829265248
      ],
      [
        "log",
        -9.583392232627308
      ],
      [
        ".com",
        -9.583640670648157
      ],
      [
        "Ġpull",
        -9.584103110563
      ],
      [
        "Ġpound",
        -9.585277627373683
      ],
      [
        "ĠGra",
        -9.585559192419808
      ],
      [
        "ĠAr",
        -9.585613891979488
      ],
      [
        "Ġprojects",
        -9.587043674718398
      ],
      [
        "light",
        -9.587470626638948
      ],
      [
        "Ġla",
        -9.588165883263834
      ],
      [
        "Ġremember",
        -9.588206841135577
      ],
      [
        "abl",
        -9.588597796701936
      ],
      [
        "Ġgenes",
        -9.589064981983896
      ],
      [
        "Ġlab",
        -9.590632313710424
      ],
      [
        "care",
        -9.591208399096168
      ],
      [
        "pot",
        -9.591928340339454
      ],
      [
        "Ġbottom",
        -9.592713984238564
      ],
      [
        "Ġcouple",
        -9.59271650340338
      ],
      [
        "pp",
        -9.59370505405143
      ],
      [
        "Ġintroduce",
        -9.594865148211989
      ],
      [
        "De",
        -9.594913671487635
      ],
      [
        "Ġplate",
        -9.595737452201252
      ],
      [
        "Ġseek",
        -9.595940453456585
      ],
      [
        "Ġmanufactur",
        -9.5968833418661
      ],
      [
        "Ġcross",
        -9.597327538335849
      ],
      [
        "Ġtouch",
        -9.59822832821196
      ],
      [
        "ÂŃ",
        -9.599518450378149
      ],
      [
        "By",
        -9.600696945718395
      ],
      [
        "Ġtrain",
        -9.60069817349109
      ],
      [
        "Ġintegrat",
        -9.601794792131098
      ],
      [
        "Ġaccept",
        -9.601795859733528
      ],
      [
        "Ġinstance",
        -9.60181716204171
      ],
      [
        "Ġdie",
        -9.603120892714765
      ],
      [
        "Ġfrequent",
        -9.603827026647629
      ],
      [
        "rus",
        -9.604041217194116
      ],
      [
        "Ġfigure",
        -9.604079954226766
      ],
      [
        "men",
        -9.6044552164146
      ],
      [
        "Ġplann",
        -9.604539575592655
      ],
      [
        "ĠMay",
        -9.606016013537984
      ],
      [
        "Ġsolid",
        -9.6064207700492
      ],
      [
        "Co",
        -9.606976183687427
      ],
      [
        "Ġelement",
        -9.608607114826338
      ],
      [
        "Ġsmooth",
        -9.608659586716154
      ],
      [
        "izing",
        -9.609127155953033
      ],
      [
        "ju",
        -9.609572333857702
      ],
      [
        "Ġexpected",
        -9.609904557251363
      ],
      [
        "Ġhost",
        -9.611175104600775
      ],
      [
        "Ġsustainabl",
        -9.611184041685611
      ],
      [
        "Ġeconomic",
        -9.612162325935095
      ],
      [
        "Ġdidn",
        -9.612294867497464
      ],
      [
        "Ġvision",
        -9.616246746723451
      ],
      [
        "Ġdiabet",
        -9.617888061807072
      ],
      [
        "Ġmembers",
        -9.618519325309808
      ],
      [
        "Ġbird",
        -9.61958906108273
      ],
      [
        "Ġdoctor",
        -9.620213350491174
      ],
      [
        "Ġlaw",
        -9.62024218263804
      ],
      [
        "ari",
        -9.620382708271006
      ],
      [
        "Ġconstruction",
        -9.62205027337054
      ],
      [
        "Ġlu",
        -9.622829569106337
      ],
      [
        "Ġmanage",
        -9.622987296694266
      ],
      [
        "Ġparticles",
        -9.62310913575486
      ],
      [
        "ĠWhy",
        -9.623578342232731
      ],
      [
        "Ġreplace",
        -9.623649443487636
      ],
      [
        "Ġaccurate",
        -9.624863558933251
      ],
      [
        "Ġbasi",
        -9.625885408939268
      ],
      [
        "ĠCenter",
        -9.62722733242312
      ],
      [
        "Ġimages",
        -9.627307044518243
      ],
      [
        "Ġready",
        -9.628514138653973
      ],
      [
        "ace",
        -9.628722526223068
      ],
      [
        "imp",
        -9.62918811735966
      ],
      [
        "ĠEven",
        -9.6301042253971
      ],
      [
        "Ġexperiment",
        -9.630302351761618
      ],
      [
        "ix",
        -9.632096939391465
      ],
      [
        "Ġmap",
        -9.63240386818488
      ],
      [
        "Ġnothing",
        -9.633670714566442
      ],
      [
        "Ġheavy",
        -9.634278600455456
      ],
      [
        "Ġplanet",
        -9.634578519373136
      ],
      [
        "Ġvia",
        -9.635802666825526
      ],
      [
        "Ġfe",
        -9.635866545187064
      ],
      [
        "Ġideas",
        -9.63651658139836
      ],
      [
        "Ġround",
        -9.636874099713278
      ],
      [
        "istic",
        -9.639047938553592
      ],
      [
        "Ġcapacity",
        -9.640852003193467
      ],
      [
        "Ġwindow",
        -9.64165976483579
      ],
      [
        "rate",
        -9.641929941597017
      ],
      [
        "ĠâĢ¦",
        -9.642567265250412
      ],
      [
        "Ġmagnetic",
        -9.64275548878312
      ],
      [
        "Ġrecover",
        -9.644000261947305
      ],
      [
        "Ġresistance",
        -9.646382492281784
      ],
      [
        "Ġpicture",
        -9.64809846472652
      ],
      [
        "Ġcup",
        -9.648134026317862
      ],
      [
        "ong",
        -9.648239078649311
      ],
      [
        "ĠInstitute",
        -9.648478779069446
      ],
      [
        "Ġ--",
        -9.648773050954842
      ],
      [
        "Ġcommonly",
        -9.64907565663862
      ],
      [
        "Ġrare",
        -9.651023010092386
      ],
      [
        "Ġdu",
        -9.652090636489596
      ],
      [
        "Ġdisorder",
        -9.653268528184585
      ],
      [
        "Ġbeautiful",
        -9.653270330179026
      ],
      [
        "Ġconsist",
        -9.653500561828285
      ],
      [
        "Ġimplement",
        -9.654843093519332
      ],
      [
        "ĠMu",
        -9.655212392853882
      ],
      [
        "Ġcircuit",
        -9.655671962439571
      ],
      [
        "Ġrice",
        -9.656325218613212
      ],
      [
        "Ġstem",
        -9.65635250812718
      ],
      [
        "IN",
        -9.656591966613677
      ],
      [
        "Ġpest",
        -9.65704844498076
      ],
      [
        "Ġdiseases",
        -9.657058891364546
      ],
      [
        "Ġship",
        -9.657516876410394
      ],
      [
        "Ġchallenges",
        -9.657800827753416
      ],
      [
        "Ġsoon",
        -9.657818456614578
      ],
      [
        "ĠJohn",
        -9.657894245969054
      ],
      [
        "Ġdesire",
        -9.65808438275424
      ],
      [
        "><",
        -9.65820507735744
      ],
      [
        "Ġmode",
        -9.659181188787606
      ],
      [
        "Ġwonder",
        -9.659859532970865
      ],
      [
        "yond",
        -9.660052126510983
      ],
      [
        "Ġpath",
        -9.661204977036284
      ],
      [
        "ĠUE",
        -9.66193014349698
      ],
      [
        "He",
        -9.66249829265684
      ],
      [
        "Ġmemory",
        -9.6625573557307
      ],
      [
        "Ġmill",
        -9.665275867165946
      ],
      [
        "Ġfoot",
        -9.665289233684318
      ],
      [
        "No",
        -9.665386070125304
      ],
      [
        "ĠVi",
        -9.668468165265336
      ],
      [
        "Ġmoistur",
        -9.669419525998515
      ],
      [
        "ĠFa",
        -9.669812862649138
      ],
      [
        "Ġwire",
        -9.671326288123314
      ],
      [
        "Ġheight",
        -9.67133073065915
      ],
      [
        "ĠGod",
        -9.671602434548312
      ],
      [
        "Ġsetting",
        -9.67175104819328
      ],
      [
        "Ġthousand",
        -9.672662458893058
      ],
      [
        "Ġrapid",
        -9.672665760703977
      ],
      [
        "lar",
        -9.67360222080104
      ],
      [
        "Ġmeaning",
        -9.673872430240124
      ],
      [
        "Ġreducing",
        -9.675113389304808
      ],
      [
        "These",
        -9.67532078658527
      ],
      [
        "top",
        -9.678011220099108
      ],
      [
        "Ġappearance",
        -9.678042998474162
      ],
      [
        "Ġrule",
        -9.679635852034814
      ],
      [
        "Ġfabric",
        -9.680033534928182
      ],
      [
        "AN",
        -9.680282480421443
      ],
      [
        "Ġvolume",
        -9.680996196819304
      ],
      [
        "ĠPe",
        -9.68110586651163
      ],
      [
        "how",
        -9.681710553449747
      ],
      [
        "Ġcommercial",
        -9.682503241579198
      ],
      [
        "Ġemploy",
        -9.682913181792772
      ],
      [
        "IS",
        -9.683510049706678
      ],
      [
        "ĠDu",
        -9.683516910642862
      ],
      [
        "tur",
        -9.68483220414854
      ],
      [
        "Ġcleaning",
        -9.68570432769952
      ],
      [
        "ought",
        -9.686695711479729
      ],
      [
        "Ġdiscovered",
        -9.688557329361208
      ],
      [
        "Ġwrite",
        -9.68912985452683
      ],
      [
        "east",
        -9.689315987140388
      ],
      [
        "Ġraise",
        -9.689689125080596
      ],
      [
        "Ġconvert",
        -9.689962128894594
      ],
      [
        "Ġbright",
        -9.690352495545486
      ],
      [
        "ĠOur",
        -9.690639514289844
      ],
      [
        "back",
        -9.690705493762383
      ],
      [
        "Ġled",
        -9.691111815808394
      ],
      [
        "Ġmouth",
        -9.693104469507288
      ],
      [
        "Now",
        -9.694455288726342
      ],
      [
        "Ġcosts",
        -9.694770588967035
      ],
      [
        "Ġattempt",
        -9.694944997711762
      ],
      [
        "Ġaircraft",
        -9.695066224284718
      ],
      [
        "Ġfriends",
        -9.696185663098618
      ],
      [
        "Ġmid",
        -9.696452937000911
      ],
      [
        "Ch",
        -9.698530904256751
      ],
      [
        "len",
        -9.699040254501412
      ],
      [
        "rie",
        -9.699837661905246
      ],
      [
        "Ġbirth",
        -9.699842417510052
      ],
      [
        "Ġtherefor",
        -9.69990259276969
      ],
      [
        "Ġfinish",
        -9.700025346737888
      ],
      [
        "lock",
        -9.701161498037337
      ],
      [
        "Ġgl",
        -9.70206632381374
      ],
      [
        "Ġdead",
        -9.702750306954686
      ],
      [
        "serv",
        -9.703423007059204
      ],
      [
        "Ġrobot",
        -9.704024727085477
      ],
      [
        "Ġedge",
        -9.704350923668091
      ],
      [
        "Ġprogress",
        -9.704488481598649
      ],
      [
        "Ġmotion",
        -9.70507462110515
      ],
      [
        "tting",
        -9.70529287325493
      ],
      [
        "Ġpl",
        -9.706135390052587
      ],
      [
        "ĠMin",
        -9.7064055426559
      ],
      [
        "Ġfossil",
        -9.70753570286853
      ],
      [
        "Ġwheel",
        -9.710881580874403
      ],
      [
        "efore",
        -9.712619076563724
      ],
      [
        "Ġsquare",
        -9.71262243141467
      ],
      [
        "bin",
        -9.712820245323233
      ],
      [
        "Ġreported",
        -9.712909923528091
      ],
      [
        "Ġsell",
        -9.713444393932017
      ],
      [
        "Ġdriver",
        -9.713958121229988
      ],
      [
        "Ġva",
        -9.71412510345846
      ],
      [
        "del",
        -9.714442614469192
      ],
      [
        "ĠEn",
        -9.714447165654608
      ],
      [
        "Ġegg",
        -9.714582850343936
      ],
      [
        "Ġgiving",
        -9.71520757240755
      ],
      [
        "ough",
        -9.715274101699734
      ],
      [
        "ham",
        -9.715284052234212
      ],
      [
        "ĠState",
        -9.715987845813824
      ],
      [
        "And",
        -9.716003281855166
      ],
      [
        "Ġspin",
        -9.716201286644168
      ],
      [
        "ĠEuropean",
        -9.716283711451773
      ],
      [
        "Ġcomfort",
        -9.716369300384008
      ],
      [
        "lus",
        -9.716935362337844
      ],
      [
        "Ġpredict",
        -9.71794945237237
      ],
      [
        "char",
        -9.719329830038372
      ],
      [
        "aught",
        -9.720269952717809
      ],
      [
        "ĠYork",
        -9.720294488291444
      ],
      [
        "Ġtransition",
        -9.720382520879522
      ],
      [
        "Ġsuitabl",
        -9.720804388357674
      ],
      [
        "Ġskill",
        -9.720944447643824
      ],
      [
        "Ġpowerful",
        -9.72211314371478
      ],
      [
        "Ġcombine",
        -9.722429574803426
      ],
      [
        "ker",
        -9.725328101484582
      ],
      [
        "Ġabsorb",
        -9.72543843667016
      ],
      [
        "Ġmessage",
        -9.725609603215856
      ],
      [
        "Ġmedium",
        -9.725893922324508
      ],
      [
        "Ġcollection",
        -9.727025686551706
      ],
      [
        "Ġangle",
        -9.727863627932756
      ],
      [
        "Ġanyone",
        -9.728211314542412
      ],
      [
        "Ġelectron",
        -9.729600477565246
      ],
      [
        "Ġteaching",
        -9.73089514657767
      ],
      [
        "Ġoxygen",
        -9.73321046612474
      ],
      [
        "Ġthird",
        -9.733211928467128
      ],
      [
        "ST",
        -9.735160690837954
      ],
      [
        "Ġobserved",
        -9.735791900043242
      ],
      [
        "Ġcompound",
        -9.735822718870876
      ],
      [
        "Ġexposure",
        -9.73601745815425
      ],
      [
        "Ġgoe",
        -9.736176318114154
      ],
      [
        "cro",
        -9.736927094221414
      ],
      [
        "oxide",
        -9.73715552989458
      ],
      [
        "Ġadjust",
        -9.737960933903183
      ],
      [
        "Ġconcentration",
        -9.738425588162723
      ],
      [
        "Ġfrequency",
        -9.738429779052986
      ],
      [
        "Ġsevere",
        -9.738751156534777
      ],
      [
        "Ġthus",
        -9.739123172117594
      ],
      [
        "ĠEnglish",
        -9.741126396485512
      ],
      [
        "Di",
        -9.742185752686217
      ],
      [
        "duct",
        -9.742547693068108
      ],
      [
        "Ġplatform",
        -9.74366809023185
      ],
      [
        "Ġprocessing",
        -9.744260682469804
      ],
      [
        "Ġcoming",
        -9.744823580902066
      ],
      [
        "oma",
        -9.745278343380836
      ],
      [
        "ĠJo",
        -9.746963422096425
      ],
      [
        "ĠLearn",
        -9.747743504538828
      ],
      [
        "Pa",
        -9.747839049623746
      ],
      [
        "ĠOther",
        -9.748839136676544
      ],
      [
        "Ġexcellent",
        -9.748938426147465
      ],
      [
        "Ġcur",
        -9.749125818706148
      ],
      [
        "ĠNow",
        -9.74951923821688
      ],
      [
        "Ġstock",
        -9.749676663569089
      ],
      [
        "Ġmis",
        -9.75015693856924
      ],
      [
        "Ġsuit",
        -9.751559596145002
      ],
      [
        "Ġcommand",
        -9.751586733325237
      ],
      [
        "Ġwrong",
        -9.751652284023914
      ],
      [
        "Ġchicken",
        -9.751740704196497
      ],
      [
        "middle",
        -9.751882096827144
      ],
      [
        "Ġconnected",
        -9.75193017337494
      ],
      [
        "are",
        -9.752807391555049
      ],
      [
        "ĠCO",
        -9.752970244466525
      ],
      [
        "stone",
        -9.753000520817436
      ],
      [
        "Pro",
        -9.753115793535317
      ],
      [
        "cular",
        -9.753349909288527
      ],
      [
        "ily",
        -9.753636490993596
      ],
      [
        "Ġstuff",
        -9.75425534580224
      ],
      [
        "ĠEach",
        -9.754870761738092
      ],
      [
        "Qu",
        -9.755178689250329
      ],
      [
        "Ġpractices",
        -9.756550589563156
      ],
      [
        "Ġshift",
        -9.756898687534669
      ],
      [
        "ĠGerman",
        -9.75690046680126
      ],
      [
        "Ġmedication",
        -9.756910184713824
      ],
      [
        "Ġreveal",
        -9.75691681917212
      ],
      [
        "Ġmilk",
        -9.757067635852462
      ],
      [
        "Ġstar",
        -9.75731448982359
      ],
      [
        "lat",
        -9.7577374086453
      ],
      [
        "pre",
        -9.75792867465468
      ],
      [
        "âĢ¢",
        -9.75859693583254
      ],
      [
        "Ġband",
        -9.75890889848576
      ],
      [
        "ole",
        -9.75922563768554
      ],
      [
        "Ġgives",
        -9.760577423204444
      ],
      [
        "Ġmeasurement",
        -9.761005489586202
      ],
      [
        "use",
        -9.76285524771447
      ],
      [
        "Ġinteresting",
        -9.763007568440672
      ],
      [
        "ĠGa",
        -9.763062086110434
      ],
      [
        "Ġmiles",
        -9.76393433165996
      ],
      [
        "mark",
        -9.764888919900248
      ],
      [
        "Ġdivers",
        -9.764921732174225
      ],
      [
        "Ġpush",
        -9.765003810690413
      ],
      [
        "han",
        -9.765066222318945
      ],
      [
        "Ġexpect",
        -9.765321784999111
      ],
      [
        "ĠIndia",
        -9.76579599325385
      ],
      [
        "Ġoutdoor",
        -9.767605927245803
      ],
      [
        "formed",
        -9.76796979789593
      ],
      [
        "ĠFe",
        -9.768336780723924
      ],
      [
        "Ġbrown",
        -9.76859529560676
      ],
      [
        "my",
        -9.769178800088968
      ],
      [
        "Ġchang",
        -9.77007415129594
      ],
      [
        "Ġtherap",
        -9.770249224801354
      ],
      [
        "nia",
        -9.77052143923252
      ],
      [
        "Ġworth",
        -9.771208593255814
      ],
      [
        "ĠAfrica",
        -9.772608649656636
      ],
      [
        "Ġcard",
        -9.77301010934437
      ],
      [
        "Ġfloor",
        -9.773027418242084
      ],
      [
        "Ġbodie",
        -9.773392281538737
      ],
      [
        "Ġflat",
        -9.773543749430123
      ],
      [
        "Ġuses",
        -9.77455920503036
      ],
      [
        "Ġnutrients",
        -9.77561805980865
      ],
      [
        "Ġcolon",
        -9.77624918241262
      ],
      [
        "lost",
        -9.777221334356192
      ],
      [
        "Ġplease",
        -9.778432740258337
      ],
      [
        "Ġmiss",
        -9.78010778859252
      ],
      [
        "Ġreference",
        -9.781660825142868
      ],
      [
        "lay",
        -9.781932888245723
      ],
      [
        "Ġhands",
        -9.78252306415309
      ],
      [
        "Ġexpression",
        -9.782677764771016
      ],
      [
        "ĠEurope",
        -9.783078502740878
      ],
      [
        "Ġfamili",
        -9.78341313134068
      ],
      [
        "Step",
        -9.78370841854565
      ],
      [
        "Ġsequence",
        -9.783728048752463
      ],
      [
        "Ġpark",
        -9.784054799367071
      ],
      [
        "Ġtrip",
        -9.784870211059836
      ],
      [
        "Ġdistribution",
        -9.786674832460193
      ],
      [
        "Ġbackground",
        -9.786843268271138
      ],
      [
        "Ġaren",
        -9.787020548248028
      ],
      [
        "ped",
        -9.787184846199697
      ],
      [
        "AM",
        -9.787946626043986
      ],
      [
        "Ġsend",
        -9.78808789818789
      ],
      [
        "Ġthreat",
        -9.788544261878595
      ],
      [
        "Ġha",
        -9.788974217029129
      ],
      [
        "Ġcontext",
        -9.789473043067725
      ],
      [
        "some",
        -9.790464185095988
      ],
      [
        "Ġspeaker",
        -9.790945885255454
      ],
      [
        "Ġemission",
        -9.79213037965285
      ],
      [
        "Ġminimum",
        -9.792130805151814
      ],
      [
        "Ġthin",
        -9.792229396371209
      ],
      [
        "Ġpa",
        -9.792780741339817
      ],
      [
        "Ġwent",
        -9.792839241353557
      ],
      [
        "ĠCor",
        -9.7935131942162
      ],
      [
        "Ġteachers",
        -9.79427233488638
      ],
      [
        "<",
        -9.794886452462602
      ],
      [
        "ern",
        -9.794903506434572
      ],
      [
        "Ġpresence",
        -9.79492348561341
      ],
      [
        "Ġensur",
        -9.795540804795992
      ],
      [
        "duction",
        -9.795747026143603
      ],
      [
        "Ġfund",
        -9.796368218210048
      ],
      [
        "ĠArt",
        -9.79671549962378
      ],
      [
        "ept",
        -9.79717388040178
      ],
      [
        "Ġsociety",
        -9.797415965613355
      ],
      [
        "Ġroll",
        -9.797442026423616
      ],
      [
        "ĠMan",
        -9.797899150785542
      ],
      [
        "Ġstates",
        -9.79978552417951
      ],
      [
        "ĠNOT",
        -9.800509561011538
      ],
      [
        "Ġfiber",
        -9.800614526548973
      ],
      [
        "ĠMarch",
        -9.801760301667963
      ],
      [
        "Ġformula",
        -9.801847448556153
      ],
      [
        "Ġaffected",
        -9.802659535877478
      ],
      [
        "Ġvariation",
        -9.80342296954045
      ],
      [
        "Ġcommunit",
        -9.803496410034878
      ],
      [
        "OR",
        -9.8038282535864
      ],
      [
        "Ġsecurit",
        -9.804751794320683
      ],
      [
        "Ġexpos",
        -9.805516267189066
      ],
      [
        "ĠSea",
        -9.805567252801954
      ],
      [
        "Ġjoint",
        -9.805681380952617
      ],
      [
        "Ġjourney",
        -9.80601881786961
      ],
      [
        "Ġlargest",
        -9.806327380888344
      ],
      [
        "ĠMake",
        -9.808121408318824
      ],
      [
        "Ġdynamic",
        -9.808337332234435
      ],
      [
        "Ġtire",
        -9.808845284280244
      ],
      [
        "Ġonto",
        -9.808881290028278
      ],
      [
        "Th",
        -9.808884157990178
      ],
      [
        "art",
        -9.809070422858614
      ],
      [
        "LE",
        -9.810315276954498
      ],
      [
        "Ġsample",
        -9.810603134511425
      ],
      [
        "Ġforward",
        -9.810993938561058
      ],
      [
        "ĠLet",
        -9.811062774704396
      ],
      [
        "Ġsustain",
        -9.811358001645509
      ],
      [
        "},",
        -9.811540158911576
      ],
      [
        "Ġjoin",
        -9.811997151908969
      ],
      [
        "ĠCom",
        -9.812391235564895
      ],
      [
        "ĠAccording",
        -9.81263384124262
      ],
      [
        "ĠTra",
        -9.813285812136993
      ],
      [
        "za",
        -9.813346441580665
      ],
      [
        "PS",
        -9.81359125770564
      ],
      [
        "@",
        -9.814445827179586
      ],
      [
        "Ġfacilit",
        -9.815297717783054
      ],
      [
        "Ġrecommend",
        -9.815399729258369
      ],
      [
        "Ġherb",
        -9.815675425850667
      ],
      [
        "Ġsymbol",
        -9.817318608073936
      ],
      [
        "ĠMon",
        -9.817515254299916
      ],
      [
        "Ġmarine",
        -9.817580503013051
      ],
      [
        "Ġconsistent",
        -9.81783735900666
      ],
      [
        "van",
        -9.81810738100849
      ],
      [
        "Ġshot",
        -9.818241889126622
      ],
      [
        "Ġstone",
        -9.818395492588698
      ],
      [
        "Ġstream",
        -9.819051308675704
      ],
      [
        "ĠJust",
        -9.819632349177075
      ],
      [
        "AD",
        -9.819845776056296
      ],
      [
        "Ġerror",
        -9.820111538665206
      ],
      [
        "ĠAdd",
        -9.820138696510678
      ],
      [
        "Ġphase",
        -9.820172837677696
      ],
      [
        "Ġtasks",
        -9.820365654055385
      ],
      [
        "Ġdrug",
        -9.82122977974062
      ],
      [
        "Ġlabel",
        -9.82129534997639
      ],
      [
        "Ġexpress",
        -9.821719251694908
      ],
      [
        "Ġselection",
        -9.82226779078555
      ],
      [
        "matic",
        -9.822632416957582
      ],
      [
        "Ġconduct",
        -9.822657190986028
      ],
      [
        "Ġcutting",
        -9.823234749254674
      ],
      [
        "IC",
        -9.824842497503038
      ],
      [
        "right",
        -9.824899095115224
      ],
      [
        "lie",
        -9.825012330620002
      ],
      [
        "get",
        -9.825492735912691
      ],
      [
        "rat",
        -9.82550716040938
      ],
      [
        "Ġexpensive",
        -9.825794229080692
      ],
      [
        "Ġannual",
        -9.825805726488811
      ],
      [
        "ool",
        -9.82591318579344
      ],
      [
        "ock",
        -9.827671937804814
      ],
      [
        "Ġdrawing",
        -9.828967354303428
      ],
      [
        "ĠOver",
        -9.829395202765872
      ],
      [
        "MS",
        -9.83040579238008
      ],
      [
        "Ġorgan",
        -9.830658893016912
      ],
      [
        "onic",
        -9.83097042506397
      ],
      [
        "Ġyellow",
        -9.831516041212431
      ],
      [
        "dium",
        -9.831950157343105
      ],
      [
        "ĠThei",
        -9.83219695305894
      ],
      [
        "inches",
        -9.832872963422965
      ],
      [
        "iness",
        -9.83297147943801
      ],
      [
        "Ġextract",
        -9.833509907909075
      ],
      [
        "â",
        -9.8343701264615
      ],
      [
        "arch",
        -9.83534357789118
      ],
      [
        "ĠDur",
        -9.835634500675056
      ],
      [
        "ified",
        -9.83642026958228
      ],
      [
        "ĠSi",
        -9.836710568343424
      ],
      [
        "Ġecosystem",
        -9.837279284343005
      ],
      [
        "fish",
        -9.837403878325665
      ],
      [
        "Ġweb",
        -9.837914912217515
      ],
      [
        "ĠGu",
        -9.83909343315258
      ],
      [
        "ĠTe",
        -9.8399650858808
      ],
      [
        "Ġdecade",
        -9.840166952606925
      ],
      [
        "Ġhuge",
        -9.84017746724228
      ],
      [
        "Ġjournal",
        -9.841399927563998
      ],
      [
        "gre",
        -9.842259877638543
      ],
      [
        "Ġthick",
        -9.842847546761906
      ],
      [
        "Ġfail",
        -9.843198522051033
      ],
      [
        "Ġfan",
        -9.844221211484651
      ],
      [
        "Ġdetails",
        -9.847438217911495
      ],
      [
        "ration",
        -9.847742793924564
      ],
      [
        "Ġpractical",
        -9.848016539509748
      ],
      [
        "ami",
        -9.84853146234159
      ],
      [
        "Ġidentifie",
        -9.84854902851402
      ],
      [
        "Ġvital",
        -9.848937697443382
      ],
      [
        "ĠKa",
        -9.848946384875628
      ],
      [
        "Ġpilot",
        -9.8489620417569
      ],
      [
        "#",
        -9.849979277434958
      ],
      [
        "Ġconsumer",
        -9.849985039694232
      ],
      [
        "Ġmedicine",
        -9.851486364584154
      ],
      [
        "ria",
        -9.851642712409207
      ],
      [
        "Ġcentral",
        -9.851812958623036
      ],
      [
        "Ġchain",
        -9.851876565675337
      ],
      [
        "Ġroots",
        -9.85281874064296
      ],
      [
        "ĠSh",
        -9.853695958249023
      ],
      [
        "Ġmark",
        -9.854584476520012
      ],
      [
        "ĠCol",
        -9.854592535877527
      ],
      [
        "Ġfavorite",
        -9.854744096261609
      ],
      [
        "Ġrequest",
        -9.85505296121664
      ],
      [
        "AL",
        -9.855737239725787
      ],
      [
        "Ġlesson",
        -9.857684482488182
      ],
      [
        "Ġregulation",
        -9.858039299748944
      ],
      [
        "Ġrespond",
        -9.860630363535414
      ],
      [
        "Ġrecipe",
        -9.860631946308832
      ],
      [
        "Ġreferr",
        -9.860785736909904
      ],
      [
        "Ġstring",
        -9.861010188034776
      ],
      [
        "Ġgold",
        -9.862920193813771
      ],
      [
        "tes",
        -9.863648845987802
      ],
      [
        "Therefore",
        -9.863997907957543
      ],
      [
        "ĠAls",
        -9.864584583126014
      ],
      [
        "Ġchallenge",
        -9.867954297265952
      ],
      [
        "Ġtemp",
        -9.867954671372203
      ],
      [
        "fir",
        -9.868637523434847
      ],
      [
        "Ġsurrounding",
        -9.868896502602931
      ],
      [
        "Ġremains",
        -9.868941423766833
      ],
      [
        "Ġrecognize",
        -9.86903705620993
      ],
      [
        "Ġhapp",
        -9.869368456821292
      ],
      [
        "Ġessay",
        -9.869532761649628
      ],
      [
        "app",
        -9.86956655437327
      ],
      [
        "Ġfunctions",
        -9.871378688068988
      ],
      [
        "Ġlose",
        -9.872106041686497
      ],
      [
        "Ġnative",
        -9.872723879798809
      ],
      [
        "Ġtexture",
        -9.87336158377785
      ],
      [
        "{",
        -9.875210041766683
      ],
      [
        "car",
        -9.8754816381368
      ],
      [
        "Ġtechnologies",
        -9.875511265246177
      ],
      [
        "een",
        -9.875539500124969
      ],
      [
        "Ġconsumpti",
        -9.875567551937571
      ],
      [
        "ivity",
        -9.875680083473869
      ],
      [
        "def",
        -9.875966242558595
      ],
      [
        "ley",
        -9.876358593045806
      ],
      [
        "Ġinsight",
        -9.876927750107438
      ],
      [
        "Ġsaw",
        -9.87730935392683
      ],
      [
        "Ġphotograph",
        -9.87748526593186
      ],
      [
        "ĠHi",
        -9.87758116449357
      ],
      [
        "bit",
        -9.878541437709943
      ],
      [
        "Ġtiny",
        -9.878572553581096
      ],
      [
        "late",
        -9.87871718820512
      ],
      [
        "Ġdepth",
        -9.879224851551086
      ],
      [
        "Ġpartner",
        -9.879756025470616
      ],
      [
        "Ġfriend",
        -9.880296354575858
      ],
      [
        "Ġfilm",
        -9.88153123590007
      ],
      [
        "dom",
        -9.881770962916026
      ],
      [
        "Ġnational",
        -9.882095462734195
      ],
      [
        "Ġfi",
        -9.88234866274088
      ],
      [
        "part",
        -9.882652183173532
      ],
      [
        "ĠDon",
        -9.88270465459227
      ],
      [
        "Ġprefer",
        -9.88283240615233
      ],
      [
        "Ġrep",
        -9.882854993142564
      ],
      [
        "Ġteacher",
        -9.882906259429252
      ],
      [
        "ĠClass",
        -9.882920415635027
      ],
      [
        "Ġlisten",
        -9.883801868070822
      ],
      [
        "nel",
        -9.8839909578389
      ],
      [
        "lam",
        -9.884630545519498
      ],
      [
        "Ġactual",
        -9.884987815175592
      ],
      [
        "Ġexamine",
        -9.88538708133787
      ],
      [
        "Ġgr",
        -9.885895301515696
      ],
      [
        "Ġdemonstrate",
        -9.887577767132932
      ],
      [
        "iving",
        -9.887803061048604
      ],
      [
        "ado",
        -9.888978480911875
      ],
      [
        "Ġletter",
        -9.889166337305287
      ],
      [
        "Ġfa",
        -9.889481161675109
      ],
      [
        "ĠFirst",
        -9.889519181580782
      ],
      [
        "Ġstructures",
        -9.890203438014984
      ],
      [
        "Ġcovered",
        -9.890226601875945
      ],
      [
        "Ġtrade",
        -9.89046303167042
      ],
      [
        "Ġchannel",
        -9.89061856462067
      ],
      [
        "osis",
        -9.891616294991875
      ],
      [
        "ĠChe",
        -9.8930304551467
      ],
      [
        "Ġpress",
        -9.893168839377012
      ],
      [
        "Ġattach",
        -9.893296486444424
      ],
      [
        "Ġapproximate",
        -9.893666062249636
      ],
      [
        "Ġtrigger",
        -9.893667034730088
      ],
      [
        "Ġstraight",
        -9.89366714400075
      ],
      [
        "ĠpH",
        -9.893981126978586
      ],
      [
        "Ġdensit",
        -9.894189930972786
      ],
      [
        "-b",
        -9.894398115328308
      ],
      [
        "Ġ#",
        -9.894456205594572
      ],
      [
        "gin",
        -9.894693229752502
      ],
      [
        "Ġdust",
        -9.895202112969653
      ],
      [
        "Ġfo",
        -9.895663591376554
      ],
      [
        "April",
        -9.896725156509143
      ],
      [
        "ĠService",
        -9.896725724397252
      ],
      [
        "Ġim",
        -9.89674875282158
      ],
      [
        "Ġemerg",
        -9.896992146446692
      ],
      [
        "aging",
        -9.898338701566663
      ],
      [
        "Ġarray",
        -9.900177778161698
      ],
      [
        "Ġmanufacturer",
        -9.9002797261335
      ],
      [
        "Ġsupplie",
        -9.902868621209905
      ],
      [
        "Ġstretch",
        -9.90287028390946
      ],
      [
        "Ġsession",
        -9.902870510720536
      ],
      [
        "pol",
        -9.903006554708687
      ],
      [
        "ĠHigh",
        -9.903280301217375
      ],
      [
        "Ġshoes",
        -9.903424461401691
      ],
      [
        "CH",
        -9.90389889834436
      ],
      [
        "Ġnest",
        -9.9041277425152
      ],
      [
        "Ġrain",
        -9.904342799275792
      ],
      [
        "ically",
        -9.904797532951712
      ],
      [
        "ame",
        -9.905026264315538
      ],
      [
        "-c",
        -9.905552786739804
      ],
      [
        "Ġartist",
        -9.905835553976022
      ],
      [
        "Ġatmosphere",
        -9.905954999034297
      ],
      [
        "verse",
        -9.906032848547335
      ],
      [
        "Ġbiological",
        -9.906625104025371
      ],
      [
        "ĠEducation",
        -9.906873369905398
      ],
      [
        "Ġgrown",
        -9.90703911154834
      ],
      [
        "Ġpolicy",
        -9.908716174846948
      ],
      [
        "Ġparameter",
        -9.909094043103646
      ],
      [
        "Un",
        -9.909342044020384
      ],
      [
        "Ġcapture",
        -9.909962172985905
      ],
      [
        "Ġstr",
        -9.911495954349167
      ],
      [
        "Ġkeeping",
        -9.911712996549324
      ],
      [
        "Ġcore",
        -9.912519494248812
      ],
      [
        "Ġalone",
        -9.913966567708368
      ],
      [
        "Ġsweet",
        -9.914285999193956
      ],
      [
        "Ġdriving",
        -9.915272762786454
      ],
      [
        "Ġvaluable",
        -9.915285682898688
      ],
      [
        "Ġbreast",
        -9.915373928641529
      ],
      [
        "Ġseal",
        -9.9155466482182
      ],
      [
        "ĠGroup",
        -9.916101289558734
      ],
      [
        "print",
        -9.916193545159338
      ],
      [
        "Ġrules",
        -9.916461443304788
      ],
      [
        "ney",
        -9.916706913999146
      ],
      [
        "Ġsheet",
        -9.917434981519222
      ],
      [
        "Ġgrain",
        -9.917568352586487
      ],
      [
        "Ġcontroll",
        -9.918295734461616
      ],
      [
        "Ġbroad",
        -9.918570965462813
      ],
      [
        "AS",
        -9.918859178200186
      ],
      [
        "Ġupdate",
        -9.919805102689017
      ],
      [
        "Ġexam",
        -9.921423716653235
      ],
      [
        "Ġinvest",
        -9.921512384407428
      ],
      [
        "Ġexhibit",
        -9.921531643993816
      ],
      [
        "Ġimmune",
        -9.92153164693802
      ],
      [
        "ĠOnc",
        -9.921820988295211
      ],
      [
        "ĠPark",
        -9.921883478041964
      ],
      [
        "Ġfix",
        -9.921917331701914
      ],
      [
        "ĠUK",
        -9.92265149749334
      ],
      [
        "ĠEl",
        -9.92399901011906
      ],
      [
        "net",
        -9.924617493521405
      ],
      [
        "Ġsupplement",
        -9.924676273429164
      ],
      [
        "Ġfashion",
        -9.924676391393012
      ],
      [
        "Ġdirt",
        -9.924774578966147
      ],
      [
        "ĠNov",
        -9.925189909559586
      ],
      [
        "Ġhid",
        -9.9254199902056
      ],
      [
        "Ġclick",
        -9.926153362894992
      ],
      [
        "ĠUsing",
        -9.92642148926828
      ],
      [
        "Ġbra",
        -9.92682037948141
      ],
      [
        "IT",
        -9.927347879397168
      ],
      [
        "Ġeventual",
        -9.927683212571992
      ],
      [
        "Ġconservation",
        -9.927831125082191
      ],
      [
        "held",
        -9.927943272855345
      ],
      [
        "Ġsounds",
        -9.929167702371108
      ],
      [
        "Ġrates",
        -9.929785458716228
      ],
      [
        "ĠBu",
        -9.929990340801892
      ],
      [
        "til",
        -9.930239051869748
      ],
      [
        "Ġplane",
        -9.93152318691357
      ],
      [
        "ritish",
        -9.931595874080328
      ],
      [
        "try",
        -9.932984781857652
      ],
      [
        "Ġrec",
        -9.933359923285105
      ],
      [
        "-->",
        -9.934251680654398
      ],
      [
        "Ġdur",
        -9.934607979929122
      ],
      [
        "oli",
        -9.935083396077877
      ],
      [
        "bal",
        -9.935117208937722
      ],
      [
        "They",
        -9.93588348938352
      ],
      [
        "Ġbreath",
        -9.936658912734206
      ],
      [
        "ĠJa",
        -9.937067711567565
      ],
      [
        "Ġriver",
        -9.937368363915931
      ],
      [
        "vel",
        -9.937445354880646
      ],
      [
        "Ġbeginning",
        -9.937451696347395
      ],
      [
        "DA",
        -9.937809621685112
      ],
      [
        "dia",
        -9.937967954238127
      ],
      [
        "Ġblog",
        -9.938320615502494
      ],
      [
        "ray",
        -9.938391964132794
      ],
      [
        "Ġwash",
        -9.938821875436815
      ],
      [
        "Ġtransform",
        -9.940158046224152
      ],
      [
        "Ġalcohol",
        -9.940549613886445
      ],
      [
        "Ro",
        -9.940622579221928
      ],
      [
        "||",
        -9.940790143932391
      ],
      [
        "Ġapart",
        -9.94134188748757
      ],
      [
        "Ġsites",
        -9.941545856209164
      ],
      [
        "Ġpipe",
        -9.941784395261896
      ],
      [
        "Ġoffice",
        -9.9418144684437
      ],
      [
        "Ġcontract",
        -9.941860302526951
      ],
      [
        "ĠTi",
        -9.943262850281185
      ],
      [
        "Ġindependent",
        -9.94375594061453
      ],
      [
        "wide",
        -9.943777911962316
      ],
      [
        "iff",
        -9.94390138192379
      ],
      [
        "Ġclient",
        -9.94393036199452
      ],
      [
        "Ġmaster",
        -9.944173264143778
      ],
      [
        "tru",
        -9.944543121307309
      ],
      [
        "kept",
        -9.945163091252702
      ],
      [
        "Ġpoly",
        -9.945693863910034
      ],
      [
        "SE",
        -9.94571032446494
      ],
      [
        "eel",
        -9.945890304676464
      ],
      [
        "Ġpan",
        -9.946122271499558
      ],
      [
        "Ġpen",
        -9.94619953342243
      ],
      [
        "Ġmember",
        -9.946423157986736
      ],
      [
        "Ġcreative",
        -9.946872277990735
      ],
      [
        "Ġcultural",
        -9.946899574317086
      ],
      [
        "Ġfinancial",
        -9.947034173789902
      ],
      [
        "eath",
        -9.947238659404944
      ],
      [
        "Ġpollution",
        -9.947287246117623
      ],
      [
        "Ġtight",
        -9.947607297403106
      ],
      [
        "Ġsit",
        -9.947846555738812
      ],
      [
        "atic",
        -9.947851649116076
      ],
      [
        "graph",
        -9.94853625239204
      ],
      [
        "Ġwrit",
        -9.948552580960827
      ],
      [
        "ING",
        -9.94862443713987
      ],
      [
        "Ġsurvive",
        -9.950195986498665
      ],
      [
        "Ġtube",
        -9.950400741539031
      ],
      [
        "mic",
        -9.95057024027488
      ],
      [
        "Ġdish",
        -9.950776854568035
      ],
      [
        "bra",
        -9.951136915948116
      ],
      [
        "Ġpurchase",
        -9.951327899085513
      ],
      [
        "ĠLu",
        -9.951918173041346
      ],
      [
        "Ġcap",
        -9.954755792995956
      ],
      [
        "lot",
        -9.955838190973612
      ],
      [
        "nce",
        -9.956361166362218
      ],
      [
        "Ġcontrast",
        -9.956679283720568
      ],
      [
        "Ġpop",
        -9.95708565357044
      ],
      [
        "Pre",
        -9.957774448749408
      ],
      [
        "-like",
        -9.958928367253678
      ],
      [
        "ĠBar",
        -9.95905372109279
      ],
      [
        "Ġbooks",
        -9.95914785357987
      ],
      [
        "Ġschedule",
        -9.959936323079326
      ],
      [
        "Ġstaff",
        -9.959946238749472
      ],
      [
        "rain",
        -9.960605255435915
      ],
      [
        "Ġroutine",
        -9.963204408893006
      ],
      [
        "Ġsnow",
        -9.963226546286725
      ],
      [
        "Ġseat",
        -9.963320267225718
      ],
      [
        "comfortable",
        -9.964446305563708
      ],
      [
        "Ġmining",
        -9.965969977771127
      ],
      [
        "Ġblend",
        -9.966508045861133
      ],
      [
        "Ġclasse",
        -9.96667250862039
      ],
      [
        "Ġimprov",
        -9.96689954152632
      ],
      [
        "Ġobservation",
        -9.96690881125016
      ],
      [
        "Ġpara",
        -9.968336192287603
      ],
      [
        "ĠGreat",
        -9.968734726885597
      ],
      [
        "Ġteach",
        -9.96874147546423
      ],
      [
        "pan",
        -9.96896281899522
      ],
      [
        "Ġsecret",
        -9.969772463867503
      ],
      [
        "Ġdouble",
        -9.969775964702368
      ],
      [
        "older",
        -9.970795112161964
      ],
      [
        "Ġreact",
        -9.971924776080392
      ],
      [
        "Our",
        -9.972644561884804
      ],
      [
        "pon",
        -9.97282592343444
      ],
      [
        "Ġvitamin",
        -9.973005548939197
      ],
      [
        "Ġtax",
        -9.973082605359629
      ],
      [
        "met",
        -9.973799813029247
      ],
      [
        "Ġpeak",
        -9.974337033170936
      ],
      [
        "ook",
        -9.974522182497395
      ],
      [
        "Ġmeal",
        -9.974928426603933
      ],
      [
        "ility",
        -9.9750978233497
      ],
      [
        "Ġsamples",
        -9.975933137156584
      ],
      [
        "Â",
        -9.976171810183704
      ],
      [
        "ĠIndian",
        -9.976325650309764
      ],
      [
        "Ġhundred",
        -9.976384033882542
      ],
      [
        "Ġassembl",
        -9.976384192012798
      ],
      [
        "Ġvary",
        -9.976828024655696
      ],
      [
        "ĠHu",
        -9.977058079290217
      ],
      [
        "arr",
        -9.978105605791958
      ],
      [
        "ĠPer",
        -9.97879945560941
      ],
      [
        "ĠHar",
        -9.9788328192309
      ],
      [
        "Ġjump",
        -9.979717371852676
      ],
      [
        "ĠWa",
        -9.979884711958755
      ],
      [
        "ĠAfrican",
        -9.980191985618056
      ],
      [
        "Ġremov",
        -9.980542860351484
      ],
      [
        "That",
        -9.980648172224605
      ],
      [
        "los",
        -9.980771110149282
      ],
      [
        "ram",
        -9.980905072545422
      ],
      [
        "Ġaspects",
        -9.980968449082654
      ],
      [
        "avi",
        -9.981304425538797
      ],
      [
        "read",
        -9.981480887643936
      ],
      [
        "Ġcraft",
        -9.982361738957838
      ],
      [
        "OL",
        -9.982410368078678
      ],
      [
        "ĠStor",
        -9.982648127154548
      ],
      [
        "Ġaudio",
        -9.983046206531128
      ],
      [
        "Ġje",
        -9.98383354639475
      ],
      [
        "Ġcreation",
        -9.984484634491864
      ],
      [
        "Ġcatch",
        -9.985763682281924
      ],
      [
        "Ġwi",
        -9.986290325459208
      ],
      [
        "Ġpack",
        -9.986593307317372
      ],
      [
        "but",
        -9.987843468848888
      ],
      [
        "ĠMac",
        -9.988518843714498
      ],
      [
        "producing",
        -9.988541130896524
      ],
      [
        "La",
        -9.988661359210887
      ],
      [
        "mas",
        -9.989433690359602
      ],
      [
        "ED",
        -9.99069645082582
      ],
      [
        "Ġportion",
        -9.991541197246091
      ],
      [
        "Ġemergenc",
        -9.992819503718644
      ],
      [
        "Ġvaccine",
        -9.99310683169606
      ],
      [
        "Ġvirtual",
        -9.993113065080175
      ],
      [
        "Ġconsult",
        -9.993133226864298
      ],
      [
        "Ġkg",
        -9.994055752398122
      ],
      [
        "Mo",
        -9.994418187312682
      ],
      [
        "ĠSince",
        -9.995977606681754
      ],
      [
        "Dr",
        -9.996417481770017
      ],
      [
        "Ġalgorithm",
        -9.996485190691065
      ],
      [
        "ĠJapan",
        -9.996537171014824
      ],
      [
        "word",
        -9.997225434545346
      ],
      [
        "Ġfear",
        -9.997258369187374
      ],
      [
        "Ġearlier",
        -9.997517382488793
      ],
      [
        "Ġroute",
        -9.997537129133352
      ],
      [
        "els",
        -9.997638542493137
      ],
      [
        "Ġsurger",
        -9.997779616415492
      ],
      [
        "Ġagree",
        -9.99800859918354
      ],
      [
        "vin",
        -9.998832200210048
      ],
      [
        "ĠRochester",
        -9.9988686383678
      ],
      [
        "ĠDay",
        -9.999037339602658
      ],
      [
        "Ġvoice",
        -9.999875231504054
      ],
      [
        "Ġdiscussion",
        -10.000184421949008
      ],
      [
        "which",
        -10.000185376788243
      ],
      [
        "Ġquant",
        -10.00091274858192
      ],
      [
        "All",
        -10.002800483580849
      ],
      [
        "Ġmixture",
        -10.003489310563884
      ],
      [
        "Ġengage",
        -10.005505418883054
      ],
      [
        "?\"",
        -10.005677702206103
      ],
      [
        "Ġlay",
        -10.00657243549843
      ],
      [
        "ĠDepartment",
        -10.006689464443731
      ],
      [
        "Ġsecure",
        -10.00669181638002
      ],
      [
        "Ġiron",
        -10.006709607586806
      ],
      [
        "Ġlandscape",
        -10.006738783051556
      ],
      [
        "Ġrespect",
        -10.00719026188678
      ],
      [
        "Ġstarch",
        -10.007211924676254
      ],
      [
        "itis",
        -10.008345905212554
      ],
      [
        "Ġstain",
        -10.009902172538192
      ],
      [
        "Ġdestroy",
        -10.01011443558875
      ],
      [
        "Ġmorning",
        -10.010115585937552
      ],
      [
        "meter",
        -10.010707165061062
      ],
      [
        "hen",
        -10.011288835462151
      ],
      [
        "ON",
        -10.01149197549784
      ],
      [
        "Ġgravit",
        -10.012089498012278
      ],
      [
        "ĠNi",
        -10.01221731490247
      ],
      [
        "Ġdrugs",
        -10.0123113134574
      ],
      [
        "ola",
        -10.012611328074604
      ],
      [
        "struct",
        -10.012785964242848
      ],
      [
        "ĠCalifornia",
        -10.013550434683008
      ],
      [
        "Ġglucos",
        -10.013550490982622
      ],
      [
        "Ġlaunch",
        -10.013553131642594
      ],
      [
        "Ġnote",
        -10.01532633140222
      ],
      [
        "Ġlighting",
        -10.01698529417922
      ],
      [
        "Ġaccident",
        -10.016998817504977
      ],
      [
        "Ġyield",
        -10.017000278370572
      ],
      [
        "Ġnerve",
        -10.017047651354028
      ],
      [
        "ump",
        -10.017495146875824
      ],
      [
        "ĠWell",
        -10.017633564763257
      ],
      [
        "Ġfac",
        -10.01919553704852
      ],
      [
        "-year",
        -10.020568389144522
      ],
      [
        "put",
        -10.020722213314162
      ],
      [
        "LA",
        -10.021929244825458
      ],
      [
        "OS",
        -10.022224756613532
      ],
      [
        "ĠSal",
        -10.023353288344495
      ],
      [
        "Ġultimate",
        -10.023931147273489
      ],
      [
        "Ġgirl",
        -10.023935236519062
      ],
      [
        "Ġancient",
        -10.023941434097424
      ],
      [
        "Ġsteel",
        -10.02394488785048
      ],
      [
        "Ġinternational",
        -10.024003986343187
      ],
      [
        "ĠRead",
        -10.02407178802071
      ],
      [
        "Ġattend",
        -10.024228590165318
      ],
      [
        "load",
        -10.024833813828858
      ],
      [
        "My",
        -10.025965129240102
      ],
      [
        "Ġforest",
        -10.026020290091193
      ],
      [
        "EN",
        -10.02608765274127
      ],
      [
        "Ġmini",
        -10.02620407551676
      ],
      [
        ".[",
        -10.026397638397611
      ],
      [
        "Ġregister",
        -10.027416020328848
      ],
      [
        "Ġpool",
        -10.02751083930394
      ],
      [
        "test",
        -10.028405065315926
      ],
      [
        "Ġdetermin",
        -10.028673138644354
      ],
      [
        "Ġport",
        -10.028942007690176
      ],
      [
        "wood",
        -10.028995084951486
      ],
      [
        "ries",
        -10.02910967364492
      ],
      [
        "Ġreli",
        -10.029295175592418
      ],
      [
        "Ġchip",
        -10.029691773974546
      ],
      [
        "Ġconsume",
        -10.030265318355028
      ],
      [
        "Ġhazard",
        -10.030912125833677
      ],
      [
        "Ġinstrument",
        -10.030912288452148
      ],
      [
        "numerous",
        -10.030912752192036
      ],
      [
        "Ġrandom",
        -10.03091667395807
      ],
      [
        "Ġclassroom",
        -10.031025743121614
      ],
      [
        "Ġtransfer",
        -10.031098046665331
      ],
      [
        "Ġcomment",
        -10.031337875819354
      ],
      [
        "bri",
        -10.031348867951436
      ],
      [
        "Ġamylase",
        -10.032062597724469
      ],
      [
        "ĠHer",
        -10.03275926392881
      ],
      [
        "heat",
        -10.033820371644012
      ],
      [
        "Ġconclusion",
        -10.034420750500498
      ],
      [
        "Ġhydro",
        -10.034842504951463
      ],
      [
        "Ġsharp",
        -10.036083074392684
      ],
      [
        "Ġeconom",
        -10.036424994336652
      ],
      [
        "ĠFood",
        -10.036509095888668
      ],
      [
        "Ġvisibl",
        -10.036848682650398
      ],
      [
        "Ġph",
        -10.036964366800744
      ],
      [
        "Ġmold",
        -10.036967409701028
      ],
      [
        "ĠEvery",
        -10.037135606867333
      ],
      [
        "coming",
        -10.037693085382134
      ],
      [
        "Ġcredit",
        -10.03795743069234
      ],
      [
        "well",
        -10.03933163511953
      ],
      [
        "Ġtail",
        -10.03986030548647
      ],
      [
        "ail",
        -10.040314076703972
      ],
      [
        "Ġpreference",
        -10.041784837754555
      ],
      [
        "Ġeight",
        -10.042327357104424
      ],
      [
        "Ġshell",
        -10.042383963931414
      ],
      [
        "Ġbillion",
        -10.042478102132591
      ],
      [
        "Ġcast",
        -10.04276470646258
      ],
      [
        "ĠGene",
        -10.04282980414311
      ],
      [
        "ways",
        -10.043669085773637
      ],
      [
        "Ġratio",
        -10.044176561468776
      ],
      [
        "Ġsurvey",
        -10.045021647311795
      ],
      [
        "Ġcra",
        -10.046004305462484
      ],
      [
        "Ġanxiet",
        -10.04642131157401
      ],
      [
        "Ġeducational",
        -10.046765762250178
      ],
      [
        "After",
        -10.04678667956069
      ],
      [
        "Ġgre",
        -10.046995991389096
      ],
      [
        "Ġinteract",
        -10.047418829464858
      ],
      [
        "Ġassess",
        -10.048727676959354
      ],
      [
        "Ġbutton",
        -10.04901900045923
      ],
      [
        "Ġresource",
        -10.049223942001827
      ],
      [
        "Ġoperat",
        -10.049319517370565
      ],
      [
        "Ġcoat",
        -10.049915015305452
      ],
      [
        "ĠWi",
        -10.05008823860653
      ],
      [
        "Ġbike",
        -10.050164974594097
      ],
      [
        "Ġboil",
        -10.051044312996858
      ],
      [
        "Ġcomprehensive",
        -10.05224798381629
      ],
      [
        "omic",
        -10.052585019356233
      ],
      [
        "Ġprocedure",
        -10.052914834327762
      ],
      [
        "Ġtru",
        -10.053608205828256
      ],
      [
        "Ġbus",
        -10.05455851079306
      ],
      [
        "off",
        -10.054885473862688
      ],
      [
        "Ġtoward",
        -10.055516369894605
      ],
      [
        "PA",
        -10.055628213712671
      ],
      [
        "Ġharvest",
        -10.05573596135467
      ],
      [
        "Ġthrow",
        -10.055758848637796
      ],
      [
        "place",
        -10.056016571267184
      ],
      [
        "/or",
        -10.05646112825994
      ],
      [
        "ID",
        -10.056686772001385
      ],
      [
        "ĠWhe",
        -10.056898672976066
      ],
      [
        "Ġhighlight",
        -10.057001015632466
      ],
      [
        "ĠSun",
        -10.058703995225176
      ],
      [
        "Ġmelt",
        -10.059699863548463
      ],
      [
        "Ġwhose",
        -10.059795566505226
      ],
      [
        "mu",
        -10.06010737808218
      ],
      [
        "RE",
        -10.060190943596506
      ],
      [
        "cus",
        -10.060421599230304
      ],
      [
        "Ġcable",
        -10.060561625506596
      ],
      [
        "ME",
        -10.061357734319715
      ],
      [
        "Ġzero",
        -10.062947005993756
      ],
      [
        "Ġowners",
        -10.062999568880713
      ],
      [
        "Ġthread",
        -10.063011214716802
      ],
      [
        "Ġdefinite",
        -10.06313573586338
      ],
      [
        "pet",
        -10.063369632607037
      ],
      [
        "Ġbrush",
        -10.063570646025935
      ],
      [
        "MA",
        -10.064572924977693
      ],
      [
        "Ġorigin",
        -10.06504970440302
      ],
      [
        "Ġga",
        -10.065340978538089
      ],
      [
        "Ġrelation",
        -10.066479750048408
      ],
      [
        "Ġhospital",
        -10.066566327598991
      ],
      [
        "Ġfinger",
        -10.066716682209952
      ],
      [
        "Ġlake",
        -10.067223286924571
      ],
      [
        "rant",
        -10.067852439010242
      ],
      [
        "ĠColor",
        -10.068239442177063
      ],
      [
        "Ġrisks",
        -10.070023927626442
      ],
      [
        "Ġgrass",
        -10.070877662539896
      ],
      [
        "Ġprogramm",
        -10.071008403908364
      ],
      [
        "Ġoffering",
        -10.071030536045368
      ],
      [
        "Ġlog",
        -10.07114889146074
      ],
      [
        "DC",
        -10.071956104562885
      ],
      [
        "Ġorganisms",
        -10.072064396598549
      ],
      [
        "type",
        -10.072181188043816
      ],
      [
        "ban",
        -10.072979029043111
      ],
      [
        "Ġcrystal",
        -10.073705681000174
      ],
      [
        "Ġfundamental",
        -10.073852357064524
      ],
      [
        "Ã©",
        -10.073862252969368
      ],
      [
        "Ġlegal",
        -10.074922572723745
      ],
      [
        "Ġcoast",
        -10.075119732760944
      ],
      [
        "Ġoccurr",
        -10.075807034466829
      ],
      [
        "win",
        -10.076037273275876
      ],
      [
        "ĠCreat",
        -10.076072899624409
      ],
      [
        "Ġradio",
        -10.07610379650128
      ],
      [
        "with",
        -10.07663665524058
      ],
      [
        "Ġcalculate",
        -10.077043161759631
      ],
      [
        "new",
        -10.077185156698912
      ],
      [
        "Ġpowder",
        -10.077515690035582
      ],
      [
        "Ġturtle",
        -10.077515727340842
      ],
      [
        "Ġvessel",
        -10.0775159515016
      ],
      [
        "Ġaware",
        -10.078606606890324
      ],
      [
        "Ġgoals",
        -10.080280277489376
      ],
      [
        "Ġhabit",
        -10.080442641121133
      ],
      [
        "vol",
        -10.08052758591166
      ],
      [
        "ĠFi",
        -10.080617555586556
      ],
      [
        "erial",
        -10.080973726977655
      ],
      [
        "Ġintelligence",
        -10.081212932347489
      ],
      [
        "Ġbeaut",
        -10.081290107765788
      ],
      [
        "ava",
        -10.082005802483089
      ],
      [
        "Ġlooks",
        -10.082218273987142
      ],
      [
        "Ġpin",
        -10.084397973714069
      ],
      [
        "path",
        -10.08460423184598
      ],
      [
        "Ġrelax",
        -10.08488191372528
      ],
      [
        "Ġuniverse",
        -10.084883397510184
      ],
      [
        "Ġcheese",
        -10.084887896528798
      ],
      [
        "Ġguideline",
        -10.085410365960556
      ],
      [
        "ĠGreen",
        -10.085450217811704
      ],
      [
        "quality",
        -10.085743609834106
      ],
      [
        "ĠTime",
        -10.086244106095066
      ],
      [
        "Ġoperate",
        -10.086402245829667
      ],
      [
        "cur",
        -10.087298861094062
      ],
      [
        "lip",
        -10.0882178268686
      ],
      [
        "Ġ<",
        -10.08840281137964
      ],
      [
        "nstead",
        -10.088508074054571
      ],
      [
        "ĠSystem",
        -10.088585833652918
      ],
      [
        "ĠRiver",
        -10.0886513683233
      ],
      [
        "Ġreduction",
        -10.089466658534176
      ],
      [
        "Ġfeeding",
        -10.091012440902922
      ],
      [
        "Here",
        -10.09125586109684
      ],
      [
        "Ġtraffic",
        -10.092303014289424
      ],
      [
        "Ġparticipant",
        -10.092303015758084
      ],
      [
        "Ġinternet",
        -10.0925277287499
      ],
      [
        "Ġinfant",
        -10.092543791183664
      ],
      [
        "ĠEast",
        -10.092549024949983
      ],
      [
        "Ġmanual",
        -10.09261986561638
      ],
      [
        "Ġcrack",
        -10.092636111055336
      ],
      [
        "Ġartificial",
        -10.092690949131471
      ],
      [
        "ebru",
        -10.093099911952956
      ],
      [
        "cut",
        -10.093934079421452
      ],
      [
        "Ġsettings",
        -10.094705677648246
      ],
      [
        "Ġsaying",
        -10.094984485684254
      ],
      [
        "ĠPlant",
        -10.095000534100087
      ],
      [
        "old",
        -10.095128247884974
      ],
      [
        "Ġmeter",
        -10.09564826817886
      ],
      [
        "ĠPlan",
        -10.09617855953002
      ],
      [
        "Ġfailure",
        -10.096267527504583
      ],
      [
        "Ġtooth",
        -10.09640159256541
      ],
      [
        "Ġsolve",
        -10.096915783375104
      ],
      [
        "Ġupper",
        -10.097737819715649
      ],
      [
        "ĠHol",
        -10.098362839908187
      ],
      [
        "ĠVer",
        -10.09871187067672
      ],
      [
        "Ġmechanical",
        -10.09944064795442
      ],
      [
        "Answer",
        -10.09953021254395
      ],
      [
        "Ġofficial",
        -10.099781726471218
      ],
      [
        "Ġroof",
        -10.09989740696698
      ],
      [
        "Ġworry",
        -10.100079317296366
      ],
      [
        "Ġstatus",
        -10.100275182205015
      ],
      [
        "ĠUp",
        -10.100571922208015
      ],
      [
        "Ġprinciples",
        -10.102011502647194
      ],
      [
        "Ġstatement",
        -10.102302682992836
      ],
      [
        "maybe",
        -10.10270274491407
      ],
      [
        "Î",
        -10.10351919025718
      ],
      [
        "Ġdiamond",
        -10.1035391495778
      ],
      [
        "Ġindoor",
        -10.103548456094902
      ],
      [
        "weight",
        -10.103791671308976
      ],
      [
        "Ġassessment",
        -10.104084798723598
      ],
      [
        "Ġplent",
        -10.1040984424283
      ],
      [
        "Ġth",
        -10.104617508155972
      ],
      [
        "ball",
        -10.104753500480452
      ],
      [
        "gon",
        -10.104756795836302
      ],
      [
        "Ġcalci",
        -10.105234902861486
      ],
      [
        "round",
        -10.105935422250004
      ],
      [
        "Ġplaying",
        -10.10719642996169
      ],
      [
        "nternational",
        -10.107235477757197
      ],
      [
        "Ġbehaviour",
        -10.107312659222227
      ],
      [
        "ĠChina",
        -10.10736360582676
      ],
      [
        "Ġgather",
        -10.107656493281317
      ],
      [
        "SA",
        -10.107755113407071
      ],
      [
        "Ġcarefully",
        -10.10811272097327
      ],
      [
        "Ġro",
        -10.108147677055616
      ],
      [
        "rid",
        -10.109594505645664
      ],
      [
        "Ġdescription",
        -10.111106369009304
      ],
      [
        "Ġscene",
        -10.11111189237295
      ],
      [
        "&",
        -10.111195198269078
      ],
      [
        "ĠPeople",
        -10.11163811378513
      ],
      [
        "Ġcareer",
        -10.111756690686672
      ],
      [
        "zi",
        -10.112634863782157
      ],
      [
        "force",
        -10.11391237731524
      ],
      [
        "gh",
        -10.114295694036477
      ],
      [
        "active",
        -10.11442213542848
      ],
      [
        "Ġconfirm",
        -10.11490347284246
      ],
      [
        "Ġpu",
        -10.115145332094023
      ],
      [
        "Ġintend",
        -10.115680407910514
      ],
      [
        "lac",
        -10.115705899547873
      ],
      [
        "Ġpainting",
        -10.116213949733918
      ],
      [
        "ĠBi",
        -10.117467624441616
      ],
      [
        "CO",
        -10.11810815278062
      ],
      [
        "Ġformation",
        -10.118195689579668
      ],
      [
        "cat",
        -10.119918608756857
      ],
      [
        "Br",
        -10.120264220509808
      ],
      [
        "MO",
        -10.120516262091137
      ],
      [
        "Ġinternal",
        -10.121116427869636
      ],
      [
        "pping",
        -10.121440030157885
      ],
      [
        "Ġstories",
        -10.121875858775578
      ],
      [
        "script",
        -10.122338859871036
      ],
      [
        "Ġstomach",
        -10.122551041440042
      ],
      [
        "Ġpredator",
        -10.122568985270313
      ],
      [
        "Ġscar",
        -10.122723392350082
      ],
      [
        "Ġcontinuous",
        -10.122774790371006
      ],
      [
        "Ġweak",
        -10.12314164117694
      ],
      [
        "Ġborn",
        -10.123429353505127
      ],
      [
        "Ġdecline",
        -10.123466684659611
      ],
      [
        "AP",
        -10.12375428882052
      ],
      [
        "ĠCity",
        -10.12381428470857
      ],
      [
        "Ġseven",
        -10.124115449606496
      ],
      [
        "see",
        -10.12435535422079
      ],
      [
        "tation",
        -10.124964860656068
      ],
      [
        "Ġprepare",
        -10.125373273573022
      ],
      [
        "ĠUV",
        -10.125447104323523
      ],
      [
        "uk",
        -10.125765119571684
      ],
      [
        "ĠAg",
        -10.126052922405451
      ],
      [
        "Ġcollege",
        -10.126397379825374
      ],
      [
        "Ġchronic",
        -10.126397563546444
      ],
      [
        "Ġclinical",
        -10.126405123876824
      ],
      [
        "Ġcomposition",
        -10.12642890332446
      ],
      [
        "Ġadvis",
        -10.126434166152505
      ],
      [
        "Ġemotional",
        -10.12651660222717
      ],
      [
        "Ġtitle",
        -10.127241312979857
      ],
      [
        "UN",
        -10.12725871502375
      ],
      [
        "Ġfair",
        -10.128406003783656
      ],
      [
        "ĠKeep",
        -10.129146951457894
      ],
      [
        "Ġpr",
        -10.129494795552162
      ],
      [
        "ĠWork",
        -10.12955880091726
      ],
      [
        "exp",
        -10.129580107858322
      ],
      [
        "Ġscan",
        -10.130156924393928
      ],
      [
        "Ġoptimal",
        -10.130306659680492
      ],
      [
        "Ġbottle",
        -10.130333635981795
      ],
      [
        "Ġsmart",
        -10.130335154133109
      ],
      [
        "Ġgear",
        -10.130471935078802
      ],
      [
        "Ġradiation",
        -10.130880029250047
      ],
      [
        "ĠInter",
        -10.131296796055498
      ],
      [
        "ĠEd",
        -10.131310631443228
      ],
      [
        "Ġguy",
        -10.131786648974089
      ],
      [
        "mor",
        -10.1319671888998
      ],
      [
        "Ġsuffer",
        -10.132237014017855
      ],
      [
        "diversity",
        -10.132466531013147
      ],
      [
        "tail",
        -10.132924799073898
      ],
      [
        "Ġprop",
        -10.133968125054794
      ],
      [
        "Ġtall",
        -10.13409118999424
      ],
      [
        "Ġequation",
        -10.13413428248614
      ],
      [
        "Ġbulb",
        -10.134161932336337
      ],
      [
        "Ġhydrogen",
        -10.134330012668071
      ],
      [
        "count",
        -10.13441859290054
      ],
      [
        "-C",
        -10.134440553271
      ],
      [
        "Ġwing",
        -10.134534130166564
      ],
      [
        "Ġnice",
        -10.134630369578751
      ],
      [
        "ĠPu",
        -10.134835657772712
      ],
      [
        "Ġprimaril",
        -10.135642482095886
      ],
      [
        "Use",
        -10.135661775821893
      ],
      [
        "ĠSte",
        -10.135732063507522
      ],
      [
        "nut",
        -10.135749623675917
      ],
      [
        "raw",
        -10.136778940937162
      ],
      [
        "Ġadvice",
        -10.138025898141656
      ],
      [
        "Ġwildlife",
        -10.138048036296212
      ],
      [
        "Ġfault",
        -10.138128326115314
      ],
      [
        "Ġrough",
        -10.138172327804329
      ],
      [
        "ache",
        -10.138233388963366
      ],
      [
        "Ġtrial",
        -10.138311021286494
      ],
      [
        "Ġhelpful",
        -10.138439624811872
      ],
      [
        "Ġcars",
        -10.139576262759658
      ],
      [
        "cap",
        -10.140584463053129
      ],
      [
        "Ġadopt",
        -10.140737816385348
      ],
      [
        "Ġattract",
        -10.141391920618087
      ],
      [
        "Ġcapabilit",
        -10.1431506289582
      ],
      [
        "Ġchose",
        -10.1432880923529
      ],
      [
        "Ġneuro",
        -10.143706279516383
      ],
      [
        "Ġshade",
        -10.143993421945789
      ],
      [
        "Ġlb",
        -10.144193030118911
      ],
      [
        "related",
        -10.144533520076822
      ],
      [
        "chan",
        -10.144683333219518
      ],
      [
        "-free",
        -10.144761619660468
      ],
      [
        "Ġinteraction",
        -10.144971646223883
      ],
      [
        "ĠBoth",
        -10.14514187781506
      ],
      [
        "Ġconstruct",
        -10.14552373096036
      ],
      [
        "itting",
        -10.145705198577552
      ],
      [
        "Ġnorth",
        -10.145854108235074
      ],
      [
        "Ġowner",
        -10.145977688114687
      ],
      [
        "Ġfoundation",
        -10.146101042477454
      ],
      [
        "ĠAbout",
        -10.146772936664298
      ],
      [
        "ington",
        -10.14843592540216
      ],
      [
        "Ġboost",
        -10.148815294029225
      ],
      [
        "Ġengineering",
        -10.14904125915492
      ],
      [
        "ĠFurther",
        -10.149118544502848
      ],
      [
        "ĠPr",
        -10.149316531430369
      ],
      [
        "Ġrelationships",
        -10.14933876131673
      ],
      [
        "Ġeliminate",
        -10.149685911769245
      ],
      [
        "Ġagriculture",
        -10.149790033438045
      ],
      [
        "Ġbatteries",
        -10.149790462424995
      ],
      [
        "ston",
        -10.149791463248311
      ],
      [
        "Ġprior",
        -10.150051074366989
      ],
      [
        "Ġtrust",
        -10.150266429110571
      ],
      [
        "body",
        -10.150566948568674
      ],
      [
        "oster",
        -10.150981674253222
      ],
      [
        "oz",
        -10.151680456548348
      ],
      [
        "Ġaspect",
        -10.152264301429952
      ],
      [
        "ĠKi",
        -10.152650248688824
      ],
      [
        "Ġsensitive",
        -10.153742607205178
      ],
      [
        "Ġleaf",
        -10.153746544844628
      ],
      [
        "Ġbeneficial",
        -10.154021926676368
      ],
      [
        "bil",
        -10.155075294646435
      ],
      [
        "Ġdistinct",
        -10.155614359876711
      ],
      [
        "bot",
        -10.15592201359779
      ],
      [
        "Ġnaturally",
        -10.156422693242623
      ],
      [
        "Ġcreatures",
        -10.156865076248351
      ],
      [
        "book",
        -10.157402423454744
      ],
      [
        "Ġneedle",
        -10.157607827691011
      ],
      [
        "Ġmobile",
        -10.157712734778787
      ],
      [
        "Ġspray",
        -10.157874182550865
      ],
      [
        "Ġemail",
        -10.15795382166777
      ],
      [
        "Ġdatabase",
        -10.157985924967452
      ],
      [
        "ĠChi",
        -10.15831139454945
      ],
      [
        "long",
        -10.15835729157086
      ],
      [
        "Ġindustrial",
        -10.158549561135636
      ],
      [
        "Finally",
        -10.159318646782788
      ],
      [
        "Ġdimension",
        -10.160222324278765
      ],
      [
        "Ġautomatic",
        -10.1611957779221
      ],
      [
        "Ġmolecule",
        -10.161657551707414
      ],
      [
        "Ġdiagram",
        -10.161696702183304
      ],
      [
        "idian",
        -10.162198195771918
      ],
      [
        "ĠSept",
        -10.16314722989874
      ],
      [
        "Ġinvolv",
        -10.163508029745982
      ],
      [
        "`",
        -10.16375761036988
      ],
      [
        "tood",
        -10.163780849280345
      ],
      [
        "direct",
        -10.164095249935986
      ],
      [
        "hir",
        -10.164883702894034
      ],
      [
        "Ġraw",
        -10.165166894962612
      ],
      [
        "Ġperspective",
        -10.165694920224066
      ],
      [
        "ĠCanada",
        -10.165708984597352
      ],
      [
        "most",
        -10.166809244803115
      ],
      [
        "Ġresolution",
        -10.16688818267034
      ],
      [
        "Ġreliabl",
        -10.167399315299816
      ],
      [
        "RO",
        -10.16763886080523
      ],
      [
        "Ġorganiz",
        -10.1681107990788
      ],
      [
        "Ġsyn",
        -10.16840278643543
      ],
      [
        "miss",
        -10.168962167261196
      ],
      [
        "uel",
        -10.16905034625034
      ],
      [
        "Ġrestaurant",
        -10.169710990601716
      ],
      [
        "Ġscratch",
        -10.169711093576398
      ],
      [
        "Ġlibrar",
        -10.169717907424715
      ],
      [
        "Ġdental",
        -10.169940469713932
      ],
      [
        "Ġwish",
        -10.169986975508264
      ],
      [
        "Ġscore",
        -10.170164908626038
      ],
      [
        "ĠLight",
        -10.170861209891504
      ],
      [
        "Ġprecise",
        -10.171032022498755
      ],
      [
        "ich",
        -10.171139416353292
      ],
      [
        "Ġtile",
        -10.172129278381574
      ],
      [
        "Ġprepared",
        -10.17265200699558
      ],
      [
        "Ġsports",
        -10.172683518832052
      ],
      [
        "ologist",
        -10.173272854653252
      ],
      [
        "Ġsouth",
        -10.17374003551171
      ],
      [
        "Ġsauce",
        -10.17374340819244
      ],
      [
        "ĠOcean",
        -10.173747491266983
      ],
      [
        "Ġlie",
        -10.175098140020246
      ],
      [
        "Ġmal",
        -10.175590357167035
      ],
      [
        "Ġgun",
        -10.17651119940068
      ],
      [
        "Ġdigest",
        -10.176994002815048
      ],
      [
        "Ġappeal",
        -10.17783188643439
      ],
      [
        "Ġzone",
        -10.177876859505565
      ],
      [
        "Ġfirm",
        -10.177925000359256
      ],
      [
        "nger",
        -10.178204205080526
      ],
      [
        "lia",
        -10.178764829991188
      ],
      [
        "Ġrealize",
        -10.178905997102683
      ],
      [
        "Ġcarrier",
        -10.179156664653885
      ],
      [
        "Ġchoos",
        -10.18060388820548
      ],
      [
        "ĠLab",
        -10.180698427506638
      ],
      [
        "Ġestimated",
        -10.18074597259573
      ],
      [
        "Ġconsequence",
        -10.181856866160416
      ],
      [
        "Ġamazing",
        -10.18185772092853
      ],
      [
        "Ġdangerous",
        -10.182088128446455
      ],
      [
        "Ġloose",
        -10.182290589557578
      ],
      [
        "Ġnurse",
        -10.182319084103664
      ],
      [
        "Ġlaser",
        -10.18233643796027
      ],
      [
        "ĠLED",
        -10.182339746449076
      ],
      [
        "rig",
        -10.182692419273996
      ],
      [
        "Ġpercentage",
        -10.182947276106017
      ],
      [
        "Ġchart",
        -10.183459550673868
      ],
      [
        "Ġprove",
        -10.183490440095238
      ],
      [
        "Ġcm",
        -10.18473370365882
      ],
      [
        "Ġchair",
        -10.185972888488196
      ],
      [
        "Ġillness",
        -10.185999125731117
      ],
      [
        "ological",
        -10.186150846995863
      ],
      [
        "Ġassume",
        -10.187005160587042
      ],
      [
        "Ġstorm",
        -10.187062099023716
      ],
      [
        "Ġstandards",
        -10.18718154778516
      ],
      [
        "Com",
        -10.187440998165986
      ],
      [
        "reality",
        -10.188291420018796
      ],
      [
        "room",
        -10.188345824063193
      ],
      [
        "ĠDog",
        -10.188951494305831
      ],
      [
        "Ġdeposit",
        -10.188985287485997
      ],
      [
        "Ġmin",
        -10.189396818066978
      ],
      [
        "oil",
        -10.189944749634796
      ],
      [
        "Ġsold",
        -10.18997738805852
      ],
      [
        "Ġpepper",
        -10.190039193848024
      ],
      [
        "Ġinsurance",
        -10.190050963048243
      ],
      [
        "Ġrelevant",
        -10.19036036865955
      ],
      [
        "ĠApp",
        -10.191471302205066
      ],
      [
        "ĠWhere",
        -10.192012251805078
      ],
      [
        "Most",
        -10.193225344691264
      ],
      [
        "ĠDoes",
        -10.193769091308214
      ],
      [
        "Ġdisc",
        -10.194057084692798
      ],
      [
        "Ġaudience",
        -10.19415209746412
      ],
      [
        "Ġprofile",
        -10.194227622789366
      ],
      [
        "Ġpropose",
        -10.19438381919591
      ],
      [
        "ense",
        -10.194418042149412
      ],
      [
        "Ġmeta",
        -10.194776090772258
      ],
      [
        "Ġbroken",
        -10.195198925762789
      ],
      [
        "Ġestimate",
        -10.195490830297796
      ],
      [
        "Ġmolecular",
        -10.195669901854163
      ],
      [
        "Ġsu",
        -10.196557623253662
      ],
      [
        "Ġimprovement",
        -10.196579950678297
      ],
      [
        "ĠHome",
        -10.196784395366354
      ],
      [
        "ĠHis",
        -10.196804359147697
      ],
      [
        "New",
        -10.197029939267882
      ],
      [
        "what",
        -10.197307098275642
      ],
      [
        "even",
        -10.19796216037151
      ],
      [
        "Ġlaws",
        -10.19814395842241
      ],
      [
        "tel",
        -10.1983403785882
      ],
      [
        "ĠOcto",
        -10.19835551120534
      ],
      [
        "ĠJune",
        -10.199106074333333
      ],
      [
        "ĠWest",
        -10.199229139474154
      ],
      [
        "ĠAsia",
        -10.199539693286916
      ],
      [
        "Ġlens",
        -10.199783070309602
      ],
      [
        "Ġvariet",
        -10.200153293961066
      ],
      [
        "Ġchalleng",
        -10.200963112830582
      ],
      [
        "SC",
        -10.201115544687845
      ],
      [
        "Ġshar",
        -10.201672419683677
      ],
      [
        "Ġleaving",
        -10.202433726266662
      ],
      [
        "Ġdream",
        -10.202436809315587
      ],
      [
        "EC",
        -10.202672529319951
      ],
      [
        "Ġpure",
        -10.202914779088106
      ],
      [
        "Ġinstallation",
        -10.204085467178835
      ],
      [
        "aff",
        -10.204086909559866
      ],
      [
        "Ġpolitical",
        -10.204088044625088
      ],
      [
        "Ġcoordinat",
        -10.204375328003708
      ],
      [
        "Ġpar",
        -10.20487345590704
      ],
      [
        "Ġmineral",
        -10.204964779675676
      ],
      [
        "ĠKe",
        -10.205998999676025
      ],
      [
        "Ġdrain",
        -10.206540513687624
      ],
      [
        "Ġassist",
        -10.20659382045912
      ],
      [
        "Ġcoffee",
        -10.206600367137607
      ],
      [
        "Ġbrake",
        -10.207040159143313
      ],
      [
        "Ġdisk",
        -10.207292975731743
      ],
      [
        "Ġhelping",
        -10.207364594880762
      ],
      [
        "Ġrace",
        -10.208036066101643
      ],
      [
        "Ġconsideration",
        -10.20895203864402
      ],
      [
        "Ġsurvival",
        -10.210784462391487
      ],
      [
        "Ġincredibl",
        -10.210784551751086
      ],
      [
        "Ġmammal",
        -10.210785528987264
      ],
      [
        "Ġcluster",
        -10.210789461224312
      ],
      [
        "Ġorganoid",
        -10.210907978247093
      ],
      [
        "acific",
        -10.211024292585131
      ],
      [
        "lag",
        -10.21152036162255
      ],
      [
        "Ġnation",
        -10.212104234614408
      ],
      [
        "TS",
        -10.212528926517098
      ],
      [
        "Ġmission",
        -10.213325320902442
      ],
      [
        "SS",
        -10.21409367982726
      ],
      [
        "Ġneuron",
        -10.214109098322414
      ],
      [
        "Ġwoman",
        -10.215079747216876
      ],
      [
        "Ġlifestyle",
        -10.215194946888758
      ],
      [
        "Sp",
        -10.215616425198476
      ],
      [
        "ĠWash",
        -10.215866404953108
      ],
      [
        "ĠFri",
        -10.216864276274327
      ],
      [
        "Ġrid",
        -10.217519989419433
      ],
      [
        "field",
        -10.218517841085532
      ],
      [
        "Ġcharg",
        -10.21877344356433
      ],
      [
        "Ġthorough",
        -10.219205684416732
      ],
      [
        "Follow",
        -10.219205844921913
      ],
      [
        "-level",
        -10.219212145066606
      ],
      [
        "Ġcotton",
        -10.21922548869517
      ],
      [
        "hop",
        -10.219229904356798
      ],
      [
        "gene",
        -10.219232384294514
      ],
      [
        "ĠGarden",
        -10.219292721106369
      ],
      [
        "Ġcounter",
        -10.21956669256918
      ],
      [
        "Ġsector",
        -10.22010270898512
      ],
      [
        "Ġstrain",
        -10.22045174381621
      ],
      [
        "Ġbug",
        -10.220830873247596
      ],
      [
        "Ġcorner",
        -10.220869790345107
      ],
      [
        "Ġmeeting",
        -10.22161881351839
      ],
      [
        "ĠGi",
        -10.22186232825645
      ],
      [
        "illa",
        -10.2226423063414
      ],
      [
        "Ġsent",
        -10.222893724595178
      ],
      [
        "Many",
        -10.22300399631462
      ],
      [
        "Ġchapter",
        -10.223442880258608
      ],
      [
        "Ġopinion",
        -10.2234435275188
      ],
      [
        "Ġleak",
        -10.22345267481656
      ],
      [
        "ĠWorksheets",
        -10.223840738350944
      ],
      [
        "ĠHuman",
        -10.223907112148671
      ],
      [
        "Ġheal",
        -10.223928914796334
      ],
      [
        "Ġmount",
        -10.224146345074974
      ],
      [
        "rim",
        -10.22415433889191
      ],
      [
        "ET",
        -10.224907997781155
      ],
      [
        "Ġobjective",
        -10.225255339947251
      ],
      [
        "Ġshed",
        -10.22529926952678
      ],
      [
        "Ġsport",
        -10.22575030036979
      ],
      [
        "ĠGuide",
        -10.226546825079469
      ],
      [
        "ides",
        -10.226643608784675
      ],
      [
        "Yes",
        -10.2273777950065
      ],
      [
        "Ġtun",
        -10.227616494367975
      ],
      [
        "bar",
        -10.22766963187768
      ],
      [
        "Ġencounter",
        -10.227698298291577
      ],
      [
        "Ġversatil",
        -10.22769832715262
      ],
      [
        "Ġuniversit",
        -10.227698349382578
      ],
      [
        "Ġprompt",
        -10.227701612435732
      ],
      [
        "Ġtechnical",
        -10.227702118189924
      ],
      [
        "Ġsex",
        -10.228272979205084
      ],
      [
        "Ġtown",
        -10.22914358319522
      ],
      [
        "ĠOut",
        -10.229478613520282
      ],
      [
        "Ġmeasur",
        -10.229785313873998
      ],
      [
        "chro",
        -10.230087122155137
      ],
      [
        "ĠPart",
        -10.230091418185218
      ],
      [
        "ĠGet",
        -10.230158594543596
      ],
      [
        "Thank",
        -10.23040138244901
      ],
      [
        "ulf",
        -10.230621504004722
      ],
      [
        "road",
        -10.231884326806815
      ],
      [
        "Ġobvious",
        -10.231971663738662
      ],
      [
        "Source",
        -10.232038642022747
      ],
      [
        "ĠType",
        -10.232598400872764
      ],
      [
        "Ġclothes",
        -10.232955330605003
      ],
      [
        "Ġperhap",
        -10.233011012657904
      ],
      [
        "Ġpolic",
        -10.233209996285511
      ],
      [
        "ĠTu",
        -10.233696614133862
      ],
      [
        "Ġkit",
        -10.23418320748661
      ],
      [
        "Ġcho",
        -10.23470071119644
      ],
      [
        "Ġminerals",
        -10.234953077858451
      ],
      [
        "Ġemotion",
        -10.23620837498158
      ],
      [
        "Conclusion",
        -10.236263566897923
      ],
      [
        "Ġprivate",
        -10.236263750428568
      ],
      [
        "Ġstreet",
        -10.23626447522168
      ],
      [
        "Ġurban",
        -10.236284130225862
      ],
      [
        "Ġfelt",
        -10.236293295071174
      ],
      [
        "Ġmountain",
        -10.236318063366038
      ],
      [
        "ula",
        -10.236342509087493
      ],
      [
        "Ġsmell",
        -10.236355053720024
      ],
      [
        "Ġprobabilit",
        -10.236449442053134
      ],
      [
        "ĠLife",
        -10.237327233917728
      ],
      [
        "Are",
        -10.238476329572364
      ],
      [
        "()",
        -10.239863045679762
      ],
      [
        "Ġformat",
        -10.241613004158122
      ],
      [
        "ĠDesign",
        -10.242020542761392
      ],
      [
        "ĠFree",
        -10.242522167409724
      ],
      [
        "that",
        -10.242581863747066
      ],
      [
        "Ġreward",
        -10.242897188951671
      ],
      [
        "Ġspecialize",
        -10.243486426275572
      ],
      [
        "Ġhang",
        -10.2434891481964
      ],
      [
        "Ġworse",
        -10.243690377262318
      ],
      [
        "Ġnutrition",
        -10.244081642229007
      ],
      [
        "ership",
        -10.244148983517109
      ],
      [
        "\"The",
        -10.24422133195543
      ],
      [
        "rib",
        -10.244599748594492
      ],
      [
        "tric",
        -10.244899740086034
      ],
      [
        "Ġsatellite",
        -10.24490285957556
      ],
      [
        "Ġexplanation",
        -10.244902861455405
      ],
      [
        "Ġdress",
        -10.244936807108813
      ],
      [
        "Po",
        -10.245279093414226
      ],
      [
        "Ġstrip",
        -10.245512271899454
      ],
      [
        "ĠCha",
        -10.245535637884114
      ],
      [
        "ĠJanu",
        -10.245736661406244
      ],
      [
        "Ġloop",
        -10.245886458665217
      ],
      [
        "ĠProgram",
        -10.2466245371718
      ],
      [
        "ĠCat",
        -10.246764098950012
      ],
      [
        "ttle",
        -10.248361704667278
      ],
      [
        "Ġsufficient",
        -10.249250684471448
      ],
      [
        "ĠCare",
        -10.249255851277042
      ],
      [
        "Ġsnail",
        -10.249257122907832
      ],
      [
        "Ġsalmon",
        -10.24926118182843
      ],
      [
        "Ġcompetition",
        -10.24930655857284
      ],
      [
        "ĠCount",
        -10.24994803389962
      ],
      [
        "Ġgeo",
        -10.250286699677533
      ],
      [
        "Ġweld",
        -10.250317047351457
      ],
      [
        "NO",
        -10.250519310734614
      ],
      [
        "Ġquantit",
        -10.251657923198133
      ],
      [
        "ĠSha",
        -10.252099579707709
      ],
      [
        "Ġfields",
        -10.25264679631027
      ],
      [
        "Ġlock",
        -10.252695775074669
      ],
      [
        "tell",
        -10.252867016398046
      ],
      [
        "ridge",
        -10.253055408010905
      ],
      [
        "DE",
        -10.253073051161108
      ],
      [
        "last",
        -10.253461979455585
      ],
      [
        "hydr",
        -10.253561017460347
      ],
      [
        "Ġkitchen",
        -10.253618277464
      ],
      [
        "...Ċ",
        -10.253828046978288
      ],
      [
        "Ġawareness",
        -10.254085749518936
      ],
      [
        "Ġfold",
        -10.254170840923663
      ],
      [
        "Ġfamiliar",
        -10.254545830675916
      ],
      [
        "Ġmemor",
        -10.254890583687096
      ],
      [
        "Ġspeak",
        -10.2561442099242
      ],
      [
        "Ġboundar",
        -10.25628248491194
      ],
      [
        "ilt",
        -10.256998984444134
      ],
      [
        "Ġcream",
        -10.258012467343985
      ],
      [
        "ute",
        -10.2581811489441
      ],
      [
        "Ġplug",
        -10.258450493742853
      ],
      [
        "Ġblow",
        -10.258773762398716
      ],
      [
        "Last",
        -10.259474359106967
      ],
      [
        "ĠBio",
        -10.26005562221997
      ],
      [
        "Ġplanting",
        -10.260473412659264
      ],
      [
        "Ġexcess",
        -10.261899574154322
      ],
      [
        "Ġmi",
        -10.261995690828446
      ],
      [
        "ĠAC",
        -10.26207466248259
      ],
      [
        "ĠÂ",
        -10.2623851863488
      ],
      [
[...]
