{"[UNK]": 0, "<|endoftext|>": 1, "\u0120mysterious": 2, "\u0120crystal": 3, "\u0120tend": 4, "am": 5, "\u0120tor": 6, "\u0120box": 7, "ino": 8, "\u0120Modern": 9, "\u0120game": 10, "\u0120ultra": 11, "\u0120extended": 12, "\u0120transmit": 13, "\u0120select": 14, "terrestrial": 15, "\u0120five": 16, "af": 17, "\u0120stands": 18, "\u0120consequences": 19, "nger": 20, "\u0120consumer": 21, "\u0120Ham": 22, "\u0120pin": 23, "qui": 24, "\u0120succeed": 25, "\u0120greenhouse": 26, "\u0120calling": 27, "otic": 28, "\u0120up": 29, "\u0120cure": 30, "\u0120You": 31, "\u0120Vis": 32, "\u0120EU": 33, "\u012044": 34, "\u0120bottom": 35, "\u0120output": 36, "\u0120Use": 37, "\u0120love": 38, "\u0120necessarily": 39, "ler": 40, "\u0120Advance": 41, "ist": 42, "\u0120fatal": 43, "\u0120fellow": 44, "\u0120organisms": 45, "building": 46, "hold": 47, "\u0120odd": 48, "\u0120Cri": 49, "2003": 50, "\u0120execu": 51, "mental": 52, "\u0120pull": 53, "\u0120athlet": 54, "\u0120po": 55, "\u0120IN": 56, "\u0120par": 57, "\u0120Of": 58, "\u0120Spe": 59, "from": 60, "\u0120responsible": 61, "ortunately": 62, "\u0120Greece": 63, "\u0120directed": 64, "\u0120Pop": 65, "\u0120chose": 66, "\u0120movie": 67, "\u0120lifetime": 68, "\u0120multi": 69, "\u0120intention": 70, "RNA": 71, "\u0120Railroad": 72, "\u0120editor": 73, "\u0120inhibit": 74, "\u0120Caribbean": 75, "According": 76, "\u0120appeared": 77, "\u0120shoot": 78, "\u0120building": 79, "\u0120jump": 80, "\u0120Philadelphia": 81, "\u0120measurement": 82, "\u0120Can": 83, "EP": 84, "\u0120revealed": 85, "\u0120repeated": 86, "\u0120Research": 87, "yer": 88, "\u0120a": 89, "\u0120although": 90, "\u0120setting": 91, "2012": 92, "gging": 93, "old": 94, "\u0120limited": 95, "\u0120Without": 96, "\u0120uncommon": 97, "\u0120advance": 98, "\u0120sources": 99, "\u0120Arch": 100, "\u0120neurons": 101, "\u0120adding": 102, "\u0120resembl": 103, "\u0120recycling": 104, "\u0120Little": 105, "\u0120church": 106, "och": 107, "\u0120T": 108, "\u0120harvest": 109, "\u0120author": 110, "\u0120associate": 111, "\u0120List": 112, "ats": 113, "\u0120check": 114, "\u0120Mag": 115, "\u0120parents": 116, "\u0120highlight": 117, "\u0120message": 118, "\u00f0": 119, "\u0120characters": 120, "\u0120threshold": 121, "\u0120duty": 122, "Gr": 123, "\u0120but": 124, "\u012025": 125, "\u0120fundamental": 126, "\u0120|": 127, "ware": 128, "\u00d5": 129, "\u0120quite": 130, "Is": 131, "\u0120contains": 132, "\u0120browser": 133, "\u0120rapidly": 134, "\u0120ba": 135, "ship": 136, "\u0120poly": 137, "ulated": 138, "an": 139, "\u0120Movement": 140, "\u0120Dyna": 141, "\u0120bra": 142, "\u0120ho": 143, "\u0120libraries": 144, "\u0120boundaries": 145, "\u0120Territory": 146, "\u0120Star": 147, "\u0120epi": 148, "\u0120housing": 149, "\u0120>": 150, "dies": 151, "\u0120committed": 152, "yn": 153, "\u0120sees": 154, "ens": 155, "\u0120migra": 156, "\u0120secondary": 157, "\u0120embarrass": 158, "\u0120Fahrenheit": 159, "\u0120though": 160, "arily": 161, "\u0120activity": 162, "\u0120industry": 163, "\u0120literally": 164, "\u0120clinical": 165, "61": 166, "a": 167, "ash": 168, "\u0120encompass": 169, "\u0120slightly": 170, "bor": 171, "\u01202": 172, "\u0120facts": 173, "\u0120providers": 174, "\u0120issued": 175, "\u0120Christian": 176, "For": 177, "fr": 178, "\u0120organizations": 179, "\u0120Saint": 180, "\u0120AL": 181, "\u0120memory": 182, "itis": 183, "ates": 184, "\u0120top": 185, "\u0120arguments": 186, "_": 187, "CE": 188, "'": 189, "\u0120voltage": 190, "\u0120bomb": 191, "\".": 192, "\u0120air": 193, "CD": 194, "Li": 195, "\u0120Proceedings": 196, "lem": 197, "\u0120colonial": 198, "duction": 199, "\u0126": 200, "\u0120discomfort": 201, "\u0120hunt": 202, "\u0120held": 203, "\u0120Citizen": 204, "\u0120mosquito": 205, "\u0120li": 206, "\u0120prop": 207, "\u0120Pass": 208, "\u0120household": 209, "\u0120despite": 210, "\u0120meaning": 211, "\u0120correctly": 212, "\u0120inexpensive": 213, "\u0120\u00e2\u0122\u013e": 214, "\u0120teachers": 215, "83": 216, "\u0120not": 217, "\u0120regardless": 218, "8": 219, "\u0120dietary": 220, "\u0120companies": 221, "\u0120pneumonia": 222, "\u0120categories": 223, "NA": 224, "\u0120flower": 225, "\u0120offer": 226, "\u0120poultry": 227, "ING": 228, "\u01201988": 229, "\u0120routine": 230, "\u0120technique": 231, "\u0120HTML": 232, "\u0120originally": 233, "\u0120try": 234, "\u0120explain": 235, "\u0120Lo": 236, "\u0120millions": 237, "\u0120intellectual": 238, "\u0120Wikipedia": 239, "Ex": 240, "\u0120agriculture": 241, "\u0120back": 242, "\u0120damaged": 243, "\u0120don": 244, "\u0120fifth": 245, "\u0120bio": 246, "\u0120Hospital": 247, "meters": 248, "\u0120walk": 249, "h": 250, "\u0120processes": 251, "ries": 252, "\u0120Lee": 253, "\u0120wrote": 254, "\u0120commitment": 255, "ix": 256, "\u0120Ass": 257, "\u0120bring": 258, "ddle": 259, "\u0120enjoy": 260, "\u0120\"": 261, "\u0120email": 262, "\u0120consensus": 263, "\u0120Rock": 264, "\u0120inv": 265, "Un": 266, "\u0120standing": 267, "\u0120insect": 268, "\u0120performed": 269, "\u0120early": 270, "\u0120concepts": 271, "\u0120call": 272, "\u0120Pakistan": 273, "\u0120Court": 274, "\u0120customers": 275, "\u0120rhetoric": 276, "\u0120addresses": 277, "\u0120bringing": 278, "\u0120hemisphere": 279, "\u0120depict": 280, "\u0120ecosystem": 281, "\u0120birth": 282, "\u0120spi": 283, "\u0120That": 284, "\u0120turns": 285, "\u0120inhabitants": 286, "\u0120identification": 287, "\u0120Road": 288, "92": 289, "\u0120agents": 290, "\u0120Engine": 291, "mps": 292, "\u0120districts": 293, "\u0120prejudice": 294, "\u0120cultural": 295, "ures": 296, "\u0120valve": 297, "\u0120pan": 298, "\u0120Italian": 299, "ain": 300, "\u0120telephone": 301, "\u0120owner": 302, "\u0120accomplish": 303, "ive": 304, "\u0120ensure": 305, "\u0120build": 306, "\u0120reason": 307, "\u0120therapy": 308, "\u0120estimated": 309, "\u0120leading": 310, "\u0120yet": 311, "\u0120trans": 312, "\u0120disappoint": 313, "\u0120quantities": 314, "lies": 315, "\u0120increasing": 316, "\u0120possess": 317, "\u0120harm": 318, "\u0120doctor": 319, "\u0120No": 320, "\u0120copper": 321, "\u0120influenza": 322, "llow": 323, "\u0120went": 324, "\u0120confirm": 325, "\u0120rebel": 326, "\u0120recommend": 327, "\u0120Pope": 328, "inated": 329, "ev": 330, "\u0120park": 331, "\u0120stomach": 332, "bar": 333, "04": 334, "\u0120str": 335, "led": 336, "\u00cc": 337, "There": 338, "tes": 339, "\u0120differ": 340, "\u0120affect": 341, "ank": 342, "\u012014": 343, "\u0120museum": 344, "\u0120pharmac": 345, "\u0120Army": 346, "\u0120separated": 347, "\u0120recover": 348, "\u0120intervals": 349, "\u0120electro": 350, "\u0120arrangement": 351, "\u0120note": 352, "\u0120annually": 353, "\u0120cast": 354, "\u0120narrow": 355, "\u0120RNA": 356, "rence": 357, "\u0120lived": 358, "\u0120got": 359, "\u0120virtue": 360, "century": 361, "\u0120ni": 362, "\u0120mitochondria": 363, "\u0120focused": 364, "ally": 365, "\u0120tri": 366, "\u0120belief": 367, "\u0120directions": 368, "\u0120Jo": 369, "\u0120item": 370, "\u0120phase": 371, "hood": 372, "\u0120explanation": 373, "\u0120sort": 374, "\u0120Those": 375, "\u0120characteristic": 376, "C": 377, "bic": 378, "\u0120digest": 379, "\u0120roof": 380, "\u0120potassium": 381, "BM": 382, "mer": 383, "BC": 384, "That": 385, "ified": 386, "this": 387, "ching": 388, "\u0120Connecticut": 389, "\u0120farmers": 390, "\u0120Atlantic": 391, "\u0120scattered": 392, "\u0120Policy": 393, "\u0120breeding": 394, "\u0120expression": 395, "\u0120statements": 396, "\u0120himself": 397, "Ke": 398, "Mi": 399, "usion": 400, "\u0120Africa": 401, "\u0120resolve": 402, "\u0120extend": 403, "\u0120protective": 404, "\u0120Street": 405, "R": 406, "uc": 407, "\u0120mostly": 408, "\u0120evidence": 409, "sm": 410, "\u0120Senate": 411, "\u0120documents": 412, "\u0120arrive": 413, "\u0120monitor": 414, "\u0120our": 415, "\u0120described": 416, "\u0120change": 417, "\u0120Americans": 418, "\u0120Direct": 419, "\u0120children": 420, "\u0120rep": 421, "oke": 422, "\u0120Don": 423, "\u0120concrete": 424, "\u0120nose": 425, ".|": 426, "\u0120extreme": 427, "\u0120contemp": 428, "\u0120Challenge": 429, "\u0120impair": 430, "\u0120garden": 431, "\u0120boys": 432, "q": 433, "\u0120atoms": 434, "\u0120realized": 435, "\u0120ha": 436, "\u0120status": 437, "ke": 438, "9": 439, "Can": 440, "\u0120changes": 441, "\u0120through": 442, "\u0120Tennessee": 443, "\u0120Physi": 444, "\u0120revi": 445, "\u0120best": 446, "\u0120acquire": 447, "Learn": 448, "\u0120Luther": 449, "\u0120Science": 450, "\u0141": 451, "\u0120economic": 452, "\u0120safe": 453, "\u0120Ottoman": 454, "\u0120Green": 455, "\u0120Field": 456, "\u0120interesting": 457, "TT": 458, "\u0120mammals": 459, "Source": 460, "\u0120professor": 461, "L": 462, "\u0120degree": 463, "\u0120Arts": 464, "\u0120scientists": 465, "\u0120restoration": 466, "ification": 467, "38": 468, "\u0120diverse": 469, "mor": 470, "\u0120William": 471, "\u0120painting": 472, "\u0120Fre": 473, "\u0120g": 474, "\u0120computers": 475, "\u0120ex": 476, "\u0120lay": 477, "\u0120pr": 478, "\u0120prisoners": 479, "\u0120wants": 480, "ox": 481, "\u0120Last": 482, "\u0120Edward": 483, "\u0120connections": 484, "\u0120Company": 485, "\u0120step": 486, "\u0120academic": 487, "\u0120comprehensive": 488, "RT": 489, "\u0120out": 490, "ments": 491, "\u0120transplant": 492, "shed": 493, "ag": 494, "\u0120obtained": 495, "\u0120Ministry": 496, "ji": 497, "Ma": 498, "cent": 499, "\u0120sad": 500, "\u0120Natural": 501, "equently": 502, "id": 503, "\u0120as": 504, "\u0120robust": 505, "\u0120armed": 506, "\u0120abnormal": 507, "\u0120no": 508, "\u0120Federation": 509, "\u0120amendment": 510, "\u0120afraid": 511, "\u0120It": 512, "\u0120feature": 513, "\u0120sufficient": 514, "\u0120Does": 515, "where": 516, "\u0120artificial": 517, "dle": 518, "public": 519, "tting": 520, "\u0120short": 521, "nth": 522, "oo": 523, "\u0120Ice": 524, "\u0120corporate": 525, "ran": 526, "\u0120layer": 527, "\u0120Am": 528, "\u0120dropped": 529, "\u0120distinct": 530, "\u0120Brazil": 531, "\u0120discuss": 532, "lion": 533, "ort": 534, "\u0120habitats": 535, "\u0120dinosaur": 536, "\u0120Industr": 537, "\u0120geographic": 538, "\u0120Palestine": 539, "\u0120continuing": 540, "One": 541, "41": 542, "pass": 543, "\u0120below": 544, "active": 545, "EC": 546, "82": 547, "ffe": 548, "\u0120directly": 549, "\u00a6": 550, "acter": 551, "03": 552, "\u0120abdomen": 553, "ec": 554, "\u0120Isaac": 555, "\u0120smooth": 556, "\u0120weapon": 557, "\u0120integr": 558, "\u0120telescope": 559, "pt": 560, "\u0120Peninsula": 561, "\u0120civil": 562, "\u0120roots": 563, "\u0120phenomena": 564, "\u0120fresh": 565, "\u0120favour": 566, "\u0120AC": 567, "ion": 568, "\u0120local": 569, "\u0120live": 570, "\u0120Cincinnati": 571, "\u0120plu": 572, "\u0120conversion": 573, "\u0120fish": 574, "\u0120dozen": 575, "sion": 576, "\u0120embryo": 577, "\u0120Bar": 578, "ups": 579, "ways": 580, "\u0120unprecedented": 581, "\u0120Current": 582, "\u0120humans": 583, "\u0120Mal": 584, "\u0120referred": 585, "\u01201993": 586, "\u0120agreed": 587, "GE": 588, "VI": 589, "matic": 590, "\u00df": 591, "\u0120ingredients": 592, "\u0120University": 593, "\u0120hydraulic": 594, "\u0120period": 595, "\u0120should": 596, "\u0120hole": 597, "war": 598, "National": 599, "\u0120house": 600, "or": 601, "\u0120carried": 602, "Ne": 603, "\u0120vari": 604, "\u0120N": 605, "\u0120Catholic": 606, "\u0120expansion": 607, "\u012090": 608, "\u0120my": 609, "\u0120mainly": 610, "third": 611, "\u0120Es": 612, "Na": 613, "\u0120strike": 614, "\u0120ensuring": 615, "\u0120fruit": 616, "\u0120antioxidant": 617, "\u0120in": 618, "\u0120mountains": 619, "\u0120predecessor": 620, "\u0120coverage": 621, "\u0120virus": 622, "\u00e2\u0122\u0136": 623, "tts": 624, "\u0120models": 625, "\u0120abortion": 626, "\u0120reveal": 627, "32": 628, "\u0120Arab": 629, "\u0120adopted": 630, "\u0120tragedy": 631, "\u0120hold": 632, "\u0120authentic": 633, "\u0120Endangered": 634, "dr": 635, "\u0120latter": 636, "S": 637, "piece": 638, "\u0120medicine": 639, "\u0120discharge": 640, "\u0120maintain": 641, "\u0120numbers": 642, "\u0120extensive": 643, "\u0120diversity": 644, "\u0120easily": 645, "\u0120associated": 646, "\u0120Rail": 647, "mar": 648, "\u0120tower": 649, "\u0120EPA": 650, "ibly": 651, "\u0120insert": 652, "\u013a": 653, "\u0120sight": 654, "\u0120human": 655, "\u0120domain": 656, "lined": 657, "\u0120distinction": 658, "vo": 659, "cer": 660, "\u0120assigned": 661, "eds": 662, "\u0120soon": 663, "oy": 664, "0": 665, "\u0120classical": 666, "\u0120Italy": 667, "\u0120topics": 668, "\u0120selected": 669, "\u0120third": 670, "\u0120consciousness": 671, "Ge": 672, "\u0120officer": 673, "\u0120mis": 674, "\u0120worth": 675, "\u0120pal": 676, "\u0120fiber": 677, "\u0120key": 678, "\u0120DNA": 679, "\u0120east": 680, "\u0120after": 681, "\u0120taste": 682, "\u0120enthusias": 683, "2004": 684, "\u0120communication": 685, "\u0120ready": 686, "\u0120log": 687, "\u0120holes": 688, "\u0120is": 689, "courage": 690, "\u0120researchers": 691, "\u0120Sh": 692, "\u0120Administration": 693, "\u012048": 694, "\u0120PR": 695, "tal": 696, "\u0120ca": 697, "\u0120complain": 698, "\u0120Statistics": 699, "\u0120cu": 700, "\u0120click": 701, "est": 702, "\u0120common": 703, "\u0120job": 704, "\u0120surgery": 705, "\u0120Economic": 706, "\u0120nomin": 707, "\u0120vulnerability": 708, "\u0120necessary": 709, "yon": 710, "\u0120implement": 711, "\u0120gene": 712, "ils": 713, "\u0120which": 714, "\u0120then": 715, "\u0120wait": 716, "\u0120communities": 717, "\u0120Food": 718, "\u0120diagnostic": 719, "point": 720, "\u0120spot": 721, "oid": 722, "\u0120trained": 723, "\u0120commodity": 724, "types": 725, "\u0120adapt": 726, "\u0120middle": 727, "\u0120officials": 728, "\u0120rule": 729, "Many": 730, "\u0120G": 731, "\u0120electrical": 732, "\u0120officers": 733, "\u0120Spirit": 734, "\u0120One": 735, "\u0120any": 736, "\u0120covered": 737, "\u0120core": 738, "\u0120camp": 739, "\u0120chromosome": 740, "ep": 741, "\u0120adolescents": 742, "\u0120big": 743, "etropolitan": 744, "24": 745, "\u0120hope": 746, "\u0120region": 747, "\u0120dose": 748, "\u0120Program": 749, "\u0120Report": 750, "\u0124": 751, "\u0120influenced": 752, "\u0120sa": 753, "\u0120dys": 754, "\u0120raised": 755, "\u0120search": 756, "\u0120craft": 757, "\u0120novel": 758, "\u0120immun": 759, "\u0120became": 760, "lg": 761, "\u0120important": 762, "\u0120Massachusetts": 763, "\u0120impe": 764, "\u0120John": 765, "cess": 766, "lp": 767, "\u0120Conference": 768, "\u0120mountain": 769, "\u0120Apollo": 770, "ew": 771, "\u0120Assessment": 772, "\u0120nation": 773, "\u0120protein": 774, "\u0120I": 775, "\u0120removed": 776, "\u0120challenging": 777, "ingly": 778, "\u0120nutrient": 779, "\u0120rise": 780, "\u0120Intelligence": 781, "\u0120\u00e2\u0122\u00a6": 782, "ic": 783, "\u0120devices": 784, "\u0120lots": 785, "\u0120Moreover": 786, "\u0120joined": 787, "\u0120December": 788, "\u0120merely": 789, "\u0120apparent": 790, "\u0120goods": 791, "\u0120decrease": 792, "oral": 793, "\u0120Kansas": 794, "\u0120China": 795, "\u0120form": 796, "se": 797, "\u0120full": 798, "\u0120composed": 799, "\u0120help": 800, "\u0120pioneer": 801, "\u0120simultaneously": 802, "\u0120establishment": 803, "\u00be": 804, "\u0120Philosoph": 805, "\u0120jobs": 806, "American": 807, "\u0120pursu": 808, "ost": 809, "&": 810, "\u0120seen": 811, "\u0120also": 812, "\u0120ultraviolet": 813, "room": 814, "\u0120Pre": 815, "\u00a3": 816, "MA": 817, "\u0120cal": 818, "\u0120nu": 819, "\u0120Dutch": 820, "ished": 821, "yes": 822, "\u0120M": 823, "\u0120products": 824, "\u0120stereo": 825, "\u0120command": 826, "\u0120beliefs": 827, "\u0120<": 828, "\u0120spacecraft": 829, "\u0120Sam": 830, "\u0120experiment": 831, "\u0120manage": 832, "lia": 833, "\u0120Vol": 834, "\u0120Manhattan": 835, "\u0120reliable": 836, "\u0120or": 837, "Ed": 838, "\u0120Ver": 839, "\u0120fields": 840, "\u0120breath": 841, "\u0120inspired": 842, "\u0120recommended": 843, "\u0120foot": 844, "500": 845, "\u0120release": 846, "\u0120debt": 847, "From": 848, "Ro": 849, "wan": 850, ".]": 851, "\u0120tried": 852, "\u0120case": 853, "\u0120truly": 854, "\u0120material": 855, "\u0120dementia": 856, "\u0120dynamic": 857, "\u0120problem": 858, "y": 859, "\u0120great": 860, "\u0120liquid": 861, "\u0120changing": 862, "gon": 863, "\u0120near": 864, "ulation": 865, "\u0120proteins": 866, "\u0120pediatric": 867, "ground": 868, "\u0120priority": 869, "\u0120AR": 870, "World": 871, "\u0120Pla": 872, "\u0120random": 873, "\u0120Im": 874, "\u0120struck": 875, "\u0120structures": 876, "\u0120players": 877, "\u0120current": 878, "\u01202003": 879, "\u0120Laboratory": 880, "\u0120participants": 881, "\u0120effects": 882, "\u0120basket": 883, "ky": 884, "\u0120im": 885, "\u0120warning": 886, "rman": 887, "\u0120conservative": 888, "\u0120Sweden": 889, "\u0120plenty": 890, "\u0120efforts": 891, "\u0120song": 892, "\u0120moderate": 893, "\u0120Char": 894, "\u0120science": 895, "\u0120BM": 896, "\u0120capture": 897, "\u0120prayer": 898, "\u0120night": 899, "\u0120pharmaceutical": 900, "Fa": 901, "\u0120opinion": 902, "hal": 903, "\u0120photos": 904, "\u0120bird": 905, "\u0120diameter": 906, "mers": 907, "\u0120show": 908, "\u0120block": 909, "\u0120genuine": 910, "\u0120Micro": 911, "\\": 912, "\u01201987": 913, "\u0120render": 914, "Z": 915, "\u0120why": 916, "\u0120Ru": 917, "\u0120component": 918, "'s": 919, "\u0120Dra": 920, "\u0120ideas": 921, "cycle": 922, "\u0120progress": 923, "\u00c9": 924, "\u0120Fl": 925, "\u0120engaged": 926, "g": 927, "\u0120path": 928, "IA": 929, "\u0120moving": 930, "\u0120liver": 931, "\u0120divorce": 932, ".\u00e2\u0122\u013b": 933, "\u0120Gar": 934, "\u0120won": 935, "ech": 936, "\u0120all": 937, "pes": 938, "\u0120was": 939, "well": 940, "\u0120melt": 941, "\u0120#": 942, "\u0120appreci": 943, "\u0120accounts": 944, "sting": 945, "English": 946, "\u012021": 947, "arian": 948, "\u0120Baltimore": 949, "\u0120answer": 950, "\u0120muscle": 951, "ment": 952, "\u0120del": 953, "\u0120intelligent": 954, "\u0120Pur": 955, "\u0120childhood": 956, "RL": 957, "\u0120Impact": 958, "\u0120weakness": 959, "\u0120pesticide": 960, "lor": 961, "SA": 962, "cover": 963, "\u0120applied": 964, "biotic": 965, "\u0120administer": 966, "stitution": 967, "ously": 968, "\u0120summer": 969, "\u0120minimal": 970, "oriented": 971, "ances": 972, "\u0120chain": 973, "\u0120Ni": 974, "\u0120advoc": 975, "ind": 976, "\u0120us": 977, "\u0120automatically": 978, "\u0120r": 979, "\u0120bro": 980, "\u0120aff": 981, "\u0120presents": 982, "\u0120purchase": 983, "view": 984, "FA": 985, "\u0120treatments": 986, "\u0120just": 987, "\u0120reduced": 988, "February": 989, "nis": 990, "\u0120Sl": 991, "mond": 992, "\u0120advice": 993, "\u00c4\u00ab": 994, "\u0120legend": 995, "\u0120NA": 996, "\u0136": 997, "\u0120causes": 998, "\u0120Professor": 999, "wel": 1000, "ame": 1001, "\u0120sponsor": 1002, "\u0120Representatives": 1003, "\u0120elderly": 1004, "rds": 1005, "\u0120makes": 1006, "\u0120argue": 1007, "\u0120computer": 1008, "\u01202009": 1009, "\u0120Saturday": 1010, "hl": 1011, "\u0120argument": 1012, "\u0120Heritage": 1013, "CA": 1014, "\u0120Ben": 1015, "\u0128": 1016, "\u0120kitchen": 1017, "nity": 1018, "Co": 1019, "\u0120Section": 1020, "\u0120rat": 1021, "\u0120Nu": 1022, "\u0135": 1023, "\u0120algorithm": 1024, "\u0120amount": 1025, "ps": 1026, "print": 1027, "\u0120unre": 1028, "\u0120looking": 1029, "\u0120trouble": 1030, "\u0120seed": 1031, "\u0120military": 1032, "\u0120Yu": 1033, "\u0120older": 1034, "ually": 1035, "Our": 1036, "imate": 1037, "When": 1038, "\u0120defeat": 1039, "\u0120sky": 1040, "\u0120gar": 1041, "\u0120thoughts": 1042, "bil": 1043, "\u0120dance": 1044, "tch": 1045, "\u0120wanted": 1046, "\u0120effectiveness": 1047, "\u0120fascinating": 1048, "\u0120movement": 1049, "\u0120linked": 1050, "son": 1051, "\u0120pur": 1052, "\u0120details": 1053, "\u0120linguistic": 1054, "\u0120vast": 1055, "tro": 1056, "\u0120nitrogen": 1057, "\u0120speed": 1058, "\u0120presented": 1059, "eting": 1060, "\u0120conf": 1061, "\u0120floor": 1062, "\u0120On": 1063, "\u0120arbitrary": 1064, "as": 1065, "\u0120Systems": 1066, "\u0120easier": 1067, "68": 1068, "\u0120E": 1069, "\u0120trillion": 1070, "\u0120technology": 1071, "\u0120demonstrated": 1072, "\u0120use": 1073, "\u0120specified": 1074, "\u0120conventional": 1075, "SI": 1076, "\u0120preparation": 1077, "\u0120knowledge": 1078, "wen": 1079, "\u0120recon": 1080, "\u0120commission": 1081, "\u0120neighbo": 1082, "\u0120funds": 1083, "\u00a5": 1084, "\u0120influential": 1085, "\u0120survive": 1086, "lling": 1087, "Ba": 1088, "\u0120accordance": 1089, "\u0120Medical": 1090, "\u012024": 1091, "\u0120NO": 1092, "\u0120install": 1093, "page": 1094, "\u0120pregnancy": 1095, "nu": 1096, "\u0120Volume": 1097, "lt": 1098, "\u0120Del": 1099, "\u0120NGO": 1100, "iest": 1101, "\u0120vital": 1102, "\u0120Club": 1103, "d": 1104, "\u0120grown": 1105, "CI": 1106, "\u0120alcohol": 1107, "\u0120dig": 1108, "je": 1109, "\u0120challenge": 1110, "\u0120apparently": 1111, "une": 1112, "\u0120destructive": 1113, "\u0120Na": 1114, "71": 1115, "\u0120Allah": 1116, "\u0120indicated": 1117, "\u0120formula": 1118, "lings": 1119, "\u0120buffer": 1120, "\u0120exam": 1121, "\u00da": 1122, "after": 1123, "\u0120ang": 1124, "\u0120antibodies": 1125, "\u0120immune": 1126, "\u0120Ve": 1127, "including": 1128, "\u0120def": 1129, "\u0120improvements": 1130, "\u0120physics": 1131, "\u0120Ireland": 1132, "My": 1133, "ifications": 1134, "\u0120circ": 1135, "\u0120m": 1136, "government": 1137, "`": 1138, "\u0120Mc": 1139, "\u0120studies": 1140, "\u0120reality": 1141, "\u012011": 1142, "\u0120standards": 1143, "\u0120Declaration": 1144, "\u0120situations": 1145, "\u0120Ti": 1146, "AR": 1147, "\u0120abstract": 1148, "\u0120Harvard": 1149, "\u0120Heart": 1150, "rm": 1151, "\u0120cooperation": 1152, "\u0120Data": 1153, "EO": 1154, "\u0120mix": 1155, "gu": 1156, "\u0120London": 1157, "head": 1158, "stone": 1159, "\u0120drug": 1160, "\u0120potato": 1161, "\u0120judge": 1162, "\u0120ago": 1163, "\u0120instructions": 1164, "\u0120meal": 1165, "ible": 1166, "\u0120stream": 1167, "\u0120Georgia": 1168, "sb": 1169, "\u0120men": 1170, "nts": 1171, "\u0120used": 1172, "arly": 1173, "\u0120historian": 1174, "\u0120fiction": 1175, "\u013f": 1176, "nn": 1177, "through": 1178, "\u0120capacity": 1179, "ther": 1180, "\u0120warming": 1181, "\u0120materials": 1182, "ac": 1183, "\u0120Gal": 1184, "\u0120Imperial": 1185, "\u0120Some": 1186, "\u0120segment": 1187, "\u0120stra": 1188, "\u0120former": 1189, "ars": 1190, "\u0120constant": 1191, "\u0120Sha": 1192, "July": 1193, "\u0120Prince": 1194, "\u0120thr": 1195, "\u0120fell": 1196, "\u0120hang": 1197, "97": 1198, "\u0120poll": 1199, "\u0120Queen": 1200, "\u0120rights": 1201, "\u0120translation": 1202, "\u0120scan": 1203, "\u0120above": 1204, "So": 1205, "\u0120formed": 1206, "rage": 1207, "\u0120\u00c4\u0122\u00e1\u00b9\u0143m\u00c4\u0123": 1208, "ming": 1209, "\u0120Joseph": 1210, "berg": 1211, "ib": 1212, "'.": 1213, "\u0120others": 1214, "\u0120Experi": 1215, "\u0120face": 1216, "NG": 1217, "\u0120irregular": 1218, "\u0120From": 1219, "\u01201986": 1220, "\u0120educational": 1221, "\u0120delivery": 1222, "\u0120Sil": 1223, "\u0120har": 1224, "\u0120nations": 1225, "\u0120Tokyo": 1226, "\u0120mirror": 1227, "\u0120mort": 1228, "60": 1229, "\u0120useful": 1230, "\u0120hypo": 1231, "\u0120exclusively": 1232, "ging": 1233, "\u0120tale": 1234, "\u0120putting": 1235, "tamin": 1236, "int": 1237, "\u0120hands": 1238, "\u0120pun": 1239, "\u0120orbit": 1240, "posed": 1241, "\u0120recognized": 1242, "\u0120Nazi": 1243, "\u0120autism": 1244, "\u0120giant": 1245, "\u00e2\u0122": 1246, "ph": 1247, "\u0120declar": 1248, "\u01203": 1249, "burg": 1250, "\u0120Hudson": 1251, "\u0120rescue": 1252, "\u0120edition": 1253, "\u0120must": 1254, "\u0120Bro": 1255, "\u0120service": 1256, "nds": 1257, "\u0120potential": 1258, "kin": 1259, "\u0120highly": 1260, "\u0120observations": 1261, "\u0120So": 1262, "\u0120reform": 1263, "\u0120PM": 1264, "\u0120gla": 1265, "\u0120context": 1266, "\u0120governor": 1267, "\u0120Gl": 1268, "verse": 1269, "east": 1270, "\u0120ships": 1271, "\u0120x": 1272, "\u0120helped": 1273, "\u0120pool": 1274, "\u0120ambi": 1275, "\u0120Columbia": 1276, "By": 1277, "\u0120screening": 1278, "\u0120participation": 1279, "\u0120proportion": 1280, "\u0120heart": 1281, "ending": 1282, "\u0120Cra": 1283, "\u0120husband": 1284, "\u0120Protestant": 1285, "\u0120Web": 1286, "\u0120principal": 1287, "rge": 1288, "\u0120researcher": 1289, "\u0120disorders": 1290, "\u0120alternative": 1291, "\u0120weapons": 1292, "marks": 1293, "\u0120diet": 1294, "ers": 1295, "\u0120response": 1296, "\u0120can": 1297, "\u0120Dictionary": 1298, "\u0120woman": 1299, "\u0120integ": 1300, "\u0120existed": 1301, "\u0120dirt": 1302, "\u0120closer": 1303, "\u0120needs": 1304, "\u0120million": 1305, "\u0120protected": 1306, "Here": 1307, "\u0120abandoned": 1308, "\u0120ent": 1309, "\u0120Evidence": 1310, "\u0120added": 1311, "\u0120\u00c3": 1312, "\u0120extension": 1313, "\u0120isolated": 1314, "craft": 1315, "\u0120knowing": 1316, "\u0120Native": 1317, "2008": 1318, "Even": 1319, "\u0120irr": 1320, "\u0120wavelength": 1321, "\u0120Davis": 1322, "ing": 1323, "\u0120white": 1324, "\u0120because": 1325, "lls": 1326, "\u0120decades": 1327, "\u0120Town": 1328, "\u0120Daniel": 1329, "\u0120critical": 1330, "\u0120th": 1331, "ving": 1332, "European": 1333, "\u0120division": 1334, "ny": 1335, "\u0120winds": 1336, "\u0120Opera": 1337, "\u0120trace": 1338, "SR": 1339, "\u0120Indeed": 1340, "\u0120do": 1341, "\u0120French": 1342, "ather": 1343, "\u0120costs": 1344, "\u0120sp": 1345, "Let": 1346, "\u0120Guatemala": 1347, "Health": 1348, "\u0120constitution": 1349, "\u0120user": 1350, "ition": 1351, "\u0120Another": 1352, "ray": 1353, "\u0120targets": 1354, "ii": 1355, "board": 1356, "\u0120environments": 1357, "jo": 1358, "\u0120analysis": 1359, "\u0120restore": 1360, "cts": 1361, "\u0120provided": 1362, "\u0120feedback": 1363, "\u0120slowly": 1364, "\u0120wheat": 1365, "ographic": 1366, "\u0120deliver": 1367, "100": 1368, "\u0120precise": 1369, "--": 1370, "\u0120Thus": 1371, "\u0120tiny": 1372, "inflammatory": 1373, "\u0120rel": 1374, "cu": 1375, "Photo": 1376, "\u0120labor": 1377, "\u0120sensitive": 1378, "\u0120Conservation": 1379, "land": 1380, "\u0120areas": 1381, "ue": 1382, "\u0120field": 1383, "\u0120automobile": 1384, "\u0120federal": 1385, "\u0120clean": 1386, "\u0120vehicle": 1387, "uch": 1388, "\u0120cle": 1389, "ific": 1390, "\u0120Justice": 1391, "\u0120divide": 1392, "stablish": 1393, "\u0120infection": 1394, "\u0120daily": 1395, "\u0120BC": 1396, "\u0120attract": 1397, "\u0120winter": 1398, "\u0120recorded": 1399, "PE": 1400, "tation": 1401, "\u0120sample": 1402, "\u0120happiness": 1403, "\u0120furniture": 1404, "\u0120char": 1405, "ar": 1406, "\u0120ov": 1407, "\u0120twenty": 1408, "\u0120represents": 1409, "\u0120ab": 1410, "ged": 1411, "her": 1412, "\u0120fourth": 1413, "\u0120While": 1414, "\u0120Mexican": 1415, "\u0120inner": 1416, "\u0120still": 1417, "\u0120advantages": 1418, "Origin": 1419, "\u0120insight": 1420, "\u0120impressive": 1421, "\u0120Publish": 1422, "\u0120projects": 1423, "\u0120Agriculture": 1424, "ust": 1425, "\u0120consist": 1426, "\u0120create": 1427, "\u0120if": 1428, "\u0120Post": 1429, "\u0120surrounding": 1430, "\u0120structure": 1431, "\u00e3": 1432, "RS": 1433, "position": 1434, "\u010a": 1435, "\u0120semiconductor": 1436, "\u0120inva": 1437, "\u0120slavery": 1438, "\u0120aspects": 1439, "\u00e2\u0122\u0135": 1440, "\u0120prescribed": 1441, "\u0120steel": 1442, "\u0120fact": 1443, "\u0120half": 1444, "\u0120possible": 1445, "uble": 1446, "\u0120begun": 1447, "\u0120behaviors": 1448, "\u0120boy": 1449, "\u01204": 1450, "\u0120tip": 1451, "\u0120understanding": 1452, "\u0120Constantinople": 1453, "\u0120squ": 1454, "\u00b0": 1455, "\u0120mice": 1456, "\u0120able": 1457, "):": 1458, "\u0120Cross": 1459, "\u0120Afghanistan": 1460, "CL": 1461, "\u0120reverse": 1462, "Lo": 1463, "CT": 1464, "\u0120NOAA": 1465, "||": 1466, "cept": 1467, "\u0120education": 1468, "\u0120board": 1469, "\u0120tomato": 1470, "\u0120relax": 1471, "\u0120examine": 1472, "\u0120technologies": 1473, "\u0120societies": 1474, "ths": 1475, "\u0120illustr": 1476, "\u0120mo": 1477, "\u0120stretch": 1478, "\u0120George": 1479, "\u0120elections": 1480, "\u0120counter": 1481, "\u0120remained": 1482, "\u0120enable": 1483, "\u0120area": 1484, "\u0120rivers": 1485, "\u0120body": 1486, "\u0120tradition": 1487, "\u0120request": 1488, "Ho": 1489, "\u012043": 1490, "\u0120Chicago": 1491, "\u0120Tro": 1492, "\u0120program": 1493, "\u0120Is": 1494, "\u0120volunteer": 1495, "\u0120Frank": 1496, "\u0120character": 1497, "\u0120DC": 1498, "\u0120lie": 1499, "\u0120explicit": 1500, "\u0120pronoun": 1501, "\u0120enter": 1502, "\u0120we": 1503, "\u0120taking": 1504, "out": 1505, "\u0120European": 1506, "\u0120findings": 1507, "\u0120July": 1508, "\u0120open": 1509, "\u0120cigarette": 1510, "\u0120closed": 1511, "\u0120fighting": 1512, "\u0120resulted": 1513, "\u0120claim": 1514, "\u0120train": 1515, "\u0120traditions": 1516, "\u0120massive": 1517, "bury": 1518, "\u0120sweet": 1519, "\u0120outbreak": 1520, "\u0120decisions": 1521, "\u0120fair": 1522, "\u0120beauty": 1523, "\u0120method": 1524, "\u0120corporation": 1525, "LI": 1526, "\u0120satisf": 1527, "\u0120First": 1528, "\u0120take": 1529, "\u0120intensity": 1530, "wh": 1531, "\u0120Op": 1532, "\u0120boost": 1533, "\u0120improvement": 1534, "\u0120inject": 1535, "\u0120engines": 1536, "\u0120songs": 1537, "\u0120healthy": 1538, "\u0120consequence": 1539, "ations": 1540, "\u0120Poli": 1541, "\u0120Energy": 1542, "Dis": 1543, "f": 1544, "\u0120Strateg": 1545, "Po": 1546, "\u0120energy": 1547, "\u0120shadow": 1548, "AA": 1549, "\u0120sexual": 1550, "\u0120Microsoft": 1551, "rse": 1552, "\u0120decor": 1553, "\u0120theoretical": 1554, "\u0120aged": 1555, "\u0120Home": 1556, "\u0120career": 1557, "\u0120diagnosed": 1558, "\u0120ask": 1559, "\u0120Such": 1560, "born": 1561, "ably": 1562, "\u0120arrival": 1563, "\u0120sacred": 1564, "\u0120delivered": 1565, "\u0120reservoir": 1566, "Am": 1567, "\u0120corresponding": 1568, "z": 1569, "\u0120speaking": 1570, "\u0120tumors": 1571, "\u0120Law": 1572, "\u0120ske": 1573, "\u0120circuit": 1574, "\u0120See": 1575, "\u0120Do": 1576, "\u0120employment": 1577, "\u0120Year": 1578, "\u0120further": 1579, "\u0120appropriate": 1580, "\u0120domin": 1581, "\u0120fiscal": 1582, "\u0120inf": 1583, "\u0120imagin": 1584, "\u0120trigger": 1585, "\u0120mu": 1586, "\u0120dramatic": 1587, "\u0120Carolina": 1588, "\u0120passing": 1589, "\u0120medium": 1590, "\u0120under": 1591, "\u0120extra": 1592, "\u0120bodies": 1593, "\u0120walking": 1594, "\u0120illness": 1595, "\u0120writes": 1596, "SC": 1597, "\u0120Guide": 1598, "\u0120immediate": 1599, "aling": 1600, "\u0120Beijing": 1601, "\u0120democracy": 1602, "\u0120medicines": 1603, "\u0120support": 1604, "\u0120Coast": 1605, "\u0120universe": 1606, "\u0120tissues": 1607, "\u0120welcome": 1608, "\u0120factor": 1609, "psy": 1610, "\u0120Key": 1611, "eries": 1612, "\u0120ra": 1613, "vine": 1614, "\u0120Pu": 1615, "\u0120sym": 1616, "\u0120samples": 1617, "\u0120swimming": 1618, "\u0120ozone": 1619, "IC": 1620, "\u0120Orleans": 1621, "ts": 1622, "\u0120art": 1623, "\u0120groups": 1624, "IP": 1625, "\u0120perspective": 1626, "\u0120depend": 1627, "\u0120Women": 1628, "be": 1629, "\u0120fertilizer": 1630, "\u0120Other": 1631, "\u0120circum": 1632, "\u0120behaviour": 1633, "\u0120review": 1634, "\u0120Two": 1635, "ward": 1636, "ller": 1637, "\u0120player": 1638, "\u0120rec": 1639, "lle": 1640, "\u0120itself": 1641, "\u0120made": 1642, "\u0120Chesapeake": 1643, "\u0120units": 1644, "\u0120scale": 1645, "\u0120sheet": 1646, "\u0120evaluation": 1647, "\u0120pain": 1648, "\u0120implications": 1649, "\u0120feet": 1650, "\u0120cap": 1651, "\u0120arsenic": 1652, "\u0120ground": 1653, "\u0120respect": 1654, "\u0120naturally": 1655, "\u0120maintenance": 1656, "power": 1657, "\u0120classroom": 1658, "\u0120instrument": 1659, "\u0120Los": 1660, "\u0120thousands": 1661, "\u0120Division": 1662, "\u0120Center": 1663, "\")": 1664, "\u0120expect": 1665, "\u0120Bank": 1666, "\u0120extinct": 1667, "ensive": 1668, "\u0120Their": 1669, "\u0120finger": 1670, "\u0120therapeutic": 1671, "dated": 1672, "im": 1673, "\u0120catastroph": 1674, "ren": 1675, "\u0120Tom": 1676, "\u0120flexibility": 1677, "cin": 1678, "\u0120languages": 1679, "\u0120abandon": 1680, "ack": 1681, "\u0120prevent": 1682, "Where": 1683, "rp": 1684, "\u0120defined": 1685, "\u0120Ancient": 1686, "\u0120supporting": 1687, "\u0120MD": 1688, "\u0120interactive": 1689, "[": 1690, "\u0120grand": 1691, "\u0120O": 1692, "\u0120SC": 1693, "\u0120signal": 1694, "\u0120God": 1695, "ston": 1696, "\u0120grounds": 1697, "servation": 1698, "\u0120server": 1699, "vid": 1700, "\u0120spe": 1701, "\u0120spatial": 1702, "ledge": 1703, "\u0120Conf": 1704, "\u0120agreement": 1705, "\u0120percentage": 1706, "\u0120notice": 1707, "\u0120families": 1708, "\u0120acres": 1709, "\u0120occurring": 1710, "\u0120ways": 1711, "\u0120mistake": 1712, "\u0120however": 1713, "\u0120option": 1714, "\u0120By": 1715, "\u0120galaxy": 1716, "makers": 1717, "\u0120remove": 1718, "\u0120council": 1719, "\u01202007": 1720, "\u0120audio": 1721, "zing": 1722, "\u0120Observatory": 1723, "\u0120sudden": 1724, "\u0120Portuguese": 1725, "\u0120advantage": 1726, "\u0120May": 1727, "\u0120charged": 1728, "\u0120wildlife": 1729, "\u0120family": 1730, "\u0120occasionally": 1731, "\u0120group": 1732, "\u0120Vo": 1733, "ome": 1734, "nar": 1735, "\u0120coordinat": 1736, "ology": 1737, "\u0120v": 1738, "\u0120money": 1739, "\u0120operated": 1740, "\u0120Roman": 1741, "\u0120ty": 1742, "\u0120houses": 1743, "\u0120voice": 1744, ")": 1745, "\u0120theme": 1746, "<": 1747, "\u0120tells": 1748, "\u0120obesity": 1749, "net": 1750, "OE": 1751, "\u0120school": 1752, "\u0120They": 1753, "\u012038": 1754, "\u0120Bre": 1755, "ively": 1756, "\u0120calculated": 1757, "\u0120cross": 1758, "eu": 1759, "\u0120pa": 1760, "\u0120mon": 1761, "\u0120w": 1762, "\u0120util": 1763, "\u0120glucose": 1764, "\u0120Psych": 1765, "\u0120leader": 1766, "ik": 1767, "\u0120shift": 1768, "\u0120forest": 1769, "iles": 1770, "\u0120province": 1771, "\u0120platform": 1772, "\u0120members": 1773, "45": 1774, "\u0120Jefferson": 1775, "\u0120line": 1776, "\u0120jurisdiction": 1777, "\u0120talk": 1778, "section": 1779, "\u0120suffered": 1780, "\u0120remember": 1781, "\u0120da": 1782, "\u0120removal": 1783, "\u0120schools": 1784, "\u0120chronic": 1785, "\u0120To": 1786, "\u0120fro": 1787, "\u0120tail": 1788, "\u0120representation": 1789, "ge": 1790, "\u0120supposed": 1791, "\u0120currently": 1792, "\u0120per": 1793, "\u0120place": 1794, "\u0120conflict": 1795, "\u0120Ar": 1796, "\u0120finds": 1797, "\u0120sharing": 1798, "\u0120Ang": 1799, "\u01201960": 1800, "\u0120antiretroviral": 1801, "\u0120Director": 1802, "\u0120-": 1803, "\u0120Central": 1804, "\u0120category": 1805, "\u0120according": 1806, "\u0120cardiovascular": 1807, "\u0120clu": 1808, "\u0120railroad": 1809, "\u0120affects": 1810, "\u0120relationships": 1811, "\u0120matter": 1812, "\u0120During": 1813, "\u0120MS": 1814, "mi": 1815, "-": 1816, "\u0120rose": 1817, "rry": 1818, "\u0120connect": 1819, "\u0120pollutants": 1820, "\u0120Korea": 1821, "ca": 1822, "\u0120replace": 1823, "SP": 1824, "UT": 1825, "\u0120therefore": 1826, "\u0120dimension": 1827, "\u0120portion": 1828, "\u0120finish": 1829, "\u0120ordinary": 1830, "\u0120reaching": 1831, "Wh": 1832, "\u0120400": 1833, "llo": 1834, "iled": 1835, "\u0120micro": 1836, "\u0120disorder": 1837, "\u0120Ch": 1838, "\u0120Standard": 1839, "\u0120the": 1840, "sp": 1841, "\u0120wi": 1842, "Similar": 1843, "Why": 1844, "\u0120observed": 1845, "\u0120Open": 1846, "\u0120absorb": 1847, "\u0120interfere": 1848, "\u0120marriage": 1849, "\u0120carry": 1850, "\u0120authorities": 1851, "\u0120clothing": 1852, "Ta": 1853, "\u0120Station": 1854, "rich": 1855, "It": 1856, "\u0120statistical": 1857, "\u0120unf": 1858, "sides": 1859, "\u0120relief": 1860, "\u0120spiritual": 1861, "\u0120grid": 1862, "western": 1863, "po": 1864, "\u0120normal": 1865, "\u0120\u00ce": 1866, "\u0120Des": 1867, "\u0120Historic": 1868, "cal": 1869, "ature": 1870, "\u0120Bur": 1871, "\u0120good": 1872, "\u0120Pi": 1873, "Se": 1874, "\u0120carbon": 1875, "nia": 1876, "\u0120Have": 1877, "\u0120mercury": 1878, "\u0120various": 1879, "\u0120cognitive": 1880, "\u0120hundred": 1881, "\u0120requires": 1882, "\u0120brings": 1883, "\u0120Multi": 1884, "\u0120turbine": 1885, "\u0120disabilities": 1886, "\u0120off": 1887, "\u0120Fla": 1888, "On": 1889, "\u0120concerning": 1890, "\u0120undergraduate": 1891, "\u0120seek": 1892, "\u0120success": 1893, "\u0120perfect": 1894, "65": 1895, "22": 1896, "\u0120legitimate": 1897, "\u0120--": 1898, "\u0120Convention": 1899, "emia": 1900, "\u0120forecast": 1901, "\u0120Muslim": 1902, "\u0120severity": 1903, "ced": 1904, "ef": 1905, "ko": 1906, "ura": 1907, "\u0120branch": 1908, "\u0120meat": 1909, "ubs": 1910, "\u0120operations": 1911, "eth": 1912, "\u0120Despite": 1913, "\u0120recently": 1914, "\u0120therapist": 1915, "\u0120contributions": 1916, "\u0120Bru": 1917, "\u0120base": 1918, "\u0120ju": 1919, "\u0120knows": 1920, "\u01202005": 1921, "\u0120indoor": 1922, "nta": 1923, "\u01201920": 1924, "\u0120Wal": 1925, "\u0120eruption": 1926, "\u0120hospitals": 1927, "\u0120mothers": 1928, "CO": 1929, "gra": 1930, "Your": 1931, "47": 1932, "\u0120Ag": 1933, "\u0120Census": 1934, "\u0120degradation": 1935, "77": 1936, "\u0120addition": 1937, "\u0120Syria": 1938, "Ra": 1939, "\u0120East": 1940, "\u0120social": 1941, "\u0120injured": 1942, "\u0120usual": 1943, "\u0120earliest": 1944, "\u0120recreation": 1945, "\u0120kingdom": 1946, "After": 1947, "\u0120skills": 1948, "\u0120stronger": 1949, "with": 1950, "ponents": 1951, "\u0120pictures": 1952, "\u0120synagogue": 1953, "\u0120patient": 1954, "meter": 1955, "\u0120praise": 1956, "izes": 1957, "\u0120topic": 1958, "\u0120scholar": 1959, "\u0120fuel": 1960, "\u0120disease": 1961, "\u0120items": 1962, "\u0120We": 1963, "\u0120juice": 1964, "\u0120wasn": 1965, "\u0120developing": 1966, "\u00dd": 1967, "\u0120pro": 1968, "\u0120options": 1969, "\u0120story": 1970, "for": 1971, "\u0120moon": 1972, "\u0120treated": 1973, "\u0120overall": 1974, "\u0120colon": 1975, "\u0120grew": 1976, "\u0120accepted": 1977, "\u0120cooling": 1978, "\u0120Scripture": 1979, "\u0120Wildlife": 1980, "\u0120regulation": 1981, "\u0120Ja": 1982, "mber": 1983, "\u0120Design": 1984, "\u0120diabetes": 1985, "\u0120well": 1986, "\u0120Environmental": 1987, "\u0120States": 1988, "\u0120Latin": 1989, "\u0120involved": 1990, "\u0120s": 1991, "\u0120Mil": 1992, "\u0120Before": 1993, "\u0120allowed": 1994, "\u00e2\u0122\u00a6": 1995, "\u0120believes": 1996, "\u0120distribution": 1997, "\u0120200": 1998, "right": 1999, "\u0120ill": 2000, "\u0120production": 2001, "\u0120source": 2002, "\u0120manager": 2003, "\u0120Commission": 2004, "\u0120islands": 2005, "eg": 2006, "\u0120Peter": 2007, "\u0120reduction": 2008, "\u0120Its": 2009, "\u0120inter": 2010, "\u0120produced": 2011, "\u0123": 2012, "\u0120nausea": 2013, "\u0120Week": 2014, "atic": 2015, "\u0120prefer": 2016, "\u0120resistance": 2017, "OO": 2018, "\u0120She": 2019, "\u0120courtesy": 2020, "08": 2021, "\u0120Peace": 2022, "\u0120six": 2023, "\u0120leaders": 2024, "\u0120button": 2025, "\u0120thin": 2026, "\u0120coming": 2027, "\u0120realize": 2028, "uted": 2029, "\u0120infants": 2030, "\u0120undergo": 2031, "al": 2032, "\u0120dental": 2033, "ess": 2034, "\u0120adds": 2035, "\u0120assumption": 2036, "\u0120Hopkins": 2037, "\u0120battery": 2038, "\u0120gauge": 2039, "\u0120fossil": 2040, "\u0120event": 2041, "\u0120combat": 2042, "LA": 2043, "\u0120voluntary": 2044, "\u0120enroll": 2045, "\u0120Michael": 2046, "Im": 2047, "\u0120getting": 2048, "\u0120neighborhood": 2049, "OU": 2050, "\u0120crown": 2051, "\u0120Secretary": 2052, "ula": 2053, "\u0120Defense": 2054, "\u0120string": 2055, "Please": 2056, "\u0120card": 2057, "\u0120Information": 2058, "\u0120Mac": 2059, "\u0120proved": 2060, "\u0120increased": 2061, "\u0120prevention": 2062, "\u0120scientist": 2063, "\u0120Labor": 2064, "\u0120copyright": 2065, "\u0120King": 2066, "\u0120print": 2067, "\u0120really": 2068, "\u0120steps": 2069, "\u0120Times": 2070, "\u0120equipment": 2071, "\u0120antibiotics": 2072, "te": 2073, "\u0120\u00e2\u0122\u0136": 2074, "\u0120Union": 2075, "\u0120fertil": 2076, "xt": 2077, "\u0120results": 2078, "These": 2079, "\u0120exposure": 2080, "\u0120employees": 2081, "\u0120divine": 2082, "\u0120)": 2083, "\u0120diff": 2084, "\u0120against": 2085, "\u0120un": 2086, "\u0120business": 2087, "spe": 2088, "mine": 2089, "\u0120i": 2090, "\u0120ended": 2091, "\u0120temple": 2092, "\u00bf": 2093, "\u0120Lincoln": 2094, "\u00a1": 2095, "gro": 2096, "\u0120extraordinary": 2097, "\u0120layers": 2098, "\u0120low": 2099, "\u0120improving": 2100, "\u0120toward": 2101, "\u0120All": 2102, "\u0120competition": 2103, "ax": 2104, "\u0120Max": 2105, "\u0120Christianity": 2106, "\u0120historic": 2107, "green": 2108, "\u0120describe": 2109, "rum": 2110, "\u0120discussion": 2111, "dom": 2112, "\u0120greater": 2113, "\u0120deep": 2114, "\u0120Columbus": 2115, "ities": 2116, "\u0120WHO": 2117, "bs": 2118, "\u0120Liter": 2119, "\u0120four": 2120, "\u0120display": 2121, "\u0120side": 2122, "\u0120land": 2123, "\u0120mar": 2124, "\u0120fail": 2125, "\u0120reinforce": 2126, "\u0120IP": 2127, "\u0120definition": 2128, "\u0120stood": 2129, "\u0120flying": 2130, "\u0120Dec": 2131, "\u0120Cy": 2132, "\u0120Friday": 2133, "\u0120young": 2134, "ficial": 2135, "UL": 2136, "\u0120cool": 2137, "\u0120force": 2138, "operative": 2139, "RA": 2140, "\u0120points": 2141, "\u0120consideration": 2142, "\u0120+": 2143, "\u0120replacing": 2144, "\u0120correspond": 2145, "\u0120Index": 2146, "tained": 2147, "\u0120Johnson": 2148, "\u0120reasons": 2149, "\u0120more": 2150, "\u0120impossible": 2151, "\u0120experienced": 2152, "form": 2153, "DC": 2154, "\u0120significantly": 2155, "\u0120calcium": 2156, "\u0120cli": 2157, "\u00ec": 2158, "\u0120length": 2159, "\u0120official": 2160, "ni": 2161, "\u0120SE": 2162, "\u0120procedures": 2163, "\u0120tell": 2164, "ser": 2165, "\u0120inform": 2166, "foot": 2167, "\u0120feeling": 2168, "oph": 2169, "\u0120arranged": 2170, "scale": 2171, ":||": 2172, "\u0120U": 2173, "posing": 2174, "Su": 2175, "\u0120explained": 2176, "\u0120rapid": 2177, "\u0120almost": 2178, "\u0120natural": 2179, "\u00e7": 2180, "\u0120courts": 2181, "\",": 2182, "lastname": 2183, "\u0120Computer": 2184, "\u0120vaccines": 2185, "\u0120security": 2186, "\u0120algae": 2187, "\u0120Up": 2188, "\u0120adequate": 2189, "\u0120sum": 2190, "\u0120potentially": 2191, "\u0120remarkable": 2192, "wide": 2193, "\u0120illegal": 2194, "\u0120Jordan": 2195, "ig": 2196, "\u0120bul": 2197, "\u0120Jul": 2198, "\u0120tools": 2199, "Ca": 2200, "\u0120counterparts": 2201, "\u0120Hispanic": 2202, "\u0120continues": 2203, "\u0120vary": 2204, "Q": 2205, "\u0120passenger": 2206, "bu": 2207, "\u0120gather": 2208, "\u012023": 2209, "\u0120'": 2210, "\u0120rice": 2211, "\u0120Ontario": 2212, "\u0120different": 2213, "\u0120soil": 2214, "ends": 2215, "\u0120pages": 2216, "\u0120forget": 2217, "Today": 2218, "co": 2219, "\u0120violent": 2220, "igorous": 2221, "Stud": 2222, "91": 2223, "its": 2224, "\u0120mm": 2225, "being": 2226, "\u0120logical": 2227, "\u0120ear": 2228, "pel": 2229, "\u0120rid": 2230, "\u0120scientific": 2231, "\u0120warfare": 2232, "\u0120poem": 2233, "\u0120Pacific": 2234, "\u0120code": 2235, "\u0120observe": 2236, "\u00d0\u00b8": 2237, "\u0120turn": 2238, "tter": 2239, "\u0120crisis": 2240, "NT": 2241, "Under": 2242, "\u0120News": 2243, "\u0120Affairs": 2244, "\u0120P": 2245, "\u0120bright": 2246, "\u0120Samuel": 2247, "\u0120Oxford": 2248, "\u0120Re": 2249, "so": 2250, "\u0120Maryland": 2251, "\u0120threats": 2252, "\u0120econom": 2253, "because": 2254, "\u0120Du": 2255, "\u0120asking": 2256, "\u0120ga": 2257, "count": 2258, "in": 2259, "\u0120private": 2260, "\u0120sons": 2261, "\u0120500": 2262, "\u0120triumph": 2263, "\u0120Reg": 2264, "\u0120Minister": 2265, "\u0120manufacture": 2266, "\u0120Brown": 2267, "\u0120death": 2268, "inary": 2269, "\u0120distributed": 2270, "\u0120Council": 2271, "\u0120culture": 2272, "ologies": 2273, "\u0120diploma": 2274, "\u0120Cultural": 2275, "atory": 2276, "del": 2277, "\u0120definitely": 2278, "gov": 2279, "cker": 2280, "\u0120wood": 2281, "\u0120website": 2282, "\u00d8": 2283, "\u0120altogether": 2284, "\u0120produces": 2285, "\u0120cited": 2286, "\u0120practice": 2287, "\u0120remaining": 2288, "\u0120withdraw": 2289, "\u0120Services": 2290, "bo": 2291, "\u0120Furthermore": 2292, "ved": 2293, "\u0120called": 2294, "ctor": 2295, "\u0120name": 2296, "\u0120pass": 2297, "\u0120clearly": 2298, "sa": 2299, "\u0120suffering": 2300, "face": 2301, "\u0120functions": 2302, "it": 2303, "ense": 2304, "\u0120Are": 2305, "\u0120sur": 2306, "\u0120discipline": 2307, "\u0120gases": 2308, "\u0120updated": 2309, "\u0120confidence": 2310, "\u0120minister": 2311, "\u0120sin": 2312, "cular": 2313, "ological": 2314, "\u0120stakeholders": 2315, "\u0120introduction": 2316, "ults": 2317, "\u0120resources": 2318, "\u0120efficient": 2319, "\u0120table": 2320, "\u0120Protection": 2321, "\u0120son": 2322, "\u0120exercises": 2323, "\u0120finance": 2324, "\u00c6": 2325, "\u0120plays": 2326, "\u0120Reserve": 2327, "\u0120season": 2328, "\u0120relation": 2329, "end": 2330, "att": 2331, "\u0120vitamin": 2332, "Back": 2333, "11": 2334, "\u0120Hi": 2335, "\u0120equivalent": 2336, "\u0120ceremon": 2337, "\u0120Mr": 2338, ".)": 2339, "\u0120Prevention": 2340, "\u0120doing": 2341, "\u0120count": 2342, "cs": 2343, "\u0120justice": 2344, "pper": 2345, "\u012018": 2346, "\u0120sovereign": 2347, "\u0120Far": 2348, "\u0137": 2349, "\u0120Ke": 2350, "\u0120rot": 2351, "pur": 2352, "cre": 2353, "\u0120significant": 2354, "\u0120fat": 2355, "\u0120chemical": 2356, "\u0120hospital": 2357, "\u0120proper": 2358, "\u0120Sen": 2359, "\u0120Colorado": 2360, "Cl": 2361, "\u0120hydr": 2362, "\u0120once": 2363, "\u0120companion": 2364, "LE": 2365, "\u0120kilometres": 2366, "\u0120join": 2367, "\u0120Table": 2368, "\u0120School": 2369, "\u0120root": 2370, "\u0120bar": 2371, "ce": 2372, "\u0120solve": 2373, "PR": 2374, "rks": 2375, "\u0120Let": 2376, "\u0120small": 2377, "\u0120Jersey": 2378, "ier": 2379, "\u00a4": 2380, "\u0120true": 2381, "\u0120numerous": 2382, "ku": 2383, "\u0120hardware": 2384, "connect": 2385, "rl": 2386, "\u0120chosen": 2387, "ws": 2388, "\u0120frustrat": 2389, "\u0120lungs": 2390, "\u0120\u00e2\u0122\u013a": 2391, "\u0120colony": 2392, "\u0120critic": 2393, "ial": 2394, "\u0120worse": 2395, "tre": 2396, "\u0120breastfeeding": 2397, "\u0120cheap": 2398, "\u0120thanks": 2399, "eo": 2400, "ock": 2401, "ans": 2402, "\u0120Bi": 2403, "new": 2404, "\u0120objectives": 2405, "\u0120spectacular": 2406, "\u0120Examples": 2407, "\u0120creating": 2408, "\u0120discovered": 2409, "\u0120storage": 2410, "\u0120Bangladesh": 2411, "\u0120incentive": 2412, "\u0120surface": 2413, "\u0120released": 2414, "\u0120careful": 2415, "\u0120given": 2416, "\u0120Olympic": 2417, "\u0120Fra": 2418, "\u0120gold": 2419, "national": 2420, "\u0120AD": 2421, "\u0120series": 2422, "\u0120sub": 2423, "\u0120metaphor": 2424, "23": 2425, "\u0120acknowledg": 2426, "\u01202000": 2427, "\u0120broke": 2428, "health": 2429, "ied": 2430, "\u0120border": 2431, "\u0120cru": 2432, "\u0120conservation": 2433, "\u0120mental": 2434, "\u0120slaves": 2435, "Di": 2436, "\u0120Alcohol": 2437, "\u0120substance": 2438, "\u0120continued": 2439, "ken": 2440, "\u0120consider": 2441, "sha": 2442, "ference": 2443, "conscious": 2444, "\u0120Hamilton": 2445, "Ja": 2446, "\u0120satellite": 2447, "\u0120visited": 2448, "\u0120recycled": 2449, "\u0120honour": 2450, "However": 2451, "\u0120sun": 2452, "\u0120generate": 2453, "\u0120what": 2454, "od": 2455, "\u0120rich": 2456, "\u0120av": 2457, "ton": 2458, "\u0120Twitter": 2459, "\u0120preserve": 2460, "\u0120minority": 2461, "\u0120Party": 2462, "vision": 2463, "\u0120vegetable": 2464, "\u0120transmitted": 2465, "\u0120shared": 2466, "\u0120them": 2467, "\u0120investig": 2468, "\u0120complications": 2469, "\u0120bone": 2470, "\u012075": 2471, "TP": 2472, "\u0120discrimination": 2473, "\u0120driving": 2474, "vy": 2475, "\u0120public": 2476, "\u0120Russian": 2477, "\u0120fixed": 2478, "\u0120imagine": 2479, "\u0120introduced": 2480, "\u0120courses": 2481, "duced": 2482, "\u0120Thompson": 2483, "shop": 2484, "\u0120Chinese": 2485, "\u0120amino": 2486, "ound": 2487, "\u0120tour": 2488, "\u0120promise": 2489, "\u0120renewable": 2490, "\u0120standard": 2491, "\u0120too": 2492, "\u0120CO": 2493, "\u012d": 2494, "pathy": 2495, "\u0120reward": 2496, "\u0120Bra": 2497, "itable": 2498, "now": 2499, "\u0120skull": 2500, "\u0120cho": 2501, "\u0120typically": 2502, "\u0120smoke": 2503, "\u0120credit": 2504, "\u0120Social": 2505, "ury": 2506, "\u0120Pe": 2507, "system": 2508, "\u0120phone": 2509, "\u0120musical": 2510, "ifies": 2511, "\u0120govern": 2512, "\u0120spectrum": 2513, "eng": 2514, "\u0120nearly": 2515, "\u0120Sur": 2516, "\u0120Ce": 2517, "people": 2518, "\u0120helps": 2519, "ms": 2520, "\u0120leaving": 2521, "vol": 2522, "\u0120Book": 2523, "etary": 2524, "\u0120tight": 2525, "\u00b9": 2526, "\u0120happen": 2527, "\u0120Hitler": 2528, "ien": 2529, "\u0120neck": 2530, "\u0120year": 2531, "\u0120nano": 2532, "\u0120Ohio": 2533, "low": 2534, "HS": 2535, "\u0120become": 2536, "\u0120often": 2537, "\u0120psychiatr": 2538, "rth": 2539, "88": 2540, "\u0120Organization": 2541, "\u0120office": 2542, "\u01201985": 2543, "\u0120matters": 2544, "ners": 2545, "\u0120stimul": 2546, "\u0120Among": 2547, "ric": 2548, "\u0120special": 2549, "\u0120Margaret": 2550, "\u01206": 2551, "\u0120Iraq": 2552, "\u0120chocolate": 2553, "\u0120dioxide": 2554, "\u012016": 2555, "Wo": 2556, "\u0120sentence": 2557, "\u012f": 2558, "ie": 2559, "\u0120Digital": 2560, "\u0120enabling": 2561, "\u012031": 2562, "\u0120Fukushima": 2563, "\u0120Iran": 2564, "\u0120conjunction": 2565, "\u0120females": 2566, "\u0120Venezuela": 2567, "Hu": 2568, "\u0120wild": 2569, "\u0120Magazine": 2570, "\u0120Early": 2571, "\u0120Centre": 2572, "\u0120Nations": 2573, "\u0120with": 2574, "EF": 2575, "\u0120yield": 2576, "\u0120touch": 2577, "\u0120flavor": 2578, "\u0120USA": 2579, "\u0120about": 2580, "Some": 2581, "\u0120royal": 2582, "ck": 2583, "(": 2584, "\u0120intervention": 2585, "\u0120Then": 2586, "\u0120focus": 2587, "\u0120mi": 2588, "\u0120Techn": 2589, "\u0120patients": 2590, "life": 2591, "\u01201998": 2592, "\u0120Revolution": 2593, "ult": 2594, "\u0120gasoline": 2595, "\u0120signs": 2596, "\u0120law": 2597, "\u01207": 2598, "group": 2599, "\u0120required": 2600, "\u0120starts": 2601, "em": 2602, "\u0120drawn": 2603, "\u0120steady": 2604, "PC": 2605, "\u0120Par": 2606, "uccessful": 2607, "\u0120difficulty": 2608, "\u0120deci": 2609, "\u0120containing": 2610, "\u0120id": 2611, "\u0120tribes": 2612, "\u0120abuse": 2613, "\u0120Family": 2614, "control": 2615, "Other": 2616, "\u0120reviewed": 2617, "\u0120populations": 2618, "test": 2619, "cle": 2620, "\u0120Sir": 2621, "\u0120learning": 2622, "\u0120unit": 2623, "\u0120wine": 2624, "\u0120emerg": 2625, "\u0120bit": 2626, "\u0120butterf": 2627, "\u0120basin": 2628, "lc": 2629, "ols": 2630, "\u0120burning": 2631, "\u0120advances": 2632, "\u0120only": 2633, "sts": 2634, "\u0120velocity": 2635, "\u0120reporting": 2636, "\u0120Virginia": 2637, "\u0120RE": 2638, "\u0120generated": 2639, "\u00d9": 2640, "\u00e1\u00b9": 2641, "\u0120exploration": 2642, "\u0120AND": 2643, "\u0120murder": 2644, "\u0120African": 2645, "\u0120strict": 2646, "\u0120assert": 2647, "\u0120day": 2648, "\u0120aware": 2649, "\u0120Robert": 2650, "\u0120Books": 2651, "86": 2652, "\u0120regular": 2653, "\u0120begins": 2654, "\u0120covering": 2655, "\u0120increasingly": 2656, "\u0120stay": 2657, "ise": 2658, "\u0120faster": 2659, "\u0120framework": 2660, "\u0120Be": 2661, "You": 2662, "\u0120Type": 2663, "\u0120accept": 2664, "\u0120mixed": 2665, "\u00ce": 2666, "\u0120future": 2667, "sized": 2668, "\u0120NASA": 2669, "ught": 2670, "\u0120radical": 2671, "\u0120had": 2672, "\u0120ignor": 2673, "\u0120Sm": 2674, "\u0120Mar": 2675, "\u0120FA": 2676, "\u0120receptor": 2677, "\u0120pp": 2678, "\u0120caused": 2679, "\u0120Four": 2680, "\u0120Houston": 2681, "eed": 2682, "\u0120background": 2683, "\u0120Parliament": 2684, "\u0120miss": 2685, "OP": 2686, "\u0120annual": 2687, "\u0120artillery": 2688, "\u0120rates": 2689, "\u0120Office": 2690, "\u0120less": 2691, "\u0120bridge": 2692, "\u0120rising": 2693, "\u0120pairs": 2694, "\u0120showed": 2695, "\u0120unlikely": 2696, "\u0120fault": 2697, "\u0120opportunities": 2698, "\u0120ahead": 2699, "\u0120machine": 2700, "\u0120elephant": 2701, "\u0120Wi": 2702, "ould": 2703, "\u0120observation": 2704, "\u0120hurricane": 2705, "IS": 2706, "\u0120access": 2707, "\u0120double": 2708, "\u0120Communi": 2709, "@": 2710, "\u0120households": 2711, "iding": 2712, "\u0120disposal": 2713, "\u0120Practice": 2714, "use": 2715, "800": 2716, "mann": 2717, "\u0120attached": 2718, "\u0120term": 2719, "\u0120Business": 2720, "\u0120manufacturers": 2721, "\u0120books": 2722, "clusive": 2723, "\u00c3\u00b3": 2724, "ical": 2725, "\u0120Alzheimer": 2726, "\u0120telling": 2727, "\u0120geo": 2728, "\u0120forms": 2729, "\u0120demonstrate": 2730, "\u0120que": 2731, "72": 2732, "ling": 2733, "ues": 2734, "\u0120Cooper": 2735, "ister": 2736, "fore": 2737, "\u0120Man": 2738, "\u0120biology": 2739, "\u0120helicopter": 2740, "\u0120conclude": 2741, "\u0120home": 2742, "\u0120target": 2743, "\u0120Student": 2744, "\u0120shapes": 2745, "\u0120magazine": 2746, "\u0120every": 2747, "ative": 2748, "urs": 2749, "\u0120detailed": 2750, "\u0120striking": 2751, "\u0120again": 2752, "\u0120counsel": 2753, "\u0120dream": 2754, "\u0120Here": 2755, "\u0120Care": 2756, "\u0120exist": 2757, "ide": 2758, "\u0120gain": 2759, "\u0120lecture": 2760, "\u0120permit": 2761, "Le": 2762, "\u0120Egyptian": 2763, "\u0120Therefore": 2764, "\u0120attempt": 2765, "\u0120gap": 2766, "\u0120Co": 2767, "\u0120crew": 2768, "\u0120publish": 2769, "\u0120views": 2770, "\u00e1\u00b8\u012f": 2771, "\u0120Prophet": 2772, "all": 2773, "\u0120representative": 2774, "\u0120lo": 2775, "own": 2776, "ft": 2777, "\u0120hierarch": 2778, "\u0120believe": 2779, "ga": 2780, "\u0120Babylon": 2781, "\u0120Executive": 2782, "\u0120difficulties": 2783, "\u0120van": 2784, "\u0120sold": 2785, "\u0120Con": 2786, "efficient": 2787, "\u0120resource": 2788, "\u0120behalf": 2789, "VE": 2790, "\u0120hormone": 2791, "see": 2792, "\u00cd": 2793, "\u0120Aristotle": 2794, "\u0120Count": 2795, "\u0120Ethiopia": 2796, "\u0120communications": 2797, "\u0120Class": 2798, "\u0120entered": 2799, "\u0120Where": 2800, "\u0120Turkish": 2801, "\u0120environmental": 2802, "\u01201940": 2803, "\u0120technological": 2804, "\u0120myth": 2805, "rated": 2806, "LC": 2807, "\u0120ongoing": 2808, "\u0120Darwin": 2809, "\u0120Har": 2810, "\u0120soldiers": 2811, "\u0120asked": 2812, "\u0120Mars": 2813, "\u0120clim": 2814, "\u0120Britain": 2815, "\u0120breathing": 2816, "\u0120census": 2817, "\u0120hi": 2818, "non": 2819, "\u0120sent": 2820, "\u0120weigh": 2821, "\u0120cluster": 2822, "\u0120offers": 2823, "\u0120entertainment": 2824, "\u0120cup": 2825, "\u0120anniversary": 2826, "tions": 2827, "Just": 2828, "\u012070": 2829, "\u0120assist": 2830, "\u0120desirable": 2831, "Bl": 2832, "\u0120Tri": 2833, "63": 2834, "OC": 2835, "\u0120cur": 2836, "\u0120your": 2837, "AC": 2838, "\u0120grass": 2839, "\u0120feelings": 2840, "ets": 2841, "At": 2842, "\u0120meet": 2843, "\u0120Princip": 2844, "ab": 2845, "yp": 2846, "\u0120Pr": 2847, "\u0120ages": 2848, "\u0120Em": 2849, "Th": 2850, "\u0120pure": 2851, "da": 2852, "\u0120biomass": 2853, "er": 2854, "\u00ac": 2855, "\u0120way": 2856, "\u0120vaccination": 2857, "screen": 2858, "\u0120statu": 2859, "\u0120society": 2860, "\u0120Group": 2861, "\u0120Stephen": 2862, "\u0120staff": 2863, "friendly": 2864, "AP": 2865, "\u0120planet": 2866, "\u0120several": 2867, "\u0120noted": 2868, "\u0120outdoor": 2869, "bles": 2870, "\u0120ball": 2871, "\u0120wr": 2872, "\u0120attributes": 2873, "\u0120Resources": 2874, "\u0120Kr": 2875, "\u0120captured": 2876, "\u0120Thailand": 2877, "\u0120unexpected": 2878, "\u0120efficacy": 2879, "\u0120cha": 2880, "\u0120cra": 2881, "\u0120surgical": 2882, "\u0120debate": 2883, "irs": 2884, "\u0120Navy": 2885, "\u0120senior": 2886, "\u0120fr": 2887, "NASA": 2888, "\u0120Because": 2889, "\u0120If": 2890, "ur": 2891, "\u0120Institute": 2892, "\u0120symptoms": 2893, "\u0120insects": 2894, "\u0120studying": 2895, "Sp": 2896, "\u0120dri": 2897, "\u0120subject": 2898, "\u0120medieval": 2899, "ated": 2900, "ger": 2901, "\u0120orange": 2902, "\u0120Ph": 2903, "\u0120takes": 2904, "\u0120demands": 2905, "ba": 2906, "\u0120mode": 2907, "\u0120My": 2908, "\u0120streams": 2909, "\u0120say": 2910, "\u0120Arctic": 2911, "\u00e2\u0124\u00ac": 2912, "bre": 2913, "\u0120Access": 2914, "ux": 2915, "\u0120emphasize": 2916, "\u00c8": 2917, "\u0120stock": 2918, "Through": 2919, "\u0120Great": 2920, "\u0120they": 2921, "\u0120gathered": 2922, "50": 2923, "\u0120III": 2924, "\u0120channel": 2925, "\u0120time": 2926, "\u0120infrastructure": 2927, "vation": 2928, "\u0120anim": 2929, "\u0120absolute": 2930, "\u0120Museum": 2931, "\u0120periods": 2932, "\u0120territories": 2933, "\u0120Liber": 2934, "\u0120Protocol": 2935, "\u0120urine": 2936, "\u0120falls": 2937, "\u0120levels": 2938, "\u0120largely": 2939, "\u013b": 2940, "\u0134": 2941, "\u0120non": 2942, "\u0120maybe": 2943, "\u0120Emergency": 2944, "ut": 2945, "\u0120Boston": 2946, "\u0120policy": 2947, "\u0120desire": 2948, "\u0120approximately": 2949, "\u0120Mad": 2950, "\u0120Jr": 2951, "\u0120appetite": 2952, "ade": 2953, "\u0120achievement": 2954, "\u0120breed": 2955, "\u0120pre": 2956, "\u0120filled": 2957, "mail": 2958, "\u0120businesses": 2959, "suming": 2960, "\u0120Why": 2961, "\u0120panel": 2962, "\u0120knew": 2963, "\u0120prairie": 2964, "\u00b1": 2965, "Me": 2966, "\u0120ur": 2967, "\u0120crucial": 2968, "\u00ed": 2969, "\u0120produce": 2970, "IG": 2971, ".'": 2972, "\u00e2\u0122\u013b.": 2973, "\u0120Mo": 2974, "\u0120unique": 2975, "\u0120orders": 2976, "bed": 2977, "\u0120trials": 2978, "\u0120hybrid": 2979, "lf": 2980, "Ha": 2981, "Te": 2982, "\u0120fra": 2983, "town": 2984, "\u0120operation": 2985, "\u0120conference": 2986, "\u00d0": 2987, "\u0120intelligence": 2988, "\u0120compassion": 2989, "\u0120mod": 2990, "\u0120photographs": 2991, "EG": 2992, "\u0120Sin": 2993, "ch": 2994, "which": 2995, "\u0120churches": 2996, "\u0120controls": 2997, "\u0120second": 2998, "\u0120stu": 2999, "\u00bc": 3000, "\u0120parent": 3001, "05": 3002, "era": 3003, "\u0120universal": 3004, "\u0120vomiting": 3005, "mo": 3006, "\u0120variations": 3007, "\u0120mention": 3008, "\u0120operate": 3009, "erson": 3010, "\u0120objects": 3011, "specific": 3012, "\u0120und": 3013, "BS": 3014, "\u0120rain": 3015, "nnel": 3016, "\u0120from": 3017, "\u0120nervous": 3018, "\u0120themselves": 3019, "\u0120sounds": 3020, "\u0120HIV": 3021, "\u0120cut": 3022, "X": 3023, "\u0120settled": 3024, "\u0120Camp": 3025, "\u0120engineering": 3026, "\u0120Cons": 3027, "\u0120International": 3028, "\u0120mathematician": 3029, "\u0120fabric": 3030, "\u0120medication": 3031, "\u0120wound": 3032, "\u0120Legislat": 3033, "phone": 3034, "\u0120emerging": 3035, "width": 3036, "\u0120mono": 3037, "magnetic": 3038, "tic": 3039, "naissance": 3040, "TO": 3041, "\u0120operating": 3042, "\u0120contaminated": 3043, "\u0120Canyon": 3044, "\u0120wing": 3045, "nus": 3046, "\u0120construct": 3047, "\u0120Governor": 3048, "\u0120chemistry": 3049, "\u0120vegetation": 3050, "\u0120addressed": 3051, "\u0120contained": 3052, "\u0120Treaty": 3053, "\u0120controlled": 3054, "\u0120soul": 3055, "\u0120Australia": 3056, "\u0120chest": 3057, "\u00d7": 3058, "\u0120drinking": 3059, "\u0120occur": 3060, "\u0120adjacent": 3061, "ica": 3062, "ses": 3063, "ne": 3064, "\u0120Fr": 3065, "\u0120Lu": 3066, "\u0120Network": 3067, "\u0120profession": 3068, "\u0120R": 3069, "See": 3070, "making": 3071, "\u0120Students": 3072, "til": 3073, "omic": 3074, "\u0143": 3075, "\u0120ste": 3076, "\u0120nothing": 3077, "\u0120basic": 3078, "\u0120Telescope": 3079, "Inter": 3080, "inal": 3081, "\u0120OS": 3082, "vent": 3083, "\u0120expert": 3084, "\u0120port": 3085, "\u0120corner": 3086, "\u0120Albert": 3087, "\u0120prevalence": 3088, "\u0120Di": 3089, "\u0120split": 3090, "\u0120Model": 3091, "\u0120Review": 3092, "ye": 3093, "ings": 3094, "13": 3095, "\u0120availability": 3096, "While": 3097, "\u0120allows": 3098, "sco": 3099, "%": 3100, "\u0120might": 3101, "\u0120desired": 3102, "LL": 3103, "Every": 3104, "\u0120Fair": 3105, "\u0120showing": 3106, "\u0120Introduction": 3107, "ub": 3108, "\u0120symbol": 3109, "\u0120dogs": 3110, "\u0120opportunity": 3111, "\u0120genetic": 3112, "\u0120architect": 3113, "val": 3114, "\u0120wish": 3115, "\u0120each": 3116, "clamation": 3117, "\u0120Life": 3118, "ich": 3119, "\u0120fully": 3120, ".).": 3121, "\u0120tornado": 3122, "%.": 3123, "OD": 3124, "\u0120Additionally": 3125, "\u0120considerable": 3126, "\u0120criteria": 3127, "\u0120Learn": 3128, "\u0120silver": 3129, "ergy": 3130, "\u0120brother": 3131, "\u0120carbohydrate": 3132, "\u0120insufficient": 3133, "\u0120raise": 3134, "\u0120scheme": 3135, "cing": 3136, "\u0120clear": 3137, "87": 3138, "\u0120know": 3139, "\u0120exhibit": 3140, "74": 3141, "k": 3142, "\u0120fewer": 3143, "\u0120Dr": 3144, "\u00e2\u0122\u013f.": 3145, "isms": 3146, "\u0120college": 3147, "\u0120CS": 3148, "ath": 3149, "Science": 3150, "\u0120articles": 3151, "\u0120rules": 3152, "\u0120cr": 3153, "\u0120parallel": 3154, "\u0120connected": 3155, "related": 3156, "\u0120returns": 3157, "\u0120analyze": 3158, "\u0120James": 3159, "\u0120Foundation": 3160, "\u0120Three": 3161, "\u0120Islands": 3162, "side": 3163, "sh": 3164, "\u0120Pennsylvania": 3165, "\u0120[": 3166, "\u0120cent": 3167, "ency": 3168, "\u0120develop": 3169, "\u0120speech": 3170, "\u0120cultiv": 3171, "\u0120machines": 3172, "\u0120Muslims": 3173, "\u0120attorney": 3174, "effective": 3175, ").": 3176, "\u0120commercial": 3177, "\u0120tsunami": 3178, "\u0120spa": 3179, "\u0120mood": 3180, "\u0120missions": 3181, "ple": 3182, "}": 3183, "\u0120safety": 3184, "metry": 3185, "\u0120truth": 3186, "\u0120identifi": 3187, "\u0120measures": 3188, "\u0120example": 3189, "\u0120whereas": 3190, "\u0120plain": 3191, "\u0120financial": 3192, "\u0120popular": 3193, "nk": 3194, "\u0120Part": 3195, "\u0120genome": 3196, "\u01201999": 3197, "ry": 3198, "ron": 3199, "\u0120Alabama": 3200, "\u0120Materials": 3201, "\u0120throughout": 3202, "\u0120ones": 3203, "\u0120Iowa": 3204, "\u0120planning": 3205, "\u0120Plan": 3206, "\u0120Philip": 3207, "\u0120specific": 3208, "\u0120accompan": 3209, "\u0120leg": 3210, "\u0120honest": 3211, "\u0120atmospheric": 3212, "\u012036": 3213, "\u0120comments": 3214, "\u0120growing": 3215, "During": 3216, "\u0120absence": 3217, "ia": 3218, "\u0120sleep": 3219, "\u0120Well": 3220, "\u0120wo": 3221, "All": 3222, "\u0120Disease": 3223, "\u0120AM": 3224, "\u0120exact": 3225, "\u0120Buddha": 3226, "\u0120present": 3227, "\u0120abroad": 3228, "\u00e6": 3229, "\u0120horses": 3230, "\u0120smart": 3231, "\u0120j": 3232, "ches": 3233, "\u0120sections": 3234, "\u0120drawing": 3235, "\u0120trends": 3236, "\u0120walls": 3237, "gene": 3238, "In": 3239, "sed": 3240, "\u0120communicate": 3241, "\u0120thermo": 3242, "\u0120push": 3243, "ze": 3244, "\u0120Northern": 3245, "\u0120Sea": 3246, "\u0120clouds": 3247, "\u0120bad": 3248, "i": 3249, "\u0120Univers": 3250, "\u0120dust": 3251, "ol": 3252, "IR": 3253, "\u0120him": 3254, "\u0120calls": 3255, "Ch": 3256, "PH": 3257, "\u0120approval": 3258, "\u0120press": 3259, "\u0120Pediatrics": 3260, "\u0120go": 3261, "\u0120Benjamin": 3262, "\u0120post": 3263, "\u0120turning": 3264, "Pa": 3265, "\u0120cavity": 3266, "\u0120San": 3267, "\u0120occup": 3268, "ire": 3269, "\u0120Ann": 3270, "\u0120preparing": 3271, "\u0120records": 3272, "\u0120diagnose": 3273, "\u0120philosoph": 3274, "cked": 3275, "\u0120talking": 3276, "\u0120island": 3277, "mbers": 3278, "rch": 3279, "\u0120probably": 3280, "\u0120Corps": 3281, "\u0120Both": 3282, "ta": 3283, "\u0120An": 3284, "People": 3285, "appropriate": 3286, "\u0138": 3287, "\u0120Atmospheric": 3288, "November": 3289, "Two": 3290, "\u0120Find": 3291, "\u0120Wil": 3292, "\u0120evening": 3293, "Ds": 3294, "\u0120corruption": 3295, "AT": 3296, "\u0120lower": 3297, "profit": 3298, "aching": 3299, "5": 3300, "change": 3301, "gl": 3302, "\u0120shell": 3303, "\u0120regularly": 3304, "What": 3305, "\u0120page": 3306, "erman": 3307, "\u0120successfully": 3308, "\u0120volcanic": 3309, "\u0120rhythm": 3310, "ont": 3311, "\u0120surfaces": 3312, "\u0120habits": 3313, "\u0120Good": 3314, "\u0120Read": 3315, "\u0120income": 3316, "\u0120Tuesday": 3317, "\u0120difference": 3318, "\u0120services": 3319, "\u0120set": 3320, "\u0120scholars": 3321, "bl": 3322, "rgy": 3323, "\u0120elsewhere": 3324, "\u0120lifestyle": 3325, "\u0120doctors": 3326, "\u0120la": 3327, "\u0120environment": 3328, "\u0120predict": 3329, "\u0120inhabit": 3330, "\u0120emotions": 3331, "\u0120clo": 3332, "\u0120moisture": 3333, "\u012035": 3334, "\u0120recip": 3335, "\u0120entrance": 3336, "\u0120dispute": 3337, "\u0120cards": 3338, "\u0120student": 3339, "\u0120product": 3340, "\u0120Amazon": 3341, "\u0120Negro": 3342, "AS": 3343, "\u0120Brooklyn": 3344, "\u0120gave": 3345, "\u0120Using": 3346, "ives": 3347, "\u0120on": 3348, "\u0120February": 3349, "\u0120worked": 3350, "\u0120Me": 3351, "\u0120.": 3352, "rid": 3353, "\u0120register": 3354, "ites": 3355, "sing": 3356, "\u0120Emperor": 3357, "\u0120tax": 3358, "\u0120literary": 3359, "\u012013": 3360, "\u0120daughter": 3361, "Pro": 3362, "ode": 3363, "\u0120sophisticated": 3364, "October": 3365, "\u0120sculpt": 3366, "\u0120enormous": 3367, "Of": 3368, "\u0120element": 3369, "ma": 3370, "\u0120hidden": 3371, "\u0120neutr": 3372, "ored": 3373, "PA": 3374, "\u0120Mediterranean": 3375, "M": 3376, "Pe": 3377, "\u0120cy": 3378, "eous": 3379, "\u0120close": 3380, "\u0120hum": 3381, "\u0120quarter": 3382, "\u0120mineral": 3383, "\u0120raw": 3384, "\u0120Hurricane": 3385, "\u0120Al": 3386, "\u0120oil": 3387, "\u0120sens": 3388, "person": 3389, "\u0120gun": 3390, "ok": 3391, "xi": 3392, "\u0120agricultural": 3393, "\u0120priest": 3394, "world": 3395, "\u0120when": 3396, "52": 3397, "\u0120keeping": 3398, "\u01201991": 3399, "ely": 3400, "\u0120crop": 3401, "ended": 3402, "hn": 3403, "\u0120especially": 3404, "\u0120versions": 3405, "\u0120flash": 3406, "\u0120Mon": 3407, "\u0120application": 3408, "\u0120reduce": 3409, "\u0120Av": 3410, "Professor": 3411, "\u0120graduate": 3412, "\u0120patterns": 3413, "\u0120bea": 3414, "HO": 3415, "\u0120identical": 3416, "tz": 3417, "\u0120condemn": 3418, "\u0120cycl": 3419, "\u0120another": 3420, "\u0120cancer": 3421, "\u0120engaging": 3422, "mous": 3423, "\u0120issues": 3424, "ibility": 3425, "\u0120Society": 3426, "shes": 3427, "\u0120surviv": 3428, "\u01202001": 3429, "\u0120capable": 3430, "\u0120wall": 3431, "up": 3432, "\u0120nutrients": 3433, "\u0120Bay": 3434, "\u0120Le": 3435, "\u0120thread": 3436, "\u01201996": 3437, "\u0120trying": 3438, "\u0120seven": 3439, "ham": 3440, "ability": 3441, "\u0120sustainable": 3442, "34": 3443, "\u0120mystery": 3444, "\u0120invent": 3445, "\u0120Douglas": 3446, "fully": 3447, "stance": 3448, "mm": 3449, "\u0120Force": 3450, "ez": 3451, "\u0120tape": 3452, "35": 3453, "\u0120homes": 3454, "\u0120Rel": 3455, "\u0120Association": 3456, "\u0120identify": 3457, "\u0120workshop": 3458, "\u0120seeing": 3459, "original": 3460, "ions": 3461, "RP": 3462, "\u0120viruses": 3463, "\u0120De": 3464, "ks": 3465, "\u0122": 3466, "\u0120defici": 3467, "\u0120indicate": 3468, "\u0120soils": 3469, "\u0120sign": 3470, "\u0120sta": 3471, "\u0120refused": 3472, "road": 3473, "\u0120kidney": 3474, "\u00e2\u0122\u013b,": 3475, "\u0120(\"": 3476, "\u0120risks": 3477, "\u0120technical": 3478, "\u0120Alexandr": 3479, "\u0120skeleton": 3480, "school": 3481, "\u0120fa": 3482, "\u0120simul": 3483, "\u0120perhaps": 3484, "\u0120regional": 3485, "\u0120CA": 3486, "\u0120Bl": 3487, "\u0120locations": 3488, "\u0120serious": 3489, "\u0120Ca": 3490, "\u0120IC": 3491, "\u0120agent": 3492, "\u0120gen": 3493, "\u0120em": 3494, "\u0120city": 3495, "\u0120evolved": 3496, "\u0120increases": 3497, "\u0120tall": 3498, "ean": 3499, "\u0120Building": 3500, "\u0120Ec": 3501, "gin": 3502, "\u0120pup": 3503, "\u0120paper": 3504, "ought": 3505, "\u0120charge": 3506, "\u0120serves": 3507, "\u0120rubber": 3508, "\u0120empirical": 3509, "\u0120Vi": 3510, "\u0120phenomenon": 3511, "\u0120track": 3512, "pdf": 3513, "\u0120adult": 3514, "\u0120prior": 3515, "\u0120semi": 3516, "chemical": 3517, "\u0120Ab": 3518, "\u0120terror": 3519, "\u0120establish": 3520, "\u0120funding": 3521, "\u0120Code": 3522, "ble": 3523, "\u0120west": 3524, "\u0120catch": 3525, "\u0120lot": 3526, "las": 3527, "\u0120regarding": 3528, "\u0120Safety": 3529, "science": 3530, "\u0120GDP": 3531, "\u0120come": 3532, "pre": 3533, "\u0120UNESCO": 3534, "\u0120collected": 3535, "ver": 3536, "\u00e2\u0122\u013e": 3537, "76": 3538, "\u0120cannot": 3539, "\u0120listen": 3540, "nel": 3541, "\u0120independence": 3542, "\u0120Jud": 3543, "\u0120lists": 3544, "\u0120weak": 3545, "\u0120spec": 3546, "\u0120cars": 3547, "+": 3548, "sch": 3549, "\u0120upper": 3550, "\u0120worst": 3551, "\u0120bladder": 3552, "\u0120\u00c2": 3553, "\u0120aren": 3554, "Not": 3555, "06": 3556, "\u0120Tra": 3557, "\u0120October": 3558, "\u0120dem": 3559, "\u0120failure": 3560, "ences": 3561, "\u0120preserved": 3562, "\u0120thereby": 3563, "lic": 3564, "\u0120Available": 3565, "\u0120fl": 3566, "\u0120Power": 3567, "\u0120Government": 3568, "\u0120spirit": 3569, "\u0120Engineering": 3570, "\u0120taxes": 3571, "\u0120false": 3572, "itation": 3573, "\u0120qual": 3574, "rator": 3575, "\u0120boat": 3576, "\u0120en": 3577, "\u0120Gra": 3578, "ra": 3579, "\u0120are": 3580, "Do": 3581, "\u0120ed": 3582, "\u0120height": 3583, "W": 3584, "\u0120needed": 3585, "\u0120sto": 3586, "\u0120lens": 3587, "\u0120supplies": 3588, "Meanwhile": 3589, "more": 3590, "\u0120maintaining": 3591, "\u0120yourself": 3592, "MO": 3593, "\u0120trees": 3594, "cro": 3595, "\u0120month": 3596, "\u0120p": 3597, "la": 3598, "\u0120loved": 3599, "\u0120you": 3600, "books": 3601, "tr": 3602, "\u0120surprised": 3603, "\u0120Hol": 3604, "\u0120Sc": 3605, "\u0120Jewish": 3606, "\u0120disabled": 3607, "ising": 3608, "economic": 3609, "\u0120experience": 3610, "\u0120Civil": 3611, "\u0120Children": 3612, "vi": 3613, "\u0120mission": 3614, "\u0120disaster": 3615, "iv": 3616, "if": 3617, "\u0120attitude": 3618, "\u0120holds": 3619, "Then": 3620, "lves": 3621, ">": 3622, "\u0120pu": 3623, "shaped": 3624, "\u0120execut": 3625, "\u0120site": 3626, "\u0120violence": 3627, "que": 3628, "\u0120fibr": 3629, "\u0120Toronto": 3630, "\u0120printed": 3631, "ologists": 3632, "\u0120fle": 3633, "covery": 3634, "\u0120readers": 3635, "\u0120flight": 3636, "\u0120invasion": 3637, "\u0120greatest": 3638, "\u0120Fish": 3639, "\u0120endangered": 3640, "\u0120eggs": 3641, "\u0120Take": 3642, "\u0120years": 3643, "\u0120OF": 3644, "ctu": 3645, "\u0120whole": 3646, "\u0120afford": 3647, "\u0120fraction": 3648, "\u0120led": 3649, "\u0120becoming": 3650, "\u0120return": 3651, "\u0120medications": 3652, "\u0120Jews": 3653, "\u0120isolation": 3654, "cy": 3655, "\u0120hundreds": 3656, "\u0120account": 3657, "\u0120rest": 3658, "\u0120this": 3659, "\u0120strategies": 3660, "ot": 3661, "\u0120Tre": 3662, "\u0120sick": 3663, "\u0120fe": 3664, "\u0120legitim": 3665, "\u0120schizophrenia": 3666, "abilities": 3667, ";": 3668, "\u0120causing": 3669, "\u0120returned": 3670, "\u0120familiar": 3671, "\u0120started": 3672, "53": 3673, "\u0120few": 3674, "79": 3675, "\u0120vertical": 3676, "\u0120lies": 3677, "\u0120interior": 3678, "\u0120Cho": 3679, "\u00f4": 3680, "\u0120With": 3681, "\u0120animal": 3682, "sphere": 3683, "\u0120receive": 3684, "imp": 3685, "\u0120fore": 3686, "\u0120valley": 3687, "ood": 3688, "\u0120loss": 3689, "\u0120uncertain": 3690, "\u0120network": 3691, "\u0120far": 3692, "\u0120Empire": 3693, "nt": 3694, "vertebra": 3695, "\u0120sets": 3696, "\u0120advoca": 3697, "uit": 3698, "\u0120restaurant": 3699, "\u0120experiences": 3700, "\u0120likely": 3701, "\u0120subsequent": 3702, "grams": 3703, "ru": 3704, "\u0120NY": 3705, "gic": 3706, "\u0120devastating": 3707, "\u0120endeavo": 3708, "\u0120whi": 3709, "\u0120noise": 3710, "\u0120Pat": 3711, "\u0120farms": 3712, "mus": 3713, "\u0120Even": 3714, "Among": 3715, "N": 3716, "ert": 3717, "\u0120constrain": 3718, "ey": 3719, "\u0120restrict": 3720, "\u0120Through": 3721, "\u0120Austria": 3722, "\u0120e": 3723, "\u0120blood": 3724, "\u0120habit": 3725, "ET": 3726, "\u0120arthritis": 3727, "\u0120int": 3728, "text": 3729, "\u0120manifest": 3730, "ti": 3731, "claim": 3732, "\u0120\u00e2\u0128\u0133": 3733, ".": 3734, "\u0120ge": 3735, "\u0120variables": 3736, "\u0120messages": 3737, "\u0120West": 3738, "itor": 3739, "\u0120je": 3740, "called": 3741, "\u0120symptom": 3742, "cky": 3743, "\u0120temporarily": 3744, "\u0120high": 3745, "du": 3746, "\u0120listed": 3747, "\u0120leaf": 3748, "\u0120play": 3749, "\u0120put": 3750, "\u0120could": 3751, "gs": 3752, "T": 3753, "\u0120understood": 3754, "\u0120doctrine": 3755, "\u0120heritage": 3756, "\u0120forward": 3757, "\u0120using": 3758, "\u0120has": 3759, "2007": 3760, "\u0120navig": 3761, "ana": 3762, "\u0120fluor": 3763, "\u0120sought": 3764, "mic": 3765, "\u0120today": 3766, "\u0120thirty": 3767, "ography": 3768, "\u0120Oct": 3769, "\u0120onto": 3770, "\u0120specimen": 3771, "dd": 3772, "\u0120inherent": 3773, "\u0120Land": 3774, "\u0120tons": 3775, "ay": 3776, "\u0120were": 3777, "icul": 3778, "\u00c4": 3779, "cycl": 3780, "Y": 3781, "\u0120tasks": 3782, "\u0120analog": 3783, "\u0120regulations": 3784, "\u0120Syndrome": 3785, "\u0120District": 3786, "\u0120y": 3787, "\u0120determine": 3788, "itative": 3789, "\u0120hypothesis": 3790, "\u0120oblig": 3791, "\u0120their": 3792, "\u0120may": 3793, "\u0120Ur": 3794, "\u0120married": 3795, "\u0120W": 3796, "oe": 3797, "author": 3798, "flow": 3799, "fa": 3800, "\u0120Hill": 3801, "\u0120infections": 3802, "\u0120claimed": 3803, "fra": 3804, "\u0120Paris": 3805, "\u0120dependent": 3806, "\u0120limits": 3807, "\u0120association": 3808, "\u0120adults": 3809, "inking": 3810, "\u0120responsibility": 3811, "58": 3812, "\u0120Act": 3813, "less": 3814, "\u0120icon": 3815, "\u0120issue": 3816, "\u0120expensive": 3817, "\u0120fla": 3818, "\u0120Sw": 3819, "\u0120dominant": 3820, "\u0120Russell": 3821, "\u0120clay": 3822, "\u0120circumstances": 3823, "EA": 3824, "\u0120habitat": 3825, "\u0120usually": 3826, "NE": 3827, "\u0120arrest": 3828, "\u0120choose": 3829, "\u0120properties": 3830, "\u0120colleagues": 3831, "\u0120Church": 3832, "\u0120deco": 3833, "ae": 3834, "eaking": 3835, "\u0120Congress": 3836, "\u0120purpose": 3837, "\u0120model": 3838, "\u0120indeed": 3839, "\u00c3\u00a1": 3840, "\u0120pilot": 3841, "\u0120texts": 3842, "\u0120Shi": 3843, "...": 3844, "J": 3845, "\u0120old": 3846, "\u0120Treatment": 3847, "win": 3848, "\u0120Teacher": 3849, "\u0120thorough": 3850, "\u00e2\u0122\u00a2": 3851, "\u0120learned": 3852, "stitute": 3853, "\u0120Sar": 3854, "\u0120Technology": 3855, "\u0120stores": 3856, "\u0109": 3857, "\u0120alle": 3858, "pha": 3859, "\u0120California": 3860, "ins": 3861, "\u0120Litera": 3862, "els": 3863, "\u0120ft": 3864, "\u0120point": 3865, "\u0120monitoring": 3866, "tention": 3867, "\u0120pilgrim": 3868, "standing": 3869, "pen": 3870, "\u012060": 3871, "\u0120Spring": 3872, "ived": 3873, "\u0120launched": 3874, "ball": 3875, "\u0120highest": 3876, "\u0120pul": 3877, "pi": 3878, "\u0120planned": 3879, "\u0120bond": 3880, "\u0120define": 3881, "\u0120creation": 3882, "ea": 3883, "\u0120Cl": 3884, "\u0120incidence": 3885, "\u0120Wisconsin": 3886, "che": 3887, "\u0120arise": 3888, "\u0120Who": 3889, "\u0120Buddhism": 3890, "37": 3891, "san": 3892, "\u0120alter": 3893, "\u00c3\u00a9": 3894, "\u0120Sta": 3895, "\u0120chair": 3896, "\u0120investigate": 3897, "\u0120treatment": 3898, "\u0120losses": 3899, "ID": 3900, "\u0120concern": 3901, "\u0120ranging": 3902, "\u0120Although": 3903, "\u0120happens": 3904, "us": 3905, "\u0120ob": 3906, "\u0120Texas": 3907, "\u0120temporary": 3908, "\u0120Frederick": 3909, "\u0120reading": 3910, "\u0120whatever": 3911, "\u0120nerve": 3912, "\u0120published": 3913, "\u00d1": 3914, "\u0120advanced": 3915, "\u0120AIDS": 3916, "V": 3917, "\u0120plot": 3918, "\u0120entrepreneur": 3919, "\u0120babies": 3920, "\u0120works": 3921, "\u0120Issue": 3922, "west": 3923, "\u0120expected": 3924, "\u0120cook": 3925, "\u0120poor": 3926, "\u0120national": 3927, "OL": 3928, "ace": 3929, "dra": 3930, "ua": 3931, "ME": 3932, "\u0120efficiency": 3933, "\u00b8": 3934, "\u0120dense": 3935, "how": 3936, "\u0120profit": 3937, "\u0120educate": 3938, "BA": 3939, "\u0120disk": 3940, "\u0120pipe": 3941, "ad": 3942, "date": 3943, "bul": 3944, "\u0120appears": 3945, "\u0120such": 3946, "\u0120informed": 3947, "\u0120White": 3948, "ians": 3949, "\u0120studied": 3950, "\u0120send": 3951, "\u0120When": 3952, "\u0120PA": 3953, "ivity": 3954, "dor": 3955, "\u0120transparent": 3956, "\u0120loyal": 3957, "able": 3958, "\u0120existence": 3959, "\u00b5": 3960, "\u0120Rh": 3961, "formation": 3962, "\u0120Arizona": 3963, "\u0120designated": 3964, "\u0120references": 3965, "\u0120huge": 3966, "\u0120molecules": 3967, "\u0120Kennedy": 3968, "\u0120sol": 3969, "\u0120River": 3970, "\u0120heaven": 3971, "\u0120effectively": 3972, "\u0120kept": 3973, "\u0120religious": 3974, "\u0120inches": 3975, "\u0120frequencies": 3976, "\u0120Nutrition": 3977, "\u0120dam": 3978, "\u0120Thursday": 3979, "\u0120Williams": 3980, "\u0120collaboration": 3981, "\u0120spoken": 3982, "\u0120nature": 3983, "\u0120capital": 3984, "\u0120elevation": 3985, "\u0120have": 3986, "\u0120sc": 3987, "\u0120scenario": 3988, "term": 3989, "No": 3990, "\u0120tree": 3991, "\u0120January": 3992, "\u0120organized": 3993, "ress": 3994, "\u0120Global": 3995, "lets": 3996, "\u0120biodiversity": 3997, "\u0120flow": 3998, "\u0120looks": 3999, "uk": 4000, "'ll": 4001, "\u0120carefully": 4002, "dal": 4003, "\u0120n": 4004, "]": 4005, "\u0120Marine": 4006, "\u0120Project": 4007, "\u013e": 4008, "\u0120Species": 4009, "\u0120motion": 4010, "\u0120assessment": 4011, "\u0120Alaska": 4012, "\u0120involve": 4013, "49": 4014, "\u0120Figure": 4015, "\u01201990": 4016, "\u0120uses": 4017, "\u0120estate": 4018, "\u0120including": 4019, "\u0120transferred": 4020, "DR": 4021, "Br": 4022, "\u0120reject": 4023, "\u012027": 4024, ",\u00e2\u0122\u013f": 4025, "lands": 4026, "olution": 4027, "\u0120preventing": 4028, "\u0120Cu": 4029, "\u0120twi": 4030, "\u00c3": 4031, "\u0120bed": 4032, "\u0120Van": 4033, "\u0120Though": 4034, "\u0120possibility": 4035, "\u0120project": 4036, "\u0120accurate": 4037, "\u01201930": 4038, "\u0120meeting": 4039, "top": 4040, "\u0120seems": 4041, "\u0120robot": 4042, "\u0120dis": 4043, "\u0120Su": 4044, "\u0120fill": 4045, "ium": 4046, "eld": 4047, "\u0120Missouri": 4048, "I": 4049, "tches": 4050, "\u0120heads": 4051, "ured": 4052, "mas": 4053, "\u0120younger": 4054, "lines": 4055, "SS": 4056, "\u0120combination": 4057, "DA": 4058, "\u0120guard": 4059, "\u0120lines": 4060, "\u0120Library": 4061, "About": 4062, "r": 4063, "\u0120record": 4064, "\u0120contact": 4065, "\u0120increase": 4066, "als": 4067, "dimensional": 4068, "clear": 4069, "\u0120Corn": 4070, "\u0120practitioner": 4071, "bes": 4072, "\u0120ti": 4073, "\u0120falling": 4074, "ator": 4075, "\u0120Several": 4076, "\u0120Age": 4077, "25": 4078, "U": 4079, "\u0120gender": 4080, "fe": 4081, "pose": 4082, "\u0120persist": 4083, "\u0120Hampshire": 4084, "\u0120hygiene": 4085, "\u0120inequality": 4086, "early": 4087, "\u0120Royal": 4088, "down": 4089, "Despite": 4090, "st": 4091, "\u0120fear": 4092, "2005": 4093, "oc": 4094, "\u0120prey": 4095, "\u0120Please": 4096, "wing": 4097, "\u012028": 4098, "\u0120proceed": 4099, "\u0120carrying": 4100, "\u0120reactions": 4101, "ds": 4102, "\u0120life": 4103, "\u0120ran": 4104, "\u0120spend": 4105, "\u0120elected": 4106, "\u0120Bel": 4107, "\u0120shown": 4108, "\u0120differences": 4109, "nch": 4110, "\u0120reproductive": 4111, "\u0120pseudo": 4112, "\u0120Infantry": 4113, "oli": 4114, "serving": 4115, "type": 4116, "\u0120bank": 4117, "\u0120contamination": 4118, ".,": 4119, "\u0120milk": 4120, "\u0120female": 4121, "\u0120so": 4122, "ows": 4123, "\u0120liber": 4124, "ste": 4125, "\u0120continuous": 4126, "\u0120brief": 4127, "\u0120August": 4128, "\u0120gl": 4129, "\u0120olive": 4130, "\u0120Clin": 4131, "ris": 4132, "\u0120bear": 4133, "\u0120little": 4134, "gy": 4135, "rison": 4136, "\u0120rigid": 4137, "\u0120make": 4138, "\u0120giving": 4139, "min": 4140, "6": 4141, "\u0120range": 4142, "\u0120performance": 4143, "\u0120na": 4144, "\u0120fulfill": 4145, "\u0120maxim": 4146, "\u0120adverse": 4147, "ised": 4148, "\u0120Committee": 4149, "\u0120ten": 4150, "vis": 4151, "\u0120grows": 4152, "\u012019": 4153, "\u0120enemy": 4154, "vin": 4155, "\u0120PMID": 4156, "\u0120holding": 4157, "v": 4158, "\u0120pig": 4159, "\u0120twentieth": 4160, "ence": 4161, "\u0120Australian": 4162, "il": 4163, "\u0120Amendment": 4164, "\u0120Culture": 4165, "\u0120Med": 4166, "\u0120tr": 4167, "Symptoms": 4168, "gue": 4169, "\u0120exchange": 4170, "\u0120Gallery": 4171, "ilt": 4172, "\u0120airplane": 4173, "\u0120making": 4174, "kes": 4175, "\u0120comb": 4176, "\u0120ES": 4177, "\u0120shall": 4178, "\u0120protection": 4179, "\u0120Article": 4180, "lation": 4181, "tan": 4182, "\u0120until": 4183, "\u0120shore": 4184, "\u0120both": 4185, "00": 4186, "\u0120laws": 4187, "\u0120algebra": 4188, "\u0120vulnerable": 4189, "\u0120Young": 4190, "\u0120gall": 4191, "et": 4192, "com": 4193, "\u0120down": 4194, "ices": 4195, "\u0120infected": 4196, "\u0120rather": 4197, "\u0120mean": 4198, "\u0120entire": 4199, "\u0120around": 4200, "\u0120Reference": 4201, "aking": 4202, "gen": 4203, "/": 4204, "ure": 4205, "\u0120The": 4206, "\u00e2\u0126\u00a2": 4207, "\u0120dra": 4208, "\u0120300": 4209, "pping": 4210, "\u0120elevated": 4211, "\u0120spending": 4212, "\u0120Kentucky": 4213, "\u0120recall": 4214, "\u0120Linux": 4215, "\u0120comfortable": 4216, "\u0120towards": 4217, "\u0120American": 4218, "\u0120fine": 4219, "\u0120games": 4220, "na": 4221, "\u0120via": 4222, "\u0120she": 4223, "\u0120collaborat": 4224, "\u0120Utah": 4225, "di": 4226, "\u0120describes": 4227, "uses": 4228, "ges": 4229, "ug": 4230, "ard": 4231, "SO": 4232, "\u0120genes": 4233, "van": 4234, "rin": 4235, "\u0120Sa": 4236, "*": 4237, "\u0120willing": 4238, "\u0120horse": 4239, "\u0120gradually": 4240, "\u0120multiple": 4241, "\u0120holy": 4242, "ons": 4243, "een": 4244, "\u0120weight": 4245, "\u0120door": 4246, "\u0120residents": 4247, "\u0120of": 4248, "\u0120Author": 4249, "quarters": 4250, "\u0120right": 4251, "\u0120generations": 4252, "tt": 4253, "\u0120waters": 4254, "\u0120manuscript": 4255, "\u0120Fire": 4256, "\u0120creativity": 4257, "also": 4258, "\u012033": 4259, "\u0120buy": 4260, "\u0120ancest": 4261, "\u00e1": 4262, "\u0120awarded": 4263, "\u0120twice": 4264, "\u0120France": 4265, "\u0120vegetables": 4266, "\u0120branches": 4267, "\u0120university": 4268, "\u0120dead": 4269, "\u0120avoid": 4270, "\u0120politicians": 4271, "\u0120been": 4272, "\u0120Academy": 4273, "\u0120b": 4274, "\u0120fo": 4275, "=": 4276, "\u0120Windows": 4277, "\u0120eight": 4278, "\u0120election": 4279, "\u0120came": 4280, "\u0120writing": 4281, "Although": 4282, "\u0120plate": 4283, "bal": 4284, "\u0120Method": 4285, "\u0120perform": 4286, "\u0120stations": 4287, "\u0120completely": 4288, "\u0120New": 4289, "\u0120pop": 4290, "\u0120ch": 4291, "\u0120strange": 4292, "\u0120spring": 4293, "\u0120Nov": 4294, "\u0120purchased": 4295, "\u0120fought": 4296, "ung": 4297, "\u0120where": 4298, "\u0120launch": 4299, "\u0120manufacturing": 4300, "\u0120York": 4301, "\u0120gained": 4302, "\u0120past": 4303, "\u0120irrigation": 4304, "\u0120Mount": 4305, "\u0120vi": 4306, "but": 4307, "\u0120dates": 4308, "\u0120successful": 4309, "\u00c2\u00b0": 4310, "\u0120determining": 4311, "kee": 4312, "\u0120experts": 4313, "\u0120work": 4314, "\u0120apply": 4315, "\u0120flour": 4316, "\u0120provides": 4317, "\u0120founded": 4318, "\u0120honey": 4319, "len": 4320, "tribute": 4321, "\u0120cosm": 4322, "pers": 4323, "tory": 4324, "\u0120accuracy": 4325, "\u0120god": 4326, "\u0120Out": 4327, "MD": 4328, "\u0120batteries": 4329, "\u0120bigger": 4330, "\u0120minutes": 4331, "\u0120somewhat": 4332, "\u0120offered": 4333, "\u0120learn": 4334, "\u0120emperor": 4335, "\u0120survival": 4336, "\u0120look": 4337, "has": 4338, "ologic": 4339, "\u0120person": 4340, "98": 4341, "\u0120vessel": 4342, "'m": 4343, "\u0120brown": 4344, "\u0120station": 4345, "\u0120promising": 4346, "\u0120privacy": 4347, "\u0120Chapter": 4348, "\u0120doubt": 4349, "ute": 4350, "\u0120born": 4351, "\u0120curriculum": 4352, "\u0120Finally": 4353, "27": 4354, "har": 4355, "\u0120Board": 4356, "ON": 4357, "\u00d4": 4358, "bble": 4359, "tto": 4360, "\u0120foundation": 4361, "ional": 4362, "\u0120Way": 4363, "\u0120Stu": 4364, "\u0120finished": 4365, "\u0120larvae": 4366, "\u0120celebr": 4367, "\u0120Bu": 4368, "\u0120Studies": 4369, "\u0120car": 4370, "LD": 4371, "ML": 4372, "is": 4373, "\u0120means": 4374, "\u0120exhaust": 4375, "\u0120played": 4376, "\u0120Adam": 4377, "\u0120sha": 4378, "\u0120tuberculosis": 4379, "\u0120zinc": 4380, "\u0120Once": 4381, "\u0120calories": 4382, "\u0120Military": 4383, "ologist": 4384, "\u0120compe": 4385, "ception": 4386, "\u0120doi": 4387, "\u00e5": 4388, "\u0120systematic": 4389, "\u0120star": 4390, "\u0120child": 4391, "\u0120Avenue": 4392, "ST": 4393, "\u0120always": 4394, "\u0120km": 4395, "\u0120Sub": 4396, "\u0120lu": 4397, "\u0120Republic": 4398, "\u0120link": 4399, "44": 4400, "\u0120two": 4401, "\u012a": 4402, "\u0120equal": 4403, "\u0120What": 4404, "free": 4405, "\u0120tro": 4406, "shi": 4407, "\u0120designed": 4408, "\u0120receiving": 4409, "\u0120Keep": 4410, "\u0120Disorder": 4411, "\u0120Washington": 4412, "\u0120angle": 4413, "\u0120Yet": 4414, "\u0120prevail": 4415, "\u0120Arkansas": 4416, "\u0120real": 4417, "book": 4418, "n": 4419, "\u0120Over": 4420, "\u01202010": 4421, "\u0120guidance": 4422, "\u0120beneficial": 4423, "\u0120chicken": 4424, "\u0120authors": 4425, "\u0120swe": 4426, "\u0120requiring": 4427, "\u0120guide": 4428, "\u0120Min": 4429, "\u0120accident": 4430, "ys": 4431, "\u0120theory": 4432, "car": 4433, "\u0120MI": 4434, "\u0120speak": 4435, "\u0120...": 4436, "\u0120harmful": 4437, "our": 4438, "\u0120Click": 4439, "\u0120Federal": 4440, "\u0120whether": 4441, "\u0120intermediate": 4442, "First": 4443, "\u0120CP": 4444, "\u0120emissions": 4445, "\u0120advertis": 4446, "\u0120mouse": 4447, "\u0120proximity": 4448, "LO": 4449, "\u0120round": 4450, "\u0120let": 4451, "HI": 4452, "\u0120birds": 4453, "\u0120shelter": 4454, "to": 4455, "\u0120outer": 4456, "\u00af": 4457, "\u0120north": 4458, "\u0120library": 4459, "\u00ea": 4460, "disciplinary": 4461, "\u0120ruled": 4462, "\u0120overwhelm": 4463, "ternal": 4464, "\u0120How": 4465, "\u0120Time": 4466, "no": 4467, "\u0120his": 4468, "\u0120Smith": 4469, "member": 4470, "\u0120Cas": 4471, "Women": 4472, "\u0120uniform": 4473, "\u0120represented": 4474, "\u0120eliminate": 4475, "bro": 4476, "\u0120lighting": 4477, "\u0120America": 4478, "zi": 4479, "\u0120input": 4480, "\u0120Development": 4481, "\u0120widely": 4482, "\u0120antenna": 4483, "\u0120Associate": 4484, "\u0120abundance": 4485, "\u0120frozen": 4486, "\u0120wire": 4487, "\u0120repair": 4488, "\u0120savings": 4489, "\u0120style": 4490, "\u0120Reading": 4491, "\u0120unemployment": 4492, "January": 4493, "\u0120soybean": 4494, "\u0120instead": 4495, "\u0120ingredient": 4496, "\u0120writers": 4497, "\u0120strategic": 4498, "even": 4499, "April": 4500, "\u0120please": 4501, "\u0120sex": 4502, "nner": 4503, "\u0120negative": 4504, "\u0120edge": 4505, "\u0120scar": 4506, "front": 4507, "\u0120Oregon": 4508, "rative": 4509, "elling": 4510, "\u0120laboratories": 4511, "\u0120J": 4512, "\u0120broadcast": 4513, "\u0120anxiety": 4514, "\u0120Lea": 4515, "\u0120ton": 4516, "\u0120writer": 4517, "\u0120waiting": 4518, "\u0120ref": 4519, "Finally": 4520, "\u0120destroyed": 4521, "\u0120asthma": 4522, "\u0120Religion": 4523, "force": 4524, "\u0120LA": 4525, "\u0120estimates": 4526, "\u0120portrait": 4527, "\u0120syndrome": 4528, "\u0120Big": 4529, "\u0120default": 4530, "\u0120pred": 4531, "\u0120interaction": 4532, "press": 4533, "ES": 4534, "\u0120Ne": 4535, "\u0120su": 4536, "81": 4537, "\u0120ring": 4538, "iss": 4539, "\u0120attach": 4540, "aries": 4541, "mes": 4542, "av": 4543, "HE": 4544, "\u0120racial": 4545, "\u0120malaria": 4546, "\u0120optical": 4547, "\u0120competitive": 4548, "\u0120poetry": 4549, "\u0120Ess": 4550, "\u0120agree": 4551, "\u0120Islamic": 4552, "bid": 4553, "\u0120since": 4554, "\u0120reign": 4555, "\u0120reaction": 4556, "\u0120stability": 4557, "And": 4558, "\u00c7": 4559, "yo": 4560, "Mar": 4561, "ob": 4562, "blo": 4563, "\u00c3\u00b1": 4564, "..": 4565, "\u0120typical": 4566, "ber": 4567, "wise": 4568, "\u0120enzyme": 4569, "\u0120deal": 4570, "\u0120title": 4571, "\u0120get": 4572, "\u0120versus": 4573, "\u0120Human": 4574, "\u0120conclusion": 4575, "\u0120heard": 4576, "\u0120terms": 4577, "\u0120weeks": 4578, "\u0120depression": 4579, "\u0120hunting": 4580, "\u0120L": 4581, "\u0120Ea": 4582, "\u0120fruits": 4583, "und": 4584, "\u0120comprehen": 4585, "c": 4586, "\u0120part": 4587, "\u0120into": 4588, "\u0120head": 4589, "\u0120Col": 4590, "\u0120Solomon": 4591, "\u0120frequent": 4592, "\u0120Ukrain": 4593, "\u0120possibly": 4594, "lementary": 4595, "\u0120vacuum": 4596, "\u0120assume": 4597, "Re": 4598, "ism": 4599, "AL": 4600, "\u0120Battle": 4601, "han": 4602, "gal": 4603, "\u0120applicable": 4604, "16": 4605, "\u0120suitable": 4606, "\u0120epidemi": 4607, "\u0120civilization": 4608, "\u0120decision": 4609, "\u0120Judaism": 4610, "\u0120evolve": 4611, "ite": 4612, "\u0120waste": 4613, "\u0120forced": 4614, "\u0120muscles": 4615, ")||": 4616, "\u0120Mark": 4617, "\u0120male": 4618, "\u0120situation": 4619, "\u00e0": 4620, "\u0120Parkinson": 4621, "ular": 4622, "\u0120exception": 4623, "lim": 4624, "\u0120forth": 4625, "\u0120first": 4626, "\u0120uranium": 4627, "\u0120months": 4628, "first": 4629, "\u0120journey": 4630, "\u0120responsibilities": 4631, "compatible": 4632, "\u0120disability": 4633, "\u0120joint": 4634, "\u0120guilty": 4635, "\u0120active": 4636, "\u00c5": 4637, "\u012080": 4638, "\u0120mind": 4639, "m": 4640, "\u01201984": 4641, "\u0120incorpor": 4642, "\u0120notes": 4643, "\u0120soft": 4644, "tta": 4645, "uring": 4646, "\u0120respiratory": 4647, "ors": 4648, "\u0120biggest": 4649, "hand": 4650, "one": 4651, "\u0120Jacob": 4652, "\u0120campaign": 4653, "\u0120announced": 4654, "um": 4655, "\u0120how": 4656, "\u0120Grand": 4657, "ural": 4658, "lly": 4659, "\u0120descend": 4660, "\u0120infant": 4661, "tics": 4662, "\u0120overcome": 4663, "\u0120students": 4664, "P": 4665, "\u0120later": 4666, "\u0120Online": 4667, "HD": 4668, "\u0120Zealand": 4669, "\u0120price": 4670, "\u0120colour": 4671, "oking": 4672, "\u0120tooth": 4673, "\u0120sediment": 4674, "\u0120that": 4675, "\u0120asteroid": 4676, "\u0120Netherlands": 4677, "\u0120Res": 4678, "\u0120carcino": 4679, "\u0120Rights": 4680, "\u0120Corporation": 4681, "\u0120funded": 4682, "uss": 4683, "67": 4684, "\u0120similar": 4685, "7": 4686, "\u0120institution": 4687, "\u0120Not": 4688, "ties": 4689, "\u0120Note": 4690, "\u012032": 4691, "\u0120ban": 4692, "\u0120room": 4693, "nge": 4694, "\u0120tu": 4695, "get": 4696, "\u0120include": 4697, "CS": 4698, "\u0120networks": 4699, "\u0120Singapore": 4700, "\u0120rate": 4701, "pped": 4702, "\u0120adopt": 4703, "rt": 4704, "au": 4705, "\u0120excessive": 4706, "ancy": 4707, "LS": 4708, "Be": 4709, "\u0120ph": 4710, "\u0120amazing": 4711, "PP": 4712, "\u0120primarily": 4713, "\u0120bl": 4714, "\u0120centre": 4715, "\u0120dictionary": 4716, "\u0120master": 4717, "ed": 4718, "bing": 4719, "\u0120interpretation": 4720, "\u0120outside": 4721, "\u0120pulse": 4722, "\u0120tested": 4723, "\u0120longer": 4724, "\u0120separate": 4725, "\u0120pay": 4726, "\u0120century": 4727, "\u0120apart": 4728, "\u0120confirmed": 4729, "historic": 4730, "\u0120eth": 4731, "Chapter": 4732, "\u0120compared": 4733, "\u0120wear": 4734, "\u0120ubiquitous": 4735, "\u0120covers": 4736, "\u0120assistance": 4737, "\u0120varieties": 4738, "\u0120sport": 4739, "\u0120controversial": 4740, "\u0120section": 4741, "\u0120contrary": 4742, "\u0120street": 4743, "rian": 4744, "\u0120Pan": 4745, "\u0120judicial": 4746, "\u0120representing": 4747, "ering": 4748, "chel": 4749, "\u0120principles": 4750, "tor": 4751, "istic": 4752, "\u0120LORD": 4753, "\u0120missing": 4754, "Al": 4755, "\u0120failed": 4756, "\u0120lead": 4757, "\u0120Israel": 4758, "\u0120supplements": 4759, "outh": 4760, "\u0120favorite": 4761, "'t": 4762, "\u0120toxin": 4763, "\u0120Agency": 4764, "\u0120formation": 4765, "especially": 4766, "\u0120Super": 4767, "\u0120plasma": 4768, "AI": 4769, "\u0120report": 4770, "\u0120compr": 4771, "\u0120Louisiana": 4772, "\u0120sti": 4773, "\u0120troops": 4774, "\u0120narrative": 4775, "\u0120tool": 4776, "\u0120el": 4777, "\u0120array": 4778, "\u0120hence": 4779, "\u0120features": 4780, "\u0120lights": 4781, "\u0120Cha": 4782, "site": 4783, "rel": 4784, "\u0120aim": 4785, "\u0120sw": 4786, "\u0120Str": 4787, "\u0120DO": 4788, "\u0120Confederate": 4789, "\u0120ice": 4790, "\u0120strategy": 4791, "\u0120Fort": 4792, "\u0120organs": 4793, "\u0120salt": 4794, "\u0120SA": 4795, "\u0120z": 4796, "\u0120URL": 4797, "\u0120possibilities": 4798, "cking": 4799, "Ar": 4800, "\u0120engine": 4801, "\u0120100": 4802, "lip": 4803, "\u0120dairy": 4804, "ju": 4805, "\u0120Nebraska": 4806, "\u0120pump": 4807, "ckets": 4808, "long": 4809, "\u0120saved": 4810, "\u0120h": 4811, "igh": 4812, "ident": 4813, "lin": 4814, "\u0120left": 4815, "\u0120supplement": 4816, "\u0120western": 4817, "\u0120proposal": 4818, "\u0120programs": 4819, "VA": 4820, "\u0120host": 4821, "\u0120More": 4822, "\u0120cultures": 4823, "nor": 4824, "Sh": 4825, "\u0120days": 4826, "arl": 4827, "\u0120allergies": 4828, "\u0120peculiar": 4829, "Article": 4830, "\u0120Biology": 4831, "\u0120women": 4832, "\u0120Gi": 4833, "LT": 4834, "\u0120same": 4835, "\u0120galaxies": 4836, "gar": 4837, "\u0120tests": 4838, "SQL": 4839, "\u0120oral": 4840, "\u0120conversation": 4841, "\u0120op": 4842, "nda": 4843, "\u0120lift": 4844, "\u0120gives": 4845, "\u0120deposit": 4846, "ster": 4847, "\u0120Testament": 4848, "\u0120ever": 4849, "sk": 4850, "\u0120diarrhea": 4851, "par": 4852, "\u0120extent": 4853, "\u0120smaller": 4854, "\u0120climb": 4855, "\u0120Free": 4856, "\u0120database": 4857, "rey": 4858, "\u0120fast": 4859, "\u0120Fri": 4860, "\u0120heating": 4861, "do": 4862, "\u0120ec": 4863, "\u0120destination": 4864, "\u0120hydrogen": 4865, "ai": 4866, "\u0120humidity": 4867, "\u0120away": 4868, "\u00dc": 4869, "\u0120surprise": 4870, "\u0120arts": 4871, "\u00a2": 4872, "t": 4873, "\u0120Her": 4874, "\u0120diseases": 4875, "\u0120intense": 4876, "\u0120raising": 4877, "\u0120match": 4878, "\u0120study": 4879, "\u0120describing": 4880, "ree": 4881, "\u0120contract": 4882, "\u0120disproportionate": 4883, "\u0120agencies": 4884, "\u0120load": 4885, "\u0120Francisco": 4886, "\u0120super": 4887, "\u0120gravitational": 4888, "\u0120firm": 4889, "\u0120encouraged": 4890, "\u0120Da": 4891, "\u0120general": 4892, "\u0120depth": 4893, "\u0120A": 4894, "p": 4895, "\u0120classes": 4896, "el": 4897, "64": 4898, "\u0120shr": 4899, "\u0120transfer": 4900, "\u0120facing": 4901, "\u0120appointment": 4902, "\u0120pressure": 4903, "\u0120word": 4904, "\u0120bound": 4905, "teenth": 4906, "\u0120behavior": 4907, "\u0120Canada": 4908, "\u0120expand": 4909, "\u0120tumor": 4910, "\u0120column": 4911, "\u0120choosing": 4912, "ral": 4913, "\u0120Health": 4914, "\u0120Encyclopedia": 4915, "\u0120Catherine": 4916, "\u0120k": 4917, "ty": 4918, "\u0120techniques": 4919, "\u0120aggressive": 4920, "\u0120Red": 4921, "\u0120list": 4922, "\u0120advis": 4923, "\u0120banks": 4924, "\u0120stone": 4925, "\u0120other": 4926, "\u0120Men": 4927, "space": 4928, "\u0120organization": 4929, "\u0120piece": 4930, "\u0120Again": 4931, "\u0120influence": 4932, "\u0120Dis": 4933, "cher": 4934, "\u0120Flo": 4935, "\u0120clothes": 4936, "\u0120wise": 4937, "\u0120fracture": 4938, "\u00cb": 4939, "\u00e2\u0122\u013a": 4940, "lers": 4941, "\u0120Fa": 4942, "\u0120consumed": 4943, "\u0120inflammation": 4944, "\u0120letter": 4945, "\u0120And": 4946, "\u0120president": 4947, "\u0120Ty": 4948, "mon": 4949, "\u0120State": 4950, "sto": 4951, "\u0120Port": 4952, "\u0120Test": 4953, "\u0120pollution": 4954, "indergarten": 4955, "\u0120leads": 4956, "\u0120member": 4957, "\u0120perceive": 4958, "fer": 4959, "\u0120labour": 4960, "\u0120Ho": 4961, "\u0120convenient": 4962, "\u0120necessity": 4963, "\u0120RA": 4964, "\u0120trial": 4965, "ough": 4966, "shore": 4967, "\u0120desert": 4968, "RD": 4969, "ns": 4970, "\u0120K": 4971, "\u0120defense": 4972, "\u0120Creek": 4973, "\u0120ma": 4974, "\u0120run": 4975, "go": 4976, "\u0120motor": 4977, "\u0120creative": 4978, "\u0120kn": 4979, "\u0120recognition": 4980, "\u0120northern": 4981, "\u0120twelve": 4982, "\u0120Climate": 4983, "\u0120settlers": 4984, "\u0120cells": 4985, "\u0120examined": 4986, "\u0120clinic": 4987, "\u0120department": 4988, "\u0120employ": 4989, "\u0120straight": 4990, "\u0120lea": 4991, "\u0120next": 4992, "\u0120swa": 4993, "PS": 4994, "gers": 4995, "\u0120hours": 4996, "Click": 4997, "\u0120sell": 4998, "ked": 4999, "rity": 5000, "\u0120who": 5001, "ang": 5002, "\u0120whom": 5003, "\u0120offering": 5004, "\u0120reflected": 5005, "ign": 5006, "\u0120Martin": 5007, "St": 5008, "\u0120THE": 5009, "ow": 5010, "\u0120nice": 5011, "\u0120derived": 5012, "\u0120Environment": 5013, "ees": 5014, "\u0120Old": 5015, "\u0120t": 5016, "spons": 5017, "\u0120IV": 5018, "\u0120=": 5019, "ficiency": 5020, "CC": 5021, "\u0120Drug": 5022, "\u0120sacrifice": 5023, "act": 5024, "\u0120names": 5025, "qua": 5026, "\u0120isn": 5027, "\u0120died": 5028, "\u0120F": 5029, "\u0120initial": 5030, "pid": 5031, "\u0120supports": 5032, "\u0120rarely": 5033, "\u0120there": 5034, "\u0120Den": 5035, "\u0120Aust": 5036, "ckle": 5037, "\u0120undertaken": 5038, "\u0120fly": 5039, "\u0120logic": 5040, "\u0120fun": 5041, "\u0120Switzerland": 5042, "\u0120inherit": 5043, "\u0120follows": 5044, "\u0120very": 5045, "\u00e2\u0122\u013f,": 5046, "rupt": 5047, "\u0120having": 5048, "ole": 5049, "\u0120calcul": 5050, "\u0120cons": 5051, "tion": 5052, "\u012095": 5053, "\u0120juvenile": 5054, "\u0120Irish": 5055, "\u0120Anderson": 5056, "\u0120village": 5057, "\u0120happened": 5058, "\u0120Indonesia": 5059, ",": 5060, "\u0120previously": 5061, "\u0120took": 5062, "ustainable": 5063, "ize": 5064, "CH": 5065, "\u0120created": 5066, "000": 5067, "\u0120ISBN": 5068, "\u0120indigenous": 5069, "\u0120employed": 5070, "bility": 5071, "\u0120AS": 5072, "ual": 5073, "\u00b4": 5074, "ara": 5075, "\u0120Less": 5076, "\u0120arch": 5077, "ext": 5078, "\u0120unfortunate": 5079, "u": 5080, "\u0120arrived": 5081, "\u0120neuro": 5082, "\u0120object": 5083, "\u0120teenage": 5084, "\u0120Consider": 5085, "\u0120holiday": 5086, "\u0120orientation": 5087, "name": 5088, "\u0120sister": 5089, "\u0120scra": 5090, "nish": 5091, "\u0120elements": 5092, "\u0120cre": 5093, "za": 5094, "\u0120investment": 5095, "\u0120felt": 5096, "D": 5097, "\u0120paint": 5098, "sted": 5099, "\u0120doses": 5100, "\u0120AP": 5101, "NI": 5102, "lon": 5103, "\u0120systems": 5104, "\u0120contradict": 5105, "es": 5106, "\u0120Hy": 5107, "\u0120Stanford": 5108, "ear": 5109, "\u0120figures": 5110, "\u0120thermal": 5111, "\u0120primary": 5112, "\u0120converted": 5113, "\u0120participate": 5114, "igned": 5115, "\u00cf": 5116, "\u0120hand": 5117, "\u0120journal": 5118, "\u0120Him": 5119, "metric": 5120, "\u0120enlarge": 5121, "2000": 5122, "http": 5123, "tus": 5124, "\u0120educators": 5125, "\u0120assault": 5126, "\u0120most": 5127, "\u0120viol": 5128, "\u00eb": 5129, "\u0120light": 5130, "om": 5131, "\u0120H": 5132, "\u0120strongly": 5133, "\u0120Ob": 5134, "\u0120better": 5135, "\u0120Haiti": 5136, "\u0120Survey": 5137, "\u0120reasonable": 5138, "like": 5139, "\u0120admi": 5140, "Gra": 5141, "read": 5142, "ration": 5143, "Cs": 5144, "\u013c": 5145, "\u0120lab": 5146, "\u0120mounted": 5147, "\u0120British": 5148, "\u0120flu": 5149, "More": 5150, "\u0120Quebec": 5151, "\u0120teams": 5152, "\u0120invest": 5153, "\u0120mg": 5154, "\u0120Avoid": 5155, "\u0120artifacts": 5156, "ah": 5157, "\u012029": 5158, "\u0120Mass": 5159, "\u0120cri": 5160, "\u0140": 5161, "reg": 5162, "\u0120otherwise": 5163, "\u0120find": 5164, "ata": 5165, "\u0120additional": 5166, "\u0120playing": 5167, "ding": 5168, "\u0125": 5169, "\u0120mile": 5170, "\u0120In": 5171, "\u0120extract": 5172, "\u0120vehicles": 5173, "\u0139": 5174, "\u0120convinced": 5175, "\u0120ve": 5176, ");": 5177, "\u0120deeper": 5178, "\u0120sustain": 5179, "\u0120taken": 5180, "\u0120Jesus": 5181, "source": 5182, "\u0120conditions": 5183, "\u0120El": 5184, "\u0120Also": 5185, "\u0120aimed": 5186, ".||": 5187, "kins": 5188, "\u0120pieces": 5189, "\u0120will": 5190, "\u0120mentioned": 5191, "\u0120spontaneous": 5192, "\u0120signals": 5193, "\u0120Ma": 5194, "\u0120comes": 5195, "\u0120kilometers": 5196, "\u0120grow": 5197, "\u0120attempted": 5198, "\u0120nine": 5199, "\u01205": 5200, "\u0120Son": 5201, "\u0120Hu": 5202, "\u0120turned": 5203, "\u0120Europe": 5204, "\u0120runs": 5205, "CP": 5206, "\u0120prices": 5207, "aring": 5208, "dynamic": 5209, "cus": 5210, "ume": 5211, "xy": 5212, "\u0120Ra": 5213, "\u0120shape": 5214, "\u0120parts": 5215, "og": 5216, "iff": 5217, "nz": 5218, "\u0120score": 5219, "December": 5220, "\u0120gone": 5221, "\u0120advent": 5222, "tension": 5223, "\u0120compos": 5224, "36": 5225, "\u0120grant": 5226, "Last": 5227, "\u0120incident": 5228, "\u0120than": 5229, "\u0120Ed": 5230, "\u0120those": 5231, "SE": 5232, "\u0120Management": 5233, "\u0120moved": 5234, "\u0120leave": 5235, "\u0120suggests": 5236, "://": 5237, "hen": 5238, "\u0120disturb": 5239, "on": 5240, "\u0120obvious": 5241, "place": 5242, "\u0120experiments": 5243, "\u0120image": 5244, "\u0120poison": 5245, "\u0120intake": 5246, "\u0120package": 5247, "\u0120re": 5248, "ong": 5249, "saturated": 5250, "\u0120would": 5251, "\u0120Century": 5252, "\u0120literature": 5253, "\u0120Southern": 5254, "contin": 5255, "AM": 5256, "\u0120even": 5257, "tains": 5258, "\u0120stages": 5259, "\u0120see": 5260, ")|": 5261, "\u0120man": 5262, "\u0120label": 5263, "\u0120Ta": 5264, "\u0120fan": 5265, "ette": 5266, "\u0120cough": 5267, "\u0120Independence": 5268, "\u0120commonly": 5269, "thing": 5270, "\u0120reducing": 5271, "\u0120expenditure": 5272, "De": 5273, "\u0120mer": 5274, "\u0120quickly": 5275, "\u01201950": 5276, "\u0120Sometimes": 5277, "\u0120like": 5278, "lan": 5279, "ief": 5280, "\u0120developed": 5281, "\u0120connection": 5282, "\u0120toxic": 5283, "tel": 5284, "\u00f3": 5285, "\u0120claims": 5286, "\u0120anyone": 5287, "\u0120size": 5288, "\u0120Z": 5289, "rious": 5290, "\u0120finally": 5291, "\u0120heavy": 5292, "\u0120equilibrium": 5293, "\u0120circulation": 5294, "\u0120during": 5295, "\u0120temperatures": 5296, "\u0120flood": 5297, "\u0120Problem": 5298, "\u0120eat": 5299, "zer": 5300, "\u0120underlying": 5301, "\u0120brain": 5302, "\u0120structural": 5303, "\u0120foreign": 5304, "02": 5305, "\u0120colors": 5306, "\u0120flat": 5307, "\u0120marine": 5308, "stic": 5309, "\u0120Jackson": 5310, "\u0120Rev": 5311, "\u0120analy": 5312, "\u0120AT": 5313, "\u0120S": 5314, "\u0120thus": 5315, "\u0120electric": 5316, "\u0120die": 5317, "\u0120ecosystems": 5318, "don": 5319, "\u0120late": 5320, "\u0120based": 5321, "\u0120Pro": 5322, "\u012030": 5323, "\u0120Rome": 5324, "\u0120currency": 5325, "\u0120handle": 5326, "\u0120changed": 5327, "\u0120nursing": 5328, "\u0120Cambodia": 5329, "ational": 5330, "\u0120does": 5331, "\u0120Alexander": 5332, "\u0120recent": 5333, "\u0120processing": 5334, "15": 5335, "\u0120correct": 5336, "\u0120UK": 5337, "SH": 5338, "Da": 5339, "body": 5340, "\u0120measurements": 5341, "\u0120main": 5342, "\u0120incorrect": 5343, "the": 5344, "e": 5345, "port": 5346, "\u0120threatened": 5347, "\u0120Gr": 5348, "\u0120poet": 5349, "\u0120variable": 5350, "str": 5351, "4": 5352, "\u0120memor": 5353, "\u0120importance": 5354, "\u0131": 5355, "\u0120density": 5356, "\u0120folk": 5357, "\u0120represent": 5358, "Med": 5359, "\u0120morning": 5360, "dio": 5361, "\u0120clock": 5362, "\u0120removing": 5363, "\u0120am": 5364, "\u0120draw": 5365, "via": 5366, "bra": 5367, "\u0120sl": 5368, "\u0120sports": 5369, "\u0120implementation": 5370, "\u0120victory": 5371, "\u0120Richard": 5372, "\u0120species": 5373, "\u0120attributed": 5374, "A": 5375, "TION": 5376, "uth": 5377, "\u0120Sy": 5378, "\u0120matrix": 5379, "ville": 5380, "\u0120Know": 5381, "\u012026": 5382, "\u0120negoti": 5383, "bin": 5384, "\u0120osteoporosis": 5385, "\u0120eventually": 5386, "89": 5387, "\u0120evolution": 5388, "\u0120assess": 5389, "\u0120fuels": 5390, "\u0120fairly": 5391, "\u0120tele": 5392, "\u0120choice": 5393, "\u0120introduce": 5394, "rs": 5395, "organ": 5396, "IF": 5397, "?\"": 5398, "\u0120situated": 5399, "\u0120laboratory": 5400, "\u0120road": 5401, "\u0120excess": 5402, "\u0120behavioral": 5403, "\u0120language": 5404, "\u0120Orthodox": 5405, "\u0120frame": 5406, "\u0120sides": 5407, "nal": 5408, "ages": 5409, "ng": 5410, "tar": 5411, "\u0120ability": 5412, "\u0120mill": 5413, "lk": 5414, "\u0120Michigan": 5415, "\u0120marked": 5416, "\u01200": 5417, "\u0120youth": 5418, "\u0120final": 5419, "\u0120Document": 5420, "\u0120Music": 5421, "\u0120transition": 5422, "\u0120physicist": 5423, "\u0120Bal": 5424, "\u0120Internet": 5425, "OW": 5426, "\u0120collapse": 5427, "\u0120activ": 5428, "\u0120visit": 5429, "Wa": 5430, "\u0120Learning": 5431, "\u0120auto": 5432, "direct": 5433, "cl": 5434, "\u00d2": 5435, "acy": 5436, "\u0120La": 5437, "\u0120complex": 5438, "\u0120bur": 5439, "\u0120partner": 5440, "\u0120spin": 5441, "\u0120simpl": 5442, "\u0120whose": 5443, "\u0120benefit": 5444, "\u0120consists": 5445, "\u0120cor": 5446, "\u0120Your": 5447, "Fo": 5448, "\u0120polar": 5449, "\u0120Alfred": 5450, "\u0120among": 5451, "\u0120manipulat": 5452, "\u0120qui": 5453, "\u0120skin": 5454, "59": 5455, "August": 5456, "\u0120anywhere": 5457, "\u0120War": 5458, "\u0120protest": 5459, "\u0120reference": 5460, "\u0120Elizabeth": 5461, "\u0120teeth": 5462, "\u0120expanded": 5463, "\u0120occasion": 5464, "Figure": 5465, "\u0120Se": 5466, "cation": 5467, "\u0120magnetic": 5468, "\u0120everything": 5469, "\u0120friends": 5470, "\u0120latest": 5471, "\u0120argued": 5472, "\u0120working": 5473, "\u0120US": 5474, "\u0120laser": 5475, "\u0120Inc": 5476, "\u0120papers": 5477, "\u0120landscape": 5478, "\u0120recogni": 5479, "ria": 5480, "pr": 5481, "\u0120began": 5482, "\u0120Hall": 5483, "\u0120fall": 5484, "\u0120download": 5485, "\u0120ass": 5486, "hy": 5487, "\u0120union": 5488, "\u0120particle": 5489, "cel": 5490, "\u0120Under": 5491, "\u0120refuge": 5492, "\u0120dignity": 5493, "\u0120acute": 5494, "\u0120win": 5495, "\u0120syllab": 5496, "\u0120says": 5497, "\u0120prolonged": 5498, "56": 5499, "\u0120resid": 5500, "\u0120concept": 5501, "\u0120discover": 5502, "\u0120shows": 5503, "iers": 5504, "\u0120presence": 5505, "\u0120explains": 5506, "\u0120Help": 5507, "\u0120history": 5508, "\u0120saying": 5509, "\u0120aero": 5510, "\u0120flag": 5511, "\u0120150": 5512, "s": 5513, "\u0120seconds": 5514, "ven": 5515, "\u0120deemed": 5516, "^": 5517, "ri": 5518, "rb": 5519, "mat": 5520, "lid": 5521, "\u0120o": 5522, "\u0120medical": 5523, "ley": 5524, "\u0120purposes": 5525, "\u0120spr": 5526, "\u0120traditional": 5527, "09": 5528, "\u0120exercise": 5529, "\u0120College": 5530, "\u0120survey": 5531, "The": 5532, "\u0120skill": 5533, "\u0120investigation": 5534, "\u0120Br": 5535, "\u0120territory": 5536, "\u0120react": 5537, "\u0120something": 5538, "\u0120sn": 5539, "\u0120teaching": 5540, "\u0120contents": 5541, "\u0120du": 5542, "\u0120iron": 5543, "\u0120space": 5544, "\u0120grain": 5545, "\u0120LGBT": 5546, "\u0120girls": 5547, "\u0120Father": 5548, "\u0120Abraham": 5549, "\u0120drought": 5550, "\u0120square": 5551, "\u0120broken": 5552, "\u0120noble": 5553, "\u0120General": 5554, "\u0120stop": 5555, "\u0120St": 5556, "\u0120burn": 5557, "\u0120ancient": 5558, "\u0120depends": 5559, "\u0120complicated": 5560, "\u0120egg": 5561, "\u0120Blue": 5562, "II": 5563, "mu": 5564, "\u0120fire": 5565, "SU": 5566, "\u0120king": 5567, "\u0120Nature": 5568, "Note": 5569, "\u0120beginning": 5570, "trans": 5571, "\u0120vaccine": 5572, "\u0120reserves": 5573, "\u0120IUCN": 5574, "chi": 5575, "\u0120Department": 5576, "lex": 5577, "bit": 5578, "oma": 5579, "\u0120infectious": 5580, "\u0120detection": 5581, "\u0120wilderness": 5582, "\u0120screen": 5583, "\u0120lack": 5584, "\u0120remind": 5585, "\u0120individuals": 5586, "].": 5587, "les": 5588, "\u0120supported": 5589, "\u0120unknown": 5590, "\u0120essence": 5591, "\u0120everyone": 5592, "\u0120helpful": 5593, "\u0120cloud": 5594, "\u0120session": 5595, "\u0120Fo": 5596, "\u0120bus": 5597, "ngu": 5598, "F": 5599, "\u0120end": 5600, "\u0120UN": 5601, "\u0120yellow": 5602, "\u0120picture": 5603, "\u0120majority": 5604, "\u0120persons": 5605, "\u0120remote": 5606, "\u0120escape": 5607, "\u0120coast": 5608, "\u0120collect": 5609, "\u0120Language": 5610, "\u0120director": 5611, "l": 5612, "\u0120breast": 5613, "\u0120imp": 5614, "\u0120Santa": 5615, "res": 5616, "\u0120tract": 5617, "\u0120explo": 5618, "\u0120inside": 5619, "\u0120hair": 5620, "\u0120events": 5621, "\u01201970": 5622, "ex": 5623, "dependent": 5624, "\u0120Islam": 5625, "\u0120gas": 5626, "\u0120lose": 5627, "quisition": 5628, "\u0120fishing": 5629, "\u0120Fu": 5630, "gi": 5631, "OS": 5632, "\u0120evaluate": 5633, "....": 5634, "\u0120absent": 5635, "th": 5636, "\u0120meteor": 5637, "\u0120windows": 5638, "ques": 5639, "\u0120ecological": 5640, "struct": 5641, "\u0120operator": 5642, "\u00e4": 5643, "\u0120mechanics": 5644, "\u0120blue": 5645, "\u0120metal": 5646, "\u0120Back": 5647, "\u0120ID": 5648, "light": 5649, "nding": 5650, "\u0120conce": 5651, "come": 5652, "\u0120prompt": 5653, "\u0120amounts": 5654, "\u0120stress": 5655, "\u0120technician": 5656, "\u0120location": 5657, "\u0120characteristics": 5658, "ily": 5659, "such": 5660, "\u0120capt": 5661, "Further": 5662, "GA": 5663, "\u0120replaced": 5664, "\u0120mass": 5665, "Research": 5666, "Or": 5667, "\u0120reports": 5668, "\u0120England": 5669, "\u0120believed": 5670, "\u0120attend": 5671, "\u0120population": 5672, "\u0120Indigenous": 5673, "ul": 5674, "RI": 5675, "\u0120color": 5676, "\u0120functional": 5677, "\u0120forests": 5678, "\u0120interview": 5679, "\u0120blocks": 5680, "\u0120budget": 5681, "\u0120proven": 5682, "child": 5683, "\u0120Lord": 5684, "\u0120baby": 5685, "\u0120glu": 5686, "\u0120Video": 5687, "\u0120thy": 5688, "\u0120con": 5689, "\u0120plus": 5690, "ER": 5691, "\u0120President": 5692, "\u0120dog": 5693, "\u0120before": 5694, "\u0120wide": 5695, "\u0120internet": 5696, "\u0120religion": 5697, "\u0120inc": 5698, "\u0120tropical": 5699, "\u0120Ly": 5700, "part": 5701, "\u0120teens": 5702, "Con": 5703, "\u0120Napoleon": 5704, "\u0120faculty": 5705, "\u0120condition": 5706, "sta": 5707, "\u0120thick": 5708, "\u0120task": 5709, "\u012b": 5710, "\u0120temperature": 5711, "\u0120acceler": 5712, "pa": 5713, "O": 5714, "\u0120moment": 5715, "\u0120parties": 5716, "age": 5717, "\u0120kill": 5718, "\u0120guidelines": 5719, "\u0120wonder": 5720, "\u0120signed": 5721, "\u0120evolutionary": 5722, "\u0120while": 5723, "op": 5724, "\u0120limit": 5725, "Example": 5726, "\u0120ver": 5727, "iversity": 5728, "\u0120radi": 5729, "scription": 5730, "\u0120Behavior": 5731, "$": 5732, "\u0120spo": 5733, "\u0120destruction": 5734, "\u0120theories": 5735, "\u0120intestine": 5736, "rous": 5737, "\u0120barrier": 5738, "\u0120IS": 5739, "\u0120sodium": 5740, "\u0120favor": 5741, "\u0120promote": 5742, "\u0120aims": 5743, "\u0120conduct": 5744, "\u0120Scotland": 5745, "\u0120kinds": 5746, "\u0120Ap": 5747, "ett": 5748, "ink": 5749, "iation": 5750, "\u0120Child": 5751, "\u0120PC": 5752, "\u0120Community": 5753, "vers": 5754, "\u0120girl": 5755, "\u0120Jan": 5756, "WA": 5757, "\u0120f": 5758, "\u0120concentration": 5759, "10": 5760, "\u0120shut": 5761, "hydr": 5762, "ice": 5763, "AG": 5764, "An": 5765, "ona": 5766, "\u0120television": 5767, "\u0120offspring": 5768, "\u0120concluded": 5769, "\u0120valuable": 5770, "\u0120rocks": 5771, "\u0120file": 5772, "\u0120Long": 5773, "New": 5774, "\u0120letters": 5775, "work": 5776, "\u0120granted": 5777, "\u0120gravity": 5778, "sal": 5779, "\u0120Command": 5780, "zz": 5781, "\u0120exceed": 5782, "and": 5783, "\u0120sugar": 5784, "\u0120ordered": 5785, "\u0120system": 5786, "\u0120trust": 5787, "\u0120kernel": 5788, "\u0120passed": 5789, "\u0120Wa": 5790, "ying": 5791, "\u0120After": 5792, "\u0120Historical": 5793, "\u0120sequence": 5794, "\u0120stories": 5795, "\u0120Study": 5796, "\u0120remain": 5797, "\u0120era": 5798, "\u0120reached": 5799, "\u0120eating": 5800, "\u0120zone": 5801, "\u0120proof": 5802, "\u0120Sun": 5803, "\u0120images": 5804, "\u0120native": 5805, "\u0120industries": 5806, "\u0120following": 5807, "\u0120legacy": 5808, "\u0120Stan": 5809, "\u0120conducted": 5810, "\u0120particles": 5811, "\u0120famous": 5812, "\u0120&": 5813, "\u0120demonstr": 5814, "\u0120Minnesota": 5815, "\u0120breakfast": 5816, "tu": 5817, "\u0120innovation": 5818, "\u0120concerned": 5819, "ened": 5820, "\u0120trade": 5821, "\u0120D": 5822, "\u0120identified": 5823, "\u0120sense": 5824, "\u0120without": 5825, "\u0120honor": 5826, "\u0120dark": 5827, "ists": 5828, "\u0120prevalent": 5829, "\u0120places": 5830, "\u00ae": 5831, "\u0120sensitivity": 5832, "\u0120determin": 5833, "ttle": 5834, "\u0120interpret": 5835, "\u00ee": 5836, "NC": 5837, "26": 5838, "\u0120device": 5839, "\u0120fires": 5840, "\u0120permission": 5841, "\u0120built": 5842, "\u0120disrupt": 5843, "\u0120roads": 5844, "\u0120treat": 5845, "\u0120partners": 5846, "\u0120experimental": 5847, "\u0120external": 5848, "\u0120choices": 5849, "\u0120bottle": 5850, "\u0120between": 5851, "\u0120drive": 5852, "\u00b7": 5853, "\u0120enforcement": 5854, "\u0120users": 5855, "\u0120blind": 5856, "\u0120attempts": 5857, "\u00c2": 5858, "70": 5859, "\u0120beyond": 5860, "\u0120Soviet": 5861, "ha": 5862, "\u0120test": 5863, "\u0120\u00c2\u00a9": 5864, "\u0120figure": 5865, "\u0120factors": 5866, "\u0120international": 5867, "\u0120management": 5868, "\u0120stated": 5869, "\u0120easy": 5870, "\u0120sciences": 5871, "\u0120moves": 5872, "\u0120l": 5873, "\u0120comp": 5874, "\u0120slow": 5875, "\u0120news": 5876, "tho": 5877, "\u0120anti": 5878, "\u0120quant": 5879, "CR": 5880, "\u0120initiative": 5881, "\u0120cm": 5882, "\u0120relative": 5883, "az": 5884, "\u0120except": 5885, "\u0120energ": 5886, "\u0120awareness": 5887, "\u0120metabol": 5888, "\u0120Ko": 5889, "\u0120Au": 5890, "US": 5891, "ee": 5892, "\u0120Tur": 5893, "\u0120mixture": 5894, "\u0120Make": 5895, "\u0120community": 5896, "\u0120sna": 5897, "\u0120Philippines": 5898, "RN": 5899, "\u0120villages": 5900, "\u012010": 5901, "\u0120Hebrew": 5902, "\u0120ultimate": 5903, "\u0120hu": 5904, "\u0120stones": 5905, "\u0120three": 5906, "uous": 5907, "\u0120methane": 5908, "\u0120quick": 5909, "\u0120positive": 5910, "\u0120ag": 5911, "Don": 5912, "den": 5913, "\u0120continent": 5914, "\u0120Chan": 5915, "\u0120ru": 5916, "\u0120Henry": 5917, "\u0120oldest": 5918, "\u0120files": 5919, "\u0120treating": 5920, "ada": 5921, "\u0120need": 5922, "ity": 5923, "84": 5924, "wo": 5925, "\u0120stick": 5926, "\u0120recovery": 5927, "\u0120exc": 5928, "\u0120carrier": 5929, "\u0120town": 5930, "\u0120Argentina": 5931, "\u0120its": 5932, "\u0120film": 5933, "ve": 5934, "\u0120organic": 5935, "\u0120assumed": 5936, "\u0120judgment": 5937, "96": 5938, "\u0120Supreme": 5939, "\u0120interests": 5940, "\u0120initially": 5941, "\u0120End": 5942, "\u0120Roosevelt": 5943, "\u0120things": 5944, "\u0120friend": 5945, "\u0120prove": 5946, "\u0120physi": 5947, "nks": 5948, "\u0120mechanical": 5949, "\u0120solution": 5950, "AIDS": 5951, "\u0120impact": 5952, "\u0120architecture": 5953, "\u01201994": 5954, "\u0120chemicals": 5955, "os": 5956, "Qu": 5957, "\u0120Point": 5958, "\u0120ocean": 5959, "\u0120buried": 5960, "yd": 5961, "\u0120begin": 5962, "\u0120sm": 5963, "\u0120gu": 5964, "Most": 5965, "\u0120billion": 5966, "\u0120prominent": 5967, "\u0120Gospel": 5968, "\u0120within": 5969, "\u0120disagree": 5970, "\u0120occupied": 5971, ",\"": 5972, "\u0120Park": 5973, "gg": 5974, "\u0120creates": 5975, "\u0120programme": 5976, "\u0120Pal": 5977, "Develop": 5978, "HA": 5979, "gress": 5980, "\u0120Mountain": 5981, "\u0120actual": 5982, "75": 5983, "\u0120wet": 5984, "\u0120High": 5985, "\u0120suddenly": 5986, "mit": 5987, "\u0120lymph": 5988, "\u0120aircraft": 5989, "\u0120Earth": 5990, "\u0120sites": 5991, "\u0120ven": 5992, "\u0120threat": 5993, "\u0120health": 5994, "ous": 5995, "\u0120Q": 5996, "nes": 5997, "\u0120outcomes": 5998, "\u0120outcome": 5999, "\u0120provision": 6000, "\u0120witness": 6001, "\u0120limestone": 6002, "\u0120Diego": 6003, "\u0120centers": 6004, "\u0120pick": 6005, "\u0120brought": 6006, "\u0120surge": 6007, "\u0120horizon": 6008, "\u01208": 6009, "level": 6010, "\u0120an": 6011, "\u0120forgotten": 6012, "\u0120sil": 6013, "\u0120Bio": 6014, "\u0120Ocean": 6015, "\u0120debris": 6016, "\u0120provincial": 6017, "ya": 6018, "\u0120tremendous": 6019, "\u0120custom": 6020, "\u0120Island": 6021, "\u0120ins": 6022, "\u0120st": 6023, "\u0120hopes": 6024, "\u0120borrow": 6025, "\u0120Ju": 6026, "ane": 6027, "re": 6028, "\u0120empire": 6029, "\u0120her": 6030, "edu": 6031, "\u0120government": 6032, "\u0120paradigm": 6033, "\u0120route": 6034, "ild": 6035, "\u0120completion": 6036, "\u0120protecting": 6037, "William": 6038, "\u0120Anti": 6039, "\u0120cold": 6040, "\u0120volume": 6041, "\u0120Dan": 6042, "\u0120enough": 6043, "\u0120farm": 6044, "\u0120diagnosis": 6045, "\u0120citizens": 6046, "\u0120consistent": 6047, "\u0120nearby": 6048, "round": 6049, "by": 6050, "\u0120quality": 6051, "\u0120phrase": 6052, "teen": 6053, "\u0120Asia": 6054, "\u0120Security": 6055, "cclesiastical": 6056, "omplete": 6057, "\u0120sampling": 6058, "\u0120En": 6059, "\u0120aid": 6060, "shing": 6061, "comp": 6062, "\u0120mechanisms": 6063, "\u0120format": 6064, "lysis": 6065, "\u00e2\u0122\u013f": 6066, "\u0120seat": 6067, "\u0120ac": 6068, "\u0120data": 6069, "\u0120proposed": 6070, "\u0120Ha": 6071, "\u0120beneath": 6072, "\u0120Gold": 6073, "\u0120deer": 6074, "\u0120shot": 6075, "\u0120chance": 6076, "\u0120institutions": 6077, "FI": 6078, "Now": 6079, "dy": 6080, "des": 6081, "\u0120servant": 6082, "\u0120bu": 6083, "\u0120Bureau": 6084, "ail": 6085, "\u0120personal": 6086, "\u0120Bush": 6087, "\u0120Forest": 6088, "\u0120undoubtedly": 6089, "ama": 6090, "\u012034": 6091, "\u0120Th": 6092, "\u0120Democr": 6093, "\u0120farming": 6094, "\u0120snow": 6095, "\u01202006": 6096, "\u0120contrast": 6097, "DO": 6098, "\u0120provider": 6099, "\u0120evaluating": 6100, "\u0120au": 6101, "ents": 6102, "\u0120activities": 6103, "\u0120worship": 6104, "\u0120modified": 6105, "\u0120aspir": 6106, "\u0120Nelson": 6107, "\u0120remains": 6108, "\u0120/": 6109, "\u0120instruments": 6110, "\u0120ri": 6111, "mp": 6112, "\u0120map": 6113, "\u0120index": 6114, "\u0120eye": 6115, "\u0120He": 6116, "\u0120glo": 6117, "\u0120mouth": 6118, "\u0120Will": 6119, "\u0120digital": 6120, "\u0120br": 6121, "\u0120effort": 6122, "\u0120sand": 6123, "\u0120impacts": 6124, "\u0120import": 6125, "itive": 6126, "uting": 6127, "We": 6128, "\u0120entitled": 6129, "\u0120suicide": 6130, "\u0120enhance": 6131, "inity": 6132, "mble": 6133, "osis": 6134, "\u0120participating": 6135, "stand": 6136, "\u0120Unfortunately": 6137, "ony": 6138, "\u0120goes": 6139, "\u0120bo": 6140, "\u0120Berkeley": 6141, "gan": 6142, "\u0120Each": 6143, "\u0120magnitude": 6144, "\u0120marks": 6145, "lu": 6146, "\u0120action": 6147, "\u0133": 6148, "\u0120occurred": 6149, "\u0120seemed": 6150, "ff": 6151, "\u0120coal": 6152, "\u0120Sydney": 6153, "\u0120Alternative": 6154, "\u0120magn": 6155, "66": 6156, "\u0120country": 6157, "\u0120Origin": 6158, "ap": 6159, "\u0120address": 6160, "\u0120adjust": 6161, "\u0120either": 6162, "\u0120fort": 6163, "\u0120cotton": 6164, "\u0120information": 6165, "\u0120co": 6166, "\u0120unable": 6167, "\u0120intended": 6168, "\u01201992": 6169, "\u0120stuff": 6170, "\u0120eliminating": 6171, "\u0120Top": 6172, "\u0120entry": 6173, "\u0120none": 6174, "ject": 6175, "\u0120hard": 6176, "\u0120Florida": 6177, "\u0120nutrition": 6178, "\u0120bla": 6179, "\u0120rural": 6180, "\u0120Bo": 6181, "\u0120attacks": 6182, "\u0120Photo": 6183, "\u0120Palestinian": 6184, "\u0120saw": 6185, "\u0120goals": 6186, "\u0120achieved": 6187, "\u0120direct": 6188, "\u0120cycle": 6189, "\u0120becomes": 6190, "\u0120ritual": 6191, "\u0120provide": 6192, "40": 6193, "ots": 6194, "rating": 6195, "\u0120here": 6196, "\u01202012": 6197, "\u0120secret": 6198, "si": 6199, "\u0120types": 6200, "class": 6201, "\u0120procedure": 6202, "\u0120belong": 6203, "\u0120": 6204, "\u0127": 6205, "01": 6206, "\u0120inspect": 6207, "\u0120san": 6208, "rah": 6209, "ine": 6210, "\u0120victim": 6211, "\u0120alone": 6212, "\u0120Colombia": 6213, "\u0120\u00e2\u0122\u0135": 6214, "\u0120total": 6215, "\u0120(": 6216, "\u0120autoimmune": 6217, "\u0120number": 6218, "|": 6219, "\u0120measure": 6220, "rrow": 6221, "\u0120miles": 6222, "\u0120interface": 6223, "\u0120landing": 6224, "\u0120At": 6225, "EE": 6226, ".\u00e2\u0122\u013f": 6227, "\u0120drink": 6228, "\u0120configuration": 6229, "\u0120Un": 6230, "\u0120crowd": 6231, "\u0120lowest": 6232, "\u0120et": 6233, "\u0120Imp": 6234, "\u0120prohibit": 6235, "key": 6236, "\u0120nucle": 6237, "\u0120Bas": 6238, "\u0120publication": 6239, "\u0120relations": 6240, "\u0120Google": 6241, "\u0120Ri": 6242, "\u0120industrial": 6243, "itarian": 6244, "\u0120origins": 6245, "\u0120sli": 6246, "\u0120looked": 6247, "have": 6248, "\u0120Ku": 6249, "\u0120direction": 6250, "real": 6251, "\u0120feed": 6252, "Copyright": 6253, "Scientists": 6254, "\u0120regard": 6255, "\u0120livestock": 6256, "\u0120theat": 6257, "\u0120certain": 6258, "ators": 6259, "IN": 6260, "air": 6261, "\u0120meant": 6262, "\u0120ideal": 6263, "\u0120NI": 6264, "\u0120percent": 6265, "\u0120components": 6266, "%)": 6267, "\u0120Today": 6268, "\u0120rare": 6269, "\u0120North": 6270, "Tr": 6271, "\u0120regime": 6272, "ei": 6273, "\u012042": 6274, "nd": 6275, "\u0120Nevertheless": 6276, "ination": 6277, "\u0120Page": 6278, "rators": 6279, "\u0120delay": 6280, "\u0120self": 6281, "ase": 6282, "\u0120Middle": 6283, "\u0120Ac": 6284, "~": 6285, "\u0120precipitation": 6286, "\u0120suggested": 6287, "\u0120citizen": 6288, "\u0120producing": 6289, "\u0120said": 6290, "ate": 6291, "\u0120band": 6292, "\u0120prosecut": 6293, "Bu": 6294, "\u0120pair": 6295, "ious": 6296, "\u0120Pa": 6297, "ja": 6298, "izing": 6299, "\u0120flows": 6300, "\u0120cover": 6301, "\u0120archae": 6302, "\u0120pounds": 6303, "ves": 6304, "\u0120facility": 6305, "\u0120tur": 6306, "\u0120sea": 6307, "llar": 6308, "\u0120meals": 6309, "\u0120rabbi": 6310, "\u0120professional": 6311, "iving": 6312, "\u012037": 6313, "\u01202004": 6314, "\u012055": 6315, "stream": 6316, "With": 6317, "\u0120Period": 6318, "\u0120vessels": 6319, "\u0120errors": 6320, "\u0120horizontal": 6321, "\u0120historical": 6322, "yr": 6323, "\u0120Press": 6324, "ek": 6325, "\u0120description": 6326, "ian": 6327, "\u0120Vietnam": 6328, "sca": 6329, "ting": 6330, "\u0120adhe": 6331, ".;": 6332, "\u0120Agricultural": 6333, "\u00c2\u00b7": 6334, "\u0120Every": 6335, "ality": 6336, "\u0120testimony": 6337, "rd": 6338, "\u0120electronic": 6339, "\u0120copies": 6340, "microbial": 6341, "mil": 6342, "set": 6343, "\u0120Mor": 6344, "\u0120contain": 6345, "itary": 6346, "\u0120Curriculum": 6347, "\u0120solid": 6348, "John": 6349, "struction": 6350, "\u0120respond": 6351, "\u0120His": 6352, "\u0120decide": 6353, "\u0120traffic": 6354, "\u0120erosion": 6355, "\u0120Dakota": 6356, "ick": 6357, "2011": 6358, "\u0120Moon": 6359, "\u0120evident": 6360, "\u0120al": 6361, "\u0120temp": 6362, "Fi": 6363, "\u0120meta": 6364, "\u0120trauma": 6365, "\u0120Marshall": 6366, "\u0120applications": 6367, "\u0120roughly": 6368, "tant": 6369, "ou": 6370, "\u0120che": 6371, "\u0120determined": 6372, "\u0120revenue": 6373, "\u0120But": 6374, "99": 6375, "\u0120some": 6376, "\u0120ultimately": 6377, "\u0120across": 6378, "\u0120Wh": 6379, "va": 6380, "\u0120didn": 6381, "nning": 6382, "chan": 6383, "theless": 6384, "\u0120going": 6385, ":": 6386, "\u0120difficult": 6387, "\u0120abdominal": 6388, "Wednesday": 6389, "ture": 6390, "ant": 6391, "\u0120Word": 6392, "\u0120World": 6393, "\u0120defend": 6394, "\u0120wind": 6395, "\u0120faith": 6396, "just": 6397, "Children": 6398, "ises": 6399, "\u0120includes": 6400, "\u0120chapter": 6401, "\u0120administration": 6402, "ces": 6403, "\u0120reputation": 6404, "Ps": 6405, "57": 6406, "\u0120result": 6407, "\u0120sure": 6408, "Read": 6409, "ast": 6410, "\u0120Ser": 6411, "\u0120Western": 6412, "\u0120wife": 6413, "\u0120software": 6414, "\u0120Matthew": 6415, "\u0120MO": 6416, "\u0120warm": 6417, "rit": 6418, "\u0120starting": 6419, "\u0120Po": 6420, "\u0120vision": 6421, "\u0120sal": 6422, "\u0120Cla": 6423, "UC": 6424, "\u00e8": 6425, "ora": 6426, "ith": 6427, "\u0120Francis": 6428, "py": 6429, "\u0120effective": 6430, "\u0120programming": 6431, "\u0120ad": 6432, "gas": 6433, "\u0120equally": 6434, "hu": 6435, "\u0120app": 6436, "\u0120examples": 6437, "\u0120music": 6438, "\u0120membrane": 6439, "bel": 6440, "\u0120actions": 6441, "\u0120prepared": 6442, "ish": 6443, "\u0120permanent": 6444, "\u0120break": 6445, "\u0120decided": 6446, "\u0120immediately": 6447, "resistant": 6448, "\u0120chi": 6449, "\u0120Since": 6450, "\u0120infrared": 6451, "\u0120reach": 6452, "\u0120Che": 6453, "\u0120lung": 6454, "\u0120Cal": 6455, "\u0120injuries": 6456, "water": 6457, "erial": 6458, "unk": 6459, "\u0120at": 6460, "\u0120approved": 6461, "\u0120center": 6462, "\u0120accessible": 6463, "\u01201995": 6464, "\u0120never": 6465, "pro": 6466, "\u00d6": 6467, "\u0120organ": 6468, "\u0120existing": 6469, "\u0120surrender": 6470, "\u0120South": 6471, "develop": 6472, "\u0120municipal": 6473, "\u0120experiencing": 6474, "dia": 6475, "\u0120alarm": 6476, "BI": 6477, "\u0120dedicated": 6478, "\u0120compounds": 6479, "\u0120Ba": 6480, "\u0120police": 6481, "under": 6482, "\u0120Common": 6483, "\u0120Instead": 6484, "\u0120to": 6485, "\u0120enemies": 6486, "\u0120Source": 6487, "\u0120Mercury": 6488, "\u0120B": 6489, "\u0120included": 6490, "\u0120paid": 6491, "\u0120generation": 6492, "\u0120export": 6493, "\u0120Down": 6494, "\u0120sing": 6495, "\u0120surprising": 6496, "\u0120told": 6497, "\u0120victims": 6498, "we": 6499, "\u0120Democra": 6500, "!": 6501, "\u0120Rabbi": 6502, "IM": 6503, "\u0120Major": 6504, "\u0120However": 6505, "\u0120immigrants": 6506, "\u0120happening": 6507, "\u0120already": 6508, "\u0120fi": 6509, "\u0120X": 6510, "\u0120combined": 6511, "\u0120broad": 6512, "\u0120Japanese": 6513, "\u0120thousand": 6514, "ited": 6515, "\u0120date": 6516, "\u0120committee": 6517, "\u0120emb": 6518, "ither": 6519, "\u0120Question": 6520, "\u0120assembly": 6521, "wa": 6522, "\u0120significance": 6523, "\u0120$": 6524, "Mo": 6525, "\u0120value": 6526, "aging": 6527, "\u0120implemented": 6528, "\u0120healthcare": 6529, "ki": 6530, "pical": 6531, "\u0120age": 6532, "\u0120allowing": 6533, "\u0120governments": 6534, "\u0120Comp": 6535, "\u0120surveillance": 6536, "\u0120minimize": 6537, "2009": 6538, "\u0120care": 6539, "sions": 6540, "\u0120steam": 6541, "\u0120embedded": 6542, "table": 6543, "\u0120countries": 6544, "\u0120administ": 6545, "94": 6546, "white": 6547, "\u0120stroke": 6548, "\u0120David": 6549, "\u0120Mi": 6550, "tra": 6551, "\u0120crops": 6552, "con": 6553, "dan": 6554, "\u0120terr": 6555, "\u0120probability": 6556, "kh": 6557, "ether": 6558, "\u0120migration": 6559, "\u0120Ste": 6560, "ED": 6561, "\u0120prison": 6562, "\u0120largest": 6563, "\u0120Mid": 6564, "\u0120higher": 6565, "ance": 6566, "\u0120maximum": 6567, "\u0120trip": 6568, "\u0120aluminum": 6569, "\u0120being": 6570, "\u0120constantly": 6571, "\u0120Kingdom": 6572, "not": 6573, "\u0120add": 6574, "used": 6575, "MS": 6576, "\u00a8": 6577, "iling": 6578, "TC": 6579, "\u0120Memorial": 6580, "\u0120ends": 6581, "ney": 6582, "Sa": 6583, "course": 6584, "tte": 6585, "\u0120living": 6586, "\u0120passage": 6587, "\u0120moral": 6588, "\u0120People": 6589, "\u0120improved": 6590, "\u0120Ad": 6591, "\u0120tips": 6592, "\u0120toler": 6593, "\u0120dia": 6594, "\u0120demand": 6595, "gle": 6596, "Ti": 6597, "E": 6598, "\u0120nest": 6599, "\u0120relationship": 6600, "\u0120sup": 6601, "rie": 6602, "der": 6603, "\u0120Sch": 6604, "\u0120susceptible": 6605, "nic": 6606, "\u0120opened": 6607, "\u0120strong": 6608, "\u0120and": 6609, "K": 6610, "\u0120average": 6611, "\u0120beautiful": 6612, "lis": 6613, "media": 6614, "\u0120acids": 6615, "\u0120September": 6616, "ify": 6617, "\u0120plane": 6618, "ary": 6619, "\u0120invisible": 6620, "Bo": 6621, "Researchers": 6622, "\u0120seeds": 6623, "\u0120Ro": 6624, "\u0120Work": 6625, "\u0120Add": 6626, "\u0120long": 6627, "UR": 6628, "\u0120emotional": 6629, "\u0120schedule": 6630, "\u0120Gene": 6631, "\u0120movements": 6632, "\u0120everyday": 6633, "\u0120Third": 6634, "li": 6635, "bi": 6636, "\u0120course": 6637, "\u0120authority": 6638, "MI": 6639, "\u0120fragment": 6640, "\u0120Chief": 6641, "'ve": 6642, "ym": 6643, "\u0120System": 6644, "\u0120Li": 6645, "\u0120integrated": 6646, "\u0120destroy": 6647, "vel": 6648, "\u0120father": 6649, "ip": 6650, "ships": 6651, "\u0120chart": 6652, "\u0120comment": 6653, "\u0120foods": 6654, "\u0120mathematics": 6655, "lar": 6656, "\u0120act": 6657, "\u0120valid": 6658, "\u0120reti": 6659, "\u0120beings": 6660, "uce": 6661, "\u0120National": 6662, "\u0120kids": 6663, "\u0120tobacco": 6664, "\u0120essential": 6665, "PD": 6666, "\u0120Fund": 6667, "\u0120these": 6668, "\u0120democratic": 6669, "\u0120Taylor": 6670, "\u0120Charles": 6671, "\u0120anything": 6672, "borne": 6673, "\u0120insulin": 6674, "RO": 6675, "\u0120refers": 6676, "\u0120helping": 6677, "Dr": 6678, "\u0120mark": 6679, "at": 6680, "\u0120south": 6681, "tty": 6682, "ched": 6683, "j": 6684, "\u0120expedition": 6685, "\u0120ar": 6686, "Bi": 6687, "gh": 6688, "La": 6689, "\u0120feel": 6690, "\u0120hazard": 6691, "\u0120VI": 6692, "\u0120appearance": 6693, "\u0120exists": 6694, "\u0120propaga": 6695, "\u0120property": 6696, "\u0120own": 6697, "\u00a7": 6698, "de": 6699, "\u0120due": 6700, "\u0120people": 6701, "He": 6702, "\u00e2\u0122\u013b": 6703, "43": 6704, "cision": 6705, "\u0120stable": 6706, "present": 6707, "\u0120start": 6708, "\u0120productivity": 6709, "\u0120Tru": 6710, "liance": 6711, "\u0120Oklahoma": 6712, "graph": 6713, "\u0120Cor": 6714, "most": 6715, "\u0120suspect": 6716, "\u0120wisdom": 6717, "ered": 6718, "ka": 6719, "turn": 6720, "\u0120received": 6721, "\u0120preliminary": 6722, "\u0120sunlight": 6723, "95": 6724, "\u0120visible": 6725, "weight": 6726, "\u0120recommendations": 6727, "\u0120hearing": 6728, "\u0120ser": 6729, "IO": 6730, "\u0120Mu": 6731, "\u0120molecule": 6732, "\u0120aspect": 6733, "\u0120greatly": 6734, "18": 6735, "dis": 6736, "\u0120objective": 6737, "\u0120written": 6738, "\u0120entirely": 6739, "\u0120cylinder": 6740, "Whether": 6741, "\u0120resolution": 6742, "\u0120streets": 6743, "\u0120resist": 6744, "\u0120uncomfortable": 6745, "\u0120exactly": 6746, "\u0120Christmas": 6747, "\u0120located": 6748, "\u0120transmission": 6749, "while": 6750, "dar": 6751, "\u0120achieving": 6752, "September": 6753, "\u0120sharp": 6754, "To": 6755, "cript": 6756, "\u0120for": 6757, "\u0120cl": 6758, "\u0120Sp": 6759, "fall": 6760, "igious": 6761, "\u0120cases": 6762, "NO": 6763, "\u0120specifically": 6764, "\u0120tank": 6765, "\u0120reduces": 6766, "\u00ba": 6767, "\u0120protocol": 6768, "\u0120lost": 6769, "\u0120decade": 6770, "\u0120dinner": 6771, "\u0120eastern": 6772, "tin": 6773, "\u0120ro": 6774, "],": 6775, "\u0120concentrations": 6776, "\u0120links": 6777, "\u0120roles": 6778, "\u0120arm": 6779, "78": 6780, "12": 6781, "\u0120content": 6782, "run": 6783, "\u0120available": 6784, "\u0120flexible": 6785, "\u0120TV": 6786, "\u0120cutting": 6787, "\u0120http": 6788, "known": 6789, "\u0120met": 6790, "\u0120radio": 6791, "ison": 6792, "\u0120Mississippi": 6793, "sse": 6794, "\u0120benefits": 6795, "\u0120hot": 6796, "ent": 6797, "\u0120rheumat": 6798, "\u0120contribution": 6799, "fu": 6800, "\u01202002": 6801, "\u0120Per": 6802, "\u0120declared": 6803, "'d": 6804, "rried": 6805, "\u0120coffee": 6806, "\u0120Many": 6807, "\u0120milit": 6808, "\u0120camera": 6809, "\u0120fever": 6810, "\u0120tube": 6811, "\u0120write": 6812, "w": 6813, "48": 6814, "\u0120motiv": 6815, "\u0120se": 6816, "\u0120supply": 6817, "\u0120chimpanzee": 6818, "\u0120inspir": 6819, "per": 6820, "ten": 6821, "\u0120least": 6822, "\u0120esophagus": 6823, "33": 6824, "\u0120Perhaps": 6825, "\u0120owned": 6826, "range": 6827, "\u0120resulting": 6828, "\u0120pet": 6829, "\u0120previous": 6830, "art": 6831, "\u0120This": 6832, "\u0120Similarly": 6833, "\u0120inevit": 6834, "\u0120Louis": 6835, "\u0120upon": 6836, "\u0120ratio": 6837, "\u0120scene": 6838, "\u0132": 6839, "\u0120Collection": 6840, "\u0120subjects": 6841, "\u0120executive": 6842, "RE": 6843, "\u0120interested": 6844, "\u0120store": 6845, "\u0120casual": 6846, "29": 6847, "\u0120decay": 6848, "\u0120Chi": 6849, "\u0120philosophy": 6850, "\u0120ret": 6851, "\u0120Shakespeare": 6852, "\u0120Assembly": 6853, "ifferent": 6854, "\u0120;": 6855, "\u0120Madison": 6856, "\u0120variety": 6857, "\u012017": 6858, "\u0120contribute": 6859, "\u0120quantity": 6860, "\u0120Holy": 6861, "\u0120role": 6862, "\u0120wealth": 6863, "\u0120Jerusalem": 6864, "\u0120Ka": 6865, "\u0120research": 6866, "\u0120practices": 6867, "TM": 6868, "\u0120hit": 6869, "\u0120drainage": 6870, "\u0120Equ": 6871, "\u0120coastal": 6872, "\u0120transform": 6873, "\u00e1\u00b9\u0143": 6874, "\u0120thought": 6875, "\u0120struggling": 6876, "\u0120opposite": 6877, "\u0120risk": 6878, "\u0120psychology": 6879, "\u0120bishop": 6880, "\u0120circle": 6881, "\u0120spent": 6882, "eak": 6883, "\u0120fur": 6884, "ever": 6885, "\u0120compare": 6886, "30": 6887, "\u0120controversy": 6888, "\u0120along": 6889, "\u0120times": 6890, "\u0120ancestors": 6891, "\u0120photo": 6892, "\u0120awa": 6893, "\u0120Cancer": 6894, "\u0120Os": 6895, "\u0120Y": 6896, "\u0120phosph": 6897, "\u0120German": 6898, "Once": 6899, "\u0120completed": 6900, "\u012015": 6901, "\u0120pla": 6902, "oon": 6903, "NN": 6904, "OM": 6905, "ner": 6906, "\u0120Eu": 6907, "\u0120convention": 6908, "ifying": 6909, "\u0120bill": 6910, "\u0120bones": 6911, "46": 6912, "\u0120designs": 6913, "\u0120centuries": 6914, "\u0120colonies": 6915, "\u0120last": 6916, "07": 6917, "over": 6918, "\u0120neglect": 6919, "llowing": 6920, "?": 6921, "\u0120established": 6922, "\u0120effect": 6923, "\u0120media": 6924, "ll": 6925, "\u0120inquiry": 6926, "\u0120Organ": 6927, "nunciation": 6928, "\u0120Victoria": 6929, "\u0120psychological": 6930, "x": 6931, "\u0120consult": 6932, "\u0120grade": 6933, "\u0120CDC": 6934, "\u0120Ga": 6935, "isation": 6936, "\u0120Control": 6937, "Over": 6938, "\u0120sit": 6939, "IL": 6940, "\u0120contemporary": 6941, "\u0120values": 6942, "\u0120order": 6943, "hi": 6944, "\u0120Cambridge": 6945, "\u0120November": 6946, "\u0120fight": 6947, "scribe": 6948, "you": 6949, "\u0120petroleum": 6950, "They": 6951, "\u0120transportation": 6952, "\u0120wheel": 6953, "\u0120cancers": 6954, "\u0120newspaper": 6955, "\u0120did": 6956, "ir": 6957, "worth": 6958, "\u0120pe": 6959, "\u0120injury": 6960, "\u0120construction": 6961, "\u0120discovery": 6962, "le": 6963, "\u0120much": 6964, "\u0120struggle": 6965, "\u0120Valley": 6966, "dic": 6967, "',": 6968, "\u0120cost": 6969, "\u0120Journal": 6970, "\u0120video": 6971, "\u0120towns": 6972, "\u0120follow": 6973, "\u0120Foreign": 6974, "\u0120individual": 6975, "\u0120installed": 6976, "\u0120pack": 6977, "\u0120contributor": 6978, "AF": 6979, "cil": 6980, "\u0120peak": 6981, "DP": 6982, "\u0120episode": 6983, "His": 6984, "\u0120questions": 6985, "\u0120pale": 6986, "\u0120physician": 6987, "\u0120internal": 6988, "word": 6989, "\u0120else": 6990, "\u0120generally": 6991, "\u0120together": 6992, "unded": 6993, "\u0120laid": 6994, "Second": 6995, "ient": 6996, "\u0120legal": 6997, "\u0120positions": 6998, "\u0120mal": 6999, "ined": 7000, "\u0120Gulf": 7001, "\u0120affected": 7002, "\u0120Patri": 7003, "\u0120found": 7004, "\u0120tru": 7005, "\u0120share": 7006, "gent": 7007, "\u0120mobile": 7008, "\u0120wrong": 7009, "\u0120state": 7010, "\u0120Christopher": 7011, "\u0120approaches": 7012, "\u0120managed": 7013, "\u0120qua": 7014, "\u0120climate": 7015, "\u0120stem": 7016, "\u0120ethnic": 7017, "ore": 7018, "ter": 7019, "\u0120Er": 7020, "ening": 7021, "\u00bd": 7022, "\u0120distinguish": 7023, "\u0120scores": 7024, "\u0120named": 7025, "\u0120Service": 7026, "\u0120festival": 7027, "\u0120answers": 7028, "\u0120Cro": 7029, "\u012e": 7030, "\u00c2\u00a9": 7031, "yan": 7032, "\u0120Han": 7033, "RC": 7034, "OR": 7035, "\u0120achieve": 7036, "\u0120black": 7037, "\u0120welfare": 7038, "\u0120compound": 7039, "\u0120drop": 7040, "\u0120According": 7041, "\u0120Paul": 7042, "med": 7043, "wl": 7044, "lying": 7045, "\u0120freedom": 7046, "\u0120filter": 7047, "\u0120identifying": 7048, "\u0120Japan": 7049, "'re": 7050, "\u0120challenges": 7051, "\u0120design": 7052, "\u0120disadvantage": 7053, "G": 7054, "\u0120Angeles": 7055, "\u0120assignment": 7056, "cies": 7057, "\u0120chlor": 7058, "\u0120vo": 7059, "\u0120assembl": 7060, "\u0120pyramid": 7061, "\u0120cholesterol": 7062, "ics": 7063, "\u0120:": 7064, "\u0120Clo": 7065, "2": 7066, "\u0120minor": 7067, "sis": 7068, "\u0120innovative": 7069, "\u0120pit": 7070, "ring": 7071, "\u0120puzzle": 7072, "\u012065": 7073, "ese": 7074, "\u0120Colon": 7075, "\u0120Christ": 7076, "ci": 7077, "\u0120buildings": 7078, "\u0120heavily": 7079, "\u0120interactions": 7080, "\u0120afternoon": 7081, "\u0120respectively": 7082, "20": 7083, "\u0120sho": 7084, "\u0120Fin": 7085, "lace": 7086, "\u0120guarantee": 7087, "\u00ca": 7088, "NS": 7089, "\u0120rock": 7090, "ford": 7091, "ids": 7092, "\u0120collision": 7093, "\u0120gri": 7094, "How": 7095, "\u0120stage": 7096, "tles": 7097, "\u0120NS": 7098, "\u0120red": 7099, "ating": 7100, "ital": 7101, "\u0120spoke": 7102, "\u0120pen": 7103, "\u0120political": 7104, "\u0120Change": 7105, "ies": 7106, "tle": 7107, "ctors": 7108, "\u0120river": 7109, "\u0120relevant": 7110, "Ad": 7111, "\u0120Us": 7112, "time": 7113, "\u0120plant": 7114, "EL": 7115, "\u0120dress": 7116, "\u0120normally": 7117, "\u0120by": 7118, "\u0120aesthetic": 7119, "\u0120virtually": 7120, "\u00a9": 7121, "H": 7122, "\u0120reported": 7123, "uck": 7124, "\u0120viewed": 7125, "\u0120require": 7126, "\u0120crime": 7127, "thetic": 7128, "\u00d3": 7129, "\u0120running": 7130, "\u0120d": 7131, "14": 7132, "\u0120bacteria": 7133, "\u0120give": 7134, "\u0120providing": 7135, "\u0120Bill": 7136, "\u0120urban": 7137, "\u0120version": 7138, "\u0120formal": 7139, "\u0120abundant": 7140, "\u0120LE": 7141, "\u0120Hand": 7142, ",'": 7143, "\u0120susp": 7144, "\u0120solutions": 7145, "titude": 7146, "gram": 7147, "\u0120travel": 7148, "1": 7149, "\u0120unless": 7150, "PDF": 7151, "\u0120insurance": 7152, "\u0120driver": 7153, "21": 7154, "\u0120particularly": 7155, "\u0120earlier": 7156, "\u0120maintained": 7157, "But": 7158, "made": 7159, "\u0120pathogen": 7160, "\u0120instruction": 7161, "\u0120Lin": 7162, "\u0120allow": 7163, "\u0120many": 7164, "\u0120cla": 7165, "\u0120fu": 7166, "\u0120expense": 7167, "escent": 7168, "\u00bb": 7169, "If": 7170, "\u0120artists": 7171, "ped": 7172, "\u0120SS": 7173, "\u0120dev": 7174, "\u0120someone": 7175, "ola": 7176, "\u0120literacy": 7177, "org": 7178, "TE": 7179, "ically": 7180, "\u0120earn": 7181, "xon": 7182, "ines": 7183, "\u0120exposed": 7184, "motion": 7185, "\u0120view": 7186, "\u0120Malaysia": 7187, "\u012022": 7188, "\u0120syn": 7189, "yers": 7190, "\u0120Illinois": 7191, "\u0120requirements": 7192, "ak": 7193, "sters": 7194, "\u0120Scientific": 7195, "\u0120affecting": 7196, "2010": 7197, "\u0120unusual": 7198, "\u0120loose": 7199, "Because": 7200, "rms": 7201, "\u0120triangle": 7202, "\u0120pregnant": 7203, "ful": 7204, "\u0120Germany": 7205, "\u0120bibli": 7206, "Vi": 7207, "\u0120regarded": 7208, "let": 7209, "zo": 7210, "\u0120particular": 7211, "\u0120Trans": 7212, "\u0120comparison": 7213, "tive": 7214, "\u0120City": 7215, "fo": 7216, "pp": 7217, "\u0120whale": 7218, "\u0120superior": 7219, "\u0120Te": 7220, "\u0120growth": 7221, "zy": 7222, "\u0120allergic": 7223, "\u01202008": 7224, "\u0120domestic": 7225, "ness": 7226, "\u0120closely": 7227, "\u0120cardiac": 7228, "\u0120behind": 7229, "\u0120examination": 7230, "She": 7231, "#": 7232, "\u0120minute": 7233, "\u0120978": 7234, "\u0120criminal": 7235, "\u0120Dia": 7236, "\u0120mankind": 7237, "\u01202013": 7238, "lph": 7239, "\u0120placed": 7240, "\u0120Explor": 7241, "\u0120uns": 7242, "based": 7243, "\u0120math": 7244, "\u0120heat": 7245, "\u0120reflect": 7246, "\u0120characterized": 7247, "mb": 7248, "tching": 7249, "lea": 7250, "\u0120grains": 7251, "Com": 7252, "\u0120candidate": 7253, "\u0120flo": 7254, "\u0120detect": 7255, "ping": 7256, "rus": 7257, "ale": 7258, "\u0120va": 7259, "\u0120Juda": 7260, "TU": 7261, "example": 7262, "\u0120continu": 7263, "\u0120reader": 7264, "\u00b3": 7265, "\u0120bru": 7266, "\u0120proto": 7267, "\u0120Like": 7268, "\u0120etc": 7269, "\u0120administrator": 7270, "oth": 7271, "\u0120march": 7272, "\u0120compromise": 7273, "\u0120Holocaust": 7274, "\u0120modern": 7275, "DI": 7276, "19": 7277, "unt": 7278, "\u0120caught": 7279, "\u0120mechanism": 7280, "\u0120Hindu": 7281, "wn": 7282, "\u0120larger": 7283, "\u0120radiation": 7284, "\u0120collection": 7285, "2006": 7286, "\u0120Asian": 7287, "ters": 7288, "\u0120zero": 7289, "\u0120thinking": 7290, "\u0120ST": 7291, "\u0120Temple": 7292, "\u0120indicator": 7293, "arch": 7294, "ides": 7295, "\u0120shi": 7296, "\u0120forming": 7297, "\u0120Gen": 7298, "\u0120decreased": 7299, "\u0120Tor": 7300, "\u0120monument": 7301, "function": 7302, "night": 7303, "En": 7304, "\u0120Just": 7305, "\u0120animals": 7306, "ker": 7307, "\u0120earthquake": 7308, "\u0120faced": 7309, "\u0120goal": 7310, "\u0120June": 7311, "\u0120evil": 7312, "\u0120facilities": 7313, "\u00e9": 7314, "\u0120Nor": 7315, "\u0120sector": 7316, "tical": 7317, "\u0120substances": 7318, "\u0120DE": 7319, "\u0120independent": 7320, "General": 7321, "\u0120Initiative": 7322, "ano": 7323, "lled": 7324, "encies": 7325, "\u0120United": 7326, "\u0120ulcer": 7327, "dding": 7328, "\u0120cattle": 7329, "\u0120ski": 7330, "\u0120likelihood": 7331, "fi": 7332, "\u0120Medicine": 7333, "\u0120explore": 7334, "\u0120owners": 7335, "\u0120it": 7336, "bon": 7337, "\u0120killing": 7338, "\u0120Later": 7339, "\u0120Eastern": 7340, "\u0120comfort": 7341, "\u0120History": 7342, "ays": 7343, "mission": 7344, "\u0120res": 7345, "39": 7346, "\u0120testing": 7347, "\u0120done": 7348, "\u0120simple": 7349, "\u0120photograph": 7350, "tain": 7351, "ded": 7352, "\u0120plastic": 7353, "ports": 7354, "\u0120over": 7355, "\u0120sales": 7356, "\u0120be": 7357, "that": 7358, "\u0120Spain": 7359, "\u0120convert": 7360, "lla": 7361, "\u0120mid": 7362, "lli": 7363, "year": 7364, "\u0120considering": 7365, "\u0120professionals": 7366, "\u0120disappear": 7367, "\u0120lands": 7368, "\u0120considered": 7369, "house": 7370, "\u0120Thomas": 7371, "\u0120Obama": 7372, "\u0120party": 7373, "ery": 7374, "\u012012": 7375, "\u0120perception": 7376, "\u0120Commonwealth": 7377, "\u0120encourage": 7378, "men": 7379, "\u0120plans": 7380, "\u0120policies": 7381, "\u0120aquatic": 7382, "\u0120me": 7383, "\u0120new": 7384, "\u0120para": 7385, "\u0120personnel": 7386, "\u0120save": 7387, "iction": 7388, "\u0120class": 7389, "\u0120relatively": 7390, "\u0120ja": 7391, "\u0120origin": 7392, "ning": 7393, "IV": 7394, "\u0120Public": 7395, "un": 7396, "\u0120House": 7397, "\u0120rational": 7398, "ND": 7399, "\u0120*": 7400, "\u0120opening": 7401, "\u00d0\u00b0": 7402, "\u0120hour": 7403, "\u013d": 7404, "UN": 7405, "state": 7406, "DS": 7407, "\u0120Constitution": 7408, "B": 7409, "\u0120stored": 7410, "\u0120mother": 7411, "\u0120Circ": 7412, "rk": 7413, "\u0120identity": 7414, "xes": 7415, "\u0120encounter": 7416, "me": 7417, "fl": 7418, "tribution": 7419, "ell": 7420, "\u0120mining": 7421, "wood": 7422, "my": 7423, "\u0120prem": 7424, "\u0120Greek": 7425, "\u0120Day": 7426, "\u0120Sciences": 7427, "\u0120keep": 7428, "\u0120Russia": 7429, "\u00c3\u00a4": 7430, "\u0120surrounded": 7431, "\u0120driven": 7432, "\u0120alive": 7433, "\u0120decline": 7434, "\u0120There": 7435, "Another": 7436, "\u0120de": 7437, "technology": 7438, "lus": 7439, "\u0120peoples": 7440, "\u0120ME": 7441, "\u0120happy": 7442, "lo": 7443, "\u0120fifty": 7444, "\u0120punishment": 7445, "\u0120gastrointestinal": 7446, "mid": 7447, "\u0120markets": 7448, "\u0120detected": 7449, "\u0120constitu": 7450, "\u0120development": 7451, "ov": 7452, "\u0120arr": 7453, "\u0120county": 7454, "\u0120Jupiter": 7455, "iz": 7456, "\u0120think": 7457, "\u0120approach": 7458, "su": 7459, "\u0120Ex": 7460, "\u0120farther": 7461, "\u0120widespread": 7462, "\u0120hydro": 7463, "\u0120variation": 7464, "\u0120chief": 7465, "PO": 7466, "\u0120Pra": 7467, "\u0120spray": 7468, "\u0120stopped": 7469, "sive": 7470, "\u0120Kashmir": 7471, "back": 7472, "\u0120drugs": 7473, "\u0120Fi": 7474, "\u0120therapies": 7475, "\u0120lake": 7476, "\u0120function": 7477, "\u0120damage": 7478, "\u00c4\u0123": 7479, "\u0120eyes": 7480, "\u0120stars": 7481, "\u0120arms": 7482, "\u0120visitors": 7483, "\u0120smell": 7484, "\u0120text": 7485, "Several": 7486, "\u0120weather": 7487, "\u0120Effect": 7488, "\u0120pattern": 7489, "Tra": 7490, "\u0120Water": 7491, "\u0129": 7492, "\u0120diss": 7493, "\u0120Arthur": 7494, "\u0120prime": 7495, "\u0120Art": 7496, "\u0120plan": 7497, "\u0120V": 7498, "\u0120consumption": 7499, "\u0120patent": 7500, "ory": 7501, "field": 7502, "\u0120pi": 7503, "\u0120astronaut": 7504, "take": 7505, "\u0120vapor": 7506, "\u0120week": 7507, "\u0120Sullivan": 7508, "\u0120war": 7509, "o": 7510, "\u0120world": 7511, "pal": 7512, "\u0120newly": 7513, "\u0120slave": 7514, "\u0120online": 7515, "\u0120sometimes": 7516, "\u0120lesson": 7517, "sen": 7518, "\u0120southern": 7519, "\u0120Professional": 7520, "\u0120English": 7521, "\u0120Black": 7522, "\u0120states": 7523, "\u0120worldwide": 7524, "\u0120Facebook": 7525, "\u0120grammar": 7526, "\u0120gets": 7527, "\u0120profile": 7528, "\u0120bleeding": 7529, "\u0120partial": 7530, "\u01202011": 7531, "Go": 7532, "sol": 7533, "care": 7534, "\u0120Qu": 7535, "\u0120replacement": 7536, "\u0120Indian": 7537, "\u0120concerns": 7538, "ose": 7539, "\u0120cats": 7540, ".\"": 7541, "\u0120Space": 7542, "\u0120obstacle": 7543, "\u0120draft": 7544, "\u0120Now": 7545, "\u0120biological": 7546, "\u0120Most": 7547, "EN": 7548, "wi": 7549, "90": 7550, "\u00db": 7551, "\u0120pointed": 7552, "\u0120powerful": 7553, "\u0120extremely": 7554, "73": 7555, "\u0120optim": 7556, "\u0120involving": 7557, "\u00ef": 7558, "\u0120Ze": 7559, "\u0120dry": 7560, "mal": 7561, "\u0120ship": 7562, "\u0120C": 7563, "\u0120Je": 7564, "\u0120Sto": 7565, "tent": 7566, "\u01209": 7567, "ynthesis": 7568, "\u0120thing": 7569, "etic": 7570, "\u0120Kenya": 7571, "\u0120ap": 7572, "\u0120degrees": 7573, "\u0120rail": 7574, "\u0120gra": 7575, "roid": 7576, "pe": 7577, "load": 7578, "\u0120MA": 7579, "\u0120Only": 7580, "IE": 7581, "\u01201": 7582, "\u012020": 7583, "AN": 7584, "\u0120company": 7585, "ras": 7586, "\u0120iso": 7587, "\u0120vote": 7588, "\u0120earth": 7589, "cho": 7590, "\u0120Spanish": 7591, "\u0120creatures": 7592, "\u0120corn": 7593, "\u0120comm": 7594, "\u0120guns": 7595, "\u0120hung": 7596, "\u0120About": 7597, "wed": 7598, "\u0120inadequate": 7599, "line": 7600, "\u0120selection": 7601, "\u0120Tr": 7602, "28": 7603, "\u0120flowers": 7604, "ud": 7605, "\u0120equ": 7606, "mark": 7607, "\u0120Egypt": 7608, "85": 7609, "\u0120contributed": 7610, "\u0120interact": 7611, "\u0120seeking": 7612, "\u0120powder": 7613, "\u0120audience": 7614, "\u0142": 7615, "TI": 7616, "using": 7617, "\u0120Einstein": 7618, "\u0120Second": 7619, "\u0120vegeta": 7620, "ly": 7621, "\u0120spread": 7622, "ill": 7623, "TH": 7624, "\u0120estimate": 7625, "\u0120discussed": 7626, "\u0120imm": 7627, "\u00c3\u00bc": 7628, "200": 7629, "\u0120fluid": 7630, "\u0120Scott": 7631, "\u0120\u00d0": 7632, "\u0120absorption": 7633, "\u0120suggest": 7634, "31": 7635, "\u0120mathematical": 7636, "\u0120Sunday": 7637, "\u0120collections": 7638, "tein": 7639, "\u0120visual": 7640, "\u0120poverty": 7641, "\u0120embrace": 7642, "\u0120Action": 7643, "\u0120lives": 7644, "words": 7645, "\u0120express": 7646, "\u0120tra": 7647, "sty": 7648, "\u0120nurse": 7649, "\u0120brilliant": 7650, "\u0120mortality": 7651, "\u0120Pri": 7652, "\u0120microscop": 7653, "\u0120workers": 7654, "\u0120planets": 7655, "80": 7656, "DL": 7657, "\u0120bee": 7658, "ulate": 7659, "day": 7660, "Earth": 7661, "ss": 7662, "\u0120acc": 7663, "ass": 7664, "\u01201989": 7665, "\u0120constructed": 7666, "\u0120waves": 7667, "grade": 7668, "\u0120improve": 7669, "\u0120instruct": 7670, "\u0120c": 7671, "\u0120distance": 7672, "\u0120www": 7673, "\u0120pretty": 7674, "\u0120quiet": 7675, "),": 7676, "\u0120market": 7677, "\u0120worry": 7678, "\u0120practical": 7679, "\u0120training": 7680, "\u0120level": 7681, "gn": 7682, "\u0120question": 7683, "Find": 7684, "\u0120Trade": 7685, "\u0120measuring": 7686, "\u0120dwarf": 7687, "\u0120depending": 7688, "\u0120cooking": 7689, "\u0120seizure": 7690, "ditional": 7691, "\u0120Si": 7692, "EM": 7693, "\u0120County": 7694, "\u0120wh": 7695, "en": 7696, "Unfortunately": 7697, "\u0120killed": 7698, "\u0120ourselves": 7699, "51": 7700, "\u0120team": 7701, "lie": 7702, "\u0120Muhammad": 7703, "ight": 7704, "\u0120copy": 7705, "\u0120serving": 7706, "AB": 7707, "\u0120severe": 7708, "\u0120Patients": 7709, "\u0120Va": 7710, "\u0120empty": 7711, "\u0120Front": 7712, "\u0120As": 7713, "\u0120alphabet": 7714, "\u00de": 7715, "PL": 7716, "\u0120deaths": 7717, "\u0120economy": 7718, "\u0120Ken": 7719, "\u0120males": 7720, "\u0120kind": 7721, "\u0120manner": 7722, "\u0120promoting": 7723, "mitted": 7724, "io": 7725, "IT": 7726, "\u0120Mexico": 7727, "coming": 7728, "\u0120cell": 7729, "\u0120volcano": 7730, "\u0120feeding": 7731, "\u0120bi": 7732, "\u0120lessons": 7733, "\u0120Sal": 7734, "\u0120understand": 7735, "\u0120excellent": 7736, "\u0120composition": 7737, "\u0120cities": 7738, "\u0120position": 7739, "\u0120u": 7740, "\u0120opposition": 7741, "\u0120administrative": 7742, "html": 7743, "\u0120Cat": 7744, "\u0120molecular": 7745, "nate": 7746, "rate": 7747, "\u0120facilitate": 7748, "\u0120minimum": 7749, "\u0120move": 7750, "\u0120classic": 7751, "\u0120infinite": 7752, "\u0120Fe": 7753, "\u0120protect": 7754, "\u0120physical": 7755, "\u0120enterprise": 7756, "\u0120Ge": 7757, "fish": 7758, "\u0120actually": 7759, "62": 7760, "nder": 7761, "\u0120related": 7762, "AD": 7763, "\u0120Car": 7764, "gregation": 7765, "\u0120switch": 7766, "\u0120Cre": 7767, "\u0120Czech": 7768, "\u0120fit": 7769, "\u0120Retrieved": 7770, "\u0120recruit": 7771, "can": 7772, "\u0120den": 7773, "\u0120simply": 7774, "\u00b6": 7775, "\u0120wave": 7776, "\u0120Ki": 7777, "\u0120champion": 7778, "\u0120politics": 7779, "\u0120March": 7780, "\u0120affirm": 7781, "\u0120Education": 7782, "\u0120notion": 7783, "\u01201980": 7784, "\u0120hear": 7785, "\u0120water": 7786, "king": 7787, "\u0120seem": 7788, "wer": 7789, "\u0120April": 7790, "\u0120serve": 7791, "\u0120net": 7792, "\u0120district": 7793, "\u00c2\u00ae": 7794, "ned": 7795, "physical": 7796, "\u0120Light": 7797, "?\u00e2\u0122\u013f": 7798, "row": 7799, "\u0120Sign": 7800, "\u0120revolution": 7801, "his": 7802, "\u0120frequency": 7803, "owing": 7804, "\u0120encouraging": 7805, "\u0120reserved": 7806, "outs": 7807, "\u0120transport": 7808, "ach": 7809, "\u0120Wood": 7810, "ation": 7811, "taining": 7812, "\u0120agency": 7813, "17": 7814, "\u0120fashion": 7815, "\u0120dealing": 7816, "\u0120blog": 7817, "cket": 7818, "\u0120statistics": 7819, "\u0120parliament": 7820, "red": 7821, "\u0120margin": 7822, "\u0120one": 7823, "\u0120nuclear": 7824, "\u0120article": 7825, "\u0120\u00e2": 7826, "\u0120teach": 7827, "\u0120rehabilitation": 7828, "\u0120frequently": 7829, "\u0120read": 7830, "she": 7831, "\u0120Hor": 7832, "of": 7833, "\u0120entering": 7834, "\u0120ce": 7835, "cture": 7836, "\u012050": 7837, "\u0120vol": 7838, "\u0120electricity": 7839, "\u0120dollars": 7840, "Ph": 7841, "\u00aa": 7842, "\u0120CD": 7843, "\u0120der": 7844, "\u0120Ye": 7845, "\u0120followed": 7846, "\u0120usage": 7847, "dge": 7848, "\u0120acid": 7849, "ining": 7850, "\u0120detail": 7851, "orn": 7852, "tric": 7853, "\u0120hero": 7854, "self": 7855, "action": 7856, "\u0120headache": 7857, "\u0120minerals": 7858, "\u0120tissue": 7859, "\u0120he": 7860, "\u0120fix": 7861, "ius": 7862, "b": 7863, "\u0120emergency": 7864, "\u0120oxid": 7865, "\u0120leaves": 7866, "\u0120Mary": 7867, "are": 7868, "ban": 7869, "hr": 7870, "\u0120balance": 7871, "\u0120TO": 7872, "\u0120Baptist": 7873, "\u012040": 7874, "ards": 7875, "55": 7876, "\u0120refer": 7877, "off": 7878, "\u0120lunar": 7879, "\u0120known": 7880, "\u0120responses": 7881, "93": 7882, "\u0120astronom": 7883, "\u0120penetr": 7884, "\u0120Antarctic": 7885, "late": 7886, "\u0120idea": 7887, "\u0120calendar": 7888, "\u0120,": 7889, "\u0120des": 7890, "\u0120reci": 7891, "\u0120legislation": 7892, "\u0120deploy": 7893, "As": 7894, "\u0120Diabetes": 7895, "\u0120primitive": 7896, "\u0120mine": 7897, "\u0120Lab": 7898, "\u00b2": 7899, "\u0120Or": 7900, "\u0120front": 7901, "\u0120indicates": 7902, "generation": 7903, "\u0120II": 7904, "\u0120celebrated": 7905, "\u0120contributing": 7906, "\u0120glass": 7907, "SL": 7908, "\u0120Hawaii": 7909, "\u0120complete": 7910, "\u0120chemotherapy": 7911, "Ac": 7912, "bert": 7913, "\u0120food": 7914, "\u0120Gu": 7915, "TA": 7916, "\u0120organisation": 7917, "\u0120web": 7918, "\u0120bread": 7919, "\u0120Tu": 7920, "42": 7921, "Since": 7922, "\u0120fatigue": 7923, "\u0120Bible": 7924, "\u0120veter": 7925, "\u0120race": 7926, "equ": 7927, "\u0120Ber": 7928, "\u0120attention": 7929, "Fr": 7930, "\u0120engineers": 7931, "\u0120secure": 7932, "\u0120NC": 7933, "\u0120graph": 7934, "\u0120Go": 7935, "\u0120instance": 7936, "\u0120Pittsburgh": 7937, "\u0120Square": 7938, "\u0120Lake": 7939, "\u0120hepatitis": 7940, "\u0120global": 7941, "\u0120privilege": 7942, "May": 7943, "\u0120expressed": 7944, "\u0120watch": 7945, "\u0120CE": 7946, "\u0120want": 7947, "\u0120now": 7948, "ted": 7949, "Gu": 7950, "www": 7951, "\u0120initi": 7952, "\u0120affairs": 7953, "\u0120hat": 7954, "\u0120focuses": 7955, "scular": 7956, "\u0120fifteen": 7957, "\u0120ne": 7958, "other": 7959, "\u0120Special": 7960, "\u0120psych": 7961, "\u0120power": 7962, "54": 7963, "inc": 7964, "\u0120acts": 7965, "\u0120tongue": 7966, "\u0120abolition": 7967, "\u0120couple": 7968, "Definition": 7969, "\u0120emphasis": 7970, "\u0120Canadian": 7971, "\u0120court": 7972, "\u0120commun": 7973, "\u0120powers": 7974, "some": 7975, "\u0120central": 7976, "\u0120artist": 7977, "ho": 7978, "\u0120document": 7979, "\u0120plants": 7980, "\u0120diminish": 7981, "man": 7982, "\u0120registration": 7983, "lated": 7984, "\u0120regions": 7985, "was": 7986, "\u0120eligible": 7987, "\u0120attack": 7988, "\u0120taught": 7989, "\u0120distant": 7990, "\u0120essentially": 7991, "\u0120unnecessary": 7992, "\u0120maps": 7993, "\u0120Inter": 7994, "\u0120major": 7995, "emperature": 7996, "TS": 7997, "\u0120teacher": 7998, "\u0120window": 7999, "mont": 8000, "lm": 8001, "about": 8002, "\u0120Garden": 8003, "\u0120NE": 8004, "\u0120relieve": 8005, "\u0120engage": 8006, "\u0120storm": 8007, "\u0120cause": 8008, "sign": 8009, "\u0120India": 8010, "\u0120hurt": 8011, "\u0120settlement": 8012, "\u0120words": 8013, "\u00c3\u0143": 8014, "\u00e2": 8015, "\u0120subsi": 8016, "\u0120appear": 8017, "\u0120statement": 8018, "\u0120presentation": 8019, "\u00c3\u00b6": 8020, "\u0120concentrate": 8021, "\u0120forces": 8022, "leep": 8023, "\u0120stri": 8024, "closure": 8025, "MP": 8026, "\u0120tea": 8027, "\u0120peace": 8028, "ders": 8029, "\u0120principle": 8030, "\u0120remed": 8031, "\u0120Cap": 8032, "\u0120original": 8033, "\u0120strength": 8034, "\u0120hyper": 8035, "\u0120substantial": 8036, "\u0120exclu": 8037, "\u0120doesn": 8038, "\u0120adapted": 8039, "\u0120properly": 8040, "\u0120green": 8041, "\u0120feathers": 8042, "\u00ab": 8043, "\u0120continue": 8044, "yl": 8045, "br": 8046, "\u0120legislat": 8047, "ized": 8048, "\u0120control": 8049, "\u0120free": 8050, "\u0120trend": 8051, "\u0120army": 8052, "\u0120interest": 8053, "\u0120correlation": 8054, "69": 8055, "\u0120gift": 8056, "ina": 8057, "\u0120AN": 8058, "eb": 8059, "\u0120battle": 8060, "\u0120smoking": 8061, "\u0120danger": 8062, "\u0120ta": 8063, "ald": 8064, "\u0120update": 8065, "\"": 8066, "\u0120atmosphere": 8067, "\u0120obtain": 8068, "SD": 8069, "\u00d0\u00be\u00d0": 8070, "\u0120basis": 8071, "\u0120Animal": 8072, "cial": 8073, "\u0120consumers": 8074, "\u0120wa": 8075, "\u0120occurs": 8076, "inter": 8077, "\u0120Wo": 8078, "\u0120leadership": 8079, "\u0120prepare": 8080, "\u0120imaging": 8081, "\u0120solar": 8082, "\u0120settings": 8083, "than": 8084, "\u0120Air": 8085, "ile": 8086, "\u0120process": 8087, "\u0120elaborate": 8088, "iness": 8089, "\u0120prec": 8090, "\u0120nor": 8091, "\u0120certainly": 8092, "\u0130": 8093, "\u0120Andrew": 8094, "TR": 8095, "\u0120Phil": 8096, "This": 8097, "\u0120universities": 8098, "\u0120virtual": 8099, "\u0120acquired": 8100, "\u0120di": 8101, "bb": 8102, "\u0120suffer": 8103, "\u0120burden": 8104, "DE": 8105, "wards": 8106, "\u0120single": 8107, "\u0120Wilson": 8108, "cell": 8109, "\u0120methods": 8110, "ction": 8111, "\u0120finding": 8112, "\u0120prospe": 8113, "he": 8114, "\u0120type": 8115, "\u0120Lewis": 8116, "\u0120vocabulary": 8117, "\u0120error": 8118, "\u0120Christians": 8119, "\u0120Com": 8120, "\u0120appointed": 8121, "tched": 8122, "\u0120served": 8123, "gged": 8124, "ential": 8125, "\u0120Our": 8126, "\u01201997": 8127, "\u0120Mat": 8128, "\u0120problems": 8129, "cks": 8130, "\u0120silicon": 8131, "\u0120dr": 8132, "egory": 8133, "\u0120essay": 8134, "aw": 8135, "\u0120Buddhist": 8136, "\u012045": 8137, "\u0120meters": 8138, "iting": 8139, "\u0120neither": 8140, "\u0120CI": 8141, "\u0120cat": 8142, "\u0120Area": 8143, "\u0120legs": 8144, "way": 8145, "\u012c": 8146, "\u0120oxygen": 8147, "\u0120recognize": 8148, "\u0120kilo": 8149, "\u0120Indians": 8150, "\u0120rely": 8151, "\u0120dangerous": 8152, "\u0120supreme": 8153, "\u0120book": 8154, "\u0120measured": 8155, "pu": 8156, "\u0120Any": 8157, "ization": 8158, "\u0120large": 8159, "who": 8160, "\u0120Mont": 8161, "ro": 8162, "\u0120Swedish": 8163, "3": 8164, "\u0120Mesopotamia": 8165, "\u0120sitting": 8166, "\u0120UNICEF": 8167, "\u0120merchant": 8168, "sy": 8169, "dent": 8170, "\u0120involves": 8171, "ants": 8172, "\u0120script": 8173, "times": 8174, "Pre": 8175, "cha": 8176, "\u0120For": 8177, "PI": 8178, "pression": 8179, "ene": 8180, "\u0120le": 8181, "\u0120appeal": 8182, "\u0120stand": 8183, "\u0120homosexual": 8184, "\u0120opposed": 8185, "\u0120separation": 8186, "\u0120mild": 8187, "\u0120sound": 8188, "OT": 8189, "\u0120divided": 8190, "\u0120These": 8191}