{"[UNK]": 0, "endoftextbehere": 1, "\u0120eager": 2, "\u0120mysterious": 3, "\u0120shores": 4, "\u0120identifies": 5, "\u0120Matt": 6, "\u0120ponds": 7, "\u0120ke": 8, "\u0120crystal": 9, "\u0120tend": 10, "am": 11, "\u0120associations": 12, "\u0120box": 13, "\u0120neighbors": 14, "ino": 15, "\u0120tor": 16, "\u0120Modern": 17, "\u0120game": 18, "cott": 19, "\u0120ultra": 20, "\u0120enterprises": 21, "\u0120Exhibit": 22, "\u0120transmit": 23, "\u0120extended": 24, "\u0120select": 25, "\u0120oxide": 26, "terrestrial": 27, "\u0120pigment": 28, "\u0120blow": 29, "\u0120Prior": 30, "ckey": 31, "\u0120ble": 32, "\u0120treaty": 33, "\u0120five": 34, "af": 35, "\u0120stands": 36, "human": 37, "\u01201956": 38, "\u0120congregation": 39, "\u0120endless": 40, "\u0120consequences": 41, "nger": 42, "\u0120consumer": 43, "\u0120Ham": 44, "\u0120pin": 45, "\u0120Elementary": 46, "\u0120impose": 47, "qui": 48, "\u0120succeed": 49, "\u0120contacts": 50, "\u0120greenhouse": 51, "\u0120calling": 52, "otic": 53, "\u0120up": 54, "\u0120siege": 55, "\u0120You": 56, "\u0120cure": 57, "\u0120EU": 58, "\u012044": 59, "\u0120deforestation": 60, "cord": 61, "\u0120withstand": 62, "\u0120bottom": 63, "\u0120output": 64, "\u0120bulbs": 65, "\u0120diesel": 66, "\u0120Use": 67, "tery": 68, "\u0120filling": 69, "\u0120love": 70, "\u0120necessarily": 71, "ler": 72, "\u0120newer": 73, "\u0120adjusted": 74, "ist": 75, "\u0120fatal": 76, "\u0120downtown": 77, "duct": 78, "\u0120Advance": 79, "\u0120compliance": 80, "\u0120fellow": 81, "ables": 82, "Ana": 83, "\u0120organisms": 84, "building": 85, "\u0120aerial": 86, "\u0120prolific": 87, "icides": 88, "hold": 89, "\u0120odd": 90, "\u0120alkal": 91, "\u0120Cri": 92, "\u0120mapping": 93, "2003": 94, "\u0120prone": 95, "mental": 96, "\u0120pull": 97, "\u0120illustrated": 98, "\u0120Thanks": 99, "\u0120Healthwise": 100, "\u0120arriving": 101, "\u0120breeds": 102, "management": 103, "\u0120publisher": 104, "\u0120traditionally": 105, "\u0120Seattle": 106, "\u0120po": 107, "\u0120IN": 108, "\u0120Episcopal": 109, "interpret": 110, "\u0120par": 111, "sheet": 112, "\u0120PTSD": 113, "\u0120slides": 114, "\u0120Of": 115, "\u0120Ms": 116, "\u0120thrust": 117, "\u0120achievements": 118, "\u0120vac": 119, "from": 120, "\u0120responsible": 121, "Car": 122, "\u01201850": 123, "\u0120Greece": 124, "\u0120directed": 125, "\u0120intolerance": 126, "\u0120alleged": 127, "\u0120Pop": 128, "acre": 129, "\u0120reflection": 130, "\u0120chose": 131, "\u0120Americas": 132, "\u0120particulate": 133, "\u0120Laboratories": 134, "\u0120attending": 135, "\u0120Nuclear": 136, "\u0120outdoors": 137, "activity": 138, "\u0120movie": 139, "\u0120multi": 140, "RNA": 141, "\u0120intention": 142, "\u0120lifetime": 143, "Search": 144, "\u0120Railroad": 145, "\u0120sketch": 146, "\u0120Czechoslovakia": 147, "\u0120editor": 148, "\u0120inhibit": 149, "\u0120Caribbean": 150, "\u0120rev": 151, "According": 152, "\u0120novels": 153, "\u0120shoot": 154, "\u0120appeared": 155, "\u0120aids": 156, "\u0120building": 157, "\u0120jump": 158, "tically": 159, "owned": 160, "\u0120Philadelphia": 161, "\u0120measurement": 162, "\u0120Stat": 163, "EP": 164, "\u0120Can": 165, "\u0120unclear": 166, "\u0120revealed": 167, "\u0120inhal": 168, "\u0120repeated": 169, "\u0120Research": 170, "yer": 171, "\u0120a": 172, "\u0120although": 173, "\u0120Lakes": 174, "\u0120rectangle": 175, "\u0120setting": 176, "\u0120violation": 177, "\u0120cycles": 178, "\u0120summary": 179, "Book": 180, "2012": 181, "\u0120Performance": 182, "gging": 183, "old": 184, "\u0120limited": 185, "\u0120Without": 186, "\u0120Published": 187, "\u0120uncommon": 188, "\u0120advance": 189, "\u0120sources": 190, "\u0120taxpayers": 191, "\u0120painted": 192, "often": 193, "\u0120neurons": 194, "\u0120Arch": 195, "\u0120Rat": 196, "\u0120adding": 197, "\u0120recycling": 198, "\u0120Boeing": 199, "\u0120Little": 200, "\u0120church": 201, "och": 202, "\u0120T": 203, "\u0120author": 204, "\u0120harvest": 205, "\u0120associate": 206, "\u0120List": 207, "\u0120encountered": 208, "ats": 209, "\u0120TB": 210, "\u0120check": 211, "\u0120boards": 212, "\u0120celebration": 213, "\u0120PL": 214, "\u0120Robin": 215, "\u0120Mag": 216, "\u0120parents": 217, "ssion": 218, "\u0120highlight": 219, "\u0120message": 220, "\u00f0": 221, "\u0120Colonel": 222, "African": 223, "\u0120biodegradable": 224, "\u0120characters": 225, "\u0120Alan": 226, "\u0120mimic": 227, "\u0120threshold": 228, "style": 229, "\u0120duty": 230, "\u0120letting": 231, "\u0120Argentine": 232, "\u0120Activities": 233, "\u0120thrive": 234, "\u0120but": 235, "ulous": 236, "\u012025": 237, "RM": 238, "\u0120triglyceride": 239, "\u0120fundamental": 240, "\u0120|": 241, "\u0120advise": 242, "\u0120astronomers": 243, "\u0120abolish": 244, "ware": 245, "\u0120glaucoma": 246, "\u00d5": 247, "\u0120soda": 248, "esteem": 249, "\u01201971": 250, "\u0120Genesis": 251, "\u0120quite": 252, "\u0120unstable": 253, "Is": 254, "\u0120contains": 255, "daughter": 256, "particularly": 257, "\u0120rapidly": 258, "\u0120browser": 259, "\u0120inhibitors": 260, "\u0120foliage": 261, "\u0120ba": 262, "\u0120displayed": 263, "ship": 264, "Their": 265, "\u0120Jacques": 266, "\u0120poly": 267, "\u012078": 268, "\u0120irreversible": 269, "ulated": 270, "an": 271, "\u0120Movement": 272, "\u0120CF": 273, "\u0120Lau": 274, "\u0120bra": 275, "ela": 276, "\u0120Tim": 277, "giving": 278, "\u0120mosaic": 279, "\u0120ho": 280, "\u0120@": 281, "\u0120libraries": 282, "\u0120boundaries": 283, "\u0120sixty": 284, "\u0120Territory": 285, "Cy": 286, "\u0120clusters": 287, "\u0120Star": 288, "\u0120Seoul": 289, "\u0120epi": 290, "\u0120Galile": 291, "\u0120MIT": 292, "\u0120inferior": 293, "Participants": 294, "\u0120kindergarten": 295, "\u0120Alliance": 296, "sley": 297, "inus": 298, "\u0120housing": 299, "fulness": 300, "icles": 301, "\u0120>": 302, "dies": 303, "Also": 304, "\u0120consecutive": 305, "\u0120committed": 306, "\u0120puppet": 307, "yn": 308, "\u0120sees": 309, "ens": 310, "\u0120migra": 311, "stage": 312, "\u0120Master": 313, "\u0120embarrass": 314, "\u0120secondary": 315, "\u0120Fahrenheit": 316, "\u0120though": 317, "roll": 318, "\u0120compiler": 319, "arily": 320, "\u0120activity": 321, "\u0120industry": 322, "\u0120Natchez": 323, "\u0120joy": 324, "\u0120synchron": 325, "\u0120Crown": 326, "\u0120literally": 327, "\u0120clinical": 328, "\u0120awful": 329, "a": 330, "61": 331, "ash": 332, "nies": 333, "\u0120encompass": 334, "\u0120slightly": 335, "\u0120mistakes": 336, "\u01202": 337, "\u0120Sports": 338, "\u0120facts": 339, "bor": 340, "\u0120providers": 341, "\u0120issued": 342, "\u0120metres": 343, "ocabulary": 344, "\u0120Christian": 345, "For": 346, "fr": 347, "\u0120Database": 348, "\u0120unusually": 349, "\u0120organizations": 350, "\u0120Saint": 351, "\u0120Battalion": 352, "\u0120AL": 353, "\u0120memory": 354, "itis": 355, "\u0120attracted": 356, "\u0120declined": 357, "ates": 358, "\u0120top": 359, "\u0120drops": 360, "\u0120arguments": 361, "\u0120scaffold": 362, "_": 363, "easurable": 364, "CE": 365, "'": 366, "\u0120voltage": 367, "\u01201933": 368, "\u0120bomb": 369, "\".": 370, "\u0120coding": 371, "cology": 372, "\u0120yearly": 373, "\u0120Injury": 374, "\u0120air": 375, "CD": 376, "Li": 377, "\u0120Proceedings": 378, "\u0120harmon": 379, "\u0120colonial": 380, "lem": 381, "Ni": 382, "duction": 383, "\u0126": 384, "\u0120discomfort": 385, "\u0120pulmonary": 386, "\u0120adhesive": 387, "\u0120hunt": 388, "\u0120held": 389, "\u0120Citizen": 390, "\u0120mosquito": 391, "Only": 392, "\u0120Brad": 393, "vies": 394, "\u0120doomed": 395, "\u0120explanations": 396, "\u0120li": 397, "\u0120shelves": 398, "\u0120prop": 399, "\u0120Pass": 400, "\u0120Gh": 401, "\u0120household": 402, "\u0120documentary": 403, "\u0120paragraph": 404, "\u00d8\u00a7": 405, "\u0120despite": 406, "\u0120meaning": 407, "\u0120correctly": 408, "\u0120slopes": 409, "Edit": 410, "Author": 411, "\u0120inexpensive": 412, "ativity": 413, "\u0120\u00e2\u0122\u013e": 414, "\u0120outweigh": 415, "\u0120teachers": 416, "\u0120inputs": 417, "\u0120Edinburgh": 418, "83": 419, "\u0120not": 420, "\u0120regardless": 421, "8": 422, "\u0120Bolshevik": 423, "\u0120dietary": 424, "\u0120gentle": 425, "\u0120companies": 426, "\u0120pneumonia": 427, "\u0120categories": 428, "NA": 429, "\u0120Having": 430, "\u0120confinement": 431, "\u0120flower": 432, "\u0120offer": 433, "\u0120Wales": 434, "\u0120poultry": 435, "ING": 436, "\u01201988": 437, "\u0120homo": 438, "\u0120routine": 439, "\u0120technique": 440, "sources": 441, "\u0120acceleration": 442, "\u0120HTML": 443, "\u0120periodic": 444, "\u0120originally": 445, "\u0120try": 446, "\u0120sac": 447, "\u0120explain": 448, "\u0120conversations": 449, "\u0120Lo": 450, "\u0120replied": 451, "\u0120millions": 452, "\u0120Bismarck": 453, "\u0120assistant": 454, "\u0120yesterday": 455, "\u0120intellectual": 456, "\u0120cohort": 457, "\u0120Wikipedia": 458, "\u0120collaborative": 459, "\u0120coating": 460, "\u0120integral": 461, "Ex": 462, "\u0120agriculture": 463, "\u0120back": 464, "\u0120bio": 465, "\u0120don": 466, "\u0120garlic": 467, "\u0120fifth": 468, "\u0120Hospital": 469, "\u0120cumulative": 470, "\u0120damaged": 471, "meters": 472, "\u0120Wolf": 473, "\u0120walk": 474, "\u0120caps": 475, "\u0120photosynthesis": 476, "reading": 477, "h": 478, "\u0120processes": 479, "\u0120atomic": 480, "ulatory": 481, "\u0120fluorescence": 482, "ries": 483, "ament": 484, "\u0120Lee": 485, "\u0120wrote": 486, "\u0120commitment": 487, "\u0120Round": 488, "ix": 489, "\u0120Ass": 490, "\u0120bring": 491, "\u0120serum": 492, "\u0120lengths": 493, "journ": 494, "ddle": 495, "Get": 496, "\u0120enjoy": 497, "grass": 498, "\u0120Tour": 499, "\u0120consisted": 500, "\u0120sisters": 501, "atures": 502, "\u0120\"": 503, "\u0120email": 504, "\u0120rub": 505, "\u0120supplied": 506, "\u0120consensus": 507, "\u0120Rock": 508, "\u0120inv": 509, "Un": 510, "NF": 511, "\u0120standing": 512, "infected": 513, "\u0120insect": 514, "\u0120performed": 515, "Recent": 516, "\u0120early": 517, "\u01201965": 518, "\u0120humanity": 519, "\u0120concepts": 520, "\u0120expectations": 521, "\u0120Auschwitz": 522, "\u0120Standards": 523, "\u0120Visual": 524, "\u0120call": 525, "\u0120Aaron": 526, "\u0120Pakistan": 527, "\u0120viable": 528, "\u0120Court": 529, "\u0120alpha": 530, "Official": 531, "\u0120Ps": 532, "\u0120rhetoric": 533, "\u0120customers": 534, "\u0120addresses": 535, "\u0120Integ": 536, "\u0120bringing": 537, "\u0120cleaner": 538, "\u0120IBM": 539, "\u0120depict": 540, "\u0120hemisphere": 541, "\u0120ecosystem": 542, "\u0120birth": 543, "\u0120spi": 544, "\u0120That": 545, "\u0120turns": 546, "\u0120inhabitants": 547, "\u0120identification": 548, "\u01201954": 549, "\u0120silk": 550, "\u0120Def": 551, "\u0120Road": 552, "\u0120sweep": 553, "\u0120lunch": 554, "92": 555, "\u0120gallery": 556, "\u0120trench": 557, "\u0120surgeon": 558, "\u0120chambers": 559, "\u0120agents": 560, "\u0120outbreaks": 561, "mps": 562, "\u0120districts": 563, "\u00e2\u0122\u00b2": 564, "\u0120prejudice": 565, "\u0120unfair": 566, "\u0120Faith": 567, "\u0120cultural": 568, "\u0120Approach": 569, "ures": 570, "\u0120valve": 571, "\u0120pan": 572, "\u0120accused": 573, "pus": 574, "unsaturated": 575, "\u0120Italian": 576, "\u0120teenagers": 577, "ain": 578, "\u0120telephone": 579, "\u0120Covenant": 580, "\u0120Railway": 581, "\u0120owner": 582, "\u0120accomplish": 583, "\u0120explores": 584, "ive": 585, "Nor": 586, "\u0120spell": 587, "\u0120suspended": 588, "\u0120USB": 589, "eks": 590, "\u0120ensure": 591, "\u0120Get": 592, "\u0120Cameron": 593, "\u0120build": 594, "mony": 595, "\u0120reason": 596, "\u0120therapy": 597, "\u0120estimated": 598, "\u0120leading": 599, "\u0120disciples": 600, "\u0120Head": 601, "\u0120lubric": 602, "\u0120yet": 603, "\u0120Bulgaria": 604, "\u0120trans": 605, "\u01201903": 606, "\u0120Athens": 607, "\u0120disappoint": 608, "\u0120quantities": 609, "lies": 610, "\u0120increasing": 611, "\u0120possess": 612, "\u0120Turn": 613, "\u0120harm": 614, "\u0120doctor": 615, "\u0120No": 616, "\u0120copper": 617, "\u0120Wright": 618, "\u0120Aphrodite": 619, "\u0120Dick": 620, "United": 621, "\u0120influenza": 622, "\u0120caregivers": 623, "llow": 624, "\u0120relatives": 625, "adian": 626, "\u0120went": 627, "\u0120confirm": 628, "\u0120rebel": 629, "Charles": 630, "rst": 631, "\u0120followers": 632, "\u0120Senior": 633, "\u0120recommend": 634, "\u0120Pope": 635, "ev": 636, "inated": 637, "School": 638, "\u0120park": 639, "\u0120stomach": 640, "bar": 641, "04": 642, "\u01201934": 643, "\u0120str": 644, "\u0120Illustr": 645, "\u0120revealing": 646, "led": 647, "\u00cc": 648, "There": 649, "tes": 650, "\u0120differ": 651, "\u0120affect": 652, "ank": 653, "\u012014": 654, "lived": 655, "\u0120pharmac": 656, "\u0120museum": 657, "\u0120Army": 658, "\u0120separated": 659, "\u0120recover": 660, "\u0120civilian": 661, "\u0120intervals": 662, "\u0120electro": 663, "usive": 664, "\u0120Sept": 665, "\u0120arrangement": 666, "productive": 667, "\u0120dozens": 668, "\u0120note": 669, "\u0120cast": 670, "\u0120annually": 671, "\u0120narrow": 672, "\u0120emphasizes": 673, "\u0120Maps": 674, "\u0120rats": 675, "ems": 676, "\u0120RNA": 677, "lam": 678, "OH": 679, "\u0120lived": 680, "rence": 681, "\u0120got": 682, "\u0120virtue": 683, "\u0120formats": 684, "\u0120segregated": 685, "\u0120achievable": 686, "century": 687, "ulator": 688, "oper": 689, "\u00d0\u00b5\u00d0": 690, "\u0120ceramic": 691, "lip": 692, "\u0120Growth": 693, "\u0120ni": 694, "\u0120mitochondria": 695, "\u0120focused": 696, "ally": 697, "\u0120consolida": 698, "\u0120anchor": 699, "\u0120tri": 700, "stles": 701, "\u0120RO": 702, "\u0120Construction": 703, "\u0120slope": 704, "\u0120Carnegie": 705, "\u0120Very": 706, "\u0120belief": 707, "\u0120terminology": 708, "\u0120recommends": 709, "\u0120perceptions": 710, "\u0120directions": 711, "\u0120marble": 712, "\u0120traveling": 713, "\u0120Jo": 714, "\u0120ident": 715, "\u00c3\u00b4": 716, "\u0120item": 717, "\u0120phase": 718, "\u0120astronomy": 719, "hood": 720, "\u0120Branch": 721, "\u0120improper": 722, "\u0120fractures": 723, "\u0120explanation": 724, "\u0120sort": 725, "\u0120Those": 726, "\u0120characteristic": 727, "Abstract": 728, "C": 729, "\u0120hostile": 730, "bic": 731, "\u0120digest": 732, "\u0120View": 733, "\u0120conception": 734, "\u0120deficit": 735, "\u0120roof": 736, "\u0120potassium": 737, "BM": 738, "mer": 739, "BC": 740, "\u00d1\u0123": 741, "this": 742, "ified": 743, "That": 744, "\u0120priorities": 745, "\u0120Connecticut": 746, "\u0120farmers": 747, "ope": 748, "\u0120Cell": 749, "\u0120Atlantic": 750, "\u0120scattered": 751, "\u0120cataract": 752, "Well": 753, "\u0120attendance": 754, "\u0120600": 755, "\u0120practitioners": 756, "\u0120Policy": 757, "\u0120inscription": 758, "\u0120Editor": 759, "\u0120breeding": 760, "\u0120expression": 761, "\u0120statements": 762, "\u0120Digest": 763, "\u0120pollen": 764, "\u0120himself": 765, "\u0120insomnia": 766, "Mi": 767, "Ke": 768, "\u0120nonetheless": 769, "Question": 770, "usion": 771, "\u0120Africa": 772, "\u0120outlines": 773, "stones": 774, "\u0120resolve": 775, "\u0120Dal": 776, "\u0120extend": 777, "\u0120protective": 778, "\u0120Street": 779, "\u0120dictionaries": 780, "\u0120reimburse": 781, "\u0120composite": 782, "htm": 783, "\u0120activate": 784, "R": 785, "\u0120lawyer": 786, "cussion": 787, "uc": 788, "\u0120mostly": 789, "\u0120evidence": 790, "sm": 791, "\u0120denial": 792, "\u0120Senate": 793, "\u0120Talmud": 794, "\u0120documents": 795, "sson": 796, "\u0120fallen": 797, "Human": 798, "\u0120arrive": 799, "\u0120conscious": 800, "\u0120monitor": 801, "\u0120our": 802, "\u0120described": 803, "\u0120change": 804, "\u0120Americans": 805, "\u0120Carbon": 806, "\u0120Captain": 807, "OLOGY": 808, "\u0120Direct": 809, "\u0120quadr": 810, "ifier": 811, "\u0120Winter": 812, "\u0120children": 813, "\u0120rep": 814, "\u0120competitors": 815, "Cu": 816, "\u0120Don": 817, "oke": 818, "\u0120concrete": 819, "\u0120modeling": 820, "\u0120provisions": 821, "\u0120Plants": 822, "\u0120nose": 823, ".|": 824, "\u0120extreme": 825, "\u0120Challenge": 826, "\u0120determines": 827, "\u0120contemp": 828, "\u0120drove": 829, "\u0120Ther": 830, "protect": 831, "\u0120exempl": 832, "\u0120Respon": 833, "\u0120Need": 834, ">.": 835, "\u0120garden": 836, "\u0120boys": 837, "q": 838, "\u0120atoms": 839, "\u0120friendly": 840, "logical": 841, "\u0120realized": 842, "\u0120ha": 843, "\u0120status": 844, "Fortunately": 845, "\u0120ink": 846, "ke": 847, "9": 848, "Top": 849, "Can": 850, "\u0120changes": 851, "\u0120through": 852, "\u0120journalist": 853, "\u0120Tennessee": 854, "\u0120revi": 855, "Learning": 856, "\u0120best": 857, "\u0120terrible": 858, "\u0120acquire": 859, "Electr": 860, "\u0120Excellence": 861, "\u0120physiological": 862, "iate": 863, "\u0120nuclei": 864, "Learn": 865, "\u0120coup": 866, "\u0120Festival": 867, "\u0120migratory": 868, "propriate": 869, "\u0120Luther": 870, "\u0120requested": 871, "\u01201863": 872, "\u0120Science": 873, "\u0120syrup": 874, "\u0120Version": 875, "\u0120es": 876, "\u0120aforementioned": 877, "\u0141": 878, "\u0120economic": 879, "\u0120safe": 880, "\u0120Ottoman": 881, "\u0120Green": 882, "iatric": 883, "\u0120Field": 884, "\u0120interesting": 885, "TT": 886, "\u0120operational": 887, "\u0120mammals": 888, "\u0120earthquakes": 889, "Source": 890, "ssels": 891, "product": 892, "\u0120professor": 893, "L": 894, "\u0120EC": 895, "\u0120Arts": 896, "\u0120degree": 897, "\u0120scientists": 898, "\u0120restoration": 899, "\u0120installation": 900, "\u0120diver": 901, "cul": 902, "ification": 903, "\u0120aluminium": 904, "38": 905, "\u0120diverse": 906, "mor": 907, "\u0120cruise": 908, "\u0120William": 909, "\u0120analyzed": 910, "\u0120painting": 911, "\u01201905": 912, "\u0120mangrove": 913, "\u0120g": 914, "\u0120melatonin": 915, "\u0120computers": 916, "\u0120ex": 917, "\u0120notorious": 918, "\u0120lay": 919, "\u0120shallow": 920, "\u0120functionality": 921, "\u0120pr": 922, "nted": 923, "\u0120Contin": 924, "\u0120prisoners": 925, "\u0120wants": 926, "\u0120prints": 927, "ox": 928, "\u0120correlated": 929, "\u0120blame": 930, "\u0120Last": 931, "\u0120coincide": 932, "\u0120Edward": 933, "\u0120Campaign": 934, "\u0120connections": 935, "\u0120utility": 936, "\u0120Company": 937, "bis": 938, "\u0120orthodox": 939, "\u0120step": 940, "\u0120academic": 941, "\u0120Atlanta": 942, "RT": 943, "\u0120comprehensive": 944, "\u0120out": 945, "pos": 946, "\u0120Genetics": 947, "ments": 948, "\u01201947": 949, "\u0120prescription": 950, "shed": 951, "\u0120transplant": 952, "ples": 953, "iasis": 954, "\u0120metabolism": 955, "\u01201977": 956, "ag": 957, "\u0120obtained": 958, "\u0120Gib": 959, "nine": 960, "ji": 961, "\u0120Ministry": 962, "\u0120expanding": 963, "\u0120layout": 964, "\u0120360": 965, "\u0120rituals": 966, "\u0120rooms": 967, "\u0120grapefruit": 968, "\u0120oversee": 969, "\u0120Berlin": 970, "\u0120sizes": 971, "\u0120Afghan": 972, "\u0120neutrino": 973, "Ma": 974, "\u0120Grant": 975, "hea": 976, "spective": 977, "cent": 978, "\u0120sad": 979, "\u0120Natural": 980, "\u0120submarine": 981, "\u0120neural": 982, "\u0120binary": 983, "\u0120quo": 984, "parent": 985, "id": 986, "\u0120as": 987, "\u0120robust": 988, "\u0120outline": 989, "\u0120armed": 990, "\u0120abnormal": 991, "\u0120no": 992, "\u0120It": 993, "their": 994, "\u0120afraid": 995, "\u0120Federation": 996, "\u0120feature": 997, "\u0120buying": 998, "where": 999, "\u0120Does": 1000, "\u0120surely": 1001, "Make": 1002, "\u0120sufficient": 1003, "\u0120Brook": 1004, "\u0120Educational": 1005, "\u0120offense": 1006, "\u0120Ezra": 1007, "\u0120artificial": 1008, "\u0120bills": 1009, "generative": 1010, "\u0120curved": 1011, "\u0120sentiment": 1012, "\u0120overhead": 1013, "pox": 1014, "\u0120cognition": 1015, "\u0120Measure": 1016, "Google": 1017, "dle": 1018, "\u0120cameras": 1019, "\u0120Ant": 1020, "public": 1021, "\u0120simulation": 1022, "\u0120alongside": 1023, "tting": 1024, "\u0120short": 1025, "\u0120Summer": 1026, "\u0120essays": 1027, "nth": 1028, "oo": 1029, "\u0120labeled": 1030, "\u0120Ice": 1031, "\u0120neurotransmitter": 1032, "\u0120entity": 1033, "traditional": 1034, "\u0120Grade": 1035, "\u0120complexity": 1036, "\u0120Near": 1037, "\u0120appearing": 1038, "\u0120corporate": 1039, "ran": 1040, "\u0120layer": 1041, "\u0120Am": 1042, "\u0120dropped": 1043, "black": 1044, "\u0120Economy": 1045, "\u0120distinct": 1046, "\u0120Brazil": 1047, "\u0120prisoner": 1048, "\u0120neutron": 1049, "\u0120lateral": 1050, "\u0120discuss": 1051, "lion": 1052, "nan": 1053, "ort": 1054, "\u0120habitats": 1055, "\u0120stuck": 1056, "\u0120canopy": 1057, "\u0120daunting": 1058, "\u0120dinosaur": 1059, "\u0120ridge": 1060, "\u0120Carter": 1061, "\u0120geographic": 1062, "\u0120Palestine": 1063, "\u0120thereof": 1064, "\u0120Trust": 1065, "One": 1066, "\u0120recalled": 1067, "\u0120continuing": 1068, "41": 1069, "pass": 1070, "\u0120Mrs": 1071, "production": 1072, "HR": 1073, "\u0120below": 1074, "EC": 1075, "active": 1076, "\u0120dolphin": 1077, "\u0120Saunders": 1078, "82": 1079, "\u0120advocacy": 1080, "\u0120yards": 1081, "\u0120globally": 1082, "\u0120directly": 1083, "ffe": 1084, "\u00a6": 1085, "\u0120Credit": 1086, "03": 1087, "\u0120exhibition": 1088, "\u0120abdomen": 1089, "\u0120conventions": 1090, "\u0120Isaac": 1091, "\u0120lesions": 1092, "ec": 1093, "\u0120fund": 1094, "\u0120smooth": 1095, "\u0120irritation": 1096, "\u0120Ludwig": 1097, "\u0120weapon": 1098, "Nu": 1099, "\u0120telescope": 1100, "\u0120Peninsula": 1101, "pt": 1102, "\u0120battles": 1103, "\u0120spots": 1104, "Fran\u00c3\u00a7ois": 1105, "\u0120civil": 1106, "\u0120roots": 1107, "\u0120phenomena": 1108, "\u0120fresh": 1109, "\u0120fired": 1110, "\u0120favour": 1111, "\u0120AC": 1112, "\u0120folks": 1113, "\u0120marry": 1114, "Modern": 1115, "sponsored": 1116, "\u0120Monday": 1117, "ion": 1118, "\u0120intens": 1119, "\u0120live": 1120, "\u0120local": 1121, "\u0120Cincinnati": 1122, "\u0120plu": 1123, "\u0120echo": 1124, "\u0120conversion": 1125, "\u0120fish": 1126, "\u0120dozen": 1127, "sion": 1128, "\u0120bombs": 1129, "\u0120embryo": 1130, "\u0120Sustainable": 1131, "\u0120Bar": 1132, "ups": 1133, "ways": 1134, "\u0120continents": 1135, "\u0120Current": 1136, "\u0120humans": 1137, "\u0120unprecedented": 1138, "\u0120Jer": 1139, "\u0120Mal": 1140, "\u0120Kin": 1141, "\u0120\u00e2\u0122\u013f": 1142, "\u0120referred": 1143, "\u0120precursor": 1144, "\u01201993": 1145, "berry": 1146, "\u0120agreed": 1147, "\u0120illustration": 1148, "GE": 1149, "VI": 1150, "\u0120lady": 1151, "\u0120Sources": 1152, "\u00df": 1153, "\u0120ingredients": 1154, "matic": 1155, "\u0120speeds": 1156, "\u0120University": 1157, "\u0120hydraulic": 1158, "\u0120reass": 1159, "\u01201968": 1160, "\u0120period": 1161, "\u0120Experiment": 1162, "\u0120pressing": 1163, "State": 1164, "\u0120should": 1165, "war": 1166, "\u0120rope": 1167, "\u0120hole": 1168, "mount": 1169, "National": 1170, "\u0120house": 1171, "vings": 1172, "or": 1173, "\u0120carried": 1174, "\u0120elite": 1175, "Ne": 1176, "\u0120hell": 1177, "\u0120united": 1178, "\u0120N": 1179, "\u0120Catholic": 1180, "\u0120sits": 1181, "kk": 1182, "OK": 1183, "ttered": 1184, "\u0120Lock": 1185, "\u0120Traffic": 1186, "\u0120expansion": 1187, "\u012090": 1188, "\u0120movies": 1189, "\u0120draws": 1190, "\u0120my": 1191, "\u0120gaps": 1192, "\u0120mainly": 1193, "\u0120tilt": 1194, "anc": 1195, "Coll": 1196, "third": 1197, "\u0120reveals": 1198, "\u0120Es": 1199, "Na": 1200, "\u0120strike": 1201, "\u0120pilots": 1202, "\u0120fruit": 1203, "\u0120cemetery": 1204, "\u0120ensuring": 1205, "\u0120adjustment": 1206, "\u0120antioxidant": 1207, "\u0120subsistence": 1208, "\u0120in": 1209, "\u00d0\u00b5": 1210, "\u0120mountains": 1211, "\u0120predecessor": 1212, "\u0120coverage": 1213, "\u0120Springs": 1214, "\u0120virus": 1215, "\u0120saving": 1216, "\u0120publicly": 1217, "\u00e2\u0122\u0136": 1218, "\u0120introductory": 1219, "\u0120manganese": 1220, "\u0120Gazette": 1221, "\u0120Hob": 1222, "\u0120pumping": 1223, "\u0120gallons": 1224, "\u0120Full": 1225, "tts": 1226, "\u0120bundle": 1227, "\u0120models": 1228, "\u0120fits": 1229, "\u0120abortion": 1230, "vern": 1231, "\u0120bilingual": 1232, "ampton": 1233, "\u0120reveal": 1234, "32": 1235, "\u0120Arab": 1236, "\u0120voyage": 1237, "\u0120adopted": 1238, "OG": 1239, "\u0120tragedy": 1240, "\u0120hold": 1241, "\u0120authentic": 1242, "\u0120Endangered": 1243, "dr": 1244, "\u0120latter": 1245, "sible": 1246, "S": 1247, "\u0120livelihood": 1248, "\u0120Archives": 1249, "WE": 1250, "piece": 1251, "\u0120medicine": 1252, "\u0120dismissed": 1253, "ider": 1254, "\u0120discharge": 1255, "\u0120blessing": 1256, "\u0120initiate": 1257, "\u0120ple": 1258, "\u0120maintain": 1259, "\u0120numbers": 1260, "\u0120bli": 1261, "\u0120Investiga": 1262, "\u0120extensive": 1263, "\u0120diversity": 1264, "\u0120easily": 1265, "Fl": 1266, "Ve": 1267, "\u0120associated": 1268, "ferred": 1269, "mar": 1270, "\u0120gates": 1271, "\u0120Communications": 1272, "Until": 1273, "oping": 1274, "\u0120dispens": 1275, "\u0120utter": 1276, "\u0120Further": 1277, "\u0120tower": 1278, "\u0120EPA": 1279, "mouth": 1280, "\u0120Tropical": 1281, "ibly": 1282, "\u0120insert": 1283, "\u013a": 1284, "\u0120sight": 1285, "\u0120human": 1286, "\u0120employer": 1287, "\u0120Policies": 1288, "\u0120domain": 1289, "\u012074": 1290, "\u0120Prime": 1291, "\u0120carbohydrates": 1292, "\u0120Sexual": 1293, "lined": 1294, "\u0120yard": 1295, "\u0120Puerto": 1296, "\u0120distinction": 1297, "vo": 1298, "\u0120rocky": 1299, "cer": 1300, "\u0120bowel": 1301, "eds": 1302, "\u0120bullying": 1303, "\u0120assigned": 1304, "\u0120advertising": 1305, "\u0120combinations": 1306, "\u0120soon": 1307, "nett": 1308, "\u0120dramatically": 1309, "oy": 1310, "0": 1311, "\u0120classical": 1312, "\u0120diarrhoea": 1313, "\u0120Italy": 1314, "\u0120referring": 1315, "\u0120topics": 1316, "\u0120viewing": 1317, "\u0120selected": 1318, "\u0120weights": 1319, "\u0120toes": 1320, "\u0120peninsula": 1321, "\u0120furnish": 1322, "\u012057": 1323, "\u0120hills": 1324, "\u0120documentation": 1325, "\u0120third": 1326, "\u0120consciousness": 1327, "\u0120marking": 1328, "\u0120detectors": 1329, "Ge": 1330, "uff": 1331, "\u0120pedestrian": 1332, "\u0120officer": 1333, "\u0120mis": 1334, "\u0120Rocky": 1335, "\u0120coupled": 1336, "\u0120succeeded": 1337, "obe": 1338, "\u0120worth": 1339, "\u0120Montana": 1340, "\u0120dispers": 1341, "\u0120immense": 1342, "\u0120pal": 1343, "\u0120fiber": 1344, "\u0120key": 1345, "\u0120DNA": 1346, "\u0120definite": 1347, "\u0120east": 1348, "Dia": 1349, "\u0120waterfowl": 1350, "\u0120after": 1351, "\u0120taste": 1352, "\u0120Metro": 1353, "\u0120VII": 1354, "2004": 1355, "\u0120communication": 1356, "\u0120thunder": 1357, "\u0120ready": 1358, "onic": 1359, "\u0120log": 1360, "\u0120adolescent": 1361, "\u0120holes": 1362, "\u0120is": 1363, "courage": 1364, "\u0120Ay": 1365, "\u0120researchers": 1366, "\u01201973": 1367, "\u0120Sh": 1368, "although": 1369, "\u0120Administration": 1370, "\u012048": 1371, "\u0120PR": 1372, "\u0120ca": 1373, "tal": 1374, "\u0120accounting": 1375, "\u0120complain": 1376, "\u0120buffalo": 1377, "\u0120Northeast": 1378, "\u0120album": 1379, "\u0120Statistics": 1380, "\u0120cu": 1381, "\u0120click": 1382, "ographical": 1383, "\u0120Slav": 1384, "est": 1385, "\u0120liberation": 1386, "\u0120common": 1387, "\u0120job": 1388, "\u0120Economic": 1389, "\u0120surgery": 1390, "\u0120gathering": 1391, "\u0120suggestions": 1392, "\u0120Electro": 1393, "\u0120Kl": 1394, "\u0120nomin": 1395, "\u0120thereafter": 1396, "\u0120vulnerability": 1397, "\u0120necessary": 1398, "\u0120gospel": 1399, "\u0120implement": 1400, "\u0120gene": 1401, "ils": 1402, "\u0120which": 1403, "\u0120northeast": 1404, "\u0120then": 1405, "\u0120wait": 1406, "\u0120communities": 1407, "\u0120Democratic": 1408, "acher": 1409, "\u0120Food": 1410, "\u0120diagnostic": 1411, "phosph": 1412, "ims": 1413, "point": 1414, "\u0120spot": 1415, "\u0120Campylobacter": 1416, "\u0120commodity": 1417, "\u0120trained": 1418, "types": 1419, "\u0120Box": 1420, "\u0120rejected": 1421, "\u0120Libraries": 1422, "\u0120adapt": 1423, "\u0120middle": 1424, "\u0120Rica": 1425, "Proverbs": 1426, "\u0120officials": 1427, "\u0120Humphrey": 1428, "\u0120rule": 1429, "\u0120monsoon": 1430, "Cent": 1431, "Many": 1432, "\u0120G": 1433, "\u0120depths": 1434, "\u0120electrical": 1435, "June": 1436, "\u0120marker": 1437, "\u0120disregard": 1438, "\u0120popul": 1439, "\u0120officers": 1440, "chlor": 1441, "\u0120Spirit": 1442, "these": 1443, "\u0120One": 1444, "\u0120any": 1445, "\u0120Nashville": 1446, "\u0120covered": 1447, "\u0120core": 1448, "\u0120pulses": 1449, "minded": 1450, "\u0120Gothic": 1451, "\u0120sarcoma": 1452, "\u0120XX": 1453, "\u0120Base": 1454, "\u0120Effects": 1455, "\u0120camp": 1456, "\u0120diets": 1457, "\u0120chromosome": 1458, "VER": 1459, "ep": 1460, "\u0120adolescents": 1461, "\u0120big": 1462, "\u0120satisfied": 1463, "\u0120specify": 1464, "\u0120souls": 1465, "24": 1466, "\u0120hope": 1467, "fast": 1468, "\u0120region": 1469, "\u0120dose": 1470, "\u0120requirement": 1471, "\u0120Program": 1472, "angled": 1473, "\u0120Cyprus": 1474, "Contact": 1475, "\u0120messenger": 1476, "\u0120>>": 1477, "\u0120archives": 1478, "\u0120impaired": 1479, "\u0120plains": 1480, "\u0120Report": 1481, "\u0124": 1482, "\u0120influenced": 1483, "\u0120sa": 1484, "\u0120dys": 1485, "\u0120raised": 1486, "\u0120search": 1487, "tree": 1488, "\u0120craft": 1489, "Elizabeth": 1490, "Sometimes": 1491, "\u0120frog": 1492, "\u0120novel": 1493, "1991": 1494, "\u0120became": 1495, "\u0120important": 1496, "\u0120nurses": 1497, "\u0120Massachusetts": 1498, "\u0120impe": 1499, "\u0120Physician": 1500, "\u0120Flash": 1501, "\u0120John": 1502, "cess": 1503, "lp": 1504, "\u0120Conference": 1505, "\u0120mountain": 1506, "\u0120paintings": 1507, "\u0120Dur": 1508, "\u0120Apollo": 1509, "\u0120termed": 1510, "ew": 1511, "\u0120Assessment": 1512, "\u0120nation": 1513, "\u01201957": 1514, "backs": 1515, "\u0120Glen": 1516, "gne": 1517, "\u0120protein": 1518, "\u0120nanoparticles": 1519, "\u0120I": 1520, "\u0120removed": 1521, "\u0120challenging": 1522, "ingly": 1523, "\u0120rise": 1524, "\u0120nutrient": 1525, "\u0120Intelligence": 1526, "\u0120explosion": 1527, "\u0120\u00e2\u0122\u00a6": 1528, "\u0120guests": 1529, "ema": 1530, "cd": 1531, "eling": 1532, "ic": 1533, "\u0120mold": 1534, "\u0120devices": 1535, "\u0120lots": 1536, "\u0120invading": 1537, "\u0120joined": 1538, "\u0120Moreover": 1539, "gnosis": 1540, "tia": 1541, "\u0120Tam": 1542, "\u0120December": 1543, "\u0120merely": 1544, "\u0120granul": 1545, "oka": 1546, "Washington": 1547, "\u0120apparent": 1548, "\u0120decrease": 1549, "\u0120goods": 1550, "\u0120rated": 1551, "\u0120inequalities": 1552, "bad": 1553, "sensitivity": 1554, "\u0120prominence": 1555, "oral": 1556, "\u0120Kansas": 1557, "\u0120China": 1558, "\u0120form": 1559, "\u0120anecdot": 1560, "se": 1561, "\u0120full": 1562, "\u0120composed": 1563, "\u0120placing": 1564, "\u0120Voyage": 1565, "\u0120walked": 1566, "\u0120help": 1567, "ength": 1568, "\u0120Aurangzeb": 1569, "\u0120pioneer": 1570, "\u0120simultaneously": 1571, "\u0120establishment": 1572, "\u00be": 1573, "\u0120Philosoph": 1574, "\u0120endemic": 1575, "University": 1576, "\u0120jobs": 1577, "\u0120couples": 1578, "American": 1579, "\u0120purchasing": 1580, "\u0120positively": 1581, "ost": 1582, "&": 1583, "\u0120700": 1584, "\u0120seen": 1585, "\u0120statue": 1586, "\u0120quantum": 1587, "\u0120also": 1588, "\u0120commerce": 1589, "\u0120ultraviolet": 1590, "room": 1591, "\u0120dynasty": 1592, "MR": 1593, "\u0120worries": 1594, "\u0120pandemic": 1595, "\u0120Pre": 1596, "\u00a3": 1597, "MA": 1598, "wikipedia": 1599, "matology": 1600, "\u0120homeland": 1601, "\u0120cal": 1602, "\u0120nu": 1603, "eum": 1604, "\u0120consent": 1605, "\u0120metropolitan": 1606, "ffs": 1607, "\u0120Dutch": 1608, "Have": 1609, "\u0120indirect": 1610, "\u0120worm": 1611, "ished": 1612, "yes": 1613, "\u0120M": 1614, "\u0120products": 1615, "\u0120stereo": 1616, "\u0120command": 1617, "\u0120Ethics": 1618, "\u0120beliefs": 1619, "\u0120<": 1620, "\u0120spacecraft": 1621, "\u0120angels": 1622, "\u0120regards": 1623, "\u0120password": 1624, "\u0120Sam": 1625, "blood": 1626, "\u0120Bishop": 1627, "\u0120Jeremiah": 1628, "\u0120carriers": 1629, "\u0120experiment": 1630, "\u0120memorial": 1631, "\u0120manage": 1632, "\u0120personality": 1633, "\u0120cry": 1634, "\u0120Which": 1635, "\u0120assumptions": 1636, "lia": 1637, "uing": 1638, "\u0120shoe": 1639, "\u0120Vol": 1640, "\u0120fibers": 1641, "\u0120Currently": 1642, "Public": 1643, "\u0120Manhattan": 1644, "\u0120or": 1645, "\u0120reliable": 1646, "Ed": 1647, "\u0120Ver": 1648, "1993": 1649, "\u0120fields": 1650, "\u0120breath": 1651, "\u0120inspired": 1652, "\u0120Win": 1653, "\u0120recommended": 1654, "500": 1655, "\u0120foot": 1656, "\u0120Pharaoh": 1657, "\u0120Radio": 1658, "wave": 1659, "\u0120worker": 1660, "\u0120release": 1661, "\u0120covenant": 1662, "\u0120debt": 1663, "fluenza": 1664, "\u0120balancing": 1665, "From": 1666, "Ro": 1667, "\u0120administrators": 1668, "wan": 1669, ".]": 1670, "\u0120Simon": 1671, "\u0120case": 1672, "\u0120dementia": 1673, "\u0120material": 1674, "\u0120dynamic": 1675, "\u0120Plains": 1676, "\u0120truly": 1677, "\u0120problem": 1678, "\u0120tried": 1679, "y": 1680, "\u00c5\u00ab": 1681, "\u0120great": 1682, "\u0120hemo": 1683, "\u0120liquid": 1684, "\u0120compatible": 1685, "\u0120changing": 1686, "\u0120Colonial": 1687, "\u0120Right": 1688, "\u0120near": 1689, "\u0120proteins": 1690, "ulation": 1691, "\u0120Workers": 1692, "\u0120pediatric": 1693, "gon": 1694, "Non": 1695, "ground": 1696, "\u0120priority": 1697, "tos": 1698, "\u0120AR": 1699, "World": 1700, "\u01201955": 1701, "\u0120Pla": 1702, "\u0120closest": 1703, "Mc": 1704, "\u0120random": 1705, "\u0120struck": 1706, "\u0120structures": 1707, "\u0120players": 1708, "\u0120Bernard": 1709, "\u0120similarly": 1710, "\u0120current": 1711, "\u0120economically": 1712, "\u0120Im": 1713, "\u01202003": 1714, "\u0120basket": 1715, "\u0120Laboratory": 1716, "\u0120effects": 1717, "\u0120participants": 1718, "ky": 1719, "ime": 1720, "\u0120im": 1721, "\u0120warning": 1722, "\u0120hunger": 1723, "\u0120conservative": 1724, "\u0120Sweden": 1725, "\u0120placebo": 1726, "\u0120plenty": 1727, "\u0120aging": 1728, "\u0120efforts": 1729, "Tuesday": 1730, "\u0120song": 1731, "\u0120Ol": 1732, "\u0120moderate": 1733, "\u0120vivid": 1734, "\u0120Char": 1735, "\u0120defeated": 1736, "cellular": 1737, "\u0120cens": 1738, "\u0120science": 1739, "\u0120shrubs": 1740, "\u0120preparations": 1741, "\u0120Spar": 1742, "\u0120strips": 1743, "\u0120capture": 1744, "\u0120ecclesiastical": 1745, "\u0120prayer": 1746, "\u0120injustice": 1747, "\u0120night": 1748, "\u0120subsid": 1749, "\u0120pharmaceutical": 1750, "\u0120trumpet": 1751, "\u0120stake": 1752, "Fa": 1753, "\u0120opinion": 1754, "Ob": 1755, "\u0120recognised": 1756, "hal": 1757, "\u0120photos": 1758, "dation": 1759, "\u0120bird": 1760, "\u0120diameter": 1761, "mers": 1762, "\u0120show": 1763, "\u0120block": 1764, "\u0120genuine": 1765, "\u0120Micro": 1766, "\u0120fragile": 1767, "\u0120faint": 1768, "\u0120suppress": 1769, "\u0120documented": 1770, "hard": 1771, "\u0120workshops": 1772, "\\": 1773, "\u01201987": 1774, "\u0120render": 1775, "\u0120bulb": 1776, "Z": 1777, "\u0120thou": 1778, "great": 1779, "\u0120why": 1780, "\u0120Ru": 1781, "\u0120component": 1782, "\u0120Create": 1783, "\u0120Procedure": 1784, "'s": 1785, "\u0120simultaneous": 1786, "\u01201943": 1787, "\u0120GO": 1788, "dder": 1789, "\u0120Dra": 1790, "\u0120Medicare": 1791, "\u0120ideas": 1792, "\u0120embroider": 1793, "\u0120Cos": 1794, "cycle": 1795, "\u0120asbestos": 1796, "!)": 1797, "\u0120progress": 1798, "clusion": 1799, "pin": 1800, "\u0120naked": 1801, "\u00c9": 1802, "\u0120till": 1803, "\u0120engaged": 1804, "\u0120adaptive": 1805, "experience": 1806, "g": 1807, "IA": 1808, "\u0120path": 1809, "\u0120Between": 1810, "\u0120Stalin": 1811, "\u0120liver": 1812, ".\u00e2\u0122\u013b": 1813, "\u0120divorce": 1814, "\u0120moving": 1815, "\u0120spite": 1816, "\u0120confront": 1817, "\u0120Extension": 1818, "\u0120Gar": 1819, "\u0120Grove": 1820, "Design": 1821, "learning": 1822, "\u0120medicinal": 1823, "\u0120Renaissance": 1824, "\u0120won": 1825, "\u0120Connect": 1826, "\u00d1\u0124": 1827, "\u0120arrow": 1828, "ech": 1829, "\u0120all": 1830, "ights": 1831, "\u0120uncovered": 1832, "\u0120athletic": 1833, "\u0120prosperous": 1834, "\u0120electoral": 1835, "pes": 1836, "\u0120was": 1837, "PubMed": 1838, "breaking": 1839, "nings": 1840, "\u0120ivory": 1841, "well": 1842, "\u0120melt": 1843, "\u0120Solutions": 1844, "\u0120surprisingly": 1845, "\u0120#": 1846, "\u0120accompany": 1847, "\u0120parish": 1848, "\u0120accounts": 1849, "sting": 1850, "English": 1851, "\u012021": 1852, "\u0120herbicide": 1853, "cate": 1854, "\u0120Baltimore": 1855, "arian": 1856, "\u0120bandwidth": 1857, "\u0120hind": 1858, "\u0120answer": 1859, "Take": 1860, "()": 1861, "\u01201935": 1862, "\u0120Watch": 1863, "\u0120muscle": 1864, "ment": 1865, "\u0120del": 1866, "\u0120catalogue": 1867, "\u0120intelligent": 1868, "\u0120nebula": 1869, "\u0120Pur": 1870, "\u0120Maur": 1871, "\u0120filtration": 1872, "\u0120promotion": 1873, "\u0120childhood": 1874, "\u0120Impact": 1875, "\u0120Arabia": 1876, "bach": 1877, "SA": 1878, "\u0120weakness": 1879, "\u0120pesticide": 1880, "lor": 1881, "\u0120peers": 1882, "cover": 1883, "\u0120Leg": 1884, "\u0120applied": 1885, "\u0120economists": 1886, "biotic": 1887, "\u0120restriction": 1888, "\u0120cyto": 1889, "\u0120surround": 1890, "China": 1891, "\u0120administer": 1892, "stitution": 1893, "Sea": 1894, "ously": 1895, "\u0120bunch": 1896, "tails": 1897, "\u0120summer": 1898, "\u0120captivity": 1899, "\u0120dissolved": 1900, "\u0120minimal": 1901, "\u0120handling": 1902, "oriented": 1903, "\u0120extends": 1904, "\u0120practise": 1905, "\u0120nutritional": 1906, "\u0120correction": 1907, "ances": 1908, "\u0120GNU": 1909, "ct": 1910, "religious": 1911, "\u0120\u00c2\u00b1": 1912, "\u0120tribute": 1913, "\u0120chain": 1914, "\u0120Ni": 1915, "ind": 1916, "\u0120accommodate": 1917, "\u0120subdivi": 1918, "\u0120Kidney": 1919, "\u0120us": 1920, "\u0120consistently": 1921, "\u0120NH": 1922, "\u0120r": 1923, "\u0120automatically": 1924, "\u0120utmost": 1925, "\u0120bro": 1926, "proof": 1927, "\u0120aff": 1928, "\u01202017": 1929, "\u0120purchase": 1930, "\u0120presents": 1931, "FA": 1932, "view": 1933, "\u0120treatments": 1934, "lay": 1935, "\u0120just": 1936, "\u0120reduced": 1937, "February": 1938, "nis": 1939, "rne": 1940, "\u0120ownership": 1941, "\u0120Sl": 1942, "mond": 1943, "\u0120advice": 1944, "\u00c4\u00ab": 1945, "\u0120legend": 1946, "\u0120NA": 1947, "\u0120chloride": 1948, "\u0120rendered": 1949, "\u0136": 1950, "\u0120monasteries": 1951, "\u0120causes": 1952, "\u0120Professor": 1953, "positive": 1954, "wel": 1955, "ame": 1956, "\u0120sponsor": 1957, "\u0120agenda": 1958, "\u0120Representatives": 1959, "Old": 1960, "\u0120elderly": 1961, "rds": 1962, "Mr": 1963, "\u0120makes": 1964, "\u0120argue": 1965, "\u0120computer": 1966, "\u01202009": 1967, "\u0120Saturday": 1968, "hl": 1969, "\u0120argument": 1970, "\u0120membership": 1971, "\u0120nonprofit": 1972, "\u0120Heritage": 1973, "CA": 1974, "\u0120Ben": 1975, "\u0120Especially": 1976, "\u0120researching": 1977, "\u0120Includes": 1978, "\u0128": 1979, "\u0120Guadalcanal": 1980, "\u0120wax": 1981, "\u0120altitude": 1982, "\u0120kitchen": 1983, "Co": 1984, "\u0120digestive": 1985, "\u0120Section": 1986, "ading": 1987, "\u0120rat": 1988, "\u0120Nu": 1989, "\u0120personally": 1990, "\u0135": 1991, "\u0120algorithm": 1992, "\u0120substantially": 1993, "\u0120expressions": 1994, "\u0120amount": 1995, "Matthew": 1996, "\u0120Municipal": 1997, "utes": 1998, "ps": 1999, "print": 2000, "paper": 2001, "\u0120unre": 2002, "\u0120credible": 2003, "\u0120anemia": 2004, "\u01201913": 2005, "\u0120strings": 2006, "\u0120upset": 2007, "\u0120looking": 2008, "\u0120trouble": 2009, "\u0120Republicans": 2010, "\u0120seed": 2011, "\u0120military": 2012, "\u0120correlate": 2013, "\u0120Yu": 2014, "\u0120older": 2015, "ually": 2016, "Our": 2017, "\u0120Roger": 2018, "When": 2019, "enic": 2020, "\u0120encrypt": 2021, "\u0120minorities": 2022, "Keep": 2023, "\u0120fertile": 2024, "\u0120Dorothy": 2025, "\u0120Short": 2026, "\u0120defeat": 2027, "\u0120sky": 2028, "security": 2029, "\u0120gar": 2030, "\u0120thoughts": 2031, "\u0120Active": 2032, "bil": 2033, "\u0120dance": 2034, "\u0120reptiles": 2035, "\u0120Production": 2036, "\u0120Hot": 2037, "\u0120wanted": 2038, "\u0120navigation": 2039, "\u0120fascinating": 2040, "\u0120effectiveness": 2041, "tch": 2042, "\u0120movement": 2043, "\u0120linked": 2044, "son": 2045, "\u0120pur": 2046, "\u0120details": 2047, "\u0120inflict": 2048, "\u0120retreat": 2049, "\u0120Families": 2050, "\u0120Mus": 2051, "\u0120linguistic": 2052, "\u0120studio": 2053, "\u0120Panama": 2054, "\u0120vast": 2055, "tro": 2056, "\u0120uprising": 2057, "\u0120obscure": 2058, "\u0120nitrogen": 2059, "\u0120speed": 2060, "quality": 2061, "\u0120presented": 2062, "utable": 2063, "\u0120ministers": 2064, "lithic": 2065, "\u0120Portsmouth": 2066, "\u0120conf": 2067, "cons": 2068, "\u0120Lexington": 2069, "\u0120floor": 2070, "\u0120DVD": 2071, "sub": 2072, "\u0120On": 2073, "\u0120arbitrary": 2074, "as": 2075, "\u0120invented": 2076, "filled": 2077, "\u0120targeted": 2078, "68": 2079, "\u0120Systems": 2080, "\u0120ankle": 2081, "\u0120E": 2082, "\u0120trillion": 2083, "\u0120easier": 2084, "\u0120chains": 2085, "\u0120technology": 2086, "\u0120demonstrated": 2087, "\u0120Salmon": 2088, "\u0120use": 2089, "\u0120specified": 2090, "\u0120conventional": 2091, "\u0120randomized": 2092, "SI": 2093, "\u0120preparation": 2094, "\u0120Sad": 2095, "vil": 2096, "\u0120knowledge": 2097, "wen": 2098, "\u0120recon": 2099, "\u0120commission": 2100, "\u0120funds": 2101, "Food": 2102, "\u00a5": 2103, "\u0120automatic": 2104, "\u0120cohe": 2105, "\u0120influential": 2106, "\u0120survive": 2107, "lling": 2108, "\u0120ED": 2109, "Ba": 2110, "\u0120accordance": 2111, "\u0120meetings": 2112, "\u012024": 2113, "\u0120Medical": 2114, "\u0120Prop": 2115, "\u0120NO": 2116, "\u0120install": 2117, "\u0120Disorders": 2118, "\u0120irrational": 2119, "page": 2120, "\u0120eds": 2121, "\u0120pregnancy": 2122, "\u0120Volume": 2123, "nu": 2124, "lt": 2125, "hra": 2126, "\u0120Del": 2127, "iest": 2128, "\u0120NGO": 2129, "sons": 2130, "\u0120teaches": 2131, "\u0120vital": 2132, "\u0120Club": 2133, "\u0120turtle": 2134, "\u0120Different": 2135, "\u0120Programs": 2136, "Psych": 2137, "d": 2138, "\u0120grown": 2139, "\u0120midst": 2140, "\u0120overwhelming": 2141, "\u0120enlisted": 2142, "CI": 2143, "\u0120alcohol": 2144, "\u0120dig": 2145, "je": 2146, "\u0120challenge": 2147, "\u0120Mod": 2148, "\u0120deputy": 2149, "\u0120apparently": 2150, "une": 2151, "\u0120destructive": 2152, "\u0120Na": 2153, "71": 2154, "kel": 2155, "\u0120Allah": 2156, "\u0120stays": 2157, "\u0120stamp": 2158, "\u0120Para": 2159, "\u0120increment": 2160, "\u0120indicated": 2161, "\u0120comparing": 2162, "\u0120formula": 2163, "\u0120mobil": 2164, "lings": 2165, "\u0120buffer": 2166, "\u0120smallest": 2167, "\u0120worksheets": 2168, "\u0120exam": 2169, "Key": 2170, "\u00da": 2171, "after": 2172, "\u0120heroes": 2173, "\u0120permitted": 2174, "\u0120Hyper": 2175, "kers": 2176, "\u0120immune": 2177, "\u0120antibodies": 2178, "sar": 2179, "\u0120Ve": 2180, "\u0120Broad": 2181, "\u0120ang": 2182, "including": 2183, "\u0120Eng": 2184, "\u0120improvements": 2185, "\u0120def": 2186, "ifications": 2187, "My": 2188, "\u0120Ireland": 2189, "SM": 2190, "\u0120physics": 2191, "\u0120lone": 2192, "\u0120circ": 2193, "\u0120m": 2194, "\u0120swept": 2195, "\u0120Until": 2196, "government": 2197, "`": 2198, "\u0120Mc": 2199, "\u0120studies": 2200, "\u0120beans": 2201, "\u0120reality": 2202, "\u012011": 2203, "\u0120resembling": 2204, "opard": 2205, "\u0120genomic": 2206, "\u0120walks": 2207, "works": 2208, "\u0120standards": 2209, "fight": 2210, "\u0120Abdul": 2211, "\u0120Declaration": 2212, "\u0120steril": 2213, "growing": 2214, "\u0120situations": 2215, "\u0120arguing": 2216, "AR": 2217, "\u0120abstract": 2218, "\u0120occupational": 2219, "\u0120Ti": 2220, "\u0120Eye": 2221, "\u0120styles": 2222, "\u0120hoping": 2223, "\u0120Harvard": 2224, "\u0120marriages": 2225, "\u0120defects": 2226, "\u0120reflects": 2227, "\u0120Heart": 2228, "rm": 2229, "\u0120Data": 2230, "\u0120cooperation": 2231, "\u0120mix": 2232, "\u0120absolutely": 2233, "\u0120rhyme": 2234, "gu": 2235, "\u0120London": 2236, "head": 2237, "\u0120Orient": 2238, "stone": 2239, "\u0120drug": 2240, "\u0120potato": 2241, "\u0120judge": 2242, "\u0120Additional": 2243, "\u0120producers": 2244, "Type": 2245, "\u0120ago": 2246, "\u0120instructions": 2247, "\u0120meal": 2248, "home": 2249, "\u0120custody": 2250, "ible": 2251, "\u0120stream": 2252, "\u0120Georgia": 2253, "\u0120Ross": 2254, "\u01201867": 2255, "sb": 2256, "\u0120men": 2257, "nts": 2258, "\u0120used": 2259, "\u0120historian": 2260, "\u0120Ring": 2261, "\u0120Pet": 2262, "\u0120basics": 2263, "\u0120fastest": 2264, "\u0120fiction": 2265, "\u013f": 2266, "nn": 2267, "through": 2268, "\u0120capacity": 2269, "risk": 2270, "\u0120indicating": 2271, "ther": 2272, "\u0120facial": 2273, "\u0120materials": 2274, "\u0120Dark": 2275, "\u0120warming": 2276, "\u0120opinions": 2277, "ac": 2278, "\u0120Imperial": 2279, "\u0120Gal": 2280, "\u0120editorial": 2281, "xo": 2282, "\u0120Some": 2283, "\u0120segment": 2284, "\u0120stra": 2285, "\u0120activation": 2286, "\u0120former": 2287, "xed": 2288, "ars": 2289, "\u0120constant": 2290, "\u0120linking": 2291, "\u0120Faculty": 2292, "\u0120aside": 2293, "uters": 2294, "Bs": 2295, "\u0120Sha": 2296, "\u0120converts": 2297, "July": 2298, "\u0120drinks": 2299, "\u0120Prince": 2300, "\u0120fell": 2301, "\u0120hang": 2302, "97": 2303, "\u0120poll": 2304, "respon": 2305, "\u0120neighborhoods": 2306, "\u01201976": 2307, "\u0120Queen": 2308, "\u0120rights": 2309, "\u0120translation": 2310, "\u0120scan": 2311, "coo": 2312, "\u0120Ow": 2313, "\u0120above": 2314, "\u0120bypass": 2315, "So": 2316, "\u0120formed": 2317, "\u0120memories": 2318, "\u0120\u00c4\u0122\u00e1\u00b9\u0143m\u00c4\u0123": 2319, "rage": 2320, "ming": 2321, "\u0120Joseph": 2322, "berg": 2323, "\u0120humor": 2324, "\u0120Fitzgerald": 2325, "ib": 2326, "\u0120FDA": 2327, "inate": 2328, "\u0120temporal": 2329, "'.": 2330, "\u0120others": 2331, "\u0120socially": 2332, "\u0120thoroughly": 2333, "\u0120preserving": 2334, "\u0120face": 2335, "NG": 2336, "\u0120irregular": 2337, "\u0120Easter": 2338, "\u01201986": 2339, "\u0120From": 2340, "\u0120educational": 2341, "\u0120stems": 2342, "\u0120indicators": 2343, "ivities": 2344, "\u0120governmental": 2345, "\u0120delivery": 2346, "\u0120Sil": 2347, "\u0120fri": 2348, "emoglobin": 2349, "\u0120severely": 2350, "\u0120feasible": 2351, "\u0120nobody": 2352, "vement": 2353, "\u0120atherosclerosis": 2354, "\u0120discern": 2355, "\u0120descent": 2356, "\u0120Gro": 2357, "\u0120har": 2358, "\u0120nations": 2359, "\u0120vine": 2360, "\u0120Tokyo": 2361, "\u0120mirror": 2362, "\u0120hoped": 2363, "\u0120proposition": 2364, "dose": 2365, "\u0120beaches": 2366, "\u0120Throughout": 2367, "\u0120mort": 2368, "tube": 2369, "60": 2370, "\u0120useful": 2371, "\u0120hypo": 2372, "bol": 2373, "\u0120exclusively": 2374, "ging": 2375, "\u0120Process": 2376, "\u0120tale": 2377, "\u0120Kazakhstan": 2378, "Wiktionary": 2379, "\u0120putting": 2380, "\u0120predator": 2381, "\u0120breaking": 2382, "int": 2383, "Count": 2384, "\u0120hands": 2385, "\u0120glorious": 2386, "\u0120Campbell": 2387, "\u0120orbit": 2388, "posed": 2389, "\u0120Ger": 2390, "\u0120Multiple": 2391, "\u0120recognized": 2392, "\u0120avoided": 2393, "\u0120Nazi": 2394, "they": 2395, "\u0120autism": 2396, "\u0120giant": 2397, "\u00e2\u0122": 2398, "\u0120Europeans": 2399, "\u0120lining": 2400, "\u0120disciple": 2401, "ph": 2402, "\u0120daylight": 2403, "\u0120stretches": 2404, "duce": 2405, "\u01203": 2406, "\u0120declines": 2407, "burg": 2408, "\u0120Hudson": 2409, "Life": 2410, "\u0120demonstrating": 2411, "\u0120decent": 2412, "\u0120rescue": 2413, "\u0120ethics": 2414, "\u0120must": 2415, "\u0120edition": 2416, "\u0120Bro": 2417, "\u0120service": 2418, "library": 2419, "nds": 2420, "\u0120potential": 2421, "kin": 2422, "\u0120winner": 2423, "\u0120\u00e2\u0122\u00a2": 2424, "\u0120observations": 2425, "\u0120highly": 2426, "\u0120So": 2427, "\u0120Fourth": 2428, "\u0120Industry": 2429, "\u0120reform": 2430, "\u0120weed": 2431, "\u0120uterus": 2432, "yard": 2433, "Standard": 2434, "\u0120Homo": 2435, "\u00e1\u00b8": 2436, "\u0120accumulation": 2437, "\u0120elev": 2438, "\u0120Rebecca": 2439, "\u0120Criminal": 2440, "\u0120PM": 2441, "\u0120psycho": 2442, "\u0120gla": 2443, "\u0120ignore": 2444, "Ts": 2445, "\u0120context": 2446, "\u0120governor": 2447, "\u01201901": 2448, "\u0120Gl": 2449, "\u0120Flu": 2450, "\u0120grapes": 2451, "\u0120evenly": 2452, "verse": 2453, "\u0120reg": 2454, "east": 2455, "\u0120matching": 2456, "\u0120ships": 2457, "\u0120tied": 2458, "\u0120x": 2459, "\u0120helped": 2460, "\u0120pool": 2461, "\u0120reproduction": 2462, "\u0120ambi": 2463, "Name": 2464, "\u0120Columbia": 2465, "\u0120supporters": 2466, "By": 2467, "\u0120screening": 2468, "city": 2469, "clude": 2470, "\u0120participation": 2471, "\u0120heart": 2472, "\u0120proportion": 2473, "ending": 2474, "\u0120Cra": 2475, "\u0120husband": 2476, "\u0120Protestant": 2477, "\u0120Web": 2478, "bot": 2479, "\u0120principal": 2480, "Before": 2481, "\u0120dough": 2482, "rge": 2483, "\u0120researcher": 2484, "\u0120disorders": 2485, "rations": 2486, "\u0120alternative": 2487, "\u0120weapons": 2488, "marks": 2489, "\u0120diet": 2490, "\u0120forage": 2491, "ers": 2492, "ios": 2493, "\u0120response": 2494, "\u0120can": 2495, "\u0120Dictionary": 2496, "\u0120staggering": 2497, "\u0120woman": 2498, "\u0120Jack": 2499, "\u0120existed": 2500, "\u0120dirt": 2501, "\u0120closer": 2502, "\u0120penetration": 2503, "\u0120needs": 2504, "\u0120million": 2505, "\u0120Nobel": 2506, "\u0120protected": 2507, "Here": 2508, "smo": 2509, "\u0120equity": 2510, "\u0120featuring": 2511, "\u0120abandoned": 2512, "Roman": 2513, "ules": 2514, "\u0120ent": 2515, "\u0120Evidence": 2516, "\u0120added": 2517, "\u0120\u00c3": 2518, "\u0120rendering": 2519, "\u0120ovarian": 2520, "\u0120missed": 2521, "\u0120coins": 2522, "\u0120extension": 2523, "\u0120wre": 2524, "\u0120grief": 2525, "\u0120Temperature": 2526, "\u0120Within": 2527, "\u0120parental": 2528, "\u0120isolated": 2529, "encing": 2530, "\u0120tab": 2531, "\u0120vascular": 2532, "craft": 2533, "\u0120unwanted": 2534, "forms": 2535, "\u0120Caucas": 2536, "nx": 2537, "\u0120Buck": 2538, "\u0120knowing": 2539, "\u0120shaped": 2540, "\u0120jet": 2541, "\u0120Native": 2542, "2008": 2543, "\u0120plunge": 2544, "Even": 2545, "\u0120questionnaire": 2546, "\u0120wavelength": 2547, "ing": 2548, "\u0120Davis": 2549, "\u0120Incorporated": 2550, "\u0120angles": 2551, "\u0120white": 2552, "\u0120because": 2553, "\u0120guided": 2554, "lls": 2555, "\u0120decades": 2556, "\u0120summar": 2557, "\u0120Daniel": 2558, "\u0120th": 2559, "\u0120critical": 2560, "ny": 2561, "European": 2562, "\u0120division": 2563, "\u0120forensic": 2564, "\u0120winds": 2565, "ving": 2566, "\u0120Opera": 2567, "burn": 2568, "\u0120trace": 2569, "\u0120guy": 2570, "\u0120ion": 2571, "\u0120unequal": 2572, "SR": 2573, "\u0120Monitor": 2574, "\u0120Extreme": 2575, "\u0120Indeed": 2576, "\u0120substrate": 2577, "ogenic": 2578, "\u0120wastewater": 2579, "tomy": 2580, "\u0120amendment": 2581, "\u0120do": 2582, "\u0120French": 2583, "\u01201931": 2584, "\u0120costs": 2585, "\u0120anonymous": 2586, "\u0120sp": 2587, "Let": 2588, "\u0120Guatemala": 2589, "ather": 2590, "Health": 2591, "\u0120Giovanni": 2592, "\u0120mortgage": 2593, "\u0120constitution": 2594, "\u0120redis": 2595, "\u0120bodily": 2596, "\u0120Katrina": 2597, "\u0120user": 2598, "\u0120wishes": 2599, "ition": 2600, "\u0120Another": 2601, "ray": 2602, "\u0120targets": 2603, "\u0120ign": 2604, "ii": 2605, "board": 2606, "\u0120classification": 2607, "\u0120environments": 2608, "\u0120101": 2609, "jo": 2610, "\u0120analysis": 2611, "\u0120restore": 2612, "\u0120Mol": 2613, "\u0120provided": 2614, "\u0120slowly": 2615, "\u0120feedback": 2616, "\u0120Programme": 2617, "\u0120Champion": 2618, "\u0120wheat": 2619, "\u0120Fall": 2620, "\u0120shifted": 2621, "ographic": 2622, "\u0120deliver": 2623, "\u0120ye": 2624, "100": 2625, "California": 2626, "\u0120precise": 2627, "uer": 2628, "\u0120exploit": 2629, "\u0120friction": 2630, "--": 2631, "\u01201962": 2632, "\u0120Thus": 2633, "dro": 2634, "\u0120Democrat": 2635, "\u0120coefficient": 2636, "\u0120appreciation": 2637, "communi": 2638, "\u0120tiny": 2639, "inflammatory": 2640, "\u0120rel": 2641, "cu": 2642, "\u0120monarch": 2643, "\u0120critics": 2644, "\u0120incorporating": 2645, "\u0120conviction": 2646, "Photo": 2647, "\u0120appliances": 2648, "\u0120nineteenth": 2649, "\u0120operates": 2650, "\u0120labor": 2651, "\u0120sensitive": 2652, "\u00d1\u0125": 2653, "\u0120Conservation": 2654, "\u0120blo": 2655, "land": 2656, "ivism": 2657, "\u0120areas": 2658, "\u0120Swiss": 2659, "\u0120Prairie": 2660, "\u01201500": 2661, "ue": 2662, "\u0120field": 2663, "\u0120Real": 2664, "\u0120automobile": 2665, "\u0120federal": 2666, "protein": 2667, "\u0120seasons": 2668, "\u0120clean": 2669, "\u0120Harry": 2670, "\u0120vehicle": 2671, "\u0120burial": 2672, "\u01201915": 2673, "uch": 2674, "\u0120Activity": 2675, "ific": 2676, "\u0120Name": 2677, "\u0120divide": 2678, "Histor": 2679, "\u0120Justice": 2680, "\u0120inflamed": 2681, "ared": 2682, "\u0120twin": 2683, "\u0120infection": 2684, "\u0120daily": 2685, "\u0120BC": 2686, "\u0120Exodus": 2687, "\u0120attract": 2688, "\u0120winter": 2689, "\u0120barrels": 2690, "tolerant": 2691, "\u0120recorded": 2692, "\u0120sending": 2693, "PE": 2694, "Pr": 2695, "tation": 2696, "\u0120Bailey": 2697, "\u0120rh": 2698, "\u0120sample": 2699, "Web": 2700, "\u01201964": 2701, "essions": 2702, "\u0120incumbent": 2703, "Her": 2704, "powder": 2705, "\u0120Discovery": 2706, "\u0120signature": 2707, "\u0120apprentice": 2708, "\u0120happiness": 2709, "\u0120furniture": 2710, "\u0120Gilbert": 2711, "\u0120char": 2712, "ar": 2713, "\u0120ov": 2714, "cop": 2715, "\u0120stopping": 2716, "\u0120twenty": 2717, "\u0120represents": 2718, "\u0120punish": 2719, "Imagine": 2720, "\u0120openly": 2721, "\u0120Caesar": 2722, "\u0120ab": 2723, "ged": 2724, "\u0120License": 2725, "\u0120discussions": 2726, "\u0120atom": 2727, "her": 2728, "\u0120fourth": 2729, "\u0120While": 2730, "\u0120accompanying": 2731, "\u0120Mexican": 2732, "\u0120inner": 2733, "\u0120still": 2734, "\u0120keyboard": 2735, "Origin": 2736, "\u0120insight": 2737, "\u0120advantages": 2738, "\u0120SM": 2739, "\u00c2\u00bb": 2740, "condition": 2741, "mbling": 2742, "Op": 2743, "\u0120peaceful": 2744, "\u0120titles": 2745, "erable": 2746, "\u0120impressive": 2747, "HT": 2748, "\u0120Aug": 2749, "\u0120actor": 2750, "fessional": 2751, "\u0120portray": 2752, "\u0120projects": 2753, "\u00ce\u00bd": 2754, "\u0120Agriculture": 2755, "\u0120url": 2756, "should": 2757, "\u0120consist": 2758, "ust": 2759, "\u0120create": 2760, "\u0120if": 2761, "\u0120omega": 2762, "\u0120Post": 2763, "\u0120surrounding": 2764, "\u0120structure": 2765, "\u00e3": 2766, "RS": 2767, "\u0120Continu": 2768, "vir": 2769, "\u0120Youth": 2770, "position": 2771, "\u0120stayed": 2772, "\u010a": 2773, "\u0120semiconductor": 2774, "\u0120marvel": 2775, "ira": 2776, "any": 2777, "\u0120slavery": 2778, "\u0120aspects": 2779, "news": 2780, "\u00e2\u0122\u0135": 2781, "ococcal": 2782, "\u0120prescribed": 2783, "\u0120sooner": 2784, "\u0120steel": 2785, "\u0120gamma": 2786, "\u0120fact": 2787, "\u0120half": 2788, "\u01201958": 2789, "\u0120monuments": 2790, "\u0120possible": 2791, "uble": 2792, "\u0120grasses": 2793, "THE": 2794, "\u0120begun": 2795, "\u0120pains": 2796, "\u0120behaviors": 2797, "\u0120boy": 2798, "\u01204": 2799, "file": 2800, "growth": 2801, "\u0120tip": 2802, "ckers": 2803, "\u0120understanding": 2804, "\u00e1\u00b9\u0143a": 2805, "\u0120Constantinople": 2806, "\u00b0": 2807, "\u0120mice": 2808, "\u0120able": 2809, "):": 2810, "\u0120Cross": 2811, "\u0120Afghanistan": 2812, "\u0120deadly": 2813, "\u0120boom": 2814, "\u0120pushed": 2815, "\u0120reverse": 2816, "Lo": 2817, "\u0120odor": 2818, "CT": 2819, "\u0120gang": 2820, "\u0120NOAA": 2821, "\u0120eaten": 2822, "||": 2823, "\u0120Bethlehem": 2824, "\u0120assumes": 2825, "iated": 2826, "cept": 2827, "\u0120education": 2828, "\u0120board": 2829, "\u0120tomato": 2830, "\u0120Att": 2831, "\u0120relax": 2832, "\u0120Dean": 2833, "\u0120Sudan": 2834, "\u0120tales": 2835, "\u0120blocking": 2836, "\u0120examine": 2837, "\u0120technologies": 2838, "\u0120societies": 2839, "\u0120Mackenzie": 2840, "\u0120Jay": 2841, "\u0120authorized": 2842, "\u0120Palestinians": 2843, "ths": 2844, "\u0120Function": 2845, "\u0120detach": 2846, "\u0120Chris": 2847, "whether": 2848, "\u0120mo": 2849, "fold": 2850, "\u0120stretch": 2851, "\u0120illustr": 2852, "\u0120George": 2853, "\u0120botan": 2854, "\u0120Pueblo": 2855, "\u0120elections": 2856, "\u0120counter": 2857, "\u0120enable": 2858, "\u0120area": 2859, "\u0120remained": 2860, "\u0120investing": 2861, "\u0120Astronomy": 2862, "\u0120body": 2863, "\u0120rivers": 2864, "individual": 2865, "\u0120gallbladder": 2866, "\u0120tradition": 2867, "\u0120Titan": 2868, "\u0120request": 2869, "\u0120Chevrolet": 2870, "research": 2871, "Ho": 2872, "\u012043": 2873, "\u0120Delta": 2874, "\u0120Chicago": 2875, "\u0120Tro": 2876, "ima": 2877, "\u0120balloon": 2878, "\u0120presidency": 2879, "\u0120program": 2880, "yg": 2881, "\u0120rim": 2882, "claimed": 2883, "James": 2884, "\u0120Ali": 2885, "\u0120Is": 2886, "\u0120explicit": 2887, "\u0120Frank": 2888, "\u0120DC": 2889, "\u0120character": 2890, "\u0120volunteer": 2891, "\u0120lie": 2892, "dale": 2893, "\u0120fluori": 2894, "lag": 2895, "\u0120epidemiolog": 2896, "\u0120pronoun": 2897, "\u0120academ": 2898, "\u0120dizziness": 2899, "\u0120enter": 2900, "\u0120we": 2901, "\u0120taking": 2902, "\u0120Expedition": 2903, "out": 2904, "Natural": 2905, "\u0120European": 2906, "\u0120Victorian": 2907, "\u0120findings": 2908, "\u0120July": 2909, "\u0120open": 2910, "\u0120altar": 2911, "\u0120cigarette": 2912, "\u0120closed": 2913, "\u0120prospect": 2914, "\u0120slo": 2915, "sic": 2916, "\u0120fighting": 2917, "\u0120procure": 2918, "\u0120formally": 2919, "\u0120GA": 2920, "\u0120resulted": 2921, "\u0120claim": 2922, "\u0120surveyed": 2923, "\u0120train": 2924, "\u0120Legal": 2925, "\u0120traditions": 2926, "\u0120heated": 2927, "\u0120massive": 2928, "induced": 2929, "\u0120perpendicular": 2930, "bury": 2931, "\u0120sweet": 2932, "\u0120outbreak": 2933, "\u0120Manitoba": 2934, "\u0120analytical": 2935, "\u0120perpetu": 2936, "\u0120decisions": 2937, "\u0120fair": 2938, "\u0120noticed": 2939, "\u0120beef": 2940, "\u0120unhealthy": 2941, "\u0120Collins": 2942, "\u0120Joshua": 2943, "\u0120Eric": 2944, "\u0120beauty": 2945, "\u0120Eusebius": 2946, "\u0120disgu": 2947, "\u0120emphasized": 2948, "\u0120hardly": 2949, "sensitive": 2950, "\u0120method": 2951, "\u0120controlling": 2952, "\u0120corporation": 2953, "\u0120\u00c2\u00b0": 2954, "\u0120cit": 2955, "vian": 2956, "LI": 2957, "Russia": 2958, "\u0120First": 2959, "\u0120take": 2960, "Between": 2961, "\u0120glasses": 2962, "\u0120Sim": 2963, "MC": 2964, "\u0120piano": 2965, "\u0120intensity": 2966, "\u0120Op": 2967, "\u0120boost": 2968, "\u0120Hungary": 2969, "\u0120improvement": 2970, "\u0120inject": 2971, "\u0120engines": 2972, "\u0120Death": 2973, "\u0120songs": 2974, "\u0120healthy": 2975, "\u0120Botanic": 2976, "\u0120boot": 2977, "\u0120artistic": 2978, "\u0120consequence": 2979, "ations": 2980, "\u0120Energy": 2981, "Dis": 2982, "f": 2983, "\u0120congressional": 2984, "Po": 2985, "\u0120hired": 2986, "\u0120Still": 2987, "\u0120theology": 2988, "\u0120Bristol": 2989, "num": 2990, "\u0120energy": 2991, "\u0120dump": 2992, "\u0120induced": 2993, "\u0120grocery": 2994, "AA": 2995, "\u0120shadow": 2996, "\u0120deceased": 2997, "\u0120sexual": 2998, "\u0120racist": 2999, "\u0120Eb": 3000, "\u0120Microsoft": 3001, "\u0120melo": 3002, "rse": 3003, "\u0120Lower": 3004, "\u0120seriously": 3005, "\u0120Small": 3006, "\u0120theoretical": 3007, "\u0120aged": 3008, "\u0120tender": 3009, "\u0120axis": 3010, "\u0120practicing": 3011, "\u0120Home": 3012, "\u0120Zone": 3013, "\u0120Total": 3014, "\u0120purely": 3015, "\u0120career": 3016, "\u0120Such": 3017, "\u0120ask": 3018, "\u0120diagnosed": 3019, "\u0120league": 3020, "born": 3021, "ably": 3022, "\u0120arrival": 3023, "\u0120sacred": 3024, "\u0120delivered": 3025, "\u0120educating": 3026, "\u0120Minor": 3027, "\u0120eff": 3028, "\u0120reservoir": 3029, "Am": 3030, "\u0120rheumatoid": 3031, "\u0120corresponding": 3032, "z": 3033, "\u0120Khan": 3034, "eve": 3035, "\u0120possessed": 3036, "\u0120thirteen": 3037, "\u0120speaking": 3038, "\u0120tumors": 3039, "\u0120Law": 3040, "\u0120circuit": 3041, "\u0120See": 3042, "\u0120Do": 3043, "\u0120enclosed": 3044, "\u0120employment": 3045, "\u0120Year": 3046, "\u0120further": 3047, "\u0120appropriate": 3048, "\u0120domin": 3049, "\u0120fiscal": 3050, "\u0120forgive": 3051, "\u0120inf": 3052, "\u0120worms": 3053, "\u0120Nebuchadnezzar": 3054, "\u0120trigger": 3055, "\u0120imagin": 3056, "\u0120dramatic": 3057, "\u0120mu": 3058, "\u0120influencing": 3059, "\u0120Carolina": 3060, "\u0120passing": 3061, "\u0120pests": 3062, "\u0120under": 3063, "\u0120extra": 3064, "\u0120medium": 3065, "\u0120bodies": 3066, "cock": 3067, "\u0120walking": 3068, "\u0120illness": 3069, "Thousands": 3070, "\u0120writes": 3071, "SC": 3072, "\u0120speaker": 3073, "\u0120sulfur": 3074, "continent": 3075, "\u0120Guide": 3076, "\u0120Met": 3077, "\u0120immediate": 3078, "\u0120Barcelona": 3079, "\u0120founding": 3080, "aling": 3081, "\u0120Beijing": 3082, "\u0120democracy": 3083, "\u0120irrit": 3084, ".:": 3085, "\u0120medicines": 3086, "\u0120printer": 3087, "\u0120support": 3088, "\u0120solved": 3089, "\u0120Coast": 3090, "\u0120\u00c2\u00a3": 3091, "\u0120universe": 3092, "\u0120recognizable": 3093, "\u0120bases": 3094, "\u0120tissues": 3095, "\u0120sharply": 3096, "\u0120cuts": 3097, "\u0120welcome": 3098, "\u0120confident": 3099, "\u0120factor": 3100, "\u0120\u00c5": 3101, "\u0120highlights": 3102, "\u00e3\u0123": 3103, "\u0120Key": 3104, "psy": 3105, "eries": 3106, "\u0120ra": 3107, "\u0120scanning": 3108, "vine": 3109, "\u0120compartment": 3110, "\u0120reserve": 3111, "umes": 3112, "\u0120Pu": 3113, "\u0120sym": 3114, "\u0120samples": 3115, "\u0120suicidal": 3116, "\u0120swimming": 3117, "\u0120ozone": 3118, "IC": 3119, "\u0120Orleans": 3120, "ts": 3121, "\u0120Non": 3122, "\u0120art": 3123, "\u0120guilt": 3124, "\u0120pepper": 3125, "IP": 3126, "\u0120groups": 3127, "\u0120palace": 3128, "\u0120owe": 3129, "\u0120perspective": 3130, "\u0120depend": 3131, "\u0120Scholar": 3132, "\u0120diaphragm": 3133, "\u00cf\u0123\u00ce": 3134, "be": 3135, "\u0120Women": 3136, "\u0120Other": 3137, "\u0120fertilizer": 3138, "\u0120veterinary": 3139, "\u0120circum": 3140, "\u0120Jew": 3141, "\u0120illusion": 3142, "\u0120behaviour": 3143, "\u0120review": 3144, "\u0120Put": 3145, "\u0120Two": 3146, "\u0120Germans": 3147, "ward": 3148, "FS": 3149, "into": 3150, "ller": 3151, "\u0120Parent": 3152, "\u0120player": 3153, "\u0120rec": 3154, "\u0120Kids": 3155, "phones": 3156, "\u0120Fried": 3157, "\u0120doubling": 3158, "lle": 3159, "\u0120itself": 3160, "\u0120made": 3161, "\u0120symbols": 3162, "uls": 3163, "\u0120Member": 3164, "\u0120Chesapeake": 3165, "\u01201921": 3166, "\u0120Norwegian": 3167, "\u0120units": 3168, "\u0120scale": 3169, "\u0120examines": 3170, "vour": 3171, "\u0120sheet": 3172, "\u0120evaluation": 3173, "base": 3174, "\u0120pain": 3175, "\u0120implications": 3176, "\u0120Inf": 3177, "\u0120imports": 3178, "\u0120feet": 3179, "\u0120subscribe": 3180, "\u0120galleries": 3181, "\u0120cap": 3182, "\u00c3\u00a6": 3183, "\u0120arsenic": 3184, "\u0120ground": 3185, "\u0120\u00cf": 3186, "\u0120respect": 3187, "\u0120naturally": 3188, "\u00e2\u012a\u0134": 3189, "rier": 3190, "\u00ce\u00b1": 3191, "\u0120gut": 3192, "\u0120maintenance": 3193, "\u0120autonomy": 3194, "\u0120dressed": 3195, "power": 3196, "\u0120Cut": 3197, "itudinal": 3198, "\u0120instrument": 3199, "\u01201929": 3200, "\u0120Los": 3201, "\u0120classroom": 3202, "\u0120thousands": 3203, "vention": 3204, "\u0120Division": 3205, "\u0120Garrison": 3206, "\u0120Center": 3207, "ggs": 3208, "\")": 3209, "\u0120approximate": 3210, "\u0120melanoma": 3211, "\u0120Wiki": 3212, "\u0120expect": 3213, "\u0120Bank": 3214, "\u0120Ven": 3215, "\u0120extinct": 3216, "\u0120pose": 3217, "\u0120litter": 3218, "\u0120upward": 3219, "\u0120residual": 3220, "uf": 3221, "\u0120incomplete": 3222, "\u0120Mir": 3223, "\u0120Tobacco": 3224, "\u0120Their": 3225, "\u0120parasite": 3226, "\u0120finger": 3227, "rol": 3228, "\u0120therapeutic": 3229, "dated": 3230, "im": 3231, "ren": 3232, "\u0120Tom": 3233, "\u0120climatic": 3234, "\u0120flexibility": 3235, "cin": 3236, "\u0120Wentworth": 3237, "\u0120stiff": 3238, "\u0120faithful": 3239, "\u0120retirement": 3240, "\u0120languages": 3241, "\u0120Daily": 3242, "\u0120radioactive": 3243, "\u0120abandon": 3244, "ack": 3245, "\u0120Following": 3246, "\u0120overseas": 3247, "\u0120tourists": 3248, "\u0120prevent": 3249, "\u0120Liberty": 3250, "Where": 3251, "rp": 3252, "\u0120defined": 3253, "\u0120Ancient": 3254, "\u0120ortho": 3255, "\u0120Mind": 3256, "\u0120supporting": 3257, "\u0120accelerated": 3258, "\u0120MD": 3259, "\u0120interactive": 3260, "\u0120sauce": 3261, "[": 3262, "\u0120grand": 3263, "\u0120O": 3264, "\u0120SC": 3265, "\u0120circles": 3266, "\u0120travels": 3267, "\u0120signal": 3268, "\u0120God": 3269, "ston": 3270, "\u0120stool": 3271, "\u0120shouldn": 3272, "\u0120grounds": 3273, "servation": 3274, "\u0120hydrocarbons": 3275, "\u0120server": 3276, "vid": 3277, "\u0120Leadership": 3278, "\u0120salvation": 3279, "\u0120Cru": 3280, "\u0120spatial": 3281, "\u0120eleven": 3282, "\u0120Conf": 3283, "\u0120tre": 3284, "formed": 3285, "\u0120agreement": 3286, "\u0120percentage": 3287, "\u0120notice": 3288, "\u0120families": 3289, "\u0120acres": 3290, "\u0120occurring": 3291, "\u0120catastrophe": 3292, "\u012091": 3293, "\u0120payment": 3294, "\u0120Pasadena": 3295, "\u0120Personal": 3296, "\u0120attacked": 3297, "\u0120ways": 3298, "\u0120mistake": 3299, "\u0120however": 3300, "\u0120sentences": 3301, "\u0120option": 3302, "\u0120prevents": 3303, "hem": 3304, "\u0120By": 3305, "\u0120broader": 3306, "\u0120imperative": 3307, "makers": 3308, "\u0120galaxy": 3309, "\u0120Croatia": 3310, "\u0120identif": 3311, "\u0120remove": 3312, "\u0120diminished": 3313, "\u0120Sho": 3314, "\u0120rebuild": 3315, "\u0120council": 3316, "\u0120infantry": 3317, "\u0120Ray": 3318, "\u0120voters": 3319, "negative": 3320, "\u0120Theater": 3321, "\u01202007": 3322, "\u0120audio": 3323, "\u0120safeguard": 3324, "zing": 3325, "\u0120Observatory": 3326, "Cre": 3327, "\u0120sudden": 3328, "\u0120infringe": 3329, "\u0120Portuguese": 3330, "\u0120advantage": 3331, "\u0120May": 3332, "essed": 3333, "\u00d0\u00be": 3334, "\u0120charged": 3335, "\u0120family": 3336, "\u0120wildlife": 3337, "rog": 3338, "\u0120Disabilities": 3339, "\u0120Doctor": 3340, "\u0120ramp": 3341, "tel": 3342, "\u0120Dam": 3343, "\u0120Norman": 3344, "\u0120influences": 3345, "\u0120inability": 3346, "\u0120occasionally": 3347, "thetic": 3348, "\u0120group": 3349, "\u0120speculation": 3350, "\u0120Vo": 3351, "\u0120enthusiast": 3352, "yle": 3353, "ome": 3354, "nar": 3355, "\u0120hearts": 3356, "\u0120printing": 3357, "\u0120respected": 3358, "\u0120IL": 3359, "\u0120Express": 3360, "\u0120cavities": 3361, "\u0120lightning": 3362, "ology": 3363, "\u0120v": 3364, "\u0120customer": 3365, "Publisher": 3366, "\u0120money": 3367, "\u0120operated": 3368, "\u01201864": 3369, "\u0120menstrual": 3370, "\u0120Val": 3371, "\u0120Roman": 3372, "\u0120voice": 3373, "\u0120houses": 3374, ")": 3375, "ani": 3376, "\u0120theme": 3377, "<": 3378, "\u0120tells": 3379, "net": 3380, "\u0120obesity": 3381, "\u0120scroll": 3382, "\u0120pulling": 3383, "\u0120school": 3384, "\u0120Supp": 3385, "\u0120Threat": 3386, "\u0120Hamlet": 3387, "\u0120ambassador": 3388, "uits": 3389, "\u0120They": 3390, "\u012038": 3391, "\u0120illnesses": 3392, "\u0120Discuss": 3393, "\u0120Bre": 3394, "ively": 3395, "tinguish": 3396, "\u0120calculated": 3397, "\u0120transit": 3398, "\u0120cross": 3399, "\u0120Roberts": 3400, "eu": 3401, "\u0120pa": 3402, "\u0120w": 3403, "\u0120mon": 3404, "\u0120util": 3405, "\u0120glucose": 3406, "\u0120pursuit": 3407, "\u0120flowing": 3408, "\u0120leader": 3409, "\u0120eco": 3410, "ik": 3411, "\u0120Psych": 3412, "\u0120shift": 3413, "\u0120Cleveland": 3414, "\u0120audit": 3415, "\u0120forest": 3416, "\u0120grades": 3417, "iles": 3418, "Students": 3419, "chen": 3420, "\u0120offshore": 3421, "\u0120province": 3422, "\u0120\u00c3\u0139": 3423, "\u0120platform": 3424, "President": 3425, "\u0120members": 3426, "\u0120deliberate": 3427, "45": 3428, "\u0120rank": 3429, "\u0120Jefferson": 3430, "\u0120line": 3431, "\u0120calculation": 3432, "\u0120strengths": 3433, "engine": 3434, "El": 3435, "\u0120drives": 3436, "\u0120jurisdiction": 3437, "\u0120germ": 3438, "section": 3439, "\u0120talk": 3440, "\u0120gland": 3441, "\u0120pursue": 3442, "\u0120remember": 3443, "\u0120suffered": 3444, "\u0120da": 3445, "\u0120removal": 3446, "\u0120Series": 3447, "Joseph": 3448, "\u0120schools": 3449, "\u0120lord": 3450, "\u0120asks": 3451, "\u0120Poverty": 3452, "\u0120Scientist": 3453, "counter": 3454, "\u0120epidemic": 3455, "\u0120Gemini": 3456, "\u0120To": 3457, "\u0120chronic": 3458, "\u0120ignorance": 3459, "\u0120tail": 3460, "\u0120representation": 3461, "ge": 3462, "\u0120recommendation": 3463, "degenerative": 3464, "\u0120supposed": 3465, "\u0120per": 3466, "\u0120currently": 3467, "Pla": 3468, "\u0120place": 3469, "\u0120electrodes": 3470, "nom": 3471, "\u0120conflict": 3472, "\u0120Ar": 3473, "\u0120finds": 3474, "\u01201916": 3475, "Thanks": 3476, "\u0120sharing": 3477, "\u0120Ang": 3478, "\u0120pregnancies": 3479, "\u0120manipulation": 3480, "\u01201960": 3481, "\u0120antiretroviral": 3482, "\u0120Director": 3483, "\u0120extinction": 3484, "\u0120receipt": 3485, "\u0120-": 3486, "\u0120Central": 3487, "\u0120cardiovascular": 3488, "\u0120according": 3489, "\u0120category": 3490, "\u0120wherever": 3491, "\u0120clu": 3492, "\u0120railroad": 3493, "\u0120divers": 3494, "\u0120BMI": 3495, "\u0120affects": 3496, "\u0120Mess": 3497, "\u0120relationships": 3498, "\u0120matter": 3499, ")\u00e2\u0122\u0136": 3500, "\u0120triple": 3501, "ectomy": 3502, "\u0120During": 3503, "\u0120MS": 3504, "mi": 3505, "tim": 3506, "\u0120intermittent": 3507, "bus": 3508, "\u0120Landsat": 3509, "-": 3510, "\u0120rose": 3511, "\u0120sail": 3512, "\u0120Trail": 3513, "\u0120receives": 3514, "rry": 3515, "\u0120capturing": 3516, "\u0120importantly": 3517, "\u0120Belgium": 3518, "\u0120connect": 3519, "similar": 3520, "\u0120mount": 3521, "\u0120graphic": 3522, "\u0120pollutants": 3523, "\u0120vagina": 3524, "\u0120Korea": 3525, "\u0120packed": 3526, "ca": 3527, "\u0120logarithm": 3528, "\u0120aggregate": 3529, "\u0120replace": 3530, "SP": 3531, "\u0120Conservative": 3532, "UT": 3533, "\u0120dimension": 3534, "\u0120Neither": 3535, "\u0120therefore": 3536, "\u0120generous": 3537, "nical": 3538, "\u0120Team": 3539, "fed": 3540, "\u0120portion": 3541, "\u0120finish": 3542, "\u0120ordinary": 3543, "\u0120digging": 3544, "\u0120deposits": 3545, "MW": 3546, "\u0120reaching": 3547, "\u0120Tdap": 3548, "Wh": 3549, "\u0120400": 3550, "llo": 3551, "\u0120markers": 3552, "\u0120vocal": 3553, "iled": 3554, "\u0120efficiently": 3555, "\u0120micro": 3556, "\u0120accessed": 3557, "\u0120Being": 3558, "\u0120Ch": 3559, "\u0120disorder": 3560, "\u0120prefix": 3561, "\u0120pros": 3562, "\u0120Standard": 3563, "\u0120badly": 3564, "Current": 3565, "\u0120accurately": 3566, "\u0120sustained": 3567, "\u0120the": 3568, "\u0120shower": 3569, "sp": 3570, "\u0120complement": 3571, "\u01201972": 3572, "\u01201967": 3573, "Why": 3574, "Similar": 3575, "\u0120Numerous": 3576, "\u0120baptism": 3577, "\u0120wi": 3578, "\u0120observed": 3579, "\u0120Open": 3580, "found": 3581, "\u0120absorb": 3582, "\u0120interfere": 3583, "\u0120marriage": 3584, "\u0120carry": 3585, "\u0120Against": 3586, "quest": 3587, "\u0120banana": 3588, "\u0120authorities": 3589, "\u0120clothing": 3590, "Ta": 3591, "It": 3592, "rich": 3593, "2001": 3594, "\u0120Station": 3595, "\u0120cheese": 3596, "\u0120statistical": 3597, "\u0120unf": 3598, "\u0120relief": 3599, "\u0120spiritual": 3600, "\u0120grid": 3601, "\u0120cement": 3602, "\u0120friendship": 3603, "\u0120Monte": 3604, "po": 3605, "\u0120warrior": 3606, "ylene": 3607, "\u0120forever": 3608, "\u0120normal": 3609, "\u0120\u00ce": 3610, "\u0120departments": 3611, "\u0120Historic": 3612, "\u0120Bull": 3613, "\u0120Des": 3614, "\u0120likewise": 3615, "Oh": 3616, "cal": 3617, "ature": 3618, "\u0120signaling": 3619, "zen": 3620, "\u0120Bur": 3621, "\u0120good": 3622, "\u0120pot": 3623, "\u0120births": 3624, "\u0120Pi": 3625, "Se": 3626, "away": 3627, "\u0120carbon": 3628, "Darwin": 3629, "nia": 3630, "\u0120Have": 3631, "\u0120mercury": 3632, "\u0120weekend": 3633, "\u0120various": 3634, "Phys": 3635, "\u0120hundred": 3636, "\u0120cognitive": 3637, "\u0120resemblance": 3638, "\u0120poles": 3639, "\u0120Capital": 3640, "\u0120Castro": 3641, "\u0120Inquiry": 3642, "\u0120brings": 3643, "\u0120Multi": 3644, "\u0120requires": 3645, "\u0120Too": 3646, "\u0120Hungarian": 3647, "\u0120turbine": 3648, "will": 3649, "\u0120recession": 3650, "\u0120noun": 3651, "\u0120off": 3652, "\u012049": 3653, "\u0120disabilities": 3654, "\u0120Fla": 3655, "crimination": 3656, "On": 3657, "dicate": 3658, "\u0120visits": 3659, "\u0120Peru": 3660, "\u0120gradual": 3661, "\u0120ignored": 3662, "\u0120concerning": 3663, "\u0120tidal": 3664, "\u0120millennium": 3665, "\u0120undergraduate": 3666, "rot": 3667, "\u0120trains": 3668, "\u0120premier": 3669, "\u0120Success": 3670, "\u0120seek": 3671, "\u0120success": 3672, "\u0120perfect": 3673, "65": 3674, "22": 3675, "\u0120equator": 3676, "\u0120row": 3677, "\u0120Competition": 3678, "\u0120maritime": 3679, "\u0120--": 3680, "\u0120legitimate": 3681, "\u0120fer": 3682, "\u0120glyc": 3683, "\u0120hippocampus": 3684, "\u0120Convention": 3685, "\u0120supremacy": 3686, "\u0120UV": 3687, "\u0120Evaluation": 3688, "emia": 3689, "\u0120forecast": 3690, "\u0120Muslim": 3691, "\u0120kick": 3692, "\u0120handled": 3693, "\u0120Ten": 3694, "\u0120severity": 3695, "\u0120combine": 3696, "\u0120retained": 3697, "\u0120shortly": 3698, "\u0120restrictions": 3699, "\u0120descendants": 3700, "Jewish": 3701, "ced": 3702, "ef": 3703, "ko": 3704, "ura": 3705, "\u0120branch": 3706, "\u0120meat": 3707, "GO": 3708, "\u0120Account": 3709, "eth": 3710, "\u0120Despite": 3711, "\u0120operations": 3712, "\u0120carriage": 3713, "\u0120recently": 3714, "\u0120Edition": 3715, "\u0120therapist": 3716, "\u0120contributions": 3717, "\u0120Bru": 3718, "\u0120base": 3719, "\u0120shrink": 3720, "\u0120pH": 3721, "\u0120actors": 3722, "\u0120ju": 3723, "\u0120coral": 3724, "\u0120knows": 3725, "\u01202005": 3726, "\u0120visitor": 3727, "Help": 3728, "\u0120indoor": 3729, "ulus": 3730, "nta": 3731, "\u0120Cuban": 3732, "\u01201920": 3733, "\u0120plantation": 3734, "Typical": 3735, "\u0120Wal": 3736, "\u0120eruption": 3737, "\u0120publications": 3738, "\u0120dwell": 3739, "\u0120hospitals": 3740, "\u0120mothers": 3741, "CO": 3742, "\u0120silent": 3743, "gra": 3744, "Your": 3745, "\u0120patron": 3746, "\u0120Together": 3747, "\u0120freeze": 3748, "47": 3749, "\u0120Industrial": 3750, "\u0120Risk": 3751, "\u0120sensory": 3752, "\u0120Census": 3753, "\u0120Ag": 3754, "\u0120Sel": 3755, "\u0120Strategies": 3756, "\u0120degradation": 3757, "Mon": 3758, "77": 3759, "\u0120addition": 3760, "\u0120Syria": 3761, "Ra": 3762, "\u0120East": 3763, "\u0120social": 3764, "\u0120..": 3765, "\u0120injured": 3766, "\u0120usual": 3767, "\u0120applicant": 3768, "\u0120earliest": 3769, "\u0120recreation": 3770, "March": 3771, "\u0120bri": 3772, "pm": 3773, "After": 3774, "\u0120kingdom": 3775, "\u0120skills": 3776, "\u0120soccer": 3777, "\u0120stronger": 3778, "with": 3779, "\u0120consuming": 3780, "ponents": 3781, "\u0120pictures": 3782, "\u0120synagogue": 3783, "\u0120patient": 3784, "\u0120tolerance": 3785, "King": 3786, "\u0120terrorist": 3787, "\u0120inspection": 3788, "\u0120disclos": 3789, "meter": 3790, "logist": 3791, "\u0120praise": 3792, "\u0120Phillips": 3793, "izes": 3794, "\u0120topic": 3795, "\u0120propag": 3796, "\u0120Treasury": 3797, "\u0120scholar": 3798, "\u0120fuel": 3799, "\u0120Equipment": 3800, "\u0120\u00d8": 3801, "\u0120disease": 3802, "\u0120fans": 3803, "\u0120items": 3804, "\u0120We": 3805, "\u0120juice": 3806, "\u0120wasn": 3807, "\u0120carries": 3808, "\u0120developing": 3809, "\u0120lasting": 3810, "\u00dd": 3811, "\u0120pro": 3812, "\u0120options": 3813, "\u0120floors": 3814, "\u0120story": 3815, "\u0120Orange": 3816, "pres": 3817, "\u01201862": 3818, "\u0120Romans": 3819, "\u0120suggestion": 3820, "for": 3821, "Still": 3822, "marked": 3823, "\u0120lamp": 3824, "\u0120moon": 3825, "\u0120dual": 3826, "\u0120WA": 3827, "\u0120treated": 3828, "due": 3829, "\u0120comprehension": 3830, "\u0120colon": 3831, "\u0120overall": 3832, "\u0120Tax": 3833, "\u0120grew": 3834, "\u0120accepted": 3835, "\u0120cooling": 3836, "\u0120Scripture": 3837, "\u0120Wildlife": 3838, "\u0120helium": 3839, "\u0120regulation": 3840, "\u0120Ja": 3841, "\u0120Mesoamerica": 3842, "mber": 3843, "\u0120Wallace": 3844, "connected": 3845, "ories": 3846, "\u0120Design": 3847, "mation": 3848, "\u0120diabetes": 3849, "\u0120pier": 3850, "\u0120scrub": 3851, "\u0120well": 3852, "\u0120developments": 3853, "\u0120Environmental": 3854, "\u0120States": 3855, "\u0120Latin": 3856, "\u0120ants": 3857, "\u0120involved": 3858, "\u0120s": 3859, "\u0120Mil": 3860, "\u0120groundwater": 3861, "\u0120Before": 3862, "\u00e2\u0122\u00a6": 3863, "\u0120allowed": 3864, "\u0120fatty": 3865, "\u0120believes": 3866, "\u0120distribution": 3867, "\u0120200": 3868, "right": 3869, "\u0120ill": 3870, "\u0120watershed": 3871, "\u0120Dai": 3872, "plus": 3873, "\u0120production": 3874, "\u0120source": 3875, "\u0120citizenship": 3876, "\u0120manager": 3877, "\u0120grandmother": 3878, "\u0120Commission": 3879, "\u0120ties": 3880, "aj": 3881, "\u0120trails": 3882, "\u0120islands": 3883, "eg": 3884, "\u0120Peter": 3885, "\u0120devastated": 3886, "focused": 3887, "\u0120delayed": 3888, "\u0120reduction": 3889, "\u0120Its": 3890, "\u0120norm": 3891, "\u0120inter": 3892, "\u0120whales": 3893, "\u012097": 3894, "\u0120farmer": 3895, "\u0120produced": 3896, "\u0120inflammatory": 3897, "\u0120Had": 3898, "\u0120LI": 3899, "\u0120Important": 3900, "\u0120vul": 3901, "\u0120Opportun": 3902, "\u0120disclose": 3903, "\u0123": 3904, "\u0120Trotsky": 3905, "\u0120nausea": 3906, "\u0120cirrhosis": 3907, "\u0120Week": 3908, "\u0120fracturing": 3909, "\u0120toll": 3910, "atic": 3911, "\u0120prefer": 3912, "\u0120WW": 3913, "\u0120Reports": 3914, "\u0120throat": 3915, "\u012087": 3916, "\u0120Text": 3917, "\u0120resistance": 3918, "\u01201949": 3919, "\u0120She": 3920, "\u0120forcing": 3921, "\u0120Around": 3922, "NET": 3923, "\u0120installing": 3924, "\u0120courtesy": 3925, "08": 3926, "\u0120Peace": 3927, "\u0120six": 3928, "\u0120backgrounds": 3929, "\u0120Wet": 3930, "\u0120referendum": 3931, "\u0120leaders": 3932, "\u0120button": 3933, "\u01201938": 3934, "\u0120thin": 3935, "\u0120coming": 3936, "\u0120disposable": 3937, "\u0120GHG": 3938, "Department": 3939, "\u0120realize": 3940, "uted": 3941, "\u0120varies": 3942, "\u0120constitutes": 3943, "\u0120infants": 3944, "\u0120exterior": 3945, "\u0120undergo": 3946, "\u0120votes": 3947, "\u0120chip": 3948, "\u0120Typically": 3949, "al": 3950, "dging": 3951, "\u0120dental": 3952, "\u0120ailments": 3953, "\u0120spreads": 3954, "\u0120Answer": 3955, "alth": 3956, "\u0120generating": 3957, "DNA": 3958, "ess": 3959, "\u0120adds": 3960, "\u0120Nic": 3961, "\u0120Soil": 3962, "\u0120berries": 3963, "\u0120assumption": 3964, "\u0120battery": 3965, "\u0120Hopkins": 3966, "\u0120gauge": 3967, "\u0120fossil": 3968, "\u0120Exposure": 3969, "\u0120event": 3970, "\u0120combat": 3971, "\u0120supervision": 3972, "LA": 3973, "\u0120Alice": 3974, "\u0120Bang": 3975, "\u0120adjustments": 3976, "\u0120Category": 3977, "\u0120voluntary": 3978, "\u0120shifts": 3979, "\u0120Products": 3980, "\u0120Market": 3981, "\u0120Phoenix": 3982, "\u0120Purchase": 3983, "fly": 3984, "International": 3985, "\u0120borrowed": 3986, "\u0120enroll": 3987, "\u0120notably": 3988, "\u0120Michael": 3989, "iance": 3990, "Im": 3991, "\u0120designers": 3992, "tag": 3993, "\u0120getting": 3994, "\u0120neighborhood": 3995, "\u00c3\u00a9e": 3996, "\u0120immortal": 3997, "\u0120crown": 3998, "\u0120scans": 3999, "\u0120Secretary": 4000, "\u0120quoted": 4001, "ula": 4002, "\u0120Defense": 4003, "\u0120string": 4004, "Please": 4005, "\u0120Commun": 4006, "worm": 4007, "\u0120Information": 4008, "\u0120card": 4009, "\u0120Zen": 4010, "\u0120Mac": 4011, "\u0120Counsel": 4012, "\u0120Exam": 4013, "\u0120gate": 4014, "\u0120proved": 4015, "\u0120increased": 4016, "\u0120Las": 4017, "\u0120Int": 4018, "\u0120prevention": 4019, "\u0120scientist": 4020, "\u0120organizational": 4021, "Christ": 4022, "r\u00c3\u00a9": 4023, "\u0120Labor": 4024, "\u0120gains": 4025, "\u0120copyright": 4026, "\u0120King": 4027, "vey": 4028, "\u0120Organic": 4029, "\u0120watching": 4030, "\u0120Travel": 4031, "\u0120spill": 4032, "\u0120theologian": 4033, "\u0120Donald": 4034, "\u0120nodes": 4035, "\u0120Implement": 4036, "\u0120print": 4037, "\u0120Rob": 4038, "\u0120really": 4039, "\u0120Deep": 4040, "\u0120Times": 4041, "\u0120steps": 4042, "\u0120equipment": 4043, "\u0120Navajo": 4044, "\u0120antibiotics": 4045, "te": 4046, "controlled": 4047, "\u0120\u00e2\u0122\u0136": 4048, "High": 4049, "\u0120Union": 4050, "\u0120fertil": 4051, "xt": 4052, "\u0120results": 4053, "These": 4054, "\u0120poli": 4055, "\u0120exposure": 4056, "\u0120employees": 4057, "\u0120divine": 4058, "ele": 4059, "\u012081": 4060, "\u0120)": 4061, "\u0120Price": 4062, "\u0120diff": 4063, "\u0120Wheel": 4064, "\u0120un": 4065, "\u0120against": 4066, "\u0120Vice": 4067, "\u0120feudal": 4068, "\u0120business": 4069, "\u0120trap": 4070, "\u0120castle": 4071, "mine": 4072, "edge": 4073, "\u0120i": 4074, "\u0120veins": 4075, "Par": 4076, "\u0120Colo": 4077, "\u0120ended": 4078, "\u0120admit": 4079, "\u0120temple": 4080, "\u0120Wars": 4081, "\u0120fertilizers": 4082, "\u0120Ker": 4083, "\u00bf": 4084, "\u0120Gardens": 4085, "\u0120seasonal": 4086, "\u0120Lincoln": 4087, "onomy": 4088, "America": 4089, "\u0120Complete": 4090, "\u0120Griffith": 4091, "\u0120citations": 4092, "\u00a1": 4093, "\u0120Cer": 4094, "gro": 4095, "defined": 4096, "\u0120extraordinary": 4097, "\u0120Proper": 4098, "\u0120listening": 4099, "\u0120layers": 4100, "\u0120Gardner": 4101, "\u0120copied": 4102, "\u0120low": 4103, "\u0120improving": 4104, "\u0120toward": 4105, "\u0120politician": 4106, "\u0120All": 4107, "rh": 4108, "\u0120competition": 4109, "\u0120Years": 4110, "ax": 4111, "\u0120Max": 4112, "\u0120Foot": 4113, "eur": 4114, "\u0120spiral": 4115, "\u0120historic": 4116, "\u0120Christianity": 4117, "ensis": 4118, "\u0120Based": 4119, "green": 4120, "\u0120describe": 4121, "rum": 4122, "\u0120discussion": 4123, "dom": 4124, "\u0120greater": 4125, "\u0120elect": 4126, "\u0120deep": 4127, "\u0120Columbus": 4128, "\u0120dependence": 4129, "ities": 4130, "\u0120WHO": 4131, "\u0120informal": 4132, "\u0120Essay": 4133, "rying": 4134, "bs": 4135, "\u0120four": 4136, "\u0120display": 4137, "\u0120nourish": 4138, "\u0120side": 4139, "\u0120land": 4140, "\u0120carpenter": 4141, "\u0120mar": 4142, "\u0120Ronald": 4143, "phys": 4144, "stem": 4145, "\u0120fail": 4146, "\u0120reinforce": 4147, "\u0120IP": 4148, "\u0120definition": 4149, "\u0120spirits": 4150, "\u0120wore": 4151, "\u0120Sleep": 4152, "\u0120quit": 4153, "\u0120toys": 4154, "band": 4155, "\u0120stood": 4156, "\u0120seizures": 4157, "\u0120numerical": 4158, "nas": 4159, "\u0120flying": 4160, "\u0120Dec": 4161, "\u0120folder": 4162, "\u0120displacement": 4163, "\u0120Cy": 4164, "\u0120Friday": 4165, "\u0120Panel": 4166, "\u0120fin": 4167, "\u0120young": 4168, "\u0120drowning": 4169, "\u0120probable": 4170, "\u0120individually": 4171, "\u0120Grammar": 4172, "\u0120helmet": 4173, "urance": 4174, "Wind": 4175, "UL": 4176, "\u0120cool": 4177, "\u0120force": 4178, "cross": 4179, "RA": 4180, "operative": 4181, "\u0120points": 4182, "\u0120engagement": 4183, "\u0120parliamentary": 4184, "\u0120consideration": 4185, "\u0120Nur": 4186, "\u0120+": 4187, "\u0120replacing": 4188, "\u0120correspond": 4189, "\u0120Alge": 4190, "\u0120shuttle": 4191, "\u0120Index": 4192, "tained": 4193, "\u012077": 4194, "\u0120pulp": 4195, "1995": 4196, "\u0120Johnson": 4197, "\u0120reasons": 4198, "\u0120maize": 4199, "\u0120more": 4200, "\u0120impossible": 4201, "\u0120experienced": 4202, "form": 4203, "DC": 4204, "\u0120inevitably": 4205, "\u0120Harrison": 4206, "\u0120regulate": 4207, "\u0120revision": 4208, "\u0120headquarters": 4209, "\u0120valued": 4210, "\u0120significantly": 4211, "\u0120inland": 4212, "\u0120calcium": 4213, "\u0120iodine": 4214, "\u0120signing": 4215, "\u0120cli": 4216, "\u00ec": 4217, "\u0120length": 4218, "\u0120official": 4219, "\u0120disobedience": 4220, "\u0120Cretaceous": 4221, "teg": 4222, "\u0120SE": 4223, "ni": 4224, "\u0120Amsterdam": 4225, "\u0120procedures": 4226, "\u0120tell": 4227, "ser": 4228, "ounce": 4229, "\u0120undertake": 4230, "\u0120Relations": 4231, "\u0120Beau": 4232, "\u0120inform": 4233, "\u0120shipped": 4234, "foot": 4235, "\u0120biblical": 4236, "\u0120feeling": 4237, "oph": 4238, "\u0120arranged": 4239, "\u0120Southeast": 4240, "\u0120murdered": 4241, "ococcus": 4242, "\u0120Facilit": 4243, "scale": 4244, ":||": 4245, "local": 4246, "\u0120U": 4247, "\u0120Evans": 4248, "Ri": 4249, "posing": 4250, "Su": 4251, "\u0120explained": 4252, "\u0120rapid": 4253, "\u0120Money": 4254, "\u0120natural": 4255, "\u0120almost": 4256, "icular": 4257, "\u0120minim": 4258, "\u00e7": 4259, "\u0120textbooks": 4260, "\",": 4261, "\u0120freshwater": 4262, "\u0120courts": 4263, "\u0120Computer": 4264, "lastname": 4265, "\u0120accord": 4266, "\u0120vaccines": 4267, "\u0120Universe": 4268, "\u0120demonstrations": 4269, "Astronomers": 4270, "\u0120seminar": 4271, "\u0120security": 4272, "\u0120algae": 4273, "\u0120investigating": 4274, "\u0120Up": 4275, "\u0120sum": 4276, "\u0120sole": 4277, "\u0120adequate": 4278, "\u0120Number": 4279, "thelial": 4280, "Global": 4281, "\u0120potentially": 4282, "\u0120malicious": 4283, "2013": 4284, "Total": 4285, "\u0120remarkable": 4286, "wide": 4287, "\u0120illegal": 4288, "West": 4289, "\u0120responsive": 4290, "\u0120Jordan": 4291, "\u0120awake": 4292, "sor": 4293, "oms": 4294, "ig": 4295, "dise": 4296, "\u0120Reform": 4297, "\u0120Bridge": 4298, "\u0120stimulation": 4299, "\u0120Jul": 4300, "\u0120Continental": 4301, "\u0120tools": 4302, "\u0120guess": 4303, "Ca": 4304, "\u0120counterparts": 4305, "\u0120Hispanic": 4306, "\u0120Holland": 4307, "\u0120lawn": 4308, "\u0120connects": 4309, "\u0120continues": 4310, "tailed": 4311, "\u0120vary": 4312, "Q": 4313, "\u0120passenger": 4314, "\u0120pots": 4315, "\u0120Creation": 4316, "bu": 4317, "\u0120gather": 4318, "\u012023": 4319, "\u0120'": 4320, "\u0120rice": 4321, "\u0120converting": 4322, "\u0120Ontario": 4323, "Wi": 4324, "\u0120soil": 4325, "\u0120different": 4326, "feeding": 4327, "\u0120sessions": 4328, "\u0120seventh": 4329, "\u0120acne": 4330, "ends": 4331, "\u0120pages": 4332, "\u0120forget": 4333, "\u0120Revelation": 4334, "Today": 4335, "co": 4336, "\u0120seal": 4337, "\u0120violent": 4338, "iya": 4339, "91": 4340, "\u0120beam": 4341, "its": 4342, "vity": 4343, "\u0120obligations": 4344, "\u00c5\u012f": 4345, "\u0120robots": 4346, "\u0120mm": 4347, "being": 4348, "opathy": 4349, "\u0120logical": 4350, "\u0120ear": 4351, "\u0120Brahman": 4352, "\u0120sect": 4353, "\u0120rid": 4354, "pel": 4355, "\u0120Flight": 4356, "\u0120southwest": 4357, "\u0120scientific": 4358, "\u0120Susan": 4359, "\u0120poem": 4360, "\u0120warfare": 4361, "\u0120constellation": 4362, "\u0120Pacific": 4363, "\u0120immigrant": 4364, "\u0120chunks": 4365, "\u0120code": 4366, "\u0120observe": 4367, "thy": 4368, "Table": 4369, "\u0120Net": 4370, "\u0120hierarchical": 4371, "\u0120Drive": 4372, "\u00d0\u00b8": 4373, "\u0120Kn": 4374, "\u0120turn": 4375, "NT": 4376, "\u0120crisis": 4377, "tter": 4378, "\u0120benefici": 4379, "\u0120router": 4380, "\u0120ox": 4381, "\u0120anatomy": 4382, "</": 4383, "Under": 4384, "\u0120comprised": 4385, "\u0120News": 4386, "\u0120obligation": 4387, "\u0120Affairs": 4388, "\u0120P": 4389, "\u0120bright": 4390, "\u0120Oxford": 4391, "\u0120Samuel": 4392, "Spec": 4393, "Common": 4394, "\u0120Re": 4395, "so": 4396, "\u0120Maryland": 4397, "\u0120threats": 4398, "because": 4399, "\u0120Du": 4400, "\u0120\u00e2\u0128\u0134": 4401, "\u0120asking": 4402, "\u0120ga": 4403, "count": 4404, "\u0120decreases": 4405, "in": 4406, "\u0120private": 4407, "\u0120sons": 4408, "\u0120lumin": 4409, "surrection": 4410, "\u012085": 4411, "\u0120behave": 4412, "\u0120wooden": 4413, "\u0120500": 4414, "\u0120tin": 4415, "\u0120salmon": 4416, "\u0120triumph": 4417, "\u0120reaches": 4418, "\u0120hierarchy": 4419, "\u0120Reg": 4420, "prehen": 4421, "\u0120analyzing": 4422, "\u0120MC": 4423, "\u0120Minister": 4424, "\u0120meanings": 4425, "\u0120opera": 4426, "worms": 4427, "\u0120manufacture": 4428, "\u0120Brown": 4429, "\u0120death": 4430, "\u0120norms": 4431, "\u0120retain": 4432, "\u0120Gaza": 4433, "\u0120ante": 4434, "inary": 4435, "\u0120distributed": 4436, "\u0120Council": 4437, "kon": 4438, "\u0120suspend": 4439, "\u0120culture": 4440, "ologies": 4441, "\u0120diploma": 4442, "\u0120Cultural": 4443, "del": 4444, "atory": 4445, "\u0120definitely": 4446, "gov": 4447, "\u0120securities": 4448, "\u0120delight": 4449, "cker": 4450, "\u0120wood": 4451, "personal": 4452, "\u0120website": 4453, "\u00d8": 4454, "\u0120modification": 4455, "pot": 4456, "\u0120altogether": 4457, "\u0120flooding": 4458, "\u0120alert": 4459, "four": 4460, "equent": 4461, "George": 4462, "\u0120practice": 4463, "\u0120cited": 4464, "\u0120produces": 4465, "\u0120remaining": 4466, "\u0120advised": 4467, "\u0120numer": 4468, "\u0120lock": 4469, "\u0120auxiliary": 4470, "\u0120withdraw": 4471, "\u0120blessed": 4472, "\u0120Services": 4473, "bo": 4474, "\u0120Furthermore": 4475, "tensive": 4476, "groups": 4477, "ved": 4478, "\u0120called": 4479, "ctor": 4480, "\u0120qualified": 4481, "DD": 4482, "\u0120name": 4483, "\u0120peas": 4484, "kan": 4485, "\u0120pass": 4486, "\u0120clearly": 4487, "sa": 4488, "\u0120suffering": 4489, "face": 4490, "\u0120functions": 4491, "it": 4492, "ense": 4493, "\u0120Are": 4494, "Did": 4495, "\u0120sur": 4496, "\u0120Girls": 4497, "\u0120discipline": 4498, "\u0120Sci": 4499, "\u0120updated": 4500, "\u0120confidence": 4501, "\u0120gases": 4502, "\u0120traced": 4503, "\u0120minister": 4504, "\u0120sin": 4505, "\u0120philosopher": 4506, "cular": 4507, "ological": 4508, "\u0120Partnership": 4509, "\u0120fathers": 4510, "\u0120introduction": 4511, "\u0120stakeholders": 4512, "\u0120fundamentally": 4513, "\u0120Boulder": 4514, "ults": 4515, "master": 4516, "\u0120resources": 4517, "\u0120composer": 4518, "\u0120efficient": 4519, "\u0120table": 4520, "Who": 4521, "\u0120Protection": 4522, "\u0120Channel": 4523, "\u0120Rad": 4524, "\u0120son": 4525, "\u0120agrees": 4526, "\u0120exercises": 4527, "\u0120fluids": 4528, "\u0120sperm": 4529, "\u0120microbial": 4530, "\u0120finance": 4531, "\u00c6": 4532, "\u0120season": 4533, "\u0120Reserve": 4534, "\u0120posed": 4535, "\u0120plays": 4536, "\u0120relation": 4537, "\u012093": 4538, "\u0120jaw": 4539, "end": 4540, "thers": 4541, "\u0120commentary": 4542, "ported": 4543, "\u0120vitamin": 4544, "Back": 4545, "\u0120yogurt": 4546, "att": 4547, "\u0120traits": 4548, "11": 4549, "\u0120captive": 4550, "\u0120expressing": 4551, "\u0120Hi": 4552, "\u0120equivalent": 4553, "lter": 4554, "\u0120Mr": 4555, "\u0120Private": 4556, ".)": 4557, "\u0120patriarch": 4558, "\u0120harder": 4559, "\u0120Prevention": 4560, "\u0120imagery": 4561, "\u0120Publishing": 4562, "\u0120suburb": 4563, "\u0120doing": 4564, "\u0120count": 4565, "cs": 4566, "hawk": 4567, "thirds": 4568, "\u0120justice": 4569, "pper": 4570, "\u012018": 4571, "\u0120sovereign": 4572, "\u0120stabil": 4573, "\u0120Main": 4574, "\u0120Far": 4575, "\u0120retrieve": 4576, "ioned": 4577, "sup": 4578, "Within": 4579, "\u0137": 4580, "\u0120\u00c2\u00bb": 4581, "\u0120artery": 4582, "\u0120Ke": 4583, "\u0120rot": 4584, "pur": 4585, "\u0120admir": 4586, "cre": 4587, "squ": 4588, "\u0120Others": 4589, "\u0120opponents": 4590, "\u0120foundations": 4591, "\u0120Manager": 4592, "\u0120poets": 4593, "\u0120publishing": 4594, "\u0120questioned": 4595, "\u0120significant": 4596, "\u0120compressed": 4597, "lb": 4598, "\u0120extracted": 4599, "\u0120accumulated": 4600, "\u0120fat": 4601, "eas": 4602, "\u0120enamel": 4603, "\u0120hospital": 4604, "\u0120chemical": 4605, "\u0120proper": 4606, "\u0120VA": 4607, "\u0120Sen": 4608, "\u012064": 4609, "\u0120gifts": 4610, "Us": 4611, "\u0120Colorado": 4612, "\u0120Eisenhower": 4613, "Cl": 4614, "\u0120hydr": 4615, "\u0120once": 4616, "\u0120calculate": 4617, "\u0120companion": 4618, "LE": 4619, "\u0120kilometres": 4620, "\u0120join": 4621, "\u0120triggered": 4622, "\u0120consultation": 4623, "\u0120gaining": 4624, "\u0120Table": 4625, "\u0120School": 4626, "\u0120root": 4627, "\u0120bar": 4628, "ce": 4629, "pine": 4630, "\u0120flights": 4631, "\u0120solve": 4632, "PR": 4633, "\u0120requests": 4634, "\u0120sensing": 4635, "\u0120Let": 4636, "\u0120Fight": 4637, "\u0120small": 4638, "\u0120Jersey": 4639, "ier": 4640, "\u00a4": 4641, "umb": 4642, "\u0120true": 4643, "\u0120numerous": 4644, "\u0120trash": 4645, "ku": 4646, "\u0120hardware": 4647, "connect": 4648, "rl": 4649, "\u01201945": 4650, "\u012002": 4651, "\u0120curricula": 4652, "\u0120chosen": 4653, "ws": 4654, "\u0120lungs": 4655, "\u0120\u00e2\u0122\u013a": 4656, "\u0120illumin": 4657, "\u0120tears": 4658, "\u0120colony": 4659, "\u0120physicians": 4660, "\u0120sake": 4661, "\u0120Yiddish": 4662, "\u0120critic": 4663, "ial": 4664, "\u01201900": 4665, "\u0120worse": 4666, "except": 4667, "\u0120Conservancy": 4668, "\u0120scrutiny": 4669, "\u0120Apparently": 4670, "\u0120Slovak": 4671, "\u0120claiming": 4672, "tre": 4673, "\u0120breastfeeding": 4674, "\u0120somehow": 4675, "\u0120safely": 4676, "\u0120Dallas": 4677, "\u0120cheap": 4678, "\u0120thanks": 4679, "\u012058": 4680, "\u0120concentrating": 4681, "\u0120Pharmac": 4682, "eo": 4683, "ock": 4684, "ans": 4685, "\u0120Bi": 4686, "new": 4687, "\u0120Himalaya": 4688, "\u0120sclerosis": 4689, "\u0120hill": 4690, "\u0120objectives": 4691, "BO": 4692, "\u0120spectacular": 4693, "\u0120laugh": 4694, "\u0120Examples": 4695, "\u0120Gri": 4696, "\u0120creating": 4697, "\u0120discovered": 4698, "\u0120storage": 4699, "\u0120Bangladesh": 4700, "\u01201932": 4701, "\u0120irrelevant": 4702, "\u0120searches": 4703, "\u0120moist": 4704, "\u0120incentive": 4705, "\u0120Roy": 4706, "\u0120Letter": 4707, "\u0120surface": 4708, "\u0120released": 4709, "\u0120Jonathan": 4710, "\u0120grab": 4711, "\u0120careful": 4712, "\u0120given": 4713, "\u0120Olympic": 4714, "\u0120peaks": 4715, "\u0120computing": 4716, "\u0120Fra": 4717, "\u0120gold": 4718, "national": 4719, "\u0120AD": 4720, "\u0120Everglades": 4721, "\u0120accredited": 4722, "\u0120series": 4723, "\u0120exclude": 4724, "\u0120Geneva": 4725, "\u0120sub": 4726, "Hz": 4727, "\u0120metaphor": 4728, "\u0120Congressional": 4729, "\u0120Pol": 4730, "\u0120shu": 4731, "\u0120bloody": 4732, "23": 4733, "\u0120acknowledg": 4734, "\u01202000": 4735, "\u0120Birmingham": 4736, "\u0120Pharisees": 4737, "\u0120investigated": 4738, "\u0120boats": 4739, "\u0120broke": 4740, "health": 4741, "ied": 4742, "\u0120border": 4743, "\u0120anxious": 4744, "\u0120generic": 4745, "\u0120cru": 4746, "\u0120conservation": 4747, "\u0120mental": 4748, "\u0120orchestra": 4749, "gil": 4750, "\u0120pagan": 4751, "rest": 4752, "\u0120mega": 4753, "\u0120stewardship": 4754, "\u0120Vitamin": 4755, "\u0120Pierre": 4756, "qu": 4757, "\u0120slaves": 4758, "Di": 4759, "\u0120Alcohol": 4760, "\u0120substance": 4761, "\u0120fright": 4762, "\u0120continued": 4763, "ken": 4764, "\u0120stressed": 4765, "\u0120storms": 4766, "write": 4767, "Medicine": 4768, "\u0120consider": 4769, "sha": 4770, "\u0120Love": 4771, "ference": 4772, "conscious": 4773, "\u0120Strategy": 4774, "\u0120Hamilton": 4775, "Ja": 4776, "\u0120legislature": 4777, "Net": 4778, "tru": 4779, "GB": 4780, "\u0120visited": 4781, "\u0120recycled": 4782, "\u0120satellite": 4783, "\u0120honour": 4784, "\u0120vowel": 4785, "\u0120episodes": 4786, "However": 4787, "\u0120sun": 4788, "\u0120what": 4789, "\u0120generate": 4790, "\u0120Constitutional": 4791, "\u0120rich": 4792, "od": 4793, "\u0120av": 4794, "ton": 4795, "\u0120Sabbath": 4796, "\u0120robotic": 4797, "\u0120Twitter": 4798, "\u0120wars": 4799, "vice": 4800, "\u0120preserve": 4801, "\u0120careers": 4802, "ternity": 4803, "\u0120dip": 4804, "iva": 4805, "\u0120minority": 4806, "\u0120griev": 4807, "nell": 4808, "\u0120Party": 4809, "zard": 4810, "vision": 4811, "\u0120vegetable": 4812, "\u0120Maritime": 4813, "\u0120bench": 4814, "\u0120Ecology": 4815, "\u0120transmitted": 4816, "\u0120shared": 4817, "\u0120caffeine": 4818, "\u0120them": 4819, "\u0120withdrawal": 4820, "sequent": 4821, "\u0120HPV": 4822, "Earlier": 4823, "\u0120renamed": 4824, "\u0120satisfaction": 4825, "\u0120maximize": 4826, "\u0120strip": 4827, "ested": 4828, "\u0120Deputy": 4829, "\u0120bone": 4830, "\u012075": 4831, "\u0120complications": 4832, "TP": 4833, "\u0120Meeting": 4834, "\u0120ellip": 4835, "\u0120myriad": 4836, "\u0120myself": 4837, "\u0120counted": 4838, "\u0120cleaned": 4839, "\u0120subjected": 4840, "\u0120interpretations": 4841, "\u0120merchants": 4842, "\u0120modifications": 4843, "\u0120nanotubes": 4844, "income": 4845, "\u0120evapo": 4846, "\u0120discrimination": 4847, "\u0120driving": 4848, "\u0120condens": 4849, "\u0120bent": 4850, "vy": 4851, "\u0120public": 4852, "\u0120incorporation": 4853, ".(": 4854, "\u0120Russian": 4855, "\u0120AI": 4856, "\u0120VIII": 4857, "\u0120fixed": 4858, "\u0120expertise": 4859, "\u0120imagine": 4860, "\u0120introduced": 4861, "\u0120courses": 4862, "duced": 4863, "\u0120editors": 4864, "lington": 4865, "\u0120departure": 4866, "\u0120Thompson": 4867, "\u0120Police": 4868, "ept": 4869, "\u01201918": 4870, "\u0120genocide": 4871, "shop": 4872, "\u0120Institution": 4873, "\u0120amino": 4874, "\u0120annex": 4875, "\u0120Chinese": 4876, "\u0120initiatives": 4877, "\u0120involvement": 4878, "\u0120Ak": 4879, "rays": 4880, "\u0120tour": 4881, "\u0120promise": 4882, "rine": 4883, "\u0120cancel": 4884, "\u0120liberty": 4885, "\u0120Monument": 4886, "\u0120renewable": 4887, "\u0120justification": 4888, "\u0120standard": 4889, "\u0120acet": 4890, "\u0120too": 4891, "\u0120CO": 4892, "\u0120kg": 4893, "\u0120resolved": 4894, "Results": 4895, "\u012d": 4896, "pathy": 4897, "cyclopaedia": 4898, "\u0120reward": 4899, "\u0120credited": 4900, "\u0120Bra": 4901, "itable": 4902, "\u0120shame": 4903, "\u0120exp": 4904, "now": 4905, "Simply": 4906, "\u0120martyr": 4907, "\u0120skull": 4908, "\u0120sporadic": 4909, "\u0120typically": 4910, "\u0120cho": 4911, "\u0120smoke": 4912, "\u0120credit": 4913, "\u0120Antarctica": 4914, "\u0120Social": 4915, "\u0120subtract": 4916, "\u0120acoustic": 4917, "\u0120Pe": 4918, "\u0120Golden": 4919, "\u0120suspicious": 4920, "ury": 4921, "\u0120worthy": 4922, "\u0120observ": 4923, "2002": 4924, "system": 4925, "\u012009": 4926, "tings": 4927, "\u0120preservation": 4928, "\u0120phone": 4929, "\u0120musical": 4930, "ifies": 4931, "\u01201941": 4932, "\u0120govern": 4933, "plo": 4934, "\u0120spectrum": 4935, "eng": 4936, "\u0120Arm": 4937, "Those": 4938, "\u0120nearly": 4939, "\u0120threatening": 4940, "\u0120exile": 4941, "\u0120Ni\u00c3\u00b1o": 4942, "\u0120seemingly": 4943, "\u0120Sur": 4944, "\u0120Ce": 4945, "people": 4946, "\u0120machinery": 4947, "\u0120helps": 4948, "\u0120GI": 4949, "ms": 4950, "\u0120leaving": 4951, "vol": 4952, "\u0120Silver": 4953, "\u0120Book": 4954, "\u0120pitch": 4955, "\u0120arising": 4956, "icing": 4957, "etary": 4958, "\u0120tight": 4959, "\u00b9": 4960, "\u0120happen": 4961, "\u0120Ara": 4962, "\u0120Hitler": 4963, "\u0120sympathetic": 4964, "\u0120officially": 4965, "ien": 4966, "\u0120pond": 4967, "\u0120neck": 4968, "\u0120year": 4969, "\u0120Yes": 4970, "\u0120nano": 4971, "\u0120Ohio": 4972, "\u0120neat": 4973, "\u0120Basin": 4974, "scopic": 4975, "\u0120establishing": 4976, "low": 4977, "HS": 4978, "nut": 4979, "\u0120become": 4980, "\u0120transactions": 4981, "Treatment": 4982, "\u0120emigr": 4983, "\u0120Ya": 4984, "\u0120often": 4985, "rth": 4986, "88": 4987, "\u0120Organization": 4988, "\u0120Pearson": 4989, "inch": 4990, "\u0120office": 4991, "\u01201985": 4992, "\u0120matters": 4993, "ners": 4994, "sla": 4995, "\u0120malnutrition": 4996, "\u0120aloud": 4997, "tern": 4998, "\u0120stimul": 4999, "\u0120alleviate": 5000, "film": 5001, "\u0120Among": 5002, "\u0120Timothy": 5003, "\u0120disciplines": 5004, "\u01201975": 5005, "ric": 5006, "ounded": 5007, "\u0120Reservoir": 5008, "\u0120vegetarian": 5009, "\u0120special": 5010, "\u0120Margaret": 5011, "wind": 5012, "\u01206": 5013, "\u0120Iraq": 5014, "\u0120firstname": 5015, "\u0120chocolate": 5016, "\u0120historically": 5017, "\u0120dioxide": 5018, "\u0120dimensions": 5019, "\u0120precipit": 5020, "\u0120lawyers": 5021, "lab": 5022, "\u0120burst": 5023, "\u012016": 5024, "\u0120Maria": 5025, "\u0120incandescent": 5026, "Wo": 5027, "\u0120sentence": 5028, "oted": 5029, "\u0120True": 5030, "\u0120specialized": 5031, "\u0120promises": 5032, "\u0120Teachers": 5033, "\u0120stimuli": 5034, "\u012f": 5035, "ie": 5036, "\u0120Digital": 5037, "\u0120Universal": 5038, "\u0120singing": 5039, "\u0120enabling": 5040, "\u012031": 5041, "\u0120dye": 5042, "\u0120Fukushima": 5043, "\u0120Iran": 5044, "\u0120GM": 5045, "\u0120Venezuela": 5046, "\u0120conjunction": 5047, "\u0120Urban": 5048, "\u0120wild": 5049, "\u0120females": 5050, "\u0120Uruguay": 5051, "\u0120Magazine": 5052, ".[": 5053, "\u0120allergen": 5054, "\u0120puts": 5055, "\u0120Quarter": 5056, "Je": 5057, "Str": 5058, "\u0120confusion": 5059, "wall": 5060, "\u0120Early": 5061, "\u0120Nations": 5062, "\u0120Centre": 5063, "\u0120Employ": 5064, "\u0120unchanged": 5065, "\u0120reconstruction": 5066, "Dec": 5067, "cf": 5068, "\u0120with": 5069, "EF": 5070, "\u0120yield": 5071, "\u0120touch": 5072, "\u0120flavor": 5073, "\u0120creature": 5074, "\u0120USA": 5075, "Some": 5076, "\u0120about": 5077, "\u0120royal": 5078, "\u0120retard": 5079, "\u0120resonance": 5080, "\u0120economics": 5081, "(": 5082, "ck": 5083, "him": 5084, "\u0120zones": 5085, "\u0120intervention": 5086, "\u0120Then": 5087, "\u0120mi": 5088, "\u0120focus": 5089, "\u0120pipeline": 5090, "dles": 5091, "\u0120patients": 5092, "life": 5093, "\u0120Revolution": 5094, "\u01201998": 5095, "ult": 5096, "\u0120signs": 5097, "\u0120gasoline": 5098, "\u0120law": 5099, "\u01207": 5100, "\u0120miRNAs": 5101, "appro": 5102, "\u0120altered": 5103, "\u0120Tan": 5104, "\u0120awkward": 5105, "partisan": 5106, "rts": 5107, "natal": 5108, "\u0120Was": 5109, "\u0120standardized": 5110, "\u0120myocardial": 5111, "\u0120proportions": 5112, "would": 5113, "\u0120definitive": 5114, "group": 5115, "\u0120required": 5116, "\u0120depressed": 5117, "\u0120starts": 5118, "\u0120amateur": 5119, "em": 5120, "\u0120drawn": 5121, "\u0120steady": 5122, "\u0120bacterium": 5123, "PC": 5124, "\u0120Par": 5125, "\u0120renowned": 5126, "\u0120Areas": 5127, "\u0120Truth": 5128, "\u0120difficulty": 5129, "\u0120regain": 5130, "nged": 5131, "\u0120saint": 5132, "bearing": 5133, "Chinese": 5134, "\u0120twelfth": 5135, "\u0120containing": 5136, "\u0120id": 5137, "chin": 5138, "\u0120cargo": 5139, "\u0120countless": 5140, "\u0120wrist": 5141, "\u0120tribes": 5142, "nce": 5143, "pl": 5144, "\u0120abuse": 5145, "Small": 5146, "\u0120Leon": 5147, "\u0120Family": 5148, "ico": 5149, "control": 5150, "Other": 5151, "\u0120ammonia": 5152, "\u0120Website": 5153, "\u0120Village": 5154, "\u0120finite": 5155, "\u0120reviewed": 5156, "\u0120representatives": 5157, "test": 5158, "\u0120populations": 5159, "cle": 5160, "\u0120drift": 5161, "\u0120Zo": 5162, "\u0120Spencer": 5163, "\u0120Sir": 5164, "\u0120unit": 5165, "\u0120wine": 5166, "\u0120learning": 5167, "\u0120rains": 5168, "\u0120morality": 5169, "\u0120physically": 5170, "ulent": 5171, "\u0120bit": 5172, "\u0120Histori": 5173, "\u0120faces": 5174, "Fe": 5175, "\u0120basin": 5176, "Courtesy": 5177, "erg": 5178, "\u0120Advanced": 5179, "ols": 5180, "\u0120Virus": 5181, "\u0120burning": 5182, "\u0120advances": 5183, "\u0120bind": 5184, "\u0120Restoration": 5185, "\u0120clause": 5186, "\u0120Dream": 5187, "\u0120only": 5188, "\u0120settlements": 5189, "\u0120obese": 5190, "sts": 5191, "\u0120Etruscan": 5192, "\u0120velocity": 5193, "\u0120reporting": 5194, "\u0120Montessori": 5195, "\u0120RE": 5196, "\u0120Virginia": 5197, "\u0120generated": 5198, "\u00d9": 5199, "\u00e1\u00b9": 5200, "\u0120exploration": 5201, "\u0120AND": 5202, "\u0120murder": 5203, "\u0120African": 5204, "\u0120strict": 5205, "\u0120assert": 5206, "\u0120day": 5207, "\u0120aware": 5208, "\u0120deserve": 5209, "\u0120Robert": 5210, "\u0120Smart": 5211, "\u0120Books": 5212, "86": 5213, "\u0120regular": 5214, "\u0120begins": 5215, "\u0120Eco": 5216, "\u0120hy": 5217, "\u0120latitude": 5218, "\u0120increasingly": 5219, "\u0120covering": 5220, "\u0120lettuce": 5221, "mates": 5222, "\u0120undesirable": 5223, "\u0120stay": 5224, "ise": 5225, "\u0120Sarah": 5226, "\u0120PLoS": 5227, "\u0120faster": 5228, "\u0120framework": 5229, "\u0120Be": 5230, "You": 5231, "\u0120ana": 5232, "\u0120Type": 5233, "lating": 5234, "\u0120accept": 5235, "\u0120Libya": 5236, "\u0120Leo": 5237, "\u0120wounds": 5238, "\u0120geography": 5239, "rant": 5240, "\u0120Tips": 5241, "fect": 5242, "\u0120mixed": 5243, "\u0120Besides": 5244, "\u0120escaped": 5245, "\u0120squeeze": 5246, "square": 5247, "\u00ce": 5248, "sized": 5249, "\u0120future": 5250, "\u0120Honduras": 5251, "\u0120NASA": 5252, "\u0120genetics": 5253, "\u0120node": 5254, "ught": 5255, "\u0120radical": 5256, "\u0120critically": 5257, "\u0120Andr": 5258, "\u0120had": 5259, "\u0120recognizing": 5260, "\u0120remedies": 5261, "\u0120upcoming": 5262, "\u0120sword": 5263, "\u0120doubled": 5264, "\u0120Mar": 5265, "\u0120FA": 5266, "\u0120reasoning": 5267, "Tu": 5268, "nnie": 5269, "\u0120Sm": 5270, "\u0120pp": 5271, "\u0120receptor": 5272, "\u0120caused": 5273, "\u0120Four": 5274, "\u0120Houston": 5275, "\u0120Brian": 5276, "\u0120tightly": 5277, "\u0120miss": 5278, "\u0120Parliament": 5279, "\u0120background": 5280, "\u0120participated": 5281, "izer": 5282, "OP": 5283, "\u0120flank": 5284, "eed": 5285, "OCR": 5286, "\u0120annual": 5287, "\u0120artillery": 5288, "\u0120rates": 5289, "\u0120Office": 5290, "\u0120less": 5291, "\u0120bridge": 5292, "\u0120rising": 5293, "\u0120Transportation": 5294, "\u0120pairs": 5295, "\u0120lava": 5296, "\u0120showed": 5297, "\u0120unlikely": 5298, "cast": 5299, "\u0120fault": 5300, "\u0120acknowledge": 5301, "\u0120opportunities": 5302, "\u0120pile": 5303, "\u012073": 5304, "\u0120machine": 5305, "\u0120ahead": 5306, "\u0120fragments": 5307, "\u0120elephant": 5308, "\u0120amygdala": 5309, "\u0120Sand": 5310, "\u0120Wi": 5311, "\u0120patrol": 5312, "\u0120relocated": 5313, "ould": 5314, "\u0120observation": 5315, "\u0120amyloid": 5316, "\u0120hurricane": 5317, "IS": 5318, "\u0120designation": 5319, "\u0120rotation": 5320, "\u0120suspected": 5321, "\u0120access": 5322, "\u0120double": 5323, "\u0120Communi": 5324, "\u0120incompatible": 5325, "@": 5326, "\u0120households": 5327, "iding": 5328, "\u0120Yosemite": 5329, "\u0120checks": 5330, "\u0120disposal": 5331, "\u0120Practice": 5332, "use": 5333, "\u0120ancestry": 5334, "\u0120shade": 5335, "\u0120momentum": 5336, "800": 5337, "\u0120confined": 5338, "\u0120conducting": 5339, "mann": 5340, "\u0120Next": 5341, "\u0120attached": 5342, "\u0120term": 5343, "\u0120extraction": 5344, "\u0120Business": 5345, "\u0120integrity": 5346, "\u0120acted": 5347, "\u0120manufacturers": 5348, "Hy": 5349, "\u0120books": 5350, "\u0120societal": 5351, "clusive": 5352, "appear": 5353, "\u0120bamboo": 5354, "\u0120Things": 5355, "\u00c3\u00b3": 5356, "sil": 5357, "\u0120Save": 5358, "ical": 5359, "\u0120Alzheimer": 5360, "sibility": 5361, "\u0120telling": 5362, "\u0120geo": 5363, "\u0120forms": 5364, "\u0120mammal": 5365, "\u0120fighters": 5366, "\u0120genetically": 5367, "\u0120demonstrate": 5368, "\u0120que": 5369, "\u0120uterine": 5370, "72": 5371, "\u0120Planet": 5372, "\u0120extensively": 5373, "\u00c3\u0143a": 5374, "\u0120jurisprudence": 5375, "\u0120Corinthians": 5376, "\u0120relevance": 5377, "ling": 5378, "\u0120valleys": 5379, "\u0120decorative": 5380, "ues": 5381, "rging": 5382, "\u0120Cooper": 5383, "ister": 5384, "\u01201919": 5385, "fore": 5386, "\u0120networking": 5387, "\u0120Man": 5388, "\u0120biology": 5389, "gated": 5390, "\u0120helicopter": 5391, "\u0120Cle": 5392, "\u00ef\u00ac\u0123": 5393, "\u0120preferences": 5394, "\u0120Consumer": 5395, "\u0120morph": 5396, "\u0120com": 5397, "\u0120conclude": 5398, "\u0120home": 5399, "ror": 5400, "\u0120target": 5401, "\u0120Student": 5402, "\u0120plague": 5403, "\u0120Normal": 5404, "\u0120shapes": 5405, "\u0120magazine": 5406, "ensity": 5407, "\u0120every": 5408, "\u0120Siberia": 5409, "ative": 5410, "\u0120Hydro": 5411, "\u0120banking": 5412, "\u0120exclusive": 5413, "\u0120bought": 5414, "\u0120theatre": 5415, "\u0120striking": 5416, "\u0120detailed": 5417, "urs": 5418, "\u0120110": 5419, "\u0120again": 5420, "\u0120counsel": 5421, "\u0120dream": 5422, "Pop": 5423, "\u0120prestige": 5424, "\u0120Here": 5425, "\u0120dishes": 5426, "\u0120Ran": 5427, "\u0120Machine": 5428, "\u0120harvesting": 5429, "\u0120abusive": 5430, "\u0120Care": 5431, "\u0120exist": 5432, "\u0120EurekAlert": 5433, "\u0120Norway": 5434, "ide": 5435, "\u0120ep": 5436, "\u0120backed": 5437, "osa": 5438, "mancipation": 5439, "\u0120ci": 5440, "\u0120gain": 5441, "Le": 5442, "\u0120lecture": 5443, "\u0120permit": 5444, "\u0120Egyptian": 5445, "fluence": 5446, "\u0120Therefore": 5447, "\u0120gardening": 5448, "\u0120attempt": 5449, "\u0120excellence": 5450, "\u0120Tower": 5451, "\u0120Knight": 5452, "\u0120gap": 5453, "\u0120Co": 5454, "\u0120controversies": 5455, "\u0120crew": 5456, "every": 5457, "\u0120publish": 5458, "\u0120drastically": 5459, "\u0120Haz": 5460, "\u0120views": 5461, "\u00e1\u00b8\u012f": 5462, "\u0120Prophet": 5463, "ulations": 5464, "all": 5465, "major": 5466, "\u0120representative": 5467, "\u0120lo": 5468, "ft": 5469, "\u0120module": 5470, "\u0120shortage": 5471, "\u0120Works": 5472, "\u0120chiefly": 5473, "\u0120believe": 5474, "\u0120incorporated": 5475, "bn": 5476, "\u0120reflecting": 5477, "\u0120armies": 5478, "\u0120Babylon": 5479, "ga": 5480, "\u0120Mis": 5481, "\u0120Executive": 5482, "\u0120van": 5483, "\u0120Kevin": 5484, "\u0120difficulties": 5485, "\u0120sold": 5486, "\u0120Con": 5487, "\u0120Clay": 5488, "\u0120organisations": 5489, "hs": 5490, "\u0120Games": 5491, "\u0120Perspectives": 5492, "ila": 5493, "\u0120horn": 5494, "efficient": 5495, "bian": 5496, "\u0120Newton": 5497, "\u0120invasive": 5498, "\u0120cervical": 5499, "\u0120Celtic": 5500, "\u0120resource": 5501, "\u0120swing": 5502, "tech": 5503, "sufficient": 5504, "\u0120behalf": 5505, "VE": 5506, "\u0120miraculous": 5507, "\u0120accommodation": 5508, "ART": 5509, "\u0120wholly": 5510, "\u0120hormone": 5511, "\u0120exploring": 5512, "\u0120drag": 5513, "\u01202016": 5514, "\u00e0\u00a4": 5515, "see": 5516, "\u00cd": 5517, "\u0120unlike": 5518, "\u0120Aristotle": 5519, "\u0120Count": 5520, "\u0120Ethiopia": 5521, "\u0120Class": 5522, "\u0120\u00e2\u0122\u013b": 5523, "\u0120Journey": 5524, "\u0120catheter": 5525, "\u0120entered": 5526, "\u0120communications": 5527, "\u0120Where": 5528, "\u0120Prov": 5529, "\u0120blacks": 5530, "bies": 5531, "\u0120exit": 5532, "\u01201940": 5533, "\u0120environmental": 5534, "\u0120Turkish": 5535, "piration": 5536, "\u0120technological": 5537, "\u0120hasn": 5538, "\u0120hormonal": 5539, "\u0120cabin": 5540, "\u0120Kel": 5541, "\u0120organize": 5542, "\u0120asleep": 5543, "\u0120myth": 5544, "\u0120counseling": 5545, "rated": 5546, "hill": 5547, "\u0120evolving": 5548, "\u01201904": 5549, "\u01201908": 5550, "\u0120picked": 5551, "\u0120Dominican": 5552, "LC": 5553, "\u0120ongoing": 5554, "\u0120Darwin": 5555, "\u0120Har": 5556, "\u0120soldiers": 5557, "\u0120asked": 5558, "\u0120intact": 5559, "\u00d0\u00ba": 5560, "analysis": 5561, "\u0120Mars": 5562, "\u0120ethical": 5563, "\u0120residential": 5564, "istry": 5565, "\u0120purity": 5566, "\u0120Britain": 5567, "\u0120breathing": 5568, "\u0120census": 5569, "\u0120Bosnia": 5570, "\u0120bars": 5571, "\u0120hi": 5572, "non": 5573, "\u0120sent": 5574, "\u0120weigh": 5575, "\u0120sheets": 5576, "\u0120cluster": 5577, "\u0120mistaken": 5578, "\u0120Fox": 5579, "\u0120offers": 5580, "\u0120entertainment": 5581, "\u0120Miami": 5582, "\u0120ride": 5583, "poli": 5584, "\u0120intimate": 5585, "\u0120impression": 5586, "\u0120reservation": 5587, "\u0120cup": 5588, "\u0120anniversary": 5589, "\u0120attribute": 5590, "Just": 5591, "tions": 5592, "\u012070": 5593, "order": 5594, "\u0120resemble": 5595, "\u012089": 5596, "\u0120Tele": 5597, "\u0120assist": 5598, "Multi": 5599, "\u0120dissolution": 5600, "\u0120vin": 5601, "\u0120doors": 5602, "\u0120desirable": 5603, "therapy": 5604, "Bl": 5605, "\u0120Tri": 5606, "63": 5607, "Additional": 5608, "\u0120Stories": 5609, "\u0120Sri": 5610, "pple": 5611, "\u0120wastes": 5612, "\u0120te": 5613, "OC": 5614, "\u0120cur": 5615, "\u0120your": 5616, "AC": 5617, "Up": 5618, "\u0120grass": 5619, "phthalm": 5620, "\u0120feelings": 5621, "\u0120fantasy": 5622, "ets": 5623, "At": 5624, "\u0120meet": 5625, "\u0120gray": 5626, "\u0120graduation": 5627, "\u0120drilling": 5628, "\u0120emphasizing": 5629, "\u0120discourage": 5630, "\u0120Qur": 5631, "tropical": 5632, "ab": 5633, "\u0120Princip": 5634, "dges": 5635, "\u0120embarked": 5636, "\u0120125": 5637, "\u0120Sacramento": 5638, "\u0120Surgery": 5639, "\u0120Saturn": 5640, "\u0120Pr": 5641, "\u0120mud": 5642, "\u0120modest": 5643, "\u0120combining": 5644, "\u0120ages": 5645, "\u0120align": 5646, "\u0120roman": 5647, "\u0120Em": 5648, "\u0120Tha": 5649, "Th": 5650, "\u0120occupy": 5651, "\u0120pure": 5652, "\u0120scope": 5653, "arc": 5654, "da": 5655, "\u0120biomass": 5656, "er": 5657, "\u0120hip": 5658, "\u00ac": 5659, "izations": 5660, "\u0120chromosomal": 5661, "cating": 5662, "speaking": 5663, "\u0120directors": 5664, "\u0120allo": 5665, "\u0120positioned": 5666, "\u0120way": 5667, "\u0120vaccination": 5668, "\u0120protocols": 5669, "screen": 5670, "\u0120gluten": 5671, "oring": 5672, "tw": 5673, "\u0120society": 5674, "ove": 5675, "AP": 5676, "\u0120Group": 5677, "friendly": 5678, "\u0120staff": 5679, "\u0120Stephen": 5680, "\u0120Chavez": 5681, "\u0120planet": 5682, "\u0120rating": 5683, "\u0120several": 5684, "\u0120differs": 5685, "\u0120simplicity": 5686, "\u0120noted": 5687, "\u0120Rather": 5688, "\u0120outdoor": 5689, "aneous": 5690, "\u012092": 5691, "\u0120migrate": 5692, "\u0120newborn": 5693, "\u0120Waste": 5694, "\u0120ball": 5695, "\u0120wr": 5696, "\u0120attributes": 5697, "tters": 5698, "\u0120Resources": 5699, "\u0120Kr": 5700, "\u0120captured": 5701, "\u0120Fifth": 5702, "\u0120corro": 5703, "\u0120Yo": 5704, "\u0120Thailand": 5705, "\u0120partly": 5706, "\u0120Survival": 5707, "\u0120unexpected": 5708, "\u0120miners": 5709, "\u0120Stanley": 5710, "\u0120efficacy": 5711, "\u0120injection": 5712, "\u0120serpent": 5713, "\u0120magnet": 5714, "\u0120cha": 5715, "\u0120sequential": 5716, "\u0120cra": 5717, "\u0120surgical": 5718, "\u0120debate": 5719, "\u0120receptors": 5720, "irs": 5721, "\u0120negotiations": 5722, "\u0120posterior": 5723, "\u0120senior": 5724, "\u0120plug": 5725, "\u0120Navy": 5726, "\u0120Ram": 5727, "\u0120fr": 5728, "\").": 5729, "\u0120firmly": 5730, "\u0120Chemical": 5731, "\u0120Crow": 5732, "NASA": 5733, "\u0120Instrument": 5734, "\u0120corridor": 5735, "\u0120Because": 5736, "\u0120If": 5737, "\u0120educator": 5738, "\u0120wouldn": 5739, "ur": 5740, "\u0120Institute": 5741, "\u0120Associated": 5742, "yth": 5743, "\u0120pope": 5744, "\u0120symptoms": 5745, "\u0120Clinton": 5746, "\u0120insects": 5747, "\u0120studying": 5748, "\u0120restaurants": 5749, "\u0120simulations": 5750, "Sp": 5751, "\u0120subject": 5752, "\u0120medieval": 5753, "\u0120Screen": 5754, "\u0120processed": 5755, "\u0120comparisons": 5756, "ated": 5757, "\u0120communicating": 5758, "ger": 5759, "\u0120orange": 5760, "rent": 5761, "\u0120Disaster": 5762, "\u0120Ph": 5763, "ati": 5764, "\u0120capacities": 5765, "\u0120takes": 5766, "\u0120demands": 5767, "ba": 5768, "\u0120Ama": 5769, "\u0120negatively": 5770, "\u0120artifact": 5771, "\u0120Monitoring": 5772, "\u0120straw": 5773, "\u0120accent": 5774, "\u0120Pand": 5775, "\u01201860": 5776, "\u0120mode": 5777, "\u0120decom": 5778, "\u0120Play": 5779, "\u0120My": 5780, "\u0120streams": 5781, "\u0120say": 5782, "\u00e2\u0124\u00ac": 5783, "\u0120Arctic": 5784, "bre": 5785, "\u0120Access": 5786, "ux": 5787, "\u0120artisans": 5788, "sum": 5789, "\u0120jealous": 5790, "Posted": 5791, "\u0120emphasize": 5792, "\u00c8": 5793, "\u0120Ferdinand": 5794, "dh": 5795, "\u0120stock": 5796, "Through": 5797, "\u0120Great": 5798, "\u0120Webster": 5799, "\u0120they": 5800, "\u0120Usually": 5801, "\u0120gathered": 5802, "50": 5803, "\u0120III": 5804, "\u0120channel": 5805, "\u0120viral": 5806, "\u0120arrange": 5807, "\u0120plots": 5808, "\u0120time": 5809, "\u0120Nicaragua": 5810, "\u0120infrastructure": 5811, "\u0120harbor": 5812, "\u0120pole": 5813, "\u0120searching": 5814, "RY": 5815, "Civil": 5816, "\u0120expenses": 5817, "vation": 5818, "\u0120Murray": 5819, "\u0120Traditional": 5820, "\u0120anim": 5821, "\u0120absolute": 5822, "\u0120canon": 5823, "\u0120Museum": 5824, "\u0120periods": 5825, "Method": 5826, "\u0120coconut": 5827, "\u0120rounded": 5828, "\u0120territories": 5829, "\u0120Levi": 5830, "\u0120implicated": 5831, "\u0120Liber": 5832, "\u0120Protocol": 5833, "\u0120urine": 5834, "anuel": 5835, "\u0120hollow": 5836, "\u0120falls": 5837, "\u0120Beat": 5838, "\u0120levels": 5839, "\u0120largely": 5840, "\u013b": 5841, "\u0120Obviously": 5842, "\u0134": 5843, "\u0120lowering": 5844, "\u0120non": 5845, "\u0120maybe": 5846, "\u0120Emergency": 5847, "Engineer": 5848, "\u0120Glacier": 5849, "ut": 5850, "\u0120AA": 5851, "\u0120Boston": 5852, "\u0120Soc": 5853, "\u0120policy": 5854, "\u0120thinks": 5855, "torial": 5856, "\u0120desire": 5857, "\u0120wake": 5858, "\u0120approximately": 5859, "\u0120Statistical": 5860, "\u0120Mad": 5861, "\u0120prophe": 5862, "\u0120nutritious": 5863, "\u0120Jr": 5864, "ued": 5865, "ade": 5866, "\u0120appetite": 5867, "\u0120Elsevier": 5868, "\u0120sealed": 5869, "\u0120myel": 5870, "\u0120achievement": 5871, "\u0120Strategic": 5872, "\u0120delegates": 5873, "\u0120breed": 5874, "language": 5875, "Sign": 5876, "\u0120ports": 5877, "\u0120pre": 5878, "\u0120filled": 5879, "\u0120Cochran": 5880, "mail": 5881, "break": 5882, "\u0120businesses": 5883, "\u0120hosts": 5884, "\u0120diffuse": 5885, "suming": 5886, "\u0120regulated": 5887, "\u0120Why": 5888, "\u0120Byzantine": 5889, "\u0120panel": 5890, "\u0120knew": 5891, "\u0120ignorant": 5892, "\u0120Mur": 5893, "\u0120Failure": 5894, "\u0120prairie": 5895, "\u0120Ident": 5896, "\u0120transcend": 5897, "\u0120strat": 5898, "\u00b1": 5899, "Me": 5900, "\u0120Graham": 5901, "\u0120Jos": 5902, "ark": 5903, "\u0120methodology": 5904, "\u0120ur": 5905, "borough": 5906, "\u0120mulch": 5907, "Language": 5908, "\u0120crucial": 5909, "\u00ed": 5910, "\u0120~": 5911, "\u0120Iranian": 5912, "\u0120butterflies": 5913, "\u0120powered": 5914, "\u0120produce": 5915, "IG": 5916, ".'": 5917, "\u0120Mo": 5918, "\u00e2\u0122\u013b.": 5919, "\u0120graphs": 5920, "\u0120unique": 5921, "\u0120orders": 5922, "\u0120approximation": 5923, "\u0120anyway": 5924, "prom": 5925, "cra": 5926, "\u0120incorporate": 5927, "bed": 5928, "\u0120mixing": 5929, "\u0120trials": 5930, "\u0120socio": 5931, "\u0120belonged": 5932, "\u0120hybrid": 5933, "lf": 5934, "\u0120Basic": 5935, "Ha": 5936, "\u0120instructed": 5937, "Te": 5938, "\u0120pretend": 5939, "\u0120fra": 5940, "town": 5941, "\u0120Call": 5942, "\u0120shock": 5943, "\u0120arguably": 5944, "nc": 5945, "\u0120Date": 5946, "\u0120operation": 5947, "\u0120mad": 5948, "\u0120Simpson": 5949, "\u0120conference": 5950, "\u00d0": 5951, "\u0120intelligence": 5952, "\u0120compassion": 5953, "\u0120mod": 5954, "\u0120photographs": 5955, "\u0120ridicul": 5956, "\u0120Interior": 5957, "\u0120Previous": 5958, "EG": 5959, "\u0120Sin": 5960, "\u0120Archive": 5961, "\u0120contest": 5962, "which": 5963, "ch": 5964, "\u0120Low": 5965, "\u0120churches": 5966, "\u0120Shu": 5967, "\u0120controls": 5968, "\u0120cessation": 5969, "\u0120second": 5970, "\u0120stu": 5971, "\u0120classrooms": 5972, "\u00bc": 5973, "Jo": 5974, "\u0120somewhere": 5975, "\u0120parent": 5976, "05": 5977, "\u012053": 5978, "tributed": 5979, "\u0120enhanced": 5980, "\u0120vendors": 5981, "era": 5982, "\u0120universal": 5983, "UP": 5984, "\u0120vomiting": 5985, "\u0120beer": 5986, "Min": 5987, "\u0120Nan": 5988, "mo": 5989, "\u0120variations": 5990, "\u0120Finland": 5991, "\u0120meadow": 5992, "\u0120mention": 5993, "\u0120operate": 5994, "erson": 5995, "\u0120magma": 5996, "\u0120objects": 5997, "specific": 5998, "\u0120und": 5999, "yed": 6000, "BS": 6001, "\u0120rain": 6002, "\u0120arose": 6003, "\u012082": 6004, "\u0120from": 6005, "\u0120nervous": 6006, "\u0120Used": 6007, "\u0120themselves": 6008, "fs": 6009, "\u0120bet": 6010, "\u0120Bor": 6011, "\u0120sounds": 6012, "\u0120HIV": 6013, "\u0120rotating": 6014, "\u0120irre": 6015, "vor": 6016, "\u0120Tasmania": 6017, "\u0120cut": 6018, "\u0120cadmium": 6019, "X": 6020, "\u0120chamber": 6021, "\u0120settled": 6022, "\u0120Camp": 6023, "\u0120astonishing": 6024, "\u0120Breast": 6025, "\u0120Scientists": 6026, "\u0120engineering": 6027, "\u0120knee": 6028, "\u0120Cons": 6029, "\u0120International": 6030, "\u0120mathematician": 6031, "\u0120Province": 6032, "\u0120fabric": 6033, "card": 6034, "\u0120medication": 6035, "\u0120intuition": 6036, "\u0120wound": 6037, "\u0120Legislat": 6038, "phone": 6039, "\u0120overnight": 6040, "\u0120rises": 6041, "\u0120emerging": 6042, "\u0120mono": 6043, "eh": 6044, "\u0120downward": 6045, "tic": 6046, "\u0120journals": 6047, "\u0120lucky": 6048, "naissance": 6049, "owed": 6050, "\u0120mammo": 6051, "Such": 6052, "TO": 6053, "\u0120operating": 6054, "\u0120contaminated": 6055, "\u012099": 6056, "\u0120Canyon": 6057, "\u0120filters": 6058, "\u0120wing": 6059, "\u0120monastery": 6060, "\u0120Fact": 6061, "\u0120grandparents": 6062, "nus": 6063, "\u0120descended": 6064, "\u0120construct": 6065, "\u0120Governor": 6066, "\u0120ax": 6067, "\u0120chemistry": 6068, "\u0120vegetation": 6069, "\u0120addressed": 6070, "\u01201946": 6071, "\u0120contained": 6072, "Pu": 6073, "\u0120Cemetery": 6074, "\u0120Treaty": 6075, "\u0120soul": 6076, "\u0120Prussia": 6077, "\u0120controlled": 6078, "atives": 6079, "\u0120Australia": 6080, "\u0120chest": 6081, "\u0120supervis": 6082, "\u00d7": 6083, "\u0120glutamate": 6084, "\u0120drinking": 6085, "\u0120hostilities": 6086, "\u0120occur": 6087, "\u0120adjacent": 6088, "\u0120authoritative": 6089, "ica": 6090, "ses": 6091, "ne": 6092, "\u0120Fr": 6093, "\u0120Var": 6094, "\u0120Lu": 6095, "\u0120locked": 6096, "\u0120Network": 6097, "\u0120profession": 6098, "\u0120R": 6099, "See": 6100, "making": 6101, "\u0120oak": 6102, "\u0120delivering": 6103, "\u0120Students": 6104, "\u0120Deb": 6105, "til": 6106, "omic": 6107, "\u0143": 6108, "\u0120ste": 6109, "\u0120nothing": 6110, "\u0120stimulating": 6111, "\u0120dorsal": 6112, "\u0120basic": 6113, "\u0120Telescope": 6114, "\u0120opens": 6115, "post": 6116, "Inter": 6117, "\u0120enrolled": 6118, "inal": 6119, "\u0120OS": 6120, "vent": 6121, "\u0120missiles": 6122, "\u0120unexplained": 6123, "held": 6124, "\u0120expert": 6125, "\u0120Diseases": 6126, "\u0120releasing": 6127, "\u0120port": 6128, "\u0120corner": 6129, "\u0120Skin": 6130, "\u0120Blog": 6131, "\u0120]": 6132, "\u0120participant": 6133, "\u0120Albert": 6134, "\u0120prevalence": 6135, "\u0120Di": 6136, "\u0120simplest": 6137, "\u0120split": 6138, "\u0120Model": 6139, "\u0120watched": 6140, "\u0120Review": 6141, "\u0120supportive": 6142, "ye": 6143, "ings": 6144, "\u0120synonym": 6145, "13": 6146, "\u0120chord": 6147, "\u0120completing": 6148, "\u0120availability": 6149, "While": 6150, "\u0120allows": 6151, "\u0120routinely": 6152, "sco": 6153, "%": 6154, "\u0120might": 6155, "\u0120desired": 6156, "LL": 6157, "Every": 6158, "\u0120Fair": 6159, "\u0120consisting": 6160, "\u0120showing": 6161, "\u0120Introduction": 6162, "\u0120drivers": 6163, "producing": 6164, "\u0120Communication": 6165, "nucle": 6166, "\u0120trafficking": 6167, "ub": 6168, "\u0120symbol": 6169, "headed": 6170, "Hi": 6171, "\u0120dogs": 6172, "\u0120opportunity": 6173, "\u0120architect": 6174, "\u0120genetic": 6175, "South": 6176, "\u00cf\u0126\u00ce": 6177, "user": 6178, "\u0120mutations": 6179, "bec": 6180, "val": 6181, "\u0120vicinity": 6182, "\u0120toxicity": 6183, "\u0120geological": 6184, "\u0120wish": 6185, "\u0120registered": 6186, "\u0120each": 6187, "\u0120poems": 6188, "Education": 6189, "\u0120duct": 6190, "clamation": 6191, "\u0120mainland": 6192, "\u0120reconstruct": 6193, "\u0120Life": 6194, "\u0120Unlike": 6195, "\u0120fully": 6196, "\u0120Institutes": 6197, ".).": 6198, "\u0120tornado": 6199, "\u0120ordained": 6200, "ich": 6201, "\u0120unhappy": 6202, "%.": 6203, "OD": 6204, "\u0120happi": 6205, "\u0120riding": 6206, "\u0120organizing": 6207, "\u0120Remember": 6208, "BE": 6209, "\u0120Additionally": 6210, "\u0120considerable": 6211, "\u0120criticized": 6212, "\u0120criteria": 6213, "\u0120Learn": 6214, "\u0120differently": 6215, "GI": 6216, "\u0120Len": 6217, "\u0120silver": 6218, "\u0120explosive": 6219, "plication": 6220, "\u0120astronauts": 6221, "ergy": 6222, "\u0120brother": 6223, "\u0120carbohydrate": 6224, "\u0120Claud": 6225, "\u0120insufficient": 6226, "\u0120vir": 6227, "\u0120raise": 6228, "\u0120scheme": 6229, "\u0120Graph": 6230, "\u0120attributable": 6231, "cing": 6232, "\u0120clear": 6233, "87": 6234, "\u0120know": 6235, "\u0120rejoi": 6236, "\u0120certified": 6237, "74": 6238, "\u0120exhibit": 6239, "k": 6240, "\u0120fewer": 6241, "\u0120Dr": 6242, "\u00e2\u0122\u013f.": 6243, "\u0120dish": 6244, "\u0120college": 6245, "isms": 6246, "ath": 6247, "\u0120bottles": 6248, "\u0120duplicate": 6249, "Science": 6250, "\u0120misunderstood": 6251, "\u0120eu": 6252, "\u00c3\u00a7": 6253, "\u0120articles": 6254, "\u0120Address": 6255, "rely": 6256, "\u0120rules": 6257, "\u0120parallel": 6258, "\u0120butter": 6259, "\u0120connected": 6260, "related": 6261, "\u0120Comprehensive": 6262, "\u0120returns": 6263, "\u0120analyze": 6264, "dication": 6265, "\u0120James": 6266, "\u0120Foundation": 6267, "\u0120Burmese": 6268, "\u0120Three": 6269, "\u0120Islands": 6270, "\u0120Duke": 6271, "\u0120Summary": 6272, "side": 6273, "\u0120Country": 6274, "sh": 6275, "\u0120Glo": 6276, "\u0120Pennsylvania": 6277, "\u0120Mozart": 6278, "\u0120[": 6279, "\u0120interfaces": 6280, "\u0120cent": 6281, "ency": 6282, "\u0120develop": 6283, "\u0120speech": 6284, "\u0120malignant": 6285, "\u0120cultiv": 6286, "\u0120themes": 6287, "\u0120Muslims": 6288, "\u0120monetary": 6289, "\u0120machines": 6290, "\u0120reactors": 6291, "gery": 6292, "\u0120attorney": 6293, "effective": 6294, "\u0120drunk": 6295, "\u0120utilities": 6296, "\u0120strengthening": 6297, "\u0120Bear": 6298, "\u0120Rich": 6299, "\u0120challenged": 6300, "\u0120dynamics": 6301, "\u0120histories": 6302, ").": 6303, "\u0120commercial": 6304, "\u0120overs": 6305, "\u0120tsunami": 6306, "\u0120earned": 6307, "\u0120vitamins": 6308, "\u0120horr": 6309, "\u0120spa": 6310, "\u0120mood": 6311, "\u0120deployment": 6312, "\u0120missions": 6313, "\u0120lasts": 6314, "\u0120Mission": 6315, "clopedia": 6316, "ple": 6317, "}": 6318, "\u0120safety": 6319, "metry": 6320, "\u0120Snow": 6321, "\u0120Seven": 6322, "\u0120truth": 6323, "\u0120beams": 6324, "\u0120Side": 6325, "\u0120exert": 6326, "\u0120philanthrop": 6327, "\u00e1\u00b9\u0129a": 6328, "\u0120suff": 6329, "\u0120Wor": 6330, "\u0120variants": 6331, "\u0120Ridge": 6332, "\u0120measures": 6333, "\u0120fusion": 6334, "\u0120targeting": 6335, "Which": 6336, "\u0120plain": 6337, "\u0120example": 6338, "\u0120whereas": 6339, "\u0120quarantine": 6340, "\u0120financial": 6341, "\u0120attraction": 6342, "\u0120packet": 6343, "\u0120ideological": 6344, "\u0120turtles": 6345, "\u0120popular": 6346, "nk": 6347, "\u0120extrem": 6348, "\u0120Part": 6349, "\u0120genome": 6350, "\u01201999": 6351, "ry": 6352, "\u0120Technologies": 6353, "ron": 6354, "\u0120cabbage": 6355, "\u0120seafloor": 6356, "\u0120Alabama": 6357, "earth": 6358, "\u0120Jean": 6359, "\u01201959": 6360, "LM": 6361, "\u0120Materials": 6362, "\u0120Chamber": 6363, "\u0120ones": 6364, "\u0120throughout": 6365, "\u0120comparable": 6366, "\u0120parasitic": 6367, "\u0120designing": 6368, "\u0120truck": 6369, "Writing": 6370, "\u0120sch": 6371, "\u0120Iowa": 6372, "\u0120planning": 6373, "\u0120Plan": 6374, "\u0120legally": 6375, "\u0120neutral": 6376, "\u0120Philip": 6377, "\u0120specific": 6378, "\u0120rigorous": 6379, "\u0120width": 6380, "nny": 6381, "\u0120leg": 6382, "\u0120honest": 6383, "\u0120qualitative": 6384, "\u0120Effective": 6385, "Check": 6386, "\u012036": 6387, "\u0120atmospheric": 6388, "\u0120comments": 6389, "\u0120growing": 6390, "\u0120broccoli": 6391, "\u0120Poor": 6392, "def": 6393, "During": 6394, "\u0120incapable": 6395, "\u0120absence": 6396, "\u0120lesbian": 6397, "\u0120pronunciation": 6398, "ia": 6399, "\u0120Print": 6400, "\u0120900": 6401, "jects": 6402, "Mark": 6403, "\u0120sleep": 6404, "\u0120Well": 6405, "All": 6406, "\u0120Disease": 6407, "\u0120AM": 6408, "\u0120exact": 6409, "\u0120Think": 6410, "\u0120Buddha": 6411, "\u0120present": 6412, "\u0120rover": 6413, "\u0120abroad": 6414, "\u00e6": 6415, "\u0120horses": 6416, "\u0120smart": 6417, "\u0120j": 6418, "ches": 6419, "\u0120sections": 6420, "\u0120walls": 6421, "\u0120trends": 6422, "\u0120drawing": 6423, "gene": 6424, "location": 6425, "In": 6426, "\u0120bloom": 6427, "\u0120terrorism": 6428, "\u0120Mel": 6429, "\u01201830": 6430, "sed": 6431, "\u0120Geographic": 6432, "\u0120communicate": 6433, "\u0120thermo": 6434, "\u0120push": 6435, "\u0120ideology": 6436, "\u0120weekly": 6437, "help": 6438, "ze": 6439, "\u0120Northern": 6440, "cat": 6441, "\u0120potent": 6442, "\u0120Character": 6443, "\u0120Sea": 6444, "ddy": 6445, "\u0120bad": 6446, "\u0120clouds": 6447, "i": 6448, "\u0120bourgeois": 6449, "intellig": 6450, "\u0120antiviral": 6451, "\u0120dust": 6452, "\u01201963": 6453, "\u0120TE": 6454, "ol": 6455, "IR": 6456, "\u0120him": 6457, "\u0120bay": 6458, "\u0120calls": 6459, "\u0120eclipse": 6460, "\u0120jewelry": 6461, "Building": 6462, "\u0120flora": 6463, "\u0120secretary": 6464, "\u0120corners": 6465, "\u0120surroundings": 6466, "\u0120Meanwhile": 6467, "\u0120Benedict": 6468, "\u0120Montgomery": 6469, "\u0120convenience": 6470, "\u0120vinegar": 6471, "Ch": 6472, "PH": 6473, "\u0120approval": 6474, "\u0120fishermen": 6475, "\u0120mit": 6476, "\u0120press": 6477, "\u0120Pediatrics": 6478, "\u0120go": 6479, "\u0120Benjamin": 6480, "typical": 6481, "\u0120post": 6482, "ographies": 6483, "ATION": 6484, "\u0120turning": 6485, "Pa": 6486, "\u0120cavity": 6487, "\u0120San": 6488, "\u0120occup": 6489, "\u0120Making": 6490, "\u0120misleading": 6491, "\u0120institute": 6492, "\u0120textbook": 6493, "ire": 6494, "\u0120Ann": 6495, "\u0120squa": 6496, "\u0120records": 6497, "\u0120preparing": 6498, "\u0120numbered": 6499, "\u0120liked": 6500, "\u0120diagnose": 6501, "\u0120philosoph": 6502, "cked": 6503, "ready": 6504, "\u0120island": 6505, "\u0120talking": 6506, "\u0120advisory": 6507, "\u0120probably": 6508, "\u0120Corps": 6509, "\u0120washing": 6510, "rch": 6511, "\u0120quantitative": 6512, "\u0120checked": 6513, "\u0120Both": 6514, "ta": 6515, "\u0120FOR": 6516, "\u0120An": 6517, "\u0120Stra": 6518, "occup": 6519, "People": 6520, "\u0120Olympics": 6521, "\u0138": 6522, "\u0120replenish": 6523, "\u0120Atmospheric": 6524, "Donald": 6525, "November": 6526, "edi": 6527, "\u0120ant": 6528, "\u0120chronological": 6529, "\u0120Enter": 6530, "Two": 6531, "\u0120Find": 6532, "Henry": 6533, "\u0120Wil": 6534, "\u0120cooler": 6535, "Ds": 6536, "\u0120evening": 6537, "\u0120encapsul": 6538, "\u0120Try": 6539, "\u0120Rom": 6540, "\u0120matched": 6541, "\u0120Initially": 6542, "AT": 6543, "\u0120macro": 6544, "\u0120corruption": 6545, "ores": 6546, "\u0120lower": 6547, "profit": 6548, "aching": 6549, "\u0120Psychiatry": 6550, "\u0120Antonio": 6551, "5": 6552, "change": 6553, "gl": 6554, "ently": 6555, "look": 6556, "\u0120shell": 6557, "\u0120page": 6558, "What": 6559, "\u0120regularly": 6560, "\u0120renal": 6561, "\u0120Commissioner": 6562, "\u0120underwater": 6563, "\u0120humili": 6564, "had": 6565, "tile": 6566, "\u0120successfully": 6567, "\u0120volcanic": 6568, "erman": 6569, "Long": 6570, "\u0120rhythm": 6571, "\u0120Popular": 6572, "ont": 6573, "\u0120surfaces": 6574, "glyc": 6575, "arity": 6576, "\u0120habits": 6577, "\u0120Good": 6578, "\u0120Read": 6579, "\u0120Tuesday": 6580, "\u0120Scandinavia": 6581, "\u0120income": 6582, "\u0120promoted": 6583, "\u0120videos": 6584, "\u0120concludes": 6585, "\u0120announcement": 6586, "\u0120difference": 6587, "uv": 6588, "\u0120subtle": 6589, "\u0120services": 6590, "\u0120corona": 6591, "\u0120set": 6592, "\u0120scholars": 6593, "bl": 6594, "\u0120elsewhere": 6595, "\u0120lifestyle": 6596, "\u0120urgent": 6597, "\u0120integrate": 6598, "\u0120capsule": 6599, "\u0120doctors": 6600, "\u0120la": 6601, "\u0120Ford": 6602, "\u0120predict": 6603, "\u0120inhabit": 6604, "\u0120environment": 6605, "\u0120emotions": 6606, "gate": 6607, "oro": 6608, "\u0120obedience": 6609, "\u0120caterpillar": 6610, "\u0120refuse": 6611, "\u0120clo": 6612, "\u0120Falls": 6613, "\u0120millennia": 6614, "\u012035": 6615, "\u0120rays": 6616, "\u0120moisture": 6617, "250": 6618, "\u0120entrance": 6619, "\u0120Michel": 6620, "\u0120Investig": 6621, "\u0120eldest": 6622, "\u0120Often": 6623, "\u0120dispute": 6624, "\u0120cards": 6625, "\u0120product": 6626, "\u0120student": 6627, "\u0120lectures": 6628, "\u0120Amazon": 6629, "\u0120adventure": 6630, "\u0120Negro": 6631, "AS": 6632, "\u0120Brooklyn": 6633, "sky": 6634, "\u0120gave": 6635, "\u0120Using": 6636, "ives": 6637, "\u0120menopause": 6638, "\u0120on": 6639, "heads": 6640, "\u0120February": 6641, "\u0120insecticide": 6642, "\u0120Me": 6643, "\u0120worked": 6644, "\u0120Majesty": 6645, "\u0120.": 6646, "rid": 6647, "\u0120Py": 6648, "\u0120Leonardo": 6649, "\u0120ventricle": 6650, "\u0120register": 6651, "\u0120wetland": 6652, "\u0120Maimonides": 6653, "\u0120Hal": 6654, "ites": 6655, "\u0120Certain": 6656, "\u0120formerly": 6657, "sing": 6658, "\u0120Emperor": 6659, "\u0120appreciate": 6660, "CV": 6661, "\u0120tax": 6662, "six": 6663, "\u0120Title": 6664, "\u012013": 6665, "\u0120literary": 6666, "\u0120tyran": 6667, "Pi": 6668, "\u0120Greenland": 6669, "\u0120circuits": 6670, "\u0120motif": 6671, "\u0120daughter": 6672, "Pro": 6673, "\u0120locate": 6674, "\u0120wander": 6675, "\u0120whereby": 6676, "\u0120tributaries": 6677, "\u0120Speech": 6678, "\u0120Niagara": 6679, "ode": 6680, "\u0120sophisticated": 6681, "\u0120brave": 6682, "important": 6683, "October": 6684, "\u0120agreements": 6685, "\u0120autistic": 6686, "\u0120sculpt": 6687, "\u0120enormous": 6688, "normal": 6689, "\u0120offensive": 6690, "\u0120fool": 6691, "Of": 6692, "\u0120element": 6693, "\u0120violations": 6694, "\u0120coli": 6695, "ma": 6696, "chemistry": 6697, "bank": 6698, "\u0120hidden": 6699, "ored": 6700, "\u0120neutr": 6701, "\u0120geographical": 6702, "PA": 6703, "\u0120Notes": 6704, "\u0120Mediterranean": 6705, "\u0120ambiguity": 6706, "fire": 6707, "GF": 6708, "M": 6709, "Pe": 6710, "\u0120cy": 6711, "eous": 6712, "\u0120Conversely": 6713, "\u0120close": 6714, "\u01201936": 6715, "\u0120woods": 6716, "\u0120unpredictable": 6717, "\u0120quarter": 6718, "\u0120mineral": 6719, "\u0120raw": 6720, "\u0120Revolutionary": 6721, "\u0120Hurricane": 6722, "\u0120swim": 6723, "\u0120Al": 6724, "\u0120oil": 6725, "\u0120comply": 6726, "\u0120costly": 6727, "person": 6728, "\u0120Style": 6729, "\u0120gun": 6730, "gor": 6731, "xi": 6732, "\u0120baseline": 6733, "\u0120priest": 6734, "\u0120calm": 6735, "\u0120agricultural": 6736, "\u0120Literary": 6737, "ok": 6738, "52": 6739, "world": 6740, "\u0120when": 6741, "\u0120mourn": 6742, "\u0120strengthen": 6743, "aught": 6744, "\u0120healing": 6745, "\u0120keeping": 6746, "\u0120MR": 6747, "nounced": 6748, "bird": 6749, "\u01201991": 6750, "120": 6751, "Oxford": 6752, "ely": 6753, "\u0120crop": 6754, "ended": 6755, "hn": 6756, "\u0120especially": 6757, "\u0120conquest": 6758, "\u0120versions": 6759, "\u0120dosage": 6760, "\u0120underneath": 6761, "\u0120flash": 6762, "cluded": 6763, "\u0120Mon": 6764, "\u0120Build": 6765, "\u0120Voice": 6766, "\u0120postdoctoral": 6767, "\u0120application": 6768, "\u0120Recreation": 6769, "\u0120reduce": 6770, "\u0120enters": 6771, "\u0120fungus": 6772, "\u0120Av": 6773, "plain": 6774, "Professor": 6775, "mad": 6776, "\u0120hunters": 6777, "\u0120freezing": 6778, "\u0120graduate": 6779, "mod": 6780, "\u0120patterns": 6781, "\u0120ly": 6782, "\u0120peer": 6783, "\u0120stating": 6784, "\u0120bea": 6785, "HO": 6786, "\u0120identical": 6787, "tz": 6788, "\u0120condemn": 6789, "\u0120cathedral": 6790, "\u0120prosecu": 6791, "\u0120cycl": 6792, "\u0120anesthe": 6793, "\u0120another": 6794, "correct": 6795, "\u0120cancer": 6796, "\u0120engaging": 6797, "mous": 6798, "\u012052": 6799, "\u0120coyote": 6800, "\u0120periodically": 6801, "\u0120issues": 6802, "Institut": 6803, "ibility": 6804, "\u0120Society": 6805, "\u0120tap": 6806, "\u0120bachelor": 6807, "shes": 6808, "\u0120ham": 6809, "\u0120credits": 6810, "\u01202001": 6811, "\u0120mitigation": 6812, "\u0120unmanned": 6813, "\u0120curious": 6814, "\u0120capable": 6815, "\u0120wall": 6816, "up": 6817, "\u0120manual": 6818, "\u0120acceptance": 6819, "\u0120nutrients": 6820, "\u0120Bay": 6821, "\u0120inspiring": 6822, "\u0120Le": 6823, "\u0120thread": 6824, "\u01201996": 6825, "\u0120Nano": 6826, "\u0120mate": 6827, "\u0120drama": 6828, "\u0120trying": 6829, "\u0120Ok": 6830, "eus": 6831, "\u0120issuing": 6832, "\u0120statistic": 6833, "mors": 6834, "\u0120cult": 6835, "\u0120securing": 6836, "iscipline": 6837, "\u0120tackle": 6838, "\u0120seven": 6839, "ham": 6840, "1990": 6841, "\u0120fox": 6842, "ability": 6843, "Each": 6844, "\u0120sustainable": 6845, "\u0120lifespan": 6846, "\u0120envisioned": 6847, "34": 6848, "\u0120mystery": 6849, "logy": 6850, "\u0120progression": 6851, "\u0120invent": 6852, "\u0120Definition": 6853, "\u0120Douglas": 6854, "fully": 6855, "stance": 6856, "\u0120innovations": 6857, "mm": 6858, "\u0120potatoes": 6859, "\u0120Force": 6860, "\u0120info": 6861, "\u0120tape": 6862, "ez": 6863, "\u0120statutory": 6864, "\u0120fails": 6865, "35": 6866, "\u0120homes": 6867, "\u0120IX": 6868, "\u0120prohibited": 6869, "\u0120Rel": 6870, "nished": 6871, "\u0120Association": 6872, "\u0120Acad": 6873, "when": 6874, "\u0120identify": 6875, "\u0120workshop": 6876, "\u0120SD": 6877, "gel": 6878, "eral": 6879, "\u0120repeat": 6880, "\u0120downstream": 6881, "\u0120Regiment": 6882, "\u0120Theory": 6883, "\u0120seeing": 6884, "\u0120blocked": 6885, "original": 6886, "\u0120rolling": 6887, "ions": 6888, "\u0120suspension": 6889, "\u0120classified": 6890, "RP": 6891, "\u0120magic": 6892, "\u0120viruses": 6893, "\u0120Potomac": 6894, "\u0120imperfect": 6895, "\u0120De": 6896, "\u0120Forces": 6897, "\u0120excited": 6898, "ks": 6899, "\u0122": 6900, "\u0120tech": 6901, "\u0120indicate": 6902, "\u0120soils": 6903, "\u0120sign": 6904, "toxic": 6905, "\u0120bush": 6906, "\u0120refused": 6907, "\u0120kidney": 6908, "\u0120readings": 6909, "Richard": 6910, "\u0120slu": 6911, "\u00e2\u0122\u013b,": 6912, "\u0120McC": 6913, "\u0120weren": 6914, "road": 6915, "\u0120(\"": 6916, "\u0120redundant": 6917, "\u0120tracks": 6918, "\u0120risks": 6919, "\u0120Nicholas": 6920, "\u0120unaware": 6921, "\u0120technical": 6922, "\u0120skeleton": 6923, "\u0120photovoltaic": 6924, "school": 6925, "\u0120Aqua": 6926, "\u0120wells": 6927, "\u0120mask": 6928, "\u0120prescribe": 6929, "\u0120fa": 6930, "\u0120CA": 6931, "\u0120regional": 6932, "\u0120submit": 6933, "\u0120perhaps": 6934, "\u0120Bl": 6935, "PT": 6936, "\u0120rejection": 6937, "\u0120locations": 6938, "\u0120Era": 6939, "PN": 6940, "\u0120serious": 6941, "\u0120Political": 6942, "\u0120Ca": 6943, "\u0120IC": 6944, "\u0120agent": 6945, "pressive": 6946, "\u0120gen": 6947, "\u0120em": 6948, "\u0120vigorous": 6949, "\u0120Pregnancy": 6950, "\u0120city": 6951, "\u0120evolved": 6952, "\u0120tall": 6953, "\u0120abrupt": 6954, "\u0120cord": 6955, "\u0120beads": 6956, "\u0120increases": 6957, "\u0120Building": 6958, "\u0120unearthed": 6959, "ean": 6960, "\u0120Ec": 6961, "gin": 6962, "\u0120paper": 6963, "ought": 6964, "\u0120charge": 6965, "\u0120serves": 6966, "\u0120rubber": 6967, "\u0120cosmic": 6968, "\u0120mythology": 6969, "\u0120trapped": 6970, "cluding": 6971, "Arch": 6972, "\u0120fortune": 6973, "%),": 6974, "\u0120empirical": 6975, "\u0120Vi": 6976, "\u0120phenomenon": 6977, "\u0120track": 6978, "\u0120damages": 6979, "pdf": 6980, "\u0120Diversity": 6981, "\u0120adult": 6982, "\u0120lesser": 6983, "\u0120prior": 6984, "\u0120wavelengths": 6985, "\u0120successive": 6986, "\u0120bats": 6987, "\u0120semi": 6988, "\u0120Batista": 6989, "\u0120gross": 6990, "\u0120Ab": 6991, "chemical": 6992, "\u0120racism": 6993, "\u0120shaft": 6994, "\u0120terror": 6995, "\u0120okay": 6996, "\u0120establish": 6997, "\u0120funding": 6998, "molecular": 6999, "\u0120Code": 7000, "ble": 7001, "treatment": 7002, "gia": 7003, "\u0120west": 7004, "\u0120catch": 7005, "\u0120lot": 7006, "las": 7007, "\u0120Persian": 7008, "\u0120regarding": 7009, "\u0120Memphis": 7010, "\u0120Safety": 7011, "science": 7012, "\u0120GDP": 7013, "\u0120triggers": 7014, "\u0120come": 7015, "pre": 7016, "\u0120UNESCO": 7017, "\u0120sectors": 7018, "\u0120stops": 7019, "\u0120boil": 7020, "\u0120testosterone": 7021, "\u0120collected": 7022, "ver": 7023, "\u0120Guinea": 7024, "\u0120advocates": 7025, "\u0120toilet": 7026, "\u00e2\u0122\u013e": 7027, "\u0120Pain": 7028, "\u0120overwhelmed": 7029, "76": 7030, "\u0120cooperate": 7031, "\u0120cannot": 7032, "\u0120listen": 7033, "\u0120Everyone": 7034, "\u0120bathroom": 7035, "between": 7036, "\u0120independence": 7037, "\u0120Jud": 7038, "nel": 7039, "\u0120ghost": 7040, "\u0120lists": 7041, "\u0120migrants": 7042, "resolution": 7043, "\u0120weak": 7044, "\u0120spec": 7045, "\u0120Dynamic": 7046, "market": 7047, "\u0120cars": 7048, "\u0120dot": 7049, "\u0120Auto": 7050, "+": 7051, "\u0120scrap": 7052, "\u0120upper": 7053, "sch": 7054, "\u0120worst": 7055, "\u0120bladder": 7056, "prising": 7057, "\u0120Industries": 7058, "\u0120\u00c2": 7059, "\u0120aren": 7060, "Not": 7061, "\u0120computation": 7062, "06": 7063, "\u0120advertise": 7064, "\u0120hay": 7065, "\u0120calorie": 7066, "\u0120Tra": 7067, "\u0120Idea": 7068, "tian": 7069, "\u0120seized": 7070, "\u0120Game": 7071, "\u0120October": 7072, "centric": 7073, "\u0120failure": 7074, "\u0120dem": 7075, "\u0120ratios": 7076, "ences": 7077, "\u0120preserved": 7078, "\u0120thereby": 7079, "Economic": 7080, "lic": 7081, "\u0120Available": 7082, "\u0120fl": 7083, "\u0120Vari": 7084, "los": 7085, "\u0120acetaminophen": 7086, "\u0120Power": 7087, "\u0120Government": 7088, "\u0120pertinent": 7089, "ngle": 7090, "\u0120returning": 7091, "\u0120spirit": 7092, "\u0120Engineering": 7093, "\u0120taxes": 7094, "\u0120false": 7095, "\u0120repetitive": 7096, "\u0120qual": 7097, "itation": 7098, "\u0120incub": 7099, "\u0120Gary": 7100, "\u0120Drosophila": 7101, "\u0120boat": 7102, "\u0120Cli": 7103, "\u0120en": 7104, "\u0120Gra": 7105, "ra": 7106, "\u0120sophistication": 7107, "\u0120clearing": 7108, "\u0120are": 7109, "\u0120cables": 7110, "\u0120McCarthy": 7111, "Do": 7112, "\u0120Walker": 7113, "\u0120Arnold": 7114, "\u0120ed": 7115, "\u0120height": 7116, "\u0120PO": 7117, "\u0120si": 7118, "\u0120demanding": 7119, "angle": 7120, "W": 7121, "\u0120pathways": 7122, "\u0120bold": 7123, "\u0120Crisis": 7124, "\u0120needed": 7125, "\u0120recreational": 7126, "km": 7127, "tri": 7128, "\u0120sto": 7129, "\u0120provo": 7130, "\u0120lens": 7131, "\u0120supplies": 7132, "Meanwhile": 7133, "more": 7134, "\u0120Howard": 7135, "\u0120harmony": 7136, "\u0120maintaining": 7137, "there": 7138, "\u0120plantations": 7139, "\u0120toy": 7140, "\u0120yourself": 7141, "Visit": 7142, "\u0120inaugu": 7143, "MO": 7144, "\u0120couldn": 7145, "\u0120trees": 7146, "\u0120inert": 7147, "cro": 7148, "\u0120month": 7149, "without": 7150, "rad": 7151, "\u0120p": 7152, "la": 7153, "\u0120FI": 7154, "\u0120loved": 7155, "Regardless": 7156, "\u0120lethal": 7157, "\u0120you": 7158, "books": 7159, "\u0120rip": 7160, "tr": 7161, "\u0120surprised": 7162, "\u0120Hol": 7163, "\u0120Sc": 7164, "\u0120Jewish": 7165, "\u0120improves": 7166, "ising": 7167, "\u0120disabled": 7168, "\u0120repeatedly": 7169, "economic": 7170, "\u0120experience": 7171, "\u0120Woods": 7172, "\u0120Civil": 7173, "\u0120Children": 7174, "vi": 7175, "\u0120mission": 7176, "\u0120disaster": 7177, "CK": 7178, "iv": 7179, "if": 7180, "\u0120attitude": 7181, "\u0120holds": 7182, "Summary": 7183, "Habitat": 7184, "\u0120hormones": 7185, "Then": 7186, "\u0120arrangements": 7187, "perhaps": 7188, "\u0120Queensland": 7189, ">": 7190, "\u0120pu": 7191, "erly": 7192, "shaped": 7193, "\u0120execut": 7194, "\u0120site": 7195, "\u0120differential": 7196, "\u0120violence": 7197, "\u0120drawings": 7198, "\u0120intra": 7199, "\u0120plentiful": 7200, "\u0120Infect": 7201, "\u01201974": 7202, "\u0120Kierkegaard": 7203, "bound": 7204, "bri": 7205, "\u0120saints": 7206, "\u0120AG": 7207, "\u0120Blood": 7208, "que": 7209, "\u0120fibr": 7210, "\u0120outward": 7211, "\u0120carcinoma": 7212, "\u0120Toronto": 7213, "\u0120monthly": 7214, "\u0120printed": 7215, "ologists": 7216, "\u0120readers": 7217, "\u0120flight": 7218, "\u0120greatest": 7219, "\u0120invasion": 7220, "\u0120Rescue": 7221, "\u0120destined": 7222, "\u0120amid": 7223, "ifiable": 7224, "\u0120Fish": 7225, "\u0120query": 7226, "\u0120endangered": 7227, "forcing": 7228, "Bar": 7229, "\u0120pupils": 7230, "\u0120eggs": 7231, "\u0120Take": 7232, "\u0120years": 7233, "\u0120biologists": 7234, "\u0120warned": 7235, "\u0120OF": 7236, "\u0120Ages": 7237, "\u0120whole": 7238, "\u0120focal": 7239, "depend": 7240, "\u0120afford": 7241, "\u0120snakes": 7242, "\u0120Establish": 7243, "\u0120hungry": 7244, "\u0120trait": 7245, "\u0120foam": 7246, "\u0120permits": 7247, "\u0120fraction": 7248, "\u0120led": 7249, "\u0120becoming": 7250, "\u0120Calif": 7251, "\u0120aperture": 7252, "\u00c3\u00bcr": 7253, "\u0120Birds": 7254, "\u0120complementary": 7255, "\u0120return": 7256, "\u0120medications": 7257, "ias": 7258, "\u0120Jews": 7259, "\u0120teaspoon": 7260, "\u0120isolation": 7261, "\u0120hereditary": 7262, "cam": 7263, "cy": 7264, "\u0120hundreds": 7265, "\u0120urge": 7266, "\u0120account": 7267, "\u0120rest": 7268, "food": 7269, "\u0120Asthma": 7270, "\u0120allocation": 7271, "\u0120conc": 7272, "\u0120Coll": 7273, "\u0120this": 7274, "\u0120strategies": 7275, "\u0120tries": 7276, "\u0120Content": 7277, "\u0120rooted": 7278, "ot": 7279, "\u0120Tre": 7280, "\u0120sick": 7281, "\u0120Tuskegee": 7282, "ggest": 7283, "\u0120varying": 7284, "ospheric": 7285, "\u0120fe": 7286, "UI": 7287, "aged": 7288, "\u0120Forum": 7289, "\u0120schizophrenia": 7290, "\u0120legitim": 7291, "\u0120introduces": 7292, "\u0120collective": 7293, ";": 7294, "\u0120causing": 7295, "\u0120familiar": 7296, "\u0120returned": 7297, "\u0120started": 7298, "53": 7299, "\u0120few": 7300, "79": 7301, "\u0120vertical": 7302, "ocene": 7303, "mul": 7304, "\u0120lies": 7305, "\u0120interior": 7306, "\u0120Cho": 7307, "\u0120Gas": 7308, "WASHINGTON": 7309, "\u0120Hay": 7310, "\u00f4": 7311, "\u0120assuming": 7312, "\u0120With": 7313, "\u0120animal": 7314, "\u0120constitutional": 7315, "\u0120receive": 7316, "\u0120brochure": 7317, "\u0120astronomer": 7318, "imp": 7319, "\u0120guest": 7320, "\u0120fore": 7321, "\u0120Updated": 7322, "\u0120valley": 7323, "\u0120corporations": 7324, "Early": 7325, "\u0120attained": 7326, "\u0120loss": 7327, "\u0120uncertain": 7328, "\u0120panic": 7329, "\u0120phylogen": 7330, "\u0120emerge": 7331, "\u0120Weight": 7332, "\u0120deposited": 7333, "\u0120network": 7334, "\u0120incredible": 7335, "\u0120Gil": 7336, "\u0120far": 7337, "mped": 7338, "\u0120Morris": 7339, "\u0120lenses": 7340, "\u0120Empire": 7341, "nt": 7342, "\u0120nocturnal": 7343, "\u0120weeds": 7344, "\u0120presumed": 7345, "\u0120Color": 7346, "\u0120Labour": 7347, "\u0120investigations": 7348, "\u0120sets": 7349, "\u0120Epi": 7350, "FE": 7351, "uit": 7352, "\u0120structured": 7353, "cen": 7354, "\u0120yes": 7355, "\u0120backup": 7356, "\u0120restaurant": 7357, "\u0120experiences": 7358, "\u0120likely": 7359, "\u0120subsequent": 7360, "grams": 7361, "ru": 7362, "\u0120NY": 7363, "\u0120alike": 7364, "\u0120devastating": 7365, "\u0120whi": 7366, "\u0120endeavo": 7367, "\u0120noise": 7368, "\u0120Vancouver": 7369, "die": 7370, "\u0120Pat": 7371, "\u0120farms": 7372, "mentary": 7373, "\u0120q": 7374, "mus": 7375, "\u0120140": 7376, "\u0120Even": 7377, "Among": 7378, "lactic": 7379, "N": 7380, "\u0120Kuwait": 7381, "ert": 7382, "rrows": 7383, "\u0120constrain": 7384, "ey": 7385, "\u0120restrict": 7386, "\u0120Through": 7387, "\u0120Austria": 7388, "\u0120e": 7389, "\u0120blood": 7390, "\u0120habit": 7391, "%,": 7392, "\u0120Ban": 7393, "ET": 7394, "\u0120announce": 7395, "eeding": 7396, "\u0120automated": 7397, "slavery": 7398, "\u0120arthritis": 7399, "\u0120Story": 7400, "\u0120Medieval": 7401, "\u0120int": 7402, "\u0120masters": 7403, "text": 7404, "bio": 7405, "\u0120manifest": 7406, "ti": 7407, "\u0120Quality": 7408, "\u0120uncle": 7409, "\u0120\u00e2\u0128\u0133": 7410, "claim": 7411, "star": 7412, ".": 7413, "\u0120ge": 7414, "\u0120femin": 7415, "\u0120shops": 7416, "\u0120Welsh": 7417, "\u0120GPS": 7418, "\u0120variables": 7419, "lton": 7420, "\u0120tables": 7421, "\u0120Always": 7422, "\u0120sep": 7423, "\u0120messages": 7424, "\u0120West": 7425, "\u0120je": 7426, "called": 7427, "\u0120symptom": 7428, "\u0120dividing": 7429, "\u0120Manufactur": 7430, "\u0120Tribune": 7431, "cky": 7432, "\u0120temporarily": 7433, "document": 7434, "asing": 7435, "\u0120high": 7436, "du": 7437, "\u0120liquor": 7438, "\u0120listed": 7439, "\u0120leaf": 7440, "\u00c2\u00b2": 7441, "\u0120Phys": 7442, "\u0120Capitol": 7443, "\u0120rocket": 7444, "\u0120orbiting": 7445, "\u0120play": 7446, "\u0120Punjab": 7447, "\u0120put": 7448, "\u0120could": 7449, "gs": 7450, "\u0120trimester": 7451, "sur": 7452, "T": 7453, "\u0120doctrine": 7454, "\u0120understood": 7455, "\u0120jury": 7456, "\u0120rupture": 7457, "\u0120Odyssey": 7458, "tagon": 7459, "mons": 7460, "nik": 7461, "\u0120heritage": 7462, "\u0120forward": 7463, "\u0120using": 7464, "tis": 7465, "\u0120storytelling": 7466, "\u0120has": 7467, "2007": 7468, "\u0120Structure": 7469, "\u0120thesis": 7470, "ana": 7471, "\u0120fluor": 7472, "\u0120sought": 7473, "\u0120flee": 7474, "mic": 7475, "\u0120today": 7476, "\u0120Product": 7477, "\u0120Commercial": 7478, "\u0120thirty": 7479, "\u0120Goddard": 7480, "\u0120distribut": 7481, "ography": 7482, "\u0120Oct": 7483, "\u0120fantastic": 7484, "\u0120Scale": 7485, "\u0120onto": 7486, "\u0120specimen": 7487, "dd": 7488, "\u0120inherent": 7489, "\u0120mysteries": 7490, "\u0120Land": 7491, "\u0120hosted": 7492, "\u0120heal": 7493, "\u0120Researchers": 7494, "\u0120tons": 7495, "ay": 7496, "\u0120were": 7497, "phr": 7498, "\u0120FROM": 7499, "\u00c4": 7500, "\u0120possession": 7501, "\u0120rent": 7502, "cycl": 7503, "\u0120supplier": 7504, "\u0120continental": 7505, "Y": 7506, "\u0120tasks": 7507, "\u0120Stewart": 7508, "\u0120analog": 7509, "\u0120haven": 7510, "\u0120congenital": 7511, "ffer": 7512, "\u0120Bow": 7513, "\u0120regulations": 7514, "\u0120Syndrome": 7515, "\u0120Vaccine": 7516, "\u0120District": 7517, "r\u00c4\u0123": 7518, "\u0120y": 7519, "loaded": 7520, "\u0120determine": 7521, "\u0120Companion": 7522, "\u0120hypothesis": 7523, "\u0120their": 7524, "\u0120rulers": 7525, "\u0120may": 7526, "\u0120Ur": 7527, "\u0120married": 7528, "\u0120W": 7529, "oe": 7530, "\u0120Za": 7531, "thro": 7532, "author": 7533, "flow": 7534, "\u0120ore": 7535, "\u0120fled": 7536, "\u0120NW": 7537, "saving": 7538, "fa": 7539, "\u0120legisla": 7540, "\u0120pedagog": 7541, "case": 7542, "\u0120Hill": 7543, "\u0120infections": 7544, "\u0120claimed": 7545, "\u0120labels": 7546, "MENT": 7547, "etics": 7548, "\u0120Zi": 7549, "\u0120Paris": 7550, "\u0120dependent": 7551, "\u0120Denmark": 7552, "\u0120limits": 7553, "\u0120association": 7554, "\u0120adults": 7555, "\u0120preference": 7556, "\u0120icon": 7557, "58": 7558, "\u0120Did": 7559, "less": 7560, "\u0120Act": 7561, "\u0120overweight": 7562, "\u0120responsibility": 7563, "\u0120loads": 7564, "\u0120issue": 7565, "\u0120expensive": 7566, "\u0120fla": 7567, "\u0120billions": 7568, "\u0120dominant": 7569, "\u0120emitted": 7570, "\u0120Russell": 7571, "thyroidism": 7572, "proximately": 7573, "\u0120mirrors": 7574, "\u0120clay": 7575, "EA": 7576, "\u0120circumstances": 7577, "\u0120habitat": 7578, "\u0120usually": 7579, "\u0120instances": 7580, "mega": 7581, "NE": 7582, "\u0120arrest": 7583, "\u0120choose": 7584, "\u0120carniv": 7585, "\u0120properties": 7586, "\u0120administered": 7587, "\u0120aquarium": 7588, "\u0120colleagues": 7589, "\u0120Church": 7590, "\u0120Armstrong": 7591, "practic": 7592, "ae": 7593, "\u0120deco": 7594, "\u0120Domin": 7595, "\u0120Twain": 7596, "\u0120Armenia": 7597, "\u0120apo": 7598, "\u0120Congress": 7599, "vere": 7600, "\u0120landmark": 7601, "lley": 7602, "\u0120repository": 7603, "\u0120purpose": 7604, "\u0120hippocamp": 7605, "\u0120assign": 7606, "Social": 7607, "\u0120model": 7608, "IX": 7609, "\u0120Eat": 7610, "\u0120indeed": 7611, "\u0120mosque": 7612, "\u00c3\u00a1": 7613, "\u0120Fat": 7614, "\u0120distances": 7615, "\u0120pilot": 7616, "\u0120witnesses": 7617, "\u0120texts": 7618, "\u0120Shi": 7619, "...": 7620, "\u0120psalm": 7621, "vas": 7622, "\u0120critique": 7623, "J": 7624, "\u0120warriors": 7625, "worthy": 7626, "\u0120deaf": 7627, "\u0120old": 7628, "j\u00c3\u00b1\u00c4\u0123na": 7629, "\u0120aquifer": 7630, "\u0120Henderson": 7631, "\u0120Treatment": 7632, "\u0120tubes": 7633, "\u0120olfactory": 7634, "\u0120Theatre": 7635, "win": 7636, "\u0120Teacher": 7637, "\u0120thorough": 7638, "\u00e2\u0122\u00a2": 7639, "\u0120deter": 7640, "\u0120learned": 7641, "\u0120Sar": 7642, "clock": 7643, "\u0120Technology": 7644, "\u0120stores": 7645, "\u0109": 7646, "\u0120cash": 7647, "Four": 7648, "pha": 7649, "\u0120Virgin": 7650, "erated": 7651, "\u0120California": 7652, "ins": 7653, "\u0120Guard": 7654, "\u0120healthier": 7655, "els": 7656, "\u0120ft": 7657, "\u0120graphics": 7658, "\u0120Along": 7659, "\u0120Recovery": 7660, "\u0120burns": 7661, "\u0120point": 7662, "\u0120monitoring": 7663, "tention": 7664, "\u0120Images": 7665, "\u0120pilgrim": 7666, "\u0120modules": 7667, "\u0120prince": 7668, "\u01201909": 7669, "standing": 7670, "\u0120cerebral": 7671, "pen": 7672, "\u0120Bloom": 7673, "\u012060": 7674, "\u0120acronym": 7675, "\u0120Core": 7676, "\u0120refined": 7677, "\u0120Spaniards": 7678, "\u0120Spring": 7679, "\u0120restricted": 7680, "ived": 7681, "rock": 7682, "\u0120launched": 7683, "ball": 7684, "\u0120highest": 7685, "\u0120reportedly": 7686, "pi": 7687, "Christian": 7688, "\u0120planned": 7689, "\u0120bond": 7690, "\u0120define": 7691, "\u0120creation": 7692, "ea": 7693, "\u0120Cl": 7694, "\u0120incidence": 7695, "\u0120Wisconsin": 7696, "che": 7697, "\u0120conserve": 7698, "\u0120arise": 7699, "\u0120Who": 7700, "\u0120Buddhism": 7701, "37": 7702, "Thus": 7703, "Consider": 7704, "Atlantic": 7705, "san": 7706, "\u0120alter": 7707, "\u00c3\u00a9": 7708, "volution": 7709, "\u0120shorter": 7710, "\u0120geology": 7711, "\u0120predicted": 7712, "\u0120Sta": 7713, "\u0120Bed": 7714, "\u0120cite": 7715, "\u0120toddler": 7716, "\u0120chair": 7717, "\u0120investigate": 7718, "\u0120Turner": 7719, "\u0120treatment": 7720, "\u0120imbalance": 7721, "\u0120losses": 7722, "\u0120assessments": 7723, "ID": 7724, "\u0120locally": 7725, "\u0120distinctive": 7726, "\u0120concern": 7727, "\u0120ranging": 7728, "\u0120Although": 7729, "\u0120membranes": 7730, "\u0120portfolio": 7731, "\u0120reli": 7732, "us": 7733, "\u0120happens": 7734, "minent": 7735, "\u0120ob": 7736, "good": 7737, "\u0120intern": 7738, "\u0120Kent": 7739, "\u0120Frederick": 7740, "\u0120Texas": 7741, "\u0120temporary": 7742, "\u0120Soldier": 7743, "\u0120reading": 7744, "\u0120competing": 7745, "\u0120sen": 7746, "\u01201898": 7747, "\u0120adulthood": 7748, "\u0120antibody": 7749, "\u0120nerve": 7750, "\u0120whatever": 7751, "\u0120published": 7752, "died": 7753, "\u00d1": 7754, "\u0120glimpse": 7755, "\u0120dil": 7756, "lit": 7757, "\u0120advanced": 7758, "\u0120Pay": 7759, "\u0120appropriation": 7760, "\u0120AIDS": 7761, "\u0120veterans": 7762, "\u0120asc": 7763, "V": 7764, "\u0120intuitive": 7765, "\u0120plot": 7766, "\u0120steadily": 7767, "\u0120diocese": 7768, "\u0120entrepreneur": 7769, "\u0120babies": 7770, "make": 7771, "\u0120dec": 7772, "\u0120works": 7773, "\u0120replication": 7774, "\u0120disastrous": 7775, "\u0120Issue": 7776, "Ju": 7777, "Sy": 7778, "west": 7779, "\u0120variant": 7780, "\u0120deals": 7781, "\u0120Links": 7782, "creasing": 7783, "\u0120derivative": 7784, "\u0120expected": 7785, "\u0120Wisdom": 7786, "\u0120cook": 7787, "\u0120national": 7788, "OL": 7789, "\u0120poor": 7790, "ace": 7791, "\u0120Conditions": 7792, "\u0120believing": 7793, "dra": 7794, "\u0120residue": 7795, "ua": 7796, "ME": 7797, "\u0120cone": 7798, "\u0120efficiency": 7799, "\u0120closing": 7800, "\u0120nar": 7801, "\u0120Stock": 7802, "\u0120depleted": 7803, "\u0120insisted": 7804, "\u0120considerably": 7805, "1988": 7806, "\u00b8": 7807, "\u0120hectares": 7808, "\u0120perme": 7809, "\u0120dense": 7810, "\u0120execution": 7811, "\u0120yeast": 7812, "how": 7813, "\u0120profit": 7814, "\u0120educate": 7815, "BA": 7816, "\u0120pipe": 7817, "\u0120disk": 7818, "\u0120acquiring": 7819, "ad": 7820, "\u0120wearing": 7821, "\u0120Angel": 7822, "\u0120diabetic": 7823, "date": 7824, "\u0120nickname": 7825, "\u0120yields": 7826, "\u0120darker": 7827, "\u0120appears": 7828, "bul": 7829, "\u0120White": 7830, "\u0120such": 7831, "\u0120informed": 7832, "\u0120Log": 7833, "\u0120dialect": 7834, "ians": 7835, "\u012072": 7836, "\u0120immunity": 7837, "\u0120studied": 7838, "\u0120EE": 7839, "\u0120cabinet": 7840, "scent": 7841, "\u0120send": 7842, "\u0120When": 7843, "\u0120PA": 7844, "ivity": 7845, "dor": 7846, "\u0120Rachel": 7847, "\u0120transparent": 7848, "\u0120loyal": 7849, "\u0120Internal": 7850, "\u0120silence": 7851, "able": 7852, "\u0120institutional": 7853, "graphs": 7854, "\u0120depr": 7855, "\u0120existence": 7856, "\u00b5": 7857, "Australia": 7858, "\u0120Rh": 7859, "\u0120underestimate": 7860, "formation": 7861, "\u0120Arizona": 7862, "\u0120darkness": 7863, "\u0120coarse": 7864, "\u0120designated": 7865, "Return": 7866, "\u0120references": 7867, "\u0120huge": 7868, "\u0120molecules": 7869, "\u0120Kennedy": 7870, "were": 7871, "\u0120kidneys": 7872, "\u0120bug": 7873, "\u0120sol": 7874, "\u0120exec": 7875, "\u0120River": 7876, "\u0120heaven": 7877, "\u0120Parents": 7878, "\u0120effectively": 7879, "\u0120bell": 7880, "\u0120Domestic": 7881, "\u0120investigator": 7882, "\u0120kept": 7883, "\u0120Leibniz": 7884, "\u0120terminal": 7885, "\u0120religious": 7886, "\u0120forum": 7887, "\u0120inches": 7888, "\u0120disparities": 7889, "\u0120frequencies": 7890, "\u0120Nutrition": 7891, "kind": 7892, "\u0120dam": 7893, "\u0120respects": 7894, "\u0120Thursday": 7895, "\u0120Williams": 7896, "\u0120collaboration": 7897, "\u0120spoken": 7898, "\u0120validity": 7899, "\u0120laying": 7900, "\u0120ingest": 7901, "\u0120answered": 7902, "\u012046": 7903, "\u0120hall": 7904, "\u0120gran": 7905, "\u0120nature": 7906, "\u0120capital": 7907, "\u0120promotes": 7908, "\u0120Present": 7909, "\u0120obsolete": 7910, "\u0120tourism": 7911, "\u0120monitors": 7912, "\u0120elevation": 7913, "\u0120fisheries": 7914, "\u0120discrete": 7915, "\u0120exposures": 7916, "\u0120have": 7917, "\u0120sc": 7918, "\u0120scenario": 7919, "\u0120Tests": 7920, "term": 7921, "No": 7922, "\u0120tree": 7923, "\u0120January": 7924, "\u0120organized": 7925, "watch": 7926, "\u0120Global": 7927, "lets": 7928, "\u0120Creative": 7929, "\u0120expose": 7930, "\u01201948": 7931, "uk": 7932, "\u0120flow": 7933, "\u0120biodiversity": 7934, "\u0120looks": 7935, "\u0120legislative": 7936, "stead": 7937, "'ll": 7938, "\u0120Swa": 7939, "\u0120cocaine": 7940, "\u0120Solar": 7941, "\u0120carefully": 7942, "\u0120atrocities": 7943, "Are": 7944, "Va": 7945, "\u0120predators": 7946, "dal": 7947, "\u0120n": 7948, "sho": 7949, "]": 7950, "\u0120admitted": 7951, "\u0120Paper": 7952, "\u0120Project": 7953, "\u013e": 7954, "\u0120Jones": 7955, "Organ": 7956, "\u0120Marine": 7957, "\u0120pupil": 7958, "\u0120assessment": 7959, "\u0120motion": 7960, "\u0120Species": 7961, "\u0120Mongol": 7962, "\u0120lying": 7963, "\u0120Alaska": 7964, "\u0120involve": 7965, "uster": 7966, "49": 7967, "\u0120overlooked": 7968, "\u0120Gran": 7969, "\u0120Poland": 7970, "\u0120Metropolitan": 7971, "\u0120Figure": 7972, "\u01201990": 7973, "\u0120Calc": 7974, "\u0120accordingly": 7975, "\u0120uses": 7976, "\u0120estate": 7977, "\u0120carrots": 7978, "\u0120including": 7979, "\u0120mandatory": 7980, "\u0120consultant": 7981, "ssel": 7982, "\u0120transferred": 7983, "DR": 7984, "Br": 7985, "\u0120assessed": 7986, "\u0120Leipzig": 7987, "\u0120equals": 7988, "\u0120verse": 7989, "\u0120loop": 7990, "\u0120solstice": 7991, "\u0120repetition": 7992, "\u0120reject": 7993, "\u0120obstruct": 7994, "\u012027": 7995, "\u00c3\u00a9s": 7996, ",\u00e2\u0122\u013f": 7997, "lands": 7998, "David": 7999, "\u0120invalid": 8000, "\u0120redemption": 8001, "\u0120Card": 8002, "\u0120zebra": 8003, "\u0120Applied": 8004, "\u0120preventing": 8005, "\u0120Cu": 8006, "\u0120twi": 8007, "illary": 8008, "\u00c3": 8009, "\u0120bed": 8010, "\u0120impressed": 8011, "\u0120hypothe": 8012, "\u0120obli": 8013, "Ab": 8014, "\u0120Van": 8015, "\u0120Though": 8016, "\u0120possibility": 8017, "\u0120apnea": 8018, "\u0120project": 8019, "\u01201930": 8020, "\u0120accurate": 8021, "tha": 8022, "\u0120IA": 8023, "\u0120meeting": 8024, "top": 8025, "\u0120pools": 8026, "\u0120seems": 8027, "\u0120devised": 8028, "\u0120crack": 8029, "\u0120Mathematics": 8030, "oked": 8031, "uri": 8032, "\u0120Sierra": 8033, "\u0120robot": 8034, "\u0120tick": 8035, "\u0120selling": 8036, "\u0120dis": 8037, "\u0120prayers": 8038, "Spanish": 8039, "\u0120wounded": 8040, "Write": 8041, "\u0120Su": 8042, "\u0120butterfly": 8043, "\u0120fill": 8044, "ium": 8045, "rc": 8046, "\u0120Walter": 8047, "\u0120cooked": 8048, "\u0120junction": 8049, "\u0120predominantly": 8050, "eld": 8051, "\u0120Missouri": 8052, "I": 8053, "\u0120enlighten": 8054, "\u0120packaging": 8055, "sburg": 8056, "tches": 8057, "Col": 8058, "\u0120heads": 8059, "ured": 8060, "\u01201944": 8061, "mas": 8062, "\u0120younger": 8063, "lines": 8064, "SS": 8065, "\u0120Region": 8066, "\u0120combination": 8067, "\u0120dentist": 8068, ",\u00e2\u0122\u013b": 8069, "DA": 8070, "\u0120guard": 8071, "\u0120Library": 8072, "\u0120lines": 8073, "\u0120economies": 8074, "About": 8075, "r": 8076, "\u0120deliberately": 8077, "\u0120record": 8078, "\u0120progressive": 8079, "\u0120contact": 8080, "\u0120increase": 8081, "\u0120Juan": 8082, "Ka": 8083, "icide": 8084, "als": 8085, "\u0120emerged": 8086, "nga": 8087, "dimensional": 8088, "\u00c3\u0124": 8089, "\u0120Corn": 8090, "\u0120practitioner": 8091, "bes": 8092, "\u0120ti": 8093, "names": 8094, "Japanese": 8095, "\u0120falling": 8096, "ator": 8097, "ena": 8098, "\u0120Several": 8099, "eau": 8100, "\u0120Age": 8101, "\u0120facilit": 8102, "25": 8103, "U": 8104, "nie": 8105, "\u0120Egyptians": 8106, "\u0120gender": 8107, "fe": 8108, "\u0120presumably": 8109, "vic": 8110, "\u0120Individual": 8111, "\u0120persist": 8112, "pose": 8113, "\u0120engineer": 8114, "\u0120deprivation": 8115, "\u0120Hampshire": 8116, "\u0120hygiene": 8117, "\u0120cellular": 8118, "\u0120inequality": 8119, "cos": 8120, "early": 8121, "\u0120interrupt": 8122, "\u0120Royal": 8123, "down": 8124, "\u0120traveled": 8125, "st": 8126, "Despite": 8127, "\u0120inserted": 8128, "\u0120fear": 8129, "Ind": 8130, "\u0120cartilage": 8131, "\u0120pleased": 8132, "\u0120planetary": 8133, "2005": 8134, "half": 8135, "\u0120sins": 8136, "\u0120erroneous": 8137, "\u0120cleaning": 8138, "\u0120mercy": 8139, "\u0120nucleotide": 8140, "\u0120reception": 8141, "oc": 8142, "\u012071": 8143, "\u0120additives": 8144, "\u0120prey": 8145, "\u0120Please": 8146, "\u0120homeowners": 8147, "\u0120Award": 8148, "\u0120Enterprise": 8149, "wing": 8150, "\u012028": 8151, "\u0120proceed": 8152, "\u0120Canaan": 8153, "ori": 8154, "\u0120carrying": 8155, "ault": 8156, "\u0120reactions": 8157, "\u0120frames": 8158, "cribed": 8159, "ds": 8160, "lier": 8161, "\u0120life": 8162, "\u0120ran": 8163, "1980": 8164, "\u0120successor": 8165, "\u0120Math": 8166, "aka": 8167, "\u0120spend": 8168, "\u0120Pyramid": 8169, "\u0120spreading": 8170, "\u0120Contact": 8171, "ried": 8172, "\u0120Bel": 8173, "\u0120elected": 8174, "\u0120spectro": 8175, "\u0120shown": 8176, "\u0120dinosaurs": 8177, "\u0120differences": 8178, "\u0120hiding": 8179, "nch": 8180, "\u0120reproductive": 8181, "\u0120pres": 8182, "\u0120pseudo": 8183, "\u0120Infantry": 8184, "\u0120writings": 8185, "oli": 8186, "serving": 8187, "type": 8188, "\u0120bank": 8189, "\u0120wolf": 8190, "\u0120mature": 8191, "ranging": 8192, "\u0120contamination": 8193, "\u0120dysfunction": 8194, ".,": 8195, "\u0120blank": 8196, "\u0120Hence": 8197, "\u00e2\u0138\u00aa": 8198, "\u0120sanitation": 8199, "\u0120milk": 8200, "\u0120female": 8201, "\u0120Ward": 8202, "Poli": 8203, "\u0120Wrexham": 8204, "\u0120so": 8205, "ows": 8206, "\u0120liber": 8207, "ste": 8208, "\u0120continuous": 8209, "\u0120brief": 8210, "\u0120August": 8211, "\u0120steep": 8212, "\u0120Term": 8213, "\u0120olive": 8214, "\u0120gl": 8215, "\u0120paradox": 8216, "\u0120\u00c2\u00b7": 8217, "\u0120Clin": 8218, "\u0120caves": 8219, "ris": 8220, "\u0120Form": 8221, "\u0120Develop": 8222, "\u0120bear": 8223, "\u0120little": 8224, "\u0120crash": 8225, "\u0120corresponds": 8226, "\u0120bands": 8227, "\u0120rigid": 8228, "Reference": 8229, "gy": 8230, "\u0120make": 8231, "rison": 8232, "\u0120attractive": 8233, "\u0120giving": 8234, "min": 8235, "\u0120Nine": 8236, "\u0120lag": 8237, "\u0120endo": 8238, "6": 8239, "\u0120range": 8240, "\u0120performance": 8241, "\u0120na": 8242, "\u0120responding": 8243, "\u0120fulfill": 8244, "\u0120Obesity": 8245, "\u0120Fred": 8246, "\u0120dive": 8247, "\u0120Jennifer": 8248, "\u0120maxim": 8249, "may": 8250, "\u0120Pradesh": 8251, "\u0120bag": 8252, "\u0120adverse": 8253, "ised": 8254, "\u0120Committee": 8255, "\u0120ten": 8256, "\u0120NIH": 8257, "Fig": 8258, "\u0120comprising": 8259, "\u0120worn": 8260, "\u012079": 8261, "\u0120lifting": 8262, "vis": 8263, "erate": 8264, "\u0120Hat": 8265, "Gen": 8266, "anda": 8267, "driven": 8268, "\u0120grows": 8269, "\u012019": 8270, "\u0120gree": 8271, "\u0120enemy": 8272, "vin": 8273, "\u0120PMID": 8274, "\u0120holding": 8275, "v": 8276, "development": 8277, "\u0120pig": 8278, "\u0120twentieth": 8279, "\u0120Apple": 8280, "\u0120licensing": 8281, "ence": 8282, "\u0120acidic": 8283, "\u0120Australian": 8284, "il": 8285, "\u0120curve": 8286, "\u0120Amendment": 8287, "FL": 8288, "Ask": 8289, "\u0120Culture": 8290, "\u0120colours": 8291, "\u0120Med": 8292, "\u0120hatch": 8293, "\u0120USDA": 8294, "Symptoms": 8295, "\u0120microscope": 8296, "\u0120exchange": 8297, "\u0120Gallery": 8298, "\u0120displays": 8299, "general": 8300, "\u0120Honor": 8301, "gue": 8302, "\u0120making": 8303, "hour": 8304, "\u0120airplane": 8305, "kes": 8306, "\u0120catalyst": 8307, "ilt": 8308, "\u0120shall": 8309, "\u0120Lady": 8310, "\u0120afterwards": 8311, "\u0120CR": 8312, "\u0120Lan": 8313, "\u0120obviously": 8314, "\u0120celestial": 8315, "Americans": 8316, "\u0120protection": 8317, "\u0120crying": 8318, "\u0120Article": 8319, "lation": 8320, "\u0120scenarios": 8321, "tan": 8322, "\u0120intravenous": 8323, "\u0120Baker": 8324, "\u0120attachment": 8325, "\u0120Axis": 8326, "\u0120Eagle": 8327, "\u0120rendezvous": 8328, "Given": 8329, "\u0120until": 8330, "yne": 8331, "\u0120shore": 8332, "\u0120both": 8333, "00": 8334, "\u0120laws": 8335, "lse": 8336, "\u0120arteries": 8337, "\u0120algebra": 8338, "month": 8339, "\u0120vulnerable": 8340, "\u0120Young": 8341, "\u0120menu": 8342, "et": 8343, "\u0120Bacteria": 8344, "\u0120victories": 8345, "\u0120gall": 8346, "\u0120HE": 8347, "com": 8348, "\u0120abnormalities": 8349, "\u0120exempt": 8350, "zone": 8351, "\u0120down": 8352, "ices": 8353, "\u0120mean": 8354, "\u0120rather": 8355, "\u0120infected": 8356, "culture": 8357, "\u0120entire": 8358, "\u0120around": 8359, "Federal": 8360, "\u0120Reference": 8361, "gen": 8362, "\u0120genius": 8363, "/": 8364, "\u0120implies": 8365, "ure": 8366, "\u0120Tolkien": 8367, "\u0120The": 8368, "\u0120metals": 8369, "ui": 8370, "\u00e2\u0126\u00a2": 8371, "\u0120dra": 8372, "\u0120sexually": 8373, "\u0120300": 8374, "\u0120Exercise": 8375, "pping": 8376, "\u0120elevated": 8377, "\u0120Kentucky": 8378, "\u0120spending": 8379, "\u0120allies": 8380, "\u0120ensures": 8381, "\u0120rectangular": 8382, "sman": 8383, "\u0120Records": 8384, "points": 8385, "\u0120recall": 8386, "\u0120Prevent": 8387, "\u0120projections": 8388, "\u0120Linux": 8389, "\u0120practiced": 8390, "\u0120comfortable": 8391, "\u0120vein": 8392, "\u0120cavalry": 8393, "\u0120towards": 8394, "\u0120American": 8395, "\u012094": 8396, "\u0120basal": 8397, "\u0120fine": 8398, "\u0120800": 8399, "\u0120games": 8400, "\u0120Improve": 8401, "na": 8402, "\u0120via": 8403, "\u0120she": 8404, "degree": 8405, "\u0120accessibility": 8406, "\u0120vector": 8407, "\u0120implicit": 8408, "\u0120sanct": 8409, "\u0120Utah": 8410, "di": 8411, "\u0120describes": 8412, "\u0120reasonably": 8413, "ille": 8414, "\u0120seats": 8415, "uses": 8416, "SO": 8417, "ug": 8418, "ard": 8419, "ges": 8420, "\u0120resting": 8421, "\u0120unfold": 8422, "BY": 8423, "\u0120genes": 8424, "van": 8425, "\u0120enforced": 8426, "\u0120failures": 8427, "rin": 8428, "\u0120immigration": 8429, "\u0120Cold": 8430, "\u0120Sa": 8431, "\u0120cosmetic": 8432, "una": 8433, "*": 8434, "\u0120Montreal": 8435, "\u0120willing": 8436, "\u0120astronomical": 8437, "\u0120hypertension": 8438, "\u0120horse": 8439, "\u0120gradually": 8440, "\u0120multiple": 8441, "\u0120incontinence": 8442, "\u0120tomorrow": 8443, "\u0120holy": 8444, "\u0120sugars": 8445, "\u0120spark": 8446, "Any": 8447, "ons": 8448, "\u0120landscapes": 8449, "\u0120weight": 8450, "\u0120managing": 8451, "een": 8452, "\u0120witnessed": 8453, "\u0120door": 8454, "ARY": 8455, "\u0120cosmo": 8456, "\u0120residents": 8457, "\u0120learner": 8458, "\u0120of": 8459, "\u0120Author": 8460, "quarters": 8461, "\u0120randomly": 8462, "\u0120easiest": 8463, "aldehyde": 8464, "mmy": 8465, "\u0120right": 8466, "\u0120generations": 8467, "tt": 8468, "\u0120waters": 8469, "\u0120manuscript": 8470, "\u0120Fire": 8471, "\u01201937": 8472, "\u0120creativity": 8473, "spect": 8474, "\u012033": 8475, "also": 8476, "\u0120varied": 8477, "Credit": 8478, "\u0120buy": 8479, "\u0120gloves": 8480, "\u00e1": 8481, "\u0120France": 8482, "\u0120twice": 8483, "\u0120awarded": 8484, "\u0120vegetables": 8485, "\u0120branches": 8486, "\u0120favorable": 8487, "\u0120university": 8488, "\u0120reproduce": 8489, "\u0120premature": 8490, "\u0120verify": 8491, "\u0120dead": 8492, "\u0120avoid": 8493, "\u0120Mobile": 8494, "\u0120politicians": 8495, "\u0120been": 8496, "\u0120Anthony": 8497, "\u0120pipes": 8498, "\u0120projected": 8499, "\u0120Academy": 8500, "\u0120b": 8501, "\u0120evacu": 8502, "\u0120fo": 8503, "opathic": 8504, "=": 8505, "\u0120tactics": 8506, "\u0120eight": 8507, "\u0120Windows": 8508, "\u0120election": 8509, "\u0120turquoise": 8510, "\u0120came": 8511, "\u0120writing": 8512, "\u0120cervix": 8513, "\u0120ruins": 8514, "Although": 8515, "\u0120Has": 8516, "\u0120plate": 8517, "bal": 8518, "\u0120pizza": 8519, "\u0120Method": 8520, "\u0120perform": 8521, "\u0120stations": 8522, "\u0120commissioned": 8523, "\u0120slaughter": 8524, "\u0120wives": 8525, "\u0120Budget": 8526, "\u0120TI": 8527, "\u0120completely": 8528, "\u0120New": 8529, "\u0120Jim": 8530, "berries": 8531, "\u0120formidable": 8532, "\u0120deficiency": 8533, "\u0120Given": 8534, "\u0120collapsed": 8535, "performance": 8536, "\u0120funeral": 8537, "\u0120unveiled": 8538, "\u0120pop": 8539, "\u0120ch": 8540, "\u0120strange": 8541, "\u0120spring": 8542, "\u0120Nov": 8543, "\u0120bite": 8544, "\u0120purchased": 8545, "systems": 8546, "\u0120Katherine": 8547, "ika": 8548, "\u0120fought": 8549, "open": 8550, "\u0120besides": 8551, "globulin": 8552, "\u0120clever": 8553, "\u0120where": 8554, "\u0120launch": 8555, "\u0120rings": 8556, "ung": 8557, "olds": 8558, "\u0120past": 8559, "\u0120York": 8560, "\u0120gained": 8561, "\u0120manufacturing": 8562, "\u0120oscill": 8563, "\u0120irrigation": 8564, "\u0120fetus": 8565, "\u0120wires": 8566, "\u0120tendency": 8567, "\u0120Mount": 8568, "\u0120leap": 8569, "\u0120vi": 8570, "\u0120flattened": 8571, "but": 8572, "\u0120dates": 8573, "\u0120Ind": 8574, "\u0120successful": 8575, "\u0120illustrations": 8576, "Explore": 8577, "\u0120memoir": 8578, "\u0120Never": 8579, "\u00c2\u00b0": 8580, "uation": 8581, "\u0120determining": 8582, "\u0120explicitly": 8583, "\u0120Hundred": 8584, "\u0120listing": 8585, "\u0120drain": 8586, "\u0120experts": 8587, "\u0120work": 8588, "\u0120apply": 8589, "\u0120flour": 8590, "\u0120provides": 8591, "1998": 8592, "\u0120var": 8593, "\u0120founded": 8594, "\u0120foster": 8595, "\u0120incentives": 8596, "\u0120offices": 8597, "\u0120archive": 8598, "\u0120honey": 8599, "\u0120elastic": 8600, "len": 8601, "\u0120customs": 8602, "ret": 8603, "\u0120cosm": 8604, "pers": 8605, "\u0120summit": 8606, "\u0120heading": 8607, "\u0120pressed": 8608, "Add": 8609, "\u0120accuracy": 8610, "\u0120contracted": 8611, "\u0120god": 8612, "\u0120Out": 8613, "MD": 8614, "\u0120dehydration": 8615, "\u0120batteries": 8616, "\u0120Rand": 8617, "Black": 8618, "\u0120minutes": 8619, "\u0120bigger": 8620, "\u0120emperor": 8621, "\u0120offered": 8622, "\u0120Wall": 8623, "\u0120learn": 8624, "\u0120convince": 8625, "\u01201840": 8626, "\u0120ceremony": 8627, "\u0120survival": 8628, "\u0120somewhat": 8629, "\u0120precious": 8630, "\u0120look": 8631, "has": 8632, "cession": 8633, "\u0120Eve": 8634, "Having": 8635, "ologic": 8636, "\u0120person": 8637, "98": 8638, "\u0120Plateau": 8639, "oi": 8640, "\u0120Pic": 8641, "\u0120Valentine": 8642, "\u0120vessel": 8643, "'m": 8644, "\u0120filed": 8645, "rett": 8646, "\u0120opaque": 8647, "\u0120brown": 8648, "\u0120station": 8649, "\u0120inclination": 8650, "\u0120luck": 8651, "\u0120promising": 8652, "\u0120Framework": 8653, "\u0120Observ": 8654, "\u0120Operation": 8655, "\u0120privacy": 8656, "\u0120Chapter": 8657, "lio": 8658, "\u0120oils": 8659, "\u0120doubt": 8660, "\u0120alignment": 8661, "ute": 8662, "\u0120born": 8663, "\u0120Tell": 8664, "\u0120obsess": 8665, "\u0120emotion": 8666, "\u0120Yellow": 8667, "\u0120surviving": 8668, "\u0120configure": 8669, "\u0120climates": 8670, "\u0120curriculum": 8671, "\u0120Finally": 8672, "\u0120ranks": 8673, "27": 8674, "iel": 8675, "\u0120WE": 8676, "har": 8677, "\u0120Board": 8678, "ON": 8679, "Patients": 8680, "\u00d4": 8681, "\u0120Description": 8682, "\u0120adoption": 8683, "\u00c3\u00a8": 8684, "bble": 8685, "tto": 8686, "pressed": 8687, "\u0120analyses": 8688, "\u0120foundation": 8689, "\u0120detention": 8690, "\u0120Way": 8691, "ional": 8692, "\u0120Sah": 8693, "\u0120desp": 8694, "\u0120Stu": 8695, "\u0120finished": 8696, "\u0120larvae": 8697, "\u0120Bu": 8698, "\u0120Nepal": 8699, "\u0120celebr": 8700, "\u0120accustomed": 8701, "\u0120Studies": 8702, "\u0120Aero": 8703, "\u0120Wednesday": 8704, "\u0120car": 8705, "LD": 8706, "ML": 8707, "is": 8708, "inson": 8709, "\u0120vertebra": 8710, "\u0120coordinate": 8711, "\u0120Graduate": 8712, "\u0120means": 8713, "\u0120festivals": 8714, "\u0120Sanb\u00c3\u00b4ky\u00c3\u00b4dan": 8715, "\u0120exhaust": 8716, "\u0120lieutenant": 8717, "\u00e0\u00b8": 8718, "\u0120played": 8719, "\u0120Adam": 8720, "\u0120slip": 8721, "\u0120logging": 8722, "\u0120zinc": 8723, "\u0120tuberculosis": 8724, "\u0120sha": 8725, "\u0120loving": 8726, "\u0120nests": 8727, "\u0120archaeological": 8728, "\u0120credentials": 8729, "\u0120Ep": 8730, "\u0120spur": 8731, "\u0120Once": 8732, "bas": 8733, "\u0120calories": 8734, "\u0120consume": 8735, "\u0120Military": 8736, "\u0120backward": 8737, "ologist": 8738, "SW": 8739, "ception": 8740, "lessness": 8741, "\u0120doi": 8742, "\u00e5": 8743, "\u0120systematic": 8744, "\u0120star": 8745, "\u0120projectile": 8746, "\u0120child": 8747, "\u0120antioxidants": 8748, "\u0120Avenue": 8749, "omics": 8750, "birds": 8751, "\u0120Chr": 8752, "ST": 8753, "\u0120inappropriate": 8754, "\u0120Sub": 8755, "\u0120km": 8756, "\u0120always": 8757, "ais": 8758, "\u0120architectural": 8759, "\u0120enacted": 8760, "\u0120lu": 8761, "turb": 8762, "\u0120File": 8763, "\u0120Republic": 8764, "\u0120link": 8765, "44": 8766, "\u0120wrap": 8767, "\u0120enzymes": 8768, "\u0120enrich": 8769, "\u0120two": 8770, "\u012a": 8771, "\u0120steroids": 8772, "\u0120equal": 8773, "\u0120What": 8774, "Digital": 8775, "free": 8776, "\u0120bicycle": 8777, "\u0120tro": 8778, "\u0120120": 8779, "shi": 8780, "developed": 8781, "\u0120designed": 8782, "\u0120leisure": 8783, "\u0120receiving": 8784, "\u0120Keep": 8785, "\u0120Disorder": 8786, "\u0120Washington": 8787, "\u0120Deborah": 8788, "\u0120Analy": 8789, "\u012063": 8790, "sex": 8791, "\u0120Yet": 8792, "\u0120prevail": 8793, "\u0120fraud": 8794, "\u0120compensation": 8795, "\u0120angle": 8796, "150": 8797, "\u0120shooting": 8798, "\u0120bronch": 8799, "\u0120hau": 8800, "\u0120junior": 8801, "\u0120Arkansas": 8802, "\u0120susceptibility": 8803, "\u0120real": 8804, "book": 8805, "\u0120mph": 8806, "\u0120Difficulty": 8807, "pri": 8808, "n": 8809, "\u0120drying": 8810, "\u0120Over": 8811, "\u0120lacks": 8812, "\u01202010": 8813, "\u0120warrant": 8814, "Unlike": 8815, "\u0120stresses": 8816, "\u0120guidance": 8817, "\u0120aquaculture": 8818, "\u0120dispatch": 8819, "\u0120Female": 8820, "\u0120beneficial": 8821, "\u0120gear": 8822, "\u0120chicken": 8823, "\u0120excitement": 8824, "Besides": 8825, "zu": 8826, "content": 8827, "\u0120authors": 8828, "\u0120Economics": 8829, "reviewed": 8830, "\u0120manufactured": 8831, "colored": 8832, "\u0120requiring": 8833, "nched": 8834, "\u0120Sound": 8835, "\u0120guide": 8836, "\u0120Molecular": 8837, "\u0120Min": 8838, "\u0120accident": 8839, "\u0120Genetic": 8840, "\u0120cond": 8841, "\u0120navigate": 8842, "ys": 8843, "car": 8844, "\u0120theory": 8845, "\u0120congestion": 8846, "\u0120MI": 8847, "\u0120rinse": 8848, "\u0120speak": 8849, "\u0120...": 8850, "\u0120harmful": 8851, "our": 8852, "\u0120Click": 8853, "\u0120Federal": 8854, "\u0120specialists": 8855, "\u0120whether": 8856, "\u0120intermediate": 8857, "\u0120posted": 8858, "\u0120CP": 8859, "First": 8860, "\u0120Support": 8861, "cations": 8862, "\u0120emissions": 8863, "Sup": 8864, "\u0120delicate": 8865, "\u0120mouse": 8866, "\u0120Barbara": 8867, "LO": 8868, "\u0120proximity": 8869, "\u0120round": 8870, "\u0120Literature": 8871, "\u0120let": 8872, "stolic": 8873, "HI": 8874, "\u0120climbing": 8875, "\u0120nesting": 8876, "\u0120birds": 8877, "ulsive": 8878, "\u0120shelter": 8879, "to": 8880, "\u0120outer": 8881, "\u0120Nar": 8882, "\u00af": 8883, "\u0120recipe": 8884, "\u0120north": 8885, "Sun": 8886, "\u0120library": 8887, "\u0120herself": 8888, "\u0120patch": 8889, "\u0120interference": 8890, "\u0120collecting": 8891, "frequency": 8892, "\u00ea": 8893, "\u0120flies": 8894, "\u0120Adult": 8895, "disciplinary": 8896, "\u0120ruled": 8897, "\u0120barriers": 8898, "\u0120Catholics": 8899, "\u0120constituted": 8900, "\u0120overwhelm": 8901, "ternal": 8902, "\u0120How": 8903, "\u0120crater": 8904, "\u0120160": 8905, "\u0120Time": 8906, "no": 8907, "\u0120his": 8908, "\u0120Smith": 8909, "\u0120Mother": 8910, "lah": 8911, "member": 8912, "\u0120Cas": 8913, "Women": 8914, "\u01201910": 8915, "\u0120uniform": 8916, "\u0120musicians": 8917, "\u0120Canal": 8918, "\u0120coronary": 8919, "\u0120represented": 8920, "\u0120grams": 8921, "\u0120eliminate": 8922, "\u0120verb": 8923, "bro": 8924, "\u0120lighting": 8925, "\u0120America": 8926, "\u0120diagram": 8927, "\u0120pill": 8928, "cip": 8929, "\u0120Corinth": 8930, "\u0120Pediatr": 8931, "zi": 8932, "\u0120input": 8933, "\u0120Development": 8934, "\u0120courage": 8935, "\u0120placenta": 8936, "\u0120widely": 8937, "\u0120antenna": 8938, "News": 8939, "\u0120Associate": 8940, "\u0120methyl": 8941, "\u0120hesit": 8942, "\u0120equations": 8943, "\u0120Baghdad": 8944, "Michael": 8945, "\u0120abundance": 8946, "\u0120sq": 8947, "plan": 8948, "Lu": 8949, "\u0120frozen": 8950, "log": 8951, "\u0120wire": 8952, "knowledge": 8953, "\u0120protests": 8954, "\u0120occasions": 8955, "\u0120Archbishop": 8956, "micro": 8957, "\u0120repair": 8958, "\u0120style": 8959, "\u0120savings": 8960, "\u0120mail": 8961, "\u0120swift": 8962, "\u0120Reading": 8963, "\u0120Bell": 8964, "\u0120nephew": 8965, "\u0120Swi": 8966, "\u0120unemployment": 8967, "\u0120collagen": 8968, "ishing": 8969, "\u0120Sco": 8970, "tton": 8971, "January": 8972, "\u0120soybean": 8973, "\u0120instead": 8974, "\u0120ingredient": 8975, "usa": 8976, "\u0120Geo": 8977, "\u0120pays": 8978, "\u0120cautious": 8979, "\u0120writers": 8980, "\u0120persua": 8981, "\u0120strategic": 8982, "even": 8983, "April": 8984, "\u0120crafts": 8985, "\u0120please": 8986, "\u0120sex": 8987, "\u0120feared": 8988, "esophageal": 8989, "rucifixion": 8990, "\u0120Dev": 8991, "\u0120eagle": 8992, "\u0120portions": 8993, "eight": 8994, "\u0120negative": 8995, "\u0120scar": 8996, "\u0120edge": 8997, "\u0120animation": 8998, "front": 8999, "\u0120Oregon": 9000, "\u0120Goddess": 9001, "ogenesis": 9002, "rative": 9003, "\u0120directory": 9004, "\u0120wea": 9005, "sight": 9006, "ato": 9007, "south": 9008, "elling": 9009, "\u0120Miss": 9010, "Both": 9011, "\u0120lamps": 9012, "\u0120laboratories": 9013, "Primary": 9014, "\u0120J": 9015, "\u0120retrieval": 9016, "600": 9017, "\u0120allergy": 9018, "\u0120broadcast": 9019, "\u0120Bolivia": 9020, "\u0120anxiety": 9021, "\u0120Lea": 9022, "\u0120ton": 9023, "\u0120writer": 9024, "\u0120exploitation": 9025, "\u0120teen": 9026, "\u0120Communist": 9027, "\u0120ash": 9028, "\u0120waiting": 9029, "\u0120centres": 9030, "\u0120ref": 9031, "Finally": 9032, "\u0120asthma": 9033, "\u0120destroyed": 9034, "J\u00c4\u0122TAKA": 9035, "\u0120celebrate": 9036, "?)": 9037, "\u0120Veterinary": 9038, "\u0120pic": 9039, "\u0120Religion": 9040, "\u0120springs": 9041, "force": 9042, "\u0120tracking": 9043, "\u0120LA": 9044, "ari": 9045, "\u0120estimates": 9046, "\u0120portrait": 9047, "\u0120syndrome": 9048, "\u0120Big": 9049, "children": 9050, "\u0120default": 9051, "\u0120antiquity": 9052, "\u0120underground": 9053, "\u0120interaction": 9054, "press": 9055, "\u0120shark": 9056, "ES": 9057, "\u0120kings": 9058, "\u0120reciproc": 9059, "\u0120permanently": 9060, "\u0120Ne": 9061, "\u0120su": 9062, "81": 9063, "inth": 9064, "your": 9065, "\u0120ring": 9066, "iss": 9067, "\u0120attach": 9068, "\u0120Marie": 9069, "\u01201942": 9070, "aries": 9071, "mes": 9072, "\u012039": 9073, "\u0120Hubble": 9074, "\u0120Freud": 9075, "av": 9076, "HE": 9077, "\u0120romantic": 9078, "\u0120racial": 9079, "\u0120brothers": 9080, "\u0120malaria": 9081, "nting": 9082, "Yet": 9083, "\u0120Earl": 9084, "\u0120optical": 9085, "\u0120designer": 9086, "\u0120Kings": 9087, "\u0120inventory": 9088, "\u0120competitive": 9089, "\u0120inflation": 9090, "\u0120forbidden": 9091, "\u0120poetry": 9092, "\u0120agree": 9093, "\u0120fitness": 9094, "\u0120northwest": 9095, "\u0120timber": 9096, "\u0120highlighted": 9097, "\u0120AF": 9098, "\u0120Islamic": 9099, "\u0120Dynasty": 9100, "\u0120storing": 9101, "bid": 9102, "\u0120reign": 9103, "\u0120since": 9104, "\u0120reaction": 9105, "\u0120stability": 9106, "\u0120wagon": 9107, "\u0120Media": 9108, "And": 9109, "\u00c7": 9110, "yo": 9111, "high": 9112, "Mar": 9113, "ob": 9114, "blo": 9115, "\u0120intricate": 9116, "\u00c3\u00b1": 9117, "writing": 9118, "..": 9119, "ber": 9120, "\u0120typical": 9121, "Mu": 9122, "\u0120accompanied": 9123, "\u0120titled": 9124, "wise": 9125, "\u0120contexts": 9126, "\u0120counts": 9127, "\u0120peripheral": 9128, "\u0120wings": 9129, "\u0120enzyme": 9130, "\u012086": 9131, "\u0120Link": 9132, "though": 9133, "\u0120deal": 9134, "\u0120title": 9135, "\u0120Der": 9136, "\u0120get": 9137, "\u0120bizarre": 9138, "\u0120Human": 9139, "\u0120burned": 9140, "\u0120versus": 9141, "\u0120conclusion": 9142, "weed": 9143, "both": 9144, "\u0120heard": 9145, "\u0120terms": 9146, "NSAIDs": 9147, "\u0120Cou": 9148, "\u0120herbs": 9149, "\u0120weeks": 9150, "\u0120depression": 9151, "\u0120hunting": 9152, "\u0120L": 9153, "\u0120microbes": 9154, "God": 9155, ".),": 9156, "\u0120FO": 9157, "\u0120Ea": 9158, "\u0120fruits": 9159, "und": 9160, "\u0120sound": 9161, "\u0120Instruction": 9162, "actic": 9163, "c": 9164, "\u0120profiles": 9165, "\u0120part": 9166, "UM": 9167, "\u0120ranges": 9168, "\u0120into": 9169, "\u0120head": 9170, "\u0120recognizes": 9171, "\u0120barrel": 9172, "\u0120Col": 9173, "\u0120sk": 9174, "\u0120Solomon": 9175, "\u0120Volunteer": 9176, "\u0120frequent": 9177, "\u0120contracts": 9178, "\u0120possibly": 9179, "\u0120filament": 9180, "\u0120vacuum": 9181, "\u0120assume": 9182, "\u0120Chemistry": 9183, "\u0120precision": 9184, "ppy": 9185, "Re": 9186, "FP": 9187, "ism": 9188, "AL": 9189, "\u0120Battle": 9190, "han": 9191, "gal": 9192, "\u0120applicable": 9193, "16": 9194, "\u0120suitable": 9195, "\u0120declining": 9196, "\u0120civilization": 9197, "\u0120decision": 9198, "\u0120teachings": 9199, "\u0120Judaism": 9200, "\u0120Virtual": 9201, "\u0120intervening": 9202, "\u01201939": 9203, "\u0120Warren": 9204, "\u0120evolve": 9205, "ite": 9206, "\u0120waste": 9207, "ops": 9208, "\u0120rainfall": 9209, "\u0120forced": 9210, "\u0120exciting": 9211, "\u0120Beyond": 9212, "\u0120continuously": 9213, "\u0120liga": 9214, "\u0120Yahoo": 9215, "\u0120muscles": 9216, ")||": 9217, "\u0120Mark": 9218, "\u0120male": 9219, "\u0120situation": 9220, "\u00e0": 9221, "\u0120cod": 9222, "\u0120Parkinson": 9223, "\u0120ensu": 9224, "ote": 9225, "ular": 9226, "\u0120exception": 9227, "lim": 9228, "\u0120forth": 9229, "\u0120first": 9230, "\u0120uranium": 9231, "\u0120sturdy": 9232, "\u0120allocated": 9233, "\u0120months": 9234, "\u0120Johann": 9235, "first": 9236, "\u0120boast": 9237, "\u0120nucleus": 9238, "ior": 9239, "\u0120journey": 9240, "\u0120responsibilities": 9241, "Wiki": 9242, "\u0120disability": 9243, "\u0120joint": 9244, "\u0120combines": 9245, "\u0120elegant": 9246, "\u0120active": 9247, "\u0120guilty": 9248, "\u0120Raj": 9249, "\u0120pork": 9250, "\u00c5": 9251, "\u0120volunteers": 9252, "\u012080": 9253, "\u0120mind": 9254, "m": 9255, "\u01201984": 9256, "\u0120renewed": 9257, "\u0120clients": 9258, "\u0120disturbance": 9259, "\u0120TA": 9260, "\u0120ears": 9261, "cli": 9262, "\u0120peanut": 9263, "\u0120notes": 9264, "\u0120platforms": 9265, "\u0120soft": 9266, "tta": 9267, "uring": 9268, "\u0120Horizon": 9269, "\u0120analogy": 9270, "value": 9271, "\u0120Costa": 9272, "\u0120Bird": 9273, "ij": 9274, "\u0120prompted": 9275, "\u0120YOU": 9276, "scient": 9277, "\u0120respiratory": 9278, "\u0120unlimited": 9279, "ors": 9280, "Pri": 9281, "\u0120biggest": 9282, "hand": 9283, "one": 9284, "\u0120passion": 9285, "\u0120energies": 9286, "\u0120Jacob": 9287, "\u0120landed": 9288, "\u0120campaign": 9289, "\u0120picking": 9290, "\u0120incidents": 9291, "\u0120squadron": 9292, "\u0120coat": 9293, "\u0120Rain": 9294, "\u0120accus": 9295, "fen": 9296, "\u0120announced": 9297, "\u0120actively": 9298, "\u0120Ethernet": 9299, "um": 9300, "\u0120how": 9301, "\u0120uncertainty": 9302, "\u0120Grand": 9303, "ural": 9304, "lly": 9305, "iana": 9306, "\u0120Members": 9307, "\u0120descend": 9308, "\u0120infant": 9309, "\u0120disappeared": 9310, "tics": 9311, "\u0120overcome": 9312, "\u0120lips": 9313, "\u0120students": 9314, "static": 9315, "P": 9316, "\u0120later": 9317, "\u0120Online": 9318, "\u01202020": 9319, "\u0120conquer": 9320, "\u0120Zealand": 9321, "\u0120price": 9322, "\u0120colour": 9323, "\u0120wicked": 9324, "\u0120traces": 9325, "oking": 9326, "\u0120tooth": 9327, "\u0120Occup": 9328, "\u0120Luc": 9329, "\u0120sediment": 9330, "\u0120that": 9331, "\u0120asteroid": 9332, "\u0120Netherlands": 9333, "\u0120Res": 9334, "\u0120Twelve": 9335, "\u01201890": 9336, "oid": 9337, "fit": 9338, "\u0120Copyright": 9339, "\u0120Rights": 9340, "release": 9341, "\u0120Corporation": 9342, "\u0120stretching": 9343, "\u0120funded": 9344, "uss": 9345, "67": 9346, "\u0120similar": 9347, "ird": 9348, "\u0120Recon": 9349, "\u0120Site": 9350, "\u0120encyclopedia": 9351, "7": 9352, "\u0120institution": 9353, "\u0120Not": 9354, "ties": 9355, "\u0120Note": 9356, "\u0120Words": 9357, "Lesson": 9358, "\u012032": 9359, "\u0120longevity": 9360, "\u0120ban": 9361, "\u0120room": 9362, "SOURCE": 9363, "family": 9364, "\u00d0\u00b8\u00d0": 9365, "Port": 9366, "nge": 9367, "get": 9368, "\u0120ceremonial": 9369, "\u0120tu": 9370, "\u0120hal": 9371, "\u0120include": 9372, "\u0120sca": 9373, "CS": 9374, "\u0120networks": 9375, "\u0120Release": 9376, "\u0120Singapore": 9377, "\u0120Particip": 9378, "\u0120rate": 9379, "\u0120conceptual": 9380, "\u0120capability": 9381, "\u0120nicotine": 9382, "\u0120adopt": 9383, "pped": 9384, "rt": 9385, "LS": 9386, "au": 9387, "\u0120excessive": 9388, "\u0120quarters": 9389, "ancy": 9390, "calyp": 9391, "\u0120treats": 9392, "\u0120Carol": 9393, "\u0120quiz": 9394, "Be": 9395, "million": 9396, "\u0120ph": 9397, "\u0120amazing": 9398, "PP": 9399, "\u0120primarily": 9400, "\u0120master": 9401, "\u0120centre": 9402, "\u0120dictionary": 9403, "\u0120Letters": 9404, "\u0120Block": 9405, "\u0120epilepsy": 9406, "\u0120180": 9407, "ed": 9408, "bing": 9409, "\u0120Rama": 9410, "\u0120workforce": 9411, "\u0120waterways": 9412, "\u0120interpretation": 9413, "\u0120outside": 9414, "jan": 9415, "\u0120pulse": 9416, "materials": 9417, "\u00c3\u00a3o": 9418, "\u0120tested": 9419, "Vs": 9420, "ipelago": 9421, "\u0120longer": 9422, "\u0120ethanol": 9423, "\u0120separate": 9424, "\u0120dominate": 9425, "\u0120fissure": 9426, "\u0120antibiotic": 9427, "ocation": 9428, "\u0120pay": 9429, "sl": 9430, "\u0120charts": 9431, "threatening": 9432, "\u0120century": 9433, "\u0120apart": 9434, "fting": 9435, "\u0120residence": 9436, "\u0120pursuing": 9437, "\u0120confirmed": 9438, "\u0120FREE": 9439, "\u0120shares": 9440, "Chapter": 9441, "\u0120acupuncture": 9442, "\u0120compared": 9443, "\u0120wear": 9444, "\u0120eth": 9445, "tage": 9446, "\u0120tropics": 9447, "\u0120ubiquitous": 9448, "yt": 9449, "\u0120alliance": 9450, "\u0120transported": 9451, "\u0120Crawford": 9452, "\u0120nevertheless": 9453, "\u012096": 9454, "\u0120covers": 9455, "\u0120assistance": 9456, "Islamic": 9457, "\u0120varieties": 9458, "\u0120processors": 9459, "\u0120sport": 9460, "\u0120controversial": 9461, "length": 9462, "\u0120Somali": 9463, "nges": 9464, "ique": 9465, "\u0120section": 9466, "\u0120Iron": 9467, "ave": 9468, "\u0120contrary": 9469, "\u0120Gabriel": 9470, "\u0120street": 9471, "\u0120Independent": 9472, "Sub": 9473, "\u0120Nazis": 9474, "rian": 9475, "\u0120Pan": 9476, "\u0120glad": 9477, "\u0120performances": 9478, "\u0120nickel": 9479, "\u0120judicial": 9480, "\u0120representing": 9481, "ering": 9482, "sit": 9483, "\u0120Prom": 9484, "\u0120principles": 9485, "tor": 9486, "\u0120Mudejar": 9487, "istic": 9488, "\u0120LORD": 9489, "Al": 9490, "\u0120missing": 9491, "\u0120Stone": 9492, "\u0120failed": 9493, "\u0120lead": 9494, "\u0120speaks": 9495, "\u0120Milky": 9496, "\u0120seldom": 9497, "\u0120bias": 9498, "\u0120frustration": 9499, "\u0120housed": 9500, "\u0120Israel": 9501, "\u0120supplements": 9502, "mple": 9503, "\u0120favorite": 9504, "\u01201911": 9505, "\u0120thor": 9506, "\u0120edit": 9507, "\u0120decree": 9508, "\u0120shipping": 9509, "\u0120crossing": 9510, "\u0120Iceland": 9511, "\u0120Shepherd": 9512, "holder": 9513, "'t": 9514, "\u0120shoulders": 9515, "\u0120Reich": 9516, "\u0120comet": 9517, "\u0120Karl": 9518, "\u0120toxin": 9519, "\u0120Agency": 9520, "\u0120perfectly": 9521, "\u0120Renewable": 9522, "\u0120formation": 9523, "\u0120coordination": 9524, "\u0120catastrophic": 9525, "especially": 9526, "\u0120asset": 9527, "\u0120Super": 9528, "\u0120plasma": 9529, "named": 9530, "\u0120intent": 9531, "\u0120report": 9532, "\u0120Louisiana": 9533, "robably": 9534, "Vol": 9535, "\u0120internationally": 9536, "\u0120sti": 9537, "\u0120troops": 9538, "\u0120narrative": 9539, "\u0120gay": 9540, "\u0120tool": 9541, "\u0120el": 9542, "\u0120array": 9543, "\u0120colorectal": 9544, "\u0120features": 9545, "\u0120hence": 9546, "\u0120happ": 9547, "\u0120lights": 9548, "\u0120beach": 9549, "\u0120elephants": 9550, "\u0120Cha": 9551, "\u0120DO": 9552, "site": 9553, "\u0120aim": 9554, "rel": 9555, "\u0120sw": 9556, "\u0120vice": 9557, "\u0120Victor": 9558, "\u0120Str": 9559, "\u0120marginal": 9560, "\u0120dried": 9561, "\u0120restored": 9562, "\u0120scientifically": 9563, "\u0120Confederate": 9564, "\u0120thimerosal": 9565, "\u0120Come": 9566, "\u0120reside": 9567, "stri": 9568, "\u0120ice": 9569, "\u0120strategy": 9570, "\u0120guides": 9571, "\u0120blade": 9572, "\u0120Fort": 9573, "\u0120organs": 9574, "\u0120salt": 9575, "\u0120realm": 9576, "\u0120battalion": 9577, "\u0120dominated": 9578, "\u0120SA": 9579, "\u0120Arjuna": 9580, "\u0120z": 9581, "\u0120URL": 9582, "\u0120possibilities": 9583, "cking": 9584, "Ar": 9585, "\u0120\u00c2\u00a7": 9586, "\u0120spokes": 9587, "\u0120Case": 9588, "\u0120negotia": 9589, "\u0120regulating": 9590, "\u0120engine": 9591, "\u0120HA": 9592, "\u0120100": 9593, "\u0120trucks": 9594, "\u0120induce": 9595, "\u0120towel": 9596, "\u0120Sicily": 9597, "\u0120dairy": 9598, "ju": 9599, "published": 9600, "\u0120Nebraska": 9601, "\u0120distress": 9602, "\u0120pump": 9603, "\u0120Idaho": 9604, "\u0120Pl": 9605, "only": 9606, "\u0120discusses": 9607, "gm": 9608, "\u0120000": 9609, "long": 9610, "\u01201914": 9611, "\u0120activated": 9612, "ckets": 9613, "Techn": 9614, "\u0120saved": 9615, "\u0120h": 9616, "\u0120iPad": 9617, "igh": 9618, "vasive": 9619, "\u0120swine": 9620, "ident": 9621, "lin": 9622, "\u0120Ins": 9623, "\u0120left": 9624, "\u0120supplement": 9625, "\u0120tomb": 9626, "\u0120dreams": 9627, "\u0120calculations": 9628, "\u0120Cape": 9629, "\u0120youngest": 9630, "\u0120western": 9631, "USA": 9632, "VA": 9633, "\u0120programs": 9634, "\u0120proposal": 9635, "\u0120Nation": 9636, "\u0120host": 9637, "\u0120More": 9638, "\u0120swollen": 9639, "\u0120donor": 9640, "\u0120cultures": 9641, "nor": 9642, "hai": 9643, "Sh": 9644, "\u0120days": 9645, "\u0120Indiana": 9646, "\u0120allergies": 9647, "\u0120landowners": 9648, "\u0120peculiar": 9649, "Article": 9650, "\u0120Monroe": 9651, "\u0120unified": 9652, "\u0120melting": 9653, "\u0120Biology": 9654, "\u0120contributes": 9655, "\u0120women": 9656, "\u0120inch": 9657, "\u0120Gi": 9658, "\u0120phases": 9659, "\u0120Assistant": 9660, "LT": 9661, "\u0120same": 9662, "\u0120everywhere": 9663, "\u0120obtaining": 9664, "\u0120schemes": 9665, "\u0120Interpret": 9666, "tism": 9667, "\u0120galaxies": 9668, "\u0120temples": 9669, "\u0120edges": 9670, "gar": 9671, "Ancient": 9672, "\u0120tests": 9673, "SQL": 9674, "\u0120Mitchell": 9675, "\u0120oral": 9676, "\u0120op": 9677, "\u0120conversation": 9678, "nda": 9679, "Date": 9680, "\u0120Left": 9681, "\u0120commander": 9682, "\u0120lift": 9683, "number": 9684, "\u0120gives": 9685, "\u0120deposit": 9686, "ster": 9687, "\u0120Testament": 9688, "\u0120ever": 9689, "\u0120Follow": 9690, "\u0120angry": 9691, "sk": 9692, "\u0120Smithsonian": 9693, "\u0120imagination": 9694, "\u0120conspiracy": 9695, "\u0120diarrhea": 9696, "arms": 9697, "par": 9698, "\u0120gum": 9699, "\u0120Physics": 9700, "\u0120extent": 9701, "\u0120smaller": 9702, "\u0120statute": 9703, "rem": 9704, "\u0120climb": 9705, "\u0120Republican": 9706, "got": 9707, "asp": 9708, "\u0120compact": 9709, "\u0120Free": 9710, "\u0120database": 9711, "\u0120maturity": 9712, "\u0120Gla": 9713, "\u0120magnificent": 9714, "\u0120Wilhelm": 9715, "\u0120Ash": 9716, "\u0120nationalism": 9717, "rey": 9718, "lux": 9719, "\u0120fast": 9720, "\u0120Fri": 9721, "\u0120min": 9722, "\u0120heating": 9723, "\u0120prediction": 9724, "\u0120jar": 9725, "do": 9726, "\u0120Architecture": 9727, "\u0120ec": 9728, "\u0120destination": 9729, "\u0120hydrogen": 9730, "\u0120bacterial": 9731, "ai": 9732, "\u0120headed": 9733, "\u0120humidity": 9734, "\u0120museums": 9735, "\u0120away": 9736, "\u00dc": 9737, "\u0120talks": 9738, "\u0120surprise": 9739, "\u0120arts": 9740, "step": 9741, "KE": 9742, "\u00a2": 9743, "history": 9744, "t": 9745, "aceae": 9746, "\u0120Her": 9747, "\u0120proclaimed": 9748, "\u0120diseases": 9749, "\u0120Sanctuary": 9750, "\u0120intense": 9751, "\u012061": 9752, "\u0120raising": 9753, "\u0120match": 9754,
[...]
