{"[UNK]": 0, "endoftextbehere": 1, "\u0120ri": 2, "\u0120you": 3, "\u00d7": 4, "\u0120ke": 5, "\u0120occur": 6, "1": 7, "ism": 8, ".,": 9, "ne": 10, "),": 11, "\u0120Fr": 12, "ual": 13, "\u00b4": 14, "\u0120support": 15, "F": 16, "\u0120so": 17, "\u0120end": 18, "\u0120He": 19, "\u0120experience": 20, "\u0120R": 21, "em": 22, "\u0120level": 23, "gn": 24, "ue": 25, "\u0143": 26, "\u0120these": 27, "\u0120question": 28, "\u0120br": 29, "\u0120little": 30, "iv": 31, "ext": 32, "\u0120make": 33, "\u0120On": 34, "\u0120ra": 35, "u": 36, "l": 37, "as": 38, "ite": 39, "min": 40, "\u0120E": 41, ">": 42, "\u0120many": 43, "\u0120use": 44, "\u00e0": 45, "\u0120fu": 46, "pl": 47, "6": 48, "\u0120pri": 49, "at": 50, "\u00bb": 51, "\u0120first": 52, "\u0120up": 53, "D": 54, "\u0120bo": 55, "\u00a5": 56, "\u0120col": 57, "ort": 58, "ex": 59, "\u0120wh": 60, "j": 61, "\u0120more": 62, "form": 63, "es": 64, "ings": 65, "ear": 66, "\u0133": 67, "\u0120years": 68, "ward": 69, "\u012019": 70, "en": 71, "%": 72, "\u00ec": 73, "\u0120rec": 74, "v": 75, "\u00cf": 76, "\u0120country": 77, "th": 78, "\u00c5": 79, "\u0120made": 80, "\u0120only": 81, "\u0120techn": 82, "m": 83, "ight": 84, "\u0120own": 85, "ence": 86, "ub": 87, "il": 88, "\u00a7": 89, "\u00d9": 90, "\u00a6": 91, "\u0120information": 92, "\u0120co": 93, "\u0120most": 94, "d": 95, "\u00e4": 96, "\u0120physic": 97, "\u0120people": 98, "\u00eb": 99, "om": 100, "\u0120H": 101, "ec": 102, "ors": 103, "\u00de": 104, "one": 105, "\u00e2\u0122\u013b": 106, "\u0120each": 107, "\u0120po": 108, "\u0120As": 109, "ject": 110, "\u0120par": 111, "lthough": 112, "\u0120U": 113, "\u0120this": 114, "pt": 115, "\u0120better": 116, "um": 117, "\u0120how": 118, "ration": 119, "\u0120natural": 120, "io": 121, "ise": 122, "\u013c": 123, "\u0120fe": 124, "\u00e7": 125, "\u0120until": 126, "\u0120direct": 127, "\u00da": 128, "\u0120provide": 129, "\u0120both": 130, "ful": 131, "00": 132, "\u0120activi": 133, "\u0120students": 134, ";": 135, "P": 136, "ion": 137, "\u0120def": 138, "et": 139, "sion": 140, "\u0120bi": 141, "\u0120particular": 142, "`": 143, "\u0120know": 144, "ices": 145, "\u0120studies": 146, "\u00ce": 147, "\u0120that": 148, "k": 149, "\u0120understand": 150, "\u0120population": 151, "\u0120ser": 152, "ath": 153, "ul": 154, "\u00f4": 155, "aking": 156, "im": 157, "/": 158, "\u0120animal": 159, "\u0120": 160, "\u0127": 161, "ure": 162, "\u0140": 163, "\u0120had": 164, "\u00df": 165, "\u0120similar": 166, "ood": 167, "\u0120The": 168, "\u0120find": 169, "7": 170, "\u0120University": 171, "ine": 172, "ui": 173, "ack": 174, "ness": 175, "\u0120period": 176, "ding": 177, "\u0120Research": 178, "eed": 179, "\u0120a": 180, "Q": 181, "\u0125": 182, "\u0120\u00e2\u0122\u0135": 183, "\u0120should": 184, "nt": 185, "\u0120ea": 186, "\u0120(": 187, "\u0120con": 188, "rm": 189, "\u0120In": 190, "rate": 191, "\u0120include": 192, "\u0139": 193, "\u0120number": 194, "\u0120different": 195, "or": 196, "\u0120before": 197, "#": 198, "|": 199, "\u0120American": 200, "[": 201, "\u0120vari": 202, "\u0120develop": 203, "\u0120N": 204, "\u0120O": 205, "old": 206, "\u0120God": 207, "rt": 208, "tribut": 209, "ible": 210, "\u0120increas": 211, "\u0120my": 212, "\u0120men": 213, "\u0120spe": 214, "\u0120ph": 215, "\u0120used": 216, "\u0120she": 217, "co": 218, ").": 219, "\u013f": 220, "\u0120hea": 221, "\u0120author": 222, "\u0120T": 223, "N": 224, "\u0120condition": 225, "ac": 226, "\u0120in": 227, "ed": 228, "\u012b": 229, "ey": 230, "\u0120temperature": 231, "\u0120e": 232, "\u0120blood": 233, "\u0120will": 234, "}": 235, "ple": 236, "@": 237, "\u0120for": 238, "ug": 239, "ges": 240, "\u0120dist": 241, "\u00f0": 242, "\u00e2\u0122\u0136": 243, "ety": 244, "O": 245, "use": 246, "\u0120Sp": 247, "age": 248, "\u0120rem": 249, "*": 250, "\u0120century": 251, "\u0120example": 252, ".": 253, "\u0120while": 254, "op": 255, "\u00b6": 256, "\u0120continu": 257, "\u0120grow": 258, "\u00ba": 259, "\u0120but": 260, "\u01205": 261, "\u0120family": 262, "tter": 263, "\u00b3": 264, "\u0120199": 265, "een": 266, "\u0120Europe": 267, "ical": 268, "sure": 269, "ming": 270, "\u00d5": 271, "\u0120group": 272, "\u0120describ": 273, "ib": 274, "ry": 275, "\u0120P": 276, "\u0120high": 277, "S": 278, "\u0120of": 279, "\u0120water": 280, "$": 281, "\u0120ro": 282, "king": 283, "\u0120right": 284, "\u0120certain": 285, "\u0120econom": 286, "19": 287, "ave": 288, "ology": 289, "ship": 290, "\u0120v": 291, "\u0120could": 292, "in": 293, "T": 294, "ograph": 295, "an": 296, ")": 297, "\u0120available": 298, "<": 299, "\u00e1": 300, "\u0120percent": 301, "\u0120http": 302, "\u0120ho": 303, "ccording": 304, "ters": 305, "\u0120school": 306, "\u0120has": 307, "\u0120com": 308, "\u013a": 309, "mic": 310, "\u0120human": 311, "\u0120than": 312, "\u0120death": 313, "\u0120lead": 314, "\u0120been": 315, "ent": 316, "\u0120those": 317, "nd": 318, "\u0120every": 319, "\u0120Israel": 320, "ation": 321, "\u0120pa": 322, "ative": 323, "=": 324, "\u0120wo": 325, "\u0120were": 326, "\u0120present": 327, "on": 328, "\u00c4": 329, "red": 330, "\u0120one": 331, "\u00e6": 332, "0": 333, "Y": 334, "\u00d8": 335, "\u00e2\u0122": 336, "ens": 337, "\u0120j": 338, "w": 339, "\u0120article": 340, "~": 341, "\u01203": 342, "\u0120re": 343, "\u0120teach": 344, "ong": 345, "In": 346, "ice": 347, "a": 348, "\u0120would": 349, "per": 350, "\u0120New": 351, "\u0120pos": 352, "sed": 353, "\u0120said": 354, "\u01202": 355, "ate": 356, "\u0120even": 357, "\u0120potential": 358, "\u00e9": 359, "ze": 360, "\u0120see": 361, "ved": 362, "ious": 363, "of": 364, "\u0120called": 365, "\u0120ch": 366, "i": 367, "\u0120man": 368, "\u0120their": 369, "\u0120may": 370, "ol": 371, "\u0120This": 372, "\u0120him": 373, "ves": 374, "\u0120after": 375, "ount": 376, "\u0120W": 377, "\u0120United": 378, "all": 379, "\u00aa": 380, "ates": 381, "\u0120where": 382, "\u0120compa": 383, "own": 384, "ge": 385, "_": 386, "thing": 387, "ft": 388, "\u0120per": 389, "it": 390, "\u0120place": 391, "\u0120believe": 392, "'": 393, "\u0132": 394, "\u0120reg": 395, "and": 396, "\u0120vi": 397, "\u0120is": 398, "\u0120system": 399, "\u0120like": 400, "ological": 401, "\u0120Con": 402, "\u0120air": 403, "ying": 404, "\u0120go": 405, "self": 406, "ains": 407, "\u0120it": 408, "tal": 409, "\u0120work": 410, "\u0120-": 411, "\u00f3": 412, "\u0126": 413, "\u0120issue": 414, "est": 415, "\u0120he": 416, "ian": 417, "\u00c6": 418, "b": 419, "mission": 420, "\u0120ki": 421, "\u0120res": 422, "end": 423, "\u0120li": 424, "-": 425, "ting": 426, "are": 427, "\u00cd": 428, "\u0120during": 429, "\u0120prop": 430, "\u0120which": 431, "\u0120then": 432, "ers": 433, "\u0120research": 434, "tain": 435, "\u0120can": 436, "\u0138": 437, "\u0120over": 438, "\u0120be": 439, "\u0120\u00e2\u0122\u013e": 440, "\u0120respons": 441, "\u0120not": 442, "\u0120learn": 443, "8": 444, "\u012018": 445, "\u0120G": 446, "\u0120million": 447, "\u0120D": 448, "\u0120His": 449, "\u0120qu": 450, "...": 451, "\u0120women": 452, "Wh": 453, "\u0120without": 454, "J": 455, "5": 456, "\u0137": 457, "\u0120person": 458, "\u0120risk": 459, "\u0120S": 460, "ead": 461, "\u0120any": 462, "\u0120same": 463, "ick": 464, "ists": 465, "\u0120Ch": 466, "\u0120al": 467, "\u0120me": 468, "\u00ae": 469, "\u0120new": 470, "\u0120significant": 471, "ever": 472, "\u0120determin": 473, "ep": 474, "\u0120the": 475, "\u0120Pro": 476, "sp": 477, "\u0120class": 478, "\u0120wi": 479, "\u0120idea": 480, "\u0109": 481, "\u00ee": 482, "\u0120origin": 483, "ning": 484, "\u0120does": 485, "\u0120region": 486, "\u0120back": 487, "\u0120electr": 488, "\u0120che": 489, "ing": 490, "\u0120set": 491, "\u0120California": 492, "un": 493, "\u00b2": 494, "\u0120because": 495, "\u0120But": 496, "ord": 497, "h": 498, "\u0120some": 499, "\u0120across": 500, "\u0120th": 501, "\u0120Wh": 502, "ving": 503, "\u00d4": 504, "\u0124": 505, "\u0120point": 506, "ce": 507, "\u0120Y": 508, "ix": 509, "\u0120la": 510, "\u0120treat": 511, "\u0120your": 512, "\u0120serv": 513, "\u013d": 514, "\u0120complete": 515, "the": 516, "e": 517, "ets": 518, ":": 519, "\u0120between": 520, "\u0120small": 521, "\u0120important": 522, "\u0120do": 523, "B": 524, "\u0120\"": 525, "\u00a4": 526, "\u00b7": 527, "\u0120difficult": 528, "ather": 529, "ature": 530, "\u0120John": 531, "ture": 532, "ience": 533, "ant": 534, "4": 535, "\u0120inv": 536, "\u0120car": 537, "is": 538, "\u0120min": 539, "ws": 540, "\u0120on": 541, "\u00c2": 542, "\u0131": 543, "\u0120World": 544, "\u0120represent": 545, "ition": 546, "\u0120test": 547, "ial": 548, "\u00dc": 549, "me": 550, "ea": 551, "\u0120I": 552, "\u00a2": 553, "ell": 554, "\u0120am": 555, "t": 556, "\u0120off": 557, "ces": 558, "\u0120sha": 559, "stitut": 560, "sing": 561, "ic": 562, "\u0120sl": 563, "er": 564, "\u0120result": 565, "\u00ac": 566, "\u0120study": 567, "?": 568, "ast": 569, "eo": 570, "\u0120global": 571, "\u0120comp": 572, "\u0120treatment": 573, "ans": 574, "\u0120effect": 575, "\u0120way": 576, "\u00e5": 577, "A": 578, "us": 579, "uth": 580, "ll": 581, "\u0120form": 582, "ove": 583, "se": 584, "\u0120de": 585, "\u0120child": 586, "ted": 587, "\u0120help": 588, "\u0120several": 589, "ength": 590, "\u00be": 591, "\u0120rel": 592, "\u0120surface": 593, "\u0120published": 594, "\u00d1": 595, "x": 596, "M": 597, "ee": 598, "\u0120power": 599, "ef": 600, "ain": 601, "\u00e8": 602, "&": 603, "\u0120close": 604, "land": 605, "\u0120wr": 606, "ith": 607, "ost": 608, "\u0120also": 609, "\u0120approach": 610, "\u0120A": 611, "V": 612, "\u012a": 613, "\u0120two": 614, "p": 615, "\u0120order": 616, "\u0120ad": 617, "\u0120field": 618, "\u0120belie": 619, "el": 620, "ive": 621, "\u00a3": 622, "tance": 623, "\u0120app": 624, "rs": 625, "\u0120sub": 626, "tural": 627, "su": 628, "ific": 629, "\u0120dec": 630, "\u0120language": 631, "\u0120commun": 632, "\u0120Washington": 633, "\u0120M": 634, "\u0120when": 635, "\u0120behavior": 636, "\u0120cha": 637, "\u0120three": 638, "ir": 639, "ng": 640, "ages": 641, "ace": 642, "\u0120trans": 643, "\u0120manage": 644, "\u0120ag": 645, "ral": 646, "le": 647, "\u0120fr": 648, "n": 649, "\u0120ru": 650, "\u0120social": 651, "\u0120especially": 652, "\u0120much": 653, "\u0120or": 654, "\u0120coll": 655, "\u00b8": 656, "\u0120opportuni": 657, "ur": 658, "qu": 659, "\u0120need": 660, "hat": 661, "\u0120symptoms": 662, "ity": 663, "\u0120activ": 664, "\u0120follow": 665, "\u0120individual": 666, "\u0120ab": 667, "\u0120such": 668, "\u0120at": 669, "\u0120material": 670, "\u0120consider": 671, "\u0120problem": 672, "\u0120still": 673, "y": 674, "\u0120major": 675, "\u0120great": 676, "ated": 677, "\u0120its": 678, "ev": 679, "ve": 680, "\u00d2": 681, "\u00d6": 682, "\u0120other": 683, "\u0120organ": 684, "\u0120str": 685, "\u00cc": 686, "\u0120what": 687, "able": 688, "\u0120disc": 689, "\u0120disease": 690, "\u0120affect": 691, "our": 692, "\u0129": 693, "\u00b5": 694, "\u0120current": 695, "\u0120scienti": 696, "\u0120pl": 697, "\u0120another": 698, "\u00dd": 699, "ust": 700, "\u0120cancer": 701, "\u0120if": 702, "\u0120simpl": 703, "\u0120im": 704, "\u0120V": 705, "nstitu": 706, "\u00e3": 707, "ined": 708, "ory": 709, "\u0120cause": 710, "\u00cb": 711, "up": 712, "\u00c8": 713, "\u00af": 714, "\u00e2": 715, "\u010a": 716, "\u0120found": 717, "\u0120week": 718, "any": 719, "\u0120them": 720, "\u0120they": 721, "\u00ea": 722, "\u0120to": 723, "\u0120among": 724, "\u0120state": 725, "\u0120war": 726, "o": 727, "\u0120world": 728, "\u0120B": 729, "\u0120involv": 730, "\u0120his": 731, "\u0120begin": 732, "\u0120time": 733, "\u0120possible": 734, "\u0120well": 735, "\u01204": 736, "mm": 737, "\u0120s": 738, "!": 739, "ally": 740, "\u0120climate": 741, "\u00b0": 742, ",\"": 743, "\u0120However": 744, "ter": 745, "\u0120200": 746, "ore": 747, "\u0120America": 748, "\u0120already": 749, "\u0120fi": 750, "\\": 751, "\u00bd": 752, "\u0120have": 753, "Z": 754, "\u0120sc": 755, "\u0120public": 756, "\u0120English": 757, "\u013b": 758, "'s": 759, "||": 760, "eg": 761, "\u0134": 762, "ress": 763, "\u00ab": 764, "C": 765, "cept": 766, "\u0120education": 767, "br": 768, "ized": 769, "\u0120control": 770, "\u012e": 771, "serv": 772, "\u0120communi": 773, "ut": 774, "\u0122": 775, "\u00c9": 776, "\u0120sta": 777, "\u0120inter": 778, "\u0120n": 779, "]": 780, "\u0120health": 781, "ous": 782, "g": 783, "\u0120value": 784, "eb": 785, "\u0120ind": 786, "\u0123": 787, "\u013e": 788, "\u0120ta": 789, "ough": 790, "\u0120201": 791, "\"": 792, "\u0120mo": 793, "\u0120fa": 794, "\u012d": 795, "\u0120Africa": 796, "\u0120ass": 797, "\u0120area": 798, "\u0120K": 799, "\u0120pre": 800, "\u0120body": 801, "\u0120ma": 802, "\u0120all": 803, "med": 804, "ose": 805, "\u0120including": 806, "\u0120an": 807, ".\"": 808, "\u0120was": 809, "\u0120countries": 810, "\u0120exp": 811, "R": 812, "\u0120em": 813, "\u0120evidence": 814, "\u0120cells": 815, "nvironment": 816, "\u0120program": 817, "\u0120wa": 818, "wi": 819, "sc": 820, "\u0120design": 821, "G": 822, "\u00db": 823, "\u0120character": 824, "\u00b1": 825, "\u0120ins": 826, "\u0120observ": 827, "\u0120our": 828, "olution": 829, "\u0120vo": 830, "\u0120st": 831, "\u0120change": 832, "\u00c3": 833, "\u00ed": 834, "\u0120J": 835, "\u0120history": 836, "\u0120process": 837, "\u0120we": 838, "al": 839, "2": 840, "ether": 841, "\u0120lea": 842, "ics": 843, "ile": 844, "\u00ef": 845, "ment": 846, "\u0130": 847, "\u0120children": 848, "ess": 849, "re": 850, "s": 851, "ance": 852, "This": 853, "ven": 854, "\u0120project": 855, "\u0120her": 856, "\u0120C": 857, "\u0120government": 858, "\u0120establish": 859, "^": 860, "\u0120being": 861, "ri": 862, "\u0120who": 863, "\u0120di": 864, "ms": 865, "\u0120Christ": 866, "q": 867, "\u0120add": 868, "\u00b9": 869, "\u0120ha": 870, "\u0120dis": 871, "\u0120o": 872, "9": 873, "\u00d0": 874, "\u0120gra": 875, "\u0120through": 876, "\u0120year": 877, "ver": 878, "\u00a8": 879, "\u0120type": 880, "\u0120sho": 881, "ct": 882, "\u01201": 883, "I": 884, "ch": 885, "\u0120su": 886, "ind": 887, "The": 888, "\u0120us": 889, "round": 890, "low": 891, "\u0120second": 892, "\u0120Com": 893, "\u00bc": 894, "\u00ca": 895, "\u0120become": 896, "\u0120method": 897, "\u0120t": 898, "\u0120ext": 899, "\u0120often": 900, "\u0120att": 901, "mes": 902, "view": 903, "rth": 904, "\u0141": 905, "\u0120take": 906, "ember": 907, "E": 908, "\u0120dr": 909, "+": 910, "\u0120just": 911, "act": 912, "mo": 913, "ating": 914, "line": 915, "r": 916, "\u0120space": 917, "bject": 918, "L": 919, "\u0120political": 920, "\u0120and": 921, "K": 922, "\u0136": 923, "\u0120F": 924, "tern": 925, "ies": 926, "ations": 927, "\u0120since": 928, "te": 929, "f": 930, "\u00e2\u0122\u013f": 931, "\u012c": 932, "\u0120there": 933, "\u0120from": 934, "\u01206": 935, "\u0120data": 936, "\u0120themselves": 937, "\u0120fl": 938, "ary": 939, "\u0120energy": 940, "rds": 941, "\u0120g": 942, "U": 943, "\u0142": 944, "\u00c7": 945, "\u0120ex": 946, "X": 947, "\u0120typ": 948, "ly": 949, "\u0120ter": 950, "ill": 951, "\u0120un": 952, "\u0120against": 953, "\u0120cont": 954, "\u0128": 955, "\u0120en": 956, "\u0120long": 957, "\u012f": 958, "ra": 959, "\u0120business": 960, "\u0120are": 961, "st": 962, "ection": 963, "\u0120by": 964, "\u0120very": 965, "\u0120si": 966, "\u0120out": 967, "\u0135": 968, "\u0120large": 969, "\u0120suggest": 970, "ments": 971, "W": 972, "\u00a9": 973, "\u0120get": 974, "\u0120amount": 975, "H": 976, "\u00bf": 977, "ps": 978, "3": 979, "\u0120cons": 980, "\u0120sto": 981, "\u0120Th": 982, "tion": 983, "\u00a1": 984, "\u0120tra": 985, "z": 986, "\u0120require": 987, "\u00d3": 988, "\u0120course": 989, "sy": 990, "\u0120with": 991, "\u0120low": 992, "ually": 993, "\u0120d": 994, "imate": 995, ",": 996, "\u0120about": 997, "\u0120L": 998, "eep": 999, "\u0120give": 1000, "\u0120life": 1001, "(": 1002, "\u0120month": 1003, "\u0120inf": 1004, "\u0120For": 1005, "c": 1006, "\u0120mu": 1007, "\u0120part": 1008, "\u0120le": 1009, "ip": 1010, "day": 1011, "\u0120into": 1012, "\u0120as": 1013, "\u0120under": 1014, "\u0120mi": 1015, "id": 1016, "000": 1017, "\u0120acc": 1018, "\u0120no": 1019, "\u0120It": 1020, "ities": 1021, "son": 1022, "\u0120These": 1023}