{"[UNK]": 0, "<|endoftext|>": 1, "\u0120shores": 2, "\u0120Alawites": 3, "\u0120swiftly": 4, "\u0120ponds": 5, "\u0120committing": 6, "\u0120Cause": 7, "\u0120crystal": 8, "\u0120Corr": 9, "\u0120tablespoons": 10, "\u0120associations": 11, "am": 12, "\u0120insinuat": 13, "spots": 14, "humid": 15, "\u0120game": 16, "\u0120Spartan": 17, "\u0120glued": 18, "\u0120chlorine": 19, "Aircraft": 20, "\u0120colonize": 21, "\u0120enterprises": 22, "\u0120Icarus": 23, "\u0120recap": 24, "\u0120requesting": 25, "\u0120Hav": 26, "\u0120rabbinic": 27, "ados": 28, "\u0120admirably": 29, "Soldiers": 30, "\u0120mutiny": 31, "terrestrial": 32, "\u0120arenas": 33, "\u0120Leland": 34, "\u0120moderated": 35, "\u0120treaty": 36, "\u0120ichthy": 37, "blue": 38, "\u0120typhoid": 39, "enu": 40, "\u0120Orwell": 41, "\u0120sifting": 42, "\u0120Vranje": 43, "\u0120Providence": 44, "\u0120367": 45, "Mus": 46, "app": 47, "\u0120Kind": 48, "\u0120offic": 49, "\u0120pin": 50, "\u0120complements": 51, "\u0120blemish": 52, "Diocese": 53, "\u0120contacts": 54, "\u0120succeed": 55, "\u0120calling": 56, "\u0120siege": 57, "\u0120up": 58, "420": 59, "Experiments": 60, "\u0120peat": 61, "\u0120cure": 62, "Together": 63, "\u0120TENDINOSIS": 64, "\u0120enhancements": 65, "\u0120Knossos": 66, "\u0120Sasaki": 67, "\u0120blurry": 68, "\u0120EU": 69, "sbury": 70, "occipital": 71, "Teaching": 72, "EX": 73, "\u0120Bioko": 74, "\u0120Cava": 75, "?\u00e2\u0122\u013f,": 76, "\u0120Oregonian": 77, "absorb": 78, "\u0120OVER": 79, "trust": 80, "entry": 81, "measure": 82, "phon": 83, "\u0120Picchu": 84, "\u0120Pine": 85, "\u0120thrift": 86, "\u0120downtown": 87, "\u0120lun": 88, "\u0120compliance": 89, "\u0120beets": 90, "\u0120Nose": 91, "\u0120unthinkable": 92, "\u0120lotion": 93, "\u0120supernovae": 94, "\u0120Karen": 95, "\u0120odd": 96, "cid": 97, "\u0120mastering": 98, "\u0120correlating": 99, "\u0120prone": 100, "\u0120unfolding": 101, "mental": 102, "\u0120illustrated": 103, "\u0120Healthwise": 104, "modified": 105, "Master": 106, "\u0120breeds": 107, "management": 108, "\u0120unprofitable": 109, "Types": 110, "\u0120spicy": 111, "\u0120barn": 112, "1901": 113, "militar": 114, "\u0120overpopulation": 115, "fraction": 116, "\u0120Of": 117, "locate": 118, "995": 119, "\u0120lactation": 120, "\u0120elusive": 121, "\u01201850": 122, "\u0120Eligibility": 123, "\u0120intolerance": 124, "ifers": 125, "\u0120playground": 126, "\u0120reflection": 127, "\u0120subclasses": 128, "Resveratrol": 129, "179": 130, "\u0120chose": 131, "\u0120Massey": 132, "\u0120Bare": 133, "\u0120Minh": 134, "tam": 135, "\u0120oct": 136, "\u0120intention": 137, "RNA": 138, "\u0120Oriental": 139, "IEEE": 140, "\u0120Explanation": 141, "\u0120vie": 142, "\u0120phosphor": 143, "alter": 144, "\u0120spiraling": 145, "\u0120Bhumibol": 146, "\u0120Newport": 147, "\u0120yell": 148, "\u0120voodoo": 149, "\u0120unaided": 150, "According": 151, "618": 152, "\u0120DeWitt": 153, "\u0120building": 154, "\u0120jump": 155, "\u0120hotspots": 156, "Traumatic": 157, "nzo": 158, "owned": 159, "\u0120vas": 160, "\u0120signatories": 161, "\u0120Rhea": 162, "\u0120decolonization": 163, "\u0120draining": 164, "\u0120opponent": 165, "\u0120dashing": 166, "\u0120Safer": 167, "tex": 168, "Fire": 169, "\u0120determinations": 170, "\u0120dispatches": 171, "\u0120Territorio": 172, "\u0120violation": 173, "\u0120plowing": 174, "Book": 175, "\u0120greens": 176, "strong": 177, "Park": 178, "\u0120pgs": 179, "\u0120commemorating": 180, "\u0120Mikado": 181, "aco": 182, "\u0120Performance": 183, "\u0120bachelors": 184, "319": 185, "\u0120overestimate": 186, "gging": 187, "\u0120Sens": 188, "\u0120Lowry": 189, "trip": 190, "old": 191, "\u0120picket": 192, "\u0120advance": 193, "alan": 194, "serious": 195, "aman": 196, "\u0120Journals": 197, "\u0120painted": 198, "\u0120shel": 199, "fluori": 200, "\u0120Arch": 201, "\u0120neurons": 202, "\u0120Motors": 203, "\u0120adding": 204, "\u0120Harlem": 205, "\u0120strive": 206, "\u0120spice": 207, "\u0120Eber": 208, "Ratio": 209, "\u0120Farmington": 210, "\u0120recycling": 211, "\u0120seaweed": 212, "\u0120Nisbet": 213, "\u0120Abrams": 214, "\u0120LL": 215, "\u0120feverish": 216, "\u0120practised": 217, "trading": 218, "\u0120harvest": 219, "\u0120List": 220, "ats": 221, "behavioral": 222, "\u0120sightings": 223, "discipline": 224, "objtab": 225, "\u0120handwritten": 226, "\u0120Caleb": 227, "\u0120Carta": 228, "\u0120updating": 229, "\u0120Calf": 230, "zm": 231, "\u0120Submission": 232, "\u0120interagency": 233, "lives": 234, "\u0120stunned": 235, "\u0120reworked": 236, "\u0120reforestation": 237, "\u0120IKAROS": 238, "\u0120message": 239, "\u0120Aceh": 240, "/~": 241, "need": 242, "\u0120generative": 243, "\u0120Immortal": 244, "\u0120mimic": 245, "\u0120launches": 246, "\u0120letting": 247, "style": 248, "\u0120justifies": 249, "\u0120contrasts": 250, "\u0120Activities": 251, "inflammatories": 252, "\u0120Utility": 253, "centre": 254, "\u0120campgrounds": 255, "Ephesians": 256, "\u0120thrive": 257, "\u0120Ibn": 258, "\u0120Nocturnal": 259, "Gr": 260, "\u0120thunderstorm": 261, "\u0120Ryan": 262, "\u0120constituencies": 263, "\u0120triglyceride": 264, "\u0120intrigued": 265, "dox": 266, "\u0120abolish": 267, "\u0120baits": 268, "miles": 269, "\u0120231": 270, "\u0120deprived": 271, "\u0120thrives": 272, "\u0120aliens": 273, "\u0120foliage": 274, "\u0120Marburg": 275, "\u0120glaze": 276, "wissenschaft": 277, "\u0120overt": 278, "\u0120Impaired": 279, "\u0120Eleventh": 280, "\u0120poly": 281, "Walk": 282, "\u0120Plot": 283, "\u0120Dyna": 284, "tability": 285, "\u0120ballad": 286, "\u0120flotation": 287, "\u00c3\u0141": 288, "\u0120mosaic": 289, "Morocco": 290, "\u0120Territory": 291, "\u0120vivax": 292, "\u0120simplifies": 293, "\u0120oatmeal": 294, "Hypo": 295, "\u00d7\u013f": 296, "\u01201832": 297, "\u0120inferior": 298, "\u0120quaint": 299, "butter": 300, "\u0120othersLast": 301, "\u0120windmill": 302, "\u0120PAS": 303, "Reformation": 304, "\u0120naturalist": 305, "\u0120Riley": 306, "\u0120thiamine": 307, "\u0120Bronze": 308, "\u0120puppet": 309, "Methods": 310, "\u0120linoleic": 311, "\u0120consecutive": 312, "\u0120twisted": 313, "g\u00c3\u00a9": 314, "plicate": 315, "\u0120sees": 316, "\u0120Faster": 317, "stage": 318, "\u0120Master": 319, "\u0120euros": 320, "\u0120Astrobiology": 321, "\u0120conservatively": 322, "\"[": 323, "\u0120awful": 324, "amin": 325, "\u0120literally": 326, "Canada": 327, "a": 328, "\u0120uninhabitable": 329, "\u0120postponement": 330, "holding": 331, "MONDAY": 332, "\u0120layered": 333, "\u0120Magnet": 334, "\u0120outgrow": 335, "Intestinal": 336, "\u01202": 337, "\u0120Vitruv": 338, "\u0120Pearce": 339, "Final": 340, "\u0120disputed": 341, "\u0120curving": 342, "\u01201874": 343, "\u0120handsome": 344, "EAT": 345, "\u0120dissenting": 346, "\u0120Saint": 347, "\u0120hexadecimal": 348, "\u0120Oceanography": 349, "Lorenzo": 350, "\u0120encamped": 351, "itis": 352, "\u0120attracted": 353, "hom": 354, "\u0120cystitis": 355, "\u0120arguments": 356, "\u0120predictor": 357, "\u0120clocks": 358, "\u0120Soyuz": 359, "\u0120shotgun": 360, "\u0120chess": 361, "\u0120Sara": 362, "\u0120Harold": 363, "Pressure": 364, "tf": 365, "\u0120duplications": 366, "\u0120conveniently": 367, "\".": 368, "\u0120thinner": 369, "\u0120zeppelin": 370, "orted": 371, "\u0120Injury": 372, "\u0120air": 373, "Particularly": 374, "\u0120criticised": 375, "\u0120overseen": 376, "Li": 377, "\u0120hydrocarbon": 378, "\u0120Built": 379, "\u0120fascist": 380, "\u0120S\u00c3\u00a3o": 381, "\u0120colonial": 382, "\u0120rifling": 383, "tzmann": 384, "\u0120hampered": 385, "\u0120antimony": 386, "003": 387, "Manager": 388, "\u0120Elo": 389, "duction": 390, "\u0120discomfort": 391, "\u0120adhesive": 392, "\u0120deviate": 393, "wake": 394, "\u0120Morgoth": 395, "\u0120mosquito": 396, "\u0120scented": 397, "\u0120geothermal": 398, "\u0120LEDs": 399, "Only": 400, "\u0120Dom": 401, "\u0120explanations": 402, "\u0120performer": 403, "\u0120endorses": 404, "\u0120unarmed": 405, "\u0120xylitol": 406, "\u0120prop": 407, "USB": 408, "\u0120paragraph": 409, "\u0120Auditor": 410, "\u0120Expenditure": 411, "\u0120Koda": 412, "SET": 413, "\u0120gears": 414, "\u0120Tourette": 415, "\u0120empathize": 416, "\u0120HER": 417, "\u0120Healy": 418, "\u0120digestible": 419, "\u0120corollary": 420, "\u0120sworn": 421, "\u0120Yellowstone": 422, "\u0120mutate": 423, "\u00e2\u0122\u00b3": 424, "\u0120hacked": 425, "Pat": 426, "\u0120Reye": 427, "\u0120gentle": 428, "turbation": 429, "dier": 430, "\u0120pneumonia": 431, "\u0120Bladder": 432, "\u0120Emerg": 433, "mortality": 434, "\u0120colourful": 435, "\u0120extracting": 436, "\u0120methysticum": 437, "\u0120thrusting": 438, "\u0120tomahawk": 439, "\u0120jumped": 440, "\u0120espouse": 441, "\u0120lapar": 442, "\u0120Hashimoto": 443, "\u0120offer": 444, "\u0120outstretched": 445, "\u0120Wales": 446, "\u0120poultry": 447, "\u0120DHS": 448, "\u0120unimagin": 449, "\u0120Drew": 450, "\u0120technique": 451, "\u0120originally": 452, "\u0120Celebration": 453, "\u0120Epiphanes": 454, "\u0120conversations": 455, "\u0120cohort": 456, "\u0120woolly": 457, "\u0120jumper": 458, "Groups": 459, "mak": 460, "\u0120feasting": 461, "\u0120casting": 462, "\u0120cumulative": 463, "advantage": 464, "recent": 465, "\u0120unmanageable": 466, "\u0120cantilever": 467, "\u0120Abundance": 468, "goers": 469, "Property": 470, "arid": 471, "\u0120Wolf": 472, "\u0120atomic": 473, "Madison": 474, "eurs": 475, "\u0120fencing": 476, "typ": 477, "ries": 478, "\u0120Height": 479, "\u0120crafting": 480, "rather": 481, "\u01201857": 482, "\u0120trawl": 483, "erty": 484, "eel": 485, "\u0120olden": 486, "ix": 487, "\u0120Kefauver": 488, "\u0120manoeuvr": 489, "\u0120Spectroradiometer": 490, "sector": 491, "\u0120boasts": 492, "\u01201797": 493, "stats": 494, "\u0120chimpanzees": 495, "Bon": 496, "\u0120serum": 497, "\u0120FSC": 498, "\u0120bring": 499, "\u0120Specialized": 500, "\u0120uninterrupted": 501, "\u0120RFID": 502, "\u0120Tour": 503, "\u0120immobil": 504, "\u0120Malaysian": 505, "\u0120ETS": 506, "\u0120Bulawayo": 507, "\u0120ditches": 508, "\u0120\"": 509, "\u0120rub": 510, "\u0120Natura": 511, "JOSEPH": 512, "jack": 513, "rag": 514, "eans": 515, "Recent": 516, "\u0120early": 517, "\u0120Kamboja": 518, "\u0120plumbing": 519, "\u00c5\u0126": 520, "Semitism": 521, "\u0120Ankle": 522, "\u0120sculptor": 523, "\u0120sinner": 524, "ophilus": 525, "\u0120docile": 526, "\u0120Court": 527, "Official": 528, "\u0120astigmatism": 529, "\u0120Ps": 530, "agawa": 531, "\u0120customers": 532, "nea": 533, "\u0120suckers": 534, "\u0120cleaner": 535, "\u0120delineation": 536, "bo\u00c5\u00baoj\u00c3\u00b3von": 537, "\u0120clamped": 538, "portal": 539, "\u0120Hippopotamus": 540, "\u0120ecosystem": 541, "\u0120pygame": 542, "\u0120tangled": 543, "\u0120Benson": 544, "\u0120inhabitants": 545, "\u01201954": 546, "\u0120Ing": 547, "\u0120silk": 548, "\u0120ridiculous": 549, "\u0120Def": 550, "\u0120Road": 551, "\u0120supervisory": 552, "\u0120trench": 553, "\u0120Anatolian": 554, "\u0120Ophi": 555, "\u0120uncles": 556, "!.": 557, "illard": 558, "\u0120religio": 559, "\u0120Thanjavur": 560, "\u0120districts": 561, "\u0120Dad": 562, "Adolescent": 563, "alo": 564, "\u0120wasteland": 565, "ures": 566, "\u0120Bhrigu": 567, "\u0120overlying": 568, "\u0120accused": 569, "\u0120Maltese": 570, "chlorinated": 571, "Artagnan": 572, "\u0120rampant": 573, "\u0120saviour": 574, "ain": 575, "\u0120gentry": 576, "tetra": 577, "\u0120distasteful": 578, "\u0120Ballard": 579, "\u0120owner": 580, "\u0120Face": 581, "\u0120Railway": 582, "\u0120accomplish": 583, "\u0120chan": 584, "\u0120trellis": 585, "steps": 586, "\u0120USB": 587, "\u0120disaffection": 588, "\u0120Get": 589, "\u0120Directory": 590, "\u0120Viennese": 591, "\u0120inhibited": 592, "\u0120genitive": 593, "\u0120Reservation": 594, "\u00e2\u0122\u013b)": 595, "\u0120feminists": 596, "\u0120disciples": 597, "\u0120retaliate": 598, "\u0120AAF": 599, "\u0120staining": 600, "\u0120successively": 601, "\u0120assembling": 602, "\u0120Head": 603, "\u0120motivates": 604, "\u0120Folklore": 605, "\u0120Voyages": 606, ".\"|": 607, "Immigration": 608, "\u0120halo": 609, "onc": 610, "fork": 611, "\u0120Innocent": 612, "taught": 613, "\u0120potting": 614, "\u0120doctor": 615, "\u0120harm": 616, "\u0120Plas": 617, "\u0120lustre": 618, "\u0120Vengeance": 619, "myel": 620, "sets": 621, "leader": 622, "Potential": 623, "ORT": 624, "\u0120Strength": 625, "\u0120sparkling": 626, "\u0120crest": 627, "\u0120caregivers": 628, "\u0120barricades": 629, "\u0120relatives": 630, "\u0120Macbeth": 631, "\u0120Hayes": 632, "\u0120rebel": 633, "\u0120Unionist": 634, "\u0120misuse": 635, "\u0120discovers": 636, "\u0120injectable": 637, "\u0120Quran": 638, "\u0120converter": 639, "\u0120Membership": 640, "\u0120Volga": 641, "\u0120Dopamine": 642, "burden": 643, "965": 644, "\u0120lubricant": 645, "\u0120revealing": 646, "\u0120unknowable": 647, "There": 648, "\u0120sans": 649, "Genealogy": 650, "\u0120Werner": 651, "\u0120Sourcebook": 652, "\u0120museum": 653, "\u0120Army": 654, "Suddenly": 655, "RANGE": 656, "\u0120radial": 657, "\u0120wears": 658, "throughout": 659, "\u0120recover": 660, "\u0120heartland": 661, "\u0120vintage": 662, "archive": 663, "\u0120matriarch": 664, "\u0120blasted": 665, "usive": 666, "productive": 667, "\u0120dozens": 668, "\u0120note": 669, "changed": 670, "\u0120cast": 671, "\u0120acetone": 672, "\u0120Igor": 673, "\u0120dotted": 674, "\u0120Virginians": 675, "\u0120narrow": 676, "\u0120Grun": 677, "\u0120Mather": 678, "\u0120flashlight": 679, "\u0120Governing": 680, "\u0120Mina": 681, "\u0120modernisation": 682, "\u0120conscientious": 683, ").]": 684, "\u0120Rideau": 685, "Qa": 686, "packaging": 687, "\u0120arthropod": 688, "ems": 689, "\u0120ecologists": 690, "\u0120lived": 691, "\u0120Familiar": 692, "\u0120spores": 693, "rence": 694, "\u0120fringes": 695, "Diagnostic": 696, "\u0120emigrated": 697, "bok": 698, "\u0120solicited": 699, "\u0120Johnston": 700, "\u0120accelerometers": 701, "\u0120EDT": 702, "\u0120writ": 703, "\u0120Philipp": 704, "\u0120Mead": 705, "independent": 706, "545": 707, "olute": 708, "\u0120Corbusier": 709, "\u0120tenement": 710, "\u0120testify": 711, "\u0120Occupy": 712, "\u0120envoy": 713, "\u0120lucid": 714, "confirmed": 715, "\u0120mitochondria": 716, "\u0120Gautama": 717, "\u0120Doug": 718, "\u0120overturned": 719, "109": 720, "\u0120coercion": 721, "\u0120filtering": 722, "Simpson": 723, "\u0120RO": 724, "\u0120perceptions": 725, "\u0120scratching": 726, "\u0120piracy": 727, "\u0120Construction": 728, "\u0120traveling": 729, "beau": 730, "\u0120crazy": 731, "\u0120Certificate": 732, "bru": 733, "\u0120Bathsheba": 734, "\u0120Gottlieb": 735, "\u0120astronomy": 736, "\u0120Branch": 737, "\u0120improper": 738, "\u0120stain": 739, "\u0120Those": 740, "\u0120characteristic": 741, "\u0120Churches": 742, "\u0120Unter": 743, "potami": 744, "\u0120chimp": 745, "\u0120Mammals": 746, "Int": 747, "\u0120jeopardize": 748, "began": 749, "\u0120Devonshire": 750, "\u0120View": 751, "fia": 752, "\u0120mosaics": 753, "\u0120JL": 754, "pounds": 755, "\u0120roof": 756, "BM": 757, "\u01208000": 758, "BC": 759, "raising": 760, "\u0120Ning": 761, "\u0120priorities": 762, "\u0120terminates": 763, "move": 764, "ching": 765, "\u0120Supply": 766, "\u0120farmers": 767, "racted": 768, "\u0120Atlantic": 769, "Cognitive": 770, "\u0120practitioners": 771, "\u0120breeding": 772, "\u0120Elephants": 773, "mac": 774, "\u0120CHAPTER": 775, "Mi": 776, "\u0120Break": 777, "\u0120Gaulle": 778, "Gc": 779, "\u0120Ports": 780, "?'\"": 781, "Rate": 782, "\u0120probation": 783, "\u0120clutches": 784, "\u0120Physiol": 785, "\u0120Magellan": 786, "\u0120resolve": 787, "\u0120Criterion": 788, "\u0120extend": 789, "\u0120ECONOMIC": 790, "\u0120dispensation": 791, "\u0120allusion": 792, "Akinso": 793, "\u0120splitting": 794, "\u0120MiG": 795, "physicist": 796, "sm": 797, "\u0120specialization": 798, "\u0120518": 799, "\u0120subsection": 800, "zil": 801, "\u0120Exploratorium": 802, "density": 803, "\u0120Decla": 804, "\u0120DARPA": 805, "sson": 806, "\u0120Seb": 807, "\u0120269": 808, "\u0120fallen": 809, "\u0120arrive": 810, "\u0120Answers": 811, "\u0120Noble": 812, "\u0120Honorable": 813, "\u0120Fresno": 814, "beep": 815, "\u0120our": 816, "short": 817, "\u0120seductive": 818, "andr": 819, "\u0120change": 820, "math": 821, "\u0120Hone": 822, "\u0120Removal": 823, "OLOGY": 824, "\u0120Captain": 825, "\u0120Direct": 826, "\u0120quadr": 827, "\u0120Cullen": 828, "\u0120Relativity": 829, "\u0120obstruction": 830, "otto": 831, "\u0120rep": 832, "1644": 833, "\u0120neurotic": 834, "\u0120spoiled": 835, "1815": 836, "\u0120palate": 837, "\u0120jitter": 838, "\u0120recapitulation": 839, "\u0120Habdalah": 840, "Western": 841, "\u0120PTA": 842, "\u0120determines": 843, "protect": 844, "\u0120sentinel": 845, "Into": 846, "\u0120watercress": 847, "\u0120verdicts": 848, "\u0120HCV": 849, "\u0120recluse": 850, "\u0120friendly": 851, "\u0120paperback": 852, "\u0120Amorites": 853, "\u0120Pageant": 854, "\u0120payable": 855, "\u0120realized": 856, "\u0120atoms": 857, "\u0120ha": 858, "helps": 859, "Fortunately": 860, "\u0120through": 861, "\u0120conquerors": 862, "\u0120drawers": 863, "\u0120debuted": 864, "\u0120ofthe": 865, "tet": 866, "irr": 867, "\u0120oo": 868, "\u0120best": 869, "\u0120parole": 870, "\u0120Economists": 871, "\u0120dans": 872, "\u0120infinitesimal": 873, "\u0120asymmetrical": 874, "iate": 875, "\u0120nuclei": 876, "Learn": 877, "\u0120Portal": 878, "\u0120spectacle": 879, "\u0120nutritionist": 880, "\u0120COX": 881, "\u01201863": 882, "\u0120Science": 883, "cooled": 884, "\u0120elevate": 885, "Band": 886, "\u0120Num": 887, "dynamed": 888, "icity": 889, "Af": 890, "\u0120Incheon": 891, "\u0120plump": 892, "\u0120Batteries": 893, "\u0120Deck": 894, "\u0120Resonance": 895, "\u0120tic": 896, "\u0120vase": 897, "\u0120pawn": 898, "\u0120whereupon": 899, "\u0120mammals": 900, "Hook": 901, "\u0120Alder": 902, "\u0120earthquakes": 903, "Supreme": 904, "crime": 905, "\u0120Chiropractic": 906, "product": 907, "\u0120orientations": 908, "bite": 909, "NHLBI": 910, "ipe": 911, "\u0120Sobieskiego": 912, "Heat": 913, "\u0120Pride": 914, "\u0120diver": 915, "Eliyahu": 916, "1186": 917, "\u0120waking": 918, "ification": 919, "\u0120Mihintale": 920, "38": 921, "\u0120unicellular": 922, "\u0120pardoned": 923, "\u0120cruise": 924, "\u0120wedge": 925, "\u0120Bike": 926, "\u0120balconies": 927, "\u0120messianic": 928, "\u0120ovens": 929, "\u01201905": 930, "||~": 931, "\u0120Lemon": 932, "much": 933, "\u0120mangrove": 934, "\u0120Zak": 935, "NEJM": 936, "pac": 937, "dolf": 938, "\u0120breadth": 939, "\u0120dredged": 940, "\u0120lay": 941, "\u0120revolutionized": 942, "\u0120FIGURE": 943, "\u0120Soci\u00c3\u00a9t\u00c3\u00a9": 944, "\u0120kale": 945, "\u0120screenings": 946, "\u0120Olivia": 947, "\u0120shallow": 948, "\u0120wants": 949, "\u0120functionality": 950, "\u0120arches": 951, "dyne": 952, "\u0120embarking": 953, "\u0120theophylline": 954, "\u0120allegation": 955, "\u0120connections": 956, "Ideal": 957, "\u0120MX": 958, "approx": 959, "fossil": 960, "\u0120incalculable": 961, "\u0120orthodox": 962, "1986": 963, "\u0120Atlanta": 964, "\u01201648": 965, "\u0120Paw": 966, "pos": 967, "modal": 968, "\u0120Explosion": 969, "\u0120Genetics": 970, "\u0120fallopian": 971, "\u0120Brunt": 972, "scratch": 973, "\u0120Boycott": 974, "\u0120prescription": 975, "\u0120Consultation": 976, "ples": 977, "\u0120enquiry": 978, "\u0120vantage": 979, "\u0120Bonn": 980, "\u0120gastroesophageal": 981, "whole": 982, "aki": 983, "\u0120GET": 984, "\u0120mamm": 985, "\u0120thermocouple": 986, "\u0120scorpion": 987, "\u0120Shop": 988, "Infectious": 989, "\u0120expanding": 990, "\u0120oversee": 991, "\u0120360": 992, "loved": 993, "\u0120rooms": 994, "\u0120tapering": 995, "\u0120demo": 996, "Dvo\u00c5\u013b\u00c3\u00a1k": 997, "\u0120vigour": 998, "final": 999, "\u0120Gaz": 1000, "\u0120sad": 1001, "\u0120slander": 1002, "\u0120Friendly": 1003, "\u0120Outdoors": 1004, "id": 1005, "\u0120Roots": 1006, "\u0120as": 1007, "\u00d0\u00bb\u00d0\u00b5": 1008, "\u0120bomber": 1009, "\u0120Kashmiri": 1010, "\u0120Humanity": 1011, "circle": 1012, "\u0120changeable": 1013, "\u0120supersede": 1014, "543": 1015, "\u0120groupings": 1016, "\u0120predatory": 1017, "KS": 1018, "\u0120Federation": 1019, "their": 1020, "\u0120afraid": 1021, "\u0120oto": 1022, "\u0120immunological": 1023, "\u0120cites": 1024, "Chiropractic": 1025, "iculture": 1026, "\u0120Fascist": 1027, "\u0120prohibiting": 1028, "\u0120Educational": 1029, "\u0120wildebeest": 1030, "\u0120humanoid": 1031, "\u0120cardiologists": 1032, "\u0120Hardly": 1033, "\u0120Jaina": 1034, "zzling": 1035, "\u0120teaser": 1036, "\u0120interrogated": 1037, "\u0120capacitance": 1038, "meth": 1039, "\u0120Aristophanes": 1040, "\u0120326": 1041, "\u0120curved": 1042, "\u0120Macedonian": 1043, "\u0120stents": 1044, "\u0120adversaries": 1045, "\u0120overhead": 1046, "pox": 1047, "udp": 1048, "\u0120adroit": 1049, "\u0120Measure": 1050, "Lux": 1051, "cco": 1052, "Google": 1053, "\u0120evils": 1054, "\u0120Ant": 1055, "\u0120Normally": 1056, "dle": 1057, "\u0120lowly": 1058, "tting": 1059, "\u0120Summer": 1060, "\u0120sunspot": 1061, "\u0120industrious": 1062, "Stories": 1063, "\u0120Sephardic": 1064, "\u0120strenuous": 1065, "\u0120Near": 1066, "\u0120forceful": 1067, "\u0120ms": 1068, "\u0120counterpart": 1069, "\u0120trinkets": 1070, "\u0120Shar": 1071, "\u0120Wool": 1072, "\u0120Firefox": 1073, "Harper": 1074, "\u0120Pythagorean": 1075, "\u0120Analyses": 1076, "managed": 1077, "Entry": 1078, "kos": 1079, "\u0120fervor": 1080, "links": 1081, "\u0120managerial": 1082, "\u0120distinct": 1083, "\u0120Brazil": 1084, "lose": 1085, "\u0120sebaceous": 1086, "\u0120permethrin": 1087, "\u0120Lift": 1088, "\u0120rapeseed": 1089, "\u0120Chick": 1090, "\u0120confidant": 1091, "\u0120humiliate": 1092, "ynaptic": 1093, "\u0120305": 1094, "\u0120habitats": 1095, "\u0120Weakness": 1096, "\u0120Gardiner": 1097, "\u0120canopy": 1098, "\u0120Tsunami": 1099, "157": 1100, "\u0120BN": 1101, "\u0120Newspaper": 1102, "Violence": 1103, "\u0120Rotary": 1104, "\u0120salsa": 1105, "\u0120nanoscale": 1106, "\u0120plunged": 1107, "\u0120Carter": 1108, "\u0120bothered": 1109, "\u0120shouted": 1110, "\u0120linux": 1111, "\u0120Lane": 1112, "\u0120Palestine": 1113, "iage": 1114, "41": 1115, "\u0120commandant": 1116, "\u0120Maw": 1117, "XX": 1118, "\u0120pausing": 1119, "\u0120unprocessed": 1120, "\u0120drowsiness": 1121, "\u0120Proverbs": 1122, "\u0120Awakening": 1123, "\u0120Sahrawi": 1124, "\u0120Stress": 1125, "\u0120Saunders": 1126, "\u0120Clergy": 1127, "\u0120Nauru": 1128, "\u0120globally": 1129, "\u0120Ark": 1130, "lean": 1131, "\u0120Fleis": 1132, "hospital": 1133, "Zion": 1134, "\u0120decadal": 1135, "\u0120236": 1136, "\u0120ablation": 1137, "\u0120NWFP": 1138, "\u0120Cant": 1139, "\u0120Warfare": 1140, "\u0120Fold": 1141, "\u0120preoccupation": 1142, "336": 1143, "\u0120conventions": 1144, "\u0120Isaac": 1145, "\u0120memorized": 1146, "\u0120Caithness": 1147, "\u0120exhibition": 1148, "\u0120knowlesi": 1149, "\u0120irritation": 1150, "\u0120Measurement": 1151, "\u0120Ludwig": 1152, "\u0120weapon": 1153, "\u0120zebras": 1154, "\u0120sprouting": 1155, "\u0120Remove": 1156, "\u0120Phylogenetic": 1157, "\u0120telescope": 1158, "\u0120Reims": 1159, "\u0120oh": 1160, "\u0120surprises": 1161, "\u0120forgetting": 1162, "\u0120Clip": 1163, "\u0120Hague": 1164, "\u0120dyeing": 1165, "\u01201868": 1166, "\u0120Ores": 1167, "Fran\u00c3\u00a7ois": 1168, "\u0120civil": 1169, "\u0120concede": 1170, "\u0120seaplane": 1171, "\u0120911": 1172, "\u0120fired": 1173, "\u0120omitting": 1174, "\u0120bestselling": 1175, "\u0120Machiavelli": 1176, "106": 1177, "\u0120idling": 1178, "\u0120live": 1179, "\u0120Renewal": 1180, "Obs": 1181, "common": 1182, "\u0120Psychologists": 1183, "Yankee": 1184, "conversation": 1185, "\u0120accolades": 1186, "ups": 1187, "\u0120RepRap": 1188, "\u0120entice": 1189, "ways": 1190, "\u0120matrilineal": 1191, "\u0120continents": 1192, "\u0120Current": 1193, "\u0120observes": 1194, "\u0120kosher": 1195, "\u0120Mal": 1196, "itivism": 1197, "JULIET": 1198, "\u0120Davidson": 1199, "\u0120impost": 1200, "\u0120deflect": 1201, "\u0120acidity": 1202, "\u0120urethane": 1203, "\u0120Coronation": 1204, "\u0120modem": 1205, "\u0120Retro": 1206, "VI": 1207, "matic": 1208, "\u0120Sources": 1209, "\u0120lady": 1210, "\u0120Emory": 1211, "uka": 1212, "\u0120themed": 1213, "\u0120hydraulic": 1214, "\u0120Jai": 1215, "\u0120Arendt": 1216, "\u0120Weil": 1217, "\u0120Experiment": 1218, "PK": 1219, "\u0120rope": 1220, "war": 1221, "\u0120likeness": 1222, "National": 1223, "\u0120coatings": 1224, "\u0120house": 1225, "\u0120VT": 1226, "Box": 1227, "ehl": 1228, "Gang": 1229, "\u0120subspecialty": 1230, "\u0120oblivious": 1231, "Communi": 1232, "\u0120embraces": 1233, "\u0120ornamentals": 1234, "\u0120beacon": 1235, "\u0120heals": 1236, "package": 1237, "kk": 1238, "OK": 1239, "ttered": 1240, "\u0120bicyclists": 1241, "Density": 1242, "structured": 1243, "\u0120expansion": 1244, "\u0120explorer": 1245, "\u0120draws": 1246, "\u0120mainly": 1247, "bash": 1248, "\u01201893": 1249, "\u0120maxims": 1250, "Coll": 1251, "\u0120Es": 1252, "aoui": 1253, "\u0120Offering": 1254, "\u0120rehabilitated": 1255, "\u0120Schleswig": 1256, "\u0120antioxidant": 1257, "\u0120restarted": 1258, "authorized": 1259, "\u0120edema": 1260, "\u0120Homeland": 1261, "\u0120mountains": 1262, "\u0120unencumbered": 1263, "\u0120chronicle": 1264, "\u0120Atomic": 1265, "\u0120trigonometry": 1266, "\u0120Presumably": 1267, "\u0120brilliance": 1268, "-->": 1269, "\u0120\u00e1\u00b8\u012e": 1270, "Klein": 1271, "\u0120balsam": 1272, "\u0120abstractions": 1273, "\u00c3\u00bb": 1274, "\u0120fibrous": 1275, "\u0120Cluster": 1276, "\u0120Une": 1277, "tts": 1278, "\u0120Cheese": 1279, "Pen": 1280, "1883": 1281, "\u0120bilingual": 1282, "\u0120Texan": 1283, "rius": 1284, "\u0120lacrimal": 1285, "32": 1286, "\u0120voyage": 1287, "\u0120Daniels": 1288, "\u0120Yorkshire": 1289, "\u0120f\u00c3\u00bcr": 1290, "\u0120Arab": 1291, "\u0120propecia": 1292, "\u0120analyse": 1293, "\u0120Whis": 1294, "\u00c5\u0140ekercio\u00c4\u0141lu": 1295, "\u0120authentic": 1296, "\u0120Buchanan": 1297, "\u0120discourses": 1298, "\u0120Arc": 1299, "\u0120Archives": 1300, "\u0120Bhandar": 1301, "\u0120gc": 1302, "\u0120mysticism": 1303, "\u0120materialism": 1304, "weak": 1305, "\u0120indictment": 1306, "\u0120festivities": 1307, "career": 1308, "\u0120Ehrlich": 1309, "\u0120symbiosis": 1310, "\u0120township": 1311, "\u0120Kenney": 1312, "\u0120wildfires": 1313, "Gabriel": 1314, "\u01201837": 1315, "\u0120maintain": 1316, "apart": 1317, "\u0120Isa": 1318, "\u0120Albanian": 1319, "\u0120excerpted": 1320, "\u0120easily": 1321, "\u0120Diarrhea": 1322, "\u0120sensational": 1323, "hypopituitarism": 1324, "\u0120corals": 1325, "\u0120vegetarianism": 1326, "\u0120Ashkenazi": 1327, "\u0120interrelationships": 1328, "\u0120quieter": 1329, "\u0120utter": 1330, "\u0120bureaus": 1331, "\u0120phasing": 1332, "\u0120disembodied": 1333, "\u0120Jinnah": 1334, "STATE": 1335, "\u0120insert": 1336, "\u0120Genevieve": 1337, "\u0120sight": 1338, "\u0120Policies": 1339, "\u0120als": 1340, "\u0120Prime": 1341, "\u0120Push": 1342, "\u0120tithe": 1343, "\u00d6\u00b4": 1344, "Spring": 1345, "heated": 1346, "\u0120painstakingly": 1347, "education": 1348, "\u0120Forgotten": 1349, "ando": 1350, "\u0120Puerto": 1351, "\u0120suitably": 1352, "\u0120urbanization": 1353, "\u0120Guariglia": 1354, "oracle": 1355, "\u0120SEA": 1356, "\u0120bowel": 1357, "mysterious": 1358, "\u0120animations": 1359, "\u0120freeways": 1360, "\u0120Fordham": 1361, "\u0120morbid": 1362, "\u0120soon": 1363, "\u0120Vikings": 1364, "\u0120BLM": 1365, "\u0120Criticism": 1366, "\u0120stasis": 1367, "\u0120hatchery": 1368, "\u0120Shemesh": 1369, "\u00d7\u0132": 1370, "Kee": 1371, "\u0120gathers": 1372, "imating": 1373, "\u0120visibly": 1374, "\u0120selected": 1375, "\u0120steppes": 1376, "\u0120630": 1377, "1906": 1378, "Tom": 1379, "\u0120ppm": 1380, "Position": 1381, "\u0120reread": 1382, "\u0120toes": 1383, "\u0120Vu": 1384, "itlin": 1385, "\u0120conquests": 1386, "Tetragrammaton": 1387, "\u0120Techniques": 1388, "\u0120third": 1389, "\u0120cram": 1390, "\u0120charging": 1391, "\u0120virulence": 1392, "\u0120med": 1393, "\u0120Entomological": 1394, "uff": 1395, "\u0120pedestrian": 1396, "Reducing": 1397, "\u0120mis": 1398, "\u0120Parrot": 1399, "'',": 1400, "\u0120meats": 1401, "\u0120worth": 1402, "\u0120Montana": 1403, "\u0120insecticides": 1404, "\u0120primeval": 1405, "obe": 1406, "\u0120Paraguayan": 1407, "\u0120Sti": 1408, "\u0120endpoint": 1409, "\u0120key": 1410, "\u0120DNA": 1411, "\u0120definite": 1412, "\u0120viper": 1413, "\u0120patronage": 1414, "insulated": 1415, "charged": 1416, "\u0120Ic": 1417, "\u0120Lug": 1418, "\u0120VII": 1419, "Oak": 1420, "2004": 1421, "\u0120scarred": 1422, "\u0120Bucharest": 1423, "\u0120OSHA": 1424, "\u0120Beckett": 1425, "\u0120Sterling": 1426, "JPL": 1427, "\u0120python": 1428, "\u0120victimized": 1429, "\u0120Yield": 1430, "\u0120Lenin": 1431, "\u0120Yamuna": 1432, "\u0120Lenox": 1433, "\u0120Fructose": 1434, "\u012048": 1435, "\u0120sorbitol": 1436, "logue": 1437, "tal": 1438, "\u0120PR": 1439, "\u0120inroads": 1440, "\u0120accounting": 1441, "\u0120clinicians": 1442, "confidence": 1443, "\u0120Mockingbird": 1444, "\u0120Townsend": 1445, "\u0120rangelands": 1446, "\u0120Slav": 1447, "Scroll": 1448, "\u0120Microfilm": 1449, "\u0120Kl": 1450, "\u0120corpus": 1451, "\u0120lineage": 1452, "\u0120lipoprotein": 1453, "\u0120thereafter": 1454, "\u0120drunkenness": 1455, "\u0120Bottle": 1456, "\u0120Pesticides": 1457, "\u0120165": 1458, "\u0120dean": 1459, "\u0120implement": 1460, "\u0120gene": 1461, "\u0120Mercy": 1462, "\u0120Woodruff": 1463, "\u0120readability": 1464, "\u0120communities": 1465, "\u0120compressor": 1466, "235": 1467, "\u0120gamut": 1468, "berkeley": 1469, "\u0120[-": 1470, "\u0120cytotoxic": 1471, "\u0120Killer": 1472, "\u0120Improving": 1473, "\u0120Campylobacter": 1474, "oid": 1475, "\u0120rejected": 1476, "\u0120Ogle": 1477, "\u0120Improved": 1478, "\u0120ashore": 1479, "\u0120Peripheral": 1480, "Many": 1481, "\u0120hr": 1482, "\u0120Barriers": 1483, "\u0120marker": 1484, "140": 1485, "\u0120Paleolithic": 1486, "\u0120Crosby": 1487, "chlor": 1488, "\u0120alkaline": 1489, "\u0120Canaanites": 1490, "\u0120Photos": 1491, "weaving": 1492, "\u0120any": 1493, "\u0120withdrawing": 1494, "\u0120Kingston": 1495, "\u0120covered": 1496, "\u0120Keating": 1497, "\u0120outage": 1498, "\u0120skins": 1499, "\u0120biodiverse": 1500, "\u0120STANDARD": 1501, "among": 1502, "\u0120Yorker": 1503, "Temperature": 1504, "Adding": 1505, "\u0120horticultural": 1506, "\u0120Label": 1507, "\u0120uncertainties": 1508, "\u0120MIL": 1509, "\u0120lipoproteins": 1510, "\u01201617": 1511, "\u0120EBSCO": 1512, "nhlbi": 1513, "\u0120sell": 1514, "\u0120shortcut": 1515, "\u0120Pensacola": 1516, "\u0120Hats": 1517, "seen": 1518, "\u0120Teenagers": 1519, "24": 1520, "\u0120easement": 1521, "\u0120hope": 1522, "\u0120sparse": 1523, "787": 1524, "\u0120subway": 1525, "\u0120rims": 1526, "\u0120electrocution": 1527, "\u0120Program": 1528, "\u0120Otherwise": 1529, "\u0120(?),": 1530, "Presidential": 1531, "\u0120Jing": 1532, "\u0120>>": 1533, "\u0120kar": 1534, "Hurricane": 1535, "\u0120Gould": 1536, "\u0120inverter": 1537, "\u0120sa": 1538, "\u0120dys": 1539, "\u0120mundane": 1540, "\u0120nauseous": 1541, "\u0120IF": 1542, "\u0120*.": 1543, "aster": 1544, "\u0120arterial": 1545, "\u0120Excellency": 1546, "\u0120tenths": 1547, "\u0120falciparum": 1548, "\u0120fiercely": 1549, "\u0120lifeboats": 1550, "1991": 1551, "uty": 1552, "lg": 1553, "\u0120impe": 1554, "\u0120Doubleday": 1555, "\u0120unfavourable": 1556, "letters": 1557, "\u0120Ricci": 1558, "\u0120agendas": 1559, "\u0120(\u00e2\u012b\u012a": 1560, "\u0120Authentication": 1561, "\u0120somber": 1562, "\u0120Dur": 1563, "\u0120mountain": 1564, "menu": 1565, "\u0120irritated": 1566, "\u0120termed": 1567, "ew": 1568, "ults": 1569, "\u0120nation": 1570, "\u01201957": 1571, "\u0120Lifestyle": 1572, "\u0120hemlock": 1573, "\u0120McKay": 1574, "Chronology": 1575, "\u00c4\u0123la": 1576, "episode": 1577, "\u0120glaring": 1578, "\u0120charismatic": 1579, "directory": 1580, "\u0120subfamily": 1581, "\u0120Intelligence": 1582, "uro": 1583, "\u0120guests": 1584, "\u0120trustees": 1585, "\u0120intimidating": 1586, "viz": 1587, "\u0120exemplify": 1588, "plane": 1589, "ic": 1590, "\u0120migraine": 1591, "\u0120Forts": 1592, "\u0120Alvarez": 1593, "\u0120joined": 1594, "\u0120Chinook": 1595, "\u0120Roundup": 1596, "\u0120Composite": 1597, "\u0120decrease": 1598, "\u0120goods": 1599, "\u0120rated": 1600, "\u0120intertwined": 1601, "reach": 1602, "\u00e1\u0140": 1603, "sensitivity": 1604, "\u0120risking": 1605, "\u0120Fell": 1606, "located": 1607, "\u0120dismounted": 1608, "util": 1609, "\u0120Vogt": 1610, "\u0120impelled": 1611, "bourne": 1612, "\u0120full": 1613, "Smoke": 1614, "\u0120Voyage": 1615, "\u0120coordinators": 1616, "\u0120JPS": 1617, "\u0120plumb": 1618, "\u0120help": 1619, "\u0120UHF": 1620, "\u0120Aurangzeb": 1621, "\u0120Philosoph": 1622, "\u0120Crimes": 1623, "\u0120Appointment": 1624, "\u0120Bcf": 1625, "\u0120Darby": 1626, "\u0120airports": 1627, "\u0120formulae": 1628, "\u0120Thirty": 1629, "Alpha": 1630, "\u0120Cache": 1631, "\u0120negligence": 1632, "\u0120gre": 1633, "\u0120commended": 1634, "\u0120chemotaxis": 1635, "\u0120Englewood": 1636, "\u0120ideo": 1637, "&": 1638, "\u0120Histories": 1639, "\u0120inadvertently": 1640, "\u0120Advancement": 1641, "ega": 1642, "MR": 1643, "\u0120forages": 1644, "\u0120Thirteen": 1645, "\u0120pandemic": 1646, "\u00a3": 1647, "MA": 1648, "\u0120Forced": 1649, "\u0120dealer": 1650, "\u0120Leeds": 1651, "\u01201894": 1652, "\u0120consent": 1653, "\u0120metropolitan": 1654, "Local": 1655, "+)": 1656, "encephal": 1657, "Have": 1658, "\u0120riddle": 1659, "Statistical": 1660, "yes": 1661, "\u0120noxious": 1662, "\u0120products": 1663, "\u0120Novak": 1664, "\u0120pry": 1665, "\u0120bony": 1666, "\u0120Dist": 1667, "1894": 1668, "\u0120Yin": 1669, "\u0120Adolesc": 1670, "\u0120personality": 1671, "uing": 1672, "running": 1673, "\u0120cry": 1674, "\u0120Caltech": 1675, "\u0120addicted": 1676, "\u0120Vol": 1677, "\u0120fibers": 1678, "Public": 1679, "\u0120positional": 1680, "opened": 1681, "1993": 1682, "\u0120fields": 1683, "\u0120lawless": 1684, "\u0120Bodies": 1685, "\u0120Chess": 1686, "\u0120Fraser": 1687, "\u0120interstate": 1688, "\u0120venous": 1689, "500": 1690, "\u0120microprocessor": 1691, "\u0120Highlands": 1692, "DEC": 1693, "184": 1694, "imposed": 1695, "wave": 1696, "\u0120worker": 1697, "writers": 1698, "\u0120Auditorium": 1699, "\u0120332": 1700, "\u0120Radio": 1701, "\u0120balancing": 1702, "Ro": 1703, "\u0120Calais": 1704, "\u0120Rubio": 1705, "\u0120logo": 1706, "\u0120iniquity": 1707, "\u0120Silva": 1708, "\u0120Zambezi": 1709, "\u0120xix": 1710, "\u0120dementia": 1711, "species": 1712, "\u0120problem": 1713, "\u0120subtlety": 1714, "\u00c5\u00ab": 1715, "1776": 1716, "\u0120Pericles": 1717, "\u0120Troops": 1718, "\u0120UVB": 1719, "\u0120clavichord": 1720, "\u0120Zy": 1721, "ulation": 1722, "\u0120Krisciunas": 1723, "\u0120apportioned": 1724, "ground": 1725, "\u0120penned": 1726, "\u0120geomagnetic": 1727, "photon": 1728, "CHAPTER": 1729, "\u0120Moffat": 1730, "\u0120priority": 1731, "\u0120Pla": 1732, "\u0120Pronouns": 1733, "\u0120Needs": 1734, "\u0120quickest": 1735, "luck": 1736, "\u0120cytoplasm": 1737, "\u0120current": 1738, "\u01202003": 1739, "\u0120FH": 1740, "\u0120Laboratory": 1741, "\u0120effects": 1742, "\u0120circumvent": 1743, "yc": 1744, "influenza": 1745, "\u0120unfathomable": 1746, "\u0120maxillary": 1747, "\u0120exquisitely": 1748, "\u0120drifted": 1749, "\u0120Dauphin": 1750, "\u0120Pisa": 1751, "\u0120Hardcover": 1752, "\u0120conservative": 1753, "\u0120Sweden": 1754, "\u0120placebo": 1755, "Hor": 1756, "theses": 1757, "train": 1758, "\u0120rickets": 1759, "\u0120oxygenated": 1760, "\u0120plenty": 1761, "\u0120aging": 1762, "\u0120Ol": 1763, "Tuesday": 1764, "\u0120campaigning": 1765, "\u0120Buzz": 1766, "\u0120moderate": 1767, "\u0120Shaffer": 1768, "\u0120TDD": 1769, "\u0120vivid": 1770, "\u0120aspiration": 1771, "cellular": 1772, "\u0120Bab": 1773, "Iranian": 1774, "\u0120complacency": 1775, "\u0120science": 1776, "yut": 1777, "\u0120Gao": 1778, "Clearly": 1779, "\u0120Reactions": 1780, "\u0120calves": 1781, "\u0120Kane": 1782, "\u0120concussions": 1783, "Market": 1784, "\u0120injustice": 1785, "\u0120night": 1786, "Voice": 1787, "\u0120pharmaceutical": 1788, "\u0120subsid": 1789, "\u0120Pak": 1790, "\u0120interceptor": 1791, "\u0120Intrigu": 1792, "\u0120Preventive": 1793, "\u0120stake": 1794, "\u0120Pinus": 1795, "\u0120classmates": 1796, "Capital": 1797, "\u0120Orr": 1798, "\u0120opinion": 1799, "\u0120Terrain": 1800, "\u0120Lets": 1801, "\u0120interurban": 1802, "\u0120FAQ": 1803, "\u01201790": 1804, "\u0120impractical": 1805, "\u0120CON": 1806, "Entrepreneur": 1807, "\u0120Finds": 1808, "dation": 1809, "oflagellates": 1810, "\u0120accesses": 1811, "\u0120Feeding": 1812, "\u0120Roundtable": 1813, "chrome": 1814, "zig": 1815, "\u0120stupor": 1816, "\u0120procurement": 1817, "\u0120maximally": 1818, "\u0120bewildering": 1819, "\u0120fragile": 1820, "Starting": 1821, "hard": 1822, "great": 1823, "\u0120Pis": 1824, "\u0120thou": 1825, "\u0120standardised": 1826, "\u0120elm": 1827, "\u0120methionine": 1828, "\u0120alertness": 1829, "\u00e2\u0122\u013b-": 1830, "\u0120Procedure": 1831, "\u0120Osama": 1832, "299": 1833, "venience": 1834, "Uganda": 1835, "\u0120Cos": 1836, "clusion": 1837, "pin": 1838, "\u0120beats": 1839, "eagle": 1840, "\u0120Remembrance": 1841, "\u0120Toro": 1842, "\u0120ascetic": 1843, "\u0120Somehow": 1844, "\u0120stub": 1845, "experience": 1846, "\u0120exaggeration": 1847, "\u0120path": 1848, "\u0120Rick": 1849, "\u0120Graf": 1850, "\u0120GRE": 1851, "\u0120Interagency": 1852, "\u0120Qu\u00c3\u00a9bec": 1853, "\u0120Lifetime": 1854, "\u0120Stalin": 1855, "Cleavage": 1856, "\u0120EPO": 1857, "\u0120Gar": 1858, "\u0120Mayflower": 1859, "\u0120Grove": 1860, "vul": 1861, "\u0120eunuch": 1862, "\u0120preconceptions": 1863, "\u0120defends": 1864, "\u0120Hebrews": 1865, "\u0120ji": 1866, "\u0120theses": 1867, "\u0120won": 1868, "\u0120Connect": 1869, "\u00d1\u0124": 1870, "\u0120MOI": 1871, "Optical": 1872, "cotta": 1873, "\u0120Arguments": 1874, "GHz": 1875, "048": 1876, "\u0120all": 1877, "\u0120Zar": 1878, "\u0120athletic": 1879, "\u0120Crops": 1880, "pes": 1881, "\u0120was": 1882, "\u0120jargon": 1883, "\u0120Artic": 1884, "\u0120Household": 1885, "Category": 1886, "PubMed": 1887, "\u0120reborn": 1888, "\u0120ivory": 1889, "\u01202700": 1890, "well": 1891, "\u0120Diver": 1892, "\u0120Solutions": 1893, "\u0120surprisingly": 1894, "\u0120369": 1895, "\u0120weighted": 1896, "Summer": 1897, "\u0120Pow": 1898, "\u0120brevity": 1899, "\u0120suites": 1900, "\u0120lest": 1901, "ush": 1902, "\u0120parish": 1903, "Matrix": 1904, "pie": 1905, "\u00e2\u0124\u00ac\u00e2\u0122\u013f": 1906, "\u0120Primarily": 1907, "\u012021": 1908, "\u0120tightening": 1909, "\u0120quiescent": 1910, "\u0120herbicide": 1911, "arian": 1912, "blum": 1913, "\u0120Dionys": 1914, "\u0120Sikorsky": 1915, "\u0120Robot": 1916, "\u0120Hab": 1917, "\u0120condenses": 1918, "\u0120Pluto": 1919, "()": 1920, "\u00d0\u00ba\u00d0\u00b0": 1921, "ment": 1922, "\u0120revisit": 1923, "\u0120Pur": 1924, "\u0120filtration": 1925, "\u0120Remington": 1926, "\u0120Fibrosis": 1927, "\u0120childhood": 1928, "pods": 1929, "\u0120Arabia": 1930, "lor": 1931, "\u0120Marconi": 1932, "Designed": 1933, "\u0120Agricola": 1934, "Por": 1935, "\u0120Murdoch": 1936, "\u0120economists": 1937, "holds": 1938, "\u0120oncologists": 1939, "\u0120sedimentary": 1940, "China": 1941, "Sea": 1942, "\u0120Fran\u00c3\u00a7ais": 1943, "011": 1944, "Air": 1945, "\u0120CAB": 1946, "372": 1947, "\u0120Saga": 1948, "\u0120Pliny": 1949, "\u0120Bernoulli": 1950, "responsible": 1951, "\u0120Biotech": 1952, "\u0120Colored": 1953, "\u0120captivity": 1954, "\u0120Pounds": 1955, "oriented": 1956, "\u0120extends": 1957, "\u0120practise": 1958, "radical": 1959, "\u0120Florentine": 1960, "\u0120Mindanao": 1961, "\u0120correction": 1962, "\u0120ascension": 1963, "\u0120mei": 1964, "ances": 1965, "\u0120GNU": 1966, "\u0120runtime": 1967, "\u0120grids": 1968, "PLE": 1969, "\u0120demonstrators": 1970, "bbly": 1971, "\u0120stethoscope": 1972, "\u0120Oncology": 1973, "\u0120CALL": 1974, "\u0120chain": 1975, "\u0120cassava": 1976, "sz": 1977, "\u0120Tuscany": 1978, "\u0120Kidney": 1979, "\u0120us": 1980, "\u0120r": 1981, "\u01201630": 1982, "\u0120aff": 1983, "syllabic": 1984, "FA": 1985, "\u0120conversions": 1986, "Graph": 1987, "\u0120ravines": 1988, "savvy": 1989, "875": 1990, "\u0120archer": 1991, "\u0120ecumenical": 1992, "rne": 1993, "\u0120inadequately": 1994, "mond": 1995, "ONG": 1996, "\u0120Politi": 1997, "\u0120anglers": 1998, "\u0120ebb": 1999, "\u0120Puja": 2000, "\u0120monasteries": 2001, "\u0120Lehman": 2002, "\u0120Hass": 2003, "\u0120LD": 2004, "\u0120\u00e2\u0122\u013e[": 2005, "'),": 2006, "\u0120Anu": 2007, "\u0120honeybees": 2008, "\u0120Sorting": 2009, "\u0120elderly": 2010, "\u0120swoop": 2011, "\u0120dismantling": 2012, "tay": 2013, "Mr": 2014, "\u0120privat": 2015, "\u0120Jammu": 2016, "Idaho": 2017, "\u0120makes": 2018, "\u0120disintegrated": 2019, "\u0120Institutional": 2020, "hl": 2021, "\u0120computer": 2022, "\u0120Bialystok": 2023, "\u00e6\u013a": 2024, "\u0120argument": 2025, "\u0120Especially": 2026, "\u0120Malachi": 2027, "\u0120Spaulding": 2028, "Aurora": 2029, "\u0120Includes": 2030, "Protestant": 2031, "\u0120usurped": 2032, "\u0120brazen": 2033, "\u0120steak": 2034, "\u0120Gal\u00c3\u00a1pagos": 2035, "\u0120shalt": 2036, "Survivor": 2037, "\u0120SUPPORT": 2038, "\u0120wax": 2039, "nity": 2040, "\u0120Accordingly": 2041, "\u0120Shoshoni": 2042, "span": 2043, "\u0120BEA": 2044, "\u0120Pull": 2045, "\u0120derogatory": 2046, "\u0120Pandavas": 2047, "severe": 2048, "coated": 2049, "\u0120ordinal": 2050, "\u0135": 2051, "\u0120Gly": 2052, "\u0120bapt": 2053, "Collabor": 2054, "\u0120medallions": 2055, "Chlamydia": 2056, "616": 2057, "\u0120unre": 2058, "\u0120misses": 2059, "\u0120358": 2060, "\u0120Muk": 2061, "\u0120upset": 2062, "grin": 2063, "\u0120outskirts": 2064, "\u0120riddles": 2065, "\u0120seed": 2066, "\u0120correlate": 2067, "\u0120military": 2068, "\u0120resonate": 2069, ".\u00e2\u0122\u0136": 2070, "\u0120usurp": 2071, "FLYNN": 2072, "\u0120Moroccan": 2073, "Our": 2074, "\u0120102": 2075, "When": 2076, "emb": 2077, "\u0120encrypt": 2078, "\u0120sexist": 2079, "\u0120erased": 2080, "\u0120Expeditionary": 2081, "tun": 2082, "\u0120fluctuated": 2083, "\u0120Dorothy": 2084, "nville": 2085, "\u0120immobilized": 2086, "\u01201691": 2087, "\u0120bonanza": 2088, "\u0120downtime": 2089, "\u0120thoughts": 2090, "ige": 2091, "\u0120Pathol": 2092, "\u0120phloem": 2093, "PUBLIC": 2094, "\u0120martyrs": 2095, "\u0120Subjects": 2096, "\u0120dance": 2097, "tch": 2098, "\u0120navigation": 2099, "\u0120preferential": 2100, "\u0120Poem": 2101, "\u0120arrogant": 2102, "\u0120shimmering": 2103, "\u0120linked": 2104, "Student": 2105, "\u0120Stony": 2106, "\u0120Shahjahan": 2107, "\u0120Vegetation": 2108, "else": 2109, "\u0120sculpting": 2110, "\u0120retreat": 2111, "\u0120BGP": 2112, "\u0120Salem": 2113, "\u0120barge": 2114, "\u0120probes": 2115, "\u0120mic": 2116, "\u0120pore": 2117, "\u0120civilizations": 2118, "\u0120FCC": 2119, "\u0120studio": 2120, "Bud": 2121, "\u0120Desp": 2122, "bacterial": 2123, "gallon": 2124, "\u0120provenance": 2125, "Interior": 2126, "\u0120singles": 2127, "\u0120Fenwick": 2128, "\u0120obscure": 2129, "quality": 2130, "\u0120speed": 2131, "\u0120nitrogen": 2132, "\u0120Lam": 2133, "\u0120Ip": 2134, "\u0120disobey": 2135, "Draw": 2136, "\u0120Portsmouth": 2137, ",``": 2138, "\u0120Lexington": 2139, "\u0120reuptake": 2140, "\u0120Chihuahua": 2141, "Focus": 2142, "chemicals": 2143, "compulsive": 2144, "\u0120invented": 2145, "conservative": 2146, "\u0120prevailed": 2147, "as": 2148, "\u0120Systems": 2149, "Speech": 2150, "measured": 2151, "\u0120H\u00c3\u00b4tel": 2152, "\u0120respondents": 2153, "\u0120Coverage": 2154, "\u0120Gha": 2155, "\u0120conventional": 2156, "\u0120Chance": 2157, "\u0120FIR": 2158, "\u0120bicyclist": 2159, "\u0120spewing": 2160, "\u0120promoter": 2161, "\u0120preparation": 2162, "\u0120modifier": 2163, "\u0120Amish": 2164, "\u0120subsidize": 2165, "Maxim": 2166, "\u0120recon": 2167, "PHP": 2168, "\u0120FWS": 2169, "\u0120Drill": 2170, "\u0120Niger": 2171, "\u00a5": 2172, "\u0120Artemis": 2173, "Radiation": 2174, "\u0120peg": 2175, "\u0120automatic": 2176, "\u0120beheld": 2177, "\u0120Diets": 2178, "\u0120Controller": 2179, "\u0120Oceana": 2180, "\u0120McGuire": 2181, "\u0120ophthalmic": 2182, "\u0120juror": 2183, "\u0120selves": 2184, "\u0120dulcimer": 2185, "\u0120noncancerous": 2186, "\u0120Medical": 2187, "erness": 2188, "\u0120insidious": 2189, "\u0120ohms": 2190, "\u0120boo": 2191, "nu": 2192, "\u0120hydroxy": 2193, "lt": 2194, "1862": 2195, "\u0120respite": 2196, "\u0120inflated": 2197, "\u0120myeloma": 2198, "\u0120journalistic": 2199, "\u0120teaches": 2200, "\u0120exterminated": 2201, "\u0120vital": 2202, "\u0120HUS": 2203, "\u0120contemplates": 2204, "\u0120orphanage": 2205, "enburg": 2206, "\u0120grown": 2207, "\u0120overwhelming": 2208, "\u0120Nasa": 2209, "Screen": 2210, "refer": 2211, "Educators": 2212, "\u0120disulfide": 2213, "\u0120Christina": 2214, "\u0120USER": 2215, "\u0120patriarchy": 2216, "\u0120outrageous": 2217, "\u0120S\u00c3\u00a9": 2218, "\u0120Lim": 2219, "\u0120Mod": 2220, "\u0120awry": 2221, "\u0120apparently": 2222, "une": 2223, "\u0120resistors": 2224, "kel": 2225, "Links": 2226, "\u0120pathophysiology": 2227, "\u0120Maccoby": 2228, "110": 2229, "\u0120Brigadier": 2230, "\u0120355": 2231, "\u0120Peyronie": 2232, "\u0120mathemat": 2233, "AQ": 2234, "nomial": 2235, "\u0120smallest": 2236, "\u0120Cola": 2237, "\u0120tamed": 2238, "kers": 2239, "\u0120Draw": 2240, "isc": 2241, "\u0120permitted": 2242, "\u0120Hyper": 2243, "\u0120lecturers": 2244, "\u0120411": 2245, "wara": 2246, "\u0120Scotia": 2247, "\u0120585": 2248, "\u0120tact": 2249, "\u0120bookshelves": 2250, "\u0120Viruses": 2251, "\u0120def": 2252, "gni": 2253, "\u0120Ireland": 2254, "\u0120alt": 2255, "\u0120darkening": 2256, "\u0120FORTRAN": 2257, "\u0120m": 2258, "\u0120Until": 2259, "\u0120Mongolia": 2260, "hic": 2261, "\u0120Investigator": 2262, "\u0120Combining": 2263, "\u0120234": 2264, "\u0120Commander": 2265, "\u0120pedagogy": 2266, "Stop": 2267, "\u0120outlying": 2268, "\u0120studies": 2269, "pointed": 2270, "\u0120reality": 2271, "\u012011": 2272, "buzz": 2273, "\u0120Dalhousie": 2274, "\u0120Developmental": 2275, "\u0120interchange": 2276, "\u0120transcribing": 2277, "\u0120guardian": 2278, "\u0120mediate": 2279, "thinking": 2280, "\u0120sociological": 2281, "\u0120marginalised": 2282, "growing": 2283, "\u0120clearinghouse": 2284, "\u0120Bia": 2285, ".\"\u00e2\u0122\u0136": 2286, "\u0120Hip": 2287, "\u0120occupational": 2288, "\u0120Ghost": 2289, "AR": 2290, "\u0120drinkers": 2291, "\u0120Minn": 2292, "\u00c3\u00a9es": 2293, "\u0120Eye": 2294, "\u0120overhaul": 2295, "VICE": 2296, "\u0120absorpt": 2297, "\u0120freshening": 2298, "RAD": 2299, "\u0120manually": 2300, "parliament": 2301, "\u0120Pethick": 2302, "\u0120deceive": 2303, "Males": 2304, "\u0120cried": 2305, "\u0120bristlecone": 2306, "ABILITY": 2307, "\u0120drug": 2308, "censorship": 2309, "\u0120Territorial": 2310, "\u0120Additional": 2311, "\u0120instructions": 2312, "\u0120Hygiene": 2313, "\u0120didnt": 2314, "\u0120caesarean": 2315, "ible": 2316, "generated": 2317, "sb": 2318, "bern": 2319, "founder": 2320, "\u0120blogger": 2321, "loid": 2322, "\u0120Lowe": 2323, "\u01201813": 2324, "\u0120Seismo": 2325, "\u0120basics": 2326, "\u0120legumes": 2327, "\u0120logically": 2328, "\u0120fiction": 2329, "\u0120preferring": 2330, "\u0120Magical": 2331, "biologists": 2332, "\u0120bathing": 2333, "Week": 2334, "\u0120fences": 2335, "Rat": 2336, "\u0120Operational": 2337, "\u0120opinions": 2338, "reasing": 2339, "ac": 2340, "\u0120facial": 2341, "\u0120abalone": 2342, "mindedness": 2343, "\u0120Gal": 2344, "\u0120revitalized": 2345, "cortical": 2346, "\u0120scriptural": 2347, "\u0120cosine": 2348, "\u0120pharaoh": 2349, "Indeed": 2350, "reciation": 2351, "\u0120Muller": 2352, "\u0120activation": 2353, "\u0120ftp": 2354, "xed": 2355, "\u0120Kandahar": 2356, "\u0120MPs": 2357, "\u0120constant": 2358, "\u0120linking": 2359, "\u0120distributor": 2360, "Tue": 2361, "\u0120Mash": 2362, "\u0120Landmarks": 2363, "\u0120rotational": 2364, "\u0120converts": 2365, "\u0120Cage": 2366, "July": 2367, "\u0120Prince": 2368, "chap": 2369, "\u0120thr": 2370, "97": 2371, "doo": 2372, "girls": 2373, "\u00e2\u0122\u0135.": 2374, "\u0120hyperhidrosis": 2375, "\u0120rights": 2376, "\u0120lily": 2377, "\u0120Shots": 2378, "\u0120Confessions": 2379, "\u0120muslim": 2380, "chromatic": 2381, "Len": 2382, "\u0120Burden": 2383, "\u0120\u00c4\u0122\u00e1\u00b9\u0143m\u00c4\u0123": 2384, "\u0120Interpreting": 2385, "\u0120Minds": 2386, "\u01201517": 2387, "\u0120MEMS": 2388, "\u0120Joseph": 2389, "\u0120Fitzgerald": 2390, "ayne": 2391, "\u0120FDA": 2392, "educational": 2393, "\u0120Casualty": 2394, "Country": 2395, "\u0120appearances": 2396, "\u0120idolaters": 2397, "\u0120Painters": 2398, "\u0120others": 2399, "\u0120BOOK": 2400, "\u0120converged": 2401, "\u0120Sche": 2402, "\u0120Murder": 2403, "\u0120Mollus": 2404, "\u0120Suggested": 2405, "\u0120IDs": 2406, "\u0120atherosclerosis": 2407, "\u0120differed": 2408, "\u0120relic": 2409, "\u0120Advocacy": 2410, "\u0120422": 2411, "\u0120Driver": 2412, "acted": 2413, "\u0120undecided": 2414, "methane": 2415, "\u0120Assignment": 2416, "\u0120resolutions": 2417, "\u0120seeker": 2418, "GAN": 2419, "\u0120Houdini": 2420, "\u0120Tokyo": 2421, "court": 2422, "\u0120Salzburg": 2423, "\u0120bathy": 2424, "\u0120scanned": 2425, "\u0120proposition": 2426, "\u0120muscular": 2427, "\u0120279": 2428, "hum": 2429, "\u0120ballads": 2430, "\u0120beaches": 2431, "\u0120homeschool": 2432, "\u0120stroma": 2433, "Recently": 2434, "\u0120Throughout": 2435, "\u0120boredom": 2436, "\u0120useful": 2437, "\u0120hypo": 2438, "bol": 2439, "\u0120Avogadro": 2440, "954": 2441, "\u0120hurdle": 2442, "\u0120putting": 2443, "paid": 2444, "\u0120cyberbullying": 2445, "Breeding": 2446, "\u0120banners": 2447, "int": 2448, "strate": 2449, "\u0120Dementia": 2450, "\u0120Mallory": 2451, "\u0120sanny\u00c4\u0123sa": 2452, "breaker": 2453, "\u0120glorious": 2454, "\u0120Campbell": 2455, "\u0120Marr": 2456, "posed": 2457, "lists": 2458, "\u0120recognized": 2459, "\u0120Ellipse": 2460, "\u0120Reuben": 2461, "they": 2462, "\u0120Volt": 2463, "precious": 2464, "\u0120Erich": 2465, "\u0120lining": 2466, "ph": 2467, "\u01203": 2468, "\u0120demonstrating": 2469, "\u0120ruining": 2470, "\u0120Hudson": 2471, "Much": 2472, "\u0120Wesleyan": 2473, "Getting": 2474, "burg": 2475, "\u0120rhododendron": 2476, "\u0120decent": 2477, "\u0120Levels": 2478, ".\"(": 2479, "kin": 2480, "treat": 2481, "\u0120Fourth": 2482, "\u0120Industry": 2483, "\u0120Wel": 2484, "\u0120Confucius": 2485, "\u0120Macpherson": 2486, "\u0120observatories": 2487, "\u0120Collaborative": 2488, "\u0120progressed": 2489, "\u00e1\u00b8": 2490, "Directions": 2491, "\u0120BPA": 2492, "\u0120Powell": 2493, "\u0120Homo": 2494, "\u0120compiling": 2495, "\u0120arXiv": 2496, "\u0120bouquet": 2497, "Samuel": 2498, "\u0120detectives": 2499, "lgorithm": 2500, "\u0120Atmos": 2501, "\u0120coiled": 2502, "defining": 2503, "\u0120spokeswoman": 2504, "Asbestos": 2505, "\u0120flanking": 2506, "\u0120nylon": 2507, "\u0120grapes": 2508, "por": 2509, "Hill": 2510, "igan": 2511, "\u0120adapting": 2512, "olia": 2513, "\u0120Uruk": 2514, "\u0120gazelle": 2515, "Eur": 2516, "transmission": 2517, "Birds": 2518, "\u0120Glau": 2519, "\u0120menacing": 2520, "t\u00c4\u0123": 2521, "\u0120FISH": 2522, "automatic": 2523, "thick": 2524, "\u0120participation": 2525, "\u0120Solidarity": 2526, "\u0120spans": 2527, "ending": 2528, "asia": 2529, "\u0120Protestant": 2530, "bot": 2531, "\u0120terraces": 2532, "\u0120Throat": 2533, "\u0120beech": 2534, "\u0120modernized": 2535, "\u0120dough": 2536, "\u0120CIS": 2537, "Ball": 2538, "\u0120researcher": 2539, "destruction": 2540, "\u0120miserably": 2541, "\u0120stagnation": 2542, "\u0120PNAS": 2543, "\u0120shirt": 2544, "\u0120injections": 2545, "\u0120Krakatoa": 2546, "\u0120alternative": 2547, "sensory": 2548, "TES": 2549, "marks": 2550, "\u0120excavations": 2551, "\u0120modalities": 2552, "peptide": 2553, "ios": 2554, "\u0120sweeps": 2555, "\u0120armour": 2556, "\u0120Shepard": 2557, "\u0120Dictionary": 2558, "\u0120Cheap": 2559, "\u0120destroyers": 2560, "nur": 2561, "\u0120coarsely": 2562, "relationships": 2563, "\u0120abolishing": 2564, "\u0120migrant": 2565, "\u0120modifying": 2566, "\u0120tsunamis": 2567, "\u0120Caravaggio": 2568, "\u0120calculating": 2569, "\u0120interconnections": 2570, "\u0120epistemological": 2571, "\u0120Custodian": 2572, "\u0120REDD": 2573, "ISBN": 2574, "seventh": 2575, "\u0120momentarily": 2576, "1029": 2577, "\u0120Koe": 2578, "\u0120defeats": 2579, "\u0120atlas": 2580, "\u0120rendering": 2581, "\u0120inconvenience": 2582, "\u0120452": 2583, "fresh": 2584, "\u0120tolerant": 2585, "\u0120sacraments": 2586, "\u0120grief": 2587, "\u0120Temperature": 2588, "\u0120parental": 2589, "\u0120vascular": 2590, "\u0120Preparing": 2591, "\u0120phenotype": 2592, "\u0120cartouche": 2593, "\u0120specie": 2594, "craft": 2595, "fungal": 2596, "\u0120Emirates": 2597, "\u0120stag": 2598, "\u0120knowing": 2599, "\u0120shaped": 2600, "gynous": 2601, "Chip": 2602, "\u0120plunge": 2603, "rap": 2604, "\u0120veritable": 2605, "\u0120Bearded": 2606, "quoted": 2607, "\u0120unsuitable": 2608, "losing": 2609, "\u0120arpeggi": 2610, "surgery": 2611, "\u0120Incorporated": 2612, "\u0120degrade": 2613, "\u0120because": 2614, "\u0120guided": 2615, "\u0120Gus": 2616, "\u0120Priscilla": 2617, "\u0120hypothesized": 2618, "\u0120factions": 2619, "levance": 2620, "\u0120Daniel": 2621, "\u0120Congolese": 2622, "\u0120Glynd\u00c5\u00b5r": 2623, "\u0120humiliation": 2624, "\u0120dredge": 2625, "ny": 2626, "European": 2627, "\u0120Preventing": 2628, "ving": 2629, "\u0120th": 2630, "\u0120Updates": 2631, "\u0120adaptability": 2632, "drake": 2633, "\u0120barbecue": 2634, "\u0120Yam": 2635, "\u0120Krom": 2636, "\u01201751": 2637, "\u0120Ankara": 2638, "\u0120Porphyr": 2639, "\u0120Deli": 2640, "ignment": 2641, "\u0120Indeed": 2642, "\u0120contraindications": 2643, "ogenic": 2644, "\u0120385": 2645, "\u0120French": 2646, "\u0120408": 2647, "\u0120Reb": 2648, "\u0120anonymous": 2649, "WEB": 2650, "\u0120napkins": 2651, "\u0120genuinely": 2652, "\u0120oxen": 2653, "\u0120hydrochloric": 2654, "\u0120mortgage": 2655, "\u0120cingulate": 2656, "\u0120Waals": 2657, "\u0120constitution": 2658, "Clinton": 2659, "\u0120Algonquian": 2660, "Marx": 2661, "\u0120coma": 2662, "tiles": 2663, "\u0120conn": 2664, "dil": 2665, "pub": 2666, "\u0120targets": 2667, "tang": 2668, "\u0120Abbott": 2669, "\u0120environments": 2670, "\u0120Ambulance": 2671, "\u0120Helicopter": 2672, "\u0120restore": 2673, "360": 2674, "\u0120analysis": 2675, "\u0120radon": 2676, "\u0120Joanne": 2677, "GluR": 2678, "\u0120diffused": 2679, "\u0120provided": 2680, "Move": 2681, "\u0120flushing": 2682, "\u0120Programme": 2683, "\u0120Gertrude": 2684, "saccharides": 2685, "NOTE": 2686, "\u0120F\u00c3\u00a9in": 2687, "100": 2688, "\u0120igniting": 2689, "\u0120precise": 2690, "\u0120193": 2691, "\u0120Sizing": 2692, "uer": 2693, "\u0120\u00ef\u00b4\u00bf": 2694, "\u0120Gardeners": 2695, "\u0120Moulton": 2696, "\u0120friction": 2697, "\u0120kilowatts": 2698, "\u0120Democrat": 2699, "\u0120forgetfulness": 2700, "\u0120Doha": 2701, "dro": 2702, "kowitz": 2703, "defense": 2704, "illness": 2705, "\u0120partisan": 2706, "\u0120magician": 2707, "\u0120fairies": 2708, "\u0120Capo": 2709, "\u0120MG": 2710, "\u0120semicircular": 2711, "\u0120Rehnquist": 2712, "\u0120Novel": 2713, "\u0120PLC": 2714, "\u00d1\u0125": 2715, "\u0120glyphosate": 2716, "\u0120Bernanke": 2717, "\u0120broods": 2718, "\u0120Twe": 2719, "ION": 2720, "\u0120sniffing": 2721, "\u0120heathen": 2722, "\u0120Ef": 2723, "ue": 2724, "lied": 2725, "\u0120captures": 2726, "src": 2727, "\u0120Popper": 2728, "lons": 2729, "\u0120Butterfly": 2730, "1908": 2731, "\u0120clean": 2732, "\u0120unmodified": 2733, "\u0120Activity": 2734, "ific": 2735, "lamation": 2736, "mono": 2737, "\u0120Gravitation": 2738, "\u01201673": 2739, "NIAID": 2740, "\u0120Vero": 2741, "\u0120Exodus": 2742, "\u0120attract": 2743, "\u0120sewing": 2744, "\u0120Annex": 2745, "\u0120barrels": 2746, "\u0120HBC": 2747, "tolerant": 2748, "\u0120mourned": 2749, "\u0120patriotic": 2750, "Allow": 2751, "tation": 2752, "\u0120Illuminati": 2753, "\u0120Norse": 2754, "essions": 2755, "\u0120Cherry": 2756, "Judith": 2757, "wound": 2758, "Shah": 2759, "\u0120Deploy": 2760, "\u0120roughness": 2761, "\u0120stud": 2762, "Code": 2763, "\u0120happiness": 2764, "Years": 2765, "\u0120intersects": 2766, "tank": 2767, "\u0120envoys": 2768, "\u0120Roles": 2769, "\u0120understatement": 2770, "\u0120herald": 2771, "\u0120\u00d0\u00a1\u00d0\u00bb\u00d0\u00be\u00d0\u00b2\u00d0\u00b5\u00d0\u00bd\u00d0\u00b8": 2772, "idh": 2773, "\u0120purification": 2774, "gamy": 2775, "\u0120erudition": 2776, "\u0120inductor": 2777, "cop": 2778, "\u0120stereotypes": 2779, "\u0120Chickamauga": 2780, "\u0120discovering": 2781, "\u0120punish": 2782, "\u0120openly": 2783, "Imagine": 2784, "\u0120fluoroquinolone": 2785, "\u0120License": 2786, "\u0120polymerization": 2787, "\u0120While": 2788, "?\".": 2789, "\u0120Mexican": 2790, "\u0120coils": 2791, "\u0120analogous": 2792, "\u0120applicants": 2793, "\u0120Returns": 2794, "\u0120unconditioned": 2795, "\u0120Arthritis": 2796, "HT": 2797, "\u0120prosecutors": 2798, "\u0120booster": 2799, "\u0120Suite": 2800, "\u0120Defeat": 2801, "\u0120actor": 2802, "suggests": 2803, "624": 2804, "\u0120sociable": 2805, "\u0120Paschal": 2806, "aspartate": 2807, "Adjust": 2808, "\u0120XIX": 2809, "\u0120decennial": 2810, "\u0120debridement": 2811, "\u0120parked": 2812, "\u0120percussion": 2813, "\u0120novo": 2814, "\u0120Ecliptic": 2815, "\u0120Post": 2816, "cloud": 2817, "\u0120structure": 2818, "RS": 2819, "\u0120SSL": 2820, "\u0120regulars": 2821, "\u0120Darfur": 2822, "\u0120landscaped": 2823, "\u0120Jatavarman": 2824, "position": 2825, "\u0120dispositions": 2826, "\u0120Outdoor": 2827, "\u010a": 2828, "undum": 2829, "news": 2830, "\u0120esophageal": 2831, "\u0120knights": 2832, "\u0120Hap": 2833, "\u0120culprits": 2834, "\u0120fact": 2835, "Intermediate": 2836, "\u0120cutlery": 2837, "AMP": 2838, "\u0120interrelated": 2839, "\u0120monuments": 2840, "\u0120possible": 2841, "\u0120Spark": 2842, "flora": 2843, "Ensuring": 2844, "\u0120Encounter": 2845, "\u01204": 2846, "Proceedings": 2847, "file": 2848, "\u0120clashes": 2849, "memory": 2850, "\u0120McLean": 2851, "\u0120Freiburg": 2852, "expanding": 2853, "\u0120Whoever": 2854, "caused": 2855, "Ze": 2856, "\u0120bonus": 2857, "\u0120gopher": 2858, "\u00e1\u00b9\u0143a": 2859, "precise": 2860, "\u00b0": 2861, "\u0120rug": 2862, "\u0120ciphertext": 2863, "\u0120able": 2864, "):": 2865, "\u0120ionizing": 2866, "Client": 2867, "compliance": 2868, "Maur": 2869, "\u0120chronology": 2870, "\u0120boom": 2871, "\u0120Afghanistan": 2872, "\u0120remark": 2873, "Quite": 2874, "FUL": 2875, "\u0120normotensive": 2876, "\u0120M\u00c3\u00a9": 2877, "\u0120Assad": 2878, "CT": 2879, "\u0120dah": 2880, "\u00c3\u0125": 2881, "\u0120bursting": 2882, "\u0120assumes": 2883, "\u0120confines": 2884, "\u0120raced": 2885, "originally": 2886, "Available": 2887, "\u0120Bath": 2888, "Emotional": 2889, "\u0120Vajra": 2890, "\u0120flashed": 2891, "\u0120rivals": 2892, "continental": 2893, "DY": 2894, "\u0120scorching": 2895, "\u0120papill": 2896, "\u0120technologies": 2897, "\u0120Benedictine": 2898, "\u0120hardwood": 2899, "\u0120veracity": 2900, "chief": 2901, "\u0120Sponsors": 2902, "Consequently": 2903, "HIP": 2904, "\u0120Mackenzie": 2905, "Companies": 2906, "\u0120Shopping": 2907, "\u0120mussels": 2908, "\u0120muted": 2909, "\u0120clams": 2910, "\u0120Sirius": 2911, "\u0120authorized": 2912, "\u0120Isthmus": 2913, "ths": 2914, "\u0120marbles": 2915, "\u0120photosynthetic": 2916, "\u0120mobilisation": 2917, "\u0120insults": 2918, "ostomy": 2919, "\u0120Astronomy": 2920, "\u0120nurseries": 2921, "\u0120area": 2922, "\u0120investing": 2923, "usions": 2924, "\u0120Were": 2925, "\u0120Disrupt": 2926, "\u0120Silicon": 2927, "\u0120persuasion": 2928, "\u0120Bront\u00c3\u00ab": 2929, "\u0120flip": 2930, "\u0120Titan": 2931, "\u0120Deakin": 2932, "Aristotle": 2933, "\u0120persuasive": 2934, "Kin": 2935, "\u0120tire": 2936, "TORS": 2937, "\u0120resent": 2938, "\u0120Delta": 2939, "\u0120bypasses": 2940, "ima": 2941, "\u0120Subscribe": 2942, "deficiency": 2943, "\u0120authentication": 2944, "dur": 2945, "Ortho": 2946, "Raphael": 2947, "\u0120Browne": 2948, "\u0120forwards": 2949, "\u0120magnify": 2950, "367": 2951, "peritoneal": 2952, "Semi": 2953, "\u0120Duvalier": 2954, "\u0120Bass": 2955, "garh": 2956, "Tar": 2957, "\u0120atop": 2958, "\u0120accr": 2959, "\u0120nonsense": 2960, "\u0120Pugin": 2961, "lag": 2962, "725": 2963, "\u0120lurk": 2964, "propag": 2965, "\u0120contaminant": 2966, "\u0120Loyalists": 2967, "\u0120subaltern": 2968, "\u0120dilemmas": 2969, "\u0120castles": 2970, "\u0120theropod": 2971, "\u0120Sabine": 2972, "\u0120Ahmadiyya": 2973, "\u0120Expedition": 2974, "\u0120vitiligo": 2975, "361": 2976, "\u0120sulphate": 2977, "\u0120Victorian": 2978, "\u0120flatten": 2979, "\u0120fuselage": 2980, "\u0120cigarette": 2981, "\u0120closed": 2982, "\u0120altar": 2983, "\u0120sati": 2984, "tad": 2985, "\u0120discriminated": 2986, "annual": 2987, "\u0120Ecole": 2988, "\u0120FP": 2989, "given": 2990, "\u0120slumber": 2991, "sic": 2992, "\u0120m\u00c4\u0123y\u00c4\u0123": 2993, "390": 2994, "Spider": 2995, "\u0120patronymic": 2996, "\u0120Notebook": 2997, "\u0120astonishment": 2998, "WAY": 2999, "\u0120immigrate": 3000, "Malcolm": 3001, "\u0120Nash": 3002, "oblastoma": 3003, "Evolution": 3004, "induced": 3005, "\u00e1\u00b8\u00a4ad\u00c4\u00abth": 3006, "\u0120Manitoba": 3007, "\u0120outbreak": 3008, "\u0120coughs": 3009, "\u0120analytical": 3010, "\u0120ape": 3011, "\u0120Tak": 3012, "\u0120decisions": 3013, "\u0120shards": 3014, "\u0120twigs": 3015, "\u0120FIN": 3016, "\u0120noticed": 3017, "\u0120shrapnel": 3018, "\u0120Pola": 3019, "\u0120PSP": 3020, "\u0120boating": 3021, "\u0120Photography": 3022, "\u0120Joshua": 3023, "\u0120cybernetics": 3024, "\u0120shadows": 3025, "\u00ce\u00ae": 3026, "\u0120bald": 3027, "\u0120emphasized": 3028, "\u0120alga": 3029, "\u0120285": 3030, "\u0120beleaguered": 3031, "sensitive": 3032, "\u0120plantings": 3033, "\u0120deadline": 3034, "\u0120\u00c2\u00b0": 3035, "\u0120Ovary": 3036, "\u0120Doyle": 3037, "LI": 3038, "\u0120keystone": 3039, "Young": 3040, "\u0120Clu": 3041, "Recommendations": 3042, "Ruth": 3043, "\u0120locking": 3044, "breath": 3045, "\u0120deeds": 3046, "\u0120predominance": 3047, "\u0120improvement": 3048, "wild": 3049, "\u0120inject": 3050, "\u0120DY": 3051, "\u0120Opposite": 3052, "\u0120coelacanth": 3053, "\u0120Enoch": 3054, "\u0120Regular": 3055, "\u0120generalize": 3056, "\u0120healthy": 3057, "\u0120Lamprologus": 3058, "endian": 3059, "\u0120Rupert": 3060, "\u0120Energy": 3061, "f": 3062, "\u0120evaluates": 3063, "\u0120noticeably": 3064, "\u0120fangs": 3065, "\u0120polyunsaturated": 3066, "\u0120induced": 3067, "\u0120Adolf": 3068, "\u0120grocery": 3069, "\u0120dump": 3070, "\u0120Vegetarian": 3071, "\u0120shadow": 3072, "\u0120Vec": 3073, "\u0120Deliver": 3074, "\u0120Rebels": 3075, "Names": 3076, "\u0120Principal": 3077, "\u0120tonight": 3078, "\u0120mumps": 3079, "\u0120Opportunities": 3080, "\u0120Views": 3081, "\u0120agnostic": 3082, "INT": 3083, "\u0120practicing": 3084, "itol": 3085, "\u0120prefixes": 3086, "\u0120career": 3087, "\u0120Anglia": 3088, "\u0120unites": 3089, "\u0120Borlaug": 3090, "\u0120GOOS": 3091, "\u0120Curve": 3092, "().": 3093, "\u0120Worksheet": 3094, "\u0120sacred": 3095, "\u0120Corp": 3096, "\u0120Prakash": 3097, "Gy": 3098, "\u0120educating": 3099, "\u0120eff": 3100, "\u0120trimming": 3101, "\u0120depressions": 3102, "ograms": 3103, "\u0120interpreters": 3104, "Am": 3105, "\u0120Trayvon": 3106, "\u0120interrupting": 3107, "\u0120bathtub": 3108, "qvist": 3109, "Cook": 3110, "\u0120rheumatoid": 3111, "\u0120Elisha": 3112, "\u0120Pankhurst": 3113, "\u0120possessed": 3114, "\u01201877": 3115, "nad": 3116, "\u0120speaking": 3117, "\u0120jays": 3118, "\u0120dermato": 3119, "\u0120prose": 3120, "knife": 3121, "\u0120laminated": 3122, "\u0120blows": 3123, "\u0120horrifying": 3124, "645": 3125, "Tooth": 3126, "\u0120prophecies": 3127, "\u0120enclosed": 3128, "\u0120Bore": 3129, "\u0120appropriate": 3130, "\u0120further": 3131, "\u0120formulas": 3132, "\u0120domino": 3133, "\u0120Nebuchadnezzar": 3134, "\u0120trigger": 3135, "\u0120dramatic": 3136, "\u0120influencing": 3137, "\u0120Carolina": 3138, "\u0120discharged": 3139, "lles": 3140, "\u0120Extensive": 3141, "\u0120salty": 3142, "\u0120under": 3143, "logous": 3144, "\u0120gong": 3145, "\u0120Nucleus": 3146, "Network": 3147, "Growing": 3148, "Minute": 3149, "\u0120770": 3150, "\u0120opiate": 3151, "heading": 3152, "\u0120hysteria": 3153, "\u0120Somalia": 3154, "\u0120Guide": 3155, "\u0120primes": 3156, "\u0120fami": 3157, "\u0120husbandry": 3158, "\u0120ancillary": 3159, "\u0120immediate": 3160, "nearly": 3161, "bbc": 3162, "\u0120founding": 3163, "\u0120misunderstand": 3164, "\u0120Barcelona": 3165, "tik": 3166, "\u0120WGBH": 3167, "\u0120Matthias": 3168, "aling": 3169, "dried": 3170, "\u0120endosperm": 3171, "\u0120consultants": 3172, "\u0120support": 3173, "\u0120affixed": 3174, "pregnant": 3175, "\u0120universe": 3176, "\u0120Undoubtedly": 3177, "\u0120Duffy": 3178, "\u0120Grady": 3179, "\u0120Aware": 3180, "\u0120baritone": 3181, "\u0120dyskinesia": 3182, "\u0120oddly": 3183, "\u0120mixes": 3184, "thoracic": 3185, "\u0120confident": 3186, "\u0120infinitely": 3187, "Resources": 3188, "\u0120129": 3189, "grange": 3190, "Cigarette": 3191, "\u0120stressing": 3192, "\u0120ra": 3193, "\u0120Intolerance": 3194, "\u0120Commanding": 3195, "\u0120hazy": 3196, "want": 3197, "sistence": 3198, "\u0120sasl": 3199, "\u0120Bacon": 3200, "\u0120salvaging": 3201, "\u0120reconcile": 3202, "\u0120Quit": 3203, "IC": 3204, "ts": 3205, "\u0120tun": 3206, "\u0120Teller": 3207, "\u0120Pasha": 3208, "\u0120regenerating": 3209, "\u0120guilt": 3210, "\u0120Apalachee": 3211, "IP": 3212, "philia": 3213, "\u0120Settings": 3214, "\u0120perspective": 3215, "sounding": 3216, "\u0120Scholar": 3217, "Bra": 3218, "\u0120Digestive": 3219, "\u0120circum": 3220, "Nathan": 3221, "jen": 3222, "\u0120alternatively": 3223, "\u0120Silesia": 3224, "\u0120DOC": 3225, "\u0120Seniors": 3226, "\u0120PS": 3227, "\u0120behaviour": 3228, "\u0120Two": 3229, "genetics": 3230, "ward": 3231, "\u0120jatropha": 3232, "\u0120jewel": 3233, "tavirus": 3234, "\u0120inlet": 3235, "polymer": 3236, "\u0120symbols": 3237, "\u0120relapses": 3238, "\u0120Chesapeake": 3239, "assay": 3240, "keepers": 3241, "Uri": 3242, "\u0120weirs": 3243, "\u0120Principia": 3244, "\u00d0\u00b8\u00d1\u013d": 3245, "\u0120finer": 3246, "227": 3247, "\u0120sheet": 3248, "\u0120dispassionate": 3249, "\u0120reboot": 3250, "\u0120evaluation": 3251, "\u0120Diaries": 3252, "\u0120spins": 3253, "\u0120pain": 3254, "\u0120TPM": 3255, "\u0120IAALD": 3256, "\u0120Hasmonean": 3257, "\u0120menorah": 3258, "\u0120subscribe": 3259, "cum": 3260, "\u0120Mycobacterium": 3261, "junk": 3262, "\u0120coalesced": 3263, "\u0120galleries": 3264, "\u0120cap": 3265, "\u0120apse": 3266, "\u0120pores": 3267, "\u0120OBC": 3268, "\u0120Hendricks": 3269, "\u0120polls": 3270, "Rock": 3271, "\u0120Factbook": 3272, "\u01201643": 3273, "\u0120Consuls": 3274, "\u0120Arcadia": 3275, "\u0120imposition": 3276, "\u0120maintenance": 3277, "\u0120dressed": 3278, "\u0120Cut": 3279, "\u0120routed": 3280, "itudinal": 3281, "\u0120nobleman": 3282, "\u0120misconstrued": 3283, "\u00c3\u00a4ufer": 3284, "\u0120Amin": 3285, "\u0120Chad": 3286, "\u0120Center": 3287, "spherical": 3288, "\u0120succeeds": 3289, "\u0120melanoma": 3290, "/)": 3291, "\u0120differentials": 3292, "\u0120Flavor": 3293, "\u0120Tobacco": 3294, "\u0120serendipitous": 3295, "\u0120rehearse": 3296, "\u0120lighthouse": 3297, "\u0120Solomons": 3298, "\u0120Grover": 3299, "conditioned": 3300, "\u0120PRC": 3301, "\u0120therapeutic": 3302, "\u0120Toy": 3303, "\u0120alarmist": 3304, "Actions": 3305, "Mal": 3306, "EAM": 3307, "Congratulations": 3308, "\u0120raged": 3309, "\u0120Alps": 3310, "dramatic": 3311, "\u0120CLIMATE": 3312, "cin": 3313, "\u0120stiff": 3314, "\u0120Shim": 3315, "\u0120Adriatic": 3316, "terpillar": 3317, "ack": 3318, "\u0120Emancipation": 3319, "\u0120overseas": 3320, "\u0120tourists": 3321, "\u0120Sheikh": 3322, "\u0120tout": 3323, "\u0120tornadoes": 3324, "\u0120vows": 3325, "\u0120Liberty": 3326, "\u0120Kana": 3327, "\u0120batches": 3328, "\u0120trifle": 3329, "\u0120tesseract": 3330, "\u0120shingle": 3331, "pone": 3332, "\u0120laterally": 3333, "\u0120Kate": 3334, "origin": 3335, "mou": 3336, "\u0120offshoot": 3337, "runner": 3338, "arum": 3339, "\u0120O": 3340, "\u0120SC": 3341, "\u0120thither": 3342, "\u0120Michele": 3343, "\u0120Donate": 3344, "\u0120moons": 3345, "\u0120SLE": 3346, "Strange": 3347, "\u0120Administer": 3348, "Jennifer": 3349, "\u0120proliferate": 3350, "\u0120mai": 3351, "\u0120Cru": 3352, "\u0120rake": 3353, "\u0120spatial": 3354, "composition": 3355, "\u0120electors": 3356, "Antarctic": 3357, "\u0120percentage": 3358, "\u0120G\u00c3\u00b3mez": 3359, "formed": 3360, "silon": 3361, "\u0120Lauderdale": 3362, "\u0120helpless": 3363, "\u0120catastrophe": 3364, "\u0120murky": 3365, "Pap": 3366, "septic": 3367, "\u0120warmth": 3368, "\u0120Pickering": 3369, "Himalayan": 3370, "\u0120Kellogg": 3371, "\u0120jazz": 3372, "Traditionally": 3373, "\u0120sentences": 3374, "\u0120doctrines": 3375, "\u0120stern": 3376, "\u0120ranking": 3377, "volt": 3378, "\u0120imperative": 3379, "\u0120Allegro": 3380, "gear": 3381, "\u0120propelling": 3382, "\u0120Helene": 3383, "\u0120Croatia": 3384, "\u01201606": 3385, "\u0120galaxy": 3386, "\u0120Io": 3387, "\u0120diminished": 3388, "\u0120Mic": 3389, "suspected": 3390, "\u0120infantry": 3391, "\u0120infringe": 3392, "\u0120predestination": 3393, "administered": 3394, "\u0120man\u00e1\u00b9\u0143ra": 3395, "\u0120Keynes": 3396, "\u0120Disabilities": 3397, "\u0120ploy": 3398, "Dust": 3399, "\u0120Classic": 3400, "extensive": 3401, "\u0120ramp": 3402, "\u0120Dam": 3403, "!!": 3404, "\u0120lepidopter": 3405, "\u0120proximal": 3406, "\u0120treasured": 3407, "\u0120group": 3408, "\u0120Vo": 3409, "\u0120Gloucester": 3410, "\u0120Fitness": 3411, "\u0120hearts": 3412, "\u0120Charlie": 3413, "\u0120Chocolate": 3414, "\u0120indomitable": 3415, "\u0120entrenched": 3416, "\u0120Mollusca": 3417, "\u0120tyrann": 3418, "\u0120customer": 3419, "\u0120connexion": 3420, "\u0120morbidity": 3421, "\u0120Formal": 3422, "oku": 3423, "\u0120ty": 3424, "\u0120AMBER": 3425, "\u0120centigrade": 3426, "\u0120voice": 3427, "\u0120Fest": 3428, ")": 3429, "\u0120theme": 3430, "\u0120naturalized": 3431, "\u0120accommodated": 3432, "\u0120tells": 3433, "\u0120obesity": 3434, "\u0120scroll": 3435, "iacylglycerol": 3436, "\u0120repeatable": 3437, "\u0120Kramer": 3438, "\u0120neutrons": 3439, "\u0120Supp": 3440, "\u0120school": 3441, "hofer": 3442, "\u0120Cond": 3443, "\u0120unwarranted": 3444, "Setting": 3445, "\u0120Festivals": 3446, "\u0120Mam": 3447, "\u0120Designated": 3448, "\u0120roe": 3449, "\u0120Lisbon": 3450, "\u0120penitent": 3451, "ively": 3452, "\u0120calculated": 3453, "\u0120endeavors": 3454, "\u0120distributing": 3455, "\u0120PSYCHOLOGY": 3456, "eu": 3457, "\u0120reversals": 3458, "engineer": 3459, "\u0120mon": 3460, "\u0120w": 3461, "\u0120NWS": 3462, "\u0120eco": 3463, "\u0120Chewing": 3464, "ik": 3465, "hd": 3466, "\u0120forest": 3467, "\u01201621": 3468, "eux": 3469, "tice": 3470, "\u0120cata": 3471, "\u0120microfluidic": 3472, "\u0120platform": 3473, "ansky": 3474, "\u0120novelists": 3475, "\u0120members": 3476, "\u0120Syrian": 3477, "Gun": 3478, "\u0120oppressors": 3479, "rata": 3480, "\u0120lobe": 3481, "minutes": 3482, "45": 3483, "FAR": 3484, "\u0120Cristo": 3485, "\u0120upgrades": 3486, "\u0120Jaguar": 3487, "\u0120lifts": 3488, "\u0120gland": 3489, "\u0120pursue": 3490, "\u0120catfish": 3491, "\u0120monads": 3492, "\u0120neuralgia": 3493, "\u0120esteem": 3494, "\u0120nude": 3495, "Persian": 3496, "\u0120removal": 3497, "\u0120Series": 3498, "\u0120lord": 3499, "\u0120Poverty": 3500, "\u0120Analyzing": 3501, "\u0120crows": 3502, "lifting": 3503, "\u0120evangelist": 3504, "\u0120chronic": 3505, "\u0120skipped": 3506, "shared": 3507, "ge": 3508, "\u0120Encryption": 3509, "\u0120interconnect": 3510, "\u0120belligerent": 3511, "\u0120exerted": 3512, "\u0120currently": 3513, "Pla": 3514, "forest": 3515, "\u0120advertisers": 3516, "\u0120tuning": 3517, "cushion": 3518, "nom": 3519, "\u0120Ar": 3520, "\u0120transitional": 3521, "\u0120Shortly": 3522, "\u0120finds": 3523, "\u0120Portfolio": 3524, "\u0120Cel": 3525, "\u0120Seligman": 3526, "\u0120Ethno": 3527, "\u0120Interestingly": 3528, "\u0120intellectually": 3529, "\u0120manipulation": 3530, "\u0120pregnancies": 3531, "\u0120vases": 3532, "lv": 3533, "Losing": 3534, "\u0120basil": 3535, "\u0120Arroyo": 3536, "\u0120numbness": 3537, "\u0120Schenectady": 3538, "\u0120according": 3539, "\u0120AIR": 3540, "\u0120railroad": 3541, "\u0120affects": 3542, "\u0120Kou": 3543, "\u0120relationships": 3544, "john": 3545, "\u0120Swift": 3546, "\u0120Profiles": 3547, "NDS": 3548, "\u0120jars": 3549, "\u0120triple": 3550, "Virtual": 3551, "\u0120Recur": 3552, "CSS": 3553, "\u0120cheerful": 3554, "\u0120lantern": 3555, "\u0120solubility": 3556, "\u0120Oxfordshire": 3557, "\u0120nominated": 3558, "\u0120perforation": 3559, "\u0120sail": 3560, "\u0120binocular": 3561, "\u0120stacked": 3562, "\u0120importantly": 3563, "\u0120Broadcasting": 3564, "\u0120Belgium": 3565, "\u0120sailing": 3566, "similar": 3567, "\u0120pollutants": 3568, "\u0120graphic": 3569, "\u0120unorthodox": 3570, "\u0120vagina": 3571, "bows": 3572, "296": 3573, "\u0120Eratosthenes": 3574, "\u0120collects": 3575, "\u0120pedestrians": 3576, "_|_": 3577, "\u0120meager": 3578, "\u0120dimension": 3579, "\u0120therefore": 3580, "\u0120Clem": 3581, "\u0120mystic": 3582, "\u0120Team": 3583, "iliary": 3584, "\u0120Illustrations": 3585, "\u0120Transitional": 3586, "\u0120critiquing": 3587, "\u0120marmo": 3588, "MW": 3589, "OSS": 3590, "\u0120reaching": 3591, "ilis": 3592, "\u0120astrocytoma": 3593, "llo": 3594, "\u0120stark": 3595, "tropic": 3596, "149": 3597, "\u0120Cline": 3598, "\u0120prefix": 3599, "\u0120boson": 3600, "\u0120Being": 3601, "\u0120Antiquities": 3602, "\u0120disorder": 3603, "\u0120Hutton": 3604, "opoiesis": 3605, "\u0120spraying": 3606, "\u0120leverage": 3607, "\u0120vile": 3608, "\u0120debacle": 3609, "\u0120Reh": 3610, "\u0120Gluten": 3611, "\u0120Trip": 3612, "\u0120propellers": 3613, "\u0120the": 3614, "bies": 3615, "\u0120perpetuate": 3616, "areas": 3617, "\u0120ef": 3618, "silicon": 3619, "PORT": 3620, "\u0120Beautiful": 3621, "\u0120observed": 3622, "Controversial": 3623, "\u0120wallabies": 3624, "certainly": 3625, "\u0120ERP": 3626, "\u0120assorted": 3627, "\u0120marriage": 3628, "\u0120interfere": 3629, "\u0120Against": 3630, "fruits": 3631, "\u0120Woman": 3632, "\u0120elevating": 3633, "\u0120leaked": 3634, "\u0120threatens": 3635, "\u0120Hiram": 3636, "\u0120Fusion": 3637, "\u0120doorway": 3638, "\u0120depredation": 3639, "erting": 3640, "\u0120methicillin": 3641, "\u0120sentencing": 3642, "\u0120Kea": 3643, "\u0120awakening": 3644, "\u0120recites": 3645, "\u0120refrigerators": 3646, "western": 3647, "\u0120arbit": 3648, "\u0120sucker": 3649, "denominational": 3650, "\u0120trehalose": 3651, "\u0120warrior": 3652, "\u0120gentlemen": 3653, "\u0120Elephant": 3654, "ylene": 3655, "\u0120Quixote": 3656, "\u0120departments": 3657, "\u0120normal": 3658, "\u0120Historic": 3659, "\u0120seamen": 3660, "\u01201858": 3661, "\u0120Des": 3662, "Mediterranean": 3663, "ature": 3664, "\u0120Completion": 3665, "\u0120Druids": 3666, "hey": 3667, "\u0120militias": 3668, "%);": 3669, "\u0120Ferry": 3670, "\u0120INTERNATIONAL": 3671, "Organization": 3672, "\u0120Have": 3673, "\u0120Abroad": 3674, "\u0120various": 3675, "\u0120ceratopsian": 3676, "\u0120savage": 3677, "\u0120hundred": 3678, "ican": 3679, "\u0120Capital": 3680, "\u0120SOAP": 3681, "\u0120requires": 3682, "\u0120brings": 3683, "\u0120Multi": 3684, "\u00e9\u013d\u00bb\u00e8\u00bb\u012c\u00e3\u0123\u00af\u00e3\u0123\u0124\u00e3\u0123\u00a8\u00e5\u012f\u0123\u00e5\u012a\u0128\u00e3\u0123\u00ab\u00e6\u013f\u00a5\u00e3\u0124\u012d\u00e3": 3685, "atologist": 3686, "\u0120paddle": 3687, "grader": 3688, "\u012049": 3689, "\u0120clutter": 3690, "studies": 3691, "\u0120Fla": 3692, "\u0120misc": 3693, "Historian": 3694, "\u0120GUI": 3695, "ensible": 3696, "bean": 3697, "\u0120doesnt": 3698, "\u0120Neural": 3699, "cian": 3700, "\u0120teamwork": 3701, "spy": 3702, "\u0120seek": 3703, "\u0120inhibitory": 3704, "\u0120Carmen": 3705, "\u0120qualification": 3706, "\u0120row": 3707, "\u0120maritime": 3708, "\u0120civilisations": 3709, "Bay": 3710, "Lat": 3711, "164": 3712, "\u0120Thesis": 3713, "%||": 3714, "\u0120beaut": 3715, "\u0120cinematic": 3716, "\u0120pall": 3717, "\u0120amalgamation": 3718, "\u0120wanders": 3719, "rism": 3720, "\u0120Bajo": 3721, "\u0120severity": 3722, "\u0120pierce": 3723, "\u0120whispered": 3724, "rights": 3725, "arna": 3726, "\u0120forgot": 3727, "\u0120LK": 3728, "mineral": 3729, "fever": 3730, "pores": 3731, "\u01201300": 3732, "\u0120branch": 3733, "Revelation": 3734, "\u0120Tumor": 3735, "\u0120NSF": 3736, "GO": 3737, "\u0120Account": 3738, "\u0120Despite": 3739, "\u0120Acids": 3740, "\u0120Osprey": 3741, "\u0120Edition": 3742, "\u0120INTRODUCTION": 3743, "\u0120Bru": 3744, "\u0120baptisms": 3745, "\u0120base": 3746, "\u0120ju": 3747, "\u0120tithes": 3748, "\u0120actors": 3749, "\u0120knows": 3750, "\u0120visitor": 3751, "\u0120pagoda": 3752, "\u0120Dum": 3753, "\u00c3\u00b0": 3754, "\u0120Monica": 3755, "\u0120enthusiastically": 3756, "\":": 3757, "\u0120rubs": 3758, "\u0120plantation": 3759, "\u0120impurities": 3760, "\u0120Wal": 3761, "\u0120aquaponics": 3762, "Typical": 3763, "coal": 3764, "\u0120hospitals": 3765, "\u0120Newman": 3766, "gra": 3767, "\u0120Perception": 3768, "\u0120dat": 3769, "\u0120patron": 3770, "Wy": 3771, "\u0120Risk": 3772, "\u0120Staying": 3773, "\u0120Ag": 3774, "Fair": 3775, "\u0120nonsensical": 3776, "\u0120bloodshed": 3777, "Keeping": 3778, "\u0120retinal": 3779, "\u0120glassy": 3780, "\u0120saith": 3781, "Creativity": 3782, "\u0120decides": 3783, "\u0120Syria": 3784, "\u0120indent": 3785, "\u0120inquire": 3786, "\u0120margins": 3787, "\u0120..": 3788, "\u0120Brandon": 3789, "\u0120recreation": 3790, "\u0120Ware": 3791, "\u0120Saviour": 3792, "\u0120undercooked": 3793, "\u0120Sparta": 3794, "\u0120\u00d7\u013b": 3795, "Ent": 3796, "\u0120weeping": 3797, "\u0120fist": 3798, "pm": 3799, "\u0120unobtrusive": 3800, "\u0120Promising": 3801, "\u0120skills": 3802, "Experimental": 3803, "\u0120stronger": 3804, "\u0120Netherland": 3805, "cini": 3806, "\u0120sauropod": 3807, "\u0120pictures": 3808, "scientist": 3809, "\u0120spaceflight": 3810, "\u0120ASTM": 3811, "\u0120patient": 3812, "\u0120perianth": 3813, "260": 3814, "King": 3815, "nya": 3816, "extremely": 3817, "valence": 3818, "\u0120Vulgate": 3819, "\u0120Phillips": 3820, "\u0120equating": 3821, "\u0120Treasury": 3822, "\u0120Equipment": 3823, "\u0120fuel": 3824, "\u0120ESI": 3825, "\u0120Pratt": 3826, "\u00cb\u012e": 3827, "\u0120benediction": 3828, "\u0120Exact": 3829, "\u0120pens": 3830, "\u0120domes": 3831, "\u0120Fiske": 3832, "\u0120Zam": 3833, "\u0120Colonization": 3834, "\u0120developing": 3835, "\u0120incidences": 3836, "\u0120Bast": 3837, "\u0120courtyard": 3838, "\u0120Romans": 3839, "\u01201862": 3840, "\u0120pacifist": 3841, "\u0120Cocoa": 3842, "\u0120bob": 3843, "for": 3844, "frames": 3845, "\u0120moon": 3846, "\u0120Hell": 3847, "\u0120dual": 3848, "\u0120Faulkner": 3849, "\u0120WA": 3850, "\u0120Rhodes": 3851, "\u0120slurry": 3852, "\u0120Immunol": 3853, "\u0120Barbie": 3854, "iatrist": 3855, "nants": 3856, "\u0120uninhabited": 3857, "\u0120overall": 3858, "\u0120stoves": 3859, "\u0120Psychologist": 3860, "\u0120Halicarnassus": 3861, "sma": 3862, "\u0120cacophony": 3863, "\u0120figurines": 3864, "\u0120cilantro": 3865, "\u0120launcher": 3866, "mation": 3867, "\u0120crib": 3868, "\u0120decorations": 3869, "\u0120oftentimes": 3870, "\u0120Erlbaum": 3871, "\u0120ants": 3872, "\u0120Radius": 3873, "\u0120stews": 3874, "\u0120groundwater": 3875, "\u0120Before": 3876, "\u00e2\u0122\u00a6": 3877, "esi": 3878, "\u0120ISPs": 3879, "ENCE": 3880, "\u0120cake": 3881, "\u0120oxy": 3882, "\u0120production": 3883, "\u0120source": 3884, "gana": 3885, "\u0120headphones": 3886, "\u01201626": 3887, "eza": 3888, "igator": 3889, "\u0120fasteners": 3890, "\u0120harbored": 3891, "\u0120ties": 3892, "\u0120trails": 3893, "\u0120verisimilitude": 3894, "\u0120spellings": 3895, "\u0120Breathing": 3896, "center": 3897, "\u0120crochet": 3898, "\u0120devastated": 3899, "\u0120Willard": 3900, "\u0120dictates": 3901, "\u0120ACP": 3902, "Negro": 3903, "\u0120C\u00c3\u00a9": 3904, "\u0120revolutionaries": 3905, "Santa": 3906, "\u0120delayed": 3907, "\u0120pogroms": 3908, "\u0120entrances": 3909, "\u0120summarily": 3910, "\u0120Kiel": 3911, "\u0120miso": 3912, "\u0120Lut": 3913, "\u0120inter": 3914, "\u0120tethered": 3915, "Perfect": 3916, "\u0120fragility": 3917, "\u012097": 3918, "\u0120344": 3919, "\u0120LI": 3920, "\u0120hefty": 3921, "sun": 3922, "\u0120ingested": 3923, "402": 3924, "\u0120Frisbee": 3925, "\u0120cirrhosis": 3926, "\u0120Week": 3927, "\u0120reprehensible": 3928, "\u0120woodlands": 3929, "\u0120toll": 3930, "Functions": 3931, "\u0120prefer": 3932, "\u0120WW": 3933, "\u0120demon": 3934, "\u01201949": 3935, "\u0120resistance": 3936, "\u0120analgesia": 3937, "intra": 3938, "usia": 3939, "Stainless": 3940, "\u0120sleet": 3941, "\u0120She": 3942, "\u0120Sever": 3943, "\u0120recipients": 3944, "\u0120fixes": 3945, "\u0120Dol": 3946, "\u0120Geisler": 3947, "\u0120Taliban": 3948, "08": 3949, "Improving": 3950, "\u0120Peace": 3951, "qualified": 3952, "PONo": 3953, "\u0120ALA": 3954, "\u0120Meetings": 3955, "poverty": 3956, "\u0120referendum": 3957, "\u0120Jehoiakim": 3958, "\u0120Topeka": 3959, "ehler": 3960, "\u0120Directors": 3961, "\u0120button": 3962, "\u0120lined": 3963, "\u0120fifties": 3964, "\u0120sepals": 3965, "\u0120conquering": 3966, "\u0120Framingham": 3967, "\u0120thriving": 3968, "\u0120orchard": 3969, "Performance": 3970, "uen": 3971, "Against": 3972, "\u0120Parking": 3973, "601": 3974, "\u0120infants": 3975, "\u0120Mansion": 3976, "\u0120Heinz": 3977, "\u0120Descriptions": 3978, "\u0120Typically": 3979, "\u0120Rang": 3980, "al": 3981, "\u0120traverses": 3982, "\u0120thicken": 3983, "\u0120DN": 3984, "dging": 3985, "diver": 3986, "\u0120generating": 3987, "ess": 3988, "\u0120Sindarin": 3989, "\u0120parable": 3990, "\u0120berries": 3991, "Jordan": 3992, "\u0120retrospect": 3993, "\u0120Affects": 3994, "Malaria": 3995, "\u0120polish": 3996, "\u0120harass": 3997, "\u0120puppies": 3998, "culo": 3999, "\u0120supervision": 4000, "\u0120peach": 4001, "\u0120Heights": 4002, "\u0120chromat": 4003, "reducing": 4004, "\u0120dehydrated": 4005, "\u0120voluntary": 4006, "\u0120Mus\u00c3\u00a9e": 4007, "\u0120flossing": 4008, "\u0120Coffee": 4009, "ellus": 4010, "\u0120diabetics": 4011, "\u0120Kemp": 4012, "\u0120coloration": 4013, "\u0120approvals": 4014, "\u0120ACTH": 4015, "\u0120folklorist": 4016, "nw": 4017, "Apart": 4018, "\u0120multivitamin": 4019, "\u0120screech": 4020, "\u0120partake": 4021, "Im": 4022, "\u0120Informatics": 4023, "tag": 4024, "\u0120precepts": 4025, "\u0120getting": 4026, "\u0120Xerxes": 4027, "vehicle": 4028, "tland": 4029, "\u0120Basically": 4030, "\u0120immortal": 4031, "\u0120scans": 4032, "\u0120desolate": 4033, "\u0120Commun": 4034, "BACK": 4035, "\u0120Generator": 4036, "cles": 4037, "City": 4038, "\u0120Bukhara": 4039, "\u01201852": 4040, "\u0120practicum": 4041, "Terms": 4042, "zadeh": 4043, "\u0120increased": 4044, "\u0120Enabling": 4045, "244": 4046, "Christ": 4047, "wavelength": 4048, "\u0120PWM": 4049, "\u0120Killed": 4050, "cythemia": 4051, "\u0120r\u00c3\u00a9gime": 4052, "butyl": 4053, "\u0120micrometer": 4054, "\u0120jackals": 4055, "\u0120Titles": 4056, "\u0120Chap": 4057, "dominant": 4058, "\u0120Travel": 4059, "\u0120sinking": 4060, "\u0120Implement": 4061, "\u0120Musco": 4062, "\u0120Tau": 4063, "\u0120Anglicans": 4064, "Shab": 4065, "\u0120Rob": 4066, "\u0120really": 4067, "\u0120steps": 4068, "\u0120Deep": 4069, "\u0120equipment": 4070, "\u0120KOUDDOUS": 4071, "\u0120Navajo": 4072, "\u0120vaults": 4073, "303": 4074, "\u0120coyotes": 4075, "\u0120antibiotics": 4076, "\u0120Tong": 4077, "\u0120rewritten": 4078, "\u0120dragon": 4079, "phasic": 4080, "\u0120Union": 4081, "xt": 4082, "chus": 4083, "These": 4084, "\u0120pedagogic": 4085, "\u0120192": 4086, "\u0120exposure": 4087, "\u0120Saline": 4088, "\u0120Elderly": 4089, "\u0120competency": 4090, "\u0120divine": 4091, "\u0120biosphere": 4092, "\u0120polishing": 4093, "\u0120Price": 4094, "\u0120)": 4095, "\u0120trave": 4096, "\u0120Tanganyika": 4097, "\u0120against": 4098, "\u0120Nutrients": 4099, "\u0120Nichiren": 4100, "\u0120urinalysis": 4101, "\u0120scab": 4102, "\u0120evaporates": 4103, "\u0120claws": 4104, "\u0120business": 4105, "\u0120coriander": 4106, "mine": 4107, "\u0120vet": 4108, "\u0120Hosni": 4109, "Counsel": 4110, "\u0120veins": 4111, "\u0120zoological": 4112, "Par": 4113, "\u0120Diagnostic": 4114, "\u0120Obstet": 4115, "\u0120admit": 4116, "\u0120ended": 4117, "Peterson": 4118, "reports": 4119, "\u0120mighty": 4120, "\u0120fertilizers": 4121, "\u0120towed": 4122, "\u00bf": 4123, "rising": 4124, "\u0120repr": 4125, "\u0120circumscribed": 4126, "reliance": 4127, "\u0120Ker": 4128, "Pt": 4129, "\u0120trunca": 4130, "Later": 4131, "Heavy": 4132, "bloom": 4133, "\u0120Complete": 4134, "./": 4135, "\u0120analysed": 4136, "Glass": 4137, "Canadian": 4138, "\u0120Jigsaw": 4139, "\u0120fewest": 4140, "teria": 4141, "\u0120COMP": 4142, "\u0120Airways": 4143, "\u0120abrasive": 4144, "\u0120extraordinary": 4145, "schmidt": 4146, "\u0120M\u00c3\u00a9chain": 4147, "\u0120silage": 4148, "\u0120Configuration": 4149, "\u0120Suzanne": 4150, "York": 4151, "\u00c3\u00a2n": 4152, "\u0120lightly": 4153, "\u0120RAF": 4154, "\u0120low": 4155, "\u0120purview": 4156, "\u0120All": 4157, "rh": 4158, "pedo": 4159, "\u0120invades": 4160, "\u0120Probability": 4161, "\u01201761": 4162, "Macedonian": 4163, "\u0120Max": 4164, "\u0120spiral": 4165, "\u0120Recognize": 4166, "Script": 4167, "\u0120Tobias": 4168, "\u0120Based": 4169, "\u0120cultivator": 4170, "green": 4171, "\u0120etched": 4172, "->": 4173, "Beware": 4174, "Goldilocks": 4175, "Shop": 4176, "\u0120Illyricum": 4177, "\u0120greater": 4178, "\u0120elect": 4179, "\u0120comedian": 4180, "\u0120reformation": 4181, "\u0120overshadowed": 4182, "\u0120dependence": 4183, "oplast": 4184, "\u0120policosanol": 4185, "\u0120tame": 4186, "rying": 4187, "\u0120burner": 4188, "\u0120filmmakers": 4189, "\u0120slash": 4190, "tshaonline": 4191, "\u0120nourish": 4192, "Municipal": 4193, "MENTS": 4194, "\u0120amuse": 4195, "\u0120dens": 4196, "\u0120disappearance": 4197, "\u0120cDNA": 4198, "\u0120Flour": 4199, "gri": 4200, "Diff": 4201, "\u0120numerical": 4202, "\u0120toys": 4203, "clinic": 4204, "nas": 4205, "\u0120Tort": 4206, "\u0120Guardians": 4207, "\u0120diversions": 4208, "\u0120ataxia": 4209, "\u0120chronologically": 4210, "\u0120objectivity": 4211, "\u0120basketball": 4212, "beta": 4213, "Birkenau": 4214, "022": 4215, "\u01201739": 4216, "\u0120engrossed": 4217, "\u0120sometime": 4218, "\u0120permeability": 4219, "\u0120Friday": 4220, "\u0120young": 4221, "Featured": 4222, "\u0120diatonic": 4223, "\u0120lanterns": 4224, "||\u00e2\u0122\u0136||": 4225, "UL": 4226, "zol": 4227, "\u0120Marvel": 4228, "Cola": 4229, "operate": 4230, "\u0120retrieving": 4231, "\u0120parliamentary": 4232, "israel": 4233, "\u0120Smolensk": 4234, "\u0120oblong": 4235, "\u0120+": 4236, "\u0120replacing": 4237, "\u0120pleasures": 4238, "\u0120shepherds": 4239, "\u0120disparage": 4240, "040": 4241, "\u0120pri": 4242, "\u0120Limestone": 4243, "\u012077": 4244, "1995": 4245, "\u0120Turtles": 4246, "\u0120Bolden": 4247, "\u0120allergens": 4248, "\u0120husk": 4249, "\u0120reasons": 4250, "\u0120prism": 4251, "\u0120pups": 4252, "Recognizing": 4253, "form": 4254, "\u0120Arthro": 4255, "\u0120Approaches": 4256, "\u0120Wilder": 4257, "\u0120Liouville": 4258, "\u0120socket": 4259, "\u0120inland": 4260, "brooke": 4261, "feel": 4262, "\u0120cli": 4263, "Grey": 4264, "\u0120extinguished": 4265, "\u0120blatant": 4266, "\u0120speculators": 4267, "\u0120attackers": 4268, "\u0120Cretaceous": 4269, "\u0120Tchaikovsky": 4270, "\u0120Amsterdam": 4271, "\u0120Strict": 4272, "\u0120etym": 4273, "urb": 4274, "ounce": 4275, "\u0120undertake": 4276, "\u0120cosmological": 4277, "\u0120Relations": 4278, "\u0120Roscoe": 4279, "\u0120inhibits": 4280, "!!!": 4281, "dee": 4282, "\u0120biblical": 4283, "\u0120CER": 4284, "\u0120flavus": 4285, "deb": 4286, "\u0120Vish\u00e1\u00b9\u0129u": 4287, "\u0120Southeast": 4288, "\u0120NAME": 4289, "Newton": 4290, "\u0120Yates": 4291, "\u0120endorsements": 4292, "\u0120Confederates": 4293, "\u0120geochemical": 4294, "Antonyms": 4295, "Reform": 4296, "posing": 4297, "\u0120tossing": 4298, "iguous": 4299, "\u0120Celts": 4300, "\u0120carapace": 4301, "\u0120almost": 4302, "\u0120Vos": 4303, "\u0120idealism": 4304, "\u0120Biomass": 4305, "\u0120Macon": 4306, "erre": 4307, "\u0120restitution": 4308, "xia": 4309, "\u0120composted": 4310, "chr": 4311, "Email": 4312, "\u0120Computer": 4313, "\u0120overseeing": 4314, "\u0120casino": 4315, "\u0120polypropylene": 4316, "\u0120147": 4317, "\u0120accord": 4318, "Sep": 4319, "\u0120investigating": 4320, "\u0120algae": 4321, "\u0120security": 4322, "evaluated": 4323, "\u0120alarming": 4324, "Chocolate": 4325, "\u0120KO": 4326, "\u0120Rodri": 4327, "allowed": 4328, "cient": 4329, "\u0120obliquity": 4330, "\u0120rust": 4331, "\u0120rudimentary": 4332, "\u0120Turing": 4333, "\u0120bribes": 4334, "\u0120Falling": 4335, "\u0120HbA": 4336, "pull": 4337, "inator": 4338, "\u0120circus": 4339, "plicating": 4340, "Johns": 4341, "\u0120boosts": 4342, "\u0120ere": 4343, "\u01201519": 4344, "\u0120bul": 4345, "kur": 4346, "\u0120atrocious": 4347, "\u0120Jul": 4348, "\u0120guess": 4349, "christ": 4350, "\u0120Bradshaw": 4351, "\u0120\u00d0\u0132": 4352, "\u0120gauging": 4353, "iks": 4354, "\u0120axiom": 4355, "\u0120Rhinoceros": 4356, "\u0120counterparts": 4357, "\u0120Hispanic": 4358, "Responding": 4359, "\u0120Oxide": 4360, "\u0120Storms": 4361, "\u0120anthropological": 4362, "\u0120casualty": 4363, "\u0120HERE": 4364, "tailed": 4365, "invest": 4366, "\u0120passenger": 4367, "\u0120controllable": 4368, "\u0120glaci": 4369, "\u0120enhancer": 4370, "\"\u00e2\u0122\u0136": 4371, "\u012023": 4372, "\u0120instinctively": 4373, "Gas": 4374, "Corona": 4375, "\u0120different": 4376, "\u0120abstain": 4377, "Priest": 4378, "CoV": 4379, "serial": 4380, "temp": 4381, "\u0120K\u00c3\u00b6nig": 4382, "\u0120Sodom": 4383, "Indi": 4384, "Articles": 4385, "\u0120feeder": 4386, "\u0120Satie": 4387, "either": 4388, "\u0120Pagan": 4389, "\u0120Revelation": 4390, "geography": 4391, "\u0120concurrently": 4392, "industry": 4393, "\u0120Frequent": 4394, "\u0120appealed": 4395, "\u0120penchant": 4396, "\u0120quinoa": 4397, "\u0120dehydrogenase": 4398, "\u0120maker": 4399, "\u0120homeo": 4400, "\u0120personification": 4401, "\u0120CBD": 4402, "PET": 4403, "\u0120Nitrogen": 4404, "winter": 4405, "\u0120borrows": 4406, "\u0120ear": 4407, "Bo\u00c4\u0141azk\u00c3\u00b6y": 4408, "\u0120Brahman": 4409, "\u0120premium": 4410, "\u0120southwest": 4411, "Obviously": 4412, "288": 4413, "\u0120Canon": 4414, "\u0120spikes": 4415, "ety": 4416, "\u0120constellation": 4417, "\u0120propagation": 4418, "\u0120immigrant": 4419, "\u0120chunks": 4420, "Images": 4421, "\u0120Respons": 4422, "\u0120observe": 4423, "PRE": 4424, "\u0120Fitz": 4425, "\u0120intervened": 4426, "740": 4427, "\u0120aspiring": 4428, "\u0120turn": 4429, "tter": 4430, "Declaration": 4431, "\u0120\u00e2\u0122\u0142": 4432, "Currency": 4433, "\u0120Specifications": 4434, "\u0120commits": 4435, "\u0120anatomy": 4436, "hua": 4437, "\u0120digitization": 4438, "fluid": 4439, "\u0120thistles": 4440, "Bat": 4441, "\u0120News": 4442, "\u0120inspecting": 4443, "\u0120obligation": 4444, "\u0120Mit": 4445, "\u0120Announc": 4446, "\u0120P": 4447, "\u0120310": 4448, "\u0120bright": 4449, "Documents": 4450, "\u0120Re": 4451, "\u0120petitioned": 4452, "\u0120fissures": 4453, "\u0120vitro": 4454, "\u0120wrists": 4455, "\u0120Willett": 4456, "onomists": 4457, "\u0120hauled": 4458, "\u0120Maryland": 4459, "\u0120Malta": 4460, "bek": 4461, "\u0120Globally": 4462, "\u0120Score": 4463, "\u0120decreases": 4464, "\u0120sons": 4465, "\u0120lumin": 4466, "\u0120Reflection": 4467, "surrection": 4468, "\u012085": 4469, "\u0120aloft": 4470, "\u0120opportunistic": 4471, "\u0120tin": 4472, "\u0120resourceful": 4473, "\u0120radically": 4474, "chosen": 4475, "FSA": 4476, "\u0120stateless": 4477, "\u0120reflectors": 4478, "apparently": 4479, "\u0120cathedrals": 4480, "jima": 4481, "\u0120hostages": 4482, "\u0120badges": 4483, "mentioned": 4484, "\u0120Alive": 4485, "kon": 4486, "\u0120Council": 4487, "\u0120431": 4488, "Bis": 4489, "\u0120circulatory": 4490, "\u0120swab": 4491, "\u0120Mechanics": 4492, "\u0120culture": 4493, "atory": 4494, "\u0120Kad": 4495, "\u0120conduction": 4496, "\u0120Kindergarten": 4497, "\u0120ladies": 4498, "\u0120J\u00c3\u00b1\u00c4\u0123na": 4499, "\u0120withdrawals": 4500, "\u0120Ride": 4501, "\u0120proximate": 4502, "pot": 4503, "worst": 4504, "agon": 4505, "\u0120Dwight": 4506, "\u0120Chaco": 4507, "\u0120alert": 4508, "sque": 4509, "\u0120Houghton": 4510, "George": 4511, "\u0120Karamojong": 4512, "\u0120pheasant": 4513, "\u0120greetings": 4514, "\u0120crustal": 4515, "\u0120lock": 4516, "\u0120SMPTE": 4517, "flowers": 4518, "dda": 4519, "139": 4520, "\u0120Sorbonne": 4521, "\u0120Crouzon": 4522, "\u0120Services": 4523, "\u0120Birch": 4524, "ved": 4525, "emy": 4526, "\u0120histori": 4527, "ctor": 4528, "\u0120Banking": 4529, "\u0120imprison": 4530, "combat": 4531, "\u0120tang": 4532, "380": 4533, "\u0120Menzies": 4534, "Rapid": 4535, "\u0120wettest": 4536, "\u0120name": 4537, "\u0120Walters": 4538, "\u0120peas": 4539, "\u0120Russ": 4540, "tooth": 4541, "\u0120clearly": 4542, "Peace": 4543, "concept": 4544, "sa": 4545, "\u0120Centenary": 4546, "\u0120suffering": 4547, "\u0120encoder": 4548, "\u0120Cricket": 4549, "\u0120SEIFA": 4550, "\u0120Uri": 4551, "\u0120Programming": 4552, "\u0120Magistrate": 4553, "\u0120emphasise": 4554, "\u0120modulating": 4555, "\u0120hallmark": 4556, "\u0120Are": 4557, "\u0120parted": 4558, "\u0120Chen": 4559, "\u0120disparate": 4560, "\u0120discipline": 4561, "\u0120sur": 4562, "\u0120traced": 4563, "\u0120auditory": 4564, "\u0120minister": 4565, "\u0120Parthenon": 4566, "\u0120robbers": 4567, "\u0120Ubuntu": 4568, "ological": 4569, "\u0120Chiefs": 4570, "\u0120botnet": 4571, "cular": 4572, "\u0120fathers": 4573, "pressurization": 4574, "\u0120stip": 4575, "\u0120Hastinapura": 4576, "\u0120contemplation": 4577, "master": 4578, "\u0120Lippmann": 4579, "\u0120Authentic": 4580, "Duke": 4581, "\u0120Learners": 4582, "\u0120plummet": 4583, "fracking": 4584, "\u0120Wiktionary": 4585, "\u0120Biochemical": 4586, "PB": 4587, "\u0120headquartered": 4588, "stasis": 4589, "\u0120Ent": 4590, "\u0120incremental": 4591, "\u0120fluids": 4592, "\u0120liberated": 4593, "\u0120caloric": 4594, "\u0120microbial": 4595, "\u0120Nguyen": 4596, "\u0120Been": 4597, "Comparison": 4598, "\u0120sacramental": 4599, "\u0120commentary": 4600, "\u0120960": 4601, "\u0120serfdom": 4602, "\u0120captive": 4603, "\u0120dedication": 4604, "\u0120innovators": 4605, "\u0120confirmation": 4606, "orbit": 4607, "\u0120equivalent": 4608, "movement": 4609, "\u0120Eighteen": 4610, "\u0120morphine": 4611, "Stuart": 4612, "\u0120Private": 4613, ".)": 4614, "\u0120Prevention": 4615, "\u0120federation": 4616, "\u0120Publishing": 4617, "\u0120patriarch": 4618, "\u0120Chac": 4619, "spelling": 4620, "\u0120Ryzak": 4621, "1849": 4622, "thirds": 4623, "\u0120S\u00c3\u00b6rlin": 4624, "\u0120Sihanouk": 4625, "\u0120sovereign": 4626, "\u01202030": 4627, "\u0120Coventry": 4628, "\u0120Got": 4629, "\u0120Main": 4630, "\u0120Dall": 4631, "\u0120retrieve": 4632, "\u0120Marxists": 4633, "\u0120combs": 4634, "enn": 4635, "Recommend": 4636, "\u0120Horticultural": 4637, "\u0120opponents": 4638, "\u0120Chrys": 4639, "community": 4640, "went": 4641, "ebe": 4642, "humans": 4643, "lots": 4644, "lb": 4645, "\u0120accumulated": 4646, "\u0120outflank": 4647, "\u0120fat": 4648, "\u0120extracted": 4649, "\u0120folic": 4650, "\u0120Powerful": 4651, "\u0120razed": 4652, "\u0120VA": 4653, "\u0120appellation": 4654, "\u0120bulky": 4655, "\u0120tunneling": 4656, "\u0120Sen": 4657, "\u012064": 4658, "\u0120downwards": 4659, "\u0120Border": 4660, "\u0120projectiles": 4661, "Cl": 4662, "\u0120hydr": 4663, "Middle": 4664, "\u0120sativa": 4665, "Inventor": 4666, "\u0120join": 4667, "\u0120fixtures": 4668, "\u0120gaining": 4669, "\u0120Cala": 4670, "\u0120Table": 4671, "\u0120colder": 4672, "mounted": 4673, "'?": 4674, "clair": 4675, "ce": 4676, "zah": 4677, "\u0120automobiles": 4678, "\u0120analogies": 4679, "\u0120solve": 4680, "\u0120Sob": 4681, "\u0120Punch": 4682, "\u0120Let": 4683, "inventing": 4684, "\u0120EARTH": 4685, "\u0120auctions": 4686, "\u0120recruiting": 4687, "\u0120small": 4688, "\u0120Jersey": 4689, "\u0120Brittany": 4690, "1923": 4691, "\u0120true": 4692, "masculine": 4693, "ku": 4694, "\u0120Ju\u00c3\u00a1rez": 4695, "\u0120Carduus": 4696, "rl": 4697, "defun": 4698, "ws": 4699, "layer": 4700, "\u0120iris": 4701, "\u0120interstitial": 4702, "\u0120AGE": 4703, "\u0120physicians": 4704, "\u0120synoptic": 4705, "\u0120omnipotent": 4706, "\u0120MON": 4707, "vio": 4708, "\u0120lad": 4709, "\u00c5\u0141": 4710, "\u0120jiva": 4711, "\u0120Slovak": 4712, "Child": 4713, "\u0120geophysics": 4714, "\u0120Iv": 4715, "\u0120breastfeeding": 4716, "\u0120inhibiting": 4717, "\u0120cheap": 4718, "\u0120torrential": 4719, "\u012058": 4720, "\u0120knots": 4721, "habit": 4722, "\u0120Shm": 4723, "\u0120assurance": 4724, "\u0120Himalaya": 4725, "/).": 4726, "brief": 4727, "\u0120emphasises": 4728, "MIN": 4729, "\u0120Connemara": 4730, "\u0120Proton": 4731, "\u0120phallic": 4732, "Sum": 4733, "topics": 4734, "\u0120ophthalmologist": 4735, "\u0120Osceola": 4736, "\u0120Bryant": 4737, "\u0120Examples": 4738, "\u0120McKibben": 4739, "follow": 4740, "\u0120Bangladesh": 4741, "\u0120irrelevant": 4742, "\u0120searches": 4743, "\u0120burgdorferi": 4744, "\u0120foolish": 4745, "\u0120XXIII": 4746, "\u0120Pract": 4747, "Seed": 4748, "\u0120given": 4749, "\u0120Lancashire": 4750, "essing": 4751, "\u0120shakes": 4752, "national": 4753, "\u0120LIDAR": 4754, "\u0120AD": 4755, "\u0120Swamp": 4756, "\u0120accredited": 4757, "\u0120series": 4758, "\u0120Autonomous": 4759, "\u0120Geneva": 4760, "\u0120Congressional": 4761, "\u0120metaphor": 4762, "\u0120indulged": 4763, "\u0120Stocks": 4764, "\u0120godly": 4765, "\u0120clan": 4766, "putting": 4767, "\u0120HI": 4768, "ReadWriteThink": 4769, "\u0120McDowell": 4770, "\u0120scu": 4771, "sang": 4772, "\u0120ASC": 4773, "Avoiding": 4774, "\u0120Housatonic": 4775, "\u0120L\u00c3\u00a9": 4776, "Artists": 4777, "Edited": 4778, "\u0120Barbarossa": 4779, "smoke": 4780, "\u0120Susa": 4781, "\u0120indecisive": 4782, "\u0120GR": 4783, "Lawrence": 4784, "\u0120Fon": 4785, "Difficulty": 4786, "\u0120parting": 4787, "1975": 4788, "listed": 4789, "\u0120Kro": 4790, "\u0120Terry": 4791, "\u0120Centro": 4792, "\u0120UXO": 4793, "ianus": 4794, "\u0120SEN": 4795, "\u0120Drum": 4796, "\u0120orchestra": 4797, "\u0120snuff": 4798, "rest": 4799, "cove": 4800, "1922": 4801, "STEM": 4802, "\u0120dumped": 4803, "\u0120Sulawesi": 4804, "\u0120grading": 4805, "enza": 4806, "Chris": 4807, "\u0120950": 4808, "monitor": 4809, "\u0120fright": 4810, "\u0120Durban": 4811, "Medicine": 4812, "\u0120\u00d0\u00b2": 4813, "Save": 4814, "\u0120stressed": 4815, "write": 4816, "\u0120consider": 4817, "proving": 4818, "\u0120disobedient": 4819, "\u0120Literally": 4820, "\u0120Strategy": 4821, "\u0120legislature": 4822, "\u0120discontent": 4823, "tru": 4824, "\u0120horizons": 4825, "dys": 4826, "nesian": 4827, "alla": 4828, "\u0120replete": 4829, "\u0120Bark": 4830, "Davies": 4831, "Submitted": 4832, "\u0120irrigating": 4833, "\u0120Constitutional": 4834, "meat": 4835, "tists": 4836, "\u0120rich": 4837, "\u0120Imperialism": 4838, "\u0120generate": 4839, "\u0120flawed": 4840, "Jacques": 4841, "\u0120iguana": 4842, "ton": 4843, "\u0120Sabbath": 4844, "\u0120Mangalore": 4845, "\u0120wars": 4846, "\u0120mandates": 4847, "\u0120HSV": 4848, "\u0120XY": 4849, "\u0120blisters": 4850, "\u0120preserve": 4851, "\u0120smitten": 4852, "\u0120Centuries": 4853, "\u0120dip": 4854, "rises": 4855, "copies": 4856, "\u0120yoke": 4857, "\u0120rightful": 4858, "\u0120seigneur": 4859, "\u0120Party": 4860, "sten": 4861, "\u0120Aeron": 4862, "\u0120boulevard": 4863, "Inevitably": 4864, "\u0120homemade": 4865, "nesting": 4866, "gett": 4867, "\u0120Entrepreneurship": 4868, "\u0120Caledonia": 4869, "ito": 4870, "\u0120Bryn": 4871, "xus": 4872, "\u0120JU": 4873, "\u0120clickers": 4874, "\u0120withdrawal": 4875, "elson": 4876, "Drawing": 4877, "\u0120Kendall": 4878, "\"]": 4879, "biont": 4880, "\u0120lineup": 4881, "\u0120Maximilian": 4882, "\u0120bone": 4883, "\u0120steer": 4884, "\u0120pyramids": 4885, "\u012075": 4886, "\u0120Norte": 4887, "\u0120myriad": 4888, "\u0120myself": 4889, "hands": 4890, "\u0120Ming": 4891, "\u0120counted": 4892, "join": 4893, "ficient": 4894, "\u0120Somme": 4895, "agricultural": 4896, "\u0120Rainier": 4897, "1884": 4898, "\u0120modifications": 4899, "\u0120timid": 4900, "\u0120Melt": 4901, "\u0120glabrous": 4902, "income": 4903, "\u0120Dyer": 4904, "dos": 4905, "\u0120Superfund": 4906, "curriculum": 4907, "Calc": 4908, "\u0120agonizing": 4909, "\u0120Amid": 4910, "\u0120glossary": 4911, "\u0120driving": 4912, "\u0120slums": 4913, "\u0120Liberia": 4914, "__": 4915, "vy": 4916, "\u0120incorporation": 4917, "\u0120bent": 4918, "\u0120public": 4919, "\u0120Curculionidae": 4920, "\u0120Soccer": 4921, "lson": 4922, "\u0120imagine": 4923, "Reilly": 4924, "\u0120courses": 4925, "Anyone": 4926, "mint": 4927, "UNESCO": 4928, "\u0120marines": 4929, "\u0120Iberia": 4930, "\u0120MY": 4931, "\u0120intricately": 4932, "larger": 4933, "\u0120spike": 4934, "\u0120Aztec": 4935, "\u0120Overall": 4936, "\u0120regent": 4937, "\u0120ambivalence": 4938, "\u0120Exports": 4939, "\u0120Chinese": 4940, "MAX": 4941, "\u0120redirect": 4942, "\u0120involvement": 4943, "rays": 4944, "\u0120consummation": 4945, "taw": 4946, "\u0120Versus": 4947, "PART": 4948, "\u0120Stimul": 4949, "\u0120Nautilus": 4950, "\u0120finch": 4951, "CLA": 4952, "arty": 4953, "\u0120cuirass": 4954, "\u0120too": 4955, "\u0120Undergraduate": 4956, "\u0120stylish": 4957, "Results": 4958, "\u0120ku": 4959, "\u0120spurred": 4960, "\u0120unsanitary": 4961, "wheels": 4962, "\u0120centred": 4963, "\u0120coagulation": 4964, "ITY": 4965, "\u0120CME": 4966, "transit": 4967, "\u0120utterly": 4968, "\u0120cliff": 4969, "\u0120exp": 4970, "Mises": 4971, "\u0120Lateran": 4972, "STR": 4973, "explanation": 4974, "\u0120Beh": 4975, "manipul": 4976, "adrenocortic": 4977, "\u0120ensign": 4978, "\u01202040": 4979, "cic": 4980, "\u0120credit": 4981, "\u0120Sensor": 4982, "\u0120Antarctica": 4983, "\u0120reclaim": 4984, "\u0120shunt": 4985, "\u0120Gon": 4986, "\u0120regenerate": 4987, "\u0120Rou": 4988, "\u0120Spread": 4989, "\u0120worthy": 4990, "Illinois": 4991, "\u0120proving": 4992, "\u0120exaggerate": 4993, "\u0120emerald": 4994, "measuring": 4995, "\u0120biodiesel": 4996, "ifies": 4997, "\u0120HashMap": 4998, "\u0120irrevocable": 4999, "\u0120Lakshadweep": 5000, "\u0120govern": 5001, "plo": 5002, "\u0120spectrum": 5003, "\u0120Nikola": 5004, "\u0120endured": 5005, "eng": 5006, "\u0120yachts": 5007, "\u0120kW": 5008, "\u0120clings": 5009, "\u0120Ll": 5010, "erra": 5011, "\u0120delegation": 5012, "\u0120Taxonomic": 5013, "\u0120exile": 5014, "\u0120Coe": 5015, "\u0120seemingly": 5016, "ASD": 5017, "1972": 5018, "gamous": 5019, "\u0120machinery": 5020, "TABLE": 5021, "\u0120Writers": 5022, "\u0120lightness": 5023, "\u0120buttocks": 5024, "\u0120redesigned": 5025, "\u0120tight": 5026, "\u0120Ara": 5027, "\u0120remediate": 5028, "\u0120finals": 5029, "\u0120hopelessly": 5030, "\u0120Leopard": 5031, "\u0120Nutritional": 5032, "\u0120evolutionists": 5033, "\u0120Clemens": 5034, "IST": 5035, "\u0120basements": 5036, "Hit": 5037, "1869": 5038, "\u0120Basin": 5039, "\u0120mains": 5040, "\u0120Birnbaum": 5041, "\u0120Judiciary": 5042, "ilia": 5043, "\u0120Lev": 5044, "\u0120pistols": 5045, "\u0120Sumer": 5046, "\u0120recombination": 5047, "\"'": 5048, "\u0120Suetonius": 5049, "\u0120eccentric": 5050, "\u0120filmed": 5051, "\u0120often": 5052, "\u0120necklace": 5053, "\u0120Rashid": 5054, "\u0120trinity": 5055, "ffing": 5056, "\u0120shoreline": 5057, "\u0120Pearson": 5058, "\u0120Erythr": 5059, "\u01201985": 5060, "\u0120orderly": 5061, "\u0120surmised": 5062, "\u0120Lynxville": 5063, "\u0120intro": 5064, "\u0120Sclerosis": 5065, "sla": 5066, "Bei": 5067, "\u00e1\u00b9\u00ac": 5068, "\u0120Vulnerable": 5069, "\u0120wattage": 5070, "distribution": 5071, "\u0120Among": 5072, "\u0120neighbouring": 5073, "\u0120incubator": 5074, "whose": 5075, "ric": 5076, "ensions": 5077, "ounded": 5078, "\u0120wherein": 5079, "\u0120vegetarian": 5080, "releases": 5081, "during": 5082, "\u0120backbone": 5083, "\u0120historically": 5084, "sham": 5085, "\u0120ladybugs": 5086, "Cra": 5087, "\u0120burst": 5088, "\u0120Alley": 5089, "\u012016": 5090, "\u0120dyed": 5091, "future": 5092, "Thomson": 5093, "oted": 5094, "\u0120specialized": 5095, "\u0120ticking": 5096, "\u0120protozoa": 5097, "enh": 5098, "\u0120Lafayette": 5099, "\u0120\u00d0\u00bd\u00d0\u00b0": 5100, "\u012f": 5101, "\u0120implying": 5102, "Rules": 5103, "801": 5104, "ie": 5105, "\u0120apologies": 5106, "\u0120Digital": 5107, "\u0120druggist": 5108, "1920": 5109, "\u0120boar": 5110, "\u0120Lys": 5111, "\u0120Algiers": 5112, "\u0120singing": 5113, "\u0120Gauguin": 5114, "\u0120CITY": 5115, "\u0120martial": 5116, "\u0120Creationism": 5117, "\u0120manifold": 5118, "\u0120\u00e1\u00b8": 5119, "\u0120manifesting": 5120, "\u0120NHS": 5121, "\u0120GM": 5122, "\u0120admitting": 5123, "Je": 5124, "\u0120Magazine": 5125, "\u0120Grassi": 5126, "Impression": 5127, "\u0120Early": 5128, "\u0120142": 5129, "\u0120Nations": 5130, "Southeast": 5131, "\u0120botanists": 5132, "EF": 5133, "\u0120enigmatic": 5134, "\u0120creature": 5135, "\u0120Decepticon": 5136, "\u0120resonance": 5137, "\u0120retard": 5138, "RATION": 5139, "\u0120skyrocketing": 5140, "(": 5141, "\u0120Alva": 5142, "\u0120destroys": 5143, "\u0120Mercedes": 5144, "\u0120carnage": 5145, "\u0120ketoacidosis": 5146, "\u0120misdiagnosis": 5147, "\u0120strove": 5148, "102": 5149, "\u0120organismal": 5150, "628": 5151, "ignity": 5152, "\u0120Careers": 5153, "\u0120candles": 5154, "\u0120Swallow": 5155, "\u0120flakes": 5156, "\u0120Nino": 5157, "180": 5158, "\u0120Manasseh": 5159, "\u0120ber": 5160, "\u0120Rapids": 5161, "\u0120Hispaniola": 5162, "\u0120deterrent": 5163, "Cherokee": 5164, "\u0120massively": 5165, "\u0120Susanna": 5166, "\u0120Periodontal": 5167, "\u0120optimism": 5168, "\u0120altered": 5169, "ndez": 5170, "\u0120Poisoning": 5171, "\u0120circumference": 5172, "\u0120fumes": 5173, "\u0120flock": 5174, "\u0120Was": 5175, "\u0120Sean": 5176, "\u0120Hanford": 5177, "\u0120Pav": 5178, "Prolonged": 5179, "\u0120myocardial": 5180, "\u0120Diesel": 5181, "kett": 5182, "group": 5183, "\u0120avarice": 5184, "\u0120required": 5185, "\u0120Identifying": 5186, "\u0120marches": 5187, "\u0120*/": 5188, "\u0120Mara": 5189, "Treatments": 5190, "\u0120factorial": 5191, "\u0120amateur": 5192, "\u0120Analyst": 5193, "\u0120Catechism": 5194, "\u0120Departments": 5195, "\u0120steady": 5196, "\u0120datum": 5197, "mock": 5198, "\u0120acellular": 5199, "relative": 5200, "\u0120Milner": 5201, "\u0120graciously": 5202, "\u0120oversaw": 5203, "\u0120cusp": 5204, "\u0120Truth": 5205, "\u0120difficulty": 5206, "\u0120deci": 5207, "\u0120Sidon": 5208, "\u0120Br\u00c4\u0123h": 5209, "Cross": 5210, "\u0120RU": 5211, "\u0120latitudes": 5212, "\u0120Voluntary": 5213, "\u0120Lumpur": 5214, "\u0120mp": 5215, "Sk": 5216, "DNR": 5217, "\u0120prosecutions": 5218, "\u0120Mauritius": 5219, "\u0120Desk": 5220, "\u0120jasmine": 5221, "\u0120keyboards": 5222, "\u0120LCD": 5223, "French": 5224, "martyr": 5225, "\u0120Credits": 5226, "\u0120crocodiles": 5227, "\u0120tuber": 5228, "\u0120ammonia": 5229, "acting": 5230, "Other": 5231, "\u0120reviewed": 5232, "\u0120institutes": 5233, "\u0120168": 5234, "LED": 5235, "cle": 5236, "\u0120Dragons": 5237, "\u0120Hubert": 5238, "\u0120sincere": 5239, "surviv": 5240, "\u0120Sir": 5241, "\u0120Kala": 5242, "\u0120wine": 5243, "\u0120gubernatorial": 5244, "\u0120creations": 5245, "\u0120disfigurement": 5246, "\u0120learning": 5247, "ieve": 5248, "loe": 5249, "ulent": 5250, "\u0120paramilitary": 5251, "Courtesy": 5252, "\u0120Virus": 5253, "core": 5254, "\u0120burning": 5255, "\u0120bind": 5256, "\u0120clause": 5257, "\u0120Dream": 5258, "\u0120anaemia": 5259, "\u0120Etruscan": 5260, "eley": 5261, "\u0120velocity": 5262, "\u0120overtaken": 5263, "\u0120reporting": 5264, "422": 5265, "\u0120RE": 5266, "Lev": 5267, "ruder": 5268, "1818": 5269, "\u0120spousal": 5270, "\u0120Quincy": 5271, "\u0120BACK": 5272, "\u0120Alt": 5273, "\u0120African": 5274, "\u0120assert": 5275, "\u0120calori": 5276, "86": 5277, "\u0120Deco": 5278, "\u0120regular": 5279, "\u0120incommunicado": 5280, "\u0120proxy": 5281, "614": 5282, "omycin": 5283, "\u0120materialist": 5284, "\u0120Eco": 5285, "\u0120hy": 5286, "\u0120vibrations": 5287, "\u00e2\u0122\u0142": 5288, "\u0120latitude": 5289, "\u0120covering": 5290, "\u0120increasingly": 5291, "kra": 5292, "mates": 5293, "\u0120overtook": 5294, "\u0120oscilloscope": 5295, "rolling": 5296, "\u0120emphases": 5297, "\u0120Rouge": 5298, "\u0120Priory": 5299, "\u0120faster": 5300, "\u0120tricuspid": 5301, "\u0120secures": 5302, "\u0120Be": 5303, "\u0120nanomaterials": 5304, "\u0120impedes": 5305, "\u0120plums": 5306, "\u0120Type": 5307, "\u00e2\u0122\u013b\u00e2\u0122\u013f": 5308, "merged": 5309, "\u0120Sailors": 5310, "\u0120Grace": 5311, "\u0120Fundamental": 5312, "\u0120Plagiarism": 5313, "\u0120Tips": 5314, "\u0120transcripts": 5315, "\u0120Besides": 5316, "\u0120escaped": 5317, "281": 5318, "410": 5319, "153": 5320, "\u0120restraining": 5321, "\u0120Indochinese": 5322, "\u00ce": 5323, "hydroxyvitamin": 5324, "sized": 5325, "\u0120adopting": 5326, "Advanced": 5327, "\u00c4\u0122": 5328, "erton": 5329, "\u0120580": 5330, "\u0120NASA": 5331, "\u0120pomp": 5332, "\u0120rejects": 5333, "\u00e1\u00b8\u012fra": 5334, "\u0120node": 5335, "\u0120chakra": 5336, "\u0120Fiber": 5337, "\u0120critically": 5338, "\u0120gutter": 5339, "\u0120Aleppo": 5340, "\u0120duplicated": 5341, "\u0120Santos": 5342, "dontist": 5343, "\u0120amputation": 5344, "\u0120Hillary": 5345, "\u0120Sm": 5346, "numbered": 5347, "\u0120resonant": 5348, "\u0120vehemently": 5349, "Tu": 5350, "Letter": 5351, "\u0120Accomplish": 5352, "\u0120receptor": 5353, "\u0120peritoneal": 5354, "\u0120sav": 5355, "\u0120zoologist": 5356, "\u0120Brian": 5357, "\u0120unmatched": 5358, "eed": 5359, "\u0120giardia": 5360, "\u0120attendants": 5361, "\u0120Boo": 5362, "\u0120lessens": 5363, "\u0120Kathryn": 5364, "gur": 5365, "documented": 5366, "Pont": 5367, "\u0120corrode": 5368, "Ludwig": 5369, "Aryan": 5370, "Jellyfish": 5371, "\u0120reintroduced": 5372, "\u0120showed": 5373, "\u0120Concordia": 5374, "\u0120Myer": 5375, "cast": 5376, "\u0120fault": 5377, "\u0120outweighs": 5378, "\u0120expecting": 5379, "\u0120woe": 5380, "oxetine": 5381, "\u0120robustness": 5382, "\u0120ostrich": 5383, "shman": 5384, "Reporting": 5385, "\u0120furs": 5386, "Laboratory": 5387, "\u0120Neville": 5388, "\u0120Greenspan": 5389, "\u0120Lewiston": 5390, "\u0120terat": 5391, "\u0120Ellsworth": 5392, "\u0120rectangles": 5393, "\u0120Huerta": 5394, "Shin": 5395, "\u0120retweet": 5396, "\u00c5\u0124aw": 5397, "\u0120inflexible": 5398, "Rob": 5399, "\u0120Bosworth": 5400, "\u0120Features": 5401, "\u0120rotation": 5402, "\u0120Shelter": 5403, "\u0120attenuated": 5404, "\u0120access": 5405, "Cincinnati": 5406, "Faith": 5407, "\u0120microbi": 5408, "\u0120evocative": 5409, "@": 5410, "\u01201883": 5411, "\u0120silica": 5412, "\u0120gaseous": 5413, "image": 5414, "\u0120ancestry": 5415, "\u0120Wagon": 5416, "Fat": 5417, "\u0120conducting": 5418, "\u0120superconductors": 5419, "\u0120specializes": 5420, "\u0120eclipses": 5421, "\u0120Turnpike": 5422, "\u0120fooled": 5423, "\u0120yawn": 5424, "\u0120clockwise": 5425, "undo": 5426, "\u0120bh": 5427, "\u0120parades": 5428, "\u0120Himalayan": 5429, "\u0120nestled": 5430, "\u0120Salaam": 5431, "\u0120bamboo": 5432, "\u0120northwards": 5433, "\u0120pacing": 5434, "\u0120saline": 5435, "\u0120Zel": 5436, "\u0120methylmercury": 5437, "\u0120transferring": 5438, "\u0120Gone": 5439, "dawn": 5440, "\u0120fractional": 5441, "\u0120vulgaris": 5442, "\u0120Orpheus": 5443, "FAQ": 5444, "\u0120Specimens": 5445, "\u0120CPV": 5446, "\u0120pharmacists": 5447, "\u0120genetically": 5448, "\u0120steamship": 5449, "\u0120demonstrate": 5450, "\u0120adverb": 5451, "\u00e1\u00ba": 5452, "72": 5453, "\u0120extensively": 5454, "\u0120Tatar": 5455, "PF": 5456, "\u0120compatriots": 5457, "ues": 5458, "Att": 5459, "Wea": 5460, "fore": 5461, "\u0120homi": 5462, "\u0120Window": 5463, "\u0120subset": 5464, "\u0120attested": 5465, "\u0120Truly": 5466, "\u0120SSRI": 5467, "\u0120UTI": 5468, "\u0120Platinum": 5469, "\u0120binds": 5470, "\u0120Holocene": 5471, "atum": 5472, "elli": 5473, "\u0120Skeletal": 5474, "\u0120Jeffrey": 5475, "\u0120operand": 5476, "\u0120Harvest": 5477, "popular": 5478, "\u0120Producing": 5479, "\u0120home": 5480, "ror": 5481, "Critical": 5482, "\u0120porous": 5483, "\u0120Mackay": 5484, "idus": 5485, "\u0120plague": 5486, "1859": 5487, "\u0120magazine": 5488, "\u0120Leather": 5489, "FIG": 5490, "905": 5491, "\u0120Hydro": 5492, "\u0120chairs": 5493, "\u0120Circuit": 5494, "\u0120coercive": 5495, "\u0120Natl": 5496, "\u0120Maiden": 5497, "\u0120concentrator": 5498, "\u0120Arsenal": 5499, "ndering": 5500, "\u0120Perth": 5501, "\u0120firewalls": 5502, "\u0120Jeans": 5503, "\u0120110": 5504, "\u0120disappearances": 5505, "\u0120Bellerophon": 5506, "\u0120Seizures": 5507, "\u0120rearmament": 5508, "\u0120neatly": 5509, "Sus": 5510, "\u0120thence": 5511, "\u0120prestige": 5512, "\u0120Here": 5513, "Bol": 5514, "\u0120staffed": 5515, "tek": 5516, "\u0120overcoming": 5517, "Diagram": 5518, "Comet": 5519, "].\"": 5520, "\u0120Mich": 5521, "\u0120Care": 5522, "\u0120Ava": 5523, "\u00d7\u0140": 5524, "ono": 5525, "\u0120inconsequential": 5526, "\u0120McFarland": 5527, "\u0120delves": 5528, "\u00c3\u00a4t": 5529, "\u0120Toulouse": 5530, "\u0120geodesic": 5531, "\u0120tactile": 5532, "\u0120Ada": 5533, "\u0120fried": 5534, "\u0120Fruits": 5535, "\u0120soaked": 5536, "congruent": 5537, "\u0120Replace": 5538, "\u0120DMOs": 5539, "conazole": 5540, "\u0120Mithridates": 5541, "\u0120Feder": 5542, "\u0120excellence": 5543, "\u0120departed": 5544, "\u0120scary": 5545, "\u0120Knight": 5546, "\u0120mattered": 5547, "\u0120controversies": 5548, "\u0120Oswald": 5549, "\u0120crew": 5550, "\u0120VF": 5551, "\u0120uphold": 5552, "oceanic": 5553, "\u0120luminance": 5554, "\u0120views": 5555, "uz": 5556, "\u0120Scenes": 5557, "\u0120Isidore": 5558, "Complementary": 5559, "n\u00c4\u00ab": 5560, "all": 5561, "\u01201786": 5562, "Ras": 5563, "\u0120representative": 5564, "considered": 5565, "logique": 5566, "\u0120effusion": 5567, "\u0120Muddy": 5568, "\u0120nonexistent": 5569, "\u0120exemplified": 5570, "\u0120Holly": 5571, "\u0120malware": 5572, "\u0120outfit": 5573, "\u0120Praise": 5574, "bn": 5575, "\u0120Healthcare": 5576, "\u0120javelin": 5577, "\u0120Kevin": 5578, "\u0120van": 5579, "\u0120avas\u00e1\u00b9\u0143h\u00c4\u0123": 5580, "\u0120Deseret": 5581, "\u0120Bangalore": 5582, "\u0120Clay": 5583, "\u0120Platonic": 5584, "\u0120dwarfed": 5585, "hs": 5586, "\u0120Perspectives": 5587, "\u0120entourage": 5588, "\u0120notified": 5589, "Asked": 5590, "\u0120Forks": 5591, "efficient": 5592, "linolenic": 5593, "\u0120invasive": 5594, "\u0120Normans": 5595, "\u0120utilisation": 5596, "\u0120slippage": 5597, "\u0120enth": 5598, "winner": 5599, "\u0120Catalan": 5600, "\u0120Deva": 5601, "\u0120dormancy": 5602, "\u0120matrices": 5603, "\u0120chordal": 5604, "\u0120DISC": 5605, "IGHT": 5606, "\u0120Ponnambalam": 5607, "\u0120antitrust": 5608, "\u0120Pretoria": 5609, "\u0120owns": 5610, "\u0120wholly": 5611, "ART": 5612, "br\u00c3\u00bcck": 5613, "Sound": 5614, "\u0120drag": 5615, "\u01202016": 5616, "\u0120mackerel": 5617, "\u0120overthrowing": 5618, "\u0120Razumihin": 5619, "Inspired": 5620, "\u0120exfolia": 5621, "\u0120Aristotle": 5622, "\u0120Packard": 5623, "\u0120communications": 5624, "\u0120Loco": 5625, "\u0120Journey": 5626, "\u0120blessings": 5627, "\u0120sovereigns": 5628, "\u0120entered": 5629, "\u0120Xie": 5630, "\u0120Where": 5631, "\u0120compensating": 5632, "\u01201940": 5633, "itan": 5634, "\u0120Lund": 5635, "\u0120Gentle": 5636, "Nicholas": 5637, "piration": 5638, "\u0120Hector": 5639, "Fried": 5640, "\u0120taxis": 5641, "\u0120Yong": 5642, "\u0120undemocratic": 5643, "\u0120cabin": 5644, "\\'": 5645, "hov": 5646, "\u0120mammary": 5647, "\u0120organize": 5648, "\u0120asleep": 5649, "\u0120swarm": 5650, "\u0120counseling": 5651, "219": 5652, "\u0120almond": 5653, "vast": 5654, "\u0120Finish": 5655, "hill": 5656, "\u0120760": 5657, "dian": 5658, "fifths": 5659, "\u0120IIS": 5660, "\u01201908": 5661, "\u0120silly": 5662, "\u0120implication": 5663, "\u0120picked": 5664, "\u0120wade": 5665, "\u0120avoids": 5666, "\u0120Mog": 5667, "Nichol": 5668, "\u0120championed": 5669, "\u0120sited": 5670, "\u0120Darwin": 5671, "\u0120Guest": 5672, "\u0120Arn": 5673, "\u0120asked": 5674, "\u00d0\u00ba": 5675, "Angelo": 5676, "\u0120Mars": 5677, "\u0120ethical": 5678, "\u0120amalgam": 5679, "ACC": 5680, "\u0120assistive": 5681, "\u0120Apostle": 5682, "\u0120Thy": 5683, "\u0120familiarize": 5684, "orno": 5685, "oling": 5686, "Pos": 5687, "\u0120cognitively": 5688, "\u0120sent": 5689, "\u0120entertainment": 5690, "\u0120transcriptase": 5691, "poli": 5692, "\u0120cutter": 5693, "\u0120multilingual": 5694, "\u0120509": 5695, "\u0120anniversary": 5696, "rails": 5697, "\u0120appropriateness": 5698, "\u012070": 5699, "\u012089": 5700, "\u0120Tele": 5701, "\u0120assist": 5702, "\u0120lynx": 5703, "\u0120custodial": 5704, "\u0120Proponents": 5705, "\u0120Kohn": 5706, "\u0120desirable": 5707, "atia": 5708, "\u0120titer": 5709, "\u0120dishonesty": 5710, "\u0120Iraqi": 5711, "Additional": 5712, "\u0120sock": 5713, "\u0120wastes": 5714, "\u0120molded": 5715, "\u00c3\u00af": 5716, "\u0120Anabaptism": 5717, "\u0120helpers": 5718, "\u0120feelings": 5719, "\u0120leafy": 5720, "Verlag": 5721, "\u0120accompaniment": 5722, "\u0120hyp": 5723, "simultaneous": 5724, "Same": 5725, "\u0120enc": 5726, "rjuna": 5727, "\u0120manor": 5728, "254": 5729, "\u0120]\">": 5730, "447": 5731, "\u0120testis": 5732, "tropical": 5733, "\u0120glove": 5734, "\u0120discourage": 5735, "\u0120gray": 5736, "\u0120Qur": 5737, "\u0120Amen": 5738, "\u0120pancakes": 5739, "priced": 5740, "\u0120prioritize": 5741, "ab": 5742, "\u0120Princip": 5743, "dges": 5744, "\u0120axons": 5745, "\u0120dignitaries": 5746, "\u0120leveraged": 5747, "\u0120Nearby": 5748, "\u0120Courier": 5749, "\u0120Saturn": 5750, "\u0120Enterprises": 5751, "\u0120Tha": 5752, "\u0120dolphins": 5753, "\u0120ages": 5754, "Rational": 5755, "Swedish": 5756, "\u0120Consumers": 5757, "\u0120pumped": 5758, "Bear": 5759, "\u0120Sinhala": 5760, "\u0120scope": 5761, "\u0120motivating": 5762, "\u0120pure": 5763, "Th": 5764, "da": 5765, "implemented": 5766, "\u0120reckless": 5767, "\u0120Ying": 5768, "\u0120biomass": 5769, "\u0120phren": 5770, "\u0120pigmentation": 5771, "\u0120Krugman": 5772, "Latest": 5773, "tens": 5774, "\u0120tournaments": 5775, "lipped": 5776, "\u0120coliform": 5777, "\u0120positioned": 5778, "\u0120brass": 5779, "\u0120protocols": 5780, "placing": 5781, "Ongoing": 5782, "Wahhabi": 5783, "\u0120thalamus": 5784, "arial": 5785, "\u0120decentral": 5786, "\u0120Locus": 5787, "\u0120Gymnasium": 5788, "\u0120Group": 5789, "\u0120aberrations": 5790, "essence": 5791, "\u0120Ramirez": 5792, "\u0120pretest": 5793, "\u0120jurists": 5794, "\u0120differs": 5795, "\u0120na\u00c3\u00afve": 5796, "\u0120rating": 5797, "\u0120Ryokan": 5798, "\u0120litre": 5799, "ihi": 5800, "\u0120postal": 5801, "\u0120serfs": 5802, "cooking": 5803, "killing": 5804, "Hs": 5805, "\u0120opted": 5806, "\u0120Floods": 5807, "Sto": 5808, "inst": 5809, "\u0120revert": 5810, "\u0120ooze": 5811, "Simple": 5812, "Chart": 5813, "\u0120wr": 5814, "\u0120Boniface": 5815, "\u0120Buying": 5816, "Solving": 5817, "033": 5818, "skilled": 5819, "\u0120compressive": 5820, "gla": 5821, "\u0120cycling": 5822, "\u0120Resources": 5823, "\u0120Multnomah": 5824, "sulfamethoxazole": 5825, "\u0120Buren": 5826, "\u0120almanac": 5827, "COM": 5828, "\u0120Divinity": 5829, "Eo": 5830, "\u0120myrrh": 5831, "\u0120splash": 5832, "hurricane": 5833, "\u0120Liberalism": 5834, "\u0120Babylonians": 5835, "\u0120unexpected": 5836, "\u0120evanescent": 5837, "\u0120Stanley": 5838, "imon": 5839, "\u0120Positioning": 5840, "\u0120putative": 5841, ":\\": 5842, "elo": 5843, "\u0120magnet": 5844, "cratic": 5845, "\u0120sequential": 5846, "\u0120glitch": 5847, "\u0120Bergen": 5848, "Fix": 5849, "OCK": 5850, "irs": 5851, "\u0120negotiations": 5852, "\u0120Printer": 5853, "pendicular": 5854, "\u00e1\u00ba\u0135": 5855, "Portuguese": 5856, "\u0120Navy": 5857, "\u0120aneuploid": 5858, "bore": 5859, "\u0120troupe": 5860, "\u0120aura": 5861, "\u0120firmly": 5862, "\").": 5863, "\u0120insubordination": 5864, "\u0120philosophically": 5865, "\u0120grasping": 5866, "\u0120prepares": 5867, "\u0120ludicrous": 5868, "\u0120Instrument": 5869, "ccolo": 5870, "\u0120smelters": 5871, "\u0120educator": 5872, "flip": 5873, "\u0120incessant": 5874, "gles": 5875, "\u0120strategically": 5876, "\u0120Kashubian": 5877, "\u0120Harriet": 5878, "\u0120symptoms": 5879, "yth": 5880, "\u0120platypus": 5881, "\u0120bucks": 5882, "\u0120simulations": 5883, "\u0120beneficiary": 5884, "\u0120470": 5885, "\u0120Processes": 5886, "\u0120appreciative": 5887, "\u0120subject": 5888, "\u0120medieval": 5889, "\u0120imbedded": 5890, "\u0120Exceptions": 5891, "\u0120Vai": 5892, "\u0120communicating": 5893, "Patri": 5894, "\u0120Grave": 5895, "\u0120bends": 5896, "\u0120Ph": 5897, "\u0120Baroque": 5898, "\u00c5\u00a1": 5899, "ati": 5900, "\u0120Marker": 5901, "\u0120Messages": 5902, "\u0120firearm": 5903, "\u0120periodical": 5904, "\u0120Isolated": 5905, "\u0120takes": 5906, "\u0120demands": 5907, "ba": 5908, "\u0120Opens": 5909, "``": 5910, "\u0120artifact": 5911, "\u0120breeders": 5912, "\u0120Xpress": 5913, "\u0120Ama": 5914, "\u0120Monitoring": 5915, "\u0120authenticate": 5916, "odor": 5917, "\u0120curling": 5918, "\u0120Surely": 5919, "\u0120forfeit": 5920, "1896": 5921, "\u0120mode": 5922, "\u0120witch": 5923, "\u0120\".": 5924, "pell": 5925, "Napoleon": 5926, "bene": 5927, "\u0120topical": 5928, "\u0120nave": 5929, "\u0120mtDNA": 5930, "\u0120Barrett": 5931, "Military": 5932, "\u00e2\u0124\u00ac": 5933, "\u0120Meng": 5934, "\u0120sausage": 5935, "ux": 5936, "Ly": 5937, "\u0120Chagas": 5938, "\u0120jealous": 5939, "\u0120emailed": 5940, "mour": 5941, "\u0120stock": 5942, "\u0120Nike": 5943, "\u0120Godfrey": 5944, "\u0120Everett": 5945, "Linking": 5946, "\u0120renounce": 5947, "\u0120Webster": 5948, "\u0120untouched": 5949, "\u0120they": 5950, "\u0120citizenry": 5951, "\u0120Fauci": 5952, "\u0120Clar": 5953, "\u0120Legislation": 5954, "\u0120relieves": 5955, "\u0120imperfections": 5956, "\u0120spoons": 5957, "069": 5958, "\u0120Bj": 5959, "dj": 5960, "\u0120infrastructure": 5961, "sq": 5962, "\u0120__|__": 5963, "\u00e2\u012a": 5964, "referred": 5965, "\u0120pole": 5966, "\u0120prohibits": 5967, "RY": 5968, "\u0120pterosaurs": 5969, "\u0120Pandya": 5970, "\u0120expenses": 5971, "1088": 5972, "\u0120Ecuadorian": 5973, "shape": 5974, "\u0120carnivorous": 5975, "\u0120pyrethr": 5976, "\u0120scavenger": 5977, "\u0120appealing": 5978, "\u0120pleading": 5979, "\u0120Mah\u00c4\u0123": 5980, "\u0120Andean": 5981, "\u0120abduction": 5982, "Points": 5983, "\u0120Entrepreneur": 5984, "\u0120(>": 5985, "\u0120decrees": 5986, "\u0120Petroleum": 5987, "1808": 5988, "\u0120vivo": 5989, "\u0120Protocol": 5990, "\u0120urine": 5991, "\u0120Beat": 5992, "twentieth": 5993, "Cooking": 5994, "\u0120CMS": 5995, "\u0120levels": 5996, "\u0120largely": 5997, "\u0120sympath": 5998, "\u0120facets": 5999, "\u0120limp": 6000, "\u0120medic": 6001, "\u01201743": 6002, "casting": 6003, "LING": 6004, "\u0120upheavals": 6005, "\u0120lactic": 6006, "minated": 6007, "\u0120non": 6008, "\u0120maybe": 6009, "\u0120Tumors": 6010, "\u0120holders": 6011, "packaged": 6012, "\u0120Glacier": 6013, "iaceae": 6014, "\u0120Vargas": 6015, "\u0120iceberg": 6016, "\u0120sniff": 6017, "\u0120tid": 6018, "\u0120approximately": 6019, "\u0120motivations": 6020, "\u0120Remarkably": 6021, "\u0120Mad": 6022, "\u0120armament": 6023, "\u0120Statistical": 6024, "\u0120Tug": 6025, "\u0120postings": 6026, "\u0120nutritious": 6027, "\u0120bazaar": 6028, "\u0120octopuses": 6029, "\u0120tiles": 6030, "\u0120appetite": 6031, "\u0120Ajdabiya": 6032, "codone": 6033, "\u0120pretentious": 6034, "||*": 6035, "\u0120sexy": 6036, "\u0120Amateur": 6037, "\u0120260": 6038, "\u0120retrograde": 6039, "\u0120pre": 6040, "\u0120LTE": 6041, "Super": 6042, "terygoid": 6043, "\u0120hemispheres": 6044, "\u0120Surg": 6045, "\u0120gull": 6046, "\u0120leftist": 6047, "\u0120panel": 6048, "\u0120carotenoid": 6049, "\u0120unde": 6050, "\u0120Privy": 6051, "\u0120waterway": 6052, "\u0120financier": 6053, "\u0120ignorant": 6054, "\u0120Analytical": 6055, "\u0120compiles": 6056, "\u0120Failure": 6057, "\u0120Mur": 6058, "\u0120Weed": 6059, "\u0120UNO": 6060, "\u0120ally": 6061, "\u0120strat": 6062, "Me": 6063, "ark": 6064, "\u0120psoriatic": 6065, "\u0120ArcGIS": 6066, "\u0120Jos": 6067, "\u0120chu": 6068, "ilaginous": 6069, "\u0120creep": 6070, "\u0120ur": 6071, "righteous": 6072, "\u0120mulch": 6073, "\u0120Hoc": 6074, "\u0120Abel": 6075, "\u0120RECORD": 6076, "\u0120contractual": 6077, "\u0120mounds": 6078, "\u0120Allan": 6079, "\u0120demoral": 6080, "\u0120prevails": 6081, "oca": 6082, "\u0120Driving": 6083, "\u0120reprocessing": 6084, "\u01201681": 6085, "bed": 6086, "fn": 6087, "\u0120symbolizes": 6088, "\u0120(@": 6089, "\u0120hybrid": 6090, "\u0120meridian": 6091, "\u0120Shutterstock": 6092, "\u0120instructed": 6093, "\u0120Crossroads": 6094, "\u0120dit": 6095, "\u0120agonist": 6096, "\u0120recreate": 6097, "\u0120routers": 6098, "\u0120cumbersome": 6099, "Calcium": 6100, "\u0120Date": 6101, "relatively": 6102, "\u0120mad": 6103, "\u0120psyllium": 6104, "\u0120conference": 6105, "\u0120murderer": 6106, "\u0120Weber": 6107, "\u0120Siegfried": 6108, "\u0120surveying": 6109, "\u0120aminoglycoside": 6110, "]),": 6111, "\u0120singled": 6112, "\u0120Levy": 6113, "\u0120porpoise": 6114, "\u0120divert": 6115, "yx": 6116, "\u0120metallic": 6117, "\u0120packaged": 6118, "\u0120Interior": 6119, "mian": 6120, "cina": 6121, "quez": 6122, "\u0120Detection": 6123, "\u0120Fernand": 6124, "\u0120Low": 6125, "COMP": 6126, "\u0120encompassed": 6127, "\u0120Rex": 6128, "\u0120Shu": 6129, "\u0120Tris": 6130, "\u0120controls": 6131, "\u0120\u00d0\u00b0\u00d1\u0122\u00d1\u0127\u00d0\u00b5\u00d0\u00be\u00d0\u00bb\u00d0\u00be\u00d1\u012a\u00d0\u00ba": 6132, "\u0120second": 6133, "Mass": 6134, "\u0120apical": 6135, "\u0120greed": 6136, "\u012053": 6137, "\u0120Histoire": 6138, "\u0120nightly": 6139, "\u0120enhanced": 6140, "gara": 6141, "\u0120Tierra": 6142, "interface": 6143, "\u0120creams": 6144, "\u0120dissension": 6145, "mastigotes": 6146, "\u0120emissivity": 6147, "\u0120PPI": 6148, "Religious": 6149, "monitoring": 6150, "\u0120pendant": 6151, "\u0120Nan": 6152, "mo": 6153, "\u0120imagines": 6154, "psychology": 6155, "Proposed": 6156, "cond": 6157, "\u0120meadow": 6158, "\u0120Lore": 6159, "bai": 6160, "\u0120NK": 6161, "demographic": 6162, "steel": 6163, "\u0120Warm": 6164, "\u0120abundantly": 6165, "specific": 6166, "\u0120trampled": 6167, "\u0120festive": 6168, "hop": 6169, "\u0120SERVICE": 6170, "yed": 6171, "\u0120Mendocino": 6172, "BS": 6173, "\u0120inet": 6174, "dus": 6175, "ductive": 6176, "\u0120Excess": 6177, "\u0120themselves": 6178, "1814": 6179, "\u0120connotations": 6180, "267": 6181, "\u0120Bella": 6182, "\u0120Castell": 6183, "maya": 6184, "Fashion": 6185, "vn": 6186, "\u0120fellowships": 6187, "\u0120Markets": 6188, "\u0120Protestants": 6189, "RH": 6190, "\u0120engineering": 6191, "buried": 6192, "\u0120groundwork": 6193, "\u0120Cons": 6194, "\u0120pestilence": 6195, "Discovering": 6196, "\u0120Province": 6197, "card": 6198, "\u0120tubs": 6199, "\u0120FIG": 6200, "\u0120glittering": 6201, "\u0120Novartis": 6202, "\u0120UCL": 6203, "\u0120novelist": 6204, "Laura": 6205, "\u0120nitride": 6206, "\u0120NOW": 6207, "Files": 6208, "\u0120unloaded": 6209, "\u0120Hayabusa": 6210, "\u0120culled": 6211, "ISO": 6212, "REN": 6213, "\u0120Abbas": 6214, "TO": 6215, "Money": 6216, "ATURE": 6217, "\u0120chastise": 6218, "\u0120Okinawa": 6219, "\u0120Cyber": 6220, "\u012099": 6221, "\u0120Merit": 6222, "\u0120Sauer": 6223, "450": 6224, "\u0120grandparents": 6225, "\u0120punitive": 6226, "achieving": 6227, "\u0120electromechanical": 6228, "\u0120construct": 6229, "vl": 6230, "\u0120weaken": 6231, "\u0120ax": 6232, "fah": 6233, "ired": 6234, "\u0120avatar": 6235, "\u0120NEPA": 6236, "\u0120blasting": 6237, "\u0120recuper": 6238, "\u0120chaparral": 6239, "\u0120laziness": 6240, "\u0120Treaty": 6241, "\u0120Barton": 6242, "\u0120Kos": 6243, "\u0120Fetal": 6244, "ophisticated": 6245, "\u0120Benz": 6246, "\u0120underworld": 6247, "Bulgaria": 6248, "\u0120Indigo": 6249, "cooked": 6250, "\u0120egrets": 6251, "\u0120novices": 6252, "\u0120authoritative": 6253, "\u0120Var": 6254, "\u0120scheming": 6255, "Islam": 6256, "ttled": 6257, "\u0120forthwith": 6258, "Analysis": 6259, "\u0120Rosalind": 6260, "rogation": 6261, "\u0120Haf": 6262, "making": 6263, "\u0120reestablished": 6264, "\u0120Deb": 6265, "\u0120hypothalamus": 6266, "\u0120stimulating": 6267, "\u0120stairway": 6268, "\u0120impinge": 6269, "jes": 6270, "\u0120discernible": 6271, "\u0120flasks": 6272, "frey": 6273, "\u0120Observation": 6274, "\u0120snowshoe": 6275, "\u0120pastime": 6276, "\u0120Mice": 6277, "\u0120Jnl": 6278, "inal": 6279, "UB": 6280, "\u0120hers": 6281, "\u0120timer": 6282, "\u0120missiles": 6283, "\u0120inadequacies": 6284, "\u0120unexplained": 6285, "\u0120reorganization": 6286, "\u0120Jason": 6287, "nst": 6288, "\u0120]": 6289, "\u0120Farmer": 6290, "\u0120Albert": 6291, "liest": 6292, "oblastic": 6293, "\u0120Pffefer": 6294, "\u0120Di": 6295, "\u0120turnips": 6296, "expression": 6297, "\u00d0\u00a1\u00d0": 6298, "\u0120Remy": 6299, "\u0120split": 6300, "\u0120favourite": 6301, "Greek": 6302, "kah": 6303, "\u0120Maastricht": 6304, "\u0120supportive": 6305, "mechanics": 6306, "\u01201818": 6307, "since": 6308, "\u0120chord": 6309, "While": 6310, "TITLE": 6311, "\u0120condor": 6312, "\u0120allows": 6313, "\u0120afloat": 6314, "\u0120might": 6315, "\u0120Borrelia": 6316, "\u0120veggies": 6317, "LL": 6318, "\u0120donation": 6319, "dridge": 6320, "\u0120Benefit": 6321, "\u0120Introduction": 6322, "\u0120arduous": 6323, "\u0120Exemplar": 6324, "alpine": 6325, "\u0120legacies": 6326, "nucle": 6327, "ub": 6328, "\u0120hinted": 6329, "\u0120ll": 6330, "\u0120Winkler": 6331, "\u0120511": 6332, "\u0120evangelical": 6333, "\u0120802": 6334, "integrated": 6335, "\u0120goodness": 6336, "ceiving": 6337, "\u0120Xenophon": 6338, "ciers": 6339, "\u00d9\u012a\u00d9\u0126": 6340, "\u0120genetic": 6341, "Ship": 6342, "\u0120shack": 6343, "\u0120Yeshiva": 6344, "Moore": 6345, "\u0120unconditional": 6346, "MRSA": 6347, "\u0120vicinity": 6348, "khi": 6349, "\u0120latent": 6350, "\u0120SIN": 6351, "\u0120omissions": 6352, "\u0120butcher": 6353, "Torah": 6354, "\u0120boughs": 6355, "\u0120Presents": 6356, "\u0120Democritus": 6357, "\u0120Governance": 6358, "\u0120Wow": 6359, "\u0120ordained": 6360, "Greece": 6361, "FDA": 6362, "\u0120procuring": 6363, "OD": 6364, "UW": 6365, "elements": 6366, "\u0120plebiscite": 6367, "Vo": 6368, ")),": 6369, "\u0120criticized": 6370, "\u0120Regulation": 6371, "\u0120Aspergillus": 6372, "\u0120toxicogenomic": 6373, "\u0120DW": 6374, "creepers": 6375, "CHE": 6376, "\u0120Edison": 6377, "Fil": 6378, "rinkle": 6379, "\u0120rogue": 6380, "\u0120biking": 6381, "opus": 6382, "\u0120Yogurt": 6383, "\u0120prevailing": 6384, "\u00d6\u00b6": 6385, "\u0120suck": 6386, "\u0120Privilege": 6387, "\u0120raise": 6388, "cing": 6389, "\u0120clear": 6390, "\u0120empiricism": 6391, "128": 6392, "Pretty": 6393, "\u0120eugenics": 6394, "\u01203000": 6395, "ishes": 6396, "\u0120importing": 6397, "\u0120fewer": 6398, "\u0120CS": 6399, "\u0120hadiths": 6400, "\u0120Debian": 6401, "\u0120saintly": 6402, "\u0120misunderstood": 6403, "\u0120dressing": 6404, "teachers": 6405, "\u0120VMs": 6406, "\u0120Classical": 6407, "\u0120kamikaze": 6408, "\u0120subclinical": 6409, "612": 6410, "\u0120articles": 6411, "Dear": 6412, "\u00c3\u00a7": 6413, "\u0120rules": 6414, "Feed": 6415, "\u0120cr": 6416, "\u0120iconic": 6417, "haired": 6418, "\u0120Snake": 6419, "\u0120parallel": 6420, "\u0120severed": 6421, "\u0120pacemakers": 6422, "\u0120returns": 6423, "PhysOrg": 6424, "\u0120preferably": 6425, "\u0120Halle": 6426, "\u0120James": 6427, "\u0120Kandinsky": 6428, "\u0120townspeople": 6429, "\u0120polity": 6430, "\u0120Foundation": 6431, "\u0120Islands": 6432, "\u0120Duke": 6433, "\u0120Complex": 6434, "\u0120Country": 6435, "\u0120undermines": 6436, "\u0120meantime": 6437, "\u0120hues": 6438, "\u0120violently": 6439, "Tertiary": 6440, "\u0120[": 6441, "\u0120cent": 6442, "\u0120consciously": 6443, "\u0120mammogram": 6444, "\u0120348": 6445, "\u0120ug": 6446, "\u0120develop": 6447, "Massachusetts": 6448, "\u0120machines": 6449, "Bor": 6450, "\u0120Trieste": 6451, "Flowers": 6452, "\u0120uppermost": 6453, "effective": 6454, "encyclopedia": 6455, "eca": 6456, "\u0120invitation": 6457, "\u0120Echo": 6458, "decrease": 6459, "\u0120Glaser": 6460, "\u0120paraphrasing": 6461, "\u0120spa": 6462, "\u0120alchemy": 6463, "\u0120Tahawus": 6464, "\u0120skate": 6465, "\u0120Fine": 6466, "\u0120deployment": 6467, "\u0120Digambara": 6468, "ple": 6469, "\u0120safety": 6470, "\u0120601": 6471, "rand": 6472, "Dairy": 6473, "\u0120subsidizing": 6474, "\u0120exert": 6475, "\u00e1\u00b9\u0129a": 6476, "\u0120Kant": 6477, "\u0120Strabo": 6478, "\u0120impotent": 6479, "\u0120variants": 6480, "\u0120Chuck": 6481, "\u0120fusion": 6482, "\u0120urea": 6483, "Which": 6484, "Zhang": 6485, "\u0120widening": 6486, "\u0120modulated": 6487, "pak": 6488, "602": 6489, "\u0120<<": 6490, "\u0120phospholipids": 6491, "\u0120finches": 6492, "\u0120Hesiod": 6493, "\u0120interracial": 6494, "beck": 6495, "\u0120amphibian": 6496, "nk": 6497, "877": 6498, "\u0120extrem": 6499, "\u0120phosphatidyl": 6500, "cke": 6501, "\u0120regimens": 6502, "\u0120Part": 6503, "\u0120McCullough": 6504, "\u0120Basis": 6505, "\u0120recyclable": 6506, "\u0120genome": 6507, "weapon": 6508, "\u0120seafloor": 6509, "\u0120Grid": 6510, "basic": 6511, "\u0120Threatened": 6512, "271": 6513, "earth": 6514, "\u0120shrivel": 6515, "\u01201959": 6516, "tidal": 6517, "\u0120Alderman": 6518, "\u0120Numerical": 6519, "Tongue": 6520, "\u0120comparable": 6521, "\u0120Kara": 6522, "\u0120Federalists": 6523, "\u0120truck": 6524, "\u0120neglects": 6525, "\u0120legally": 6526, "\u0120Layer": 6527, "\u0120myopia": 6528, "\u0120neutral": 6529, "Apple": 6530, "\u01201689": 6531, "\u0120Guillain": 6532, "\u0120Aquarius": 6533, "\u0120width": 6534, "nny": 6535, "\u0120OWL": 6536, "\u0120honest": 6537, "\u0120atmospheric": 6538, "\u0120HIPAA": 6539, "\u012036": 6540, "\u0120Bones": 6541, "\u0120outlaws": 6542, "\u0120QwertyTown": 6543, "\u0120occupations": 6544, "\u0120suis": 6545, "\u0120meningococcal": 6546, "efficacy": 6547, "\u0120biochemistry": 6548, "soft": 6549, "\u0120refuel": 6550, "\u0120Cen": 6551, "\u0120resonator": 6552, "\u0120cherries": 6553, "thorn": 6554, "\u0120stringent": 6555, "\u0120clap": 6556, "\u0120motives": 6557, "upon": 6558, "\u0120DEL": 6559, "\u0120900": 6560, "\u0120sleep": 6561, "Intelligence": 6562, "\u0120Adventures": 6563, "\u0120unchangeable": 6564, "\u0120wo": 6565, "\u0120Disease": 6566, "\u0120Rhodesia": 6567, "Custom": 6568, "TTY": 6569, "\u0120relapsing": 6570, "description": 6571, "\u0120conservationist": 6572, "\u0120Decreased": 6573, "\u0120Citizens": 6574, "170": 6575, "\u0120abroad": 6576, "\u00e6": 6577, "aud": 6578, "\u0120blurred": 6579, "fd": 6580, "ches": 6581, "\u0120j": 6582, "\u0120Klu": 6583, "\u0120Nir": 6584, "\u0120tty": 6585, "\u0120indoctrination": 6586, "\u0120unearth": 6587, "\u0120intakes": 6588, "intentioned": 6589, "\u0120Carlisle": 6590, "\u0120terrorism": 6591, "\u0120defensible": 6592, "\u01201830": 6593, "sed": 6594, "Via": 6595, "\u0120repay": 6596, "\u0120push": 6597, "\u0120monounsaturated": 6598, "\u0120cohorts": 6599, "\u0120potent": 6600, "\u0120lettering": 6601, "ddy": 6602, "xis": 6603, "\u0120296": 6604, "\u0120fade": 6605, "\u0120dust": 6606, "\u0120Cavendish": 6607, "\u0120Blogger": 6608, "Nehemiah": 6609, "\u0120him": 6610, "\u0120egalitarian": 6611, "123": 6612, "\u0120leach": 6613, "\u0120jewelry": 6614, "\u0120flora": 6615, "\u0120Zachary": 6616, "\u0120Haitian": 6617, "\u0120flourished": 6618, "\u0120Planned": 6619, "\u0120corners": 6620, "Oct": 6621, "\u0120ATSDR": 6622, "\u0120hacking": 6623, "\u0120Roses": 6624, "oise": 6625, "\u0120Montgomery": 6626, "\u0120rewriting": 6627, "\u0120sweets": 6628, "\u0120vinegar": 6629, "\u0120Isabel": 6630, "\u0120investigates": 6631, "\u0120lodge": 6632, "\u0120benzodiazepines": 6633, "\u0120tread": 6634, "\u0120Quentin": 6635, "\u0120Participate": 6636, ".||\u00e2\u0122\u013f|": 6637, "\u0120sulfa": 6638, "\u0120recharging": 6639, "\u0120Hellen": 6640, "\u0120hears": 6641, "onia": 6642, "\u0120misleading": 6643, "\u0120Making": 6644, "affected": 6645, "\u0120Selecting": 6646, "configuration": 6647, "cholesterol": 6648, "classified": 6649, "CBD": 6650, "\u0120Holistic": 6651, "\u0120squa": 6652, "\u0120abhor": 6653, "trigger": 6654, "renowned": 6655, "\u0120phobias": 6656, "\u0120delusion": 6657, "\u0120liked": 6658, "Volunteer": 6659, "\u0120\u00ef\u00bd\u0140": 6660, "\u0120cockroach": 6661, "ready": 6662, "\u0120arrogance": 6663, "\u0120advisory": 6664, "\u0120Frieden": 6665, "\u0120Corps": 6666, "\u0120Limits": 6667, "rch": 6668, "erating": 6669, "\u0120quantitative": 6670, "\u0120198": 6671, "\u0120labyrinth": 6672, "appropriate": 6673, "\u0120congestive": 6674, "\u0120selfishness": 6675, "\u0138": 6676, "\u0120Balkans": 6677, "\u0120peel": 6678, "\u0120Mathews": 6679, "\u0120hernia": 6680, "\u0120angina": 6681, "\u0120convalesc": 6682, "\u0120Xuan": 6683, "\u0120cooler": 6684, "\u0120Finn": 6685, "\u0120Describes": 6686, "\u0120datasets": 6687, "\u0120evening": 6688, "Minor": 6689, "\u0120motto": 6690, "find": 6691, "\u0120Initially": 6692, "AT": 6693, "drop": 6694, "\u0120rote": 6695, "\u0120macro": 6696, "\u0120printable": 6697, "\u0120cakes": 6698, "\u0120mould": 6699, "lymph": 6700, "\u0120Nickelodeon": 6701, "change": 6702, "\u00c2\u00b0.": 6703, "\u0120Strip": 6704, "\u0120Speaks": 6705, "look": 6706, "gl": 6707, "What": 6708, "\u0120Xin": 6709, "\u0120correctness": 6710, "\u0120biomes": 6711, "\u0120Magna": 6712, "\u0120catalogued": 6713, "\u0120veto": 6714, "\u0120Austral": 6715, "\u0120Gadamer": 6716, "\u0120abscesses": 6717, "\u0120IDPs": 6718, "\u0120seawater": 6719, "\u0120sheriff": 6720, "\u0120531": 6721, "\u0120habits": 6722, "\u0120Tuesday": 6723, "\u0120Confession": 6724, "\u0120Scandinavia": 6725, "strings": 6726, "\u0120Organizational": 6727, "\u0120corroborated": 6728, "\u0120videos": 6729, "\u0120hem": 6730, "Blessed": 6731, "\u0120Echinacea": 6732, "\u0120Jaffe": 6733, "\u0120corona": 6734, "\u0120rebate": 6735, "\u0120bottoms": 6736, "\u0120Firewall": 6737, "\u0120ferruginous": 6738, "1940": 6739, "\u0120fearsome": 6740, "\u0120emulate": 6741, "\u0120rightly": 6742, "\u0120APIs": 6743, "\u0120elsewhere": 6744, "\u0120Cavern": 6745, "\u0120integrate": 6746, "\u0120Ford": 6747, "\u0120Appalachian": 6748, "gate": 6749, "\u0120newadvent": 6750, "\u0120unleash": 6751, "\u0120cockroaches": 6752, "\u0120temperaments": 6753, "\u0120Wrap": 6754, "\u0120millennia": 6755, "phen": 6756, "Agricultural": 6757, "\u012035": 6758, "\u0120honestly": 6759, "\u0120hp": 6760, "Zh": 6761, "\u0120degenerated": 6762, "\u0120Weaver": 6763, "\u0120Marys": 6764, "][": 6765, "655": 6766, "\u0120detriment": 6767, "\u0120adventure": 6768, "\u012005": 6769, "division": 6770, "AS": 6771, "\u0120gracious": 6772, "Flexible": 6773, "sky": 6774, "Morgan": 6775, "\u0120lander": 6776, "\u0120gave": 6777, "ives": 6778, "Potemkin": 6779, "\u0120Tory": 6780, "\u0120menopause": 6781, "heads": 6782, "\u0120Me": 6783, "\u0120worked": 6784, "event": 6785, "\u0120dishearten": 6786, "289": 6787, "\u0120Brotherhood": 6788, "\u0120brigadier": 6789, "\u0120Py": 6790, "\u0120Guns": 6791, "\u0120olds": 6792, "\u0120wetland": 6793, "\u0120ventricle": 6794, "bedded": 6795, "\u0120negotiate": 6796, "\u0120welcoming": 6797, "\u0120Moderate": 6798, "conversion": 6799, "single": 6800, "policy": 6801, "CV": 6802, "\u0120Grains": 6803, "\u0120tax": 6804, "\u0120refresher": 6805, "DESCRIPTION": 6806, "\u012013": 6807, "\u0120Greenland": 6808, "\u0120motif": 6809, "onsistency": 6810, "Union": 6811, "\u0120Speech": 6812, "facebook": 6813, "\u0120Obligation": 6814, "\u0120Covering": 6815, "\u0120autistic": 6816, "soldiers": 6817, "\u0120Ful": 6818, "pta": 6819, "\u0120offensive": 6820, "\u0120fool": 6821, "Of": 6822, "cens": 6823, "chemistry": 6824, "\u0120violations": 6825, "\u0120244": 6826, "\u0120coherence": 6827, "\u0120Notes": 6828, "\u0120Monticello": 6829, "\u0120infested": 6830, "M": 6831, "\u0120Correction": 6832, "dialysis": 6833, "\u0120155": 6834, "Dist": 6835, "\u0120cy": 6836, "\u0120inhalation": 6837, "\u0120Conversely": 6838, "\u0120Elevated": 6839, "europa": 6840, "\u0120Parish": 6841, "\u0120panda": 6842, "\u0120McIntyre": 6843, "\u0120Memorandum": 6844, "\u0120bikes": 6845, "fueled": 6846, "\u0120Query": 6847, "\u0120Wid": 6848, "\u0120swim": 6849, "buffalo": 6850, "\u0120Al": 6851, "\u0120counseled": 6852, "\u0120incubated": 6853, "\u0120Edgewood": 6854, "sale": 6855, "mmel": 6856, "\u0120foreskin": 6857, "\u0120Implementation": 6858, "\u0120Unicode": 6859, "person": 6860, "xi": 6861, "\u0120spearheaded": 6862, "\u0120melons": 6863, "\u0120conju": 6864, "\u0120priest": 6865, "\u0120Comanche": 6866, "aught": 6867, "\u0120gorillas": 6868, "Production": 6869, "\u0120tattoo": 6870, "\u0120humanities": 6871, "\u0120Ending": 6872, "\u0120dystrophin": 6873, "\u0120healing": 6874, "\u0120Pike": 6875, "homo": 6876, "\u01201843": 6877, "\u0120pas": 6878, "\u0120Instituto": 6879, "\u0120meteorology": 6880, "\u0120harmonize": 6881, "\u0120bedrock": 6882, "Guatemala": 6883, "kawa": 6884, "\u0120eliminates": 6885, "\u0120Wah": 6886, "\u0120ailment": 6887, "\u0120Obedience": 6888, "\u0120Indi": 6889, "introduced": 6890, "\u0120bleeds": 6891, "\u0120conquest": 6892, "\u0120Exotic": 6893, "Support": 6894, "\u0120Mish": 6895, "\u0120underneath": 6896, "adventure": 6897, "\u0120disclosure": 6898, "\u0120pathos": 6899, "patterns": 6900, "\u0120Shore": 6901, "\u0120Emphasis": 6902, "wid": 6903, "\u0120Mon": 6904, "response": 6905, "sustaining": 6906, "consistent": 6907, "Wow": 6908, "\u0120Mena": 6909, "\u0120Voice": 6910, "\u0120Carinae": 6911, "\u0120Migration": 6912, "olate": 6913, "services": 6914, "\u0120polygon": 6915, "\u0120Electrons": 6916, "Beck": 6917, "\u0120nightfall": 6918, "\u0120C\u00c3\u00b3rdoba": 6919, "Caution": 6920, "\u0120commune": 6921, "\u0120fungus": 6922, "\u0120enters": 6923, "plain": 6924, "pis": 6925, "\u0120MSC": 6926, "\u0120thrips": 6927, "\u0120Monster": 6928, "\u0120humiliating": 6929, "\u0120construed": 6930, "\u0120fringed": 6931, "Mac": 6932, "\u0120caramel": 6933, "HO": 6934, "ull": 6935, "\u0120Login": 6936, "\u0120affection": 6937, "Mormon": 6938, "\u0120Spaces": 6939, "\u0120scru": 6940, "believe": 6941, "\u0120cycl": 6942, "\u0120clotting": 6943, "correct": 6944, "\u0120Shiva": 6945, "\u0120precedent": 6946, "\u0120Frenchman": 6947, "\u0120alcohols": 6948, "||+": 6949, "\u0120coyote": 6950, "ibility": 6951, "waste": 6952, "Institut": 6953, "\u0120xii": 6954, "\u0120duel": 6955, "\u0120Lond": 6956, "\u0120pasting": 6957, "\u0120torpor": 6958, "HOME": 6959, "\u0120ham": 6960, "\u0120credits": 6961, "\u0120xl": 6962, "\u01202001": 6963, "\u0120curious": 6964, "\u0120gentleness": 6965, "\u0120calligraphy": 6966, "\u0120Richardson": 6967, "\u0120capable": 6968, "\u0120acceptance": 6969, "Sit": 6970, "\u0120Bay": 6971, "\u0120Quammen": 6972, "\u0120mate": 6973, "\u01201996": 6974, "\u0120preached": 6975, "\u0120Horizontal": 6976, "\u0120combinatorial": 6977, "\u0120trying": 6978, "\u01201697": 6979, "\u0120LSD": 6980, "\u0120cult": 6981, "\u0120Prud": 6982, "\u0120Lauren": 6983, "\u0120vignettes": 6984, "1990": 6985, "\u0120Complications": 6986, "opathology": 6987, "\u0120looted": 6988, "\u0120NAMI": 6989, "Szymanski": 6990, "Evidence": 6991, "logy": 6992, "Rail": 6993, "\u0120\u00ca\u00bf": 6994, "\u0120Knee": 6995, "\u0120graces": 6996, "\u0120deformation": 6997, "oconstrict": 6998, "\u0120misinterpreted": 6999, "\u0120vasodila": 7000, "\u0120Dust": 7001, "\u0120info": 7002, "\u0120fails": 7003, "\u0120SRS": 7004, "35": 7005, "\u0120sufferers": 7006, "\u0120Railways": 7007, "\u0120sheer": 7008, "\u0120Vance": 7009, "Mild": 7010, "reduction": 7011, "\u0120Groot": 7012, "\u0120clout": 7013, "\u0120bucket": 7014, "\u0120identify": 7015, "\u0120workshop": 7016, "\u0120SD": 7017, "bytes": 7018, "\u0120Homeopathy": 7019, "\u0120noises": 7020, "\u0120glycine": 7021, "\u0120initialized": 7022, "UNC": 7023, "\u0120characteristically": 7024, "Area": 7025, "identified": 7026, "284": 7027, "original": 7028, "\u0120Vall": 7029, "\u01201755": 7030, "Provided": 7031, "\u0120protections": 7032, "\u0120viruses": 7033, "\u0120De": 7034, "\u0120excited": 7035, "\u0120Congressman": 7036, "vegetation": 7037, "\u0122": 7038, "urea": 7039, "\u0120indicate": 7040, "toxic": 7041, "\u0120Depot": 7042, "\u0120kidney": 7043, "\u0120subordinated": 7044, "\u0120CIP": 7045, "\u0120McC": 7046, "Weather": 7047, "\u0120Keck": 7048, "\u0120remorse": 7049, "\u0120bumblebee": 7050, "ogy": 7051, "\u0120Evenly": 7052, "deploy": 7053, "\u0120diversify": 7054, "plate": 7055, "1824": 7056, "\u0120summed": 7057, "meeting": 7058, "\u0120fa": 7059, "\u0120Communities": 7060, "\u0120sinks": 7061, "RNAs": 7062, "\u0120\u00ef\u00ac\u0123rst": 7063, "\u0120Decisions": 7064, "\u0120Dora": 7065, "\u0120combust": 7066, "\u0120Anth": 7067, "\u0120Bisc": 7068, "\u0120disclaimer": 7069, "\u0120Era": 7070, "\u0120cauliflower": 7071, "\u0120Political": 7072, "\u0120IC": 7073, "\u0120yeshiva": 7074, "\u0120\u00c3\u012b": 7075, "pressive": 7076, "\u0120gen": 7077, "\u0120carpet": 7078, "\u0120em": 7079, "\u0120liaison": 7080, "\u0120Barlow": 7081, "\u0120city": 7082, "\u0120abrupt": 7083, "\u0120beads": 7084, "\u0120increases": 7085, "\u0120tall": 7086, "\u0120Acrobat": 7087, "\u0120Ec": 7088, "\u0120G\u00c3\u00b6ttingen": 7089, "elected": 7090, "\u0120antlers": 7091, "\u0120Disciple": 7092, "\u0120charge": 7093, "salicylic": 7094, "\u0120TYPE": 7095, "\u0120Keith": 7096, "\u0120cosmic": 7097, "\u0120footnote": 7098, "1838": 7099, "\u0120excision": 7100, "\u0120tile": 7101, "\u0120trapped": 7102, "\u0120Iamblichus": 7103, "vre": 7104, "\u0120strawberry": 7105, "Arch": 7106, "\u0120imagined": 7107, "ented": 7108, "\u0120DB": 7109, "\u0120empirical": 7110, "menting": 7111, "Wolf": 7112, "\u0120track": 7113, "Systems": 7114, "\u0120covenants": 7115, "\u0120AAC": 7116, "rano": 7117, "\u0120shellac": 7118, "\u0120adult": 7119, "\u0120kHz": 7120, "\u0120wavelengths": 7121, "\u0120prior": 7122, "\u0120sonnets": 7123, "\u0120modesty": 7124, "\u0120Batista": 7125, "\u0120Corinthian": 7126, "\u0120Boat": 7127, "\u0120Ab": 7128, "\u0120baffle": 7129, "jic": 7130, "\u0120terror": 7131, "\u0120trainer": 7132, "Holocaust": 7133, "ISM": 7134, "\u0120catalogues": 7135, "\u0120Code": 7136, "gia": 7137, "deck": 7138, "\u0120transgressions": 7139, "\u0120west": 7140, "\u0120loser": 7141, "\u0120cleanest": 7142, "\u0120pronouns": 7143, "\u0120Ryukyu": 7144, "Previously": 7145, "\u0120Pharisee": 7146, "\u0120triggers": 7147, "\u0120come": 7148, "Rev": 7149, "pre": 7150, "\u0120UNESCO": 7151, "Inheritance": 7152, "\u0120relocating": 7153, "prize": 7154, "\u0120investigative": 7155, "\u0120governorship": 7156, "ver": 7157, "\u0120Marco": 7158, "\u0120tendon": 7159, "\u0120Nigel": 7160, "\u0120Speed": 7161, "\u0120blaming": 7162, "\u0120Combat": 7163, "\u0120Challenges": 7164, "cholinesterase": 7165, "git": 7166, "\u0120homeschooled": 7167, "Davis": 7168, "baugh": 7169, "between": 7170, "alted": 7171, "\u0120lists": 7172, "\u0120twist": 7173, "\u0120migrants": 7174, "\u0120resell": 7175, "\u0120ziggurat": 7176, "\u0120weak": 7177, "\u0120inflicting": 7178, "hosts": 7179, "\u0120coloured": 7180, "\u0120(*": 7181, "\u0120Mouse": 7182, "+": 7183, "\u0120consultancy": 7184, "sch": 7185, "Juvenile": 7186, "\u0120transnational": 7187, "\u0120worst": 7188, "iative": 7189, "Private": 7190, "\u0120Darlington": 7191, "\u0120unclean": 7192, "\u0120reaffirm": 7193, "\u0120langu": 7194, "Mode": 7195, "acceler": 7196, "\u0120Kendrick": 7197, "\u0120username": 7198, "\u0120installs": 7199, "\u0120espousing": 7200, "\u0120inserting": 7201, "\u0120dem": 7202, "\u0120Waltz": 7203, "\u0120shareholder": 7204, "ences": 7205, "eyes": 7206, "Cla": 7207, "\u0120preserved": 7208, "\u0120skyscraper": 7209, "Economic": 7210, "\u0120optically": 7211, "\u0120thereby": 7212, "\u0120orchids": 7213, "\u0120viewer": 7214, "\u0120Yoga": 7215, "\u0120choir": 7216, "\u0120anatomically": 7217, "\u0120repairing": 7218, "\u0120academics": 7219, "\u0120Buenos": 7220, "\u0120Viewed": 7221, "\u0120Fez": 7222, "results": 7223, "\u0120cheating": 7224, "\u0120purveyor": 7225, "\u01201580": 7226, "\u0120Engineering": 7227, "1945": 7228, "\u0120Diagram": 7229, "\u0120Boulevard": 7230, "\u0120fairer": 7231, "\u0120spirit": 7232, "tris": 7233, "leb": 7234, "posts": 7235, "\u0120Pavilion": 7236, "\u0120Gda\u00c5\u0126sk": 7237, "\u0120petrol": 7238, "Pea": 7239, "\u0120theosoph": 7240, "\u0120roadway": 7241, "Size": 7242, "\u0120clearing": 7243, "Comprehensive": 7244, "\u0120implo": 7245, "\u0120533": 7246, "\u0120flavanol": 7247, "\u0120synthesizing": 7248, "\u0120Arnold": 7249, "\u0120renting": 7250, "\u0120Chestnut": 7251, "\u0120unreal": 7252, "Plato": 7253, "\u0120si": 7254, "\u0120ed": 7255, "\u0120Manich": 7256, "W": 7257, "\u0120sto": 7258, "\u0120lens": 7259, "\u0120Dawn": 7260, "\u00e0\u00a4\u00be": 7261, "\u0120decorating": 7262, "\u0120surf": 7263, "397": 7264, "\u0120sweeteners": 7265, "Sleep": 7266, "\u0120pivotal": 7267, "\u0120plantations": 7268, "\u0120GHz": 7269, "\u0120pox": 7270, "\u0120parrot": 7271, "\u0120sharps": 7272, "Obama": 7273, "\u0120mercantil": 7274, "OSE": 7275, "\u0120NATURAL": 7276, "\u0120deviations": 7277, "\u0120Diary": 7278, "disabled": 7279, "\u0120Episode": 7280, "\u0120fleeing": 7281, "EK": 7282, "\u0120month": 7283, "\u0120Ants": 7284, "\u0120UH": 7285, "\u0120planter": 7286, "\u0120conversely": 7287, "\u0120confuse": 7288, "\u0120Pietro": 7289, "Grid": 7290, "cards": 7291, "\u0120frightened": 7292, "\u0120pulley": 7293, "\u0120FI": 7294, "\u0120ISP": 7295, "Defense": 7296, "\u0120lethal": 7297, "\u0120Kam": 7298, "books": 7299, "\u0120Leader": 7300, "\u00e2\u0128\u0132": 7301, "\u0120disabled": 7302, "\u0120mercenaries": 7303, "Luckily": 7304, "Inherited": 7305, "\u0120feral": 7306, "\u0120Colin": 7307, "\u0120Sitting": 7308, "\u0120Demo": 7309, "\u0120sedimentation": 7310, "\u0120infiltration": 7311, "\u0120Lyon": 7312, "\u0120Posted": 7313, "680": 7314, "linger": 7315, "\u0120Cappadocia": 7316, "\u0120mulching": 7317, "\u0120Plasmodium": 7318, "routine": 7319, "\u0120attitude": 7320, "\u0120holds": 7321, "\u0120Corydoras": 7322, ",....": 7323, "\u0120needn": 7324, "\u0120fiddle": 7325, "\u0120heck": 7326, "\u0120arrangements": 7327, "profits": 7328, "perhaps": 7329, "\u0120Queensland": 7330, "\u0120orifice": 7331, "\u0120Bei": 7332, "\u0120femur": 7333, "\u0120pu": 7334, "\u0120Gothenburg": 7335, "\u0120quotations": 7336, "\u0120paraboloid": 7337, "\u0120site": 7338, "\u0120anecdote": 7339, "\u0120violence": 7340, "\u0120kat": 7341, "\u0120underpinnings": 7342, "l\u00c4\u0123": 7343, "\u0120directive": 7344, "\u0120foregoing": 7345, "bri": 7346, "\u0120sleepy": 7347, "must": 7348, "\u0120transporter": 7349, "\u0120outward": 7350, "\u0120Predator": 7351, "\u0120endearing": 7352, "\u0120fle": 7353, "\u0120Observations": 7354, "\u0120flight": 7355, "\u0120destined": 7356, "\u0120Liz": 7357, "\u0120amid": 7358, "\u0120tumour": 7359, "\u0120Rattlesnake": 7360, "\u0120nullification": 7361, "forcing": 7362, "further": 7363, "\u0120Ends": 7364, "\u0120biologists": 7365, "\u0120Benito": 7366, "\u0120pedigree": 7367, "\u0120years": 7368, "\u0120OF": 7369, "\u0120carboxyl": 7370, "\u0120Adapted": 7371, "grained": 7372, "\u0120whole": 7373, "\u0120Losses": 7374, "andi": 7375, "KI": 7376, "\u0120focal": 7377, "bugs": 7378, "\u01201849": 7379, "\u0120afford": 7380, "\u0120refrigerate": 7381, "\u0120trait": 7382, "zia": 7383, "\u0120addictive": 7384, "Alfred": 7385, "\u0120cochlea": 7386, "capture": 7387, "\u0120Petr": 7388, "Deutsches": 7389, "\u0120dioxin": 7390, "\u0120Feeling": 7391, "Arguments": 7392, "\u0120Emery": 7393, "genetic": 7394, "\u0120surreptitiously": 7395, "washing": 7396, "\u0120complementary": 7397, "\u0120subordinates": 7398, "Meso": 7399, "Advances": 7400, "\u0120rectal": 7401, "alpha": 7402, "VC": 7403, "Ethiopia": 7404, "274": 7405, "\u0120TCP": 7406, "iad": 7407, "enthusias": 7408, "UTE": 7409, "dip": 7410, "\u0120hundreds": 7411, "\u0120unsettled": 7412, "\u0120account": 7413, "vet": 7414, "\u0120fulfilled": 7415, "\u0120Coll": 7416, "\u0120allocation": 7417, "\u0120flax": 7418, "oak": 7419, "oko": 7420, "\u0120enforcing": 7421, "\u0120lover": 7422, "\u0120compelled": 7423, "ot": 7424, "\u0120Scene": 7425, "\u0120quail": 7426, "\u0120sick": 7427, "iata": 7428, "\u0120tyrosine": 7429, "\u0120fe": 7430, "xler": 7431, "\u0120pinnately": 7432, "\u0120Forum": 7433, "nuclear": 7434, "\u0120alleviation": 7435, "\u0120Pyr": 7436, "\u0120Scores": 7437, "\u0120collective": 7438, "\u0120metatarsal": 7439, ";": 7440, "\u0120leprosy": 7441, "\u0120causing": 7442, "utation": 7443, "\u0120orbited": 7444, "Countries": 7445, "\u0120transformational": 7446, "\u0120Proposal": 7447, "\u0120enumerate": 7448, "\u0120Monsanto": 7449, "\u0120started": 7450, "53": 7451, "\u0120Marvin": 7452, "\u0120returned": 7453, "\u0120Dupuytren": 7454, "\u0120USN": 7455, "\u0120Fresnel": 7456, "\u0120IUPAC": 7457, "\u0120Elohim": 7458, "dep": 7459, "\u0120avid": 7460, "\u0120ruined": 7461, "cod": 7462, "\u0120amends": 7463, "\u0120Levitical": 7464, "\u0120rung": 7465, "\u0120interior": 7466, "\u0120Gas": 7467, "\u0120Geoffrey": 7468, "\u0120\u00cf\u0126": 7469, "\u0120breezes": 7470, "\u0120219": 7471, "pire": 7472, "\u0120Holstein": 7473, "Appalachian": 7474, "\u0120DV": 7475, "\u00f4": 7476, "\u0120assuming": 7477, "\u0120Dhaka": 7478, "COR": 7479, "\u0120Updated": 7480, "PRO": 7481, "\u0120inspections": 7482, "\u0120stratosphere": 7483, "\u0120fluctuation": 7484, "\u0120Tomlinson": 7485, "\u0120Antiquarian": 7486, "\u0120tRNA": 7487, "\u0120handicrafts": 7488, "\u0120Breeding": 7489, "\u0120evidenced": 7490, "\u0120inconclusive": 7491, "\u0120far": 7492, "\u0120fourteenth": 7493, "\u0120blanks": 7494, "nt": 7495, "\u0120Color": 7496, "166": 7497, "\u0120skyscrapers": 7498, "\u0120sets": 7499, "\u0120shirts": 7500, "\u0120Cyclone": 7501, "\u0120luminescence": 7502, "cen": 7503, "\u0120Dudley": 7504, "\u0120backup": 7505, "\u0120heirs": 7506, "\u0120likely": 7507, "gic": 7508, "\u0120cuticle": 7509, "\u0120physicists": 7510, "\u0120Enough": 7511, "\u0120thieves": 7512, "\u0120songbirds": 7513, "\u0120perpetrators": 7514, "\u0120alike": 7515, "\u0120Mithra": 7516, "\u0120downed": 7517, "\u0120Immunology": 7518, "Silver": 7519, "Bre": 7520, "\u0120Duryodhana": 7521, "bay": 7522, "\u0120Thromb": 7523, "\u0120farms": 7524, "\u0120narrowed": 7525, "\u0120Byzantium": 7526, "\u0120pronouncements": 7527, "\u0120Reflect": 7528, "\u0120q": 7529, "\u0120Erwin": 7530, "\u0120geared": 7531, "\u0120synovial": 7532, "intuitive": 7533, "\u0120Even": 7534, "\u0120Mustafa": 7535, "\u0120kjv": 7536, "385": 7537, "\u0120Communicate": 7538, "hut": 7539, "\u0120constrain": 7540, "\u0120363": 7541, "\u00d0\u00b4": 7542, "\u0120bonobos": 7543, "\u0120Universities": 7544, "\u0120USS": 7545, "\u0120Story": 7546, "\u0120recourse": 7547, "\u0120Ramsey": 7548, "\u0120masters": 7549, "\u0120unrest": 7550, "\u0120Mild": 7551, "\u0120glucagon": 7552, "receive": 7553, "wana": 7554, "\u0120disenfranchised": 7555, "Path": 7556, "\u0120ge": 7557, "\u0120Lynn": 7558, "lton": 7559, "\u0120pudding": 7560, "\u0120Always": 7561, "\u0120honoured": 7562, "\u0120199": 7563, "Flat": 7564, "\u0120ketones": 7565, "\u0120\u00c2\u00bd": 7566, "\u0120dividing": 7567, "\u0120symptom": 7568, "\u0120constructor": 7569, "\u0120alternator": 7570, "\u0120Giants": 7571, "cky": 7572, "\u0120Biographies": 7573, "absorbing": 7574, "\u0120faction": 7575, "\u0120shrouded": 7576, "\u0120Kale": 7577, "\u0120toolkit": 7578, "\u0120ava\u00e1\u00b8\u012fh\u00c5\u00ab\u00e1\u00b9\u0143a": 7579, "du": 7580, "chamber": 7581, "\u0120liquor": 7582, "\u0120Dub": 7583, "\u00c3\u00a9o": 7584, "\u0120listed": 7585, "copper": 7586, "\u0120accentuate": 7587, "\u0120leaf": 7588, "\u00c2\u00b2": 7589, "\u0120balances": 7590, "\u0120orbiting": 7591, "\u0120secondhand": 7592, "\u0120Nazarene": 7593, "\u0120understood": 7594, "\u0120doctrine": 7595, "priority": 7596, "\u0120Autauga": 7597, "\u0120Armies": 7598, "Must": 7599, "transport": 7600, "\u0120jury": 7601, "\u0120soar": 7602, "\u0120dazzling": 7603, "\u01201744": 7604, "\u0120using": 7605, "\u0120mulatto": 7606, "Finding": 7607, "\u0120industrialised": 7608, "\u0120navies": 7609, "\u0120has": 7610, "\u0120Spec": 7611, "\u0120thesis": 7612, "2007": 7613, "\u0120Mk": 7614, "invasive": 7615, "187": 7616, "zberg": 7617, "\u0120Rape": 7618, "\u0120Khuzestan": 7619, "\u0120fantastic": 7620, "\u0120runes": 7621, "\u0120spoils": 7622, "\u0120plume": 7623, "flowered": 7624, "\u0120mysteries": 7625, "\u0120Land": 7626, "\u0120Athletic": 7627, "\u0120Corresponding": 7628, "\u0120startling": 7629, "615": 7630, "\u0120heal": 7631, "\u0120tons": 7632, "\u0120Apprentice": 7633, "icul": 7634, "\u0120psychiatrists": 7635, "\u0120employing": 7636, "\u0120launchers": 7637, "\u0120freshmen": 7638, "\u0120Joh": 7639, "\u0120cortisone": 7640, "\u0120rent": 7641, "\u0120continental": 7642, "cycl": 7643, "Cas": 7644, "\u0120recessed": 7645, "\u0120Krauss": 7646, "ardo": 7647, "\u0120Stewart": 7648, "\u0120Milk": 7649, "\u0120dismay": 7650, "\u0120Boys": 7651, "\u0120Minerals": 7652, "\u0120coniferous": 7653, "planning": 7654, "\u0120revive": 7655, "\u0120frescoes": 7656, "\u0120recruits": 7657, "zh": 7658, "\u0120midnight": 7659, "\u0120Syndrome": 7660, "\u0120Geophysical": 7661, "beautiful": 7662, "r\u00c4\u0123": 7663, "\u0120Oxfam": 7664, "\u0120determine": 7665, "\u0120Typhoon": 7666, "\u0120amplification": 7667, "derived": 7668, "ITIES": 7669, "\u0120Vermeer": 7670, "\u0120Acro": 7671, "\u0120Won": 7672, "\u0120DALYs": 7673, "\u0120aerospace": 7674, "\u0120cephalosporin": 7675, "\u0120phylogenetic": 7676, "\u0120unsurprising": 7677, "\u0120may": 7678, "Hydrogen": 7679, "Stage": 7680, "\u0120uniforms": 7681, "\u0120xv": 7682, "Version": 7683, "\u0120sacrificing": 7684, "\u0120depleting": 7685, "\u0120judgement": 7686, "\u0120Draupadi": 7687, "Pei": 7688, "\u01201720": 7689, "\u0120PARK": 7690, "lat": 7691, "Flo": 7692, "\u0120periphery": 7693, "Mul": 7694, "\u0120competitions": 7695, "pra": 7696, "blatt": 7697, "\u0120Hormuz": 7698, "manufacturing": 7699, "\u0120FAS": 7700, "\u0120Rickettsia": 7701, "\u0120infections": 7702, "\u0120cryptographic": 7703, "\u0120claimed": 7704, "\u0120labels": 7705, "\u0120scler": 7706, "\u0120Phyl": 7707, "\u0120cared": 7708, "\u0120mandated": 7709, "\u0120Denmark": 7710, "\u0120Gardasil": 7711, "\u0120Alpine": 7712, "\u0120adults": 7713, "\u0120Act": 7714, "less": 7715, "194": 7716, "\u0120Personality": 7717, "\u0120rigidly": 7718, "\u0120overweight": 7719, "\u0120mut": 7720, "\u0120Geologic": 7721, "\u0120ridden": 7722, "\u0120fla": 7723, "\u0120billions": 7724, "\u0120caption": 7725, "\u0120dominant": 7726, "AKES": 7727, "\u0120Russell": 7728, "\u0120Shoshone": 7729, "\u0120Chiapas": 7730, "\u0120fiery": 7731, "\u0120dormitory": 7732, "\u0120circumstances": 7733, "EA": 7734, "mega": 7735, "\u0120utensil": 7736, "\u0120sects": 7737, "\u0120oasis": 7738, "\u0120predictors": 7739, "\u0120Geothermal": 7740, "\u0120ukulele": 7741, "\u0120administered": 7742, "\u0120Morning": 7743, "\u0120bewilderment": 7744, "\u0120Shock": 7745, "\u0120Willem": 7746, "\u0120droop": 7747, "\u0120manifests": 7748, "Nevada": 7749, "ae": 7750, "\u0120epicenter": 7751, "\u0120cricket": 7752, "\u0120pam": 7753, "othe": 7754, "\u0120Feminism": 7755, "\u0120classifies": 7756, "\u0120adjectival": 7757, "IX": 7758, "\u0120Gentiles": 7759, "\u0120Templar": 7760, "\u0120Puyallup": 7761, "Open": 7762, "\u0120academy": 7763, "\u0120mosque": 7764, "\u0120spurs": 7765, "\u0120Junior": 7766, "\u0120curry": 7767, "\u0120extol": 7768, "\u0120resembled": 7769, "\u0120vertically": 7770, "\u0120qu": 7771, "\u0120gaol": 7772, "\u0120deceit": 7773, "\u0120Authorization": 7774, "understand": 7775, "\u0120swampy": 7776, "Wing": 7777, "\u0120deaf": 7778, "\u0120Freshwater": 7779, "\u0120pulsat": 7780, "\u0120Ethiopic": 7781, "\u0120Henderson": 7782, "\u0120olfactory": 7783, "\u0120tubes": 7784, "\u0120Productions": 7785, "maintained": 7786, "\u0120sandbox": 7787, "\u0120Uncyclopedia": 7788, "\u0120Theatre": 7789, "\u0120osteo": 7790, "\u0120toads": 7791, "\u0120FB": 7792, "\u00e2\u0122\u00a2": 7793, "\u0120learned": 7794, "clock": 7795, "\u0120recurrence": 7796, "\u0120psychologically": 7797, "\u0120225": 7798, "-)": 7799, "Four": 7800, "\u0120Virgin": 7801, "erated": 7802, "acin": 7803, "CHICAGO": 7804, "CREDIT": 7805, "\u0120healthier": 7806, "\u0120FAMILY": 7807, "\u0120Panzer": 7808, "\u0120distal": 7809, "\u0120subcontract": 7810, "\u0120minnows": 7811, "\u0120sounded": 7812, "\u0120Willie": 7813, "Infants": 7814, "\u0120cooperatives": 7815, "\u0120chronicles": 7816, "\u0120Observer": 7817, "Bea": 7818, "\u0120Templars": 7819, "tention": 7820, "Upper": 7821, "\u0120Triangle": 7822, "1890": 7823, "standing": 7824, "enge": 7825, "\u0120hive": 7826, "\u0120cerebral": 7827, "\u0120Algerian": 7828, "Sad": 7829, "Woman": 7830, "\u0120commercialization": 7831, "\u0120industrialization": 7832, "\u0120polymeric": 7833, "\u0120sheaths": 7834, "\u0120Core": 7835, "\u0120Hoy": 7836, "POL": 7837, "\u0120Jennings": 7838, "\u0120Glu": 7839, "letion": 7840, "7000": 7841, "\u0120Spring": 7842, "\u0120restricted": 7843, "\u0120fattening": 7844, ")!": 7845, "\u0120Chiang": 7846, "\u0120176": 7847, "erich": 7848, "mortal": 7849, "\u0120congressmen": 7850, "pi": 7851, "\u0120Asa": 7852, "Christian": 7853, "COUNT": 7854, "\u0120Spell": 7855, "\u0120bond": 7856, "KER": 7857, "\u0120corrections": 7858, "LAN": 7859, "seismic": 7860, "\u0120Giorgio": 7861, "\u0120Plutarch": 7862, "\u0120repo": 7863, "\u0120playwright": 7864, "\u0120forlorn": 7865, "ea": 7866, "Straight": 7867, "\u0120AE": 7868, "\u0120Blade": 7869, "\u0120constituency": 7870, "iga": 7871, "\u0120pilgrimage": 7872, "\u0120publicity": 7873, "\u0120Dying": 7874, "\u0120tailings": 7875, "\u0120numeric": 7876, "\u0120PROCESS": 7877, "\u0120Janet": 7878, "\u0120offsets": 7879, "\u0120441": 7880, "\u0120Sta": 7881, "\u0120Delicious": 7882, "manned": 7883, "\u0120Turner": 7884, "\u0120horoscope": 7885, "\u0120assessments": 7886, "\u0120sharpened": 7887, "\u0120locally": 7888, "820": 7889, "oks": 7890, "vulnerability": 7891, "\u0120DBY": 7892, "\u0120antagonism": 7893, "CKS": 7894, "\u00ce\u00bf\u00e1\u00bf\u00a6": 7895, "\u0120ob": 7896, "\u0120climes": 7897, "Need": 7898, "good": 7899, "\u0120diagonally": 7900, "\u0120USEPA": 7901, "\u0120187": 7902, "\u0120intern": 7903, "\u0120hopelessness": 7904, "\u0120ballerina": 7905, "\u0120filariasis": 7906, "\u0120Fie": 7907, "\u0120photographer": 7908, "\u0120auction": 7909, "\u0120Alfalfa": 7910, "Separate": 7911, "\u0120enriched": 7912, "\u0120Spectrum": 7913, "\u0120circling": 7914, "\u0120encroach": 7915, "\u0120HPSS": 7916, "\u0120disruptions": 7917, "\u0120disorganized": 7918, "\u0120pluripotent": 7919, "\u0120veterans": 7920, "\u0120curated": 7921, "urgent": 7922, "\u0120tripartite": 7923, "ERY": 7924, "\u0120intuitive": 7925, "\u0120steadily": 7926, "\u0120seep": 7927, "\u0120106": 7928, "\u0120pneum": 7929, "\u0120diocese": 7930, "\u0120tubules": 7931, "\u0120babies": 7932, "arta": 7933, "]\"": 7934, "Peer": 7935, "\u0120replication": 7936, "\u0120disastrous": 7937, "\u0120predate": 7938, "\u0120propellant": 7939, "\u0120Toshiba": 7940, "\u0120Cilicia": 7941, "\u0120overlaps": 7942, "\u0120Hernandez": 7943, "Gal": 7944, "\u0120derivative": 7945, "\u0120Wisdom": 7946, "\u0120penicillin": 7947, "\u0120RB": 7948, "\u0120Bhikkhu": 7949, "locks": 7950, "\u0120peacetime": 7951, "\u0120sexes": 7952, "!),": 7953, "ects": 7954, "\u0120Conditions": 7955, "\u0120Rosecrans": 7956, "\u0120octave": 7957, "ME": 7958, "\u0120cone": 7959, "\u0120closing": 7960, "\u0120Absorb": 7961, "\u0120Zucker": 7962, "\u0120sequentially": 7963, "\u0120stray": 7964, "\u0120Ud": 7965, "\u0120prosecution": 7966, "\u0120instructing": 7967, "\u0120insisted": 7968, "\u0120Aung": 7969, "random": 7970, "\u0120lucrative": 7971, "\u0120splendour": 7972, "\u0120conflagration": 7973, "\u0120yeast": 7974, "\u0120dormitories": 7975, "\u0120educate": 7976, "BA": 7977, "\u0120haze": 7978, "\u0120acquiring": 7979, "\u0120radicals": 7980, "eaters": 7981, "\u0120Willis": 7982, "\u0120diabetic": 7983, "bul": 7984, "\u0120yields": 7985, "\u0120darker": 7986, "\u0120entitlements": 7987, "\u0120Saraswati": 7988, "\u0120White": 7989, "\u0120such": 7990, "\u0120tombstones": 7991, "\u0120Automation": 7992, "\u00ce\u00bf\u00ce\u00b9": 7993, "\u0120Longevity": 7994, "\u0120Joanna": 7995, "Term": 7996, "dor": 7997, "\u0120Rachel": 7998, "\u0120transparent": 7999, "gee": 8000, "\u0120Tectonics": 8001, "\u0120silence": 8002, "\u0120institutional": 8003, "\u0120allocations": 8004, "Ambassador": 8005, "\u0120perpetual": 8006, "\u0120inst": 8007, "\u0120Rh": 8008, "\u00b5": 8009, "\u0120takers": 8010, "\u0120Aquaculture": 8011, "d\u00c3\u00b4": 8012, "imagine": 8013, "\u0120ine": 8014, "cup": 8015, "\u0120pondering": 8016, "\u0120dock": 8017, "\u0120materialize": 8018, "\u0120Stay": 8019, "\u0120Chit": 8020, "\u0120hearken": 8021, "\u0120physiologically": 8022, "Best": 8023, "\u0120kidneys": 8024, "\u0120shades": 8025, "physis": 8026, "\u0120adherent": 8027, "\u0120River": 8028, "\u0120Parents": 8029, "\u0120effectively": 8030, "\u0120primitives": 8031, "\u0120Amongst": 8032, "faction": 8033, "\u0120investigator": 8034, "\u0120polygamy": 8035, "\u0120215": 8036, "\u0120334": 8037, "\u0120Diabetic": 8038, "\u0120ng": 8039, "Vatican": 8040, "\u0120religious": 8041, "\u0120exhalation": 8042, "\u0120decap": 8043, "\u0120Courtesy": 8044, "asinghe": 8045, "\u0120immensely": 8046, "really": 8047, "verb": 8048, "\u0120genders": 8049, "prey": 8050, "\u0120unpaired": 8051, "\u0120Nutrition": 8052, "\u0120bolt": 8053, "\u0120discolored": 8054, "\u0120238": 8055, "Suff": 8056, "gift": 8057, "\u0120condense": 8058, "\u0120collaboration": 8059, "\u0120Armenian": 8060, "Elements": 8061, "\u0120validity": 8062, "\u0120laying": 8063, "\u012046": 8064, "\u0120stockade": 8065, "\u0120gran": 8066, "\u0120aquariums": 8067, "\u0120headlines": 8068, "mind": 8069, "\u0120Bag": 8070, "\u0120Sumner": 8071, "\u0120('": 8072, "\u0120permaculture": 8073, "\u0120fisheries": 8074, "\u0120inmate": 8075, "\u0120unincorporated": 8076, "\u01201831": 8077, "Feeling": 8078, "\u0120scenario": 8079, "\u0120cruelly": 8080, "term": 8081, "\u0120mixtures": 8082, "\u0120January": 8083, "TEXT": 8084, "Prepare": 8085, "\u0120tularemia": 8086, "\u0120goose": 8087, "\u0120Sawyer": 8088, "\u0120Clovis": 8089, "\u0120legislative": 8090, "\u0120expose": 8091, "\u01201948": 8092, "uk": 8093, "\u0120archaeologists": 8094, "Publications": 8095, "\u0120Speak": 8096, "shift": 8097, "Maharashtra": 8098, "\u0120Phenomena": 8099, "\u0120fuse": 8100, "aires": 8101, "\u0120receptacles": 8102, "educated": 8103, "Mexico": 8104, "Cattle": 8105, "\u0120theirs": 8106, "'ll": 8107, "\u0120FS": 8108, "\u0120atrocities": 8109, "\u0120Philosophers": 8110, "\u0120teamed": 8111, "\u0120Bretton": 8112, "\u0120soaps": 8113, "Send": 8114, "\u0120Matisse": 8115, "\u0120n": 8116, "\u0120retinopathy": 8117, "\u0120admitted": 8118, "\u0120APPN": 8119, "\u0120Paper": 8120, "removal": 8121, "\u013e": 8122, "\u0120Durham": 8123, "\u0120incrustation": 8124, "internal": 8125, "\u0120usable": 8126, "\u0120Marine": 8127, "ceded": 8128, "\u0120Oryza": 8129, "bage": 8130, "\u0120experimenter": 8131, "\u0120Alaska": 8132, "\u0120overlooked": 8133, "\u0120OED": 8134, "49": 8135, "\u0120Hirsch": 8136, "\u0120Poland": 8137, "890": 8138, "ESA": 8139, "\u0120Metropolitan": 8140, "\u0120Accessible": 8141, "\u0120estate": 8142, "\u0120\u00c4\u0123k\u00c4\u0123\u00c5\u013d": 8143, "enary": 8144, "\u0120unison": 8145, "Intra": 8146, "\u0120transferred": 8147, "?]": 8148, "DR": 8149, "\u0120amplify": 8150, "\u0120shipwrecks": 8151, "Forensic": 8152, "communal": 8153, "necessary": 8154, "\u0120Sera": 8155, "WT": 8156, "\u0120Tigris": 8157, "\u0120ellipsoid": 8158, "\u0120loop": 8159, "\u0120colostomy": 8160, "503": 8161, "\u0120repetition": 8162, "\u0120HealthDay": 8163, "\u012027": 8164, "\u0120communists": 8165, "lands": 8166, "\u0120invalid": 8167, "\u0120smiled": 8168, "phagia": 8169, "\u0120Card": 8170, "\u0120controllers": 8171, "\u0120zebra": 8172, "awareness": 8173, "\u0120codons": 8174, "\u0120Applied": 8175, "\u0120preventing": 8176, "\u0120Cu": 8177, "illary": 8178, "Policies": 8179, "531": 8180, "Spa": 8181, "\u0120averaging": 8182, "\u0120Flat": 8183, "\u0120Circum": 8184, "\u0120inferred": 8185, "graf": 8186, "countable": 8187, "\u0120poker": 8188, "\u0120geysers": 8189, "\u0120Rafael": 8190, "\u0120sew": 8191, "\u0120loosening": 8192, "\u0120merges": 8193, "\u0120proclaim": 8194, "\u0120Nellie": 8195, "\u0120juries": 8196, "\u0120Psychotherapy": 8197, "\u0120Cassandra": 8198, "\u0120IA": 8199, "Lycopene": 8200, "\u0120detergents": 8201, "oked": 8202, "uri": 8203, "\u0120radii": 8204, "\u0120painkillers": 8205, "\u0120exacerbation": 8206, "lok": 8207, "Spanish": 8208, "\u0120psalms": 8209, "\u0120bourgeoisie": 8210, "\u0120Bara": 8211, "Write": 8212, "\u0120remission": 8213, "\u0120sustenance": 8214, "Close": 8215, "rc": 8216, "\u0120Walter": 8217, "Antibiotics": 8218, "\u0120Euclidean": 8219, "325": 8220, "\u0120emanate": 8221, "\u0120Educ": 8222, "\u0120dwindled": 8223, "eld": 8224, "\u0120demolition": 8225, "\u0120packaging": 8226, "sburg": 8227, "Col": 8228, "\u0120degenerate": 8229, "MH": 8230, "Ter": 8231, "\u0120perseverance": 8232, "\u0120377": 8233, "\u0120overtake": 8234, "\u0120palaeont": 8235, "\u0120Regression": 8236, "\u0120fishery": 8237, "\u0120Punxsutawney": 8238, "mas": 8239, "\u0120Salmonella": 8240, "lines": 8241, "\u0120comforted": 8242, "\u0120Comfort": 8243, "\u0120rework": 8244, "\u0120Unported": 8245, "hib": 8246, "MES": 8247, ",\u00e2\u0122\u013b": 8248, "\u0120unveil": 8249, "\u0120leaky": 8250, "\u0120resonates": 8251, "\u0120macromolecules": 8252, "\u0120Yamaguchi": 8253, "\u0120ADC": 8254, "Grades": 8255, "\u0120Quin": 8256, "\u0120increase": 8257, "\u0120contact": 8258, "\u0120windings": 8259, "\u0120nominees": 8260, "\u0120abuses": 8261, "\u0120unquestionably": 8262, "tico": 8263, "nga": 8264, "iformes": 8265, "\u0120embodiment": 8266, "dimensional": 8267, "\u0120Ensure": 8268, "\u0120slick": 8269, "\u00c3\u0124": 8270, "\u0120defendants": 8271, "names": 8272, "\u0120clipping": 8273, "\u0120graft": 8274, "ator": 8275, "\u0120Several": 8276, "\u0120Glamorgan": 8277, "\u0120Coriolis": 8278, "\u0120290": 8279, "\u0120Install": 8280, "nie": 8281, "\u0120Kimball": 8282, "\u0120parathyroid": 8283, "\u0120attractions": 8284, "\u0120Gilgamesh": 8285, "oco": 8286, "\u0120diarrhoeal": 8287, "\u0120Chadwick": 8288, "\u0120inequality": 8289, "\u0120edicts": 8290, "\u0120accuse": 8291, "\u0120Coach": 8292, "CNS": 8293, "\u0120deglaciation": 8294, "\u0120interrupt": 8295, "\u0120Manuscript": 8296, "\u0120Wheels": 8297, "\u0120cartilage": 8298, "\u0120indigent": 8299, "\u0120resounding": 8300, "\u0120upriver": 8301, "Revolution": 8302, "\u0120sins": 8303, "\u0120slices": 8304, "\u0120forecasters": 8305, "\u0120Assistance": 8306, "ebel": 8307, "lox": 8308, "\u0120reception": 8309, "oc": 8310, "\u0120cyclic": 8311, "\u0120additives": 8312, "\u0120Sarajevo": 8313, "\u0120impermeable": 8314, "\u0120affordability": 8315, "\u0120smarter": 8316, "Sen": 8317, "\u0120Enterprise": 8318, "\u0120prosthetic": 8319, "\u0120Intangible": 8320, "\u0120Alumni": 8321, "\u0120crosses": 8322, "\u0120stirs": 8323, "\u0120pinnacle": 8324, "\u0120Cottage": 8325, "\u0120utero": 8326, "ds": 8327, "\u0120allure": 8328, "\u0120kayak": 8329, "\u0120protesters": 8330, "1980": 8331, "\u0120Dou": 8332, "\u0120disinfection": 8333, "\u0120stalactites": 8334, "\u0120galactose": 8335, "Ev": 8336, "AML": 8337, "\u0120MSL": 8338, "\u0120implantation": 8339, "ried": 8340, "NOAA": 8341, "\u0120spectro": 8342, "aten": 8343, "\u0120nonsmokers": 8344, "\u0120Wireless": 8345, "\u0120warmed": 8346, "\u0120hiding": 8347, "\u0120fourteen": 8348, "nch": 8349, "\u0120reproductive": 8350, "\u0120recharged": 8351, "\u0120enriching": 8352, "\u0120Infantry": 8353, "oli": 8354, "\u0120Andaman": 8355, "\u0120flavour": 8356, "\u0120prosecuted": 8357, "\u0120McKinley": 8358, "\u0120galactic": 8359, "Barbara": 8360, "\u0120obsidian": 8361, "\u0120uproot": 8362, "\u0120DES": 8363, "\u0120retrofit": 8364, "\u0120sanitation": 8365, "\u0120milk": 8366, "\u0120cardiopulmonary": 8367, "\u0120dosing": 8368, "\u0120WIC": 8369, "\u0120WBS": 8370, "deci": 8371, "\u0120so": 8372, "\u0120trillions": 8373, "\u0120Aut\u00c3\u00b3noma": 8374, "\u0120gl": 8375, "\u0120olive": 8376, "\u0120Gnetum": 8377, "\u0120Commissioners": 8378, "\u0120streamed": 8379, "\u0120Dillon": 8380, "\u0120\u00c2\u00b7": 8381, "pathname": 8382, "\u0120Clin": 8383, "eff": 8384, "Depression": 8385, "search": 8386, "\u0120bear": 8387, "\u0120Shan": 8388, "\u0120Welcome": 8389, "\u0120little": 8390, "\u0120crash": 8391, "lobed": 8392, "\u0120rigid": 8393, "\u0120make": 8394, "\u0120impairing": 8395, "Being": 8396, "\u0120disbanded": 8397, "\u0120Throne": 8398, "\u0120R\u00c3\u00a9": 8399, "\u0120Nine": 8400, "\u0120Excessive": 8401, "\u0120Preamble": 8402, "suasive": 8403, "\u0120Greater": 8404, "\u0120lag": 8405, "\u0120Spur": 8406, "rowing": 8407, "\u01201698": 8408, "\u0120siren": 8409, "\u0120BEGIN": 8410, "6": 8411, "Boer": 8412, "\u0120oxidase": 8413, "\u0120na": 8414, "\u0120slanted": 8415, "\u0120Obesity": 8416, "\u0120Invasion": 8417, "\u0120bhikkhu": 8418, "\u0120hippopotamus": 8419, "\u0120lyre": 8420, "Selected": 8421, "\u0120textual": 8422, "\u0120reunification": 8423, "\u0120131": 8424, "\u0120NIH": 8425, "\u0120Supervisors": 8426, "\u0120carcasses": 8427, "\u0120issuance": 8428, "\u0120322": 8429, "\u0120Summit": 8430, "\u0120din": 8431, "\u0120grows": 8432, "\u0120Earliest": 8433, "807": 8434, "endorf": 8435, "\u0120recast": 8436, "\u0120indelible": 8437, "\u00c3\u00b1o": 8438, "\u0120aesthetically": 8439, "\u0120Survivors": 8440, "\u0120ensembles": 8441, "\u0120Merced": 8442, "ence": 8443, "\u0120licensing": 8444, "\u0120meteorological": 8445, "\u0120Apple": 8446, "\u0120acidic": 8447, "sville": 8448, "\u0120dim": 8449, "\u0120curve": 8450, "\u0120Prejudice": 8451, "\u0120interpretive": 8452, "\u0120TNT": 8453, "\u0120temporally": 8454, "\u0120840": 8455, "\u0120AYP": 8456, "Change": 8457, "\u0120colours": 8458, "\u0120Med": 8459, "\u0120USDA": 8460, "\u0120contented": 8461, "\u0120Herman": 8462, "\u0120displays": 8463, "roads": 8464, "gue": 8465, "\u0120Schmitt": 8466, "\u01201730": 8467, "\u0120infiltrate": 8468, "\u0120making": 8469, "\u0120Tepe": 8470, "\u0120Shackleton": 8471, "\u0120ES": 8472, "beds": 8473, "\u0120Scots": 8474, "\u0120paleontologist": 8475, "\u0120encapsulation": 8476, "\u0120cheek": 8477, "nytimes": 8478, "\u0120Lan": 8479, "\u0120Enhancing": 8480, "\u0120pulleys": 8481, "floor": 8482, "\u0120repeating": 8483, "\u0120Kamehameha": 8484, "\u0120protection": 8485, "Galileo": 8486, "\u0120labors": 8487, "\u0120Divide": 8488, "\u0120intravenous": 8489, "\u0120DEET": 8490, "\u0120oseltamivir": 8491, "\u0120Eagle": 8492, "Che": 8493, "\u0120pastors": 8494, "\u0120until": 8495, "\u0120402": 8496, "00": 8497, "\u0120economical": 8498, "\u0120localized": 8499, "\u0120laws": 8500, "\u0120495": 8501, "\u0120neglecting": 8502, "\u0120pneumonitis": 8503, "\u0120sway": 8504, "Strategy": 8505, "\u0120Berman": 8506, "\u0120victories": 8507, "\u0120HE": 8508, "\u0120exempt": 8509, "\u0120abnormalities": 8510, "\u0120slaying": 8511, "\u0120down": 8512, "commit": 8513, "nagar": 8514, "\u0120asphyxia": 8515, "\u0120Lafort": 8516, "\u0120occ": 8517, "\u0120messaging": 8518, "\u0120tendencies": 8519, "\u0120cartridge": 8520, "culture": 8521, "\u0120atheism": 8522, "\u0120Intellectual": 8523, "\u0120around": 8524, "abdominal": 8525, "\u0120hack": 8526, "aking": 8527, "uniform": 8528, "Wheat": 8529, "gen": 8530, "contents": 8531, "\u0120implies": 8532, "\u0120STDs": 8533, "\u0120disorderly": 8534, "\u0120optimizing": 8535, "\u0120fouling": 8536, "\u0120levee": 8537, "\u0120Tolkien": 8538, "\u0120Sn": 8539, "\u0120The": 8540, "\u0120metals": 8541, "1982": 8542, "sacred": 8543, "sufficiency": 8544, "\u0120Simulator": 8545, "\u0120kalari": 8546, "\u0120Broadway": 8547, "\u0120Nervous": 8548, "sman": 8549, "\u0120spending": 8550, "0001": 8551, "\u0120Prevent": 8552, "\u0120Linux": 8553, "\u0120Ton": 8554, "\u0120Charitable": 8555, "\u0120tucked": 8556, "\u0120pity": 8557, "\u0120Pray": 8558, "\u0120practiced": 8559, "\u0120American": 8560, "acha": 8561, "today": 8562, "\u0120Nancy": 8563, "orient": 8564, "\u0120elitist": 8565, "dll": 8566, "\u0120jungle": 8567, "\u0120fieldwork": 8568, "\u0120Flynn": 8569, "\u0120injuring": 8570, "Frame": 8571, "332": 8572, "amous": 8573, "\u0120Disk": 8574, "zano": 8575, "\u0120Popes": 8576, "\u0120bananas": 8577, "\u0120Hein": 8578, "Pyysi\u00c3\u00a4inen": 8579, "Observation": 8580, "\u0120forehead": 8581, "Room": 8582, "\u0120deltas": 8583, "\u0120ostriches": 8584, "\u0120pinned": 8585, "\u0120\u00e0": 8586, "\u0120protector": 8587, "ard": 8588, "\u0120comeback": 8589, "\u0120genes": 8590, "\u0120Explanatory": 8591, "van": 8592, "\u0120immigration": 8593, "\u0120Cold": 8594, "\u0120faunal": 8595, "\u0120assassins": 8596, "\u0120astronomical": 8597, "1809": 8598, "\u0120indefatigable": 8599, "\u0120willing": 8600, "\u0120Exploitation": 8601, "\u0120Sergeant": 8602, "gly": 8603, "\u0120horse": 8604, "\u0120multiple": 8605, "\u0120tomorrow": 8606, "\u0120holy": 8607, "\u0120Hadith": 8608, "Fossil": 8609, "\u0120spark": 8610, "\u0120sugars": 8611, "Could": 8612, "kta": 8613, "\u0120tangible": 8614, "\u0120Civ": 8615, "\u0120theobromine": 8616, "\u0120weight": 8617, "\u0120moored": 8618, "\u0120algal": 8619, "\u0120Colour": 8620, "\u0120coherent": 8621, "\u0120Nordsj\u00c3\u00a6lland": 8622, "\u0120274": 8623, "\u0120prae": 8624, "\u0120listings": 8625, "\u0120hostage": 8626, "\u0120Makers": 8627, "258": 8628, "vate": 8629, "Thank": 8630, "\u0120randomly": 8631, "iterator": 8632, "aldehyde": 8633, "\u0120right": 8634, "\u0120\u00d9\u012a": 8635, "\u0120radiologists": 8636, "belief": 8637, "\u0120eliciting": 8638, "\u0120italic": 8639, "\u0120sieve": 8640, "\u0120cutaneous": 8641, "THURSDAY": 8642, "\u0120creativity": 8643, "\u0120unaccounted": 8644, "spect": 8645, "\u0120Jausoro": 8646, "also": 8647, "Credit": 8648, "\u0120varied": 8649, "True": 8650, "547": 8651, "Person": 8652, "India": 8653, "\u0120aggressiveness": 8654, "\u0120graffiti": 8655, "\u00e1": 8656, "\u0120awarded": 8657, "\u0120NIS": 8658, "\u0120Schedule": 8659, "Wireless": 8660, "\u0120Aha": 8661, "\u0120favorable": 8662, "\u0120university": 8663, "\u0120Indicator": 8664, "\u0120luxurious": 8665, "Practice": 8666, "\u0120pronounce": 8667, "\u0120Hydrogen": 8668, "\u0120politicians": 8669, "\u0120peering": 8670, "inosis": 8671, "\u0120trek": 8672, "\u0120projected": 8673, "Less": 8674, "\u0120cyclist": 8675, "\u0120pipes": 8676, "\u0120[\"": 8677, "\u0120PERSON": 8678, "\u0120hom": 8679, "Astro": 8680, "\u0120unprovoked": 8681, "\u0120Evolutionists": 8682, "\u0120Taj": 8683, "Copper": 8684, "\u0120tactics": 8685, "vailing": 8686, "Jen": 8687, "\u0120Witherspoon": 8688, "sightedness": 8689, "\u0120Forster": 8690, "\u0120turquoise": 8691, "\u0120texting": 8692, "\u0120came": 8693, "\u0120Finger": 8694, "\u0120EIT": 8695, "Autumn": 8696, "\u01201767": 8697, "\u0120ruins": 8698, "rify": 8699, "\u0120vasculature": 8700, "Important": 8701, "\u0120Hood": 8702, "\u0120Has": 8703, "inopathy": 8704, "\u0120providence": 8705, "MY": 8706, "\u0120oxidize": 8707, "Conservation": 8708, "\u0120sawdust": 8709, "\u0120manipulator": 8710, "significant": 8711, "\u0120armpit": 8712, "\u0120TI": 8713, "\u0120insisting": 8714, "\u0120Pompey": 8715, "\u0120crept": 8716, "Eight": 8717, "\u0120cicada": 8718, "\u0120New": 8719, "\u0120multiplied": 8720, "\u0120collapsed": 8721, "\u0120Unpublished": 8722, "\u0120formidable": 8723, "performance": 8724, "\u0120detoxify": 8725, "\u0120IQ": 8726, "ospor": 8727, "\u0120triphosphatase": 8728, "district": 8729, "\u0120afflictions": 8730, "Wikisource": 8731, "\u0120revoke": 8732, "\u0120strange": 8733, "\u0120upbeat": 8734, "\u0120celiac": 8735, "faq": 8736, "\u0120hype": 8737, "\u0120SOHO": 8738, "\u0120Moo": 8739, "\u0120interrupts": 8740, "\u0120Bloemfontein": 8741, "\u0120String": 8742, "\u0120Lawyer": 8743, "\u0120refute": 8744, "ung": 8745, "\u0120Swin": 8746, "\u0120Ananda": 8747, "\u0120past": 8748, "\u0120conjugated": 8749, "Differences": 8750, "ABOUT": 8751, "\u0120heats": 8752, "\u0120Ruskin": 8753, "\u0120leap": 8754, "but": 8755, "\u0120wandered": 8756, "\u0120abundances": 8757, "\u0120Kearney": 8758, "uation": 8759, "\u0120anticipates": 8760, "\u0120Winner": 8761, "\u0120Boyle": 8762, "\u0120veil": 8763, "\u0120Cf": 8764, "constrained": 8765, "\u0120explicitly": 8766, "CB": 8767, "Station": 8768, "Levels": 8769, "\u0120Hundred": 8770, "crossed": 8771, "\u0120unilaterally": 8772, "\u0120Everybody": 8773, "\u0120symmetry": 8774, "\u0120listing": 8775, "\u0120conforms": 8776, "Giving": 8777, "\u0120regenerated": 8778, "\u0120yours": 8779, "\u0120bluff": 8780, "\u0120disfranchis": 8781, "\u0120trademarks": 8782, "\u0120vertebr": 8783, "\u0120RAM": 8784, "\u0120Offered": 8785, "\u0120incentives": 8786, "\u0120Watchers": 8787, "\u0120founded": 8788, "\u0120Seals": 8789, "Condition": 8790, "\u0120archive": 8791, "\u0120gallium": 8792, "\u0120honey": 8793, "\u0120foster": 8794, "\u0120Cinema": 8795, "\u0120happier": 8796, "\u0120Atkinson": 8797, "\u0120Hanukkah": 8798, "Guide": 8799, "woman": 8800, "\u0120forthcoming": 8801, "\u0120summit": 8802, "\u0120Treaties": 8803, "tory": 8804, "Add": 8805, "Wright": 8806, "\u0120Nikon": 8807, "\u0120Smyth": 8808, "\u0120excelled": 8809, "\u0120Kaiser": 8810, "\u0120Lens": 8811, "RW": 8812, "geri": 8813, "\u0120contracted": 8814, "\u0120god": 8815, "\u0120urinating": 8816, "\u0120nets": 8817, "\u0120254": 8818, "\u0120dignities": 8819, "ranged": 8820, "\u0120horseback": 8821, "Around": 8822, "\u0120Rand": 8823, "\u0120wheelchair": 8824, "\u0120daemon": 8825, "\u0120Moravia": 8826, "\u0120emperor": 8827, "blow": 8828, "\u01201840": 8829, "\u0120Ritual": 8830, "currently": 8831, "\u0120sprinklers": 8832, "\u0120Dexter": 8833, "kens": 8834, "\u0120Diocese": 8835, "\u0120Patch": 8836, "sentence": 8837, "222": 8838, "\u00ce\u0136": 8839, "\u0120licence": 8840, "\u0120bunny": 8841, "\u0120Eucalyptus": 8842, "\u0120fulfillment": 8843, "\u0120Tae": 8844, "\u0120acetate": 8845, "\u0120Id": 8846, "\u0120Josiah": 8847, "aras": 8848, "\u0120727": 8849, "\u0120Pic": 8850, "Contemporary": 8851, "\u0120Valentine": 8852, "\u0120Municipality": 8853, "\u01201803": 8854, "\u0120extrapolate": 8855, "Care": 8856, "\u0120Kunst": 8857, "\u0120antiseptic": 8858, "\u0120shorelines": 8859, "\u0120luck": 8860, "\u0120Observ": 8861, "reported": 8862, "\u0120repudiated": 8863, "grown": 8864, "enti": 8865, "\u0120Bodleian": 8866, "chicken": 8867, "050": 8868, "\u0120Burgos": 8869, "\u0120emotion": 8870, "\u0120Yellow": 8871, "\u0120bloodless": 8872, "sequence": 8873, "\u0120climates": 8874, "\u0120jointly": 8875, "\u0120Daiichi": 8876, "\u0120Prot": 8877, "\u0120terrific": 8878, "\u0120Physicists": 8879, "\u0120Moth": 8880, "CREATE": 8881, "\u0120reap": 8882, "27": 8883, "\u0120WE": 8884, "eighteenth": 8885, "har": 8886, "\u0120ala": 8887, "\u0120Primer": 8888, "ON": 8889, "bble": 8890, "\u0120Description": 8891, "\u0120adoption": 8892, "rical": 8893, "\u0120Protector": 8894, "BOR": 8895, "Economics": 8896, "\u0120parables": 8897, "Nice": 8898, "ional": 8899, "\u0120Way": 8900, "546": 8901, "\u0120Stu": 8902, "\u0120DU": 8903, "sv": 8904, "\u0120Nepal": 8905, "\u0120Liszt": 8906, "\u0120advancement": 8907, "\u0120alkali": 8908, "\u0120Studies": 8909, "\u0120Weak": 8910, "\u0120Crick": 8911, "\u0120dome": 8912, "CbCr": 8913, "\u0120Nanak": 8914, "\u0120munitions": 8915, "\u0120Taurus": 8916, "diol": 8917, "\u0120Larry": 8918, "\u0120protectors": 8919, "\u0120Yas": 8920, "Terror": 8921, "\u0120means": 8922, "\u0120Arche": 8923, "\u0120Madness": 8924, "patriot": 8925, "\u0120crap": 8926, "esian": 8927, "\u0120readable": 8928, "2015": 8929, "\u0120stratigraphy": 8930, "\u0120logging": 8931, "\u0120sha": 8932, "\u0120aroused": 8933, "\u0120nests": 8934, "xie": 8935, "\u0120inconspicuous": 8936, "\u0120Randall": 8937, "\u0120antagonists": 8938, "\u0120inept": 8939, "bas": 8940, "\u0120specifier": 8941, "\u0120Military": 8942, "\u0120experiential": 8943, "GERD": 8944, "\u0120forgets": 8945, "\u0120Amerindian": 8946, "\u0120unfettered": 8947, "\u0120los": 8948, "\u0120instigation": 8949, "\u0120systematic": 8950, "Juan": 8951, "\u0120Audience": 8952, "\u0120Decimal": 8953, "\u0120executes": 8954, "\u0120consumes": 8955, "\u0120sacrificial": 8956, "catalytic": 8957, "\u0120railways": 8958, "Gan": 8959, "\u0120antioxidants": 8960, "UPDATE": 8961, "\u0120paganism": 8962, "\u0120phylogeny": 8963, "\u0120Chr": 8964, "\u0120Dent": 8965, "\u0120overcast": 8966, "scholars": 8967, "\u0120repairs": 8968, "\u0120always": 8969, "\u0120fossilized": 8970, "\u0120km": 8971, "urban": 8972, "\u0120faculties": 8973, "\u0120enacted": 8974, "\u0120starving": 8975, "\u0120doubted": 8976, "\u0120Airmen": 8977, "\u0120affirms": 8978, "\u0120Congregation": 8979, "\u0120Utrecht": 8980, "aqu": 8981, "\u0120Fabric": 8982, "\u0120Insights": 8983, "\u0120enzymes": 8984, "Commercial": 8985, "nick": 8986, "\u0120Listening": 8987, "\u0120equal": 8988, "1948": 8989, "free": 8990, "\u0120tro": 8991, "\u0120irreversibly": 8992, "\u0120Madhya": 8993, ":\u00e2\u0122\u0136": 8994, "\u0120jumble": 8995, "developed": 8996, "\u0120infinity": 8997, "\u0120delineating": 8998, "\u0120Keep": 8999, "\u0120accessing": 9000, "\u0120killings": 9001, "\u0120Disorder": 9002, "ologically": 9003, "constitu": 9004, "\u012063": 9005, "\u0120pinhole": 9006, "1984": 9007, "Garden": 9008, "\u0120Bernadette": 9009, "\u0120shooting": 9010, "150": 9011, "\u0120Relationship": 9012, "\u0120tenacious": 9013, "\u0120Oro": 9014, "\u0120squat": 9015, "\u0120alms": 9016, "voyage": 9017, "\u0120Occupational": 9018, "\u0120544": 9019, "ometers": 9020, "\u0120flocked": 9021, "n": 9022, "tg": 9023, "\u0120Over": 9024, "\u0120polygons": 9025, "\u0120Oceanic": 9026, "\u0120stresses": 9027, "\u0120warrant": 9028, "Recovery": 9029, "\u0120excitement": 9030, "\u0120Frances": 9031, "\u0120acrylamide": 9032, "\u0120NRA": 9033, "zu": 9034, "\u0120menial": 9035, "reviewed": 9036, "\u0120Savage": 9037, "***": 9038, "nched": 9039, "\u0120Sound": 9040, "Feedback": 9041, "\u0120Slaves": 9042, "\u0120vegan": 9043, "\u0120Genetic": 9044, "\u0120appreciable": 9045, "\u0120Advantages": 9046, "\u0120cation": 9047, "\u0120Wages": 9048, "\u0120PVS": 9049, "\u0120frameworks": 9050, "ys": 9051, "\u0120congestion": 9052, "\u0120depot": 9053, "\u0120Xbox": 9054, "\u0120enclosing": 9055, "\u0120...": 9056, "gren": 9057, "\u0120bipedal": 9058, "\u0120categorical": 9059, "\u0120Atoms": 9060, "\u0120objectionable": 9061, "\u0120Toxicology": 9062, "\u0120perfumes": 9063, "\u0120dichotomous": 9064, "\u0120hypergeometric": 9065, "\u0120posted": 9066, "\u0120Support": 9067, "tony": 9068, "ike": 9069, "\u0120Origen": 9070, "\u0120afflicted": 9071, "\u0120Barbara": 9072, "\u0120grooves": 9073, "\u0120let": 9074, "\u0120Luckily": 9075, "HI": 9076, "\u0120experimented": 9077, "\u0120illumination": 9078, "koff": 9079, "\u0120nesting": 9080, "ulgence": 9081, "\u0120impulses": 9082, "\u0120socialism": 9083, "\u0120Singleton": 9084, "\u0120Muscles": 9085, "\u0120collecting": 9086, "\u0120dre": 9087, "serve": 9088, "\u0120Terri": 9089, "\u00ce\u00bc": 9090, "\u0120overwhelm": 9091, "existing": 9092, "\u0120Limerick": 9093, "\u0120CNS": 9094, "\u0120\u00d0\u00bf\u00d0\u00be": 9095, "\u0120Time": 9096, "\u0120Mother": 9097, "\u0120AMS": 9098, "member": 9099, "\u0120clone": 9100, "\u0120disseminated": 9101, "\u0120Jim\u00c3\u00a9nez": 9102, "\u01201910": 9103, "\u0120checklist": 9104, "\u0120nematodes": 9105, "\u0120Walking": 9106, "\u0120represented": 9107, "\u0120girdle": 9108, "\u0120eliminate": 9109, "\u0120verb": 9110, "tous": 9111, "\u0120shank": 9112, "\u0120Jakob": 9113, "\u0120renewing": 9114, "\u00e3\u0123\u00a6\u00e3\u0123\u0126\u00e3\u0124\u012d": 9115, "\u0120Memoir": 9116, "\u0120Tall": 9117, "\u0120dependencies": 9118, "zi": 9119, "coast": 9120, "\u0120input": 9121, "\u0120Travancore": 9122, "\u0120Bingham": 9123, "\u0120Development": 9124, "\u01201891": 9125, "\u0120widely": 9126, "\u0120castration": 9127, "\u0120methyl": 9128, "\u0120consonants": 9129, "\u0120Potassium": 9130, "\u0120Dylan": 9131, "\u0120bureaucratic": 9132, "embryo": 9133, "aur": 9134, "odes": 9135, "plan": 9136, "\u0120Malawi": 9137, "rule": 9138, "\u0120capit": 9139, "\u0120wire": 9140, "\u0120737": 9141, "knowledge": 9142, "pronounced": 9143, "\u0120Henri": 9144, "Poverty": 9145, "\u0120repair": 9146, "\u0120swift": 9147, "\u0120Sarmatian": 9148, "\u0120hovering": 9149, "\u0120Dok": 9150, "\u0120collagen": 9151, "\u0120ballistic": 9152, "\u0120Hendra": 9153, "January": 9154, "tton": 9155, "basis": 9156, "Ulcerative": 9157, "\u0120subversive": 9158, "attached": 9159, "DEFINITION": 9160, "\u0120Affirm": 9161, "\u0120pays": 9162, "\u0120fixture": 9163, "\u0120purposefully": 9164, "ffles": 9165, "\u0120Carbohydrates": 9166, "hre": 9167, "April": 9168, "assuming": 9169, "Yoko": 9170, "\u0120sex": 9171, "\u0120embed": 9172, "\u0120feeders": 9173, "644": 9174, "esophageal": 9175, "\u0120Lighthouse": 9176, "\u0120eagle": 9177, "\u0120trophic": 9178, "\u0120Pea": 9179, "\u0120Cerebral": 9180, "\u0120edge": 9181, "\u0120Polycarp": 9182, "gman": 9183, "Inc": 9184, "\u0120Gb": 9185, "sight": 9186, "\u0120untold": 9187, "\u0120Tutorials": 9188, "ato": 9189, "\u0120mk": 9190, "south": 9191, "elling": 9192, "ask": 9193, "\u0120STA": 9194, "\u0120racing": 9195, "\u0120J": 9196, "\u0120Lehmann": 9197, "\u0120Rise": 9198, "\u0120polytheistic": 9199, "\u0120Constraints": 9200, "\u0120worrisome": 9201, "conservation": 9202, "CLICK": 9203, "Exc": 9204, "293": 9205, "\u0120Haile": 9206, "\u0120scatter": 9207, "\u0120Prevalence": 9208, "\u00e3\u0125": 9209, "\u0120Kieslowski": 9210, "\u0120Krak\u00c3\u00b3w": 9211, "\u0120centres": 9212, "\u0120purged": 9213, "\u0120ref": 9214, "\u0120cleansed": 9215, "\u0120Um": 9216, "\u0120destroyed": 9217, "\u0120biome": 9218, "\u0120asthma": 9219, "\u0120Eugen": 9220, "\u0120householder": 9221, "\u0120inexplicable": 9222, "associate": 9223, "\u0120neon": 9224, "078": 9225, "\u0120impregnated": 9226, "\u0120simulates": 9227, "\u0120weathering": 9228, "\u0120seller": 9229, "\u0120tracking": 9230, "\u0120Riviera": 9231, "\u0120shining": 9232, "\u01201859": 9233, "\u0120LA": 9234, "Founded": 9235, "\u0120\u00e1\u00b8\u012fh\u00c4\u0123ra\u00e1\u00b9\u0129\u00c4\u0123": 9236, "\u0120Californian": 9237, "\u0120Trypanosoma": 9238, "\u0120syndrome": 9239, "\u0120default": 9240, "\u0120Creed": 9241, "\u0120Bordeaux": 9242, "\u0120hardest": 9243, "\u0120Crystal": 9244, "\u0120counselling": 9245, "\u0120unsound": 9246, "press": 9247, "\u0120pil": 9248, "\u0120Cobham": 9249, "\u0120Archangel": 9250, "\u0120Few": 9251, "\u0120Acoustic": 9252, "\u0120su": 9253, "Tomorrow": 9254, "81": 9255, "\u0120permanently": 9256, "\u0120Racism": 9257, "\u0120Honest": 9258, "\u0120pleasantly": 9259, "Fall": 9260, "\u0120climatologists": 9261, "\u0120bushes": 9262, "omalacia": 9263, "inian": 9264, "\u0120uveitis": 9265, "\u0120wasps": 9266, "rach": 9267, "\u0120iSCSI": 9268, "\u012039": 9269, "\u0120slapped": 9270, "\u0120Freud": 9271, "Deuteronomy": 9272, "\u0120exhaled": 9273, "\u0120Trap": 9274, "Harry": 9275, "Eq": 9276, "\u0120racial": 9277, "Surgery": 9278, "YA": 9279, "\u0120broadening": 9280, "\u0120Organizing": 9281, "\u0120embassy": 9282, "\u0120obstructions": 9283, "\u0120appendix": 9284, "Pur": 9285, "\u0120Volk": 9286, "\u0120COR": 9287, "\u0120Zag": 9288, "lance": 9289, "idad": 9290, "render": 9291, "\u0120pinyin": 9292, "\u0120MHT": 9293, "\u0120fitness": 9294, "\u0120agree": 9295, "\u0120loin": 9296, "Amen": 9297, "\u0120Samples": 9298, "ffling": 9299, "\u0120Narasimha": 9300, "\u0120FACS": 9301, "349": 9302, "Philosoph": 9303, "\u0120TVA": 9304, "\u0120AF": 9305, "\u0120droppings": 9306, "\u0120Lille": 9307, "\u0120piping": 9308, "\u0120since": 9309, "Operating": 9310, "END": 9311, "\u0120reaction": 9312, "\u0120426": 9313, "\u0120theorists": 9314, "\u0120Million": 9315, "skeletal": 9316, "\u0120APOE": 9317, "\u0120quasi": 9318, "\u0120nag": 9319, "\u0120garnish": 9320, "ichthy": 9321, "high": 9322, "Mar": 9323, "\u0120Himself": 9324, "\u0120Deu": 9325, "\u0120shedding": 9326, "ob": 9327, "\u0120physio": 9328, "\u0120Ancestral": 9329, "Track": 9330, "\u0120beekeeper": 9331, "\u0120Browning": 9332, "584": 9333, "\u0120cinema": 9334, "\u00c4\u0123\u00e1\u00b9\u0143": 9335, "\u0120Mysterious": 9336, "\u0120SWPA": 9337, "\u0120accompanied": 9338, "\u0120Idi": 9339, "Gate": 9340, "Artist": 9341, "SON": 9342, "\u0120counts": 9343, "sai": 9344, "\u0120Link": 9345, "\u0120deal": 9346, "Psycho": 9347, "Complete": 9348, "\u0120get": 9349, "\u0120surgeries": 9350, "bodied": 9351, "\u0120predisposition": 9352, "\u0120DLR": 9353, "ffman": 9354, "\u0120bizarre": 9355, "\u00ef\u00b4\u00be": 9356, "Particip": 9357, "Degree": 9358, "quel": 9359, "\u0120787": 9360, "ogic": 9361, "\u0120legendary": 9362, "cakes": 9363, "\u0120breathes": 9364, "\u0120281": 9365, "\u0120Cazenovia": 9366, "\u0120nationhood": 9367, "weed": 9368, "locking": 9369, "NSAIDs": 9370, "313": 9371, "\u0120electrically": 9372, "\u0120murals": 9373, "\u0120insists": 9374, "\u0120PUBLIC": 9375, "\u0120Extrem": 9376, "\u0120hunting": 9377, "\u0120microbes": 9378, "clean": 9379, "\u0120Julia": 9380, "\u0120L": 9381, "\u0120cypress": 9382, "ete": 9383, "\u0120disgusting": 9384, "\u0120Sprague": 9385, "\u0120forcible": 9386, "\u0120Least": 9387, "construct": 9388, "actic": 9389, "\u0120aur": 9390, "\u0120clove": 9391, "\u0120part": 9392, "Audio": 9393, "\u0120exult": 9394, "\u0120Odin": 9395, "\u0120invests": 9396, "\u0120litho": 9397, "\u0120trader": 9398, "\u0120Col": 9399, "\u0120Jessica": 9400, "\u0120sk": 9401, "\u0120commuters": 9402, "Acts": 9403, "\u0120Tiberius": 9404, "deutsche": 9405, "\u0120preschooler": 9406, "\");": 9407, "warm": 9408, "\u0120slashed": 9409, "\u0120ridges": 9410, "\u0120Ngorongoro": 9411, "\u0120Battle": 9412, "\u0120Triangulum": 9413, "\u0120savvy": 9414, "\u0120Dw": 9415, "\u0120456": 9416, "milli": 9417, "\u0120Graphics": 9418, "kommando": 9419, "\u0120Virtual": 9420, "\u0120NIOSH": 9421, "stra": 9422, "kas": 9423, "Eastern": 9424, "\u0120conicus": 9425, "rangement": 9426, "\u0120eyelids": 9427, "\u0120sown": 9428, "\u0120waste": 9429, "\u0120complimentary": 9430, "\u0120Communion": 9431, "\u0120continuously": 9432, "\u0120tubercul": 9433, "\u0120mango": 9434, "\u0120Asclepius": 9435, ")||": 9436, "\u0120wiped": 9437, "Travel": 9438, "facilit": 9439, "\u0120CMB": 9440, "nca": 9441, "\u0120Whom": 9442, "\u0120exception": 9443, "\u0120Ourselves": 9444, "\u0120146": 9445, "\u0120uranium": 9446, "\u0120DEFAULT": 9447, "\u0120spout": 9448, "\u0120humane": 9449, "\u0120marched": 9450, "\u0120enlightened": 9451, "\u0120Woodson": 9452, "\u0120ducts": 9453, "compatible": 9454, "Wiki": 9455, "\u0120varnish": 9456, "\u00c4\u0143": 9457, "\u0120disability": 9458, "\u0120SR": 9459, "\u0120tossed": 9460, "\u0120Barbour": 9461, "stands": 9462, "\u0120Zoe": 9463, "\u0120baited": 9464, "\u0120behaviours": 9465, "\u0120Raumfahrt": 9466, "\u0120vicissitudes": 9467, "\u0120Reproductive": 9468, "\u0120active": 9469, "466": 9470, "\u0120Raj": 9471, "\u0120Eck": 9472, "showing": 9473, "\u0120apologize": 9474, "\u0120clients": 9475, "\u0120tilapia": 9476, "\u0120Eggs": 9477, "253": 9478, "udal": 9479, "\u0120249": 9480, "\u0120notes": 9481, "estra": 9482, "\u0120Senkaku": 9483, "journals": 9484, "tta": 9485, "\u0120235": 9486, "\u0120analogy": 9487, "HOW": 9488, "value": 9489, "\u0120Serious": 9490, "\u01201628": 9491, "Turner": 9492, "TIME": 9493, "\u0120Costa": 9494, "\u0120Bhagavad": 9495, "\u0120Armageddon": 9496,
[...]
