{"[UNK]": 0, "<|endoftext|>": 1, "\u0120Refining": 2, "\u0120insidiously": 3, "\u0120swiftly": 4, "\u0120ponds": 5, "\u0120committing": 6, "\u0120Cause": 7, "\u0120crystal": 8, "\u0120associations": 9, "am": 10, "awful": 11, "\u0120decrying": 12, "\u0120chlorine": 13, "\u0120arbitrage": 14, "\u0120Icarus": 15, "\u0120enterprises": 16, "\u0120th\u00c3\u0143s": 17, "\u0120colonize": 18, "\u0120recap": 19, "\u0120requesting": 20, "\u0120indu": 21, "\u0120G\u00c4\u0123ya\u00e1\u00b9\u0143r\u00c4\u00ab": 22, "\u0120Hav": 23, "ados": 24, "\u0120wrecking": 25, "\u0120rex": 26, "\u0120admirably": 27, "terrestrial": 28, "\u0120Leland": 29, "\u0120moderated": 30, "\u0120Tilly": 31, "alternate": 32, "\u0120nonchalant": 33, "\u0120Hottentot": 34, "blue": 35, "\u0120Prototypes": 36, "greener": 37, "\u0120sifting": 38, "Orthodoxy": 39, "\u0120367": 40, "\u0120Providence": 41, "Mus": 42, "rectangular": 43, "app": 44, "\u0120ferments": 45, "\u0120neurophysiology": 46, "zani": 47, "\u0120offic": 48, "\u0120rummaging": 49, "\u0120digitizer": 50, "\u0120succeed": 51, "Diocese": 52, "hio": 53, "\u0120calling": 54, "\u0120churchman": 55, "\u0120propagules": 56, "\u0120up": 57, "\u0120Cuvier": 58, "420": 59, "Together": 60, "\u0120siege": 61, "Experiments": 62, "\u0120glycosylated": 63, "\u0120773": 64, "\u0120\u00d7\u00a2\u00d7\u013e\u00d7\u013b": 65, "\u01201121": 66, "\u0120Sasaki": 67, "\u0120blurry": 68, "\u0120tiller": 69, "\u0120steno": 70, "\u0120Campaigns": 71, "\u0120maladaptive": 72, "\u0120Aloka": 73, "Passage": 74, "EX": 75, "\u0120Cava": 76, "\u0120quinque": 77, "?\u00e2\u0122\u013f,": 78, "\u0120Oregonian": 79, "MEG": 80, "\u0120jackrabbits": 81, "measure": 82, "\u0120coped": 83, "\u0120Twenties": 84, "\u0120Meningitis": 85, "\u0120thrift": 86, "\u0120downtown": 87, "\u0120Picchu": 88, "\u0120woollen": 89, "\u0120buttressed": 90, "\u0120sth": 91, "\u0120unthinkable": 92, "\u0120Dolorosa": 93, "yro": 94, "besides": 95, "\u0120disbelieve": 96, "\u0120NewsTrust": 97, "\u0120supernovae": 98, "\u0120encomium": 99, "\u0120Karen": 100, "\u0120queues": 101, "\u0120Birthdays": 102, "\u0120odd": 103, "\u0120Francisci": 104, "\u0120Vowel": 105, "\u0120Anticipation": 106, "\u0120correlating": 107, "\u0120pinpoints": 108, "\u0120HIM": 109, "IgG": 110, "\u0120illustrated": 111, "\u0120Berrima": 112, "modified": 113, "emagazine": 114, "\u0120cognitions": 115, "\u0120gunboat": 116, "Types": 117, "\u0120apriums": 118, "Careful": 119, "\u0120barn": 120, "militar": 121, "\u0120overpopulation": 122, "locate": 123, "\u0120vac": 124, "\u0120unfenced": 125, "\u0120elusive": 126, "\u0120Ladoga": 127, "\u0120Byrnes": 128, "1050": 129, "\u0120intolerance": 130, "\u0120playground": 131, "\u0120Plenipotentiary": 132, "\u0120Prognosis": 133, "\u0120reflection": 134, "\u0120Varro": 135, "\u0120decadent": 136, "\u0120chose": 137, "\u0120Massey": 138, "\u0120retracing": 139, "Carlson": 140, "\u0120Bare": 141, "\u0120demorali": 142, "\u0120ejaculation": 143, "\u0120Minh": 144, "conjunctivitis": 145, "\u0120intention": 146, "\u0120Oriental": 147, "\u0120ria": 148, "Yan": 149, "Infographic": 150, "IEEE": 151, "\u0120Explanation": 152, "\u0120Debolt": 153, "\u0120phosphor": 154, "alter": 155, "zheng": 156, "\u0120spiraling": 157, "\u0120yell": 158, "\u0120voodoo": 159, "krishnan": 160, "\u0120Bhumibol": 161, "Bach": 162, "According": 163, "\u0120Taha": 164, "\u0120Brut": 165, "Narc": 166, "\u0120blithe": 167, "\u0120DeWitt": 168, "\u0120jump": 169, "shortening": 170, "Traumatic": 171, "owned": 172, "\u0120Kabbalists": 173, "\u0120sensuality": 174, "\u0120Rodencal": 175, "\u0120vas": 176, "\u0120hemodialysis": 177, "\u0120Sewanee": 178, "\u0120silences": 179, "\u0120signatories": 180, "\u0120Rhea": 181, "\u0120draining": 182, "\u0120dashing": 183, "potency": 184, "\u0120Terminalia": 185, "\u0120bradyzoite": 186, "tex": 187, "Fire": 188, "\u0120interpose": 189, "\u0120Territorio": 190, "Jeopardy": 191, "Book": 192, "\u0120Smile": 193, "strong": 194, "Park": 195, "\u0120pgs": 196, "cary": 197, "\u0120commemorating": 198, "\u0120stooling": 199, "\u0120Performance": 200, "\u0120bachelors": 201, "319": 202, "\u0120USAAF": 203, "\u0120picket": 204, "\u0120MOC": 205, "alan": 206, "serious": 207, "\u0120advance": 208, "aman": 209, "\u0120leuko": 210, "\u0120MBTI": 211, "\u0120Motors": 212, "\u0120Sadie": 213, "\u0120adding": 214, "\u0120recycling": 215, "\u0120Nisbet": 216, "\u0120seaweed": 217, "\u0120LL": 218, "\u0120Farmington": 219, "CHASE": 220, "\u0120Deformation": 221, "trading": 222, "\u0120Palliative": 223, "modification": 224, "\u0120List": 225, "behavioral": 226, "objtab": 227, "\u0120cartesian": 228, "\u0120sightings": 229, "ats": 230, "zm": 231, "\u0120Calf": 232, "visiting": 233, "\u0120interagency": 234, "\u0120Begonia": 235, "\u0120Sumo": 236, "\u0120reworked": 237, "\u0120IKAROS": 238, "\u0120message": 239, "\u0120Aceh": 240, "\u0120aardvark": 241, "\u0120instantiate": 242, "/~": 243, "need": 244, "\u0120similes": 245, "\u0120amalgamated": 246, "\u0120dal": 247, "\u0120Immortal": 248, "\u0120Countdown": 249, "\u00e0\u00a4\u00b2": 250, "\u0120mimic": 251, "style": 252, "\u0120letting": 253, "\u0120wedded": 254, "inflammatories": 255, "\u0120Activities": 256, "Ramphotyphlops": 257, "pounders": 258, "\u0120intradermal": 259, "\u0120thrive": 260, "0140": 261, "\u0120Adorno": 262, "\u0120Nocturnal": 263, "\u0120Discomfort": 264, "\u0120Familiarize": 265, "\u0120antiemetic": 266, "\u0120constituencies": 267, "\u0120UNL": 268, "crip": 269, "dox": 270, "\u0120Reveal": 271, "disciple": 272, "\u0120abolish": 273, "\u0120sedulously": 274, "\u0120Heli": 275, "\u0120baits": 276, "\u0120Tost": 277, "\u0120interlibrary": 278, "\u0120detonate": 279, "Catholicism": 280, "\u0120thrives": 281, "\u0120FEP": 282, "\u0120deprived": 283, "\u0120aliens": 284, "\u0120miscellany": 285, "\u0120Marburg": 286, "\u0120mementos": 287, "\u0120566": 288, "\u0120earwax": 289, "Odysseus": 290, "wissenschaft": 291, "\u0120waistcoat": 292, "\u0120Eleventh": 293, "\u0120Acknowledgment": 294, "Walk": 295, "\u0120rededicate": 296, "Whom": 297, "\u0120Plot": 298, "\u0120Dyna": 299, "\u0120abstention": 300, "\u0120Radiocarbon": 301, "tability": 302, "\u0120ballad": 303, "\u0120Palenque": 304, "\u00c3\u0141": 305, "\u0120mosaic": 306, "\u0120Lyari": 307, "Morocco": 308, "wagon": 309, "\u0120IARC": 310, "\u0120vivax": 311, "\u0120Dolchsto\u00c3\u0141legende": 312, "laryng": 313, "\u0120Mania": 314, "\u0120inseminate": 315, "\u00d7\u013f": 316, "Hypo": 317, "\u0120oatmeal": 318, "\u01201832": 319, "\u0120inferior": 320, "0020": 321, "\u0120PAS": 322, "\u0120windmill": 323, "circulating": 324, "\u0120Dump": 325, "\u0120naturalist": 326, "\u0120thiamine": 327, "\u0120Bronze": 328, "\u0120PSR": 329, "Surgeons": 330, "\u0120Kommando": 331, "\u0120grazers": 332, "\u0120Reinventing": 333, "Niger": 334, "\u0120disgraceful": 335, "\u0120Ermentrout": 336, "enzymatic": 337, "Telomerase": 338, "\u0120Master": 339, "Sensor": 340, "\u0120ANDC": 341, "Canada": 342, "\u0120precessional": 343, "a": 344, "\u0120uninhabitable": 345, "\u0120histocompatibility": 346, "Intestinal": 347, "\u0120Erected": 348, "\u0120layered": 349, "\u0120outgrow": 350, "\u0120Coxswain": 351, "\u0120saltpeter": 352, "\u0120awash": 353, "\u01202": 354, "Investigators": 355, "\u0120Pearce": 356, "\u0120didymo": 357, "Final": 358, "\u0120curving": 359, "\u0120handsome": 360, "\u0120Kaleidoscope": 361, "\u0120Boesch": 362, "\u0120Concho": 363, "broker": 364, "\u0120MBr": 365, "\u0120Oceanography": 366, "itis": 367, "\u0120Finishing": 368, "\u0120totemism": 369, "\u0120Locking": 370, "traders": 371, "Tall": 372, "\u0120IDENTITY": 373, "\u0120Soyuz": 374, "\u0120shotgun": 375, "\u0120bioethanol": 376, "\u0120anorthositic": 377, "\u0120contoured": 378, ").-": 379, "Pressure": 380, "\u0120duplications": 381, "\".": 382, "\u0120conveniently": 383, "\u0120thinner": 384, "\u0120Streicher": 385, "\u0120air": 386, "\u0120criticised": 387, "\u0120overseen": 388, "\u0120824": 389, "lida": 390, "\u0120CONTAMIN": 391, "Manager": 392, "\u0120fascist": 393, "\u0120colonial": 394, "\u0120oximeter": 395, "\u0120rifling": 396, "\u0120Webern": 397, "\u0120Hendrickx": 398, "\u00c3\u00a9ed": 399, "wake": 400, "\u0120Morgoth": 401, "\u0120scented": 402, "\u0120chillies": 403, "\u0120mosquito": 404, "\u0120amastigotes": 405, "\u0120hock": 406, "\u0120UPSCALE": 407, "\u0120Stephane": 408, "\u0120Dom": 409, "\u0120explanations": 410, "\u0120performer": 411, "atherosclerosis": 412, "\u0120xylitol": 413, "\u0120prop": 414, "Killer": 415, "\u0120gooseberry": 416, "\u0120astonied": 417, "\u0120tyre": 418, "\u0120empathize": 419, "\u0120Kanji": 420, "\u0120HER": 421, "\u0120autoharp": 422, "\u0120modernists": 423, "\u0120cellophane": 424, "\u0120imbuing": 425, "\u0120Paige": 426, "\u0120Yellowstone": 427, "\u0120overpower": 428, "\u0120\u00ce\u00b3\u00ce\u00b9\u00ce\u00bd\u00cf\u0130\u00cf\u0125\u00ce\u00ba\u00ce\u00bf\u00ce\u00bd\u00cf\u0126\u00ce\u00b5\u00cf\u0124": 429, "\u0120kun": 430, "\u0120\u00c3\u012f": 431, "\u0120hacked": 432, "\u0120gentle": 433, "\u0120Reye": 434, "\u0120Tikal": 435, "\u0120Crit": 436, "\u0120pneumonia": 437, "\u0120Emerg": 438, "mortality": 439, "\u0120J\u00c3\u00b8rgensen": 440, "\u0120extracting": 441, "\u0120thrusting": 442, "Kaplan": 443, "\u0120methysticum": 444, "\u0120BIS": 445, "\u0120espouse": 446, "\u0120Jekuthiel": 447, "bant": 448, "\u0120poultry": 449, "\u0120DHS": 450, "\u0120UNFICYP": 451, "replication": 452, "\u0120originally": 453, "\u0120Piran": 454, "\u0120Epiphanes": 455, "Creek": 456, "\u0120plenitude": 457, "\u0120Wingaersheek": 458, "\u0120woolly": 459, "\u0120casting": 460, "\u0120Bullitt": 461, "advantage": 462, "\u0120Mitanni": 463, "Medicago": 464, "Vish\u00e1\u00b9\u0129u": 465, "goers": 466, "\u0120Abundance": 467, "\u0120cantilever": 468, "\u0120unmanageable": 469, "Property": 470, "eurs": 471, "arid": 472, "\u0120atomic": 473, "\u0120Niccol\u00c3\u00b2": 474, "mri": 475, "typ": 476, "\u0120Height": 477, "\u0120crafting": 478, "\u0120trawl": 479, "\u01201857": 480, "erty": 481, "\u0120Ichiki": 482, "eel": 483, "\u0120d\u00c3\u00a1": 484, "1118": 485, "\u0120bioassay": 486, "\u0120ecologies": 487, "\u0120Hypertext": 488, "\u0120chimpanzees": 489, "\u0120bring": 490, "Claire": 491, "\u0120FSC": 492, "wand": 493, "\u0120uninterrupted": 494, "\u0120Tour": 495, "backing": 496, "\u0120Malaysian": 497, "\u0120violinists": 498, "\u0120GISS": 499, "focusing": 500, "\u0120Noctu": 501, "\u0120Verd": 502, "ulant": 503, "expose": 504, "\u0120tuck": 505, "jack": 506, "\u0120897": 507, "JOSEPH": 508, "\u0120imitations": 509, "eans": 510, "Recent": 511, "\u0120Hemorrhagic": 512, "rag": 513, "\u0120Overlook": 514, "\u0120lunchbox": 515, "\u0120landmine": 516, "\u0120worthiness": 517, "\u0120detritivores": 518, "digging": 519, "\u0120diverges": 520, "\u0120Hitlers": 521, "\u0120astigmatism": 522, "ghty": 523, "\u0120customers": 524, "nea": 525, "Shy": 526, "\u0120BIT": 527, "\u0120suckers": 528, "\u0120pickers": 529, "\u0120cleaner": 530, "\u0120exterminating": 531, "scatter": 532, "Schneider": 533, "\u0120RAL": 534, "portal": 535, "\u0120Hippopotamus": 536, "\u0120snowstorms": 537, "\u01201954": 538, "\u0120Ing": 539, "\u0120ridiculous": 540, "\u01201549": 541, "\u0120bk": 542, "Allocation": 543, "Specifications": 544, "\u0120Monreal": 545, "\u0120uncles": 546, "illard": 547, "\u0120Avocado": 548, "\u00e5\u012f": 549, "\u0120districts": 550, "\u0120Dad": 551, "Adolescent": 552, "\u0120Topographic": 553, "alo": 554, "\u0120Slackware": 555, "ures": 556, "\u0120Isaacs": 557, "\u0120b\u00c4\u00abja": 558, "\u0120overlying": 559, "chlorinated": 560, "Confucian": 561, "\u0120Lipkin": 562, "Artagnan": 563, "\u0120Maltese": 564, "\u0120rampant": 565, "\u0120internals": 566, "\u0120kinetoplast": 567, "\u0120Memorabilia": 568, "\u0120saviour": 569, "\u0120phenocryst": 570, "\u0120Barab\u00c3\u00a1si": 571, "\u0120gentry": 572, "tetra": 573, "\u0120Ola": 574, "\u0120distasteful": 575, "\u0120Face": 576, "\u0120accomplish": 577, "\u0120chan": 578, "verting": 579, "\u0120NEMA": 580, "\u0120disaffection": 581, "\u0120Get": 582, "visions": 583, "\u0120Directory": 584, "1502": 585, "\u0120Peshitta": 586, "\u0120Viennese": 587, "\u0120inhibited": 588, "\u0120feminists": 589, "\u0120Capacitor": 590, "\u0120rationalist": 591, "\u0120AAF": 592, "\u0120sulci": 593, "\u0120Mme": 594, "properly": 595, "ONY": 596, "\u0120Voyages": 597, "\u0120halo": 598, "\u0120Belzec": 599, "ohe": 600, "\u0120Hunan": 601, "fork": 602, "\u0120Innocent": 603, "conservatives": 604, "\u0120harm": 605, "\u0120doctor": 606, "taught": 607, "\u0120potting": 608, "\u0120CobraNet": 609, "completion": 610, "\u0120lustre": 611, "\u0120gratings": 612, "sets": 613, "Rin": 614, "\u0120prostaglandins": 615, "Morse": 616, "\u0120Strength": 617, "\u0120Felder": 618, "\u0120sparkling": 619, "\u0120Vasudeva": 620, "\u0120crest": 621, "amended": 622, "\u0120barricades": 623, "\u0120Macbeth": 624, "\u0120Nevsky": 625, "ifrons": 626, "\u0120Bungay": 627, "\u0120williams": 628, "atti": 629, "arched": 630, "\u0120Unionist": 631, "\u0120exonerated": 632, "\u0120SAARC": 633, "\u0120misuse": 634, "Manatee": 635, "\u0120injectable": 636, "\u0120HDR": 637, "\u0120Moseley": 638, "\u0120bilinguals": 639, "\u0120Volga": 640, "\u0120transceivers": 641, "\u0120MONUC": 642, "965": 643, "cobalt": 644, "\u0120RIM": 645, "slu": 646, "\u0120Sacrificial": 647, "There": 648, "\u0120depressant": 649, "ank": 650, "\u0120Shetlands": 651, "\u0120Sourcebook": 652, "\u0120softwares": 653, "\u0120Army": 654, "\u0120decompensated": 655, "\u0120carousel": 656, "\u0120nuc": 657, "\u0120wears": 658, "\u0120obyekt": 659, "\u0120busting": 660, "throughout": 661, "\u0120vintage": 662, "\u0120Metaphors": 663, "\u0120hussars": 664, "archive": 665, "\u0120blasted": 666, "usive": 667, "productive": 668, "\u0120716": 669, "\u0120cast": 670, "\u0120Igor": 671, "\u0120Grun": 672, "\u0120narrow": 673, "\u0120Virginians": 674, "\u0120Mather": 675, "\u0120flashlight": 676, "\u0120Mina": 677, "Popcorn": 678, "\u0120Lobster": 679, "\u0120Warn": 680, "\u0120myrtle": 681, "\u0120Whillans": 682, ").]": 683, "\u0120Governing": 684, "\u0120Rideau": 685, "\u0120modernisation": 686, "\u0120conscientious": 687, "packaging": 688, "bauer": 689, "\u0120arthropod": 690, "\u0120lived": 691, "\u0120spores": 692, "\u0120Ampere": 693, "\u0120Familiar": 694, "\u0120fringes": 695, "\u0120emigrated": 696, "\u0120reconstitute": 697, "bok": 698, "\u0120Cram": 699, "\u0120solicited": 700, "\u0120Krum": 701, "Absence": 702, "\u0120EDT": 703, "\u0120writ": 704, "\u0120accelerometers": 705, "\u0120Coughlin": 706, "Munchausen": 707, "1560": 708, "\u0120falc": 709, "\u0120brawn": 710, "sorting": 711, "adjacent": 712, "\u0120Corbusier": 713, "\u0120tenement": 714, "\u0120Navarathri": 715, "\u0120lucid": 716, "\u0120Cokato": 717, "\u0120seizes": 718, "\u0120Gautama": 719, "NMFS": 720, "109": 721, "Simpson": 722, "\u0120backache": 723, "\u0120piracy": 724, "\u0120Echinodermata": 725, "beau": 726, "\u0120traveling": 727, "bru": 728, "\u0120Smee": 729, "\u0120Gottlieb": 730, "\u0120Branch": 731, "\u0120stain": 732, "\u0120Those": 733, "\u0120Grainger": 734, "tania": 735, "\u0120Churches": 736, "\u0120Luehmann": 737, "\u0120Edgerton": 738, "\u0120jeopardize": 739, "\u0120bustard": 740, "\u0120View": 741, "fia": 742, "\u0120mosaics": 743, "\u0120JL": 744, "pounds": 745, "\u0120roof": 746, "\u0120Factsheet": 747, "\u0120Inhibitors": 748, "\u01208000": 749, "raising": 750, "\u0120Ning": 751, "\u0120dentata": 752, "Bookmark": 753, "\u0120Supply": 754, "\u0120ulema": 755, "racted": 756, "rhythmic": 757, "\u0120Atlantic": 758, "unemployment": 759, "Cognitive": 760, "\u0120Garlock": 761, "latch": 762, "\u0120practitioners": 763, "Vine": 764, "WL": 765, "\u0120breeding": 766, "\u0120Enters": 767, "\u0120\u00c5\u013cr\u00c4\u00ab": 768, "\u0120Elephants": 769, "\u0120WHIP": 770, "\u0120Break": 771, "Bai": 772, "\u0120Gaulle": 773, "\u0120polytheism": 774, "\u0120dysrhythmia": 775, "opener": 776, "Arabian": 777, "\u0120Magellan": 778, "\u0120Haghighipour": 779, "\u0120Cosmological": 780, "\u0120Sebaste": 781, "\u0120dispensation": 782, "\u0120Weald": 783, "Gour": 784, "sm": 785, "\u0120specialization": 786, "dv": 787, "\u0120518": 788, "\u0120Hollidt": 789, "Garibaldi": 790, "density": 791, "\u0120Graaf": 792, "Newry": 793, "Aspects": 794, "\u0120Gallium": 795, "\u01201364": 796, "\u0120DARPA": 797, "\u0120stilts": 798, "\u0120269": 799, "\u0120fallen": 800, "Muqawama": 801, "\u0120Cowper": 802, "\u0120phantasm": 803, "\u0120Answers": 804, "\u0120Honorable": 805, "\u0120our": 806, "\u0120seductive": 807, "\u0120Maritimes": 808, "\u0120Islet": 809, "urinary": 810, "\u0120Cullen": 811, "\u0120despaired": 812, "\u0120Sangam": 813, "\u0120obstruction": 814, "\u0120rep": 815, "\u0120t\u00c3\u00b3": 816, "1644": 817, "\u0120\u00d0\u0142\u00d0\u00be\u00d1\u0123\u00d1\u0123\u00d0\u00b8\u00d0\u00b9\u00d1\u0123\u00d0\u00ba\u00d0\u00be\u00d0\u00b9": 818, "\u0120palate": 819, "\u0120Habdalah": 820, "\u0120agarose": 821, "oker": 822, "\u0120PTA": 823, "\u0120determines": 824, "protect": 825, "\u0120Releaf": 826, "\u0120quelled": 827, "Designer": 828, "\u0120sentinel": 829, "\u0120medica": 830, "\u0120watercress": 831, "\u0120HCV": 832, "\u0120Cesare": 833, "\u0120recluse": 834, "associations": 835, "\u0120PSTN": 836, "\u0120genie": 837, "\u0120trolleybus": 838, "\u0120ha": 839, "\u0120realized": 840, "yss": 841, "Fortunately": 842, "\u0120drawers": 843, "\u0120ofthe": 844, "\u0120Garth": 845, "\u0120Sverdlovsk": 846, "\u0120Inundation": 847, "\u0120parole": 848, "\u0120Modernization": 849, "\u0120Economists": 850, "\u0120dans": 851, "\u0120Archival": 852, "\u0120infinitesimal": 853, "\u0120asymmetrical": 854, "\u0120bewitching": 855, "iate": 856, "\u0120nuclei": 857, "Learn": 858, "\u0120Spacing": 859, "\u0120overtone": 860, "\u0120Portal": 861, "Alba": 862, "\u0120nutritionist": 863, "\u0120COX": 864, "\u0120Amazingly": 865, "brot": 866, "\u0120Arsaces": 867, "dynamed": 868, "icity": 869, "\u0120befuddle": 870, "\u0120Alnwick": 871, "\u0120Incheon": 872, "\u0120Universalist": 873, "\u0120Resonance": 874, "\u0120Batteries": 875, "\u0120vase": 876, "\u0120tic": 877, "\u0120NYPD": 878, "\u0120columella": 879, "\u0120Dade": 880, "Veterinary": 881, "\u0120Gediminas": 882, "\u0120AIMS": 883, "Hook": 884, "\u0120mammals": 885, "\u0120earthquakes": 886, "\u0120Appendectomy": 887, "Supreme": 888, "crime": 889, "\u0120orientations": 890, "\u0120Lanham": 891, "NHLBI": 892, "\u0120thrushes": 893, "\u0120RCS": 894, "\u0120reauthorizing": 895, "\u0120Sobieskiego": 896, "Directory": 897, "MSDS": 898, "Eliyahu": 899, "\u0120diver": 900, "\u0120Rindge": 901, "\u0120waking": 902, "ification": 903, "\u0120Sikhism": 904, "\u0120Mihintale": 905, "\u0120Defender": 906, "GRAM": 907, "\u0120wedge": 908, "\u0120balconies": 909, "\u0120gnosis": 910, "||~": 911, "\u0120ovens": 912, "\u0120arbors": 913, "\u0120Lemon": 914, "much": 915, "\u0120mangrove": 916, "\u0120Cluny": 917, "\u0120Zak": 918, "pac": 919, "\u0120Epithelium": 920, "seeable": 921, "\u0120dredged": 922, "\u0120Bartimaeus": 923, "\u0120shallow": 924, "\u0120functionality": 925, "\u0120Narv\u00c3\u00a1ez": 926, "\u0120kale": 927, "Hei": 928, "\u0120screenings": 929, "\u0120Tiles": 930, "\u0120wants": 931, "\u0120Powerhouse": 932, "dyne": 933, "\u0120tabulation": 934, "clarksvilleonline": 935, "\u0120JUVENILE": 936, "\u0120connections": 937, "1793": 938, "approx": 939, "bli": 940, "JNLCBVAG": 941, "\u0120incalculable": 942, "\u0120Tiye": 943, "\u0120orthodox": 944, "\u0120Melabev": 945, "\u0120RECOMMENDED": 946, "\u0120Paw": 947, "MSA": 948, "\u01201648": 949, "\u0120Icy": 950, "\u0120Genetics": 951, "Horn": 952, "\u0120Brunt": 953, "\u0120porphyria": 954, "pos": 955, "bagh": 956, "\u0120Boycott": 957, "\u0120Consultation": 958, "\u0120Gretna": 959, "ples": 960, "\u0120enquiry": 961, "\u0120vantage": 962, "Kesselring": 963, "\u0120Bonn": 964, "\u0120Adopting": 965, "\u0120Zadok": 966, "\u0120gastroesophageal": 967, "landii": 968, "\u0120Witte": 969, "\u0120scorpion": 970, "\u0120Altair": 971, "\u0120Afraid": 972, "\u0120thermocouple": 973, "Infectious": 974, "\u0120carotenes": 975, "\u0120360": 976, "\u0120NRG": 977, "\u0120arteriosus": 978, "\u0120demo": 979, "\u0120grander": 980, "stiff": 981, "\u0120vigour": 982, "final": 983, "definitely": 984, "\u0120confide": 985, "tock": 986, "\u0120sad": 987, "\u0120Outdoors": 988, "\u0120spinnerets": 989, "id": 990, "\u0120Roots": 991, "\u0120HSPH": 992, "\u0120supersede": 993, "\u0120Humanity": 994, "circle": 995, "SOVEREIGN": 996, "\u0120Federation": 997, "\u0120afraid": 998, "\u0120immunological": 999, "\u0120cites": 1000, "iculture": 1001, "\u0120Valens": 1002, "\u0120Auden": 1003, "\u0120prohibiting": 1004, "\u0120wildebeest": 1005, "\u0120Educational": 1006, "\u0120Jaina": 1007, "\u0120capacitance": 1008, "\u0120Aristophanes": 1009, "\u0120326": 1010, "\u0120axolotl": 1011, "\u0120Macedonian": 1012, "synaptic": 1013, "pox": 1014, "Rect": 1015, "\u0120Slat": 1016, "\u0120adroit": 1017, "Lux": 1018, "cco": 1019, "Google": 1020, "\u0120evils": 1021, "\u0120Ant": 1022, "Barcelona": 1023, "\u0120Wally": 1024, "\u0120McKillop": 1025, "\u0120Chotard": 1026, "\u0120\u00c3\u0126gypt": 1027, "nth": 1028, "uah": 1029, "\u0120sunspot": 1030, "\u0120bobble": 1031, "\u0120Dilophosaurus": 1032, "\u0120Kenobi": 1033, "\u0120Valentines": 1034, "\u0120expressionist": 1035, "\u0120Naqsh": 1036, "\u0120uprights": 1037, "\u0120industrious": 1038, "\u0120sundial": 1039, "\u0120Dann": 1040, "\u0120calicivirus": 1041, "\u00d0\u0134\u00d1\u0123\u00d0\u00b5\u00d1\u0122\u00d0\u00be\u00d1\u0123\u00d1\u0123\u00d0\u00b8\u00d0\u00b9\u00d1\u0123\u00d0\u00ba\u00d0\u00b0\u00d1\u0131": 1042, "\u0120forceful": 1043, "\u0120Shar": 1044, "\u0120trinkets": 1045, "\u0120PLU": 1046, "\u0120Robyn": 1047, "\u0120Dian": 1048, "\u0120Wool": 1049, "Harper": 1050, "\u0120Pythagorean": 1051, "managed": 1052, "Entry": 1053, "\u0120algebraically": 1054, "links": 1055, "Balkaria": 1056, "\u0120Seger": 1057, "EAS": 1058, "\u0120Brazil": 1059, "\u0120Listener": 1060, "\u0120LOUIS": 1061, "\u0120sebaceous": 1062, "\u0120Lift": 1063, "\u0120permethrin": 1064, "\u0120rapeseed": 1065, "\u0120Chick": 1066, "\u0120confidant": 1067, "suggestions": 1068, "\u0120welders": 1069, "\u0120improbability": 1070, "\u0120564": 1071, "\u0120confiscations": 1072, "\u0120305": 1073, "\u0120Herzen": 1074, "\u0120habitats": 1075, "\u0120Marchant": 1076, "\u0120canopy": 1077, "\u0120Tsunami": 1078, "\u0120Leninist": 1079, "\u0120958": 1080, "SSA": 1081, "\u0120Newspaper": 1082, "Violence": 1083, "\u0120HAV": 1084, "\u0120Conscientious": 1085, "\u0120Rotary": 1086, "\u0120nanoscale": 1087, "\u0120dereliction": 1088, "\u0120plunged": 1089, "\u0120Carter": 1090, "\u0120shouted": 1091, "gadi": 1092, "\u0120Palestine": 1093, "\u0120Lane": 1094, "\u0120Calumet": 1095, "\u0120Keng": 1096, "\u0120muslin": 1097, "\u00d9\u012a\u00d8\u00b1": 1098, "sporangia": 1099, "\u0120commandant": 1100, "\u0120pausing": 1101, "XX": 1102, "\u0120Jehoram": 1103, "\u0120Stress": 1104, "\u0120Proverbs": 1105, "\u0120enfranchised": 1106, "glie": 1107, "\u0120Clergy": 1108, "\u0120Saunders": 1109, "usage": 1110, "\u0120Nauru": 1111, "\u0120globally": 1112, "lean": 1113, "\u0120Fleis": 1114, "hospital": 1115, "Zion": 1116, "Oberbefehlshaber": 1117, "\u0120236": 1118, "\u0120NWFP": 1119, "\u0120Fold": 1120, "\u0120exhibition": 1121, "\u0120preoccupation": 1122, "\u0120conventions": 1123, "\u0120Isaac": 1124, "\u0120Caithness": 1125, "\u0120knowlesi": 1126, "\u0120allay": 1127, "predators": 1128, "\u0120703": 1129, "\u0120irritation": 1130, "\u0120Measurement": 1131, "\u0120zebras": 1132, "\u0120conterminous": 1133, "Hetero": 1134, "\u0120Ludwig": 1135, "Arbor": 1136, "\u0120Martyrdom": 1137, "\u0120bedridden": 1138, "\u0120oh": 1139, "mio": 1140, "\u0120surprises": 1141, "\u0120forgetting": 1142, "\u0120dyeing": 1143, "\u01201868": 1144, "\u0120rhythmicity": 1145, "Flinders": 1146, "\u0120concede": 1147, "\u0120Andalucia": 1148, "\u0120fired": 1149, "\u0120alot": 1150, "Incidence": 1151, "\u0120omitting": 1152, "Mosquitoes": 1153, "\u0120bestselling": 1154, "Curr": 1155, "\u0120Wai\u00ca\u00bbale\u00ca\u00bbale": 1156, "\u0120spotlights": 1157, "\u0120holed": 1158, "\u0120idling": 1159, "\u0120live": 1160, "\u0120triumphantly": 1161, "\u0120frighteningly": 1162, "\u0120Renewal": 1163, "MSP": 1164, "\u0120petrochemicals": 1165, "myco": 1166, "\u0120Rickard": 1167, "esthesiology": 1168, "\u0120AskA": 1169, "\u0120Bulletins": 1170, "\u0120entice": 1171, "\u0120Completing": 1172, "\u0120continents": 1173, "\u0120Current": 1174, "\u0120kosher": 1175, "\u0120\u00d0\u00b4\u00d0\u00b8\u00d0\u00b0\u00d0\u00bb\u00d0\u00b5\u00d0\u00ba\u00d1\u0124\u00d0\u00be\u00d0\u00bb\u00d0\u00be\u00d0\u00b3\u00d0\u00b8\u00d1\u0131": 1176, "\u0120roundly": 1177, "\u0120impost": 1178, "\u0120deflect": 1179, "\u0120Didactic": 1180, "Indonesian": 1181, "\u0120acidity": 1182, "\u0120modem": 1183, "\u0120Coronation": 1184, "\u0120Pellucida": 1185, "matic": 1186, "\u0120lady": 1187, "\u0120Sources": 1188, "\u0120Cleenewerck": 1189, "\u0120Emory": 1190, "uka": 1191, "\u0120Weil": 1192, "tere": 1193, "\u0120caly": 1194, "\u0120Experiment": 1195, "\u01201335": 1196, "PK": 1197, "war": 1198, "\u0120rimmed": 1199, "National": 1200, "\u0120VT": 1201, "\u0120house": 1202, "\u0120Rapley": 1203, "\u0120Woolwich": 1204, "\u0120coatings": 1205, "\u0120Submitted": 1206, "mapped": 1207, "\u0120subspecialty": 1208, "\u0120fulvic": 1209, "\u0120Senses": 1210, "\u0120ornamentals": 1211, "package": 1212, "kk": 1213, "OK": 1214, "\u0120encrusted": 1215, "\u0120bicyclists": 1216, "ttered": 1217, "\u0120\u00d0\u00bf\u00d0\u00bb\u00d0\u00b0\u00d0\u00bd\u00d0\u00b8\u00d0\u00bd": 1218, "structured": 1219, "\u0120expansion": 1220, "\u0120draws": 1221, "\u0120c\u00c3\u00b3nsecr\u00c3\u00a1te": 1222, "\u0120explorer": 1223, "magazines": 1224, "\u01201893": 1225, "\u0120suppressant": 1226, "\u0120maxims": 1227, "\u0120Es": 1228, "\u0120Spartacus": 1229, "\u0120Yeshua": 1230, "\u0120treacherously": 1231, "\u0120Staffing": 1232, "Flint": 1233, "\u0120restarted": 1234, "\u0120Homeland": 1235, "chium": 1236, "\u0120circumambulation": 1237, "\u0120Albans": 1238, "\u0120Atomic": 1239, "\u0120chronicle": 1240, "\u0120trigonometry": 1241, "\u0120j\u00c3\u00b3venes": 1242, "\u0120Novelty": 1243, "-->": 1244, "\u0120balsam": 1245, "Klein": 1246, "\u0120villus": 1247, "\u0120abstractions": 1248, "\u0120Nij\u00c3\u00bbichi": 1249, "\u00c3\u00bb": 1250, "\u00c7\u0130": 1251, "tts": 1252, "\u0120Cheese": 1253, "Pen": 1254, "1883": 1255, "\u0120Berenstain": 1256, "\u0120dramatized": 1257, "\u0120incongruity": 1258, "\u0120Texan": 1259, "rius": 1260, "\u0120Beringia": 1261, "\u0120Yorkshire": 1262, "\u0120Arab": 1263, "\u0120voyage": 1264, "\u0120f\u00c3\u00bcr": 1265, "\u0120lacrimal": 1266, "\u0120propecia": 1267, "\u0120crosswalks": 1268, "\u0120timepieces": 1269, "\u0120pensioners": 1270, "\u0120Irrespective": 1271, "\u0120analyse": 1272, "\u0120mudslides": 1273, "\u0120Whis": 1274, "throat": 1275, "\u00c5\u0140ekercio\u00c4\u0141lu": 1276, "\u0120Ziegler": 1277, "\u0120defiantly": 1278, "\u0120discourses": 1279, "\u0120Arc": 1280, "\u0120899": 1281, "\u0120Archives": 1282, "\u0120subtests": 1283, "\u0120\u00d0\u00bf\u00d0\u00be\u00d1\u0124\u00d0\u00b2\u00d1\u0122\u00d1\u0134\u00d1\u0125\u00d1\u013a\u00d1\u0125": 1284, "\u0120Hoang": 1285, "\u0120mysticism": 1286, "\u0120jejunum": 1287, "humor": 1288, "\u0120Sangl\u00c4\u0135\u00c4\u012f\u00c4\u00ab": 1289, "\u0120PROMISE": 1290, "career": 1291, "\u0120festivities": 1292, "\u0120trustworthiness": 1293, "\u0120Zafar": 1294, "\u0120Ehrlich": 1295, "\u0120symbiosis": 1296, "\u0120impersonation": 1297, "\u0120wildfires": 1298, "\u01201837": 1299, "apart": 1300, "\u0120Isa": 1301, "\u0120Albanian": 1302, "\u0120Diarrhea": 1303, "\u0120outsourced": 1304, "hypopituitarism": 1305, "\u0120plagioclase": 1306, "\u0120vegetarianism": 1307, "\u0120Ashkenazi": 1308, "\u0120interrelationships": 1309, "\u0120Vienne": 1310, "\u0120Genevieve": 1311, "itu": 1312, "\u0120Vernian": 1313, "\u0120Policies": 1314, "\u0120Holton": 1315, "launching": 1316, "Spring": 1317, "\u0120Push": 1318, "\u0120Prime": 1319, "\u00d6\u00b4": 1320, "\u0120tithe": 1321, "heated": 1322, "\u0120redrawn": 1323, "\u0120Dots": 1324, "\u0120painstakingly": 1325, "oracle": 1326, "\u0120nativity": 1327, "\u0120bowel": 1328, "Halifax": 1329, "mysterious": 1330, "\u0120soon": 1331, "\u0120morbid": 1332, "\u0120Fordham": 1333, "\u0120Vikings": 1334, "\u0120Comunidad": 1335, "rehearse": 1336, "\u0120BLM": 1337, "\u0120Criticism": 1338, "\u0120stasis": 1339, "\u00d7\u0132": 1340, "\u0120Shemesh": 1341, "\u0120Espinosa": 1342, "\u0120fossilize": 1343, "\u0120violets": 1344, "\u0120visibly": 1345, "Tom": 1346, "Position": 1347, "\u0120toes": 1348, "\u0120Nurs": 1349, "\u0120third": 1350, "\u0120cram": 1351, "\u0120Techniques": 1352, "\u0120charging": 1353, "\u0120virulence": 1354, "LORD": 1355, "\u0120parastatal": 1356, "Discourse": 1357, "Reducing": 1358, "\u0120mis": 1359, "\u0120jay": 1360, "\u0120Parrot": 1361, "\u0120foiled": 1362, "\u0120worth": 1363, "\u0120Montana": 1364, "\u0120insecticides": 1365, "ambiguity": 1366, "\u0120\"\\": 1367, "\u0120Paraguayan": 1368, "\u0120endpoint": 1369, "\u0120definite": 1370, "\u0120beaked": 1371, "\u0120patronage": 1372, "insulated": 1373, "charged": 1374, "\u0120Ic": 1375, "\u0120Anesthesiologists": 1376, "buc": 1377, "\u0120Lug": 1378, "walla": 1379, "2004": 1380, "\u0120Panth": 1381, "\u0120scarred": 1382, "\u0120COO": 1383, "\u0120Beckett": 1384, "\u0120Sterling": 1385, "JPL": 1386, "\u00c4\u0123lan\u00e1\u00b8\u012fhara": 1387, "\u0120python": 1388, "\u0120Ainsworth": 1389, "\u0120victimized": 1390, "Telling": 1391, "TURE": 1392, "\u0120Panbanisha": 1393, "\u0120Yield": 1394, "\u0120guava": 1395, "\u0120Lenin": 1396, "\u0120Yamuna": 1397, "\u0120inconsiderate": 1398, "\u0120eelgrass": 1399, "\u0120pedestals": 1400, "\u0120fantastical": 1401, "\u0120Deluge": 1402, "\u0120J\u00c5\u012fdo": 1403, "logue": 1404, "\u0120PR": 1405, "\u0120mossy": 1406, "\u0120inroads": 1407, "\u0120accounting": 1408, "\u0120sorbitol": 1409, "\u0120physiographic": 1410, "\u0120Ekal": 1411, "\u0120clinicians": 1412, "\u0120Carpathian": 1413, "ange": 1414, "tactical": 1415, "\u0120Microfilm": 1416, "otrichum": 1417, "\u0120cashew": 1418, "\u0120Kl": 1419, "\u0120PPD": 1420, "\u0120thereafter": 1421, "\u0120Bottle": 1422, "\u0120lipoprotein": 1423, "\u0120curt": 1424, "\u0120165": 1425, "\u0120implement": 1426, "\u0120Oneness": 1427, "\u0120twirling": 1428, "\u0120Guastavino": 1429, "TIP": 1430, "\u0120gene": 1431, "\u0120Woodruff": 1432, "bounded": 1433, "\u0120readability": 1434, "\u0120slaveholding": 1435, "\u0120communities": 1436, "sname": 1437, "\u0120compressor": 1438, "\u0120[-": 1439, ",|": 1440, "\u0120gamut": 1441, "\u0120cytotoxic": 1442, "\u0120Killer": 1443, "\u0120Improving": 1444, "\u0120Campylobacter": 1445, "\u0120cancelling": 1446, "\u0120slotted": 1447, "\u0120LeBuhn": 1448, "\u0120Ogle": 1449, "\u0120Improved": 1450, "\u0120damselflies": 1451, "\u0120Bambang": 1452, "\u0120culminate": 1453, "\u0120Yadav": 1454, "Costs": 1455, "\u0120Vasconcelos": 1456, "Many": 1457, "Radiative": 1458, "\u0120hr": 1459, "separa": 1460, "140": 1461, "Eerdmans": 1462, "\u0120Crosby": 1463, "\u0120Paleolithic": 1464, "\u0120Aloud": 1465, "Shulchan": 1466, "\u0120Trader": 1467, "pepper": 1468, "\u0120One": 1469, "weaving": 1470, "\u0120Kingston": 1471, "\u0120Keating": 1472, "\u0120transgendered": 1473, "\u0120gasp": 1474, "khu": 1475, "\u0120perforations": 1476, "\u0120biodiverse": 1477, "\u0120thongs": 1478, "\u0120Yorker": 1479, "rho": 1480, "Adding": 1481, "Pinch": 1482, "\u0120horticultural": 1483, "\u0120bonanzas": 1484, "\u0120Label": 1485, "\u0120Fassett": 1486, "\u0120MIL": 1487, "\u0120uncertainties": 1488, "\u0120shaven": 1489, "\u0120Auk": 1490, "\u0120Stena": 1491, "\u0120absorptivity": 1492, "\u0120shortcut": 1493, "\u0120Hats": 1494, "\u0120Pycnogenol": 1495, "24": 1496, "\u0120tetr": 1497, "\u0120hope": 1498, "\u0120misfolded": 1499, "787": 1500, "\u0120Nirv\u00c4\u0123\u00e1\u00b9\u0129a": 1501, "\u0120subway": 1502, "\u0120rims": 1503, "\u0120Program": 1504, "\u0120(?),": 1505, "\u0120hyperopia": 1506, "\u0120undercutting": 1507, "Hurricane": 1508, "\u0120menziesii": 1509, "\u0120Longoria": 1510, "\u0120inverter": 1511, "\u0120dys": 1512, "\u0120Presse": 1513, "\u0120demultiplex": 1514, "\u0120Draught": 1515, "\u0120sa": 1516, "Errico": 1517, "\u0120Invercargill": 1518, "\u0120Corning": 1519, "\u0120nauseous": 1520, "\u0120Ung": 1521, "\u0120IF": 1522, "\u0120*.": 1523, "tez": 1524, "\u0120Excellency": 1525, "\u0120falciparum": 1526, "\u0120forearc": 1527, "Insight": 1528, "anoic": 1529, "1991": 1530, "\u0120Cajun": 1531, "\u0120Yeon": 1532, "cote": 1533, "IDF": 1534, "Occupation": 1535, "\u0120Doubleday": 1536, "\u0120Schaghticoke": 1537, "\u0120Ricci": 1538, "\u0120agendas": 1539, "\u0120(\u00e2\u012b\u012a": 1540, "\u0120lounging": 1541, "\u0120WELL": 1542, "\u0120termed": 1543, "\u0120devoutly": 1544, "\u01201957": 1545, "\u0120shifter": 1546, "\u0120hemlock": 1547, "\u0120Lifestyle": 1548, "\u0120Mohegan": 1549, "therium": 1550, "\u0120concurred": 1551, "\u0120nimble": 1552, "\u00c4\u0123la": 1553, "episode": 1554, "\u0120fingering": 1555, "\u0120glaring": 1556, "\u0120charismatic": 1557, "directory": 1558, "\u0120subfamily": 1559, "Beverly": 1560, "uro": 1561, "\u0120universals": 1562, "\u0120trustees": 1563, "viz": 1564, "Jumbarrich": 1565, "plane": 1566, "\u0120sorghums": 1567, "\u0120magnetite": 1568, "ic": 1569, "\u0120migraine": 1570, "\u0120Forts": 1571, "\u0120Chinook": 1572, "\u0120unfunded": 1573, "\u0120NAFLD": 1574, "\u0120Roundup": 1575, "\u0120rated": 1576, "\u0120ANNETINE": 1577, "SJ": 1578, "\u0120intertwined": 1579, "reach": 1580, "splenomegaly": 1581, "THAT": 1582, "\u0120farsightedness": 1583, "\u0120Fell": 1584, "located": 1585, "\u0120directorate": 1586, "\u0120conspecific": 1587, "\u0120duels": 1588, "distributed": 1589, "Bonding": 1590, "\u0120SCO": 1591, "\u0120Somatic": 1592, "\u0120oversimplification": 1593, "\u0120impelled": 1594, "\u0120Haridwar": 1595, "\u0120choruses": 1596, "\u0120Soar": 1597, "Tiger": 1598, "\u00e2\u0126": 1599, "\u0120plumb": 1600, "Edmonton": 1601, "\u0120Aurangzeb": 1602, "austerity": 1603, "\u0120COOKBOOK": 1604, "umbilical": 1605, "\u0120Bcf": 1606, "\u0120Darby": 1607, "\u0120purdah": 1608, "\u0120homologs": 1609, "\u0120airports": 1610, "\u0120Thirty": 1611, "Alpha": 1612, "724": 1613, "\u0120Cache": 1614, "\u0120efflorescence": 1615, "\u0120negligence": 1616, "\u00c3\u00a4u": 1617, "lieutenant": 1618, "\u0120reggae": 1619, "researcher": 1620, "\u0120CEOs": 1621, "\u0120Englewood": 1622, "\u0120chemotaxis": 1623, "\u0120insolvency": 1624, "&": 1625, "\u0120Histories": 1626, "\u0120Twist": 1627, "\u0120cosponsored": 1628, "\u0120ideo": 1629, "daemon": 1630, "\u0120crystallographic": 1631, "\u0120Archi": 1632, "\u0120Thirteen": 1633, "STE": 1634, "emes": 1635, "MA": 1636, "TIE": 1637, "\u0120Thereby": 1638, "\u0120Leeds": 1639, "\u0120skylights": 1640, "\u01201894": 1641, "\u0120Altogether": 1642, "\u0120consent": 1643, "\u0120metropolitan": 1644, "Local": 1645, "Statistical": 1646, "\u0120Omk\u00c4\u0123ra": 1647, "yes": 1648, "\u0120nontuberculous": 1649, "\u0120products": 1650, "\u0120VDC": 1651, "\u0120Assassinations": 1652, "\u0120pry": 1653, "\u0120Answered": 1654, "\u0120bony": 1655, "\u0120fluted": 1656, "uing": 1657, "\u0120dwarfism": 1658, "\u0120personality": 1659, "\u0120cry": 1660, "\u0120Caltech": 1661, "\u0120Vol": 1662, "\u00e0\u00b8\u00b4": 1663, "\u0120fibers": 1664, "Public": 1665, "\u0120T\u00c3\u00bdr": 1666, "\u0120positional": 1667, "sealed": 1668, "\u0120Selects": 1669, "\u0120lawless": 1670, "\u0120Chess": 1671, "\u0120Kennan": 1672, "\u0120beholding": 1673, "\u0120argillaceous": 1674, "\u0120subarachnoid": 1675, "Israelite": 1676, "184": 1677, "\u0120microprocessor": 1678, "\u0120murrelet": 1679, "imposed": 1680, "\u0120worker": 1681, "\u0120Apabhransha": 1682, "Wool": 1683, "\u0120Managua": 1684, "\u0120332": 1685, "\u0120Tybjaerg": 1686, "\u0120---+---": 1687, "baz": 1688, "Ro": 1689, "\u0120logo": 1690, "\u0120afterburner": 1691, "\u0120Silva": 1692, "\u0120Positron": 1693, "\u0120xix": 1694, "\u0120iniquity": 1695, "\u0120footings": 1696, "\u0120minimisation": 1697, "Iceland": 1698, "\u0120ILI": 1699, "hita": 1700, "\u0120clavichord": 1701, "\u0120SYRIZA": 1702, "\u0120UVB": 1703, "\u0120Troops": 1704, "\u0120Pericles": 1705, "rty": 1706, "\u0120Zy": 1707, "ulation": 1708, "hopping": 1709, "Worse": 1710, "ground": 1711, "\u0120anions": 1712, "\u0120Waxwing": 1713, "possessing": 1714, "\u0120priority": 1715, "CHAPTER": 1716, "\u0120Pla": 1717, "Lethal": 1718, "\u0120Needs": 1719, "luck": 1720, "\u0120FARAD": 1721, "\u0120quickest": 1722, "\u0120cytoplasm": 1723, "\u01202003": 1724, "\u0120effects": 1725, "OSU": 1726, "\u0120flues": 1727, "influenza": 1728, "yc": 1729, "\u0120frolic": 1730, "\u0120horrid": 1731, "Hor": 1732, "\u0120Sweden": 1733, "\u0120Pisa": 1734, "\u0120ganglioside": 1735, "\u0120Manually": 1736, "\u0120rickets": 1737, "\u0120neem": 1738, "\u0120c\u00c3\u00a9l\u00c3\u00a8bre": 1739, "Tuesday": 1740, "chestnut": 1741, "\u0120Buzz": 1742, "\u0120moderate": 1743, "\u0120printables": 1744, "\u0120vivid": 1745, "\u0120Shaffer": 1746, "\u0120aspiration": 1747, "cellular": 1748, "Nationally": 1749, "Iranian": 1750, "\u00e5\u012f\u0123": 1751, "\u0120science": 1752, "\u0120outshine": 1753, "PDT": 1754, "Clearly": 1755, "\u0120rehydrated": 1756, "\u0120tragedians": 1757, "\u0120Tambunan": 1758, "\u0120Phones": 1759, "\u0120injustice": 1760, "Market": 1761, "\u0120night": 1762, "Voice": 1763, "\u0120concussions": 1764, "\u0120subsid": 1765, "\u0120Pak": 1766, "\u0120interceptor": 1767, "\u0120stake": 1768, "\u01201\u00c2\u00bd": 1769, "\u0120Pinus": 1770, "\u0120Orr": 1771, "Capital": 1772, "Microbes": 1773, "\u0120Boulton": 1774, "\u0120opinion": 1775, "\u0120Lets": 1776, "\u0120elongatus": 1777, "\u0120FAQ": 1778, "\u0120savor": 1779, "\u0120impractical": 1780, "\u0120vindicate": 1781, "\u0120lithograph": 1782, "dation": 1783, "\u0120Ceder": 1784, "\u0120recolonize": 1785, "\u0120Roundtable": 1786, "\u0120fearfully": 1787, "\u0120Westchester": 1788, "\u0120procurement": 1789, "\u0120maximally": 1790, "\u0120bulletproof": 1791, "\u0120bewildering": 1792, "\u0120fragile": 1793, "Starting": 1794, "\u0120harlot": 1795, "great": 1796, "\u0120Torus": 1797, "\u0120Pis": 1798, "\u0120standardised": 1799, "\u0120elm": 1800, "misc": 1801, "\u0120Tibb": 1802, "\u0120Procedure": 1803, "inci": 1804, "kesh": 1805, "299": 1806, "venience": 1807, "\u0120Brahmacharya": 1808, "\u0120Cos": 1809, "\u0120Erdman": 1810, "\u0120cortices": 1811, "viscosity": 1812, "\u0120handily": 1813, "\u0120NUMERIC": 1814, "\u0120Gilles": 1815, "\u0120Grouws": 1816, "TICAL": 1817, "\u0120undergird": 1818, "\u0120Decret": 1819, "\u0120headlamp": 1820, "\u0120GRE": 1821, "\u0120Stalin": 1822, "\u0120Qu\u00c3\u00a9bec": 1823, "\u0120Lifetime": 1824, "\u0120sevoflurane": 1825, "Lav": 1826, "YLE": 1827, "syr": 1828, "\u0120hyaluron": 1829, "\u0120Mayflower": 1830, "\u0120blameless": 1831, "vul": 1832, "\u0120eunuch": 1833, "\u0120preconceptions": 1834, "Archimedes": 1835, "\u0120defends": 1836, "\u0120theses": 1837, "\u0120ji": 1838, "Danny": 1839, "\u00d1\u0124": 1840, "\u0120Jadwigi": 1841, "\u0120Delray": 1842, "Optical": 1843, "cotta": 1844, "Shoot": 1845, "\u0120Arguments": 1846, "048": 1847, "\u0120all": 1848, "\u0120prototypical": 1849, "\u0120aright": 1850, "\u0120Crops": 1851, "\u0120903": 1852, "\u0120ajnas": 1853, "Worth": 1854, "\u0120was": 1855, "\u0120levirate": 1856, "\u0120jargon": 1857, "\u01201493": 1858, "\u0120Household": 1859, "Category": 1860, "Subtract": 1861, "Havriluk": 1862, "\u0120reborn": 1863, "well": 1864, "\u0120Diver": 1865, "\u0120Solutions": 1866, "\u0120surprisingly": 1867, "\u0120bondholders": 1868, "\u0120Disadvantage": 1869, "\u0120Naughton": 1870, "\u0120toned": 1871, "\u0120suites": 1872, "ush": 1873, "\u0120glioma": 1874, "pie": 1875, "\u00e2\u0124\u00ac\u00e2\u0122\u013f": 1876, "\u0120Opp": 1877, "\u0120Primarily": 1878, "\u012021": 1879, "\u0120Ebert": 1880, "\u0120herbicide": 1881, "blum": 1882, "\u0120Dionys": 1883, "surely": 1884, "\u0120vespertine": 1885, "\u0120Photographers": 1886, "\u0120BioScience": 1887, "\u0120Jia": 1888, "\u0120Ingle": 1889, "\u0120Spitz": 1890, "\u0120Pluto": 1891, "\u0120revisit": 1892, "\u0120storyboard": 1893, "\u0120Kayla": 1894, "\u0120filtration": 1895, "\u0120ciguatera": 1896, "\u0120Remington": 1897, "\u0120Fibrosis": 1898, "\u0120Comilla": 1899, "\u0120conceptualize": 1900, "\u0120Arabia": 1901, "\u0120unendurable": 1902, "\u0120ridley": 1903, "lor": 1904, "\u0120Schwi": 1905, "Por": 1906, "\u0120silts": 1907, "\u0120Murdoch": 1908, "seventeenth": 1909, "\u0120Houser": 1910, "\u0120economists": 1911, "\u0120JY": 1912, "\u0120sedimentary": 1913, "\u0120Vasquez": 1914, "Air": 1915, "011": 1916, "\u0120swiveling": 1917, "\u0120Eisele": 1918, "\u0120Flyway": 1919, "372": 1920, "\u0120objector": 1921, "\u0120Saga": 1922, "\u0120Pliny": 1923, "\u0120Duckworth": 1924, "\u0120micropenis": 1925, "\u0120Bernoulli": 1926, "responsible": 1927, "\u0120impartiality": 1928, "\u0120pai": 1929, "\u0120Johnsen": 1930, "\u0120captivity": 1931, "\u0120Colored": 1932, "oriented": 1933, "duplex": 1934, "\u01201145": 1935, "\u0120Mindanao": 1936, "\u0120correction": 1937, "Boss": 1938, "Fal": 1939, "\u0120autos": 1940, "\u0120ascension": 1941, "\u0120NMA": 1942, "\u0120runtime": 1943, "\u0120anther": 1944, "PLE": 1945, "\u0120stethoscope": 1946, "\u0120Oncology": 1947, "\u0120cassava": 1948, "sz": 1949, "\u0120matri": 1950, "\u0120Dialogues": 1951, "altrui": 1952, "\u0120thanking": 1953, "Statue": 1954, "Stefan": 1955, "logus": 1956, "\u0120r": 1957, "\u01201630": 1958, "\u0120Dar\u00c3\u00bclf\u00c3\u00bcn\u00c3\u00bbn": 1959, "Instructional": 1960, "\u0120Imper": 1961, "Convergent": 1962, "FA": 1963, "\u0120hyphenation": 1964, "\u0120conversions": 1965, "Graph": 1966, "\u0120ravines": 1967, "\u0120hostname": 1968, "swing": 1969, "savvy": 1970, "Ville": 1971, "\u0120telangiectasia": 1972, "\u0120se\u00c3\u00b1or": 1973, "\u0120incontestable": 1974, "rne": 1975, "\u0120w\u00c3\u00a9": 1976, "Wichita": 1977, "\u0120Politi": 1978, "Dwarf": 1979, "Notably": 1980, "\u0120anglers": 1981, "\u0120ebb": 1982, "\u0120?\\": 1983, "\u0120Hass": 1984, "lade": 1985, "\u0120euthanize": 1986, "\u0120\u00e2\u0122\u013e[": 1987, "\u0120fetlock": 1988, "'),": 1989, "\u0120Golitsyn": 1990, "pumping": 1991, "Theater": 1992, "\u0120Sorting": 1993, "Organized": 1994, "\u0120honeybees": 1995, "\u0120elderly": 1996, "\u0120\u00c4\u0123ka\u00c5\u013d": 1997, "\u0120Riparian": 1998, "\u0120gynecomastia": 1999, "\u0120Jammu": 2000, "printf": 2001, "Idaho": 2002, "\u0120disintegrated": 2003, "\u0120Proust": 2004, "hl": 2005, "\u0120Bialystok": 2006, "\u0120saddest": 2007, "\u0120Hansson": 2008, "skull": 2009, "\u0120argument": 2010, "\u0120Malachi": 2011, "opian": 2012, "\u0120Mummy": 2013, "Aurora": 2014, "\u0120Carra": 2015, "\u0120Broth": 2016, "\u0120ArrayBlockingQueue": 2017, "\u0120brazen": 2018, "Protestant": 2019, "\u0120usurped": 2020, "Engraving": 2021, "\u0120steak": 2022, "Survivor": 2023, "\u0120shalt": 2024, "\u0120Goats": 2025, "\u0120Milliner": 2026, "\u0120wax": 2027, "\u0120sensitisation": 2028, "\u0120sardonic": 2029, "span": 2030, "\u0120Shoshoni": 2031, "\u0120Pull": 2032, "\u0120BEA": 2033, "\u0120Accordingly": 2034, "\u0120unsold": 2035, "\u0120ordinal": 2036, "\u0120SITE": 2037, "severe": 2038, "\u0135": 2039, "\u0120Gly": 2040, "\u0120bapt": 2041, "Angular": 2042, "\u0120medallions": 2043, "Rig": 2044, "\u0120numbs": 2045, "616": 2046, "\u0120fractionation": 2047, "PHI": 2048, "\u0120358": 2049, "\u0120Muk": 2050, "\u0120fs": 2051, "grin": 2052, "\u0120upset": 2053, "\u0120Lattice": 2054, "\u0120seed": 2055, "\u0120correlate": 2056, "754": 2057, ".\u00e2\u0122\u0136": 2058, "\u0120resonate": 2059, "\u0120usurp": 2060, "\u0120Onto": 2061, "\u01201506": 2062, "\u0120nutria": 2063, "\u0120102": 2064, "When": 2065, "\u0120Slovakian": 2066, "\u0120Alum": 2067, "Ownership": 2068, "\u0120heterotrophic": 2069, "\u0120unskillful": 2070, "tun": 2071, "kad": 2072, "\u0120immobilized": 2073, "\u0120discoid": 2074, "\u0120Tense": 2075, "\u0120bonanza": 2076, "\u0120phloem": 2077, "\u0120thoughts": 2078, "\u0120appeasement": 2079, "ige": 2080, "PUBLIC": 2081, "\u0120NADP": 2082, "Wendy": 2083, "\u0120dance": 2084, "\u0120Subjects": 2085, "tch": 2086, "hydroxylation": 2087, "\u0120preferential": 2088, "\u0120arrogant": 2089, "\u0120Brythonic": 2090, "\u0120linked": 2091, "fors": 2092, "\u0120unmapped": 2093, "\u0120Stony": 2094, "alley": 2095, "\u0120tepid": 2096, "\u0120Shahjahan": 2097, "\u0120SWP": 2098, "\u0120Surprised": 2099, "\u0120BGP": 2100, "\u0120sambar": 2101, "\u0120Salem": 2102, "\u0120probes": 2103, "\u0120Cunard": 2104, "\u0120opined": 2105, "\u0120disenchantment": 2106, "hymn": 2107, "ouf": 2108, "\u0120succour": 2109, "Multiplying": 2110, "Whats": 2111, "\u0120disrepute": 2112, "bacterial": 2113, "\u0120Diaoyu": 2114, "\u0120provenance": 2115, "\u0120singles": 2116, "\u0120nitrogen": 2117, "1386": 2118, "\u0120obscure": 2119, "\u0120Lam": 2120, "LLOW": 2121, "\u0120SunShot": 2122, "\u0120seedy": 2123, "Draw": 2124, "\u0120HAND": 2125, "\u0120Naud\u00c3\u00a9": 2126, "Focus": 2127, "chemicals": 2128, "conservative": 2129, "\u0120newtons": 2130, "compulsive": 2131, "as": 2132, "stomes": 2133, "\u0120scalloped": 2134, "\u0120Meri": 2135, "\u0120Systems": 2136, "Speech": 2137, "PUR": 2138, "\u0120respondents": 2139, "\u0120Symbian": 2140, "\u0120Perceived": 2141, "\u0120Carbaglu": 2142, "1120": 2143, "Edwin": 2144, "\u0120modifier": 2145, "\u0120preparation": 2146, "\u0120subsidize": 2147, "\u0120recon": 2148, "\u0120FWS": 2149, "Rika": 2150, "\u0120Glaxo": 2151, "\u0120Drill": 2152, "\u00a5": 2153, "\u0120Artemis": 2154, "\u0120peg": 2155, "\u0120Controller": 2156, "Radiation": 2157, "\u0120Oceana": 2158, "\u0120Curia": 2159, "\u0120beheld": 2160, "\u0120Johansen": 2161, "\u0120Moderately": 2162, "\u0120INR": 2163, "designing": 2164, "\u0120McGuire": 2165, "\u0120juror": 2166, "\u0120selves": 2167, "\u0120dulcimer": 2168, "\u0120Medical": 2169, "\u0120noncancerous": 2170, "\u0120derby": 2171, "\u0120insidious": 2172, "\u0120Doolittle": 2173, "\u0120ohms": 2174, "\u0120Lawton": 2175, "\u0120Discretionary": 2176, "SOI": 2177, "nu": 2178, "\u0120MONEY": 2179, "\u0120Reinforce": 2180, "McG": 2181, "FAB": 2182, "\u0120respite": 2183, "password": 2184, "\u0120Balcomb": 2185, "\u0120HUS": 2186, "\u0120vital": 2187, "\u0120SMD": 2188, "\u00cf\u0122\u00ce\u00bf\u00ce\u00ba\u00ce\u00ac\u00ce\u00bb\u00cf\u0127\u00cf\u012a\u00ce\u00b9\u00cf\u0124": 2189, "\u0120contemplates": 2190, "\u0120Overseer": 2191, "refer": 2192, "\u0120Nasa": 2193, "\u0120Acupuncturist": 2194, "\u0120Cusco": 2195, "\u0120disulfide": 2196, "\u0120Christina": 2197, "\u0120patriarchy": 2198, "\u0120surfactants": 2199, "\u0120S\u00c3\u00a9": 2200, "FSH": 2201, "\u0120awry": 2202, "\u0120miasma": 2203, "\u0120apparently": 2204, "\u0120Vocab": 2205, "\u0120resistors": 2206, "\u0120(\u00e2\u0122\u00a6": 2207, "Links": 2208, "\u0120Northland": 2209, "Hegarty": 2210, "\u0120pathophysiology": 2211, "\u0120Arnaud": 2212, "110": 2213, "\u0120Brigadier": 2214, "\u0120goldsmiths": 2215, "SRI": 2216, "AQ": 2217, "\u0120interregional": 2218, "\u0120vocalist": 2219, "\u0120Milarepa": 2220, "\u0120Bergh": 2221, "nomial": 2222, "\u0120Sandoval": 2223, "\u0120smallest": 2224, "\u0120Cola": 2225, "\u0120Middletown": 2226, "Bak": 2227, "\u0120aramid": 2228, "\u0120Hyper": 2229, "\u0120411": 2230, "\u0120folios": 2231, "\u0120permitted": 2232, "\u0120Captures": 2233, "\u0120rhetorician": 2234, "tology": 2235, "\u0120585": 2236, "\u0120Viruses": 2237, "\u0120bookshelves": 2238, "CSC": 2239, "geocities": 2240, "\u0120MacEachren": 2241, "\u0120Ireland": 2242, "\u0120disclaims": 2243, "\u0120alt": 2244, "regal": 2245, "\u0120darkening": 2246, "gni": 2247, "\u0120MITS": 2248, "hic": 2249, "\u0120Grendel": 2250, "\u0120aca": 2251, "\u0120Investigator": 2252, "WITH": 2253, "\u0120Combining": 2254, "\u0120Commander": 2255, "\u0120studies": 2256, "\u0120Markel": 2257, "\u0120reality": 2258, "\u012011": 2259, "\u0120Monell": 2260, "\u0120interchange": 2261, "\u0120GOAL": 2262, "\u0120xxv": 2263, "\u0120guardian": 2264, "\u0120Continents": 2265, "\u0120mediate": 2266, "missed": 2267, "thinking": 2268, "toxicology": 2269, "\u0120andesitic": 2270, "\u0120sociological": 2271, "\u0120Bia": 2272, "growing": 2273, ".\"\u00e2\u0122\u0136": 2274, "\u00c3\u00a9es": 2275, "\u0120Hip": 2276, "\u0120Eye": 2277, "\u0120overhaul": 2278, "\u0120Lamarck": 2279, "cleansing": 2280, "\u0120resuscitative": 2281, "Latitude": 2282, "parliament": 2283, "\u0120Pethick": 2284, "Males": 2285, "AMERICAN": 2286, "\u0120deceive": 2287, "\u0120bristlecone": 2288, "ABILITY": 2289, "\u0120Smokies": 2290, "\u0120drug": 2291, "stratus": 2292, "\u0120Blossom": 2293, "censorship": 2294, "ishly": 2295, "\u0120Territorial": 2296, "Robertson": 2297, "\u0120didnt": 2298, "\u0120caesarean": 2299, "ible": 2300, "\u0120Zang": 2301, "cheon": 2302, "\u0120ez": 2303, "founder": 2304, "\u0120muj": 2305, "loid": 2306, "LEVEL": 2307, "\u0120legumes": 2308, "\u0120logically": 2309, "biologists": 2310, "Rat": 2311, "\u0120squinting": 2312, "\u0120rune": 2313, "mindedness": 2314, "patches": 2315, "\u0120Gal": 2316, "cortical": 2317, "\u0120scriptural": 2318, "Indeed": 2319, "\u0120Muller": 2320, "\u0120activation": 2321, "xed": 2322, "\u0120Kandahar": 2323, "alog": 2324, "\u0120constant": 2325, "\u0120linking": 2326, "\u0120proofing": 2327, "\u0120Blomberg": 2328, "Tue": 2329, "\u0120Mash": 2330, "\u0120Landmarks": 2331, "\u0120rotational": 2332, "Borde": 2333, "doo": 2334, "97": 2335, "ichiro": 2336, "\u0120rights": 2337, "\u0120Chowan": 2338, "\u0120muslim": 2339, "\u0120Ane": 2340, "\u0120Florian": 2341, "\u0120Interpreting": 2342, "\u0120Joseph": 2343, "QUIT": 2344, "\u0120MEMS": 2345, "\u01201517": 2346, "\u0120inerrancy": 2347, "\u0120S\u00c3\u00bcddeutsche": 2348, "ayne": 2349, "\u0120Foxes": 2350, "educational": 2351, "\u0120Cahaba": 2352, "\u0120appearances": 2353, "aboriginal": 2354, "\u0120scrapers": 2355, "\u0120Bharatiya": 2356, "baba": 2357, "\u0120eschewed": 2358, "knuckle": 2359, "\u0120differed": 2360, "\u0120atherosclerosis": 2361, "\u0120FFT": 2362, "\u0120422": 2363, "\u0120Basle": 2364, "acted": 2365, "\u0120PHS": 2366, "\u0120Prown": 2367, "methane": 2368, "\u0120cannibals": 2369, "\u01201655": 2370, "\u0120Assignment": 2371, "\u0120seeker": 2372, "\u0120resolutions": 2373, "GAN": 2374, "vino": 2375, "\u0120Salzburg": 2376, "\u0120Sufism": 2377, "\u0120scanned": 2378, "\u0120H\u00c3\u00b8": 2379, "hum": 2380, "\u0120279": 2381, "\u0120Diogenes": 2382, "\u0120Rockabilly": 2383, "merciful": 2384, "\u0120ballads": 2385, "\u0120homeschool": 2386, "\u0120proposition": 2387, "Recently": 2388, "\u0120\u00e1\u00ba\u0134": 2389, "\u0120transthyretin": 2390, "\u0120boredom": 2391, "\u0120useful": 2392, "\u0120Avogadro": 2393, "bol": 2394, "954": 2395, "\u0120hurdle": 2396, "watches": 2397, "\u0120CCR": 2398, "\u0120Dementia": 2399, "\u0120flogging": 2400, "\u0120sanny\u00c4\u0123sa": 2401, "breaker": 2402, "\u0120Marr": 2403, "\u0120Queiroz": 2404, "posed": 2405, "\u0120Billington": 2406, "\u0120Anybody": 2407, "\u0120recognized": 2408, "\u0120Ellipse": 2409, "\u0120Reuben": 2410, "\u0120694": 2411, "caya": 2412, "\u0120Cuyamaca": 2413, "pyroxene": 2414, "\u0120Volt": 2415, "precious": 2416, "\u0120warped": 2417, "\u0120Eastside": 2418, "\u0120counteracting": 2419, "maria": 2420, "\u0120Bukharin": 2421, "burg": 2422, "\u0120ruining": 2423, "\u0120Wesleyan": 2424, "\u0120semiotics": 2425, "\u0120decent": 2426, "Decisions": 2427, "\u0120Levels": 2428, "Biosphere": 2429, "\u0120Gopher": 2430, "treat": 2431, "\u0120stewing": 2432, "\u0120Fourth": 2433, "\u0120Wel": 2434, "\u0120Confucius": 2435, "\u0120Dickey": 2436, "\u0120Macpherson": 2437, "\u0120torsional": 2438, "\u0120Tec": 2439, "zad": 2440, "\u0120Monmouthshire": 2441, "\u0120progressed": 2442, "\u0120Nagar": 2443, "\u0120Homo": 2444, "\u0120BPA": 2445, "centeredness": 2446, "\u0120observatories": 2447, "\u0120compiling": 2448, "\u0120detectives": 2449, "\u0120contralateral": 2450, "\u0120+_|_": 2451, "\u0120NLS": 2452, "\u0120coiled": 2453, "\u0120Gl": 2454, "\u0120flanking": 2455, "erah": 2456, "odoros": 2457, "\u0120Jossey": 2458, "\u0120Isildur": 2459, "por": 2460, "Pullman": 2461, "Hill": 2462, "olia": 2463, "\u0120internationalist": 2464, "Eur": 2465, "transmission": 2466, "Birds": 2467, "\u0120nasopharynx": 2468, "\u0120Glau": 2469, "\u0120menacing": 2470, "\u0120FISH": 2471, "\u0120Kamil": 2472, "energize": 2473, "\u0120ADMINISTRATION": 2474, "thick": 2475, "\u0120hypercube": 2476, "\u0120spans": 2477, "\u0120Phlebotomy": 2478, "Higgs": 2479, "\u0120CaseInsensitiveComparer": 2480, "asia": 2481, "\u0120Kreu": 2482, "bot": 2483, "\u0120erysipelas": 2484, "specialists": 2485, "\u0120beech": 2486, "\u0120dough": 2487, "\u0120ballpoint": 2488, "\u0120Schweikart": 2489, "\u0120BOMB": 2490, "\u0120CIS": 2491, "Tunguska": 2492, "Ball": 2493, "Sudan": 2494, "destruction": 2495, "\u0120Bahraini": 2496, "\u0120shirt": 2497, "\u0120stagnation": 2498, "\u0120injections": 2499, "\u0120alternative": 2500, "\u0120Krakatoa": 2501, "sensory": 2502, "\u0120Adib": 2503, "TES": 2504, "\u0120Verses": 2505, "ios": 2506, "farers": 2507, "FOUO": 2508, "\u0120Shepard": 2509, "\u0120unpack": 2510, "\u0120Cheap": 2511, "Schwe": 2512, "\u0120Monsters": 2513, "\u0120Swaminarayan": 2514, "\u0120Walther": 2515, "nur": 2516, "relationships": 2517, "\u0120abolishing": 2518, "\u0120tsunamis": 2519, "\u0120interleaving": 2520, "MASTER": 2521, "\u0120calculating": 2522, "\u0120Custodian": 2523, "\u0120REDD": 2524, "\u0120machinists": 2525, "\u0120Alberti": 2526, "\u0120emphasising": 2527, "\u0120momentarily": 2528, "\u0120appendectomy": 2529, "\u0120Mnemosyne": 2530, "MRO": 2531, "\u0120erred": 2532, "\u0120Koe": 2533, "\u0120Sergio": 2534, "\u0120Plume": 2535, "Colored": 2536, "\u0120atlas": 2537, "fresh": 2538, "\u0120gastropod": 2539, "\u0120452": 2540, "\u0120embayment": 2541, "\u0120pulsars": 2542, "\u0120sacraments": 2543, "\u0120parental": 2544, "steak": 2545, "\u0120vascular": 2546, "\u0120Preparing": 2547, "\u0120etoposide": 2548, "\u0120specie": 2549, "\u0120phenotype": 2550, "\u0120Amaryllis": 2551, "fungal": 2552, "\u0120Tetr": 2553, "\u0120Emirates": 2554, "\u0120failover": 2555, "embolic": 2556, "Bhaktivedanta": 2557, "\u0120stag": 2558, "\u0120shaped": 2559, "gynous": 2560, "\u0120investiture": 2561, "quoted": 2562, "\u0120Macoupin": 2563, "losing": 2564, "\u0120Whitby": 2565, "\u0120Steuart": 2566, "\u0120minivans": 2567, "\u0120stor": 2568, "\u0120Priscilla": 2569, "\u0120Glynd\u00c5\u00b5r": 2570, "Modernism": 2571, "\u0120humiliation": 2572, "\u0120th": 2573, "\u0120dredge": 2574, "ny": 2575, "European": 2576, "\u0120Preventing": 2577, "\u0120oilseeds": 2578, "Brigadier": 2579, "\u0120diagramming": 2580, "\u0120dropper": 2581, "\u0120adaptability": 2582, "\u0120Kakawin": 2583, "\u0120fictive": 2584, "\u0120bacillus": 2585, "\u0120Yam": 2586, "\u0120Porphyr": 2587, "\u0120Deli": 2588, "\u0120Indeed": 2589, "Golf": 2590, "\u0120Chancellery": 2591, "\u0120Oa": 2592, "WEB": 2593, "\u0120Ulithi": 2594, "\u0120napkins": 2595, "\u0120oxen": 2596, "\u0120genuinely": 2597, "\u0120advisability": 2598, "\u0120minimums": 2599, "\u0120hydrochloric": 2600, "\u0120prog": 2601, "\u0120Tanya": 2602, "\u0120nakedness": 2603, "\u0120Waals": 2604, "\u0120awestruck": 2605, "\u0120constitution": 2606, "\u0120Sykes": 2607, "IMP": 2608, "Clinton": 2609, "\u0120Algonquian": 2610, "\u0120dependability": 2611, "tang": 2612, "\u0120targets": 2613, "\u0120vt": 2614, "\u0120Dich": 2615, "\u0120#+": 2616, "\u0120Abbott": 2617, "\u0120environments": 2618, "\u0120Ambulance": 2619, "\u0120overabundance": 2620, "\u0120Helicopter": 2621, "\u0120Joanne": 2622, "PDQ": 2623, "\u0120flushing": 2624, "\u0120Gertrude": 2625, "saccharides": 2626, "Sharif": 2627, "settings": 2628, "\u0120F\u00c3\u00a9in": 2629, "\u0120igniting": 2630, "\u0120cryoglobulinemia": 2631, "\u0120precise": 2632, "\u0120193": 2633, "\u0120Sizing": 2634, "\u0120\u00ef\u00b4\u00bf": 2635, "ruh": 2636, "LW": 2637, "\u0120ECONOMY": 2638, "\u0120bitch": 2639, "\u0120Occupations": 2640, "\u0120forgetfulness": 2641, "\u0120Doha": 2642, "condenser": 2643, "dro": 2644, "defense": 2645, "\u0120FIFA": 2646, "illness": 2647, "\u0120partisan": 2648, "\u0120Alfv\u00c3\u00a9n": 2649, "\u0120pari": 2650, "\u0120magician": 2651, "\u0120NSIDC": 2652, "\u0120Capo": 2653, "Cylinder": 2654, "\u0120MG": 2655, "Pilots": 2656, "\u0120Plots": 2657, "\u0120Campania": 2658, "\u0120Rehnquist": 2659, "\u0120Novel": 2660, "\u0120PLC": 2661, "\u0120Gobineau": 2662, "\u00d1\u0125": 2663, "\u0120Hutcheson": 2664, "\u0120Bernanke": 2665, "\u0120glyphosate": 2666, "\u0120ungrammatical": 2667, "\u0120\u00d1\u0123\u00d1\u0124\u00d0\u00b0\u00d0\u00bd\u00d0\u00be\u00d0\u00b2\u00d0\u00bd\u00d0\u00b8\u00d1\u012a\u00d1\u0124\u00d0\u00b2": 2668, "\u0120sniffing": 2669, "\u0120glutamates": 2670, "belonging": 2671, "ue": 2672, "1275": 2673, "trunk": 2674, "lied": 2675, "\u0120Barike": 2676, "Talmud": 2677, "src": 2678, "legitimacy": 2679, "\u0120Popper": 2680, "lons": 2681, "\u0120Carwardine": 2682, "therms": 2683, "\u0120Butterfly": 2684, "1908": 2685, "\u0120Baath": 2686, "\u0120unmodified": 2687, "lamation": 2688, "\u0120outlooks": 2689, "\u0120Gravitation": 2690, "\u0120Sympathetic": 2691, "\u0120Kartchner": 2692, "NIAID": 2693, "\u0120Exodus": 2694, "bock": 2695, "\u0120semanage": 2696, "\u0120sewing": 2697, "\u0120HBC": 2698, "\u0120barrels": 2699, "tolerant": 2700, "muscles": 2701, "Diarmuid": 2702, "\u0120Honeywell": 2703, "tation": 2704, "\u0120Canceaux": 2705, "\u0120\u00e1\u00bc\u0136\u00ce\u00ba\u00cf\u0122\u00ce\u00bb\u00ce\u00b7\u00ce\u00be\u00ce\u00b9": 2706, "\u0120Norse": 2707, "climb": 2708, "\u0120Machaeroprosopus": 2709, "\u0120Wartburg": 2710, "squa": 2711, "\u0120roughness": 2712, "\u0120McIndoe": 2713, "Years": 2714, "\u0120Dorian": 2715, "\u0120happiness": 2716, "tank": 2717, "\u0120Roles": 2718, "\u0120envoys": 2719, "\u0120pharmacopoeia": 2720, "gamy": 2721, "propagation": 2722, "\u0120inductor": 2723, "cop": 2724, "\u0120discovering": 2725, "Laughlin": 2726, "Imagine": 2727, "\u0120openly": 2728, "\u0120p\u00c3\u00a9ople": 2729, "\u0120EPC": 2730, "\u0120phytochemical": 2731, "\u0120Huett": 2732, "\u0120unconsolidated": 2733, "\u0120polymerization": 2734, "\u0120panzer": 2735, "\u00e3\u0123\u013a\u00e3\u0124\u0125\u00e3\u0123\u00aa\u00e3\u0123\u0126": 2736, "\u0120applicants": 2737, "\u0120Esperance": 2738, "\u0120unconditioned": 2739, "amazing": 2740, "\u0120bagna": 2741, "\u0120Arthritis": 2742, "HT": 2743, "\u0120seashells": 2744, "\u0120booster": 2745, "\u0120Suite": 2746, "\u0120Defeat": 2747, "\u0120actor": 2748, "\u0120dials": 2749, "suggests": 2750, "\u0120ciliated": 2751, "Jas": 2752, "624": 2753, "\u0120spits": 2754, "\u0120Paschal": 2755, "\u0120chalimus": 2756, "Adjust": 2757, "esy": 2758, "Gorman": 2759, "\u0120decennial": 2760, "butyrate": 2761, "\u0120parked": 2762, "\u0120percussion": 2763, "Vaccine": 2764, "\u0120novo": 2765, "\u0120Post": 2766, "RS": 2767, "\u0120Alamance": 2768, "\u0120Jatavarman": 2769, "\u0120landscaped": 2770, "\u0120Thracian": 2771, "\u0120Kinsella": 2772, "\u0120dispositions": 2773, "\u0120oceanographers": 2774, "\u0120NKJV": 2775, "MEA": 2776, "funds": 2777, "nology": 2778, "reveals": 2779, "\u0120Wenner": 2780, "\u0120knights": 2781, "\u0120Hap": 2782, "\u0120Orchids": 2783, "\u0120fact": 2784, "Intermediate": 2785, "\u0120NZSL": 2786, "\u0120monuments": 2787, "\u0120Snail": 2788, "\u0120Aure": 2789, "\u0120possible": 2790, "Ensuring": 2791, "\u0120Encounter": 2792, "\u0120adjudicated": 2793, "memory": 2794, "Proceedings": 2795, "\u0120clashes": 2796, "Gemsboks": 2797, "\u0120Johanna": 2798, "Stir": 2799, "\u0120Whoever": 2800, "\u0120gopher": 2801, "Basal": 2802, "\u00e1\u00b9\u0143a": 2803, "\u0120Cavanilles": 2804, "volemia": 2805, "precise": 2806, "\u00b0": 2807, "\u0120hypothermic": 2808, "\u0120able": 2809, "):": 2810, "\u0120remark": 2811, "Client": 2812, "\u0120ionizing": 2813, "\u0120boom": 2814, "\u0120chronology": 2815, "\u0120SKILLS": 2816, "\u0120Mernissi": 2817, "Maur": 2818, "ogenes": 2819, "\u0120configurable": 2820, "FUL": 2821, "CT": 2822, "\u0120cefuroxime": 2823, "\u0120HTTPS": 2824, "Looks": 2825, "\u0120flouting": 2826, "\u0120confines": 2827, "Rao": 2828, "\u0120Inhuman": 2829, "\u0120dosimeter": 2830, "Available": 2831, "bumps": 2832, "Emotional": 2833, "\u0120Vajra": 2834, "\u0120flashed": 2835, "\u0120Martinus": 2836, "\u0120Skeleton": 2837, "\u0120Ego": 2838, "\u0120rivals": 2839, "\u0120Dennison": 2840, "\u0120Ennis": 2841, "\u0120scorching": 2842, "\u0120exhume": 2843, "\u0120we\u00c3\u0143re": 2844, "\u0120minstrelsy": 2845, "gmann": 2846, "1060": 2847, "Ordering": 2848, "\u0120Benedictine": 2849, "Consequently": 2850, "\u0120Threaten": 2851, "\u0120mussels": 2852, "\u0120muted": 2853, "\u0120Chiriboga": 2854, "\u0120Allegory": 2855, "\u0120Spikes": 2856, "\u0120Isthmus": 2857, "mk": 2858, "\u0120Alz": 2859, "\u0120marbles": 2860, "bradycardia": 2861, "Walt": 2862, "\u0120cynic": 2863, "\u0120mobilisation": 2864, "\u0120hardcore": 2865, "hourly": 2866, "usions": 2867, "\u0120area": 2868, "\u0120nurseries": 2869, "\u0120Silicon": 2870, "\u0120Bront\u00c3\u00ab": 2871, "\u0120flip": 2872, "\u0120persuasion": 2873, "\u0120Titan": 2874, "buffered": 2875, "Arroyo": 2876, "\u0120Specter": 2877, "\u0120Orbis": 2878, "\u0120sa\u00e1\u00b9\u0143\u00e1\u00b9\u0143va": 2879, "Parivr\u00c4\u0123jaka": 2880, "\u0120Aleve": 2881, "\u0120Toynbee": 2882, "Kin": 2883, "\u0120particularities": 2884, "\u0120Delta": 2885, "\u0120LPNs": 2886, "\u0120bypasses": 2887, "\u0120Linh": 2888, "\u0120germicidal": 2889, "deficiency": 2890, "\u0120semolina": 2891, "\u0120945": 2892, "Raphael": 2893, "\u0120NKVD": 2894, "\u0120Browne": 2895, "\u0120forwards": 2896, "\u0120magnify": 2897, "\u0120Gm": 2898, "367": 2899, "peritoneal": 2900, "\u0120Menendez": 2901, "ROAD": 2902, "\u0120Bass": 2903, "garh": 2904, "Tar": 2905, "\u0120Pugin": 2906, "\u0120subaltern": 2907, "\u0120bras": 2908, "Welfare": 2909, "Feature": 2910, "Gasoline": 2911, "\u0120theropod": 2912, "\u0120Wenceslas": 2913, "\u0120rejuvenation": 2914, "1602": 2915, "Vita": 2916, "Kalaripayattu": 2917, "\u0120sulphate": 2918, "\u0120Victorian": 2919, "\u0120fuselage": 2920, "\u0120closed": 2921, "\u0120cigarette": 2922, "\u0120spoilt": 2923, "\u0120discriminated": 2924, "\u0120FP": 2925, "sic": 2926, "\u0120Ecole": 2927, "\u0120Pollak": 2928, "\u0120slumber": 2929, "\u0120Grassroots": 2930, "\u0120m\u00c4\u0123y\u00c4\u0123": 2931, "tinged": 2932, "Kilopass": 2933, "\u0120Notebook": 2934, "\u0120astonishment": 2935, "\u0120SEBASTIAN": 2936, "WAY": 2937, "Malcolm": 2938, "\u0120disregarded": 2939, "\u0120unplugged": 2940, "oblastoma": 2941, "induced": 2942, "\u0120(%)|": 2943, "\u00e1\u00b8\u00a4ad\u00c4\u00abth": 2944, "\u0120PRP": 2945, "\u0120coughs": 2946, "\u0120analytical": 2947, "\u0120Ebro": 2948, "RAF": 2949, "ancestor": 2950, "\u0120Retroviruses": 2951, "\u0120Tak": 2952, "\u0120ape": 2953, "\u0120Secy": 2954, "\u0120shards": 2955, "\u0120decisions": 2956, "\u0120hammering": 2957, "\u0120Arist": 2958, "\u0120QUANT": 2959, ",_": 2960, "\u0120boating": 2961, "\u0120Photography": 2962, "1686": 2963, "\u0120shadows": 2964, "\u00ce\u00ae": 2965, "\u0120contum": 2966, "\u0120285": 2967, "\u0120upregulation": 2968, "\u0120persecutor": 2969, "sensitive": 2970, "\u0120beleaguered": 2971, "\u0120plantings": 2972, "\u0120Famiglietti": 2973, "\u0120\u00c2\u00b0": 2974, "turbulent": 2975, "\u0120Muckleshoot": 2976, "\u0120Doyle": 2977, "\u0120Ovary": 2978, "\u0120Terrence": 2979, "\u0120Washburn": 2980, "\u0120keystone": 2981, "\u0120shoemaker": 2982, "Young": 2983, "\u0120Clu": 2984, "\u0120BIRDS": 2985, "Malabar": 2986, "Ruth": 2987, "breath": 2988, "Medjool": 2989, "\u0120cordially": 2990, "redeem": 2991, "\u0120deeds": 2992, "\u0120predominance": 2993, "\u0120improvement": 2994, "erers": 2995, "\u0120Gemstone": 2996, "opoietin": 2997, "\u0120DY": 2998, "\u0120Opposite": 2999, "\u0120granaries": 3000, "\u0120demilitarized": 3001, "\u0120guerillas": 3002, "\u0120coelacanth": 3003, "\u0120Enoch": 3004, "N\u00c4\u0123r\u00c4\u0123ya\u00e1\u00b9\u0129\u00c4\u0123ya": 3005, "\u0120hardscrabble": 3006, "\u0120Lamprologus": 3007, "endian": 3008, "\u0120Ajatashatru": 3009, "\u0120Energy": 3010, "f": 3011, "\u0120Calpurnia": 3012, "\u0120ISDN": 3013, "\u0120evaluates": 3014, "\u0120noticeably": 3015, "\u0120Adolf": 3016, "\u0120induced": 3017, "\u0120Eigen": 3018, "\u0120Vegetarian": 3019, "\u0120toothless": 3020, "\u0120sensationalism": 3021, "Delete": 3022, "\u0120Principal": 3023, "\u0120tonight": 3024, "\u0120Views": 3025, "\u0120Opportunities": 3026, "\u0120Mowbray": 3027, "\u0120practicing": 3028, "\u0120Godber": 3029, "\u0120classifier": 3030, "\u0120Ostrom": 3031, "parasites": 3032, "\u0120prefixes": 3033, "ptr": 3034, "\u0120scepter": 3035, "uva": 3036, "\u0120unites": 3037, "\u0120GOOS": 3038, "\u0120Borlaug": 3039, "\u0120Curve": 3040, "\u0120Mohamad": 3041, "\u0120Tricky": 3042, "\u0120Worksheet": 3043, "Betriebsleiter": 3044, "\u0120Virol": 3045, "\u0120antichrist": 3046, "\u0120Prakash": 3047, "\u0120Corp": 3048, "\u0120FROGS": 3049, "\u0120trimming": 3050, "\u0120Elmbridge": 3051, "\u0120depressions": 3052, "Sla": 3053, "Am": 3054, "\u0120Amacher": 3055, "\u0120bonafide": 3056, "\u0120bathtub": 3057, "qvist": 3058, "Cook": 3059, "Eugene": 3060, "\u0120Pankhurst": 3061, "\u0120possessed": 3062, "downstream": 3063, "\u0120prose": 3064, "\u0120transactional": 3065, "\u0120blows": 3066, "\u0120Landon": 3067, "\u0120horrifying": 3068, "\u0120Faction": 3069, "\u0120Rectal": 3070, "\u0120prophecies": 3071, "\u0120thalamomammillary": 3072, "pebble": 3073, "\u0120further": 3074, "\u0120appropriate": 3075, "\u0120formulas": 3076, "\u0120Correspondingly": 3077, "\u0120Burgh": 3078, "\u0120domino": 3079, "\u0120trigger": 3080, "\u0120biokerosene": 3081, "\u0120roasts": 3082, "\u0120CINCPOA": 3083, "\u0120influencing": 3084, "\u0120MONO": 3085, "\u0120under": 3086, "\u0120Extensive": 3087, "\u0120Tomography": 3088, "IGATION": 3089, "\u0120gong": 3090, "\u0120heartily": 3091, "Network": 3092, "\u0120Washoe": 3093, "Minute": 3094, "\u0120chainrings": 3095, "\u0120770": 3096, "\u0120Funabiki": 3097, "\u0120opiate": 3098, "heading": 3099, "\u0120hysteria": 3100, "\u0120Guide": 3101, "\u0120primes": 3102, "\u0120gras": 3103, "nearly": 3104, "\u0120squeaks": 3105, "\u0120husbandry": 3106, "\u0120Barcelona": 3107, "\u0120founding": 3108, "\u0120misunderstand": 3109, "\u0120ancillary": 3110, "\u0120raving": 3111, "Handbook": 3112, "\u0120Matthias": 3113, "\u0120audiology": 3114, "dried": 3115, "\u0120endosperm": 3116, "\u0120consultants": 3117, "\u0120carn": 3118, "\u0120universe": 3119, "\u0120Grady": 3120, "\u0120Aware": 3121, "\u0120Undoubtedly": 3122, "\u0120baritone": 3123, "\u0120Ascorbate": 3124, "\u0120dyskinesia": 3125, "\u0120oddly": 3126, "Computed": 3127, "isbn": 3128, "\u00e1\u00b9\u00a3\u00e1\u00b9\u00a3": 3129, "thoracic": 3130, "Fountains": 3131, "\u0120infinitely": 3132, "\u0120unserviceable": 3133, "\u0120Geodesy": 3134, "dumb": 3135, "\u0120Commanding": 3136, "want": 3137, "\u0120Kalmakarra": 3138, "\u0120sasl": 3139, "ORG": 3140, "\u0120Siddh\u00c4\u0123rtha": 3141, "\u0120Bacon": 3142, "\u0120OX": 3143, "\u0120Argentinean": 3144, "thas": 3145, "\u0120Restricting": 3146, "\u0120evolutionism": 3147, "IC": 3148, "\u0120reconcile": 3149, "\u0120Aquifer": 3150, "\u0120guilt": 3151, "\u0120analogical": 3152, "IP": 3153, "philia": 3154, "catchers": 3155, "\u0120Yisroel": 3156, "\u0120Settings": 3157, "\u0120midterm": 3158, "\u0120Scholar": 3159, "\u0120Catamarca": 3160, "\u0120circum": 3161, "\u0120bloodline": 3162, "\u0120alternatively": 3163, "\u0120Silesia": 3164, "\u0120DOC": 3165, "\u0120Schiavone": 3166, "\u0120AAHPERD": 3167, "\u0120Contexts": 3168, "\u0120jatropha": 3169, "\u0120MacCarthy": 3170, "\u0120inlet": 3171, "\u0120Phragmites": 3172, "IENT": 3173, "\u0120contemptible": 3174, "\u0120Mating": 3175, "\u0120relapses": 3176, "\u0120Chesapeake": 3177, "assay": 3178, "9371": 3179, "\u0120Principia": 3180, "\u00d0\u00b8\u00d1\u013d": 3181, "\u0120sheet": 3182, "\u0120dispassionate": 3183, "\u0120reboot": 3184, "].)": 3185, "\u0120Mimosa": 3186, "\u0120INSPECT": 3187, "FAST": 3188, "\u0120menorah": 3189, "cum": 3190, "\u0120galleries": 3191, "junk": 3192, "\u0120coalesced": 3193, "\u0120Bennelong": 3194, "\u0120cap": 3195, "wong": 3196, "\u0120apse": 3197, "\u0120Mycobacterium": 3198, "caffeinated": 3199, "\u0120stedfast": 3200, "\u0120Superstar": 3201, "\u0120Factbook": 3202, "\u0120Arcadia": 3203, "\u0120lossy": 3204, "\u0120Consuls": 3205, "\u0120fervently": 3206, "\u0120unceremoniously": 3207, "\u0120Kani": 3208, "\u0120droves": 3209, "\u0120chauffeur": 3210, "Nicola": 3211, "oxidation": 3212, "\u0120imposition": 3213, "\u0120dressed": 3214, "itudinal": 3215, "\u0120nobleman": 3216, "\u0120restive": 3217, "\u0120appeasing": 3218, "\u0120CWA": 3219, "\u0120unmitigated": 3220, "\u0120Villard": 3221, "\u0120Center": 3222, "\u0120whining": 3223, "\u0120Vault": 3224, "\u0120immunomodulatory": 3225, "Knock": 3226, "Preservation": 3227, "\u0120puns": 3228, "\u0120alveol": 3229, "\u0120gyms": 3230, "\u0120Tobacco": 3231, "\u0120lighthouse": 3232, "\u0120Solomons": 3233, "Claudia": 3234, "ICs": 3235, "\u0120PRC": 3236, "\u0120therapeutic": 3237, "\u0120Toy": 3238, "\u0120Monck": 3239, "\u0120Kybalion": 3240, "Actions": 3241, "\u0120creditworthiness": 3242, "!\u00e2\u0122\u0136": 3243, "\u0120Horsehead": 3244, "\u0120INFO": 3245, "chil": 3246, "\u0120Corot": 3247, "\u0120raged": 3248, "\u0120promptings": 3249, "cin": 3250, "\u0120Pancho": 3251, "\u0120stiff": 3252, "\u0120Shim": 3253, "\u0120Adriatic": 3254, "\u0120diatomaceous": 3255, "ack": 3256, "\u0120Gio": 3257, "\u0120tourists": 3258, "vowel": 3259, "\u0120pariah": 3260, "\u0120Kuhlau": 3261, "\u0120Limburg": 3262, "\u0120Natan": 3263, "\u0120liquorice": 3264, "\u0120Macaulay": 3265, "pone": 3266, "\u0120Shippensburg": 3267, "\u0120Kate": 3268, "origin": 3269, "mou": 3270, "\u0120inset": 3271, "\u0120offshoot": 3272, "\u0120decuss": 3273, "\u0120calmed": 3274, "\u0120O": 3275, "\u0120factsanddetails": 3276, "\u0120thither": 3277, "IGN": 3278, "\u0120VEX": 3279, "estin": 3280, "Jennifer": 3281, "bhe": 3282, "\u0120demoted": 3283, "\u0120mai": 3284, "DTaP": 3285, "\u0120spatial": 3286, "\u0120THEORY": 3287, "\u0120electors": 3288, "\u0120cusps": 3289, "\u0120linac": 3290, "Antarctic": 3291, "proxy": 3292, "\u0120percentage": 3293, "\u0120equinoctial": 3294, "suppressing": 3295, "formed": 3296, "\u0120Radi": 3297, "\u0120Yelm": 3298, "Eheschliessung": 3299, "\u0120catastrophe": 3300, "septic": 3301, "\u0120climacteric": 3302, "\u0120warmth": 3303, "\u0120paternalism": 3304, "\u0120Kellogg": 3305, "\u0120jazz": 3306, "\u0120Lemur": 3307, "\u0120Dijkstra": 3308, "Traditionally": 3309, "\u0120\u00e1\u00b9\u013d": 3310, "\u0120imperative": 3311, "\u0120Mic": 3312, "\u0120galaxy": 3313, "\u0120Helene": 3314, "\u0120Croatia": 3315, "\u0120diminished": 3316, "\u0120Kuroshio": 3317, "PMC": 3318, "\u0120Diario": 3319, "\u0120anglerfish": 3320, "avotaynu": 3321, "predecessor": 3322, "\u0120man\u00e1\u00b9\u0143ra": 3323, "\u0120ploy": 3324, "\u0120Classic": 3325, "\u0120ramp": 3326, "\u0120Dam": 3327, "!!": 3328, "lpsnowflakes": 3329, "\u0120proximal": 3330, "\u0120group": 3331, "\u0120biorefinery": 3332, "\u0120Scarp": 3333, "\u0120Nagel": 3334, "Umbilical": 3335, "\u0120hearts": 3336, "\u0120Chocolate": 3337, "\u0120Mollusca": 3338, "\u0120entrenched": 3339, "\u0120indomitable": 3340, "Ulysses": 3341, "\u0120customer": 3342, "\u0120morbidity": 3343, "\u0120Formal": 3344, "\u0120ty": 3345, "\u0120centigrade": 3346, "\u0120voice": 3347, ")": 3348, "\u0120naturalized": 3349, "\u0120accommodated": 3350, "\u0120tells": 3351, "\u0120Heu": 3352, "\u0120worships": 3353, "\u0120Kramer": 3354, "\u0120repeatable": 3355, "origine": 3356, "\u0120Supp": 3357, "\u0120untestable": 3358, "\u0120Diffraction": 3359, "Setting": 3360, "\u0120petrel": 3361, "\u0120Mam": 3362, "carcinogen": 3363, "\u0120Designated": 3364, "\u0120Lisbon": 3365, "\u0120whitetip": 3366, "\u0120penitent": 3367, "\u0120calculated": 3368, "##": 3369, "\u0120Numbering": 3370, "\u0120PSYCHOLOGY": 3371, "eu": 3372, "\u0120Dost": 3373, "engineer": 3374, "VALUE": 3375, "\u0120mon": 3376, "\u0120Jumper": 3377, "\u0120Funktionen": 3378, "depends": 3379, "\u0120Homeo": 3380, "\u0120NWS": 3381, "\u0120812": 3382, "agencies": 3383, "nox": 3384, "\u0120Chewing": 3385, "\u0120multiethnic": 3386, "\u0120Genappe": 3387, "hd": 3388, "\u0120forest": 3389, ")',": 3390, "\u0120Predictions": 3391, "\u0120secularized": 3392, "\u0120Edelman": 3393, "\u01201621": 3394, "\u0120Pneumo": 3395, "\u0120cata": 3396, "\u0120microfluidic": 3397, "\u0120Aquila": 3398, "\u0120Germanium": 3399, "\u0120novelists": 3400, "\u0120members": 3401, "\u0120presupposed": 3402, "\u0120Sippar": 3403, "FAR": 3404, "\u0120Cristo": 3405, "\u0120Ninh": 3406, "\u0120Noli": 3407, "HUR": 3408, "\u0120multibyte": 3409, "\u0120lifts": 3410, "\u0120gland": 3411, "\u0120neuralgia": 3412, "\u0120catfish": 3413, "\u0120monads": 3414, "\u0120esteem": 3415, "Persian": 3416, "\u0120Imaginary": 3417, "Semba": 3418, "\u0120Hyperactivity": 3419, "\u0120Esophageal": 3420, "biblio": 3421, "lewski": 3422, "\u0120Poverty": 3423, "\u0120abortive": 3424, "\u0120Analyzing": 3425, "\u0120evangelist": 3426, "lifting": 3427, "\u0120chronic": 3428, "\u0120econometric": 3429, "\u0120roundworms": 3430, "\u0120purpurea": 3431, "\u0120Hagerman": 3432, "\u0120nonfederal": 3433, "\u0120belligerent": 3434, "Dow": 3435, "\u0120Ar": 3436, "\u0120Portfolio": 3437, "bronze": 3438, "\u0120Cel": 3439, "\u0120Seligman": 3440, "\u0120Ethno": 3441, "\u0120retainers": 3442, "\u0120Carli": 3443, "\u0120pregnancies": 3444, "\u0120Tarahumara": 3445, "\u0120Arroyo": 3446, "\u0120floundering": 3447, "\u0120Conshohocken": 3448, "\u0120numbness": 3449, "\u0120Schenectady": 3450, "\u0120poder": 3451, "\u0120AIR": 3452, "administrator": 3453, "\u0120relationships": 3454, "\u0120MGD": 3455, "calli": 3456, "\u01201651": 3457, "\u0120jars": 3458, "\u0120triple": 3459, "\u0120demolitions": 3460, "\u0120thereupon": 3461, "\u0120cheerful": 3462, "\u0120lantern": 3463, "bile": 3464, "\u0120recombinase": 3465, "\u0120Expose": 3466, "\u0120visor": 3467, "\u0120nominated": 3468, "\u0120MEETING": 3469, "\u0120conjunctions": 3470, "\u0120Indicates": 3471, "\u0120binocular": 3472, "\u0120stacked": 3473, "\u0120Broadcasting": 3474, "\u0120ments": 3475, "\u0120Belgium": 3476, "\u0120EGFR": 3477, "\u0120unorthodox": 3478, "\u0120adulteration": 3479, "\u0120graphic": 3480, "\u0120Collin": 3481, "\u0120vagina": 3482, "\u0120foliar": 3483, "\u0120sailing": 3484, "\u0120Eratosthenes": 3485, "\u0120collects": 3486, "\u0120pedestrians": 3487, "\u0120meager": 3488, "\u0120therefore": 3489, "\u0120silhouetted": 3490, "\u0120mystic": 3491, ").(": 3492, "\u0120Transitional": 3493, "MW": 3494, "OSS": 3495, "\u0120incurs": 3496, "ilis": 3497, "\u0120Melanesia": 3498, "\u01201307": 3499, "\u0120Goodyear": 3500, "\u0120astrocytoma": 3501, "Contribution": 3502, "llo": 3503, "\u0120Scrib": 3504, "\u0120stark": 3505, "\u0120Catskill": 3506, "tropic": 3507, "149": 3508, "\u0120Garage": 3509, "pstein": 3510, "\u0120Parvovirus": 3511, "\u0120agrochemicals": 3512, "\u0120Sambhaji": 3513, "\u0120Being": 3514, "\u0120Fibromyalgia": 3515, "\u0120Antiquities": 3516, "\u0120Brabant": 3517, "\u0120exerc": 3518, "\u0120spraying": 3519, "\u0120Accords": 3520, "\u0120leverage": 3521, "\u0120Lavoie": 3522, "\u0120Cheka": 3523, "intrinsic": 3524, "\u0120debacle": 3525, "\u0120GND": 3526, "\u0120Reh": 3527, "\u0120Gluten": 3528, "\u0120Whistler": 3529, "\u0120the": 3530, "bies": 3531, "\u0120perpetuate": 3532, "fis": 3533, "fered": 3534, "areas": 3535, "inward": 3536, "silicon": 3537, "\u0120Shofar": 3538, "PORT": 3539, "\u0120Beautiful": 3540, "\u0120observed": 3541, "\u0120liberates": 3542, "certainly": 3543, "Addition": 3544, "\u0120ERP": 3545, "\u0120Peltier": 3546, "\u0120marriage": 3547, "\u0120assorted": 3548, "\u0120Coleoptera": 3549, "\u0120interfere": 3550, "\u0120Pheno": 3551, "\u0120spoofed": 3552, "Bennett": 3553, "\u0120impinges": 3554, "KF": 3555, "fruits": 3556, "Ixtlilxochitl": 3557, "\u0120Detectives": 3558, "\u0120Sturlunga": 3559, "\u0120extents": 3560, "\u0120insectivorous": 3561, "\u0120Woman": 3562, "\u0120elevating": 3563, "\u0120Fusion": 3564, "\u0120Hiram": 3565, "\u0120leaven": 3566, "\u0120alloying": 3567, "\u0120Cutoff": 3568, "\u0120doorway": 3569, "\u0120methicillin": 3570, "\u0120unix": 3571, "\u0120Kea": 3572, "western": 3573, "\u0120arbit": 3574, "\u0120sucker": 3575, "\u0120Easier": 3576, "\u0120trehalose": 3577, "\u0120caecilian": 3578, "\u0120readjust": 3579, "\u0120Quixote": 3580, "\u0120Tutors": 3581, "\u0120warrior": 3582, "\u0120gentlemen": 3583, "\u0120Rayy": 3584, "\u0120Des": 3585, "SUPPLEMENT": 3586, "Soils": 3587, "\u01201858": 3588, "\u0120seamen": 3589, "\u0120enacts": 3590, "\u0120Historic": 3591, "\u0120Desargues": 3592, "Introduced": 3593, "Mediterranean": 3594, "\u0120Bainbridge": 3595, "\u0120backwardness": 3596, "ature": 3597, "\u0120Completion": 3598, "hey": 3599, "\u0120Ferry": 3600, "\u0120INTERNATIONAL": 3601, "\u0120Haworth": 3602, "\u0120ceratopsian": 3603, "\u0120Ambrosio": 3604, "\u0120hundred": 3605, "\u0120plummeting": 3606, "\u0120magnifies": 3607, "ican": 3608, "\u0120Capital": 3609, "\u0120Blahd": 3610, "Teresa": 3611, "\u0120brings": 3612, "\u0120Pati": 3613, "\u0120paddle": 3614, "grader": 3615, "inthe": 3616, "\u0120Spaghetti": 3617, "studies": 3618, "\u012049": 3619, "\u0120clutter": 3620, "Husayn": 3621, "\u0120GUI": 3622, "bean": 3623, "\u0120cruciferous": 3624, "\u0120oleic": 3625, "dieu": 3626, "\u0120chromatophores": 3627, "cian": 3628, "arim": 3629, "Pettigrew": 3630, "Liquefaction": 3631, "****": 3632, "\u0120potholes": 3633, "\u0120Onn": 3634, "\u0120Chandragupta": 3635, "\u0120miscalculated": 3636, "Hyderabad": 3637, "\u0120qualification": 3638, "CGIAR": 3639, "\u0120civilisations": 3640, "Lat": 3641, "CHF": 3642, "monic": 3643, "\u0120Thesis": 3644, "onica": 3645, "Holocene": 3646, "Sepsis": 3647, "Predator": 3648, "\u0120Tetrabrachiidae": 3649, "\u0120pall": 3650, "\u0120amalgamation": 3651, "\u0120wanders": 3652, "\u0120Recorded": 3653, "\u0120Bajo": 3654, "\u0120severity": 3655, "\u0120pierce": 3656, "\u0120whispered": 3657, "rights": 3658, "\u0120immunosorbent": 3659, "rism": 3660, "\u0120centenary": 3661, "\u0120LK": 3662, "mineral": 3663, "pores": 3664, "\u0120condo": 3665, "\u01201300": 3666, "\u0120Crimson": 3667, "Empowering": 3668, "\u0120branch": 3669, "\u0120stoic": 3670, "GO": 3671, "ubs": 3672, "\u0120Despite": 3673, "\u0120Insertion": 3674, "moves": 3675, "\u0120Edition": 3676, "tionary": 3677, "explosion": 3678, "\u0120DVT": 3679, "\u0120baptisms": 3680, "\u0120pedicel": 3681, "Singing": 3682, "\u0120ju": 3683, "\u0120actors": 3684, "\u0120subequal": 3685, "\u0120subverting": 3686, "jis": 3687, "\u0120allot": 3688, "\u0120knows": 3689, "\u0120pagoda": 3690, "\u0120visitor": 3691, "Interventions": 3692, "\u0120Aconitum": 3693, "\u00c3\u00b0": 3694, "Zithromax": 3695, "\u0120Monica": 3696, "\u0120enthusiastically": 3697, "\u0120rubs": 3698, "\u0120progressivism": 3699, "Typical": 3700, "\u0120impurities": 3701, "\u0120aquaponics": 3702, "\u0120Newman": 3703, "\u0120Perception": 3704, "\u0120dat": 3705, "Leather": 3706, "\u0120Crowe": 3707, "\u0120TSS": 3708, "\u0120Risk": 3709, "\u0120Ag": 3710, "\u0120trendy": 3711, "\u0120Rishi": 3712, "\u0120bloodshed": 3713, "\u0120inquire": 3714, "\u0120indent": 3715, "Creativity": 3716, "\u0120saith": 3717, "Racism": 3718, "\u0120glassy": 3719, "\u0120retinal": 3720, "Controlled": 3721, "\u0120Pillow": 3722, "\u0120Hofmannsthal": 3723, "\u0120Brandon": 3724, "\u0120Kauffman": 3725, "\u0120Motif": 3726, "\u0120Failures": 3727, "\u0120Ware": 3728, "\u0120Sparta": 3729, "Gypsy": 3730, "Kuskokwim": 3731, "\u0120fleurs": 3732, "\u0120weeping": 3733, "\u0120fist": 3734, "\u0120Hemlock": 3735, "\u0120unobtrusive": 3736, "\u0120stronger": 3737, "\u0120Netherland": 3738, "\u0120caff": 3739, "\u0120Bamidbar": 3740, "\u0120pictures": 3741, "scientist": 3742, "\u0120Zeitschrift": 3743, "260": 3744, "\u0120ASTM": 3745, "\u0120perianth": 3746, "\u0120spaceflight": 3747, "enactors": 3748, "\u0120piper": 3749, "838": 3750, "extremely": 3751, "\u0120Vulgate": 3752, "\u0120LOT": 3753, "\u0120Legacies": 3754, "\u0120fuel": 3755, "\u0120ESI": 3756, "\u0120benediction": 3757, "\u0120Pratt": 3758, "\u0120uteri": 3759, "\u0120Exact": 3760, "\u0120Cn": 3761, "\u0120domes": 3762, "SING": 3763, "\u0120Fiske": 3764, "\u0120Zam": 3765, "\u0120Colonization": 3766, "\u0120developing": 3767, "CULTURAL": 3768, "\u0120Clearance": 3769, "\u0120Leip": 3770, "\u01201067": 3771, "1109": 3772, "\u0120hou": 3773, "\u0120pacifist": 3774, "\u0120concentrators": 3775, "\u0120Cocoa": 3776, "for": 3777, "\u0120bob": 3778, "frames": 3779, "\u0120NDP": 3780, "\u01201634": 3781, "\u0120scrawled": 3782, "\u0120Hakuin": 3783, "Massage": 3784, "\u0120dual": 3785, "Invisible": 3786, "\u0120WA": 3787, "iatrist": 3788, "\u0120Immunol": 3789, "\u0120Barbie": 3790, "\u0120Numbness": 3791, "\u0120Lenten": 3792, "\u0120pooja": 3793, "\u0120uninhabited": 3794, "\u0120supranational": 3795, "sma": 3796, "\u0120cacophony": 3797, "\u0120launcher": 3798, "\u0120statuses": 3799, "\u0120poleward": 3800, "igg": 3801, "\u0120coworker": 3802, "\u0120treeline": 3803, "\u0120wakefulness": 3804, "Athanasius": 3805, "\u0120ORG": 3806, "\u0120Nebuzaradan": 3807, "\u0120HEU": 3808, "\u0120Radius": 3809, "\u0120stews": 3810, "\u0120groundwater": 3811, "\u0120Astyanax": 3812, "Prospect": 3813, "ENCE": 3814, "\u0120ISPs": 3815, "\u0120MicroBlower": 3816, "\u0120production": 3817, "\u0120Southerner": 3818, "humoured": 3819, "\u01201626": 3820, "\u0120headphones": 3821, "581": 3822, "center": 3823, "\u0120heros": 3824, "\u0120PACE": 3825, "\u0120harbored": 3826, "\u0120fasteners": 3827, "\u0120Breathing": 3828, "Orphan": 3829, "\u0120Aal": 3830, "\u0120Willard": 3831, "\u0120retroflex": 3832, "\u0120dictates": 3833, "HOPE": 3834, "\u0120devastated": 3835, "Negro": 3836, "Nurses": 3837, "\u0120delayed": 3838, "\u0120collate": 3839, "\u0120revolutionaries": 3840, "\u0120summarily": 3841, "Morning": 3842, "\u0120bier": 3843, "\u0120servile": 3844, "\u0120miso": 3845, "\u0120CUNNINGHAM": 3846, "\u0120unfiltered": 3847, "\u0120Lut": 3848, "\u0120nationality": 3849, "\u0120dour": 3850, "\u0120Fatimids": 3851, "Aluminum": 3852, "\u0120tethered": 3853, "Perfect": 3854, "\u0120fragility": 3855, "\u012097": 3856, "\u0120344": 3857, "\u0120linoleum": 3858, "\u0120LI": 3859, "\u0120hefty": 3860, "\u0120gratify": 3861, "sun": 3862, "\u0120Adad": 3863, "\u0120ingested": 3864, "ayn": 3865, "||<": 3866, "\u0120McColl": 3867, "\u0120reprehensible": 3868, "\u0120toll": 3869, "\u0120Guangzhou": 3870, "\u0120Serologic": 3871, "\u0120Bradycardia": 3872, "Functions": 3873, "Nie": 3874, "\u0120prefer": 3875, "\u0120gossamer": 3876, "intra": 3877, "\u0120resistance": 3878, "\u01201949": 3879, "\u0120Patzcuaro": 3880, "\u0120analgesia": 3881, "Stainless": 3882, "immigrants": 3883, "\u0120Sever": 3884, "\u0120Atman": 3885, "\u0120Yanagi": 3886, "\u0120recipients": 3887, "\u0120Geisler": 3888, "\u0120Taliban": 3889, "Improving": 3890, "PONo": 3891, "\u0120ALA": 3892, "Marion": 3893, "poverty": 3894, "\u0120referendum": 3895, "\u0120Jehoiakim": 3896, "\u0120Topeka": 3897, "\u0120Directors": 3898, "Presidents": 3899, "\u0120expounds": 3900, "\u0120button": 3901, "\u0120Cranberry": 3902, "\u0120Hyponatremia": 3903, "\u0120flurries": 3904, "\u0120lined": 3905, "\u0120fifties": 3906, "\u0120handrails": 3907, "Expected": 3908, "\u0120Framingham": 3909, "\u0120thriving": 3910, "\u0120orchard": 3911, "\u0120insurgencies": 3912, "uen": 3913, "\u0120Hamill": 3914, "Foreword": 3915, "\u0120Mansion": 3916, "601": 3917, "\u0120Heinz": 3918, "\u0120Descriptions": 3919, "\u0120Typically": 3920, "Aldo": 3921, "\u0120Rang": 3922, "\u0120naphtha": 3923, "al": 3924, "\u0120traverses": 3925, "\u0120DN": 3926, "\u0120lang": 3927, "\u0120levying": 3928, "\u0120sab": 3929, "\u0120Brusatte": 3930, "\u0120vaporizes": 3931, "\u0120Frontiero": 3932, "\u0120generating": 3933, "\u0120Franchise": 3934, "ess": 3935, "Mourning": 3936, "\u0120parable": 3937, "\u0120interferences": 3938, "\u0120consultative": 3939, "\u0120retrospect": 3940, "Rubber": 3941, "\u0120Affects": 3942, "Neh": 3943, "\u0120puppies": 3944, "\u0120allergenic": 3945, "culo": 3946, "\u0120Chupacabra": 3947, "\u0120shipboard": 3948, "\u0120dehydrated": 3949, "\u0120flossing": 3950, "meadow": 3951, "\u0120Astonishingly": 3952, "ellus": 3953, "\u0120optimisation": 3954, "\u0120diabetics": 3955, "dare": 3956, "\u0120grasps": 3957, "\u0120folklorist": 3958, "Benzodiazepines": 3959, "nw": 3960, "\u0120biloba": 3961, "ultimately": 3962, "Apart": 3963, "\u0120partake": 3964, "Im": 3965, "\u0120Guayaquil": 3966, "\u0120Offenders": 3967, "\u0120precepts": 3968, "navir": 3969, "\u0120Xerxes": 3970, "vehicle": 3971, "tland": 3972, "*|": 3973, "\u0120scans": 3974, "\u0120desolate": 3975, "Competency": 3976, "\u0120Commun": 3977, "viewer": 3978, "Anorexia": 3979, "\u0120customised": 3980, "\u0120Pangaea": 3981, "anem": 3982, "FAN": 3983, "\u0120Generator": 3984, "\u0120Lentil": 3985, "\u0120Bukhara": 3986, "\u01201852": 3987, "\u0120practicum": 3988, "Terms": 3989, "Rethinking": 3990, "\u0120increased": 3991, "wavelength": 3992, "\u00ce\u00b9\u00cf\u0124": 3993, "\u0120Systema": 3994, "\u0120Killed": 3995, "\u0120lanthanum": 3996, "\u0120Steffen": 3997, "\u0120Varied": 3998, "\u0120Wackernagel": 3999, "butyl": 4000, "\u0120micrometer": 4001, "\u0120jackals": 4002, "\u0120Titles": 4003, "dominant": 4004, "\u0120Travel": 4005, "\u0120coralline": 4006, "\u0120Ngo": 4007, "\u0120Musco": 4008, "aboo": 4009, "\u0120Tau": 4010, "\u0120Rhyming": 4011, "\u0120Anglicans": 4012, "Shab": 4013, "\u0120fibril": 4014, "\u0120Artibonite": 4015, "fourteen": 4016, "\u0120steps": 4017, "\u0120Oth": 4018, "303": 4019, "\u0120Navajo": 4020, "\u0120vaults": 4021, "\u0120Maloney": 4022, "\u0120KOUDDOUS": 4023, "\u0120coyotes": 4024, "\u0120albinism": 4025, "\u0120microstructures": 4026, "\u0120osteoblasts": 4027, "\u0120rewritten": 4028, "\u0120dragon": 4029, "lati": 4030, "\u0120kay\u00c4\u00b1tlar\u00c4\u00b1n\u00c4\u00b1n": 4031, "phasic": 4032, "\u0120winnow": 4033, "Elephas": 4034, "\u0120counselled": 4035, "\u0120Vittoria": 4036, "\u0120pedagogic": 4037, "PLO": 4038, "\u0120disse": 4039, "\u0120exposure": 4040, "\u0120platonic": 4041, "leeds": 4042, "\u01201304": 4043, "\u0120polishing": 4044, "\u0120Price": 4045, "Processing": 4046, "\u0120Nikita": 4047, "grav": 4048, "\u0120Inhabited": 4049, "\u0120against": 4050, "\u0120Nutrients": 4051, "Clifford": 4052, "\u0120bin\u00e1\u00b8\u012fu": 4053, "\u0120Nichiren": 4054, "\u0120scab": 4055, "\u0120BJP": 4056, "\u0120urinalysis": 4057, "\u0120millimetre": 4058, "\u0120business": 4059, "EMI": 4060, "gp": 4061, "mine": 4062, "syl": 4063, "Counsel": 4064, "Par": 4065, "Greco": 4066, "\u0120Diagnostic": 4067, "\u0120zoological": 4068, "\u0120admit": 4069, "\u0120ended": 4070, "reports": 4071, "Peterson": 4072, "\u0120mighty": 4073, "rising": 4074, "\u0120Winkies": 4075, "\u0120congealed": 4076, "Pt": 4077, "garth": 4078, "\u0120foreshore": 4079, "Heavy": 4080, "ethylhexyl": 4081, "Canadian": 4082, "\u0120fewest": 4083, "\u0120Executives": 4084, "\u0120makerspace": 4085, "\u0120Juthungi": 4086, "\u0120Norden": 4087, "\u0120invalidates": 4088, "\u0120Configuration": 4089, "\u0120M\u00c3\u00a9chain": 4090, "\u00c3\u00a9ron": 4091, "\u0120RAF": 4092, "\u0120low": 4093, "purely": 4094, "\u0120Buckeye": 4095, "\u0120portent": 4096, "\u0120Locomotive": 4097, "\u0120purview": 4098, "\u0120invades": 4099, "Macedonian": 4100, "\u0120Max": 4101, "\u0120equanimity": 4102, "\u0120apprenticeships": 4103, "\u0120spiral": 4104, "\u0120Conger": 4105, "\u0120Played": 4106, "Script": 4107, "\u0120Tobias": 4108, "\u0120Based": 4109, "\u0120Itchy": 4110, "green": 4111, "->": 4112, "\u0120Heimaey": 4113, "Beware": 4114, "\u0120moaning": 4115, "Goldilocks": 4116, "\u0120kou": 4117, "\u0120Illyricum": 4118, "\u0120neuropeptides": 4119, "\u0120844": 4120, "Particles": 4121, "MPEG": 4122, "\u0120CHAMPION": 4123, "\u0120comedian": 4124, "\u0120reformation": 4125, "\u0120dependence": 4126, "\u0120Volcanology": 4127, "\u01201429": 4128, "rying": 4129, "\u0120slash": 4130, "tshaonline": 4131, "\u0120crenel": 4132, "Municipal": 4133, "\u0120Enraged": 4134, "\u0120dens": 4135, "\u0120disappearance": 4136, "aerial": 4137, "gri": 4138, "shad": 4139, "\u0120numerical": 4140, "\u0120Rizvi": 4141, "clinic": 4142, "\u0120Hashomer": 4143, "roi": 4144, "Beans": 4145, "\u0120Uncover": 4146, "\u0120handlooms": 4147, "\u0120Tort": 4148, "1078": 4149, "Rand": 4150, "\u0120ataxia": 4151, "\u0120gustatory": 4152, "\u0120Nagarjuna": 4153, "\u0120diversions": 4154, "\u0120basketball": 4155, "Certificate": 4156, "\u0120objectivity": 4157, "\u0120debilitated": 4158, "022": 4159, "\u01201739": 4160, "\u0120engrossed": 4161, "wintering": 4162, "8146": 4163, "cias": 4164, "\u0120Friday": 4165, "\u0120Privately": 4166, "\u0120Tripitaka": 4167, "worming": 4168, "Kro": 4169, "Featured": 4170, "\u0120Yoshino": 4171, "\u0120rectenna": 4172, "UL": 4173, "Valliamma": 4174, "\u0120Marvel": 4175, "Cola": 4176, "\u0120fluidized": 4177, "\u0120seagoing": 4178, "\u0120Tamilnadu": 4179, "\u0120Sint": 4180, "\u0120oblong": 4181, "\u0120+": 4182, "\u0120pleasures": 4183, "\u0120fabrications": 4184, "\u0120shepherds": 4185, "\u0120disparage": 4186, "Ave": 4187, "\u0120pri": 4188, "\u0120scrabble": 4189, "crunching": 4190, "tained": 4191, "\u0120Turtles": 4192, "\u0120Exegesis": 4193, "\u0120landward": 4194, "\u0120underarm": 4195, "\u0120allergens": 4196, "\u0120husk": 4197, "\u0120pups": 4198, "perceptions": 4199, "\u0120hoofed": 4200, "\u0120arvensis": 4201, "\u0120handcuffs": 4202, "\u0120Accredited": 4203, "Recognizing": 4204, "form": 4205, "\u0120synovitis": 4206, "\u0120clubbed": 4207, "Anthrax": 4208, "\u0120Resting": 4209, "\u0120refuting": 4210, "\u0120inland": 4211, "\u0120Riefenstahl": 4212, "feel": 4213, "\u0120Ugandans": 4214, "\u0120cli": 4215, "\u0120Independencia": 4216, "\u0120attackers": 4217, "Noted": 4218, "\u0120Cretaceous": 4219, "\u0120Amsterdam": 4220, "\u0120hampers": 4221, "\u0120Lavater": 4222, "IRR": 4223, "\u0120Relations": 4224, "\u0120Roscoe": 4225, "\u0120Cec": 4226, "becomes": 4227, "dee": 4228, "!!!": 4229, "\u0120CER": 4230, "Dubuque": 4231, "597": 4232, "deb": 4233, "\u0120Vish\u00e1\u00b9\u0129u": 4234, "maple": 4235, "\u0120NAME": 4236, "\u0120FINANCIAL": 4237, "\u0120Antigonus": 4238, "\u0120endorsements": 4239, "\u0120geochemical": 4240, "Antonyms": 4241, "Reform": 4242, "\u0120Widely": 4243, "posing": 4244, "\u0120stad": 4245, "\u0120tossing": 4246, "\u0120teenaged": 4247, "\u0120almost": 4248, "\u0120Prz": 4249, "\u0120idealism": 4250, "SHE": 4251, "\u0120Macon": 4252, "\u0120Biomass": 4253, "\u0120restitution": 4254, "assumptions": 4255, "\u0120broncho": 4256, "chr": 4257, "\u0120composted": 4258, "Email": 4259, "\u0120Gutten": 4260, "\u0120147": 4261, "\u0120casino": 4262, "\u0120overseeing": 4263, "\u0120polypropylene": 4264, "Sep": 4265, "Paying": 4266, "\u0120repeatability": 4267, "evaluated": 4268, "\u0120\u00e1\u00b8\u012fharma": 4269, "\u0120electroencephalog": 4270, "1521": 4271, "cient": 4272, "\u0120obliquity": 4273, "\u0120rust": 4274, "\u0120Falling": 4275, "inator": 4276, "\u0120circus": 4277, "\u0120hypotensive": 4278, "\u0120DEVELOP": 4279, "\u0120Anghiari": 4280, "Nigerian": 4281, "Johns": 4282, "\u0120\u00d1\u0123\u00d0\u00bb": 4283, "\u01201519": 4284, "kur": 4285, "\u0120bul": 4286, "\u0120PSF": 4287, "\u0120atrocious": 4288, "Amber": 4289, "\u0120barbiturate": 4290, "\u0120Jul": 4291, "\u0120umask": 4292, "christ": 4293, "\u0120gauging": 4294, "\u0120Verdean": 4295, "\u0120NIJ": 4296, "Responding": 4297, "\u0120Rhinoceros": 4298, "\u0120Storms": 4299, "\u0120marga": 4300, "\u0120HERE": 4301, "invest": 4302, "Meter": 4303, "\u0120enhancer": 4304, "\"\u00e2\u0122\u0136": 4305, "\u0120DREAM": 4306, "\u0120Sitka": 4307, "\u0120Salton": 4308, "Gas": 4309, "Corona": 4310, "Anatomical": 4311, "Mai": 4312, "\u0120decimate": 4313, "CoV": 4314, "serial": 4315, "temp": 4316, "rya": 4317, "adjust": 4318, "\u0120Sodom": 4319, "\u0120sitters": 4320, "\u0120feeder": 4321, "geography": 4322, "\u0120Lesbians": 4323, "\u01201030": 4324, "industry": 4325, "\u0120Coeur": 4326, "\u0120oxytetracycline": 4327, "\u0120quinoa": 4328, "\u0120reheating": 4329, "\u0120maker": 4330, "\u0120(\u00e2\u0124": 4331, "\u0120extrusive": 4332, "\u0120personification": 4333, "worldstart": 4334, "instruct": 4335, "\u0120CBD": 4336, "\u0120bridle": 4337, "winter": 4338, "timate": 4339, "\u0120phytic": 4340, "\u0120ear": 4341, "\u0120ahl": 4342, "\u0120Brahman": 4343, "\u0120Flavius": 4344, "288": 4345, "\u0120premium": 4346, "Obviously": 4347, "\u0120southwest": 4348, "\u0120Pr\u00c3\u0143ncipe": 4349, "nots": 4350, "\u0120constellation": 4351, "indications": 4352, "ety": 4353, "\u0120defray": 4354, "\u0120propagation": 4355, "\u0120chunks": 4356, "\u0120\u00ef\u00b7\u00ba": 4357, "Images": 4358, "\u0120TEGA": 4359, "\u0120sett": 4360, "\u0120observe": 4361, "Cass": 4362, "Rus": 4363, "PRE": 4364, "\u0120bamboos": 4365, "\u0120Gilroy": 4366, "\u0120computable": 4367, "urethral": 4368, "\u0120Dominicans": 4369, "\u0120aspiring": 4370, "\u0120Brightman": 4371, "\u0120turn": 4372, "tter": 4373, "Declaration": 4374, "hua": 4375, "anxious": 4376, "\u0120disabused": 4377, "\u0120pseudoscientific": 4378, "\u0120safaris": 4379, "\u0120Kenn": 4380, "\u0120inspecting": 4381, "\u0120obligation": 4382, "Appe": 4383, "\u0120Mit": 4384, "Extent": 4385, "Documents": 4386, "\u0120saros": 4387, "\u0120Re": 4388, "\u0120vitro": 4389, "\u0120petitioned": 4390, "\u0120eta": 4391, "INDEPENDENT": 4392, "\u0120wrists": 4393, "\u0120Euterpe": 4394, "\u0120puja": 4395, "Varicella": 4396, "\u0120Maryland": 4397, "\u0120DSLRs": 4398, "\u0120inkjet": 4399, "\u0120Idrimi": 4400, "Preschool": 4401, "\u0120Malta": 4402, "bek": 4403, "\u0120Score": 4404, "WHA": 4405, "\u0120Globally": 4406, "\u0120decreases": 4407, "AGES": 4408, "\u0120Seagate": 4409, "\u0120Sotomayor": 4410, "\u0120sons": 4411, "\u0120Pyrenean": 4412, "\u0120Hermutrude": 4413, "\u0120NTEGRA": 4414, "\u0120aloft": 4415, "\u0120Noakhali": 4416, "\u0120radically": 4417, "))))": 4418, "\u0120NAP": 4419, "FSA": 4420, "\u0120stateless": 4421, "Qasim": 4422, "apparently": 4423, "\u0120cathedrals": 4424, "\u0120hostages": 4425, "\u0120Veer": 4426, "\u0120badges": 4427, "\u0120Faunal": 4428, "kon": 4429, "mentioned": 4430, "055": 4431, "\u0120Alive": 4432, "\u0120Council": 4433, "\u0120431": 4434, "Bis": 4435, "\u0120circulatory": 4436, "fathers": 4437, "\u0120swab": 4438, "\u0120instigate": 4439, "\u0120Mechanics": 4440, "\u0120callings": 4441, "\u0120culture": 4442, "\u0120Kad": 4443, "\u0120Kindergarten": 4444, "\u0120ladies": 4445, "\u0120Ride": 4446, "\u0120withdrawals": 4447, "\u0120proximate": 4448, "\u0120Parakramabahu": 4449, "partially": 4450, "\u0120nebular": 4451, "worst": 4452, "Coupled": 4453, "polluted": 4454, "\u0120Kalu": 4455, "\u0120Dwight": 4456, "\u0120Chaco": 4457, "\u0120tritiated": 4458, "\u0120bono": 4459, "George": 4460, "auxiliary": 4461, "HAZ": 4462, "\u0120Abbe": 4463, "SAL": 4464, "\u0120greetings": 4465, "\u0120lock": 4466, "polio": 4467, "139": 4468, "\u0120Sorbonne": 4469, "\u0120Pui": 4470, "\u0120Crouzon": 4471, "\u0120NTC": 4472, "ved": 4473, "\u0120pitfall": 4474, "\u0120Urushiol": 4475, "\u0120Boomer": 4476, "\u0120histori": 4477, "\u0120imprison": 4478, "meg": 4479, "\u0120Cochabamba": 4480, "ctor": 4481, "horr": 4482, "japanese": 4483, "Rapid": 4484, "\u0120Subcontinent": 4485, "\u0120wettest": 4486, "\u0120Walters": 4487, "profound": 4488, "\u0120Russ": 4489, "bik": 4490, "tooth": 4491, "\u0120Realms": 4492, "\u0120Feu": 4493, "\u0120clearly": 4494, "concept": 4495, "sa": 4496, "wil": 4497, "Diocesan": 4498, "\u0120Novella": 4499, "\u0120RoActivateInstance": 4500, "1391": 4501, "\u0120Coarse": 4502, "\u0120Magistrate": 4503, "\u0120Programming": 4504, "\u0120Wallamet": 4505, "Opened": 4506, "congenital": 4507, "\u0120kabaka": 4508, "662": 4509, "\u0120Chen": 4510, "\u0120disparate": 4511, "Nerica": 4512, "\u0120pygeum": 4513, "\u0120parted": 4514, "\u0120\u00e8\u013e\u013e\u00e8\u013e\u0124Chinese": 4515, "\u0120auditory": 4516, "\u0120minister": 4517, "\u0120Ubuntu": 4518, "\u0120robbers": 4519, "\u0120COURT": 4520, "McDonough": 4521, "\u0120Authentic": 4522, "master": 4523, "\u0120cr\u00c3\u00a8me": 4524, "\u0120Lippmann": 4525, "Duke": 4526, "\u0120Diversion": 4527, "\u0120humphead": 4528, "\u0120rhamnosus": 4529, "gby": 4530, "\u0120moto": 4531, "\u0120Topping": 4532, "\u0120Midas": 4533, "\u0120plummet": 4534, "\u0120Wiktionary": 4535, "\u0120catapults": 4536, "scattered": 4537, "stasis": 4538, "\u0120strangeness": 4539, "\u0120footbridge": 4540, "\u0120incremental": 4541, "\u0120fluids": 4542, "\u0120SOLAR": 4543, "\u0120liberated": 4544, "\u0120caloric": 4545, "Unusual": 4546, "\u0120Nguyen": 4547, "\u0120tou": 4548, "\u0120Been": 4549, "Comparison": 4550, "lting": 4551, "\u0120voltmeter": 4552, "\u0120sacramental": 4553, "nursing": 4554, "\u0120960": 4555, "ported": 4556, "\u00e0\u00b8\u0123\u00e0\u00b8": 4557, "\u0120Hardness": 4558, "imperfect": 4559, "\u0120Loiselle": 4560, "\u0120captive": 4561, "\u00c6\u00b0\u00e1\u00bb\u013dc": 4562, "orbit": 4563, "\u0120Actin": 4564, "movement": 4565, "\u0120morphine": 4566, "\u0120postsynaptic": 4567, "\u0120patriarch": 4568, "spelling": 4569, "\u0120Prevention": 4570, "\u0120fertilised": 4571, "\u0120Publishing": 4572, "\u0120Ryzak": 4573, "\u0120inhales": 4574, "Allowing": 4575, "ihan": 4576, "thirds": 4577, "\u0120sovereign": 4578, "\u01202030": 4579, "\u0120Coventry": 4580, "\u0120Got": 4581, "\u0120Main": 4582, "\u0120retrieve": 4583, "\u0120Marxists": 4584, "\u0120Skilled": 4585, "\u0120Cambodians": 4586, "\u0120Soro": 4587, "\u0120accruing": 4588, "\u0120Elmo": 4589, "\u0120Detrick": 4590, "\u0120combs": 4591, "\u0120Prost": 4592, "\u0120Acadians": 4593, "\u0120Electrolyte": 4594, "\u0120precipitates": 4595, "Recommend": 4596, "\u0120Horticultural": 4597, "\u0120guesswork": 4598, "\u0120Ctesiphon": 4599, "community": 4600, "went": 4601, "ebe": 4602, "\u0120992": 4603, "\u0120programmatically": 4604, "humans": 4605, "lots": 4606, "Highlights": 4607, "\u0120extracted": 4608, "\u0120outflank": 4609, "\u0120accumulated": 4610, "\u0120Powerful": 4611, "\u0120qw": 4612, "1519": 4613, "anite": 4614, "\u0120tunneling": 4615, "\u0120Sen": 4616, "\u0120lithology": 4617, "EEA": 4618, "\u0120Border": 4619, "\u0120Streetcar": 4620, "\u0120projectiles": 4621, "\u0120XSLT": 4622, "\u0120hydr": 4623, "Tail": 4624, "\u0120\"\u00e2\u0122\u00a6": 4625, "\u0120sativa": 4626, "\u0120colostomies": 4627, "\u0120join": 4628, "towards": 4629, "\u0120sameness": 4630, "\u0120Kaibab": 4631, "\u0120Performances": 4632, "\u0120gaining": 4633, "ovski": 4634, "\u0120Cala": 4635, "\u0120Table": 4636, "\u0120Feudal": 4637, "\u0120Armory": 4638, "rwxr": 4639, "ce": 4640, "incomplete": 4641, "mesis": 4642, "zah": 4643, "\u0120automobiles": 4644, "\u0120analogies": 4645, "\u0120solve": 4646, "Procedural": 4647, "\u0120warlords": 4648, "\u0120Punch": 4649, "\u0120Hijrah": 4650, "inventing": 4651, "\u0120Brittany": 4652, "\u0120Jersey": 4653, "_(": 4654, "\u0120smoothies": 4655, "1923": 4656, "\u0120KQED": 4657, "\u0120Possidius": 4658, "Eysenck": 4659, "\u0120metaphysically": 4660, "\u0120Malm": 4661, "oqui": 4662, "Concentrate": 4663, "\u0120Ju\u00c3\u00a1rez": 4664, "\u0120Carduus": 4665, "rl": 4666, "defun": 4667, "ws": 4668, "\u0120Turnip": 4669, "\u0120Breakthroughs": 4670, "\u0120iris": 4671, "Conducted": 4672, "\u0120interstitial": 4673, "\u0120AGE": 4674, "\u0120Lazaro": 4675, "\u0120diam": 4676, "\u0120physicians": 4677, "\u0120synoptic": 4678, "Hartnoll": 4679, "\u0120omnipotent": 4680, "\u0120MON": 4681, "\u0120insurer": 4682, "\u0120notaries": 4683, "\u0120lad": 4684, "\u00c5\u0141": 4685, "gium": 4686, "\u0120breastfeeding": 4687, "\u0120bluetooth": 4688, "\u0120ANCL": 4689, "\u0120inhibiting": 4690, "806": 4691, "\u0120yeshivot": 4692, "\u0120cheap": 4693, "Saunders": 4694, "\u0120torrential": 4695, "\u0120detoxifying": 4696, "fag": 4697, "\u0120Metadata": 4698, "\u0120Svensmark": 4699, "\u012058": 4700, "liv": 4701, "\u0120knots": 4702, "\u0120voiding": 4703, "habit": 4704, "\u0120Isambard": 4705, "\u0120sternocleidomastoid": 4706, "\u0120entranced": 4707, "\u0120shaker": 4708, "\u0120emirate": 4709, "\u0120Kilnamartery": 4710, "/).": 4711, "\u0120assurance": 4712, "\u0120demur": 4713, "Millennium": 4714, "\u0120cystoscope": 4715, "\u0120Proton": 4716, "\u0120Connemara": 4717, "\u0120phallic": 4718, "gnis": 4719, "\u0120Bryant": 4720, "\u0120Osceola": 4721, "\u0120McKibben": 4722, "\u0120epidermidis": 4723, "follow": 4724, "\u0120pictorialist": 4725, "\u0120Heth": 4726, "||-||": 4727, "Robson": 4728, "\u0120XXIII": 4729, "\u0120Keynote": 4730, "\u0120SCIENTIST": 4731, "\u0120Cere": 4732, "\u0120Shafi": 4733, "\u0120Lancashire": 4734, "Leader": 4735, "\u0120Sik": 4736, "\u00e0\u00bd": 4737, "Advancing": 4738, "national": 4739, "\u0120LIDAR": 4740, "\u0120Runoff": 4741, "\u0120randomization": 4742, "\u0120AD": 4743, "\u0120Sande": 4744, "\u0120series": 4745, "crack": 4746, "\u0120Rhoads": 4747, "\u0120Autonomous": 4748, "\u0120Congressional": 4749, "\u0120godly": 4750, "\u0120Stocks": 4751, "Sensitive": 4752, "\u0120Karakorum": 4753, "\u0120clan": 4754, "\u0120HI": 4755, "gingival": 4756, "sang": 4757, "\u0120fn": 4758, "\u0120scu": 4759, "chanan": 4760, "smoke": 4761, "\u0120Cl\u00c3\u00a9ment": 4762, "USH": 4763, "\u0120L\u00c3\u00a9": 4764, "\u0120waka": 4765, "\u0120Couldn": 4766, "\u0120indecisive": 4767, "\u0120agronomy": 4768, "\u0120GR": 4769, "Lawrence": 4770, "\u0120Fon": 4771, "\u0120parting": 4772, "Difficulty": 4773, "\u0120familia": 4774, "\u0120technicality": 4775, "\u0120PKD": 4776, "Oceanic": 4777, "listed": 4778, "\u0120chancery": 4779, "\u0120Kro": 4780, "\u0120Terry": 4781, "\u0120Centro": 4782, "ianus": 4783, "\u0120SEN": 4784, "-....,": 4785, "\u0120snuff": 4786, "\u0120Trillion": 4787, "1922": 4788, "STEM": 4789, "\u0120orthoepy": 4790, "\u0120dumped": 4791, "\u0120NHC": 4792, "enza": 4793, "\u0120Kshe\u00e1\u00b9\u0143raj\u00c3\u00b1a": 4794, "\u0120950": 4795, "\u0120exhorts": 4796, "monitor": 4797, "\u0120Workbench": 4798, "\u0120\u00d0\u00b2": 4799, "\u0120coders": 4800, "\u0120stressed": 4801, "proving": 4802, "\u0120Plates": 4803, "\u0120scotch": 4804, "\u0120Literally": 4805, "\u0120lipo": 4806, "\u0120Bushnell": 4807, "\u0120Falun": 4808, "\u0120claimants": 4809, "\u0120legislature": 4810, "\u0120domini": 4811, "\u0120horizons": 4812, "\u0120Ioann": 4813, "dys": 4814, "\u0120-------": 4815, "\u0120dumbbell": 4816, "\u0120Bark": 4817, "Davies": 4818, "Submitted": 4819, "\u0120generate": 4820, "\u0120irrigating": 4821, "meat": 4822, "tists": 4823, "\u0120rich": 4824, "\u0120Tallinn": 4825, "\u0120flawed": 4826, "\u0120veined": 4827, "\u0120sleeved": 4828, "obacillus": 4829, "ton": 4830, "\u0120Sabbath": 4831, "\u0120Cosby": 4832, "\u0120blanketing": 4833, "\u0120wars": 4834, "\u0120Guada": 4835, "\u0120mandates": 4836, "\u0120XY": 4837, "\u0120blisters": 4838, "Wilkins": 4839, "\u0120neuromas": 4840, "/>": 4841, "\u0120Mose": 4842, "\u0120rightful": 4843, "\u0120Party": 4844, "\u0120Rummynose": 4845, "\u0120Rabbah": 4846, "\u0120boulevard": 4847, "Inevitably": 4848, "\u0120Frac": 4849, "\u0120incompressible": 4850, "\u0120DEF": 4851, "\u0120Apartment": 4852, "\u0120Entrepreneurship": 4853, "ylo": 4854, "xus": 4855, "\u0120JU": 4856, "\u0120Liman": 4857, "\u0120withdrawal": 4858, "clap": 4859, "Drawing": 4860, "\u0120postharvest": 4861, "rents": 4862, "\u0120meg": 4863, "\u0120Kendall": 4864, "\u0120Consecrated": 4865, "\u0120Banquo": 4866, "\u0120Wapakoneta": 4867, "\u0120bone": 4868, "\u0120lineup": 4869, "\u0120steer": 4870, "python": 4871, "\u0120pyramids": 4872, "\u0120granulosa": 4873, "SIP": 4874, "\u0120Norte": 4875, "NLP": 4876, "\u0120myself": 4877, "hands": 4878, "\u0120counted": 4879, "join": 4880, "XLS": 4881, "Cunningham": 4882, "PPC": 4883, "\u0120Somme": 4884, "agricultural": 4885, "\u0120Rainier": 4886, "\u0120modifications": 4887, "\u0120Zephyr": 4888, "vivid": 4889, "\u0120flaunt": 4890, "income": 4891, "\u0120Dyer": 4892, "dos": 4893, "\u0120Superfund": 4894, "curriculum": 4895, "Calc": 4896, "\u0120precariously": 4897, "\u0120Amid": 4898, "\u0120driving": 4899, "\u0120bent": 4900, "\u0120Liberia": 4901, "vy": 4902, "\u0120public": 4903, "Palliative": 4904, "\u0120delighting": 4905, "\u0120incorporation": 4906, "\u0120Vorsehungsglaube": 4907, "\u0120decongestant": 4908, "lson": 4909, "tiya": 4910, "\u0120courses": 4911, "Anyone": 4912, "mint": 4913, "\u0120nasopharyngeal": 4914, "\u0120Flushing": 4915, "\u0120dotting": 4916, "\u0120MY": 4917, "\u0120Saragossa": 4918, "\u0120intricately": 4919, "\u0120pandas": 4920, "\u0120Barter": 4921, "\u0120spike": 4922, "\u0120Covert": 4923, "\u0120Mitscher": 4924, "chlorothiazide": 4925, "\u0120CMAJ": 4926, "\u0120ambivalence": 4927, "\u0120Exports": 4928, "\u0120Chinese": 4929, "Leu": 4930, "\u0120redirect": 4931, "\u0120involvement": 4932, "rays": 4933, "taw": 4934, "\u0120Mick": 4935, "variables": 4936, "\u0120Versus": 4937, "PART": 4938, "\u0120Arbib": 4939, "arty": 4940, "\u0120CONGRESS": 4941, "\u0120stylish": 4942, "\u0120Waterborne": 4943, "\u0120Bacopa": 4944, "\u0120Moccasin": 4945, "\u0120gunmen": 4946, "\u0120spurred": 4947, "\u0120unsanitary": 4948, "Pee": 4949, "cytoplasmic": 4950, "\u0120defin": 4951, "\u0120hagfish": 4952, "\u0120CME": 4953, "\u0120Fender": 4954, "\u00d0\u0142": 4955, "\u0120cliff": 4956, "Mises": 4957, "explanation": 4958, "\u0120Zagros": 4959, "\u0120steamers": 4960, "\u0120Choy": 4961, "\u0120credit": 4962, "\u0120shunt": 4963, "\u0120Gon": 4964, "\u0120Kazi": 4965, "\u0120worthy": 4966, "\u0120mountaintops": 4967, "\u0120hummocky": 4968, "\u0120exaggerate": 4969, "TEST": 4970, "deliver": 4971, "\u0120emerald": 4972, "\u0120biodiesel": 4973, "\u0120HashMap": 4974, "\u0120accomplice": 4975, "\u0120msl": 4976, "\u0120irrevocable": 4977, "Benedetto": 4978, "\u0120Buri": 4979, "\u0120puddles": 4980, "\u0120schemata": 4981, "\u0120spectrum": 4982, "\u0120endured": 4983, "\u0120Abidjan": 4984, "eng": 4985, "\u0120Cyg": 4986, "\u0120yachts": 4987, "erra": 4988, "\u0120Indraprastha": 4989, "\u0120collusion": 4990, "\u0120Olusegun": 4991, "\u0120Coe": 4992, "LEN": 4993, "ASD": 4994, "\u0120RedHat": 4995, "\u01201386": 4996, "1972": 4997, "\u0120Kiwi": 4998, "gamous": 4999, "\u0120Adeodatus": 5000, "cama": 5001, "TABLE": 5002, "mohan": 5003, "\u0120Writers": 5004, "\u0120redesigned": 5005, "\u0120Markdown": 5006, "Oktoberfest": 5007, "\u0120Almond": 5008, "\u0120WordNet": 5009, "\u0120natively": 5010, "\u0120remediate": 5011, "\u0120ingot": 5012, "\u0120Leopard": 5013, "\u0120Nutritional": 5014, "\u0120evolutionists": 5015, "Sloan": 5016, "IST": 5017, "\u0120basements": 5018, "\u0120deterring": 5019, "\u0120disturbingly": 5020, "\u0120Arbogast": 5021, "\u0120pilosebaceous": 5022, "\u0120suspensory": 5023, "\u0120Skaggs": 5024, "\u0120Basin": 5025, "\u0120mains": 5026, "Canal": 5027, "\u0120Biopsy": 5028, "\u0120Birnbaum": 5029, "contrived": 5030, "ilia": 5031, "Gloria": 5032, "\u0120arte": 5033, "\u0120Sumer": 5034, "\"'": 5035, "Rogers": 5036, "\u0120Garrard": 5037, "\u0120SpaceDaily": 5038, "\u0120eccentric": 5039, "\u0120often": 5040, "\u0120filmed": 5041, "\u0120alto": 5042, "\u0120necklace": 5043, "astin": 5044, "\u0120downsides": 5045, "\u0120WCC": 5046, "rato": 5047, "\u0120shoreline": 5048, "ugi": 5049, "\u0120Pearson": 5050, "\u0120Erythr": 5051, "esus": 5052, "\u0120orderly": 5053, "Prescription": 5054, "\u0120surmised": 5055, "\u0120Lynxville": 5056, "\u0120workaround": 5057, "\u0120intro": 5058, "\u0120wattage": 5059, "\u0120proanthocyanidins": 5060, "\u0120Among": 5061, "\u0120incubator": 5062, "\u0120pews": 5063, "\u0120wherein": 5064, "\u0120backbone": 5065, "releases": 5066, "\u0120ladybugs": 5067, "Cra": 5068, "\u012016": 5069, "\u0120Whitworth": 5070, "\u0120tenon": 5071, "future": 5072, "Thomson": 5073, "\u0120protozoa": 5074, "HUD": 5075, "\u0120Lafayette": 5076, "\u0120STRAIGHT": 5077, "\u0120currants": 5078, "glossary": 5079, "\u012f": 5080, "\u0120Mandala": 5081, "\u0120implying": 5082, "801": 5083, "Rules": 5084, "\u0120Engineered": 5085, "DOMA": 5086, "\u0120boar": 5087, "1920": 5088, "\u0120Algiers": 5089, "\u0120singing": 5090, "\u0120CITY": 5091, "\u0120Gauguin": 5092, "Handle": 5093, "undesirable": 5094, "\u0120constr": 5095, "\u0120manifesting": 5096, "\u0120Surname": 5097, "\u0120admitting": 5098, "pora": 5099, "\u0120Geodetic": 5100, "\u0120Magazine": 5101, "\u0120Grassi": 5102, "\u0120tadalafil": 5103, "\u0120McKitrick": 5104, "Amoxicillin": 5105, "\u0120\u00c3\u012bditions": 5106, "HEL": 5107, "\u0120undeserved": 5108, "\u0120Early": 5109, "\u0120Nations": 5110, "\u0120Canup": 5111, "Southeast": 5112, "Citt\u00c4\u0127": 5113, "illaries": 5114, "Khwarezm": 5115, "EF": 5116, "\u0120botanists": 5117, "\u0120enigmatic": 5118, "\u0120creature": 5119, "\u0120Decepticon": 5120, "Slovakia": 5121, "\u0120retard": 5122, "RATION": 5123, "\u0120Kabardino": 5124, "\u0120skyrocketing": 5125, "\u0120EBCDIC": 5126, "\u0120winglets": 5127, "628": 5128, "\u0120undeterred": 5129, "\u0120carnage": 5130, "\u0120strove": 5131, "Moist": 5132, "\u0120misdiagnosis": 5133, "\u0120organismal": 5134, "\u0120Poinsettia": 5135, "\u0120balustrades": 5136, "\u0120vestibulo": 5137, "\u0120traditionalists": 5138, "Attendance": 5139, "\u0120candles": 5140, "\u0120synthesised": 5141, "\u0120Swallow": 5142, "\u0120flakes": 5143, "\u0120prawns": 5144, "\u0120Nino": 5145, "180": 5146, "\u0120Rapids": 5147, "\u0120deterrent": 5148, "restoring": 5149, "\u0120impute": 5150, "cene": 5151, "\u0120primigenius": 5152, "\u0120optimism": 5153, "\u0120Coronal": 5154, "\u0120Generators": 5155, "\u0120tachy": 5156, "erum": 5157, "\u0120polycrystalline": 5158, "\u0120fumes": 5159, "\u0120Poisoning": 5160, "\u0120flock": 5161, "\u0120Sean": 5162, "\u0120Acetyl": 5163, "\u0120Posture": 5164, "\u0120Pav": 5165, "\u0120TRIPATHY": 5166, "\u0120Diesel": 5167, "Prolonged": 5168, "\u0120myocardial": 5169, "\u0120muskmelons": 5170, "intense": 5171, "\u0120Kielian": 5172, "\u0120modellers": 5173, "\u0120Masai": 5174, "\u0120Mara": 5175, "\u0120Neitzel": 5176, "Treatments": 5177, "\u0120factorial": 5178, "\u0120Pneumococcal": 5179, "\u0120WCRP": 5180, "\u0120Buhl": 5181, "\u0120Catechism": 5182, "\u0120St\u00c3\u00a1tes": 5183, "\u0120Departments": 5184, "\u0120datum": 5185, "mock": 5186, "\u0120Trait": 5187, "\u0120acellular": 5188, "Travelers": 5189, "\u0120Custis": 5190, "\u0120ambit": 5191, "ecosystems": 5192, "\u0120oversaw": 5193, "\u0120cusp": 5194, "itive": 5195, "\u0120difficulty": 5196, "\u0120deci": 5197, "amon": 5198, "TOUCH": 5199, "Olsen": 5200, "\u0120Lumpur": 5201, "detected": 5202, "Reptiles": 5203, "Sk": 5204, "\u0120Ruf": 5205, "DNR": 5206, "Jin": 5207, "\u0120Mauritius": 5208, "\u0120prosecutions": 5209, "\u0120Plat": 5210, "\u0120Desk": 5211, "\u0120jasmine": 5212, "\u0120keyboards": 5213, "\u0120\u00d9\u00be": 5214, "\u0120Restored": 5215, "French": 5216, "\u0120crocodiles": 5217, "Other": 5218, "\u0120ammonia": 5219, "acting": 5220, "\u0120reviewed": 5221, "\u0120institutes": 5222, "LED": 5223, "\u0120sincere": 5224, "\u0120Nunatsiavut": 5225, "\u0120learning": 5226, "\u0120Speeds": 5227, "\u0120creations": 5228, "\u0120gubernatorial": 5229, "loe": 5230, "\u0120\u00d7\u00a1": 5231, "ieve": 5232, "\u0120Wha": 5233, "\u0120Virus": 5234, "\u0120bind": 5235, "\u0120Jeremias": 5236, "\u0120clause": 5237, "\u0120imperfecta": 5238, "\u0120Hadassah": 5239, "\u0120Zimmermann": 5240, "\u0120massless": 5241, "\u0120Etruscan": 5242, "eley": 5243, "\u0120velocity": 5244, "\u0120overtaken": 5245, "Cock": 5246, "\u0120Tokai": 5247, "Lev": 5248, "\u0120Raiffeisen": 5249, "\u0120Quincy": 5250, "\u0120BACK": 5251, "\u0120Hitachi": 5252, "\u0120spousal": 5253, "\u0120stampede": 5254, "\u0120Alt": 5255, "\u0120sedum": 5256, "\u0120Westlaw": 5257, "\u0120African": 5258, "i\u00c3\u00a9": 5259, "097": 5260, "\u0120assert": 5261, "\u0120Cirrhosis": 5262, "\u0120Limitation": 5263, "toun": 5264, "\u0120wherewith": 5265, "cookiejar": 5266, "\u0120incommunicado": 5267, "omycin": 5268, "\u0120CARD": 5269, "\u0120Rishis": 5270, "\u0120Eco": 5271, "Homework": 5272, "\u0120Borschberg": 5273, "\u0120Boerne": 5274, "\u0120vibrations": 5275, "\u0120latitude": 5276, "\u0120covering": 5277, "\u0120Anbar": 5278, "mates": 5279, "\u0120overtook": 5280, "jag": 5281, "\u0120IDS": 5282, "\u0120oscilloscope": 5283, "nobu": 5284, "rolling": 5285, "\u0120emphases": 5286, "\u0120Priory": 5287, "\u0120faster": 5288, "\u0120secures": 5289, "\u0120Be": 5290, "\u0120plums": 5291, "\u0120outcompete": 5292, "\u00e2\u0122\u013b\u00e2\u0122\u013f": 5293, "\u0120alarmingly": 5294, "\u0120trill": 5295, "\u0120Sailors": 5296, "1587": 5297, "\u0120Wicked": 5298, "\u0120Fundamental": 5299, "\"\".": 5300, "\u0120Tips": 5301, "\u0120Negros": 5302, "\u0120tallied": 5303, "\u0120transcripts": 5304, "interfere": 5305, "\u0120Besides": 5306, "\u0120housings": 5307, "\u0120escaped": 5308, "281": 5309, "hanna": 5310, "\u0120polemical": 5311, "\u0120DuBose": 5312, "\u0120purines": 5313, "\u0120Indochinese": 5314, "\u0120toner": 5315, "\u00ce": 5316, "hydroxyvitamin": 5317, "\u00c4\u0122": 5318, "Harold": 5319, "\u0120pomp": 5320, "\u0120node": 5321, "\u0120chakra": 5322, "\u00e5\u0131\u00af\u00e8\u0125\u00bd\u00e6\u013e\u0125": 5323, "orific": 5324, "\u0120Yoshida": 5325, "\u0120Inhofe": 5326, "\u0120Aleppo": 5327, "\u0120Santos": 5328, "\u0120Flexor": 5329, "\u0120amputation": 5330, "\u0120Harada": 5331, "\u0120Hillary": 5332, "numbered": 5333, "\u0120vehemently": 5334, "duh": 5335, "Tu": 5336, "\u0120Gorman": 5337, "\u0120Accomplish": 5338, "\u0120sav": 5339, "\u0120receptor": 5340, "\u0120Turfgrass": 5341, "\u0120zoologist": 5342, "\u0120peritoneal": 5343, "\u0120unmatched": 5344, "eed": 5345, "\u0120Yamaha": 5346, "\u0120K\u00e1\u00b9\u013d\u00e1\u00b9\u00a3\u00e1\u00b9\u0129a": 5347, "Bab": 5348, "\u0120Kathryn": 5349, "\u0120attendants": 5350, "\u0120reorganisation": 5351, "\u0120Carcharodontosaurus": 5352, "\u0120giardia": 5353, "documented": 5354, "CKER": 5355, "advance": 5356, "\u0120corrode": 5357, "Ludwig": 5358, "Jellyfish": 5359, "\u0120Embryology": 5360, "\u0120CURRENT": 5361, "\u0120Myer": 5362, "Pursuant": 5363, "...'": 5364, "\u0120Cleon": 5365, "\u0120outweighs": 5366, "\u0120woe": 5367, "\u0120Gilruth": 5368, "\u0120robustness": 5369, "malloc": 5370, "grasses": 5371, "\u0120brachi": 5372, "\u00cf\u0126\u00cf\u0123": 5373, "\u0120furs": 5374, "Laboratory": 5375, "\u0120halogenated": 5376, "\u0120innuendo": 5377, "\u0120Keesh": 5378, "\u0120Greenspan": 5379, "\u0120Restorative": 5380, "\u0120reconnection": 5381, "\u0120Ellsworth": 5382, "Shin": 5383, "\u00c5\u0124aw": 5384, "SHAKESPEARE": 5385, "\u0120Bj\u00c3\u00a4rehed": 5386, "\u0120inflexible": 5387, "\u0120decrepit": 5388, "\u0120Bosworth": 5389, "\u0120rotation": 5390, "\u0120access": 5391, "\u0120ela": 5392, "\u0120evocative": 5393, "@": 5394, "\u01201883": 5395, "\u0120gauged": 5396, "\u0120Graeca": 5397, "\u0120KPD": 5398, "\u0120Wagon": 5399, "\u0120cAbl": 5400, "\u0120deutschen": 5401, "\u0120Abolish": 5402, "\u0120superconductors": 5403, "sthe": 5404, "\u0120specializes": 5405, "\u0120Dechend": 5406, "\u0120Turnpike": 5407, "\u0120yawn": 5408, "\u0120fooled": 5409, "brin": 5410, "\u0120clockwise": 5411, "\u0120Courtyard": 5412, "undo": 5413, "Fairhurst": 5414, "\u0120breastplate": 5415, "\u0120bh": 5416, "\u0120Kasz\u00c3\u00abb": 5417, "\u0120Himalayan": 5418, "\u0120\u00d0\u00bf\u00d1\u0122\u00d0\u00b5": 5419, "\u0120partie": 5420, "\u0120bamboo": 5421, "\u0120Salaam": 5422, "\u0120nestled": 5423, "\u0120Boucovolas": 5424, "\u0120streamlining": 5425, "\u0120saline": 5426, "\u0120Zel": 5427, "\u0120methylmercury": 5428, "engaging": 5429, "\u0120tits": 5430, "dawn": 5431, "tants": 5432, "FAQ": 5433, "\u0120pharmacists": 5434, "\u0120steamship": 5435, "Cognition": 5436, "\u00e1\u00ba": 5437, "-?": 5438, "\u0120p\u00c3\u00a9": 5439, "\u0120coolly": 5440, "\u0120extensively": 5441, "Grund": 5442, "\u0120Tatar": 5443, "\u0120boisterous": 5444, "Spaying": 5445, "Att": 5446, "\u0120intertwine": 5447, "Wea": 5448, "\u0120Girty": 5449, "\u0120Augustan": 5450, "\u0120Plea": 5451, "NAIROBI": 5452, "Internally": 5453, "\u0120Beers": 5454, "\u0120subset": 5455, "\u0120Packing": 5456, "\u0120Janeczko": 5457, "\u0120Hatha": 5458, "cerebral": 5459, "elli": 5460, "grains": 5461, "\u01201291": 5462, "\u0120Jeffrey": 5463, "\u0120operand": 5464, "\u0120fran\u00c3\u00a7aise": 5465, "\u0120Birney": 5466, "\u0120Producing": 5467, "Inspiration": 5468, "Critical": 5469, "\u0120porous": 5470, "\u0120Somoza": 5471, "\u0120Mackay": 5472, "\u0120plague": 5473, "\u0120Artisan": 5474, "1859": 5475, "idus": 5476, "\u0120magazine": 5477, "\u0120SUPP": 5478, "FIG": 5479, "\u0120Hydro": 5480, "\u0120Ichabod": 5481, "\u0120Circuit": 5482, "physically": 5483, "cigarettes": 5484, "\u00e1\u00b9\u0127ga": 5485, "ndering": 5486, "\u0120waypoint": 5487, "\u0120Neuropathy": 5488, "\u0120firewalls": 5489, "wiec": 5490, "\u0120110": 5491, "\u0120acetylation": 5492, "\u0120neatly": 5493, "\u0120Mittheilungen": 5494, "\u0120prestige": 5495, "\u0120Upward": 5496, "Bol": 5497, "\u0120staffed": 5498, "Comet": 5499, "\u0120jumbled": 5500, "ono": 5501, "\u0120Care": 5502, "Sinosauropteryx": 5503, "\u0120mannequin": 5504, "Veg": 5505, "Koe": 5506, "\u0120delves": 5507, "\u0120RepeatMasker": 5508, "\u0120ROP": 5509, "\u0120Cubism": 5510, "Ouedraogo": 5511, "\u00c3\u00a4t": 5512, "Hus": 5513, "\u0120geodesic": 5514, "\u0120alternates": 5515, "\u0120tactile": 5516, "\u0120Christology": 5517, "\u0120Fruits": 5518, "\u0120Filled": 5519, "\u0120DMOs": 5520, "\u0120Venetia": 5521, "conazole": 5522, "\u0120Mithridates": 5523, "\u0120Feder": 5524, "\u0120excellence": 5525, "\u0120departed": 5526, "\u0120mattered": 5527, "\u0120VF": 5528, "\u0120crew": 5529, "\u0120uphold": 5530, "\u0120views": 5531, "\u0120Connally": 5532, "uz": 5533, "\u0120Earthworks": 5534, "\u0120Isidore": 5535, "\u0120Healfdene": 5536, "ivos": 5537, "Recording": 5538, "\u01201786": 5539, "Ras": 5540, "considered": 5541, "logique": 5542, "grows": 5543, "\u0120Trevi": 5544, "\u0120pueblos": 5545, "\u0120nonexistent": 5546, "bn": 5547, "\u0120outfit": 5548, "\u0120malware": 5549, "\u0120Finney": 5550, "\u0120van": 5551, "\u0120likening": 5552, "\u0120anesthesiologists": 5553, "hs": 5554, "\u0120Schweizer": 5555, "\u0120dwarfed": 5556, "\u0120Chana": 5557, "onk": 5558, "linolenic": 5559, "\u0120notified": 5560, "\u0120Forks": 5561, "Mohammad": 5562, "efficient": 5563, "\u0120Subtraction": 5564, "winner": 5565, "constituted": 5566, "\u0120Deva": 5567, "\u0120dormancy": 5568, "\u0120chordal": 5569, "Ambrosio": 5570, "\u0120DISC": 5571, "\u0120Ponnambalam": 5572, "\u0120owns": 5573, "\u0120antitrust": 5574, "IGHT": 5575, "\u0120wholly": 5576, "\u0120Sisk": 5577, "diploma": 5578, "Sound": 5579, "\u0120Marescaux": 5580, "\u0120hexagons": 5581, "\u0120mackerel": 5582, "\u0120overthrowing": 5583, "\u0120GRID": 5584, "\u0120communications": 5585, "\u0120Journey": 5586, "\u0120entered": 5587, "\u0120corsairs": 5588, "\u0120supramaximal": 5589, "analog": 5590, "Fried": 5591, "\u0120taxis": 5592, "\u0120undemocratic": 5593, "\u0120Herculean": 5594, "\\'": 5595, "hov": 5596, "naz": 5597, "\u0120organize": 5598, "\u0120asleep": 5599, "\u0120counseling": 5600, "219": 5601, "vast": 5602, "latitudes": 5603, "\u0120760": 5604, "\u0120decked": 5605, "\u0120Durbar": 5606, "\u0120snowman": 5607, "\u0120watchmakers": 5608, "\u01201908": 5609, "acanth": 5610, "\u0120wade": 5611, "Astrology": 5612, "\u0120picked": 5613, "\u0120implication": 5614, "\u0120avoids": 5615, "\u0120sited": 5616, "WHY": 5617, "\u0120Darwin": 5618, "\u0120Guest": 5619, "\u0120Arn": 5620, "\u0120asked": 5621, "\u00d0\u00ba": 5622, "\u0120Cuenca": 5623, "\u0120amalgam": 5624, "Hampshire": 5625, "\u0120Causeway": 5626, "\u0120Romanum": 5627, "\u0120voyageurs": 5628, "ACC": 5629, "loculed": 5630, "herd": 5631, "\u0120Thy": 5632, "\u0120familiarize": 5633, "taxonomy": 5634, "\u0120Bangs": 5635, "\u0120cognitively": 5636, "\u0120Keu": 5637, "\u0120Niv": 5638, "\u0120INDIA": 5639, "\u0120entertainment": 5640, "\u0120transcriptase": 5641, "poli": 5642, "\u0120Moresby": 5643, "\u0120cutter": 5644, "\u0120unhealthful": 5645, "\u0120509": 5646, "\u0120smoothbore": 5647, "\u0120sideline": 5648, "rails": 5649, "\u0120appropriateness": 5650, "colic": 5651, "\u012070": 5652, "\u0120Pelletier": 5653, "\u0120\u00d9\u012c": 5654, "\u012089": 5655, "\u0120Indices": 5656, "\u0120lynx": 5657, "\u0120Kohn": 5658, "\u0120Proponents": 5659, "\u0120premi\u00c3\u00a8re": 5660, "\u0120federated": 5661, "\u0120Kerguelen": 5662, "\u0120desirable": 5663, "\u0120titer": 5664, "atia": 5665, "\u0120dishonesty": 5666, "\u0120sock": 5667, "\u0120Iraqi": 5668, "\u0120FOREIGN": 5669, "Additional": 5670, "Arbutus": 5671, "pheus": 5672, "\u0120wastes": 5673, "\u0120molded": 5674, "\u0120\u00e0\u00b8": 5675, "\u0120nystagmus": 5676, "\u0120Sard": 5677, "\u0120Enforcing": 5678, "\u0120MINING": 5679, "\u0120Puberty": 5680, "\u0120passband": 5681, "\u0120legitimizing": 5682, "\u0120clipper": 5683, "simultaneous": 5684, "Same": 5685, "\u0120antineoplaston": 5686, "\u0120manor": 5687, "\u0120Novarupta": 5688, "254": 5689, "447": 5690, "\u0120]\">": 5691, "\u0120monotony": 5692, "\u0120ridership": 5693, "\u0120glove": 5694, "\u0120discourage": 5695, "\u0120bioluminescence": 5696, "\u0120psychophysical": 5697, "dges": 5698, "\u0120axons": 5699, "Slaughter": 5700, "\u0120leveraged": 5701, "\u0120Nearby": 5702, "Destructive": 5703, "\u0120Cranial": 5704, "\u0120Courier": 5705, "hotep": 5706, "\u0120Saturn": 5707, "\u0120D\u00c4\u0135mok\u00e1\u00b8\u0139d\u00c4\u0135s": 5708, "\u0120ENDURE": 5709, "\u0120Ruhl": 5710, "\u0120dolphins": 5711, "\u0120Em": 5712, "\u0120Radiant": 5713, "Th": 5714, "\u0120pumped": 5715, "\u0120Sinhala": 5716, "\u0120pure": 5717, "Explicit": 5718, "\u0120motivating": 5719, "implemented": 5720, "\u0120biomass": 5721, "\u0120pigmentation": 5722, "\u0120uf": 5723, "\u0120phren": 5724, "\u0120Eras": 5725, "\u0120tournaments": 5726, "\u0120Galvani": 5727, "\u0120coliform": 5728, "\u0120Coliform": 5729, "\u0120positioned": 5730, "\u0120CQ": 5731, "\u0120freest": 5732, "\u0120Euseb": 5733, "\u0120digester": 5734, "\u0120Preclassic": 5735, "\u0120Ingenious": 5736, "placing": 5737, "Wahhabi": 5738, "Ongoing": 5739, "rita": 5740, "arial": 5741, "\u0120Ecclesiastes": 5742, "\u0120aberrations": 5743, "\u0120trypanosomiasis": 5744, "\u0120rating": 5745, "\u0120Ramirez": 5746, "ihi": 5747, "Proxy": 5748, "\u0120taxicab": 5749, "\u0120Ryokan": 5750, "\u0120litre": 5751, "\u0120postal": 5752, "killing": 5753, "Hs": 5754, "\u0120deploring": 5755, "NERS": 5756, "inst": 5757, "\u0120Boniface": 5758, "\u0120Tito": 5759, "skilled": 5760, "\u0120compressive": 5761, "\u0120BUTTER": 5762, "\u0120pater": 5763, "\u0120Resources": 5764, "\u0120Brower": 5765, "sulfamethoxazole": 5766, "\u0120RADIO": 5767, "\u0120Divinity": 5768, "\u0120splash": 5769, "\u0120PUF": 5770, "\u0120ACG": 5771, "Connemara": 5772, "\u0120evanescent": 5773, "imon": 5774, "\u0120Factiva": 5775, "dull": 5776, "\u0120putative": 5777, "gluco": 5778, "elo": 5779, "Fix": 5780, "\u0120blah": 5781, "concepts": 5782, "\u0120sequential": 5783, "\u0120indigestible": 5784, "\u0120Incredibly": 5785, "\u0120vibrates": 5786, "irs": 5787, "\u0120Menshevik": 5788, "\u0120Invert": 5789, "\u0120kilos": 5790, "Portuguese": 5791, "Lasers": 5792, "\u0120longhorned": 5793, "\u0120Navy": 5794, "\u0120troupe": 5795, "\u0120Vegetarians": 5796, "\u0120firmly": 5797, "\u0120ludicrous": 5798, "\u0120grasping": 5799, "\u0120Instrument": 5800, "Shapiro": 5801, "conclusion": 5802, "\u0120slighted": 5803, "gles": 5804, "\u0120Joshi": 5805, "Schaumburg": 5806, "\u0120Kashubian": 5807, "\u0120Fusarium": 5808, "\u0120Harriet": 5809, "\u01201408": 5810, "ersheim": 5811, "\u0120platypus": 5812, "\u0120Wich": 5813, "\u0120bucks": 5814, "Holl": 5815, "DRE": 5816, "\u0120Rinaldo": 5817, "\u0120appreciative": 5818, "\u0120subject": 5819, "\u0120Worden": 5820, "\u0120medieval": 5821, "Destination": 5822, "\u0120Anxious": 5823, "\u0120Exceptions": 5824, "\u0120Vai": 5825, "\u0120Tyranny": 5826, "\u0120Klaus": 5827, "Spe": 5828, "\u0120Leatherjacket": 5829, "\u0120bends": 5830, "Am\u00c3\u00a9rique": 5831, "\u0120eastwards": 5832, "\u00c5\u00a1": 5833, "Hayek": 5834, "\u0120Marker": 5835, "\u0120ganzfeld": 5836, "ati": 5837, "``": 5838, "\u0120takes": 5839, "\u0120demands": 5840, "\u0120Ama": 5841, "\u0120electrifying": 5842, "\u0120vacuums": 5843, "825": 5844, "\u0120authenticate": 5845, "\u0120Bottleneck": 5846, "\u0120hilt": 5847, "\u0120supervenience": 5848, "\u0120servlet": 5849, "\u0120offstage": 5850, "\u0120curling": 5851, "Genetically": 5852, "\u0120mV": 5853, "1896": 5854, "\u0120mode": 5855, "NMDAR": 5856, "\u0120\".": 5857, "\u0120Param": 5858, "\u0120flecks": 5859, "hao": 5860, "PLUS": 5861, "\u0120nave": 5862, "\u0120Vannevar": 5863, "\u0120Barrett": 5864, "Military": 5865, "\u0120Meng": 5866, "\u0120sausage": 5867, "\u0120Tik": 5868, "rejection": 5869, "\u0120jealous": 5870, "\u0120emailed": 5871, "\u0120Interfaith": 5872, "RATED": 5873, "ologizing": 5874, "\u0120nanny": 5875, "Caroline": 5876, "FUNCTION": 5877, "\u0120Bashan": 5878, "\u0120lumbering": 5879, "\u0120cleansers": 5880, "\u0120Godfrey": 5881, "\u0120Everett": 5882, "\u0120Microbiome": 5883, "\u0120extrahepatic": 5884, "\u0120they": 5885, "Bowen": 5886, "\u0120untouched": 5887, "\u0120Fauci": 5888, "\u0120Kaneko": 5889, "\u01201117": 5890, "\u0120imperfections": 5891, "\u0120JOB": 5892, "\u0120NATIONS": 5893, "069": 5894, "dj": 5895, "\u0120infrastructure": 5896, "Superstition": 5897, "referred": 5898, "\u0120pole": 5899, "\u0120Pandya": 5900, "ilio": 5901, "\u0120pterosaurs": 5902, "\u0120stagnate": 5903, "\u0120Proprietors": 5904, "acquisition": 5905, "scheid": 5906, "\u0120Ecuadorian": 5907, "shape": 5908, "Entrance": 5909, "\u0120carnivorous": 5910, "flap": 5911, "\u0120barramundi": 5912, "!(": 5913, "\u0120arbiters": 5914, "\u0120Flax": 5915, "Tao": 5916, "\u0120abduction": 5917, "\u0120phobic": 5918, "\u0120(>": 5919, "\u0120Hizb": 5920, "\u0120decrees": 5921, "\u0120scourges": 5922, "1808": 5923, "\u0120Protocol": 5924, "nei": 5925, "\u0120Beat": 5926, "Cooking": 5927, "twentieth": 5928, "\u0120largely": 5929, "\u0120facets": 5930, "\u0120Tewksbury": 5931, "\u01201743": 5932, "LING": 5933, "\u0120upheavals": 5934, "\u0120lactic": 5935, "\u0120non": 5936, "\u0120univoltine": 5937, "\u0120HUR": 5938, "Engineer": 5939, "\u0120Glacier": 5940, "\u0120genteel": 5941, "iaceae": 5942, "\u0120geochronologic": 5943, "\u0120Winder": 5944, "\u0120exome": 5945, "\u0120Vargas": 5946, "\u0120Br\u00c3\u00bc": 5947, "\u0120Bian": 5948, "PowerPoint": 5949, "\u0120tid": 5950, "ANZ": 5951, "Him": 5952, "\u0120Patta": 5953, "\u0120motivations": 5954, "\u0120armament": 5955, "\u0120approximately": 5956, "\u0120Papuans": 5957, "\u0120Tug": 5958, "jiro": 5959, "\u0120octopuses": 5960, "935": 5961, "\u0120Suppression": 5962, "\u0120Glycemic": 5963, "\u0120Ajdabiya": 5964, "codone": 5965, "\u0120pretentious": 5966, "\u0120Jeep": 5967, "\u0120260": 5968, "\u0120Emulsifiers": 5969, "\u0120howler": 5970, "\u0120pre": 5971, "\u0120LTE": 5972, "\u0120Lethbridge": 5973, "HED": 5974, "\u0120disengagement": 5975, "\u0120Ravikovitch": 5976, "\u0120hemispheres": 5977, "\u0120leftist": 5978, "\u0120Ketu": 5979, "\u0120Repeating": 5980, "\u0120carotenoid": 5981, "\u0120unde": 5982, "\u0120Agena": 5983, "\u0120financier": 5984, "\u0120lockers": 5985, "\u0120synagogal": 5986, "\u0120ignorant": 5987, "\u0120Mur": 5988, "\u0120Weed": 5989, "\u0120Armitage": 5990, "\u0120ally": 5991, "Me": 5992, "\u0120Jos": 5993, "xn": 5994, "\u0120vacationers": 5995, "ilaginous": 5996, "\u0120bloodlines": 5997, "\u0120ur": 5998, "righteous": 5999, "\u0120Poinsettias": 6000, "nensis": 6001, "\u0120mulch": 6002, "\u0120Algernon": 6003, "\u0120Abel": 6004, "Macmillan": 6005, "\u0120RECORD": 6006, "\u0120Mystic": 6007, "\u0120Allan": 6008, "\u0120mounds": 6009, "\u0120prevails": 6010, "\u0120Bodri": 6011, "\u0120Anthropogenic": 6012, "stache": 6013, "ACs": 6014, "prom": 6015, "\u0120reprocessing": 6016, "Assert": 6017, "\u0120Multilingual": 6018, "\u0120Espiritu": 6019, "fn": 6020, "\u0120counterweight": 6021, "\u0120symbolizes": 6022, "\u0120enraptured": 6023, "\u0120Televised": 6024, "\u0120Shutterstock": 6025, "\u0120meridian": 6026, "\u0120instructed": 6027, "\u0120Crossroads": 6028, "\u0120Concurrently": 6029, "\u0120saut\u00c3\u00a9ed": 6030, "Hex": 6031, "Shear": 6032, "\u0120Danske": 6033, "\u0120agonist": 6034, "\u0120dervish": 6035, "\u0120routers": 6036, "\u0120Date": 6037, "Calcium": 6038, "cleaned": 6039, "\u00d0\u00a1\u00d0\u00ba\u00d0\u00b0\u00d1\u0129\u00d0\u00b0\u00d1\u0124\u00d1\u012e": 6040, "\u0120Foulois": 6041, "\u0120Epimetheus": 6042, "\u0120topologically": 6043, "\u0120Wheatley": 6044, "\u0120surveying": 6045, "\u0120Ghani": 6046, "]),": 6047, "\u0120Rind": 6048, "\u0120Levy": 6049, "\u0120divert": 6050, "\u0120singled": 6051, "\u0120porpoise": 6052, "\u0120aminoglycoside": 6053, "yx": 6054, "\u0120Carpen": 6055, "mian": 6056, "yuki": 6057, "\u0120ONS": 6058, "Mala": 6059, "\u0120Blakely": 6060, "\u0120Detection": 6061, "quez": 6062, "\u0120Low": 6063, "\u0120dualistic": 6064, "\u0120Rex": 6065, "\u0120\u00c5\u00bf": 6066, "\u0120Stedman": 6067, "\u0120Tris": 6068, "\u0120controls": 6069, "\u0120conspire": 6070, "\u0120blazon": 6071, "\u0120apical": 6072, "ason": 6073, "\u0120dismemberment": 6074, "gara": 6075, "\u0120enhanced": 6076, "\u0120nightly": 6077, "\u0120Histoire": 6078, "interface": 6079, "\u0120creams": 6080, "\u0120Kheel": 6081, "\u0120SWG": 6082, "\u0120Rehoboth": 6083, "\u0120Iceman": 6084, "\u0120Schulte": 6085, "\u0120emissivity": 6086, "\u0120PPI": 6087, "mastigotes": 6088, "industrialized": 6089, "\u0120lxx": 6090, "\u0120Nan": 6091, "\u0120Inherit": 6092, "mo": 6093, "psychology": 6094, "\u0120imagines": 6095, "\u0120A\u00c3\u00a9rea": 6096, "\u0120Northerners": 6097, "cond": 6098, "\u0120meadow": 6099, "\u0120NERSC": 6100, "Bukhari": 6101, "\u0120feverishly": 6102, "\u0120Lore": 6103, "\u0120NK": 6104, "\u0120\u00e2\u0122\u013a-": 6105, "\u0120bailiffs": 6106, "\u0120Warm": 6107, "\u0120Conestoga": 6108, "\u0120abundantly": 6109, "steel": 6110, "horns": 6111, "\u0120trampled": 6112, "\u0120digger": 6113, "yed": 6114, "\u0120winemakers": 6115, "BS": 6116, "\u0120inet": 6117, "Undaunted": 6118, "dus": 6119, "ductive": 6120, "\u0120Excess": 6121, "',\"": 6122, "\u0120inmost": 6123, "\u0120Castell": 6124, "\u0120Daschle": 6125, "\u0120freelist": 6126, "maya": 6127, "iop": 6128, "\u0120impetuous": 6129, "PVS": 6130, "watcher": 6131, "\u0120fellowships": 6132, "\u0120Protestants": 6133, "\u0120salmonis": 6134, "\u0120Lepore": 6135, "RH": 6136, "\u0120Gangs": 6137, "\u0120engineering": 6138, "\u0120\u00e0\u00ba\u013d\u00e0\u00ba\u00b0\u00e0\u00ba\u012c\u00e0\u00ba\u00b2\u00e0\u00ba\u0139": 6139, "buried": 6140, "\u0120groundwork": 6141, "\u0120chaplains": 6142, "vessels": 6143, "\u0120Province": 6144, "Own": 6145, "card": 6146, "\u0120downspouts": 6147, "Discovering": 6148, "\u0120Novartis": 6149, "\u0120UCL": 6150, "\u01201420": 6151, "\u0120Hyster": 6152, "Laura": 6153, "\u0120nitride": 6154, "\u0120NOW": 6155, "\u0120redistributes": 6156, "\u0120coppice": 6157, "ANNE": 6158, "\u0120lather": 6159, "ifica": 6160, "Gluten": 6161, "\u0120culled": 6162, "ISO": 6163, "REN": 6164, "waiting": 6165, "\u0120deux": 6166, "BAS": 6167, "\u0120chastise": 6168, "\u0120Cyber": 6169, "\u012099": 6170, ".\u00e2\u0122\u013f[": 6171, "\u0120Sauer": 6172, "450": 6173, "\u0120Vessels": 6174, "\u0120CAFE": 6175, "influential": 6176, "\u0120vilayet": 6177, "\u0120grandparents": 6178, "\u0120punitive": 6179, "irritating": 6180, "\u0120Ahn": 6181, "\u0120electromechanical": 6182, "\u0120penises": 6183, "vl": 6184, "\u0120weaken": 6185, "\u0120ax": 6186, "birdlife": 6187, "fah": 6188, "\u0120JSF": 6189, "ired": 6190, "\u0120chaparral": 6191, "\u0120Pieris": 6192, "\u0120Treaty": 6193, "\u0120Knowles": 6194, "\u0120Workbook": 6195, "Condensation": 6196, "chambers": 6197, "\u0120definitional": 6198, "\u0120Benz": 6199, "Bulgaria": 6200, "\u0120egrets": 6201, "\u0120Ponchatoula": 6202, "\u0120novices": 6203, "\u0120Var": 6204, "Abortion": 6205, "\u0120Bellows": 6206, "\u0120791": 6207, "\u0120scheming": 6208, "\u0120Cert": 6209, "Islam": 6210, "vetenskap": 6211, "\u0120Grasses": 6212, "\u0120polybrominated": 6213, "\u0120Anaheim": 6214, "\u0120Haf": 6215, "making": 6216, "summit": 6217, "\u0120reestablished": 6218, "kmaq": 6219, "Neanderthals": 6220, "\u0120impinge": 6221, "\u0120Ministerio": 6222, "\u0120discernible": 6223, "\u0120flasks": 6224, "\u0120kon": 6225, "frey": 6226, "\u0120Observation": 6227, "\u0120Surui": 6228, "\u0120gurgling": 6229, "\u0120Osteoporotic": 6230, "\u0120pastime": 6231, "UB": 6232, "\u0120Mice": 6233, "amar": 6234, "inal": 6235, "\u0120hers": 6236, "\u0120Proposes": 6237, "\u0120striated": 6238, "\u0120missiles": 6239, "\u0120unwinding": 6240, "accreditation": 6241, "\u0120hovered": 6242, "\u0120cradles": 6243, "\u0120inadequacies": 6244, "\u0120reorganization": 6245, "Brahman": 6246, "nour": 6247, "\u0120Farmer": 6248, "liest": 6249, "\u0120frugiperda": 6250, "oblastic": 6251, "1734": 6252, "\u0120Admonish": 6253, "Forward": 6254, "\u0120sprockets": 6255, "\u0120Lakeview": 6256, "\u0120favourite": 6257, "\u0120Ahvaz": 6258, "kah": 6259, "\u0120Kulkarni": 6260, "\u0120supportive": 6261, "ologize": 6262, "While": 6263, "\u0120Legos": 6264, "Bin\u00e1\u00b8\u012fu": 6265, "Mosaic": 6266, "TITLE": 6267, "\u0120afloat": 6268, "\u0120condor": 6269, "\u01201515": 6270, "\u0120tempore": 6271, "\u0120Browsers": 6272, "Ged": 6273, "mammals": 6274, "\u0120Borrelia": 6275, "carr": 6276, "\u0120donation": 6277, "rhein": 6278, "\u0120epicardium": 6279, "\u0120reorient": 6280, "\u0120arduous": 6281, "\u0120Alec": 6282, "\u0120Exemplar": 6283, "\u0120legacies": 6284, "\u0120HSS": 6285, "\u0120hinted": 6286, "\u0120ll": 6287, "\u0120Coenzyme": 6288, "holtz": 6289, "\u0120Winkler": 6290, "\u0120evangelical": 6291, "integrated": 6292, "STAN": 6293, "pence": 6294, "1097": 6295, "\u0120Xenophon": 6296, "\u0120Hiawatha": 6297, "\u0120tinkerer": 6298, "Ship": 6299, "\u0120Salman": 6300, "\u0120genetic": 6301, "\u0120Yeshiva": 6302, "\u0120goodness": 6303, "\u0120unconditional": 6304, "Moore": 6305, "Sick": 6306, "WAN": 6307, "kinesis": 6308, "khi": 6309, "\u0120latent": 6310, "\u0120Bicknell": 6311, "\u0120\"%": 6312, "Torah": 6313, "\u0120Devo": 6314, "\u0120Democritus": 6315, "\u0120Governance": 6316, "\u0120cottonwoods": 6317, "\u0120Frames": 6318, "Greece": 6319, "1003": 6320, "FDA": 6321, "\u0120ordained": 6322, "\u0120belatedly": 6323, "\u0120trompe": 6324, "\u0120THEMSELVES": 6325, "OD": 6326, "\u0120Rona": 6327, "\u0120STE": 6328, "\u0120countervailing": 6329, "\u0120Cellulose": 6330, "\u0120OBE": 6331, "\u0120cantatas": 6332, "\u0120wrack": 6333, "\u0120plebiscite": 6334, "\u0120sedated": 6335, ")),": 6336, "\u0120McRae": 6337, "\u0120\u00d0\u00b0": 6338, "\u0120NYPL": 6339, "\u0120criticized": 6340, "\u0120semuloparin": 6341, "amel": 6342, "\u0120Regulation": 6343, "\u0120DW": 6344, "\u0120Lichtman": 6345, "\u0120Aspergillus": 6346, "\u0120toxicogenomic": 6347, "Scho": 6348, "\u0120Edison": 6349, "\u0120prostrations": 6350, "\u0120biking": 6351, "\u0120prevailing": 6352, "\u00d6\u00b6": 6353, "\u0120Yogurt": 6354, "Nowhere": 6355, "\u0120suck": 6356, "Hue": 6357, "agro": 6358, "\u0120lightnings": 6359, "\u0120Misleading": 6360, "\u0120raise": 6361, "cing": 6362, "\u0120empiricism": 6363, "Pretty": 6364, "\u0120mitsvah": 6365, "\u0120eugenics": 6366, "\u0120Maurizio": 6367, "\u0120Elwha": 6368, "\u0120Eutrophication": 6369, "\u0120CS": 6370, "\u0120saintly": 6371, "\u0120dressing": 6372, "\u0120sinusoidal": 6373, "\u0120misunderstood": 6374, "\u00c3\u00a7": 6375, "DOWN": 6376, "\u0120Classical": 6377, "\u0120kamikaze": 6378, "\u0120subclinical": 6379, "\u0120beholder": 6380, "\u0120articles": 6381, "\u0120rules": 6382, "\u0120decile": 6383, "\u0120cr": 6384, "\u0120Propagate": 6385, "\u0120iconic": 6386, "\u0120\u00d0\u013d": 6387, "\u0120parallel": 6388, "\u0120olanzapine": 6389, "\u0120returns": 6390, "PhysOrg": 6391, "\u0120tesserae": 6392, "\u0120Halle": 6393, "mosis": 6394, "\u0120Unger": 6395, "\u0120haftarah": 6396, "\u0120polity": 6397, "\u0120Islands": 6398, "\u0120Duke": 6399, "\u0120Complex": 6400, "\u0120Afonso": 6401, "\u0120undermines": 6402, "friendliness": 6403, "Tertiary": 6404, "Revisited": 6405, "\u0120348": 6406, "freed": 6407, "\u0120consciously": 6408, "\u0120Oxytocin": 6409, "\u0120develop": 6410, "\u0120Vanguard": 6411, "Kw": 6412, "\u0120PHENOMENON": 6413, "\u0120Lykken": 6414, "\u0120machines": 6415, "\u0120IRE": 6416, "elly": 6417, "\u0120uppermost": 6418, "lbl": 6419, "encyclopedia": 6420, "eca": 6421, "\u0120invitation": 6422, "\u0120Echo": 6423, "\u0120Stroudsburg": 6424, "\u0120IUFRO": 6425, "\u0120rerio": 6426, "\u0120chytridiomycosis": 6427, "\u00c3\u00a1tion": 6428, "\u0120hydrolyzed": 6429, "TVA": 6430, "\u0120skate": 6431, "\u0120SMB": 6432, "aortic": 6433, "Procedures": 6434, "\u0120epitopes": 6435, "\u0120hypersomnia": 6436, "\u0120Narnia": 6437, "\u0120TPWD": 6438, "\u0120geomorphic": 6439, "IGHTS": 6440, "\u0120exert": 6441, "\u0120Kant": 6442, "\u0120Strabo": 6443, "\u0120impotent": 6444, "\u0120Chuck": 6445, "pak": 6446, "\u0120urea": 6447, "\u0120fusion": 6448, "Zhang": 6449, "\u0120twos": 6450, "\u0120modulated": 6451, "Meth": 6452, "Roanoke": 6453, "\u0120Gher": 6454, "\u0120tangents": 6455, "Tap": 6456, "\u0120Quitchupah": 6457, "\u0120phospholipids": 6458, "\u0120yearbooks": 6459, "temporomandibular": 6460, "\u0120Hesiod": 6461, "\u0120interracial": 6462, "beck": 6463, "nk": 6464, "877": 6465, "\u0120phosphatidyl": 6466, "cke": 6467, "\u0120regimens": 6468, "\u0120Part": 6469, "\u0120Thunderbolt": 6470, "\u0120Basis": 6471, "Theodicy": 6472, "\u0120recyclable": 6473, "\u0120genome": 6474, "\u0120Felicia": 6475, "Md": 6476, "\u0120Sherpas": 6477, "\u0120615": 6478, "\u0120tenons": 6479, "\u0120Neurosciences": 6480, "271": 6481, "\u0120upturn": 6482, "tidal": 6483, "Tongue": 6484, "\u0120comparable": 6485, "\u0120Kara": 6486, "\u0120Pretend": 6487, "\u0120Tarleton": 6488, "\u0120neglects": 6489, "\u0120Ruggierro": 6490, "\u0120neutral": 6491, "\u0120throught": 6492, "Apple": 6493, "queue": 6494, "\u0120width": 6495, "perfectly": 6496, "\u0120hydrogeologic": 6497, "\u0120honest": 6498, "\u0120Donzelot": 6499, "\u0120nmol": 6500, "\u0120outlaws": 6501, "\u0120Worldwatch": 6502, "\u0120Cen": 6503, "\u0120biochemistry": 6504, "soft": 6505, "\u0120Pichichero": 6506, "thorn": 6507, "\u0120clap": 6508, "\u0120stringent": 6509, "\u0120Abb\u00c3\u00a9": 6510, "\u0120Lein": 6511, "upon": 6512, "\u0120bathhouse": 6513, "\u0120reinvestment": 6514, "Embryo": 6515, "\u0120sleep": 6516, "Intelligence": 6517, "Turtle": 6518, "\u0120PARTICIPA": 6519, "\u0120Rabbeinu": 6520, "Gali": 6521, "\u0120Disease": 6522, "\u0120LEGAL": 6523, "TTY": 6524, "\u0120Disclaimers": 6525, "Brig": 6526, "\u0120trawler": 6527, "description": 6528, "\u0120Decreased": 6529, "\u0120stadia": 6530, "\u0120Citizens": 6531, "\u0120abroad": 6532, "\u00e6": 6533, "aud": 6534, "\u0120gouging": 6535, "\u0120sooty": 6536, "\u0120j": 6537, "\u0120implanting": 6538, "\u0120Nir": 6539, "\u0120tty": 6540, "\u0120indoctrination": 6541, "\u0120unearth": 6542, "\u0120talker": 6543, "\u0120intakes": 6544, "\u0120Carlisle": 6545, "\u0120wilder": 6546, "Zarbul": 6547, "\u0120ITC": 6548, "\u01201830": 6549, "\u0120vasoconstrictor": 6550, "\u0120push": 6551, "\u0120dastardly": 6552, "\u0120monounsaturated": 6553, "\u0120cohorts": 6554, "\u0120alb": 6555, "\u0120oder": 6556, "\u0120speci": 6557, "Orpheus": 6558, "\u0120potent": 6559, "\u0120lettering": 6560, "ddy": 6561, "\u0120MNT": 6562, "impedance": 6563, "\u0120fade": 6564, "\u0120296": 6565, "\u0120Neonatal": 6566, "Bul": 6567, "\u0120Optobionics": 6568, "\u0120Blogger": 6569, "\u0120him": 6570, "\u0120egalitarian": 6571, "\u0120jewelry": 6572, "\u0120Popp": 6573, "y\u00c3\u00b4": 6574, "\u0120Reprints": 6575, "\u0120Zachary": 6576, "\u0120rami": 6577, "\u0120Haitian": 6578, "\u0120Riksdag": 6579, "Oct": 6580, "\u0120Roses": 6581, "\u0120Colgate": 6582, "\u0120hacking": 6583, "oise": 6584, "\u0120adhesions": 6585, "\u0120sweets": 6586, "\u0120vinegar": 6587, "\u0120Isabel": 6588, "\u0120investigates": 6589, "\u0120Firestone": 6590, "Hyde": 6591, "\u0120lodge": 6592, "\u0120Quentin": 6593, "\u0120correlational": 6594, "\u0120JURIST": 6595, "\u0120recharging": 6596, "\u0120Hellen": 6597, "\u0120Regularly": 6598, "\u0120keener": 6599, "BPH": 6600, "eighteen": 6601, "multipli": 6602, "affected": 6603, "\u0120Selecting": 6604, "configuration": 6605, "\u0120Jarchi": 6606, "\u0120chlorpromazine": 6607, "\u0120Suspicious": 6608, "\u0120trailed": 6609, "classified": 6610, "tRNA": 6611, "\u0120Holistic": 6612, "\u0120iconoclastic": 6613, "renowned": 6614, "reserve": 6615, "\u0120IFITM": 6616, "\u0120institutionalised": 6617, "\u0120liked": 6618, "Volunteer": 6619, "Cooperative": 6620, "\u0120cockroach": 6621, "ready": 6622, "barriers": 6623, "\u0120arrogance": 6624, "\u0120Frieden": 6625, "\u0120advisory": 6626, "\u0120Corps": 6627, "\u0120Limits": 6628, "substrate": 6629, "\u0120dosimetry": 6630, "\u0120quantitative": 6631, "erating": 6632, "icker": 6633, "\u0120labyrinth": 6634, "\u0120Balkans": 6635, "psychiatric": 6636, "\u0120hernia": 6637, "\u0120Cauchy": 6638, "\u0120Artemia": 6639, "\u0120angina": 6640, "\u0120altitudinal": 6641, "\u0120EGC": 6642, "\u0120cooler": 6643, "\u01201183": 6644, "\u0120evening": 6645, "\u0120datasets": 6646, "Minor": 6647, "peat": 6648, "\u0120motto": 6649, "\u0120Describes": 6650, "\u0120Relapse": 6651, "\u0120logger": 6652, "Aroma": 6653, "Ebola": 6654, "Gustaf": 6655, "\u0120brooch": 6656, "\u0120macro": 6657, "drop": 6658, "\u0120rote": 6659, "\u0120Perennials": 6660, "\u0120cakes": 6661, "Paleontologists": 6662, "change": 6663, "\u00c2\u00b0.": 6664, "\u0120Strip": 6665, "\u0120Repellents": 6666, "861": 6667, "\u0120fluorescein": 6668, "\u0120Differentiating": 6669, "gl": 6670, "What": 6671, "\u0120Xin": 6672, "\u0120Poo": 6673, "\u0120Magna": 6674, "Vaucanson": 6675, "ggish": 6676, "\u0120Strachan": 6677, "\u0120Austral": 6678, "\u0120Salish": 6679, "062": 6680, "Branches": 6681, "predicate": 6682, "\u0120CIO": 6683, "\u0120RFA": 6684, "vich": 6685, "Pond": 6686, "Ortega": 6687, "\u0120Tuesday": 6688, "\u0120Resaca": 6689, "\u0120Quer\u00c3\u00a9taro": 6690, "\u0120hem": 6691, "\u0120videos": 6692, "projected": 6693, "\u0120corroborated": 6694, "\u0120Marcott": 6695, "Blessed": 6696, "\u0120Gastric": 6697, "\u0120sloppiness": 6698, "\u0120Jaffe": 6699, "\u0120polysomnography": 6700, "\u0120rebate": 6701, "\u0120Firewall": 6702, "Verse": 6703, "1940": 6704, "\u0120fearsome": 6705, "\u0120emulate": 6706, "ishers": 6707, "\u0120Cavern": 6708, "\u0120APIs": 6709, "\u0120rightly": 6710, "\u0120Rothbard": 6711, "\u00d8\u00b1\u00d8\u00a7": 6712, "refined": 6713, "\u0120integrate": 6714, "butyric": 6715, "\u0120Ford": 6716, "\u0120Michoac\u00c3\u00a1n": 6717, "Diwali": 6718, "ultraviolet": 6719, "\u0120Shonhe": 6720, "\u0120Regenmortel": 6721, "\u0120unleash": 6722, "\u0120cockroaches": 6723, "\u0120caskets": 6724, "uya": 6725, "rivers": 6726, "\u0120k\u00c3\u00a4": 6727, "\u0120temperaments": 6728, "\u0120Wrap": 6729, "\u0120millennia": 6730, "dela": 6731, "\u0120terrorize": 6732, "phen": 6733, "\u0120leggings": 6734, "\u0120honestly": 6735, "\u0120hp": 6736, "\u0120degenerated": 6737, "\u0120Marys": 6738, "Dreifuss": 6739, "\u012005": 6740, "\u0120meerkats": 6741, "\u0120overreaction": 6742, "Morgan": 6743, "\u0120lander": 6744, "\u0120gave": 6745, "territories": 6746, "ives": 6747, "Potemkin": 6748, "\u0120Tory": 6749, "\u0120Me": 6750, "\u0120Cervalces": 6751, "289": 6752, "\u0120polymyalgia": 6753, "\u0120FluTrackers": 6754, "\u0120Brotherhood": 6755, "\u0120squall": 6756, "Inequality": 6757, "897": 6758, "\u0120Elihu": 6759, "nephrine": 6760, "968": 6761, "\u0120Guns": 6762, "\u0120Exoplanet": 6763, "Opposition": 6764, "bedded": 6765, "\u0120Biomimetic": 6766, "\u0120Venetie": 6767, "\u0120localize": 6768, "\u0120negotiate": 6769, "\u0120welcoming": 6770, "\u0120fermentable": 6771, "\u0120Comanches": 6772, "\u0120BEE": 6773, "arus": 6774, "single": 6775, "CV": 6776, "\u0120Grains": 6777, "\u0120basilicas": 6778, "\u0120refresher": 6779, "\u0120Greenland": 6780, "\u0120motif": 6781, "\u0120taiga": 6782, "\u0120stringing": 6783, "Union": 6784, "neas": 6785, "\u0120Ohr": 6786, "gini": 6787, "\u0120Glands": 6788, "\u0120autistic": 6789, "soldiers": 6790, "\u0120contemn": 6791, "\u0120fool": 6792, "Of": 6793, "\u0120Gourmet": 6794, "cens": 6795, "\u0120violations": 6796, "\u0120Burwell": 6797, "\u0120244": 6798, "\u0120bathymetry": 6799, "\u0120Polkinghorne": 6800, "\u0120coherence": 6801, "\u0120Notes": 6802, "1678": 6803, "\u0120Abramson": 6804, "\u0120Monticello": 6805, "\u0120Correction": 6806, "\u0120Lakehurst": 6807, "\u0120novella": 6808, "\u0120155": 6809, "dialysis": 6810, "\u0120cy": 6811, "\u0120inhalation": 6812, "\u0120periodicity": 6813, "shocks": 6814, "\u0120Elevated": 6815, "Glue": 6816, "\u0120Parish": 6817, "\u0120panda": 6818, "\u0120FSAs": 6819, "\u0120Gwadar": 6820, "\u0120Medgar": 6821, "\u0120Memorandum": 6822, "NX": 6823, "Bh": 6824, "\u0120Gnat": 6825, "\u0120bikes": 6826, "ndel": 6827, "\u0120Wid": 6828, "\u0120opp": 6829, "tears": 6830, "\u0120scavenged": 6831, "\u0120swim": 6832, "buffalo": 6833, "\u0120Al": 6834, "\u0120ossified": 6835, "\u0120Edgewood": 6836, "\u0120incubated": 6837, "sale": 6838, "Bauer": 6839, "\u0120foreskin": 6840, "\u0120Implementation": 6841, "\u0120Unicode": 6842, "maintaining": 6843, "person": 6844, "xi": 6845, "\u0120ophthalmo": 6846, "\u0120melons": 6847, "\u0120branchlets": 6848, "\u0120spearheaded": 6849, "\u0120conju": 6850, "\u0120sunnier": 6851, "\u0120pnetcdf": 6852, "\u0120humanities": 6853, "\u0120Ending": 6854, "\u0120Becky": 6855, "Artillerie": 6856, "Adverse": 6857, "\u01201843": 6858, "\u0120pas": 6859, "\u0120harmonize": 6860, "Transformation": 6861, "\u0120meteorology": 6862, "Guatemala": 6863, "Peritoneal": 6864, "kawa": 6865, "\u0120eliminates": 6866, "\u0120Wah": 6867, "\u0120pmid": 6868, "\u0120ailment": 6869, "\u0120Obedience": 6870, "\u0120bleeds": 6871, "introduced": 6872, "\u00d9\u0131\u00d9\u0133": 6873, "\u0120conquest": 6874, "\u0120strollers": 6875, "\u0120flattered": 6876, "Support": 6877, "\u0120Mish": 6878, "\u0120Flock": 6879, "fictional": 6880, "\u0120underneath": 6881, "\u0120cine": 6882, "\u0120disclosure": 6883, "\u0120Saum\u00c3\u00a2tre": 6884, "\u0120Mon": 6885, "\u0120PGC": 6886, "\u0120obelisks": 6887, "Symptom": 6888, "chill": 6889, "Wow": 6890, "\u0120Migration": 6891, "\u0120Carinae": 6892, "\u0120pictograph": 6893, "\u0120ministrations": 6894, "\u0120polygon": 6895, "Beck": 6896, "\u0120Teal": 6897, "\u0120commune": 6898, "\u0120overpasses": 6899, "\u0120thrips": 6900, "\u0120Penuh": 6901, "\u0120entitling": 6902, "PAP": 6903, "\u0120Privileges": 6904, "\u0120subconsciously": 6905, "\u0120humiliating": 6906, "\u0120UNECE": 6907, "\u0120Fearing": 6908, "pedagogical": 6909, "\u0120Ramanujan": 6910, "\u0120prospector": 6911, "Mac": 6912, "tastic": 6913, "\u0120attractor": 6914, "\u0120EIR": 6915, "HO": 6916, "\u0120Batten": 6917, "j\u00c5\u012f": 6918, "\u0120affection": 6919, "\u0120readmitted": 6920, "\u0120prolongation": 6921, "believe": 6922, "1550": 6923, "\u0120cycl": 6924, "\u0120clotting": 6925, "correct": 6926, "\u0120precedent": 6927, "||+": 6928, "\u0120alcohols": 6929, "\u0120Margret": 6930, "waste": 6931, "Institut": 6932, "\u0120absolutism": 6933, "\u0120sternly": 6934, "aqua": 6935, "pupil": 6936, "tainted": 6937, "\u0120pasting": 6938, "\u0120torpor": 6939, "\u0120ham": 6940, "Donate": 6941, "\u0120Zie": 6942, "\u0120curious": 6943, "zmann": 6944, "\u0120capable": 6945, "\u0120gentleness": 6946, "\u0120calligraphy": 6947, "virtuous": 6948, "Steiner": 6949, "Sit": 6950, "\u0120Bay": 6951, "\u0120incestuous": 6952, "\u01201996": 6953, "\u0120Nesbitt": 6954, "\u0120Quammen": 6955, "\u0120Bluefin": 6956, "\u0120Devereux": 6957, "\u0120Horizontal": 6958, "\u0120automating": 6959, "UCH": 6960, "\u0120Holyoake": 6961, "\u0120Willa": 6962, "\u0120Scherer": 6963, "\u01201180": 6964, "ICAO": 6965, "\u0120Castel": 6966, "\u0120vignettes": 6967, "\u0120Consulate": 6968, "\u0120provocations": 6969, "\u0120INTELLIGEN": 6970, "\u0120NAMI": 6971, "\u0120DeB": 6972, "logy": 6973, "\u0120AFA": 6974, "\u0120fusulinids": 6975, "\u0120Blackpool": 6976, "\u0120Knee": 6977, "\u0120wrangle": 6978, "Polygon": 6979, "\u0120Hathor": 6980, "\u0120Marton": 6981, "\u0120Wealthy": 6982, "\u0120blackwater": 6983, "\u0120misinterpreted": 6984, "Oedenkoven": 6985, "NCT": 6986, "saki": 6987, "\u0120Dust": 6988, "avid": 6989, "Hib": 6990, "\u0120Maccabaeus": 6991, "\u0120SRS": 6992, "\u0120Puppets": 6993, "\u0120analyzers": 6994, "\u0120sheer": 6995, "\u0120Railways": 6996, "Phillip": 6997, "\u0120caricatured": 6998, "\u0120callus": 6999, "Mild": 7000, "\u0120divulging": 7001, "\u0120Groot": 7002, "\u0120clout": 7003, "\u0120streetlights": 7004, "Rip": 7005, "\u0120workshop": 7006, "Atkins": 7007, "\u0120noises": 7008, "\u0120Homeopathy": 7009, "PESN": 7010, "original": 7011, "UNC": 7012, "Area": 7013, "\u0120GPRS": 7014, "\u0120initialized": 7015, "\u0120Coma": 7016, "Provided": 7017, "\u0120protections": 7018, "\u0120uprightness": 7019, "\u0120De": 7020, "welcome": 7021, "\u0120recommence": 7022, "\u0122": 7023, "\u0120inhalants": 7024, "\u0120incandescence": 7025, "\u0120replying": 7026, "\u0120indicate": 7027, "\u0120signers": 7028, "\u0120Gaunt": 7029, "Weather": 7030, "\u0120moondust": 7031, "\u0120Evenly": 7032, "ogy": 7033, "KD": 7034, "\u0120yaj\u00c3\u00b1opav\u00c4\u00ab\u00e1\u00b9\u0143a": 7035, "Widely": 7036, "\u0120tawdry": 7037, "\u0120summed": 7038, "meeting": 7039, "\u0120Chenna": 7040, "\u0120fa": 7041, "\u0120Craftsman": 7042, "\u0120keying": 7043, "\u0120\u00ef\u00ac\u0123rst": 7044, "\u0120whooshing": 7045, "RNAs": 7046, "\u0120soymilk": 7047, "\u0120GBS": 7048, "\u0120Era": 7049, "\u0120Biggers": 7050, "\u0120Tirol": 7051, "\u0120cauliflower": 7052, "\u0120\u00c3\u012b": 7053, "Switching": 7054, "\u0120jettisoned": 7055, "\u0120gen": 7056, "\u0120carpet": 7057, "\u0120Beis": 7058, "\u0120Lichen": 7059, "\u0120rapturous": 7060, "\u0120liaison": 7061, "ikoshi": 7062, "\u0120Yue": 7063, "\u0120city": 7064, "\u0120finery": 7065, "\u0120Acrobat": 7066, "\u0120Ec": 7067, "\u0120corruptions": 7068, "\u0120G\u00c3\u00b6ttingen": 7069, "elected": 7070, "\u0120Disciple": 7071, "\u0120charge": 7072, "\u0120refreshments": 7073, "Twilight": 7074, "1838": 7075, "riti": 7076, "\u0120REC": 7077, "\u0120excision": 7078, "\u0120LiPo": 7079, "\u0120strawberry": 7080, "Arch": 7081, "\u0120anoxic": 7082, "Usefulness": 7083, "\u0120imagined": 7084, "\u0120empirical": 7085, "\u0120epiphany": 7086, "\u0120Halpern": 7087, "\u0120runaways": 7088, "Wolf": 7089, "\u0120track": 7090, "Systems": 7091, "\u0120AAC": 7092, "\u0120Pens": 7093, "\u0120IMT": 7094, "\u0120Cassian": 7095, "\u0120covenants": 7096, "ozoites": 7097, "\u0120Dimensional": 7098, "\u0120kHz": 7099, "\u0120wavelengths": 7100, "\u0120prior": 7101, "\u0120Methodism": 7102, "\u0120Lust": 7103, "\u0120sonnets": 7104, "\u0120Batista": 7105, "\u0120modesty": 7106, "\u0120baffle": 7107, "jic": 7108, "\u0120terror": 7109, "\u0120Bhag": 7110, "\u0120trainer": 7111, "ISM": 7112, "\u00c9\u013bs": 7113, "\u0120catalogues": 7114, "deck": 7115, "Mou": 7116, "\u0120Apollos": 7117, "\u0120west": 7118, "\u0120Locator": 7119, "\u0120transgressions": 7120, "\u0120cleanest": 7121, "\u0120Ryukyu": 7122, "Striking": 7123, "\u0120pronouns": 7124, "\u0120soggy": 7125, "Previously": 7126, "decide": 7127, "\u0120triggers": 7128, "pre": 7129, "Rev": 7130, "\u0120UNESCO": 7131, "\u0120Allegretto": 7132, "prize": 7133, "\u0120Tiruchy": 7134, "\u0120mustering": 7135, "\u0120tendon": 7136, "\u0120Guerriere": 7137, "\u0120Speed": 7138, "\u0120blaming": 7139, "Awesome": 7140, "\u0120Combat": 7141, "\u0120Agribusiness": 7142, "ochi": 7143, "git": 7144, "baugh": 7145, "\u0120homeschooled": 7146, "Davis": 7147, "\u0120Pong": 7148, "MacDonald": 7149, "\u0120twist": 7150, "\u0120migrants": 7151, "\u0120Nawaz": 7152, "hosts": 7153, "\u0120coloured": 7154, "\u0120Fake": 7155, "\u0120(*": 7156, "\u0120Mouse": 7157, "\u0120kyphosis": 7158, "+": 7159, "sch": 7160, "\u0120transnational": 7161, "\u0120Thimerosal": 7162, "\u0120Mamm": 7163, "\u0120Darlington": 7164, "Mode": 7165, "invention": 7166, "\u0120Paramahamsa": 7167, "\u0120Employed": 7168, "\u0120username": 7169, "\u0120installs": 7170, "\u0120Waltz": 7171, "\u0120Werewolf": 7172, "\u0120dem": 7173, "\u0120espousing": 7174, "\u0120inserting": 7175, "\u0120mycorrhizae": 7176, "Educate": 7177, "\u0120AERODESPACHOS": 7178, "\u0120Iverson": 7179, "Cla": 7180, "\u0120viewer": 7181, "Economic": 7182, "\u0120optically": 7183, "\u0120orchids": 7184, "\u0120skyscraper": 7185, "\u0120choir": 7186, "\u0120McCurdy": 7187, "Melanie": 7188, "\u0120academics": 7189, "697": 7190, "\u0120Packed": 7191, "\u0120Viewed": 7192, "\u0120Buenos": 7193, "\u0120Pisanello": 7194, "results": 7195, "\u0120purveyor": 7196, "1945": 7197, "\u0120Engineering": 7198, "dsen": 7199, "leb": 7200, "893": 7201, "\u0120tempers": 7202, "\u0120Agust\u00c3\u0143n": 7203, "\u0120Gda\u00c5\u0126sk": 7204, "\u0120petrol": 7205, "\u0120Cli": 7206, "\u0120roadway": 7207, "Size": 7208, "scheme": 7209, "\u0120clearing": 7210, "Comprehensive": 7211, "OLA": 7212, "\u0120533": 7213, "\u0120flavanol": 7214, "\u0120marvelously": 7215, "\u0120Olszewski": 7216, "petit": 7217, "Grapefruit": 7218, "\u0120ed": 7219, "\u0120Chestnut": 7220, "\u0120Azeris": 7221, "\u0120renting": 7222, "Hos": 7223, "W": 7224, "\u0120menhaden": 7225, "Dedicated": 7226, "\u0120Brookfield": 7227, "\u0120sto": 7228, "\u0120lens": 7229, "\u00e0\u00a4\u00be": 7230, "\u0120surf": 7231, "\u0120decorating": 7232, "397": 7233, "\u0120sweeteners": 7234, "Connell": 7235, "Sleep": 7236, "\u0120Eilat": 7237, "Anat": 7238, "\u0120pivotal": 7239, "\u0120teleportation": 7240, "\u0120Sherif": 7241, "\u0120sharps": 7242, "\u0120parrot": 7243, "\u0120Strathcona": 7244, "\u0120unforgiving": 7245, "\u0120asceticism": 7246, "\u0120Diary": 7247, "\u0120Acidification": 7248, "\u0120deviations": 7249, "\u0120FactFinder": 7250, "\u0120Jaime": 7251, "\u0120trem": 7252, "\u0120fleeing": 7253, "\u0120zap": 7254, "\u0120Ants": 7255, "\u0120UH": 7256, "\u0120planter": 7257, "\u0120erythrocyte": 7258, "\u0120conversely": 7259, "watermelon": 7260, "\u0120Coaching": 7261, "\u0120conflated": 7262, "Grid": 7263, "Pastoral": 7264, "\u0120FI": 7265, "\u0120pulley": 7266, "Winters": 7267, "\u0120Ashkelon": 7268, "Defense": 7269, "\u0120stylistically": 7270, "\u0120Forage": 7271, "\u0120lethal": 7272, "\u0120PRINCIPLE": 7273, "\u0120landfilling": 7274, "\u0120Kam": 7275, "books": 7276, "\u0120LHS": 7277, "\u0120Qajar": 7278, "\u00e2\u0128\u0132": 7279, "\u0120balsa": 7280, "Luckily": 7281, "Inherited": 7282, "\u0120kinsman": 7283, "Lehtinen": 7284, "\u0120tosses": 7285, "Acquisition": 7286, "\u0120mercenaries": 7287, "retion": 7288, "\u0120infiltration": 7289, "\u0120Posted": 7290, "Batrachochytrium": 7291, "tary": 7292, "\u0120Cappadocia": 7293, "Olds": 7294, "\u0120sophomores": 7295, "\u0120Plasmodium": 7296, "ARP": 7297, "\u0120holds": 7298, "idle": 7299, "\u0120misbehaving": 7300, ",....": 7301, "\u0120needn": 7302, "\u0120heck": 7303, "profits": 7304, "\u0120galley": 7305, "\u0120Alignment": 7306, "\u0120masonic": 7307, "...[": 7308, "\u0120Queensland": 7309, "\u0120pu": 7310, "\u0120Gothenburg": 7311, "\u0120Twisted": 7312, "Ignition": 7313, "\u0120underpinnings": 7314, "\u00d1\u012b": 7315, "\u0120foregoing": 7316, "must": 7317, "\u0120Volks": 7318, "\u0120Predator": 7319, "jek": 7320, "\u0120Sabin": 7321, "\u0120Impedance": 7322, "\u0120Observations": 7323, "\u0120flight": 7324, "\u0120Liz": 7325, "\u0120Frameworks": 7326, "obium": 7327, "\u0120Redefining": 7328, "\u0120tumour": 7329, "newspaper": 7330, "forcing": 7331, "further": 7332, "fraud": 7333, "\u0120Ends": 7334, "\u0120biologists": 7335, "\u0120OF": 7336, "pairs": 7337, "\u0120Caxton": 7338, "\u0120nucleated": 7339, "grained": 7340, "xanthine": 7341, "\u0120CCH": 7342, "\u0120focal": 7343, "bugs": 7344, "\u01201849": 7345, "\u0120glutamine": 7346, "aney": 7347, "\u0120refrigerate": 7348, "\u0120thermogravimetric": 7349, "\u0120Kambojas": 7350, "\u0120trait": 7351, "\u0120CBE": 7352, "\u0120inlays": 7353, "Alfred": 7354, "\u0120koine": 7355, "capture": 7356, "\u0120cochlea": 7357, "\u0120Eunice": 7358, "\u0120Buller": 7359, "pard": 7360, "Arguments": 7361, "ferment": 7362, "\u0120Flavonoids": 7363, "\u0120Emery": 7364, "\u0120surreptitiously": 7365, "\u0120subordinates": 7366, "\u0120complementary": 7367, "\u0120kindling": 7368, "rck": 7369, "iad": 7370, "\u0120kana": 7371, "dip": 7372, "\u0120account": 7373, "\u0120unsettled": 7374, "\u0120comarcas": 7375, "\u0120Zeffirelli": 7376, "\u0120Coll": 7377, "1490": 7378, "\u0120allocation": 7379, "rrhoea": 7380, "\u0120flax": 7381, "oak": 7382, "\u0120dna": 7383, "\u0120enforcing": 7384, "\u0120lover": 7385, "Cultivation": 7386, "Fate": 7387, "\u0120sick": 7388, "iata": 7389, "\u0120quail": 7390, "\u0120Scene": 7391, "\u0120tyrosine": 7392, "\u0120rituximab": 7393, "\u0120pacifists": 7394, "\u0120RBMK": 7395, "\u0120icosahedron": 7396, "nuclear": 7397, "\u0120Pyr": 7398, "\u0120collective": 7399, "\u0120metatarsal": 7400, ";": 7401, "\u0120\u00c5\u013cak\u00e1\u00b9\u0143i": 7402, "\u0120Digit": 7403, "\u0120VIRUS": 7404, "\u0120Monsanto": 7405, "\u0120causing": 7406, "\u0120leprosy": 7407, "\u0120orbited": 7408, "\u0120DirectX": 7409, "\u0120Proposal": 7410, "\u0120Babur": 7411, "\u0120Fresnel": 7412, "\u0120Marvin": 7413, "\u0120Scattered": 7414, "\u0120enumerate": 7415, "\u0120USN": 7416, "\u0120strategists": 7417, "\u0120IUPAC": 7418, "Hunter": 7419, "\u0120sagging": 7420, "\u0120Peshkova": 7421, "\u0120douche": 7422, "cod": 7423, "\u0120amends": 7424, "\u0120Gama": 7425, "\u0120unpacked": 7426, "\u0120TCGA": 7427, "\u0120interior": 7428, "\u0120rung": 7429, "\u0120Gas": 7430, "folder": 7431, "\u0120MFG": 7432, "\u0120Geoffrey": 7433, "pire": 7434, "\u0120Levitical": 7435, "\u0120Holstein": 7436, "\u0120Duplessis": 7437, "\u0120DV": 7438, "D\u00c3\u00a1il": 7439, "\u0120Dhaka": 7440, "\u0120Buonarroti": 7441, "\u0120demilitarization": 7442, "PRO": 7443, "\u0120fiefs": 7444, "\u0120inspections": 7445, "\u0120Antiquarian": 7446, "\u0120McKnight": 7447, "\u0120tRNA": 7448, "\u0120handicrafts": 7449, "Securing": 7450, "stressing": 7451, "\u0120blanks": 7452, "nt": 7453, "\u0120\u00eb\u00b6\u0123\u00ed\u0137\u013e\u00ed\u0137\u00b5": 7454, "idean": 7455, "\u0120wimp": 7456, "166": 7457, "wold": 7458, "\u0120skyscrapers": 7459, "\u0120shirts": 7460, "\u0120Cyclone": 7461, "Lob": 7462, "koku": 7463, "\u0120panes": 7464, "\u0120luminescence": 7465, "cen": 7466, "\u0120PAY": 7467, "\u0120Dudley": 7468, "\u0120backup": 7469, "Leste": 7470, "\u0120heirs": 7471, "\u0120couriers": 7472, "\u0120likely": 7473, "\u0120seb": 7474, "\u0120perpetrators": 7475, "\u01201122": 7476, "\u0120advantaged": 7477, "uran": 7478, "Silver": 7479, "\u0120slowness": 7480, "\u0120Vijaya": 7481, "\u0120Duryodhana": 7482, "\u0120mathematic": 7483, "\u0120Tellinimera": 7484, "\u0120farms": 7485, "\u00d0\u0136": 7486, "\u0120Seeger": 7487, "\u0120Leung": 7488, "\u0120theologically": 7489, "\u0120pronouncements": 7490, "\u0120Thromb": 7491, "\u0120Erwin": 7492, "\u0120synovial": 7493, "intuitive": 7494, "\u0120eigrp": 7495, "\u0120Even": 7496, "\u0120begrudg": 7497, "meaningful": 7498, "385": 7499, "\u0120kjv": 7500, "\u0120CHEM": 7501, "\u0120Communicate": 7502, "hut": 7503, "\u0120pursuers": 7504, "\u0120pallets": 7505, "bap": 7506, "\u0120363": 7507, "informatics": 7508, "\u00d0\u00b4": 7509, "\u0120Bleak": 7510, "\u0120Universities": 7511, "\u0120USS": 7512, "\u0120variably": 7513, "\u0120Ramsey": 7514, "\u0120unrest": 7515, "\u0120recourse": 7516, "Unemployment": 7517, "\u0120Mild": 7518, "%=": 7519, "receive": 7520, "\u0120Cav": 7521, "\u0120Ong": 7522, "wana": 7523, "HUMAN": 7524, "\u0120disenfranchised": 7525, "Path": 7526, "\u0120ge": 7527, "erlang": 7528, "harvested": 7529, "\u0120tarp": 7530, "lton": 7531, "quoting": 7532, "\u0120honoured": 7533, "\u0120misspelling": 7534, "\u0120Cout": 7535, "\u0120ketones": 7536, "Clara": 7537, "Platelets": 7538, "\u0120Inanna": 7539, "\u0120alternator": 7540, "\u0120constructor": 7541, "absorbing": 7542, "\u0120Biographies": 7543, "\u0120impermanence": 7544, "Clothes": 7545, "\u0120toolkit": 7546, "du": 7547, "chamber": 7548, "Heinlein": 7549, "\u0120Dub": 7550, "\u0120liquor": 7551, "\u0120listed": 7552, "copper": 7553, "\u0120leaf": 7554, "LEED": 7555, "\u0120Obsidian": 7556, "\u0120713": 7557, "\u0120Kiva": 7558, "\u0120Coyotes": 7559, "\u0120doctrine": 7560, "priority": 7561, "\u0120blazons": 7562, "\u0120Nestl\u00c3\u00a9": 7563, "\u0120MVD": 7564, "Cory": 7565, "\u0120jury": 7566, "Ris": 7567, "Austro": 7568, "Brennan": 7569, "\u0120marksman": 7570, "throw": 7571, "\u0120dazzling": 7572, "\u01201744": 7573, "\u0120mulatto": 7574, "Finding": 7575, "Generic": 7576, "\u0120has": 7577, "2007": 7578, "\u0120thesis": 7579, "\u0120Trevelyan": 7580, "\u0120Mk": 7581, "invasive": 7582, "\u0120Destinations": 7583, "\u0120COLUMN": 7584, "\u0120Rape": 7585, "\u0120Khuzestan": 7586, "\u0120MBANs": 7587, "\u0120Essai": 7588, "\u0120Matth\u00c3\u00a4us": 7589, "\u0120tote": 7590, "flowered": 7591, "\u0120Land": 7592, "\u0120startling": 7593, "\u0120Apprentice": 7594, "dpi": 7595, "\u0120rhythmically": 7596, "\u0120Xlib": 7597, "\u0120Mervyn": 7598, "\u0120freshmen": 7599, "\u0120varsity": 7600, "\u0120piecewise": 7601, "cycl": 7602, "\u0120cortisone": 7603, "\u0120inhomogeneity": 7604, "PKU": 7605, "ardo": 7606, "\u0120Stewart": 7607, "\u0120Milk": 7608, "C\u00c3\u00a9sar": 7609, "planning": 7610, "\u0120Boys": 7611, "\u0120revive": 7612, "1593": 7613, "\u0120frescoes": 7614, "\u0120Consequence": 7615, "\u0120Philemon": 7616, "\u0120midnight": 7617, "\u0120Syndrome": 7618, "\u0120Hira\u00e1\u00b9\u0129yagarbha": 7619, "beautiful": 7620, "\u0120intimation": 7621, "\u0120McCausland": 7622, "\u0120Oxfam": 7623, "\u0120unforeseeable": 7624, "\u0120Mortal": 7625, "CLASS": 7626, "VB": 7627, "\u0120Typhoon": 7628, "derived": 7629, "\u0120PQHA": 7630, "\u0120Hyades": 7631, "\u0120Acro": 7632, "\u0120Deh": 7633, "\u0120Won": 7634, "\u0120aerospace": 7635, "Massive": 7636, "\u0120whiplash": 7637, "\u0120irresistibly": 7638, "huffingtonpost": 7639, "\u0120degradable": 7640, "\u0120Sadducean": 7641, "Hydrogen": 7642, "Castro": 7643, "\u0120terre": 7644, "\u0120Caya": 7645, "\u0120Andorra": 7646, "Version": 7647, "\u0120Technologists": 7648, "\u0120judgement": 7649, "Tolstoy": 7650, "\u0120Draupadi": 7651, "\u0120incoordination": 7652, "Mul": 7653, "\u0120Royalty": 7654, "Cushing": 7655, "\u01201295": 7656, "\u0120periphery": 7657, "\u0120pulsations": 7658, "iyah": 7659, "\u0120centipedes": 7660, "\u0120Hormuz": 7661, "\u0120funicular": 7662, "blatt": 7663, "\u0120FAS": 7664, "\u0120Rickettsia": 7665, "\u0120claimed": 7666, "\u0120Fionghuine": 7667, "substitution": 7668, "\u0120cared": 7669, "\u0120despu\u00c3\u00a9s": 7670, "\u0120Disrupting": 7671, "\u0120TTL": 7672, "\u0120mandated": 7673, "\u0120adults": 7674, "explore": 7675, "\u0120sowed": 7676, "CIN": 7677, "less": 7678, "194": 7679, "\u0120overweight": 7680, "\u0120Personality": 7681, "\u0120rigidly": 7682, "Freedmen": 7683, "\u0120mut": 7684, "\u0120sd": 7685, "\u0120Willing": 7686, "distribute": 7687, "\u0120billions": 7688, "\u0120fla": 7689, "\u0120caption": 7690, "\u0120bn": 7691, "\u0120Vox": 7692, "\u0120Russell": 7693, "\u0120Shoshone": 7694, "egen": 7695, "EA": 7696, "\u0120aquarists": 7697, "\u0120Sloboda": 7698, "\u0120predictors": 7699, "\u0120Geothermal": 7700, "\u0120Bhuvan": 7701, "Pursuing": 7702, "Naming": 7703, "\u0120Alopecia": 7704, "\u0120Aftermath": 7705, "\u0120Monitors": 7706, "\u0120Morning": 7707, "\u0120gantry": 7708, "minimal": 7709, "\u0120Leuven": 7710, "ae": 7711, "\u0120epicenter": 7712, "\u0120prostheses": 7713, "\u0120Asir": 7714, "\u0120adjectival": 7715, "\u0120vesicular": 7716, "DIVERSITY": 7717, "\u0120Gentiles": 7718, "\u0120Templar": 7719, "Open": 7720, "\u0120extol": 7721, "\u0120spurs": 7722, "\u0120academy": 7723, "\u0120Settle": 7724, "\u0120Junior": 7725, "\u0120curry": 7726, "\u0120annulment": 7727, "\u0120plexopathy": 7728, "\u0120radiosonde": 7729, "\u0120catadioptric": 7730, "\u0120exons": 7731, "\u0120kol": 7732, "\u0120GPIO": 7733, "Treasures": 7734, "\u0120Wij": 7735, "647": 7736, "\u0120deceit": 7737, "\u0120TRAVEL": 7738, "ifolius": 7739, "\u0120Authorization": 7740, "understand": 7741, "\u0120APRIL": 7742, "ABL": 7743, "\u00e2\u0122\u00b3.": 7744, "\u0120deaf": 7745, "Bonnie": 7746, "\u0120Freshwater": 7747, "BODY": 7748, "maintained": 7749, "\u0120tubes": 7750, "\u0120olfactory": 7751, "1348": 7752, "\u0120sandbox": 7753, "\u0120tortures": 7754, "\u0120Uncyclopedia": 7755, "\u0120Cubic": 7756, "\u0120Bachman": 7757, "\u0120learned": 7758, "\u0120matriarchy": 7759, "\u0120recurrence": 7760, "\u0120persuasions": 7761, "\u0120psychologically": 7762, "\u0120225": 7763, "-)": 7764, "icy": 7765, "Antwerp": 7766, "Four": 7767, "\u0120Virgin": 7768, "acin": 7769, "CHICAGO": 7770, "\u0120liqueur": 7771, "CREDIT": 7772, "\u0120FAMILY": 7773, "\u0120Panzer": 7774, "\u0120distal": 7775, "\u0120minnows": 7776, "\u0120simplifications": 7777, "\u0120sounded": 7778, "\u0120wheeze": 7779, "\u0120longbow": 7780, "\u0120Corrigan": 7781, "fluoridation": 7782, "\u0120chronicles": 7783, "\u0120Observer": 7784, "\u0120earshot": 7785, "\u0120Templars": 7786, "\u0120infantrymen": 7787, "tention": 7788, "\u0120courtrooms": 7789, "Bea": 7790, "Upper": 7791, "\u0120Gosnell": 7792, "\u0120NiCd": 7793, "Crawford": 7794, "\u0120adjournment": 7795, "\u0120hive": 7796, "\u0120cerebral": 7797, "IGF": 7798, "Sad": 7799, "\u0120RPS": 7800, "Woman": 7801, "\u0120polymeric": 7802, "Uralic": 7803, "POL": 7804, "\u0120Jennings": 7805, "inetd": 7806, "letion": 7807, "Tricho": 7808, "\u0120pinnipeds": 7809, ")!": 7810, "\u0120Chiang": 7811, "L\u00c3\u00a1szl\u00c3\u00b3": 7812, "\u0120restricted": 7813, "mortal": 7814, "Reckless": 7815, "pi": 7816, "Christian": 7817, "KER": 7818, "\u0120corrections": 7819, "LAN": 7820, "\u0120forlorn": 7821, "\u0120Plutarch": 7822, "Ton": 7823, "\u00c3\u00aas": 7824, "\u0120constituency": 7825, "iga": 7826, "\u0120geosynchronous": 7827, "\u01201601": 7828, "\u0120Hamad": 7829, "\u0120publicity": 7830, "\u0120photoperiod": 7831, "Kant": 7832, "\u0120PROCESS": 7833, "\u0120Janet": 7834, "zug": 7835, "\u0120offsets": 7836, "\u0120Sta": 7837, "\u0120Visits": 7838, "\u0120Yayoi": 7839, "\u0120Delicious": 7840, "Houzel": 7841, "\u0120Papyri": 7842, "\u0120horoscope": 7843, "\u0120Bijapur": 7844, "\u0120locally": 7845, "vulnerability": 7846, "alarm": 7847, "\u00c2\u00a6": 7848, "\u0120antagonism": 7849, "good": 7850, "Need": 7851, "LOCATION": 7852, "\u0120Coos": 7853, "\u0120USEPA": 7854, "\u0120diagonally": 7855, "\u0120filariasis": 7856, "\u0120premenopausal": 7857, "\u0120Fie": 7858, "\u0120auction": 7859, "\u0120Sepik": 7860, "\u0120anthropoid": 7861, "Separate": 7862, "\u0120predominating": 7863, "amongst": 7864, "gab": 7865, "\u0120Spectrum": 7866, "\u0120encroach": 7867, "\u0120HPSS": 7868, "\u0120Strictly": 7869, "\u0120disjunction": 7870, "\u0120disorganized": 7871, "\u0120pluripotent": 7872, "\u0120Giang": 7873, "\u0120veterans": 7874, "evangel": 7875, "\u0120Ostara": 7876, "\u0120curated": 7877, "\u0120lawmaker": 7878, "urgent": 7879, "\u0120\u00e1\u00b8\u00a4asidean": 7880, "\u0120intuitive": 7881, "\u0120Kertesz": 7882, "\u0120seep": 7883, "\u0120steadily": 7884, "\u0120infibulation": 7885, "\u0120pneum": 7886, "\u0120extractor": 7887, "\u0120Leitner": 7888, "\u0120diocese": 7889, "1047": 7890, "\u0120Salford": 7891, "\u0120babies": 7892, "\u0120Tsimane": 7893, "]\"": 7894, "\u0120disastrous": 7895, "issen": 7896, "communicate": 7897, "\u0120Frappier": 7898, "\u0120avg": 7899, "\u0120OEP": 7900, "\u0120pterygoid": 7901, "\u0120Hernandez": 7902, "Gal": 7903, "\u0120Wisdom": 7904, "\u0120Nuttall": 7905, "Potter": 7906, "\u0120penicillin": 7907, "\u0120derivative": 7908, "\u0120miserliness": 7909, "\u0120Vilas": 7910, "\u0120Bhikkhu": 7911, "locks": 7912, "!),": 7913, "\u0120vort": 7914, "\u0120sexes": 7915, "\u0120peacetime": 7916, "\u0120mani": 7917, "\u0120Rosecrans": 7918, "\u0120Naftali": 7919, "\u0120cone": 7920, "\u0120glee": 7921, "\u0120\u00e8\u00b6\u012c\u00e6\u00b8\u0129\u00e7\u00a3\u00a8\u00e5": 7922, "\u0120Ud": 7923, "\u0120stray": 7924, "\u0120sequentially": 7925, "\u0120parses": 7926, "\u0120Ordained": 7927, "\u0120insisted": 7928, "\u0120lucrative": 7929, "\u0120dearly": 7930, "sonii": 7931, "\u0120OCA": 7932, "\u0120conflagration": 7933, "BA": 7934, "\u0120haze": 7935, "\u0120Coins": 7936, "bul": 7937, "\u0120yields": 7938, "\u0120darker": 7939, "\u0120entitlements": 7940, "\u0120such": 7941, "nous": 7942, "\u0120advertises": 7943, "\u0120tombstones": 7944, "audience": 7945, "Converting": 7946, "\u0120Longevity": 7947, "Term": 7948, "\u0120fickle": 7949, "\u0120takings": 7950, "codified": 7951, "Mechanisms": 7952, "\u0120brominated": 7953, "dor": 7954, "\u0120Hudgins": 7955, "\u0120Rachel": 7956, "gee": 7957, "\u0120Tectonics": 7958, "\u0120silence": 7959, "Ambassador": 7960, "\u0120sultry": 7961, "\u0120Martians": 7962, "\u0120perpetual": 7963, "Surprise": 7964, "flexion": 7965, "\u0120allocations": 7966, "\u0120Rh": 7967, "Hoover": 7968, "\u0120Paroulakis": 7969, "\u0120takers": 7970, "\u0120Khanty": 7971, "imagine": 7972, "cup": 7973, "\u0120pondering": 7974, "\u0120coarsest": 7975, "\u0120645": 7976, "\u0120Tilden": 7977, "\u0120Chit": 7978, "\u0120escalators": 7979, "pilgrim": 7980, "\u0120Chimpanzees": 7981, "\u0120physiologically": 7982, "\u0120kidneys": 7983, "\u0120arugula": 7984, "\u0120overlord": 7985, "\u0120River": 7986, "\u0120nastiest": 7987, "\u0120Roi": 7988, "\u0120primitives": 7989, "\u0120effectively": 7990, "\u0120misophonia": 7991, "\u0120polygamy": 7992, "\u0120ng": 7993, "Farmer": 7994, "\u0120Enslaved": 7995, "\u0120heeding": 7996, "verb": 7997, "enet": 7998, "\u0120Locata": 7999, "Benghazi": 8000, "\u0120unpaired": 8001, "\u0120fluminea": 8002, "\u0120bolt": 8003, "\u0120Chapelle": 8004, "\u0120238": 8005, "\u0120discolored": 8006, "\u0120collaboration": 8007, "\u0120condense": 8008, "\u00e4\u00b8\u0143\u00e5\u013d\u00bd\u00e9\u0122\u0141\u00e8\u00ae\u00b0": 8009, "Elements": 8010, "\u0120laying": 8011, "aparte": 8012, "\u0120bookkeeping": 8013, "\u0120gendarme": 8014, "\u0120stockade": 8015, "\u0120Tern": 8016, "\u0120aquariums": 8017, "\u0120headlines": 8018, "\u0120scapularis": 8019, "\u0120Bag": 8020, "mind": 8021, "\u0120('": 8022, "\u0120Huggins": 8023, "\u0120Deception": 8024, "\u0120fisheries": 8025, "\u00e2\u0122\u00a6?": 8026, "Spence": 8027, "\u0120inmate": 8028, "Contamination": 8029, "\u0120Pettis": 8030, "\u0120Pele": 8031, "\u0120cruelly": 8032, "term": 8033, "\u0120rafter": 8034, "\u0120kinetophone": 8035, "TEXT": 8036, "\u0120January": 8037, "centres": 8038, "Prepare": 8039, "\u0120tularemia": 8040, "\u0120Clovis": 8041, "\u0120brindle": 8042, "\u0120legislative": 8043, "Publications": 8044, "Maharashtra": 8045, "shift": 8046, "\u0120Phenomena": 8047, "\u0120Miku": 8048, "educated": 8049, "'ll": 8050, "Cattle": 8051, "\u0120theirs": 8052, "Send": 8053, "\u0120leeks": 8054, "\u0120soaps": 8055, "\u0120teamed": 8056, "\u0120Philosophers": 8057, "\u0120Matisse": 8058, "Hercules": 8059, "\u0120Salamanca": 8060, "\u0120Twilight": 8061, "\u0120Marine": 8062, "\u013e": 8063, "internal": 8064, "\u0120gradation": 8065, "Scripture": 8066, "ceded": 8067, "\u0120Oryza": 8068, "\u0120Angad": 8069, "\u0120Alaska": 8070, "\u0120experimenter": 8071, "49": 8072, "890": 8073, "\u0120OED": 8074, "\u0120Metropolitan": 8075, "\u0120befitting": 8076, "\u0120Snider": 8077, "\u0120glitches": 8078, "\u0120estate": 8079, "Intra": 8080, "\u0120Bbl": 8081, "\u0120unison": 8082, "Fukushima": 8083, "\u0120marmot": 8084, "\u0120Riches": 8085, "parse": 8086, "\u0120Ohangwena": 8087, "communal": 8088, "Forensic": 8089, "\u0120Pearls": 8090, "tronic": 8091, "\u0120airman": 8092, "\u0120Robins": 8093, "\u0120amplify": 8094, "\u0120Predicting": 8095, "\u0120Flycatcher": 8096, "\u0120Tigris": 8097, "necessary": 8098, "\u0120loop": 8099, "Oliver": 8100, "\u0120Judean": 8101, "\u0120repetition": 8102, "\u0120Nelly": 8103, "\u0120Mehdi": 8104, "\u0120Miha": 8105, "\u0120communists": 8106, "\u0120capsid": 8107, "lands": 8108, "\u0120invalid": 8109, "\u0120ERS": 8110, "phagia": 8111, "\u0120Card": 8112, "\u0120Kosovar": 8113, "guitar": 8114, "\u0120codons": 8115, "Spa": 8116, "\u0120PRIVATE": 8117, "\u0120Applied": 8118, "\u0120preventing": 8119, "\u0120Cu": 8120, "531": 8121, "\u0120Cama": 8122, "\u0120averaging": 8123, "\u0120Circum": 8124, "\u0120Blitzkreig": 8125, "graf": 8126, "countable": 8127, "\u0120remix": 8128, "\u0120geysers": 8129, "\u0120Rafael": 8130, "\u00d0\u00bd\u00d1\u012d": 8131, "\u0120Narcotics": 8132, "\u0120sew": 8133, "eseler": 8134, "\u0120sunbathe": 8135, "Earn": 8136, "\u0120Amba": 8137, "\u0120sauna": 8138, "\u0120merges": 8139, "\u0120Trovagene": 8140, "\u0120Deletion": 8141, "\u0120Nellie": 8142, "\u0120cheerleaders": 8143, "participation": 8144, "\u0120oilsands": 8145, "oked": 8146, "cello": 8147, "\u0120sonata": 8148, "Difficulties": 8149, "\u0120Avail": 8150, "\u0120exacerbation": 8151, "\u0120Picking": 8152, "iches": 8153, "Spanish": 8154, "\u0120psalms": 8155, "\u0120bourgeoisie": 8156, "\u0120Bara": 8157, "Write": 8158, "\u0120Tulu": 8159, "\u0120remission": 8160, "rc": 8161, "Close": 8162, "\u0120SLPs": 8163, "Antibiotics": 8164, "\u0120tshawytscha": 8165, "\u0120emanate": 8166, "\u0120commutes": 8167, "sburg": 8168, "\u0120demolition": 8169, "\u0120Kluge": 8170, "Shema\u00ca\u00bb\u00ca\u00bcilov": 8171, "\u0120Cybernetics": 8172, "\u0120Sonder": 8173, "\u0120Socal": 8174, "\u0120perks": 8175, "\u0120perseverance": 8176, "Pole": 8177, "\u0120Basarwa": 8178, "\u0120covet": 8179, "\u0120Sober": 8180, "\u0120fishery": 8181, "Guides": 8182, "Decreased": 8183, "\u0120Punxsutawney": 8184, "mas": 8185, "\u0120spew": 8186, "\u0120Comfort": 8187, "Bonn": 8188, "\u0120Unported": 8189, "\u0120Guiguzi": 8190, "hib": 8191, "ntino": 8192, "MES": 8193, ",\u00e2\u0122\u013b": 8194, "\u0120unveil": 8195, "\u0120leaky": 8196, "Oc": 8197, "\u0120Laryng": 8198, "\u0120Henshilwood": 8199, "\u0120macromolecules": 8200, "\u0120BoGolight": 8201, "\u0120CROSS": 8202, "\u0120Quin": 8203, "\u0120ADC": 8204, "\u0120Abdulaziz": 8205, "\u0120tat": 8206, "\u0120windings": 8207, "\u0120contact": 8208, "\u0120nominees": 8209, "\u0120increase": 8210, "\u0120unquestionably": 8211, "entitled": 8212, "\u0120Bhargava": 8213, "\u00e1\u00b9\u0143\u00e1\u00b9\u0143a": 8214, "resembl": 8215, "\u00c3\u0124": 8216, "\u0120likenesses": 8217, "mantle": 8218, "\u0120defendants": 8219, "\u0120Pagana": 8220, "\u0120preconditions": 8221, "names": 8222, "runners": 8223, "WORTH": 8224, "Deutsche": 8225, "\u0120Voivodeship": 8226, "\u0120Glamorgan": 8227, "\u0120290": 8228, "\u0120Coriolis": 8229, "\u0120Rodrigo": 8230, "\u0120Kimball": 8231, "\u0120Schmid": 8232, "oco": 8233, "\u0120diarrhoeal": 8234, "\u0120Schuschnigg": 8235, "\u0120foretell": 8236, "otho": 8237, "\u0120Klansmen": 8238, "\u0120Hybrids": 8239, "gabe": 8240, "KALETRA": 8241, "\u0120Chadwick": 8242, "\u0120CPT": 8243, "\u0120edicts": 8244, "\u0120inequality": 8245, "\u0120interrupt": 8246, "\u0120transdisciplinary": 8247, "\u0120Manuscript": 8248, "\u0120TIFR": 8249, "\u0120subliminal": 8250, "homa": 8251, "\u0120OPERA": 8252, "\u0120ODBC": 8253, "\u0120slices": 8254, "\u0120forecasters": 8255, "\u0120Assistance": 8256, "\u0120Vitruvius": 8257, "\u0120\u00c4\u0122\u00e1\u00b9\u0143ma": 8258, "ebel": 8259, "\u0120Atopic": 8260, "\u0120reception": 8261, "Basis": 8262, "oc": 8263, "\u0120cyclic": 8264, "\u0120additives": 8265, "\u0120butterflyfish": 8266, "\u0120Sarajevo": 8267, "\u0120impermeable": 8268, "\u0120amoebas": 8269, "\u0120irretrievable": 8270, "\u0120distribu": 8271, "Sen": 8272, "\u00d8\u00ae\u00d9\u012a\u00d8\u00a7\u00d8\u00b1\u00d8\u00b2\u00d9\u0127": 8273, "\u0120smarter": 8274, "\u0120peatland": 8275, "argon": 8276, "\u0120Enterprise": 8277, "\u0120prosthetic": 8278, "\u0120Cottage": 8279, "\u0120Alumni": 8280, "\u0120affordability": 8281, "\u0120Erg\u00c3\u00a4nzung": 8282, "\u0120utero": 8283, "\u0120Kimber": 8284, "ds": 8285, "PIERRE": 8286, "\u0120allure": 8287, "\u0120Grouping": 8288, "immense": 8289, "\u0120kayak": 8290, "\u0120protesters": 8291, "1980": 8292, "\u0120Dou": 8293, "\u0120disinfection": 8294, "\u0120stalactites": 8295, "\u0120galactose": 8296, "\u0120Technicians": 8297, "AML": 8298, "\u0120MSL": 8299, "\u0120implantation": 8300, "\u0120Sorrow": 8301, "NOAA": 8302, "Mills": 8303, "\u0120glorifies": 8304, "\u0120spectro": 8305, "Held": 8306, "\u0120cashing": 8307, "Encouraging": 8308, "\u0120Tops": 8309, "\u0120warmed": 8310, "\u0120nonsmokers": 8311, "\u0120fourteen": 8312, "qub": 8313, "\u0120dented": 8314, "^^": 8315, "\u0120ConcurrentSkipListSet": 8316, "\u0120reproductive": 8317, "\u0120Infantry": 8318, "\u0120referee": 8319, "\u0120flavour": 8320, "\u0120Andaman": 8321, "Metz": 8322, "IFN": 8323, "\u0120influxes": 8324, "\u0120galactic": 8325, "\u00e9\u0123\u0135": 8326, "Barbara": 8327, "Artillery": 8328, "\u0120LaCroix": 8329, "\u0120obsidian": 8330, "\u0120Schramm": 8331, "\u0120uproot": 8332, "\u0120DES": 8333, "\u0120WIC": 8334, "\u0120retrofit": 8335, "deci": 8336, "\u0120dosing": 8337, "\u0120Deutero": 8338, "\u0120REE": 8339, "\u0120adrenalin": 8340, "somehow": 8341, "\u0120sanctum": 8342, "\u0120disbelievers": 8343, "\u0120functionalities": 8344, "GEF": 8345, "\u0120gl": 8346, "\u0120olive": 8347, "\u0120Durr": 8348, "\u0120Mitzvah": 8349, "friendship": 8350, "\u0120Gnetum": 8351, "\u0120Implants": 8352, "\u0120eggplants": 8353, "\u0120Dillon": 8354, "\u0120Uri": 8355, "pathname": 8356, "\u0120SURVIVAL": 8357, "eff": 8358, "Depression": 8359, "search": 8360, "\u0120ALSO": 8361, "\u0120little": 8362, "\u0120Lozano": 8363, "\u0120rigid": 8364, "\u0120make": 8365, "Being": 8366, "\u0120WEEK": 8367, "\u0120Throne": 8368, "\u0120disbanded": 8369, "\u0120R\u00c3\u00a9": 8370, "\u0120Listings": 8371, "\u0120B\u00c3\u00bcrgerbr\u00c3\u00a4u": 8372, "\u0120lag": 8373, "\u0120Spur": 8374, "mammalian": 8375, "sling": 8376, "\u0120bard": 8377, "\u01201698": 8378, "\u0120siren": 8379, "integrate": 8380, "\u0120BEGIN": 8381, "rowing": 8382, "'||": 8383, "6": 8384, "\u0120Ene": 8385, "Boer": 8386, "\u0120oxidase": 8387, "\u0120na": 8388, "\u0120stomp": 8389, "\u0120Obesity": 8390, "\u0120Bead": 8391, "\u0120Invasion": 8392, "\u0120bhikkhu": 8393, "\u0120hippopotamus": 8394, "preventable": 8395, "\u0120multistage": 8396, "\u0120textual": 8397, "\u0120reunification": 8398, "\u0120NIH": 8399, "\u0120131": 8400, "\u0120SURGERY": 8401, "\u0120Irradiation": 8402, "\u0120Supervisors": 8403, "\u0120Logie": 8404, "\u0120Tanna": 8405, "Accessibility": 8406, "\u0120Summit": 8407, "resonance": 8408, "\u0120din": 8409, "bbitt": 8410, "807": 8411, "\u0120Platoon": 8412, "\u0120reclassify": 8413, "\u0120Communicative": 8414, "neus": 8415, "\u0120circuses": 8416, "mutawatir": 8417, "\u0120indelible": 8418, "\u00c3\u00b1o": 8419, "\u0120aesthetically": 8420, "\u0120Hulme": 8421, "\u0120Survivors": 8422, "\u0120FAB": 8423, "\u0120Merced": 8424, "Trip": 8425, "\u0120Apple": 8426, "\u0120Munson": 8427, "\u0120licensing": 8428, "\u0120acidic": 8429, "Border": 8430, "sville": 8431, "\u0120Hamath": 8432, "\u0120dim": 8433, "\u0120curve": 8434, "\u0120Prejudice": 8435, "\u0120spectrophotometric": 8436, "\u0120interpretive": 8437, "\u0120colours": 8438, "\u0120USDA": 8439, "\u0120contented": 8440, "\u0120transmittal": 8441, "gue": 8442, "\u0120TDM": 8443, "\u0120814": 8444, "melo": 8445, "\u0120thymocytes": 8446, "/%": 8447, "\u0120Tepe": 8448, "\u0120Shackleton": 8449, "\u0120ES": 8450, "beds": 8451, "CHECK": 8452, "\u0120Cheddar": 8453, "Randolph": 8454, "\u0120cheek": 8455, "nytimes": 8456, "\u0120hearths": 8457, "\u0120Cockroaches": 8458, "\u0120Lan": 8459, "\u0120ICCVAM": 8460, "\u0120gouged": 8461, "osia": 8462, "prednisolone": 8463, "\u0120Hamzeh": 8464, "\u0120protection": 8465, "\u0120Worldreader": 8466, "\u0120Sweetlips": 8467, "\u0120labors": 8468, "\u0120Divide": 8469, "\u0120oseltamivir": 8470, "\u0120Mercosur": 8471, "nais": 8472, "\u0120Eagle": 8473, "\u0120Hepburn": 8474, "Che": 8475, "Categor": 8476, "\u0120until": 8477, "\u0120s\u00c3\u00a1": 8478, "\u0120subsiding": 8479, "\u0120economical": 8480, "\u0120squabbles": 8481, "\u0120Winona": 8482, "leh": 8483, "\u0120sway": 8484, "\u0120Velculescu": 8485, "\u0120magnetizing": 8486, "\u0120Berman": 8487, "Strategy": 8488, "\u0120HE": 8489, "\u0120Baur": 8490, "\u0120iconoclasm": 8491, "\u0120handedness": 8492, "\u0120abnormalities": 8493, "commit": 8494, "\u0120homeownership": 8495, "\u0120asphyxia": 8496, "nagar": 8497, "apas": 8498, "\u0120EACH": 8499, "\u0120Lafort": 8500, "\u0120occ": 8501, "william": 8502, "\u0120messaging": 8503, "\u0120tendencies": 8504, "\u0120around": 8505, "gen": 8506, "uniform": 8507, "helix": 8508, "\u0120Lauterbach": 8509, "contents": 8510, "\u0120STDs": 8511, "\u0120Bahu": 8512, "OSOPHY": 8513, "\u0120zealously": 8514, "\u0120The": 8515, "\u0120initiatic": 8516, "1982": 8517, "\u0120Lemley": 8518, "sacred": 8519, "sufficiency": 8520, "\u0120Simulator": 8521, "\u0120Broadway": 8522, "\u0120Nervous": 8523, "\u0120Goldie": 8524, "\u0120ROAD": 8525, "sman": 8526, "\u0120Prevent": 8527, "Leroy": 8528, "\u0120practiced": 8529, "\u0120Linux": 8530, "\u0120Charitable": 8531, "958": 8532, "\u0120Gotthelf": 8533, "\u0120Benningfield": 8534, "today": 8535, "\u0120paraphyletic": 8536, "\u0120Nancy": 8537, "orient": 8538, "dll": 8539, "\u0120jungle": 8540, "\u0120uptime": 8541, "\u0120Gaud\u00c3\u0143": 8542, "\u0120Yasmin": 8543, "chloroethylene": 8544, "\u0120injuring": 8545, "\u0120Disk": 8546, "\u0120renditions": 8547, "Hanging": 8548, "\u0120Popes": 8549, "merck": 8550, "\u0120mujahideen": 8551, "\u0120Zah": 8552, "Observation": 8553, "Soda": 8554, "\u0120Holmberg": 8555, "\u0120Zenith": 8556, "\u0120smouldering": 8557, "\u0120Gastroesophageal": 8558, "\u0120protector": 8559, "arsenic": 8560, "ard": 8561, "Soundbite": 8562, "\u0120VATS": 8563, "\u0120immigration": 8564, "\u0120Colomb": 8565, "Mieszko": 8566, "rch": 8567, "\u0120assassins": 8568, "\u0120willing": 8569, "\u0120S\u00c4\u00aaLAV\u00c4\u00aaMA\u00e1\u00b9\u0122SA": 8570, "\u0120Sergeant": 8571, "\u0120It\u00c3\u0143s": 8572, "gly": 8573, "\u0120Trin": 8574, "\u0120Trimester": 8575, "Broadcast": 8576, "\u0120tomorrow": 8577, "\u0120Hadith": 8578, "\u0120spark": 8579, "heel": 8580, "Could": 8581, "\u0120sugars": 8582, "\u0120Glencoe": 8583, "\u0120Ischemic": 8584, "kta": 8585, "\u0120TOTAL": 8586, "\u0120Henslow": 8587, "dipping": 8588, "\u0120weight": 8589, "\u0120moored": 8590, "\u0120Dorpat": 8591, "\u0120coherent": 8592, "\u0120aspirates": 8593, "\u0120274": 8594, "\u0120continence": 8595, "cyclical": 8596, "\u0120lunges": 8597, "\u0120gearbox": 8598, "\u0120hostage": 8599, "258": 8600, "\u0120Bachelors": 8601, "vate": 8602, "Thank": 8603, "Doppler": 8604, "iterator": 8605, "nians": 8606, "\u0120MALE": 8607, "sexist": 8608, "bios": 8609, "\u0120\u00d9\u012a": 8610, "\u0120unaccounted": 8611, "\u0120contro": 8612, "beach": 8613, "\u0120cutaneous": 8614, "biting": 8615, "gsfc": 8616, "also": 8617, "Credit": 8618, "\u0120varied": 8619, "\u00c5\u00aa": 8620, "\u0120Steeple": 8621, "\u0120Independently": 8622, "\u0120Cartographic": 8623, "India": 8624, "Xiao": 8625, "\u00e1": 8626, "\u0120rinds": 8627, "Haitian": 8628, "Involving": 8629, "\u0120Indicator": 8630, "sph": 8631, "gardens": 8632, "\u0120luxurious": 8633, "\u0120Penicillium": 8634, "Practice": 8635, "\u0120pronounce": 8636, "\u0120Westcott": 8637, "\u0120Hydrogen": 8638, "\u0120EDC": 8639, "\u0120politicians": 8640, "\u0120Enclave": 8641, "\u0120PERSON": 8642, "\u0120trek": 8643, "\u0120cyclist": 8644, "\u0120hom": 8645, "\u0120[\"": 8646, "\u0120choropleth": 8647, "ROME": 8648, "Copper": 8649, "loka": 8650, "vailing": 8651, "\u0120INDIAN": 8652, "sightedness": 8653, "\u0120Forster": 8654, "\u0120turquoise": 8655, "\u0120Amidst": 8656, "\u0120texting": 8657, "\u0120Finger": 8658, "\u0120Rechabites": 8659, "\u0120dispersers": 8660, "\u0120ruins": 8661, "\u0120vasculature": 8662, "\u0120Hood": 8663, "rotate": 8664, "\u0120Has": 8665, "Quinn": 8666, "\u0120Chuang": 8667, "\u0120Grunwald": 8668, "\u0120providence": 8669, "Monkeys": 8670, "\u0120biomedicine": 8671, "Budapest": 8672, "\u0120armpit": 8673, "\u0120MEDIA": 8674, "\u0120Pompey": 8675, "\u0120insisting": 8676, "\u0120crept": 8677, "\u0120Reeve": 8678, "\u0120cicada": 8679, "\u0120fabricator": 8680, "coni": 8681, "\u0120Racket": 8682, "\u0120collapsed": 8683, "ulgent": 8684, "\u0120Tallis": 8685, "\u0120IQ": 8686, "\u0120pelleted": 8687, "\u0120revoke": 8688, "Wikisource": 8689, "\u0120strange": 8690, "\u0120tinder": 8691, "\u0120celiac": 8692, "\u0120trapdoor": 8693, "Awards": 8694, "earn": 8695, "mortar": 8696, "\u0120hype": 8697, "\u0120Bamford": 8698, "\u0120diphtheroid": 8699, "\u0120String": 8700, "performed": 8701, "ung": 8702, "\u0120palaeontologists": 8703, "\u0120Ananda": 8704, "\u0120conjugated": 8705, "Pali": 8706, "Wheeler": 8707, "\u0120heats": 8708, "\u0120blips": 8709, "\u0120Ruskin": 8710, "\u0120leap": 8711, "\u0120Stikhotvoreniya": 8712, "wiley": 8713, "\u0120wandered": 8714, "\u0120ophthalmologists": 8715, "\u0120abundances": 8716, "\u0120Kearney": 8717, "\u0120fetters": 8718, "\u0120ARTICLES": 8719, "\u0120Winner": 8720, "\u0120anticipates": 8721, "\u0120mutates": 8722, "\u0120Boyle": 8723, "\u0120newlyweds": 8724, "\u0120Echang": 8725, "constrained": 8726, "\u0120Kirtland": 8727, "\u0120Hundred": 8728, "crossed": 8729, "\u0120shunted": 8730, "\u0120symmetry": 8731, "\u0120Everybody": 8732, "cough": 8733, "\u0120capitulated": 8734, "\u0120Touchstone": 8735, "mede": 8736, "\u0120conforms": 8737, "\u0120Junco": 8738, "sword": 8739, "Giving": 8740, "\u0120Loh": 8741, "\u0120regenerated": 8742, "\u0120ELTs": 8743, "\u0120yours": 8744, "QG": 8745, "\u0120Upstream": 8746, "\u0120Vukassovich": 8747, "\u0120bluff": 8748, "\u0120Meiosis": 8749, "\u0120RAM": 8750, "\u0120Rally": 8751, "\u0120foster": 8752, "\u0120Offered": 8753, "\u0120founded": 8754, "\u0120incentives": 8755, "\u0120honey": 8756, "\u0120GROWING": 8757, "\u00d0\u00b7\u00d0\u00b5": 8758, "\u0120Cinema": 8759, "\u0120happier": 8760, "Guide": 8761, "EME": 8762, "\u0120Brae": 8763, "\u0120summit": 8764, "\u0120Celia": 8765, "\u0120Atkinson": 8766, "\u0120Treaties": 8767, "\u0120forthcoming": 8768, "\u0120traditionalist": 8769, "Wright": 8770, "\u0120Perrault": 8771, "\u0120abruption": 8772, "RW": 8773, "geri": 8774, "\u0120contracted": 8775, "\u0120god": 8776, "voiced": 8777, "\u0120254": 8778, "\u0120dignities": 8779, "\u0120truckers": 8780, "\u0120Belugas": 8781, "\u0120horseback": 8782, "\u0120Moravia": 8783, "blow": 8784, "\u0120emperor": 8785, "Concrete": 8786, "pronunciation": 8787, "\u01201840": 8788, "\u0120Ritual": 8789, "\u0120Subbotnik": 8790, "\u0120Valenciennes": 8791, "\u0120sprinklers": 8792, "CLIMATE": 8793, "\u0120Dexter": 8794, "\u0120Diocese": 8795, "\u0120Galatasaray": 8796, "222": 8797, "\u0120Patch": 8798, "\u0120Mendota": 8799, "\u00ce\u0136": 8800, "\u0120licence": 8801, "\u0120Fafchamps": 8802, "\u0120Tae": 8803, "\u0120fulfillment": 8804, "Etruscan": 8805, "\u0120truces": 8806, "\u0120Whitten": 8807, "\u0120Rifles": 8808, "\u0120727": 8809, "\u0120Pic": 8810, "greening": 8811, "\u0120Valentine": 8812, "Care": 8813, "\u0120amyotrophic": 8814, "\u0120extrapolate": 8815, "\u0120Masterpieces": 8816, "\u0120Municipality": 8817, "\u0120Kunst": 8818, "\u0120Qumr\u00c4\u0123n": 8819, "\u0120Stodieck": 8820, "CHARACTERISTICS": 8821, "\u0120antiseptic": 8822, "\u0120slingshot": 8823, "\u01201419": 8824, "\u0120luck": 8825, "\u0120cooperators": 8826, "reported": 8827, "grown": 8828, "enti": 8829, "\u0120Bodleian": 8830, "\u0120idiomatic": 8831, "\u0120slavish": 8832, "chicken": 8833, "050": 8834, "\u0120Yellow": 8835, "\u0120Iguana": 8836, "\u0120Sozen": 8837, "\u0120Padmanabha": 8838, "\u0120bloodless": 8839, "\u0120climates": 8840, "migrating": 8841, "\u0120Scythia": 8842, "\u0120Numeracy": 8843, "\u0120Daiichi": 8844, "\u0120terrific": 8845, "\u0120Physicists": 8846, "CREATE": 8847, "27": 8848, "\u0120reap": 8849, "\u0120WE": 8850, "\u0120ala": 8851, "eighteenth": 8852, "ON": 8853, "\u0120Shanxi": 8854, "\u0120emulsifiers": 8855, "ANC": 8856, "\u0120kip": 8857, "bble": 8858, "\u0120resonators": 8859, "\u0120Menon": 8860, "Economics": 8861, "\u0120fluorescents": 8862, "BOR": 8863, "\u0120Porte": 8864, "\u0120Naturales": 8865, "\u0120parables": 8866, "\u0120LiDCO": 8867, "\u0120Way": 8868, "546": 8869, "\u0120cupboard": 8870, "ional": 8871, "sv": 8872, "icas": 8873, "\u0120Liszt": 8874, "Rene": 8875, "\u0120Weak": 8876, "\u0120asi": 8877, "CbCr": 8878, "\u0120Nanak": 8879, "\u0120munitions": 8880, "\u0120Sandhills": 8881, "\u0120Nicea": 8882, "\u0120gobble": 8883, "\u0120Nijhoff": 8884, "Demogorgon": 8885, "\u0120Yas": 8886, "\u0120means": 8887, "\u0120Arche": 8888, "\u0120Robonaut": 8889, "\u0120Madness": 8890, "Hicks": 8891, "\u0120sable": 8892, "\u0120bandit": 8893, "\u0120Mj\u00c3\u00b6llnir": 8894, "\u0120logging": 8895, "\u0120aroused": 8896, "\u0120Gerontology": 8897, "achieve": 8898, "\u0120Muilleathan": 8899, "xie": 8900, "\u0120Definitely": 8901, "\u0120Randall": 8902, "nettes": 8903, "\u0120inept": 8904, "bas": 8905, "\u0120Lejeune": 8906, "\u0120Military": 8907, "\u0120forgets": 8908, "\u0120Dispute": 8909, "catheter": 8910, "\u0120los": 8911, "\u0120instigation": 8912, "\u0120unfettered": 8913, "\u0120Amerindian": 8914, "\u0120nuclides": 8915, "catalytic": 8916, "\u0120sacrificial": 8917, "\u0120Connoisseur": 8918, "\u0120Mawhub": 8919, "\u0120railways": 8920, "UPDATE": 8921, "\u0120commissar": 8922, "poisonous": 8923, "\u0120paganism": 8924, "\u0120Dent": 8925, "\u0120repairs": 8926, "\u0120didgeridoo": 8927, "\u0120always": 8928, "\u0120km": 8929, "\u0120Gehry": 8930, "\u0120flexuous": 8931, "urban": 8932, "\u0120CWRS": 8933, "\u0120enacted": 8934, "\u0120faculties": 8935, "\u0120ashwagandha": 8936, "conclusive": 8937, "annotated": 8938, "\u0120affirms": 8939, "\u0120Congregation": 8940, "\u0120antagonisms": 8941, "liches": 8942, "vath": 8943, "\u0120Insights": 8944, "Commercial": 8945, "nick": 8946, "realist": 8947, "\u0120Listening": 8948, "\u0120equal": 8949, "\u0120tilts": 8950, "\u0120Dur\u00c3\u00a1n": 8951, "\u0120trypanosome": 8952, "\u0120Melon": 8953, "\u0120irreversibly": 8954, "\u0120jumble": 8955, "\u0120Concomitant": 8956, "developed": 8957, "\u0120infinity": 8958, "\u0120Aumsville": 8959, "\u0120Keep": 8960, "ologically": 8961, "\u0120Disorder": 8962, "\u0120accessing": 8963, "\u0120thermodynamically": 8964, "\u0120skirmishing": 8965, "1984": 8966, "\u0120Midlothian": 8967, "^(": 8968, "deprec": 8969, "150": 8970, "\u0120Extracts": 8971, "\u0120THINGS": 8972, "iT": 8973, "\u0120alms": 8974, "\u0120ambushes": 8975, "\u0120\u00ce\u0137\u00cf\u0122\u00ce\u00b9\u00cf\u0126\u00ce\u00ac\u00cf\u0128\u00ce\u00b9\u00ce\u00bf": 8976, "proverbs": 8977, "\u0120544": 8978, "\u0120flocked": 8979, "\u0120Over": 8980, "\u0120writs": 8981, "\u0120polygons": 8982, "\u0120warrant": 8983, "\u0120stresses": 8984, "\u0120rages": 8985, "\u0120trilobite": 8986, "Ethics": 8987, "Recovery": 8988, "\u0120PRD": 8989, "\u0120spree": 8990, "TAKE": 8991, "\u0120Frances": 8992, "\u0120acrylamide": 8993, "\u0120multitudinous": 8994, "zu": 8995, "\u0120cookbook": 8996, "Pauline": 8997, "\u0120PDC": 8998, "\u0120Sound": 8999, "\u0120Slaves": 9000, "\u0120appreciable": 9001, "\u0120misogynist": 9002, "\u0120frameworks": 9003, "\u0120HDMI": 9004, "\u0120saunas": 9005, "\u0120Brabazon": 9006, "\u0120skater": 9007, "\u0120Interoperability": 9008, "\u0120enclosing": 9009, "\u0120...": 9010, "\u0120Auld": 9011, "gren": 9012, "\u0120Atoms": 9013, "\u0120categorical": 9014, "\u0120dichotomous": 9015, "\u0120perfumes": 9016, "\u0120hypergeometric": 9017, "\u0120skewing": 9018, "\u0120posted": 9019, "\u0120Support": 9020, "\u0120countrys": 9021, "ike": 9022, "\u0120ICTY": 9023, "\u0120afflicted": 9024, "\u0120Barbara": 9025, "\u0120Heil": 9026, "\u0120Carnarvon": 9027, "\u0120Luckily": 9028, "\u0120let": 9029, "HI": 9030, "Jensen": 9031, "\u0120nesting": 9032, "RST": 9033, "geom": 9034, "\u0120Accumulated": 9035, "Reflecting": 9036, "\u0120ESRL": 9037, "\u0120socialism": 9038, "\u0120Manatees": 9039, "\u0120Singleton": 9040, "\u0120standout": 9041, "\u0120Muscles": 9042, "\u0120estimations": 9043, "\u0120collecting": 9044, "\u0120dre": 9045, "styled": 9046, "1598": 9047, "serve": 9048, "\u0120Dreamliner": 9049, "situations": 9050, "\u00ce\u00bc": 9051, "\u0120callable": 9052, "\u0120lavished": 9053, "centennial": 9054, "\u0120Limerick": 9055, "Recipes": 9056, "\u0120Time": 9057, "\u0120nickelodeon": 9058, "\u0120paratrooper": 9059, "\u0120mel": 9060, "\u0120Mother": 9061, "Slave": 9062, "member": 9063, "\u0120clone": 9064, "\u0120disseminated": 9065, "\u01201910": 9066, "\u0120Tupper": 9067, "\u0120nematodes": 9068, "\u0120Trainers": 9069, "Whish": 9070, "\u0120girdle": 9071, "\u0120Venerable": 9072, "\u0120eliminate": 9073, "\u0120represented": 9074, "electromagnetic": 9075, "synaesthetes": 9076, "Allium": 9077, "\u0120gavin": 9078, "eek": 9079, "tator": 9080, "\u0120renewing": 9081, "\u0120Purified": 9082, "\u00e3\u0123\u00a6\u00e3\u0123\u0126\u00e3\u0124\u012d": 9083, "\u0120Memoir": 9084, "\u0120Belvidere": 9085, "\u0120reticular": 9086, "Dramatic": 9087, "\u0120input": 9088, "\u01201891": 9089, "\u0120widely": 9090, "\u0120Potassium": 9091, "\u0120Balkenkreuz": 9092, "jia": 9093, "\u0120reexamination": 9094, "\u0120Fonts": 9095, "\u0120Proteomics": 9096, "\u0120Trelawny": 9097, "\u0120pyrethroid": 9098, "pathogen": 9099, "rule": 9100, "\u0120Stinson": 9101, "Darwinists": 9102, "\u0120capit": 9103, "\u0120photobleaching": 9104, "\u00e5\u00b4\u00a9\u00e5\u00a3\u012c": 9105, "\u0120737": 9106, "\u0120Picassos": 9107, "\u0120Henri": 9108, "\u0120repair": 9109, "Poverty": 9110, "\u0120hovering": 9111, "\u0120Divergent": 9112, "\u0120Dok": 9113, "collaborate": 9114, "\u0120quoll": 9115, "\u0120Pernicious": 9116, "EDS": 9117, "\u0120collagen": 9118, "\u0120equities": 9119, "\u0120videodisc": 9120, "\u0120Hendra": 9121, "\u0120colons": 9122, "basis": 9123, "\u0120subversive": 9124, "\u0120indissoluble": 9125, "Ulcerative": 9126, "attached": 9127, "\u0120synth": 9128, "IAU": 9129, "\u0120pays": 9130, "\u0120architrave": 9131, "\u0120Gk": 9132, "\u0120Abilities": 9133, "\u0120fixture": 9134, "Entertainment": 9135, "\u0120purposefully": 9136, "\u0120936": 9137, "\u0120Perak": 9138, "\u0120Ebla": 9139, "Yoko": 9140, "\u0120feeders": 9141, "\u0120embed": 9142, "\u0120Kinabatangan": 9143, "\u0120Lighthouse": 9144, "\u01202\u00c2\u00bd": 9145, "\u0120trophic": 9146, "\u0120Cerebral": 9147, "\u0120Zalman": 9148, "\u0120lurks": 9149, "\u0120Gb": 9150, "\u0120Halperin": 9151, "\u0120Unequal": 9152, "sight": 9153, "\u0120mk": 9154, "\u0120Tutorials": 9155, "Technological": 9156, "\u0120luc": 9157, "\u0120Alber": 9158, "elling": 9159, "ask": 9160, "\u0120Nema": 9161, "kro": 9162, "\u0120turbans": 9163, "\u0120STA": 9164, "\u0120racing": 9165, "\u0120Iroquoian": 9166, "\u0120J": 9167, "\u0120Lehmann": 9168, "\u0120Ndebele": 9169, "\u01201503": 9170, "\u00c3\u00a4er": 9171, "\u0120Constraints": 9172, "Exc": 9173, "CLICK": 9174, "\u0120Haile": 9175, "Sixteen": 9176, "\u0120[(": 9177, "\u0120Prevalence": 9178, "\u0120Bq": 9179, "\u00e3\u0125": 9180, "\u0120Kieslowski": 9181, "\u0120Krak\u00c3\u00b3w": 9182, "\u0120shamanic": 9183, "\u0120Montevideo": 9184, "\u0120geniuses": 9185, "\u0120centres": 9186, "\u0120purged": 9187, "\u0120taskforce": 9188, "\u0120cleansed": 9189, "\u0120Um": 9190, "\u0120asthma": 9191, "\u0120Boson": 9192, "\u0120biome": 9193, "\u0120Murambatsvina": 9194, "\u0120Cua": 9195, "sore": 9196, "\u0120Eugen": 9197, "\u0120householder": 9198, "Dee": 9199, "\u0120neon": 9200, "\u0120ballooning": 9201, "078": 9202, "\u0120weathering": 9203, "fewer": 9204, "\u0120tracking": 9205, "\u0120Voorhees": 9206, "\u0120\u00e1\u00b8\u012fh\u00c4\u0123ra\u00e1\u00b9\u0129\u00c4\u0123": 9207, "Founded": 9208, "Francesco": 9209, "\u0120Lenore": 9210, "\u0120Christiansen": 9211, "\u0120Creed": 9212, "hued": 9213, "\u0120Crystal": 9214, "\u0120sidhdhantha": 9215, "\u0120Carillon": 9216, "\u0120ironwork": 9217, "\u0120reperfusion": 9218, "press": 9219, "\u0120counselling": 9220, "\u0120Pixel": 9221, "glider": 9222, "\u0120Archangel": 9223, "Bag": 9224, "\u0120permanently": 9225, "Tomorrow": 9226, "\u0120Racism": 9227, "\u0120Visser": 9228, "\u0120dipstick": 9229, "Rosie": 9230, "\u0120Reve": 9231, "\u0120Prologue": 9232, "Fall": 9233, "\u0120wails": 9234, "omalacia": 9235, "\u0120Manure": 9236, "\u0120uveitis": 9237, "inian": 9238, "rach": 9239, "\u0120reredos": 9240, "\u012039": 9241, "\u0120slapped": 9242, "\u0120Freud": 9243, "\u0120exhaled": 9244, "\u0120embassy": 9245, "lance": 9246, "\u0120broadening": 9247, "\u0120misrepresentations": 9248, "Pur": 9249, "idad": 9250, "render": 9251, "\u0120polenta": 9252, "\u0120MHT": 9253, "Freeman": 9254, "Amen": 9255, "ffling": 9256, "\u0120wal": 9257, "\u0120Zig": 9258, "\u0120Acemoglu": 9259, "349": 9260, "helper": 9261, "Philosoph": 9262, "\u0120TVA": 9263, "\u0120AF": 9264, "Operating": 9265, "\u0120hygrometer": 9266, "\u0120Manus": 9267, "\u0120APOE": 9268, "\u0120MAL": 9269, "\u0120photoshop": 9270, "\u0120garnish": 9271, "\u0120pharmacologically": 9272, "\u0120Deu": 9273, "\u0120shedding": 9274, "\u0120physio": 9275, "ob": 9276, "\u0120Marital": 9277, "\u0120deportees": 9278, "584": 9279, "soda": 9280, "Artist": 9281, "SON": 9282, "sai": 9283, "\u0120ember": 9284, "Dividing": 9285, "Metaphors": 9286, "\u0120Predictive": 9287, "Flam": 9288, "\u0120get": 9289, "bodied": 9290, "\u0120surgeries": 9291, "\u0120motorways": 9292, "\u0120bizarre": 9293, "\u0120DLR": 9294, "pB": 9295, "Degree": 9296,
[...]
