{"[UNK]": 0, "<|endoftext|>": 1, "\u0120shores": 2, "CTS": 3, "\u0120swiftly": 4, "\u0120ponds": 5, "\u0120committing": 6, "\u0120Cause": 7, "\u0120crystal": 8, "am": 9, "\u0120associations": 10, "spots": 11, "\u0120game": 12, "\u0120chlorine": 13, "\u0120ado": 14, "\u0120enterprises": 15, "\u0120requesting": 16, "terrestrial": 17, "\u0120treaty": 18, "blue": 19, "\u0120typhoid": 20, "\u0120Providence": 21, "Mus": 22, "app": 23, "\u0120Kind": 24, "\u0120pin": 25, "\u0120blemish": 26, "\u0120succeed": 27, "\u0120contacts": 28, "\u0120calling": 29, "\u0120up": 30, "\u0120siege": 31, "\u0120peat": 32, "Together": 33, "\u0120cure": 34, "\u0120EU": 35, "Teaching": 36, "EX": 37, "absorb": 38, "trust": 39, "entry": 40, "phon": 41, "\u0120Pine": 42, "\u0120downtown": 43, "\u0120compliance": 44, "\u0120unthinkable": 45, "\u0120Karen": 46, "\u0120odd": 47, "cid": 48, "\u0120prone": 49, "\u0120unfolding": 50, "mental": 51, "\u0120illustrated": 52, "\u0120Healthwise": 53, "Master": 54, "\u0120breeds": 55, "management": 56, "Types": 57, "\u0120spicy": 58, "\u0120barn": 59, "1901": 60, "\u0120Of": 61, "\u0120vac": 62, "\u0120elusive": 63, "\u01201850": 64, "\u0120intolerance": 65, "ifers": 66, "\u0120playground": 67, "\u0120reflection": 68, "\u0120chose": 69, "tam": 70, "\u0120intention": 71, "RNA": 72, "\u0120Oriental": 73, "\u0120Newport": 74, "According": 75, "\u0120building": 76, "\u0120jump": 77, "owned": 78, "\u0120vas": 79, "\u0120draining": 80, "\u0120opponent": 81, "tex": 82, "Fire": 83, "\u0120violation": 84, "Book": 85, "\u0120greens": 86, "strong": 87, "\u0120commemorating": 88, "\u0120Performance": 89, "aco": 90, "\u0120overestimate": 91, "gging": 92, "\u0120Sens": 93, "old": 94, "\u0120advance": 95, "aman": 96, "\u0120painted": 97, "\u0120Arch": 98, "\u0120neurons": 99, "\u0120Motors": 100, "\u0120adding": 101, "\u0120Harlem": 102, "\u0120strive": 103, "\u0120spice": 104, "\u0120recycling": 105, "\u0120seaweed": 106, "\u0120practised": 107, "\u0120harvest": 108, "\u0120List": 109, "ats": 110, "behavioral": 111, "\u0120sightings": 112, "discipline": 113, "objtab": 114, "\u0120updating": 115, "\u0120message": 116, "/~": 117, "need": 118, "\u0120mimic": 119, "\u0120launches": 120, "style": 121, "\u0120letting": 122, "\u0120contrasts": 123, "\u0120Activities": 124, "\u0120Utility": 125, "\u0120Ibn": 126, "Ephesians": 127, "\u0120thrive": 128, "Gr": 129, "\u0120Ryan": 130, "\u0120constituencies": 131, "\u0120triglyceride": 132, "cension": 133, "\u0120abolish": 134, "ceptible": 135, "\u0120231": 136, "\u0120deprived": 137, "\u0120aliens": 138, "\u0120foliage": 139, "\u0120glaze": 140, "\u0120overt": 141, "\u0120poly": 142, "Strateg": 143, "\u0120Plot": 144, "\u0120mosaic": 145, "\u0120Territory": 146, "\u0120oatmeal": 147, "\u01201832": 148, "\u0120inferior": 149, "\u0120naturalist": 150, "\u0120Riley": 151, "\u0120Bronze": 152, "\u0120puppet": 153, "Methods": 154, "\u0120consecutive": 155, "\u0120twisted": 156, "plicate": 157, "\u0120sees": 158, "stage": 159, "\u0120Master": 160, "\u0120awful": 161, "amin": 162, "Canada": 163, "\u0120literally": 164, "a": 165, "holding": 166, "\u0120layered": 167, "\u01202": 168, "Final": 169, "\u01201874": 170, "\u0120handsome": 171, "\u0120disputed": 172, "\u0120Saint": 173, "itis": 174, "\u0120attracted": 175, "\u0120arguments": 176, "\u0120predictor": 177, "\u0120clocks": 178, "\u0120Soyuz": 179, "\u0120chess": 180, "\u0120Sara": 181, "\u0120Harold": 182, "\u0120conveniently": 183, "\".": 184, "orted": 185, "\u0120thinner": 186, "ngling": 187, "\u0120Injury": 188, "\u0120air": 189, "Li": 190, "\u0120Built": 191, "\u0120S\u00c3\u00a3o": 192, "\u0120colonial": 193, "\u0120hampered": 194, "003": 195, "duction": 196, "\u0120discomfort": 197, "\u0120adhesive": 198, "\u0120mosquito": 199, "\u0120geothermal": 200, "\u0120LEDs": 201, "Only": 202, "olation": 203, "\u0120Dom": 204, "\u0120explanations": 205, "\u0120performer": 206, "\u0120prop": 207, "\u0120paragraph": 208, "\u0120gears": 209, "\u0120sworn": 210, "\u0120merc": 211, "\u0120Yellowstone": 212, "\u00e2\u0122\u00b3": 213, "Pat": 214, "\u0120gentle": 215, "\u0120pneumonia": 216, "\u0120Emerg": 217, "\u0120extracting": 218, "\u0120jumped": 219, "\u0120espouse": 220, "\u0120offer": 221, "\u0120outstretched": 222, "\u0120Wales": 223, "\u0120poultry": 224, "\u0120Drew": 225, "\u0120technique": 226, "\u0120originally": 227, "\u0120conversations": 228, "\u0120cohort": 229, "\u0120casting": 230, "\u0120cumulative": 231, "\u0120Wolf": 232, "\u0120cantilever": 233, "arid": 234, "\u0120atomic": 235, "Madison": 236, "\u0120fencing": 237, "ries": 238, "\u0120Height": 239, "rather": 240, "\u0120trawl": 241, "\u01201857": 242, "ix": 243, "\u0120manoeuvr": 244, "sector": 245, "\u0120boasts": 246, "\u0120chimpanzees": 247, "\u0120bring": 248, "\u0120serum": 249, "\u0120uninterrupted": 250, "\u0120immobil": 251, "\u0120Tour": 252, "\u0120Malaysian": 253, "\u0120ditches": 254, "\u0120\"": 255, "\u0120rub": 256, "JOSEPH": 257, "rag": 258, "Recent": 259, "\u0120early": 260, "Semitism": 261, "\u0120plumbing": 262, "\u00c5\u0126": 263, "\u0120sculptor": 264, "ophilus": 265, "\u0120Court": 266, "\u0120Ps": 267, "Official": 268, "\u0120astigmatism": 269, "\u0120customers": 270, "nea": 271, "\u0120cleaner": 272, "\u0120ecosystem": 273, "\u0120Benson": 274, "\u0120inhabitants": 275, "\u01201954": 276, "\u0120Ing": 277, "\u0120silk": 278, "\u0120ridiculous": 279, "\u0120Def": 280, "\u0120Road": 281, "\u0120trench": 282, "\u0120districts": 283, "alo": 284, "ures": 285, "\u0120accused": 286, "\u0120Maltese": 287, "\u0120rampant": 288, "ain": 289, "\u0120Railway": 290, "\u0120owner": 291, "\u0120Face": 292, "\u0120accomplish": 293, "\u0120USB": 294, "\u0120Get": 295, "\u0120Directory": 296, "\u0120Reservation": 297, "\u00e2\u0122\u013b)": 298, "\u0120disciples": 299, "\u0120retaliate": 300, "\u0120staining": 301, "\u0120assembling": 302, "\u0120Head": 303, "\u0120halo": 304, "\u0120Innocent": 305, "\u0120harm": 306, "\u0120doctor": 307, "myel": 308, "Potential": 309, "\u0120Strength": 310, "\u0120crest": 311, "\u0120caregivers": 312, "\u0120relatives": 313, "\u0120Macbeth": 314, "\u0120Hayes": 315, "\u0120rebel": 316, "\u0120misuse": 317, "\u0120discovers": 318, "\u0120Quran": 319, "\u0120converter": 320, "\u0120Illustr": 321, "\u0120revealing": 322, "There": 323, "\u0120museum": 324, "\u0120Werner": 325, "\u0120Army": 326, "\u0120recover": 327, "\u0120wears": 328, "\u0120radial": 329, "productive": 330, "\u0120dozens": 331, "\u0120note": 332, "\u0120cast": 333, "\u0120dotted": 334, "\u0120narrow": 335, "\u0120conscientious": 336, "Qa": 337, "rence": 338, "\u0120lived": 339, "\u0120spores": 340, "\u0120emigrated": 341, "armament": 342, "\u0120Johnston": 343, "\u0120writ": 344, "\u0120EDT": 345, "\u0120Mead": 346, "independent": 347, "confirmed": 348, "\u0120testify": 349, "\u0120mitochondria": 350, "\u0120Doug": 351, "109": 352, "\u0120coercion": 353, "\u0120filtering": 354, "\u0120RO": 355, "\u0120Construction": 356, "\u0120scratching": 357, "\u0120perceptions": 358, "\u0120piracy": 359, "\u0120traveling": 360, "\u0120Certificate": 361, "\u0120crazy": 362, "\u0120astronomy": 363, "\u0120Branch": 364, "\u0120stain": 365, "\u0120improper": 366, "\u0120Those": 367, "\u0120characteristic": 368, "\u0120Churches": 369, "Int": 370, "\u0120View": 371, "fia": 372, "\u0120roof": 373, "BM": 374, "BC": 375, "raising": 376, "\u0120priorities": 377, "move": 378, "\u0120divi": 379, "\u0120Supply": 380, "\u0120farmers": 381, "\u0120Atlantic": 382, "Cognitive": 383, "\u0120practitioners": 384, "\u0120breeding": 385, "mac": 386, "Mi": 387, "\u0120Break": 388, "\u0120probation": 389, "\u0120resolve": 390, "\u0120Magellan": 391, "\u0120extend": 392, "\u0120splitting": 393, "\u0120MiG": 394, "physicist": 395, "sm": 396, "\u0120specialization": 397, "density": 398, "\u0120DARPA": 399, "sson": 400, "\u0120fallen": 401, "\u0120arrive": 402, "\u0120Noble": 403, "\u0120Answers": 404, "\u0120our": 405, "\u0120Fresno": 406, "short": 407, "math": 408, "\u0120change": 409, "\u0120Captain": 410, "OLOGY": 411, "\u0120Direct": 412, "\u0120Removal": 413, "\u0120quadr": 414, "\u0120obstruction": 415, "\u0120rep": 416, "Western": 417, "\u0120determines": 418, "protect": 419, "\u0120HCV": 420, "\u0120atoms": 421, "\u0120friendly": 422, "\u0120realized": 423, "\u0120ha": 424, "Fortunately": 425, "\u0120through": 426, "tet": 427, "\u0120oo": 428, "\u0120best": 429, "iate": 430, "\u0120nuclei": 431, "Learn": 432, "\u0120Portal": 433, "\u0120spectacle": 434, "\u01201863": 435, "\u0120Science": 436, "\u0120elevate": 437, "\u0120mammals": 438, "\u0120earthquakes": 439, "bite": 440, "product": 441, "ipe": 442, "Heat": 443, "\u0120diver": 444, "\u0120waking": 445, "ification": 446, "38": 447, "\u0120cruise": 448, "\u0120wedge": 449, "\u0120ovens": 450, "\u01201905": 451, "much": 452, "\u0120mangrove": 453, "\u0120breadth": 454, "\u0120lay": 455, "\u0120shallow": 456, "\u0120functionality": 457, "\u0120Soci\u00c3\u00a9t\u00c3\u00a9": 458, "\u0120screenings": 459, "\u0120wants": 460, "\u0120arches": 461, "\u0120connections": 462, "fossil": 463, "\u0120orthodox": 464, "1986": 465, "\u0120Atlanta": 466, "pos": 467, "\u0120Genetics": 468, "\u0120fallopian": 469, "\u0120prescription": 470, "ples": 471, "\u0120enquiry": 472, "\u0120Bonn": 473, "\u0120barbar": 474, "whole": 475, "aki": 476, "\u0120Shop": 477, "\u0120scorpion": 478, "\u0120expanding": 479, "\u0120360": 480, "\u0120oversee": 481, "\u0120rooms": 482, "\u0120demo": 483, "\u0120sad": 484, "id": 485, "\u0120Roots": 486, "\u0120as": 487, "\u0120bomber": 488, "circle": 489, "\u0120groupings": 490, "KS": 491, "\u0120predatory": 492, "\u0120Federation": 493, "their": 494, "\u0120afraid": 495, "\u0120cites": 496, "\u0120gymnas": 497, "\u0120prohibiting": 498, "\u0120Educational": 499, "meth": 500, "\u0120capacitance": 501, "\u0120curved": 502, "\u0120Macedonian": 503, "\u0120adversaries": 504, "\u0120overhead": 505, "synaptic": 506, "\u0120Measure": 507, "cco": 508, "Google": 509, "\u0120evils": 510, "\u0120Ant": 511, "\u0120Normally": 512, "dle": 513, "tting": 514, "\u0120Summer": 515, "\u0120Near": 516, "\u0120Sephardic": 517, "\u0120strenuous": 518, "\u0120ms": 519, "\u0120counterpart": 520, "\u0120Shar": 521, "\u0120Wool": 522, "\u0120Pythagorean": 523, "\u0120Firefox": 524, "kos": 525, "links": 526, "\u0120distinct": 527, "\u0120Brazil": 528, "\u0120305": 529, "\u0120habitats": 530, "157": 531, "\u0120canopy": 532, "\u0120Tsunami": 533, "\u0120Newspaper": 534, "\u0120nanoscale": 535, "\u0120plunged": 536, "\u0120bothered": 537, "\u0120shouted": 538, "\u0120Carter": 539, "\u0120Palestine": 540, "\u0120Lane": 541, "41": 542, "XX": 543, "\u0120Stress": 544, "\u0120drowsiness": 545, "\u0120Awakening": 546, "\u0120Saunders": 547, "\u0120globally": 548, "\u0120Ark": 549, "lean": 550, "hospital": 551, "\u0120Cant": 552, "\u0120preoccupation": 553, "\u0120exhibition": 554, "\u0120conventions": 555, "\u0120Isaac": 556, "\u0120knowlesi": 557, "\u0120irritation": 558, "\u0120Measurement": 559, "\u0120Ludwig": 560, "\u0120weapon": 561, "\u0120Remove": 562, "\u0120telescope": 563, "\u0120oh": 564, "\u0120surprises": 565, "\u0120forgetting": 566, "\u0120Hague": 567, "\u0120Clip": 568, "\u01201868": 569, "Fran\u00c3\u00a7ois": 570, "\u0120civil": 571, "\u0120911": 572, "\u0120Dermat": 573, "\u0120fired": 574, "odhisattva": 575, "\u0120Machiavelli": 576, "106": 577, "\u0120live": 578, "common": 579, "ups": 580, "ways": 581, "\u0120continents": 582, "\u0120Current": 583, "\u0120observes": 584, "\u0120Mal": 585, "\u0120Davidson": 586, "\u0120deflect": 587, "\u0120acidity": 588, "\u0120modem": 589, "VI": 590, "matic": 591, "\u0120lady": 592, "\u0120Sources": 593, "\u0120Emory": 594, "uka": 595, "\u0120hydraulic": 596, "\u0120Experiment": 597, "war": 598, "\u0120rope": 599, "\u0120likeness": 600, "National": 601, "\u0120coatings": 602, "\u0120house": 603, "Box": 604, "Communi": 605, "\u0120embraces": 606, "\u0120beacon": 607, "kk": 608, "OK": 609, "ttered": 610, "structured": 611, "\u0120expansion": 612, "\u0120draws": 613, "\u0120explorer": 614, "\u0120mainly": 615, "\u01201893": 616, "\u0120Es": 617, "\u0120Schleswig": 618, "\u0120antioxidant": 619, "\u0120Homeland": 620, "\u0120mountains": 621, "\u0120Atomic": 622, "\u0120brilliance": 623, "\u00c3\u00bb": 624, "\u0120fibrous": 625, "\u0120Cluster": 626, "tts": 627, "Pen": 628, "\u0120bilingual": 629, "ampton": 630, "32": 631, "\u0120Arab": 632, "\u0120voyage": 633, "\u0120Yorkshire": 634, "\u0120f\u00c3\u00bcr": 635, "\u0120analyse": 636, "\u0120authentic": 637, "\u0120Buchanan": 638, "\u0120Arc": 639, "\u0120Archives": 640, "\u0120indictment": 641, "\u0120festivities": 642, "\u0120Ehrlich": 643, "\u0120maintain": 644, "\u0120township": 645, "\u0120wildfires": 646, "\u0120Investiga": 647, "\u01201837": 648, "\u0120easily": 649, "\u0120Isa": 650, "\u0120corals": 651, "\u0120Ashkenazi": 652, "\u0120utter": 653, "\u0120insert": 654, "\u0120sight": 655, "\u0120Policies": 656, "Spring": 657, "\u0120Push": 658, "\u0120Prime": 659, "heated": 660, "education": 661, "ando": 662, "\u0120Puerto": 663, "\u0120urbanization": 664, "oracle": 665, "\u0120bowel": 666, "\u0120animations": 667, "\u0120soon": 668, "\u0120BLM": 669, "\u0120gathers": 670, "imating": 671, "\u0120selected": 672, "1906": 673, "Tom": 674, "\u0120ppm": 675, "\u0120toes": 676, "\u0120third": 677, "\u0120Techniques": 678, "\u0120charging": 679, "\u0120med": 680, "uff": 681, "\u0120pedestrian": 682, "\u0120mis": 683, "\u0120meats": 684, "\u0120worth": 685, "\u0120Montana": 686, "\u0120insecticides": 687, "obe": 688, "\u0120Sti": 689, "\u0120key": 690, "\u0120DNA": 691, "\u0120definite": 692, "\u0120patronage": 693, "ulence": 694, "\u0120VII": 695, "2004": 696, "\u0120OSHA": 697, "JPL": 698, "\u0120python": 699, "\u0120Lenin": 700, "\u012048": 701, "\u0120PR": 702, "logue": 703, "tal": 704, "\u0120accounting": 705, "\u0120clinicians": 706, "confidence": 707, "\u0120Townsend": 708, "\u0120Slav": 709, "\u0120Kl": 710, "\u0120corpus": 711, "\u0120lineage": 712, "\u0120thereafter": 713, "\u0120lipoprotein": 714, "\u0120165": 715, "\u0120dean": 716, "\u0120implement": 717, "\u0120gene": 718, "\u0120communities": 719, "\u0120compressor": 720, "235": 721, "\u0120Improving": 722, "\u0120Campylobacter": 723, "oid": 724, "\u0120rejected": 725, "\u0120Improved": 726, "\u0120ashore": 727, "\u0120culminate": 728, "Many": 729, "\u0120marker": 730, "140": 731, "chlor": 732, "\u0120alkaline": 733, "\u0120One": 734, "\u0120Photos": 735, "\u0120any": 736, "\u0120Kingston": 737, "\u0120covered": 738, "\u0120skins": 739, "among": 740, "Temperature": 741, "\u0120uncertainties": 742, "\u0120EBSCO": 743, "24": 744, "\u0120sparse": 745, "\u0120hope": 746, "\u0120subway": 747, "\u0120Program": 748, "\u0120Otherwise": 749, "\u0120>>": 750, "Hurricane": 751, "\u0120Gould": 752, "\u0120inverter": 753, "\u0120sa": 754, "\u0120dys": 755, "\u0120mundane": 756, "\u0120IF": 757, "aster": 758, "\u0120arterial": 759, "\u0120falciparum": 760, "\u0120sulph": 761, "1991": 762, "lg": 763, "\u0120impe": 764, "\u0120agendas": 765, "\u0120mountain": 766, "\u0120Dur": 767, "ew": 768, "\u0120termed": 769, "\u0120irritated": 770, "\u0120nation": 771, "\u01201957": 772, "\u0120charismatic": 773, "\u0120Intelligence": 774, "uro": 775, "\u0120guests": 776, "\u0120intimidating": 777, "plane": 778, "ic": 779, "\u0120migraine": 780, "\u0120Alvarez": 781, "\u0120joined": 782, "\u0120decrease": 783, "\u0120goods": 784, "\u0120rated": 785, "\u0120intertwined": 786, "sensitivity": 787, "located": 788, "util": 789, "\u0120full": 790, "\u0120Voyage": 791, "\u0120help": 792, "\u0120Aurangzeb": 793, "\u0120airports": 794, "\u0120Thirty": 795, "\u0120gre": 796, "&": 797, "\u0120inadvertently": 798, "\u0120Advancement": 799, "MR": 800, "\u0120Thirteen": 801, "\u0120pandemic": 802, "\u00a3": 803, "MA": 804, "\u0120dealer": 805, "\u0120Leeds": 806, "\u01201894": 807, "\u0120consent": 808, "\u0120metropolitan": 809, "Local": 810, "encephal": 811, "Have": 812, "yes": 813, "\u0120noxious": 814, "\u0120products": 815, "\u0120bony": 816, "\u0120rasp": 817, "\u0120Yin": 818, "\u0120personality": 819, "uing": 820, "running": 821, "\u0120cry": 822, "\u0120addicted": 823, "\u0120Vol": 824, "\u0120fibers": 825, "Public": 826, "1993": 827, "\u0120fields": 828, "\u0120Fraser": 829, "\u0120interstate": 830, "500": 831, "\u0120microprocessor": 832, "\u0120Highlands": 833, "\u0120Radio": 834, "wave": 835, "\u0120worker": 836, "\u0120balancing": 837, "Ro": 838, "\u0120logo": 839, "species": 840, "\u0120dementia": 841, "\u0120problem": 842, "\u00c5\u00ab": 843, "ulation": 844, "ground": 845, "\u0120priority": 846, "CHAPTER": 847, "\u0120Pla": 848, "\u0120Needs": 849, "\u0120cytoplasm": 850, "\u0120current": 851, "\u01202003": 852, "\u0120Laboratory": 853, "\u0120effects": 854, "\u0120circumvent": 855, "yc": 856, "\u0120conservative": 857, "\u0120Sweden": 858, "\u0120placebo": 859, "Hor": 860, "train": 861, "\u0120plenty": 862, "\u0120aging": 863, "\u0120Ol": 864, "Tuesday": 865, "\u0120moderate": 866, "\u0120vivid": 867, "\u0120Bab": 868, "\u0120aspiration": 869, "cellular": 870, "\u0120cens": 871, "\u0120science": 872, "Clearly": 873, "\u0120calves": 874, "\u0120Kane": 875, "\u0120injustice": 876, "\u0120night": 877, "\u0120pharmaceutical": 878, "\u0120Preventive": 879, "\u0120stake": 880, "\u0120classmates": 881, "Capital": 882, "\u0120opinion": 883, "\u0120FAQ": 884, "\u01201790": 885, "\u0120impractical": 886, "\u0120CON": 887, "\u0120Feeding": 888, "chrome": 889, "\u0120procurement": 890, "\u0120fragile": 891, "Starting": 892, "hard": 893, "great": 894, "\u0120Pis": 895, "\u0120thou": 896, "\u0120Procedure": 897, "\u0120Cos": 898, "clusion": 899, "pin": 900, "\u0120beats": 901, "\u0120Remembrance": 902, "\u0120ascetic": 903, "experience": 904, "\u0120path": 905, "\u0120Rick": 906, "\u0120GRE": 907, "\u0120Stalin": 908, "\u0120Qu\u00c3\u00a9bec": 909, "\u0120Gar": 910, "\u0120Grove": 911, "\u0120Hebrews": 912, "\u0120ji": 913, "\u0120won": 914, "\u0120Connect": 915, "\u00d1\u0124": 916, "\u0120all": 917, "\u0120athletic": 918, "pes": 919, "\u0120was": 920, "\u0120jargon": 921, "\u0120Household": 922, "Category": 923, "PubMed": 924, "\u0120ivory": 925, "well": 926, "\u0120Solutions": 927, "\u0120surprisingly": 928, "Summer": 929, "\u0120weighted": 930, "ush": 931, "\u0120lest": 932, "\u0120parish": 933, "pie": 934, "\u012021": 935, "\u0120herbicide": 936, "arian": 937, "\u0120Dionys": 938, "\u0120Hab": 939, "\u0120Robot": 940, "()": 941, "\u0120Pluto": 942, "ment": 943, "\u0120revisit": 944, "\u0120Pur": 945, "\u0120filtration": 946, "\u0120childhood": 947, "pods": 948, "\u0120Arabia": 949, "lor": 950, "\u0120economists": 951, "\u0120sedimentary": 952, "Air": 953, "Sea": 954, "China": 955, "\u0120Pliny": 956, "\u0120captivity": 957, "oriented": 958, "\u0120extends": 959, "\u0120practise": 960, "\u0120Florentine": 961, "\u0120correction": 962, "ances": 963, "\u0120GNU": 964, "\u0120grids": 965, "\u0120demonstrators": 966, "\u0120stethoscope": 967, "\u0120Oncology": 968, "\u0120chain": 969, "sz": 970, "\u0120matri": 971, "\u0120Kidney": 972, "\u0120us": 973, "\u0120r": 974, "syllabic": 975, "FA": 976, "\u0120conversions": 977, "Graph": 978, "mond": 979, "\u0120monasteries": 980, "\u0120LD": 981, "\u0120\u00e2\u0122\u013e[": 982, "\u0120honeybees": 983, "\u0120elderly": 984, "\u0120epistem": 985, "Mr": 986, "\u0120privat": 987, "\u0120Jammu": 988, "\u0120makes": 989, "hl": 990, "\u0120computer": 991, "\u0120argument": 992, "\u0120Especially": 993, "\u0120Includes": 994, "\u0120shalt": 995, "\u0120Gal\u00c3\u00a1pagos": 996, "\u0120wax": 997, "span": 998, "\u0120Accordingly": 999, "\u0120derogatory": 1000, "\u0120Pandavas": 1001, "severe": 1002, "coated": 1003, "\u0135": 1004, "\u0120unre": 1005, "\u0120upset": 1006, "\u0120outskirts": 1007, "\u0120riddles": 1008, "\u0120seed": 1009, "\u0120military": 1010, "\u0120correlate": 1011, ".\u00e2\u0122\u0136": 1012, "\u0120usurp": 1013, "\u0120Moroccan": 1014, "Our": 1015, "\u0120102": 1016, "When": 1017, "\u0120encrypt": 1018, "\u0120Dorothy": 1019, "\u0120thoughts": 1020, "ige": 1021, "\u0120martyrs": 1022, "\u0120Subjects": 1023, "\u0120dance": 1024, "tch": 1025, "\u0120navigation": 1026, "\u0120preferential": 1027, "\u0120arrogant": 1028, "\u0120linked": 1029, "Student": 1030, "\u0120barge": 1031, "\u0120retreat": 1032, "\u0120Salem": 1033, "\u0120probes": 1034, "\u0120pore": 1035, "\u0120civilizations": 1036, "\u0120FCC": 1037, "\u0120studio": 1038, "\u0120obscure": 1039, "\u0120nitrogen": 1040, "\u0120speed": 1041, "quality": 1042, "\u0120Lam": 1043, "\u0120disobey": 1044, "\u0120Portsmouth": 1045, "\u0120Lexington": 1046, "Focus": 1047, "chemicals": 1048, "as": 1049, "conservative": 1050, "\u0120invented": 1051, "\u0120prevailed": 1052, "\u0120Systems": 1053, "\u0120respondents": 1054, "\u0120conventional": 1055, "\u0120preparation": 1056, "\u0120recon": 1057, "\u0120Niger": 1058, "\u00a5": 1059, "Radiation": 1060, "\u0120automatic": 1061, "\u0120Artemis": 1062, "\u0120McGuire": 1063, "\u0120Medical": 1064, "\u0120insidious": 1065, "\u0120boo": 1066, "nu": 1067, "lt": 1068, "\u0120inflated": 1069, "\u0120teaches": 1070, "\u0120vital": 1071, "enburg": 1072, "\u0120grown": 1073, "\u0120overwhelming": 1074, "refer": 1075, "Screen": 1076, "\u0120Lim": 1077, "\u0120Mod": 1078, "\u0120apparently": 1079, "une": 1080, "\u0120resistors": 1081, "kel": 1082, "Links": 1083, "110": 1084, "\u0120smallest": 1085, "kers": 1086, "\u0120Draw": 1087, "\u0120permitted": 1088, "\u0120Hyper": 1089, "\u0120Scotia": 1090, "\u0120def": 1091, "\u0120Ireland": 1092, "\u0120alt": 1093, "\u0120m": 1094, "\u0120Until": 1095, "\u0120Mongolia": 1096, "hic": 1097, "\u0120Investigator": 1098, "\u0120Combining": 1099, "Stop": 1100, "\u0120Commander": 1101, "\u0120pedagogy": 1102, "\u0120studies": 1103, "pointed": 1104, "\u0120reality": 1105, "\u012011": 1106, "\u0120Developmental": 1107, "\u0120interchange": 1108, "\u0120guardian": 1109, "thinking": 1110, "\u0120sociological": 1111, "growing": 1112, "\u0120occupational": 1113, "\u0120Ghost": 1114, "AR": 1115, "\u0120drinkers": 1116, "\u0120Eye": 1117, "\u0120overhaul": 1118, "\u0120manually": 1119, "\u0120cried": 1120, "\u0120bristlecone": 1121, "\u0120drug": 1122, "\u0120Territorial": 1123, "\u0120Additional": 1124, "\u0120instructions": 1125, "\u0120Hygiene": 1126, "ible": 1127, "generated": 1128, "sb": 1129, "founder": 1130, "loid": 1131, "\u0120Lowe": 1132, "\u01201813": 1133, "\u0120basics": 1134, "\u0120legumes": 1135, "\u0120logically": 1136, "\u0120fiction": 1137, "\u0120bathing": 1138, "Week": 1139, "\u0120fences": 1140, "\u0120facial": 1141, "\u0120opinions": 1142, "ac": 1143, "\u0120Gal": 1144, "\u0120pharaoh": 1145, "Indeed": 1146, "\u0120Muller": 1147, "\u0120activation": 1148, "xed": 1149, "\u0120constant": 1150, "\u0120linking": 1151, "\u0120distributor": 1152, "\u0120converts": 1153, "July": 1154, "\u0120rotational": 1155, "\u0120Prince": 1156, "\u0120thr": 1157, "chap": 1158, "97": 1159, "respon": 1160, "\u0120rights": 1161, "\u0120lily": 1162, "\u0120\u00c4\u0122\u00e1\u00b9\u0143m\u00c4\u0123": 1163, "\u0120Joseph": 1164, "\u0120Fitzgerald": 1165, "\u0120FDA": 1166, "Country": 1167, "\u0120appearances": 1168, "\u0120others": 1169, "\u0120Sche": 1170, "\u0120differed": 1171, "\u0120atherosclerosis": 1172, "\u0120Advocacy": 1173, "\u0120resolutions": 1174, "court": 1175, "\u0120Tokyo": 1176, "\u0120Salzburg": 1177, "\u0120scanned": 1178, "\u0120proposition": 1179, "\u0120muscular": 1180, "hum": 1181, "\u0120beaches": 1182, "\u0120homeschool": 1183, "Recently": 1184, "\u0120Throughout": 1185, "\u0120useful": 1186, "\u0120hypo": 1187, "bol": 1188, "\u0120hurdle": 1189, "\u0120putting": 1190, "paid": 1191, "int": 1192, "strate": 1193, "\u0120Dementia": 1194, "\u0120glorious": 1195, "\u0120Campbell": 1196, "posed": 1197, "\u0120recognized": 1198, "they": 1199, "\u0120lining": 1200, "ph": 1201, "duce": 1202, "\u01203": 1203, "\u0120demonstrating": 1204, "burg": 1205, "Much": 1206, "\u0120Hudson": 1207, "Getting": 1208, "\u0120decent": 1209, "\u0120Levels": 1210, "kin": 1211, "treat": 1212, "\u0120Fourth": 1213, "\u0120Industry": 1214, "\u0120Wel": 1215, "\u0120Confucius": 1216, "\u0120observatories": 1217, "\u0120Collaborative": 1218, "\u0120progressed": 1219, "\u00e1\u00b8": 1220, "\u0120Homo": 1221, "\u0120BPA": 1222, "\u0120Powell": 1223, "\u0120arXiv": 1224, "Samuel": 1225, "\u0120Gl": 1226, "\u0120nylon": 1227, "\u0120grapes": 1228, "por": 1229, "Hill": 1230, "igan": 1231, "\u0120adapting": 1232, "\u0120ambi": 1233, "thick": 1234, "\u0120participation": 1235, "\u0120spans": 1236, "ending": 1237, "\u0120Protestant": 1238, "bot": 1239, "\u0120dough": 1240, "\u0120researcher": 1241, "\u0120shirt": 1242, "\u0120stagnation": 1243, "\u0120injections": 1244, "\u0120alternative": 1245, "TES": 1246, "marks": 1247, "\u0120excavations": 1248, "\u0120modalities": 1249, "peptide": 1250, "ios": 1251, "\u0120armour": 1252, "\u0120Dictionary": 1253, "\u0120destroyers": 1254, "\u0120migrant": 1255, "\u0120modifying": 1256, "\u0120calculating": 1257, "\u0120Custodian": 1258, "ISBN": 1259, "\u0120REDD": 1260, "1029": 1261, "\u0120atlas": 1262, "\u0120rendering": 1263, "\u0120inconvenience": 1264, "fresh": 1265, "\u0120tolerant": 1266, "\u0120grief": 1267, "\u0120Temperature": 1268, "\u0120parental": 1269, "\u0120vascular": 1270, "\u0120phenotype": 1271, "craft": 1272, "nx": 1273, "\u0120knowing": 1274, "\u0120shaped": 1275, "rap": 1276, "\u0120plunge": 1277, "\u0120unsuitable": 1278, "losing": 1279, "surgery": 1280, "\u0120Incorporated": 1281, "\u0120degrade": 1282, "\u0120because": 1283, "\u0120guided": 1284, "\u0120hypothesized": 1285, "\u0120factions": 1286, "\u0120Daniel": 1287, "\u0120humiliation": 1288, "\u0120th": 1289, "diment": 1290, "ving": 1291, "European": 1292, "ny": 1293, "\u0120barbecue": 1294, "\u0120Yam": 1295, "ignment": 1296, "\u0120Indeed": 1297, "ogenic": 1298, "WEB": 1299, "\u0120French": 1300, "\u0120anonymous": 1301, "\u0120genuinely": 1302, "\u0120mortgage": 1303, "\u0120cingulate": 1304, "\u0120constitution": 1305, "\u0120coma": 1306, "tiles": 1307, "pub": 1308, "\u0120targets": 1309, "\u0120Abbott": 1310, "\u0120environments": 1311, "\u0120analysis": 1312, "360": 1313, "\u0120restore": 1314, "\u0120radon": 1315, "GluR": 1316, "\u0120provided": 1317, "Move": 1318, "\u0120flushing": 1319, "\u0120Gertrude": 1320, "\u0120Programme": 1321, "NOTE": 1322, "100": 1323, "\u0120precise": 1324, "\u0120193": 1325, "uer": 1326, "\u0120friction": 1327, "\u0120Democrat": 1328, "dro": 1329, "defense": 1330, "\u0120partisan": 1331, "\u0120Novel": 1332, "\u00d1\u0125": 1333, "\u0120glyphosate": 1334, "\u0120Twe": 1335, "ION": 1336, "\u0120heathen": 1337, "ue": 1338, "\u0120captures": 1339, "\u0120clean": 1340, "1908": 1341, "\u0120Activity": 1342, "ific": 1343, "mono": 1344, "\u0120Exodus": 1345, "\u0120attract": 1346, "\u0120sewing": 1347, "\u0120Annex": 1348, "\u0120barrels": 1349, "tolerant": 1350, "\u0120patriotic": 1351, "tation": 1352, "\u0120Norse": 1353, "\u0120Cherry": 1354, "Code": 1355, "\u0120happiness": 1356, "\u0120herald": 1357, "\u0120purification": 1358, "gamy": 1359, "cop": 1360, "\u0120stereotypes": 1361, "\u0120discovering": 1362, "\u0120punish": 1363, "Imagine": 1364, "\u0120openly": 1365, "\u0120fluoroquinolone": 1366, "\u0120License": 1367, "\u0120While": 1368, "?\".": 1369, "\u0120Mexican": 1370, "\u0120coils": 1371, "\u0120analogous": 1372, "\u0120applicants": 1373, "\u0120Arthritis": 1374, "HT": 1375, "\u0120booster": 1376, "\u0120Suite": 1377, "\u0120actor": 1378, "\u0120percussion": 1379, "\u0120Post": 1380, "\u0120structure": 1381, "RS": 1382, "\u0120Continu": 1383, "\u0120SSL": 1384, "\u0120Darfur": 1385, "position": 1386, "\u0120Outdoor": 1387, "\u010a": 1388, "news": 1389, "\u0120knights": 1390, "\u0120fact": 1391, "AMP": 1392, "\u0120monuments": 1393, "\u0120possible": 1394, "ishment": 1395, "\u01204": 1396, "file": 1397, "\u0120clashes": 1398, "caused": 1399, "\u0120bonus": 1400, "\u00e1\u00b9\u0143a": 1401, "\u00b0": 1402, "\u0120able": 1403, "):": 1404, "\u0120remark": 1405, "\u0120Afghanistan": 1406, "\u0120boom": 1407, "\u0120chronology": 1408, "\u0120Moff": 1409, "\u0120M\u00c3\u00a9": 1410, "CT": 1411, "\u00c3\u0125": 1412, "\u0120bursting": 1413, "\u0120assumes": 1414, "Available": 1415, "\u0120Bath": 1416, "continental": 1417, "\u0120rivals": 1418, "DY": 1419, "\u0120technologies": 1420, "\u0120hardwood": 1421, "chief": 1422, "\u0120Mackenzie": 1423, "Companies": 1424, "\u0120mussels": 1425, "\u0120Sirius": 1426, "\u0120authorized": 1427, "ths": 1428, "\u0120Isthmus": 1429, "\u0120Astronomy": 1430, "\u0120area": 1431, "\u0120nurseries": 1432, "\u0120investing": 1433, "\u0120Were": 1434, "\u0120Silicon": 1435, "\u0120persuasion": 1436, "\u0120flip": 1437, "\u0120Titan": 1438, "\u0120persuasive": 1439, "Aristotle": 1440, "\u0120tire": 1441, "\u0120Delta": 1442, "ima": 1443, "\u0120Subscribe": 1444, "\u0120authentication": 1445, "peritoneal": 1446, "\u0120Bass": 1447, "\u0120atop": 1448, "lag": 1449, "\u0120nonsense": 1450, "\u0120contaminant": 1451, "\u0120Expedition": 1452, "\u0120Victorian": 1453, "\u0120fuselage": 1454, "\u0120altar": 1455, "\u0120closed": 1456, "\u0120cigarette": 1457, "\u0120discriminated": 1458, "\u0120FP": 1459, "annual": 1460, "given": 1461, "sic": 1462, "oblastoma": 1463, "Evolution": 1464, "induced": 1465, "\u0120Manitoba": 1466, "\u0120outbreak": 1467, "\u0120analytical": 1468, "\u0120ape": 1469, "\u0120Tak": 1470, "\u0120twigs": 1471, "\u0120decisions": 1472, "\u0120noticed": 1473, "\u0120boating": 1474, "\u0120Photography": 1475, "\u0120Joshua": 1476, "\u0120shadows": 1477, "\u0120bald": 1478, "\u0120emphasized": 1479, "sensitive": 1480, "\u0120plantings": 1481, "\u0120deadline": 1482, "\u0120\u00c2\u00b0": 1483, "LI": 1484, "Young": 1485, "\u0120locking": 1486, "\u0120deeds": 1487, "wild": 1488, "\u0120improvement": 1489, "\u0120inject": 1490, "\u0120Enoch": 1491, "\u0120Regular": 1492, "\u0120healthy": 1493, "\u0120Rupert": 1494, "\u0120Energy": 1495, "f": 1496, "\u0120evaluates": 1497, "\u0120dump": 1498, "\u0120Adolf": 1499, "\u0120grocery": 1500, "\u0120induced": 1501, "\u0120shadow": 1502, "\u0120Principal": 1503, "\u0120tonight": 1504, "\u0120Views": 1505, "\u0120Opportunities": 1506, "\u0120mumps": 1507, "INT": 1508, "\u0120practicing": 1509, "\u0120career": 1510, "().": 1511, "\u0120Worksheet": 1512, "\u0120sacred": 1513, "\u0120Corp": 1514, "\u0120eff": 1515, "\u0120educating": 1516, "\u0120interpreters": 1517, "Am": 1518, "\u0120rheumatoid": 1519, "Cook": 1520, "\u0120possessed": 1521, "\u01201877": 1522, "\u0120speaking": 1523, "\u0120dermato": 1524, "\u0120prose": 1525, "\u0120blows": 1526, "\u0120ske": 1527, "\u0120prophecies": 1528, "\u0120enclosed": 1529, "initis": 1530, "\u0120further": 1531, "\u0120appropriate": 1532, "\u0120formulas": 1533, "\u0120Nebuchadnezzar": 1534, "\u0120trigger": 1535, "\u0120dramatic": 1536, "\u0120influencing": 1537, "\u0120Carolina": 1538, "\u0120discharged": 1539, "lles": 1540, "\u0120under": 1541, "\u0120salty": 1542, "logous": 1543, "Growing": 1544, "\u0120Guide": 1545, "\u0120Somalia": 1546, "\u0120immediate": 1547, "\u0120ancillary": 1548, "\u0120Barcelona": 1549, "\u0120founding": 1550, "aling": 1551, "\u0120consultants": 1552, "\u0120support": 1553, "\u0120carn": 1554, "\u0120universe": 1555, "\u0120mixes": 1556, "\u0120confident": 1557, "\u0120infinitely": 1558, "\u0120129": 1559, "Resources": 1560, "\u0120ra": 1561, "\u0120Bacon": 1562, "IC": 1563, "\u0120reconcile": 1564, "ts": 1565, "\u0120guilt": 1566, "\u0120Apalachee": 1567, "IP": 1568, "\u0120perspective": 1569, "\u0120Scholar": 1570, "Bra": 1571, "\u0120Digestive": 1572, "\u0120circum": 1573, "\u0120PS": 1574, "\u0120behaviour": 1575, "\u0120Two": 1576, "ward": 1577, "\u0120jewel": 1578, "\u0120inlet": 1579, "\u0120symbols": 1580, "\u0120Chesapeake": 1581, "keepers": 1582, "\u0120finer": 1583, "\u0120sheet": 1584, "\u0120spins": 1585, "\u0120evaluation": 1586, "\u0120pain": 1587, "\u0120IAALD": 1588, "\u0120subscribe": 1589, "cum": 1590, "\u0120galleries": 1591, "\u0120Mycobacterium": 1592, "\u0120cap": 1593, "\u0120pores": 1594, "\u0120polls": 1595, "Rock": 1596, "\u0120imposition": 1597, "\u0120maintenance": 1598, "\u0120dressed": 1599, "\u0120Cut": 1600, "\u0120routed": 1601, "itudinal": 1602, "\u0120Chad": 1603, "\u0120Center": 1604, "\u0120melanoma": 1605, "/)": 1606, "\u0120Tobacco": 1607, "\u0120lighthouse": 1608, "\u0120therapeutic": 1609, "Mal": 1610, "\u0120Alps": 1611, "cin": 1612, "\u0120stiff": 1613, "terpillar": 1614, "ack": 1615, "\u0120Emancipation": 1616, "\u0120overseas": 1617, "\u0120tourists": 1618, "\u0120Liberty": 1619, "\u0120vows": 1620, "\u0120tornadoes": 1621, "\u0120Kate": 1622, "origin": 1623, "\u0120O": 1624, "\u0120SC": 1625, "IGN": 1626, "\u0120moons": 1627, "\u0120Cru": 1628, "\u0120spatial": 1629, "formed": 1630, "\u0120percentage": 1631, "\u0120helpless": 1632, "\u0120catastrophe": 1633, "\u0120warmth": 1634, "\u0120Kellogg": 1635, "\u0120jazz": 1636, "\u0120stern": 1637, "\u0120sentences": 1638, "\u0120doctrines": 1639, "\u0120ranking": 1640, "volt": 1641, "\u0120imperative": 1642, "\u0120galaxy": 1643, "\u0120Croatia": 1644, "\u0120Io": 1645, "\u0120diminished": 1646, "\u0120infantry": 1647, "\u0120infringe": 1648, "imal": 1649, "\u0120ventilat": 1650, "\u0120Keynes": 1651, "\u0120Disabilities": 1652, "\u0120Classic": 1653, "\u0120ramp": 1654, "\u0120Dam": 1655, "!!": 1656, "\u0120proximal": 1657, "\u0120group": 1658, "\u0120Vo": 1659, "\u0120Gloucester": 1660, "\u0120Fitness": 1661, "\u0120hearts": 1662, "\u0120Charlie": 1663, "\u0120Chocolate": 1664, "\u0120entrenched": 1665, "\u0120tyrann": 1666, "\u0120customer": 1667, "\u0120connexion": 1668, "\u0120morbidity": 1669, "\u0120ty": 1670, "\u0120voice": 1671, ")": 1672, "\u0120theme": 1673, "\u0120Gynec": 1674, "\u0120tells": 1675, "\u0120obesity": 1676, "\u0120scroll": 1677, "\u0120Kramer": 1678, "\u0120neutrons": 1679, "\u0120school": 1680, "\u0120unwarranted": 1681, "\u0120Lisbon": 1682, "\u0120penitent": 1683, "ively": 1684, "\u0120calculated": 1685, "\u0120endeavors": 1686, "\u0120distributing": 1687, "eu": 1688, "\u0120w": 1689, "\u0120mon": 1690, "nox": 1691, "\u0120eco": 1692, "ik": 1693, "hd": 1694, "\u0120forest": 1695, "\u0120cata": 1696, "\u0120platform": 1697, "\u0120Syrian": 1698, "\u0120members": 1699, "\u0120lobe": 1700, "rata": 1701, "45": 1702, "\u0120upgrades": 1703, "\u0120Jaguar": 1704, "\u0120lifts": 1705, "\u0120gland": 1706, "\u0120pursue": 1707, "\u0120esteem": 1708, "\u0120removal": 1709, "\u0120Series": 1710, "\u0120lord": 1711, "\u0120Poverty": 1712, "\u0120chronic": 1713, "\u0120disillusion": 1714, "ge": 1715, "\u0120interconnect": 1716, "\u0120belligerent": 1717, "\u0120currently": 1718, "\u0120exerted": 1719, "Pla": 1720, "forest": 1721, "\u0120tuning": 1722, "nom": 1723, "\u0120Ar": 1724, "\u0120transitional": 1725, "\u0120Shortly": 1726, "\u0120finds": 1727, "\u0120Portfolio": 1728, "\u0120Ethno": 1729, "\u0120Interestingly": 1730, "\u0120pregnancies": 1731, "\u0120manipulation": 1732, "\u0120intellectually": 1733, "\u0120numbness": 1734, "\u0120according": 1735, "\u0120clu": 1736, "\u0120railroad": 1737, "\u0120affects": 1738, "\u0120relationships": 1739, "\u0120jars": 1740, "\u0120triple": 1741, "Virtual": 1742, "\u0120lantern": 1743, "\u0120solubility": 1744, "\u0120nominated": 1745, "\u0120sail": 1746, "\u0120stacked": 1747, "\u0120importantly": 1748, "\u0120Broadcasting": 1749, "\u0120Belgium": 1750, "\u0120sailing": 1751, "similar": 1752, "\u0120graphic": 1753, "\u0120pollutants": 1754, "\u0120vagina": 1755, "\u0120collects": 1756, "\u0120pedestrians": 1757, "\u0120dimension": 1758, "\u0120therefore": 1759, "\u0120mystic": 1760, "\u0120Team": 1761, "MW": 1762, "\u0120reaching": 1763, "\u0120stark": 1764, "tropic": 1765, "149": 1766, "\u0120prefix": 1767, "\u0120disorder": 1768, "\u0120Being": 1769, "\u0120Antiquities": 1770, "\u0120spraying": 1771, "\u0120leverage": 1772, "\u0120the": 1773, "bies": 1774, "\u0120perpetuate": 1775, "PORT": 1776, "\u0120Beautiful": 1777, "\u0120observed": 1778, "\u0120interfere": 1779, "\u0120marriage": 1780, "\u0120Against": 1781, "\u0120Woman": 1782, "\u0120threatens": 1783, "erting": 1784, "western": 1785, "\u0120arbit": 1786, "\u0120warrior": 1787, "\u0120gentlemen": 1788, "\u0120Elephant": 1789, "ylene": 1790, "\u0120normal": 1791, "\u0120departments": 1792, "\u0120Des": 1793, "\u0120Historic": 1794, "\u01201858": 1795, "ature": 1796, "\u0120Ferry": 1797, "\u0120Have": 1798, "\u0120various": 1799, "\u0120savage": 1800, "\u0120hundred": 1801, "ican": 1802, "\u0120Capital": 1803, "\u0120brings": 1804, "\u0120Multi": 1805, "\u0120requires": 1806, "\u0120paddle": 1807, "\u012049": 1808, "\u0120Fla": 1809, "\u0120GUI": 1810, "ensible": 1811, "cian": 1812, "\u0120seek": 1813, "\u0120inhibitory": 1814, "\u0120qualification": 1815, "\u0120row": 1816, "\u0120maritime": 1817, "Bay": 1818, "164": 1819, "%||": 1820, "\u0120beaut": 1821, "rism": 1822, "\u0120severity": 1823, "\u0120pierce": 1824, "rights": 1825, "\u0120forgot": 1826, "\u01201300": 1827, "\u0120branch": 1828, "GO": 1829, "\u0120NSF": 1830, "\u0120Account": 1831, "\u0120Despite": 1832, "\u0120Edition": 1833, "\u0120Bru": 1834, "\u0120base": 1835, "\u0120actors": 1836, "\u0120ju": 1837, "\u0120knows": 1838, "\u0120visitor": 1839, "\u0120pagoda": 1840, "\u00c3\u00b0": 1841, "\u0120Monica": 1842, "\":": 1843, "\u0120plantation": 1844, "Typical": 1845, "\u0120Wal": 1846, "\u0120impurities": 1847, "\u0120hospitals": 1848, "\u0120Newman": 1849, "gra": 1850, "\u0120Perception": 1851, "\u0120patron": 1852, "\u0120Risk": 1853, "\u0120Ag": 1854, "Fair": 1855, "Keeping": 1856, "\u0120retinal": 1857, "\u0120inquire": 1858, "\u0120indent": 1859, "\u0120Syria": 1860, "\u0120decides": 1861, "\u0120margins": 1862, "\u0120..": 1863, "\u0120recreation": 1864, "\u0120Saviour": 1865, "\u0120Sparta": 1866, "\u0120fist": 1867, "pm": 1868, "\u0120skills": 1869, "\u0120stronger": 1870, "\u0120pictures": 1871, "scientist": 1872, "260": 1873, "\u0120ASTM": 1874, "\u0120patient": 1875, "\u0120spaceflight": 1876, "nya": 1877, "King": 1878, "valence": 1879, "\u0120Phillips": 1880, "\u0120Treasury": 1881, "\u0120Equipment": 1882, "\u0120fuel": 1883, "\u0120Pratt": 1884, "\u0120pens": 1885, "cclesiast": 1886, "\u0120developing": 1887, "\u0120courtyard": 1888, "\u01201862": 1889, "\u0120Romans": 1890, "\u0120Cocoa": 1891, "for": 1892, "frames": 1893, "\u0120moon": 1894, "\u0120Hell": 1895, "\u0120dual": 1896, "\u0120Faulkner": 1897, "\u0120WA": 1898, "\u0120Rhodes": 1899, "\u0120uninhabited": 1900, "\u0120overall": 1901, "\u0120stoves": 1902, "\u0120figurines": 1903, "mation": 1904, "\u0120decorations": 1905, "\u0120ants": 1906, "\u0120groundwater": 1907, "\u0120Before": 1908, "\u00e2\u0122\u00a6": 1909, "esi": 1910, "ENCE": 1911, "\u0120cake": 1912, "\u0120production": 1913, "\u0120source": 1914, "\u0120ties": 1915, "center": 1916, "\u0120trails": 1917, "\u0120spellings": 1918, "\u0120devastated": 1919, "\u0120dictates": 1920, "\u0120delayed": 1921, "\u0120entrances": 1922, "\u0120inter": 1923, "\u0120fragility": 1924, "\u012097": 1925, "\u0120LI": 1926, "sun": 1927, "\u0120ingested": 1928, "\u0120cirrhosis": 1929, "\u0120Week": 1930, "\u0120toll": 1931, "\u0120woodlands": 1932, "\u0120prefer": 1933, "\u0120WW": 1934, "\u0120demon": 1935, "\u01201949": 1936, "\u0120resistance": 1937, "\u0120She": 1938, "\u0120Sever": 1939, "\u0120recipients": 1940, "\u0120Dol": 1941, "\u0120Taliban": 1942, "08": 1943, "Improving": 1944, "\u0120Peace": 1945, "qualified": 1946, "\u0120referendum": 1947, "poverty": 1948, "\u0120Jehoiakim": 1949, "\u0120Topeka": 1950, "\u0120Directors": 1951, "\u0120button": 1952, "\u0120lined": 1953, "\u0120thriving": 1954, "\u0120orchard": 1955, "Performance": 1956, "\u0120infants": 1957, "\u0120Typically": 1958, "al": 1959, "dging": 1960, "\u0120generating": 1961, "ess": 1962, "\u0120parable": 1963, "\u0120berries": 1964, "\u0120polish": 1965, "\u0120harass": 1966, "\u0120puppies": 1967, "\u0120peach": 1968, "\u0120supervision": 1969, "\u0120Heights": 1970, "\u0120Coffee": 1971, "\u0120voluntary": 1972, "\u0120dehydrated": 1973, "\u0120diabetics": 1974, "\u0120Kemp": 1975, "\u0120coloration": 1976, "Apart": 1977, "Im": 1978, "tag": 1979, "\u0120getting": 1980, "\u0120precepts": 1981, "tland": 1982, "\u0120Basically": 1983, "\u0120immortal": 1984, "\u0120scans": 1985, "\u0120desolate": 1986, "cles": 1987, "City": 1988, "\u01201852": 1989, "Terms": 1990, "\u0120increased": 1991, "Christ": 1992, "\u0120PWM": 1993, "dominant": 1994, "\u0120Chap": 1995, "\u0120Travel": 1996, "\u0120sinking": 1997, "\u0120Tau": 1998, "\u0120Rob": 1999, "\u0120really": 2000, "\u0120Deep": 2001, "\u0120steps": 2002, "\u0120equipment": 2003, "\u0120Navajo": 2004, "\u0120coyotes": 2005, "\u0120antibiotics": 2006, "Experi": 2007, "\u0120rewritten": 2008, "\u0120dragon": 2009, "\u0120Union": 2010, "chus": 2011, "These": 2012, "\u0120192": 2013, "\u0120exposure": 2014, "\u0120competency": 2015, "\u0120divine": 2016, "\u0120)": 2017, "\u0120biosphere": 2018, "\u0120Price": 2019, "\u0120against": 2020, "\u0120urinalysis": 2021, "\u0120claws": 2022, "\u0120business": 2023, "mine": 2024, "\u0120vet": 2025, "ndo": 2026, "\u0120veins": 2027, "Par": 2028, "\u0120Obstet": 2029, "\u0120Diagnostic": 2030, "\u0120ended": 2031, "\u0120admit": 2032, "\u0120mighty": 2033, "\u0120Ker": 2034, "\u0120fertilizers": 2035, "\u00bf": 2036, "\u0120repr": 2037, "Later": 2038, "Heavy": 2039, "\u0120Complete": 2040, "./": 2041, "\u0120analysed": 2042, "Canadian": 2043, "\u0120extraordinary": 2044, "\u0120Configuration": 2045, "\u0120Suzanne": 2046, "\u0120RAF": 2047, "\u0120lightly": 2048, "\u0120low": 2049, "\u0120All": 2050, "rh": 2051, "\u0120Max": 2052, "\u0120spiral": 2053, "\u0120Recognize": 2054, "Script": 2055, "\u0120Based": 2056, "green": 2057, "->": 2058, "Shop": 2059, "\u0120greater": 2060, "\u0120elect": 2061, "\u0120dependence": 2062, "\u0120overshadowed": 2063, "\u0120nourish": 2064, "\u0120disappearance": 2065, "\u0120numerical": 2066, "\u0120toys": 2067, "nas": 2068, "\u0120ataxia": 2069, "beta": 2070, "\u0120basketball": 2071, "Birkenau": 2072, "\u0120sometime": 2073, "\u0120permeability": 2074, "\u0120Friday": 2075, "\u0120young": 2076, "||\u00e2\u0122\u0136||": 2077, "UL": 2078, "\u0120retrieving": 2079, "\u0120parliamentary": 2080, "\u0120+": 2081, "\u0120replacing": 2082, "\u0120pleasures": 2083, "\u0120oblong": 2084, "tained": 2085, "\u012077": 2086, "1995": 2087, "\u0120allergens": 2088, "\u0120prism": 2089, "\u0120reasons": 2090, "\u0120pups": 2091, "form": 2092, "\u0120socket": 2093, "\u0120inland": 2094, "\u0120cli": 2095, "\u0120blatant": 2096, "\u0120attackers": 2097, "\u0120Cretaceous": 2098, "\u0120Amsterdam": 2099, "ounce": 2100, "\u0120undertake": 2101, "\u0120cosmological": 2102, "\u0120Relations": 2103, "\u0120inhibits": 2104, "!!!": 2105, "dee": 2106, "\u0120biblical": 2107, "\u0120Vish\u00e1\u00b9\u0129u": 2108, "\u0120Southeast": 2109, "\u0120Confederates": 2110, "Antonyms": 2111, "posing": 2112, "\u0120almost": 2113, "erre": 2114, "xia": 2115, "\u0120147": 2116, "\u0120Computer": 2117, "\u0120accord": 2118, "Sep": 2119, "\u0120security": 2120, "\u0120algae": 2121, "\u0120investigating": 2122, "\u0120alarming": 2123, "\u0120rust": 2124, "\u0120rudimentary": 2125, "\u0120Turing": 2126, "inator": 2127, "\u0120circus": 2128, "plicating": 2129, "\u0120boosts": 2130, "\u0120Jul": 2131, "\u0120guess": 2132, "\u0120axiom": 2133, "\u0120counterparts": 2134, "\u0120Hispanic": 2135, "\u0120HERE": 2136, "tailed": 2137, "\u0120passenger": 2138, "\u0120glaci": 2139, "\"\u00e2\u0122\u0136": 2140, "\u012023": 2141, "Gas": 2142, "\u0120different": 2143, "temp": 2144, "Indi": 2145, "Articles": 2146, "\u0120feeder": 2147, "either": 2148, "\u0120Pagan": 2149, "\u0120Revelation": 2150, "industry": 2151, "\u0120appealed": 2152, "rky": 2153, "\u0120dehydrogenase": 2154, "\u0120maker": 2155, "\u0120CBD": 2156, "\u0120Nitrogen": 2157, "winter": 2158, "timate": 2159, "\u0120ear": 2160, "\u0120Brahman": 2161, "\u0120premium": 2162, "\u0120southwest": 2163, "Obviously": 2164, "\u0120Canon": 2165, "\u0120spikes": 2166, "\u0120constellation": 2167, "\u0120propagation": 2168, "\u0120chunks": 2169, "\u0120immigrant": 2170, "Images": 2171, "\u0120observe": 2172, "llies": 2173, "\u0120Fitz": 2174, "\u0120turn": 2175, "tter": 2176, "hua": 2177, "\u0120anatomy": 2178, "\u0120News": 2179, "\u0120obligation": 2180, "\u0120Mit": 2181, "\u0120P": 2182, "\u0120bright": 2183, "\u0120310": 2184, "\u0120Re": 2185, "\u0120vitro": 2186, "\u0120Maryland": 2187, "\u0120Malta": 2188, "bek": 2189, "\u0120Score": 2190, "\u0120decreases": 2191, "\u0120sons": 2192, "\u0120lumin": 2193, "\u012085": 2194, "\u0120aloft": 2195, "\u0120tin": 2196, "\u0120opportunistic": 2197, "\u0120radically": 2198, "\u0120badges": 2199, "mentioned": 2200, "kon": 2201, "\u0120Council": 2202, "ibular": 2203, "\u0120circulatory": 2204, "\u0120Mechanics": 2205, "\u0120culture": 2206, "atory": 2207, "\u0120ladies": 2208, "\u0120Kindergarten": 2209, "\u0120conduction": 2210, "\u0120Ride": 2211, "\u0120unquestion": 2212, "pot": 2213, "\u0120Dwight": 2214, "\u0120alert": 2215, "\u0120Houghton": 2216, "George": 2217, "\u0120pheasant": 2218, "\u0120numer": 2219, "\u0120lock": 2220, "139": 2221, "\u0120Services": 2222, "ved": 2223, "ctor": 2224, "\u0120histori": 2225, "\u0120name": 2226, "\u0120peas": 2227, "tooth": 2228, "\u0120clearly": 2229, "sa": 2230, "concept": 2231, "\u0120suffering": 2232, "\u0120Programming": 2233, "\u0120Are": 2234, "\u0120sur": 2235, "\u0120Chen": 2236, "\u0120disparate": 2237, "\u0120discipline": 2238, "\u0120traced": 2239, "\u0120auditory": 2240, "\u0120minister": 2241, "\u0120Ubuntu": 2242, "cular": 2243, "ological": 2244, "\u0120Chiefs": 2245, "\u0120fathers": 2246, "\u0120stip": 2247, "\u0120Authentic": 2248, "master": 2249, "\u0120contemplation": 2250, "gby": 2251, "\u0120Learners": 2252, "\u0120plummet": 2253, "\u0120headquartered": 2254, "\u0120Ent": 2255, "\u0120incremental": 2256, "\u0120fluids": 2257, "\u0120liberated": 2258, "\u0120caloric": 2259, "\u0120microbial": 2260, "\u0120Nguyen": 2261, "Comparison": 2262, "\u0120commentary": 2263, "\u0120captive": 2264, "\u0120dedication": 2265, "\u0120confirmation": 2266, "orbit": 2267, "\u0120equivalent": 2268, "\u0120Private": 2269, ".)": 2270, "\u0120patriarch": 2271, "\u0120Prevention": 2272, "\u0120Publishing": 2273, "\u0120federation": 2274, "thirds": 2275, "\u0120sovereign": 2276, "\u01202030": 2277, "\u0120Got": 2278, "\u0120Main": 2279, "\u0120retrieve": 2280, "Recommend": 2281, "\u0120opponents": 2282, "\u0120Chrys": 2283, "community": 2284, "ebe": 2285, "lb": 2286, "\u0120extracted": 2287, "\u0120accumulated": 2288, "\u0120fat": 2289, "\u0120folic": 2290, "\u0120VA": 2291, "\u0120Sen": 2292, "\u012064": 2293, "\u0120downwards": 2294, "\u0120Border": 2295, "\u0120projectiles": 2296, "Cl": 2297, "\u0120hydr": 2298, "Middle": 2299, "\u0120join": 2300, "\u0120fixtures": 2301, "\u0120gaining": 2302, "\u0120Table": 2303, "mounted": 2304, "\u0120colder": 2305, "ce": 2306, "\u0120automobiles": 2307, "\u0120solve": 2308, "\u0120Let": 2309, "\u0120Brittany": 2310, "\u0120small": 2311, "\u0120Jersey": 2312, "\u0120recruiting": 2313, "\u0120true": 2314, "ku": 2315, "rl": 2316, "ws": 2317, "layer": 2318, "\u0120interstitial": 2319, "\u0120physicians": 2320, "\u00c5\u0141": 2321, "\u0120Slovak": 2322, "Child": 2323, "\u0120Iv": 2324, "\u0120breastfeeding": 2325, "\u0120inhibiting": 2326, "\u0120cheap": 2327, "\u012058": 2328, "\u0120knots": 2329, "habit": 2330, "\u0120expedi": 2331, "\u0120assurance": 2332, "MIN": 2333, "\u0120Bryant": 2334, "\u0120Examples": 2335, "follow": 2336, "\u0120Bangladesh": 2337, "\u0120grenad": 2338, "\u0120irrelevant": 2339, "\u0120searches": 2340, "\u0120foolish": 2341, "\u0120burgdorferi": 2342, "\u0120given": 2343, "\u0120Lancashire": 2344, "essing": 2345, "national": 2346, "\u0120AD": 2347, "\u0120accredited": 2348, "\u0120series": 2349, "\u0120Autonomous": 2350, "\u0120Geneva": 2351, "\u0120Congressional": 2352, "\u0120metaphor": 2353, "\u0120clan": 2354, "\u0120HI": 2355, "\u0120McDowell": 2356, "\u0120GR": 2357, "1975": 2358, "listed": 2359, "\u0120Terry": 2360, "\u0120Drum": 2361, "\u0120orchestra": 2362, "rest": 2363, "1922": 2364, "STEM": 2365, "\u0120dumped": 2366, "\u0120grading": 2367, "enza": 2368, "\u0120fright": 2369, "Medicine": 2370, "Save": 2371, "\u0120stressed": 2372, "write": 2373, "\u0120consider": 2374, "\u0120Strategy": 2375, "\u0120legislature": 2376, "\u0120discontent": 2377, "tru": 2378, "nesian": 2379, "\u0120replete": 2380, "Submitted": 2381, "\u0120generate": 2382, "\u0120Constitutional": 2383, "meat": 2384, "\u0120rich": 2385, "\u0120Mangalore": 2386, "tists": 2387, "\u0120flawed": 2388, "ton": 2389, "\u0120Sabbath": 2390, "\u0120wars": 2391, "\u0120mandates": 2392, "\u0120preserve": 2393, "\u0120blisters": 2394, "\u0120Centuries": 2395, "\u0120dip": 2396, "\u0120yoke": 2397, "\u0120bioge": 2398, "\u0120Party": 2399, "sten": 2400, "\u0120boulevard": 2401, "\u0120homemade": 2402, "\u0120Caledonia": 2403, "ito": 2404, "xus": 2405, "\u0120JU": 2406, "\u0120withdrawal": 2407, "ested": 2408, "\u0120bone": 2409, "\u012075": 2410, "\u0120steer": 2411, "\u0120Maximilian": 2412, "\u0120pyramids": 2413, "\u0120myriad": 2414, "\u0120myself": 2415, "\u0120counted": 2416, "\u0120Ming": 2417, "join": 2418, "\u0120modifications": 2419, "\u0120glabrous": 2420, "income": 2421, "dos": 2422, "\u0120Superfund": 2423, "Calc": 2424, "\u0120glossary": 2425, "\u0120driving": 2426, "\u0120bent": 2427, "__": 2428, "vy": 2429, "\u0120public": 2430, "\u0120incorporation": 2431, "\u0120Liberia": 2432, "lson": 2433, "\u0120imagine": 2434, "Reilly": 2435, "\u0120courses": 2436, "Anyone": 2437, "UNESCO": 2438, "\u0120MY": 2439, "\u0120spike": 2440, "\u0120Aztec": 2441, "\u0120Overall": 2442, "\u0120Chinese": 2443, "\u0120redirect": 2444, "\u0120involvement": 2445, "rays": 2446, "\u0120Stimul": 2447, "\u0120too": 2448, "Results": 2449, "\u0120ku": 2450, "\u0120spurred": 2451, "\u0120centred": 2452, "\u0120coagulation": 2453, "ITY": 2454, "\u0120utterly": 2455, "\u0120cliff": 2456, "\u0120exp": 2457, "STR": 2458, "\u0120credit": 2459, "\u0120Antarctica": 2460, "\u0120reclaim": 2461, "\u0120Gon": 2462, "\u0120regenerate": 2463, "\u0120Rou": 2464, "\u0120Spread": 2465, "\u0120worthy": 2466, "Illinois": 2467, "\u0120proving": 2468, "\u0120biodiesel": 2469, "ifies": 2470, "\u0120Lakshadweep": 2471, "\u0120govern": 2472, "\u0120spectrum": 2473, "\u0120Nikola": 2474, "\u0120endured": 2475, "\u0120kW": 2476, "eng": 2477, "erra": 2478, "\u0120delegation": 2479, "\u0120exile": 2480, "\u0120seemingly": 2481, "1972": 2482, "\u0120machinery": 2483, "TABLE": 2484, "\u0120Writers": 2485, "\u0120buttocks": 2486, "\u0120tight": 2487, "\u0120Ara": 2488, "\u0120Leopard": 2489, "\u0120evolutionists": 2490, "IST": 2491, "\u0120Basin": 2492, "\u0120Judiciary": 2493, "\u0120Lev": 2494, "\u0120recombination": 2495, "\u0120eccentric": 2496, "\u0120often": 2497, "\u0120filmed": 2498, "\u0120necklace": 2499, "\u0120shoreline": 2500, "\u0120Pearson": 2501, "\u01201985": 2502, "\u0120orderly": 2503, "\u0120intro": 2504, "\u0120Sclerosis": 2505, "\u0120Among": 2506, "\u0120neighbouring": 2507, "ric": 2508, "whose": 2509, "ounded": 2510, "\u0120wherein": 2511, "\u0120backbone": 2512, "\u0120vegetarian": 2513, "during": 2514, "\u0120historically": 2515, "\u0120precipit": 2516, "Cra": 2517, "\u0120burst": 2518, "\u0120Alley": 2519, "\u012016": 2520, "oted": 2521, "\u0120specialized": 2522, "\u0120protozoa": 2523, "enh": 2524, "\u0120Lafayette": 2525, "\u0120\u00d0\u00bd\u00d0\u00b0": 2526, "\u012f": 2527, "\u0120implying": 2528, "ie": 2529, "\u0120Digital": 2530, "1920": 2531, "\u0120singing": 2532, "\u0120martial": 2533, "\u0120manifold": 2534, "\u0120\u00e1\u00b8": 2535, "\u0120GM": 2536, "\u0120NHS": 2537, "\u0120admitting": 2538, "Je": 2539, "\u0120Magazine": 2540, "\u0120Nations": 2541, "\u0120142": 2542, "\u0120Early": 2543, "EF": 2544, "\u0120enigmatic": 2545, "\u0120creature": 2546, "\u0120resonance": 2547, "\u0120retard": 2548, "(": 2549, "\u0120destroys": 2550, "102": 2551, "\u0120candles": 2552, "\u0120Nino": 2553, "180": 2554, "\u0120Rapids": 2555, "\u0120Hispaniola": 2556, "\u0120optimism": 2557, "\u0120altered": 2558, "\u0120fumes": 2559, "\u0120circumference": 2560, "\u0120flock": 2561, "\u0120Sean": 2562, "\u0120Was": 2563, "\u0120myocardial": 2564, "group": 2565, "\u0120required": 2566, "\u0120marches": 2567, "\u0120Mara": 2568, "\u0120amateur": 2569, "\u0120Catechism": 2570, "\u0120Departments": 2571, "\u0120steady": 2572, "\u0120Truth": 2573, "\u0120difficulty": 2574, "\u0120deci": 2575, "Cross": 2576, "\u0120latitudes": 2577, "Sk": 2578, "\u0120Mauritius": 2579, "French": 2580, "\u0120LCD": 2581, "\u0120crocodiles": 2582, "Other": 2583, "acting": 2584, "\u0120ammonia": 2585, "\u0120reviewed": 2586, "\u0120institutes": 2587, "\u0120168": 2588, "cle": 2589, "\u0120sincere": 2590, "surviv": 2591, "\u0120Sir": 2592, "\u0120wine": 2593, "\u0120learning": 2594, "\u0120creations": 2595, "\u0120gubernatorial": 2596, "ieve": 2597, "Courtesy": 2598, "\u0120Virus": 2599, "core": 2600, "\u0120burning": 2601, "\u0120bind": 2602, "\u0120clause": 2603, "\u0120Dream": 2604, "\u0120Etruscan": 2605, "\u0120velocity": 2606, "\u0120reporting": 2607, "\u0120RE": 2608, "\u0120Quincy": 2609, "\u0120African": 2610, "\u0120Alt": 2611, "\u0120assert": 2612, "86": 2613, "\u0120Deco": 2614, "\u0120regular": 2615, "\u0120proxy": 2616, "omycin": 2617, "\u0120Eco": 2618, "\u0120hy": 2619, "\u0120vibrations": 2620, "\u00e2\u0122\u0142": 2621, "\u0120latitude": 2622, "\u0120increasingly": 2623, "\u0120covering": 2624, "kra": 2625, "mates": 2626, "\u0120Rouge": 2627, "\u0120faster": 2628, "\u0120Be": 2629, "\u0120Type": 2630, "\u0120Grace": 2631, "\u0120Fundamental": 2632, "\u0120Tips": 2633, "\u0120transcripts": 2634, "\u0120Besides": 2635, "\u0120escaped": 2636, "153": 2637, "\u00ce": 2638, "sized": 2639, "Advanced": 2640, "\u0120adopting": 2641, "\u0120NASA": 2642, "\u0120rejects": 2643, "\u0120node": 2644, "\u0120Fiber": 2645, "\u0120critically": 2646, "\u0120amputation": 2647, "\u0120Sm": 2648, "Tu": 2649, "\u0120receptor": 2650, "\u0120sav": 2651, "\u0120Brian": 2652, "eed": 2653, "\u0120Kathryn": 2654, "\u0120Boo": 2655, "documented": 2656, "\u0120showed": 2657, "cast": 2658, "\u0120fault": 2659, "\u0120expecting": 2660, "oxetine": 2661, "\u0120ostrich": 2662, "\u0120Ellsworth": 2663, "Rob": 2664, "\u0120Features": 2665, "\u0120rotation": 2666, "\u0120access": 2667, "\u0120microbi": 2668, "\u0120evocative": 2669, "@": 2670, "\u01201883": 2671, "\u0120silica": 2672, "\u0120gaseous": 2673, "image": 2674, "\u0120ancestry": 2675, "\u0120conducting": 2676, "\u0120specializes": 2677, "\u0120Himalayan": 2678, "\u0120bamboo": 2679, "\u0120saline": 2680, "\u0120transferring": 2681, "\u0120fractional": 2682, "\u0120genetically": 2683, "\u0120adverb": 2684, "\u0120demonstrate": 2685, "\u00e1\u00ba": 2686, "72": 2687, "\u0120extensively": 2688, "PF": 2689, "ues": 2690, "Att": 2691, "fore": 2692, "\u0120Window": 2693, "\u0120subset": 2694, "\u0120attested": 2695, "\u0120binds": 2696, "elli": 2697, "atum": 2698, "\u0120Jeffrey": 2699, "\u0120Harvest": 2700, "\u0120home": 2701, "ror": 2702, "\u0120porous": 2703, "\u0120plague": 2704, "\u0120magazine": 2705, "FIG": 2706, "\u0120Hydro": 2707, "\u0120chairs": 2708, "\u0120Circuit": 2709, "ndering": 2710, "\u0120Perth": 2711, "\u0120110": 2712, "\u0120neatly": 2713, "\u0120thence": 2714, "\u0120prestige": 2715, "\u0120Here": 2716, "\u0120overcoming": 2717, "\u0120Mich": 2718, "ono": 2719, "\u0120Care": 2720, "\u0120Ava": 2721, "\u0120Ada": 2722, "\u0120tactile": 2723, "\u0120fried": 2724, "\u0120soaked": 2725, "congruent": 2726, "\u0120excellence": 2727, "\u0120departed": 2728, "\u0120scary": 2729, "\u0120Knight": 2730, "\u0120controversies": 2731, "\u0120Oswald": 2732, "\u0120crew": 2733, "\u0120uphold": 2734, "\u0120views": 2735, "uz": 2736, "all": 2737, "\u0120representative": 2738, "\u0120exemplified": 2739, "bn": 2740, "\u0120outfit": 2741, "\u0120malware": 2742, "\u0120Healthcare": 2743, "\u0120Kevin": 2744, "\u0120van": 2745, "\u0120Bangalore": 2746, "\u0120Clay": 2747, "hs": 2748, "\u0120Perspectives": 2749, "\u0120notified": 2750, "efficient": 2751, "\u0120invasive": 2752, "\u0120matrices": 2753, "IGHT": 2754, "ART": 2755, "\u0120owns": 2756, "\u0120Pretoria": 2757, "\u0120wholly": 2758, "\u0120drag": 2759, "\u01202016": 2760, "\u0120mackerel": 2761, "\u0120Aristotle": 2762, "\u0120communications": 2763, "\u0120Journey": 2764, "\u0120entered": 2765, "\u0120blessings": 2766, "\u0120Where": 2767, "\u01201940": 2768, "\u0120Lund": 2769, "piration": 2770, "\u0120cabin": 2771, "\u0120mammary": 2772, "\u0120organize": 2773, "\u0120asleep": 2774, "\u0120swarm": 2775, "\u0120counseling": 2776, "hill": 2777, "dian": 2778, "RODUCTION": 2779, "\u01201908": 2780, "pletion": 2781, "\u0120silly": 2782, "\u0120implication": 2783, "\u0120picked": 2784, "\u0120avoids": 2785, "\u0120championed": 2786, "\u0120Darwin": 2787, "\u0120Arn": 2788, "\u00d0\u00ba": 2789, "\u0120asked": 2790, "\u0120Mars": 2791, "\u0120ethical": 2792, "\u0120amalgam": 2793, "\u0120assistive": 2794, "\u0120Apostle": 2795, "\u0120Thy": 2796, "Pos": 2797, "\u0120sent": 2798, "\u0120entertainment": 2799, "\u0120cutter": 2800, "\u0120anniversary": 2801, "\u012070": 2802, "\u012089": 2803, "\u0120Tele": 2804, "\u0120assist": 2805, "\u0120desirable": 2806, "\u0120Iraqi": 2807, "Additional": 2808, "\u0120wastes": 2809, "\u00c3\u00af": 2810, "\u0120Anabaptism": 2811, "\u0120leafy": 2812, "\u0120feelings": 2813, "\u0120accompaniment": 2814, "tropical": 2815, "\u0120gray": 2816, "\u0120discourage": 2817, "\u0120glove": 2818, "\u0120Qur": 2819, "ab": 2820, "\u0120Amen": 2821, "dges": 2822, "\u0120dignitaries": 2823, "\u0120Saturn": 2824, "\u0120ages": 2825, "\u0120dolphins": 2826, "\u0120Tha": 2827, "\u0120Em": 2828, "Th": 2829, "\u0120pumped": 2830, "\u0120Consumers": 2831, "\u0120pure": 2832, "\u0120scope": 2833, "\u0120motivating": 2834, "da": 2835, "\u0120reckless": 2836, "\u0120biomass": 2837, "Latest": 2838, "tens": 2839, "\u0120brass": 2840, "\u0120positioned": 2841, "\u0120protocols": 2842, "placing": 2843, "\u0120thalamus": 2844, "arial": 2845, "\u0120decentral": 2846, "\u0120Gymnasium": 2847, "\u0120Group": 2848, "\u0120rating": 2849, "\u0120differs": 2850, "\u0120na\u00c3\u00afve": 2851, "\u0120postal": 2852, "Sto": 2853, "Simple": 2854, "\u0120Boniface": 2855, "\u0120cycling": 2856, "\u0120Resources": 2857, "COM": 2858, "\u0120splash": 2859, "\u0120unexpected": 2860, "\u0120Stanley": 2861, "\u0120magnet": 2862, "cratic": 2863, "elo": 2864, "\u0120sequential": 2865, "irs": 2866, "\u0120negotiations": 2867, "\u0120Navy": 2868, "\").": 2869, "\u0120firmly": 2870, "\u0120prepares": 2871, "\u0120Instrument": 2872, "\u0120educator": 2873, "\u0120incessant": 2874, "\u0120strategically": 2875, "\u0120Kashubian": 2876, "\u0120Harriet": 2877, "\u0120symptoms": 2878, "yth": 2879, "\u0120platypus": 2880, "\u0120simulations": 2881, "\u0120Processes": 2882, "\u0120subject": 2883, "\u0120medieval": 2884, "\u0120communicating": 2885, "\u0120Ph": 2886, "\u0120Baroque": 2887, "\u00c5\u00a1": 2888, "ati": 2889, "\u0120Opens": 2890, "``": 2891, "\u0120takes": 2892, "\u0120demands": 2893, "ba": 2894, "\u0120artifact": 2895, "\u0120breeders": 2896, "\u0120Monitoring": 2897, "\u0120Surely": 2898, "\u0120forfeit": 2899, "\u0120witch": 2900, "\u0120mode": 2901, "Napoleon": 2902, "\u0120mtDNA": 2903, "\u0120topical": 2904, "\u0120Barrett": 2905, "Military": 2906, "\u00e2\u0124\u00ac": 2907, "ux": 2908, "\u0120sausage": 2909, "Ly": 2910, "\u0120Chagas": 2911, "\u0120jealous": 2912, "\u0120stock": 2913, "\u0120Everett": 2914, "\u0120they": 2915, "\u0120Webster": 2916, "\u0120untouched": 2917, "\u0120renounce": 2918, "\u0120Legislation": 2919, "\u0120infrastructure": 2920, "sq": 2921, "\u00e2\u012a": 2922, "referred": 2923, "\u0120pole": 2924, "\u0120prohibits": 2925, "RY": 2926, "\u0120expenses": 2927, "shape": 2928, "\u0120appealing": 2929, "\u0120Andean": 2930, "\u0120abduction": 2931, "\u0120decrees": 2932, "\u0120Petroleum": 2933, "\u0120vivo": 2934, "\u0120Protocol": 2935, "\u0120urine": 2936, "\u0120Beat": 2937, "\u0120levels": 2938, "\u0120largely": 2939, "\u0120sympath": 2940, "\u0120facets": 2941, "casting": 2942, "\u0120non": 2943, "\u0120maybe": 2944, "\u0120holders": 2945, "\u0120Glacier": 2946, "\u0120iceberg": 2947, "\u0120sniff": 2948, "\u0120motivations": 2949, "\u0120approximately": 2950, "\u0120Mad": 2951, "\u0120Statistical": 2952, "\u0120armament": 2953, "\u0120tiles": 2954, "\u0120nutritious": 2955, "\u0120appetite": 2956, "\u0120dorm": 2957, "\u0120260": 2958, "\u0120pre": 2959, "Super": 2960, "\u0120hemispheres": 2961, "\u0120panel": 2962, "\u0120unde": 2963, "\u0120Privy": 2964, "\u0120ignorant": 2965, "\u0120Analytical": 2966, "\u0120Mur": 2967, "\u0120Failure": 2968, "\u0120ally": 2969, "\u0120strat": 2970, "Me": 2971, "\u0120Jos": 2972, "ark": 2973, "\u0120chu": 2974, "\u0120ur": 2975, "\u0120creep": 2976, "\u0120mulch": 2977, "\u0120Abel": 2978, "\u0120Allan": 2979, "\u0120mounds": 2980, "\u0120Driving": 2981, "prom": 2982, "bed": 2983, "fn": 2984, "\u0120symbolizes": 2985, "\u0120hybrid": 2986, "\u0120meridian": 2987, "\u0120instructed": 2988, "\u0120cumbersome": 2989, "\u0120recreate": 2990, "\u0120routers": 2991, "\u0120Date": 2992, "\u0120mad": 2993, "\u0120conference": 2994, "\u0120Weber": 2995, "\u0120Siegfried": 2996, "\u0120surveying": 2997, "\u0120aminoglycoside": 2998, "\u0120divert": 2999, "\u0120Levy": 3000, "\u0120Interior": 3001, "\u0120metallic": 3002, "\u0120packaged": 3003, "yx": 3004, "\u0120Detection": 3005, "\u0120Low": 3006, "\u0120Shu": 3007, "\u0120controls": 3008, "\u0120second": 3009, "Mass": 3010, "\u0120greed": 3011, "\u012053": 3012, "\u0120enhanced": 3013, "\u0120creams": 3014, "\u0120emissivity": 3015, "Religious": 3016, "monitoring": 3017, "\u0120pendant": 3018, "\u0120Nan": 3019, "mo": 3020, "\u0120meadow": 3021, "\u0120Lore": 3022, "\u0120Warm": 3023, "specific": 3024, "\u0120festive": 3025, "yed": 3026, "BS": 3027, "dus": 3028, "ductive": 3029, "\u0120themselves": 3030, "\u0120Markets": 3031, "\u0120Protestants": 3032, "\u0120engineering": 3033, "\u0120Cons": 3034, "\u0120groundwork": 3035, "\u0120Province": 3036, "card": 3037, "\u0120FIG": 3038, "\u0120rehabilit": 3039, "\u0120novelist": 3040, "\u0120Abbas": 3041, "TO": 3042, "\u0120Okinawa": 3043, "\u0120Cyber": 3044, "\u012099": 3045, "450": 3046, "\u0120grandparents": 3047, "\u0120construct": 3048, "\u0120weaken": 3049, "\u0120ax": 3050, "\u0120avatar": 3051, "\u0120laziness": 3052, "\u0120Treaty": 3053, "\u0120Barton": 3054, "cooked": 3055, "\u0120authoritative": 3056, "\u0120Var": 3057, "Islam": 3058, "Analysis": 3059, "making": 3060, "\u0120hypothalamus": 3061, "\u0120Deb": 3062, "\u0120stimulating": 3063, "frey": 3064, "\u0120Observation": 3065, "inal": 3066, "\u0120timer": 3067, "\u0120missiles": 3068, "\u0120unexplained": 3069, "\u0120Jason": 3070, "\u0120]": 3071, "\u0120Albert": 3072, "liest": 3073, "\u0120Di": 3074, "expression": 3075, "Greek": 3076, "\u0120split": 3077, "\u0120favourite": 3078, "mechanics": 3079, "\u0120supportive": 3080, "since": 3081, "\u01201818": 3082, "\u0120chord": 3083, "While": 3084, "\u0120allows": 3085, "\u0120might": 3086, "\u0120veggies": 3087, "LL": 3088, "\u0120donation": 3089, "\u0120Introduction": 3090, "\u0120arduous": 3091, "nucle": 3092, "ub": 3093, "\u0120evangelical": 3094, "\u0120802": 3095, "\u0120goodness": 3096, "ceiving": 3097, "\u0120genetic": 3098, "\u0120unconditional": 3099, "\u0120vicinity": 3100, "\u0120latent": 3101, "\u0120butcher": 3102, "\u0120Democritus": 3103, "clamation": 3104, "\u0120Governance": 3105, "\u0120ordained": 3106, "FDA": 3107, "OD": 3108, "\u0120plebiscite": 3109, "Vo": 3110, "\u0120criticized": 3111, "\u0120Regulation": 3112, "\u0120Edison": 3113, "\u0120prevailing": 3114, "\u0120suck": 3115, "\u0120Privilege": 3116, "\u0120raise": 3117, "cing": 3118, "\u0120clear": 3119, "128": 3120, "\u01203000": 3121, "\u0120eugenics": 3122, "\u0120importing": 3123, "\u0120fewer": 3124, "\u0120CS": 3125, "\u0120dressing": 3126, "\u0120misunderstood": 3127, "\u00c3\u00a7": 3128, "Dear": 3129, "\u0120Classical": 3130, "\u0120articles": 3131, "\u0120Scra": 3132, "\u0120rules": 3133, "\u0120Snake": 3134, "\u0120iconic": 3135, "\u0120parallel": 3136, "\u0120returns": 3137, "\u0120preferably": 3138, "\u0120James": 3139, "\u0120Foundation": 3140, "\u0120Islands": 3141, "\u0120Duke": 3142, "\u0120Complex": 3143, "pted": 3144, "\u0120Country": 3145, "\u0120meantime": 3146, "\u0120violently": 3147, "\u0120[": 3148, "\u0120cent": 3149, "\u0120consciously": 3150, "\u0120mammogram": 3151, "\u0120develop": 3152, "Massachusetts": 3153, "\u0120machines": 3154, "effective": 3155, "encyclopedia": 3156, "\u0120invitation": 3157, "\u0120Echo": 3158, "\u0120spa": 3159, "\u0120skate": 3160, "\u0120Fine": 3161, "\u0120deployment": 3162, "ple": 3163, "\u0120safety": 3164, "rand": 3165, "\u0120exert": 3166, "\u0120philanthrop": 3167, "\u00e1\u00b9\u0129a": 3168, "\u0120Kant": 3169, "\u0120variants": 3170, "\u0120urea": 3171, "\u0120fusion": 3172, "Which": 3173, "\u0120widening": 3174, "\u0120Hesiod": 3175, "beck": 3176, "\u0120amphibian": 3177, "nk": 3178, "\u0120extrem": 3179, "cke": 3180, "\u0120regimens": 3181, "\u0120Part": 3182, "\u0120recyclable": 3183, "\u0120genome": 3184, "\u0120seafloor": 3185, "\u0120Grid": 3186, "\u0120Threatened": 3187, "earth": 3188, "\u01201959": 3189, "\u0120comparable": 3190, "\u0120truck": 3191, "\u0120Kara": 3192, "\u0120legally": 3193, "titutional": 3194, "\u0120neutral": 3195, "\u0120Layer": 3196, "\u0120width": 3197, "nny": 3198, "\u0120honest": 3199, "\u012036": 3200, "\u0120atmospheric": 3201, "\u0120occupations": 3202, "\u0120biochemistry": 3203, "soft": 3204, "\u0120stringent": 3205, "\u0120motives": 3206, "upon": 3207, "\u0120900": 3208, "\u0120sleep": 3209, "\u0120Adventures": 3210, "\u0120wo": 3211, "\u0120Disease": 3212, "Custom": 3213, "\u0120relapsing": 3214, "170": 3215, "\u0120Citizens": 3216, "\u0120abroad": 3217, "\u00e6": 3218, "aud": 3219, "\u0120blurred": 3220, "ches": 3221, "\u0120j": 3222, "\u0120intakes": 3223, "\u0120Carlisle": 3224, "\u0120terrorism": 3225, "sed": 3226, "\u01201830": 3227, "\u0120repay": 3228, "\u0120push": 3229, "\u0120alb": 3230, "\u0120potent": 3231, "ddy": 3232, "\u0120fade": 3233, "\u0120dust": 3234, "\u0120him": 3235, "\u0120egalitarian": 3236, "123": 3237, "\u0120leach": 3238, "\u0120jewelry": 3239, "\u0120flora": 3240, "\u0120Haitian": 3241, "\u0120corners": 3242, "\u0120flourished": 3243, "\u0120Zachary": 3244, "Oct": 3245, "\u0120Montgomery": 3246, "\u0120sweets": 3247, "\u0120Isabel": 3248, "\u0120vinegar": 3249, "\u0120investigates": 3250, "\u0120lodge": 3251, "\u0120tread": 3252, "\u0120hears": 3253, "onia": 3254, "\u0120Making": 3255, "\u0120misleading": 3256, "affected": 3257, "\u0120squa": 3258, "\u0120delusion": 3259, "\u0120liked": 3260, "ready": 3261, "\u0120arrogance": 3262, "\u0120advisory": 3263, "rch": 3264, "\u0120Corps": 3265, "erating": 3266, "\u0120quantitative": 3267, "\u0120labyrinth": 3268, "appropriate": 3269, "\u0120Balkans": 3270, "\u0120congestive": 3271, "\u0138": 3272, "\u0120hernia": 3273, "\u0120peel": 3274, "\u0120cooler": 3275, "\u0120Finn": 3276, "\u0120evening": 3277, "\u0120datasets": 3278, "find": 3279, "\u0120motto": 3280, "\u0120Vand": 3281, "\u0120Initially": 3282, "AT": 3283, "drop": 3284, "\u0120macro": 3285, "\u0120printable": 3286, "\u0120cakes": 3287, "\u0120mould": 3288, "change": 3289, "gl": 3290, "\u0120Strip": 3291, "look": 3292, "\u0120humili": 3293, "What": 3294, "\u0120veto": 3295, "\u0120Gadamer": 3296, "\u0120seawater": 3297, "\u0120sheriff": 3298, "\u0120habits": 3299, "\u0120Tuesday": 3300, "\u0120Confession": 3301, "\u0120Scandinavia": 3302, "ignificance": 3303, "\u0120videos": 3304, "\u0120hem": 3305, "\u0120corona": 3306, "1940": 3307, "\u0120emulate": 3308, "\u0120elsewhere": 3309, "\u0120rightly": 3310, "\u0120integrate": 3311, "\u0120Ford": 3312, "gate": 3313, "\u0120Appalachian": 3314, "\u0120unleash": 3315, "\u0120cockroaches": 3316, "\u0120millennia": 3317, "phen": 3318, "Agricultural": 3319, "\u012035": 3320, "\u0120honestly": 3321, "\u0120Weaver": 3322, "\u0120detriment": 3323, "\u012005": 3324, "\u0120adventure": 3325, "AS": 3326, "\u0120gracious": 3327, "sky": 3328, "\u0120lander": 3329, "\u0120gave": 3330, "ives": 3331, "\u0120menopause": 3332, "heads": 3333, "\u0120Me": 3334, "\u0120worked": 3335, "event": 3336, "\u0120Brotherhood": 3337, "\u0120Py": 3338, "\u0120olds": 3339, "\u0120ventricle": 3340, "\u0120wetland": 3341, "bedded": 3342, "\u0120propriet": 3343, "\u0120negotiate": 3344, "\u0120welcoming": 3345, "\u0120Moderate": 3346, "single": 3347, "policy": 3348, "CV": 3349, "\u0120tax": 3350, "\u012013": 3351, "DESCRIPTION": 3352, "\u0120Greenland": 3353, "\u0120motif": 3354, "\u0120admon": 3355, "Union": 3356, "\u0120Speech": 3357, "\u0120autistic": 3358, "pta": 3359, "\u0120Ful": 3360, "\u0120offensive": 3361, "\u0120fool": 3362, "Of": 3363, "cens": 3364, "chemistry": 3365, "\u0120violations": 3366, "\u0120coherence": 3367, "\u0120Notes": 3368, "\u0120Monticello": 3369, "\u0120infested": 3370, "M": 3371, "\u0120155": 3372, "\u0120cy": 3373, "\u0120inhalation": 3374, "\u0120Conversely": 3375, "\u0120Parish": 3376, "\u0120McIntyre": 3377, "\u0120Memorandum": 3378, "\u0120bikes": 3379, "\u0120Wid": 3380, "\u0120swim": 3381, "\u0120Al": 3382, "\u0120Implementation": 3383, "\u0120Unicode": 3384, "person": 3385, "xi": 3386, "\u0120conju": 3387, "\u0120priest": 3388, "\u0120Comanche": 3389, "aught": 3390, "\u0120humanities": 3391, "\u0120gorillas": 3392, "\u0120Pike": 3393, "\u0120tattoo": 3394, "\u0120healing": 3395, "homo": 3396, "\u01201843": 3397, "\u0120pas": 3398, "\u0120bedrock": 3399, "\u0120eliminates": 3400, "\u0120ailment": 3401, "\u0120conquest": 3402, "Support": 3403, "\u0120underneath": 3404, "\u0120Mish": 3405, "\u0120disclosure": 3406, "\u0120Shore": 3407, "\u0120Emphasis": 3408, "\u0120Mon": 3409, "response": 3410, "\u0120Migration": 3411, "\u0120Voice": 3412, "\u0120polygon": 3413, "\u0120C\u00c3\u00b3rdoba": 3414, "\u0120enters": 3415, "\u0120fungus": 3416, "\u0120Monster": 3417, "\u0120construed": 3418, "Mac": 3419, "HO": 3420, "ull": 3421, "\u0120affection": 3422, "believe": 3423, "correct": 3424, "\u0120clotting": 3425, "\u0120Shiva": 3426, "\u0120precedent": 3427, "\u0120coyote": 3428, "waste": 3429, "ibility": 3430, "\u0120duel": 3431, "\u0120ham": 3432, "\u0120credits": 3433, "\u01202001": 3434, "\u0120curious": 3435, "\u0120capable": 3436, "\u0120Richardson": 3437, "\u0120calligraphy": 3438, "\u0120acceptance": 3439, "\u0120Bay": 3440, "\u01201996": 3441, "\u0120mate": 3442, "\u0120cult": 3443, "\u0120trying": 3444, "\u0120preached": 3445, "1990": 3446, "logy": 3447, "Evidence": 3448, "\u0120deformation": 3449, "\u0120Dust": 3450, "\u0120info": 3451, "\u0120fails": 3452, "35": 3453, "\u0120sufferers": 3454, "\u0120sheer": 3455, "\u0120bucket": 3456, "\u0120identify": 3457, "\u0120SD": 3458, "\u0120workshop": 3459, "bytes": 3460, "\u0120noises": 3461, "original": 3462, "Area": 3463, "\u0120viruses": 3464, "\u0120protections": 3465, "\u0120De": 3466, "\u0120excited": 3467, "\u0120Congressman": 3468, "\u0122": 3469, "\u0120indicate": 3470, "toxic": 3471, "\u0120kidney": 3472, "\u0120McC": 3473, "Weather": 3474, "ogy": 3475, "plate": 3476, "\u0120summed": 3477, "\u0120Communities": 3478, "\u0120fa": 3479, "\u0120sinks": 3480, "RNAs": 3481, "\u0120Era": 3482, "\u0120disclaimer": 3483, "\u0120cauliflower": 3484, "\u0120Political": 3485, "\u0120IC": 3486, "\u0120\u00c3\u012b": 3487, "pressive": 3488, "\u0120carpet": 3489, "\u0120gen": 3490, "\u0120em": 3491, "\u0120liaison": 3492, "\u0120city": 3493, "\u0120abrupt": 3494, "\u0120beads": 3495, "\u0120tall": 3496, "\u0120increases": 3497, "\u0120Acrobat": 3498, "\u0120Ec": 3499, "elected": 3500, "\u0120charge": 3501, "vre": 3502, "\u0120Keith": 3503, "\u0120tile": 3504, "\u0120cosmic": 3505, "\u0120trapped": 3506, "Arch": 3507, "\u0120imagined": 3508, "ented": 3509, "\u0120DB": 3510, "\u0120empirical": 3511, "\u0120track": 3512, "\u0120adult": 3513, "\u0120prior": 3514, "\u0120wavelengths": 3515, "\u0120Batista": 3516, "\u0120Ab": 3517, "\u0120terror": 3518, "\u0120trainer": 3519, "\u0120Code": 3520, "gia": 3521, "\u0120west": 3522, "\u0120pronouns": 3523, "\u0120triggers": 3524, "\u0120come": 3525, "pre": 3526, "Rev": 3527, "\u0120UNESCO": 3528, "\u0120investigative": 3529, "ver": 3530, "\u0120Marco": 3531, "\u0120tendon": 3532, "\u0120Speed": 3533, "\u0120Combat": 3534, "\u0120Challenges": 3535, "git": 3536, "between": 3537, "\u0120lists": 3538, "\u0120twist": 3539, "\u0120migrants": 3540, "\u0120weak": 3541, "\u0120ziggurat": 3542, "\u0120coloured": 3543, "\u0120Mouse": 3544, "+": 3545, "sch": 3546, "\u0120transnational": 3547, "\u0120worst": 3548, "Private": 3549, "\u0120unclean": 3550, "\u0120reaffirm": 3551, "\u0120reintrodu": 3552, "\u0120inserting": 3553, "\u0120dem": 3554, "ences": 3555, "Cla": 3556, "\u0120preserved": 3557, "\u0120skyscraper": 3558, "Economic": 3559, "\u0120viewer": 3560, "\u0120Yoga": 3561, "\u0120thereby": 3562, "\u0120choir": 3563, "\u0120repairing": 3564, "\u0120academics": 3565, "\u0120Buenos": 3566, "\u0120cheating": 3567, "\u0120spirit": 3568, "1945": 3569, "\u0120Engineering": 3570, "\u0120Boulevard": 3571, "posts": 3572, "\u0120Pavilion": 3573, "\u0120petrol": 3574, "\u0120roadway": 3575, "Size": 3576, "\u0120clearing": 3577, "\u0120Arnold": 3578, "\u0120ed": 3579, "\u0120si": 3580, "W": 3581, "\u0120sto": 3582, "\u0120Dawn": 3583, "\u00e0\u00a4\u00be": 3584, "\u0120lens": 3585, "\u0120surf": 3586, "\u0120sweeteners": 3587, "Sleep": 3588, "\u0120pivotal": 3589, "\u0120plantations": 3590, "\u0120GHz": 3591, "\u0120parrot": 3592, "\u0120Diary": 3593, "\u0120deviations": 3594, "\u0120Episode": 3595, "\u0120fleeing": 3596, "\u0120month": 3597, "\u0120confuse": 3598, "cards": 3599, "\u0120frightened": 3600, "\u0120FI": 3601, "\u0120lethal": 3602, "books": 3603, "\u0120Kam": 3604, "\u0120Leader": 3605, "\u0120disabled": 3606, "\u0120mercenaries": 3607, "\u0120Colin": 3608, "\u0120feral": 3609, "\u00d0\u00b5\u00d0\u00bd": 3610, "\u0120sedimentation": 3611, "\u0120infiltration": 3612, "\u0120Lyon": 3613, "\u0120Posted": 3614, "\u0120Plasmodium": 3615, "\u0120attitude": 3616, "\u0120holds": 3617, "\u0120arrangements": 3618, "perhaps": 3619, "\u0120Queensland": 3620, "\u0120pu": 3621, "\u0120anecdote": 3622, "\u0120quotations": 3623, "\u0120site": 3624, "\u0120violence": 3625, "\u0120directive": 3626, "bri": 3627, "must": 3628, "\u0120outward": 3629, "\u0120Observations": 3630, "\u0120flight": 3631, "\u0120destined": 3632, "\u0120amid": 3633, "ipp": 3634, "\u0120tumour": 3635, "\u0120Rattlesnake": 3636, "\u0120years": 3637, "\u0120biologists": 3638, "\u0120pedigree": 3639, "\u0120OF": 3640, "grained": 3641, "\u0120whole": 3642, "\u0120focal": 3643, "bugs": 3644, "\u01201849": 3645, "\u0120afford": 3646, "\u0120trait": 3647, "\u0120addictive": 3648, "\u0120cochlea": 3649, "\u0120dioxin": 3650, "\u0120Feeling": 3651, "pard": 3652, "genetic": 3653, "\u0120surreptitiously": 3654, "washing": 3655, "\u0120complementary": 3656, "alpha": 3657, "\u0120TCP": 3658, "\u0120hundreds": 3659, "prim": 3660, "\u0120account": 3661, "vet": 3662, "\u0120fulfilled": 3663, "\u0120Coll": 3664, "\u0120allocation": 3665, "\u0120flax": 3666, "\u0120enforcing": 3667, "\u0120lover": 3668, "\u0120compelled": 3669, "ot": 3670, "\u0120sick": 3671, "\u0120Scene": 3672, "\u0120fe": 3673, "\u0120Forum": 3674, "nuclear": 3675, "\u0120alleviation": 3676, "\u0120collective": 3677, ";": 3678, "\u0120leprosy": 3679, "\u0120causing": 3680, "utation": 3681, "\u0120Monsanto": 3682, "\u0120returned": 3683, "\u0120Proposal": 3684, "\u0120started": 3685, "53": 3686, "\u0120Elohim": 3687, "\u0120ruined": 3688, "\u0120interior": 3689, "\u0120Gas": 3690, "\u0120Geoffrey": 3691, "\u0120\u00cf\u0126": 3692, "pire": 3693, "\u00f4": 3694, "\u0120assuming": 3695, "\u0120Updated": 3696, "PRO": 3697, "\u0120inspections": 3698, "\u0120stratosphere": 3699, "\u0120fluctuation": 3700, "\u0120far": 3701, "\u0120inconclusive": 3702, "\u0120evidenced": 3703, "\u0120fourteenth": 3704, "nt": 3705, "\u0120Color": 3706, "\u0120sets": 3707, "\u0120shirts": 3708, "cen": 3709, "\u0120backup": 3710, "\u0120heirs": 3711, "\u0120likely": 3712, "gic": 3713, "\u0120physicists": 3714, "\u0120alike": 3715, "\u0120perpetrators": 3716, "Bre": 3717, "\u0120Duryodhana": 3718, "bay": 3719, "mentary": 3720, "\u0120Byzantium": 3721, "\u0120farms": 3722, "\u0120narrowed": 3723, "\u0120q": 3724, "\u0120Reflect": 3725, "\u0120geared": 3726, "\u0120synovial": 3727, "intuitive": 3728, "\u0120Even": 3729, "\u0120Mustafa": 3730, "\u00d0\u00b4": 3731, "informatics": 3732, "\u0120Universities": 3733, "\u0120USS": 3734, "\u0120Story": 3735, "\u0120recourse": 3736, "\u0120unrest": 3737, "\u0120masters": 3738, "Path": 3739, "\u0120ge": 3740, "\u0120Lynn": 3741, "lton": 3742, "\u0120Always": 3743, "\u0120\u00c2\u00bd": 3744, "\u0120dividing": 3745, "\u0120symptom": 3746, "\u0120faction": 3747, "cky": 3748, "\u0120toolkit": 3749, "du": 3750, "\u0120liquor": 3751, "\u0120Dub": 3752, "\u0120listed": 3753, "\u0120leaf": 3754, "\u00c2\u00b2": 3755, "\u0120balances": 3756, "\u0120orbiting": 3757, "\u0120secondhand": 3758, "\u0120understood": 3759, "\u0120doctrine": 3760, "\u0120jury": 3761, "\u0120dazzling": 3762, "\u0120using": 3763, "Finding": 3764, "\u0120has": 3765, "\u0120thesis": 3766, "2007": 3767, "\u0120Spec": 3768, "invasive": 3769, "\u0120fantastic": 3770, "\u0120Khuzestan": 3771, "\u0120plume": 3772, "\u0120mysteries": 3773, "\u0120Land": 3774, "\u0120startling": 3775, "\u0120heal": 3776, "\u0120tons": 3777, "icul": 3778, "\u0120psychiatrists": 3779, "\u0120employing": 3780, "\u0120rent": 3781, "cycl": 3782, "\u0120continental": 3783, "ardo": 3784, "\u0120Stewart": 3785, "\u0120Milk": 3786, "\u0120Boys": 3787, "\u0120Minerals": 3788, "zh": 3789, "\u0120revive": 3790, "\u0120recruits": 3791, "\u0120midnight": 3792, "\u0120Syndrome": 3793, "\u0120Geophysical": 3794, "r\u00c4\u0123": 3795, "\u0120determine": 3796, "\u0120amplification": 3797, "derived": 3798, "\u0120aerospace": 3799, "\u0120phylogenetic": 3800, "\u0120may": 3801, "Stage": 3802, "\u0120uniforms": 3803, "\u0120judgement": 3804, "\u0120sacrificing": 3805, "lat": 3806, "Flo": 3807, "\u0120periphery": 3808, "\u0120competitions": 3809, "pra": 3810, "\u0120infections": 3811, "\u0120claimed": 3812, "\u0120labels": 3813, "\u0120Phyl": 3814, "\u0120cared": 3815, "\u0120mandated": 3816, "\u0120Denmark": 3817, "\u0120Alpine": 3818, "\u0120adults": 3819, "\u0120Act": 3820, "less": 3821, "\u0120overweight": 3822, "\u0120Personality": 3823, "\u0120fla": 3824, "\u0120billions": 3825, "\u0120caption": 3826, "\u0120dominant": 3827, "\u0120Russell": 3828, "\u0120Chiapas": 3829, "EA": 3830, "\u0120circumstances": 3831, "\u0120fiery": 3832, "mega": 3833, "\u0120sects": 3834, "\u0120ukulele": 3835, "\u0120oasis": 3836, "\u0120administered": 3837, "\u0120Morning": 3838, "\u0120Shock": 3839, "\u0120manifests": 3840, "ae": 3841, "\u0120cricket": 3842, "IX": 3843, "\u0120Gentiles": 3844, "\u0120Templar": 3845, "Open": 3846, "\u0120academy": 3847, "\u0120mosque": 3848, "\u0120Junior": 3849, "\u0120resembled": 3850, "\u0120vertically": 3851, "understand": 3852, "\u0120deaf": 3853, "\u0120Henderson": 3854, "\u0120tubes": 3855, "\u0120olfactory": 3856, "\u0120Theatre": 3857, "\u0120osteo": 3858, "\u00e2\u0122\u00a2": 3859, "\u0120learned": 3860, "clock": 3861, "\u0120recurrence": 3862, "\u0120225": 3863, "-)": 3864, "icy": 3865, "Four": 3866, "\u0120Virgin": 3867, "erated": 3868, "CREDIT": 3869, "\u0120healthier": 3870, "\u0120Panzer": 3871, "\u0120sounded": 3872, "tention": 3873, "\u0120Observer": 3874, "\u0120Triangle": 3875, "1890": 3876, "standing": 3877, "\u0120hive": 3878, "\u0120cerebral": 3879, "\u0120industrialization": 3880, "\u0120Core": 3881, "\u0120phospho": 3882, "letion": 3883, "\u0120Spring": 3884, "\u0120restricted": 3885, "\u0120176": 3886, "lumin": 3887, "pi": 3888, "Christian": 3889, "\u0120bond": 3890, "\u0120corrections": 3891, "LAN": 3892, "\u0120Plutarch": 3893, "\u0120playwright": 3894, "ea": 3895, "\u0120AE": 3896, "\u0120constituency": 3897, "iga": 3898, "\u0120pilgrimage": 3899, "\u0120publicity": 3900, "\u0120tailings": 3901, "\u0120numeric": 3902, "\u0120Janet": 3903, "\u0120offsets": 3904, "\u0120Sta": 3905, "\u0120Turner": 3906, "\u0120assessments": 3907, "\u0120locally": 3908, "oks": 3909, "\u0120DBY": 3910, "\u0120dendr": 3911, "\u0120ob": 3912, "good": 3913, "Need": 3914, "\u0120intern": 3915, "\u0120187": 3916, "\u0120photographer": 3917, "\u0120auction": 3918, "\u0120Alfalfa": 3919, "\u0120enriched": 3920, "\u0120Spectrum": 3921, "\u0120circling": 3922, "\u0120encroach": 3923, "\u0120veterans": 3924, "ERY": 3925, "\u0120intuitive": 3926, "\u0120steadily": 3927, "\u0120106": 3928, "\u0120pneum": 3929, "\u0120diocese": 3930, "\u0120babies": 3931, "\u0120replication": 3932, "\u0120disastrous": 3933, "Gal": 3934, "\u0120Wisdom": 3935, "\u0120derivative": 3936, "!),": 3937, "\u0120sexes": 3938, "ects": 3939, "\u0120Conditions": 3940, "ME": 3941, "\u0120cone": 3942, "\u0120closing": 3943, "\u0120stray": 3944, "\u0120prosecution": 3945, "\u0120insisted": 3946, "random": 3947, "\u0120lucrative": 3948, "\u0120splendour": 3949, "\u0120yeast": 3950, "\u0120educate": 3951, "BA": 3952, "\u0120haze": 3953, "\u0120radicals": 3954, "\u0120acquiring": 3955, "\u0120Willis": 3956, "\u0120diabetic": 3957, "bul": 3958, "\u0120yields": 3959, "\u0120darker": 3960, "\u0120Saraswati": 3961, "\u0120White": 3962, "\u0120such": 3963, "Term": 3964, "dor": 3965, "\u0120Rachel": 3966, "\u0120transparent": 3967, "gee": 3968, "\u0120silence": 3969, "\u0120institutional": 3970, "\u0120perpetual": 3971, "\u0120Rh": 3972, "\u00b5": 3973, "\u0120ine": 3974, "cup": 3975, "\u0120dock": 3976, "\u0120Stay": 3977, "\u0120shades": 3978, "Best": 3979, "\u0120kidneys": 3980, "\u0120River": 3981, "\u0120Parents": 3982, "dez": 3983, "\u0120effectively": 3984, "\u0120investigator": 3985, "\u0120215": 3986, "\u0120ng": 3987, "\u0120religious": 3988, "\u0120Courtesy": 3989, "\u0120immensely": 3990, "verb": 3991, "\u0120Nutrition": 3992, "\u0120bolt": 3993, "\u0120collaboration": 3994, "\u0120Armenian": 3995, "\u0120validity": 3996, "\u0120laying": 3997, "\u012046": 3998, "\u0120gran": 3999, "\u0120headlines": 4000, "mind": 4001, "\u0120Bag": 4002, "\u0120('": 4003, "\u0120fisheries": 4004, "\u0120unincorporated": 4005, "\u01201831": 4006, "\u0120scenario": 4007, "term": 4008, "\u0120January": 4009, "\u0120mixtures": 4010, "Prepare": 4011, "\u0120goose": 4012, "\u0120legislative": 4013, "\u0120expose": 4014, "\u01201948": 4015, "uk": 4016, "\u0120archaeologists": 4017, "\u0120Speak": 4018, "shift": 4019, "\u0120fuse": 4020, "aires": 4021, "educated": 4022, "Mexico": 4023, "'ll": 4024, "\u0120theirs": 4025, "\u0120FS": 4026, "\u0120atrocities": 4027, "Send": 4028, "\u0120teamed": 4029, "\u0120n": 4030, "\u0120admitted": 4031, "\u0120retinopathy": 4032, "\u0120APPN": 4033, "\u0120Paper": 4034, "\u0120Marine": 4035, "\u013e": 4036, "\u0120Durham": 4037, "\u0120usable": 4038, "ceded": 4039, "\u0120Alaska": 4040, "49": 4041, "\u0120overlooked": 4042, "\u0120Hirsch": 4043, "\u0120Poland": 4044, "\u0120Metropolitan": 4045, "ESA": 4046, "\u0120estate": 4047, "\u0120\u00c4\u0123k\u00c4\u0123\u00c5\u013d": 4048, "enary": 4049, "\u0120transferred": 4050, "?]": 4051, "DR": 4052, "\u0120amplify": 4053, "necessary": 4054, "\u0120Tigris": 4055, "\u0120loop": 4056, "\u0120repetition": 4057, "\u012027": 4058, "lands": 4059, "\u0120invalid": 4060, "\u0120Card": 4061, "\u0120controllers": 4062, "\u0120zebra": 4063, "\u0120Applied": 4064, "\u0120preventing": 4065, "\u0120Cu": 4066, "illary": 4067, "\u0120averaging": 4068, "\u0120Flat": 4069, "\u0120Circum": 4070, "\u0120inferred": 4071, "\u0120Rafael": 4072, "\u0120obli": 4073, "\u0120proclaim": 4074, "\u0120IA": 4075, "oked": 4076, "uri": 4077, "\u0120painkillers": 4078, "Spanish": 4079, "\u0120psalms": 4080, "\u0120bourgeoisie": 4081, "Write": 4082, "\u0120remission": 4083, "\u0120sustenance": 4084, "rc": 4085, "Close": 4086, "\u0120Walter": 4087, "\u0120dwindled": 4088, "eld": 4089, "\u0120demolition": 4090, "sburg": 4091, "\u0120packaging": 4092, "Col": 4093, "\u0120degenerate": 4094, "MH": 4095, "\u0120perseverance": 4096, "\u0120fishery": 4097, "mas": 4098, "\u0120Salmonella": 4099, "lines": 4100, "MES": 4101, ",\u00e2\u0122\u013b": 4102, "\u0120unveil": 4103, "Grades": 4104, "\u0120Quin": 4105, "\u0120abuses": 4106, "\u0120contact": 4107, "\u0120increase": 4108, "nga": 4109, "dimensional": 4110, "\u0120embodiment": 4111, "\u0120Ensure": 4112, "\u00c3\u0124": 4113, "\u0120defendants": 4114, "names": 4115, "ator": 4116, "\u0120Several": 4117, "\u0120Coriolis": 4118, "\u0120Install": 4119, "nie": 4120, "\u0120parathyroid": 4121, "\u0120attractions": 4122, "oco": 4123, "\u0120inequality": 4124, "\u0120interrupt": 4125, "\u0120Manuscript": 4126, "\u0120cartilage": 4127, "\u0120sins": 4128, "\u0120slices": 4129, "\u0120Assistance": 4130, "\u0120reception": 4131, "oc": 4132, "\u0120cyclic": 4133, "\u0120additives": 4134, "\u0120smarter": 4135, "Sen": 4136, "\u0120Enterprise": 4137, "\u0120prosthetic": 4138, "\u0120crosses": 4139, "ds": 4140, "\u0120Kimber": 4141, "\u0120protesters": 4142, "1980": 4143, "\u0120Dou": 4144, "\u0120disinfection": 4145, "\u0120galactose": 4146, "Ev": 4147, "ried": 4148, "NOAA": 4149, "\u0120spectro": 4150, "\u0120warmed": 4151, "\u0120Wireless": 4152, "\u0120fourteen": 4153, "\u0120hiding": 4154, "nch": 4155, "\u0120reproductive": 4156, "\u0120Infantry": 4157, "oli": 4158, "\u0120flavour": 4159, "\u0120prosecuted": 4160, "\u0120McKinley": 4161, "\u0120galactic": 4162, "\u0120obsidian": 4163, "\u0120retrofit": 4164, "\u0120WBS": 4165, "\u0120DES": 4166, "\u0120sanitation": 4167, "\u0120milk": 4168, "\u0120dosing": 4169, "\u0120so": 4170, "\u0120gl": 4171, "\u0120olive": 4172, "measur": 4173, "\u0120Commissioners": 4174, "\u0120\u00c2\u00b7": 4175, "\u0120Clin": 4176, "eff": 4177, "Depression": 4178, "search": 4179, "\u0120bear": 4180, "\u0120Shan": 4181, "\u0120little": 4182, "\u0120crash": 4183, "rison": 4184, "\u0120rigid": 4185, "\u0120make": 4186, "Being": 4187, "\u0120disbanded": 4188, "\u0120Nine": 4189, "\u0120Excessive": 4190, "\u0120lag": 4191, "\u0120Greater": 4192, "6": 4193, "\u0120na": 4194, "\u0120Obesity": 4195, "\u0120Invasion": 4196, "oinsettia": 4197, "\u0120hippopotamus": 4198, "\u0120textual": 4199, "\u0120131": 4200, "\u0120NIH": 4201, "\u0120carcasses": 4202, "\u0120issuance": 4203, "\u0120Summit": 4204, "\u0120grows": 4205, "ence": 4206, "\u0120Apple": 4207, "\u0120licensing": 4208, "\u0120meteorological": 4209, "\u0120acidic": 4210, "sville": 4211, "\u0120dim": 4212, "\u0120curve": 4213, "\u0120interpretive": 4214, "Change": 4215, "\u0120colours": 4216, "\u0120Med": 4217, "\u0120USDA": 4218, "\u0120Herman": 4219, "gue": 4220, "roads": 4221, "\u0120displays": 4222, "\u0120making": 4223, "\u0120infiltrate": 4224, "\u0120Shackleton": 4225, "\u0120ES": 4226, "\u0120Scots": 4227, "\u0120paleontologist": 4228, "\u0120cheek": 4229, "\u0120Lan": 4230, "floor": 4231, "\u0120repeating": 4232, "\u0120protection": 4233, "\u0120Divide": 4234, "\u0120intravenous": 4235, "\u0120oseltamivir": 4236, "\u0120Eagle": 4237, "Che": 4238, "\u0120until": 4239, "00": 4240, "\u0120laws": 4241, "\u0120localized": 4242, "\u0120economical": 4243, "\u0120sway": 4244, "\u0120victories": 4245, "\u0120HE": 4246, "\u0120exempt": 4247, "\u0120abnormalities": 4248, "\u0120down": 4249, "\u0120messaging": 4250, "culture": 4251, "\u0120cartridge": 4252, "\u0120tendencies": 4253, "\u0120Intellectual": 4254, "\u0120around": 4255, "aking": 4256, "\u0120hack": 4257, "gen": 4258, "\u0120implies": 4259, "\u0120Sn": 4260, "\u0120Tolkien": 4261, "\u0120The": 4262, "\u0120metals": 4263, "1982": 4264, "sufficiency": 4265, "\u0120Broadway": 4266, "\u0120Nervous": 4267, "sman": 4268, "\u0120spending": 4269, "\u0120Prevent": 4270, "\u0120Linux": 4271, "\u0120practiced": 4272, "\u0120Ton": 4273, "\u0120pity": 4274, "\u0120American": 4275, "today": 4276, "\u0120Nancy": 4277, "\u0120jungle": 4278, "\u0120injuring": 4279, "\u0120bananas": 4280, "\u0120forehead": 4281, "\u0120\u00e0": 4282, "\u0120protector": 4283, "ard": 4284, "\u0120genes": 4285, "van": 4286, "\u0120immigration": 4287, "\u0120Cold": 4288, "\u0120astronomical": 4289, "\u0120willing": 4290, "\u0120horse": 4291, "\u0120multiple": 4292, "\u0120tomorrow": 4293, "\u0120holy": 4294, "\u0120spark": 4295, "\u0120sugars": 4296, "Could": 4297, "\u0120tangible": 4298, "\u0120weight": 4299, "\u0120coherent": 4300, "\u0120algal": 4301, "Buddh": 4302, "Thank": 4303, "\u0120randomly": 4304, "aldehyde": 4305, "\u0120right": 4306, "belief": 4307, "\u0120italic": 4308, "\u0120cutaneous": 4309, "\u0120creativity": 4310, "spect": 4311, "also": 4312, "Credit": 4313, "\u0120varied": 4314, "True": 4315, "India": 4316, "\u0120graffiti": 4317, "\u00e1": 4318, "\u0120awarded": 4319, "\u0120Schedule": 4320, "\u0120favorable": 4321, "\u0120university": 4322, "Practice": 4323, "\u0120pronounce": 4324, "\u0120Hydrogen": 4325, "\u0120politicians": 4326, "\u0120trek": 4327, "\u0120pipes": 4328, "Less": 4329, "\u0120projected": 4330, "Astro": 4331, "\u0120tactics": 4332, "\u0120turquoise": 4333, "reased": 4334, "\u0120texting": 4335, "\u0120came": 4336, "\u0120ruins": 4337, "\u0120Hood": 4338, "Important": 4339, "\u0120Has": 4340, "Conservation": 4341, "significant": 4342, "\u0120TI": 4343, "\u0120insisting": 4344, "Eight": 4345, "\u0120New": 4346, "\u0120multiplied": 4347, "\u0120formidable": 4348, "\u0120collapsed": 4349, "performance": 4350, "\u0120IQ": 4351, "\u0120strange": 4352, "\u0120celiac": 4353, "\u0120SOHO": 4354, "\u0120String": 4355, "ung": 4356, "\u0120past": 4357, "\u0120heats": 4358, "\u0120leap": 4359, "but": 4360, "uation": 4361, "\u0120Boyle": 4362, "\u0120veil": 4363, "\u0120Cf": 4364, "\u0120explicitly": 4365, "CB": 4366, "\u0120Hundred": 4367, "\u0120listing": 4368, "\u0120symmetry": 4369, "\u0120yours": 4370, "\u0120trademarks": 4371, "\u0120RAM": 4372, "\u0120founded": 4373, "\u0120foster": 4374, "\u0120incentives": 4375, "\u0120archive": 4376, "\u0120honey": 4377, "\u0120happier": 4378, "Guide": 4379, "\u0120Hanukkah": 4380, "woman": 4381, "\u0120summit": 4382, "\u0120forthcoming": 4383, "Add": 4384, "\u0120Kaiser": 4385, "\u0120contracted": 4386, "\u0120god": 4387, "\u0120nets": 4388, "odore": 4389, "ranged": 4390, "\u0120horseback": 4391, "Around": 4392, "\u0120Rand": 4393, "\u0120wheelchair": 4394, "\u0120Moravia": 4395, "\u0120emperor": 4396, "\u01201840": 4397, "\u0120Ritual": 4398, "\u0120Diocese": 4399, "\u0120licence": 4400, "\u0120fulfillment": 4401, "\u0120Id": 4402, "\u0120Josiah": 4403, "\u0120Pic": 4404, "\u0120Valentine": 4405, "Care": 4406, "\u01201803": 4407, "\u0120antiseptic": 4408, "\u0120luck": 4409, "reported": 4410, "grown": 4411, "\u0120emotion": 4412, "\u0120Yellow": 4413, "sequence": 4414, "\u0120jointly": 4415, "\u0120climates": 4416, "\u0120Prot": 4417, "\u0120terrific": 4418, "CREATE": 4419, "27": 4420, "\u0120reap": 4421, "\u0120WE": 4422, "har": 4423, "ON": 4424, "bble": 4425, "\u0120Description": 4426, "\u0120adoption": 4427, "rical": 4428, "ional": 4429, "\u0120Way": 4430, "\u0120Stu": 4431, "\u0120DU": 4432, "\u0120Nepal": 4433, "\u0120advancement": 4434, "\u0120Studies": 4435, "\u0120Weak": 4436, "\u0120dome": 4437, "\u0120Nanak": 4438, "\u0120munitions": 4439, "\u0120Larry": 4440, "\u0120means": 4441, "esian": 4442, "\u0120readable": 4443, "2015": 4444, "\u0120logging": 4445, "\u0120aroused": 4446, "\u0120sha": 4447, "\u0120nests": 4448, "\u0120inconspicuous": 4449, "\u0120Randall": 4450, "bas": 4451, "\u0120Military": 4452, "\u0120experiential": 4453, "\u0120Amerindian": 4454, "\u0120los": 4455, "\u0120systematic": 4456, "\u0120consumes": 4457, "\u0120sacrificial": 4458, "\u0120railways": 4459, "\u0120antioxidants": 4460, "UPDATE": 4461, "\u0120Chr": 4462, "\u0120phylogeny": 4463, "\u0120Dent": 4464, "\u0120repairs": 4465, "\u0120km": 4466, "\u0120always": 4467, "urban": 4468, "\u0120enacted": 4469, "\u0120faculties": 4470, "\u0120starving": 4471, "\u0120Congregation": 4472, "\u0120enzymes": 4473, "Commercial": 4474, "nick": 4475, "\u0120Listening": 4476, "\u0120equal": 4477, "free": 4478, "1948": 4479, "\u0120tro": 4480, "developed": 4481, "\u0120infinity": 4482, "\u0120Keep": 4483, "\u0120killings": 4484, "\u0120Disorder": 4485, "\u0120accessing": 4486, "ologically": 4487, "\u012063": 4488, "1984": 4489, "Garden": 4490, "\u0120shooting": 4491, "150": 4492, "\u0120Relationship": 4493, "Respon": 4494, "\u0120Occupational": 4495, "n": 4496, "\u0120Over": 4497, "\u0120Oceanic": 4498, "\u0120polygons": 4499, "\u0120warrant": 4500, "\u0120stresses": 4501, "\u0120excitement": 4502, "\u0120Frances": 4503, "\u0120acrylamide": 4504, "zu": 4505, "\u0120IND": 4506, "reviewed": 4507, "nched": 4508, "***": 4509, "\u0120Sound": 4510, "\u0120vegan": 4511, "\u0120Genetic": 4512, "\u0120frameworks": 4513, "ys": 4514, "\u0120congestion": 4515, "\u0120depot": 4516, "\u0120...": 4517, "gren": 4518, "\u0120Toxicology": 4519, "\u0120posted": 4520, "\u0120Support": 4521, "\u0120afflicted": 4522, "\u0120Barbara": 4523, "\u0120grooves": 4524, "\u0120let": 4525, "\u0120Luckily": 4526, "HI": 4527, "\u0120illumination": 4528, "\u0120experimented": 4529, "\u0120nesting": 4530, "\u0120impulses": 4531, "\u0120socialism": 4532, "\u0120collecting": 4533, "\u0120dre": 4534, "serve": 4535, "\u00ce\u00bc": 4536, "\u0120overwhelm": 4537, "existing": 4538, "\u0120CNS": 4539, "\u0120Time": 4540, "\u0120Mother": 4541, "\u0120clone": 4542, "member": 4543, "\u0120disseminated": 4544, "\u01201910": 4545, "\u0120checklist": 4546, "\u0120nematodes": 4547, "\u0120Walking": 4548, "\u0120represented": 4549, "\u0120eliminate": 4550, "\u0120verb": 4551, "\u0120Tall": 4552, "zi": 4553, "\u0120input": 4554, "\u0120Development": 4555, "coast": 4556, "\u01201891": 4557, "\u0120widely": 4558, "\u0120methyl": 4559, "\u0120consonants": 4560, "\u0120Potassium": 4561, "\u0120bureaucratic": 4562, "odes": 4563, "plan": 4564, "\u0120Malawi": 4565, "rule": 4566, "\u0120capit": 4567, "\u0120wire": 4568, "knowledge": 4569, "pronounced": 4570, "\u0120Henri": 4571, "\u0120repair": 4572, "Poverty": 4573, "\u0120swift": 4574, "\u0120collagen": 4575, "\u0120ballistic": 4576, "tton": 4577, "January": 4578, "\u0120subversive": 4579, "\u0120pays": 4580, "\u0120fixture": 4581, "Swe": 4582, "hre": 4583, "April": 4584, "\u0120feeders": 4585, "\u0120sex": 4586, "\u0120embed": 4587, "esophageal": 4588, "\u0120eagle": 4589, "\u0120Pea": 4590, "\u0120edge": 4591, "gman": 4592, "Inc": 4593, "sight": 4594, "ato": 4595, "south": 4596, "elling": 4597, "\u0120racing": 4598, "\u0120J": 4599, "\u0120Rise": 4600, "\u0120worrisome": 4601, "Exc": 4602, "\u0120scatter": 4603, "\u00e3\u0125": 4604, "\u0120centres": 4605, "\u0120ref": 4606, "\u0120Um": 4607, "\u0120asthma": 4608, "\u0120destroyed": 4609, "\u0120Eugen": 4610, "\u0120inexplicable": 4611, "\u0120neon": 4612, "\u0120seller": 4613, "\u0120tracking": 4614, "\u0120LA": 4615, "\u01201859": 4616, "\u0120shining": 4617, "\u0120pred": 4618, "\u0120syndrome": 4619, "\u0120default": 4620, "\u0120hardest": 4621, "\u0120Crystal": 4622, "press": 4623, "\u0120reciproc": 4624, "\u0120Few": 4625, "\u0120permanently": 4626, "\u0120su": 4627, "\u0120Acoustic": 4628, "81": 4629, "Fall": 4630, "\u0120bushes": 4631, "inian": 4632, "\u0120wasps": 4633, "\u012039": 4634, "\u0120Freud": 4635, "Deuteronomy": 4636, "Surgery": 4637, "\u0120racial": 4638, "\u0120embassy": 4639, "lance": 4640, "\u0120appendix": 4641, "Pur": 4642, "Ext": 4643, "\u0120agree": 4644, "\u0120fitness": 4645, "ffling": 4646, "Philosoph": 4647, "\u0120AF": 4648, "\u0120piping": 4649, "\u0120since": 4650, "phor": 4651, "\u0120reaction": 4652, "\u0120Million": 4653, "\u0120theorists": 4654, "\u0120quasi": 4655, "high": 4656, "Mar": 4657, "\u0120Himself": 4658, "\u0120lith": 4659, "\u0120shedding": 4660, "ob": 4661, "\u0120cinema": 4662, "\u00c4\u0123\u00e1\u00b9\u0143": 4663, "\u0120accompanied": 4664, "SON": 4665, "\u0120counts": 4666, "\u0120Link": 4667, "\u0120deal": 4668, "Complete": 4669, "bodied": 4670, "\u0120get": 4671, "\u0120surgeries": 4672, "\u0120predisposition": 4673, "\u0120bizarre": 4674, "\u0120DLR": 4675, "Particip": 4676, "\u0120legendary": 4677, "weed": 4678, "NSAIDs": 4679, "\u0120electrically": 4680, "\u0120insists": 4681, "\u0120hunting": 4682, "\u0120L": 4683, "clean": 4684, "\u0120Julia": 4685, "\u0120microbes": 4686, "ete": 4687, "actic": 4688, "construct": 4689, "\u0120part": 4690, "\u0120Col": 4691, "\u0120Jessica": 4692, "\u0120sk": 4693, "Acts": 4694, "\u0120ridges": 4695, "\u0120Battle": 4696, "\u0120Virtual": 4697, "kas": 4698, "stra": 4699, "Eastern": 4700, "\u0120eyelids": 4701, "\u0120waste": 4702, "\u0120Communion": 4703, "\u0120continuously": 4704, ")||": 4705, "\u0120wiped": 4706, "Travel": 4707, "\u0120exception": 4708, "\u0120146": 4709, "\u0120uranium": 4710, "\u0120humane": 4711, "\u0120marched": 4712, "\u0120enlightened": 4713, "\u0120ducts": 4714, "compatible": 4715, "Wiki": 4716, "\u0120disability": 4717, "\u0120SR": 4718, "\u0120tossed": 4719, "\u0120behaviours": 4720, "\u0120Reproductive": 4721, "\u0120Raj": 4722, "\u0120active": 4723, "\u0120clients": 4724, "\u0120tilapia": 4725, "\u0120Eggs": 4726, "\u0120notes": 4727, "tta": 4728, "\u0120235": 4729, "\u0120analogy": 4730, "\u0120Cob": 4731, "value": 4732, "\u0120Costa": 4733, "\u0120respiratory": 4734, "\u0120fortress": 4735, "\u0120biggest": 4736, "hand": 4737, "cysteine": 4738, "\u0120squadron": 4739, "\u0120incidents": 4740, "\u0120Rain": 4741, "\u0120seniors": 4742, "\u0120announced": 4743, "\u0120Roche": 4744, "\u0120paucity": 4745, "\u0120Genes": 4746, "\u0120plaques": 4747, "\u0120descend": 4748, "Employ": 4749, "\u0120students": 4750, "\u0120Patricia": 4751, "Mars": 4752, "\u0120proudly": 4753, "\u0120conquer": 4754, "\u0120EG": 4755, "\u0120embodied": 4756, "oking": 4757, "\u0120colour": 4758, "\u0120traces": 4759, "\u0120that": 4760, "\u0120Pul": 4761, "plantation": 4762, "\u0120Netherlands": 4763, "\u0120grim": 4764, "\u0120Copyright": 4765, "\u0120Civic": 4766, "\u0120Corporation": 4767, "\u0120stretching": 4768, "67": 4769, "\u0120Site": 4770, "celled": 4771, "ties": 4772, "1955": 4773, "\u0120realism": 4774, "\u0120Words": 4775, "karyotic": 4776, "\u0120DuPont": 4777, "\u0120VALUE": 4778, "family": 4779, "\u0120tu": 4780, "\u0120ceremonial": 4781, "\u0120Innsbruck": 4782, "\u0120interprets": 4783, "\u0120refusing": 4784, "evolution": 4785, "\u0120nicotine": 4786, "\u0120undivided": 4787, "pped": 4788, "\u0120quarters": 4789, "\u0120Carol": 4790, "Drug": 4791, "\u0120amazing": 4792, "PP": 4793, "\u0120bl": 4794, "\u0120master": 4795, "\u0120mas": 4796, "\u0120adventures": 4797, "ed": 4798, "\u0120Rama": 4799, "\u0120porch": 4800, "\u0120workforce": 4801, "Cancer": 4802, "\u0120outside": 4803, "\u0120admits": 4804, "Vs": 4805, "\u0120shear": 4806, "\u0120pulse": 4807, "\u0120corrective": 4808, "\u0120Clearinghouse": 4809, "\u0120longer": 4810, "\u0120Ebola": 4811, "\u0120antibiotic": 4812, "ivist": 4813, "sl": 4814, "firm": 4815, "105": 4816, "\u0120apart": 4817, "\u0120rap": 4818, "\u0120transported": 4819, "\u0120nevertheless": 4820, "\u0120Diamond": 4821, "\u0120waving": 4822, "\u0120sport": 4823, "\u0120articulated": 4824, "\u0120Somali": 4825, "\u0120examinations": 4826, "\u0120forefathers": 4827, "\u0120knowledgeable": 4828, "\u0120abortions": 4829, "\u0120Gabriel": 4830, "\u0120street": 4831, "\u0120Independent": 4832, "\u0120Nazis": 4833, "\u0120sued": 4834, "\u0120performances": 4835, "\u0120receptive": 4836, "\u0120Blake": 4837, "\u0120seldom": 4838, "\u0120bias": 4839, "\u0120topology": 4840, "\u0120stressful": 4841, "\u0120decree": 4842, "\u0120Berger": 4843, "\u0120Iceland": 4844, "\u0120Shepherd": 4845, "\u0120regression": 4846, "\u0120intercept": 4847, "gmatism": 4848, "Picture": 4849, "]||": 4850, "\u0120chiefs": 4851, "\u0120excessively": 4852, "\u0120disp": 4853, "\u0120Renewable": 4854, "\u0120formation": 4855, "nay": 4856, "\u0120plasma": 4857, "\u0120deficient": 4858, "\u0120Louisiana": 4859, "Meta": 4860, "\u0120Recommendation": 4861, "\u0120Sure": 4862, "NEW": 4863, "planned": 4864, "consider": 4865, "\u0120Vedic": 4866, "\u0120richness": 4867, "\u0120hence": 4868, "\u0120Shen": 4869, "\u0120cramps": 4870, "\u0120elephants": 4871, "\u0120landlord": 4872, "\u0120restored": 4873, "NP": 4874, "Light": 4875, "\u0120anxieties": 4876, "\u0120democracies": 4877, "\u0120Fort": 4878, "\u0120salt": 4879, "mig": 4880, "\u0120accumulates": 4881, "\u0120ceded": 4882, "\u0120SA": 4883, "cking": 4884, "\u0120Mul": 4885, "\u0120spokes": 4886, "\u0120sadness": 4887, "\u0120profoundly": 4888, "\u0120regulating": 4889, "\u0120Messiah": 4890, "\u0120nuns": 4891, "ju": 4892, "\u0120dairy": 4893, "\u0120Pl": 4894, "\u0120Nebraska": 4895, "lich": 4896, "ckets": 4897, "\u0120Manufacturing": 4898, "\u0120activated": 4899, "\u0120convent": 4900, "\u0120Dana": 4901, "Hel": 4902, "\u0120Ins": 4903, "\u0120falsely": 4904, "\u0120imperialism": 4905, "\u0120durability": 4906, "\u0120pragmatic": 4907, "Marriage": 4908, "\u0120swollen": 4909, "\u0120cultures": 4910, "\u0120dusk": 4911, "arl": 4912, "?),": 4913, "\u0120regimen": 4914, "\u0120Publication": 4915, "\u01201809": 4916, "Zo": 4917, "\u0120wasting": 4918, "\u0120Privacy": 4919, "\u0120Blind": 4920, "LT": 4921, "Lieutenant": 4922, "\u0120axes": 4923, "\u0120locality": 4924, "\u0120obtaining": 4925, "\u0120edges": 4926, "\u0120announcing": 4927, "gar": 4928, "\u0120unh": 4929, "\u0120gives": 4930, "\u01201856": 4931, "\u00d7\u00a8\u00d7": 4932, "tham": 4933, "\u0120imagination": 4934, "232": 4935, "arms": 4936, "par": 4937, "wage": 4938, "\u0120Physics": 4939, "\u0120swell": 4940, "\u0120Republican": 4941, "\u0120searchable": 4942, "\u0120compact": 4943, "stress": 4944, "\u0120supporter": 4945, "\u0120interplay": 4946, "\u0120magnificent": 4947, "\u0120Timor": 4948, "\u0120nationalism": 4949, "Update": 4950, "\u0120westward": 4951, "\u0120bacterial": 4952, "\u0120destination": 4953, "\u0120headed": 4954, "\u0120periodontal": 4955, "\u0120admire": 4956, "odo": 4957, "\u0120hydroxyl": 4958, "processed": 4959, "\u0120Wesley": 4960, "\u0120hardened": 4961, "aceae": 4962, "\u0120Shinto": 4963, "\u0120pleasure": 4964, "\u0120study": 4965, "\u0120deficits": 4966, "\u0120describing": 4967, "\u0120NGOs": 4968, "\u0120Pt": 4969, "\u0120disproportionate": 4970, "\u0120Send": 4971, "ochondr": 4972, "\u0120encouraged": 4973, "\u0120Da": 4974, "\u01201951": 4975, "\u0120detachment": 4976, "\u0120general": 4977, "approximately": 4978, "tivation": 4979, "\u0120A": 4980, "\u0120negro": 4981, "aran": 4982, "p": 4983, "\u0120classes": 4984, "64": 4985, "\u0120drifting": 4986, "Tur": 4987, "difference": 4988, "atories": 4989, "\u0120sack": 4990, "immune": 4991, "\u0120appointment": 4992, "\u0120ardent": 4993, "\u0120Parks": 4994, "watt": 4995, "\u0120leagues": 4996, "\u0120resides": 4997, "\u0120Highway": 4998, "\u0120aqua": 4999, "\u0120dismiss": 5000, "\u0120cleanup": 5001, "pun": 5002, "\u0120Mill": 5003, "\u0120Polo": 5004, "\u0120aggressive": 5005, "\u0120linger": 5006, "\u0120fran": 5007, "\u0120rifle": 5008, "planet": 5009, ":|": 5010, "\u0120fertilized": 5011, "\u0120fulfil": 5012, "\u0120outreach": 5013, "\u0120amusement": 5014, "\u0120sonar": 5015, "\u0120Reducing": 5016, "\u0120other": 5017, "\u0120Men": 5018, "kilo": 5019, "\u0120organization": 5020, "\u0120Thunder": 5021, "\u0120piece": 5022, "\u0120Eurasian": 5023, "\u0120carnivores": 5024, "\u0120Created": 5025, "walk": 5026, "\u0120onset": 5027, "office": 5028, "lers": 5029, "\u0120Image": 5030, "\u0120inflammation": 5031, "Rea": 5032, "\u0120Bat": 5033, "\u0120memo": 5034, "\u0120rage": 5035, "\u0120amyloidosis": 5036, "mon": 5037, "Found": 5038, "\u0120highway": 5039, "cephal": 5040, "\u0120Warsaw": 5041, "\u0120Poetry": 5042, "\u0120upro": 5043, "\u0120cache": 5044, "toral": 5045, "\u0120traps": 5046, "\u0120eroded": 5047, "\u0120spoil": 5048, "branch": 5049, "\u0120canyons": 5050, "\u0120HD": 5051, "\u0120Psychiatric": 5052, "\u0120Taft": 5053, "\u0120advocate": 5054, "002": 5055, "rification": 5056, "Traditional": 5057, "ico": 5058, "\u0120perceive": 5059, "\u0120staying": 5060, "\u0120twins": 5061, "\u0120trial": 5062, "\u0120Cynthia": 5063, "\u0120201": 5064, "\u0120mat": 5065, "\u0120Tunnel": 5066, "otherapy": 5067, "ns": 5068, "\u0120K": 5069, "\u0120Creek": 5070, "\u0120squad": 5071, "\u0120swelling": 5072, "\u0120strand": 5073, "\u0120loans": 5074, "\u0120plaque": 5075, "\u0120inseparable": 5076, "cfm": 5077, "\u0120DynaMed": 5078, "\u0120abandonment": 5079, "oa": 5080, "\u0120indispensable": 5081, "\u0120underway": 5082, "Day": 5083, "Roosevelt": 5084, "\u0120defines": 5085, "gers": 5086, "\u0120mitral": 5087, "Download": 5088, "\u0120hours": 5089, "Click": 5090, "\u0120sell": 5091, "\u0120aromatic": 5092, "never": 5093, "\u0120Ethiopian": 5094, "\u0120electrostatic": 5095, "different": 5096, "\u0120who": 5097, "\u0120Huang": 5098, "\u0120whom": 5099, "Gs": 5100, "\u0120offering": 5101, "\u0120everlasting": 5102, "\u0120lets": 5103, "\u0120Martin": 5104, "opia": 5105, "\u0120tempted": 5106, "\u0120obligatory": 5107, "\u0120implementing": 5108, "\u0120Tree": 5109, "meteor": 5110, "\u0120crafted": 5111, "\u0120Positive": 5112, "\u0120Patent": 5113, "\u0120derived": 5114, "\u0120Atlantis": 5115, "oop": 5116, "\u0120PHP": 5117, "\u0120Cuba": 5118, "\u0120crevices": 5119, "\u0120microbiology": 5120, "Alzheimer": 5121, "\u0120Nova": 5122, "\u0120Farm": 5123, "\u0120estuary": 5124, "qua": 5125, "\u0120isn": 5126, "\u0120F": 5127, "\u0120neighbor": 5128, "labor": 5129, "\u00c3\u00b3n": 5130, "\u0120activism": 5131, "clo": 5132, "\u0120Pure": 5133, "\u0120Parts": 5134, "pid": 5135, "\u0120there": 5136, "\u0120512": 5137, "phi": 5138, "ckle": 5139, "\u01201823": 5140, "\u0120considerations": 5141, "current": 5142, "ership": 5143, "||-": 5144, "\u0120Level": 5145, "\u0120shroud": 5146, "\u0120fly": 5147, "\u0120logic": 5148, "gnostic": 5149, "\u0120inherit": 5150, "\u0120USPSTF": 5151, "\u0120very": 5152, "mediated": 5153, "\u0120lemon": 5154, "\u0120wonderfully": 5155, "ole": 5156, "\u0120retina": 5157, "asa": 5158, "\u0120ka": 5159, "\u0120cons": 5160, "\u0120drew": 5161, "Mississippi": 5162, "\u0120wrapping": 5163, "\u0120technicians": 5164, "tion": 5165, "\u0120Caucasus": 5166, "\u0120juvenile": 5167, "TY": 5168, "\u0120village": 5169, "\u0120Tribunal": 5170, "\u0120Cup": 5171, "\u0120anymore": 5172, "\u0120molybdenum": 5173, "igo": 5174, "\u0120previously": 5175, "\u0120took": 5176, "\u0120chap": 5177, "\u0120cop": 5178, "\u0120Ponsonby": 5179, "\u0120created": 5180, "\u0120juniper": 5181, "\u0120rockets": 5182, "\u0120attendant": 5183, "suggest": 5184, "1952": 5185, "\u00e2\u0122\u013f?": 5186, "\u0120AS": 5187, "\u0120depart": 5188, "\u0120Indies": 5189, "ara": 5190, "\u0120quizzes": 5191, "meaning": 5192, "emorrhagic": 5193, "\u0120Brahm": 5194, "\u0120assured": 5195, "Pacific": 5196, "\u0120Pole": 5197, "\u0120trademark": 5198, "\u0120unfortunate": 5199, "\u0120Consider": 5200, "\u0120scra": 5201, ".''": 5202, "\u0120delegate": 5203, "\u01201842": 5204, "\u0120elements": 5205, "\u0120cre": 5206, "\u0120waist": 5207, "\u0120tacit": 5208, "\u0120reliability": 5209, "\u0120grape": 5210, "\u0120AP": 5211, "ule": 5212, "acc": 5213, "ssa": 5214, "\u0120CH": 5215, "\u0120thermal": 5216, "esarean": 5217, "\u0120Sus": 5218, "\u0120estuarine": 5219, "\u0120centered": 5220, "\u0120Produce": 5221, "\u0120dwelling": 5222, "Sl": 5223, "2000": 5224, "\u0120Questions": 5225, "\u0120preferable": 5226, "\u0120priests": 5227, "anding": 5228, "\u0120outlets": 5229, "\u0120paired": 5230, "\u0120familial": 5231, "\u0120wireless": 5232, "\u0120alarms": 5233, "\u0120programmed": 5234, "nite": 5235, "\u0120submitted": 5236, "ption": 5237, "like": 5238, "\u0120obedient": 5239, "ration": 5240, "**": 5241, "\u013c": 5242, "\u0120feather": 5243, "-,": 5244, "eit": 5245, "requisite": 5246, "\u0120Hard": 5247, "\u0120Les": 5248, "\u0120invest": 5249, "\u0120BRCA": 5250, "\u0120rolls": 5251, "\u0120Avoid": 5252, "\u0120artifacts": 5253, "\u0120neo": 5254, "\u0120Highland": 5255, "\u0120lunches": 5256, "\u0120pink": 5257, "\u0120Mass": 5258, "\u0120cri": 5259, "\u0120fused": 5260, "\u0120find": 5261, "\u0120Laos": 5262, "\u0120BU": 5263, "Muslims": 5264, "\u0120denominator": 5265, "\u0120wishing": 5266, "\u0120mile": 5267, "\u0120Glossary": 5268, "Trans": 5269, "\u0120In": 5270, "char": 5271, "\u01201801": 5272, "\u0120builder": 5273, "\u0120cautioned": 5274, "\u0120cereals": 5275, "sser": 5276, "\u0120pavilion": 5277, "ache": 5278, "\u0120Baron": 5279, "\u0120sustain": 5280, "\u0120Bibliography": 5281, "authentic": 5282, "bee": 5283, "\u0120Also": 5284, "1985": 5285, "\u0120optimal": 5286, "\u0120ideologies": 5287, "\u0120commanded": 5288, "\u0120spontaneous": 5289, "\u0120signals": 5290, "\u0120linguistics": 5291, "\u0120sprout": 5292, "\u0120Ma": 5293, "success": 5294, "dney": 5295, "\u0120attempted": 5296, "\u0120nine": 5297, "\u0120insulating": 5298, "inating": 5299, "\u0120Hu": 5300, "\u0120geometrical": 5301, "\u0120Diploma": 5302, "Soft": 5303, "drug": 5304, "\u0120hesitant": 5305, "214": 5306, "\u0120Maya": 5307, "iff": 5308, "\u0120RM": 5309, "1976": 5310, "\u0120disin": 5311, "chester": 5312, "\u0120timed": 5313, "abstract": 5314, "\u0120spokesperson": 5315, "Christopher": 5316, "36": 5317, "\u0120grant": 5318, "\u0120rabies": 5319, "\u0120recitation": 5320, "depressant": 5321, "\u0120than": 5322, "\u0120germs": 5323, "\u0120JSTOR": 5324, "Average": 5325, "\u0120receiver": 5326, "\u0120Crusade": 5327, "\u00c3\u00a1l": 5328, "\u0120moved": 5329, "\u0120theorem": 5330, "\u0120mystical": 5331, "\u0120leave": 5332, "\u0120manifestation": 5333, "\u0120disturb": 5334, "on": 5335, "\u0120Prussian": 5336, "\u0120Specific": 5337, "\u0120moth": 5338, "\u0120Shot": 5339, "\u0120Explorer": 5340, "\u0120eighteen": 5341, "\u0120would": 5342, "\u0120Century": 5343, "\u0120Ny": 5344, "\u0120Poe": 5345, "AM": 5346, "\u0120Southern": 5347, "\u0120drank": 5348, "\u0120consequently": 5349, "\u0120stages": 5350, "Gaddafi": 5351, "\u0120Leone": 5352, ")|": 5353, "\u0120homeopathic": 5354, "\u0120induct": 5355, "\u0120treasure": 5356, "\u0120label": 5357, "\u0120regulators": 5358, "\u0120marijuana": 5359, "\u0120lawful": 5360, "sket": 5361, "y\u00c4\u0123": 5362, "\u0120motive": 5363, "\u0120quickly": 5364, "Speaking": 5365, "\u0120Path": 5366, "\u0120mansion": 5367, "\u0120dialogue": 5368, "\u0120rash": 5369, "MAN": 5370, "\u0120Lad": 5371, "\u0120FAO": 5372, "\u0120Harris": 5373, "ros": 5374, "\u0120connection": 5375, "\u0120Select": 5376, "\u0120claims": 5377, "\u0120anyone": 5378, "\u0120conferences": 5379, "\u0120merit": 5380, "\u0120agroforestry": 5381, "\u0120Ptolemy": 5382, "\u0120uncanny": 5383, "\u0120marrow": 5384, "\u0120eagerly": 5385, "\u0120hazards": 5386, "London": 5387, "\u0120chaotic": 5388, "\u0120attic": 5389, "Discuss": 5390, "\u0120wisely": 5391, "\u0120naproxen": 5392, "\u0120fledgling": 5393, "\u0120underlying": 5394, "Scientific": 5395, "\u0120foreign": 5396, "\u0120Archibald": 5397, "\u0120Easy": 5398, "ali": 5399, "\u0120loom": 5400, "\u0120sla": 5401, "\u0120marsh": 5402, "\u0120Enceladus": 5403, "\u0120repeal": 5404, "\u0120renovation": 5405, "\u0120PCs": 5406, "\u0120die": 5407, "\u0120gondii": 5408, "\u0120bestowed": 5409, "don": 5410, "\u0120late": 5411, "\u0120Pro": 5412, "\u0120universally": 5413, "\u0120currency": 5414, "\u0120inverted": 5415, "\u0120nursing": 5416, "\u0120Kid": 5417, "\u0120underscore": 5418, "\u0120laundry": 5419, "\u0120unavailable": 5420, "15": 5421, "\u0120UK": 5422, "\u0120correct": 5423, "gua": 5424, "\u01201969": 5425, "particle": 5426, "\u0120Expect": 5427, "\u0120Turks": 5428, "\u0120Africans": 5429, "\u0120pearl": 5430, "\u0120watts": 5431, "\u0120devoid": 5432, "str": 5433, "\u0120importance": 5434, "diagnosed": 5435, "tall": 5436, "\u0120thermodynamics": 5437, "\u0120clock": 5438, "\u0120saltwater": 5439, "\u0120hummingbirds": 5440, "via": 5441, "Set": 5442, "ania": 5443, "\u0120sports": 5444, "\u0120victory": 5445, "\u0120Tools": 5446, "\u0120Richard": 5447, "\u0120Recent": 5448, "nee": 5449, "too": 5450, "TION": 5451, "\u0120guys": 5452, "\u0120Recycling": 5453, "\u0120signifies": 5454, "\u0120reinforced": 5455, "\u0120Kodak": 5456, "\u0120Manifest": 5457, "ville": 5458, "\u0120inconsistent": 5459, "\u0120matrix": 5460, "\u0120vibrant": 5461, "\u0120bump": 5462, "GER": 5463, "\u0120eventually": 5464, "\u0120Qing": 5465, "\u0120civic": 5466, "\u0120fuels": 5467, "\u0120phones": 5468, "\u0120tele": 5469, "Thomas": 5470, ")(": 5471, "\u0120EN": 5472, "iform": 5473, "\u0120fork": 5474, "organ": 5475, "\u0120road": 5476, "\u0120Devil": 5477, "\u0120PROGRAM": 5478, "\u0120judiciary": 5479, "\u0120Film": 5480, "\u0120preserves": 5481, "\u0120exams": 5482, "\u0120ability": 5483, "\u0120Seismic": 5484, "\u0120Behind": 5485, "lk": 5486, "thic": 5487, "\u0120saturated": 5488, "\u0120coll": 5489, "\u0120Nissan": 5490, "\u0120Thom": 5491, "\u0120Internet": 5492, "OW": 5493, "ologie": 5494, "mile": 5495, "\u0120remnant": 5496, "\u0120Steven": 5497, "\u0120cousins": 5498, "\u0120auto": 5499, "\u0120Outcomes": 5500, "morphic": 5501, "\u00d2": 5502, "yana": 5503, "\u0120terminated": 5504, "\u0120Room": 5505, "\u0120handed": 5506, "\u0120Guil": 5507, "\u0120complex": 5508, "\u0120paying": 5509, "\u0120swallow": 5510, "\u0120adequately": 5511, "\u0120stadium": 5512, "\u0120Excel": 5513, "\u01201899": 5514, "\u0120gy": 5515, "quiring": 5516, "\u0120thigh": 5517, "\u0120Oh": 5518, "\u0120Pin": 5519, "\u0120Societies": 5520, "Fo": 5521, "\u0120handbook": 5522, "uh": 5523, "\u0120Gehrig": 5524, "\u0120lichen": 5525, "\u0120permissions": 5526, "\u0120unavoidable": 5527, "\u0120Neu": 5528, "\u0120qui": 5529, "Han": 5530, "\u0120Prentice": 5531, "\u0120decorated": 5532, "59": 5533, "\u0120immer": 5534, "\u0120coefficients": 5535, "tas": 5536, "\u0120War": 5537, "\u0120ovaries": 5538, "\u0120popularly": 5539, "\u0120bleaching": 5540, "\u0120teeth": 5541, "\u0120expanded": 5542, "\u0120occasion": 5543, "cause": 5544, "Figure": 5545, "\u0120condensed": 5546, "\u0120elegance": 5547, "\u0120BCE": 5548, "\u0120Heat": 5549, "\u0120latest": 5550, "virus": 5551, "\u0120US": 5552, "\u0120laser": 5553, "\u0120shrunk": 5554, "\u0120tone": 5555, "\u0120favored": 5556, "\u0120papers": 5557, "\u0120electrolyte": 5558, "\u0120Sk": 5559, "\u0120landscape": 5560, "credit": 5561, "\u0120Significant": 5562, "\u0120Purpose": 5563, "Au": 5564, "satisf": 5565, "hy": 5566, "cel": 5567, "\u0120supernatural": 5568, "\u0120tenants": 5569, "\u0120offerings": 5570, "\u0120Dayton": 5571, "\u0120win": 5572, "\u0120Electronic": 5573, "\u0120pumps": 5574, "\u0120Cash": 5575, "\u0120reiterate": 5576, "ggles": 5577, "\u0120discover": 5578, "\u0120Geography": 5579, "\u0120paleo": 5580, "civil": 5581, "\u0120explains": 5582, "\u0120belonging": 5583, "\u0120impart": 5584, "\u0120PRI": 5585, "\u0120Help": 5586, "\u0120Douglass": 5587, "\u0120titanium": 5588, "\u0120saying": 5589, "\u0120supplementary": 5590, "\u0120emigrants": 5591, "ven": 5592, "\u0120effluent": 5593, "\u0120curiosity": 5594, "\u0120meadows": 5595, "\u0120Writings": 5596, "Red": 5597, "\u0120scissors": 5598, "\u0120Teen": 5599, "\u0120eternity": 5600, "\u0120sketches": 5601, "\u0120Deer": 5602, "lid": 5603, "\u0120nobility": 5604, "\u0120rye": 5605, "\u0120laborers": 5606, "ley": 5607, "\u0120Moisture": 5608, "09": 5609, "river": 5610, "-....": 5611, "\u0120meteorite": 5612, "\u0120bother": 5613, "\u0120ionic": 5614, "\u0120something": 5615, "\u0120du": 5616, "\u0120upright": 5617, "ASS": 5618, "\u0120tribunal": 5619, "\u0120ankles": 5620, "\u0120hatched": 5621, "\u0120grain": 5622, "\u0120consum": 5623, "\u0120LGBT": 5624, "\u0120Euro": 5625, "\u0120Father": 5626, "\u0120drought": 5627, "\u0120General": 5628, "\u0120stop": 5629, "\u0120burn": 5630, "\u0120ancient": 5631, "MB": 5632, "\u0120Accept": 5633, "\u0120systemic": 5634, "mu": 5635, "Benefits": 5636, "\u0120endometrial": 5637, "\u0120mul": 5638, "SU": 5639, "\u0120Rep": 5640, "Note": 5641, "\u0120vines": 5642, "\u0120navigating": 5643, "\u0120shading": 5644, "\u0120unmistak": 5645, "\u0120harvested": 5646, "\u0120herd": 5647, "\u0120Song": 5648, "secret": 5649, "\u0120Apo": 5650, "\u0120Pleasant": 5651, "\u0120Department": 5652, "Breast": 5653, "Typically": 5654, "Chi": 5655, "\u01201851": 5656, "\u0120Pearl": 5657, "\u0120detection": 5658, "1111": 5659, "\u0120counties": 5660, "pieces": 5661, "\u0120forestry": 5662, "\u0120cottage": 5663, "].": 5664, "\u0120declarations": 5665, "thesis": 5666, "\u0120Pit": 5667, "\u0120Hei": 5668, "\u0120Collections": 5669, "\u0120bronchitis": 5670, "\u0120Moshe": 5671, "\u0120Fo": 5672, "\u0120bus": 5673, "F": 5674, "\u0120scheduling": 5675, "\u0120UN": 5676, "arn": 5677, "\u0120posters": 5678, "\u0120yellow": 5679, "\u0120persons": 5680, "\u0120escape": 5681, "\u0120installations": 5682, "\u0120collect": 5683, "\u0120bridges": 5684, "\u0120director": 5685, "l": 5686, "\u0120breast": 5687, "winning": 5688, "olved": 5689, "\u0120tract": 5690, "\u0120maple": 5691, "\u0120fertility": 5692, "\u0120Hemisphere": 5693, "\u0120decimal": 5694, "\u0120loud": 5695, "Frank": 5696, "\u0120Caenorhabditis": 5697, "lement": 5698, "Birth": 5699, "\u0120corps": 5700, "\u0120peacefully": 5701, "\u0120skeptical": 5702, "\u0120Gray": 5703, "\u0120accommodating": 5704, "ex": 5705, "dependent": 5706, "guns": 5707, "\u0120lose": 5708, "\u0120Kal": 5709, "\u0120fishing": 5710, "OS": 5711, "\u0120pedal": 5712, "\u0120evaluate": 5713, "sas": 5714, "\u0120absent": 5715, "\u0120bites": 5716, "\u0120forecasts": 5717, "\u0120Thai": 5718, "\u0120Hampton": 5719, "ques": 5720, "\u0120Cyrus": 5721, "\u0120inac": 5722, "\u0120strokes": 5723, "\u0120Facilities": 5724, "\u0120Back": 5725, "Res": 5726, "\u0120Fourier": 5727, "\u0120Therapy": 5728, "\u0120dating": 5729, "\u0120shake": 5730, "\u0120curator": 5731, "\u0120resident": 5732, "\u0120moss": 5733, "\u0120replaced": 5734, "Philadelphia": 5735, "\u0120Pitt": 5736, "\u0120reports": 5737, "\u0120killer": 5738, "\u0120eliminated": 5739, "\u0120threaten": 5740, "PV": 5741, "impact": 5742, "\u0120Pers": 5743, "RI": 5744, "\u0120functional": 5745, "\u0120diary": 5746, "\u0120interview": 5747, "\u0120budget": 5748, "\u0120blocks": 5749, "\u0120relates": 5750, "\u0120Vehicle": 5751, "\u0120primate": 5752, "\u0120vest": 5753, "\u0120Lord": 5754, "\u0120Partners": 5755, "\u0120baby": 5756, "rrhea": 5757, "\u0120thy": 5758, "istence": 5759, "Dra": 5760, "done": 5761, "\u0120fee": 5762, "\u0120dog": 5763, "\u0120internet": 5764, "\u0120jo": 5765, "Preparing": 5766, "accessed": 5767, "\u0120Hugh": 5768, "\u0120ingenious": 5769, "\u0120forcibly": 5770, "genic": 5771, "\u0120tense": 5772, "Development": 5773, "cm": 5774, "Con": 5775, "\u0120bounded": 5776, "erie": 5777, "\u0120Accessed": 5778, "\u0120occult": 5779, "fired": 5780, "\u0120directing": 5781, "\u0120thick": 5782, "Was": 5783, "\u0120unequivocal": 5784, "\u0120Austro": 5785, "\u00d0\u00be\u00d0\u00b2": 5786, "\u0120distill": 5787, "\u0120Neurological": 5788, "\u0120dimensional": 5789, "\u0120southwestern": 5790, "\u0120forested": 5791, "\u0120leather": 5792, "Id": 5793, "\u0120oyster": 5794, "cyclic": 5795, "\u0120Lebanese": 5796, "\u0120signed": 5797, "nh": 5798, "\u0120Andrea": 5799, "\u0120undisturbed": 5800, "Instead": 5801, "\u0120standpoint": 5802, "\u0120ecliptic": 5803, "Numerous": 5804, "\u0120guild": 5805, "\u0120thickness": 5806, "\u0120communion": 5807, "\u0120Philippine": 5808, "oys": 5809, "\u0120diplomatic": 5810, "\u0120cautiously": 5811, "\u0120poisoning": 5812, "\u0120intestine": 5813, "poll": 5814, "\u0120upgrade": 5815, "\u0120sustaining": 5816, "\u0120deposed": 5817, "Hall": 5818, "\u0120absorbed": 5819, "ink": 5820, "\u0120beat": 5821, "iation": 5822, "\u0120Child": 5823, "\u0120merged": 5824, "\u0120Community": 5825, "vers": 5826, "\u0120texture": 5827, "\u0120CCS": 5828, "\u0120Judith": 5829, "\u0120Jan": 5830, "abs": 5831, "\u0120shelf": 5832, "\u0120dragged": 5833, "\u0120Solstice": 5834, "\u0120f": 5835, "\u0120Financial": 5836, "pressure": 5837, "\u0120Maker": 5838, "\u0120exclusion": 5839, "hydr": 5840, "\u0120larva": 5841, "\u0120hitting": 5842, "An": 5843, "\u0120admissions": 5844, "\u0120Brigham": 5845, "\u0120Eventually": 5846, "\u0120Cooke": 5847, "\u0120valuable": 5848, "\u0120Jubilee": 5849, "\u0120Long": 5850, "\u0120handles": 5851, "Technology": 5852, "\u0120yielded": 5853, "\u0120Eating": 5854, "\u0120criticism": 5855, "and": 5856, "\u0120roses": 5857, "\u0120beard": 5858, "cylinder": 5859, "\u0120sequence": 5860, "\u0120digested": 5861, "\u0120Historical": 5862, "Extreme": 5863, "\u0120Study": 5864, "\u0120remain": 5865, "\u0120era": 5866, "\u0120condoms": 5867, "\u0120pencils": 5868, "\u0120avoiding": 5869, "str\u00c3\u00b6m": 5870, "\u0120reached": 5871, "\u0120brink": 5872, "eves": 5873, "\u0120hazardous": 5874, "\u0120epidemiology": 5875, "\u0120conducted": 5876, "\u0120condemned": 5877, "\u0120famous": 5878, "\u0120Sense": 5879, "\u0120Peregrine": 5880, "WW": 5881, "\u0120drip": 5882, "tu": 5883, "aya": 5884, "\u0120JA": 5885, "\u0120concerned": 5886, "hak": 5887, "\u0120identified": 5888, "\u0120coalition": 5889, "provided": 5890, "\u0120persecuted": 5891, "\u0120abide": 5892, "\u0120moments": 5893, "\u0120prevalent": 5894, "\u0120bicarbonate": 5895, "\u00ae": 5896, "\u0120clarify": 5897, "\u0120bark": 5898, "\u0120determin": 5899, "cot": 5900, "\u0120wipe": 5901, "\u0120Pleistocene": 5902, "\u0120hips": 5903, "\u0120irrespective": 5904, "aq": 5905, "\u0120follicle": 5906, "NC": 5907, "represented": 5908, "\u0120pianist": 5909, "\u0120Hiroshima": 5910, "\u0120Reagan": 5911, "\u0120Hendri": 5912, "\u0120Veterans": 5913, "Asia": 5914, "\u0120lact": 5915, "\u0120respecting": 5916, "\u0120Galilean": 5917, "sometimes": 5918, "\u0120choices": 5919, "\u0120speciation": 5920, "\u0120antifungal": 5921, "\u0120blind": 5922, "\u0120Vine": 5923, "\u0120Tea": 5924, "\u0120qualifies": 5925, "Ever": 5926, "\u0120Soviet": 5927, "\u0120test": 5928, "\u0120gyrus": 5929, "155": 5930, "idi": 5931, "\u0120PN": 5932, "\u0120figure": 5933, "\u0120subsidies": 5934, "\u0120dealers": 5935, "\u0120Writing": 5936, "\u0120sciences": 5937, "\u0120l": 5938, "\u0120Denver": 5939, "\u0120slow": 5940, "\u0120news": 5941, "\u0120Rose": 5942, "tho": 5943, "CR": 5944, "\u0120cones": 5945, "\u0120Schuster": 5946, "\u0120awareness": 5947, "850": 5948, "rib": 5949, "\u0120clicking": 5950, "\u0120gems": 5951, "\u0120mixture": 5952, "\u0120detects": 5953, "\u0120villages": 5954, "\u0120representations": 5955, "Enter": 5956, "\u0120serotonin": 5957, "\u0120stones": 5958, "\u0120Triumph": 5959, "\u0120license": 5960, "\u0120merging": 5961, "\u0120await": 5962, "trained": 5963, "\u0120three": 5964, "\u0120dwindling": 5965, "\u0120diamond": 5966, "\u0120Stand": 5967, "\u0120positive": 5968, "\u0120secrets": 5969, "\u0120toxins": 5970, "\u0120ru": 5971, "\u0120Chicken": 5972, "\u0120Hen": 5973, "\u0120facsimile": 5974, "ssie": 5975, "\u0120repressive": 5976, "\u0120refurbish": 5977, "ity": 5978, "\u0120Naples": 5979, "wo": 5980, "\u0120avocado": 5981, "\u0120stick": 5982, "\u0120recovery": 5983, "\u0120Start": 5984, "\u0120fills": 5985, "\u0120uniquely": 5986, "\u0120keeper": 5987, "\u0120pistol": 5988, "ve": 5989, "\u0120Jesuit": 5990, "\u0120organic": 5991, "\u0120Location": 5992, "\u0120enclosures": 5993, "\u0120Cordillera": 5994, "simple": 5995, "\u0120chromosomes": 5996, "\u0120sublime": 5997, "\u0120MP": 5998, "\u0120initially": 5999, "Chem": 6000, "\u0120scenes": 6001, "\u0120mechanical": 6002, "\u0120breathe": 6003, "\u0120reminiscent": 6004, "\u0120Moore": 6005, "\u0120cyclones": 6006, "\u0120Cultures": 6007, "\u0120agon": 6008, "\u0120Registry": 6009, "Qu": 6010, "\u0120Point": 6011, "\u0120ascertain": 6012, "linked": 6013, "\u0120madness": 6014, "Most": 6015, "\u0120feeble": 6016, "\u0120blooms": 6017, "\u0120billion": 6018, "Teach": 6019, "\u0120prominent": 6020, "\u0120Gospel": 6021, "\u0120STEM": 6022, "\u0120within": 6023, "Correct": 6024, "\u0120Connection": 6025, "\u0120detector": 6026, "\u0120Final": 6027, "\u0120Robinson": 6028, "elman": 6029, "\u0120enjoying": 6030, "HA": 6031, "\u0120Vinci": 6032, "gress": 6033, "\u0120Aristide": 6034, "oidal": 6035, "\u0120contr": 6036, "\u0120wet": 6037, "\u0120High": 6038, "\u0120Sloan": 6039, "\u0120suddenly": 6040, "\u0120Syphilis": 6041, "\u0120lymph": 6042, "\u0120Booth": 6043, "\u0120221": 6044, "\u0120Nordic": 6045, "\u0120Burkina": 6046, "\u0120XML": 6047, "nes": 6048, "\u0120passes": 6049, "sef": 6050, "\u0120explorers": 6051, "\u0120Context": 6052, "\u0120Diarmuid": 6053, "\u0120terrestrial": 6054, "\u0120advocating": 6055, "\u0120Saskatchewan": 6056, "\u0120practically": 6057, "\u0120liabilities": 6058, "\u0120horizon": 6059, "level": 6060, "\u01208": 6061, "\u0120clothed": 6062, "\u0120incubation": 6063, "\u0120provincial": 6064, "\u0120Touch": 6065, "\u0120slice": 6066, "\u0120Goals": 6067, "\u0120immunoglobulin": 6068, "\u0120heretofore": 6069, "\u0120tremendous": 6070, "store": 6071, "\u0120NOT": 6072, "\u0120fleet": 6073, "\u0120Mala": 6074, "\u0120ins": 6075, "1973": 6076, "rea": 6077, "\u0120glance": 6078, "Land": 6079, "\u0120antimicrobial": 6080, "ane": 6081, "\u0120Requirements": 6082, "\u0120Johns": 6083, "\u0120Thi": 6084, "\u0120Livonia": 6085, "existent": 6086, "\u0120mantle": 6087, "\u0120Shenandoah": 6088, "\u0120TW": 6089, "\u0120ceremonies": 6090, "kjv": 6091, "\u0120Resolution": 6092, "\u0120Cover": 6093, "\u0120apex": 6094, "nne": 6095, "\u0120volume": 6096, "\u0120Dan": 6097, "\u0120enough": 6098, "\u0120prosperity": 6099, "\u0120diastolic": 6100, "\u0120wheels": 6101, "\u0120censorship": 6102, "\u0120liberals": 6103, "\u0120Macro": 6104, "\u0120consistent": 6105, "\u0120nearby": 6106, "\u0120phonetic": 6107, "round": 6108, "\u0120antecedent": 6109, "\u0120quality": 6110, "Catholic": 6111, "\u0120motorcycle": 6112, "\u0120133": 6113, "\u0120belts": 6114, "\u0120Guidance": 6115, "know": 6116, "\u0120impetus": 6117, "belt": 6118, "\u0120proliferation": 6119, "\u0120Security": 6120, "\u0120distinctions": 6121, "\u0120gloss": 6122, "1996": 6123, "\u0120pardon": 6124, "\u0120fold": 6125, "\u0120pest": 6126, "\u0120intend": 6127, "\u0120yielding": 6128, "tti": 6129, "depressants": 6130, "Cli": 6131, "\u0120Assembl": 6132, "\u0120subsidi": 6133, "\u00e2\u0122\u013f": 6134, "\u0120ac": 6135, "\u0120surmise": 6136, "\u0120acting": 6137, "\u0120rainbow": 6138, "\u0120Glass": 6139, "\u0120Topics": 6140, "Kentucky": 6141, "\u0120kills": 6142, "\u0120Ha": 6143, "GL": 6144, "\u0120allowance": 6145, "\u0120Gold": 6146, "\u0120shot": 6147, "ORY": 6148, "\u0120Ng": 6149, "Now": 6150, "dy": 6151, "\u0120hurts": 6152, "\u0120Esp": 6153, "\u0120Coal": 6154, "\u0120bu": 6155, "\u0120Bureau": 6156, "\u0120damp": 6157, "sent": 6158, "\u0120Guy": 6159, "Ap": 6160, "\u0120Magic": 6161, "\u0120interferes": 6162, "\u0120safer": 6163, "\u0120runoff": 6164, "\u0120warn": 6165, "\u0120farming": 6166, "\u0120uni": 6167, "\u0120evaluating": 6168, "\u0120pancreas": 6169, "Bri": 6170, "\u0120Illumina": 6171, "\u0120outlet": 6172, "\u0120au": 6173, "\u0120Thank": 6174, "\u0120cassette": 6175, "ita": 6176, "\u0120activities": 6177, "\u0120dwellings": 6178, "\u0120portable": 6179, "\u0120remains": 6180, "\u0120feeds": 6181, "\u0120Rare": 6182, "\u0120differing": 6183, "\u0120redness": 6184, "\u0120instruments": 6185, "\u0120omni": 6186, "\u0120refrigerant": 6187, "\u0120discouraged": 6188, "\u0120exhaustive": 6189, "\u0120Northwestern": 6190, "\u0120hooked": 6191, "\u0120equivalents": 6192, "\u0120Ek": 6193, "Skip": 6194, "uts": 6195, "\u0120eye": 6196, "\u0120monopoly": 6197, "\u0120He": 6198, "\u0120charming": 6199, "\u0120Sie": 6200, "175": 6201, "\u0120digital": 6202, "\u0120inaugurated": 6203, "\u0120touching": 6204, "Saxon": 6205, "Dan": 6206, "\u0120impacts": 6207, "\u0120clots": 6208, "\u0120import": 6209, "\u0120regiment": 6210, "\u0120planted": 6211, "uting": 6212, "\u0120suicide": 6213, "\u0120divorced": 6214, "inity": 6215, "\u0120Encourage": 6216, "\u0120Astro": 6217, "handle": 6218, "\u0120equivalence": 6219, "\u0120Phi": 6220, "\u0120marks": 6221, "\u0120Minneapolis": 6222, "ff": 6223, "\u0120Balance": 6224, "\u0120coal": 6225, "\u0120sticking": 6226, "\u0120CPU": 6227, "\u0120Alternative": 6228, "\u0120secretion": 6229, "66": 6230, "\u0120country": 6231, "\u0120imported": 6232, "\u0120co": 6233, "finite": 6234, "\u0120stir": 6235, "\u0120desires": 6236, "\u0120Top": 6237, "\u0120hard": 6238, "\u0120declaration": 6239, "\u0120Recognition": 6240, "\u0120attacks": 6241, "zzi": 6242, "\u0120Diaspora": 6243, "\u0120goals": 6244, "bour": 6245, "\u0120achieved": 6246, "\u0120weave": 6247, "\u0120magistrate": 6248, "\u0120Robertson": 6249, "\u0120deciding": 6250, "\u0120HM": 6251, "\u0120secret": 6252, "\u0120Ceylon": 6253, "\u0120trivial": 6254, "\u0120ann": 6255, "Ver": 6256, "\u0120Bachelor": 6257, "NL": 6258, "rah": 6259, "\u0120alone": 6260, "\u0120Paleo": 6261, "\u0120unnecessarily": 6262, "hon": 6263, "lateral": 6264, "users": 6265, "\u0120cents": 6266, "\u0120Batt": 6267, "\u0120number": 6268, "\u0120proprietor": 6269, "\u0120bulk": 6270, "however": 6271, "\u0120Danger": 6272, "\u0120miles": 6273, "\u0120interface": 6274, "\u0120At": 6275, "professional": 6276, "\u0120Functions": 6277, "\u0120Comparison": 6278, "EE": 6279, ".\u00e2\u0122\u013f": 6280, "\u0120drink": 6281, "\u0120penetrated": 6282, "\u0120crowd": 6283, "\u0120capitalists": 6284, "\u0120Aramaic": 6285, "\u0120beginnings": 6286, "\u0120Cochrane": 6287, "\u0120mediation": 6288, "German": 6289, "\u0120timely": 6290, "\u0120sweetener": 6291, "liberal": 6292, "\u0120slab": 6293, "\u0120unsure": 6294, "\u0120Places": 6295, "\u0120Google": 6296, "oes": 6297, "itarian": 6298, "\u0120sails": 6299, "Ang": 6300, "\u0120Chemicals": 6301, "\u0120Thomson": 6302, "wheel": 6303, "KA": 6304, "Making": 6305, "\u0120Ku": 6306, "\u0120smokers": 6307, "\u0120[...]": 6308, "Copyright": 6309, "\u0120apprehend": 6310, "\u0120inauguration": 6311, "\u0120symmetric": 6312, "\u0120Impacts": 6313, "\u0120prim": 6314, "IN": 6315, "\u0120primordial": 6316, "\u0120manipulating": 6317, "\u0120quota": 6318, "\u0120meant": 6319, "\u0120Stark": 6320, "\u0120Rivers": 6321, "\u0120hen": 6322, "Confederate": 6323, "\u0120gods": 6324, "\u0120rare": 6325, "\u0120Sigr\u00c3\u0143\u00c3\u00b0": 6326, "ei": 6327, "Based": 6328, "\u0120spare": 6329, "\u0120confeder": 6330, "\u0120Serpent": 6331, "ination": 6332, "\u0120benefactor": 6333, "\u0120Bradley": 6334, "\u0120Dewey": 6335, "\u0120Ac": 6336, "rets": 6337, "\u0120nematode": 6338, "nica": 6339, "\u0120discriminate": 6340, "\u0120finishes": 6341, "scopy": 6342, "\u0120bracket": 6343, "\u0120producing": 6344, "\u0120band": 6345, "\u0120Holmes": 6346, "\u0120Allaah": 6347, "\u0120dangers": 6348, "forward": 6349, "\u0120schema": 6350, "\u0120analgesic": 6351, "\u0120cover": 6352, "\u0120spar": 6353, "\u0120Huxley": 6354, "\u0120Rush": 6355, "\u0120meals": 6356, "\u0120fibrosis": 6357, "\u0120professional": 6358, "\u0120Staff": 6359, "\u0120sophomore": 6360, "\u0120scoring": 6361, "\u012055": 6362, "\u0120Univ": 6363, "sided": 6364, "\u0120Turkey": 6365, "\u0120Div": 6366, "sugar": 6367, "\u0120opt": 6368, "\u0120subdivision": 6369, "\u0120winding": 6370, "\u0120vessels": 6371, "\u0120SCHOOL": 6372, "\u0120horizontal": 6373, "\u0120historical": 6374, "\u0120description": 6375, "\u0120utensils": 6376, "ian": 6377, "Access": 6378, "\u0120espionage": 6379, "\u0120lumbar": 6380, "Israel": 6381, "\u0120Tang": 6382, "\u0120Agricultural": 6383, "\u0120jacket": 6384, "\u0120Every": 6385, "\u0120Ottawa": 6386, "\u0120cohabit": 6387, "\u0120entail": 6388, "\u0120electronic": 6389, "Ass": 6390, "\u0120DP": 6391, "\u0120transducer": 6392, "set": 6393, "\u0120Fle": 6394, "\u0120commencement": 6395, "\u0120Mor": 6396, "\u0120Dennis": 6397, "\u0120ours": 6398, "\u0120orchid": 6399, "\u0120Levine": 6400, "\u0120realizing": 6401, "\u0120solid": 6402, "\u0120Poll": 6403, "\u0120surveys": 6404, "\u0120His": 6405, "\u0120conflicting": 6406, "\u0120borough": 6407, "\u0120Dakota": 6408, "\u0120untreated": 6409, "\u0120evident": 6410, "\u0120al": 6411, "Suppose": 6412, "\u0120temp": 6413, "\u0120roughly": 6414, "\u0120acidification": 6415, "\u0120professions": 6416, "225": 6417, "ou": 6418, "\u0120Critics": 6419, "fort": 6420, "\u0120che": 6421, "\u0120liner": 6422, "ord": 6423, "\u0120Eight": 6424, "\u0120flux": 6425, "\u0120Bert": 6426, "\u0120Local": 6427, "\u0120organizer": 6428, "\u0120across": 6429, "rified": 6430, "\u0120Wh": 6431, "nning": 6432, "vial": 6433, "1974": 6434, "\u0120Psychology": 6435, "\u0120modular": 6436, "\u0120Deal": 6437, "\u0120Inspection": 6438, "\u0120Guggenheim": 6439, "\u0120worthless": 6440, "\u0120Bohemia": 6441, "Cro": 6442, "\u0120Income": 6443, "tab": 6444, "\u0120noteworthy": 6445, "\u0120patrols": 6446, "\u0120Princeton": 6447, "\u0120sizable": 6448, "\u0120Depending": 6449, "just": 6450, "\u0120Milwaukee": 6451, "\u0120stigma": 6452, "\u0120Zh": 6453, "\u0120commissions": 6454, "\u0120includes": 6455, "\u0120chapter": 6456, "\u0120affinity": 6457, "\u0120plea": 6458, "something": 6459, "\u0120sunny": 6460, "\u0120induction": 6461, "\u0120excluding": 6462, "Post": 6463, "motor": 6464, "\u0120starting": 6465, "\u0120proactive": 6466, "rom": 6467, "\u0120evacuation": 6468, "UC": 6469, "\u0120UC": 6470, "\u0120apology": 6471, "\u0120Theology": 6472, "\u0120Francis": 6473, "py": 6474, "\u0120choke": 6475, "gas": 6476, "hu": 6477, "reason": 6478, "\u0120aureus": 6479, "\u0120examples": 6480, "\u0120checking": 6481, "\u0120secured": 6482, "\u0120hangs": 6483, "\u0120arche": 6484, "\u0120prepared": 6485, "\u0120Gonz": 6486, "\u0120glaciers": 6487, "\u0120recurring": 6488, "resistant": 6489, "\u0120elbow": 6490, "YS": 6491, "\u0120Since": 6492, "\u0120lung": 6493, "Sc": 6494, "\u0120Ordnance": 6495, "\u0120catalyze": 6496, "hurst": 6497, "\u0120descriptions": 6498, "water": 6499, "directional": 6500, "\u0120Franklin": 6501, "\u0120at": 6502, "\u0120center": 6503, "rod": 6504, "\u0120erupt": 6505, "\u0120accessible": 6506, "\u0120Planck": 6507, "\u0120Would": 6508, "\u0120325": 6509, "vering": 6510, "\u0120fil": 6511, "\u0120surrender": 6512, "\u0120empowering": 6513, "\u0120Estate": 6514, "\u0120exacerbated": 6515, "witness": 6516, "\u0120South": 6517, "\u0120Taiwan": 6518, "fus": 6519, "\u0120experiencing": 6520, "\u0120Ypres": 6521, "\u0120sparked": 6522, "Pan": 6523, "\u0120Macintosh": 6524, "\u0120reacts": 6525, "\u0120Instead": 6526, "\u0120Hypo": 6527, "\u0120enemies": 6528, "\u0120Source": 6529, "\u0120Temp": 6530, "\u0120B": 6531, "\u0120Kong": 6532, "\u0120paid": 6533, "zar": 6534, "\u0120dots": 6535, "\u0120Down": 6536, "\u0120victims": 6537, "!": 6538, "\u0120CBC": 6539, "\u0120complexities": 6540, "\u0120sequencing": 6541, "\u0120consecrated": 6542, "\u0120medulla": 6543, "\u0120dams": 6544, "\u0120broad": 6545, "\u0120Japanese": 6546, "\u0120dynam": 6547, "\u0120Joyce": 6548, "\u0120thousand": 6549, "\u0120Attack": 6550, "\u0120turkey": 6551, "\u0120date": 6552, "ited": 6553, "\u0120pines": 6554, "ither": 6555, "\u0120visions": 6556, "ads": 6557, "\u0120Sherman": 6558, "\u0120romance": 6559, "\u0120assembly": 6560, "play": 6561, "\u0120$": 6562, "stle": 6563, "\u0120Poultry": 6564, "\u0120CL": 6565, "\u0120implemented": 6566, "\u0120disproportionately": 6567, "\u0120reply": 6568, "\u0120Sky": 6569, "\u0120Unit": 6570, "\u0120Leonard": 6571, "\u0120care": 6572, "\u0120turbulent": 6573, "\u0120Secure": 6574, "\u0120tens": 6575, "\u0120jaguar": 6576, "\u0120laughter": 6577, "\u0120Alberta": 6578, "\u0120stormwater": 6579, "\u0120dropping": 6580, "white": 6581, "\u0120stroke": 6582, "\u0120Andrews": 6583, "oxygen": 6584, "\u0120crops": 6585, "dan": 6586, "\u0120capacitor": 6587, "\u0120taxpayer": 6588, "\u0120probability": 6589, "bush": 6590, "kh": 6591, "\u0120Spinoza": 6592, "\u0120remodel": 6593, "\u0120developers": 6594, "fun": 6595, "\u0120assemble": 6596, "ED": 6597, "\u0120neighbourhood": 6598, "\u0120specimens": 6599, "\u0120being": 6600, "\u0120stretched": 6601, "rat": 6602, "\u0120NRC": 6603, "yi": 6604, "\u0120FairTax": 6605, "\u0120panoramic": 6606, "\u0120charisma": 6607, "\u00a8": 6608, "\u0120correspondence": 6609, "dim": 6610, "\u00c3\u00bcn": 6611, "tte": 6612, "\u0120Fay": 6613, "\u0120Memorial": 6614, "\u0120inextricably": 6615, "Mis": 6616, "Act": 6617, "\u0120transmitting": 6618, "\u0120Ecuador": 6619, "\u0120graders": 6620, "\u0120exchanging": 6621, "Ti": 6622, "\u0120Sum": 6623, "\u0120calibration": 6624, "wash": 6625, "\u0120susceptible": 6626, "\u0120opened": 6627, "\u0120spectroscopy": 6628, "sulf": 6629, "\u0120inactivity": 6630, "\u0120acids": 6631, "\u0120September": 6632, "emic": 6633, "ianism": 6634, "\u0120grateful": 6635, "\u0120Sou": 6636, "\u0120Teresa": 6637, "\u0120overcrowding": 6638, "\u0120emancipation": 6639, "\u0120Loan": 6640, "\u0120fearing": 6641, "\u0120sweat": 6642, "\u0120Hashanah": 6643, "\u0120emotional": 6644, "olar": 6645, "\u0120instructional": 6646, "\u0120Eugene": 6647, "\u0120presided": 6648, "\u0120Hills": 6649, "\u0120knocked": 6650, "Reg": 6651, "uminous": 6652, "\u0120CT": 6653, "\u0120Delivery": 6654, "\u0120max": 6655, "esa": 6656, "\u0120Mayer": 6657, "\u0120reservations": 6658, ";\"": 6659, "\u0120fragment": 6660, "\u0120toothpaste": 6661, "\u0120beak": 6662, "\u0120integrated": 6663, "\u0120derivatives": 6664, "\u0120Wyoming": 6665, "\u0120chart": 6666, "\u0120flourish": 6667, "\u0120stakes": 6668, "\u0120heredity": 6669, "\u0120Practices": 6670, "\u0120enact": 6671, "\u0120quotas": 6672, "\u0120capitals": 6673, "\u0120act": 6674, "\u0120artisan": 6675, "\u0120comparative": 6676, "\u0120National": 6677, "\u0120Southwest": 6678, "\u0120essential": 6679, "\u0120refresh": 6680, "PD": 6681, "\u0120instinct": 6682, "Michel": 6683, "\u01201907": 6684, "Integ": 6685, "kt": 6686, "\u0120NCI": 6687, "\u0120ornaments": 6688, "\u0120Fund": 6689, "\u0120Alien": 6690, "\u0120metastatic": 6691, "\u0120Charles": 6692, "\u00c4\u0123n": 6693, "\u0120flame": 6694, "\u0120refers": 6695, "cap": 6696, "txt": 6697, "\u0120Stonehenge": 6698, "\u0120blueprint": 6699, "\u0120odors": 6700, "\u0120artwork": 6701, "string": 6702, "\u0120pricing": 6703, "\u0120ar": 6704, "\u0120410": 6705, "ordinated": 6706, "\u0120enrichment": 6707, "\u0120Dry": 6708, "\u0120VI": 6709, "Turkish": 6710, "\u0120nightmare": 6711, "\u0120striatum": 6712, "\u0120MEG": 6713, "\u0120xx": 6714, "\u0120due": 6715, "\u0120smartphone": 6716, "\u0120Agro": 6717, "43": 6718, "\u0120stable": 6719, "boot": 6720, "\u0120pathway": 6721, "\u0120Cau": 6722, "\u0120Tru": 6723, "\u0120hugely": 6724, "nasa": 6725, "graph": 6726, "hypo": 6727, "\u0120suspect": 6728, "\u00d1\u0123\u00d0\u00ba": 6729, "\u0120propensity": 6730, "sea": 6731, "ka": 6732, "\u0120negligible": 6733, "\u0120overdose": 6734, "Chemical": 6735, "\u0120whereabouts": 6736, "\u0120strained": 6737, "\u0120blossoms": 6738, "\u0120bearings": 6739, "\u0120recommendations": 6740, "IO": 6741, "\u0120hire": 6742, "\u0120CIA": 6743, "168": 6744, "Sim": 6745, "\u0120aspect": 6746, "18": 6747, "jection": 6748, "cancer": 6749, "\u0120dilemma": 6750, "\u0120plugged": 6751, "\u0120Freedom": 6752, "Whether": 6753, "\u0120seventy": 6754, "\u0120violated": 6755, "seed": 6756, "dgets": 6757, "\u0120offender": 6758, "oh": 6759, "\u0120resist": 6760, "\u0120endeavour": 6761, "\u0120disasters": 6762, "\u0120indexed": 6763, "\u0120stainless": 6764, "\u0120locale": 6765, "Professional": 6766, "\u0120located": 6767, "\u0120transmission": 6768, "\u0120semantics": 6769, "\u0120superficial": 6770, "Smith": 6771, "\u0120Thought": 6772, "\u0120subjective": 6773, "\u0120NT": 6774, "\u0120Murphy": 6775, "\u0120multiply": 6776, "\u0120sharp": 6777, "\u0120lb": 6778, "\u0120for": 6779, "\u0120sec": 6780, "\u0120elevator": 6781, "generally": 6782, "\u0120Ign": 6783, "\u0120Sp": 6784, "\u0120interwoven": 6785, "\u0120Than": 6786, "oxide": 6787, "203": 6788, "NO": 6789, "\u0120authorship": 6790, "\u0120Geophys": 6791, "\u0120reduces": 6792, "gender": 6793, "\u0120prairies": 6794, "fat": 6795, "Encourage": 6796, "ccompanied": 6797, "\u0120lost": 6798, "\u0120decade": 6799, "\u0120Interface": 6800, "\u0120Pathology": 6801, "\u0120Qatar": 6802, "\u0120Five": 6803, "\u0120append": 6804, "\u0120links": 6805, "\u0120roles": 6806, "\u0120Investigation": 6807, "12": 6808, "\u0120Trouble": 6809, "\u0120Portland": 6810, "\u0120ruling": 6811, "\u0120solving": 6812, "\u0120segments": 6813, "\u0120available": 6814, "thes": 6815, "\u0120http": 6816, "\u0120crushed": 6817, "\u0120remarkably": 6818, "\u0120Mississippi": 6819, "\u0120benefits": 6820, "\u0120undermine": 6821, "\u0120Regulatory": 6822, "phosphate": 6823, "'d": 6824, "\u0120electronics": 6825, "xa": 6826, "dem": 6827, "rics": 6828, "\u0120plunder": 6829, "\u0120tube": 6830, "\u00c3\u00a9t": 6831, "w": 6832, "pedia": 6833, "\u0120se": 6834, "Small": 6835, "ls": 6836, "\u0120miracle": 6837, "\u0120least": 6838, "\u0120aches": 6839, "\u0120Whit": 6840, "\u0120Perhaps": 6841, "\u0120pine": 6842, "range": 6843, "\u0120secrecy": 6844, "\u0120compete": 6845, "\u0120cheetah": 6846, "\u0120carcinogens": 6847, "\u0120phono": 6848, "\u0120blast": 6849, "\u0120Brent": 6850, "\u0120posts": 6851, "\u0120throwing": 6852, "\u0120unity": 6853, "\u0120Louis": 6854, "\u0120Reality": 6855, "Sam": 6856, "liptic": 6857, "\u0120Collection": 6858, "\u0120Elections": 6859, "\u0120Disc": 6860, "\u0120Luis": 6861, "\u0120sticks": 6862, "\u0120exploded": 6863, "\u0120intersections": 6864, "\u0120Duch": 6865, "29": 6866, "\u0120Alaskan": 6867, "\u0120Graves": 6868, "\u0120bearing": 6869, "\u0120Chi": 6870, "understood": 6871, "\u0120philosophy": 6872, "\u0120adviser": 6873, "\u0120contemporaries": 6874, "pon": 6875, "\u0120rabbis": 6876, "\u0120\u00d0\u00b8": 6877, "\u0120Northumberland": 6878, "\u012017": 6879, "\u0120contribute": 6880, "\u0120Karnataka": 6881, "\u0120Organizations": 6882, "\u0120role": 6883, "\u0120Holy": 6884, "\u0120illustrates": 6885, "\u012083": 6886, "\u0120squid": 6887, "Fla": 6888, "\u0120bombardment": 6889, "\u0120rests": 6890, "\u0120cactus": 6891, "\u0120motivated": 6892, "\u0120seeks": 6893, "\u0120Finnish": 6894, "\u00ef\u00bc": 6895, "1964": 6896, "isted": 6897, "bars": 6898, "\u0120transform": 6899, "\u0120Mubarak": 6900, "\u0120attitudes": 6901, "\u0120thought": 6902, "\u0120riboflavin": 6903, "\u0120opposite": 6904, "\u0120folate": 6905, "FOR": 6906, "\u0120Gw": 6907, "\u0120Store": 6908, "\u0120spent": 6909, "\u0120extravagant": 6910, "\u0120fur": 6911, "255": 6912, "\u0120Economist": 6913, "ever": 6914, "\u0120Anabaptist": 6915, "Preventing": 6916, "Ultimately": 6917, "\u0120tortilla": 6918, "\u0120PU": 6919, "30": 6920, "\u0120Krishna": 6921, "\u0120siblings": 6922, "scrupulous": 6923, "\u0120times": 6924, "\u0120contrasted": 6925, "\u0120gadgets": 6926, "bright": 6927, "\u0120scholarship": 6928, "\u0120painful": 6929, "\u0120Mut": 6930, "\u0120reluctance": 6931, "\u0120Cook": 6932, "\u0120browse": 6933, "\u0120Theo": 6934, "\u0120Lux": 6935, "\u0120Zhou": 6936, "\u0120German": 6937, "\u0120WI": 6938, "\u0120Apr": 6939, "\u0120chapters": 6940, "\u0120cro": 6941, "Kh": 6942, "\u012015": 6943, "\u0120illustrious": 6944, "Follow": 6945, "\u0120Bou": 6946, "\u0120towels": 6947, "\u0120applying": 6948, "\u0120Cooking": 6949, "\u0120Feel": 6950, "\u0120Collect": 6951, "115": 6952, "\u0120Oedipus": 6953, "\u0120schizophrenic": 6954, "\u0120humble": 6955, "\u0120bones": 6956, "\u0120condemnation": 6957, "\u0120refrigeration": 6958, "\u0120embroidery": 6959, "(\"": 6960, "\u0120persistent": 6961, "\u0120fry": 6962, "\u0120judged": 6963, "\u0120Shell": 6964, "\u0120colonies": 6965, "rash": 6966, "\u0120virgin": 6967, "?": 6968, "acks": 6969, "\u0120nonprescription": 6970, "\u0120established": 6971, "\u0120asserting": 6972, "\u0120Franz": 6973, "\u0120effect": 6974, "\u0120distortions": 6975, "\u0120presidential": 6976, "\u0120lace": 6977, "\u0120Organ": 6978, "nunciation": 6979, "\u0120psychological": 6980, "eptic": 6981, "\u0120RD": 6982, "isation": 6983, "160": 6984, "\u0120revered": 6985, "\u0120order": 6986, "\u0120ribbon": 6987, "\u0120Achievement": 6988, "\u0120Emotional": 6989, "\u0120fight": 6990, "\u0120crushing": 6991, "\u0120did": 6992, "\u0120construction": 6993, "\u0120repent": 6994, "le": 6995, "\u0120much": 6996, "\u0120Valley": 6997, "dic": 6998, "\u0120roar": 6999, "\u0120mismatch": 7000, "',": 7001, "Academic": 7002, "\u0120installed": 7003, "\u0120Rohingya": 7004, "\u0120warnings": 7005, "\u0120Legislative": 7006, "\u0120Kee": 7007, "\u0120synthesis": 7008, "\u0120questions": 7009, "\u0120liquids": 7010, "\u0120Bring": 7011, "\u0120ensuing": 7012, "\u0120generally": 7013, "\u0120generator": 7014, "\u0120Korean": 7015, "ient": 7016, "\u0120Male": 7017, "lane": 7018, "\u0120105": 7019, "\u0120positions": 7020, "\u0120intercourse": 7021, "ined": 7022, "\u0120pocket": 7023, "\u0120Syracuse": 7024, "\u0120affected": 7025, "\u0120Gor": 7026, "irty": 7027, "\u0120spontaneously": 7028, "FAO": 7029, "population": 7030, "\u0120queries": 7031, "\u0120tru": 7032, "\u0120Byrd": 7033, "\u0120share": 7034, "gent": 7035, "\u0120MySQL": 7036, "\u0120cart": 7037, "\u0120mobile": 7038, "NV": 7039, "\u0120perennial": 7040, "small": 7041, "\u0120distaste": 7042, "\u0120managed": 7043, "\u0120Ox": 7044, "EB": 7045, "\u0120avi": 7046, "mill": 7047, "\u0120stem": 7048, "\u0120Er": 7049, "\u0120bumps": 7050, "\u00bd": 7051, "\u0120Service": 7052, "\u0120scores": 7053, "\u0120Cro": 7054, "\u0120Scenario": 7055, "cor": 7056, "ancies": 7057, "\u0120Electrical": 7058, "\u0120orbital": 7059, "hol": 7060, "\u0120cortex": 7061, "\u0120Regulations": 7062, "\u0120D\u00c3\u0143az": 7063, "Population": 7064, "\u0120spawn": 7065, "\u0120Twelfth": 7066, "\u0120soy": 7067, "relation": 7068, "\u0120ventricular": 7069, "127": 7070, "\u0120Abdullah": 7071, "\u0120Spr": 7072, "\u0120performers": 7073, "\u0120Notre": 7074, "\u0120reactor": 7075, "\u0120compound": 7076, "\u0120exponentially": 7077, "\u0120lobes": 7078, "lying": 7079, "\u0120SARS": 7080, "\u0120identifying": 7081, "\u0120benign": 7082, "ogens": 7083, "\u01201928": 7084, "\u0120Solid": 7085, "G": 7086, "\u0120assignment": 7087, "\u0120Persons": 7088, "\u0120None": 7089, "\u0120bipolar": 7090, "\u0120disrupting": 7091, "\u0120pyramid": 7092, "\u0120droughts": 7093, "\u0120Headquarters": 7094, "\u0120settle": 7095, "\u0120Position": 7096, "violent": 7097, "\u0120liberal": 7098, "\u0120jail": 7099, "\u0120permafrost": 7100, "\u0120Could": 7101, "\u0120tennis": 7102, "\u0120Ignatius": 7103, "\u0120Das": 7104, "\u0120Colon": 7105, "llen": 7106, "\u0120Christ": 7107, "\u0120Flower": 7108, "\u0120Rings": 7109, "\u0120contend": 7110, "itated": 7111, "\u0120Shah": 7112, "\u0120heavily": 7113, "\u0120Mirror": 7114, "\u0120Yangtze": 7115, "\u0120sho": 7116, "lau": 7117, "doubt": 7118, "max": 7119, "\u0120Cheng": 7120, ".*": 7121, "\u0120tub": 7122, "\u0120guarantee": 7123, "ici": 7124, "\u0120assessing": 7125, "\u00ca": 7126, "axis": 7127, "\u0120Calcutta": 7128, "\u0120Berry": 7129, "\u0120Physiology": 7130, "\u0120Publishers": 7131, "\u0120functioning": 7132, "\u0120facto": 7133, "\u0120NS": 7134, "ating": 7135, "each": 7136, "\u0120Beowulf": 7137, "\u0120political": 7138, "\u0120floodplain": 7139, "\u0120normative": 7140, "\u0120Outer": 7141, "\u0120Change": 7142, "achment": 7143, "\u0120fabricated": 7144, "\u0120glacier": 7145, "\u0120Pill": 7146, "\u0120situ": 7147, "\u0120estimation": 7148, "\u0120ter": 7149, "\u0120cilia": 7150, "\u0120Include": 7151, "\u0120swamp": 7152, "mur": 7153, "\u0120Wilkins": 7154, "\u0120Phase": 7155, "\u00e3\u0122": 7156, "\u0120cheeks": 7157, "\u0120Alphabet": 7158, "\u0120Prize": 7159, "\u0120reported": 7160, "\u0120insights": 7161, "\u0120350": 7162, "\u0120running": 7163, "\u0120inherited": 7164, "\u0120oc": 7165, "\u0120unheard": 7166, "charge": 7167, "\u0120medal": 7168, "nley": 7169, "\u0120give": 7170, "\u0120tenth": 7171, "\u0120pacif": 7172, "\u0120translator": 7173, "\u0120Walla": 7174, "\u0120version": 7175, "\u0120Oliver": 7176, "\u0120abundant": 7177, "\u0120grievances": 7178, "\u0120Hand": 7179, "\u0120syringe": 7180, "\u0120JP": 7181, "\u0120receptacle": 7182, "\u0120Talk": 7183, "\u0120DJ": 7184, "\u0120Botanical": 7185, "\u0120Specifically": 7186, "methyl": 7187, "\u0120unless": 7188, "\u0120Seal": 7189, "\u0120Guardian": 7190, "\u0120Ezekiel": 7191, "\u0120Belarus": 7192, "\u0120Judah": 7193, "But": 7194, "gatherer": 7195, "\u0120caricature": 7196, "\u0120paternal": 7197, "\u0120Mega": 7198, "\u0120Lin": 7199, "\u0120Femin": 7200, "\u0120Jos\u00c3\u00a9": 7201, "\u0120NAACP": 7202, "\u0120Lap": 7203, "\u0120Medicaid": 7204, "\u0120enclosure": 7205, "\u0120expense": 7206, "\u0120pediatrics": 7207, "If": 7208, "\u0120amp": 7209, "\u0120SS": 7210, "RB": 7211, "ola": 7212, "\u0120Band": 7213, "NSF": 7214, "\u0120deteriorate": 7215, "\u0120Chrysostom": 7216, "\u0120Register": 7217, "\u0120compassionate": 7218, "written": 7219, "\u0120exposed": 7220, "\u0120Medici": 7221, "\u0120203": 7222, "Join": 7223, "\u0120ulcers": 7224, "motion": 7225, "\u0120Notice": 7226, "\u0120sle": 7227, "\u0120remediation": 7228, "\u0120shield": 7229, "\u0120preschool": 7230, "\u0120\u00d0\u00a1": 7231, "\u0120syn": 7232, "cribe": 7233, "\u0120spectators": 7234, "\u0120requirements": 7235, "ak": 7236, "\u0120hood": 7237, "\u0120Scientific": 7238, "\u0120fountains": 7239, "\u0120muzzle": 7240, "\u0120Jewry": 7241, "\u0120foxes": 7242, "\u0120worldly": 7243, "\u0120pits": 7244, "\u0120owning": 7245, "MYTH": 7246, "\u0120Germany": 7247, "aba": 7248, "\u0120particular": 7249, "ocytes": 7250, "\u0120comparison": 7251, "\u0120City": 7252, "fo": 7253, "structures": 7254, "\u0120whale": 7255, "\u0120superior": 7256, "\u0120hides": 7257, "\u0120Satan": 7258, "\u0120Schr\u00c3\u00b6dinger": 7259, "zy": 7260, "\u0120Chernobyl": 7261, "\u0120conv": 7262, "ahu": 7263, "\u0120tones": 7264, "\u0120behind": 7265, "\u00d9\u0134": 7266, "ska": 7267, "\u0120artic": 7268, "\u0120Disability": 7269, "\u0120eventual": 7270, "\u0120Martian": 7271, "\u0120refining": 7272, "She": 7273, "\u0120Heaven": 7274, "\u0120criminal": 7275, "\u0120afterward": 7276, "cata": 7277, "Industry": 7278, "lph": 7279, "\u0120placed": 7280, "\u0120Filipino": 7281, "Written": 7282, "\u0120Thermal": 7283, "\u0120simulated": 7284, "mb": 7285, "\u0120Sikh": 7286, "\u0120assertion": 7287, "\u0120Ib": 7288, "\u0120kiss": 7289, "director": 7290, "\u0120flo": 7291, "Prior": 7292, "\u0120Wind": 7293, "Jack": 7294, "rus": 7295, "\u0120exalted": 7296, "\u0120redress": 7297, "\u0120va": 7298, "cold": 7299, "TU": 7300, "\u0120venue": 7301, "\u0120hap": 7302, "example": 7303, "\u00e2\u0122\u013f).": 7304, "\u0120elicit": 7305, "\u0120reader": 7306, "\u0120Prices": 7307, "\u0120Owen": 7308, "\u0120programmable": 7309, "oth": 7310, "\u0120precautions": 7311, "\u0120dissolve": 7312, "\u0120Calcium": 7313, "DI": 7314, "\u0120unspecified": 7315, "unt": 7316, "\u0120mechanism": 7317, "Representative": 7318, "\u0120Schwarz": 7319, "\u0120larger": 7320, "\u0120Pattern": 7321, "\u0120collection": 7322, "hydro": 7323, "\u0120Vijay": 7324, "ters": 7325, "\u0120orphan": 7326, "\u0120Cognitive": 7327, "\u0120refugees": 7328, "\u0120troubled": 7329, "\u0120veterinarian": 7330, "\u0120Cruz": 7331, "\u0120healthful": 7332, "\u0120Gen": 7333, "210": 7334, "\u0120allied": 7335, "Originally": 7336, "\u0120Ground": 7337, "\u0120GIS": 7338, "\u0120Gue": 7339, "\u0120monument": 7340, "\u0120seas": 7341, "\u0120emigration": 7342, "\u0120Depression": 7343, "\u0120animals": 7344, "\u0120reconstructed": 7345, "\u0120tabernacle": 7346, "\u0120earthquake": 7347, "\u0120Anxiety": 7348, "\u0120Whale": 7349, "\u0120amniocentesis": 7350, "\u0120sealing": 7351, "\u0120tomography": 7352, "\u0120facilities": 7353, ".\")": 7354, "\u0120dissatisfaction": 7355, "\u0120Nor": 7356, "\u0120Ship": 7357, "\u0120psoriasis": 7358, "\u0120independent": 7359, "\u0120fears": 7360, "\u0120urination": 7361, "lled": 7362, "encies": 7363, "\u0120bored": 7364, "\u0120updates": 7365, "\u0120meter": 7366, "\";": 7367, "dding": 7368, "\u0120statistically": 7369, "\u0120american": 7370, "\u0120paramount": 7371, "Think": 7372, "\u0120invariably": 7373, "\u0120cattle": 7374, "\u0120ski": 7375, "\u00ce\u00bf": 7376, "\u0120Immediately": 7377, "\u0120ropes": 7378, "conc": 7379, "\u0120dilute": 7380, "\u0120intellectuals": 7381, "\u0120Israelis": 7382, "\u0120Westminster": 7383, "\u0120Ref": 7384, "39": 7385, "\u0120isotope": 7386, "\u0120Corpus": 7387, "\u0120isotopes": 7388, "\u0120done": 7389, "\u0120simple": 7390, "\u012004": 7391, "\u0120elevations": 7392, "\u0120bishops": 7393, "ded": 7394, "\u0120Fun": 7395, "kr": 7396, "\u0120undertook": 7397, "\u0120Supervisor": 7398, "north": 7399, "\u0120Hur": 7400, "Whereas": 7401, "lli": 7402, "\u0120monkeys": 7403, "\u0120emails": 7404, "\u0120Williamsburg": 7405, "\u0120limitations": 7406, "\u0120Archimedes": 7407, "ery": 7408, "\u01201800": 7409, "\u0120perception": 7410, "\u0120granting": 7411, "aps": 7412, "\u0120Commonwealth": 7413, "\u0120encourage": 7414, "\u0120Soto": 7415, "fur": 7416, "\u0120policies": 7417, "\u0120new": 7418, "\u0120milieu": 7419, "\u0120Linked": 7420, "\u0120class": 7421, "\u00d9\u0132": 7422, "\u0120relatively": 7423, "Saharan": 7424, "\u0120ja": 7425, "ning": 7426, "IV": 7427, "\u0120invaders": 7428, "\u0120sanctuary": 7429, "\u0120Biodiversity": 7430, "un": 7431, "\u0120rational": 7432, "\u0120sandwich": 7433, "OWN": 7434, "\u0120Archae": 7435, "III": 7436, "\u0120sulphur": 7437, "bbed": 7438, "\u0120caliber": 7439, "\u0120hour": 7440, "UN": 7441, "\u0120Euphrates": 7442, "\u0120ecoregion": 7443, "\u0120grotesque": 7444, "\u0120Constitution": 7445, "\u0120confluence": 7446, "Jeff": 7447, "\u0120mother": 7448, "\u0120independently": 7449, "\u0120Augustine": 7450, "\u0120hygien": 7451, "\u0120pastures": 7452, "cey": 7453, "\u0120charcoal": 7454, "\u0120rear": 7455, "\u0120encounter": 7456, "\u0120zoo": 7457, "\u0120subtraction": 7458, "my": 7459, "\u0120righteousness": 7460, "\u0120disinfectant": 7461, "Direct": 7462, "\u0120altitudes": 7463, "\u0120Basilica": 7464, "\u0120rush": 7465, "\u0120whaling": 7466, "\u0120Az": 7467, "\u0120keep": 7468, "\u0120Religious": 7469, "\u0120surrounded": 7470, "\u0120ae": 7471, "\u0120lethargy": 7472, "\u0120invertebrate": 7473, "\u0120shorten": 7474, "\u0120accepts": 7475, "determined": 7476, "technology": 7477, "\u0120restraint": 7478, "lus": 7479, "Jacob": 7480, "\u0120markets": 7481, "\u0120detected": 7482, "ov": 7483, "\u0120photographers": 7484, "\u0120beginners": 7485, "\u0120county": 7486, "\u0120ecologically": 7487, "dden": 7488, "ben": 7489, "\u0120autonomous": 7490, "\u0120penalty": 7491, "itudes": 7492, "su": 7493, "\u0120Ex": 7494, "\u0120originating": 7495, "\u0120chief": 7496, "\u0120Charlemagne": 7497, "\u0120Vir": 7498, "\u0120versatile": 7499, "\u0120Adulyadej": 7500, "\u0120colored": 7501, "\u0120conquered": 7502, "\u0120ounces": 7503, "tcp": 7504, "\u0120Authority": 7505, "\u0120conservator": 7506, "\u0120126": 7507, "\u0120herbicides": 7508, "\u0120Variable": 7509, "\u0120bears": 7510, "\u0120Kashmir": 7511, "\u0120rape": 7512, "back": 7513, "\u0120drugs": 7514, "\u0120Fi": 7515, "\u0120Mormon": 7516, "\u0120sensors": 7517, "\u0120therapies": 7518, "\u0120Wear": 7519, "\u0120subsidiary": 7520, "\u0120arbor": 7521, "\u0120damage": 7522, "Resource": 7523, "\u0120stars": 7524, "\u0120arms": 7525, "\u0120Linear": 7526, "\u0120Cohort": 7527, "Construction": 7528, "rows": 7529, "\u0120Effect": 7530, "\u0120lactose": 7531, "business": 7532, "\u0120Taken": 7533, "\u0120Hartford": 7534, "\u0120alfalfa": 7535, "CU": 7536, "jj": 7537, "\u0120V": 7538, "\u0120entrusted": 7539, "\u0120facade": 7540, "\u0120von": 7541, "\u0120outlook": 7542, "field": 7543, "FF": 7544, "\u0120excel": 7545, "\u0120offenders": 7546, "\u0120naming": 7547, "proliferation": 7548, "\u0120Nurses": 7549, "\u0120nostrils": 7550, "\u0120Diet": 7551, "\u0120Training": 7552, "\u0120fingers": 7553, "\u0120reads": 7554, "\u0120Tusc": 7555, "missive": 7556, "Government": 7557, "\u0120TR": 7558, "\u0120newly": 7559, "\u0120gradient": 7560, "sac": 7561, "operation": 7562, "\u0120Line": 7563, "\u0120Eurasia": 7564, "RG": 7565, "\u0120online": 7566, "\u0120acre": 7567, "\u0120lesson": 7568, "sen": 7569, "\u0120southern": 7570, "\u0120colloquial": 7571, "\u0120Malcolm": 7572, "\u0120Facebook": 7573, "\u0120nowadays": 7574, "\u0120grammar": 7575, "\u0120judges": 7576, "\u0120profile": 7577, "\u0120Brahma": 7578, "edes": 7579, "\u0120symbolic": 7580, "\u0120philosophical": 7581, "\u0120Fen": 7582, "\u0120Pocahontas": 7583, "Go": 7584, "\u0120chick": 7585, "care": 7586, "cou": 7587, "\u0120dissemination": 7588, "\u0120Hunting": 7589, "\u0120replacement": 7590, "\u0120Jimmy": 7591, "yst": 7592, "comb": 7593, "\u0120concerns": 7594, "\u0120CSO": 7595, ".\"": 7596, "\u0120obstacle": 7597, "\u0120Confederacy": 7598, "\u0120Wed": 7599, "\u0120defensive": 7600, "\u0120STAT": 7601, "Year": 7602, "\u0120Now": 7603, "\u0120Stilwell": 7604, "\u0120benefited": 7605, "cr": 7606, "\u0120rods": 7607, "wi": 7608, "\u0120epithelial": 7609, "\u00db": 7610, "\u0120occupancy": 7611, "\u0120ket": 7612, "\u0120dyes": 7613, "\u0120chickens": 7614, "\u0120sufficiently": 7615, "explo": 7616, "\u0120Newsletter": 7617, "\u0120contingency": 7618, "DM": 7619, "\u0120involving": 7620, "\u00ef": 7621, "\u0120Bern": 7622, "\u0120Naga": 7623, "\u0120Rensselaer": 7624, "mal": 7625, "\u0120Je": 7626, "\u0120admired": 7627, "\u0120Lex": 7628, "Maimonides": 7629, "\u0120rebellious": 7630, "\u0120remarked": 7631, "won": 7632, "\u0120combustible": 7633, "\u0120ap": 7634, "Hello": 7635, "\u0120dubbed": 7636, "Knowing": 7637, "\u0120revisions": 7638, "\u0120gra": 7639, "\u0120plutonium": 7640, "\u0120Contemporary": 7641, "\u0120enabled": 7642, "pe": 7643, "load": 7644, "ARE": 7645, "\u0120canyon": 7646, "\u0120aqueous": 7647, "\u0120CAP": 7648, "TYPE": 7649, "Grand": 7650, "Apparently": 7651, "\u0120iso": 7652, "\u0120earth": 7653, "\u0120defended": 7654, "cho": 7655, "\u0120Spanish": 7656, "\u0120Ibid": 7657, "\u0120corn": 7658, "NR": 7659, "glass": 7660, "\u0120Types": 7661, "\u0120Galileo": 7662, "ud": 7663, "mostly": 7664, "\u01201812": 7665, "\u0120Egypt": 7666, "85": 7667, "\u0120accommodations": 7668, "\u0120contributed": 7669, "\u0120seeking": 7670, "\u0120powder": 7671, "\u0142": 7672, "using": 7673, "\u0120sluggish": 7674, "\u0120spread": 7675, "\u0120Burma": 7676, "\u0120detrimental": 7677, "\u0120Shear": 7678, "\u0120Die": 7679, "\u0120suggest": 7680, "31": 7681, "\u0120Kh": 7682, "\u0120poverty": 7683, "\u0120embrace": 7684, "\u0120plumage": 7685, "\u0120lives": 7686, "establish": 7687, "\u0120MortRate": 7688, "metal": 7689, "\u0120averaged": 7690, "\u0120planets": 7691, "xic": 7692, "\u0120sap": 7693, "\u0120dictate": 7694, "\u0120unambiguous": 7695, "\u0120pertussis": 7696, "\u0120biogas": 7697, "\u0120DM": 7698, "Earth": 7699, "\u0120acc": 7700, "\u01201989": 7701, "\u0120omitted": 7702, "\u0120Cambrian": 7703, "\u0120www": 7704, "\u0120anesthesia": 7705, "\u0120market": 7706, "\u0120worry": 7707, "\u0120ideally": 7708, "\u0120Austin": 7709, "\u0120Prayer": 7710, "\u0120convergence": 7711, "\u0120Serbian": 7712, "hor": 7713, "\u0120Sample": 7714, "\u0120Essential": 7715, "\u0120excerpts": 7716, "\u0120shop": 7717, "\u0120dwarf": 7718, "\u0120infect": 7719, "\u0120impairment": 7720, "\u0120Sheppard": 7721, "\u0120bytes": 7722, "\u0120planes": 7723, "Lake": 7724, "emo": 7725, "\u0120Si": 7726, "\u0120inheritance": 7727, "pas": 7728, "\u0120County": 7729, "pipe": 7730, "lery": 7731, "\u0120trop": 7732, "\u0120quote": 7733, "Record": 7734, "\u0120proceeded": 7735, "51": 7736, "lie": 7737, "\u0120problematic": 7738, "\u0120BBC": 7739, "\u0120copy": 7740, "gling": 7741, "\u0120Patients": 7742, "\u0120Writer": 7743, "\u0120Relief": 7744, "\u0120Senator": 7745, "\u0120develops": 7746, "\u0120fence": 7747, "\u0120ignition": 7748, "\u0120Ken": 7749, "\u0120credibility": 7750, "\u0120kind": 7751, "\u0120reinforcements": 7752, "\u0120Ministers": 7753, "\u0120Memo": 7754, "coming": 7755, "Indian": 7756, "\u0120cell": 7757, "\u0120hegemony": 7758, "\u0120feeding": 7759, "\u0120IM": 7760, "\u0120Imagination": 7761, "\u0120Sal": 7762, "\u0120cities": 7763, "\u0120152": 7764, "\u0120stereotype": 7765, "\u0120molecular": 7766, "\u0120subdued": 7767, "harm": 7768, "\u0120classic": 7769, "\u0120Background": 7770, "\u0120infinite": 7771, "\u0120reef": 7772, "\u0120anaerobic": 7773, "\u0120208": 7774, "\u0120persists": 7775, "\u0120ONE": 7776, "fish": 7777, "62": 7778, "\u0120ought": 7779, "\u0120Season": 7780, "Come": 7781, "\u0120abandoning": 7782, "Time": 7783, "\u0120Europa": 7784, "Card": 7785, "\u0120outburst": 7786, "\u0120switch": 7787, "Ref": 7788, "\u0120pervasive": 7789, "\u0120Tanzania": 7790, "\u0120fit": 7791, "\u0120recruit": 7792, "\u0120heartbeat": 7793, "\u0120Det": 7794, "liquid": 7795, "\u0120wave": 7796, "\u0120politics": 7797, "\u0120Investment": 7798, "\u0120Education": 7799, "\u0120applet": 7800, "\u0120hear": 7801, "\u0120Seeds": 7802, "\u0120water": 7803, "\u0120nineteen": 7804, "\u0120ministries": 7805, "rite": 7806, "\u0120seem": 7807, "wer": 7808, "ned": 7809, "lot": 7810, "\u01202015": 7811, "\u0120Yucatan": 7812, "\u0120swath": 7813, "dwell": 7814, "tral": 7815, "\u0120painless": 7816, "his": 7817, "SELECT": 7818, "sel": 7819, "\u0120frequency": 7820, "\u0120Destruction": 7821, "\u0120tectonic": 7822, "\u012054": 7823, "\u0120Wood": 7824, "ation": 7825, "Vitamin": 7826, "\u0120Augustus": 7827, "Mel": 7828, "\u0120Horse": 7829, "\u0120blog": 7830, "\u0120garrison": 7831, "cket": 7832, "\u0120Precambrian": 7833, "\u0120one": 7834, "\u0120breakthroughs": 7835, "\u0120birthday": 7836, "eliac": 7837, "\u0120dangerously": 7838, "\u0120functioned": 7839, "\u0120monitored": 7840, "\u0120frequently": 7841, "\u0120chemo": 7842, "\u0120read": 7843, "\u0120Hor": 7844, "\u0120plausible": 7845, "\u0120prizes": 7846, "\u0120entering": 7847, "\u0120delighted": 7848, "\u0120Sutton": 7849, "\u0120ghosts": 7850, "counting": 7851, "\u0120mess": 7852, "\u00aa": 7853, "\u0120dominates": 7854, "\u0120solely": 7855, "\u0120refine": 7856, "\u0120deliberation": 7857, "\u0120followed": 7858, "\u0120Plans": 7859, "//": 7860, "\u0120ephemeral": 7861, "alty": 7862, "Using": 7863, "\u0120usage": 7864, "\u0120fibromyalgia": 7865, "\u0120detail": 7866, "\u0120\u00c2\u00b5m": 7867, "\u0120jokes": 7868, "\u0120paths": 7869, "\u0120curb": 7870, "\u0120SU": 7871, "ius": 7872, "\u0120inspectors": 7873, "are": 7874, "\u0120ate": 7875, "\u0120damaging": 7876, "\u0120Error": 7877, "\u0120balance": 7878, "\u0120TO": 7879, "\u0120Nehru": 7880, "\u0120tricky": 7881, "\u0120Give": 7882, "\u0120hospitalization": 7883, "\u0120320": 7884, "\u0120cerebellum": 7885, "\u0120Permian": 7886, "\u0120refer": 7887, "\u0120landscaping": 7888, "\u0120adjusting": 7889, "Man": 7890, "\u0120cream": 7891, "\u0120Beth": 7892, "ones": 7893, "93": 7894, "\u0120aorta": 7895, "tie": 7896, "ivists": 7897, "until": 7898, "late": 7899, "intellectual": 7900, "shan": 7901, "\u0120picks": 7902, "\u0120recruitment": 7903, "\u0120deploy": 7904, "\u0120cantaloupe": 7905, "\u0120mine": 7906, "\u0120Lab": 7907, "\u0120est": 7908, "\u00b2": 7909, "nauts": 7910, "etum": 7911, "lib": 7912, "\u0120Nouveau": 7913, "cas": 7914, "AY": 7915, "\u0120Gu": 7916, "transfer": 7917, "\u0120incomes": 7918, "\u0120clauses": 7919, "\u0120organisation": 7920, "1968": 7921, "balanced": 7922, "Rose": 7923, "\u0120utilize": 7924, "\u0120earning": 7925, "\u0120idio": 7926, "\u0120Trauma": 7927, "\u0120attention": 7928, "\u0120Canterbury": 7929, "GD": 7930, "\u0120indication": 7931, "\u0120Gui": 7932, "\u0120mL": 7933, "\u0120verbal": 7934, "\u0120console": 7935, "\u0120instance": 7936, "\u0120Pittsburgh": 7937, "\u0120consortium": 7938, "\u0120hepatitis": 7939, "\u0120throne": 7940, "\u0120coloring": 7941, "\u0120whip": 7942, "\u0120Tunisia": 7943, "\u0120contemporaneous": 7944, "\u0120majestic": 7945, "\u0120gingivitis": 7946, "\u0120want": 7947, "\u0120now": 7948, "\u0120productive": 7949, "\u0120missile": 7950, "\u0120hat": 7951, "\u0120affairs": 7952, "\u0120Copenhagen": 7953, "\u0120reblogged": 7954, "minute": 7955, "\u0120Special": 7956, "project": 7957, "email": 7958, "\u0120Mohammed": 7959, "\u0120shrimp": 7960, "\u0120pursuant": 7961, "Watch": 7962, "Ci": 7963, "\u0120tongue": 7964, "Family": 7965, "\u0120powers": 7966, "some": 7967, "\u0120document": 7968, "\u0120Squadron": 7969, "\u0120vanadium": 7970, "imum": 7971, "\u0120registration": 7972, "\u0120guinea": 7973, "\u0120trolley": 7974, "\u0120worsened": 7975, "\u0120clarity": 7976, "\u0120prospective": 7977, "\u0120acknowledges": 7978, "\u0120Gnostic": 7979, "\u0120Johan": 7980, "\u0120forgiveness": 7981, "\u0120LM": 7982, "\u0120regions": 7983, "was": 7984, "\u0120Cad": 7985, "\u0120starvation": 7986, "\u0120eligible": 7987, "\u0120distant": 7988, "\u0120exponential": 7989, "ere": 7990, "rist": 7991, "\u0120enlightenment": 7992, "\u0120major": 7993, "\u0120feast": 7994, "190": 7995, "\u0120pm": 7996, "\u0120enhancement": 7997, "\u0120discriminatory": 7998, "\u0120leopard": 7999, "\u0120invade": 8000, "\u0120lev": 8001, "\">": 8002, "mont": 8003, "\u0120addressing": 8004, "\u0120periton": 8005, "Republic": 8006, "\u0120descriptive": 8007, "\u0120AU": 8008, "sign": 8009, "\u0120India": 8010, "\u0120settlement": 8011, "\u00c3\u0143": 8012, "process": 8013, "\u0120statement": 8014, "\u0120pixel": 8015, "\u0120concentrate": 8016, "\u0120erratic": 8017, "\u0120speculative": 8018, "\u0120Andreas": 8019, "\u0120tea": 8020, "\u0120MIS": 8021, "\u0120airport": 8022, "roy": 8023, "\u0120original": 8024, "\u0120IDF": 8025, "\u0120porphyr": 8026, "\u0120Mer": 8027, "\u0120Provisional": 8028, "\u0120substantial": 8029, "Step": 8030, "\u0120adapted": 8031, "\u0120Shin": 8032, "\u0120films": 8033, "\u0120creationist": 8034, "\u0120control": 8035, "\u0120perfor": 8036, "hours": 8037, "\u0120wider": 8038, "\u0120interest": 8039, "\u0120repression": 8040, "\u0120gift": 8041, "\u0120battle": 8042, "\u0120RJ": 8043, "\u0120computerized": 8044, "mediate": 8045, "\"": 8046, "\u0120Teens": 8047, "charging": 8048, "SD": 8049, "\u0120Goal": 8050, "\u0120contiguous": 8051, "\u0120Ish": 8052, "\u0120ii": 8053, "\u0120Animal": 8054, "sc": 8055, "\u0120robotics": 8056, "\u0120automotive": 8057, "\u0120Lime": 8058, "\u0120Forensic": 8059, "\u0120furnace": 8060, "\u0120Kim": 8061, "balls": 8062, "\u0130": 8063, "TR": 8064, "\u0120166": 8065, "\u0120Andrew": 8066, "path": 8067, "\u0120ransom": 8068, "\u0120habeas": 8069, "\u0120voucher": 8070, "\u0120virtual": 8071, "\u0120grave": 8072, "\u0120bays": 8073, "Right": 8074, "\u0120Vienna": 8075, "ometer": 8076, "\u01201870": 8077, "\u0120Wilson": 8078, "\u0120480": 8079, "LF": 8080, "\u0120Aboriginal": 8081, "\u0120finding": 8082, "bur": 8083, "\u0120conveyed": 8084, "\u0120rhizo": 8085, "\u0120Teach": 8086, "\u0120brick": 8087, "\u0120simpler": 8088, "\u0120reproduced": 8089, "\u0120Costs": 8090, "\u0120appointed": 8091, "potent": 8092, "gged": 8093, "\u0120graduated": 8094, "\u0120Our": 8095, "\u0120beverages": 8096, "\u0120kittens": 8097, "\u0120contaminants": 8098, "\u0120submerged": 8099, "comm": 8100, "\u0120meters": 8101, "esis": 8102, "\u0120exhibited": 8103, "immun": 8104, "config": 8105, "\u0120enlist": 8106, "\u0120CI": 8107, "\u0120FR": 8108, "\u0120fasting": 8109, "dorf": 8110, "\u0120cat": 8111, "Consumer": 8112, "way": 8113, "\u0120Fati": 8114, "\u0120pogrom": 8115, "\u0120debates": 8116, "\u0120regret": 8117, "cated": 8118, "\u0120Yugoslav": 8119, "\u0120supreme": 8120, "\u0120Acid": 8121, "dish": 8122, "pu": 8123, "\u0120Galaxy": 8124, "\u0120depiction": 8125, "\u0120Ophthalm": 8126, "\u0120large": 8127, "\u0120swords": 8128, "\u0120decisive": 8129, "3": 8130, "\u0120delicious": 8131, "\u0120Hos": 8132, "\u0120microwave": 8133, "little": 8134, "\u0120merchant": 8135, "\u0120meaningful": 8136, "\u0120Helm": 8137, "PI": 8138, "pression": 8139, "\u0120UP": 8140, "Har": 8141, "\u0120bystander": 8142, "\u0120Town": 8143, "\u0120Bak": 8144, "OT": 8145, "\u0120aviation": 8146, "\u0120These": 8147, "\u0120moisture": 8148, "dev": 8149, "\u0120Matt": 8150, "\u0120eager": 8151, "\u0120Melan": 8152, "\u0120flowed": 8153, "\u0120ke": 8154, "116": 8155, "ino": 8156, "\u0120edifice": 8157, "\u0120trampoline": 8158, "\u0120Modern": 8159, "\u0120ultra": 8160, "\u0120Developing": 8161, "\u0120seeding": 8162, "af": 8163, "\u0120Profile": 8164, "\u0120endless": 8165, "\u0120Sculpture": 8166, "\u0120consumer": 8167, "\u0120Ham": 8168, "\u0120impose": 8169, "qui": 8170, "otic": 8171, "contamination": 8172, "\u0120desir": 8173, "\u012044": 8174, "Kennedy": 8175, "\u0120withstand": 8176, "dactyl": 8177, "\u0120Lesser": 8178, "\u0120Use": 8179, "\u0120filling": 8180, "\u0120\u00e2\u0124\u00ac": 8181, "\u0120adjusted": 8182, "\u0120fatal": 8183, "ables": 8184, "Ana": 8185, "icides": 8186, "\u0120Eiffel": 8187, "matter": 8188, "\u0120alkal": 8189, "\u0120Cri": 8190, "2003": 8191, "\u0120Thanks": 8192, "eman": 8193, "\u0120IN": 8194, "interpret": 8195, "\u0120slides": 8196, "\u0120thrust": 8197, "Car": 8198, "\u0120Belt": 8199, "Suggestions": 8200, "\u0120Americas": 8201, "\u0120POW": 8202, "\u0120Bryan": 8203, "\u0120attending": 8204, "\u0120outdoors": 8205, "\u0120multi": 8206, "\u0120lifetime": 8207, "chip": 8208, "\u0120Czechoslovakia": 8209, "\u0120communicated": 8210, "\u0120rev": 8211, "\u0120Caribbean": 8212, "\u0120novels": 8213, "EP": 8214, "\u0120Close": 8215, "\u0120primer": 8216, "\u0120although": 8217, "\u0120Lakes": 8218, "Pill": 8219, "\u0120setting": 8220, "\u0120cycles": 8221, "Jun": 8222, "\u0120possessing": 8223, "\u0120Methodist": 8224, "\u0120Without": 8225, "\u0120Published": 8226, "ckles": 8227, "\u0120sources": 8228, "\u0120anonymity": 8229, "\u0120Rat": 8230, "almost": 8231, "\u0120correlations": 8232, "fires": 8233, "\u0120exposing": 8234, "\u0120Medications": 8235, "och": 8236, "\u0120geriatric": 8237, "\u0120Robin": 8238, "\u0120parents": 8239, "\u00f0": 8240, "might": 8241, "\u0120duty": 8242, "\u0120Ober": 8243, "\u0120MU": 8244, "\u0120nephr": 8245, "\u0120Argentine": 8246, "\u0120downloading": 8247, "\u0120Languages": 8248, "ulous": 8249, "\u012025": 8250, "ffled": 8251, "\u0120fundamental": 8252, "\u0120|": 8253, "\u0120astronomers": 8254, "\u0120glaucoma": 8255, "\u0120nationality": 8256, "esteem": 8257, "\u0120quite": 8258, "\u0120unstable": 8259, "\u0120leveled": 8260, "\u0120inherently": 8261, "\u0120Veterinarian": 8262, "\u0120contains": 8263, "\u0120leaking": 8264, "\u0120browser": 8265, "\u0120Sony": 8266, "ship": 8267, "\u0120analogue": 8268, "\u0120CF": 8269, "\u0120Movement": 8270, "calorie": 8271, "\u0120@": 8272, "\u0120libraries": 8273, "\u0120sixty": 8274, "\u0120popping": 8275, "\u0120epi": 8276, "\u0120veterinarians": 8277, "\u0120Arafat": 8278, "\u0120holdings": 8279, "Down": 8280, "\u0120Barn": 8281, "\u0120USC": 8282, "\u0120>": 8283, "\u0120avalanche": 8284, "Benjamin": 8285, "dies": 8286, "\u0120committed": 8287, "Hodgkin": 8288, "\u0120oranges": 8289, "\u0120mollus": 8290, "\u0120secondary": 8291, "\u0120distributions": 8292, "\u0120though": 8293, "\u0120compiler": 8294, "\u0120industry": 8295, "\u0120Going": 8296, "\u0120Crown": 8297, "61": 8298, "\u0120forums": 8299, "\u0120mistakes": 8300, "bor": 8301, "\u0120metres": 8302, "\u0120Christian": 8303, "\u0120unusually": 8304, "Cold": 8305, "\u0120AL": 8306, "\u0120UT": 8307, "\u0120memory": 8308, "\u0120Fame": 8309, "arse": 8310, "employed": 8311, "\u0120Camera": 8312, "\u0120settling": 8313, "Australian": 8314, "\u0120bomb": 8315, "\u0120coding": 8316, "\u00cf\u0123": 8317, "CD": 8318, "\u0120harmon": 8319, "Ni": 8320, "\u0126": 8321, "\u0120INS": 8322, "\u0120pulmonary": 8323, "\u0120Citizen": 8324, "dn": 8325, "\u0120Brad": 8326, "vies": 8327, "\u0120Emerging": 8328, "\u0120Rainbow": 8329, "\u0120li": 8330, "\u0120barren": 8331, "\u0120365": 8332, "\u0120shelves": 8333, "\u0120pinpoint": 8334, "tering": 8335, "\u0120meaning": 8336, "Author": 8337, "traumatic": 8338, "\u0120\u00e2\u0122\u013e": 8339, "\u0120inputs": 8340, "\u0120downturn": 8341, "\u0120Edinburgh": 8342, "\u0120not": 8343, "\u0120companies": 8344, "\u0120Olympus": 8345, "\u00d1\u0123\u00d1\u0124": 8346, "\u0120Sodium": 8347, "\u0120flower": 8348, "worked": 8349, "\u0120characterize": 8350, "\u0120routine": 8351, "\u0120REL": 8352, "\u0120periodic": 8353, "\u0120Madame": 8354, "vit": 8355, "Carol": 8356, "\u0120streetcar": 8357, "\u0120Lo": 8358, "\u0120Pythagoras": 8359, "\u0120Bismarck": 8360, "\u0120intellectual": 8361, "\u0120collaborative": 8362, "\u0120expectancy": 8363, "\u0120coating": 8364, "\u0120back": 8365, "\u0120bio": 8366, "\u0120damaged": 8367, "\u0120garlic": 8368, "meters": 8369, "\u0120superconduct": 8370, "\u0120diseased": 8371, "reading": 8372, "h": 8373, "\u0120processes": 8374, "tem": 8375, "\u0120Immigrant": 8376, "\u0120Lee": 8377, "\u0120wrote": 8378, "\u0120Ass": 8379, "\u0120appointments": 8380, "society": 8381, "journ": 8382, "ddle": 8383, "grass": 8384, "\u0120consisted": 8385, "\u0120sisters": 8386, "\u0120email": 8387, "\u00e2\u0122\u013f;": 8388, "\u0120consensus": 8389, "\u0120Rock": 8390, "\u0120inv": 8391, "infected": 8392, "\u0120freeing": 8393, "lytic": 8394, "\u0120vendor": 8395, "Neil": 8396, "inda": 8397, "Schools": 8398, "\u0120competencies": 8399, "rain": 8400, "\u0120concepts": 8401, "\u0120attrition": 8402, "\u0120expectations": 8403, "\u0120Auschwitz": 8404, "\u0120Standards": 8405, "\u0120Visual": 8406, "\u0120lessen": 8407, "\u0120Creutzfeldt": 8408, "\u0120buyers": 8409, "\u0120dyslexic": 8410, "\u0120thro": 8411, "\u0120Radical": 8412, "\u0120Integ": 8413, "\u0120addresses": 8414, "ude": 8415, "\u0120bringing": 8416, "\u0120hemisphere": 8417, "\u0120rewarding": 8418, "EST": 8419, "\u0120turns": 8420, "\u0120reparations": 8421, "\u0120Proto": 8422, "\u0120subtropical": 8423, "\u0120Steam": 8424, "\u0120detached": 8425, "generating": 8426, "\u0120untenable": 8427, "\u0120synergistic": 8428, "mps": 8429, "\u0120survivor": 8430, "\u0120Faith": 8431, "\u0120Approach": 8432, "\u0120pan": 8433, "\u0120hinder": 8434, "\u0120Italian": 8435, "\u0120Edgar": 8436, "\u0120revolutions": 8437, "\u0120overturn": 8438, "LR": 8439, "\u0120fasci": 8440, "\u0120spell": 8441, "\u0120suspended": 8442, "faced": 8443, "Try": 8444, "\u0120estimated": 8445, "\u0120leading": 8446, "\u0120presidents": 8447, "Ce": 8448, "\"...": 8449, "%;": 8450, "Psalm": 8451, "\u0120quantities": 8452, "lies": 8453, "\u0120increasing": 8454, "\u0120eva": 8455, "\u0120possess": 8456, "\u0120establishments": 8457, "\u0120copper": 8458, "\u0120courageous": 8459, "\u0120kicked": 8460, "oti": 8461, "\u0120IOM": 8462, "United": 8463, "reference": 8464, "DES": 8465, "\u0120confirm": 8466, "\u0120followers": 8467, "\u0120Senior": 8468, "\u0120recommend": 8469, "ev": 8470, "inated": 8471, "School": 8472, "\u0120park": 8473, "bar": 8474, "\u0120str": 8475, "led": 8476, "\u0120brainstorming": 8477, "\u0120bonded": 8478, "lived": 8479, "\u0120confronting": 8480, "itious": 8481, "ilation": 8482, "\u0120Vy": 8483, "\u0120skip": 8484, "\u0120Sept": 8485, "Ben": 8486, "\u0120reputable": 8487, "\u0120tracked": 8488, "\u0120Inequality": 8489, "\u0120Probably": 8490, "Vietnam": 8491, "\u0120outrage": 8492, "\u0120contraceptives": 8493, "\u0120solitary": 8494, "\u0120formats": 8495, "\u0120Concept": 8496, "\u0120blown": 8497, "century": 8498, "\u0120Growth": 8499, "\u0120ni": 8500, "Daily": 8501, "Compared": 8502, "\u0120mileage": 8503, "stles": 8504, "\u0120Very": 8505, "\u0120terminology": 8506, "\u0120weasel": 8507, "\u0120Arlington": 8508, "\u0120item": 8509, "\u0120phase": 8510, "hood": 8511, "Rel": 8512, "\u0120explanation": 8513, "\u0120sort": 8514, "\u0120WWII": 8515, "\u0120steering": 8516, "C": 8517, "intro": 8518, "\u0120conception": 8519, "\u0120allegedly": 8520, "\u0120XI": 8521, "\u0120Kippur": 8522, "ope": 8523, "(),": 8524, "\u0120predecessors": 8525, "\u0120Cell": 8526, "\u0120Suriname": 8527, "stin": 8528, "Well": 8529, "\u0120unimaginable": 8530, "\u0120600": 8531, "\u0120wrath": 8532, "\u0120inscription": 8533, "\u0120Digest": 8534, "\u0120flute": 8535, "\u0120himself": 8536, "Ke": 8537, "usion": 8538, "\u0120outlines": 8539, "\u0120Dal": 8540, "\u0120protective": 8541, "\u0120reimburse": 8542, "Ur": 8543, "\u0120activate": 8544, "Dictionary": 8545, "uc": 8546, "\u0120VO": 8547, "\u0120chlorophyll": 8548, "\u0120Senate": 8549, "\u0120tailor": 8550, "\u0120Talmud": 8551, "\u0120reigned": 8552, "\u0120OB": 8553, "\u0120Carbon": 8554, "\u0120Winter": 8555, "\u0120chalk": 8556, "\u0120Don": 8557, "\u0120concrete": 8558, "\u0120modeling": 8559, "\u0120Plants": 8560, "\u0120bile": 8561, "\u0120nose": 8562, ".|": 8563, "\u0120troubling": 8564, "\u0120extreme": 8565, "\u0120negatives": 8566, "\u0120sesquipedale": 8567, "\u0120propagated": 8568, "q": 8569, "\u0120sticky": 8570, "\u0120extremities": 8571, "9": 8572, "Top": 8573, "Can": 8574, "\u0120bust": 8575, "\u0120Tennessee": 8576, "\u0120concerted": 8577, "\u0120sober": 8578, "\u0120Perry": 8579, "\u0120acquire": 8580, "\u0120physiological": 8581, "adal": 8582, "\u0120coup": 8583, "\u0120Luther": 8584, "\u0120es": 8585, "\u0120axial": 8586, "\u0141": 8587, "\u0120economic": 8588, "mg": 8589, "\u0120Commitment": 8590, "Source": 8591, "\u0120trout": 8592, "ssels": 8593, "\u012006": 8594, "\u0120Kay": 8595, "\u0120EC": 8596, "\u0120scientists": 8597, "\u0120punct": 8598, "\u0120contemplate": 8599, "\u0120restoration": 8600, "osi": 8601, "\u0120Hess": 8602, "114": 8603, "\u0120diverse": 8604, "\u0120heel": 8605, "\u0120analyzed": 8606, "\u01201789": 8607, "\u0120monoclonal": 8608, "\u0120elapsed": 8609, "\u0120melatonin": 8610, "\u01201855": 8611, "\u0120notorious": 8612, "\u0120secreted": 8613, "\u0120mountainous": 8614, "\u0120pr": 8615, "Behind": 8616, "\u0120prints": 8617, "\u0120cont": 8618, "\u0120lecturing": 8619, "\u0120Company": 8620, "\u0120LEED": 8621, "\u0120academic": 8622, "\u0120ovary": 8623, "\u0120urethra": 8624, "cognitive": 8625, "shed": 8626, "\u0120brood": 8627, "\u01201977": 8628, "Gold": 8629, "\u0120aggregation": 8630, "\u0120dispatched": 8631, "\u0120sizes": 8632, "\u0120magnetism": 8633, "Struct": 8634, "\u0120Natural": 8635, "\u0120quo": 8636, "\u0120submarine": 8637, "\u01206000": 8638, "equently": 8639, "\u0120robust": 8640, "\u0120armed": 8641, "\u0120abnormal": 8642, "\u0120Fortune": 8643, "\u0120It": 8644, "\u0120buying": 8645, "\u0120Does": 8646, "ANT": 8647, "where": 8648, "\u0120theologians": 8649, "\u0120unrestricted": 8650, "hybrid": 8651, "\u0120bills": 8652, "\u0120sentiment": 8653, "\u0120Purdue": 8654, "\u0120Clause": 8655, "\u0120tails": 8656, "\u0120learns": 8657, "public": 8658, "\u0120simulation": 8659, "\u0120scars": 8660, "Hundreds": 8661, "\u0120apes": 8662, "\u0120hub": 8663, "oo": 8664, "\u0120labeled": 8665, "\u0120Experimental": 8666, "\u0120204": 8667, "\u0120M\u00c3\u00a9xico": 8668, "\u0120entity": 8669, "\u0120appearing": 8670, "\u0120dai": 8671, "\u0120Am": 8672, "black": 8673, "\u0120Cai": 8674, "Domhnall": 8675, "\u0120heaters": 8676, "\u0120prisoner": 8677, "\u0120neutron": 8678, "\u0120discuss": 8679, "ort": 8680, "\u0120progressively": 8681, "\u0120Mai": 8682, "\u0120stuck": 8683, "\u0120UNI": 8684, "\u0120daunting": 8685, "\u0120ridge": 8686, "\u0120citrus": 8687, "Yesterday": 8688, "Taking": 8689, "\u0120geographic": 8690, "\u0120Distance": 8691, "\u0120Tales": 8692, "One": 8693, "pass": 8694, "\u0120below": 8695, "EC": 8696, "\u0120dolphin": 8697, "Francis": 8698, "\u0120Muscle": 8699, "ffe": 8700, "\u0120devour": 8701, "IVE": 8702, "lingual": 8703, "\u0120j\u00c4\u00abva": 8704, "\u0120impediment": 8705, "\u0120raids": 8706, "206": 8707, "\u0120Schwe": 8708, "mmies": 8709, "Activity": 8710, "\u0120militar": 8711, "\u0120sunburn": 8712, "Nu": 8713, "\u0120Peninsula": 8714, "\u0120Gamma": 8715, "\u0120battles": 8716, "\u0120Files": 8717, "\u0120tasty": 8718, "\u0120roots": 8719, "\u0120fresh": 8720, "enriched": 8721, "\u0120quin": 8722, "\u0120aurora": 8723, "\u0120Warbler": 8724, "laying": 8725, "\u0120masks": 8726, "\u0120PET": 8727, "\u0120marry": 8728, "sponsored": 8729, "\u0120Gender": 8730, "\u0120intens": 8731, "\u0120plu": 8732, "\u0120hopefully": 8733, "\u0120bombs": 8734, "\u0120embryo": 8735, "\u0120burnt": 8736, "\u0120Organisation": 8737, "\u0120Formation": 8738, "\u0120Measures": 8739, "\u0120clad": 8740, "\u0120unprecedented": 8741, "diments": 8742, "\u0120\u00e2\u0122\u013f": 8743, "berry": 8744, "GE": 8745, "\u0120ingredients": 8746, "\u0120Transform": 8747, "\u0120University": 8748, "State": 8749, "\u0120hole": 8750, "\u0120openness": 8751, "125": 8752, "\u0120CN": 8753, "mother": 8754, "\u0120carried": 8755, "\u0120elite": 8756, "\u0120united": 8757, "\u0120Catholic": 8758, "\u0120Ky": 8759, "\u0120sits": 8760, "\u0120movies": 8761, "\u0120peril": 8762, "\u0120my": 8763, "\u0120gaps": 8764, "\u0120glacial": 8765, "\u0120reveals": 8766, "\u0120collectors": 8767, "\u0120ensuring": 8768, "\u0120fruit": 8769, "\u0120cemetery": 8770, "\u0120subsistence": 8771, "\u0120zidovudine": 8772, "\u0120in": 8773, "\u0120flush": 8774, "\u0120Treat": 8775, "\u0120queens": 8776, "\u0120Springs": 8777, "\u0120coverage": 8778, "\u0120Magnetic": 8779, "\u0120encephalopathy": 8780, "\u0120virus": 8781, "Jean": 8782, "\u0120conductor": 8783, "ppe": 8784, "Ten": 8785, "\u00e2\u0122\u0136": 8786, "\u0120epidemiologic": 8787, "\u0120Harding": 8788, "\u0120Hob": 8789, "\u0120pumping": 8790, "\u0120Occasionally": 8791, "\u0120abortion": 8792, "\u0120reveal": 8793, "OG": 8794, "\u0120penny": 8795, "\u0120speculate": 8796, "\u0120Bread": 8797, "\u0120hold": 8798, "\u0120Endangered": 8799, "\u0120visibility": 8800, "\u0120livelihood": 8801, "\u0120Darwinian": 8802, "\u0120medicine": 8803, "ider": 8804, "\u0120discharge": 8805, "\u0120chemists": 8806, "\u0120Typical": 8807, "Dry": 8808, "\u0120modelling": 8809, "Ve": 8810, "\u0120Treasure": 8811, "Until": 8812, "\u0120Tropical": 8813, "\u0120Inv": 8814, "\u013a": 8815, "1957": 8816, "\u0120==": 8817, "\u00d0\u00b0\u00d0\u00bd": 8818, "\u0120recruited": 8819, "\u0120obsession": 8820, "Justice": 8821, "lined": 8822, "\u0120Sexual": 8823, "\u0120innumerable": 8824, "\u0120coping": 8825, "\u0120Shabbat": 8826, "engineering": 8827, "\u0120rocky": 8828, "\u0120bullying": 8829, "\u0120assigned": 8830, "\u0120hummingbird": 8831, "\u0120Miles": 8832, "\u0120ascent": 8833, "\u0120classical": 8834, "\u0120Found": 8835, "\u0120Italy": 8836, "\u0120referring": 8837, "\u0120topics": 8838, "\u0120practising": 8839, "\u0120furnish": 8840, "\u0120seating": 8841, "\u012057": 8842, "\u0120hills": 8843, "\u0120consciousness": 8844, "\u0120pal": 8845, "\u0120fiber": 8846, "\u0120Infants": 8847, "\u0120after": 8848, "\u0120Metro": 8849, "\u0120taste": 8850, "\u0120Decepticons": 8851, "\u0120Bus": 8852, "\u0120Reuters": 8853, "\u0120MESSENGER": 8854, "\u0120Jain": 8855, "\u0120communication": 8856, "\u0120dissipate": 8857, "Gregor": 8858, "\u0120holes": 8859, "\u0120bureaucracy": 8860, "\u0120Sh": 8861, "although": 8862, "\u0120Administration": 8863, "\u0120branching": 8864, "\u0120complain": 8865, "\u0120poaching": 8866, "enson": 8867, "\u0120buffalo": 8868, "\u0120fidelity": 8869, "ographical": 8870, "\u0120click": 8871, "\u0120ranchers": 8872, "\u0120dispersing": 8873, "\u0120liberation": 8874, "ruption": 8875, "\u0120reminding": 8876, "\u0120nomin": 8877, "\u0120necessary": 8878, "\u0120exposes": 8879, "ffins": 8880, "yon": 8881, "\u0120unfa": 8882, "\u0120Nebula": 8883, "point": 8884, "\u0120Sing": 8885, "\u0120adapt": 8886, "Proverbs": 8887, "\u0120foundational": 8888, "\u0120officials": 8889, "\u0120shiny": 8890, "\u0120gout": 8891, "\u0120restart": 8892, "\u0120scanner": 8893, "\u0120128": 8894, "\u0120disregard": 8895, "wai": 8896, "\u0120officers": 8897, "fro": 8898, "\u0120Campus": 8899, "\u0120halls": 8900, "arctic": 8901, "\u0120fanatic": 8902, "\u0120pulses": 8903, "vac": 8904, "\u0120sarcoma": 8905, "\u0120XX": 8906, "VER": 8907, "\u0120Stein": 8908, "\u0120clash": 8909, "\u0120narco": 8910, "\u0120souls": 8911, "\u0120feces": 8912, "\u0120requirement": 8913, "\u0120instantly": 8914, "||(": 8915, "\u0120uncover": 8916, "\u0120messenger": 8917, "carrying": 8918, "\u0120Report": 8919, "\u0120ADD": 8920, "\u0120search": 8921, "\u0120blamed": 8922, "Elizabeth": 8923, "\u0120frog": 8924, "\u00c4\u0123s": 8925, "\u0120John": 8926, "cess": 8927, "lp": 8928, "\u0120Solution": 8929, "\u0120Assessment": 8930, "\u0120Husayn": 8931, "backs": 8932, "near": 8933, "\u0120protein": 8934, "cyto": 8935, "\u0120sul": 8936, "\u0120explosion": 8937, "\u0120shines": 8938, "Hebrew": 8939, "eling": 8940, "\u0120mold": 8941, "\u0120devices": 8942, "\u0120lots": 8943, "\u0120Moreover": 8944, "\u0120Tam": 8945, "\u0120merely": 8946, "\u0120carving": 8947, "Washington": 8948, "\u0120\u00c5\u013d": 8949, "\u0120prominence": 8950, "\u0120Kansas": 8951, "\u0120China": 8952, "\u0120Request": 8953, "\u0120Lay": 8954, "\u0120establishment": 8955, "\u0120obsessive": 8956, "\u0120objection": 8957, "University": 8958, "Never": 8959, "\u0120Theoretical": 8960, "\u0120McN": 8961, "democratic": 8962, "\u0120identifiable": 8963, "lian": 8964, "\u0120statue": 8965, "\u0120quantum": 8966, "\u0120also": 8967, "room": 8968, "\u0120Info": 8969, "\u0120worries": 8970, "\u0120accreditation": 8971, "\u0120Pre": 8972, "\u0120masculine": 8973, "\u0120fragmented": 8974, "\u0120cal": 8975, "\u0120nu": 8976, "eum": 8977, "\u0120indirect": 8978, "ished": 8979, "\u0120gel": 8980, "\u0120M": 8981, "blood": 8982, "\u0120Craig": 8983, "\u0120command": 8984, "\u0120beliefs": 8985, "\u0120regards": 8986, "\u0120password": 8987, "\u0120nitroglycerin": 8988, "\u0120knob": 8989, "\u0120experiment": 8990, "\u0120Currently": 8991, "\u0120smoothly": 8992, "\u0120Bour": 8993, "Ed": 8994, "\u0120Ver": 8995, "\u0120recommended": 8996, "\u0120foot": 8997, "\u0120meticulous": 8998, "\u0120undetected": 8999, "\u0120covenant": 9000, "\u0120debt": 9001, "\u0120administrators": 9002, "wan": 9003, "\u0120rein": 9004, "\u0120truly": 9005, "\u0120material": 9006, "\u0120Plains": 9007, "gon": 9008, "\u0120farmed": 9009, "Non": 9010, "\u0120Workers": 9011, "\u0120translucent": 9012, "\u0120closest": 9013, "\u0120affiliation": 9014, "\u0120Bernard": 9015, "\u0120invisibility": 9016, "ime": 9017, "steroidal": 9018, "Create": 9019, "\u0120GB": 9020, "\u0120defeated": 9021, "\u0120Byrne": 9022, "\u0120fireplace": 9023, "monas": 9024, "\u0120preparations": 9025, "\u0120Fran\u00c3\u00a7ois": 9026, "\u0120follicles": 9027, "\u0120BM": 9028, "\u0120paving": 9029, "\u0120capture": 9030, "\u0120ecclesiastical": 9031, "\u0120dice": 9032, "\u0120pont": 9033, "\u0120recognised": 9034, "TED": 9035, "mers": 9036, "\u0120tenure": 9037, "hara": 9038, "\u01201987": 9039, "mercury": 9040, "\u0120bulb": 9041, "\u0120entrepreneurship": 9042, "\u0120Counties": 9043, "\u0120sage": 9044, "\u0120component": 9045, "\u0120Create": 9046, "\u0120mist": 9047, "Five": 9048, "\u01201943": 9049, "\u0120perfected": 9050, "dder": 9051, "\u0120aw": 9052, "\u0120relativ": 9053, "\u0120INFORMATION": 9054, "\u0120ideas": 9055, "\u0120Missing": 9056, "\u00c9": 9057, "\u0120acclaimed": 9058, "\u0120SAT": 9059, "\u0120Que": 9060, "IA": 9061, "\u0120moving": 9062, ".\u00e2\u0122\u013b": 9063, "\u0120Vista": 9064, "\u0120confront": 9065, "uity": 9066, "\u0120Keeping": 9067, "\u0120medicinal": 9068, "Map": 9069, "\u0120homin": 9070, "\u0120furnished": 9071, "\u0120exchanged": 9072, "\u0120prosperous": 9073, "\u0120Honolulu": 9074, "\u0120disparity": 9075, "\u0120melt": 9076, "\u0120Adrian": 9077, "\u0120accounts": 9078, "\u0120hairs": 9079, "English": 9080, "\u01201792": 9081, "\u0120hind": 9082, "\u0120answer": 9083, "\u0120reared": 9084, "\u0120INTER": 9085, "Take": 9086, "Sexual": 9087, "\u01201935": 9088, "\u0120Garc\u00c3\u0143a": 9089, "manuel": 9090, "\u0120intelligent": 9091, "\u0120MPa": 9092, "\u0120weakness": 9093, "\u0120pesticide": 9094, "\u0120peers": 9095, "cover": 9096, "\u0120surround": 9097, "\u0120administer": 9098, "stitution": 9099, "\u0120bunch": 9100, "\u0120Nazareth": 9101, "\u0120summer": 9102, "\u0120dissolved": 9103, "\u0120prominently": 9104, "Working": 9105, "\u0120Administrative": 9106, "AH": 9107, "religious": 9108, "\u01201806": 9109, "\u0120cedar": 9110, "\u0120Lerner": 9111, "\u0120Ni": 9112, "\u0120Reformed": 9113, "\u0120barley": 9114, "\u0120disseminating": 9115, "wy": 9116, "proof": 9117, "\u01202017": 9118, "\u0120treatments": 9119, "\u0120just": 9120, "\u0120reduced": 9121, "February": 9122, "\u0120regenerative": 9123, "\u0120Sl": 9124, "\u0120advice": 9125, "\u00c4\u00ab": 9126, "\u0120Leopold": 9127, "\u0120NA": 9128, "\u0120chloride": 9129, "\u0120rendered": 9130, "\u0136": 9131, "\u0120121": 9132, "\u0120causes": 9133, "wel": 9134, "ame": 9135, "\u0120portal": 9136, "\u0120sponsor": 9137, "Old": 9138, "\u0120Louisville": 9139, "sand": 9140, "\u0120argue": 9141, "\u0120grassland": 9142, "\u0120nonprofit": 9143, "\u0120Heritage": 9144, "\u0120Rec": 9145, "\u0120volt": 9146, "\u0120Nucle": 9147, "\u0120attaches": 9148, "\u0120altitude": 9149, "byte": 9150, "\u0120Section": 9151, "\u0120rat": 9152, "\u0120UNHCR": 9153, "\u0120substantially": 9154, "etz": 9155, "\u0120amount": 9156, "ps": 9157, "\u0120uniformly": 9158, "print": 9159, "\u0120credible": 9160, "Yo": 9161, "Talk": 9162, "\u0120councils": 9163, "\u01201913": 9164, "\u0120assaults": 9165, "\u0120trouble": 9166, "\u0120Republicans": 9167, "\u0120Yu": 9168, "ually": 9169, "zoic": 9170, "Group": 9171, "Ku": 9172, "\u0120gar": 9173, "\u0120unborn": 9174, "\u0120Active": 9175, "\u0120BS": 9176, "\u0120intestines": 9177, "\u0120Production": 9178, "\u0120Flag": 9179, "\u0120effectiveness": 9180, "\u0120fascinating": 9181, "\u0120movement": 9182, "Jim": 9183, "\u0120Autobiography": 9184, "\u0120evaluations": 9185, "\u0120Ve\u00e1\u00b8\u012fas": 9186, "Var": 9187, "\u0120Josephus": 9188, "\u0120statin": 9189, "cons": 9190, "\u0120snap": 9191, "\u0120fringe": 9192, "\u0120protested": 9193, "\u0120floor": 9194, "sub": 9195, "\u0120exoplanets": 9196, "\u0120On": 9197, "\u0120arbitrary": 9198, "\u0120targeted": 9199, "\u0120trillion": 9200, "\u0120specified": 9201, "SI": 9202, "same": 9203, "\u0120ponder": 9204, "vil": 9205, "wen": 9206, "\u0120funds": 9207, "\u0120survive": 9208, "Ba": 9209, "\u0120Sit": 9210, "registered": 9211, "ador": 9212, "\u0120pregnancy": 9213, "\u0120las": 9214, ",-": 9215, "\u0120implicitly": 9216, "\u0120Ranch": 9217, "\u0120Del": 9218, "iest": 9219, "\u0120NGO": 9220, "\u0120reflector": 9221, "\u0120turtle": 9222, "\u0120employs": 9223, "\u0120constructs": 9224, "\u0120Debate": 9225, "\u0120midst": 9226, "traffic": 9227, "kka": 9228, "\u0120fashioned": 9229, "71": 9230, "\u0120helmets": 9231, "\u0120Abigail": 9232, "\u0120Allah": 9233, "\u0120stays": 9234, "\u0120trapping": 9235, "\u0120counters": 9236, "\u0120increment": 9237, "\u0120comparing": 9238, "\u0120worksheets": 9239, "after": 9240, "\u0120Behaviour": 9241, "\u0120heroes": 9242, "sar": 9243, "\u0120immune": 9244, "ikh": 9245, "ifications": 9246, "SM": 9247, "\u0120gardeners": 9248, "\u0120Jesuits": 9249, "government": 9250, "ggle": 9251, "\u0120beans": 9252, "taken": 9253, "\u0120fir": 9254, "\u0120Declaration": 9255, "\u0120psychologists": 9256, "\u0120Ruby": 9257, "\u0120gruesome": 9258, "\u0120masterpiece": 9259, "\u0120reflects": 9260, "\u0120Heart": 9261, "LV": 9262, "\u0120constituent": 9263, "\u0120Whilst": 9264, "\u0120Borneo": 9265, "\u0120Tet": 9266, "\u0120London": 9267, "\u0120Orient": 9268, "fighting": 9269, "\u0120potato": 9270, "\u0120Construct": 9271, "\u0120ago": 9272, "\u0120disks": 9273, "angel": 9274, "\u0120Applications": 9275, "\u0120Xavier": 9276, "\u0120Ring": 9277, "\u0120domesticated": 9278, "\u013f": 9279, "nn": 9280, "Columbia": 9281, "\u0120HS": 9282, "\u0120warming": 9283, "\u0120materials": 9284, "\u0120Dark": 9285, "\u0120Imperial": 9286, "xo": 9287, "pository": 9288, "\u0120mall": 9289, "ars": 9290, "\u0120fireworks": 9291, "Bs": 9292, "\u0120drinks": 9293, "\u0120semaphore": 9294, "\u0120Rousseau": 9295, "\u0120Queen": 9296, "\u0120KI": 9297, "\u0120cyan": 9298, "\u0120above": 9299, "So": 9300, "\u0120formed": 9301, "\u0120memories": 9302, "1800": 9303, "1912": 9304, "inate": 9305, "\u0120thoroughly": 9306, "yar": 9307, "\u0120delivery": 9308, "\u0120fri": 9309, "\u0120severely": 9310, "\u0120feasible": 9311, "\u0120Gro": 9312, "\u0120descent": 9313, "\u0120Logan": 9314, "\u0120Carlos": 9315, "infrared": 9316, "\u0120handwriting": 9317, "enstein": 9318, "dose": 9319, "\u0120Sons": 9320, "\u0120exclusively": 9321, "ging": 9322, "\u0120tale": 9323, "Volume": 9324, "\u0120Ev": 9325, "\u0120reliance": 9326, "\u0120multifaceted": 9327, "\u0120thief": 9328, "mitt": 9329, "\u0120autism": 9330, "\u0120Europeans": 9331, "\u00e2\u0122": 9332, "\u0120Aside": 9333, "\u0120disciple": 9334, "\u0120macular": 9335, "\u0120declines": 9336, "Life": 9337, "\u0120ethics": 9338, "\u0120edition": 9339, "hundred": 9340, "library": 9341, "\u0120handicraft": 9342, "\u0120potential": 9343, "\u0120observations": 9344, "\u0120socioeconomic": 9345, "\u0120oats": 9346, "\u0120uterus": 9347, "\u0120Criminal": 9348, "\u0120PM": 9349, "\u0120transgenic": 9350, "\u0120ignore": 9351, "\u0120graduating": 9352, "\u0120context": 9353, "\u0120governor": 9354, "\u01201901": 9355, "\u0120Advances": 9356, "east": 9357, "\u0120tied": 9358, "\u0120murmur": 9359, "\u0120pool": 9360, "\u0120Pictures": 9361, "\u0120.\"": 9362, "osome": 9363, "\u0120contraception": 9364, "city": 9365, "\u0120Morrison": 9366, "regional": 9367, "\u0120Invent": 9368, "104": 9369, "\u0120lurking": 9370, "\u0120Inca": 9371, "\u0120weapons": 9372, "opoulos": 9373, "\u0120diet": 9374, "\u0120shaded": 9375, "\u0120depress": 9376, "trophy": 9377, "\u0120dilution": 9378, "\u0120Jack": 9379, "\u0120Matters": 9380, "\u0120incarcerated": 9381, "\u0120dirt": 9382, "\u0120closer": 9383, "\u0120needs": 9384, "\u0120dialysis": 9385, "\u0120protected": 9386, "ules": 9387, "\u0120equity": 9388, "\u0120lovely": 9389, "\u0120added": 9390, "kor": 9391, "\u0120coins": 9392, "\u0120extension": 9393, "\u0120wre": 9394, "\u0120idle": 9395, "\u0120Within": 9396, "\u0120tab": 9397, "forms": 9398, "gill": 9399, "\u0120accomplishments": 9400, "\u0120jet": 9401, "\u0120Native": 9402, "Even": 9403, "\u0120volts": 9404, "WHO": 9405, "\u0120Davis": 9406, "lls": 9407, "ellar": 9408, "\u0120critical": 9409, "\u0120division": 9410, "Notes": 9411, "\u0120winds": 9412, "\u0120Developed": 9413, "\u0120toilets": 9414, "\u0120boots": 9415, "\u0120unequal": 9416, "\u0120Extreme": 9417, "tomy": 9418, "\u01201931": 9419, "ordinate": 9420, "Health": 9421, "\u0120pitcher": 9422, "\u0120newest": 9423, "\u0120cosmos": 9424, "\u0120buff": 9425, "\u0120Katrina": 9426, "\u0120user": 9427, "\u0120wishes": 9428, "ition": 9429, "\u0120contractor": 9430, "\u0120workpiece": 9431, "\u0120potable": 9432, "ii": 9433, "board": 9434, "omo": 9435, "Period": 9436, "\u0120Champion": 9437, "\u0120wheat": 9438, "lexible": 9439, "storms": 9440, "--": 9441, "\u0120coefficient": 9442, "\u0120appreciation": 9443, "inflammatory": 9444, "radio": 9445, "\u0120monarch": 9446, "\u0120Montefiore": 9447, "ensen": 9448, "\u0120manipulative": 9449, "\u0120conviction": 9450, "\u0120Anatolia": 9451, "\u0120nineteenth": 9452, "\u0120labor": 9453, "\u0120blo": 9454, "\u0120Alternatively": 9455, "\u0120areas": 9456, "\u0120Swiss": 9457, "\u0120Real": 9458, "\u0120automobile": 9459, "\u0120staged": 9460, "\u0120upside": 9461, "Sept": 9462, "uch": 9463, "\u0120inflamed": 9464, "\u0120Name": 9465, "\u0120Asiatic": 9466, "\u0120Serotonin": 9467, "\u0120twin": 9468, "ulo": 9469, "\u0120Bailey": 9470, "\u0120sending": 9471, "PE": 9472, "\u0120reconsider": 9473, "\u0120rh": 9474, "\u0120delightful": 9475, "\u01201964": 9476, "\u0120commanding": 9477, "ente": 9478, "\u0120furniture": 9479, "\u0120Gilbert": 9480, "Plant": 9481, "finder": 9482, "\u0120ab": 9483, "ged": 9484, "\u0120Length": 9485, "\u0120Larger": 9486, "\u0120homepage": 9487, "grad": 9488, "\u0120fourth": 9489, "\u0120inner": 9490, "hydroxy": 9491, "\u0120tortured": 9492, "Origin": 9493, "\u0120Archipelago": 9494, "\u0120systolic": 9495, "\u0120impressive": 9496, "\u0120Aug": 9497, "full": 9498, "\u0120Empress": 9499, "\u0120Zambia": 9500, "\u0120projects": 9501, "\u00ce\u00bd": 9502, "\u0120mutually": 9503, "ust": 9504, "\u0120pernicious": 9505, "\u0120Roth": 9506, "\u0120create": 9507, "\u0120if": 9508, "mbo": 9509, "\u0120furnaces": 9510, "\u0120shocking": 9511, "\u0120stayed": 9512, "\u0120gossip": 9513, "\u0120semiconductor": 9514, "tele": 9515, "\u0120fellowship": 9516, "ira": 9517, "\u0120slavery": 9518, "\u0120aspects": 9519, "\u0120prescribed": 9520, "\u0120sooner": 9521, "\u0120aspartame": 9522, "aff": 9523, "Hungarian": 9524, "\u0120liturgy": 9525, "station": 9526, "ckers": 9527, "\u0120understanding": 9528, "\u0120richly": 9529, "\u0120cobalt": 9530, "\u0120spheres": 9531, "\u0120mice": 9532, "\u0120thwart": 9533, "\u0120Cross": 9534, "CL": 9535, "\u0120deadly": 9536, "\u0120reverse": 9537, "\u0120Havana": 9538, "\u0120paradise": 9539, "\u0120NOAA": 9540, "\u0120Bethlehem": 9541, "cdc": 9542, "\u0120tomato": 9543, "\u0120relax": 9544, "\u0120Dean": 9545, "\u0120rattlesnake": 9546, "lore": 9547, "\u0120Oph": 9548, "discovery": 9549, "Mag": 9550, "\u0120societies": 9551, "crease": 9552, "\u0120Beirut": 9553, "amoeba": 9554, "endocrin": 9555, "\u0120Function": 9556, "\u0120Neandertal": 9557, "\u0120estuaries": 9558, "whether": 9559, "Choosing": 9560, "\u0120Advertise": 9561, "\u0120garments": 9562, "\u0120Vit": 9563, "fold": 9564, "\u0120navigator": 9565, "\u0120Pueblo": 9566, "\u01201845": 9567, "\u0120elections": 9568, "\u0120enable": 9569, "\u0120rivers": 9570, "\u0120tradition": 9571, "\u0120request": 9572, "\u0120Chevrolet": 9573, "financial": 9574, "\u012043": 9575, "\u0120itiner": 9576, "\u0120Nielsen": 9577, "\u0120Chicago": 9578, "arians": 9579, "Adult": 9580, "facing": 9581, "\u0120balloon": 9582, "\u0120presidency": 9583, "rhynchus": 9584, "\u0120rhythms": 9585, "yg": 9586, "\u0120Ali": 9587, "\u0120Is": 9588, "\u0120lie": 9589, "\u0120DC": 9590, "\u0120character": 9591, "\u0120communist": 9592, "dale": 9593, "SCO": 9594, "cine": 9595, "\u0120feminist": 9596, "\u0120skiing": 9597, "\u0120skirmish": 9598, "\u0120MET": 9599, "\u0120GA": 9600, "\u0120oz": 9601, "Character": 9602, "\u0120claim": 9603, "\u0120overriding": 9604, "\u0120traditions": 9605, "\u0120heated": 9606, "\u0120perpendicular": 9607, "bury": 9608, "\u0120les": 9609, "\u0120liberties": 9610, "unless": 9611, "\u0120Slave": 9612, "\u0120goat": 9613, "\u0120sacrificed": 9614, "\u0120intermediary": 9615, "\u0120mening": 9616, "\u0120Collins": 9617, "\u0120beauty": 9618,
[...]
