{"[UNK]": 0, "endoftextbehere": 1, "mp": 2, "\u0120display": 3, "\u0120side": 4, "\u0120land": 5, ".,": 6, "\u0120mar": 7, "\u0120female": 8, "am": 9, "\u0120eye": 10, "\u0120so": 11, "ste": 12, "\u0120He": 13, "\u0120August": 14, "\u0120select": 15, "ris": 16, "\u0120br": 17, "\u0120effort": 18, "\u0120little": 19, "gy": 20, "\u0120make": 21, "\u0120young": 22, "We": 23, "\u0120five": 24, "min": 25, "af": 26, "6": 27, "\u0120range": 28, "qui": 29, "\u0120up": 30, "\u0120You": 31, "\u0120bo": 32, "ised": 33, "\u0120more": 34, "form": 35, "lu": 36, "\u0133": 37, "ff": 38, "\u012019": 39, "ler": 40, "ist": 41, "\u00ec": 42, "v": 43, "\u0120official": 44, "\u0120country": 45, "ap": 46, "ence": 47, "\u0120address": 48, "il": 49, "ni": 50, "\u0120either": 51, "ser": 52, "\u0120information": 53, "\u0120co": 54, "\u0120tr": 55, "\u0120making": 56, "\u0120famili": 57, "kes": 58, "\u0120comb": 59, "\u0120po": 60, "ject": 61, "\u0120hard": 62, "\u0120par": 63, "\u0120U": 64, "\u0120Bo": 65, "\u0120rapid": 66, "lation": 67, "\u0120natural": 68, "\u0120almost": 69, "\u00e7": 70, "\u0120until": 71, "\u0120direct": 72, "\u0120provide": 73, "\u0120both": 74, "00": 75, "\u0120security": 76, "rr": 77, "et": 78, "com": 79, "\u0120here": 80, "\u0120multi": 81, "\u0120down": 82, "ices": 83, "\u0120rather": 84, "\u0120mean": 85, "\u0120around": 86, "ig": 87, "According": 88, "gen": 89, "/": 90, "\u0120": 91, "\u0127": 92, "ure": 93, "\u0120The": 94, "ine": 95, "\u0120Research": 96, "\u0120a": 97, "\u0120dra": 98, "Q": 99, "\u0120\u00e2\u0122\u0135": 100, "\u0120(": 101, "bu": 102, "\u0120'": 103, "\u0120different": 104, "\u0120number": 105, "|": 106, "\u0120measure": 107, "\u0120American": 108, "old": 109, "\u0120At": 110, "na": 111, "co": 112, "ern": 113, "\u0120she": 114, "its": 115, "\u0120church": 116, "\u0120author": 117, "\u0120T": 118, ".\u00e2\u0122\u013f": 119, "\u0120Un": 120, "di": 121, "\u0120et": 122, "ges": 123, "ug": 124, "ard": 125, "\u0120scientific": 126, "\u0120dep": 127, "\u00f0": 128, "\u0120Sa": 129, "\u0120rem": 130, "*": 131, "gr": 132, "\u0120turn": 133, "\u0120but": 134, "tter": 135, "ons": 136, "\u0120fundamental": 137, "\u0120|": 138, "een": 139, "ware": 140, "\u00d5": 141, "\u0120P": 142, "\u0120of": 143, "\u0120Re": 144, "\u0120regard": 145, "\u0120ba": 146, "\u0120right": 147, "\u0120certain": 148, "so": 149, "tt": 150, "ship": 151, "\u0120ga": 152, "spect": 153, "in": 154, "\u0120private": 155, "an": 156, "air": 157, "\u00e1": 158, "\u0120percent": 159, "\u0120ho": 160, "\u0120North": 161, "ei": 162, "\u0120avoid": 163, "\u0120strateg": 164, "\u0120death": 165, "\u0120been": 166, "nd": 167, "\u0120Council": 168, "\u0120b": 169, "\u0120fo": 170, "=": 171, "\u0120culture": 172, "\u0120came": 173, "atory": 174, "yn": 175, "\u0120website": 176, "\u00d8": 177, "ens": 178, "\u0120perform": 179, "\u0120though": 180, "~": 181, "\u0120practice": 182, "a": 183, "ash": 184, "\u0120New": 185, "\u0120citizen": 186, "bor": 187, "\u01202": 188, "\u0120said": 189, "ate": 190, "bo": 191, "For": 192, "ved": 193, "ious": 194, "\u0120Pa": 195, "\u0120called": 196, "\u0120ch": 197, "echnolog": 198, "\u0120cover": 199, "\u0120name": 200, "\u0120memory": 201, "ves": 202, "\u0120pass": 203, "sa": 204, "ates": 205, "\u0120top": 206, "\u0120where": 207, "\u0120sea": 208, "_": 209, "\u0120past": 210, "\u0120York": 211, "it": 212, "\u0120professional": 213, "'": 214, "\u0120vi": 215, "\u0120Ind": 216, "\".": 217, "ological": 218, "\u0120air": 219, "\u0120resources": 220, "\u0120work": 221, "\u0126": 222, "yr": 223, "ek": 224, "ian": 225, "\u00c6": 226, "end": 227, "\u0120li": 228, "ting": 229, "rd": 230, "11": 231, "\u0120Hi": 232, "\u0120sh": 233, ".)": 234, "\u0120\u00e2\u0122\u013e": 235, "\u0120minutes": 236, "\u0120not": 237, "\u0120learn": 238, "8": 239, "\u012018": 240, "\u0120companies": 241, "\u0120look": 242, "struction": 243, "\u0120His": 244, "NA": 245, "\u0137": 246, "\u0120person": 247, "ick": 248, "\u0120al": 249, "\u0120technique": 250, "\u0120significant": 251, "\u0120explain": 252, "\u0120chemical": 253, "\u0120hospital": 254, "\u0120Lo": 255, "\u0120proper": 256, "ute": 257, "ou": 258, "\u0120back": 259, "\u0120che": 260, "\u0120don": 261, "\u0120But": 262, "ord": 263, "h": 264, "\u0120some": 265, "ries": 266, "\u0120across": 267, "\u00d4": 268, "\u0120School": 269, "va": 270, "ce": 271, "ix": 272, "\u0120going": 273, ":": 274, "\u0120small": 275, "\u0120Bu": 276, "\u0120\"": 277, "\u0120difficult": 278, "ier": 279, "\u00a4": 280, "ant": 281, "\u0120car": 282, "rl": 283, "is": 284, "ws": 285, "\u0120World": 286, "\u0120\u00e2\u0122\u013a": 287, "\u0120means": 288, "\u0120early": 289, "ial": 290, "\u0120sha": 291, "\u0120result": 292, "\u0120ecosystem": 293, "ast": 294, "eo": 295, "\u0120That": 296, "ock": 297, "ans": 298, "\u0120Bi": 299, "\u00e5": 300, "rit": 301, "\u0120child": 302, "\u0120Po": 303, "\u0120surface": 304, "\u0120always": 305, "rom": 306, "\u0120lu": 307, "\u0120given": 308, "\u0120Republic": 309, "\u0120link": 310, "ain": 311, "\u00e8": 312, "py": 313, "\u0120effective": 314, "\u0120two": 315, "\u012a": 316, "\u0120ad": 317, "\u0120What": 318, "ive": 319, "hu": 320, "\u0120app": 321, "\u0120sub": 322, "\u0120ensure": 323, "\u0120build": 324, "\u0120music": 325, "\u0120reason": 326, "\u0120Washington": 327, "\u0120trans": 328, "\u0120real": 329, "\u0120circu": 330, "n": 331, "\u0120increasing": 332, "\u0120doctor": 333, "\u0120No": 334, "qu": 335, "llow": 336, "\u0120at": 337, "\u0120consider": 338, "\u0120recommend": 339, "ev": 340, "\u0120never": 341, "rg": 342, "pro": 343, "\u00d6": 344, "\u0120organ": 345, "ys": 346, "\u0120str": 347, "led": 348, "\u00cc": 349, "\u0120what": 350, "There": 351, "tes": 352, "od": 353, "\u0120affect": 354, "our": 355, "\u012014": 356, "ank": 357, "ton": 358, "\u0120whether": 359, "\u0120South": 360, "\u0120Ba": 361, "vision": 362, "to": 363, "\u0120histor": 364, "\u00af": 365, "\u0120north": 366, "\u0120them": 367, "\u00ea": 368, "\u0120to": 369, "\u0120writ": 370, "\u0120B": 371, "\u0120his": 372, "no": 373, "aves": 374, "we": 375, "!": 376, "ally": 377, "\u0120However": 378, "\u0120America": 379, "\u0120already": 380, "\u0120fi": 381, "\u0120X": 382, "\u0120public": 383, "\u0120Development": 384, "\u0120loc": 385, "C": 386, "\u0120Japanese": 387, "\u0120thousand": 388, "mer": 389, "ified": 390, "wa": 391, "ope": 392, "\u0120Chinese": 393, "\u0120$": 394, "ound": 395, "\u0120value": 396, "rine": 397, "ki": 398, "\u0120standard": 399, "\u0120age": 400, "\u0120too": 401, "\u012d": 402, "\u0120Africa": 403, "\u0120industr": 404, "\u0120Geo": 405, "\u0120care": 406, "\u0120countries": 407, "\u0120exp": 408, "now": 409, "R": 410, "uc": 411, "\u0120evidence": 412, "\u0120cho": 413, "\u0120David": 414, "\u0120Mi": 415, "con": 416, "\u0120Pe": 417, "ook": 418, "\u0120observ": 419, "\u0120monitor": 420, "ield": 421, "\u0120our": 422, "\u0120change": 423, "\u0120J": 424, "\u0120children": 425, "\u0120rep": 426, "\u0120higher": 427, "ance": 428, "\u0120ref": 429, "\u0120extreme": 430, "\u0120being": 431, "ms": 432, "q": 433, "\u0120add": 434, "rn": 435, "\u00b9": 436, "\u0120happen": 437, "\u0120ha": 438, "ke": 439, "9": 440, "\u0120changes": 441, "\u0120through": 442, "\u0120year": 443, "\u00a8": 444, "\u0120evalu": 445, "\u0120best": 446, "ney": 447, "\u0120su": 448, "\u0120Ne": 449, "\u0120Ad": 450, "\u0120become": 451, "\u0120Science": 452, "\u0120often": 453, "\u0120demand": 454, "mes": 455, "rth": 456, "\u0141": 457, "\u0120economic": 458, "av": 459, "\u0120safe": 460, "E": 461, "\u0120relationship": 462, "der": 463, "L": 464, "\u0120strong": 465, "\u0120degree": 466, "\u0120scientists": 467, "\u0120and": 468, "K": 469, "\u0120average": 470, "tern": 471, "\u0120since": 472, "ric": 473, "\u0120September": 474, "\u0120William": 475, "\u0120special": 476, "\u01206": 477, "ary": 478, "\u0120g": 479, "\u00c7": 480, "\u0120ex": 481, "\u012016": 482, "\u0120pr": 483, "ob": 484, "\u0120Ro": 485, "\u0120cont": 486, "\u0120long": 487, "\u012f": 488, "\u0120typical": 489, "ie": 490, "ber": 491, "\u0120out": 492, "li": 493, "ments": 494, "\u0120get": 495, "bi": 496, "ag": 497, "\u0120course": 498, "\u0120with": 499, "ck": 500, "\u0120about": 501, "\u0120System": 502, "\u0120L": 503, "eep": 504, "ym": 505, "\u0120Gre": 506, "(": 507, "\u0120Li": 508, "\u0120Ea": 509, "und": 510, "c": 511, "vel": 512, "\u0120part": 513, "ip": 514, "\u0120focus": 515, "id": 516, "\u0120as": 517, "\u0120into": 518, "\u0120head": 519, "\u0120mi": 520, "\u0120patients": 521, "\u0120no": 522, "\u0120It": 523, "lar": 524, "\u0120law": 525, "\u01207": 526, "\u0120act": 527, "\u0120National": 528, "ism": 529, "\u0120essential": 530, "16": 531, "em": 532, "\u0120Par": 533, "\u0120these": 534, "\u0120short": 535, "oo": 536, "ite": 537, "ops": 538, "\u0120situation": 539, "nce": 540, "\u00e0": 541, "\u0120Am": 542, "at": 543, "\u0120first": 544, "\u0120south": 545, "\u0120discuss": 546, "ort": 547, "j": 548, "\u0120learning": 549, "\u0120ar": 550, "gh": 551, "\u0120feel": 552, "\u00c5": 553, "\u0120only": 554, "m": 555, "sts": 556, "\u0120own": 557, "\u0120Virginia": 558, "\u00a7": 559, "\u00d9": 560, "\u00a6": 561, "de": 562, "uring": 563, "\u0120day": 564, "\u0120due": 565, "\u0120people": 566, "He": 567, "ors": 568, "ec": 569, "one": 570, "\u00e2\u0122\u013b": 571, "\u0120campaign": 572, "\u0120start": 573, "\u0120vis": 574, "\u0120hy": 575, "lthough": 576, "pt": 577, "um": 578, "\u0120how": 579, "\u0120civil": 580, "ise": 581, "\u0120students": 582, "\u0120Be": 583, "P": 584, "\u0120later": 585, "\u0120live": 586, "\u0120local": 587, "ion": 588, "ka": 589, "\u0120fish": 590, "\u00ce": 591, "\u0120that": 592, "\u0120future": 593, "\u0120NASA": 594, "\u0120similar": 595, "\u00df": 596, "\u0120had": 597, "18": 598, "\u0120Mar": 599, "7": 600, "\u0120University": 601, "\u0120period": 602, "eed": 603, "\u0120should": 604, "\u0120house": 605, "\u0120tu": 606, "\u0120less": 607, "\u0120include": 608, "or": 609, "\u0120rate": 610, "\u0120N": 611, "pped": 612, "rt": 613, "au": 614, "\u0120machine": 615, "\u0120my": 616, "\u0120ph": 617, "\u0120in": 618, "ed": 619, "To": 620, "cript": 621, "\u0120access": 622, "@": 623, "\u0120for": 624, "\u0120sec": 625, "\u0120separate": 626, "\u00e2\u0122\u0136": 627, "\u0120Sp": 628, "use": 629, "\u0120cl": 630, "\u0120century": 631, "\u0120term": 632, "\u0120cases": 633, "\u00ba": 634, "\u0120reveal": 635, "ical": 636, "sure": 637, "\u0120argu": 638, "dr": 639, "sible": 640, "S": 641, "tin": 642, "\u0120ro": 643, "ave": 644, "ling": 645, "ues": 646, "ograph": 647, "12": 648, "\u0120Man": 649, "\u0120available": 650, "\u0120http": 651, "\u0120met": 652, "tor": 653, "\u0120home": 654, "\u013a": 655, "\u0120human": 656, "\u0120target": 657, "\u0120lead": 658, "ent": 659, "\u0120197": 660, "\u0120every": 661, "\u0120Israel": 662, "ative": 663, "vo": 664, "'t": 665, "oy": 666, "0": 667, "w": 668, "\u0120exist": 669, "ide": 670, "\u0120se": 671, "\u0120report": 672, "ls": 673, "per": 674, "ten": 675, "\u0120least": 676, "\u0120third": 677, "\u0120el": 678, "\u0120attempt": 679, "\u0120previous": 680, "\u0120sw": 681, "\u0120Co": 682, "art": 683, "\u0120key": 684, "\u0120This": 685, "\u0120after": 686, "all": 687, "\u0120194": 688, "\u0120lo": 689, "own": 690, "\u0120upon": 691, "ft": 692, "\u0120believe": 693, "\u0132": 694, "\u0120is": 695, "ga": 696, "\u0120researchers": 697, "\u0120Sh": 698, "\u0120Con": 699, "\u0120engine": 700, "\u0120ca": 701, "tal": 702, "est": 703, "\u0120common": 704, "\u0120h": 705, "igh": 706, "\u0120ki": 707, "\u012017": 708, "\u0120variety": 709, "\u0120necessary": 710, "ident": 711, "lin": 712, "\u0120implement": 713, "\u00cd": 714, "\u0120left": 715, "\u0120which": 716, "\u0120then": 717, "\u0120research": 718, "\u0120days": 719, "\u0120G": 720, "\u0120women": 721, "\u0120risk": 722, "\u0120One": 723, "\u0120any": 724, "\u0120same": 725, "ever": 726, "ep": 727, "\u0120hi": 728, "30": 729, "\u0120op": 730, "\u0120along": 731, "\u0120times": 732, "\u0120region": 733, "\u0120photo": 734, "ster": 735, "sk": 736, "\u0124": 737, "\u0120sa": 738, "\u0120Y": 739, "\u0120te": 740, "\u0120German": 741, "\u0120cur": 742, "\u0120your": 743, "\u0120diagnos": 744, "ets": 745, "\u012015": 746, "\u0120pla": 747, "\u0120became": 748, "\u0120important": 749, "\u0120Massachusetts": 750, "ner": 751, "\u0120meet": 752, "\u0120John": 753, "ab": 754, "do": 755, "ew": 756, "yp": 757, "ai": 758, "\u0120protein": 759, "\u0120away": 760, "\u00dc": 761, "\u0120Pr": 762, "\u0120I": 763, "\u00a2": 764, "t": 765, "\u0120last": 766, "eat": 767, "Th": 768, "ater": 769, "da": 770, "ic": 771, "er": 772, "\u00ac": 773, "\u0120study": 774, "\u0120December": 775, "?": 776, "\u0120effect": 777, "\u0120way": 778, "\u0120society": 779, "ll": 780, "\u0120form": 781, "ree": 782, "se": 783, "\u0120full": 784, "\u0120help": 785, "\u0120several": 786, "ength": 787, "\u00be": 788, "bles": 789, "x": 790, "\u0120Da": 791, "&": 792, "\u0120general": 793, "\u0120seen": 794, "\u0120wr": 795, "\u0120also": 796, "\u0120order": 797, "\u0120A": 798, "hi": 799, "p": 800, "el": 801, "\u00a3": 802, "\u0120November": 803, "\u0120nu": 804, "\u0120kil": 805, "\u0120pressure": 806, "\u0120word": 807, "\u0120manufactur": 808, "\u0120indic": 809, "\u0120M": 810, "\u0120did": 811, "\u0120behavior": 812, "\u0120cha": 813, "ir": 814, "\u0120pe": 815, "\u0120experiment": 816, "le": 817, "\u0120Health": 818, "\u0120fr": 819, "\u0120or": 820, "\u0120much": 821, "\u0120k": 822, "\u0120If": 823, "ty": 824, "dic": 825, "ur": 826, "\u0120cost": 827, "\u0120Institute": 828, "\u0120video": 829, "\u0120symptoms": 830, "\u0120release": 831, "\u0120follow": 832, "\u0120individual": 833, "\u0120emp": 834, "\u0120dri": 835, "\u0120case": 836, "\u0120subject": 837, "\u0120material": 838, "\u0120list": 839, "\u0120problem": 840, "ultural": 841, "y": 842, "\u0120great": 843, "ated": 844, "ger": 845, "\u0120near": 846, "\u0120other": 847, "ba": 848, "\u0120piece": 849, "\u0120current": 850, "\u0120effects": 851, "ky": 852, "\u0120together": 853, "\u0120Dis": 854, "ient": 855, "\u0120say": 856, "\u0120gr": 857, "ined": 858, "\u00cb": 859, "\u00c8": 860, "\u0120science": 861, "\u0120found": 862, "\u0120Fa": 863, "\u0120And": 864, "\u0120they": 865, "50": 866, "\u0120state": 867, "\u0120time": 868, "\u0120State": 869, "\u0120climate": 870, "sto": 871, "\u0120show": 872, "ter": 873, "ore": 874, "\\": 875, "\u00bd": 876, "Z": 877, "\u0120Service": 878, "\u0120why": 879, "\u0120levels": 880, "\u0120medic": 881, "\u013b": 882, "'s": 883, "\u0134": 884, "\u0120non": 885, "\u012e": 886, "fer": 887, "ut": 888, "\u0120Ho": 889, "\u00c9": 890, "\u0120policy": 891, "g": 892, "\u0120approximately": 893, "cc": 894, "ade": 895, "ough": 896, "\u0120achieve": 897, "\u0120black": 898, "ns": 899, "\u0120K": 900, "\u0120pre": 901, "\u0120ma": 902, "\u0120all": 903, "go": 904, "pes": 905, "\u0120was": 906, "\u0120cells": 907, "\u0120design": 908, "G": 909, "ush": 910, "\u00b1": 911, "ark": 912, "\u0120employ": 913, "\u0120ur": 914, "\u0120vo": 915, "\u00ed": 916, "\u0120answer": 917, "ics": 918, "2": 919, "\u0120lea": 920, "sis": 921, "ment": 922, "\u0120next": 923, "\u0120produce": 924, "\u0120Mo": 925, "\u0120hours": 926, "ked": 927, "ring": 928, "lf": 929, "\u0120who": 930, "\u0120fra": 931, "ang": 932, "\u0120Christ": 933, "ci": 934, "ign": 935, "\u0120concentr": 936, "\u00d0": 937, "St": 938, "\u0120mod": 939, "20": 940, "\u0120sho": 941, "ow": 942, "ct": 943, "ch": 944, "\u0120Environment": 945, "ind": 946, "\u0120us": 947, "\u0120second": 948, "\u00bc": 949, "\u00ca": 950, "\u0120t": 951, "\u0120bro": 952, "\u0120r": 953, "ids": 954, "view": 955, "\u0120just": 956, "act": 957, "\u0120red": 958, "mo": 959, "ating": 960, "ital": 961, "\u0120political": 962, "qua": 963, "\u0136": 964, "\u0120F": 965, "ies": 966, "tle": 967, "\u0120there": 968, "\u0120from": 969, "rds": 970, "\u0120themselves": 971, "\u0120HIV": 972, "\u0120computer": 973, "\u0120plant": 974, "X": 975, "\u0128": 976, "\u0120International": 977, "\u0120by": 978, "\u0120very": 979, "\u0135": 980, "\u0120having": 981, "\u00a9": 982, "\u0120amount": 983, "H": 984, "ps": 985, "\u0120cons": 986, "tion": 987, "\u0120require": 988, "\u00d3": 989, "\u0120military": 990, "14": 991, "\u0120d": 992, "\u0120bacteria": 993, "imate": 994, ",": 995, "\u0120give": 996, "ize": 997, "\u0120version": 998, "000": 999, "tch": 1000, "\u0120ISBN": 1001, "\u0120Australia": 1002, "son": 1003, "\u00d7": 1004, "bility": 1005, "\u0120occur": 1006, "1": 1007, "\u0120opportun": 1008, "ne": 1009, "ses": 1010, "ual": 1011, "\u00b4": 1012, "tro": 1013, "\u0120R": 1014, "\u0120earlier": 1015, "rofessor": 1016, "\u0143": 1017, "\u0120ste": 1018, "\u0120conf": 1019, "\u0120On": 1020, "u": 1021, "as": 1022, "inal": 1023, "\u0120object": 1024, "\u0120E": 1025, "\u0120allow": 1026, "\u0120technology": 1027, "\u0120many": 1028, "\u0120use": 1029, "\u0120port": 1030, "\u0120fu": 1031, "\u0120knowledge": 1032, "za": 1033, "\u00bb": 1034, "\u0120neighbo": 1035, "D": 1036, "If": 1037, "\u00a5": 1038, "\u0120col": 1039, "\u0120dev": 1040, "lling": 1041, "\u0120systems": 1042, "es": 1043, "ings": 1044, "ear": 1045, "13": 1046, "ically": 1047, "\u0120primary": 1048, "%": 1049, "\u0120might": 1050, "\u00cf": 1051, "\u0120hand": 1052, "nu": 1053, "lt": 1054, "ub": 1055, "\u0120view": 1056, "\u0120most": 1057, "d": 1058, "\u0120viol": 1059, "ak": 1060, "val": 1061, "\u00eb": 1062, "\u0120light": 1063, "\u0120bas": 1064, "\u0120alcohol": 1065, "\u0120H": 1066, "om": 1067, "\u0120each": 1068, "\u0120challenge": 1069, "Because": 1070, "\u0120Na": 1071, "\u0120better": 1072, "like": 1073, "ich": 1074, "ration": 1075, "\u013c": 1076, "\u0120British": 1077, "\u00da": 1078, "ful": 1079, "\u0120flu": 1080, "\u0120def": 1081, "\u0120m": 1082, "\u0120particular": 1083, "`": 1084, "\u0120clear": 1085, "\u0120invest": 1086, "\u0120know": 1087, "\u0120studies": 1088, "k": 1089, "\u0120Dr": 1090, "ah": 1091, "pp": 1092, "\u0120cri": 1093, "\u0140": 1094, "\u0120cr": 1095, "\u0120find": 1096, "ness": 1097, "ding": 1098, "\u0120behind": 1099, "\u0125": 1100, "rm": 1101, "\u0120In": 1102, "gu": 1103, "sh": 1104, "\u0139": 1105, "\u0120Pennsylvania": 1106, "\u0120London": 1107, "\u0120[": 1108, "\u0120cent": 1109, "#": 1110, "\u0120drug": 1111, "ency": 1112, "\u0120develop": 1113, "\u0120ve": 1114, "tribut": 1115, "\u0120men": 1116, "\u0120used": 1117, "\u0120taken": 1118, "\u0120Jesus": 1119, ").": 1120, "\u013f": 1121, "\u0120commercial": 1122, "\u0120conditions": 1123, "\u0120reflect": 1124, "nn": 1125, "ther": 1126, "\u0120El": 1127, "ac": 1128, "mb": 1129, "\u0120Some": 1130, "ple": 1131, "\u0120will": 1132, "}": 1133, "\u0120flo": 1134, "ping": 1135, "\u0120Ma": 1136, "\u0120suff": 1137, "\u0120va": 1138, "\u0120example": 1139, "\u0120exten": 1140, "\u0120financial": 1141, "\u0120rights": 1142, "\u0120continu": 1143, "\u0120196": 1144, "\u0120grow": 1145, "\u01205": 1146, "\u0120popular": 1147, "\u0120above": 1148, "\u00b3": 1149, "ife": 1150, "So": 1151, "nk": 1152, "\u0120Hu": 1153, "\u0120Europe": 1154, "ming": 1155, "ib": 1156, "ry": 1157, "ron": 1158, "\u0120others": 1159, "aring": 1160, "19": 1161, "\u0120Ra": 1162, "og": 1163, "\u0120specific": 1164, "wn": 1165, "\u0120leg": 1166, "lege": 1167, "ia": 1168, "\u0120than": 1169, "\u0120those": 1170, "\u0120eas": 1171, "int": 1172, "\u0120wo": 1173, "://": 1174, "posed": 1175, "\u0120present": 1176, "on": 1177, "\u00e6": 1178, "ph": 1179, "\u0120j": 1180, "\u01203": 1181, "\u0120re": 1182, "In": 1183, "\u0120would": 1184, "\u0120must": 1185, "sed": 1186, "\u0120service": 1187, "\u0120even": 1188, "\u0120potential": 1189, "\u00e9": 1190, "ze": 1191, "ape": 1192, "\u0120So": 1193, "\u0120see": 1194, "i": 1195, "\u0120man": 1196, "ol": 1197, "lled": 1198, "\u0120him": 1199, "\u0120Ta": 1200, "\u0120United": 1201, "thing": 1202, "verse": 1203, "\u0120quickly": 1204, "\u0120like": 1205, "Ch": 1206, "fi": 1207, "\u0120go": 1208, "lan": 1209, "\u0120post": 1210, "\u0120it": 1211, "\u0120developed": 1212, "\u00f3": 1213, "\u0120occup": 1214, "\u0120heart": 1215, "\u0120size": 1216, "\u0120Z": 1217, "\u0120recogn": 1218, "ire": 1219, "mission": 1220, "\u0120res": 1221, "\u0120philosoph": 1222, "rch": 1223, "\u0120probably": 1224, "\u0120done": 1225, "\u0120during": 1226, "\u0120simple": 1227, "ta": 1228, "\u0120198": 1229, "\u0120An": 1230, "ers": 1231, "tain": 1232, "\u0120can": 1233, "\u0138": 1234, "ded": 1235, "\u0120brain": 1236, "\u0120over": 1237, "\u0120be": 1238, "stic": 1239, "\u0120analy": 1240, "\u0120needs": 1241, "\u0120million": 1242, "\u0120lower": 1243, "5": 1244, "\u0120ent": 1245, "\u0120S": 1246, "What": 1247, "\u012012": 1248, "\u0120encourage": 1249, "\u0120me": 1250, "\u0120new": 1251, "craft": 1252, "\u0120late": 1253, "\u0120based": 1254, "\u0120Pro": 1255, "\u012030": 1256, "\u0120class": 1257, "\u0120difference": 1258, "\u0120origin": 1259, "ning": 1260, "\u0120does": 1261, "\u0120set": 1262, "ing": 1263, "un": 1264, "bl": 1265, "\u0120white": 1266, "\u0120because": 1267, "lls": 1268, "15": 1269, "\u0120th": 1270, "\u0120environment": 1271, "ving": 1272, "\u0120la": 1273, "ny": 1274, "\u0120clo": 1275, "\u0120main": 1276, "\u013d": 1277, "the": 1278, "e": 1279, "here": 1280, "port": 1281, "\u0120Gr": 1282, "\u0120do": 1283, "\u0120French": 1284, "\u0120student": 1285, "B": 1286, "\u0120product": 1287, "\u0120sp": 1288, "ather": 1289, "\u0120evalua": 1290, "4": 1291, "rk": 1292, "ives": 1293, "\u0120on": 1294, "\u0120February": 1295, "\u0131": 1296, "\u0120Me": 1297, "\u0120represent": 1298, "\u0120.": 1299, "\u0120tw": 1300, "ray": 1301, "me": 1302, "ell": 1303, "\u0120am": 1304, "my": 1305, "sing": 1306, "\u012013": 1307, "\u0120sl": 1308, "\u0120species": 1309, "\u0120keep": 1310, "\u0120Russia": 1311, "A": 1312, "\u0120There": 1313, "uth": 1314, "--": 1315, "\u0120de": 1316, "ma": 1317, "cu": 1318, "lo": 1319, "M": 1320, "\u0120assess": 1321, "\u0120development": 1322, "land": 1323, "\u0120close": 1324, "\u0120areas": 1325, "\u0120think": 1326, "\u0120approach": 1327, "ue": 1328, "\u0120field": 1329, "\u0120federal": 1330, "su": 1331, "\u0120Ex": 1332, "rs": 1333, "\u0120Al": 1334, "\u0120vehicle": 1335, "uch": 1336, "\u0120sens": 1337, "\u0120language": 1338, "ok": 1339, "\u0120when": 1340, "\u0120Canad": 1341, "ng": 1342, "ages": 1343, "\u0120sample": 1344, "lk": 1345, "\u01200": 1346, "\u0120Fi": 1347, "\u0120especially": 1348, "\u0120function": 1349, "ar": 1350, "\u0120damage": 1351, "\u0120ab": 1352, "ged": 1353, "\u0120application": 1354, "\u0120visit": 1355, "\u0120reduce": 1356, "\u0120text": 1357, "\u0120still": 1358, "ld": 1359, "\u0120adv": 1360, "\u00d2": 1361, "acy": 1362, "\u0120La": 1363, "\u0120complex": 1364, "\u0120pattern": 1365, "\u0129": 1366, "\u0120bur": 1367, "\u0120another": 1368, "ust": 1369, "\u0120cancer": 1370, "\u0120create": 1371, "\u0120if": 1372, "\u0120V": 1373, "\u0120benefit": 1374, "\u0120Society": 1375, "\u0120mag": 1376, "\u0120cor": 1377, "\u0120structure": 1378, "\u00e3": 1379, "ory": 1380, "up": 1381, "\u0120pi": 1382, "\u0120Le": 1383, "\u010a": 1384, "\u0120week": 1385, "\u0120brea": 1386, "\u00e2\u0122\u0135": 1387, "\u0120among": 1388, "\u0120fact": 1389, "ability": 1390, "\u0120war": 1391, "o": 1392, "\u0120world": 1393, "\u0120possible": 1394, "\u01204": 1395, "mm": 1396, "\u0120squ": 1397, "\u00b0": 1398, "\u0120able": 1399, "\u0120War": 1400, "\u0120Association": 1401, "\u0120sometimes": 1402, "\u0120respon": 1403, "\u0120occasion": 1404, "\u0120English": 1405, "||": 1406, "\u0120Se": 1407, "\u0120states": 1408, "ions": 1409, "cept": 1410, "\u0120education": 1411, "\u0120De": 1412, "ks": 1413, "\u0122": 1414, "\u0120sta": 1415, "\u0120working": 1416, "\u0120sign": 1417, "\u0120US": 1418, "\u0120ind": 1419, "\u0120Qu": 1420, "\u0120recogni": 1421, "pr": 1422, "\u0120began": 1423, "\u0120mo": 1424, "\u0120fa": 1425, "\u0120fall": 1426, "\u0120ass": 1427, "hy": 1428, "\u0120area": 1429, "\u0120body": 1430, "\u0120tradition": 1431, "ose": 1432, "\u0120Ca": 1433, ".\"": 1434, "\u0120gen": 1435, "cr": 1436, "\u0120city": 1437, "ean": 1438, "\u0120program": 1439, "\u0120says": 1440, "wi": 1441, "\u0120paper": 1442, "\u00db": 1443, "ought": 1444, "\u0120discover": 1445, "\u0120Is": 1446, "\u0120character": 1447, "\u0120history": 1448, "\u0120we": 1449, "\u0120Vi": 1450, "\u00ef": 1451, "out": 1452, "\u0120adult": 1453, "s": 1454, "\u0120open": 1455, "ven": 1456, "\u0120C": 1457, "\u0120establish": 1458, "^": 1459, "ri": 1460, "\u0120Je": 1461, "\u01209": 1462, "rb": 1463, "ble": 1464, "\u0120claim": 1465, "etic": 1466, "\u0120o": 1467, "\u0120medical": 1468, "\u0120come": 1469, "\u0120gra": 1470, "pe": 1471, "ver": 1472, "\u0120exercise": 1473, "\u0120particip": 1474, "\u00e2\u0122\u013e": 1475, "\u01201": 1476, "\u012020": 1477, "\u0120cannot": 1478, "The": 1479, "\u0120method": 1480, "\u0120Br": 1481, "\u0120comm": 1482, "\u0120First": 1483, "\u0120something": 1484, "\u0120take": 1485, "+": 1486, "\u0120sn": 1487, "wh": 1488, "line": 1489, "\u0120space": 1490, "\u0120Tr": 1491, "ud": 1492, "\u0120October": 1493, "\u0120equ": 1494, "ations": 1495, "f": 1496, "\u0120General": 1497, "\u0120St": 1498, "\u0120ancient": 1499, "\u0120fl": 1500, "\u0120energy": 1501, "\u0120Government": 1502, "\u0142": 1503, "ly": 1504, "ill": 1505, "\u0120estimate": 1506, "\u0120en": 1507, "ra": 1508, "200": 1509, "\u0120are": 1510, "\u0120ed": 1511, "\u0120si": 1512, "\u0120suggest": 1513, "W": 1514, "\u0120sto": 1515, "\u0120Department": 1516, "z": 1517, "\u0120Do": 1518, "\u0120further": 1519, "\u0120appropriate": 1520, "\u0120inf": 1521, "day": 1522, "\u0120under": 1523, "\u0120p": 1524, "la": 1525, "ss": 1526, "\u0120acc": 1527, "les": 1528, "\u0120improve": 1529, "\u0120you": 1530, "\u0120c": 1531, "\u0120immediate": 1532, "\u0120Sc": 1533, "\u0120Jewish": 1534, "),": 1535, "\u0120support": 1536, "F": 1537, "\u0120end": 1538, "\u0120experience": 1539, "vi": 1540, "\u0120level": 1541, "gn": 1542, "\u0120question": 1543, "if": 1544, "\u0120ra": 1545, "l": 1546, "\u0120imp": 1547, "res": 1548, ">": 1549, "\u0120pu": 1550, "\u0120site": 1551, "\u0120explo": 1552, "ts": 1553, "\u0120art": 1554, "que": 1555, "\u0120groups": 1556, "\u0120Si": 1557, "\u0120depend": 1558, "be": 1559, "ex": 1560, "\u0120County": 1561, "\u0120gas": 1562, "\u0120wh": 1563, "\u0120years": 1564, "ward": 1565, "en": 1566, "gi": 1567, "\u0120team": 1568, "lle": 1569, "th": 1570, "\u0120made": 1571, "ight": 1572, "\u0120severe": 1573, "\u0120pain": 1574, "\u0120return": 1575, "\u00e4": 1576, "\u0120cap": 1577, "\u0120As": 1578, "\u00de": 1579, "\u0120ground": 1580, "\u0120account": 1581, "\u0120economy": 1582, "light": 1583, "\u0120this": 1584, "ot": 1585, "io": 1586, "ily": 1587, "\u0120fe": 1588, "\u0120Center": 1589, "\u0120mass": 1590, ";": 1591, "\u0120cell": 1592, "\u0120few": 1593, "\u0120England": 1594, "\u0120bi": 1595, "\u0120understand": 1596, "\u0120population": 1597, "im": 1598, "ul": 1599, "\u00f4": 1600, "\u0120With": 1601, "\u0120animal": 1602, "\u0120receive": 1603, "\u0120position": 1604, "ood": 1605, "ack": 1606, "\u0120network": 1607, "\u0120prevent": 1608, "\u0120far": 1609, "rp": 1610, "nt": 1611, "\u0120ea": 1612, "\u0120con": 1613, "ER": 1614, "\u0120President": 1615, "\u0120Comm": 1616, "\u0120move": 1617, "\u0120before": 1618, "\u0120likely": 1619, "\u0120jo": 1620, "[": 1621, "ru": 1622, "\u0120O": 1623, "\u0120inc": 1624, "\u0120God": 1625, "\u0120Fe": 1626, "\u0120protect": 1627, "\u0120physical": 1628, "\u0120actually": 1629, "nder": 1630, "\u0120tre": 1631, "N": 1632, "\u0120condition": 1633, "ert": 1634, "\u012b": 1635, "ey": 1636, "\u0120temperature": 1637, "\u0120Car": 1638, "\u0120e": 1639, "\u0120blood": 1640, "\u0120however": 1641, "pa": 1642, "O": 1643, "\u0120Retrieved": 1644, "bly": 1645, "age": 1646, "ti": 1647, "zing": 1648, ".": 1649, "\u0120while": 1650, "\u0120simply": 1651, "\u0120May": 1652, "\u00b6": 1653, "\u0120ge": 1654, "\u0120limit": 1655, "\u0120family": 1656, "\u0120199": 1657, "\u0120ver": 1658, "\u0120radi": 1659, "\u0120group": 1660, "\u0120Education": 1661, "ome": 1662, "\u0120high": 1663, "\u0120water": 1664, "du": 1665, "$": 1666, "king": 1667, "\u0120spo": 1668, "\u0120April": 1669, "ology": 1670, "\u0120v": 1671, "ned": 1672, "\u0120play": 1673, "\u0120could": 1674, "\u0120put": 1675, "gs": 1676, "T": 1677, ")": 1678, "<": 1679, "\u0120conduct": 1680, "\u0120school": 1681, "\u0120using": 1682, "\u0120has": 1683, "owing": 1684, "ink": 1685, "mic": 1686, "\u0120today": 1687, "\u0120They": 1688, "dd": 1689, "\u0120cross": 1690, "ach": 1691, "ation": 1692, "\u0120pa": 1693, "\u0120w": 1694, "17": 1695, "ay": 1696, "ik": 1697, "\u0120were": 1698, "red": 1699, "\u00c4": 1700, "\u0120one": 1701, "Y": 1702, "\u0120f": 1703, "10": 1704, "\u0120article": 1705, "\u0120teach": 1706, "\u0120members": 1707, "ice": 1708, "\u0120line": 1709, "\u0120read": 1710, "An": 1711, "ommittee": 1712, "\u0120y": 1713, "\u0120determine": 1714, "of": 1715, "cture": 1716, "\u0120da": 1717, "\u0120their": 1718, "\u0120vol": 1719, "\u0120may": 1720, "work": 1721, "\u0120To": 1722, "\u0120W": 1723, "\u00aa": 1724, "ge": 1725, "\u0120per": 1726, "\u0120place": 1727, "fa": 1728, "and": 1729, "\u0120Ar": 1730, "\u0120system": 1731, "\u0120Wa": 1732, "dge": 1733, "\u0120detail": 1734, "ying": 1735, "\u0120After": 1736, "self": 1737, "\u0120-": 1738, "less": 1739, "\u0120according": 1740, "\u0120remain": 1741, "\u0120issue": 1742, "\u0120fla": 1743, "\u0120he": 1744, "\u0120matter": 1745, "\u0120pol": 1746, "b": 1747, "mi": 1748, "\u0120usually": 1749, "-": 1750, "hr": 1751, "\u0120following": 1752, "\u0120Church": 1753, "\u0120connect": 1754, "ae": 1755, "\u0120&": 1756, "ca": 1757, "\u0120purpose": 1758, "ilities": 1759, "tu": 1760, "\u0120D": 1761, "\u0120qu": 1762, "...": 1763, "hildren": 1764, "\u0120without": 1765, "J": 1766, "Wh": 1767, "\u0120known": 1768, "\u0120micro": 1769, "\u0120old": 1770, "ists": 1771, "\u0120disorder": 1772, "\u0120Ch": 1773, "\u0120princip": 1774, "\u00ae": 1775, "\u00e2\u0122\u00a2": 1776, "\u0120the": 1777, "sp": 1778, "\u0120wi": 1779, "\u0120interpret": 1780, "\u0120idea": 1781, "\u0120des": 1782, "\u0109": 1783, "\u00ee": 1784, "As": 1785, "\u0120electr": 1786, "\u0120California": 1787, "ins": 1788, "\u00b2": 1789, "\u0120Or": 1790, "\u0120front": 1791, "It": 1792, "\u0120point": 1793, "\u0120built": 1794, "\u0120complete": 1795, "po": 1796, "\u0120normal": 1797, "\u0120between": 1798, "\u0120food": 1799, "\u0120Gu": 1800, "ature": 1801, "\u00b7": 1802, "\u0120good": 1803, "\u0120carbon": 1804, "\u0120various": 1805, "\u0120hundred": 1806, "\u00c2": 1807, "pi": 1808, "equ": 1809, "\u0120beyond": 1810, "\u0120attention": 1811, "ha": 1812, "\u0120test": 1813, "\u0120off": 1814, "\u0120figure": 1815, "\u0120international": 1816, "volution": 1817, "\u0120Go": 1818, "\u0120management": 1819, "\u0120l": 1820, "\u0120global": 1821, "\u0120comp": 1822, "\u0120success": 1823, "\u0120treatment": 1824, "\u0120concern": 1825, "\u0120anti": 1826, "\u0120--": 1827, "us": 1828, "\u0120ob": 1829, "\u0120want": 1830, "\u0120now": 1831, "ted": 1832, "az": 1833, "www": 1834, "\u0120initi": 1835, "very": 1836, "\u0120published": 1837, "\u00d1": 1838, "ee": 1839, "\u0120power": 1840, "ef": 1841, "\u0120community": 1842, "V": 1843, "\u0120ju": 1844, "\u012010": 1845, "\u0120dec": 1846, "\u0120works": 1847, "\u0120hu": 1848, "ho": 1849, "\u0120document": 1850, "\u0120plants": 1851, "iddle": 1852, "\u0120national": 1853, "\u0120three": 1854, "man": 1855, "ace": 1856, "\u0120positive": 1857, "\u0120Ag": 1858, "\u0120ag": 1859, "ua": 1860, "den": 1861, "\u0120addition": 1862, "\u0120ru": 1863, "oot": 1864, "\u0120social": 1865, "\u00b8": 1866, "\u0120bri": 1867, "\u0120mechan": 1868, "\u0120attack": 1869, "\u0120need": 1870, "ity": 1871, "wo": 1872, "ad": 1873, "ere": 1874, "\u0120skills": 1875, "\u0120such": 1876, "\u0120exc": 1877, "ians": 1878, "\u0120major": 1879, "\u0120its": 1880, "ve": 1881, "\u0120When": 1882, "able": 1883, "\u0120disease": 1884, "\u0120We": 1885, "\u0120inst": 1886, "\u00b5": 1887, "\u00dd": 1888, "\u0120things": 1889, "\u0120pro": 1890, "\u0120friend": 1891, "lm": 1892, "for": 1893, "\u0120sol": 1894, "\u0120cause": 1895, "\u0120impact": 1896, "\u0120words": 1897, "\u00e2": 1898, "\u0120appear": 1899, "os": 1900, "\u0120ocean": 1901, "\u0120religious": 1902, "\u0120Ja": 1903, "\u0120begin": 1904, "\u0120sm": 1905, "\u0120gu": 1906, "\u0120well": 1907, "\u0120billion": 1908, "\u0120States": 1909, "\u0120s": 1910, "\u0120within": 1911, "\u00e2\u0122\u00a6": 1912, "\u0120capital": 1913, ",\"": 1914, "\u0120sy": 1915, "gg": 1916, "\u0120200": 1917, "\u0120ill": 1918, "\u0120production": 1919, "\u0120source": 1920, "\u0120have": 1921, "\u0120sc": 1922, "gress": 1923, "No": 1924, "\u0120January": 1925, "eg": 1926, "\u00ab": 1927, "br": 1928, "mit": 1929, "ized": 1930, "\u0120control": 1931, "\u0120free": 1932, "uk": 1933, "\u0120Earth": 1934, "\u0120interest": 1935, "\u0120inter": 1936, "\u0120n": 1937, "]": 1938, "\u0120health": 1939, "ous": 1940, "\u0120threat": 1941, "eb": 1942, "\u0123": 1943, "\u013e": 1944, "nes": 1945, "\u0120ta": 1946, "\"": 1947, "\u0120She": 1948, "\u01208": 1949, "\u0120including": 1950, "\u0120an": 1951, "\u0120wa": 1952, "ya": 1953, "sc": 1954, "\u0120custom": 1955, "\u0120Wo": 1956, ",\u00e2\u0122\u013f": 1957, "stern": 1958, "\u00c3": 1959, "\u0120process": 1960, "al": 1961, "ile": 1962, "\u0130": 1963, "\u0120Ju": 1964, "\u0120gi": 1965, "ess": 1966, "re": 1967, "This": 1968, "\u0120project": 1969, "\u0120her": 1970, "\u0120government": 1971, "\u0120di": 1972, "bb": 1973, "ild": 1974, "ression": 1975, "\u0120dis": 1976, "\u0120single": 1977, "\u0120Su": 1978, "ium": 1979, "\u0120enough": 1980, "ction": 1981, "\u0120type": 1982, "he": 1983, "eld": 1984, "I": 1985, "round": 1986, "by": 1987, "\u0120problems": 1988, "\u0120dr": 1989, "cks": 1990, "aw": 1991, "r": 1992, "\u0120record": 1993, "\u0120increase": 1994, "als": 1995, "\u0120ti": 1996, "way": 1997, "te": 1998, "\u00e2\u0122\u013f": 1999, "\u012c": 2000, "\u0120\u00e2\u0122\u0136": 2001, "\u0120ac": 2002, "\u0120data": 2003, "\u0120facilit": 2004, "\u0120results": 2005, "U": 2006, "\u0120Ha": 2007, "\u0120exposure": 2008, "fe": 2009, "\u0120book": 2010, "\u0120un": 2011, "\u0120against": 2012, "dy": 2013, "\u0120business": 2014, "st": 2015, "des": 2016, "\u0120i": 2017, "ization": 2018, "\u0120bu": 2019, "ail": 2020, "\u0120large": 2021, "ro": 2022, "\u00bf": 2023, "3": 2024, "\u0120Th": 2025, "oc": 2026, "\u0120uni": 2027, "\u00a1": 2028, "sy": 2029, "ents": 2030, "\u0120low": 2031, "\u0120toward": 2032, "ds": 2033, "\u0120All": 2034, "ants": 2035, "\u0120life": 2036, "\u0120activities": 2037, "cha": 2038, "\u0120For": 2039, "ried": 2040, "\u0120describe": 2041, "\u0120le": 2042, "ities": 2043, "\u0120pres": 2044, "bs": 2045, "\u0120four": 2046, "\u0120These": 2047}