{"[UNK]": 0, "<|endoftext|>": 1, "med": 2, "mark": 3, "\u0120[": 4, "\u0120solution": 5, "\u0120billion": 6, "\u0120just": 7, "\u0120constitu": 8, "\u0120Cl": 9, "\u0120ideas": 10, "\u0120growth": 11, "\u0120is": 12, "\u0120distance": 13, "ah": 14, "R": 15, "tter": 16, "\u0120started": 17, "\u0120moral": 18, "op": 19, "\u0120Israel": 20, "\u0120tumor": 21, "lling": 22, "N": 23, "\u0120medical": 24, "\u0120drink": 25, "There": 26, "\u0120body": 27, "\u0120citizens": 28, "sa": 29, "\u0120point": 30, "\u0120Li": 31, "he": 32, "\u0120proportion": 33, "\u0120compet": 34, "ass": 35, "\u0120complex": 36, "\u0120determin": 37, "\u0120science": 38, "ax": 39, "sen": 40, "\u0120Be": 41, "\u0120July": 42, "als": 43, "\u0120lost": 44, "\u0120cur": 45, "based": 46, "\u0120production": 47, "\u0120protect": 48, "\u0120week": 49, "\u0120by": 50, "\u0120term": 51, "\u0120room": 52, "\u00c3\u00a9": 53, "\u0120": 54, "ble": 55, "ock": 56, "\u00b0": 57, "\u00d6": 58, "\u0120emphas": 59, "AT": 60, "\u0120educ": 61, "\u0120domin": 62, "\u0120qu": 63, "oy": 64, "\u00dc": 65, "\u0120currently": 66, "\u0120same": 67, "\u0120fully": 68, "ction": 69, "\u0120Tr": 70, "\u0120ri": 71, "20": 72, "\u0120organizations": 73, "\u0120refer": 74, "\u0120services": 75, "\u0120research": 76, "\u0120consume": 77, "\u0120circ": 78, "\u0120original": 79, "\u0120book": 80, "\u0120believe": 81, "\u0120well": 82, "aly": 83, "\u0120temperature": 84, "\u0120John": 85, "ver": 86, "\u0120custom": 87, "\u0120local": 88, "\u0120daughter": 89, "\u0120crystal": 90, "fl": 91, "\u0120fol": 92, "\u0120stage": 93, "\u0120cli": 94, "ments": 95, "\u0120either": 96, "\u0120identify": 97, "34": 98, "10": 99, "ong": 100, "back": 101, "\u0120platform": 102, "f": 103, "\u0120candidate": 104, "\u0120ancient": 105, "\u0120male": 106, "\u0120religion": 107, "\u0120Canada": 108, "\u0120as": 109, "\u0120196": 110, "\u012016": 111, "ability": 112, "und": 113, "tin": 114, "\u0120eating": 115, "\u0120certain": 116, "\u0120text": 117, "\u0120com": 118, "AIDS": 119, "\u0120del": 120, "\u0120W": 121, "\u0120Alzheimer": 122, "\u0120Minnesota": 123, "\u0120Japanese": 124, "here": 125, "lic": 126, "\u0120Sy": 127, "\u0120with": 128, "\u0120Agricultur": 129, "\u0120race": 130, "\u0120piece": 131, "\u0124": 132, "\u0120Washington": 133, "\u0125": 134, "bs": 135, "\u0120coast": 136, "B": 137, "\u0120Sw": 138, "example": 139, "\u0120slave": 140, "\u0120isn": 141, "\u0120official": 142, "\u0120perfect": 143, "\u0120base": 144, "\u0120Ber": 145, "ries": 146, "\u0120sens": 147, "where": 148, "cial": 149, "\u0120upper": 150, "\u0120Robert": 151, "come": 152, "els": 153, "\u0120suggests": 154, "\u0120everyone": 155, "\u0120govern": 156, "ize": 157, "\u0120secure": 158, "ba": 159, "\u0120avoid": 160, "Because": 161, "\u0120Bo": 162, "\u0120hun": 163, "\u0120defe": 164, "\u0120bio": 165, "\u0120initi": 166, ",\u00e2\u0122\u013f": 167, "\u0120Illinois": 168, "\u0120photograph": 169, "\u0120six": 170, "gs": 171, "\u0120...": 172, "\u01202012": 173, "\u0120attention": 174, "\u0120units": 175, "\u0120Law": 176, "os": 177, "\u0120ident": 178, "aging": 179, "\u0120cl": 180, "\u0120straight": 181, "\u01200": 182, "\u0120plan": 183, "\u0120centuries": 184, "\u0120responsibility": 185, "\u0120therefore": 186, "iling": 187, "AR": 188, "\u0134": 189, "ining": 190, "ters": 191, "ser": 192, "33": 193, "ators": 194, "16": 195, "\u0120signal": 196, "ber": 197, "\u0120disorder": 198, "\u0120protein": 199, "\u0120much": 200, "\u0120camp": 201, "\u0120institutions": 202, "\u0120active": 203, "\u0120gold": 204, "\u0120communities": 205, "\u0120forest": 206, "\u0120planet": 207, "\u0120neither": 208, "\u0120radiation": 209, "\u0120man": 210, "\u0120beyond": 211, "\u0120scientists": 212, "\u0120structures": 213, "\u0120growing": 214, "yc": 215, ":": 216, "\u0120acqui": 217, "A": 218, "\u0120Book": 219, "ook": 220, "\u0120et": 221, "\u0120Le": 222, "ext": 223, "\u0120end": 224, "ices": 225, "\u0120Development": 226, "\u0120measures": 227, "ame": 228, "\u0120restrict": 229, "\u0120conduct": 230, "\u0120particles": 231, "po": 232, "\u0120abandon": 233, "sive": 234, "abilities": 235, "\u0120works": 236, "\u0120chief": 237, "\u0120allowed": 238, "\u0120off": 239, "\u0120pilot": 240, "\u0120Can": 241, "\u0120fire": 242, "\u0120Navy": 243, "\u0120sto": 244, "\u0120vehicle": 245, "con": 246, "\u0120Egypt": 247, "\u0126": 248, "k": 249, "\u0120upon": 250, "\u0120dev": 251, "\u0120Ev": 252, "\u0120Res": 253, "\u0120east": 254, "\u0120ourselves": 255, "Please": 256, "\u0120functions": 257, "\u0120input": 258, "ary": 259, "gn": 260, "\u0120orbit": 261, "\u0120New": 262, "\u0120meeting": 263, "\u01202": 264, "\u0120escape": 265, "view": 266, "\u0120intellig": 267, "\u0120administrat": 268, "cl": 269, "ity": 270, "\u0120succeed": 271, "\u0120el": 272, "\u0120opinion": 273, "wards": 274, "including": 275, "\u0120ind": 276, "\u0120Church": 277, "\u0120Health": 278, "\u0120adopt": 279, "\u0120quant": 280, "\u0120Congress": 281, "\u0120Sea": 282, "\u0120cloth": 283, "ff": 284, "\u0120poli": 285, "\u0120analysis": 286, "\u0120Ra": 287, "\u0120&": 288, "\u0120search": 289, "26": 290, "sts": 291, "\u0109": 292, "so": 293, "\u0120or": 294, "\u0120bur": 295, "\u0120still": 296, "\u0120ability": 297, "\u0120southern": 298, "a": 299, "\u0120does": 300, "\u0120East": 301, "\u0120outside": 302, "\u0120:": 303, "aries": 304, "\u0120print": 305, "\u0120Stud": 306, "\u0120without": 307, "\u00c5": 308, "lm": 309, "\u0120regions": 310, "ham": 311, "\u0120K": 312, "\u0120reached": 313, "gic": 314, "ae": 315, "\u0120fields": 316, "tting": 317, "ely": 318, "\u00a8": 319, "\u0120Mc": 320, "\u0120limited": 321, "\u0120then": 322, "\u0120development": 323, "\u0120instead": 324, "\u0120history": 325, "\u0120impact": 326, "ference": 327, "nding": 328, "\u0120Pla": 329, "igh": 330, "An": 331, "\u00ab": 332, "\u00ae": 333, "\u0120deliver": 334, "\u0120freedom": 335, "\u0120val": 336, "\u0120acid": 337, "\u0120cool": 338, "4": 339, "\u012023": 340, "\u0120possible": 341, "sion": 342, "\u0120whose": 343, "\u00e8": 344, "\u0120soil": 345, "\u0120consist": 346, "sing": 347, "All": 348, "\u0120came": 349, "\u0120System": 350, "\u0120industrial": 351, "\u0120deb": 352, "www": 353, "itis": 354, "wo": 355, "ian": 356, "pu": 357, "\u012b": 358, "water": 359, "\u0120his": 360, "\u0120himself": 361, "\u0120behaviour": 362, "duction": 363, "min": 364, "\u00d0": 365, "\u0120equipment": 366, "\u0120President": 367, "\u0120source": 368, "\u0120subject": 369, "ce": 370, "\u0120Ireland": 371, "\u0120foreign": 372, "\u0120earth": 373, "\u0120ancest": 374, "While": 375, "x": 376, "\u0120economic": 377, "ow": 378, "\u0120Use": 379, "\u0120spirit": 380, "pp": 381, "@": 382, "\u0120ones": 383, "\u0120Muslim": 384, "ist": 385, "\u0120month": 386, "\u0120Port": 387, "or": 388, "\u0120Ja": 389, "ec": 390, "ange": 391, "late": 392, "\u0120Ap": 393, "\u0120age": 394, "den": 395, "\u0120attack": 396, "\u0120supply": 397, "\u0120Women": 398, "Pr": 399, "iting": 400, "\u0120her": 401, "\u0120side": 402, "\u0120moved": 403, "\u00aa": 404, "\u0120policy": 405, "\u0120bl": 406, "\u0120construction": 407, "\u0120though": 408, "\u0120walk": 409, "\u0120sense": 410, "\u0120ask": 411, "\u0120Re": 412, "\u0120newspaper": 413, "\u0120winter": 414, "ery": 415, "istic": 416, "\u0120rates": 417, "\u0120older": 418, "\u0120that": 419, "shop": 420, "\u0120solar": 421, "\u0120M": 422, "hy": 423, "arm": 424, "\u0120for": 425, "west": 426, "wide": 427, "\u0120efforts": 428, "\u0120produced": 429, "\u0120rules": 430, "\u00a4": 431, "ind": 432, "\u0120computer": 433, "\u0120diseases": 434, ";": 435, "\u0120power": 436, "\u0120para": 437, "\u0120vol": 438, "\u0120index": 439, "\u0120Other": 440, "\u0120Michael": 441, "American": 442, "\u0120them": 443, "\u0120surpr": 444, "\u0120Med": 445, "\u0120style": 446, "\u0120Ty": 447, "ying": 448, "After": 449, "gov": 450, "\u0120short": 451, "\u0120new": 452, "\u0120damage": 453, "\u0120CO": 454, "\u0120100": 455, "\u0120post": 456, "~": 457, "\u0120pattern": 458, "\u012012": 459, "\u0120got": 460, "\u0120he": 461, "\u0120pl": 462, "\u0120patients": 463, "\u0120priest": 464, "ars": 465, "\u0120(": 466, "\u0120destroy": 467, "\u0120J": 468, "\u0120HIV": 469, "ism": 470, "\u0120Pu": 471, "\u0120wildlife": 472, "alysis": 473, "\u0120appreci": 474, "ee": 475, "\u0120Act": 476, "\u0120behavior": 477, "\u0120Supreme": 478, "\u0120next": 479, "\u0120acknowledg": 480, "\u0120terr": 481, "\u0120Mexican": 482, "\u0120disease": 483, "\u0120Institute": 484, "Ch": 485, "\u0120O": 486, "\u0120Arab": 487, "\u0120High": 488, "\u0120hot": 489, "\u0120whether": 490, "\u0120alter": 491, "\u0120visual": 492, "ical": 493, "\u0120aspects": 494, "ice": 495, "\u0120someone": 496, "\u0120rapid": 497, "\u0120appears": 498, "RO": 499, "ally": 500, "\u0120web": 501, "ards": 502, "\u0120am": 503, "\u0120negative": 504, "mi": 505, "As": 506, "\u0120takes": 507, "\u0120Many": 508, "\u0120calcul": 509, "\u0120allows": 510, "'t": 511, "\u0120Gra": 512, "\u0120consider": 513, "ray": 514, "ump": 515, "://": 516, "\u0120email": 517, "\u0120demonstr": 518, "\u0120red": 519, "tic": 520, "\u0120previous": 521, "\u0120sp": 522, "\u0120During": 523, "\u0120laws": 524, "ren": 525, "fully": 526, "\u0120British": 527, "\u0120US": 528, "\u0120collapse": 529, "\u0120correspond": 530, "\u0120ec": 531, "man": 532, "\u0120vessel": 533, "\u0120complete": 534, "\u012027": 535, "\u0120pa": 536, "\u0120basic": 537, "ders": 538, "\u0120gr": 539, "\u0120Management": 540, "dis": 541, "\u0120carbon": 542, "su": 543, "\u0120wr": 544, "\u0120led": 545, "\u0120suffer": 546, "ph": 547, "\u0139": 548, "\u0120York": 549, "O": 550, "on": 551, "\u0120With": 552, "ep": 553, "sions": 554, "\u0120buildings": 555, "\u0120poison": 556, "\u0120shown": 557, "cc": 558, "\u0120generally": 559, "),": 560, "\u0120deep": 561, "\u0120expan": 562, "\u0120efficient": 563, "\u0120fla": 564, "\u0120areas": 565, "\u0120resource": 566, "\u0120completely": 567, "\u0120south": 568, "\u0120success": 569, "\u0120improve": 570, "pr": 571, "\u0120affect": 572, "\u00e2\u0122\u00a2": 573, "--": 574, "ade": 575, "\u0120cut": 576, "\u0120board": 577, "\u0120Texas": 578, "ports": 579, "\u0120sudden": 580, "ather": 581, "\u0120nature": 582, "\u0120eventually": 583, "\u0120When": 584, "\u0120Research": 585, "\u0120under": 586, "ka": 587, "ness": 588, "\u0120file": 589, "\u0120longer": 590, "\u00e2\u0122\u013b": 591, "right": 592, "\u0120known": 593, "\u0120fine": 594, "\u0120ba": 595, "\u0120sin": 596, "\u0120Nor": 597, "\u0120France": 598, "'s": 599, "tra": 600, "\u0120fall": 601, "\u0120put": 602, "mit": 603, "atives": 604, "\u0120Up": 605, "\u0120Office": 606, "ll": 607, "\u0120These": 608, "\u0120at": 609, "\u01204": 610, "\u0120ma": 611, "lla": 612, "as": 613, "24": 614, "\u0120exc": 615, "\u0120plants": 616, "\u0120eth": 617, "\u0120make": 618, "\u0120Com": 619, "ped": 620, "\u0120Is": 621, "\u0120built": 622, "\u0120de": 623, "\u0120main": 624, "li": 625, "\u0120presence": 626, "\u0120Chinese": 627, "\u0120almost": 628, "\u0120ver": 629, "\u0120ran": 630, "Chapter": 631, "\u0120even": 632, "sp": 633, "\u0120mother": 634, "\u0120Ju": 635, "\u0120formula": 636, "\u0120future": 637, "\u0120young": 638, "\u0120Op": 639, "gu": 640, "cking": 641, "\u0120kn": 642, "the": 643, "ale": 644, "nder": 645, "\u0120influen": 646, "\u0120Library": 647, "\u0120developed": 648, "\u0120common": 649, "\u0120philosoph": 650, "\u0120findings": 651, "mm": 652, "\u0120material": 653, "\u0120occurs": 654, "\u0120James": 655, "\u0120company": 656, "\u0120Sch": 657, "\u0120interpret": 658, "\u0120pr": 659, "\u0120times": 660, "Q": 661, "ured": 662, "\u0120stories": 663, "ur": 664, "\u0120ban": 665, "\u0120dec": 666, "\u0120birds": 667, "ically": 668, "\u0120factors": 669, "oid": 670, "\u0120spi": 671, "\u0120talk": 672, "\u0120passed": 673, "rk": 674, "\u00f3": 675, "\u0120lot": 676, "\u00c4\u0123": 677, "\u0120surviv": 678, "\u00b7": 679, "\u0120frequently": 680, "\u0120student": 681, "\u0120happy": 682, "field": 683, "ed": 684, "\u00da": 685, "\u0120thinking": 686, "\u0120ca": 687, "\u0120images": 688, "\u0120near": 689, "\u0120management": 690, "14": 691, "\u0120meet": 692, "\u0120lu": 693, "\u0120prof": 694, "\u0120mar": 695, "kes": 696, "\u0120journal": 697, "\u0120despite": 698, "\u0120States": 699, "\u0120leaders": 700, "\u0120lower": 701, "\u0120balance": 702, "\u0120pregnancy": 703, "\u0120Inter": 704, "\u0120sun": 705, "\u0120hazard": 706, "\u0120cru": 707, "ttle": 708, "_": 709, "\u0120po": 710, "\u0120Natural": 711, "\u0120were": 712, "\u0120b": 713, "\u0120familiar": 714, "\u0120host": 715, "are": 716, "ises": 717, "\u0120Carolina": 718, "ace": 719, "\u0120chronic": 720, "\u0120organization": 721, "ti": 722, "\u00a9": 723, "\u0120developing": 724, "\u0120studied": 725, "\u0120At": 726, "\u0120has": 727, "ime": 728, "\u0120Chi": 729, "80": 730, "\u0120until": 731, "\u0120move": 732, "nal": 733, "\u0120protection": 734, "ack": 735, "\u0120des": 736, "\u0120clo": 737, "\u0120practice": 738, "\u0120Of": 739, "\u0120attempt": 740, "ov": 741, "\u0120while": 742, "\u0120inv": 743, "\u0120examples": 744, "ages": 745, "ca": 746, "\u0120artificial": 747, "\u0120Ab": 748, "\u0120Bi": 749, "low": 750, "\u0120King": 751, "\u0120Windows": 752, "\u0120Canadian": 753, "\u0120cultural": 754, "\u0120con": 755, "\u0120program": 756, "\u0120false": 757, "\"": 758, "\u0120former": 759, "\u0120uses": 760, "wa": 761, "\u0120accompan": 762, "\u0120ag": 763, "\u0120clinical": 764, "\u0120from": 765, "\u0120tend": 766, "\u0120going": 767, "\u0120green": 768, "\u0120River": 769, "\u0120Mississippi": 770, "\u0120regard": 771, "ue": 772, "oms": 773, "AM": 774, "h": 775, "ology": 776, "\u0120central": 777, "\u0120Commun": 778, "\u0120Elizabeth": 779, "\u0120frame": 780, "\u0120.": 781, "\u0120World": 782, "\u0120Program": 783, "set": 784, "\u0120nuclear": 785, "\u0120Mi": 786, "\u00a1": 787, "\u0120leading": 788, "\u0120See": 789, "\u0120p": 790, "\u0120discovered": 791, "\u0120Jerusalem": 792, "\u0120garden": 793, "\u0120Jo": 794, "\u0120Great": 795, "\u0120\u00e2\u0122\u0136": 796, "\u0120immediate": 797, "\u0120Missouri": 798, "\u0120nor": 799, "\u0120m": 800, "sis": 801, "ob": 802, "\u0120reduced": 803, "\u0120companies": 804, "\u0120years": 805, "\u0120st": 806, "\u0120greater": 807, "\u0120liquid": 808, "ise": 809, "sign": 810, "rrow": 811, "ment": 812, "30": 813, "\u0120gas": 814, "\u0120Civil": 815, "ya": 816, "\u0120techniques": 817, "ild": 818, "\u0120processes": 819, "\u012017": 820, "\u0120Island": 821, "ivity": 822, "\u0120inside": 823, "\u0120command": 824, "\u0120cover": 825, "\u0120technical": 826, "b": 827, "\u0120reflect": 828, "\u0120capt": 829, "\u0120experience": 830, "\u0120cold": 831, "\u0120App": 832, "\u0120Oxford": 833, "\u0120pan": 834, "\u0120Indian": 835, "\u0120two": 836, "Research": 837, "\u0120x": 838, "pro": 839, "\u0120comb": 840, "In": 841, "\u0120vari": 842, "\u0120copy": 843, "\u0120Testament": 844, "\u0120approximately": 845, "39": 846, "ch": 847, "ken": 848, "\u01207": 849, "see": 850, "and": 851, "\u0120toward": 852, "eat": 853, "ations": 854, "\u0120enjoy": 855, "\u0120adv": 856, "inary": 857, "\u0120Al": 858, "\u0120neighbor": 859, "\u0120year": 860, "\u0120October": 861, "\u0120cha": 862, "\u0120becoming": 863, "Cl": 864, "ci": 865, "'ve": 866, "\u0120budget": 867, "\u0120other": 868, "ther": 869, "\u0120Fo": 870, "\u0120Paul": 871, "\u0120paper": 872, "\u0120write": 873, "road": 874, "\u0120charge": 875, "\u0120se": 876, "\u0120cy": 877, "mon": 878, "\u0120length": 879, "ik": 880, "\u012040": 881, "\u0120absolute": 882, "\u0120prior": 883, "\u0120ecosystem": 884, "\u0120Poli": 885, "\u0120culture": 886, "\u0120some": 887, "ute": 888, "\u0120foods": 889, "\u0120often": 890, "head": 891, "ator": 892, "\u0120approach": 893, "res": 894, "\u0120emerg": 895, "\u0120bro": 896, "\u0120bo": 897, "\u0120whole": 898, "osis": 899, "\u0120pul": 900, "\u0120choice": 901, "\u0120test": 902, "\u0120iso": 903, "ky": 904, "\u0120senior": 905, "\u0120primary": 906, "ford": 907, "house": 908, "\u00d9": 909, "\u0120leave": 910, "\u0120date": 911, "ues": 912, "\u0120k": 913, "\u0120never": 914, "\u0120gen": 915, "+": 916, "\u0120published": 917, "\u0120something": 918, "\u0120case": 919, "\u0120tree": 920, "\u0120think": 921, "\u0120girls": 922, "\u0120soldiers": 923, "ees": 924, "one": 925, "very": 926, "av": 927, "\u0120eat": 928, "ha": 929, "ions": 930, "\u0120g": 931, "\u0120game": 932, "pt": 933, "\u0120teeth": 934, "\u0120sal": 935, "\u0120agricultural": 936, "\u0120attach": 937, "\u013a": 938, "ON": 939, "\u0120becomes": 940, "ulation": 941, "\u0120writing": 942, "\u0120harm": 943, "\u0120issues": 944, "\u0120saw": 945, "\u0120authority": 946, "\u0120cat": 947, "\u0120incorpor": 948, "\u0120recently": 949, "\u0120nu": 950, "\u0120programs": 951, "\u0120safe": 952, "\u0120UN": 953, "U": 954, "\u0120iron": 955, "sk": 956, "Al": 957, "yer": 958, "itch": 959, "\u00bc": 960, "\u0120exam": 961, "31": 962, "\u0120the": 963, "\u0120announce": 964, "ered": 965, "\u0120close": 966, "\u0120c": 967, "\u0120sca": 968, "\u0120accept": 969, "\u0120so": 970, "\u0120That": 971, "\u0120antibiotic": 972, "\u0120church": 973, "\u0120beautiful": 974, "\u0120On": 975, "\u0120muscle": 976, "ant": 977, "yr": 978, "ves": 979, "\u0120Pennsylvania": 980, "\u0120According": 981, "AN": 982, "\u0120need": 983, "\u0120being": 984, "east": 985, "m": 986, "NA": 987, "ight": 988, "cent": 989, "\u0120tradition": 990, "dd": 991, "\u0120Econom": 992, "\u0120\u00e2\u0122\u0135": 993, "\u0120na": 994, "27": 995, "\u0120reveal": 996, "my": 997, "\u0120view": 998, "yo": 999, "ief": 1000, "rish": 1001, "se": 1002, "pped": 1003, "\u00c6": 1004, "\u0120wrote": 1005, "\u0120blue": 1006, "ips": 1007, ">": 1008, "\u0120individuals": 1009, "ted": 1010, "From": 1011, "qu": 1012, "\u0120ev": 1013, "ho": 1014, "\u0120cost": 1015, "\u0120data": 1016, "\u01209": 1017, "\u0120peace": 1018, "\u0120another": 1019, "Ba": 1020, "\u0120skills": 1021, "\u012028": 1022, "\u0120an": 1023, "DA": 1024, "\u0120costs": 1025, "\u0120allow": 1026, "ance": 1027, "\u0120ab": 1028, "\u0120histori": 1029, "\u0120aware": 1030, "ath": 1031, "\u0120ta": 1032, "\u00e2\u0122": 1033, "cess": 1034, "W": 1035, "\u0120levels": 1036, "\u0120murder": 1037, "\u0120wo": 1038, "\u0120variety": 1039, "\u0120digital": 1040, "of": 1041, "ree": 1042, "\u0120England": 1043, "\u0120national": 1044, "load": 1045, "\u0120inju": 1046, "\u0120subsequent": 1047, "\u0120determine": 1048, "\u0120remain": 1049, "\u0120Gi": 1050, "\u0120website": 1051, "\u0120understanding": 1052, "\u0120per": 1053, ".)": 1054, "\u0120names": 1055, "ene": 1056, "ier": 1057, "\u0120Ka": 1058, "la": 1059, "\u0120tools": 1060, "\u0120says": 1061, "\u0120little": 1062, "\u0120result": 1063, "\u0120desire": 1064, "The": 1065, "SA": 1066, "\u0120along": 1067, "\u0120universal": 1068, "\u0120Bl": 1069, "\u0120lo": 1070, "\u0120Education": 1071, "\u0120art": 1072, "\u0120phone": 1073, "mediate": 1074, "\u0120physical": 1075, "\u0120oxygen": 1076, "\u0120possess": 1077, "\u0120picture": 1078, "\u0120force": 1079, "&": 1080, "\u0120providing": 1081, "\u0120features": 1082, "\u0120themselves": 1083, "\u0120Christ": 1084, "tics": 1085, "\u0120Fu": 1086, "\u0120War": 1087, "\u0120large": 1088, "ub": 1089, "]": 1090, "\u0120told": 1091, "\u0120clean": 1092, "\u0120/": 1093, "itive": 1094, "ounds": 1095, "\u0120fr": 1096, "\u0120Organization": 1097, "iversity": 1098, "\u0120every": 1099, "face": 1100, "\u0120anything": 1101, "\u0120kilomet": 1102, "\u0120protocol": 1103, "mer": 1104, "sm": 1105, "\u00eb": 1106, "\u0120decades": 1107, "\u0120away": 1108, "mission": 1109, "\u0120may": 1110, "\u0120sometimes": 1111, "\u0120American": 1112, "\u0120Administration": 1113, "\u0120Dis": 1114, "ze": 1115, "\u0120No": 1116, "\u0120double": 1117, "\u0120thus": 1118, "re": 1119, "IC": 1120, "\u0120vote": 1121, "\u0120respond": 1122, "\u0120alternative": 1123, "\u0120branch": 1124, "ud": 1125, "\u0120H": 1126, "om": 1127, "\u0120film": 1128, "\u0120animals": 1129, "\u0120video": 1130, "\u0120Professor": 1131, "\u0120This": 1132, "\u0120release": 1133, "\u0120Internet": 1134, "de": 1135, "que": 1136, "\u0120purpose": 1137, "\u0120makes": 1138, "\u0120produce": 1139, "\u0120symbol": 1140, "che": 1141, "\u0120directly": 1142, "\u0120those": 1143, "\",": 1144, "\u0120across": 1145, "ng": 1146, "ights": 1147, "\u0120Pr": 1148, "\u0120including": 1149, "\u0120quickly": 1150, "\u0120tu": 1151, "ase": 1152, "\u0120on": 1153, "\u0120School": 1154, "ox": 1155, "\u0120bi": 1156, "With": 1157, "\u0120towards": 1158, "ences": 1159, "\u0120disappear": 1160, "\u0120Fl": 1161, "\u0120formed": 1162, "\u0120y": 1163, "...": 1164, "per": 1165, "3": 1166, "\u0120position": 1167, "nce": 1168, "\u0120will": 1169, "\u0120ru": 1170, "\u0120systems": 1171, "\u0120self": 1172, "\u0120sent": 1173, "\u0120small": 1174, "\u0120doesn": 1175, "\u0120want": 1176, "\u0120start": 1177, "\u0120sm": 1178, "\u0120couple": 1179, "ond": 1180, "\u0120friends": 1181, "\u0120mark": 1182, "sc": 1183, "\u0120steps": 1184, "\u00bf": 1185, "ination": 1186, "\u0120consequences": 1187, "\u0120quality": 1188, "\u0120try": 1189, "well": 1190, "\u0120economy": 1191, "\u0120image": 1192, "\u0120group": 1193, "\u012029": 1194, "\u0120sound": 1195, "\u0120Me": 1196, "EC": 1197, "\u0120du": 1198, "\u0120Our": 1199, "\u0120king": 1200, "ternal": 1201, "go": 1202, "36": 1203, "\u0120pesticide": 1204, "\u0120agree": 1205, "\u0120calcium": 1206, "\u0120Earth": 1207, "\u0120control": 1208, "\u0120block": 1209, "\u0120ph": 1210, "\u0120indic": 1211, "\u00e9": 1212, "\u0120really": 1213, "So": 1214, "\u0120\"": 1215, "\u0120environmental": 1216, "\u0120applications": 1217, "|": 1218, "RE": 1219, "X": 1220, "\u0120Massachusetts": 1221, "\u0120comes": 1222, "\u0120molecul": 1223, "\u0120throughout": 1224, "\u0120color": 1225, "\u0120depth": 1226, "<": 1227, "\u0120Columbia": 1228, "%": 1229, "\u0120took": 1230, "\u0120U": 1231, "ating": 1232, "ual": 1233, "\u0120Street": 1234, "\u0120credit": 1235, "\u0120countries": 1236, "\u0120seen": 1237, "\u0120aim": 1238, "5": 1239, "\u0120asked": 1240, "off": 1241, "60": 1242, "\u0120occasion": 1243, "ug": 1244, "lies": 1245, "\u0120law": 1246, "les": 1247, "\u0120training": 1248, "\u0120preserv": 1249, "\u0120join": 1250, "\u0120December": 1251, "\u0120V": 1252, "IT": 1253, "\u0120There": 1254, "\u0120bone": 1255, "\u0120thousand": 1256, "\u0120ex": 1257, "board": 1258, "\u0120ultimate": 1259, "ay": 1260, "\u0120syndrome": 1261, "\u0120f": 1262, "\u0120Par": 1263, "\u0120reports": 1264, "\u00a7": 1265, "\u0120inhabit": 1266, "\u0120potential": 1267, "\u0120indeed": 1268, "\u0120mid": 1269, "\u0120response": 1270, "\u0120government": 1271, "\u0120applied": 1272, "\u0120Project": 1273, "C": 1274, "\u0120sample": 1275, "ury": 1276, "\u0120Western": 1277, "pi": 1278, "Do": 1279, "\u0120absorb": 1280, "tes": 1281, "\u0120phase": 1282, "ils": 1283, "itation": 1284, "\u0120hundred": 1285, "ving": 1286, "\u00b2": 1287, "co": 1288, "\u0120appropriate": 1289, "\u0120specific": 1290, "\u0120Un": 1291, "\u0120Art": 1292, "\u0120responsible": 1293, "\u0120div": 1294, "\u0120message": 1295, "\u0120required": 1296, "\u0120gu": 1297, "\u0120zone": 1298, "\u0120died": 1299, "\u0120between": 1300, "\u0120region": 1301, "\u0120sacrifice": 1302, "um": 1303, "\u0120transport": 1304, "to": 1305, "'ll": 1306, "vel": 1307, "mospheric": 1308, "\u0120members": 1309, "\u0120R": 1310, "ip": 1311, "in": 1312, "\u0120dri": 1313, "etic": 1314, "\u0120version": 1315, "\u0120All": 1316, "\u0120District": 1317, "ward": 1318, "na": 1319, "idence": 1320, "\u00e0": 1321, "F": 1322, "ama": 1323, "itable": 1324, "\u0120written": 1325, "\u0120doctor": 1326, "\u0120set": 1327, "\u0120obesity": 1328, "\u0120explanation": 1329, "\u0120India": 1330, "\u0120few": 1331, "\u0120stream": 1332, "state": 1333, "verse": 1334, "\u0120ground": 1335, "\u0120disc": 1336, "\u0120ensure": 1337, "ence": 1338, "\u0120toxic": 1339, "sta": 1340, "\u0120interact": 1341, "\u0120staff": 1342, "\u00a3": 1343, "\u0120cultiv": 1344, "lated": 1345, "ys": 1346, "\u00bd": 1347, "\u0120te": 1348, "\u0120figure": 1349, "\u0120technologies": 1350, "\u0120Not": 1351, "\u0120do": 1352, "\u0120cholesterol": 1353, "with": 1354, "\u0120deal": 1355, "\u0120West": 1356, "ab": 1357, "\u0120communication": 1358, "\u0120resources": 1359, "\u0120respect": 1360, "led": 1361, "\u0120critic": 1362, "\u0120reli": 1363, "\u0120Av": 1364, "\u0120City": 1365, "\u0120emb": 1366, "\u0120introduced": 1367, "\u0120advance": 1368, "\u0120r": 1369, "\u0120sha": 1370, "\u0120devices": 1371, "\u0120ge": 1372, "tro": 1373, "\u0120A": 1374, "\u0120believed": 1375, "\u0120million": 1376, "\u0120infection": 1377, "\u0120energy": 1378, "\u0120proper": 1379, "\u0120survey": 1380, "\u0120societies": 1381, "ko": 1382, "\u0120influence": 1383, "\u0120parts": 1384, "\u0120else": 1385, "\u0120record": 1386, "\u0120hormone": 1387, "\u0120daily": 1388, "\u0120receiving": 1389, "\u0120firm": 1390, "ac": 1391, "\u0120application": 1392, "\u0120maximum": 1393, "da": 1394, "\u0120conducted": 1395, "\u0120danger": 1396, "ints": 1397, "\u0120true": 1398, "\u0120story": 1399, "\u0120sufficient": 1400, "\u0120pain": 1401, "\u0120babies": 1402, "\u0120whe": 1403, "\u0141": 1404, "\u0120His": 1405, "mitted": 1406, "ft": 1407, "\u0120Pa": 1408, "\u0120estimated": 1409, "\u0120ball": 1410, "\u0120opportunities": 1411, "ification": 1412, "\u0120ar": 1413, "\u0120father": 1414, "\u0120Resources": 1415, "ris": 1416, "wise": 1417, "\u0120Survey": 1418, "\u0120sexual": 1419, "\u0120parents": 1420, "\u0120micro": 1421, "\u0120maintain": 1422, "\u0120chance": 1423, "\u0120Foundation": 1424, "\u0120visible": 1425, "\u0120mon": 1426, "\u0120analy": 1427, "!": 1428, "arch": 1429, "vo": 1430, "\u0120Europe": 1431, "\u0120higher": 1432, "\u0120mod": 1433, "mo": 1434, "\u0120placed": 1435, "\u0120bar": 1436, "\u0120blood": 1437, "25": 1438, "u": 1439, "\u0120cop": 1440, "\u0120includes": 1441, "\u0120l": 1442, "\u01202008": 1443, "\u0120sign": 1444, "ave": 1445, "\u0120trigger": 1446, "\u0120Japan": 1447, "\u0120exercise": 1448, "mber": 1449, "\u00e3": 1450, "\u0120Pre": 1451, "\u0120house": 1452, "#": 1453, "\u0120pri": 1454, "\u0120internal": 1455, "\u0120cycle": 1456, "sh": 1457, "\u0120increase": 1458, "cle": 1459, "mas": 1460, "\u0120ro": 1461, "\u0120leader": 1462, "Y": 1463, "\u0120found": 1464, "\u0120Arch": 1465, "hibit": 1466, "78": 1467, "\u0120atmosphere": 1468, "for": 1469, "\u0120Po": 1470, "\u0120question": 1471, "\u01203": 1472, "0": 1473, "\u0120par": 1474, "\u012f": 1475, "\u0120total": 1476, "\u0120understand": 1477, "\u0120using": 1478, "bor": 1479, "\u0120when": 1480, "\u0120money": 1481, "\u0120typical": 1482, "han": 1483, "ory": 1484, "\u0120section": 1485, "\u00ca": 1486, "\u0120essay": 1487, "\u0120nine": 1488, "\u0120season": 1489, "\u0120sea": 1490, "\u0120territory": 1491, "\u0120very": 1492, "ria": 1493, "\u0120gl": 1494, "is": 1495, "\u0120evidence": 1496, "\u0120eye": 1497, "dimensional": 1498, "\u0120To": 1499, "\u0120Tra": 1500, "\u0120rare": 1501, "\u0120big": 1502, "\u0120him": 1503, "\u0120reference": 1504, "\u0120California": 1505, "\u0120creating": 1506, "Be": 1507, "\u0120heav": 1508, "p": 1509, "ents": 1510, ".": 1511, "rch": 1512, "\u0120regular": 1513, "\u0120swe": 1514, "\u0120station": 1515, "\u0120bacteria": 1516, "\u0120since": 1517, "\u0120standards": 1518, "ou": 1519, "\u0120appear": 1520, "ry": 1521, "\u0120reasons": 1522, "ots": 1523, "\u0120degrees": 1524, "\u0120received": 1525, "\u0120cells": 1526, "\u0120hospital": 1527, "\u0120hi": 1528, "\u0120NASA": 1529, "ored": 1530, "ising": 1531, "rl": 1532, "\".": 1533, "\u0120emotion": 1534, "\u00a2": 1535, "\u0120relationship": 1536, "\u0120following": 1537, "\u0120arriv": 1538, "\u0120period": 1539, "\u0120display": 1540, "lled": 1541, "ple": 1542, "\u0120go": 1543, "\u0120La": 1544, "\u0120table": 1545, "\u0120Mountain": 1546, "eeding": 1547, "ded": 1548, "\u0120prom": 1549, "ration": 1550, "When": 1551, "\u0120Network": 1552, "\u0120mechan": 1553, "\u0120engage": 1554, "ish": 1555, "ller": 1556, "nvironment": 1557, "\u0120generation": 1558, "\u0120concept": 1559, "\u0120trade": 1560, "\u0120now": 1561, "\u0120+": 1562, "it": 1563, "r": 1564, "\u0120ac": 1565, "8": 1566, "af": 1567, "\u012010": 1568, "12": 1569, "*": 1570, "\u0120mo": 1571, "\u0120Jesus": 1572, "ily": 1573, "\u012021": 1574, "ics": 1575, "\u0120plant": 1576, "\u0120Henry": 1577, "\u0120treat": 1578, "\u0120box": 1579, "old": 1580, "ix": 1581, "\u0120cross": 1582, "ify": 1583, "\u0120ch": 1584, "\u0131": 1585, "ses": 1586, "men": 1587, "\u0120article": 1588, "\u0120De": 1589, "\u0120Ta": 1590, "\u0120Fe": 1591, "\u0120capital": 1592, "ger": 1593, "\u0120actually": 1594, "\u0120forward": 1595, "Co": 1596, "\u012019": 1597, "\u0120hold": 1598, "ging": 1599, "\u0120cannot": 1600, "\u0120ever": 1601, "\u0120exactly": 1602, "\u0120effect": 1603, "\u0120employ": 1604, "ica": 1605, "q": 1606, "\u0120Lu": 1607, "ja": 1608, "y": 1609, "\u012a": 1610, "\u0120plastic": 1611, "\u0120Hebrew": 1612, "\u0120considered": 1613, "\u0120long": 1614, "\u0120remains": 1615, "\u0120Boston": 1616, "\u0120inflammation": 1617, "\u0120sub": 1618, "\u0120Engine": 1619, "Ma": 1620, "\u0120comfort": 1621, "\u0120night": 1622, "\u0120Google": 1623, "\u0120Lo": 1624, "\u0120develop": 1625, "\u0120Bar": 1626, "They": 1627, "\u0120overall": 1628, "\u0120fixed": 1629, "\u0120involve": 1630, "end": 1631, "\u0120cases": 1632, "bb": 1633, "\u0120been": 1634, "ler": 1635, "ts": 1636, "\u0120drop": 1637, "\u0120legislat": 1638, "\u0120independent": 1639, "\u0120What": 1640, "\u0120months": 1641, "AC": 1642, "\u0120trouble": 1643, "ns": 1644, "\u0120are": 1645, "\u0120center": 1646, "35": 1647, "\u0120urban": 1648, "\u0138": 1649, "\u0120criteria": 1650, "\u0120ISBN": 1651, "\u0120hands": 1652, "\u01202004": 1653, "\u0120distinguish": 1654, "\u0120wrong": 1655, "\u0120appointed": 1656, "\u0120En": 1657, "Although": 1658, "burg": 1659, "scrib": 1660, "\u0142": 1661, "\u0120gra": 1662, "\u0120seven": 1663, "\u0120You": 1664, "\u0120March": 1665, "\u0120district": 1666, "\u0120worth": 1667, "\u0120pla": 1668, "\u0120def": 1669, "\u0120dis": 1670, "\u0120water": 1671, "ner": 1672, "anks": 1673, "\u0120involving": 1674, "\u0120vulnerable": 1675, "shes": 1676, "\u0120Court": 1677, "\u0120traffic": 1678, "\u0120these": 1679, "\u0120infected": 1680, "\u0120skin": 1681, "ive": 1682, "\u0120ob": 1683, "\u0120working": 1684, "\u0120named": 1685, "\u0120oil": 1686, "\u0120So": 1687, "\u0120algorithm": 1688, "\u0120fresh": 1689, "\u0120Charles": 1690, "\u0120half": 1691, "\u0120evolution": 1692, "\u0120reducing": 1693, "\u00a5": 1694, "\u0120persons": 1695, "ition": 1696, "\u0120dead": 1697, "ood": 1698, "\u0120country": 1699, "\u0120Latin": 1700, "ets": 1701, "\u0120ju": 1702, "\u0120William": 1703, "ir": 1704, "\u0120general": 1705, "\u0120sa": 1706, "\u0120correct": 1707, "\u0120app": 1708, "\u0120majority": 1709, "\u0120rec": 1710, "\u012024": 1711, "rge": 1712, "\u0120direct": 1713, "\u0120observed": 1714, "\u0120valuable": 1715, "\u0120elements": 1716, "\u0120who": 1717, "\u0120P": 1718, "\u0120Fin": 1719, "\u0120fin": 1720, "\u0120tru": 1721, "These": 1722, "\u0120positive": 1723, "\u0120conservation": 1724, "\u0120teaching": 1725, "\u0120ga": 1726, "\u0120Middle": 1727, "\u0120capture": 1728, "\u0120natural": 1729, "\u0120Air": 1730, "\u0120already": 1731, "\u0120better": 1732, "\u0120combination": 1733, "\u0120confirm": 1734, "\u0120time": 1735, "ure": 1736, "\u0120zero": 1737, "\u0120making": 1738, "known": 1739, "tical": 1740, "\u0120described": 1741, "\u0120depend": 1742, "\u00b3": 1743, "\u0120People": 1744, "\u0120sk": 1745, "\u0120school": 1746, "19": 1747, "\u0120faculty": 1748, "\u0120thr": 1749, "\u0120underlying": 1750, "\u0120four": 1751, "\u0120categor": 1752, "ra": 1753, "net": 1754, "\u0120astronom": 1755, "nging": 1756, "ides": 1757, "cer": 1758, "\u0120choose": 1759, "\u0120definition": 1760, "\u0120Thomas": 1761, "\u0120give": 1762, "\u0120famous": 1763, "\u0120Ag": 1764, "\u0120like": 1765, "\u0120far": 1766, "\u0120state": 1767, "ges": 1768, "\u0120Cha": 1769, "lk": 1770, "\u0120giving": 1771, "\u0120conver": 1772, "rin": 1773, "\u0120evalu": 1774, "\u0120House": 1775, "\u0120taking": 1776, "\u0120important": 1777, "\u0120bla": 1778, "\u0120days": 1779, "\u0120poverty": 1780, "act": 1781, "\u0120carry": 1782, "Si": 1783, "\u0120done": 1784, "How": 1785, "tu": 1786, "\u0120organ": 1787, "urricane": 1788, "\u0120take": 1789, "\u012018": 1790, "\u0120mean": 1791, "\u0120illness": 1792, "imate": 1793, "tor": 1794, "\u0120sy": 1795, "\u0120Phil": 1796, "\u0130": 1797, "\u0120technique": 1798, "\u0120books": 1799, "\u0120around": 1800, "\u0120object": 1801, "ied": 1802, "\u0120journey": 1803, "\u0120From": 1804, "ul": 1805, "\u0120likely": 1806, "\u0120your": 1807, "\u0120sl": 1808, "\u0120lines": 1809, "\u0120road": 1810, "nting": 1811, "\u0120basis": 1812, "lar": 1813, "\u0120network": 1814, "\u0120irr": 1815, "\u0120might": 1816, "\u0120cor": 1817, "\u00e2\u0122\u00a6": 1818, "\u0120words": 1819, "\u0120north": 1820, "\u0120perform": 1821, "\u0120suggest": 1822, "\u0120similar": 1823, "\u0120practices": 1824, "g": 1825, "et": 1826, "\u0120she": 1827, "\u0120Mount": 1828, "\u0120perspective": 1829, "us": 1830, "\u0120phenomen": 1831, "\u0120fa": 1832, "\u0120teachers": 1833, "\u0120Georgia": 1834, "\u0120imagin": 1835, "if": 1836, "\u0120circumstances": 1837, "\u0120II": 1838, "Se": 1839, "\u0120Ar": 1840, "\u0120Pe": 1841, "lt": 1842, "\u0120Control": 1843, "\u0120relatively": 1844, "\u0120co": 1845, "\u0120Francis": 1846, "\u0120flow": 1847, "ny": 1848, "\u00e7": 1849, "\u0120easy": 1850, "ful": 1851, "\u0120replace": 1852, "\u0120Group": 1853, "\u0120cell": 1854, "\u0120Ho": 1855, "\u0120schools": 1856, "ot": 1857, ".,": 1858, "\u0120frequency": 1859, "\u0120provided": 1860, "\u0120Web": 1861, "\u0120che": 1862, "'": 1863, "\u0120measure": 1864, "\u0120city": 1865, "\u0120Mediterranean": 1866, "oking": 1867, "\u0120inf": 1868, "ville": 1869, "\u0120da": 1870, "l": 1871, "\u0120T": 1872, "\u0120earliest": 1873, "up": 1874, "\u012e": 1875, "\u0120prefer": 1876, "\u0120home": 1877, "\u0120religious": 1878, "\u0120points": 1879, "id": 1880, "\u0120membrane": 1881, "\u0120contribut": 1882, "\u0120addition": 1883, "\u0120Pi": 1884, "\u0120presented": 1885, "ne": 1886, "ma": 1887, "\u0120love": 1888, "ject": 1889, "\u0120Sa": 1890, "\u0120held": 1891, "\u0120o": 1892, "\u0120equal": 1893, "\u0120Technology": 1894, "\u0120necessarily": 1895, "\u0120immune": 1896, "\u0120enemy": 1897, "\u0120establish": 1898, "ge": 1899, "\u0120environment": 1900, "\u0120C": 1901, "\u0120humans": 1902, "\u0120Some": 1903, "now": 1904, "\u0120weapons": 1905, "\u0120turn": 1906, "\u0120size": 1907, "\u0120genes": 1908, "lines": 1909, "ndigenous": 1910, "\u0120Just": 1911, "ibility": 1912, "d": 1913, "\u0120sur": 1914, "es": 1915, "ling": 1916, "\u0120util": 1917, "It": 1918, "\u0120su": 1919, "fu": 1920, "\u0120death": 1921, "\u0120weather": 1922, "\u0120brain": 1923, "\u0120range": 1924, "an": 1925, "\u0120stomach": 1926, "\u0120controvers": 1927, "og": 1928, "\u0120Martin": 1929, "\u0120speed": 1930, "ste": 1931, "ly": 1932, "olution": 1933, "pes": 1934, "ean": 1935, "\u0120poor": 1936, "fa": 1937, "uth": 1938, "\u0120researchers": 1939, "\u0120each": 1940, "wh": 1941, "\u00c4": 1942, "\u0120Second": 1943, "stitution": 1944, "\u0120weak": 1945, "ctic": 1946, "\u0120Retrieved": 1947, "ar": 1948, "\u0120follow": 1949, "\u0120had": 1950, "\u0120especially": 1951, "\u0120easier": 1952, "\u0120Vol": 1953, "De": 1954, "nivers": 1955, "EN": 1956, "\u0120observ": 1957, "\u0120highly": 1958, "\u0120fossil": 1959, "\u0120mission": 1960, "\u0120beginning": 1961, "\u0120events": 1962, "art": 1963, "\u0120Spec": 1964, "\u0120route": 1965, "\u0120quite": 1966, "\u0120quarter": 1967, "usion": 1968, "\u0120benefits": 1969, "\u0120software": 1970, "\u0120dr": 1971, "ngs": 1972, "\u0120healthy": 1973, "\u0120Psych": 1974, "\u0120happen": 1975, "ably": 1976, "\u0120Philadelphia": 1977, "\u0120Germany": 1978, "\u0120practical": 1979, "Con": 1980, "\u0120Human": 1981, "\u0120caused": 1982, "erg": 1983, "\u0120largest": 1984, "\u0120author": 1985, "ture": 1986, "\u0120N": 1987, "yp": 1988, "\u0120simple": 1989, "\u0120numerous": 1990, "\u0120Safety": 1991, "\u0120build": 1992, "\u0120name": 1993, "ners": 1994, "\u0120198": 1995, "\u0120layer": 1996, "\u0120thought": 1997, "\u0120migr": 1998, "\u0120here": 1999, "ological": 2000, "\u0120investment": 2001, "\u0120enhance": 2002, "di": 2003, "\u0120disturb": 2004, "\u0120land": 2005, "\u0120pre": 2006, "\u0120species": 2007, "able": 2008, "\u0120dro": 2009, "uring": 2010, "\u0128": 2011, "rance": 2012, "\u0120serious": 2013, "nu": 2014, "\u0120Ri": 2015, "\u0120Mod": 2016, "\u0120ocean": 2017, "\u0120Britain": 2018, "\u0120|": 2019, "\u0120flu": 2020, "\u00d3": 2021, "il": 2022, "\u0120Then": 2023, "\u0120Y": 2024, "\u0120E": 2025, "\u0120Darwin": 2026, "t": 2027, "ever": 2028, "\u0120said": 2029, "\u0120model": 2030, "\u0120area": 2031, ")": 2032, "\u0120out": 2033, "\u0120vitamin": 2034, "ened": 2035, "\u0120construct": 2036, "New": 2037, "\u0120enough": 2038, "\u0120Wo": 2039, "\u0120hypothe": 2040, "\u0120battle": 2041, "\u0120manage": 2042, "\u0120Inc": 2043, "\u0120Department": 2044, "\u012015": 2045, "eck": 2046, "\u0120coordinat": 2047, "\u01202010": 2048, "tric": 2049, "=": 2050, "\u0120design": 2051, "ev": 2052, "\u0120Ru": 2053, "tation": 2054, "\u0120tropical": 2055, "We": 2056, "\u0120substance": 2057, "ol": 2058, "\u0143": 2059, "e": 2060, "\u0120particular": 2061, "\u0120Assessment": 2062, "ific": 2063, "\u0120policies": 2064, "\u0120relevant": 2065, "\u0120this": 2066, "\u0120teach": 2067, "ran": 2068, "\u0120remo": 2069, "ef": 2070, "\u0120lea": 2071, "\u0120arch": 2072, "\u0120exchange": 2073, "\u012060": 2074, "\u0120schedule": 2075, "\u0120B": 2076, "\u0120traditional": 2077, "\u0120my": 2078, "gl": 2079, "\u0120efficiency": 2080, "\u012022": 2081, "\u0120Space": 2082, "pping": 2083, "\u0120Vietnam": 2084, "'re": 2085, "\u0120kind": 2086, "uc": 2087, "\u0120leaves": 2088, "\u0120determined": 2089, "\u0120non": 2090, "\u0120veget": 2091, "\u0120fact": 2092, "\u0120students": 2093, "\u0120why": 2094, "ad": 2095, "\u0120biggest": 2096, "eep": 2097, "\u0120Environmental": 2098, "\u0120lab": 2099, "\u0120good": 2100, "atic": 2101, "ess": 2102, "\u0120truth": 2103, "\u0120properties": 2104, "\u0120cal": 2105, "\u0120storm": 2106, "\u0120Vi": 2107, "\u0120colon": 2108, "\u0120Na": 2109, "G": 2110, "\u0120output": 2111, "\u0120vo": 2112, "\u00ee": 2113, "\u0120China": 2114, "\u0120port": 2115, "\u0120projects": 2116, "\u0120user": 2117, "\u0120cent": 2118, "ai": 2119, "\u0120S": 2120, "sting": 2121, "ET": 2122, "37": 2123, "\u0120receive": 2124, "ality": 2125, "\u0120Over": 2126, "\u0120obvious": 2127, "\u0120accident": 2128, "\u0120white": 2129, "\u0120ed": 2130, "\u0120belong": 2131, "\u0120added": 2132, "\u0120instrument": 2133, "\u0120speech": 2134, "\u0120United": 2135, "\u0120April": 2136, "\u0120campaign": 2137, "more": 2138, "izing": 2139, "inal": 2140, "\u0120wall": 2141, "\u0120involved": 2142, "kers": 2143, "\u0120surround": 2144, "\u0120did": 2145, "ible": 2146, "\u0120don": 2147, "\u0120items": 2148, "\u0120Florida": 2149, "\u0120fish": 2150, "\u0120,": 2151, "P": 2152, "\u0120professional": 2153, "wi": 2154, "\u0120nothing": 2155, "\u0120h": 2156, "which": 2157, "\u0120condition": 2158, "\u0120194": 2159, "\u0120Instead": 2160, "\u0120in": 2161, "un": 2162, "\u0120contact": 2163, "This": 2164, "ull": 2165, "\u0120visit": 2166, "using": 2167, "\u0120trans": 2168, "ear": 2169, "\u0120Empire": 2170, "\u00c7": 2171, "\u0120For": 2172, "\u0120pregnant": 2173, "\u0120income": 2174, "\u0120br": 2175, "\u0120\u00e2\u0122\u013a": 2176, "\u0120woman": 2177, "\u0120Her": 2178, "ons": 2179, "\u0120differences": 2180, "\u0120smaller": 2181, "\u0120share": 2182, "\u0120August": 2183, "\u0120Medicine": 2184, "no": 2185, "\u0123": 2186, "\u0120agriculture": 2187, "\u0120enzyme": 2188, "\u0120all": 2189, "\u0120milk": 2190, "On": 2191, "\u0120rain": 2192, "\u0120tissue": 2193, "\u0120work": 2194, "\u0120An": 2195, "st": 2196, "\u0120Most": 2197, "\u0120Mexico": 2198, "ich": 2199, "\u0120demand": 2200, "\u012050": 2201, "\u0120op": 2202, "I": 2203, "\u0120average": 2204, "\u0120bad": 2205, "\u0120primarily": 2206, "ew": 2207, "\u0120setting": 2208, "rit": 2209, "\u0120kept": 2210, "\u0120substantial": 2211, "\u0120storage": 2212, "\u0120report": 2213, "||": 2214, "ned": 2215, "ently": 2216, "\u0120news": 2217, "\u00e2\u0122\u0135": 2218, "\u0120released": 2219, "\u0120State": 2220, "\u0120My": 2221, "\u0120Gr": 2222, "\u0120carried": 2223, "\u0120results": 2224, "\u0120past": 2225, "\u0120after": 2226, "rds": 2227, "\u0120price": 2228, "\u0120theory": 2229, "\u0120museum": 2230, "[": 2231, "ke": 2232, "use": 2233, "\u0120vaccine": 2234, "\u0120online": 2235, "\u0120provide": 2236, "\u0120how": 2237, "\u0120essential": 2238, "\u0120drinking": 2239, "\u0120London": 2240, "\u0120Laboratory": 2241, "\u012011": 2242, "\u0120tobacco": 2243, "\u0120bound": 2244, "\u0120virtu": 2245, "\u0120fast": 2246, "\u0120educational": 2247, "\u0120Committee": 2248, "\u0120reading": 2249, "\u0120surrounding": 2250, "\u0120necessary": 2251, "\u0120seem": 2252, "\u0120faith": 2253, "\u0120movement": 2254, "\u0120decline": 2255, "\u0120come": 2256, "\u0120private": 2257, "):": 2258, "\u0120committee": 2259, "\u0120International": 2260, "\u0120experiment": 2261, "\u0120fra": 2262, "\u0120idea": 2263, "\u0120monitor": 2264, "\u0120Sen": 2265, "\u0120Encyclopedia": 2266, "\u0120plans": 2267, "\u0120horse": 2268, "\u0120v": 2269, "\u0120DNA": 2270, "\u0120things": 2271, "ping": 2272, "\u0120classroom": 2273, "\u0120Medical": 2274, "rine": 2275, "\u0120powerful": 2276, "ior": 2277, "\u0120University": 2278, "\u0120guide": 2279, "45": 2280, "\u0120flood": 2281, "\u0120municipal": 2282, "\u0120actions": 2283, "\u0120random": 2284, "iled": 2285, "\u0120struggle": 2286, "\u0120colour": 2287, "\u0120magn": 2288, "\u0120day": 2289, "\u0120sure": 2290, "\u0120Director": 2291, "\u0120changes": 2292, "\u0120yield": 2293, "craft": 2294, "ening": 2295, "\u0120Journal": 2296, "\u0120threat": 2297, "\u0120Comp": 2298, "Lo": 2299, "\u0120team": 2300, "\u0120volume": 2301, "\u0120there": 2302, "ined": 2303, "\u0120but": 2304, "\u0120lack": 2305, "\u013b": 2306, "\u0120assist": 2307, "ic": 2308, "\u0120Trans": 2309, "\u012d": 2310, "ister": 2311, "im": 2312, "\u0120commonly": 2313, "ap": 2314, "\u0120occup": 2315, "\u0120principle": 2316, "\u0120stra": 2317, "\u0120li": 2318, "\u0120baby": 2319, "ised": 2320, "\u00c9": 2321, "\u0120lead": 2322, "\u0120G": 2323, "\u0120cho": 2324, "T": 2325, "\u0120last": 2326, "L": 2327, "\u0120difficult": 2328, "\u0120structure": 2329, "But": 2330, "\u0120Mary": 2331, "\u0120Ad": 2332, "\u00e1\u00b9\u0143": 2333, "ell": 2334, "lands": 2335, "iz": 2336, "\u0120fe": 2337, "http": 2338, "izes": 2339, "ces": 2340, "dy": 2341, "\u0120use": 2342, "\u0120Now": 2343, "bu": 2344, "\u0120reported": 2345, "\u0120pro": 2346, "yn": 2347, "\u0120able": 2348, "D": 2349, "\u0120health": 2350, "its": 2351, "/": 2352, "\u0120sil": 2353, "fore": 2354, "\u0122": 2355, "\u0120College": 2356, "\u0120crisis": 2357, "\u0120Children": 2358, "\u0120up": 2359, "sy": 2360, "cing": 2361, "\u0120remember": 2362, "\u0120birth": 2363, "\u0120ret": 2364, "\u00e2\u0122\u0136": 2365, "\u0120recogn": 2366, "ors": 2367, "Re": 2368, "lls": 2369, "ign": 2370, "ures": 2371, "\u0120Plan": 2372, "\u0120multi": 2373, "\u0120treatment": 2374, "\u0120methods": 2375, "\u0120also": 2376, "\u0120al": 2377, "\u0120mentioned": 2378, "ship": 2379, "\u0120bul": 2380, "\u00ec": 2381, "\u0120dra": 2382, "io": 2383, "\u0120opposite": 2384, "stitute": 2385, "ature": 2386, "ated": 2387, "\u0120different": 2388, "work": 2389, "\u0120poly": 2390, "\u0120White": 2391, "\u0120licens": 2392, "\u0120cu": 2393, "\u0120document": 2394, "21": 2395, "\u0132": 2396, "\u0120first": 2397, "br": 2398, "\u0120\u00c2": 2399, "ively": 2400, "\u0120show": 2401, "rf": 2402, "\u0120front": 2403, "\u0120News": 2404, "\u0120town": 2405, "\u0120eyes": 2406, "\u0120strength": 2407, "\u0120graph": 2408, "\u0120continu": 2409, "struct": 2410, "Z": 2411, "\u0120Family": 2412, "\u0120matter": 2413, "ished": 2414, "\u0120impossible": 2415, "yal": 2416, "\u0120describe": 2417, "\u0120map": 2418, "\u0120machine": 2419, "\u0120minor": 2420, "\u0120i": 2421, "\u0120\u00e2\u0122\u013e": 2422, "\u0120probably": 2423, "\u0120river": 2424, "\u00bb": 2425, "\u0120permanent": 2426, "\u0120service": 2427, "\u0120twenty": 2428, "\u0120ra": 2429, "sters": 2430, "\u0120engine": 2431, "rd": 2432, "\u0120pra": 2433, "\u0120mass": 2434, "ymptom": 2435, "\u0120discussion": 2436, "\u0120check": 2437, "\u0120pretty": 2438, "\u0120fight": 2439, "ey": 2440, "nch": 2441, "\u0120nearly": 2442, "\u00e6": 2443, "our": 2444, "\u0120facilit": 2445, "00": 2446, "\u0120serve": 2447, "\u0120challenge": 2448, "\u00c3": 2449, "\u0120Di": 2450, "\u0120conf": 2451, "\u0120gener": 2452, "\u0120compared": 2453, "\u0120Sun": 2454, "\u0120such": 2455, "\u0120tw": 2456, "ster": 2457, "\u0120After": 2458, "mu": 2459, "val": 2460, "\u0120decade": 2461, "\u0120mind": 2462, "\u0120sustain": 2463, "\u0120possibly": 2464, "te": 2465, "\u0120America": 2466, "\u0120materials": 2467, "\u0120Ni": 2468, "\u0120business": 2469, "\u0120South": 2470, "\u0120Car": 2471, "naissance": 2472, "\u0120voice": 2473, "we": 2474, "29": 2475, "\u0120express": 2476, "\u0120ill": 2477, "\u0120no": 2478, "isms": 2479, "\u0120achieve": 2480, "\u00b6": 2481, "\u00db": 2482, "ologist": 2483, "\u0120One": 2484, "\u0120draw": 2485, "lying": 2486, "\u0120truly": 2487, "\u0120Since": 2488, "ative": 2489, "\u0120Am": 2490, ");": 2491, "\u0120Ne": 2492, "17": 2493, "\u0120say": 2494, "\u0120language": 2495, "\u0120element": 2496, "\u00c8": 2497, "\u0120distinct": 2498, "\u0120Ti": 2499, "\u0120scholar": 2500, "self": 2501, "\u0120stay": 2502, "\u01202001": 2503, "\u0120detail": 2504, "cal": 2505, "\u0120habit": 2506, "\u0120goes": 2507, "\u0120adult": 2508, "\u0120intellectual": 2509, "\u0120testing": 2510, "\u0120column": 2511, "\u0120discuss": 2512, "\u0120Atlantic": 2513, "\u0120They": 2514, "\u0120Gu": 2515, "tion": 2516, "\u0120where": 2517, "ii": 2518, "ron": 2519, "ogen": 2520, "dden": 2521, "\u0120key": 2522, "\u0120information": 2523, "\u0120note": 2524, "\u0120Work": 2525, "\u0120live": 2526, "\u0120circle": 2527, "nic": 2528, "\u0120hours": 2529, "\u0120weight": 2530, "c": 2531, "\u0120chapter": 2532, "\u0120Pro": 2533, "\u0120Wa": 2534, "\u0120real": 2535, "\u0120sites": 2536, "ified": 2537, "\u00b4": 2538, "\u0120Africa": 2539, "\u0120rep": 2540, "II": 2541, "\u0120equ": 2542, "o": 2543, "\u0120mut": 2544, "\u0120Buddh": 2545, "\u0120link": 2546, "\u0120husband": 2547, "ose": 2548, "ate": 2549, "\u0120Cre": 2550, "\u0120scientist": 2551, "\u0120broad": 2552, "ve": 2553, "\u0120Colorado": 2554, "hold": 2555, "\u0120tell": 2556, "\u0120sla": 2557, "\u0120Society": 2558, "\u0120First": 2559, "\u0120physic": 2560, "\u0120too": 2561, "\u0120made": 2562, "\u0120park": 2563, "zo": 2564, "\u0120195": 2565, "\u0120patient": 2566, "\u0120problems": 2567, "\u0120once": 2568, "\u0120letter": 2569, "ag": 2570, "\u0120current": 2571, "199": 2572, "\u0120heat": 2573, "\u0120enforce": 2574, "atory": 2575, "\u0120Pacific": 2576, "ough": 2577, "ming": 2578, "\u0120resistance": 2579, "\u0120rel": 2580, "olving": 2581, "\u0120Global": 2582, "^": 2583, "\u0120place": 2584, "\u0120wind": 2585, "ST": 2586, "\u0120conventional": 2587, "\u0120Cor": 2588, "ables": 2589, "\u0120implement": 2590, "\u0120significant": 2591, "Ex": 2592, "\u0120know": 2593, "\u0120larger": 2594, "\u0120earlier": 2595, "\u0120final": 2596, "\u0120federal": 2597, "\u0120minutes": 2598, "\u0120showed": 2599, "\u013c": 2600, "\u0120civil": 2601, "\u0140": 2602, "em": 2603, "az": 2604, "\u0120sta": 2605, "ates": 2606, "\u0120climate": 2607, "des": 2608, "To": 2609, "wer": 2610, "\u0120strong": 2611, "encies": 2612, "shed": 2613, "\u0120understood": 2614, "Un": 2615, "vention": 2616, "\u0120based": 2617, "\u0120pi": 2618, "\u0120stri": 2619, "\u0120residents": 2620, "\u0120Hu": 2621, "-": 2622, "\u0120dramatic": 2623, "7": 2624, "\u0120diet": 2625, "\u0120Su": 2626, "\u0120alcohol": 2627, "\u0120bring": 2628, "\u0120popular": 2629, "ig": 2630, "\u0120char": 2631, "\u0120open": 2632, "\u0120launch": 2633, "\u00e5": 2634, "\u0120exten": 2635, "}": 2636, "\u0120Soviet": 2637, "\u0120animal": 2638, "eet": 2639, "aw": 2640, "\u0120three": 2641, "\u0120method": 2642, "\u0120Cambridge": 2643, "\u0120engineering": 2644, "\u0120Qu": 2645, "\u0120metal": 2646, "struction": 2647, "\u0120Americans": 2648, "\u0120San": 2649, "\u0120study": 2650, "\u0120opportunity": 2651, "\u0120way": 2652, "\u0120component": 2653, "\u0120contain": 2654, "\u0120pressure": 2655, "\u0120horizon": 2656, "\u0120dangerous": 2657, "ines": 2658, "\u0120ago": 2659, "port": 2660, "\u0120Cent": 2661, "\u0120most": 2662, "St": 2663, "\u0120activity": 2664, "\u0120galax": 2665, "\u00b1": 2666, "\u0120run": 2667, "\u00b9": 2668, "ym": 2669, "\u0120Catholic": 2670, "\u0120because": 2671, "\u0120min": 2672, "\u0120chromosome": 2673, "\u0120seems": 2674, "\u0120temp": 2675, "\u0120ingredient": 2676, "\u0120collaborat": 2677, "\u0120ass": 2678, "like": 2679, "\u0120fuel": 2680, "\u0120tests": 2681, "\u0120performance": 2682, "\u0120everything": 2683, ").": 2684, "No": 2685, "\u0120epi": 2686, "\u0120fat": 2687, "\u0120Water": 2688, "\u0120distribution": 2689, "\u0120easily": 2690, "\u0120academic": 2691, "\u0120Center": 2692, "\u0120mouth": 2693, "\u0120entire": 2694, "\u0120left": 2695, "uilding": 2696, "\u0120represent": 2697, "\u0120brought": 2698, "nfortunately": 2699, "\u01202005": 2700, "\u0120She": 2701, "\u0120settle": 2702, "\u0120curriculum": 2703, "\u00d2": 2704, "\u0120professor": 2705, "\u0120landscape": 2706, "rupt": 2707, "\u0120property": 2708, "\u0120Man": 2709, "htm": 2710, "\u0120decision": 2711, "ult": 2712, "\u0120clearly": 2713, "\u0120Association": 2714, "bal": 2715, "\u0120Lord": 2716, "\u0120benefit": 2717, "\u0120request": 2718, "\u0120change": 2719, "\u0120producing": 2720, "\u00ea": 2721, "13": 2722, "\u012026": 2723, "er": 2724, "\u0120somewhat": 2725, "\u0120free": 2726, "\u0120among": 2727, "book": 2728, "\u0120types": 2729, "\u0120inter": 2730, "\u0120except": 2731, "zing": 2732, "\u0120via": 2733, "\u0120Park": 2734, "\u0120X": 2735, "\u0120ship": 2736, "\u0120anti": 2737, "\u0120divi": 2738, "\u0120transfer": 2739, "\u0120before": 2740, "\u0120Te": 2741, "\u0120followed": 2742, "\u0120population": 2743, "\u0120November": 2744, "V": 2745, "\u0120forms": 2746, "\u0120While": 2747, "\u0120=": 2748, "\u0120rise": 2749, "\u0120questions": 2750, "\u0120notice": 2751, "\u0120Ed": 2752, "\u0120terms": 2753, "\u0120standard": 2754, "ial": 2755, "\u0120communicate": 2756, "\u0120inva": 2757, "\u0120psych": 2758, "ank": 2759, "\u0120spo": 2760, "\u0120Ph": 2761, "thing": 2762, "\u0120direction": 2763, "\u0120Australia": 2764, "out": 2765, "\u0120task": 2766, "\u01202013": 2767, "\u0120security": 2768, "\u0120collection": 2769, "\u0120target": 2770, "\u0120be": 2771, "\u0120dedicated": 2772, "\u0120However": 2773, "\u0120not": 2774, "\u0120Islam": 2775, "\u0120batt": 2776, "\u0120sharp": 2777, "\u0120feel": 2778, "\u0120Union": 2779, "\u01201990": 2780, "\u0120get": 2781, "\u0120wild": 2782, "\u0120yet": 2783, "ile": 2784, "\u0120County": 2785, "\u0120detect": 2786, "\u0120depression": 2787, "\u0120loss": 2788, "\u0120Roman": 2789, "\u0120interest": 2790, "\u0120doing": 2791, "\u0120Sh": 2792, "H": 2793, "gr": 2794, "\u0120gene": 2795, "\u0120having": 2796, "\u0120More": 2797, "\u01202009": 2798, "\u0120interesting": 2799, "\u0120further": 2800, "\u0120particip": 2801, "zi": 2802, "\u0120above": 2803, "\u0120ang": 2804, "by": 2805, "arly": 2806, "ck": 2807, "\u0120any": 2808, "\u0120reduction": 2809, "\u0120error": 2810, "28": 2811, "\u0120memory": 2812, "\u0120rest": 2813, "ous": 2814, "ral": 2815, "\u00e4": 2816, "ited": 2817, "rp": 2818, "\u0120thousands": 2819, "\u0120prepar": 2820, "lation": 2821, "ord": 2822, "\u0120one": 2823, "red": 2824, "\u0120pursu": 2825, "\u0120patterns": 2826, "\u0120light": 2827, "gen": 2828, "\u0120Ca": 2829, "\u0120African": 2830, "\u0120due": 2831, "\u0120miles": 2832, "\u0120planning": 2833, "\u0120Mon": 2834, "\u0120promote": 2835, "AS": 2836, "\u0120syn": 2837, "\u0120Cu": 2838, "\u0120allerg": 2839, "\u0120origin": 2840, "\u0120difference": 2841, "\u01202007": 2842, "\u0120fo": 2843, "\u0120changed": 2844, "\u00c3\u00a1": 2845, "lp": 2846, "\u0120successful": 2847, "\u0120Council": 2848, "\u0120expect": 2849, "RI": 2850, "Pro": 2851, "dge": 2852, "\u0120count": 2853, "\u0120har": 2854, "\u0120keep": 2855, "\u0120Greek": 2856, "der": 2857, "\u0120litera": 2858, "\u0120parent": 2859, "\u0120equivalent": 2860, "\u0120established": 2861, "\u0120w": 2862, "\u0120recover": 2863, "bl": 2864, "\u0120signs": 2865, "nds": 2866, "\u0120shape": 2867, "\u0120began": 2868, "\u0120drug": 2869, "\u0120liber": 2870, "\u0120clear": 2871, "\u0120project": 2872, "ding": 2873, "ton": 2874, "ning": 2875, "\u0120outbreak": 2876, "\u0120number": 2877, "\u0120included": 2878, "\u0120May": 2879, "\u0120meaning": 2880, "\u0120sho": 2881, "\u0120Palestin": 2882, "gi": 2883, "\u0120associated": 2884, "\u0120trees": 2885, "\u0120adjust": 2886, "\u0120marriage": 2887, "nks": 2888, "\u00af": 2889, "ists": 2890, "\u0120supplement": 2891, "\u0120rather": 2892, "\u0120function": 2893, "ways": 2894, "\u0120whom": 2895, "\u0120Mar": 2896, "do": 2897, "\u0120circu": 2898, "ies": 2899, "(": 2900, "\u0120nation": 2901, "\u0120vision": 2902, "\u0120unusual": 2903, "\u0120smo": 2904, "\u0120severe": 2905, "\u0120living": 2906, "\u0120safety": 2907, "\u0120men": 2908, "\u0120supp": 2909, "\u0120available": 2910, "\u0120rule": 2911, "\u0120others": 2912, "\u0120Ma": 2913, "\u0120second": 2914, "\u0120spring": 2915, "\u0120square": 2916, "\u0120bank": 2917, "\u0120conditions": 2918, "ro": 2919, "\u0120more": 2920, "\u0120F": 2921, "land": 2922, "\u0120find": 2923, "\u0120Commission": 2924, "\u0120Cancer": 2925, "\u010a": 2926, "\u0120$": 2927, "ing": 2928, "lu": 2929, "ld": 2930, "\u0120Louis": 2931, "\u0120Joseph": 2932, "\u0120super": 2933, "\u0120Ga": 2934, "\u0120within": 2935, "\u0120always": 2936, "\u0120increased": 2937, "\u0120let": 2938, "fo": 2939, "eb": 2940, "tal": 2941, "ring": 2942, "\u0120modern": 2943, "\u0120Ge": 2944, "all": 2945, "\u0120financial": 2946, "\u013f": 2947, "\u0120hydr": 2948, "\u0120Academy": 2949, "\u0120fi": 2950, "position": 2951, "\u0120become": 2952, "over": 2953, "\u0120issue": 2954, "time": 2955, "\u0120-": 2956, "\u0120role": 2957, "\u0120mi": 2958, "ans": 2959, "\u0120needs": 2960, "\u0120aggressive": 2961, "\u0120surgery": 2962, "ency": 2963, "\u0120dark": 2964, "ED": 2965, "\u00ce": 2966, "\u0120pass": 2967, "\u0120designed": 2968, "\u0120Government": 2969, "\u0120low": 2970, "\u0120inc": 2971, "\u0120Ch": 2972, "\u0120failure": 2973, "ard": 2974, "\u0120again": 2975, "vi": 2976, "amp": 2977, "\u0120people": 2978, "\u0120details": 2979, "\u0120Army": 2980, "\u0120characteristics": 2981, "\u0120stu": 2982, "\u0120please": 2983, "\u0120native": 2984, "\u0120we": 2985, "ane": 2986, "\u0120attract": 2987, "ress": 2988, "\u0120face": 2989, "\u0120models": 2990, "\u01205": 2991, "\u0120Bu": 2992, "\u0120present": 2993, "\u0120food": 2994, "\u0120negoti": 2995, "\u0120least": 2996, "\u0120focus": 2997, "\u012014": 2998, "ural": 2999, "\u0120tr": 3000, "yl": 3001, "\u0120page": 3002, "\u0120dollars": 3003, "\u0120coming": 3004, "\u0120decided": 3005, "\u0120Historic": 3006, "\u0120Kentucky": 3007, "\u0120attend": 3008, "ick": 3009, "\u0120adults": 3010, "\u0120statistic": 3011, "\u012030": 3012, "\u0120exist": 3013, "\u0120sources": 3014, "\u0120foot": 3015, "\u00f4": 3016, "\u0120values": 3017, "9": 3018, "ri": 3019, "\u0120perhaps": 3020, "\u0120abnormal": 3021, "equ": 3022, "ID": 3023, "\u0120covered": 3024, "\u0120occur": 3025, "\u0120mobile": 3026, "40": 3027, "titude": 3028, "IN": 3029, "\u0120bit": 3030, "\u0120than": 3031, "ese": 3032, "\u0120predict": 3033, "\u0120September": 3034, "\u0120Ro": 3035, "elling": 3036, "\u0120society": 3037, "\u00e2\u0122\u013e": 3038, "ers": 3039, "\u0120concentr": 3040, "\u0120war": 3041, "hu": 3042, "\u0120chemical": 3043, "\u0120res": 3044, "\u0120sn": 3045, "\u0120can": 3046, "\u0120over": 3047, "23": 3048, "ty": 3049, "\u0120must": 3050, "th": 3051, "\u0120add": 3052, "\u0120emissions": 3053, "\u0120Day": 3054, "\u0120five": 3055, "\u0120of": 3056, "\u0120friend": 3057, "\u0120they": 3058, "\u0120assessment": 3059, "\u0120care": 3060, "\u0120me": 3061, "\u0120z": 3062, "nate": 3063, "\u0120single": 3064, "\u0120comparison": 3065, "\u0120individual": 3066, "\u0120legal": 3067, "\u0120190": 3068, "am": 3069, "\u0120military": 3070, "\u0120level": 3071, "\u0120Reg": 3072, "vision": 3073, "ged": 3074, "\u0120And": 3075, "ks": 3076, "\u0120therapy": 3077, "ius": 3078, "\u0120fl": 3079, "\u0120encourage": 3080, "38": 3081, "\u0120character": 3082, "\u0120human": 3083, "\u0120radio": 3084, "\u0120channel": 3085, "\u0120limit": 3086, "\u0120re": 3087, "cked": 3088, "\u0120itself": 3089, "\u0120president": 3090, "\u0120fruit": 3091, "\u0120prevent": 3092, "\u0120la": 3093, "v": 3094, "\u0120Free": 3095, "ea": 3096, "ak": 3097, "\u0120Mor": 3098, "One": 3099, "\u0120waste": 3100, "\u0120In": 3101, "ds": 3102, "ens": 3103, "nning": 3104, "name": 3105, "By": 3106, "\u0120instance": 3107, "\u0120widespread": 3108, "\u0120getting": 3109, "ings": 3110, "\u0120went": 3111, "90": 3112, "let": 3113, "\u0120constant": 3114, "ER": 3115, "\u0120village": 3116, "11": 3117, "\u0120root": 3118, "\u0120special": 3119, "\u0129": 3120, "\u00ba": 3121, "\u0120dog": 3122, "\u0120turned": 3123, "\u0120reach": 3124, "\u0120although": 3125, "pper": 3126, "ories": 3127, "ust": 3128, "\u0120heavy": 3129, "\u0120course": 3130, "\u0120a": 3131, "\u0120Th": 3132, "\u0120fear": 3133, "ie": 3134, "nel": 3135, "\u0120mineral": 3136, "\u0120appro": 3137, "\u0120North": 3138, "\u0120enthusias": 3139, "At": 3140, "\u0120pay": 3141, "\u0120have": 3142, "\u0120Z": 3143, "en": 3144, "\u0120argue": 3145, "\u00ef": 3146, "ault": 3147, "ores": 3148, "ious": 3149, "\u0120degree": 3150, "\u0120recent": 3151, "\u0120immediately": 3152, "\u0120party": 3153, "\u0120century": 3154, "ular": 3155, "\u0120created": 3156, "`": 3157, "nd": 3158, "\u012013": 3159, "\u0120invest": 3160, "\u0120example": 3161, "\u0120Arizona": 3162, "\u0120down": 3163, "\u00c2": 3164, "\u0120Disease": 3165, "\u0120neuro": 3166, "\u0120late": 3167, "\u0120workers": 3168, "\u0120conclu": 3169, "ient": 3170, "\u0120mountain": 3171, "\u0120mer": 3172, "\u0120Alexand": 3173, "\u0120sh": 3174, "ten": 3175, "\u0120treated": 3176, "\u0120Your": 3177, "\u0120life": 3178, "ru": 3179, "\u0120met": 3180, "Source": 3181, "\u0120Kennedy": 3182, "Gr": 3183, "\u00b8": 3184, "\u0120fit": 3185, "bes": 3186, "ities": 3187, "mp": 3188, "oth": 3189, "\u0120http": 3190, "75": 3191, "\u0120mental": 3192, "\u0120favor": 3193, "\u0120sna": 3194, "\u0120needed": 3195, "\u0120le": 3196, "eign": 3197, "\u0120Da": 3198, "\u0120wi": 3199, "\u0120comprehensive": 3200, "fe": 3201, "mb": 3202, "\\": 3203, "\u0120building": 3204, "\u0120existing": 3205, "\u0120context": 3206, "\u0120immigr": 3207, "\u0120I": 3208, "nger": 3209, "ct": 3210, "ologists": 3211, "ound": 3212, "\u0120u": 3213, "\u0120inform": 3214, "\u0120witness": 3215, "\u0120By": 3216, "owing": 3217, "\u0120en": 3218, "\u0120third": 3219, "\u0120virus": 3220, "\u0120database": 3221, "\u0120process": 3222, "Additional": 3223, "\u0120186": 3224, "\u0120Democra": 3225, "used": 3226, "\u0120Dr": 3227, "\u0120claim": 3228, "\u0120Energy": 3229, "w": 3230, "\u0120trying": 3231, "\u0120Ind": 3232, "\u0120account": 3233, "\u0120served": 3234, "iness": 3235, "oo": 3236, "eries": 3237, "\u0120became": 3238, "\u0120review": 3239, "\u0120offers": 3240, "\u00df": 3241, "\u0120recommend": 3242, "22": 3243, "ats": 3244, "hood": 3245, "\u0120Fa": 3246, "bo": 3247, "\u0120Je": 3248, "\u0120call": 3249, "\u0120summ": 3250, "\u0120during": 3251, "\u0120extreme": 3252, "ill": 3253, "\u0120infrastructure": 3254, "\u0120Public": 3255, "\u0120colleagues": 3256, "\u0120Ste": 3257, "\u01208": 3258, "\u0120tele": 3259, "15": 3260, "\u0120d": 3261, "Before": 3262, "\u0120di": 3263, "ire": 3264, "\u0120Therefore": 3265, "ites": 3266, "\u0120Co": 3267, "eg": 3268, "\u0120exposure": 3269, "ought": 3270, "\u0120pat": 3271, "gin": 3272, "\u0120David": 3273, "\u0120photo": 3274, "\u0120manufactur": 3275, "\u0120job": 3276, "\u0120mathematic": 3277, "\u0120domestic": 3278, "\u0120kids": 3279, "\u0120log": 3280, "\u0120Standard": 3281, "\u0120Roosevelt": 3282, "ina": 3283, "\u0120ice": 3284, "ite": 3285, "\u0120cardiovascular": 3286, "\u0120Jewish": 3287, "eed": 3288, "\u0133": 3289, "\u0120border": 3290, "\u0120against": 3291, "tions": 3292, "Figure": 3293, "\u0120Du": 3294, "\u0120activities": 3295, "\u0120enormous": 3296, "\u0120viol": 3297, "\u0120Christian": 3298, "\u0120dry": 3299, "\u0120could": 3300, "\u0120teacher": 3301, "\u0120conscious": 3302, "n": 3303, "\u0120disorders": 3304, "pl": 3305, "Th": 3306, "ones": 3307, "\u0120worship": 3308, "vis": 3309, "\u0120anxiety": 3310, "ost": 3311, "\u0120populations": 3312, "\u0120lived": 3313, "ids": 3314, "\u0120provides": 3315, "\u0120hydro": 3316, "\u0120Michigan": 3317, "\u0120step": 3318, "ls": 3319, "\u0120arm": 3320, "ert": 3321, "\u0120hand": 3322, "\u0120Russia": 3323, "\u0120emp": 3324, "\u0120part": 3325, "cha": 3326, "\u0120Language": 3327, "\u0120sugar": 3328, "\u0120Black": 3329, "\u0120social": 3330, "\u0120track": 3331, "\u0120Ac": 3332, "\u0120today": 3333, "\u00dd": 3334, "\u0120only": 3335, "Despite": 3336, "bi": 3337, "\u0120Hawaii": 3338, "AL": 3339, "\u0120break": 3340, "ark": 3341, "j": 3342, "org": 3343, "\u0120changing": 3344, "\u0120increasing": 3345, "\u012025": 3346, "\u0120ha": 3347, "teenth": 3348, "\u0120wa": 3349, "ering": 3350, "nes": 3351, "\u0120expected": 3352, "\u0120office": 3353, "\u0120watch": 3354, "\u0120global": 3355, "ash": 3356, "ut": 3357, "M": 3358, "\u0120groups": 3359, "ain": 3360, "\u0120create": 3361, "\u0120children": 3362, "ki": 3363, "\u0120into": 3364, "\u0120vocabulary": 3365, "\u0120several": 3366, "\u0120integr": 3367, "\u0120We": 3368, "lo": 3369, "\u0120college": 3370, "cy": 3371, "\u0120sw": 3372, "ked": 3373, "Li": 3374, "\u0120German": 3375, "\u0120ja": 3376, "\u0120genetic": 3377, "\u0120Afghanistan": 3378, "\u0120Tu": 3379, "\u0120vi": 3380, "\u0120families": 3381, "\u0120pur": 3382, "\u0120taken": 3383, "\u0120select": 3384, "And": 3385, "\u0120right": 3386, "\u0120install": 3387, "\u0120bottom": 3388, "\u0120Kansas": 3389, "\u0120criminal": 3390, "\u0120full": 3391, "\u0120Cr": 3392, "\u0120factor": 3393, "ek": 3394, "\u0120public": 3395, "\u0120Jews": 3396, "iss": 3397, "ws": 3398, "\u0120department": 3399, "\u0120require": 3400, "ization": 3401, "\u0120improving": 3402, "\u0120Wi": 3403, "\u0120its": 3404, "ught": 3405, "\u01202006": 3406, "\u0120alone": 3407, "gg": 3408, "\u0120action": 3409, "gan": 3410, "\u0120creat": 3411, "\u0120located": 3412, "\u0120je": 3413, "\u0120return": 3414, "\u0120execut": 3415, "\u0120strategy": 3416, "\u0120illustr": 3417, "\u0120pharmac": 3418, "\u0120status": 3419, "\u0120ap": 3420, "\u0120labor": 3421, "\u0120look": 3422, "\u0120reserv": 3423, "rs": 3424, "\u0120black": 3425, "\u0120t": 3426, "\u0120French": 3427, "cture": 3428, "\u0120stop": 3429, "PA": 3430, "\u0120rock": 3431, "\u0120diabetes": 3432, "\u0120historical": 3433, "E": 3434, "\u0120Ha": 3435, "\u0120pack": 3436, "\u0120and": 3437, "\u0120cities": 3438, "\u0120unit": 3439, "\u0120scenario": 3440, "\u0120space": 3441, "ographic": 3442, "\u0120political": 3443, "\u0120Con": 3444, "\u0120th": 3445, "\u0120insu": 3446, "200": 3447, "\u0120early": 3448, "\u0120industry": 3449, "her": 3450, "ously": 3451, "\u0120celebr": 3452, "\u0120advantage": 3453, "ting": 3454, "lf": 3455, "gra": 3456, "\u0120later": 3457, "\u012020": 3458, "OR": 3459, "\u0120summer": 3460, "\u0120defined": 3461, "sl": 3462, "\u0120exhibit": 3463, "ta": 3464, "\u0120beneficial": 3465, "18": 3466, "\u0120maintenance": 3467, "\u0120support": 3468, "\u0120ent": 3469, "\u0120products": 3470, "\u0120simply": 3471, "\u0120cons": 3472, "\u0120Republic": 3473, "\u0120called": 3474, "\u0120spread": 3475, "etween": 3476, "ident": 3477, "\u0120democra": 3478, "si": 3479, "\u0120bu": 3480, "king": 3481, "\u0120order": 3482, "\u0120travel": 3483, "\u00d1": 3484, "\u0120dynamic": 3485, "oc": 3486, "\u0120won": 3487, "lin": 3488, "\u0120numbers": 3489, "\u0120it": 3490, "\u0120ignor": 3491, "\u0120cap": 3492, "lly": 3493, "\u0120He": 3494, "\u0120volunteer": 3495, "that": 3496, "\u0120offer": 3497, "\u0120increases": 3498, "\u0120nutrients": 3499, "\u0120imp": 3500, "\u0120feature": 3501, "\u0120wonder": 3502, "ower": 3503, "tle": 3504, "\u0120assign": 3505, "\u0120actual": 3506, "\u0120learned": 3507, "\u0120access": 3508, "\u0120reduce": 3509, "\u0120class": 3510, "own": 3511, "\u0120Min": 3512, "uch": 3513, "\u0120enter": 3514, "\u0120women": 3515, "\u0120music": 3516, "est": 3517, "ss": 3518, "\u0120wood": 3519, "\u0120Revolution": 3520, "tt": 3521, "\u0120Service": 3522, "\u0120wor": 3523, "ows": 3524, "\u0120breath": 3525, "light": 3526, "\u0120satellite": 3527, "\u0120flo": 3528, "uck": 3529, "\u0120Science": 3530, "2": 3531, "\u00e1": 3532, "Another": 3533, "\u0120gi": 3534, "\u0120'": 3535, "\u0120own": 3536, "\u0120moving": 3537, "\u0120lives": 3538, "\u0120Asia": 3539, "ion": 3540, "\u0120Go": 3541, "\u0120spec": 3542, "ium": 3543, "com": 3544, "\u0120born": 3545, "\u0120court": 3546, "1": 3547, "\u0120secret": 3548, "\u0120through": 3549, "\u0120routine": 3550, "ants": 3551, "\u0120answer": 3552, "\u0120spe": 3553, "\u0120Museum": 3554, "\u0120rich": 3555, "\u0120looking": 3556, "\u0120stroke": 3557, "\u0120slow": 3558, "\u0120belief": 3559, "\u0120eight": 3560, "\u0120pu": 3561, "\u0120capacity": 3562, "me": 3563, "\u0120yellow": 3564, "rry": 3565, "\u0120Also": 3566, "\u0120technology": 3567, "\u0120Nu": 3568, "\u0120pp": 3569, ",": 3570, "\u0120event": 3571, "\u01202002": 3572, "ex": 3573, "zz": 3574, "\u0120fun": 3575, "\u0120update": 3576, "\u0120February": 3577, "ent": 3578, "son": 3579, "\u0120victim": 3580, "\u0120behind": 3581, "\u0120excellent": 3582, "\u0120would": 3583, "\u0120scientific": 3584, "dependence": 3585, "\u0120personal": 3586, "ven": 3587, "\u0120Press": 3588, "be": 3589, "\u0120drive": 3590, "\u0120adapt": 3591, "\u0120ve": 3592, "way": 3593, "\u0120aff": 3594, "ake": 3595, "\u0120touch": 3596, "\u0120Em": 3597, "\u0120Further": 3598, "side": 3599, "du": 3600, "\u0120Because": 3601, "\u0120ti": 3602, "\u0120History": 3603, "\u0120Valley": 3604, "air": 3605, "ine": 3606, "\u0120liter": 3607, "\u0120mix": 3608, "\u0120include": 3609, "\u0120line": 3610, "\u0120cancer": 3611, "IS": 3612, "\u0120great": 3613, "\u0120If": 3614, "urs": 3615, "\u0120Ohio": 3616, "\u0120additional": 3617, "\u0120sleep": 3618, "\u0120media": 3619, "\u0120see": 3620, "\u0120conflict": 3621, "\u0120middle": 3622, "\u0120many": 3623, "cript": 3624, "\u0120apparent": 3625, "\u0137": 3626, "lan": 3627, "bin": 3628, "\u0120dioxide": 3629, "\u0120ratio": 3630, "\u0120education": 3631, "\u0120field": 3632, "\u0120helps": 3633, "dr": 3634, "sted": 3635, "If": 3636, "According": 3637, "\u0120moment": 3638, "ians": 3639, "\u0120convers": 3640, "\u0120procedure": 3641, "\u0120doubt": 3642, "\u0120satisf": 3643, "\u0120person": 3644, "\u0120cra": 3645, "\u0120didn": 3646, "\u0120reason": 3647, "ins": 3648, "\u0120wide": 3649, "\u0120jurisdiction": 3650, "een": 3651, "\u0120Har": 3652, "\u0120less": 3653, "\u0120contains": 3654, "\u0120risk": 3655, "\u0120which": 3656, "\u0120ways": 3657, "\u0120--": 3658, "\u0120Italian": 3659, "\u0120January": 3660, "shing": 3661, "\u0120effects": 3662, "cept": 3663, "\u0120Wildlife": 3664, "\u0120feet": 3665, "\u00cf": 3666, "\u00ed": 3667, "ains": 3668, "age": 3669, "ern": 3670, "\u0120si": 3671, "har": 3672, ".\u00e2\u0122\u013f": 3673, "\u0120It": 3674, "\u0120THE": 3675, "\u0120chosen": 3676, "\u0120pe": 3677, "\u0120scene": 3678, "\u0120problem": 3679, "\u0120normal": 3680, "\u0120hard": 3681, "od": 3682, "\u0120publish": 3683, "\u0120situation": 3684, "olved": 3685, "\u0120multiple": 3686, "ker": 3687, "\u0120Sc": 3688, "\u0120address": 3689, "ast": 3690, "32": 3691, "\u0120Smith": 3692, "\u0120ins": 3693, "\u0120ten": 3694, "rm": 3695, "\u0120critical": 3696, "year": 3697, "\u0120fundamental": 3698, "ib": 3699, "s": 3700, "\u0120Their": 3701, "\u0120Br": 3702, "\u0120wh": 3703, "\u0120Italy": 3704, "\u0120heart": 3705, "\u00e2\u0122\u013f": 3706, "\u01201": 3707, "\u0120effort": 3708, "tain": 3709, "\u0120records": 3710, "z": 3711, "\u00cd": 3712, "el": 3713, "See": 3714, "ach": 3715, "iv": 3716, "\u0120cognitive": 3717, "\u0120leg": 3718, "ric": 3719, "S": 3720, "\u0120progress": 3721, "ized": 3722, "\u0120places": 3723, "\u0120comp": 3724, "\u0120son": 3725, "line": 3726, "\u0120Pakistan": 3727, "\u0120novel": 3728, "\u0120explain": 3729, "\u0120As": 3730, "\u0120General": 3731, "\u0120strategies": 3732, "\u0120was": 3733, "\u0120female": 3734, "\u0120goal": 3735, "va": 3736, "\u0120killed": 3737, "\u0120discover": 3738, "\u0120diagnos": 3739, "What": 3740, "\u0120surface": 3741, "\u0120Ba": 3742, "\u0120European": 3743, "\u0127": 3744, "\u0120studies": 3745, "\u0120requires": 3746, "eu": 3747, "al": 3748, "\u0120typically": 3749, "day": 3750, "i": 3751, "\u0120Ocean": 3752, "\u0120us": 3753, "\u0120pick": 3754, "\u0120troops": 3755, "\u0120obtain": 3756, "\u0120j": 3757, "\u0120gradu": 3758, "\u0120Sp": 3759, "\u0120our": 3760, "\u0120etc": 3761, "\u0120harvest": 3762, "\u0120El": 3763, "\u0120cri": 3764, "\u0120location": 3765, "\u0120knowledge": 3766, "\u00de": 3767, "\u0120accurate": 3768, "oss": 3769, "\u0120purchase": 3770, "\u01202003": 3771, "\u0120estimate": 3772, "\u0120eliminat": 3773, "\u0120star": 3774, "\u00cc": 3775, "graph": 3776, "\u0120used": 3777, "\u0120199": 3778, "las": 3779, "\u0120consumption": 3780, "\u0120Each": 3781, "\u0120decrease": 3782, "\u0120Ex": 3783, "tch": 3784, "\u00e2": 3785, "ography": 3786, "\u00ac": 3787, "\u0120clu": 3788, "ague": 3789, "arian": 3790, "\u0120system": 3791, "\u0120content": 3792, "\u0120sold": 3793, "\u0120accomplish": 3794, "\u0120bodies": 3795, "\u0120market": 3796, "\u0120cr": 3797, "\u0120Rights": 3798, "\u0120ad": 3799, "take": 3800, "\u0120play": 3801, "\u0120weeks": 3802, "fi": 3803, "\u0120highest": 3804, "\u0120together": 3805, "cu": 3806, "\u0120importance": 3807, "\u0120audi": 3808, "6": 3809, "\u0120head": 3810, "\u0120background": 3811, "\u0120St": 3812, "\u0120Lincoln": 3813, "\u0120noted": 3814, "\u0120adequate": 3815, "\u0120breast": 3816, "le": 3817, "\u0120National": 3818, "\u0120various": 3819, "\u0120Ob": 3820, "fortunately": 3821, "ware": 3822, "\u0120what": 3823, "\u0120principal": 3824, "ES": 3825, "Some": 3826, "\u0120ho": 3827, "\u0120operations": 3828, "\u0120learn": 3829, "\u0120commercial": 3830, "\u0120major": 3831, "\u0120tri": 3832, "form": 3833, "oting": 3834, "\u0120Se": 3835, "\u0120n": 3836, "\u0120separate": 3837, "\u0120Confedera": 3838, "\u0120objects": 3839, "\u0120Korea": 3840, "\u0120ste": 3841, "\u0120according": 3842, "\u0120Here": 3843, "\u0120abs": 3844, "\u0120particularly": 3845, "\u0120electricity": 3846, "\u0120thing": 3847, "\u0120shall": 3848, "\u0120path": 3849, "\u0120site": 3850, "qui": 3851, "\u0120tra": 3852, "\u0120coal": 3853, "\u0120encounter": 3854, "\u0120speak": 3855, "\u0120percent": 3856, "\u0120un": 3857, "nted": 3858, "\u0120Virginia": 3859, "\u0120series": 3860, "\u0120affected": 3861, "\u0120God": 3862, "\u0120help": 3863, "rb": 3864, "\u0120Although": 3865, "\u0120annual": 3866, "\u0120Mo": 3867, "ational": 3868, "\u0120air": 3869, "\u0120effective": 3870, "\u0120D": 3871, "ang": 3872, "nk": 3873, "\u00d5": 3874, "\u012c": 3875, "\u0120creation": 3876, "For": 3877, "tent": 3878, "vy": 3879, "rus": 3880, "\u0120act": 3881, "\u0120shows": 3882, "\u0120child": 3883, "related": 3884, "\u0120investig": 3885, "\u0120insect": 3886, "\u0120back": 3887, "\u0120value": 3888, "\u013e": 3889, "\u0120forces": 3890, "\u0120scale": 3891, "\u0120tax": 3892, "\u0120ear": 3893, "\u0120Green": 3894, "\u0120George": 3895, "\u0120library": 3896, "50": 3897, "ome": 3898, "\u0120title": 3899, "ms": 3900, "za": 3901, "\u0120minimum": 3902, "ved": 3903, "\u0120family": 3904, "\u0120Secretary": 3905, "ter": 3906, "\u0120soon": 3907, "\u0120extremely": 3908, "\u0120both": 3909, "\u0120Thus": 3910, "style": 3911, "\u0120chemotherapy": 3912, "\u0120top": 3913, "\u0120punish": 3914, "ctor": 3915, "\u013d": 3916, "\u0120world": 3917, ",\"": 3918, "\u0120screen": 3919, "\u0120useful": 3920, "\u0120transl": 3921, "ok": 3922, "\u0120But": 3923, "aring": 3924, "\u0120concern": 3925, "pa": 3926, "\u0120car": 3927, "ni": 3928, "\u0136": 3929, "\u0120ur": 3930, "You": 3931, "\u0120drugs": 3932, "\u0120The": 3933, "ga": 3934, "\u0120high": 3935, "\u00f0": 3936, "He": 3937, "\u0120Ke": 3938, "level": 3939, "\u01206": 3940, "alth": 3941, "\u0120aid": 3942, "\u0120code": 3943, "\u00cb": 3944, "\u0120Do": 3945, "less": 3946, "K": 3947, "at": 3948, "\u0120fair": 3949, "000": 3950, "\u0120however": 3951, "\u0120industries": 3952, "\u0120\u00e2\u0128\u0133": 3953, "\u0120s": 3954, "ore": 3955, "\u00be": 3956, "\u0120medicine": 3957, "\u0120stress": 3958, "\u0120explo": 3959, "\u0120Mu": 3960, "?": 3961, "\u0120worked": 3962, "\u0120Richard": 3963, "\u0120word": 3964, "\u00a6": 3965, "\u0120sequence": 3966, "\u0120collect": 3967, "\u0120begin": 3968, "\u0120kidney": 3969, "\u0120type": 3970, "\u0120Im": 3971, "\u0120ref": 3972, "hi": 3973, "\u0120west": 3974, "\u0120eggs": 3975, "\u0120married": 3976, "\u0120buy": 3977, "\u0120Company": 3978, "\u0120fertil": 3979, "cular": 3980, "dom": 3981, "\u0120Or": 3982, "\u0120Governor": 3983, "\u0120related": 3984, "\u0120list": 3985, "\u0120if": 3986, "ths": 3987, "\u0120rights": 3988, "\u0120phrase": 3989, "\u0120e": 3990, "\u0120identified": 3991, "\u0120hope": 3992, "ives": 3993, "\u0120pages": 3994, "\u0120declared": 3995, "ney": 3996, "\u0120old": 3997, "\u0120Si": 3998, "ia": 3999, "\u0120stimul": 4000, "\u01202011": 4001, "\u0120L": 4002, "\u0120international": 4003, "\u0120reinforce": 4004, "\u00b5": 4005, "\u0120Hospital": 4006, "\u0120Che": 4007, "\u0120English": 4008, "\u0120Information": 4009, "\u0120architect": 4010, "\u0120device": 4011, "\u0120their": 4012, "\u0120usually": 4013, "\u0120best": 4014, "\u00d8": 4015, "\u0120read": 4016, "\u0120jo": 4017, "\u0120mis": 4018, "\u0120connect": 4019, "\u0120below": 4020, "\u0120feed": 4021, "\u0120causes": 4022, "\u0120users": 4023, "\u0120gives": 4024, "\u0120to": 4025, "\u0120197": 4026, "airs": 4027, "\u0120symptoms": 4028, "\u0120means": 4029, "\u0120Even": 4030, "ink": 4031, "\u0120ne": 4032, "ation": 4033, "\u0120cause": 4034, "\u0120gave": 4035, "\u0120community": 4036, "pe": 4037, "\u0120continue": 4038, "\u0120citizen": 4039, "\u0120member": 4040, "term": 4041, "mes": 4042, "\u0120June": 4043, "\u0120slightly": 4044, "\u0120parallel": 4045, "ps": 4046, "\u0120continued": 4047, "ide": 4048, "\u00d7": 4049, "\u0120oper": 4050, "\u0120adolescen": 4051, "\u0120running": 4052, "\u0120should": 4053, "lder": 4054, "par": 4055, "\u0120Federal": 4056, "J": 4057, "\u0120about": 4058, "\u0120Wil": 4059, "cks": 4060, "ley": 4061, "\u01202000": 4062, "\u0120amount": 4063, "int": 4064, "\u0120form": 4065, "ties": 4066, "\u0120unique": 4067, "\u0120states": 4068, "\u0120argument": 4069, "\u0120you": 4070, "\u0120learning": 4071, "70": 4072, "\u0120rate": 4073, "\u0120northern": 4074, "\u00d4": 4075, ".\"": 4076, "\u0120sort": 4077, "uk": 4078, "\u0120sc": 4079, "\u0120Spanish": 4080, "rth": 4081, "\u0120given": 4082, "$": 4083, "\u0120tool": 4084, "\u0120How": 4085, "\u0120Per": 4086, "au": 4087, "eth": 4088, "ird": 4089, "\u0120product": 4090, "\u0120Chicago": 4091, "\u0120guarantee": 4092, "\u0120grow": 4093, "\u0120extra": 4094, "\u0135": 4095}