{
  "version": "1.0",
  "truncation": null,
  "padding": null,
  "added_tokens": [
    {
      "id": 0,
      "content": "<|bos|>",
      "single_word": false,
      "lstrip": false,
      "rstrip": false,
      "normalized": false,
      "special": true
    },
    {
      "id": 1,
      "content": "<|user_start|>",
      "single_word": false,
      "lstrip": false,
      "rstrip": false,
      "normalized": false,
      "special": true
    },
    {
      "id": 2,
      "content": "<|user_end|>",
      "single_word": false,
      "lstrip": false,
      "rstrip": false,
      "normalized": false,
      "special": true
    },
    {
      "id": 3,
      "content": "<|assistant_start|>",
      "single_word": false,
      "lstrip": false,
      "rstrip": false,
      "normalized": false,
      "special": true
    },
    {
      "id": 4,
      "content": "<|assistant_end|>",
      "single_word": false,
      "lstrip": false,
      "rstrip": false,
      "normalized": false,
      "special": true
    },
    {
      "id": 5,
      "content": "<|python_start|>",
      "single_word": false,
      "lstrip": false,
      "rstrip": false,
      "normalized": false,
      "special": true
    },
    {
      "id": 6,
      "content": "<|python_end|>",
      "single_word": false,
      "lstrip": false,
      "rstrip": false,
      "normalized": false,
      "special": true
    },
    {
      "id": 7,
      "content": "<|output_start|>",
      "single_word": false,
      "lstrip": false,
      "rstrip": false,
      "normalized": false,
      "special": true
    },
    {
      "id": 8,
      "content": "<|output_end|>",
      "single_word": false,
      "lstrip": false,
      "rstrip": false,
      "normalized": false,
      "special": true
    },
    {
      "id": 9,
      "content": "<|unk|>",
      "single_word": false,
      "lstrip": false,
      "rstrip": false,
      "normalized": false,
      "special": true
    }
  ],
  "normalizer": null,
  "pre_tokenizer": {
    "type": "Sequence",
    "pretokenizers": [
      {
        "type": "Split",
        "pattern": {
          "Regex": "'(?i:[sdmt]|ll|ve|re)|[^\\r\\n\\p{L}\\p{N}]?+\\p{L}+|\\p{N}{1,2}| ?[^\\s\\p{L}\\p{N}]++[\\r\\n]*|\\s*[\\r\\n]|\\s+(?!\\S)|\\s+"
        },
        "behavior": "Isolated",
        "invert": false
      },
      {
        "type": "ByteLevel",
        "add_prefix_space": false,
        "trim_offsets": true,
        "use_regex": false
      }
    ]
  },
  "post_processor": {
    "type": "TemplateProcessing",
    "single": [
      {
        "Sequence": {
          "id": "A",
          "type_id": 0
        }
      }
    ],
    "pair": [
      {
        "Sequence": {
          "id": "A",
          "type_id": 0
        }
      },
      {
        "Sequence": {
          "id": "B",
          "type_id": 1
        }
      }
    ],
    "special_tokens": {}
  },
  "decoder": {
    "type": "ByteLevel",
    "add_prefix_space": true,
    "trim_offsets": true,
    "use_regex": true
  },
  "model": {
    "type": "Unigram",
    "unk_id": 9,
    "vocab": [
      [
        "<|bos|>",
        -1.0
      ],
      [
        "<|user_start|>",
        -1.0
      ],
      [
        "<|user_end|>",
        -1.0
      ],
      [
        "<|assistant_start|>",
        -1.0
      ],
      [
        "<|assistant_end|>",
        -1.0
      ],
      [
        "<|python_start|>",
        -1.0
      ],
      [
        "<|python_end|>",
        -1.0
      ],
      [
        "<|output_start|>",
        -1.0
      ],
      [
        "<|output_end|>",
        -1.0
      ],
      [
        "<|unk|>",
        -1.0
      ],
      [
        "Ġroam",
        -1.0
      ],
      [
        "Ġjerking",
        -1.0
      ],
      [
        "Margarine",
        -1.0
      ],
      [
        "-duper",
        -1.0
      ],
      [
        "ĠEnvy",
        -1.0
      ],
      [
        "ĠTompkins",
        -1.0
      ],
      [
        "Ġpunctuated",
        -1.0
      ],
      [
        "Ġbiofilter",
        -1.0
      ],
      [
        "ĠCorregidor",
        -1.0
      ],
      [
        "Ġdispatcher",
        -1.0
      ],
      [
        "ĠPull",
        -1.0
      ],
      [
        "Ġunsteadiness",
        -1.0
      ],
      [
        "ĠGhillie",
        -1.0
      ],
      [
        "Ġn",
        -1.0
      ],
      [
        "Ġfloodplains",
        -1.0
      ],
      [
        "/den",
        -1.0
      ],
      [
        "63",
        -1.0
      ],
      [
        "Ġpsig",
        -1.0
      ],
      [
        "Ġagitated",
        -1.0
      ],
      [
        "-Windsor",
        -1.0
      ],
      [
        "Ġrepositioned",
        -1.0
      ],
      [
        "ĠDassault",
        -1.0
      ],
      [
        "ĠRadisson",
        -1.0
      ],
      [
        "surface",
        -1.0
      ],
      [
        "/Î¼",
        -1.0
      ],
      [
        "Ġviscometer",
        -1.0
      ],
      [
        "ĠDMZ",
        -1.0
      ],
      [
        "ĠWheel",
        -1.0
      ],
      [
        "Ġpolycyclic",
        -1.0
      ],
      [
        "-bullying",
        -1.0
      ],
      [
        "-smacking",
        -1.0
      ],
      [
        "ĠJAPAN",
        -1.0
      ],
      [
        "ÑĥÑİ",
        -1.0
      ],
      [
        "ĠXXX",
        -1.0
      ],
      [
        "Ġcomfy",
        -1.0
      ],
      [
        "Ġnonaqueous",
        -1.0
      ],
      [
        "grams",
        -1.0
      ],
      [
        "INE",
        -1.0
      ],
      [
        "Ġrotate",
        -1.0
      ],
      [
        "Apoptosis",
        -1.0
      ],
      [
        "nky",
        -1.0
      ],
      [
        "Ġwalnut",
        -1.0
      ],
      [
        "ĠRevenue",
        -1.0
      ],
      [
        "ĠAqaba",
        -1.0
      ],
      [
        "ĠRentokil",
        -1.0
      ],
      [
        "ĠCONDUCT",
        -1.0
      ],
      [
        "Laziness",
        -1.0
      ],
      [
        "ĠSNN",
        -1.0
      ],
      [
        "ĠRedbone",
        -1.0
      ],
      [
        "ĠDoYourClone",
        -1.0
      ],
      [
        "ĠVechten",
        -1.0
      ],
      [
        "Ġcrossfade",
        -1.0
      ],
      [
        "ĠEdo",
        -1.0
      ],
      [
        "isy",
        -1.0
      ],
      [
        "ĠCheckout",
        -1.0
      ],
      [
        "ĠFused",
        -1.0
      ],
      [
        "ÑĢÐ°",
        -1.0
      ],
      [
        "Ġexudative",
        -1.0
      ],
      [
        "Ġemulsification",
        -1.0
      ],
      [
        "(IV",
        -1.0
      ],
      [
        "Ġmammoths",
        -1.0
      ],
      [
        "ĠKIDZ",
        -1.0
      ],
      [
        ".dot",
        -1.0
      ],
      [
        "Ġbauxite",
        -1.0
      ],
      [
        "Ġfeedbacks",
        -1.0
      ],
      [
        "itaki",
        -1.0
      ],
      [
        "RV",
        -1.0
      ],
      [
        "ĠëĪĦìĦ¤",
        -1.0
      ],
      [
        "ķ",
        -1.0
      ],
      [
        "ĠOutdoors",
        -1.0
      ],
      [
        "INAUDIBLE",
        -1.0
      ],
      [
        "ĠEasley",
        -1.0
      ],
      [
        "However",
        -1.0
      ],
      [
        "ĠNewmarket",
        -1.0
      ],
      [
        "Ġdepressur",
        -1.0
      ],
      [
        "ĠRapid",
        -1.0
      ],
      [
        "-numeric",
        -1.0
      ],
      [
        "Ġsedges",
        -1.0
      ],
      [
        "draai",
        -1.0
      ],
      [
        "ĠByrne",
        -1.0
      ],
      [
        "follow",
        -1.0
      ],
      [
        "Ġvalidly",
        -1.0
      ],
      [
        "Ġsuppressant",
        -1.0
      ],
      [
        "Ġnarrator",
        -1.0
      ],
      [
        "Ġjeremy",
        -1.0
      ],
      [
        "ĠPeking",
        -1.0
      ],
      [
        "Ġlopsided",
        -1.0
      ],
      [
        "Ġsensuous",
        -1.0
      ],
      [
        "ĠMultiplication",
        -1.0
      ],
      [
        "Ġreddit",
        -1.0
      ],
      [
        "Ġunpredictable",
        -1.0
      ],
      [
        ".Value",
        -1.0
      ],
      [
        "Ġmicrometers",
        -1.0
      ],
      [
        "drop",
        -1.0
      ],
      [
        "icks",
        -1.0
      ],
      [
        "Comorbid",
        -1.0
      ],
      [
        "Ġterror",
        -1.0
      ],
      [
        "Ġflatness",
        -1.0
      ],
      [
        "Ġrakish",
        -1.0
      ],
      [
        "ĠPOSIX",
        -1.0
      ],
      [
        "Ġmidget",
        -1.0
      ],
      [
        "ĠFASD",
        -1.0
      ],
      [
        ".Their",
        -1.0
      ],
      [
        "Ġdiscreet",
        -1.0
      ],
      [
        "ĠUs",
        -1.0
      ],
      [
        "Ġassembling",
        -1.0
      ],
      [
        "Ġbackslash",
        -1.0
      ],
      [
        "-department",
        -1.0
      ],
      [
        "Ġintruders",
        -1.0
      ],
      [
        "Invite",
        -1.0
      ],
      [
        "Owning",
        -1.0
      ],
      [
        "ĠWBC",
        -1.0
      ],
      [
        "Ġretelling",
        -1.0
      ],
      [
        "ĠBabbitt",
        -1.0
      ],
      [
        "ĠPromised",
        -1.0
      ],
      [
        "Â´",
        -1.0
      ],
      [
        "Ġstate",
        -1.0
      ],
      [
        "Ġtails",
        -1.0
      ],
      [
        "Ã¤g",
        -1.0
      ],
      [
        "ĠFSU",
        -1.0
      ],
      [
        "lio",
        -1.0
      ],
      [
        "Quantifying",
        -1.0
      ],
      [
        "PW",
        -1.0
      ],
      [
        "laka",
        -1.0
      ],
      [
        "Ġoppressed",
        -1.0
      ],
      [
        "Ġtaxidermy",
        -1.0
      ],
      [
        "ĠGoodman",
        -1.0
      ],
      [
        "Ġskating",
        -1.0
      ],
      [
        "ĠNeon",
        -1.0
      ],
      [
        "Ġrelaunch",
        -1.0
      ],
      [
        "DUDE",
        -1.0
      ],
      [
        "Ġultimatum",
        -1.0
      ],
      [
        "Ġpyrimidine",
        -1.0
      ],
      [
        "Ġtimings",
        -1.0
      ],
      [
        "-together",
        -1.0
      ],
      [
        "/Committee",
        -1.0
      ],
      [
        "ĠCoated",
        -1.0
      ],
      [
        "ĠVerv",
        -1.0
      ],
      [
        "Ġfaceting",
        -1.0
      ],
      [
        "Ġventilatory",
        -1.0
      ],
      [
        "Ġinternalize",
        -1.0
      ],
      [
        "ĠProbably",
        -1.0
      ],
      [
        "Ġsympathise",
        -1.0
      ],
      [
        "ĠPausanias",
        -1.0
      ],
      [
        "ĠSeparation",
        -1.0
      ],
      [
        "Ġmousing",
        -1.0
      ],
      [
        "Ġworking",
        -1.0
      ],
      [
        "Ġpolygon",
        -1.0
      ],
      [
        "Swollen",
        -1.0
      ],
      [
        "_LIBRARY",
        -1.0
      ],
      [
        "Ġincoming",
        -1.0
      ],
      [
        "-pounding",
        -1.0
      ],
      [
        "Ġgoddamn",
        -1.0
      ],
      [
        "point",
        -1.0
      ],
      [
        "Ġspotty",
        -1.0
      ],
      [
        "Ġunreacted",
        -1.0
      ],
      [
        "Ġsynchrony",
        -1.0
      ],
      [
        "-Simon",
        -1.0
      ],
      [
        "ĠWillerslev",
        -1.0
      ],
      [
        "/st",
        -1.0
      ],
      [
        "azzard",
        -1.0
      ],
      [
        "ĠRolf",
        -1.0
      ],
      [
        "yata",
        -1.0
      ],
      [
        "ĠModeler",
        -1.0
      ],
      [
        "ĠCommunist",
        -1.0
      ],
      [
        "Ġpuzzled",
        -1.0
      ],
      [
        "usate",
        -1.0
      ],
      [
        "ĠGIMP",
        -1.0
      ],
      [
        "Ġdisturbs",
        -1.0
      ],
      [
        "iel",
        -1.0
      ],
      [
        "ĠFinnish",
        -1.0
      ],
      [
        "Ġanchorage",
        -1.0
      ],
      [
        "Ġgloriously",
        -1.0
      ],
      [
        "Ġinhabitants",
        -1.0
      ],
      [
        "Ġlets",
        -1.0
      ],
      [
        "Ġboardwalk",
        -1.0
      ],
      [
        "ĠCompetitors",
        -1.0
      ],
      [
        "amu",
        -1.0
      ],
      [
        "ĠKamo",
        -1.0
      ],
      [
        "ĠIon",
        -1.0
      ],
      [
        "Ġpersnickety",
        -1.0
      ],
      [
        "ĠAVX",
        -1.0
      ],
      [
        "ĠHopi",
        -1.0
      ],
      [
        "Ġsupplying",
        -1.0
      ],
      [
        ":F",
        -1.0
      ],
      [
        "ĠbÃ¶",
        -1.0
      ],
      [
        "Ġrideshare",
        -1.0
      ],
      [
        "ĠHydrogen",
        -1.0
      ],
      [
        "ĠZaid",
        -1.0
      ],
      [
        "ĠBlade",
        -1.0
      ],
      [
        "Ġchicory",
        -1.0
      ],
      [
        "Ġreacting",
        -1.0
      ],
      [
        "-aortic",
        -1.0
      ],
      [
        "Ġstanley",
        -1.0
      ],
      [
        "ĠDatura",
        -1.0
      ],
      [
        "Ġconning",
        -1.0
      ],
      [
        "ĠVolpe",
        -1.0
      ],
      [
        "-weighed",
        -1.0
      ],
      [
        "Ġatomically",
        -1.0
      ],
      [
        "ĠLewisite",
        -1.0
      ],
      [
        "-radiative",
        -1.0
      ],
      [
        "Develop",
        -1.0
      ],
      [
        "EXPLANATION",
        -1.0
      ],
      [
        "Ġcovers",
        -1.0
      ],
      [
        "Ġpastors",
        -1.0
      ],
      [
        "Ġdisapprove",
        -1.0
      ],
      [
        "sb",
        -1.0
      ],
      [
        "Ġcrowns",
        -1.0
      ],
      [
        "Ãĺ",
        -1.0
      ],
      [
        "ĠFascination",
        -1.0
      ],
      [
        "raj",
        -1.0
      ],
      [
        "Ġcontroversial",
        -1.0
      ],
      [
        "Ġecstacy",
        -1.0
      ],
      [
        "ĠLGBTQ",
        -1.0
      ],
      [
        "Ġdirect",
        -1.0
      ],
      [
        "ĠBourgeois",
        -1.0
      ],
      [
        "Ġmartian",
        -1.0
      ],
      [
        "ANS",
        -1.0
      ],
      [
        "ĠVoyage",
        -1.0
      ],
      [
        "ĠFs",
        -1.0
      ],
      [
        "ĠDÄģna",
        -1.0
      ],
      [
        "ĠJug",
        -1.0
      ],
      [
        "Watercress",
        -1.0
      ],
      [
        "Ġsocialite",
        -1.0
      ],
      [
        "_OFF",
        -1.0
      ],
      [
        "Ġvirulent",
        -1.0
      ],
      [
        "ĠTERMS",
        -1.0
      ],
      [
        "Ġscalding",
        -1.0
      ],
      [
        "ĠAPC",
        -1.0
      ],
      [
        "Ġshaver",
        -1.0
      ],
      [
        "Ġvarmint",
        -1.0
      ],
      [
        "Ġfactorization",
        -1.0
      ],
      [
        "/fur",
        -1.0
      ],
      [
        "Ġbound",
        -1.0
      ],
      [
        "ĠStephane",
        -1.0
      ],
      [
        "Ãĵ",
        -1.0
      ],
      [
        "Â¤",
        -1.0
      ],
      [
        "\\rangle",
        -1.0
      ],
      [
        "Ġreapplication",
        -1.0
      ],
      [
        ".Simple",
        -1.0
      ],
      [
        "kx",
        -1.0
      ],
      [
        "\"Technology",
        -1.0
      ],
      [
        "Ġcritically",
        -1.0
      ],
      [
        "Ġweeding",
        -1.0
      ],
      [
        "Matricaria",
        -1.0
      ],
      [
        "Ġcoronary",
        -1.0
      ],
      [
        "ĠHall",
        -1.0
      ],
      [
        "ĠRope",
        -1.0
      ],
      [
        "Nitr",
        -1.0
      ],
      [
        "ĠGardenscapes",
        -1.0
      ],
      [
        "Ġbulbils",
        -1.0
      ],
      [
        "ĠESD",
        -1.0
      ],
      [
        "ĠHerb",
        -1.0
      ],
      [
        "ĠPain",
        -1.0
      ],
      [
        "-prime",
        -1.0
      ],
      [
        "Ġzebras",
        -1.0
      ],
      [
        "princip",
        -1.0
      ],
      [
        "Ġinstallments",
        -1.0
      ],
      [
        "Ġchlorophyll",
        -1.0
      ],
      [
        "ĠPresented",
        -1.0
      ],
      [
        "{R",
        -1.0
      ],
      [
        "Ġaquafaba",
        -1.0
      ],
      [
        "Ġmildest",
        -1.0
      ],
      [
        "Ġgreedily",
        -1.0
      ],
      [
        "ĠMachina",
        -1.0
      ],
      [
        "chenko",
        -1.0
      ],
      [
        "Ġindications",
        -1.0
      ],
      [
        "\"Don",
        -1.0
      ],
      [
        "ĠJeb",
        -1.0
      ],
      [
        ")//",
        -1.0
      ],
      [
        "Ġincorporates",
        -1.0
      ],
      [
        "Ġinternment",
        -1.0
      ],
      [
        "`,",
        -1.0
      ],
      [
        "Ġtwin",
        -1.0
      ],
      [
        "âĪĴx",
        -1.0
      ],
      [
        "Ġmouthed",
        -1.0
      ],
      [
        "Ġcontractors",
        -1.0
      ],
      [
        "ĠGrattan",
        -1.0
      ],
      [
        "-Files",
        -1.0
      ],
      [
        "Ġtrimethyl",
        -1.0
      ],
      [
        "ĠInnate",
        -1.0
      ],
      [
        "ĠDamaging",
        -1.0
      ],
      [
        "ĠFarrell",
        -1.0
      ],
      [
        "shti",
        -1.0
      ],
      [
        "Ġthreatened",
        -1.0
      ],
      [
        "Ġattracting",
        -1.0
      ],
      [
        "Ġspoiler",
        -1.0
      ],
      [
        "_set",
        -1.0
      ],
      [
        "ĠFairly",
        -1.0
      ],
      [
        "ĠBelinda",
        -1.0
      ],
      [
        "-seeing",
        -1.0
      ],
      [
        "Ġmeristematic",
        -1.0
      ],
      [
        "Ġjurisprudence",
        -1.0
      ],
      [
        "ĠSMRT",
        -1.0
      ],
      [
        "Ġcities",
        -1.0
      ],
      [
        "hk",
        -1.0
      ],
      [
        "Â¯",
        -1.0
      ],
      [
        "Ð¾m",
        -1.0
      ],
      [
        "ĠDowney",
        -1.0
      ],
      [
        "rch",
        -1.0
      ],
      [
        "Ġcolloquium",
        -1.0
      ],
      [
        "-resonant",
        -1.0
      ],
      [
        "ĠSommer",
        -1.0
      ],
      [
        "ĠLamm",
        -1.0
      ],
      [
        "Dehumidify",
        -1.0
      ],
      [
        "Ġexpressions",
        -1.0
      ],
      [
        "over",
        -1.0
      ],
      [
        "ĠLough",
        -1.0
      ],
      [
        "Ġhydrogels",
        -1.0
      ],
      [
        "Ġpowerpoint",
        -1.0
      ],
      [
        "Ġgearboxes",
        -1.0
      ],
      [
        "ĠTawa",
        -1.0
      ],
      [
        "ĠNantucket",
        -1.0
      ],
      [
        "Ġtreasury",
        -1.0
      ],
      [
        "Ġoverheats",
        -1.0
      ],
      [
        "ĠHose",
        -1.0
      ],
      [
        "Ġtillandsia",
        -1.0
      ],
      [
        "ĠWill",
        -1.0
      ],
      [
        "ĠWNBA",
        -1.0
      ],
      [
        "Ġfox",
        -1.0
      ],
      [
        "ĠACM",
        -1.0
      ],
      [
        "Ġdemoted",
        -1.0
      ],
      [
        "Ġmanifesto",
        -1.0
      ],
      [
        "ĠDevils",
        -1.0
      ],
      [
        "Ġmeaning",
        -1.0
      ],
      [
        "ĠUinta",
        -1.0
      ],
      [
        "Ġmotorsport",
        -1.0
      ],
      [
        "Ġprecaution",
        -1.0
      ],
      [
        ")D",
        -1.0
      ],
      [
        "-Union",
        -1.0
      ],
      [
        "Ġimprinting",
        -1.0
      ],
      [
        "Ġconstitution",
        -1.0
      ],
      [
        "gÐµ",
        -1.0
      ],
      [
        "Ġskewness",
        -1.0
      ],
      [
        "Ġsalespeople",
        -1.0
      ],
      [
        "Ġredemption",
        -1.0
      ],
      [
        "ĠAmi",
        -1.0
      ],
      [
        "Ġshotguns",
        -1.0
      ],
      [
        "ĠAben",
        -1.0
      ],
      [
        "ĠFreedmen",
        -1.0
      ],
      [
        "Ġeyeglasses",
        -1.0
      ],
      [
        "Ġalgebraically",
        -1.0
      ],
      [
        "-containing",
        -1.0
      ],
      [
        "Ġdakota",
        -1.0
      ],
      [
        "Ġdeparts",
        -1.0
      ],
      [
        "Ġmarinades",
        -1.0
      ],
      [
        "Ġsnippets",
        -1.0
      ],
      [
        "Stairway",
        -1.0
      ],
      [
        "ĠSEAL",
        -1.0
      ],
      [
        "hna",
        -1.0
      ],
      [
        "THON",
        -1.0
      ],
      [
        "Ġevaded",
        -1.0
      ],
      [
        "Ġvalidated",
        -1.0
      ],
      [
        "ĠNegotiations",
        -1.0
      ],
      [
        ".feedburner",
        -1.0
      ],
      [
        "Ġrivalry",
        -1.0
      ],
      [
        "Ġhalberd",
        -1.0
      ],
      [
        "ĠFrigidaire",
        -1.0
      ],
      [
        "Ġdrumbeat",
        -1.0
      ],
      [
        "-SR",
        -1.0
      ],
      [
        "Ġmicrobiomes",
        -1.0
      ],
      [
        "Ġjuniors",
        -1.0
      ],
      [
        "52",
        -1.0
      ],
      [
        "=\"\"",
        -1.0
      ],
      [
        "Ġnotify",
        -1.0
      ],
      [
        "Ġrhombic",
        -1.0
      ],
      [
        "Ġhowling",
        -1.0
      ],
      [
        "Ġinterested",
        -1.0
      ],
      [
        "ĠHamza",
        -1.0
      ],
      [
        "ĠCatmull",
        -1.0
      ],
      [
        "ĠPipit",
        -1.0
      ],
      [
        "ĠRunge",
        -1.0
      ],
      [
        "Ġcupping",
        -1.0
      ],
      [
        "Ġmarjoram",
        -1.0
      ],
      [
        "ĠLauren",
        -1.0
      ],
      [
        "Ġscreed",
        -1.0
      ],
      [
        "FILE",
        -1.0
      ],
      [
        "zeau",
        -1.0
      ],
      [
        "Ø§Ø³ÙĦØ§ÛĮØ¯",
        -1.0
      ],
      [
        "-peptide",
        -1.0
      ],
      [
        "vul",
        -1.0
      ],
      [
        "ĠTaco",
        -1.0
      ],
      [
        "Ġrising",
        -1.0
      ],
      [
        "ĠLGM",
        -1.0
      ],
      [
        "Ġzymo",
        -1.0
      ],
      [
        "Ġimpaction",
        -1.0
      ],
      [
        ",difference",
        -1.0
      ],
      [
        "Ġarchers",
        -1.0
      ],
      [
        "ĠShanks",
        -1.0
      ],
      [
        "Ġwatertight",
        -1.0
      ],
      [
        "ĠScherer",
        -1.0
      ],
      [
        "Ġidentified",
        -1.0
      ],
      [
        "Ġbacksliding",
        -1.0
      ],
      [
        "Ġanemic",
        -1.0
      ],
      [
        "Ġbackroads",
        -1.0
      ],
      [
        "ĠWayne",
        -1.0
      ],
      [
        "ĠEBP",
        -1.0
      ],
      [
        "Ġpenalty",
        -1.0
      ],
      [
        "Ġgrieving",
        -1.0
      ],
      [
        "-dioxide",
        -1.0
      ],
      [
        "Ġdecodable",
        -1.0
      ],
      [
        ":Not",
        -1.0
      ],
      [
        "ĠVeterinarians",
        -1.0
      ],
      [
        "Japanese",
        -1.0
      ],
      [
        "ĠFriction",
        -1.0
      ],
      [
        "Cirrhosis",
        -1.0
      ],
      [
        "schutz",
        -1.0
      ],
      [
        "ĠPollan",
        -1.0
      ],
      [
        "Ġcontains",
        -1.0
      ],
      [
        "ĠCups",
        -1.0
      ],
      [
        "Ġmonoterpene",
        -1.0
      ],
      [
        "Ġevince",
        -1.0
      ],
      [
        "Ġoncology",
        -1.0
      ],
      [
        "-fermion",
        -1.0
      ],
      [
        "Ġrepelled",
        -1.0
      ],
      [
        "aoka",
        -1.0
      ],
      [
        "Ġnutritional",
        -1.0
      ],
      [
        "ĠBirthplace",
        -1.0
      ],
      [
        "/pFRG",
        -1.0
      ],
      [
        "-material",
        -1.0
      ],
      [
        "ĠWembley",
        -1.0
      ],
      [
        "Ġsolitari",
        -1.0
      ],
      [
        "ĠCOMMENTS",
        -1.0
      ],
      [
        "Ġcryoprotectant",
        -1.0
      ],
      [
        "ĠFED",
        -1.0
      ],
      [
        "NDA",
        -1.0
      ],
      [
        "Ġenrolment",
        -1.0
      ],
      [
        "Ġmarshal",
        -1.0
      ],
      [
        "ended",
        -1.0
      ],
      [
        "Ġplenum",
        -1.0
      ],
      [
        "ĠFOP",
        -1.0
      ],
      [
        "ĠPanel",
        -1.0
      ],
      [
        "ĠPreliminary",
        -1.0
      ],
      [
        "Ġbathymetry",
        -1.0
      ],
      [
        "Ġoutbreak",
        -1.0
      ],
      [
        "ĠCoast",
        -1.0
      ],
      [
        "ĠKangaroos",
        -1.0
      ],
      [
        "sql",
        -1.0
      ],
      [
        ".M",
        -1.0
      ],
      [
        "ĠFFP",
        -1.0
      ],
      [
        "ĠWiki",
        -1.0
      ],
      [
        "Ġdamn",
        -1.0
      ],
      [
        "Ġretentive",
        -1.0
      ],
      [
        "-primate",
        -1.0
      ],
      [
        "Ġblockchain",
        -1.0
      ],
      [
        "-pheasant",
        -1.0
      ],
      [
        "ĠNala",
        -1.0
      ],
      [
        "ĠTill",
        -1.0
      ],
      [
        "ĠPTI",
        -1.0
      ],
      [
        "ĠBESS",
        -1.0
      ],
      [
        "æİ¥æĶ¶",
        -1.0
      ],
      [
        "ĠCAUSES",
        -1.0
      ],
      [
        "ĠTrotter",
        -1.0
      ],
      [
        "JE",
        -1.0
      ],
      [
        "ĠSergeant",
        -1.0
      ],
      [
        "ĠCOOH",
        -1.0
      ],
      [
        "åŁİ",
        -1.0
      ],
      [
        "Ġplug",
        -1.0
      ],
      [
        "ĠStarfield",
        -1.0
      ],
      [
        "ĠSorensen",
        -1.0
      ],
      [
        "Ġrover",
        -1.0
      ],
      [
        "Ġknave",
        -1.0
      ],
      [
        "genic",
        -1.0
      ],
      [
        "Earthquake",
        -1.0
      ],
      [
        "ĠJin",
        -1.0
      ],
      [
        "ĠCookie",
        -1.0
      ],
      [
        "Ġaspirating",
        -1.0
      ],
      [
        "Ġorangutan",
        -1.0
      ],
      [
        "Ġobsession",
        -1.0
      ],
      [
        "Ġonto",
        -1.0
      ],
      [
        "ĠCaller",
        -1.0
      ],
      [
        "Ġmedley",
        -1.0
      ],
      [
        "Functional",
        -1.0
      ],
      [
        "Ġingestion",
        -1.0
      ],
      [
        "ierung",
        -1.0
      ],
      [
        "Ġstink",
        -1.0
      ],
      [
        "ĠCOACH",
        -1.0
      ],
      [
        "Ġrestricts",
        -1.0
      ],
      [
        "/yr",
        -1.0
      ],
      [
        "ĠStirring",
        -1.0
      ],
      [
        "ĠHavasu",
        -1.0
      ],
      [
        "Ġindulgences",
        -1.0
      ],
      [
        "°",
        -1.0
      ],
      [
        "ĠKalu",
        -1.0
      ],
      [
        "Yz",
        -1.0
      ],
      [
        "dcX",
        -1.0
      ],
      [
        "Ġphotoshopped",
        -1.0
      ],
      [
        "ĠChartwell",
        -1.0
      ],
      [
        "Ġapplauded",
        -1.0
      ],
      [
        ")d",
        -1.0
      ],
      [
        "Performing",
        -1.0
      ],
      [
        "ĠKABOOM",
        -1.0
      ],
      [
        "ĠCorp",
        -1.0
      ],
      [
        "prepar",
        -1.0
      ],
      [
        "ĠPLUS",
        -1.0
      ],
      [
        "Ġbipedal",
        -1.0
      ],
      [
        "Ġpretrained",
        -1.0
      ],
      [
        "ĠLHC",
        -1.0
      ],
      [
        "running",
        -1.0
      ],
      [
        "coding",
        -1.0
      ],
      [
        "ĠTechnical",
        -1.0
      ],
      [
        "Ġcontemporary",
        -1.0
      ],
      [
        "-scented",
        -1.0
      ],
      [
        "Ġwarning",
        -1.0
      ],
      [
        "ĠThevenin",
        -1.0
      ],
      [
        "-Master",
        -1.0
      ],
      [
        "ĠEuribor",
        -1.0
      ],
      [
        "ĠMatthew",
        -1.0
      ],
      [
        "Phasor",
        -1.0
      ],
      [
        "Ġbettas",
        -1.0
      ],
      [
        ".By",
        -1.0
      ],
      [
        "???Ċ",
        -1.0
      ],
      [
        "-checking",
        -1.0
      ],
      [
        "Ġtoned",
        -1.0
      ],
      [
        "Ġpark",
        -1.0
      ],
      [
        "Ġbarked",
        -1.0
      ],
      [
        "Ġaperture",
        -1.0
      ],
      [
        "Ġundecomposed",
        -1.0
      ],
      [
        "ĠIgnatia",
        -1.0
      ],
      [
        "Ġcorresponding",
        -1.0
      ],
      [
        "ĠHighlands",
        -1.0
      ],
      [
        "Ġperfom",
        -1.0
      ],
      [
        "Ġunpacked",
        -1.0
      ],
      [
        "Ġexponentials",
        -1.0
      ],
      [
        "-graph",
        -1.0
      ],
      [
        "Ġrationality",
        -1.0
      ],
      [
        "-primarily",
        -1.0
      ],
      [
        "Ġvent",
        -1.0
      ],
      [
        "ĠStaffies",
        -1.0
      ],
      [
        "Ġrolfsii",
        -1.0
      ],
      [
        "Ġincremental",
        -1.0
      ],
      [
        "å®¹",
        -1.0
      ],
      [
        "Ġquantifiable",
        -1.0
      ],
      [
        "ĠInhibiting",
        -1.0
      ],
      [
        "Ġgaits",
        -1.0
      ],
      [
        "broglie",
        -1.0
      ],
      [
        "Ġmenses",
        -1.0
      ],
      [
        "Ġdesensitize",
        -1.0
      ],
      [
        "thesis",
        -1.0
      ],
      [
        "Ġenthalpy",
        -1.0
      ],
      [
        "-backed",
        -1.0
      ],
      [
        "pot",
        -1.0
      ],
      [
        "-drawer",
        -1.0
      ],
      [
        "Ġoverdress",
        -1.0
      ],
      [
        "ĠPWWP",
        -1.0
      ],
      [
        "ĠWols",
        -1.0
      ],
      [
        "ĠBart",
        -1.0
      ],
      [
        "ĠSeguin",
        -1.0
      ],
      [
        "ĠHSCs",
        -1.0
      ],
      [
        "ĠFujairah",
        -1.0
      ],
      [
        "Ġhans",
        -1.0
      ],
      [
        "Ġassigned",
        -1.0
      ],
      [
        "Ġsciences",
        -1.0
      ],
      [
        "Ġsurrogates",
        -1.0
      ],
      [
        "Ġenlargement",
        -1.0
      ],
      [
        "ĠOpuntia",
        -1.0
      ],
      [
        "Ġoversleeping",
        -1.0
      ],
      [
        "Ġplunk",
        -1.0
      ],
      [
        "-explain",
        -1.0
      ],
      [
        "ĠGdaÅĦsk",
        -1.0
      ],
      [
        "ĠCen",
        -1.0
      ],
      [
        "noreply",
        -1.0
      ],
      [
        "Ġmater",
        -1.0
      ],
      [
        "ĠFB",
        -1.0
      ],
      [
        "ĠReptilia",
        -1.0
      ],
      [
        "Ġbobcats",
        -1.0
      ],
      [
        "ĠMuhammad",
        -1.0
      ],
      [
        "ĠMF",
        -1.0
      ],
      [
        "ĠTruck",
        -1.0
      ],
      [
        "Ġoffenders",
        -1.0
      ],
      [
        "Feasibility",
        -1.0
      ],
      [
        "ÂŃning",
        -1.0
      ],
      [
        "ĠVGA",
        -1.0
      ],
      [
        "ĠHicks",
        -1.0
      ],
      [
        "Ġbeer",
        -1.0
      ],
      [
        "ĠMikro",
        -1.0
      ],
      [
        "Dyspnea",
        -1.0
      ],
      [
        "/Al",
        -1.0
      ],
      [
        "Ġexert",
        -1.0
      ],
      [
        "ĠYOLO",
        -1.0
      ],
      [
        "ĠButts",
        -1.0
      ],
      [
        "ĠROOT",
        -1.0
      ],
      [
        "Ġblinders",
        -1.0
      ],
      [
        "Ġretiring",
        -1.0
      ],
      [
        "ĠZillow",
        -1.0
      ],
      [
        "ĠFOG",
        -1.0
      ],
      [
        "ĠGRAVITY",
        -1.0
      ],
      [
        "ĠSolidago",
        -1.0
      ],
      [
        "*.",
        -1.0
      ],
      [
        "ĠRooney",
        -1.0
      ],
      [
        "Inf",
        -1.0
      ],
      [
        "Ġpax",
        -1.0
      ],
      [
        "ĠAdept",
        -1.0
      ],
      [
        "Ġbiennis",
        -1.0
      ],
      [
        "ĠCurtiss",
        -1.0
      ],
      [
        "Ġvigilant",
        -1.0
      ],
      [
        "Ġunrepaired",
        -1.0
      ],
      [
        "leader",
        -1.0
      ],
      [
        "pull",
        -1.0
      ],
      [
        "RIOUS",
        -1.0
      ],
      [
        "-scales",
        -1.0
      ],
      [
        "Pizza",
        -1.0
      ],
      [
        "ĠDelmonico",
        -1.0
      ],
      [
        "Brain",
        -1.0
      ],
      [
        "Ġsift",
        -1.0
      ],
      [
        "ĠRequiem",
        -1.0
      ],
      [
        "ĠStreep",
        -1.0
      ],
      [
        "Ġimmediacy",
        -1.0
      ],
      [
        "Ġstarring",
        -1.0
      ],
      [
        "ĠBotanicals",
        -1.0
      ],
      [
        "Ġdestructor",
        -1.0
      ],
      [
        "Ġinconsiderate",
        -1.0
      ],
      [
        "Ġbloat",
        -1.0
      ],
      [
        "ĠGuido",
        -1.0
      ],
      [
        "ĠInferential",
        -1.0
      ],
      [
        "Ġmed",
        -1.0
      ],
      [
        "Ġdeployed",
        -1.0
      ],
      [
        "ĠBonnie",
        -1.0
      ],
      [
        "ĠRevelation",
        -1.0
      ],
      [
        "Ġnonessential",
        -1.0
      ],
      [
        "Ġeyebrow",
        -1.0
      ],
      [
        "Ġparlour",
        -1.0
      ],
      [
        "ĠTobago",
        -1.0
      ],
      [
        ",Â»",
        -1.0
      ],
      [
        "Ġmarvels",
        -1.0
      ],
      [
        "ĠYee",
        -1.0
      ],
      [
        "Ġgaplek",
        -1.0
      ],
      [
        "ĠGrimm",
        -1.0
      ],
      [
        "ĠWanda",
        -1.0
      ],
      [
        "ĠHiRISE",
        -1.0
      ],
      [
        "Ġstilts",
        -1.0
      ],
      [
        "-stun",
        -1.0
      ],
      [
        "Ġmistook",
        -1.0
      ],
      [
        "ĠGrappling",
        -1.0
      ],
      [
        "Ġrefactoring",
        -1.0
      ],
      [
        "Ġhypoperfusion",
        -1.0
      ],
      [
        "ĠPSA",
        -1.0
      ],
      [
        "ĠSwad",
        -1.0
      ],
      [
        "Ġdeceleration",
        -1.0
      ],
      [
        "ess",
        -1.0
      ],
      [
        "ĠLuh",
        -1.0
      ],
      [
        "Ġirrationally",
        -1.0
      ],
      [
        "ĠHore",
        -1.0
      ],
      [
        "Ġflyway",
        -1.0
      ],
      [
        "Ġoscillates",
        -1.0
      ],
      [
        "Ġorphan",
        -1.0
      ],
      [
        "ĠMayfair",
        -1.0
      ],
      [
        "KEYWORDS",
        -1.0
      ],
      [
        "Ġlakhs",
        -1.0
      ],
      [
        "Morning",
        -1.0
      ],
      [
        "ĠArise",
        -1.0
      ],
      [
        "Ġportals",
        -1.0
      ],
      [
        "Ġtourism",
        -1.0
      ],
      [
        "Products",
        -1.0
      ],
      [
        "ngue",
        -1.0
      ],
      [
        "Ġvalsalva",
        -1.0
      ],
      [
        "71",
        -1.0
      ],
      [
        "/dL",
        -1.0
      ],
      [
        "Ġinviting",
        -1.0
      ],
      [
        "ĠMarkov",
        -1.0
      ],
      [
        "ĠEstonian",
        -1.0
      ],
      [
        "Ġflapping",
        -1.0
      ],
      [
        "-bolt",
        -1.0
      ],
      [
        "Ġstapes",
        -1.0
      ],
      [
        "ĠGovernment",
        -1.0
      ],
      [
        "Ġrectification",
        -1.0
      ],
      [
        "Ġoperand",
        -1.0
      ],
      [
        "Ġslaw",
        -1.0
      ],
      [
        "Ġarranges",
        -1.0
      ],
      [
        "ĠMighty",
        -1.0
      ],
      [
        "-consuming",
        -1.0
      ],
      [
        "Ġcrystallinum",
        -1.0
      ],
      [
        "ĠZoo",
        -1.0
      ],
      [
        "Refinancing",
        -1.0
      ],
      [
        "Ġspiracles",
        -1.0
      ],
      [
        "Reclaiming",
        -1.0
      ],
      [
        "han",
        -1.0
      ],
      [
        "Ġmissiles",
        -1.0
      ],
      [
        "ĠUnequal",
        -1.0
      ],
      [
        "Ġprescribes",
        -1.0
      ],
      [
        "ĠGO",
        -1.0
      ],
      [
        "ĠNOC",
        -1.0
      ],
      [
        "ĠLancelot",
        -1.0
      ],
      [
        "Ġapartment",
        -1.0
      ],
      [
        "Ġcredentials",
        -1.0
      ],
      [
        "Ġannexed",
        -1.0
      ],
      [
        "ĠGlimpse",
        -1.0
      ],
      [
        "Ùĩ",
        -1.0
      ],
      [
        "ĠWargaming",
        -1.0
      ],
      [
        "ĠFermi",
        -1.0
      ],
      [
        "ĠSolve",
        -1.0
      ],
      [
        "Ġregularized",
        -1.0
      ],
      [
        "ĠLAX",
        -1.0
      ],
      [
        "Ġbistro",
        -1.0
      ],
      [
        "Ġorganically",
        -1.0
      ],
      [
        "/kidney",
        -1.0
      ],
      [
        "Ġdegenerative",
        -1.0
      ],
      [
        "Ġà¤ķ",
        -1.0
      ],
      [
        "Ġ>>",
        -1.0
      ],
      [
        "ĠICAR",
        -1.0
      ],
      [
        "two",
        -1.0
      ],
      [
        "tta",
        -1.0
      ],
      [
        "ĠPTO",
        -1.0
      ],
      [
        "-cultural",
        -1.0
      ],
      [
        "Ġluminosities",
        -1.0
      ],
      [
        "Ġunhinged",
        -1.0
      ],
      [
        "ĠCedric",
        -1.0
      ],
      [
        "ĠSorry",
        -1.0
      ],
      [
        "Prednisone",
        -1.0
      ],
      [
        "loblastic",
        -1.0
      ],
      [
        "Developing",
        -1.0
      ],
      [
        "Ġunenforceable",
        -1.0
      ],
      [
        "vt",
        -1.0
      ],
      [
        "ĠNipissing",
        -1.0
      ],
      [
        "ĠFulton",
        -1.0
      ],
      [
        "described",
        -1.0
      ],
      [
        "Ġhomebuilder",
        -1.0
      ],
      [
        "ĠBeispiel",
        -1.0
      ],
      [
        "Ġbeast",
        -1.0
      ],
      [
        "ĠBianco",
        -1.0
      ],
      [
        "Ġplagioclase",
        -1.0
      ],
      [
        "Ġdosent",
        -1.0
      ],
      [
        "Ġturboprop",
        -1.0
      ],
      [
        "ĠCoffea",
        -1.0
      ],
      [
        "-adolescent",
        -1.0
      ],
      [
        "ĠRIB",
        -1.0
      ],
      [
        "Ġsubcooled",
        -1.0
      ],
      [
        "Ġlattes",
        -1.0
      ],
      [
        "Ġbackpacks",
        -1.0
      ],
      [
        "è¯Ĩ",
        -1.0
      ],
      [
        "ĠTakes",
        -1.0
      ],
      [
        "aves",
        -1.0
      ],
      [
        "],Ċ",
        -1.0
      ],
      [
        "Ġleg",
        -1.0
      ],
      [
        "ĠTaronga",
        -1.0
      ],
      [
        "ĠHanh",
        -1.0
      ],
      [
        "-SÃ¡nchez",
        -1.0
      ],
      [
        "square",
        -1.0
      ],
      [
        "Ġmarketingmix",
        -1.0
      ],
      [
        "ç´ļ",
        -1.0
      ],
      [
        "Ġmonthly",
        -1.0
      ],
      [
        "ĠArarat",
        -1.0
      ],
      [
        "Rhodium",
        -1.0
      ],
      [
        "ĠVespucci",
        -1.0
      ],
      [
        "Ġbiosynthetic",
        -1.0
      ],
      [
        "Ġadvices",
        -1.0
      ],
      [
        "Ġtimes",
        -1.0
      ],
      [
        "ĠNeanderthals",
        -1.0
      ],
      [
        "ĠOperator",
        -1.0
      ],
      [
        "Ġsunshade",
        -1.0
      ],
      [
        "ĠWAF",
        -1.0
      ],
      [
        "Ġfluffy",
        -1.0
      ],
      [
        "Ġarchived",
        -1.0
      ],
      [
        "education",
        -1.0
      ],
      [
        "Ġbusily",
        -1.0
      ],
      [
        "ĠIw",
        -1.0
      ],
      [
        "çĭ¬",
        -1.0
      ],
      [
        "_net",
        -1.0
      ],
      [
        "-hed",
        -1.0
      ],
      [
        "-chic",
        -1.0
      ],
      [
        "Ġbreathed",
        -1.0
      ],
      [
        "Ġadvises",
        -1.0
      ],
      [
        "ĠArborist",
        -1.0
      ],
      [
        "uj",
        -1.0
      ],
      [
        "ĠSeekers",
        -1.0
      ],
      [
        "ĠWirecutter",
        -1.0
      ],
      [
        "ĠOuyang",
        -1.0
      ],
      [
        "ĠAcrIIA",
        -1.0
      ],
      [
        "Ġbatter",
        -1.0
      ],
      [
        "Ġaspirations",
        -1.0
      ],
      [
        "Ġsqueaky",
        -1.0
      ],
      [
        "Ġvermilion",
        -1.0
      ],
      [
        "Ġsuffocated",
        -1.0
      ],
      [
        "ĠInterglacial",
        -1.0
      ],
      [
        "Ġrumours",
        -1.0
      ],
      [
        "SCOPE",
        -1.0
      ],
      [
        "ĠGhost",
        -1.0
      ],
      [
        "ĠBibi",
        -1.0
      ],
      [
        "Ġpresiding",
        -1.0
      ],
      [
        "Ġprofitability",
        -1.0
      ],
      [
        "ĠCraigslist",
        -1.0
      ],
      [
        "Ġmalleability",
        -1.0
      ],
      [
        "+Y",
        -1.0
      ],
      [
        "ĠGreta",
        -1.0
      ],
      [
        "ĠPeach",
        -1.0
      ],
      [
        "ĠYummy",
        -1.0
      ],
      [
        "Ġcoral",
        -1.0
      ],
      [
        "ĠbÐµ",
        -1.0
      ],
      [
        "Ġoptical",
        -1.0
      ],
      [
        ".stanford",
        -1.0
      ],
      [
        "isa",
        -1.0
      ],
      [
        "ĠQUAR",
        -1.0
      ],
      [
        "ĠDigitizing",
        -1.0
      ],
      [
        "Ġcompletion",
        -1.0
      ],
      [
        "ĠArbe",
        -1.0
      ],
      [
        "jg",
        -1.0
      ],
      [
        "ĠSTK",
        -1.0
      ],
      [
        "Ġendarterectomy",
        -1.0
      ],
      [
        "Ġerection",
        -1.0
      ],
      [
        "ĠMidwife",
        -1.0
      ],
      [
        "-response",
        -1.0
      ],
      [
        "Ġdrugged",
        -1.0
      ],
      [
        "Ġchestnut",
        -1.0
      ],
      [
        "vzws",
        -1.0
      ],
      [
        "ĠâĢĻ",
        -1.0
      ],
      [
        "oglov",
        -1.0
      ],
      [
        "-political",
        -1.0
      ],
      [
        "Ġtheory",
        -1.0
      ],
      [
        "ĠÑĥ",
        -1.0
      ],
      [
        "Ġlagriamide",
        -1.0
      ],
      [
        "Ġscrublands",
        -1.0
      ],
      [
        "kuda",
        -1.0
      ],
      [
        "ĠICTs",
        -1.0
      ],
      [
        "ä½¿",
        -1.0
      ],
      [
        "Ġbriefcase",
        -1.0
      ],
      [
        "Peristaltic",
        -1.0
      ],
      [
        "ĠGWAS",
        -1.0
      ],
      [
        "Ġeen",
        -1.0
      ],
      [
        "Ġrefugium",
        -1.0
      ],
      [
        "Ġcannas",
        -1.0
      ],
      [
        "Lathyrus",
        -1.0
      ],
      [
        "ĠVFD",
        -1.0
      ],
      [
        "Ġpicnic",
        -1.0
      ],
      [
        "Ġcommunity",
        -1.0
      ],
      [
        "Adhe",
        -1.0
      ],
      [
        "pig",
        -1.0
      ],
      [
        "ĠKapha",
        -1.0
      ],
      [
        "Ġholders",
        -1.0
      ],
      [
        "Ġcommentators",
        -1.0
      ],
      [
        "Ġdebilitating",
        -1.0
      ],
      [
        "ĠPlastics",
        -1.0
      ],
      [
        "ĠCirculate",
        -1.0
      ],
      [
        "-flight",
        -1.0
      ],
      [
        "ukai",
        -1.0
      ],
      [
        "ĠAnn",
        -1.0
      ],
      [
        "Ġtoning",
        -1.0
      ],
      [
        "Ġthousandth",
        -1.0
      ],
      [
        "Ġltd",
        -1.0
      ],
      [
        "Ġrelishing",
        -1.0
      ],
      [
        "ĠðŁĻĤĊ",
        -1.0
      ],
      [
        "Ġraytracing",
        -1.0
      ],
      [
        "ĠNonfiction",
        -1.0
      ],
      [
        "Ġpainful",
        -1.0
      ],
      [
        "Ġseeping",
        -1.0
      ],
      [
        "/cook",
        -1.0
      ],
      [
        "Ġuncomment",
        -1.0
      ],
      [
        "none",
        -1.0
      ],
      [
        "-mile",
        -1.0
      ],
      [
        "Prevention",
        -1.0
      ],
      [
        "ĠHiram",
        -1.0
      ],
      [
        "Ġnegotiations",
        -1.0
      ],
      [
        "Ġvoiced",
        -1.0
      ],
      [
        "ìŀ¬ê¸°ë¡Ŀ",
        -1.0
      ],
      [
        "ĠPJ",
        -1.0
      ],
      [
        "ĠCoyle",
        -1.0
      ],
      [
        "Ġhipbone",
        -1.0
      ],
      [
        "ects",
        -1.0
      ],
      [
        "Ġlikewise",
        -1.0
      ],
      [
        "ĠThyroid",
        -1.0
      ],
      [
        "ĠWearers",
        -1.0
      ],
      [
        "bottom",
        -1.0
      ],
      [
        "Ġhummingbirds",
        -1.0
      ],
      [
        "mak",
        -1.0
      ],
      [
        "Ġfizzing",
        -1.0
      ],
      [
        "Ġfinish",
        -1.0
      ],
      [
        "ĠLTM",
        -1.0
      ],
      [
        "Survival",
        -1.0
      ],
      [
        "ĠWallace",
        -1.0
      ],
      [
        "Ġsweatshirts",
        -1.0
      ],
      [
        "OUR",
        -1.0
      ],
      [
        "ĠEmus",
        -1.0
      ],
      [
        "Charging",
        -1.0
      ],
      [
        "Ġnumbing",
        -1.0
      ],
      [
        "Ġclustering",
        -1.0
      ],
      [
        "Ġkokedama",
        -1.0
      ],
      [
        "Ġsubtilis",
        -1.0
      ],
      [
        "ĠTrouble",
        -1.0
      ],
      [
        "ĠSailing",
        -1.0
      ],
      [
        "Ġplayset",
        -1.0
      ],
      [
        "Ġbluetooth",
        -1.0
      ],
      [
        "ĠVK",
        -1.0
      ],
      [
        "Night",
        -1.0
      ],
      [
        "Ġflocking",
        -1.0
      ],
      [
        "íĤ¤",
        -1.0
      ],
      [
        "Glucose",
        -1.0
      ],
      [
        "nics",
        -1.0
      ],
      [
        "Ġimmersing",
        -1.0
      ],
      [
        "Ġstubbornly",
        -1.0
      ],
      [
        "Ġhispanic",
        -1.0
      ],
      [
        "-u",
        -1.0
      ],
      [
        "-programming",
        -1.0
      ],
      [
        "rai",
        -1.0
      ],
      [
        "ĠLahore",
        -1.0
      ],
      [
        "-climatic",
        -1.0
      ],
      [
        "-double",
        -1.0
      ],
      [
        "Ġoccurring",
        -1.0
      ],
      [
        "Ġhungrier",
        -1.0
      ],
      [
        "Ġrepression",
        -1.0
      ],
      [
        "ĠConstraints",
        -1.0
      ],
      [
        "ĠSko",
        -1.0
      ],
      [
        "-on",
        -1.0
      ],
      [
        "Ġangle",
        -1.0
      ],
      [
        "/reasons",
        -1.0
      ],
      [
        "Ġhypotonic",
        -1.0
      ],
      [
        "ĠDRESS",
        -1.0
      ],
      [
        "ĠUrbana",
        -1.0
      ],
      [
        "inejad",
        -1.0
      ],
      [
        "Ġdemoralizing",
        -1.0
      ],
      [
        "Ġjammer",
        -1.0
      ],
      [
        "Ġmotumancer",
        -1.0
      ],
      [
        "Ġlabneh",
        -1.0
      ],
      [
        "ĠWildlife",
        -1.0
      ],
      [
        "Ġcompiling",
        -1.0
      ],
      [
        "Ass",
        -1.0
      ],
      [
        "tramedullary",
        -1.0
      ],
      [
        "Ġanogenital",
        -1.0
      ],
      [
        "@u",
        -1.0
      ],
      [
        "cht",
        -1.0
      ],
      [
        "Ġlowly",
        -1.0
      ],
      [
        "ĠCANNOT",
        -1.0
      ],
      [
        "ĠPromise",
        -1.0
      ],
      [
        "Ġundermine",
        -1.0
      ],
      [
        "ĠâĢĵâĢĵ",
        -1.0
      ],
      [
        "ĠHypertensive",
        -1.0
      ],
      [
        "ĠArbor",
        -1.0
      ],
      [
        "ĠSevilla",
        -1.0
      ],
      [
        "ĠResponsibly",
        -1.0
      ],
      [
        "est",
        -1.0
      ],
      [
        "Ġcons",
        -1.0
      ],
      [
        "Ġzeitgeber",
        -1.0
      ],
      [
        "Swimming",
        -1.0
      ],
      [
        "Ġcodependency",
        -1.0
      ],
      [
        "Ġlidded",
        -1.0
      ],
      [
        "Ġdiscs",
        -1.0
      ],
      [
        "ĠÃļ",
        -1.0
      ],
      [
        "ĠSWE",
        -1.0
      ],
      [
        "ĠHispano",
        -1.0
      ],
      [
        "ĠEthereal",
        -1.0
      ],
      [
        "ĠMonument",
        -1.0
      ],
      [
        "ĠRetraining",
        -1.0
      ],
      [
        "ĠLongview",
        -1.0
      ],
      [
        "Ġvo",
        -1.0
      ],
      [
        "proteins",
        -1.0
      ],
      [
        "Ġintersect",
        -1.0
      ],
      [
        "Ġkle",
        -1.0
      ],
      [
        "ĠWach",
        -1.0
      ],
      [
        "Ġtwisty",
        -1.0
      ],
      [
        "Ġnatural",
        -1.0
      ],
      [
        "khya",
        -1.0
      ],
      [
        "ĠITD",
        -1.0
      ],
      [
        "ĠBertrand",
        -1.0
      ],
      [
        "ĠPenÃŃnsula",
        -1.0
      ],
      [
        "ĠHikvision",
        -1.0
      ],
      [
        "ĠCyrene",
        -1.0
      ],
      [
        "Damage",
        -1.0
      ],
      [
        "Ġcycler",
        -1.0
      ],
      [
        "Ġdeserts",
        -1.0
      ],
      [
        "Ġdownfall",
        -1.0
      ],
      [
        "ĠFritillary",
        -1.0
      ],
      [
        "fyndmyfamylyes",
        -1.0
      ],
      [
        "\\in",
        -1.0
      ],
      [
        "à¥ĩ",
        -1.0
      ],
      [
        "Rod",
        -1.0
      ],
      [
        "Ġhomogenis",
        -1.0
      ],
      [
        "Residents",
        -1.0
      ],
      [
        "Ġappliance",
        -1.0
      ],
      [
        "ìĸĳ",
        -1.0
      ],
      [
        "Ġcadence",
        -1.0
      ],
      [
        "cycling",
        -1.0
      ],
      [
        "ĠClash",
        -1.0
      ],
      [
        "ĠSchnitzler",
        -1.0
      ],
      [
        "ĠVBE",
        -1.0
      ],
      [
        "ĠMMX",
        -1.0
      ],
      [
        "ACA",
        -1.0
      ],
      [
        "suppl",
        -1.0
      ],
      [
        "ĠBBA",
        -1.0
      ],
      [
        "/want",
        -1.0
      ],
      [
        "-Waste",
        -1.0
      ],
      [
        "Ğ",
        -1.0
      ],
      [
        "Ġkickback",
        -1.0
      ],
      [
        "ì§Ħ",
        -1.0
      ],
      [
        "ĠModeling",
        -1.0
      ],
      [
        "Ġintellectual",
        -1.0
      ],
      [
        "Kniphofia",
        -1.0
      ],
      [
        "ĠDispersal",
        -1.0
      ],
      [
        "Ġlicensure",
        -1.0
      ],
      [
        "ĠDhan",
        -1.0
      ],
      [
        "Ġunsolved",
        -1.0
      ],
      [
        "Parents",
        -1.0
      ],
      [
        "Ġlane",
        -1.0
      ],
      [
        "Ġgranodiorite",
        -1.0
      ],
      [
        "ĠPopping",
        -1.0
      ],
      [
        "Ġhunger",
        -1.0
      ],
      [
        "ĠUpsolver",
        -1.0
      ],
      [
        "Theme",
        -1.0
      ],
      [
        "ĠGentleman",
        -1.0
      ],
      [
        "ĠGrayscale",
        -1.0
      ],
      [
        "Ġmagnitudes",
        -1.0
      ],
      [
        "Ġpenny",
        -1.0
      ],
      [
        "ĠStratum",
        -1.0
      ],
      [
        "Ġham",
        -1.0
      ],
      [
        "|Comments",
        -1.0
      ],
      [
        "PED",
        -1.0
      ],
      [
        "ĠGeneral",
        -1.0
      ],
      [
        "AURA",
        -1.0
      ],
      [
        "|Ċ",
        -1.0
      ],
      [
        "Ġdemarcate",
        -1.0
      ],
      [
        "ĠMcRae",
        -1.0
      ],
      [
        "since",
        -1.0
      ],
      [
        "ĹĪ",
        -1.0
      ],
      [
        "Cin",
        -1.0
      ],
      [
        "Ġchildbirth",
        -1.0
      ],
      [
        "Ġmiller",
        -1.0
      ],
      [
        "Ġitaly",
        -1.0
      ],
      [
        "Ġdownplay",
        -1.0
      ],
      [
        "ĠSugarloaf",
        -1.0
      ],
      [
        "Ġautocrine",
        -1.0
      ],
      [
        "Better",
        -1.0
      ],
      [
        "Ġgeneric",
        -1.0
      ],
      [
        "ĠMariano",
        -1.0
      ],
      [
        "Ġvariegated",
        -1.0
      ],
      [
        "Ġsurviving",
        -1.0
      ],
      [
        "ĠRhoA",
        -1.0
      ],
      [
        "ingham",
        -1.0
      ],
      [
        "tone",
        -1.0
      ],
      [
        "parent",
        -1.0
      ],
      [
        "Ġsignalling",
        -1.0
      ],
      [
        "Ġantitoxin",
        -1.0
      ],
      [
        "Ġconfirm",
        -1.0
      ],
      [
        "ĠTrust",
        -1.0
      ],
      [
        "Ġincome",
        -1.0
      ],
      [
        "ĠTakoma",
        -1.0
      ],
      [
        "Ġdisrespect",
        -1.0
      ],
      [
        "Ġsos",
        -1.0
      ],
      [
        "Ġmicroscope",
        -1.0
      ],
      [
        "ĠSystÃ¨me",
        -1.0
      ],
      [
        "ĠDevon",
        -1.0
      ],
      [
        "Ġorderliness",
        -1.0
      ],
      [
        "ryl",
        -1.0
      ],
      [
        "ĠAsset",
        -1.0
      ],
      [
        "ĠStylize",
        -1.0
      ],
      [
        "Ġoccurence",
        -1.0
      ],
      [
        "Ġalbedo",
        -1.0
      ],
      [
        "ĠWoodcreeper",
        -1.0
      ],
      [
        "Ġreconstructed",
        -1.0
      ],
      [
        "-options",
        -1.0
      ],
      [
        "Ġsubversion",
        -1.0
      ],
      [
        "cial",
        -1.0
      ],
      [
        "ĠSimmer",
        -1.0
      ],
      [
        "Ġbehavior",
        -1.0
      ],
      [
        "Ġfurnishes",
        -1.0
      ],
      [
        "Ġcurbside",
        -1.0
      ],
      [
        "ĠNPS",
        -1.0
      ],
      [
        "Ġquizzical",
        -1.0
      ],
      [
        "Ġbowlers",
        -1.0
      ],
      [
        "Ġbesieged",
        -1.0
      ],
      [
        "Ġfavourably",
        -1.0
      ],
      [
        "Ġhyperbolic",
        -1.0
      ],
      [
        "ĠMadras",
        -1.0
      ],
      [
        "ĠOXYGEN",
        -1.0
      ],
      [
        "Ġmio",
        -1.0
      ],
      [
        "ĠTavi",
        -1.0
      ],
      [
        "Ġimmersed",
        -1.0
      ],
      [
        "/core",
        -1.0
      ],
      [
        "Ġelectrospun",
        -1.0
      ],
      [
        "Ġnonpathogenic",
        -1.0
      ],
      [
        "ĠGarter",
        -1.0
      ],
      [
        "ĠSeroNet",
        -1.0
      ],
      [
        "ĠSavannas",
        -1.0
      ],
      [
        "\".[",
        -1.0
      ],
      [
        "Ġchristened",
        -1.0
      ],
      [
        "ĠInnsbruck",
        -1.0
      ],
      [
        "Ethnobotanical",
        -1.0
      ],
      [
        "olite",
        -1.0
      ],
      [
        "sup",
        -1.0
      ],
      [
        "shala",
        -1.0
      ],
      [
        "Ġchillers",
        -1.0
      ],
      [
        "Peace",
        -1.0
      ],
      [
        "Wingspan",
        -1.0
      ],
      [
        "Red",
        -1.0
      ],
      [
        "Ġtinny",
        -1.0
      ],
      [
        "Ġgovern",
        -1.0
      ],
      [
        "Nadelen",
        -1.0
      ],
      [
        "ĠMeatballs",
        -1.0
      ],
      [
        "Ġlacquer",
        -1.0
      ],
      [
        "Ġtaffy",
        -1.0
      ],
      [
        "Roman",
        -1.0
      ],
      [
        "ĠNepean",
        -1.0
      ],
      [
        "ĠDordrecht",
        -1.0
      ],
      [
        "/Goddard",
        -1.0
      ],
      [
        "Ġspherically",
        -1.0
      ],
      [
        "tomum",
        -1.0
      ],
      [
        ":R",
        -1.0
      ],
      [
        "ĠDalrymple",
        -1.0
      ],
      [
        "ĠCalabrese",
        -1.0
      ],
      [
        "ĠAbdomen",
        -1.0
      ],
      [
        "Ġmotoring",
        -1.0
      ],
      [
        "ĠHDRI",
        -1.0
      ],
      [
        "Ġbulldog",
        -1.0
      ],
      [
        "ĠCollishaw",
        -1.0
      ],
      [
        "ĠPorsches",
        -1.0
      ],
      [
        "ĠBrittle",
        -1.0
      ],
      [
        "ĠMich",
        -1.0
      ],
      [
        "-programmable",
        -1.0
      ],
      [
        "Ferromagnetism",
        -1.0
      ],
      [
        "ĠCUC",
        -1.0
      ],
      [
        "Ġcelebration",
        -1.0
      ],
      [
        "Ġdisfigurement",
        -1.0
      ],
      [
        "ĠHalvorsen",
        -1.0
      ],
      [
        "Standing",
        -1.0
      ],
      [
        "ĠTrousers",
        -1.0
      ],
      [
        "ĠLocomotive",
        -1.0
      ],
      [
        ".âĢĿĊ",
        -1.0
      ],
      [
        "ĠHegel",
        -1.0
      ],
      [
        "Ġgerrymander",
        -1.0
      ],
      [
        "Ġpericardium",
        -1.0
      ],
      [
        "oQueue",
        -1.0
      ],
      [
        "ĠComment",
        -1.0
      ],
      [
        "Ġsailboat",
        -1.0
      ],
      [
        "ĠFahnestock",
        -1.0
      ],
      [
        "ĠItalian",
        -1.0
      ],
      [
        "--,",
        -1.0
      ],
      [
        "Ġpernicious",
        -1.0
      ],
      [
        "-Crafts",
        -1.0
      ],
      [
        "ĠDepletion",
        -1.0
      ],
      [
        "skin",
        -1.0
      ],
      [
        "Ġclearly",
        -1.0
      ],
      [
        "Admittedly",
        -1.0
      ],
      [
        "Ġmantegazzianum",
        -1.0
      ],
      [
        "Â¼",
        -1.0
      ],
      [
        "ĠFactors",
        -1.0
      ],
      [
        "åķĨ",
        -1.0
      ],
      [
        "ĠStudying",
        -1.0
      ],
      [
        "äºĴ",
        -1.0
      ],
      [
        "ĠÃŀ",
        -1.0
      ],
      [
        "Ġcores",
        -1.0
      ],
      [
        "ĠCorridor",
        -1.0
      ],
      [
        "Primary",
        -1.0
      ],
      [
        "Ġirrelevance",
        -1.0
      ],
      [
        "ĠRappaport",
        -1.0
      ],
      [
        "ĠYisroel",
        -1.0
      ],
      [
        "ĠCockroaches",
        -1.0
      ],
      [
        "ĠTailoring",
        -1.0
      ],
      [
        "Ġexclusively",
        -1.0
      ],
      [
        "ĠChasing",
        -1.0
      ],
      [
        "ĠCapital",
        -1.0
      ],
      [
        "MAC",
        -1.0
      ],
      [
        "Ġpyruvate",
        -1.0
      ],
      [
        "ĠTrew",
        -1.0
      ],
      [
        "Ġwarts",
        -1.0
      ],
      [
        "!I",
        -1.0
      ],
      [
        "Ġdaptomycin",
        -1.0
      ],
      [
        "ĠEspaÃ±a",
        -1.0
      ],
      [
        "Ġtopographic",
        -1.0
      ],
      [
        "Ġwebs",
        -1.0
      ],
      [
        "Ġexpel",
        -1.0
      ],
      [
        "Ġboatload",
        -1.0
      ],
      [
        "Ġalabaster",
        -1.0
      ],
      [
        "ĠSWD",
        -1.0
      ],
      [
        "Ġtigris",
        -1.0
      ],
      [
        "ĠOneDrive",
        -1.0
      ],
      [
        "home",
        -1.0
      ],
      [
        "Bh",
        -1.0
      ],
      [
        "ĠCaring",
        -1.0
      ],
      [
        "ĠCurrencies",
        -1.0
      ],
      [
        "Ġenchantment",
        -1.0
      ],
      [
        "ĠExcavating",
        -1.0
      ],
      [
        ".Note",
        -1.0
      ],
      [
        "ĠLesbian",
        -1.0
      ],
      [
        "æİ¡çĶ¨",
        -1.0
      ],
      [
        "onym",
        -1.0
      ],
      [
        "ĠRunyon",
        -1.0
      ],
      [
        "Ġshaded",
        -1.0
      ],
      [
        "-reduced",
        -1.0
      ],
      [
        "ĠDahl",
        -1.0
      ],
      [
        "ĠFWS",
        -1.0
      ],
      [
        "Alprazolam",
        -1.0
      ],
      [
        "OLOGICAL",
        -1.0
      ],
      [
        "Ġstings",
        -1.0
      ],
      [
        "ĠCav",
        -1.0
      ],
      [
        "ĠCrushing",
        -1.0
      ],
      [
        "ĠShaggy",
        -1.0
      ],
      [
        "Ġantiplatelet",
        -1.0
      ],
      [
        "Bee",
        -1.0
      ],
      [
        "Ġspacesuit",
        -1.0
      ],
      [
        "Ġcakes",
        -1.0
      ],
      [
        "ĠMilling",
        -1.0
      ],
      [
        "ĠArnolfini",
        -1.0
      ],
      [
        "Ġworkforce",
        -1.0
      ],
      [
        "Ġmetaphorically",
        -1.0
      ],
      [
        "Ġbicarbonate",
        -1.0
      ],
      [
        "ĠCoir",
        -1.0
      ],
      [
        "ĠUnscrew",
        -1.0
      ],
      [
        "ĠDIVISION",
        -1.0
      ],
      [
        "Ġ(Â°",
        -1.0
      ],
      [
        "ĠRand",
        -1.0
      ],
      [
        "Ġpalm",
        -1.0
      ],
      [
        "Ġpeer",
        -1.0
      ],
      [
        "diet",
        -1.0
      ],
      [
        "Ġsynovial",
        -1.0
      ],
      [
        "Ġsemilunar",
        -1.0
      ],
      [
        "Ġfrosted",
        -1.0
      ],
      [
        "ĠJavaScript",
        -1.0
      ],
      [
        "Collaboration",
        -1.0
      ],
      [
        "Ġtrampoline",
        -1.0
      ],
      [
        "ĠRo",
        -1.0
      ],
      [
        "Ġoozing",
        -1.0
      ],
      [
        "ĠIpswich",
        -1.0
      ],
      [
        "ĠMobileNetV",
        -1.0
      ],
      [
        "Ġalkaloid",
        -1.0
      ],
      [
        "Ġrufous",
        -1.0
      ],
      [
        "âĢ¢Ċ",
        -1.0
      ],
      [
        "-ton",
        -1.0
      ],
      [
        "ĠPhlox",
        -1.0
      ],
      [
        "ĠEND",
        -1.0
      ],
      [
        "Ġstringy",
        -1.0
      ],
      [
        "ĠHercules",
        -1.0
      ],
      [
        "ĠGATA",
        -1.0
      ],
      [
        "Ġantigone",
        -1.0
      ],
      [
        "Ġmisgivings",
        -1.0
      ],
      [
        "rÐ¾",
        -1.0
      ],
      [
        "ĠINSIDE",
        -1.0
      ],
      [
        "Ġprecocial",
        -1.0
      ],
      [
        "Ġpinnacle",
        -1.0
      ],
      [
        "Ġbabysitting",
        -1.0
      ],
      [
        "ĠDelinquency",
        -1.0
      ],
      [
        "ĠMortar",
        -1.0
      ],
      [
        "ĠDrury",
        -1.0
      ],
      [
        "Ġresidue",
        -1.0
      ],
      [
        ".ir",
        -1.0
      ],
      [
        "ĠSaxons",
        -1.0
      ],
      [
        "Ġcollide",
        -1.0
      ],
      [
        "Ġally",
        -1.0
      ],
      [
        "ĠGauze",
        -1.0
      ],
      [
        "è®¡",
        -1.0
      ],
      [
        "ĠMar",
        -1.0
      ],
      [
        "ĠBelarus",
        -1.0
      ],
      [
        "Ġcounsel",
        -1.0
      ],
      [
        "Ġinfamous",
        -1.0
      ],
      [
        "-cobalt",
        -1.0
      ],
      [
        "Ġexhumed",
        -1.0
      ],
      [
        "Ġpressurizing",
        -1.0
      ],
      [
        "ìľĦ",
        -1.0
      ],
      [
        "Ġchiller",
        -1.0
      ],
      [
        "ĠJackal",
        -1.0
      ],
      [
        "Ġnanosheets",
        -1.0
      ],
      [
        "Sk",
        -1.0
      ],
      [
        "Ġwield",
        -1.0
      ],
      [
        "JD",
        -1.0
      ],
      [
        "ĠISP",
        -1.0
      ],
      [
        "Ġunlikely",
        -1.0
      ],
      [
        "ĠCDK",
        -1.0
      ],
      [
        "ĠChoosing",
        -1.0
      ],
      [
        "Ġaudiobooks",
        -1.0
      ],
      [
        ";n",
        -1.0
      ],
      [
        "init",
        -1.0
      ],
      [
        "Physicochemical",
        -1.0
      ],
      [
        "-Jozsa",
        -1.0
      ],
      [
        "Ġpneumoconiosis",
        -1.0
      ],
      [
        "ĠShetland",
        -1.0
      ],
      [
        "ĠSquadron",
        -1.0
      ],
      [
        "eÅĤ",
        -1.0
      ],
      [
        "ĠNarcotics",
        -1.0
      ],
      [
        "ĠÅ½",
        -1.0
      ],
      [
        "ĠChalfie",
        -1.0
      ],
      [
        "Ġcaracal",
        -1.0
      ],
      [
        "Ġcreeps",
        -1.0
      ],
      [
        "Ġstowed",
        -1.0
      ],
      [
        "Ġbow",
        -1.0
      ],
      [
        "ĠBreads",
        -1.0
      ],
      [
        "ĠMOSAiC",
        -1.0
      ],
      [
        "ĠKaw",
        -1.0
      ],
      [
        "Coercive",
        -1.0
      ],
      [
        "Ġboldface",
        -1.0
      ],
      [
        "Ġterrifies",
        -1.0
      ],
      [
        "Terri",
        -1.0
      ],
      [
        "ĠLEGAL",
        -1.0
      ],
      [
        "Select",
        -1.0
      ],
      [
        "Ġponens",
        -1.0
      ],
      [
        "Ġalumina",
        -1.0
      ],
      [
        "ĠPlates",
        -1.0
      ],
      [
        "Ġannouncement",
        -1.0
      ],
      [
        "Ġdeprived",
        -1.0
      ],
      [
        "ĠTucker",
        -1.0
      ],
      [
        "ĠChristopher",
        -1.0
      ],
      [
        "Ġamniocentesis",
        -1.0
      ],
      [
        "ĠHh",
        -1.0
      ],
      [
        "ĠInterstellar",
        -1.0
      ],
      [
        "-advised",
        -1.0
      ],
      [
        "Ġmassacre",
        -1.0
      ],
      [
        "Ġcompetencies",
        -1.0
      ],
      [
        "Ġ#Ċ",
        -1.0
      ],
      [
        "Ġgoldendoodle",
        -1.0
      ],
      [
        "ĠBikeability",
        -1.0
      ],
      [
        "ĠResolve",
        -1.0
      ],
      [
        "ĠArendt",
        -1.0
      ],
      [
        "vill",
        -1.0
      ],
      [
        "CKY",
        -1.0
      ],
      [
        "âĪĴĊĊ",
        -1.0
      ],
      [
        "Ġwindowsills",
        -1.0
      ],
      [
        "ĠFREEDOM",
        -1.0
      ],
      [
        "Ġarcheology",
        -1.0
      ],
      [
        "ĠWesteros",
        -1.0
      ],
      [
        "/wet",
        -1.0
      ],
      [
        "ĠFartlek",
        -1.0
      ],
      [
        "Ġroofed",
        -1.0
      ],
      [
        "Solanum",
        -1.0
      ],
      [
        "Ġtendinous",
        -1.0
      ],
      [
        "ĠBuddha",
        -1.0
      ],
      [
        "Ġinterdict",
        -1.0
      ],
      [
        "rsius",
        -1.0
      ],
      [
        "ĠMissed",
        -1.0
      ],
      [
        "Ġutf",
        -1.0
      ],
      [
        "Ġget",
        -1.0
      ],
      [
        "ÉĽ",
        -1.0
      ],
      [
        "/NOAA",
        -1.0
      ],
      [
        "lash",
        -1.0
      ],
      [
        "ĠKohler",
        -1.0
      ],
      [
        "ĠZambia",
        -1.0
      ],
      [
        "ĠIngress",
        -1.0
      ],
      [
        "ĠDuterte",
        -1.0
      ],
      [
        "Melan",
        -1.0
      ],
      [
        "Ġcourtroom",
        -1.0
      ],
      [
        "ĠCollaborate",
        -1.0
      ],
      [
        "ĠBBS",
        -1.0
      ],
      [
        "\"T",
        -1.0
      ],
      [
        "Ġpolytheistic",
        -1.0
      ],
      [
        "ĠHumanoid",
        -1.0
      ],
      [
        ")/(",
        -1.0
      ],
      [
        "Ġhemolysis",
        -1.0
      ],
      [
        "iura",
        -1.0
      ],
      [
        "ĠOpenCog",
        -1.0
      ],
      [
        "Adjust",
        -1.0
      ],
      [
        ".scatter",
        -1.0
      ],
      [
        "BM",
        -1.0
      ],
      [
        "ĠCambodia",
        -1.0
      ],
      [
        "Ġstromatolites",
        -1.0
      ],
      [
        "Ġtestability",
        -1.0
      ],
      [
        "ĠEO",
        -1.0
      ],
      [
        "ĠKumamoto",
        -1.0
      ],
      [
        "Ġweka",
        -1.0
      ],
      [
        "Ġinteraural",
        -1.0
      ],
      [
        "ĠHummingbird",
        -1.0
      ],
      [
        "-typing",
        -1.0
      ],
      [
        "Ġhosing",
        -1.0
      ],
      [
        "irobhotos",
        -1.0
      ],
      [
        ";dr",
        -1.0
      ],
      [
        "zeigt",
        -1.0
      ],
      [
        "Ġinquires",
        -1.0
      ],
      [
        "ĠYvette",
        -1.0
      ],
      [
        "Ġpunicae",
        -1.0
      ],
      [
        "Ġunhelpful",
        -1.0
      ],
      [
        "Ġdetermines",
        -1.0
      ],
      [
        "ĠTerracotta",
        -1.0
      ],
      [
        "Ġkeycaps",
        -1.0
      ],
      [
        "ĠCleanse",
        -1.0
      ],
      [
        "ĠCapacities",
        -1.0
      ],
      [
        "ĠcuraÃ§ao",
        -1.0
      ],
      [
        "ĠMcCay",
        -1.0
      ],
      [
        "Ġthan",
        -1.0
      ],
      [
        "Ġcypress",
        -1.0
      ],
      [
        "Ġsaffron",
        -1.0
      ],
      [
        "Ġmonetarily",
        -1.0
      ],
      [
        "ĠChaplains",
        -1.0
      ],
      [
        "ĠChast",
        -1.0
      ],
      [
        "ĠKultur",
        -1.0
      ],
      [
        "/fruit",
        -1.0
      ],
      [
        "Ġë¹ĦíĬ¸",
        -1.0
      ],
      [
        "[Image",
        -1.0
      ],
      [
        "ĠLIFE",
        -1.0
      ],
      [
        "ĠPlanted",
        -1.0
      ],
      [
        "ĠPalmdale",
        -1.0
      ],
      [
        "Ġmm",
        -1.0
      ],
      [
        "Ġswppp",
        -1.0
      ],
      [
        "-A",
        -1.0
      ],
      [
        "ĠBASS",
        -1.0
      ],
      [
        "Ġvase",
        -1.0
      ],
      [
        "Ġtriangle",
        -1.0
      ],
      [
        "ĠJoon",
        -1.0
      ],
      [
        "Ġbeginning",
        -1.0
      ],
      [
        "-cigarette",
        -1.0
      ],
      [
        "bG",
        -1.0
      ],
      [
        "ĠEEOC",
        -1.0
      ],
      [
        "Ġfried",
        -1.0
      ],
      [
        "Ġmoods",
        -1.0
      ],
      [
        "Ġsounder",
        -1.0
      ],
      [
        "ĠOL",
        -1.0
      ],
      [
        "lta",
        -1.0
      ],
      [
        "Ġquiche",
        -1.0
      ],
      [
        "ĠNWP",
        -1.0
      ],
      [
        "-endemic",
        -1.0
      ],
      [
        "ĠBonita",
        -1.0
      ],
      [
        "Ġreprise",
        -1.0
      ],
      [
        "Ġdentistry",
        -1.0
      ],
      [
        "Ġdarkens",
        -1.0
      ],
      [
        "het",
        -1.0
      ],
      [
        "Ġunpack",
        -1.0
      ],
      [
        "ĠQuizlet",
        -1.0
      ],
      [
        "ĠUndergraduate",
        -1.0
      ],
      [
        "-reductase",
        -1.0
      ],
      [
        "ĠNanterre",
        -1.0
      ],
      [
        "âĢĶwhy",
        -1.0
      ],
      [
        "ĠOmega",
        -1.0
      ],
      [
        "-bo",
        -1.0
      ],
      [
        "Ġkn",
        -1.0
      ],
      [
        "Ġmammy",
        -1.0
      ],
      [
        "Ġanalyse",
        -1.0
      ],
      [
        "Ġeyewear",
        -1.0
      ],
      [
        "ĠOven",
        -1.0
      ],
      [
        "ĠLih",
        -1.0
      ],
      [
        ">scripting",
        -1.0
      ],
      [
        "Ġcarry",
        -1.0
      ],
      [
        "Kindergarten",
        -1.0
      ],
      [
        "Ġdehydrogenase",
        -1.0
      ],
      [
        "Ġtabby",
        -1.0
      ],
      [
        "ĠPedagogical",
        -1.0
      ],
      [
        "ĠCampagn",
        -1.0
      ],
      [
        "Ġrecurrences",
        -1.0
      ],
      [
        "/all",
        -1.0
      ],
      [
        "Ġpentose",
        -1.0
      ],
      [
        "Ġforeigners",
        -1.0
      ],
      [
        "Ġthatch",
        -1.0
      ],
      [
        "ĠKoala",
        -1.0
      ],
      [
        "Vestigial",
        -1.0
      ],
      [
        "ĠXeomin",
        -1.0
      ],
      [
        "Buzz",
        -1.0
      ],
      [
        "ĠForbidden",
        -1.0
      ],
      [
        "ĠUe",
        -1.0
      ],
      [
        "Ġrepellents",
        -1.0
      ],
      [
        "Fi",
        -1.0
      ],
      [
        "ĠHydrocarbons",
        -1.0
      ],
      [
        "Ġpneumocandin",
        -1.0
      ],
      [
        "Ġsaggars",
        -1.0
      ],
      [
        "ĠPassages",
        -1.0
      ],
      [
        "olÃ³gico",
        -1.0
      ],
      [
        "ĠLeÃ³n",
        -1.0
      ],
      [
        "ĠTuatara",
        -1.0
      ],
      [
        "Ġscintillan",
        -1.0
      ],
      [
        "Ġbuzz",
        -1.0
      ],
      [
        "Ġfirefighters",
        -1.0
      ],
      [
        "Ġflirtatious",
        -1.0
      ],
      [
        "itas",
        -1.0
      ],
      [
        "ĠSYBR",
        -1.0
      ],
      [
        "Ġexogenous",
        -1.0
      ],
      [
        "Ġbondage",
        -1.0
      ],
      [
        "Ġdetoxifies",
        -1.0
      ],
      [
        "ĠLAP",
        -1.0
      ],
      [
        "ĠVERB",
        -1.0
      ],
      [
        "Luxurious",
        -1.0
      ],
      [
        "Ġunforgivable",
        -1.0
      ],
      [
        "irabatas",
        -1.0
      ],
      [
        "Ġfantastically",
        -1.0
      ],
      [
        "ĠDeduction",
        -1.0
      ],
      [
        "reo",
        -1.0
      ],
      [
        "ĠUnderestimate",
        -1.0
      ],
      [
        "Ġeerie",
        -1.0
      ],
      [
        "Ġtsunamis",
        -1.0
      ],
      [
        "Ġsentry",
        -1.0
      ],
      [
        "Network",
        -1.0
      ],
      [
        "ĠONE",
        -1.0
      ],
      [
        "Ġremains",
        -1.0
      ],
      [
        "Awareness",
        -1.0
      ],
      [
        "ĠEarphones",
        -1.0
      ],
      [
        "ĠBDC",
        -1.0
      ],
      [
        "/facilit",
        -1.0
      ],
      [
        "Ġcorrectional",
        -1.0
      ],
      [
        "Ġrecap",
        -1.0
      ],
      [
        "mpyr",
        -1.0
      ],
      [
        "ĠHollow",
        -1.0
      ],
      [
        "ĠMcKinney",
        -1.0
      ],
      [
        "Ġcofactor",
        -1.0
      ],
      [
        "Ġsystematics",
        -1.0
      ],
      [
        "Ġtransversely",
        -1.0
      ],
      [
        "-skid",
        -1.0
      ],
      [
        "ĠLanguages",
        -1.0
      ],
      [
        "Ġbiodegradable",
        -1.0
      ],
      [
        "ĠSeyf",
        -1.0
      ],
      [
        "ĠIrritation",
        -1.0
      ],
      [
        "ĠUSEFUL",
        -1.0
      ],
      [
        "Ġmodulus",
        -1.0
      ],
      [
        "ĠScan",
        -1.0
      ],
      [
        "Ġutilising",
        -1.0
      ],
      [
        "ĠChromosomes",
        -1.0
      ],
      [
        "Ġmycorrhizae",
        -1.0
      ],
      [
        "Ġtrimester",
        -1.0
      ],
      [
        "Italian",
        -1.0
      ],
      [
        "-Discharge",
        -1.0
      ],
      [
        "nni",
        -1.0
      ],
      [
        "-reading",
        -1.0
      ],
      [
        "ĠFundraising",
        -1.0
      ],
      [
        "ĠGlyphs",
        -1.0
      ],
      [
        "/carbon",
        -1.0
      ],
      [
        "Ġpats",
        -1.0
      ],
      [
        "ĠHelmet",
        -1.0
      ],
      [
        "ĠGrande",
        -1.0
      ],
      [
        "Ġdey",
        -1.0
      ],
      [
        "Ġortho",
        -1.0
      ],
      [
        "_open",
        -1.0
      ],
      [
        "\"Scientists",
        -1.0
      ],
      [
        "Ġattenuator",
        -1.0
      ],
      [
        "ERS",
        -1.0
      ],
      [
        "Ġemphasised",
        -1.0
      ],
      [
        "-founder",
        -1.0
      ],
      [
        "largestAudioPTS",
        -1.0
      ],
      [
        "ĠDale",
        -1.0
      ],
      [
        "âĢ¦\"ĊĊ",
        -1.0
      ],
      [
        "Ġopera",
        -1.0
      ],
      [
        "ĠBRING",
        -1.0
      ],
      [
        "Ġchandbali",
        -1.0
      ],
      [
        "Ġmanagements",
        -1.0
      ],
      [
        "tinae",
        -1.0
      ],
      [
        "SEE",
        -1.0
      ],
      [
        "ĠColville",
        -1.0
      ],
      [
        "Ġdumber",
        -1.0
      ],
      [
        "uli",
        -1.0
      ],
      [
        "Ġpositive",
        -1.0
      ],
      [
        "DR",
        -1.0
      ],
      [
        "Ġquintillion",
        -1.0
      ],
      [
        "ĠOld",
        -1.0
      ],
      [
        "/Winter",
        -1.0
      ],
      [
        "Soon",
        -1.0
      ],
      [
        "ĠHems",
        -1.0
      ],
      [
        "ĠNewsroom",
        -1.0
      ],
      [
        "Ġundefined",
        -1.0
      ],
      [
        "Ġharmed",
        -1.0
      ],
      [
        "LIBBY",
        -1.0
      ],
      [
        "matter",
        -1.0
      ],
      [
        "mine",
        -1.0
      ],
      [
        "ĠErfurt",
        -1.0
      ],
      [
        "saturated",
        -1.0
      ],
      [
        "Ġironwork",
        -1.0
      ],
      [
        "Ġretarded",
        -1.0
      ],
      [
        "Todd",
        -1.0
      ],
      [
        "ĠPonto",
        -1.0
      ],
      [
        "ĠENTREPRENEUR",
        -1.0
      ],
      [
        "Ġcomplimentary",
        -1.0
      ],
      [
        "rson",
        -1.0
      ],
      [
        "ĠNO",
        -1.0
      ],
      [
        "Ġlayup",
        -1.0
      ],
      [
        "ĠThacker",
        -1.0
      ],
      [
        "fas",
        -1.0
      ],
      [
        "-bass",
        -1.0
      ],
      [
        "Ġmarkers",
        -1.0
      ],
      [
        "Ġmonolithic",
        -1.0
      ],
      [
        "ĠMints",
        -1.0
      ],
      [
        "Ġequipped",
        -1.0
      ],
      [
        "Ġfossiliferous",
        -1.0
      ],
      [
        ".data",
        -1.0
      ],
      [
        "Ġscopolamine",
        -1.0
      ],
      [
        "ÂŃsis",
        -1.0
      ],
      [
        "ĠWhittington",
        -1.0
      ],
      [
        "ĠInterview",
        -1.0
      ],
      [
        "-retardant",
        -1.0
      ],
      [
        "Ġoriginator",
        -1.0
      ],
      [
        "Width",
        -1.0
      ],
      [
        "Ġcitizens",
        -1.0
      ],
      [
        "Ġpwa",
        -1.0
      ],
      [
        "meyer",
        -1.0
      ],
      [
        "Ġputts",
        -1.0
      ],
      [
        "ĠCVT",
        -1.0
      ],
      [
        "-sheath",
        -1.0
      ],
      [
        "ĠSchedule",
        -1.0
      ],
      [
        "ĠDogecoin",
        -1.0
      ],
      [
        "Ġoverfed",
        -1.0
      ],
      [
        "Ġhonorary",
        -1.0
      ],
      [
        "ĠAndrade",
        -1.0
      ],
      [
        "ĠVLT",
        -1.0
      ],
      [
        "Ã©rie",
        -1.0
      ],
      [
        "ĠFiesta",
        -1.0
      ],
      [
        "Ġclassrooms",
        -1.0
      ],
      [
        "Ġquicker",
        -1.0
      ],
      [
        "ĠDoes",
        -1.0
      ],
      [
        "Ġnuclide",
        -1.0
      ],
      [
        "ĠCanaria",
        -1.0
      ],
      [
        "Ġfrontline",
        -1.0
      ],
      [
        "ĠCosmetic",
        -1.0
      ],
      [
        "ĠJaime",
        -1.0
      ],
      [
        "satellite",
        -1.0
      ],
      [
        "ĠâĪª",
        -1.0
      ],
      [
        "Ġdirectorate",
        -1.0
      ],
      [
        "-aside",
        -1.0
      ],
      [
        "ĠAgriculture",
        -1.0
      ],
      [
        "ĠTwin",
        -1.0
      ],
      [
        "Ġunwinds",
        -1.0
      ],
      [
        "ĠDysplasia",
        -1.0
      ],
      [
        "ĠSerotonin",
        -1.0
      ],
      [
        "Ġhp",
        -1.0
      ],
      [
        "ĠDunaliella",
        -1.0
      ],
      [
        "Vk",
        -1.0
      ],
      [
        "-hydrated",
        -1.0
      ],
      [
        "Ġchew",
        -1.0
      ],
      [
        "ĠTbx",
        -1.0
      ],
      [
        "-Maintenance",
        -1.0
      ],
      [
        "Liturgical",
        -1.0
      ],
      [
        "Ġthermocycler",
        -1.0
      ],
      [
        "Males",
        -1.0
      ],
      [
        "Ġechinoid",
        -1.0
      ],
      [
        "Wildfires",
        -1.0
      ],
      [
        "Ġterabits",
        -1.0
      ],
      [
        "ÃĦÄı",
        -1.0
      ],
      [
        "ĠLexus",
        -1.0
      ],
      [
        "ĠFormerly",
        -1.0
      ],
      [
        "/schoenheit",
        -1.0
      ],
      [
        "Mad",
        -1.0
      ],
      [
        "Ġpoet",
        -1.0
      ],
      [
        "Ġmutations",
        -1.0
      ],
      [
        "Ġunhappiness",
        -1.0
      ],
      [
        "ĠOCaml",
        -1.0
      ],
      [
        "ail",
        -1.0
      ],
      [
        "ĠErie",
        -1.0
      ],
      [
        "Sponsor",
        -1.0
      ],
      [
        "Ġconcatenate",
        -1.0
      ],
      [
        "Ġflies",
        -1.0
      ],
      [
        "ĠSims",
        -1.0
      ],
      [
        "-LEVEL",
        -1.0
      ],
      [
        "pan",
        -1.0
      ],
      [
        "/cup",
        -1.0
      ],
      [
        "-Moon",
        -1.0
      ],
      [
        "Debunking",
        -1.0
      ],
      [
        "Ġindependant",
        -1.0
      ],
      [
        "ÃŃtulo",
        -1.0
      ],
      [
        "Ġgarden",
        -1.0
      ],
      [
        "Ġboiled",
        -1.0
      ],
      [
        "Ġweirs",
        -1.0
      ],
      [
        "rata",
        -1.0
      ],
      [
        "ĠVardhan",
        -1.0
      ],
      [
        "Ġpampas",
        -1.0
      ],
      [
        "Ġeigenvalues",
        -1.0
      ],
      [
        "Ġfeminine",
        -1.0
      ],
      [
        "Decision",
        -1.0
      ],
      [
        "Ġpropels",
        -1.0
      ],
      [
        "_right",
        -1.0
      ],
      [
        "problem",
        -1.0
      ],
      [
        "ĠChanges",
        -1.0
      ],
      [
        "THIS",
        -1.0
      ],
      [
        "Ġdress",
        -1.0
      ],
      [
        "Ġdefocus",
        -1.0
      ],
      [
        "Ġslope",
        -1.0
      ],
      [
        "ĠTHEIR",
        -1.0
      ],
      [
        "ĠSSN",
        -1.0
      ],
      [
        ".download",
        -1.0
      ],
      [
        "Ġmeniscal",
        -1.0
      ],
      [
        "ĠÑĤ",
        -1.0
      ],
      [
        "ĠPetAlive",
        -1.0
      ],
      [
        "ĠPickett",
        -1.0
      ],
      [
        "dicate",
        -1.0
      ],
      [
        "ĠDDOS",
        -1.0
      ],
      [
        "ĠAbridged",
        -1.0
      ],
      [
        "Ġfarmhouse",
        -1.0
      ],
      [
        "-stereo",
        -1.0
      ],
      [
        "ĠShalom",
        -1.0
      ],
      [
        "ghz",
        -1.0
      ],
      [
        "Ġloom",
        -1.0
      ],
      [
        "Ġheaved",
        -1.0
      ],
      [
        "ãģ",
        -1.0
      ],
      [
        "Ġdarn",
        -1.0
      ],
      [
        "ĠGynaecologist",
        -1.0
      ],
      [
        "ĠRear",
        -1.0
      ],
      [
        "ĠPeninsula",
        -1.0
      ],
      [
        "butter",
        -1.0
      ],
      [
        "ĠHeLa",
        -1.0
      ],
      [
        "ĠGrilling",
        -1.0
      ],
      [
        "affe",
        -1.0
      ],
      [
        "Ġautoflower",
        -1.0
      ],
      [
        "ĠMoist",
        -1.0
      ],
      [
        "57",
        -1.0
      ],
      [
        "ĠGolden",
        -1.0
      ],
      [
        "Ġsupercharging",
        -1.0
      ],
      [
        "Ġtrackback",
        -1.0
      ],
      [
        "synthetic",
        -1.0
      ],
      [
        "rcinus",
        -1.0
      ],
      [
        "åĨľ",
        -1.0
      ],
      [
        "ĠGe",
        -1.0
      ],
      [
        "ĠDevelopments",
        -1.0
      ],
      [
        "-percent",
        -1.0
      ],
      [
        "Ġseam",
        -1.0
      ],
      [
        "-heme",
        -1.0
      ],
      [
        "Ġfuel",
        -1.0
      ],
      [
        "Ġdistricts",
        -1.0
      ],
      [
        "Ġivy",
        -1.0
      ],
      [
        "ÐºÐ°",
        -1.0
      ],
      [
        "Ġcomm",
        -1.0
      ],
      [
        "xr",
        -1.0
      ],
      [
        "Ġgeneralist",
        -1.0
      ],
      [
        "Ġrubro",
        -1.0
      ],
      [
        "Ġpassageways",
        -1.0
      ],
      [
        "Ġnameless",
        -1.0
      ],
      [
        "Ð°ÑĢ",
        -1.0
      ],
      [
        "ËĪ",
        -1.0
      ],
      [
        "ĠCayman",
        -1.0
      ],
      [
        "Ġfore",
        -1.0
      ],
      [
        "PC",
        -1.0
      ],
      [
        "ĠNellie",
        -1.0
      ],
      [
        "Ġjohan",
        -1.0
      ],
      [
        "Ġintro",
        -1.0
      ],
      [
        "Ġdiapsid",
        -1.0
      ],
      [
        "Ġwheelie",
        -1.0
      ],
      [
        "ç³ĸ",
        -1.0
      ],
      [
        "ĠAllicin",
        -1.0
      ],
      [
        "Ġdibs",
        -1.0
      ],
      [
        "ddick",
        -1.0
      ],
      [
        "ĠDoctors",
        -1.0
      ],
      [
        "-suspension",
        -1.0
      ],
      [
        "Ġliters",
        -1.0
      ],
      [
        "yc",
        -1.0
      ],
      [
        "ĠShovel",
        -1.0
      ],
      [
        "ĠParliamentary",
        -1.0
      ],
      [
        "-decent",
        -1.0
      ],
      [
        "ĠProficiency",
        -1.0
      ],
      [
        "ĠChutney",
        -1.0
      ],
      [
        "Ġmoorings",
        -1.0
      ],
      [
        "ĠMal",
        -1.0
      ],
      [
        "ÙĨ",
        -1.0
      ],
      [
        "ĠCTI",
        -1.0
      ],
      [
        "Ġbalm",
        -1.0
      ],
      [
        "oke",
        -1.0
      ],
      [
        "bies",
        -1.0
      ],
      [
        "Ġlodges",
        -1.0
      ],
      [
        "åĲ¦",
        -1.0
      ],
      [
        "-sampling",
        -1.0
      ],
      [
        "COPYRIGHT",
        -1.0
      ],
      [
        "(From",
        -1.0
      ],
      [
        "Ġsymphonies",
        -1.0
      ],
      [
        "Ġhassles",
        -1.0
      ],
      [
        "Ġmetabolome",
        -1.0
      ],
      [
        "Ġnorthern",
        -1.0
      ],
      [
        "Ġacetyl",
        -1.0
      ],
      [
        "ĠRecently",
        -1.0
      ],
      [
        "ĠTESS",
        -1.0
      ],
      [
        "-finding",
        -1.0
      ],
      [
        "Ġmitigate",
        -1.0
      ],
      [
        "Observing",
        -1.0
      ],
      [
        "Ġnephropathy",
        -1.0
      ],
      [
        "TING",
        -1.0
      ],
      [
        "Spoiler",
        -1.0
      ],
      [
        "å¹³",
        -1.0
      ],
      [
        "ĠShofar",
        -1.0
      ],
      [
        "Ġcarbondioxide",
        -1.0
      ],
      [
        "Wyzant",
        -1.0
      ],
      [
        "gpio",
        -1.0
      ],
      [
        "ĠRococo",
        -1.0
      ],
      [
        "ĠFutures",
        -1.0
      ],
      [
        "rhein",
        -1.0
      ],
      [
        "-Operative",
        -1.0
      ],
      [
        "EPSRC",
        -1.0
      ],
      [
        "Ġanesthetist",
        -1.0
      ],
      [
        "/Y",
        -1.0
      ],
      [
        "Ġretcon",
        -1.0
      ],
      [
        "\\end",
        -1.0
      ],
      [
        "ĠNadeau",
        -1.0
      ],
      [
        "ĠSkye",
        -1.0
      ],
      [
        "OB",
        -1.0
      ],
      [
        "ë¦¬",
        -1.0
      ],
      [
        "Ren",
        -1.0
      ],
      [
        "ĠSENSE",
        -1.0
      ],
      [
        "éĹ¨",
        -1.0
      ],
      [
        "Ġinterventions",
        -1.0
      ],
      [
        "Ġdisorientated",
        -1.0
      ],
      [
        "ĠOTF",
        -1.0
      ],
      [
        "ĠPoulsen",
        -1.0
      ],
      [
        ".lat",
        -1.0
      ],
      [
        "ĠImprint",
        -1.0
      ],
      [
        "-format",
        -1.0
      ],
      [
        "Ġprevented",
        -1.0
      ],
      [
        "iley",
        -1.0
      ],
      [
        "Virginia",
        -1.0
      ],
      [
        "ĠRochester",
        -1.0
      ],
      [
        "Ġoverconfidence",
        -1.0
      ],
      [
        "Ġcooldown",
        -1.0
      ],
      [
        "cta",
        -1.0
      ],
      [
        "Ġsubtype",
        -1.0
      ],
      [
        "ĠLinnaeus",
        -1.0
      ],
      [
        "eater",
        -1.0
      ],
      [
        "ĠLy",
        -1.0
      ],
      [
        "otic",
        -1.0
      ],
      [
        "Hell",
        -1.0
      ],
      [
        "Ġworshipping",
        -1.0
      ],
      [
        "Ġanastomosis",
        -1.0
      ],
      [
        "Ġmaw",
        -1.0
      ],
      [
        "Ġlimiter",
        -1.0
      ],
      [
        "ĠBye",
        -1.0
      ],
      [
        "Scorpio",
        -1.0
      ],
      [
        "Ġstair",
        -1.0
      ],
      [
        "ĠDiffers",
        -1.0
      ],
      [
        "Ġattorney",
        -1.0
      ],
      [
        "ĠMishnah",
        -1.0
      ],
      [
        "Arg",
        -1.0
      ],
      [
        "ĠReforms",
        -1.0
      ],
      [
        "Ġcysto",
        -1.0
      ],
      [
        "çĬ¶",
        -1.0
      ],
      [
        "Ġcobalt",
        -1.0
      ],
      [
        "Ġ'''",
        -1.0
      ],
      [
        "ĠFidget",
        -1.0
      ],
      [
        "Ġcootie",
        -1.0
      ],
      [
        "Probate",
        -1.0
      ],
      [
        "ĠBeau",
        -1.0
      ],
      [
        "ĠPathology",
        -1.0
      ],
      [
        "ĠProbing",
        -1.0
      ],
      [
        "ĠDada",
        -1.0
      ],
      [
        "ĠEnrollment",
        -1.0
      ],
      [
        "mbe",
        -1.0
      ],
      [
        "Ġembers",
        -1.0
      ],
      [
        "ĠRizvi",
        -1.0
      ],
      [
        "Ġgunner",
        -1.0
      ],
      [
        "Ġtoothpick",
        -1.0
      ],
      [
        "Ġphotorealism",
        -1.0
      ],
      [
        "Ġtrack",
        -1.0
      ],
      [
        "Ġarbitration",
        -1.0
      ],
      [
        "Ġclip",
        -1.0
      ],
      [
        "Ġpogrom",
        -1.0
      ],
      [
        "ĠJL",
        -1.0
      ],
      [
        "Ġdihedral",
        -1.0
      ],
      [
        "Ġpaperless",
        -1.0
      ],
      [
        "Philosoph",
        -1.0
      ],
      [
        "Description",
        -1.0
      ],
      [
        "ĠâĢĵĊĊ",
        -1.0
      ],
      [
        "ĠAb",
        -1.0
      ],
      [
        "oshi",
        -1.0
      ],
      [
        "ĠGuard",
        -1.0
      ],
      [
        "/select",
        -1.0
      ],
      [
        "[]",
        -1.0
      ],
      [
        "Systems",
        -1.0
      ],
      [
        "ĠShelby",
        -1.0
      ],
      [
        "Ġcloaks",
        -1.0
      ],
      [
        "Tapioca",
        -1.0
      ],
      [
        "Ġuniverses",
        -1.0
      ],
      [
        "Ġconstrains",
        -1.0
      ],
      [
        "Ġthermoplastic",
        -1.0
      ],
      [
        "ĠCFO",
        -1.0
      ],
      [
        "ĠGK",
        -1.0
      ],
      [
        "-grilled",
        -1.0
      ],
      [
        "Ġtraversing",
        -1.0
      ],
      [
        "ĠCompleat",
        -1.0
      ],
      [
        "ĠXLR",
        -1.0
      ],
      [
        "Ġcarcinoma",
        -1.0
      ],
      [
        "Ġshiat",
        -1.0
      ],
      [
        "ãĥĪãĥª",
        -1.0
      ],
      [
        "Ġconquered",
        -1.0
      ],
      [
        "Ġstadium",
        -1.0
      ],
      [
        "Ġcarcinogen",
        -1.0
      ],
      [
        "ĠSimmons",
        -1.0
      ],
      [
        "usa",
        -1.0
      ],
      [
        "ĠBiologics",
        -1.0
      ],
      [
        "Ġbiogenic",
        -1.0
      ],
      [
        "-guzzling",
        -1.0
      ],
      [
        "kl",
        -1.0
      ],
      [
        "Bouteloua",
        -1.0
      ],
      [
        "ĠOA",
        -1.0
      ],
      [
        "Ġaerodynamics",
        -1.0
      ],
      [
        "ĠResponsible",
        -1.0
      ],
      [
        "Ġcornbread",
        -1.0
      ],
      [
        "-BASIC",
        -1.0
      ],
      [
        "ĠToltec",
        -1.0
      ],
      [
        "ĠBrigadier",
        -1.0
      ],
      [
        "ĠGretna",
        -1.0
      ],
      [
        "Ġprovisioning",
        -1.0
      ],
      [
        "ĠTol",
        -1.0
      ],
      [
        "ĠAmeca",
        -1.0
      ],
      [
        "lad",
        -1.0
      ],
      [
        "Ġmilli",
        -1.0
      ],
      [
        "-Pot",
        -1.0
      ],
      [
        "ĠTEM",
        -1.0
      ],
      [
        "Ġnosebleeds",
        -1.0
      ],
      [
        "ĠEucalyptus",
        -1.0
      ],
      [
        "ïĥĺ",
        -1.0
      ],
      [
        "UO",
        -1.0
      ],
      [
        "ĠMalik",
        -1.0
      ],
      [
        "ĠCayenne",
        -1.0
      ],
      [
        "Ġfigurine",
        -1.0
      ],
      [
        "ĠWestie",
        -1.0
      ],
      [
        "ĠRuminococcus",
        -1.0
      ],
      [
        "ĠBiloxi",
        -1.0
      ],
      [
        "ĠAcademia",
        -1.0
      ],
      [
        "Injury",
        -1.0
      ],
      [
        "Ġmaternity",
        -1.0
      ],
      [
        "æķ¸",
        -1.0
      ],
      [
        "ĠEntire",
        -1.0
      ],
      [
        "ĠSmol",
        -1.0
      ],
      [
        "ĠLululemon",
        -1.0
      ],
      [
        "ĠHarkin",
        -1.0
      ],
      [
        "ĠInterests",
        -1.0
      ],
      [
        "Some",
        -1.0
      ],
      [
        "Ġgoddesses",
        -1.0
      ],
      [
        "-mer",
        -1.0
      ],
      [
        "ĠAdobe",
        -1.0
      ],
      [
        "Ġfertigation",
        -1.0
      ],
      [
        "ĠAtg",
        -1.0
      ],
      [
        "ĠBlended",
        -1.0
      ],
      [
        "Ġfertilising",
        -1.0
      ],
      [
        "Ġintersecting",
        -1.0
      ],
      [
        "ĠWart",
        -1.0
      ],
      [
        "Fle",
        -1.0
      ],
      [
        "ĠFlagstaff",
        -1.0
      ],
      [
        "Ġepistemic",
        -1.0
      ],
      [
        "ĠAunt",
        -1.0
      ],
      [
        "Ġsplintering",
        -1.0
      ],
      [
        "ĠShropshire",
        -1.0
      ],
      [
        "ĠRaul",
        -1.0
      ],
      [
        "ĠEternal",
        -1.0
      ],
      [
        "[x",
        -1.0
      ],
      [
        "Ġrosters",
        -1.0
      ],
      [
        "ela",
        -1.0
      ],
      [
        "Dead",
        -1.0
      ],
      [
        "ĠNormandy",
        -1.0
      ],
      [
        "Ġparents",
        -1.0
      ],
      [
        "ĠSexes",
        -1.0
      ],
      [
        "Ġliquid",
        -1.0
      ],
      [
        "ĠZika",
        -1.0
      ],
      [
        "Ġeigrp",
        -1.0
      ],
      [
        "Ġchargeback",
        -1.0
      ],
      [
        "ĠLoph",
        -1.0
      ],
      [
        "ĠPhyta",
        -1.0
      ],
      [
        "Ketosis",
        -1.0
      ],
      [
        "ĠOjibwe",
        -1.0
      ],
      [
        "Ġeugenia",
        -1.0
      ],
      [
        "-ravaged",
        -1.0
      ],
      [
        "Ġbalaclava",
        -1.0
      ],
      [
        "Ġ(@",
        -1.0
      ],
      [
        "gÃ¼",
        -1.0
      ],
      [
        "Ġvariola",
        -1.0
      ],
      [
        ":Get",
        -1.0
      ],
      [
        "ĠPCM",
        -1.0
      ],
      [
        "ĠId",
        -1.0
      ],
      [
        "ĠCitrobacter",
        -1.0
      ],
      [
        "-Profit",
        -1.0
      ],
      [
        "Ġcontended",
        -1.0
      ],
      [
        "Ġminds",
        -1.0
      ],
      [
        "Ġcensor",
        -1.0
      ],
      [
        "-Carve",
        -1.0
      ],
      [
        "Ġweary",
        -1.0
      ],
      [
        "Ġdeadly",
        -1.0
      ],
      [
        "Nexis",
        -1.0
      ],
      [
        "Ġcompares",
        -1.0
      ],
      [
        "ĠNostradamus",
        -1.0
      ],
      [
        "Ġyen",
        -1.0
      ],
      [
        "nton",
        -1.0
      ],
      [
        "ĠSchi",
        -1.0
      ],
      [
        "Ġgabapentin",
        -1.0
      ],
      [
        "_INDEX",
        -1.0
      ],
      [
        "Ġdust",
        -1.0
      ],
      [
        "ĠWaiver",
        -1.0
      ],
      [
        "Ġrerouting",
        -1.0
      ],
      [
        "/eli",
        -1.0
      ],
      [
        "Ġbinaural",
        -1.0
      ],
      [
        "Ġsender",
        -1.0
      ],
      [
        "-rimmed",
        -1.0
      ],
      [
        "ĠSuperNova",
        -1.0
      ],
      [
        "ĠErnie",
        -1.0
      ],
      [
        "ĠVSC",
        -1.0
      ],
      [
        "Ġversion",
        -1.0
      ],
      [
        "ĠMerrill",
        -1.0
      ],
      [
        "ĠVerified",
        -1.0
      ],
      [
        "ĠHl",
        -1.0
      ],
      [
        "Ġreactants",
        -1.0
      ],
      [
        "Ġiodo",
        -1.0
      ],
      [
        "ĠSmokey",
        -1.0
      ],
      [
        "Ġshrivel",
        -1.0
      ],
      [
        "ĠEar",
        -1.0
      ],
      [
        "ere",
        -1.0
      ],
      [
        "ĠHutton",
        -1.0
      ],
      [
        "Ġtreason",
        -1.0
      ],
      [
        "Ġcreationist",
        -1.0
      ],
      [
        "-analysis",
        -1.0
      ],
      [
        "Ġaxisymmetric",
        -1.0
      ],
      [
        "Promethium",
        -1.0
      ],
      [
        "Ġtexted",
        -1.0
      ],
      [
        "-limonene",
        -1.0
      ],
      [
        "Hamamelis",
        -1.0
      ],
      [
        "Ġappropriating",
        -1.0
      ],
      [
        "Codiaeum",
        -1.0
      ],
      [
        "ĠIIRC",
        -1.0
      ],
      [
        "ĠCohen",
        -1.0
      ],
      [
        "ĠUsain",
        -1.0
      ],
      [
        "Ġfluxes",
        -1.0
      ],
      [
        "ĠNoon",
        -1.0
      ],
      [
        "ĠFlashlight",
        -1.0
      ],
      [
        "ðŁķ",
        -1.0
      ],
      [
        "ĠFieldwork",
        -1.0
      ],
      [
        "ĠDorchester",
        -1.0
      ],
      [
        "ĠHow",
        -1.0
      ],
      [
        "ĠLewandowski",
        -1.0
      ],
      [
        "ĠBlades",
        -1.0
      ],
      [
        "-service",
        -1.0
      ],
      [
        "Ġquizzes",
        -1.0
      ],
      [
        "âĢĻan",
        -1.0
      ],
      [
        "Ġgums",
        -1.0
      ],
      [
        "-spinning",
        -1.0
      ],
      [
        "Ġeavesdropper",
        -1.0
      ],
      [
        "Ġtaste",
        -1.0
      ],
      [
        "ĠContax",
        -1.0
      ],
      [
        "already",
        -1.0
      ],
      [
        "Ġadvisories",
        -1.0
      ],
      [
        "Ambulatory",
        -1.0
      ],
      [
        "ĠHerceptin",
        -1.0
      ],
      [
        "ĠDÃºchas",
        -1.0
      ],
      [
        "Ġfloriculture",
        -1.0
      ],
      [
        "ĠAj",
        -1.0
      ],
      [
        "Ġmiscarriage",
        -1.0
      ],
      [
        "Ġclauses",
        -1.0
      ],
      [
        "Ġpanini",
        -1.0
      ],
      [
        "Ġintraluminal",
        -1.0
      ],
      [
        "Vc",
        -1.0
      ],
      [
        "Ġlemur",
        -1.0
      ],
      [
        "Ġtorquing",
        -1.0
      ],
      [
        "Ġhydroplane",
        -1.0
      ],
      [
        "ĠReborn",
        -1.0
      ],
      [
        "EjOzck",
        -1.0
      ],
      [
        "Ġheadlands",
        -1.0
      ],
      [
        "ĠFragmentation",
        -1.0
      ],
      [
        "Please",
        -1.0
      ],
      [
        "Ġoboe",
        -1.0
      ],
      [
        "KL",
        -1.0
      ],
      [
        "Ġdenuded",
        -1.0
      ],
      [
        "Ð°ÑĤ",
        -1.0
      ],
      [
        "hide",
        -1.0
      ],
      [
        "Ġeyeballs",
        -1.0
      ],
      [
        "Ġshitload",
        -1.0
      ],
      [
        "Ġweasels",
        -1.0
      ],
      [
        "ĠNaim",
        -1.0
      ],
      [
        "ĠUmber",
        -1.0
      ],
      [
        "oxymethylene",
        -1.0
      ],
      [
        "Ġsailfish",
        -1.0
      ],
      [
        "ĠTambora",
        -1.0
      ],
      [
        "ĠAcidification",
        -1.0
      ],
      [
        "Ġbioenergy",
        -1.0
      ],
      [
        "Ġbisulfate",
        -1.0
      ],
      [
        "-*",
        -1.0
      ],
      [
        "âĢ",
        -1.0
      ],
      [
        "-scholar",
        -1.0
      ],
      [
        "Ġoperational",
        -1.0
      ],
      [
        "Ġgracefully",
        -1.0
      ],
      [
        "ĠHydrodynamic",
        -1.0
      ],
      [
        "Ġwrangle",
        -1.0
      ],
      [
        "ĠLariat",
        -1.0
      ],
      [
        "ĠIntegrator",
        -1.0
      ],
      [
        "eX",
        -1.0
      ],
      [
        "ĠTESOL",
        -1.0
      ],
      [
        "Ġprowl",
        -1.0
      ],
      [
        "Ġtopspin",
        -1.0
      ],
      [
        "ĠTTI",
        -1.0
      ],
      [
        "Ġadc",
        -1.0
      ],
      [
        "Continuing",
        -1.0
      ],
      [
        "Ġroti",
        -1.0
      ],
      [
        "ĠGeoscience",
        -1.0
      ],
      [
        "ç©į",
        -1.0
      ],
      [
        "ĠBrookhaven",
        -1.0
      ],
      [
        "Ġtransmissible",
        -1.0
      ],
      [
        "Ġtrophoblast",
        -1.0
      ],
      [
        "(structtyphoon",
        -1.0
      ],
      [
        "çĶµåİĭ",
        -1.0
      ],
      [
        "ĠTravelers",
        -1.0
      ],
      [
        "ĠLau",
        -1.0
      ],
      [
        "ĠCareful",
        -1.0
      ],
      [
        "ĠToowoomba",
        -1.0
      ],
      [
        "Ġheartworm",
        -1.0
      ],
      [
        "Ã±i",
        -1.0
      ],
      [
        ".Finally",
        -1.0
      ],
      [
        "ver",
        -1.0
      ],
      [
        "Ġphrasal",
        -1.0
      ],
      [
        "ĠFe",
        -1.0
      ],
      [
        "Ġgalvanized",
        -1.0
      ],
      [
        "Ġzinnias",
        -1.0
      ],
      [
        "ĠJamaican",
        -1.0
      ],
      [
        "ĠFrancesco",
        -1.0
      ],
      [
        "Ġbuckyball",
        -1.0
      ],
      [
        "Ġchoir",
        -1.0
      ],
      [
        "Ġabsorb",
        -1.0
      ],
      [
        "ĠTru",
        -1.0
      ],
      [
        "ĠDive",
        -1.0
      ],
      [
        "Ġlair",
        -1.0
      ],
      [
        "Ġexerciser",
        -1.0
      ],
      [
        "_PATH",
        -1.0
      ],
      [
        "Ġgene",
        -1.0
      ],
      [
        "-sinusoidal",
        -1.0
      ],
      [
        "ĠAwful",
        -1.0
      ],
      [
        "Ġevidence",
        -1.0
      ],
      [
        "Ġconstituency",
        -1.0
      ],
      [
        "ĠPolymer",
        -1.0
      ],
      [
        "Ġunderarm",
        -1.0
      ],
      [
        "ĠDOC",
        -1.0
      ],
      [
        "-gold",
        -1.0
      ],
      [
        "-flying",
        -1.0
      ],
      [
        "ĠOshawa",
        -1.0
      ],
      [
        "Ġcrocs",
        -1.0
      ],
      [
        "ĠCr",
        -1.0
      ],
      [
        "Ġslang",
        -1.0
      ],
      [
        "EPISODE",
        -1.0
      ],
      [
        "-colored",
        -1.0
      ],
      [
        "Ġragweed",
        -1.0
      ],
      [
        "Ġalgorithmic",
        -1.0
      ],
      [
        "Ġappetites",
        -1.0
      ],
      [
        "bloom",
        -1.0
      ],
      [
        "Ġloader",
        -1.0
      ],
      [
        "Ġdivestment",
        -1.0
      ],
      [
        "Ġglycosides",
        -1.0
      ],
      [
        "Ġsulfates",
        -1.0
      ],
      [
        "Microsoft",
        -1.0
      ],
      [
        "Ġvalidators",
        -1.0
      ],
      [
        "Ġdirectional",
        -1.0
      ],
      [
        "Ġwinnowed",
        -1.0
      ],
      [
        "ĠWisconsin",
        -1.0
      ],
      [
        ".Another",
        -1.0
      ],
      [
        "casting",
        -1.0
      ],
      [
        "Ġfond",
        -1.0
      ],
      [
        "Ġlayman",
        -1.0
      ],
      [
        "Ġwebserver",
        -1.0
      ],
      [
        "erpeton",
        -1.0
      ],
      [
        "Ġoutpatients",
        -1.0
      ],
      [
        "[i",
        -1.0
      ],
      [
        "ĠFEAR",
        -1.0
      ],
      [
        "âĤ¬?",
        -1.0
      ],
      [
        "Ġcg",
        -1.0
      ],
      [
        "gate",
        -1.0
      ],
      [
        "Ġunfused",
        -1.0
      ],
      [
        "Ġlanguagemodel",
        -1.0
      ],
      [
        "/dairy",
        -1.0
      ],
      [
        "Ġbillionth",
        -1.0
      ],
      [
        "ĠAam",
        -1.0
      ],
      [
        "ĠWiel",
        -1.0
      ],
      [
        "ĠPainful",
        -1.0
      ],
      [
        "Ġwastewaters",
        -1.0
      ],
      [
        "Ġcookbooks",
        -1.0
      ],
      [
        "Ġpureed",
        -1.0
      ],
      [
        "Ġancillaries",
        -1.0
      ],
      [
        "ĠEDH",
        -1.0
      ],
      [
        "Peptide",
        -1.0
      ],
      [
        "BX",
        -1.0
      ],
      [
        "Tech",
        -1.0
      ],
      [
        "Comp",
        -1.0
      ],
      [
        "ĠVaccine",
        -1.0
      ],
      [
        "/target",
        -1.0
      ],
      [
        "Ġsugary",
        -1.0
      ],
      [
        "Counsel",
        -1.0
      ],
      [
        "Ġhrs",
        -1.0
      ],
      [
        "Ġribozyme",
        -1.0
      ],
      [
        "Ġretouched",
        -1.0
      ],
      [
        "Ġcoincidentally",
        -1.0
      ],
      [
        "Ġteeming",
        -1.0
      ],
      [
        "\"]Ċ",
        -1.0
      ],
      [
        "á»ĭ",
        -1.0
      ],
      [
        "¼ÑªÐªÑ¯Ñ¥Ñ¦",
        -1.0
      ],
      [
        "Ġabomination",
        -1.0
      ],
      [
        "-Grid",
        -1.0
      ],
      [
        "ĠWeybridge",
        -1.0
      ],
      [
        "/drill",
        -1.0
      ],
      [
        "Ġshouting",
        -1.0
      ],
      [
        "Ġpalygorskite",
        -1.0
      ],
      [
        "Ġability",
        -1.0
      ],
      [
        "ĠRevolutionary",
        -1.0
      ],
      [
        "ĠASPECT",
        -1.0
      ],
      [
        "'Keefe",
        -1.0
      ],
      [
        "-links",
        -1.0
      ],
      [
        "Ġinterferes",
        -1.0
      ],
      [
        "Ġcomms",
        -1.0
      ],
      [
        "ĠVatna",
        -1.0
      ],
      [
        "ĠPangolin",
        -1.0
      ],
      [
        "Forest",
        -1.0
      ],
      [
        "Ġenlightened",
        -1.0
      ],
      [
        "Ġscrub",
        -1.0
      ],
      [
        "-guess",
        -1.0
      ],
      [
        "Ġfrontier",
        -1.0
      ],
      [
        "cene",
        -1.0
      ],
      [
        "czek",
        -1.0
      ],
      [
        "Ġgrilled",
        -1.0
      ],
      [
        "Ġphysician",
        -1.0
      ],
      [
        "ĠPerennials",
        -1.0
      ],
      [
        "ĠSupporters",
        -1.0
      ],
      [
        "bir",
        -1.0
      ],
      [
        "vick",
        -1.0
      ],
      [
        "Ġdrywall",
        -1.0
      ],
      [
        "Ġfrustrations",
        -1.0
      ],
      [
        "Ġchimpanzees",
        -1.0
      ],
      [
        "Ġballpark",
        -1.0
      ],
      [
        "-Leash",
        -1.0
      ],
      [
        "Ġabuzz",
        -1.0
      ],
      [
        "-allocate",
        -1.0
      ],
      [
        "ĠArtwork",
        -1.0
      ],
      [
        "Ê¿",
        -1.0
      ],
      [
        "Ġemitters",
        -1.0
      ],
      [
        "ĠAbbas",
        -1.0
      ],
      [
        "Ġsoften",
        -1.0
      ],
      [
        "ĠVex",
        -1.0
      ],
      [
        "Ð»Ð°",
        -1.0
      ],
      [
        "Ġwardrobes",
        -1.0
      ],
      [
        "rhizus",
        -1.0
      ],
      [
        "ĠCATA",
        -1.0
      ],
      [
        "Ġdanios",
        -1.0
      ],
      [
        "ĠRisky",
        -1.0
      ],
      [
        "Ġtravertine",
        -1.0
      ],
      [
        "Ġjunkyard",
        -1.0
      ],
      [
        "Ġbatters",
        -1.0
      ],
      [
        "mark",
        -1.0
      ],
      [
        "ìĿ´",
        -1.0
      ],
      [
        "ĠSchmidhuber",
        -1.0
      ],
      [
        "CITES",
        -1.0
      ],
      [
        "ĠFlagellin",
        -1.0
      ],
      [
        "ĠFixes",
        -1.0
      ],
      [
        "sr",
        -1.0
      ],
      [
        "Ġinvalidation",
        -1.0
      ],
      [
        "ĠIntolerance",
        -1.0
      ],
      [
        "ĠCrucifixion",
        -1.0
      ],
      [
        "ĠJuly",
        -1.0
      ],
      [
        "Ġatypical",
        -1.0
      ],
      [
        "Ġepiscop",
        -1.0
      ],
      [
        "#",
        -1.0
      ],
      [
        "-removable",
        -1.0
      ],
      [
        "-Thompson",
        -1.0
      ],
      [
        "Ġtibial",
        -1.0
      ],
      [
        "ĠJeev",
        -1.0
      ],
      [
        "ept",
        -1.0
      ],
      [
        "elements",
        -1.0
      ],
      [
        "ĠVanguard",
        -1.0
      ],
      [
        "Ġundestand",
        -1.0
      ],
      [
        "Ġunseasonable",
        -1.0
      ],
      [
        "ĠYacht",
        -1.0
      ],
      [
        "#,",
        -1.0
      ],
      [
        "aX",
        -1.0
      ],
      [
        "ĠGentle",
        -1.0
      ],
      [
        "Ġxt",
        -1.0
      ],
      [
        "ĠNarratives",
        -1.0
      ],
      [
        "ĠSchlei",
        -1.0
      ],
      [
        "ĠObi",
        -1.0
      ],
      [
        "ĠOvechkin",
        -1.0
      ],
      [
        "ĠBandura",
        -1.0
      ],
      [
        "ĠPerform",
        -1.0
      ],
      [
        "Ġendeavoring",
        -1.0
      ],
      [
        "ĠCosmic",
        -1.0
      ],
      [
        "ĠReps",
        -1.0
      ],
      [
        "ĠRDS",
        -1.0
      ],
      [
        "halomethanes",
        -1.0
      ],
      [
        "_Z",
        -1.0
      ],
      [
        "CAL",
        -1.0
      ],
      [
        "Ġformulations",
        -1.0
      ],
      [
        "æĬĺ",
        -1.0
      ],
      [
        "Ġminors",
        -1.0
      ],
      [
        "ĠTravels",
        -1.0
      ],
      [
        "Ġnanograms",
        -1.0
      ],
      [
        "Ġdumbest",
        -1.0
      ],
      [
        "Ġcollision",
        -1.0
      ],
      [
        "Ġplayer",
        -1.0
      ],
      [
        "ĠSandusky",
        -1.0
      ],
      [
        "ĠScapula",
        -1.0
      ],
      [
        "ĠSteroids",
        -1.0
      ],
      [
        "Ġsears",
        -1.0
      ],
      [
        "ĠFaster",
        -1.0
      ],
      [
        "ĠAlkaline",
        -1.0
      ],
      [
        "ĠPerrier",
        -1.0
      ],
      [
        "ĠBellini",
        -1.0
      ],
      [
        "ĠLafayette",
        -1.0
      ],
      [
        "Ġvanishes",
        -1.0
      ],
      [
        "Ġunbounded",
        -1.0
      ],
      [
        "Ġcomming",
        -1.0
      ],
      [
        "-acupuncture",
        -1.0
      ],
      [
        "Ġcirculated",
        -1.0
      ],
      [
        "å¿ľ",
        -1.0
      ],
      [
        "-empower",
        -1.0
      ],
      [
        "Ġcurating",
        -1.0
      ],
      [
        "ez",
        -1.0
      ],
      [
        "Ġhcb",
        -1.0
      ],
      [
        "ells",
        -1.0
      ],
      [
        "ĠYass",
        -1.0
      ],
      [
        "ĠeCommerce",
        -1.0
      ],
      [
        "providing",
        -1.0
      ],
      [
        "GPP",
        -1.0
      ],
      [
        "ĠPanther",
        -1.0
      ],
      [
        "/should",
        -1.0
      ],
      [
        "Ġwether",
        -1.0
      ],
      [
        "Ġphallus",
        -1.0
      ],
      [
        "-sub",
        -1.0
      ],
      [
        "Ġarchaeon",
        -1.0
      ],
      [
        "\"Remember",
        -1.0
      ],
      [
        "Ġnonporous",
        -1.0
      ],
      [
        "Ġpacifier",
        -1.0
      ],
      [
        "ĠImageMagick",
        -1.0
      ],
      [
        "Ġfacetious",
        -1.0
      ],
      [
        "ĠSprinkle",
        -1.0
      ],
      [
        "Ġequate",
        -1.0
      ],
      [
        "ĠCookery",
        -1.0
      ],
      [
        "Ġviewfinder",
        -1.0
      ],
      [
        "Ġminibus",
        -1.0
      ],
      [
        "ĠSavonius",
        -1.0
      ],
      [
        "ĠMetropolis",
        -1.0
      ],
      [
        "Ġpricked",
        -1.0
      ],
      [
        "ĠPavel",
        -1.0
      ],
      [
        "Ġtowhees",
        -1.0
      ],
      [
        "ĠNashville",
        -1.0
      ],
      [
        "ĠSYN",
        -1.0
      ],
      [
        "ĠWales",
        -1.0
      ],
      [
        "eg",
        -1.0
      ],
      [
        "Ġshields",
        -1.0
      ],
      [
        "ĠLovely",
        -1.0
      ],
      [
        "ĠNieder",
        -1.0
      ],
      [
        "Ġgrasslands",
        -1.0
      ],
      [
        "âĢľWhat",
        -1.0
      ],
      [
        "ĠMOMP",
        -1.0
      ],
      [
        "Ġsurvivorship",
        -1.0
      ],
      [
        "nab",
        -1.0
      ],
      [
        "ĠYorkshire",
        -1.0
      ],
      [
        "ĠPeregrine",
        -1.0
      ],
      [
        "ĠCY",
        -1.0
      ],
      [
        "Ġsite",
        -1.0
      ],
      [
        "Ġformwork",
        -1.0
      ],
      [
        "ĠExacto",
        -1.0
      ],
      [
        "Ġsleepwalking",
        -1.0
      ],
      [
        "Ġaphids",
        -1.0
      ],
      [
        "ĠScrabble",
        -1.0
      ],
      [
        "Ġimpacting",
        -1.0
      ],
      [
        "ĠPARENTS",
        -1.0
      ],
      [
        "ĠLb",
        -1.0
      ],
      [
        "ĠAzalea",
        -1.0
      ],
      [
        "iers",
        -1.0
      ],
      [
        "ĠClaudius",
        -1.0
      ],
      [
        "ĠDecks",
        -1.0
      ],
      [
        "Ġintrusive",
        -1.0
      ],
      [
        "ĠBh",
        -1.0
      ],
      [
        "ĠRecliner",
        -1.0
      ],
      [
        "ĠCaduceus",
        -1.0
      ],
      [
        "ĠTourist",
        -1.0
      ],
      [
        "-ish",
        -1.0
      ],
      [
        "Ġtrackable",
        -1.0
      ],
      [
        "Ġgalactose",
        -1.0
      ],
      [
        "ĠPegasus",
        -1.0
      ],
      [
        "ĠBentley",
        -1.0
      ],
      [
        "Ġweeping",
        -1.0
      ],
      [
        "Vegan",
        -1.0
      ],
      [
        "fÃ¼hrt",
        -1.0
      ],
      [
        "ĠMemory",
        -1.0
      ],
      [
        "Ġexistences",
        -1.0
      ],
      [
        "Ð¾r",
        -1.0
      ],
      [
        "ĠCartel",
        -1.0
      ],
      [
        "ĠSew",
        -1.0
      ],
      [
        "ĠWorn",
        -1.0
      ],
      [
        "ĠBitter",
        -1.0
      ],
      [
        "Ġjoked",
        -1.0
      ],
      [
        "ĠCircles",
        -1.0
      ],
      [
        "Ġtuy",
        -1.0
      ],
      [
        "ĠVISTA",
        -1.0
      ],
      [
        "Ġdevice",
        -1.0
      ],
      [
        "ĠHibachi",
        -1.0
      ],
      [
        "ĠOrthopaedic",
        -1.0
      ],
      [
        "ĠADS",
        -1.0
      ],
      [
        "Ġroomy",
        -1.0
      ],
      [
        "Ġencroach",
        -1.0
      ],
      [
        "ĠIAA",
        -1.0
      ],
      [
        "Ġceno",
        -1.0
      ],
      [
        "ĠChalmers",
        -1.0
      ],
      [
        "Ġtranscranial",
        -1.0
      ],
      [
        "ĠPhonak",
        -1.0
      ],
      [
        "ĠGametes",
        -1.0
      ],
      [
        "Ġ</",
        -1.0
      ],
      [
        "ĠInterpersonal",
        -1.0
      ],
      [
        "ðŁĹ",
        -1.0
      ],
      [
        "ĠÐ³",
        -1.0
      ],
      [
        "lam",
        -1.0
      ],
      [
        "ĠNissan",
        -1.0
      ],
      [
        "Ġchutes",
        -1.0
      ],
      [
        "ĠTeilnehmer",
        -1.0
      ],
      [
        "éģĭ",
        -1.0
      ],
      [
        "ĠSupima",
        -1.0
      ],
      [
        "Ġmangoes",
        -1.0
      ],
      [
        "ĠLaburnum",
        -1.0
      ],
      [
        "Ġflatware",
        -1.0
      ],
      [
        "®",
        -1.0
      ],
      [
        "\"...",
        -1.0
      ],
      [
        "ĠBer",
        -1.0
      ],
      [
        "Ġfastener",
        -1.0
      ],
      [
        "ĠEnzymatic",
        -1.0
      ],
      [
        "ç³»ç»Ł",
        -1.0
      ],
      [
        "ĠJudgment",
        -1.0
      ],
      [
        "acharis",
        -1.0
      ],
      [
        "Courgette",
        -1.0
      ],
      [
        "-Mile",
        -1.0
      ],
      [
        "ĠESV",
        -1.0
      ],
      [
        "ĠThreatened",
        -1.0
      ],
      [
        "Ġangiogenesis",
        -1.0
      ],
      [
        "ĠAutomakers",
        -1.0
      ],
      [
        "-starved",
        -1.0
      ],
      [
        "VT",
        -1.0
      ],
      [
        "Ġchlorothalonil",
        -1.0
      ],
      [
        "ĠBahn",
        -1.0
      ],
      [
        "ĠPriorities",
        -1.0
      ],
      [
        "ĠAbrahamic",
        -1.0
      ],
      [
        "/Unsplash",
        -1.0
      ],
      [
        "Ġinfidelity",
        -1.0
      ],
      [
        "Ġimaginary",
        -1.0
      ],
      [
        "ĠCourtney",
        -1.0
      ],
      [
        "^+",
        -1.0
      ],
      [
        "Ġischemia",
        -1.0
      ],
      [
        "ĠINDOOR",
        -1.0
      ],
      [
        "ĠTils",
        -1.0
      ],
      [
        "ĠAntiquity",
        -1.0
      ],
      [
        "nix",
        -1.0
      ],
      [
        "-future",
        -1.0
      ],
      [
        "Ġunfished",
        -1.0
      ],
      [
        "Ġchemistry",
        -1.0
      ],
      [
        "Ġresveratrol",
        -1.0
      ],
      [
        "Ġpollutant",
        -1.0
      ],
      [
        "Ġtype",
        -1.0
      ],
      [
        "Ġsworn",
        -1.0
      ],
      [
        "ĠTagging",
        -1.0
      ],
      [
        "Ġdynein",
        -1.0
      ],
      [
        "tomus",
        -1.0
      ],
      [
        "pir",
        -1.0
      ],
      [
        "Ġdramatist",
        -1.0
      ],
      [
        "ĠHyph",
        -1.0
      ],
      [
        "ĠLie",
        -1.0
      ],
      [
        "Ġdigests",
        -1.0
      ],
      [
        "ĠTerex",
        -1.0
      ],
      [
        "Ġovary",
        -1.0
      ],
      [
        "ĠMST",
        -1.0
      ],
      [
        "ĠBerserk",
        -1.0
      ],
      [
        "ĠChange",
        -1.0
      ],
      [
        "ĠPortobello",
        -1.0
      ],
      [
        "ĠLogin",
        -1.0
      ],
      [
        "ĠOrgans",
        -1.0
      ],
      [
        "-Pull",
        -1.0
      ],
      [
        "Ġknockoff",
        -1.0
      ],
      [
        "Ġretoucher",
        -1.0
      ],
      [
        "ĠOperates",
        -1.0
      ],
      [
        "ĠMaintained",
        -1.0
      ],
      [
        "Ġproclaimed",
        -1.0
      ],
      [
        "Ġelegant",
        -1.0
      ],
      [
        "thr",
        -1.0
      ],
      [
        "ĠHyundai",
        -1.0
      ],
      [
        "ĠInform",
        -1.0
      ],
      [
        "Ġscrotal",
        -1.0
      ],
      [
        "ĠHitchens",
        -1.0
      ],
      [
        "ĠNucleus",
        -1.0
      ],
      [
        "ĠDisposing",
        -1.0
      ],
      [
        "Ġattraction",
        -1.0
      ],
      [
        "Fract",
        -1.0
      ],
      [
        "yf",
        -1.0
      ],
      [
        "Ġhelen",
        -1.0
      ],
      [
        "Ġplumages",
        -1.0
      ],
      [
        "ĠSBM",
        -1.0
      ],
      [
        "ĠYAG",
        -1.0
      ],
      [
        "Break",
        -1.0
      ],
      [
        "Ġ]ĊĊ",
        -1.0
      ],
      [
        "-reared",
        -1.0
      ],
      [
        "ĠWEIGHT",
        -1.0
      ],
      [
        "ĠStandalone",
        -1.0
      ],
      [
        "-teasing",
        -1.0
      ],
      [
        "ĠPard",
        -1.0
      ],
      [
        "Ġmanners",
        -1.0
      ],
      [
        "Ġtranscends",
        -1.0
      ],
      [
        "ĠCMOS",
        -1.0
      ],
      [
        "ĠKasa",
        -1.0
      ],
      [
        "-track",
        -1.0
      ],
      [
        "Ġwarmest",
        -1.0
      ],
      [
        "nidae",
        -1.0
      ],
      [
        "Ġpissing",
        -1.0
      ],
      [
        "Ġpeas",
        -1.0
      ],
      [
        "ÐµÐ·",
        -1.0
      ],
      [
        "Ġlacked",
        -1.0
      ],
      [
        "Ġterawatt",
        -1.0
      ],
      [
        "Ġexpress",
        -1.0
      ],
      [
        "ĠPowerwall",
        -1.0
      ],
      [
        "Ġbattlefields",
        -1.0
      ],
      [
        "Ġambience",
        -1.0
      ],
      [
        "Ġemblems",
        -1.0
      ],
      [
        "Ġoxyhydroxide",
        -1.0
      ],
      [
        "SOL",
        -1.0
      ],
      [
        "tum",
        -1.0
      ],
      [
        "=mc",
        -1.0
      ],
      [
        "Ġarmature",
        -1.0
      ],
      [
        "Ġathleisure",
        -1.0
      ],
      [
        "Ġneurosecretory",
        -1.0
      ],
      [
        "ĠSpanning",
        -1.0
      ],
      [
        "om",
        -1.0
      ],
      [
        "Cucurbita",
        -1.0
      ],
      [
        "ĠJeppe",
        -1.0
      ],
      [
        "ĠYanomami",
        -1.0
      ],
      [
        "Ġadverb",
        -1.0
      ],
      [
        "ĠLFP",
        -1.0
      ],
      [
        "Ġbreadth",
        -1.0
      ],
      [
        "ĠEXECUTE",
        -1.0
      ],
      [
        "ĠOrlÃ©ans",
        -1.0
      ],
      [
        "Xi",
        -1.0
      ],
      [
        "kko",
        -1.0
      ],
      [
        "ĠBATTERY",
        -1.0
      ],
      [
        "Ġboar",
        -1.0
      ],
      [
        "Ġdeluge",
        -1.0
      ],
      [
        "wZ",
        -1.0
      ],
      [
        "ĠOscillation",
        -1.0
      ],
      [
        "Ġwhite",
        -1.0
      ],
      [
        "Ġeagle",
        -1.0
      ],
      [
        ".jar",
        -1.0
      ],
      [
        "Ġindictment",
        -1.0
      ],
      [
        "Ġstruggled",
        -1.0
      ],
      [
        "Viewfinder",
        -1.0
      ],
      [
        "Ġapproval",
        -1.0
      ],
      [
        "Ġvolitans",
        -1.0
      ],
      [
        "ĠVeterinarian",
        -1.0
      ],
      [
        "Ġcostlier",
        -1.0
      ],
      [
        "ĠCherax",
        -1.0
      ],
      [
        "ĠASTRO",
        -1.0
      ],
      [
        "_csv",
        -1.0
      ],
      [
        "Ġnits",
        -1.0
      ],
      [
        "ĠHawthorn",
        -1.0
      ],
      [
        "ĠSeason",
        -1.0
      ],
      [
        "ĠMacbeth",
        -1.0
      ],
      [
        "....,",
        -1.0
      ],
      [
        "Buxus",
        -1.0
      ],
      [
        "ĠKern",
        -1.0
      ],
      [
        "Ġunto",
        -1.0
      ],
      [
        "Ġconducting",
        -1.0
      ],
      [
        "ĠPHENOMEN",
        -1.0
      ],
      [
        "âĢľIn",
        -1.0
      ],
      [
        "Oviparous",
        -1.0
      ],
      [
        "Ġcanals",
        -1.0
      ],
      [
        "ĠREPLACE",
        -1.0
      ],
      [
        "ĠGilman",
        -1.0
      ],
      [
        "Ġrights",
        -1.0
      ],
      [
        "Ġmellow",
        -1.0
      ],
      [
        "ĠOmnivore",
        -1.0
      ],
      [
        "Ġperilymph",
        -1.0
      ],
      [
        "Ġepoch",
        -1.0
      ],
      [
        "Ġlatter",
        -1.0
      ],
      [
        "Ġentropion",
        -1.0
      ],
      [
        "/gal",
        -1.0
      ],
      [
        "âĢĶjust",
        -1.0
      ],
      [
        "ĠQueen",
        -1.0
      ],
      [
        "Ġmodular",
        -1.0
      ],
      [
        "ãģ«ãģ¤ãģĦãģ¦",
        -1.0
      ],
      [
        "ĠSÃ¡mi",
        -1.0
      ],
      [
        "Resveratrol",
        -1.0
      ],
      [
        "EL",
        -1.0
      ],
      [
        "Ġendosperm",
        -1.0
      ],
      [
        "ĠMission",
        -1.0
      ],
      [
        "Ġencoded",
        -1.0
      ],
      [
        "-Trade",
        -1.0
      ],
      [
        "Ġintra",
        -1.0
      ],
      [
        "Ġmoduli",
        -1.0
      ],
      [
        "ĠCAMERA",
        -1.0
      ],
      [
        "Ġtenement",
        -1.0
      ],
      [
        "Ġnewspaper",
        -1.0
      ],
      [
        "Ġheating",
        -1.0
      ],
      [
        "Ġcre",
        -1.0
      ],
      [
        "Ġimmunity",
        -1.0
      ],
      [
        "ĠBandicoot",
        -1.0
      ],
      [
        "Ġkidnapper",
        -1.0
      ],
      [
        "sigma",
        -1.0
      ],
      [
        "ĠSautÃ©",
        -1.0
      ],
      [
        "ĠeV",
        -1.0
      ],
      [
        "ĠTrek",
        -1.0
      ],
      [
        "ĠEj",
        -1.0
      ],
      [
        "tology",
        -1.0
      ],
      [
        "-oxidants",
        -1.0
      ],
      [
        "ĠTaopatch",
        -1.0
      ],
      [
        "itinib",
        -1.0
      ],
      [
        "ĠVagrant",
        -1.0
      ],
      [
        "-icon",
        -1.0
      ],
      [
        "ĠSparks",
        -1.0
      ],
      [
        "ĠLongitude",
        -1.0
      ],
      [
        "Button",
        -1.0
      ],
      [
        "ĠPowerPoints",
        -1.0
      ],
      [
        "/torque",
        -1.0
      ],
      [
        "Ġoximetry",
        -1.0
      ],
      [
        "ïĢ½Ċ",
        -1.0
      ],
      [
        "Ġantshrike",
        -1.0
      ],
      [
        "(ex",
        -1.0
      ],
      [
        "Ġdefrost",
        -1.0
      ],
      [
        "ĠGairdner",
        -1.0
      ],
      [
        "ĠNanchang",
        -1.0
      ],
      [
        ".White",
        -1.0
      ],
      [
        "ĠNantahala",
        -1.0
      ],
      [
        "-column",
        -1.0
      ],
      [
        "ĠObserved",
        -1.0
      ],
      [
        "Ġbiologist",
        -1.0
      ],
      [
        "evo",
        -1.0
      ],
      [
        "-Valley",
        -1.0
      ],
      [
        "Ġdisposes",
        -1.0
      ],
      [
        "ĠAllocate",
        -1.0
      ],
      [
        "ĠRX",
        -1.0
      ],
      [
        "Ġgenomes",
        -1.0
      ],
      [
        "Ġpublish",
        -1.0
      ],
      [
        "wen",
        -1.0
      ],
      [
        "\":",
        -1.0
      ],
      [
        "Detect",
        -1.0
      ],
      [
        "Ġsemblance",
        -1.0
      ],
      [
        "family",
        -1.0
      ],
      [
        "Ġhunk",
        -1.0
      ],
      [
        "_config",
        -1.0
      ],
      [
        "ĠMaurice",
        -1.0
      ],
      [
        "ĠDd",
        -1.0
      ],
      [
        "factor",
        -1.0
      ],
      [
        "ĠDALI",
        -1.0
      ],
      [
        "Ġneurotoxic",
        -1.0
      ],
      [
        "ĠPassionate",
        -1.0
      ],
      [
        "Ġreverting",
        -1.0
      ],
      [
        "ĠFLK",
        -1.0
      ],
      [
        "role",
        -1.0
      ],
      [
        "ĠVALUE",
        -1.0
      ],
      [
        "plied",
        -1.0
      ],
      [
        "Ġskinnier",
        -1.0
      ],
      [
        "ĠTrucker",
        -1.0
      ],
      [
        "-hp",
        -1.0
      ],
      [
        "Ġrefashioning",
        -1.0
      ],
      [
        "Ġhoppy",
        -1.0
      ],
      [
        "Ġdepletion",
        -1.0
      ],
      [
        "ĠMelendez",
        -1.0
      ],
      [
        "ĠWharton",
        -1.0
      ],
      [
        "ĠANN",
        -1.0
      ],
      [
        "Ġconcurs",
        -1.0
      ],
      [
        "ÙĪ",
        -1.0
      ],
      [
        "ĠBlah",
        -1.0
      ],
      [
        "Ġsynchrotron",
        -1.0
      ],
      [
        "olithus",
        -1.0
      ],
      [
        "Ġoccasionally",
        -1.0
      ],
      [
        "-algae",
        -1.0
      ],
      [
        "ĠOntologies",
        -1.0
      ],
      [
        "Ġwent",
        -1.0
      ],
      [
        "ohippus",
        -1.0
      ],
      [
        "ĠAFS",
        -1.0
      ],
      [
        "ĠDAB",
        -1.0
      ],
      [
        "Ġplacer",
        -1.0
      ],
      [
        "dronate",
        -1.0
      ],
      [
        "Ġcobia",
        -1.0
      ],
      [
        "Ġenacted",
        -1.0
      ],
      [
        "Ġrackets",
        -1.0
      ],
      [
        "uguÃªs",
        -1.0
      ],
      [
        "Ġinitialisation",
        -1.0
      ],
      [
        "ĠTECHNIQUE",
        -1.0
      ],
      [
        "ĠArtes",
        -1.0
      ],
      [
        "ĠANNs",
        -1.0
      ],
      [
        "Ġmilliamps",
        -1.0
      ],
      [
        "ĠIndri",
        -1.0
      ],
      [
        "ĠNuts",
        -1.0
      ],
      [
        "Ġsaturday",
        -1.0
      ],
      [
        "Ġbeliever",
        -1.0
      ],
      [
        "Ġprimeval",
        -1.0
      ],
      [
        "ĠVacation",
        -1.0
      ],
      [
        "Ġshamanism",
        -1.0
      ],
      [
        "Ġprodrug",
        -1.0
      ],
      [
        "-Aryan",
        -1.0
      ],
      [
        "-location",
        -1.0
      ],
      [
        "Ġpretzels",
        -1.0
      ],
      [
        "ĠAdoption",
        -1.0
      ],
      [
        "ĠJustinian",
        -1.0
      ],
      [
        "Ġeverlasting",
        -1.0
      ],
      [
        "Ġstylistic",
        -1.0
      ],
      [
        "Ġseagrasses",
        -1.0
      ],
      [
        "Ġmanoeuvrable",
        -1.0
      ],
      [
        "Ig",
        -1.0
      ],
      [
        "Ġvireos",
        -1.0
      ],
      [
        "ĠAcids",
        -1.0
      ],
      [
        "ĠLilliput",
        -1.0
      ],
      [
        "Ġunacceptable",
        -1.0
      ],
      [
        "ĠBlimp",
        -1.0
      ],
      [
        "Ġblossoms",
        -1.0
      ],
      [
        "Ġminority",
        -1.0
      ],
      [
        "Ġepisode",
        -1.0
      ],
      [
        "ĠMulching",
        -1.0
      ],
      [
        "Ġgyno",
        -1.0
      ],
      [
        "Ġwwii",
        -1.0
      ],
      [
        "ĠProps",
        -1.0
      ],
      [
        "ĠSheetrock",
        -1.0
      ],
      [
        "ĠRespirators",
        -1.0
      ],
      [
        "Ġobjectively",
        -1.0
      ],
      [
        "Ġfusca",
        -1.0
      ],
      [
        "?*ĊĊ",
        -1.0
      ],
      [
        "Ġascents",
        -1.0
      ],
      [
        "ĠDistricts",
        -1.0
      ],
      [
        "ĠJeanne",
        -1.0
      ],
      [
        "Compensatory",
        -1.0
      ],
      [
        "Ġhappenings",
        -1.0
      ],
      [
        "ĠHMAS",
        -1.0
      ],
      [
        "Ġwu",
        -1.0
      ],
      [
        ".microsoft",
        -1.0
      ],
      [
        "ĠSettlement",
        -1.0
      ],
      [
        "Ġcriminology",
        -1.0
      ],
      [
        "áµ",
        -1.0
      ],
      [
        "Ġsimmering",
        -1.0
      ],
      [
        "Ġcf",
        -1.0
      ],
      [
        "Ġfogging",
        -1.0
      ],
      [
        "ĠUVA",
        -1.0
      ],
      [
        "_meta",
        -1.0
      ],
      [
        "ĠTRUTH",
        -1.0
      ],
      [
        "tb",
        -1.0
      ],
      [
        "ĠNasu",
        -1.0
      ],
      [
        "ĠLegs",
        -1.0
      ],
      [
        "ĠVernon",
        -1.0
      ],
      [
        "ĠEthnic",
        -1.0
      ],
      [
        "Statement",
        -1.0
      ],
      [
        "ĠBruce",
        -1.0
      ],
      [
        "Ġlumped",
        -1.0
      ],
      [
        "ĠPredynastic",
        -1.0
      ],
      [
        "ĠShading",
        -1.0
      ],
      [
        "Ġtheater",
        -1.0
      ],
      [
        "Ġdirected",
        -1.0
      ],
      [
        "ĠCRX",
        -1.0
      ],
      [
        "Ġvicious",
        -1.0
      ],
      [
        "Ġobjections",
        -1.0
      ],
      [
        "Ġfinale",
        -1.0
      ],
      [
        "ĠAutonomous",
        -1.0
      ],
      [
        "Math",
        -1.0
      ],
      [
        "Lectins",
        -1.0
      ],
      [
        "Ġammonia",
        -1.0
      ],
      [
        "ĠDSG",
        -1.0
      ],
      [
        ",V",
        -1.0
      ],
      [
        "Ġmalt",
        -1.0
      ],
      [
        "Ġbritain",
        -1.0
      ],
      [
        "Ġupheaval",
        -1.0
      ],
      [
        "Ġowed",
        -1.0
      ],
      [
        "Ġconfirms",
        -1.0
      ],
      [
        "ibori",
        -1.0
      ],
      [
        "ĠAgent",
        -1.0
      ],
      [
        "ĠArabian",
        -1.0
      ],
      [
        "-walking",
        -1.0
      ],
      [
        "ĠInvestigators",
        -1.0
      ],
      [
        "Ġphysics",
        -1.0
      ],
      [
        "trude",
        -1.0
      ],
      [
        ".]ĊĊ",
        -1.0
      ],
      [
        "Ġfinning",
        -1.0
      ],
      [
        "-Gru",
        -1.0
      ],
      [
        "Ġsled",
        -1.0
      ],
      [
        "Ġhomelands",
        -1.0
      ],
      [
        "ĠResolute",
        -1.0
      ],
      [
        "ĠCARE",
        -1.0
      ],
      [
        "riscus",
        -1.0
      ],
      [
        "Ġquadrivalent",
        -1.0
      ],
      [
        "ĠTypical",
        -1.0
      ],
      [
        "vR",
        -1.0
      ],
      [
        "ential",
        -1.0
      ],
      [
        "Puncture",
        -1.0
      ],
      [
        "Dysbiosis",
        -1.0
      ],
      [
        "_class",
        -1.0
      ],
      [
        "ĠBleaching",
        -1.0
      ],
      [
        "ĠVVS",
        -1.0
      ],
      [
        "Ġpeek",
        -1.0
      ],
      [
        "ĠPrewitt",
        -1.0
      ],
      [
        "Ġdonated",
        -1.0
      ],
      [
        "-Language",
        -1.0
      ],
      [
        "ĠExposing",
        -1.0
      ],
      [
        "-especially",
        -1.0
      ],
      [
        "ĠBrasÃŃlia",
        -1.0
      ],
      [
        "Ġtufts",
        -1.0
      ],
      [
        "Ġexclusives",
        -1.0
      ],
      [
        "four",
        -1.0
      ],
      [
        "ostigma",
        -1.0
      ],
      [
        "ĠGladiolus",
        -1.0
      ],
      [
        "Commenting",
        -1.0
      ],
      [
        "Poison",
        -1.0
      ],
      [
        "ĠProtein",
        -1.0
      ],
      [
        "Polymer",
        -1.0
      ],
      [
        "Ġangiogenic",
        -1.0
      ],
      [
        "ĠBreach",
        -1.0
      ],
      [
        "ĠTitanium",
        -1.0
      ],
      [
        "ĠVoilÃł",
        -1.0
      ],
      [
        "ĠKaku",
        -1.0
      ],
      [
        "Ġsituated",
        -1.0
      ],
      [
        "aumur",
        -1.0
      ],
      [
        "Ġfathered",
        -1.0
      ],
      [
        "ĠCompaq",
        -1.0
      ],
      [
        ".clm",
        -1.0
      ],
      [
        "Ġppmv",
        -1.0
      ],
      [
        "Ġtipping",
        -1.0
      ],
      [
        "ĠSnodgrass",
        -1.0
      ],
      [
        "Ġtwiggy",
        -1.0
      ],
      [
        "ĠWaite",
        -1.0
      ],
      [
        "ĠNetworking",
        -1.0
      ],
      [
        "aziz",
        -1.0
      ],
      [
        "Ġexerts",
        -1.0
      ],
      [
        "Extends",
        -1.0
      ],
      [
        "ĠAirTicketly",
        -1.0
      ],
      [
        "cd",
        -1.0
      ],
      [
        "Ġequation",
        -1.0
      ],
      [
        "Ð¿Ð¸",
        -1.0
      ],
      [
        "ĠCitroen",
        -1.0
      ],
      [
        "Release",
        -1.0
      ],
      [
        "Ġcockatoo",
        -1.0
      ],
      [
        "ĠHurtigruten",
        -1.0
      ],
      [
        "Joel",
        -1.0
      ],
      [
        "ĠTrES",
        -1.0
      ],
      [
        "ĠMinnetonka",
        -1.0
      ],
      [
        "-mineral",
        -1.0
      ],
      [
        "#define",
        -1.0
      ],
      [
        "çµĦ",
        -1.0
      ],
      [
        "ino",
        -1.0
      ],
      [
        "Ġbacteriocin",
        -1.0
      ],
      [
        "Ġimplicating",
        -1.0
      ],
      [
        "âĢĵD",
        -1.0
      ],
      [
        "-June",
        -1.0
      ],
      [
        "Ġwaved",
        -1.0
      ],
      [
        "Ġprivation",
        -1.0
      ],
      [
        "<h",
        -1.0
      ],
      [
        "/parent",
        -1.0
      ],
      [
        "ĠDatsun",
        -1.0
      ],
      [
        "éĢı",
        -1.0
      ],
      [
        "Ġconsensus",
        -1.0
      ],
      [
        "Ġrestructure",
        -1.0
      ],
      [
        "Ġlyrical",
        -1.0
      ],
      [
        "ĠRecipe",
        -1.0
      ],
      [
        "ĠYersinia",
        -1.0
      ],
      [
        "Ġbacteraemia",
        -1.0
      ],
      [
        "ĠSymmetric",
        -1.0
      ],
      [
        "ĠHanseatic",
        -1.0
      ],
      [
        "-Pi",
        -1.0
      ],
      [
        "ĠPetsmart",
        -1.0
      ],
      [
        "Ġreframing",
        -1.0
      ],
      [
        "ĠANA",
        -1.0
      ],
      [
        "Ġadministrative",
        -1.0
      ],
      [
        ",A",
        -1.0
      ],
      [
        "Ġâī¡",
        -1.0
      ],
      [
        "ĠGames",
        -1.0
      ],
      [
        "magic",
        -1.0
      ],
      [
        "Ġlobectomy",
        -1.0
      ],
      [
        "ĠPinellas",
        -1.0
      ],
      [
        "ĠShastra",
        -1.0
      ],
      [
        "ĠSubcommittee",
        -1.0
      ],
      [
        "Ġsportsbooks",
        -1.0
      ],
      [
        "ĠSARA",
        -1.0
      ],
      [
        "Ġsaucepan",
        -1.0
      ],
      [
        "Ġorients",
        -1.0
      ],
      [
        "-Cohen",
        -1.0
      ],
      [
        "ĠAmateur",
        -1.0
      ],
      [
        "é£Ł",
        -1.0
      ],
      [
        "ĠLulz",
        -1.0
      ],
      [
        "ĠDrexler",
        -1.0
      ],
      [
        "Ġscorpion",
        -1.0
      ],
      [
        "uce",
        -1.0
      ],
      [
        "Ġreligous",
        -1.0
      ],
      [
        "ĠSabeti",
        -1.0
      ],
      [
        "è¾ĥ",
        -1.0
      ],
      [
        "VooDoo",
        -1.0
      ],
      [
        "trix",
        -1.0
      ],
      [
        "Ġgoverning",
        -1.0
      ],
      [
        "ĠRookery",
        -1.0
      ],
      [
        "âĬĨ",
        -1.0
      ],
      [
        "ĠCMB",
        -1.0
      ],
      [
        "Ġsnuff",
        -1.0
      ],
      [
        "Ġyellowthroat",
        -1.0
      ],
      [
        "ĠHaque",
        -1.0
      ],
      [
        "Ġhistories",
        -1.0
      ],
      [
        "NED",
        -1.0
      ],
      [
        "ĠKwe",
        -1.0
      ],
      [
        "Ġaeronautics",
        -1.0
      ],
      [
        "ĠMeier",
        -1.0
      ],
      [
        "Ġmanifest",
        -1.0
      ],
      [
        "Ġblooming",
        -1.0
      ],
      [
        "Ġluminol",
        -1.0
      ],
      [
        "Ġ=,",
        -1.0
      ],
      [
        "chuh",
        -1.0
      ],
      [
        "Ġmikro",
        -1.0
      ],
      [
        "Oerlikon",
        -1.0
      ],
      [
        "Ġhonoring",
        -1.0
      ],
      [
        "Ġexfoliator",
        -1.0
      ],
      [
        "ĠSings",
        -1.0
      ],
      [
        "ĠIRL",
        -1.0
      ],
      [
        "ĠStoryboard",
        -1.0
      ],
      [
        "Inattentive",
        -1.0
      ],
      [
        "Ġcompetences",
        -1.0
      ],
      [
        "Ġtiring",
        -1.0
      ],
      [
        "Ġmisunderstands",
        -1.0
      ],
      [
        "Ġdirective",
        -1.0
      ],
      [
        "Ġcirculatory",
        -1.0
      ],
      [
        "ĠKetamine",
        -1.0
      ],
      [
        ".wikipedia",
        -1.0
      ],
      [
        "ĠForgetting",
        -1.0
      ],
      [
        "OK",
        -1.0
      ],
      [
        "Ġimplied",
        -1.0
      ],
      [
        "ĠApalachee",
        -1.0
      ],
      [
        "ĠAnode",
        -1.0
      ],
      [
        "ĠPresidents",
        -1.0
      ],
      [
        "Ġpatenting",
        -1.0
      ],
      [
        "Ġcondemning",
        -1.0
      ],
      [
        "Ġcannon",
        -1.0
      ],
      [
        "EAT",
        -1.0
      ],
      [
        "Sleek",
        -1.0
      ],
      [
        "Ġlounging",
        -1.0
      ],
      [
        "singhe",
        -1.0
      ],
      [
        "Ġclomiphene",
        -1.0
      ],
      [
        "Ġradiata",
        -1.0
      ],
      [
        "ĠUpdated",
        -1.0
      ],
      [
        "Ġdistraction",
        -1.0
      ],
      [
        "-asked",
        -1.0
      ],
      [
        "ĠPillai",
        -1.0
      ],
      [
        "ĠGrenville",
        -1.0
      ],
      [
        "-absorptive",
        -1.0
      ],
      [
        ".php",
        -1.0
      ],
      [
        "ĠMeech",
        -1.0
      ],
      [
        "Ġtestosterone",
        -1.0
      ],
      [
        "Ġsupplements",
        -1.0
      ],
      [
        "ĠCombinations",
        -1.0
      ],
      [
        "Her",
        -1.0
      ],
      [
        "ĠDaybreak",
        -1.0
      ],
      [
        "ĠDevotees",
        -1.0
      ],
      [
        "ĠAlina",
        -1.0
      ],
      [
        "ä¹ī",
        -1.0
      ],
      [
        "-priority",
        -1.0
      ],
      [
        "Ġ::",
        -1.0
      ],
      [
        "join",
        -1.0
      ],
      [
        "ĠChh",
        -1.0
      ],
      [
        "Ġbobbed",
        -1.0
      ],
      [
        "ĠSED",
        -1.0
      ],
      [
        "Ġtowing",
        -1.0
      ],
      [
        "ĠGrind",
        -1.0
      ],
      [
        "chmann",
        -1.0
      ],
      [
        "Ġafield",
        -1.0
      ],
      [
        ".However",
        -1.0
      ],
      [
        "Ġdeteriorating",
        -1.0
      ],
      [
        "ĠDate",
        -1.0
      ],
      [
        "lop",
        -1.0
      ],
      [
        "FM",
        -1.0
      ],
      [
        "Ġjerusalem",
        -1.0
      ],
      [
        "Ġuntended",
        -1.0
      ],
      [
        "Ãį",
        -1.0
      ],
      [
        "Ġdistressed",
        -1.0
      ],
      [
        "Ġptarmica",
        -1.0
      ],
      [
        "ĠFLAVOR",
        -1.0
      ],
      [
        "ĠSFC",
        -1.0
      ],
      [
        "ĠCanker",
        -1.0
      ],
      [
        "iska",
        -1.0
      ],
      [
        "ĠUM",
        -1.0
      ],
      [
        "ĠmaÃ§Ã£",
        -1.0
      ],
      [
        "ĠJa",
        -1.0
      ],
      [
        "Ġleukemic",
        -1.0
      ],
      [
        "Ġprograms",
        -1.0
      ],
      [
        "Ġhopscotch",
        -1.0
      ],
      [
        "Ġnectaries",
        -1.0
      ],
      [
        "-foods",
        -1.0
      ],
      [
        "Ġdestabilize",
        -1.0
      ],
      [
        "Swim",
        -1.0
      ],
      [
        "-conductive",
        -1.0
      ],
      [
        "ĠLanguage",
        -1.0
      ],
      [
        "acid",
        -1.0
      ],
      [
        "Ġtransposon",
        -1.0
      ],
      [
        "ĠRossi",
        -1.0
      ],
      [
        "Ġshirring",
        -1.0
      ],
      [
        "ĠOkta",
        -1.0
      ],
      [
        "ÂŃence",
        -1.0
      ],
      [
        "Ġunderlain",
        -1.0
      ],
      [
        "ĠReusable",
        -1.0
      ],
      [
        "ĠProfessionally",
        -1.0
      ],
      [
        "ĠPerugia",
        -1.0
      ],
      [
        "Ġinterns",
        -1.0
      ],
      [
        "ĠStrategically",
        -1.0
      ],
      [
        "Ġintraoral",
        -1.0
      ],
      [
        "ĠPalladino",
        -1.0
      ],
      [
        "Ġcategorical",
        -1.0
      ],
      [
        "Ġyttria",
        -1.0
      ],
      [
        "Ġtress",
        -1.0
      ],
      [
        "ÐºÑĤ",
        -1.0
      ],
      [
        "Ġflirt",
        -1.0
      ],
      [
        "_group",
        -1.0
      ],
      [
        "Ġsubclass",
        -1.0
      ],
      [
        "ĠModo",
        -1.0
      ],
      [
        "ĠPGT",
        -1.0
      ],
      [
        "Ġrailways",
        -1.0
      ],
      [
        "fake",
        -1.0
      ],
      [
        "Ġstored",
        -1.0
      ],
      [
        "ĠLegionella",
        -1.0
      ],
      [
        "who",
        -1.0
      ],
      [
        "ĠHandel",
        -1.0
      ],
      [
        "dering",
        -1.0
      ],
      [
        "ĠsnRN",
        -1.0
      ],
      [
        "Ġimmigrating",
        -1.0
      ],
      [
        "Ġtachycardia",
        -1.0
      ],
      [
        "Lisa",
        -1.0
      ],
      [
        "ĠTAS",
        -1.0
      ],
      [
        "Ġlocals",
        -1.0
      ],
      [
        "Ġtotem",
        -1.0
      ],
      [
        "ĠJoplin",
        -1.0
      ],
      [
        "],\"",
        -1.0
      ],
      [
        "vzw",
        -1.0
      ],
      [
        "ĠLatimer",
        -1.0
      ],
      [
        "ĠRobbie",
        -1.0
      ],
      [
        "Ġbonefish",
        -1.0
      ],
      [
        "[index",
        -1.0
      ],
      [
        "ĠSignature",
        -1.0
      ],
      [
        "-text",
        -1.0
      ],
      [
        "Ġexploratory",
        -1.0
      ],
      [
        "ĠFERC",
        -1.0
      ],
      [
        "ĠPETA",
        -1.0
      ],
      [
        "Ġautobahn",
        -1.0
      ],
      [
        "Vocabulary",
        -1.0
      ],
      [
        "Ġderivation",
        -1.0
      ],
      [
        "ĠFlakes",
        -1.0
      ],
      [
        "ĠGHS",
        -1.0
      ],
      [
        "ĠKingbird",
        -1.0
      ],
      [
        "Ġtame",
        -1.0
      ],
      [
        "ĠSalt",
        -1.0
      ],
      [
        "nm",
        -1.0
      ],
      [
        "-quantum",
        -1.0
      ],
      [
        "ĠAlagoas",
        -1.0
      ],
      [
        "ĠSvetlana",
        -1.0
      ],
      [
        "Ġinterlude",
        -1.0
      ],
      [
        "Ġresources",
        -1.0
      ],
      [
        "Ġiguanas",
        -1.0
      ],
      [
        "Ġmuseums",
        -1.0
      ],
      [
        "-deprivation",
        -1.0
      ],
      [
        "Ġëª¨",
        -1.0
      ],
      [
        "-euro",
        -1.0
      ],
      [
        "Ġsomehow",
        -1.0
      ],
      [
        "_img",
        -1.0
      ],
      [
        "ĠFb",
        -1.0
      ],
      [
        "Alb",
        -1.0
      ],
      [
        "-MÃ¼ller",
        -1.0
      ],
      [
        "Ġcustomised",
        -1.0
      ],
      [
        "çĻ½",
        -1.0
      ],
      [
        "Ġfishes",
        -1.0
      ],
      [
        "ĠBowes",
        -1.0
      ],
      [
        "Ġcollectively",
        -1.0
      ],
      [
        "ĠBIRD",
        -1.0
      ],
      [
        "ĠZbrush",
        -1.0
      ],
      [
        "Ġisotropy",
        -1.0
      ],
      [
        "ĠCllr",
        -1.0
      ],
      [
        "-zu",
        -1.0
      ],
      [
        "ĠPulsar",
        -1.0
      ],
      [
        "Ġbarbie",
        -1.0
      ],
      [
        "/ice",
        -1.0
      ],
      [
        "ĠXerox",
        -1.0
      ],
      [
        "ĠTHIS",
        -1.0
      ],
      [
        "Ġhardship",
        -1.0
      ],
      [
        "ĠKraken",
        -1.0
      ],
      [
        "ĠNAV",
        -1.0
      ],
      [
        "ĠQUANT",
        -1.0
      ],
      [
        "Ġextending",
        -1.0
      ],
      [
        "ĠSauces",
        -1.0
      ],
      [
        "Ġgushed",
        -1.0
      ],
      [
        "Ġunclassified",
        -1.0
      ],
      [
        "Ġcustody",
        -1.0
      ],
      [
        "ĠPunishing",
        -1.0
      ],
      [
        "POSAL",
        -1.0
      ],
      [
        "Ġhemocyanin",
        -1.0
      ],
      [
        "continu",
        -1.0
      ],
      [
        "ĠTransformation",
        -1.0
      ],
      [
        "Ġjugs",
        -1.0
      ],
      [
        "ĠAVHRR",
        -1.0
      ],
      [
        "Ġplummet",
        -1.0
      ],
      [
        "âĻ¡",
        -1.0
      ],
      [
        "Ġchunkier",
        -1.0
      ],
      [
        "ĠRitchie",
        -1.0
      ],
      [
        "Field",
        -1.0
      ],
      [
        "Ġtint",
        -1.0
      ],
      [
        "ĠNFT",
        -1.0
      ],
      [
        "ĠTon",
        -1.0
      ],
      [
        "ĠChirp",
        -1.0
      ],
      [
        "ĠCeltx",
        -1.0
      ],
      [
        "Ġcaricature",
        -1.0
      ],
      [
        "Ġnasopharyngeal",
        -1.0
      ],
      [
        "Ġsqueezable",
        -1.0
      ],
      [
        "Ġemergencies",
        -1.0
      ],
      [
        "ĠThio",
        -1.0
      ],
      [
        "Ġyesteryear",
        -1.0
      ],
      [
        "uble",
        -1.0
      ],
      [
        "-EE",
        -1.0
      ],
      [
        "Ġported",
        -1.0
      ],
      [
        "ĠSelects",
        -1.0
      ],
      [
        "ĠPuritan",
        -1.0
      ],
      [
        "Ġrentals",
        -1.0
      ],
      [
        "/model",
        -1.0
      ],
      [
        "Ġquickness",
        -1.0
      ],
      [
        "Ġmls",
        -1.0
      ],
      [
        "ĠPir",
        -1.0
      ],
      [
        "ĠEnabling",
        -1.0
      ],
      [
        "Nep",
        -1.0
      ],
      [
        "Ġfeminist",
        -1.0
      ],
      [
        "Ġbrimming",
        -1.0
      ],
      [
        "+>",
        -1.0
      ],
      [
        "further",
        -1.0
      ],
      [
        "Ġbaccata",
        -1.0
      ],
      [
        "Ġprogressions",
        -1.0
      ],
      [
        "inner",
        -1.0
      ],
      [
        "ĠBasil",
        -1.0
      ],
      [
        "nature",
        -1.0
      ],
      [
        "Ġsunsets",
        -1.0
      ],
      [
        "ĠAlice",
        -1.0
      ],
      [
        "Awareeea",
        -1.0
      ],
      [
        "ĠAshworth",
        -1.0
      ],
      [
        "ĠBAR",
        -1.0
      ],
      [
        "Ġreplicate",
        -1.0
      ],
      [
        "Ġcombines",
        -1.0
      ],
      [
        "orheic",
        -1.0
      ],
      [
        "ĠFeinstein",
        -1.0
      ],
      [
        "Ġamble",
        -1.0
      ],
      [
        "Ġbain",
        -1.0
      ],
      [
        "branch",
        -1.0
      ],
      [
        "ĠFury",
        -1.0
      ],
      [
        "-bottom",
        -1.0
      ],
      [
        "ĠCerritos",
        -1.0
      ],
      [
        "Ġbuckwheat",
        -1.0
      ],
      [
        "ĠPracticality",
        -1.0
      ],
      [
        "-identified",
        -1.0
      ],
      [
        "Ġreckless",
        -1.0
      ],
      [
        "âĢĵnot",
        -1.0
      ],
      [
        "Ġappendicular",
        -1.0
      ],
      [
        "Ġendosymbiotic",
        -1.0
      ],
      [
        "ĠSchritt",
        -1.0
      ],
      [
        "è§Ħ",
        -1.0
      ],
      [
        "Ġdeteriorates",
        -1.0
      ],
      [
        "Ġhedgehogs",
        -1.0
      ],
      [
        "ĠEntry",
        -1.0
      ],
      [
        "ĠBradford",
        -1.0
      ],
      [
        "ĠDavide",
        -1.0
      ],
      [
        "ĠReinforcement",
        -1.0
      ],
      [
        "Ġwellspring",
        -1.0
      ],
      [
        "Ġfens",
        -1.0
      ],
      [
        "chemical",
        -1.0
      ],
      [
        "Ġilluminance",
        -1.0
      ],
      [
        "Ġs",
        -1.0
      ],
      [
        "Tm",
        -1.0
      ],
      [
        "Ġkwh",
        -1.0
      ],
      [
        "ĠDr",
        -1.0
      ],
      [
        "ĠLatino",
        -1.0
      ],
      [
        "ĠPFD",
        -1.0
      ],
      [
        "Ġftp",
        -1.0
      ],
      [
        "ĠCzer",
        -1.0
      ],
      [
        "ĠClouded",
        -1.0
      ],
      [
        "Ġprecede",
        -1.0
      ],
      [
        "ĠGunther",
        -1.0
      ],
      [
        "(R",
        -1.0
      ],
      [
        "ssing",
        -1.0
      ],
      [
        "]]",
        -1.0
      ],
      [
        "Ġsnuggly",
        -1.0
      ],
      [
        "ĠPredicted",
        -1.0
      ],
      [
        "Ġmonil",
        -1.0
      ],
      [
        "ĠMuti",
        -1.0
      ],
      [
        "Ġreliably",
        -1.0
      ],
      [
        "ĠVichy",
        -1.0
      ],
      [
        "ĠChisholm",
        -1.0
      ],
      [
        "ĠFertilizers",
        -1.0
      ],
      [
        "ĠCairo",
        -1.0
      ],
      [
        "Ġthistle",
        -1.0
      ],
      [
        "ĠConsole",
        -1.0
      ],
      [
        "ĠSyndication",
        -1.0
      ],
      [
        "ĠEarrings",
        -1.0
      ],
      [
        "Ġturbulence",
        -1.0
      ],
      [
        "Ġassuredly",
        -1.0
      ],
      [
        "hjtcnm",
        -1.0
      ],
      [
        "Ġexoskeletons",
        -1.0
      ],
      [
        "ĠRally",
        -1.0
      ],
      [
        "Ġselenate",
        -1.0
      ],
      [
        "Ġautograft",
        -1.0
      ],
      [
        "Ġou",
        -1.0
      ],
      [
        "ĠMultiplying",
        -1.0
      ],
      [
        "Hooray",
        -1.0
      ],
      [
        "âĢĵthis",
        -1.0
      ],
      [
        "Ġconspecifics",
        -1.0
      ],
      [
        "bent",
        -1.0
      ],
      [
        "#!/",
        -1.0
      ],
      [
        "Ġannually",
        -1.0
      ],
      [
        "-rated",
        -1.0
      ],
      [
        "ĠThermo",
        -1.0
      ],
      [
        "Ġaegypti",
        -1.0
      ],
      [
        "Ġprogrammer",
        -1.0
      ],
      [
        "Ġtf",
        -1.0
      ],
      [
        "-gy",
        -1.0
      ],
      [
        "Ġcunning",
        -1.0
      ],
      [
        "ĠAnak",
        -1.0
      ],
      [
        "ĠS",
        -1.0
      ],
      [
        "Upholstered",
        -1.0
      ],
      [
        "Ġheifers",
        -1.0
      ],
      [
        "ĠTREATED",
        -1.0
      ],
      [
        "Josh",
        -1.0
      ],
      [
        "_FILTER",
        -1.0
      ],
      [
        "Lifshitz",
        -1.0
      ],
      [
        "ĠMetis",
        -1.0
      ],
      [
        "Ġfulcrum",
        -1.0
      ],
      [
        "ĠSoybean",
        -1.0
      ],
      [
        "Ġaeolian",
        -1.0
      ],
      [
        "Ġpacify",
        -1.0
      ],
      [
        "âĢĭ)",
        -1.0
      ],
      [
        "ĠHeaviside",
        -1.0
      ],
      [
        "ĠInterested",
        -1.0
      ],
      [
        "ĠSnoreMeds",
        -1.0
      ],
      [
        "Prosopis",
        -1.0
      ],
      [
        "ĠAccord",
        -1.0
      ],
      [
        "éĽ£",
        -1.0
      ],
      [
        "ĠFading",
        -1.0
      ],
      [
        "ĠBiggest",
        -1.0
      ],
      [
        "Ġthermocline",
        -1.0
      ],
      [
        "Ġlubing",
        -1.0
      ],
      [
        "-male",
        -1.0
      ],
      [
        "ĠBarack",
        -1.0
      ],
      [
        "Ġprovisioned",
        -1.0
      ],
      [
        ":My",
        -1.0
      ],
      [
        "Ġprophesy",
        -1.0
      ],
      [
        "ĠArchivist",
        -1.0
      ],
      [
        "Ġforeshadowed",
        -1.0
      ],
      [
        "ĠBisphenol",
        -1.0
      ],
      [
        "ãĢĤĊ",
        -1.0
      ],
      [
        "Ġbedsheets",
        -1.0
      ],
      [
        "Ġberingei",
        -1.0
      ],
      [
        "Ġdisbanded",
        -1.0
      ],
      [
        "ĠHumanities",
        -1.0
      ],
      [
        "-boat",
        -1.0
      ],
      [
        "-police",
        -1.0
      ],
      [
        "ĠQigong",
        -1.0
      ],
      [
        "ĠSlides",
        -1.0
      ],
      [
        "tee",
        -1.0
      ],
      [
        "ĠGlyndÅµr",
        -1.0
      ],
      [
        "Ġafrica",
        -1.0
      ],
      [
        "Ġcicatri",
        -1.0
      ],
      [
        "Asian",
        -1.0
      ],
      [
        "Ġairliners",
        -1.0
      ],
      [
        "Ġshockingly",
        -1.0
      ],
      [
        "ĠMethane",
        -1.0
      ],
      [
        "Culture",
        -1.0
      ],
      [
        "posed",
        -1.0
      ],
      [
        "ĉreturn",
        -1.0
      ],
      [
        "Ġdividend",
        -1.0
      ],
      [
        "Socialization",
        -1.0
      ],
      [
        "Ġawaits",
        -1.0
      ],
      [
        "Ġsinusoids",
        -1.0
      ],
      [
        "ĠHowling",
        -1.0
      ],
      [
        "BB",
        -1.0
      ],
      [
        "ĠNMN",
        -1.0
      ],
      [
        "ĠFRET",
        -1.0
      ],
      [
        "ĠHuston",
        -1.0
      ],
      [
        "ĠInstalling",
        -1.0
      ],
      [
        "Ġdigestate",
        -1.0
      ],
      [
        "Ġcel",
        -1.0
      ],
      [
        "ĠBadge",
        -1.0
      ],
      [
        "rm",
        -1.0
      ],
      [
        "Ġimperceptibly",
        -1.0
      ],
      [
        "ĠAsda",
        -1.0
      ],
      [
        "Ġmeng",
        -1.0
      ],
      [
        "ural",
        -1.0
      ],
      [
        "Ġsacrificing",
        -1.0
      ],
      [
        "ĠIndus",
        -1.0
      ],
      [
        "ĠUpper",
        -1.0
      ],
      [
        "Ġbeep",
        -1.0
      ],
      [
        "Ġsk",
        -1.0
      ],
      [
        "Ġscorch",
        -1.0
      ],
      [
        "concern",
        -1.0
      ],
      [
        "Ġtertiary",
        -1.0
      ],
      [
        "Ġabysmal",
        -1.0
      ],
      [
        "ARS",
        -1.0
      ],
      [
        "kÃ¡",
        -1.0
      ],
      [
        "Ġsmoulder",
        -1.0
      ],
      [
        "ĠRiddle",
        -1.0
      ],
      [
        "ĠSlayer",
        -1.0
      ],
      [
        "Ġafresh",
        -1.0
      ],
      [
        "ĠAustro",
        -1.0
      ],
      [
        "ective",
        -1.0
      ],
      [
        "ĠPeaZip",
        -1.0
      ],
      [
        "ĠTyphus",
        -1.0
      ],
      [
        "-junction",
        -1.0
      ],
      [
        "Ġpropagating",
        -1.0
      ],
      [
        "ĠIguazu",
        -1.0
      ],
      [
        "trap",
        -1.0
      ],
      [
        "Ġtempers",
        -1.0
      ],
      [
        "Ġdirigible",
        -1.0
      ],
      [
        "Ġwarranties",
        -1.0
      ],
      [
        "Ġengel",
        -1.0
      ],
      [
        "ĠHayek",
        -1.0
      ],
      [
        "ĠNorris",
        -1.0
      ],
      [
        "ĠYamanaka",
        -1.0
      ],
      [
        "Ġdistress",
        -1.0
      ],
      [
        "ĠEstablish",
        -1.0
      ],
      [
        "Maupertuis",
        -1.0
      ],
      [
        "Ġlabrador",
        -1.0
      ],
      [
        "¶",
        -1.0
      ],
      [
        "Wh",
        -1.0
      ],
      [
        "Ġreticulum",
        -1.0
      ],
      [
        "Ġcapillaris",
        -1.0
      ],
      [
        "Ġunstressed",
        -1.0
      ],
      [
        "Ġfrank",
        -1.0
      ],
      [
        "ĠEmpire",
        -1.0
      ],
      [
        "ĠLivermore",
        -1.0
      ],
      [
        "ĠIKK",
        -1.0
      ],
      [
        "FLORIDA",
        -1.0
      ],
      [
        "Vor",
        -1.0
      ],
      [
        "ĠMuffler",
        -1.0
      ],
      [
        "Ġexaminers",
        -1.0
      ],
      [
        "ĠMechatronics",
        -1.0
      ],
      [
        "ov",
        -1.0
      ],
      [
        "ÄŁ",
        -1.0
      ],
      [
        "Ġmotherland",
        -1.0
      ],
      [
        "ĠEck",
        -1.0
      ],
      [
        "Ġantivirus",
        -1.0
      ],
      [
        "ãĥĶ",
        -1.0
      ],
      [
        "Ġencrypts",
        -1.0
      ],
      [
        "ĠFired",
        -1.0
      ],
      [
        "ĠPotomac",
        -1.0
      ],
      [
        "Ġcoaches",
        -1.0
      ],
      [
        "ĠWestlake",
        -1.0
      ],
      [
        "Ġsericea",
        -1.0
      ],
      [
        "ĠConyers",
        -1.0
      ],
      [
        "ĠFotolia",
        -1.0
      ],
      [
        "ĠChampions",
        -1.0
      ],
      [
        "Ġfirm",
        -1.0
      ],
      [
        "-AXIS",
        -1.0
      ],
      [
        "Could",
        -1.0
      ],
      [
        "Ġunaccustomed",
        -1.0
      ],
      [
        "Ġsloppy",
        -1.0
      ],
      [
        "-fixed",
        -1.0
      ],
      [
        "VOLUNTEER",
        -1.0
      ],
      [
        "ĠDOWN",
        -1.0
      ],
      [
        "Ġcontemplate",
        -1.0
      ],
      [
        "ĠBONE",
        -1.0
      ],
      [
        "ĠHermione",
        -1.0
      ],
      [
        "ĠWrestling",
        -1.0
      ],
      [
        "ĠWELL",
        -1.0
      ],
      [
        "Ġgiftedness",
        -1.0
      ],
      [
        "Ġlightstick",
        -1.0
      ],
      [
        "Ġlacerations",
        -1.0
      ],
      [
        "CHICAGO",
        -1.0
      ],
      [
        "ĠVegan",
        -1.0
      ],
      [
        "Ġfieldtrip",
        -1.0
      ],
      [
        "Ġsunfish",
        -1.0
      ],
      [
        "object",
        -1.0
      ],
      [
        "-stimulating",
        -1.0
      ],
      [
        "ĠLatitude",
        -1.0
      ],
      [
        "Ġfeuerbach",
        -1.0
      ],
      [
        "Part",
        -1.0
      ],
      [
        "ĠMalamute",
        -1.0
      ],
      [
        "/tur",
        -1.0
      ],
      [
        "Ġprospectively",
        -1.0
      ],
      [
        "Ġforce",
        -1.0
      ],
      [
        "Ġmiddling",
        -1.0
      ],
      [
        "ĠmP",
        -1.0
      ],
      [
        "Ġradiology",
        -1.0
      ],
      [
        "ĠBulk",
        -1.0
      ],
      [
        "ĠSCP",
        -1.0
      ],
      [
        "Ġzeroed",
        -1.0
      ],
      [
        "ĠTelex",
        -1.0
      ],
      [
        "Ġillustrations",
        -1.0
      ],
      [
        "Ġemitted",
        -1.0
      ],
      [
        "Ġeuropaea",
        -1.0
      ],
      [
        "DG",
        -1.0
      ],
      [
        "Ġambitious",
        -1.0
      ],
      [
        "Ġhv",
        -1.0
      ],
      [
        "Ġturkey",
        -1.0
      ],
      [
        ".Ivermectin",
        -1.0
      ],
      [
        "Ġthemes",
        -1.0
      ],
      [
        "ĠNanomaterials",
        -1.0
      ],
      [
        "icleer",
        -1.0
      ],
      [
        "-toed",
        -1.0
      ],
      [
        "Ġstatewide",
        -1.0
      ],
      [
        "-hating",
        -1.0
      ],
      [
        "ĠSaturn",
        -1.0
      ],
      [
        ",)",
        -1.0
      ],
      [
        "ĠFinland",
        -1.0
      ],
      [
        "ĠMadhur",
        -1.0
      ],
      [
        "ĠGreece",
        -1.0
      ],
      [
        "-painting",
        -1.0
      ],
      [
        "Ġunimpeded",
        -1.0
      ],
      [
        "Ġcapsulitis",
        -1.0
      ],
      [
        "ĠBeirut",
        -1.0
      ],
      [
        "ĠManually",
        -1.0
      ],
      [
        "ĠHemi",
        -1.0
      ],
      [
        "ĠBosworth",
        -1.0
      ],
      [
        "Ġarabic",
        -1.0
      ],
      [
        "ĠDomesday",
        -1.0
      ],
      [
        "ĠArchaeopteryx",
        -1.0
      ],
      [
        "sulfuron",
        -1.0
      ],
      [
        "Ġdecomposable",
        -1.0
      ],
      [
        "Ġtranslocates",
        -1.0
      ],
      [
        "icides",
        -1.0
      ],
      [
        "ĠDPH",
        -1.0
      ],
      [
        "ĠXF",
        -1.0
      ],
      [
        "ĠChiqui",
        -1.0
      ],
      [
        "ĠSch",
        -1.0
      ],
      [
        "ÑıÑħ",
        -1.0
      ],
      [
        "ĠCollectively",
        -1.0
      ],
      [
        "Chaenomeles",
        -1.0
      ],
      [
        "Ġnootkatone",
        -1.0
      ],
      [
        "Ġwithholding",
        -1.0
      ],
      [
        "-carb",
        -1.0
      ],
      [
        "Ġooo",
        -1.0
      ],
      [
        "ĠSulfate",
        -1.0
      ],
      [
        "ĠCutters",
        -1.0
      ],
      [
        "Schizophrenic",
        -1.0
      ],
      [
        "ĠInhofe",
        -1.0
      ],
      [
        "ĠMcCain",
        -1.0
      ],
      [
        "Ġcapsules",
        -1.0
      ],
      [
        "ĠTEXT",
        -1.0
      ],
      [
        "Ġìµľ",
        -1.0
      ],
      [
        "ĠMaputo",
        -1.0
      ],
      [
        "Ġpursuits",
        -1.0
      ],
      [
        "Ġga",
        -1.0
      ],
      [
        "Instilling",
        -1.0
      ],
      [
        "-alpha",
        -1.0
      ],
      [
        "Heavy",
        -1.0
      ],
      [
        "Ġopposed",
        -1.0
      ],
      [
        "ĠStoichiometric",
        -1.0
      ],
      [
        "Ġnuanced",
        -1.0
      ],
      [
        "ĠKaepernick",
        -1.0
      ],
      [
        "ĠTone",
        -1.0
      ],
      [
        "Ġspermatogonia",
        -1.0
      ],
      [
        "Ġdethatch",
        -1.0
      ],
      [
        "Ġscapes",
        -1.0
      ],
      [
        "Ġinformative",
        -1.0
      ],
      [
        "Ġhomeless",
        -1.0
      ],
      [
        "ĠCritical",
        -1.0
      ],
      [
        "Nitrile",
        -1.0
      ],
      [
        "Ġrestart",
        -1.0
      ],
      [
        "ĠParametric",
        -1.0
      ],
      [
        "ĠSPD",
        -1.0
      ],
      [
        "baly",
        -1.0
      ],
      [
        "ĠUCT",
        -1.0
      ],
      [
        "number",
        -1.0
      ],
      [
        "ĠSticks",
        -1.0
      ],
      [
        "unds",
        -1.0
      ],
      [
        "Ġskies",
        -1.0
      ],
      [
        "ĠDSP",
        -1.0
      ],
      [
        "Ġabandonment",
        -1.0
      ],
      [
        "Ġdeviations",
        -1.0
      ],
      [
        "(self",
        -1.0
      ],
      [
        "ĠGracilaria",
        -1.0
      ],
      [
        "ĠPool",
        -1.0
      ],
      [
        "Detecting",
        -1.0
      ],
      [
        "ĠGlands",
        -1.0
      ],
      [
        "/South",
        -1.0
      ],
      [
        "Ġwaggle",
        -1.0
      ],
      [
        "Ġcytometer",
        -1.0
      ],
      [
        "ĠCoefficient",
        -1.0
      ],
      [
        "Ġinculcating",
        -1.0
      ],
      [
        "ĠZil",
        -1.0
      ],
      [
        "Ġgumpaste",
        -1.0
      ],
      [
        "@v",
        -1.0
      ],
      [
        "Ġensembles",
        -1.0
      ],
      [
        "ĠAttribution",
        -1.0
      ],
      [
        "ĠArchitectures",
        -1.0
      ],
      [
        "ĠPeyer",
        -1.0
      ],
      [
        "ĠMitsui",
        -1.0
      ],
      [
        "urobotos",
        -1.0
      ],
      [
        "ĠChromite",
        -1.0
      ],
      [
        "Program",
        -1.0
      ],
      [
        "/planning",
        -1.0
      ],
      [
        "Ġanesthesiology",
        -1.0
      ],
      [
        "Ġrebreather",
        -1.0
      ],
      [
        "Ġcontinuously",
        -1.0
      ],
      [
        "brÃ¸d",
        -1.0
      ],
      [
        "ĠThaddeus",
        -1.0
      ],
      [
        "Ġjar",
        -1.0
      ],
      [
        "ĠScientifique",
        -1.0
      ],
      [
        "ĠCNP",
        -1.0
      ],
      [
        "ĠLesotho",
        -1.0
      ],
      [
        "ĠPathogenic",
        -1.0
      ],
      [
        "Skills",
        -1.0
      ],
      [
        "-proofed",
        -1.0
      ],
      [
        "ĠFLASH",
        -1.0
      ],
      [
        "ĸ",
        -1.0
      ],
      [
        "inch",
        -1.0
      ],
      [
        "ĠâĦ¢",
        -1.0
      ],
      [
        "Ġbigots",
        -1.0
      ],
      [
        "ĠAgadir",
        -1.0
      ],
      [
        "ĠCola",
        -1.0
      ],
      [
        "ĠSiva",
        -1.0
      ],
      [
        "Ġfrets",
        -1.0
      ],
      [
        "Ġamazon",
        -1.0
      ],
      [
        "ĠMereuka",
        -1.0
      ],
      [
        "Ġscissors",
        -1.0
      ],
      [
        "ĠSaharan",
        -1.0
      ],
      [
        "ĠThymine",
        -1.0
      ],
      [
        "ĠOreo",
        -1.0
      ],
      [
        "Ġhails",
        -1.0
      ],
      [
        "Ġsolicited",
        -1.0
      ],
      [
        "Ġpersuasively",
        -1.0
      ],
      [
        "stad",
        -1.0
      ],
      [
        "-executing",
        -1.0
      ],
      [
        "Ġgemstones",
        -1.0
      ],
      [
        "ĠSingapura",
        -1.0
      ],
      [
        "-Kindergarten",
        -1.0
      ],
      [
        "ĠCn",
        -1.0
      ],
      [
        "à¦¨",
        -1.0
      ],
      [
        "Bread",
        -1.0
      ],
      [
        "ĠNafion",
        -1.0
      ],
      [
        ".cornell",
        -1.0
      ],
      [
        "-messenger",
        -1.0
      ],
      [
        "Ġfermentations",
        -1.0
      ],
      [
        "fl",
        -1.0
      ],
      [
        "Ġhomely",
        -1.0
      ],
      [
        "ĠFlooded",
        -1.0
      ],
      [
        "ĠStarbucks",
        -1.0
      ],
      [
        "Ġfurry",
        -1.0
      ],
      [
        "Ã£o",
        -1.0
      ],
      [
        "Ġdovetail",
        -1.0
      ],
      [
        "ĠTbl",
        -1.0
      ],
      [
        "ĠRocky",
        -1.0
      ],
      [
        "ĠSelecting",
        -1.0
      ],
      [
        "Ġthereby",
        -1.0
      ],
      [
        "Ġimmunised",
        -1.0
      ],
      [
        "Ġmorphing",
        -1.0
      ],
      [
        "ĠAmeritrade",
        -1.0
      ],
      [
        "ĠMASH",
        -1.0
      ],
      [
        "ĠQR",
        -1.0
      ],
      [
        "ĠBledsoe",
        -1.0
      ],
      [
        "ĠZest",
        -1.0
      ],
      [
        "ĠHeavily",
        -1.0
      ],
      [
        "Ġfluctuation",
        -1.0
      ],
      [
        "ĠKHz",
        -1.0
      ],
      [
        "individual",
        -1.0
      ],
      [
        "Ġelectronics",
        -1.0
      ],
      [
        "ĠConnoisseur",
        -1.0
      ],
      [
        "sporangium",
        -1.0
      ],
      [
        "ĠRefill",
        -1.0
      ],
      [
        "Ġburial",
        -1.0
      ],
      [
        "Ġdyed",
        -1.0
      ],
      [
        "Ġbusinesses",
        -1.0
      ],
      [
        "Ġcommode",
        -1.0
      ],
      [
        "Ġnimble",
        -1.0
      ],
      [
        "ĠJavascript",
        -1.0
      ],
      [
        "ĠChickens",
        -1.0
      ],
      [
        "ĠZBrush",
        -1.0
      ],
      [
        "ĠGenerated",
        -1.0
      ],
      [
        "ĠHoch",
        -1.0
      ],
      [
        "Ġjeez",
        -1.0
      ],
      [
        "Ġsubzero",
        -1.0
      ],
      [
        "Ġrules",
        -1.0
      ],
      [
        "ĠOperational",
        -1.0
      ],
      [
        "Ġreteach",
        -1.0
      ],
      [
        "Ġlaity",
        -1.0
      ],
      [
        "-metallic",
        -1.0
      ],
      [
        "ĠRuidoso",
        -1.0
      ],
      [
        "Ġligation",
        -1.0
      ],
      [
        "ĠFibroblasts",
        -1.0
      ],
      [
        "ĠWA",
        -1.0
      ],
      [
        "^*",
        -1.0
      ],
      [
        "ĠInverters",
        -1.0
      ],
      [
        "Ġsequestering",
        -1.0
      ],
      [
        "ĠTofu",
        -1.0
      ],
      [
        "-differentiable",
        -1.0
      ],
      [
        "ĠLemongrass",
        -1.0
      ],
      [
        "Ġexorc",
        -1.0
      ],
      [
        "ĠCommunities",
        -1.0
      ],
      [
        "Ġmoisturized",
        -1.0
      ],
      [
        "Ġaerobic",
        -1.0
      ],
      [
        "âīĥ",
        -1.0
      ],
      [
        "ĠDrooping",
        -1.0
      ],
      [
        "Ġchalcedony",
        -1.0
      ],
      [
        "ĠNut",
        -1.0
      ],
      [
        "Ġgnat",
        -1.0
      ],
      [
        "ĠDelight",
        -1.0
      ],
      [
        "ĠTerb",
        -1.0
      ],
      [
        "Being",
        -1.0
      ],
      [
        "ĠIolanthe",
        -1.0
      ],
      [
        "Ġelbows",
        -1.0
      ],
      [
        "xing",
        -1.0
      ],
      [
        "Ġsalvinia",
        -1.0
      ],
      [
        "Ġbluebonnet",
        -1.0
      ],
      [
        "Ġnip",
        -1.0
      ],
      [
        "Ġdandelions",
        -1.0
      ],
      [
        "ĠGanesha",
        -1.0
      ],
      [
        "Ġfinding",
        -1.0
      ],
      [
        "Ġsternal",
        -1.0
      ],
      [
        "ïĢ©",
        -1.0
      ],
      [
        "Ġequipment",
        -1.0
      ],
      [
        "Ġdepressant",
        -1.0
      ],
      [
        "ĠImaging",
        -1.0
      ],
      [
        "Ġmooching",
        -1.0
      ],
      [
        "ĠDunkley",
        -1.0
      ],
      [
        "ĠPoisons",
        -1.0
      ],
      [
        "Pest",
        -1.0
      ],
      [
        "Ãĳ",
        -1.0
      ],
      [
        "ĠFocal",
        -1.0
      ],
      [
        "Ġmorale",
        -1.0
      ],
      [
        "-dose",
        -1.0
      ],
      [
        "Emma",
        -1.0
      ],
      [
        "-melted",
        -1.0
      ],
      [
        "ĠCochin",
        -1.0
      ],
      [
        "ĠBLM",
        -1.0
      ],
      [
        "ĠLGD",
        -1.0
      ],
      [
        "Ġautophagy",
        -1.0
      ],
      [
        "Ġvolvulus",
        -1.0
      ],
      [
        "Ġfangs",
        -1.0
      ],
      [
        "Ġnucleating",
        -1.0
      ],
      [
        "ĠWessex",
        -1.0
      ],
      [
        "Ġroi",
        -1.0
      ],
      [
        "ĠLome",
        -1.0
      ],
      [
        "/i",
        -1.0
      ],
      [
        "Ġinbox",
        -1.0
      ],
      [
        "Ġsporty",
        -1.0
      ],
      [
        "Origanum",
        -1.0
      ],
      [
        "Ġroaring",
        -1.0
      ],
      [
        "ĠThinning",
        -1.0
      ],
      [
        "-eccentricity",
        -1.0
      ],
      [
        "Ġnecrotrophic",
        -1.0
      ],
      [
        "Ġinnervation",
        -1.0
      ],
      [
        "ĠFlexor",
        -1.0
      ],
      [
        "Ceanothus",
        -1.0
      ],
      [
        "ĠBourke",
        -1.0
      ],
      [
        "ĠAutoclave",
        -1.0
      ],
      [
        "ĠAdvertiser",
        -1.0
      ],
      [
        "believe",
        -1.0
      ],
      [
        "ĠComparative",
        -1.0
      ],
      [
        "Ġstoechas",
        -1.0
      ],
      [
        "ĠBiostatistics",
        -1.0
      ],
      [
        "ĠResponsive",
        -1.0
      ],
      [
        "ĠMalus",
        -1.0
      ],
      [
        "Ġworldviews",
        -1.0
      ],
      [
        "Ġgynaecology",
        -1.0
      ],
      [
        "iphila",
        -1.0
      ],
      [
        "Ġfoodstuffs",
        -1.0
      ],
      [
        "Ġpuffy",
        -1.0
      ],
      [
        "Ġë°©",
        -1.0
      ],
      [
        "Ð»Ñı",
        -1.0
      ],
      [
        "Ġgermination",
        -1.0
      ],
      [
        "Ġpakuchi",
        -1.0
      ],
      [
        "Disorganized",
        -1.0
      ],
      [
        "ĠRemediation",
        -1.0
      ],
      [
        "Ġmalignancy",
        -1.0
      ],
      [
        "ĠLiz",
        -1.0
      ],
      [
        "tex",
        -1.0
      ],
      [
        "/Red",
        -1.0
      ],
      [
        "glossal",
        -1.0
      ],
      [
        "Zq",
        -1.0
      ],
      [
        "-encoded",
        -1.0
      ],
      [
        "ĠLighting",
        -1.0
      ],
      [
        "Thompson",
        -1.0
      ],
      [
        "Ġexpressway",
        -1.0
      ],
      [
        "Ġegotistical",
        -1.0
      ],
      [
        "ĠTitanic",
        -1.0
      ],
      [
        "Ġevens",
        -1.0
      ],
      [
        "Allergic",
        -1.0
      ],
      [
        "Ġwirehaired",
        -1.0
      ],
      [
        "EPA",
        -1.0
      ],
      [
        "ĠGeophysicist",
        -1.0
      ],
      [
        "Ġgain",
        -1.0
      ],
      [
        "ĠPLOT",
        -1.0
      ],
      [
        "Ġsago",
        -1.0
      ],
      [
        "Adventurous",
        -1.0
      ],
      [
        "ĠAeromexico",
        -1.0
      ],
      [
        "Cumulonimbus",
        -1.0
      ],
      [
        "Ġclad",
        -1.0
      ],
      [
        "-bc",
        -1.0
      ],
      [
        "Ġoriginals",
        -1.0
      ],
      [
        "ĠFord",
        -1.0
      ],
      [
        "Ġrethinking",
        -1.0
      ],
      [
        "Ġsparks",
        -1.0
      ],
      [
        "ĠShazam",
        -1.0
      ],
      [
        "ĠPAV",
        -1.0
      ],
      [
        "ĠNorwalk",
        -1.0
      ],
      [
        "Ġsculptural",
        -1.0
      ],
      [
        "Ġtopographies",
        -1.0
      ],
      [
        "è®°",
        -1.0
      ],
      [
        "ĠCongruent",
        -1.0
      ],
      [
        "ĠSoul",
        -1.0
      ],
      [
        "sso",
        -1.0
      ],
      [
        "ĠYankee",
        -1.0
      ],
      [
        "-resolving",
        -1.0
      ],
      [
        "Ġreturning",
        -1.0
      ],
      [
        "Ġcontaminates",
        -1.0
      ],
      [
        "Ġmonotheism",
        -1.0
      ],
      [
        "Ġbuffets",
        -1.0
      ],
      [
        "Ġcolorful",
        -1.0
      ],
      [
        "-sense",
        -1.0
      ],
      [
        "-exclusive",
        -1.0
      ],
      [
        "ĠMoreland",
        -1.0
      ],
      [
        "Ġrv",
        -1.0
      ],
      [
        "Ġtransducers",
        -1.0
      ],
      [
        "Ġsleazy",
        -1.0
      ],
      [
        "Ġslender",
        -1.0
      ],
      [
        "Ġsheer",
        -1.0
      ],
      [
        "Ġlowland",
        -1.0
      ],
      [
        "ĠBisexual",
        -1.0
      ],
      [
        "Msg",
        -1.0
      ],
      [
        "ĠGulf",
        -1.0
      ],
      [
        "patient",
        -1.0
      ],
      [
        "ãĥª",
        -1.0
      ],
      [
        "Ġfrisbee",
        -1.0
      ],
      [
        "Ġrealises",
        -1.0
      ],
      [
        "ĠInstagram",
        -1.0
      ],
      [
        "ĠFim",
        -1.0
      ],
      [
        "Ġreimagine",
        -1.0
      ],
      [
        "Cut",
        -1.0
      ],
      [
        "-Chancellor",
        -1.0
      ],
      [
        "ĠAvraham",
        -1.0
      ],
      [
        "ĠFuhrer",
        -1.0
      ],
      [
        "_msg",
        -1.0
      ],
      [
        "ĠBristow",
        -1.0
      ],
      [
        "ĠChin",
        -1.0
      ],
      [
        "Ġseventh",
        -1.0
      ],
      [
        "ĠIngenuity",
        -1.0
      ],
      [
        "ĠBÃ¼",
        -1.0
      ],
      [
        "Ġhooey",
        -1.0
      ],
      [
        "ĠHenceforth",
        -1.0
      ],
      [
        "Ġ*||",
        -1.0
      ],
      [
        "?Can",
        -1.0
      ],
      [
        "Ġaffirm",
        -1.0
      ],
      [
        "ĠLange",
        -1.0
      ],
      [
        "ÂŃl",
        -1.0
      ],
      [
        "Benzoyl",
        -1.0
      ],
      [
        "KÄ«naÊ»u",
        -1.0
      ],
      [
        "Â±",
        -1.0
      ],
      [
        "/Photodisc",
        -1.0
      ],
      [
        "ĠSibi",
        -1.0
      ],
      [
        "Ġoxalic",
        -1.0
      ],
      [
        "-stitch",
        -1.0
      ],
      [
        "ĠNafas",
        -1.0
      ],
      [
        "Ġmacrophylla",
        -1.0
      ],
      [
        "-ears",
        -1.0
      ],
      [
        "Ġparse",
        -1.0
      ],
      [
        "Ġtubs",
        -1.0
      ],
      [
        "ĠPf",
        -1.0
      ],
      [
        "Ġpickle",
        -1.0
      ],
      [
        "Ġabelisaur",
        -1.0
      ],
      [
        "ĠMerrell",
        -1.0
      ],
      [
        "Ġcolostomy",
        -1.0
      ],
      [
        "Ġdeliquescent",
        -1.0
      ],
      [
        "Ġskylight",
        -1.0
      ],
      [
        "Ġbarcodes",
        -1.0
      ],
      [
        "ĠContinuously",
        -1.0
      ],
      [
        "ual",
        -1.0
      ],
      [
        "Ġinertia",
        -1.0
      ],
      [
        "HAPIRO",
        -1.0
      ],
      [
        "Ġcryocooler",
        -1.0
      ],
      [
        "Wm",
        -1.0
      ],
      [
        "Ġthermokarst",
        -1.0
      ],
      [
        "Ġquiets",
        -1.0
      ],
      [
        "ĠAntarctic",
        -1.0
      ],
      [
        "Ġfirebreaks",
        -1.0
      ],
      [
        "ĠLarge",
        -1.0
      ],
      [
        "Ġdiscriminating",
        -1.0
      ],
      [
        "Ġirreverent",
        -1.0
      ],
      [
        "-oligo",
        -1.0
      ],
      [
        "ĠAMOLED",
        -1.0
      ],
      [
        "Homogeneous",
        -1.0
      ],
      [
        "ĠOfficial",
        -1.0
      ],
      [
        "-technology",
        -1.0
      ],
      [
        "ĠGruffalo",
        -1.0
      ],
      [
        "Quality",
        -1.0
      ],
      [
        "Ġpinpointed",
        -1.0
      ],
      [
        "ĠCube",
        -1.0
      ],
      [
        "ĠSqueeze",
        -1.0
      ],
      [
        "ena",
        -1.0
      ],
      [
        "Ġbreasts",
        -1.0
      ],
      [
        "/ki",
        -1.0
      ],
      [
        "ĠDecapoda",
        -1.0
      ],
      [
        "ĠCravings",
        -1.0
      ],
      [
        "ĠPUCCH",
        -1.0
      ],
      [
        "ĠOksana",
        -1.0
      ],
      [
        "getattr",
        -1.0
      ],
      [
        "âĹ¯",
        -1.0
      ],
      [
        "ĠSalary",
        -1.0
      ],
      [
        "Ġbutcher",
        -1.0
      ],
      [
        "Ġman",
        -1.0
      ],
      [
        "\"Part",
        -1.0
      ],
      [
        "ĠPsyllid",
        -1.0
      ],
      [
        "Ġtriatomine",
        -1.0
      ],
      [
        "Ġtherapeutic",
        -1.0
      ],
      [
        "rri",
        -1.0
      ],
      [
        "Ġkoo",
        -1.0
      ],
      [
        "ĠAdair",
        -1.0
      ],
      [
        "Ġreverts",
        -1.0
      ],
      [
        "Rhodizite",
        -1.0
      ],
      [
        "50",
        -1.0
      ],
      [
        "Quercus",
        -1.0
      ],
      [
        "-schooled",
        -1.0
      ],
      [
        "ĠConcrete",
        -1.0
      ],
      [
        "ĠNiigata",
        -1.0
      ],
      [
        "ĠDesolation",
        -1.0
      ],
      [
        "Ġchiffon",
        -1.0
      ],
      [
        "ĠARCHITECTURE",
        -1.0
      ],
      [
        "allikattu",
        -1.0
      ],
      [
        "Ġreconsidered",
        -1.0
      ],
      [
        "ĠLaunched",
        -1.0
      ],
      [
        "ĠFjord",
        -1.0
      ],
      [
        "Ġturpentine",
        -1.0
      ],
      [
        ").",
        -1.0
      ],
      [
        "ĠYeh",
        -1.0
      ],
      [
        "Ġhypnosis",
        -1.0
      ],
      [
        "ĠShoh",
        -1.0
      ],
      [
        "Ġparalleling",
        -1.0
      ],
      [
        "Ġodd",
        -1.0
      ],
      [
        "Ġsubtopics",
        -1.0
      ],
      [
        "âĹĬ",
        -1.0
      ],
      [
        "ĠIntegrin",
        -1.0
      ],
      [
        "Ġepimutations",
        -1.0
      ],
      [
        "/sa",
        -1.0
      ],
      [
        "Ġnucifera",
        -1.0
      ],
      [
        "Ġreticular",
        -1.0
      ],
      [
        "Ġmove",
        -1.0
      ],
      [
        "Ġdivert",
        -1.0
      ],
      [
        "Ġsteely",
        -1.0
      ],
      [
        "Ġcocktail",
        -1.0
      ],
      [
        "Ġkangaroo",
        -1.0
      ],
      [
        "ĠBeats",
        -1.0
      ],
      [
        ".io",
        -1.0
      ],
      [
        "Ġwelcome",
        -1.0
      ],
      [
        "ĠBannock",
        -1.0
      ],
      [
        "\\bigskip",
        -1.0
      ],
      [
        "Ġfinfish",
        -1.0
      ],
      [
        "Astrologers",
        -1.0
      ],
      [
        "ĠKenny",
        -1.0
      ],
      [
        "Ġstrobus",
        -1.0
      ],
      [
        "Ġaravind",
        -1.0
      ],
      [
        "ĠAnesthesia",
        -1.0
      ],
      [
        "ĠSystemVerilog",
        -1.0
      ],
      [
        "ogen",
        -1.0
      ],
      [
        "Ġfavourites",
        -1.0
      ],
      [
        "-tracked",
        -1.0
      ],
      [
        "Ġtolerable",
        -1.0
      ],
      [
        "MED",
        -1.0
      ],
      [
        "Ġaileron",
        -1.0
      ],
      [
        "ĠappliquÃ©",
        -1.0
      ],
      [
        "util",
        -1.0
      ],
      [
        "ĠSewastopol",
        -1.0
      ],
      [
        "Ġirony",
        -1.0
      ],
      [
        "æ¥Ń",
        -1.0
      ],
      [
        "ĠGoodness",
        -1.0
      ],
      [
        "Ġgeeks",
        -1.0
      ],
      [
        "ĠDiscard",
        -1.0
      ],
      [
        "Ġspoiled",
        -1.0
      ],
      [
        "Ġfrequency",
        -1.0
      ],
      [
        "Ġvibrissae",
        -1.0
      ],
      [
        ".linspace",
        -1.0
      ],
      [
        ".degree",
        -1.0
      ],
      [
        "Ġanisotropies",
        -1.0
      ],
      [
        "ĠMcEvoy",
        -1.0
      ],
      [
        "ĠAHR",
        -1.0
      ],
      [
        "oudan",
        -1.0
      ],
      [
        "Ġpsoralen",
        -1.0
      ],
      [
        "ĠU",
        -1.0
      ],
      [
        "-CI",
        -1.0
      ],
      [
        "iro",
        -1.0
      ],
      [
        "ozzi",
        -1.0
      ],
      [
        "Ġambassador",
        -1.0
      ],
      [
        "ĠìĤ¬ìļ©",
        -1.0
      ],
      [
        "Ġrestrictions",
        -1.0
      ],
      [
        "Ġscrapie",
        -1.0
      ],
      [
        "ĠHannity",
        -1.0
      ],
      [
        "FALSE",
        -1.0
      ],
      [
        "Ġcourseware",
        -1.0
      ],
      [
        "ĠChartreux",
        -1.0
      ],
      [
        "Ġdevoid",
        -1.0
      ],
      [
        "âĢľBut",
        -1.0
      ],
      [
        "Ġpricy",
        -1.0
      ],
      [
        "ĠGGU",
        -1.0
      ],
      [
        "Ġlinker",
        -1.0
      ],
      [
        "Ġuntagged",
        -1.0
      ],
      [
        "Ġupfront",
        -1.0
      ],
      [
        "Ġformulary",
        -1.0
      ],
      [
        "Ġrealistic",
        -1.0
      ],
      [
        "ĠStygimoloch",
        -1.0
      ],
      [
        "ĠMoon",
        -1.0
      ],
      [
        "EVs",
        -1.0
      ],
      [
        "Ġarroz",
        -1.0
      ],
      [
        "-thousand",
        -1.0
      ],
      [
        "Ġzest",
        -1.0
      ],
      [
        "Ġshamanic",
        -1.0
      ],
      [
        "ĠAfar",
        -1.0
      ],
      [
        "ĠPotassium",
        -1.0
      ],
      [
        "ĠDewey",
        -1.0
      ],
      [
        "ĠSour",
        -1.0
      ],
      [
        "ĠGarvey",
        -1.0
      ],
      [
        "-display",
        -1.0
      ],
      [
        "Ġbanister",
        -1.0
      ],
      [
        "Ġgal",
        -1.0
      ],
      [
        "Ġtwinge",
        -1.0
      ],
      [
        "Ġbundled",
        -1.0
      ],
      [
        "Ġempanadas",
        -1.0
      ],
      [
        "ĠZimbabwe",
        -1.0
      ],
      [
        "Ġregular",
        -1.0
      ],
      [
        "Ġmultivalued",
        -1.0
      ],
      [
        "ĠUTSA",
        -1.0
      ],
      [
        "ĠRecreate",
        -1.0
      ],
      [
        "Ailuropoda",
        -1.0
      ],
      [
        "chem",
        -1.0
      ],
      [
        "-pocket",
        -1.0
      ],
      [
        "Undeniably",
        -1.0
      ],
      [
        "WEDNESDAY",
        -1.0
      ],
      [
        "Ġoppressing",
        -1.0
      ],
      [
        "ĠCuticle",
        -1.0
      ],
      [
        "ĠBHP",
        -1.0
      ],
      [
        "Ġroaches",
        -1.0
      ],
      [
        "Ġencroaches",
        -1.0
      ],
      [
        "-sectional",
        -1.0
      ],
      [
        "Ġchalkboard",
        -1.0
      ],
      [
        "ĠWarmth",
        -1.0
      ],
      [
        "Ġnoseband",
        -1.0
      ],
      [
        "ĠPreclinical",
        -1.0
      ],
      [
        "ong",
        -1.0
      ],
      [
        "ĠSusans",
        -1.0
      ],
      [
        "Ġsubtracting",
        -1.0
      ],
      [
        "Ġblogged",
        -1.0
      ],
      [
        "ĠSnell",
        -1.0
      ],
      [
        ".Sa",
        -1.0
      ],
      [
        "-industry",
        -1.0
      ],
      [
        ".spring",
        -1.0
      ],
      [
        "ĠBaikonur",
        -1.0
      ],
      [
        "alpha",
        -1.0
      ],
      [
        "ĠDromiciops",
        -1.0
      ],
      [
        "ĠEdgenuity",
        -1.0
      ],
      [
        "-CSIC",
        -1.0
      ],
      [
        "Ġaha",
        -1.0
      ],
      [
        "Ġinnovate",
        -1.0
      ],
      [
        "Ġketogenic",
        -1.0
      ],
      [
        "ĠLoans",
        -1.0
      ],
      [
        "ĠHEIs",
        -1.0
      ],
      [
        "Ġdumplings",
        -1.0
      ],
      [
        "ĠÂµm",
        -1.0
      ],
      [
        "oil",
        -1.0
      ],
      [
        "ĠTLC",
        -1.0
      ],
      [
        "Ġtags",
        -1.0
      ],
      [
        "Ġinsulate",
        -1.0
      ],
      [
        "ĠDeclining",
        -1.0
      ],
      [
        "ĠLar",
        -1.0
      ],
      [
        "ĠElastin",
        -1.0
      ],
      [
        "ĠSBS",
        -1.0
      ],
      [
        "Ġruby",
        -1.0
      ],
      [
        "ĠMCB",
        -1.0
      ],
      [
        "uerta",
        -1.0
      ],
      [
        ")For",
        -1.0
      ],
      [
        "Ġvested",
        -1.0
      ],
      [
        "Ġpickiest",
        -1.0
      ],
      [
        "Namaste",
        -1.0
      ],
      [
        "oning",
        -1.0
      ],
      [
        "-beneficial",
        -1.0
      ],
      [
        "ĠOarfish",
        -1.0
      ],
      [
        "Ġmaples",
        -1.0
      ],
      [
        "ĠOskam",
        -1.0
      ],
      [
        "ĠMARKS",
        -1.0
      ],
      [
        "ĠSDP",
        -1.0
      ],
      [
        "ĠAussies",
        -1.0
      ],
      [
        "Ġnonsyndromic",
        -1.0
      ],
      [
        "ĠUnderworld",
        -1.0
      ],
      [
        "ĠEPUB",
        -1.0
      ],
      [
        "wear",
        -1.0
      ],
      [
        "ĠBuller",
        -1.0
      ],
      [
        "jka",
        -1.0
      ],
      [
        "-everything",
        -1.0
      ],
      [
        "increasing",
        -1.0
      ],
      [
        "ĠGerrard",
        -1.0
      ],
      [
        "ĠKudos",
        -1.0
      ],
      [
        "familiar",
        -1.0
      ],
      [
        "ĠBluff",
        -1.0
      ],
      [
        "Ġhangovers",
        -1.0
      ],
      [
        "FLOPS",
        -1.0
      ],
      [
        "ĠNo",
        -1.0
      ],
      [
        "Ġhanbok",
        -1.0
      ],
      [
        "mpa",
        -1.0
      ],
      [
        "Ġracoon",
        -1.0
      ],
      [
        "Ġhairdresser",
        -1.0
      ],
      [
        "ĠPa",
        -1.0
      ],
      [
        "Ġpvc",
        -1.0
      ],
      [
        "aea",
        -1.0
      ],
      [
        "ĠCrosslinking",
        -1.0
      ],
      [
        "Ġlegalized",
        -1.0
      ],
      [
        "ĠGalilee",
        -1.0
      ],
      [
        "Ġcpp",
        -1.0
      ],
      [
        "Ġkeratoplasty",
        -1.0
      ],
      [
        "ĠAmmolite",
        -1.0
      ],
      [
        "ĠChavez",
        -1.0
      ],
      [
        "ĠGestalt",
        -1.0
      ],
      [
        "_exp",
        -1.0
      ],
      [
        "Ġgoes",
        -1.0
      ],
      [
        "Ġwa",
        -1.0
      ],
      [
        "-audit",
        -1.0
      ],
      [
        "ĠMember",
        -1.0
      ],
      [
        "ÄĽ",
        -1.0
      ],
      [
        "èªŃ",
        -1.0
      ],
      [
        "-conceived",
        -1.0
      ],
      [
        "|Title",
        -1.0
      ],
      [
        "_is",
        -1.0
      ],
      [
        "Ġconferring",
        -1.0
      ],
      [
        "acoustic",
        -1.0
      ],
      [
        "Ġpawing",
        -1.0
      ],
      [
        "Â»,",
        -1.0
      ],
      [
        "âģ¤",
        -1.0
      ],
      [
        "Ġreinstalled",
        -1.0
      ],
      [
        "ĠExpository",
        -1.0
      ],
      [
        "ĠStroud",
        -1.0
      ],
      [
        "Ġforte",
        -1.0
      ],
      [
        "ĠManan",
        -1.0
      ],
      [
        "ĠBavarian",
        -1.0
      ],
      [
        "ĠMaldives",
        -1.0
      ],
      [
        "ĠPrecalculus",
        -1.0
      ],
      [
        "Sorghum",
        -1.0
      ],
      [
        "Ġdispensable",
        -1.0
      ],
      [
        ".ur",
        -1.0
      ],
      [
        "Ġfunctionalism",
        -1.0
      ],
      [
        "ĠCarnelian",
        -1.0
      ],
      [
        "Ġboils",
        -1.0
      ],
      [
        "Ġsoliton",
        -1.0
      ],
[...]
