{
  "version": "1.0",
  "truncation": null,
  "padding": null,
  "added_tokens": [
    {
      "id": 0,
      "content": "[UNK]",
      "single_word": false,
      "lstrip": false,
      "rstrip": false,
      "normalized": false,
      "special": true
    },
    {
      "id": 1,
      "content": "[CLS]",
      "single_word": false,
      "lstrip": false,
      "rstrip": false,
      "normalized": false,
      "special": true
    },
    {
      "id": 2,
      "content": "[SEP]",
      "single_word": false,
      "lstrip": false,
      "rstrip": false,
      "normalized": false,
      "special": true
    },
    {
      "id": 3,
      "content": "[PAD]",
      "single_word": false,
      "lstrip": false,
      "rstrip": false,
      "normalized": false,
      "special": true
    },
    {
      "id": 4,
      "content": "[MASK]",
      "single_word": false,
      "lstrip": false,
      "rstrip": false,
      "normalized": false,
      "special": true
    },
    {
      "id": 5,
      "content": "[EOS]",
      "single_word": false,
      "lstrip": false,
      "rstrip": false,
      "normalized": false,
      "special": true
    }
  ],
  "normalizer": null,
  "pre_tokenizer": {
    "type": "ByteLevel",
    "add_prefix_space": false,
    "trim_offsets": true,
    "use_regex": true
  },
  "post_processor": null,
  "decoder": null,
  "model": {
    "type": "BPE",
    "dropout": null,
    "unk_token": "[UNK]",
    "continuing_subword_prefix": null,
    "end_of_word_suffix": null,
    "fuse_unk": false,
    "byte_fallback": false,
    "ignore_merges": false,
    "vocab": {
      "[UNK]": 0,
      "[CLS]": 1,
      "[SEP]": 2,
      "[PAD]": 3,
      "[MASK]": 4,
      "[EOS]": 5,
      "!": 6,
      "\"": 7,
      "#": 8,
      "$": 9,
      "%": 10,
      "&": 11,
      "'": 12,
      "(": 13,
      ")": 14,
      "*": 15,
      "+": 16,
      ",": 17,
      "-": 18,
      ".": 19,
      "/": 20,
      "0": 21,
      "1": 22,
      "2": 23,
      "3": 24,
      "4": 25,
      "5": 26,
      "6": 27,
      "7": 28,
      "8": 29,
      "9": 30,
      ":": 31,
      ";": 32,
      "<": 33,
      "=": 34,
      ">": 35,
      "?": 36,
      "@": 37,
      "A": 38,
      "B": 39,
      "C": 40,
      "D": 41,
      "E": 42,
      "F": 43,
      "G": 44,
      "H": 45,
      "I": 46,
      "J": 47,
      "K": 48,
      "L": 49,
      "M": 50,
      "N": 51,
      "O": 52,
      "P": 53,
      "Q": 54,
      "R": 55,
      "S": 56,
      "T": 57,
      "U": 58,
      "V": 59,
      "W": 60,
      "X": 61,
      "Y": 62,
      "Z": 63,
      "[": 64,
      "\\": 65,
      "]": 66,
      "^": 67,
      "_": 68,
      "`": 69,
      "a": 70,
      "b": 71,
      "c": 72,
      "d": 73,
      "e": 74,
      "f": 75,
      "g": 76,
      "h": 77,
      "i": 78,
      "j": 79,
      "k": 80,
      "l": 81,
      "m": 82,
      "n": 83,
      "o": 84,
      "p": 85,
      "q": 86,
      "r": 87,
      "s": 88,
      "t": 89,
      "u": 90,
      "v": 91,
      "w": 92,
      "x": 93,
      "y": 94,
      "z": 95,
      "|": 96,
      "}": 97,
      "~": 98,
      "¡": 99,
      "¢": 100,
      "£": 101,
      "¤": 102,
      "¥": 103,
      "¦": 104,
      "§": 105,
      "¨": 106,
      "©": 107,
      "ª": 108,
      "«": 109,
      "¬": 110,
      "®": 111,
      "¯": 112,
      "°": 113,
      "±": 114,
      "²": 115,
      "³": 116,
      "´": 117,
      "µ": 118,
      "¶": 119,
      "·": 120,
      "¸": 121,
      "¹": 122,
      "º": 123,
      "»": 124,
      "¼": 125,
      "½": 126,
      "¾": 127,
      "¿": 128,
      "Â": 129,
      "Ã": 130,
      "Ä": 131,
      "Å": 132,
      "Ġ": 133,
      "Ģ": 134,
      "ģ": 135,
      "Ĥ": 136,
      "ĥ": 137,
      "Ħ": 138,
      "ħ": 139,
      "Ĩ": 140,
      "ĩ": 141,
      "Ī": 142,
      "ī": 143,
      "Ĭ": 144,
      "ĭ": 145,
      "Į": 146,
      "į": 147,
      "İ": 148,
      "ı": 149,
      "Ĳ": 150,
      "ĳ": 151,
      "Ķ": 152,
      "ķ": 153,
      "ĸ": 154,
      "Ĺ": 155,
      "ĺ": 156,
      "Ļ": 157,
      "ļ": 158,
      "Ľ": 159,
      "ł": 160,
      "Ń": 161,
      "Äł": 162,
      "Äłt": 163,
      "ĠÄł": 164,
      "he": 165,
      "in": 166,
      "Äła": 167,
      "re": 168,
      "Äłthe": 169,
      "on": 170,
      "er": 171,
      "at": 172,
      "en": 173,
      "Äło": 174,
      "Äłs": 175,
      "an": 176,
      "es": 177,
      "is": 178,
      "Äłc": 179,
      "or": 180,
      "it": 181,
      "al": 182,
      "Äłw": 183,
      "ed": 184,
      "ing": 185,
      "Äłp": 186,
      "Äłan": 187,
      "ou": 188,
      "ar": 189,
      "Äłb": 190,
      "Äłf": 191,
      "Äłof": 192,
      "Äłto": 193,
      "ic": 194,
      "Äłin": 195,
      "¢Ä": 196,
      "ion": 197,
      "ÄĬ": 198,
      "Äłm": 199,
      "Äłand": 200,
      "Äłd": 201,
      "le": 202,
      "as": 203,
      "ro": 204,
      "ent": 205,
      "Äłth": 206,
      "Äłh": 207,
      "ct": 208,
      "il": 209,
      "st": 210,
      "om": 211,
      "ve": 212,
      "Äłe": 213,
      "Äłre": 214,
      "ly": 215,
      "Ã¢Ä": 216,
      "Äłl": 217,
      "Ã¢Ä¢Ä": 218,
      "se": 219,
      "Äłn": 220,
      "et": 221,
      "ol": 222,
      "ation": 223,
      "Äłis": 224,
      "im": 225,
      "id": 226,
      "ot": 227,
      "ce": 228,
      "ut": 229,
      "ch": 230,
      "ow": 231,
      "ur": 232,
      "ÄłT": 233,
      "Äłbe": 234,
      "Äłg": 235,
      "ra": 236,
      "ig": 237,
      "Äłthat": 238,
      "ver": 239,
      "ir": 240,
      "Äłfor": 241,
      "ÄłA": 242,
      "Äłu": 243,
      "and": 244,
      "ul": 245,
      "Äłon": 246,
      "ĠÄłthe": 247,
      "ÄłS": 248,
      "Äłst": 249,
      "Äły": 250,
      "am": 251,
      "ay": 252,
      "ad": 253,
      "el": 254,
      "ith": 255,
      "her": 256,
      "ÄłI": 257,
      "ÄłC": 258,
      "Ġ,": 259,
      "Ġ.": 260,
      "Äłas": 261,
      "if": 262,
      "Äłpro": 263,
      "Äłare": 264,
      "od": 265,
      "ter": 266,
      "Äłcon": 267,
      "Äłyou": 268,
      "ment": 269,
      "nd": 270,
      "Äłwith": 271,
      "ge": 272,
      "Äłit": 273,
      "Äłor": 274,
      "th": 275,
      "ab": 276,
      "op": 277,
      "ist": 278,
      "Äłal": 279,
      "Äłwh": 280,
      "us": 281,
      "ate": 282,
      "ers": 283,
      "ess": 284,
      "res": 285,
      "ies": 286,
      "ill": 287,
      "ÄłThe": 288,
      "ÄłM": 289,
      "em": 290,
      "Ã¢Ä¢Ä»": 291,
      "of": 292,
      "ac": 293,
      "ect": 294,
      "ore": 295,
      "ity": 296,
      "ere": 297,
      "est": 298,
      "um": 299,
      "ĠÄłw": 300,
      "ÄłP": 301,
      "ive": 302,
      "ant": 303,
      "Äłhe": 304,
      "os": 305,
      "Äłex": 306,
      "rom": 307,
      "ke": 308,
      "ld": 309,
      "iv": 310,
      "Äłcom": 311,
      "ec": 312,
      "ĠÄłc": 313,
      "qu": 314,
      "nt": 315,
      "igh": 316,
      "ÄłB": 317,
      "ain": 318,
      "ud": 319,
      "ĠÄłs": 320,
      "pp": 321,
      "ĠÄłof": 322,
      "oc": 323,
      "ĠÄłp": 324,
      "Äłv": 325,
      "ort": 326,
      "Äłsu": 327,
      "ave": 328,
      "ÄłH": 329,
      "ĠÄła": 330,
      "Äłby": 331,
      "Äłat": 332,
      "ĠÄłf": 333,
      "ĠÄłb": 334,
      "Äłcan": 335,
      "ial": 336,
      "un": 337,
      "The": 338,
      "ÄłW": 339,
      "ure": 340,
      "ĠÄłin": 341,
      "Äłr": 342,
      "art": 343,
      "Äłch": 344,
      "ÄłD": 345,
      "ical": 346,
      "Äłfrom": 347,
      "Äłwas": 348,
      "ÄłE": 349,
      "Äłde": 350,
      "ew": 351,
      "ri": 352,
      "ĠÄłand": 353,
      "og": 354,
      "ÄłR": 355,
      "ĠÄłm": 356,
      "all": 357,
      "ÄłF": 358,
      "our": 359,
      "ear": 360,
      "Äłle": 361,
      "Äłthis": 362,
      "ight": 363,
      "Äłnot": 364,
      "ÄłÃ¢Ä¢Ä": 365,
      "out": 366,
      "Äłhave": 367,
      "pt": 368,
      "ĠÄłto": 369,
      "ĠÄłd": 370,
      "ions": 371,
      "ÄłN": 372,
      "ich": 373,
      "ost": 374,
      "end": 375,
      "ÄłG": 376,
      "00": 377,
      "ĠÄĬ": 378,
      "ould": 379,
      "gh": 380,
      "ome": 381,
      "ÄłL": 382,
      "Äłsh": 383,
      "Äłsp": 384,
      "ated": 385,
      "rou": 386,
      "du": 387,
      "per": 388,
      "Äłwe": 389,
      "Äłab": 390,
      "ine": 391,
      "ag": 392,
      "ther": 393,
      "act": 394,
      "ans": 395,
      "ell": 396,
      "Äłse": 397,
      "Äłwor": 398,
      "ast": 399,
      "ard": 400,
      "pl": 401,
      "ak": 402,
      "ru": 403,
      "Äłus": 404,
      "age": 405,
      "are": 406,
      "Äłim": 407,
      "ff": 408,
      "ous": 409,
      "hen": 410,
      "Äłpl": 411,
      "ood": 412,
      "ide": 413,
      "iz": 414,
      "ult": 415,
      "Äłtheir": 416,
      "ĠÄłh": 417,
      "Äłen": 418,
      "orm": 419,
      "ib": 420,
      "19": 421,
      "Äłyour": 422,
      "ust": 423,
      "ong": 424,
      "ap": 425,
      "ip": 426,
      "ia": 427,
      "Äłint": 428,
      "Äłk": 429,
      "Äłthey": 430,
      "Ã¢Ä¢Ä¿": 431,
      "ÄłO": 432,
      "ations": 433,
      "Äłinc": 434,
      "so": 435,
      "ary": 436,
      "ater": 437,
      "Äłwhich": 438,
      "ence": 439,
      "cc": 440,
      "able": 441,
      "Äład": 442,
      "Äłdis": 443,
      "vel": 444,
      "Äłcomp": 445,
      "Äłcont": 446,
      "ÄłU": 447,
      "Äłall": 448,
      "av": 449,
      "Äłmore": 450,
      "ÄłJ": 451,
      "ÄłIn": 452,
      "ual": 453,
      "Äłwill": 454,
      "ep": 455,
      "Äłres": 456,
      "ild": 457,
      "ire": 458,
      "ass": 459,
      "Äłne": 460,
      "ks": 461,
      "Äłte": 462,
      "ind": 463,
      "ry": 464,
      "Äłhas": 465,
      "ose": 466,
      "ents": 467,
      "ance": 468,
      "reat": 469,
      "one": 470,
      "20": 471,
      "ÄłTh": 472,
      "ress": 473,
      "ach": 474,
      "ign": 475,
      "Äłdo": 476,
      "Äłother": 477,
      "ase": 478,
      "ake": 479,
      "Äłcl": 480,
      "Ġ-": 481,
      "ition": 482,
      "ction": 483,
      "ĠÄłn": 484,
      "ord": 485,
      "Äłbut": 486,
      "Äłman": 487,
      "au": 488,
      "Äłtim": 489,
      "Äłimp": 490,
      "ber": 491,
      "Äłalso": 492,
      "Äłper": 493,
      "ice": 494,
      "very": 495,
      "ub": 496,
      "ĠÄłl": 497,
      "ish": 498,
      "ĠÄłre": 499,
      "Äłwere": 500,
      "ÄłÃ¢Ä¢Ä¾": 501,
      "ens": 502,
      "ory": 503,
      "ount": 504,
      "Äłone": 505,
      "ace": 506,
      "Äłme": 507,
      "ack": 508,
      "'s": 509,
      "ok": 510,
      "ike": 511,
      "now": 512,
      "ue": 513,
      "Äłj": 514,
      "ang": 515,
      "ors": 516,
      "ces": 517,
      "ound": 518,
      "ame": 519,
      "Äłout": 520,
      "Äłpre": 521,
      ").": 522,
      "ite": 523,
      "ric": 524,
      "eop": 525,
      "ree": 526,
      "form": 527,
      "Äłpart": 528,
      "low": 529,
      "ĠÄłe": 530,
      "Äłun": 531,
      "Äłabout": 532,
      "olog": 533,
      "Äłapp": 534,
      "ci": 535,
      "ĠÄłt": 536,
      "ile": 537,
      "Äłstud": 538,
      "Äłthan": 539,
      "ÄłSt": 540,
      "ons": 541,
      "ie": 542,
      "Äłsy": 543,
      "Äłso": 544,
      "eople": 545,
      "iff": 546,
      "Äłar": 547,
      "Äłwho": 548,
      "Äłev": 549,
      "ĠÄłis": 550,
      "nder": 551,
      "Äłcomm": 552,
      "ays": 553,
      "ĠÄłg": 554,
      "ail": 555,
      "ates": 556,
      "ĠÄłA": 557,
      "Äłthem": 558,
      "over": 559,
      "Äłtime": 560,
      "ings": 561,
      "ough": 562,
      "ph": 563,
      "ĠÄłS": 564,
      "ÄłK": 565,
      "ian": 566,
      "lud": 567,
      "Äłhis": 568,
      "erv": 569,
      "ren": 570,
      "ll": 571,
      "ove": 572,
      "ÄłIt": 573,
      "Äłup": 574,
      "Äłmay": 575,
      "Äłbec": 576,
      "ific": 577,
      "here": 578,
      "ond": 579,
      "Äłqu": 580,
      "Äłrec": 581,
      "ally": 582,
      "row": 583,
      "mer": 584,
      "te": 585,
      "Äłwhen": 586,
      "Äłyear": 587,
      "rough": 588,
      "rit": 589,
      "vers": 590,
      "ĠÄłC": 591,
      "ÄłThis": 592,
      "lic": 593,
      "ys": 594,
      "alth": 595,
      "ÄłCh": 596,
      "ob": 597,
      "int": 598,
      "ms": 599,
      "tern": 600,
      "irst": 601,
      "Äłbeen": 602,
      "ause": 603,
      "we": 604,
      "In": 605,
      "Äłthese": 606,
      "Äłsome": 607,
      "ject": 608,
      "ities": 609,
      "Äłits": 610,
      "lect": 611,
      "stem": 612,
      "Äłover": 613,
      "les": 614,
      "Äłthere": 615,
      "ments": 616,
      "Äłtra": 617,
      "ning": 618,
      "Äłuse": 619,
      "ook": 620,
      "Äłpeople": 621,
      "Äłinto": 622,
      "Äłag": 623,
      "ple": 624,
      "Äłwork": 625,
      "ĠÄłthat": 626,
      "lp": 627,
      "Äłdiff": 628,
      "red": 629,
      "Äłlike": 630,
      "Äłhow": 631,
      "ffect": 632,
      "wo": 633,
      "Äłknow": 634,
      "velop": 635,
      "ÄłV": 636,
      "ĠÄłbe": 637,
      "ced": 638,
      "old": 639,
      "Äłmost": 640,
      "ĠÄłfor": 641,
      "Äłunder": 642,
      "Äłcons": 643,
      "ative": 644,
      "Äłro": 645,
      "ious": 646,
      "Äłact": 647,
      "ational": 648,
      "ont": 649,
      "ating": 650,
      "Äłbl": 651,
      "ĠÄłst": 652,
      "10": 653,
      "Äłour": 654,
      "Äłra": 655,
      "200": 656,
      "ular": 657,
      "Äłbet": 658,
      "pe": 659,
      "Äłtr": 660,
      "ov": 661,
      "Äłhad": 662,
      "Äłinclud": 663,
      "iet": 664,
      "Äłacc": 665,
      "ool": 666,
      "Äłdes": 667,
      "hed": 668,
      "Äłneed": 669,
      "ise": 670,
      "ark": 671,
      "ics": 672,
      "its": 673,
      "ener": 674,
      "),": 675,
      "18": 676,
      "Äłhelp": 677,
      "uc": 678,
      "oss": 679,
      "Äłsa": 680,
      "Äłrel": 681,
      "Äłif": 682,
      "Äłchild": 683,
      "Äłnew": 684,
      "ful": 685,
      "Äłthrough": 686,
      "uring": 687,
      "ath": 688,
      "ĠÄłM": 689,
      "rib": 690,
      "port": 691,
      "Äłsuch": 692,
      "oth": 693,
      "Äłany": 694,
      "Äłused": 695,
      "erm": 696,
      "ÄłY": 697,
      "fter": 698,
      "Äłcol": 699,
      "ts": 700,
      "eth": 701,
      "Äłph": 702,
      "Äłwould": 703,
      "ility": 704,
      "uch": 705,
      "ange": 706,
      "Äłprodu": 707,
      "ef": 708,
      "als": 709,
      "other": 710,
      "iss": 711,
      "Äłam": 712,
      "ied": 713,
      "ink": 714,
      "ible": 715,
      "Äłpr": 716,
      "Äłprov": 717,
      "ower": 718,
      "ĠÄłP": 719,
      "ever": 720,
      "aw": 721,
      "ased": 722,
      "Äłonly": 723,
      "Äłspec": 724,
      "Th": 725,
      "Äłwhat": 726,
      "Äłmany": 727,
      "own": 728,
      "ble": 729,
      "Äłfirst": 730,
      "ert": 731,
      "ures": 732,
      "Äłac": 733,
      "round": 734,
      "Äłoff": 735,
      "Äłind": 736,
      "ween": 737,
      "ract": 738,
      "Äłsc": 739,
      "ne": 740,
      "ade": 741,
      "cess": 742,
      "Äłsystem": 743,
      "ten": 744,
      "ick": 745,
      "Äłdevelop": 746,
      "ĠÄły": 747,
      "ĠÄłwith": 748,
      "ng": 749,
      "ution": 750,
      "ĠÄłas": 751,
      "xt": 752,
      "Äłtwo": 753,
      "ÄłUn": 754,
      "omm": 755,
      "ĠÄłon": 756,
      "Äłdiffere": 757,
      "ĠÄłwh": 758,
      "ife": 759,
      "hes": 760,
      "Äłreg": 761,
      "sel": 762,
      "ĠÄłI": 763,
      "Äłass": 764,
      "Äłem": 765,
      "Äłno": 766,
      "Äłdec": 767,
      "gan": 768,
      "cy": 769,
      "201": 770,
      "Äłfe": 771,
      "Äłgo": 772,
      "ram": 773,
      "Äłwater": 774,
      "fore": 775,
      "ÄłÃ¢Ä¢Äµ": 776,
      "any": 777,
      "Äłexp": 778,
      "ants": 779,
      "ĠÄłThe": 780,
      "dition": 781,
      "ural": 782,
      "Äłshould": 783,
      "Äłob": 784,
      "Äłinf": 785,
      "Äłpo": 786,
      "Äłsur": 787,
      "chool": 788,
      "ident": 789,
      "arch": 790,
      "Äłwell": 791,
      "Äłatt": 792,
      "ĠÄłB": 793,
      "Ġ:": 794,
      "ict": 795,
      "ata": 796,
      "vent": 797,
      "ered": 798,
      "Äłhealth": 799,
      "ĠÄłpro": 800,
      "ited": 801,
      "Äłsupp": 802,
      "ss": 803,
      "ily": 804,
      "erson": 805,
      "Äłyears": 806,
      "ins": 807,
      "cept": 808,
      "chn": 809,
      "ology": 810,
      "ĠÄłare": 811,
      "ines": 812,
      "Äłsub": 813,
      "ork": 814,
      "land": 815,
      "Äłhigh": 816,
      "ivers": 817,
      "wn": 818,
      "Äłrem": 819,
      "ists": 820,
      "gy": 821,
      "ting": 822,
      "Äłsm": 823,
      "ps": 824,
      "Äłfl": 825,
      "Äłcould": 826,
      "arm": 827,
      "Äłbetween": 828,
      "ness": 829,
      "ÄłHe": 830,
      "Äłmake": 831,
      "meric": 832,
      "Äłimport": 833,
      "ives": 834,
      "Äłpres": 835,
      "Äłtrans": 836,
      "formation": 837,
      "ism": 838,
      "Ãĥ": 839,
      "ĠÄłor": 840,
      "oy": 841,
      "ually": 842,
      "Äłlear": 843,
      "aking": 844,
      "Äłget": 845,
      "cent": 846,
      "arg": 847,
      "Äłbu": 848,
      "urn": 849,
      "Äłwhere": 850,
      "ĠÄłH": 851,
      "hat": 852,
      "Äłrese": 853,
      "ature": 854,
      "Ã¢Ä¢Ä¾": 855,
      "ollow": 856,
      "iew": 857,
      "Äłinv": 858,
      "led": 859,
      "up": 860,
      "Äłfound": 861,
      "Äłmod": 862,
      "ues": 863,
      "Äłpol": 864,
      "ases": 865,
      "Äłincre": 866,
      "Äłear": 867,
      "ically": 868,
      "Äłdifferent": 869,
      "Äłmed": 870,
      "Äłexper": 871,
      "Äłsim": 872,
      "ĠÄłR": 873,
      "Äłform": 874,
      "Äłlong": 875,
      "Äłher": 876,
      "Äłthose": 877,
      "Äłinst": 878,
      "iron": 879,
      "cer": 880,
      "Äłnum": 881,
      "Äłjust": 882,
      "Äłcar": 883,
      "Äłinter": 884,
      "Äłvar": 885,
      "ublic": 886,
      "ages": 887,
      "Äłty": 888,
      "arge": 889,
      "ather": 890,
      "tle": 891,
      "ruct": 892,
      "Äłdisc": 893,
      "Äłresp": 894,
      "ck": 895,
      "ĠÄłhe": 896,
      "eg": 897,
      "ĠÄłan": 898,
      "Äłsign": 899,
      "Äłext": 900,
      "Äłworld": 901,
      "ds": 902,
      "ĠÄłse": 903,
      "Äłway": 904,
      "Äłtechn": 905,
      "Äłeffect": 906,
      "Äłhum": 907,
      "Äłafter": 908,
      "ĠÄłD": 909,
      "rain": 910,
      "Äłcent": 911,
      "ved": 912,
      "Äłexam": 913,
      "Äłbecause": 914,
      "ody": 915,
      "ize": 916,
      "ĠÄłW": 917,
      "overn": 918,
      "Äłvery": 919,
      "Äłbeing": 920,
      "ality": 921,
      "Äłed": 922,
      "Äłeven": 923,
      "ĠÄłby": 924,
      "ĠÄłit": 925,
      "Äłevery": 926,
      "ĠÄłE": 927,
      "Äłcount": 928,
      "ices": 929,
      "ĠÄłv": 930,
      "Äłsaid": 931,
      "Äłgener": 932,
      "Äłimportant": 933,
      "Äłdet": 934,
      "gg": 935,
      "ÄłAmeric": 936,
      "Äłke": 937,
      "io": 938,
      "hip": 939,
      "Äłpat": 940,
      "Äłdist": 941,
      "ock": 942,
      "Äłpartic": 943,
      "Äłthen": 944,
      "Äłresult": 945,
      "air": 946,
      "Äłset": 947,
      "Äłprocess": 948,
      "ĠÄłG": 949,
      "This": 950,
      "Äłcall": 951,
      "Äłperson": 952,
      "Äłfact": 953,
      "ized": 954,
      "ward": 955,
      "ĠÄłat": 956,
      "onom": 957,
      "Äłown": 958,
      "Äłchildren": 959,
      "ially": 960,
      "Äłsee": 961,
      "ĠÄłex": 962,
      "ĠÄłF": 963,
      "stand": 964,
      "app": 965,
      "rop": 966,
      "omen": 967,
      "iel": 968,
      "ted": 969,
      "Äłproble": 970,
      "Äłmuch": 971,
      "ale": 972,
      "Äłprog": 973,
      "hem": 974,
      "Äłeach": 975,
      "viron": 976,
      "ection": 977,
      "Äłgrow": 978,
      "Ġ)": 979,
      "Äłright": 980,
      "Äłdep": 981,
      "Ã¢Ä¢Äµ": 982,
      "ĠÄłwas": 983,
      "und": 984,
      "ĠÃ¢Ä¢Ä»": 985,
      "ient": 986,
      "Äłread": 987,
      "ĠÄłN": 988,
      "Äłcre": 989,
      "Äłrequ": 990,
      "Äłsoc": 991,
      "Äłduring": 992,
      "Äłloc": 993,
      "ivid": 994,
      "Äłinformation": 995,
      "Äłref": 996,
      "ven": 997,
      "Äłfood": 998,
      "cient": 999,
      "Äłmy": 1000,
      "Äłdata": 1001,
      "omp": 1002,
      "orn": 1003,
      "..": 1004,
      "Äłart": 1005,
      "ty": 1006,
      "Äłca": 1007,
      "Äłent": 1008,
      "Äłend": 1009,
      "ince": 1010,
      "Äłaut": 1011,
      "Äłsec": 1012,
      "||": 1013,
      "Äłlead": 1014,
      "Äłfollow": 1015,
      "ÄłIf": 1016,
      "ran": 1017,
      "Äłsk": 1018,
      "Äłmade": 1019,
      "Äłstudents": 1020,
      "Äłshe": 1021,
      "Äłlife": 1022,
      "Äłcur": 1023,
      "15": 1024,
      "pec": 1025,
      "read": 1026,
      "Äłfam": 1027,
      "ÄłPro": 1028,
      "Äłco": 1029,
      "ier": 1030,
      "inal": 1031,
      "rol": 1032,
      "12": 1033,
      "ished": 1034,
      "nce": 1035,
      "iversity": 1036,
      "Äłtreat": 1037,
      "imate": 1038,
      "Äłdef": 1039,
      "Äłcommun": 1040,
      "ĠÄłT": 1041,
      "Äłrep": 1042,
      "iety": 1043,
      "Äłfind": 1044,
      "cl": 1045,
      "the": 1046,
      "ars": 1047,
      "Äłmon": 1048,
      "ute": 1049,
      "ĠÄłL": 1050,
      "ÄłAs": 1051,
      "ÄłWe": 1052,
      "ral": 1053,
      "ined": 1054,
      "Äłlevel": 1055,
      "Äłschool": 1056,
      "Äłhist": 1057,
      "ÄłAl": 1058,
      "Äłstudy": 1059,
      "vironment": 1060,
      "Äłbefore": 1061,
      "ulation": 1062,
      "ix": 1063,
      "Äłgood": 1064,
      "Äłris": 1065,
      "Äłav": 1066,
      "Äłbo": 1067,
      "ides": 1068,
      "ĠÄłal": 1069,
      "ax": 1070,
      "000": 1071,
      "to": 1072,
      "Äłsame": 1073,
      "Äłoften": 1074,
      "Äłgra": 1075,
      "Äładd": 1076,
      "Äłexpl": 1077,
      "ÄłThey": 1078,
      "akes": 1079,
      "ring": 1080,
      "iving": 1081,
      "get": 1082,
      "Äłback": 1083,
      "ex": 1084,
      "Äłmain": 1085,
      "Ã¢Ä¢Ä¶": 1086,
      "owever": 1087,
      "Äłtest": 1088,
      "Äłusing": 1089,
      "oh": 1090,
      "Äłthree": 1091,
      "der": 1092,
      "ional": 1093,
      "ah": 1094,
      "Äłmin": 1095,
      "199": 1096,
      "irect": 1097,
      "lear": 1098,
      "ergy": 1099,
      "Äłgrou": 1100,
      "ĠÄłfrom": 1101,
      "Äłboth": 1102,
      "Äłdi": 1103,
      "ĠÄłnot": 1104,
      "Äłins": 1105,
      "ters": 1106,
      "Äłshow": 1107,
      "ves": 1108,
      "day": 1109,
      "Äłcomple": 1110,
      "iqu": 1111,
      "Äłdoes": 1112,
      "Äłpop": 1113,
      "ee": 1114,
      "ands": 1115,
      "aj": 1116,
      "uss": 1117,
      "self": 1118,
      "17": 1119,
      "Äłday": 1120,
      "Äłgl": 1121,
      "eng": 1122,
      "Äłsol": 1123,
      "Äłposs": 1124,
      "Äłwhile": 1125,
      "ĠÄłJ": 1126,
      "ÄłAn": 1127,
      "use": 1128,
      "ital": 1129,
      "Äłsmall": 1130,
      "ÄłFor": 1131,
      "Äłval": 1132,
      "eed": 1133,
      "ury": 1134,
      "Äłcommon": 1135,
      "ĠÄłch": 1136,
      "hers": 1137,
      "overnment": 1138,
      "outh": 1139,
      "Äłdise": 1140,
      "Äłserv": 1141,
      "Äłcell": 1142,
      "ency": 1143,
      "ft": 1144,
      "Äłlit": 1145,
      "Ġs": 1146,
      "ross": 1147,
      "Äłocc": 1148,
      "Äłclass": 1149,
      "itions": 1150,
      "used": 1151,
      "Äłdesign": 1152,
      "ead": 1153,
      "rent": 1154,
      "ris": 1155,
      "ÄłAr": 1156,
      "Äłprot": 1157,
      "Äłorgan": 1158,
      "Äłpower": 1159,
      "Äłvis": 1160,
      "ron": 1161,
      "ains": 1162,
      "Äłec": 1163,
      "way": 1164,
      "Äłtake": 1165,
      "Äłstr": 1166,
      "Äłresearch": 1167,
      "els": 1168,
      "Äłincluding": 1169,
      "Äłnumber": 1170,
      "ash": 1171,
      "Äłdown": 1172,
      "Äłsupport": 1173,
      "Äłagain": 1174,
      "Äłlarge": 1175,
      "Äłnow": 1176,
      "ull": 1177,
      "iod": 1178,
      "ium": 1179,
      "ouse": 1180,
      "iven": 1181,
      "ividual": 1182,
      "Äłsom": 1183,
      "oci": 1184,
      "ĠÄłthis": 1185,
      "Äłredu": 1186,
      "Äłless": 1187,
      "Ã¢Ä¢": 1188,
      "lish": 1189,
      "16": 1190,
      "pect": 1191,
      "Äłfun": 1192,
      "ired": 1193,
      "ering": 1194,
      "Äłplan": 1195,
      "acter": 1196,
      "Äłactiv": 1197,
      "50": 1198,
      "Äłthough": 1199,
      "ared": 1200,
      "ÄłNew": 1201,
      "ĠÄłcan": 1202,
      "Äłbody": 1203,
      "ets": 1204,
      "Äłstate": 1205,
      "Äłstart": 1206,
      "Äłlook": 1207,
      "ries": 1208,
      "Äłmem": 1209,
      "ug": 1210,
      "ination": 1211,
      "ÄłInd": 1212,
      "reen": 1213,
      "Äłunderstand": 1214,
      "Äłelect": 1215,
      "ential": 1216,
      "Äłmust": 1217,
      "ption": 1218,
      "Äłaround": 1219,
      "ration": 1220,
      "30": 1221,
      "Äłhuman": 1222,
      "Äłbel": 1223,
      "Äłgreat": 1224,
      "az": 1225,
      "ĠÄłsh": 1226,
      "Äłdr": 1227,
      "Äłconf": 1228,
      "Äłser": 1229,
      "aterial": 1230,
      "Äłpoint": 1231,
      "oms": 1232,
      "Äłest": 1233,
      "Äłcontin": 1234,
      "ÄłBut": 1235,
      "Äłcare": 1236,
      "ids": 1237,
      "iness": 1238,
      "ources": 1239,
      "oun": 1240,
      "ability": 1241,
      "Äłcour": 1242,
      "uro": 1243,
      "iver": 1244,
      "Äłequ": 1245,
      "de": 1246,
      "Äłhim": 1247,
      "Äłeas": 1248,
      "cience": 1249,
      "bers": 1250,
      "ience": 1251,
      "raph": 1252,
      "Äłcor": 1253,
      "Äłconst": 1254,
      "Äłknown": 1255,
      "ĠÄłhave": 1256,
      "ording": 1257,
      "Äłreport": 1258,
      "erest": 1259,
      "osed": 1260,
      "ĠÄłr": 1261,
      "Äłconsid": 1262,
      "Äłcalled": 1263,
      "14": 1264,
      "ior": 1265,
      "Äłdid": 1266,
      "tt": 1267,
      "Äłthink": 1268,
      "ield": 1269,
      "ians": 1270,
      "ner": 1271,
      "Äłpublic": 1272,
      "ization": 1273,
      "Äładv": 1274,
      "Äłallow": 1275,
      "ĠÄłyou": 1276,
      ".,": 1277,
      "Äłret": 1278,
      "ev": 1279,
      "Ġ'": 1280,
      "itive": 1281,
      "ton": 1282,
      "alk": 1283,
      "arent": 1284,
      "ified": 1285,
      "ethod": 1286,
      "com": 1287,
      "atural": 1288,
      "ense": 1289,
      "ÃĤ": 1290,
      "Äłtem": 1291,
      "ertain": 1292,
      "ajor": 1293,
      "angu": 1294,
      "cing": 1295,
      "Äłstill": 1296,
      "ived": 1297,
      "less": 1298,
      "Äłmight": 1299,
      "ason": 1300,
      "ÄłWh": 1301,
      "aving": 1302,
      "Äłeduc": 1303,
      "ffic": 1304,
      "cial": 1305,
      "enef": 1306,
      "It": 1307,
      "ĠÄłO": 1308,
      "orth": 1309,
      "irc": 1310,
      "line": 1311,
      "ision": 1312,
      "lished": 1313,
      "Äłop": 1314,
      "Äłenergy": 1315,
      "me": 1316,
      "ime": 1317,
      "Äłbeh": 1318,
      "ently": 1319,
      "Äłchange": 1320,
      "ÄłThere": 1321,
      "Äłenvironment": 1322,
      "Äłlearn": 1323,
      "13": 1324,
      "bs": 1325,
      "ological": 1326,
      "ÄłThese": 1327,
      "Äłrisk": 1328,
      "ats": 1329,
      "atic": 1330,
      "Äłpract": 1331,
      "Äłfew": 1332,
      "ental": 1333,
      "resent": 1334,
      "Äłwant": 1335,
      "Äłiss": 1336,
      "Äłgu": 1337,
      "Äłgen": 1338,
      "Äłtyp": 1339,
      "ik": 1340,
      "lu": 1341,
      "agn": 1342,
      "ify": 1343,
      "ĠÄłcon": 1344,
      "Äłdon": 1345,
      "ÄłEng": 1346,
      "Äłbuild": 1347,
      "man": 1348,
      "ina": 1349,
      "Äłphys": 1350,
      "Äłimpro": 1351,
      "Äłappro": 1352,
      "ÄłYou": 1353,
      "crib": 1354,
      "ories": 1355,
      "Äłindividual": 1356,
      "ÄłAnd": 1357,
      "Äłplace": 1358,
      "Äłexample": 1359,
      "Äłproject": 1360,
      "ÄłÃ¢Ä¢Äº": 1361,
      "Ġ;": 1362,
      "oint": 1363,
      "Äłquest": 1364,
      "rodu": 1365,
      "Äłproduct": 1366,
      "Äłinclude": 1367,
      "Äłbre": 1368,
      "rist": 1369,
      "ients": 1370,
      "Äłpos": 1371,
      "ccess": 1372,
      "acc": 1373,
      "Äłsym": 1374,
      "Äłblood": 1375,
      "Äłident": 1376,
      "Äłpur": 1377,
      "ained": 1378,
      "ĠÄłtheir": 1379,
      "Äłchang": 1380,
      "Äłwrit": 1381,
      "illion": 1382,
      "ways": 1383,
      "Äłpass": 1384,
      "arc": 1385,
      "Äłpot": 1386,
      "ĠÄłwhich": 1387,
      "ills": 1388,
      "Äłwomen": 1389,
      "Äłmat": 1390,
      "Äłdisease": 1391,
      "11": 1392,
      "hor": 1393,
      "ware": 1394,
      "orld": 1395,
      "Äłprof": 1396,
      "Äłmet": 1397,
      ".\"": 1398,
      "ining": 1399,
      "ĠÄłle": 1400,
      "ected": 1401,
      "ource": 1402,
      "Äłplay": 1403,
      "Äłdevelopment": 1404,
      "Äłarea": 1405,
      "Äłanim": 1406,
      "ission": 1407,
      "Äłide": 1408,
      "Äłmil": 1409,
      "ÄłAd": 1410,
      "ĠÄłall": 1411,
      "ilar": 1412,
      "__": 1413,
      "Äłmaterial": 1414,
      "str": 1415,
      "Äłbest": 1416,
      "Äłcap": 1417,
      "rap": 1418,
      "amp": 1419,
      "gin": 1420,
      "ĠÄłIn": 1421,
      "Äłbas": 1422,
      "osp": 1423,
      "veral": 1424,
      "ank": 1425,
      "Äłdirect": 1426,
      "ends": 1427,
      "Äłpain": 1428,
      "Äłmove": 1429,
      "ograph": 1430,
      "ĠÄłim": 1431,
      "Äłlight": 1432,
      "ret": 1433,
      "Äłsl": 1434,
      "Äłwithout": 1435,
      "icle": 1436,
      "Äłhy": 1437,
      "ÄłIs": 1438,
      "uses": 1439,
      "ended": 1440,
      "Äłbecome": 1441,
      "oid": 1442,
      "Äłdem": 1443,
      "ailable": 1444,
      "ames": 1445,
      "ples": 1446,
      "'t": 1447,
      "par": 1448,
      "Äłve": 1449,
      "Äłanal": 1450,
      "idence": 1451,
      "ling": 1452,
      "ern": 1453,
      "ote": 1454,
      "Äłeng": 1455,
      "What": 1456,
      "ences": 1457,
      "Äłwithin": 1458,
      "Äłbelie": 1459,
      "Äłanother": 1460,
      "Äłmark": 1461,
      "Äłsit": 1462,
      "ÄłHowever": 1463,
      "Äłold": 1464,
      "Äłmus": 1465,
      "Äłsocial": 1466,
      "Äłtre": 1467,
      "ÄłUniversity": 1468,
      "Äłstand": 1469,
      "Äłcontrol": 1470,
      "Äłpresent": 1471,
      "Äłlearning": 1472,
      "Äłlaw": 1473,
      "pr": 1474,
      "Äłlow": 1475,
      "Äłpercent": 1476,
      "Äłimm": 1477,
      "Äłrest": 1478,
      "urther": 1479,
      "ĠÄłpl": 1480,
      "ogn": 1481,
      "olution": 1482,
      "ĠÄłthey": 1483,
      "--": 1484,
      "hy": 1485,
      "Äłproper": 1486,
      "Äłcult": 1487,
      "ots": 1488,
      "Äłorder": 1489,
      "ÄłDe": 1490,
      "stit": 1491,
      "imes": 1492,
      "Äłtimes": 1493,
      "Äłhere": 1494,
      "ledge": 1495,
      "25": 1496,
      "ĠÄład": 1497,
      "isc": 1498,
      "ÄłAmerican": 1499,
      "Äłgroup": 1500,
      "ole": 1501,
      "Äłopp": 1502,
      "abor": 1503,
      "min": 1504,
      "Äłprovide": 1505,
      "Äłhistory": 1506,
      "inc": 1507,
      "Äłinterest": 1508,
      "Äłoccur": 1509,
      "ator": 1510,
      "ÄłWhen": 1511,
      "Äłeconom": 1512,
      "be": 1513,
      "ÄłSp": 1514,
      "Äłmeas": 1515,
      "Äłcurrent": 1516,
      "Äłpossible": 1517,
      "ÄłCon": 1518,
      "ĠÄłk": 1519,
      "Äłant": 1520,
      "Äłhome": 1521,
      "ĠÄłwere": 1522,
      "Äłprogram": 1523,
      "Äłes": 1524,
      "anguage": 1525,
      "ĠA": 1526,
      "ither": 1527,
      "Äłtoo": 1528,
      "ards": 1529,
      "ificant": 1530,
      "ntil": 1531,
      "une": 1532,
      "Äłbenef": 1533,
      "Äłland": 1534,
      "Äłet": 1535,
      "ably": 1536,
      "ÄłRes": 1537,
      "though": 1538,
      "usiness": 1539,
      "ised": 1540,
      "Äłthings": 1541,
      "Äłperiod": 1542,
      "oks": 1543,
      "Äłair": 1544,
      "Äłfore": 1545,
      "Äłlast": 1546,
      "Äłspecies": 1547,
      "Äłkeep": 1548,
      "ystem": 1549,
      "ances": 1550,
      "ention": 1551,
      "Äłsaf": 1552,
      "Äłgovernment": 1553,
      "ÄłCol": 1554,
      "Äłwar": 1555,
      "Äłmajor": 1556,
      "Äłseveral": 1557,
      "Äłmean": 1558,
      "Äłmethod": 1559,
      "Äłtreatment": 1560,
      "ns": 1561,
      "Äłchar": 1562,
      "Äłparticular": 1563,
      "atory": 1564,
      "Äłindu": 1565,
      "Äłhig": 1566,
      "Äłfamily": 1567,
      "Äłwhe": 1568,
      "Äłgr": 1569,
      "Äłamount": 1570,
      "Äłperform": 1571,
      "Äłoper": 1572,
      "Äłpar": 1573,
      "Äłtop": 1574,
      "Äłnear": 1575,
      "af": 1576,
      "ĠThe": 1577,
      "ĠÄłU": 1578,
      "Äłreal": 1579,
      "Äłleg": 1580,
      "ploy": 1581,
      "Äłbetter": 1582,
      "ggest": 1583,
      "Äłfollowing": 1584,
      "Äłcal": 1585,
      "lement": 1586,
      "Äłhand": 1587,
      "ÄłUnited": 1588,
      "ditional": 1589,
      "Äłaffect": 1590,
      "Äłearly": 1591,
      "Äłcond": 1592,
      "ger": 1593,
      "Ġ).": 1594,
      "Äłche": 1595,
      "Äłbr": 1596,
      "Äłfin": 1597,
      "aken": 1598,
      "urope": 1599,
      "Äłscient": 1600,
      "ided": 1601,
      "Äłareas": 1602,
      "ÄłPh": 1603,
      "ears": 1604,
      "Äłothers": 1605,
      "Äłinvol": 1606,
      "If": 1607,
      "Äłlim": 1608,
      "uture": 1609,
      "ÄłSh": 1610,
      "ÄłCl": 1611,
      "eb": 1612,
      "ication": 1613,
      "Äłsay": 1614,
      "Äłproblems": 1615,
      "view": 1616,
      "Äłfoc": 1617,
      "Äłfour": 1618,
      "Äłdev": 1619,
      "not": 1620,
      "Äłmeans": 1621,
      "Ġ/": 1622,
      "Äłhapp": 1623,
      "Äłfeel": 1624,
      "ÄłEx": 1625,
      "ĠÄłcont": 1626,
      "rug": 1627,
      "Äłplant": 1628,
      "Äłproblem": 1629,
      "Äłcells": 1630,
      "Äłlittle": 1631,
      "ÄłStates": 1632,
      "aper": 1633,
      "por": 1634,
      "ths": 1635,
      "Äłable": 1636,
      "Äłrad": 1637,
      "Äłagainst": 1638,
      "ÄłQ": 1639,
      "Äłcost": 1640,
      "Äłcause": 1641,
      "ÄłTo": 1642,
      "ird": 1643,
      "ww": 1644,
      "ately": 1645,
      "ecess": 1646,
      "aps": 1647,
      "ression": 1648,
      "ned": 1649,
      "ÄłAt": 1650,
      "Äłsecond": 1651,
      "ĠÄłres": 1652,
      "Â¦": 1653,
      "ĠÄłwe": 1654,
      "earch": 1655,
      "Äłaccess": 1656,
      "Äłter": 1657,
      "etic": 1658,
      "Äłorig": 1659,
      "Äłnon": 1660,
      "ething": 1661,
      "We": 1662,
      "ym": 1663,
      "Äłnatural": 1664,
      "Äłel": 1665,
      "Äłcomput": 1666,
      "Äłsince": 1667,
      "Äłpress": 1668,
      "Äłamong": 1669,
      "Äłrun": 1670,
      "Äłcountry": 1671,
      "ones": 1672,
      "ĠÄłmore": 1673,
      "ek": 1674,
      "work": 1675,
      "ĠÄłwill": 1676,
      "ÄłÃ¢Ä¢Ä¶": 1677,
      "ĠÄłab": 1678,
      "ĠÄłhas": 1679,
      "cle": 1680,
      "rans": 1681,
      "Äłcase": 1682,
      "Äłhead": 1683,
      "Äłfree": 1684,
      "Äłlist": 1685,
      "ÄłPl": 1686,
      "ĠÄłhis": 1687,
      "ructure": 1688,
      "Äłavailable": 1689,
      "Äłfre": 1690,
      "ĠÄłinc": 1691,
      "face": 1692,
      "icult": 1693,
      "Äłlocal": 1694,
      "40": 1695,
      "Äłfac": 1696,
      "Äłvol": 1697,
      "ending": 1698,
      "Äłteac": 1699,
      "erc": 1700,
      "ĠÄłdo": 1701,
      "fric": 1702,
      "duct": 1703,
      "Äłprevent": 1704,
      "eral": 1705,
      "atch": 1706,
      "Äłintern": 1707,
      "ÄłCan": 1708,
      "198": 1709,
      "Äłobject": 1710,
      "ox": 1711,
      "ĠÄłsu": 1712,
      ",\"": 1713,
      "Äłcho": 1714,
      "Äłtru": 1715,
      "ĠÄłÃ¢Ä¢Ä¾": 1716,
      "idd": 1717,
      "ope": 1718,
      "Äłname": 1719,
      "Äłlet": 1720,
      "Äłassoci": 1721,
      "ruction": 1722,
      "aves": 1723,
      "Äłsw": 1724,
      "Äłsays": 1725,
      "ember": 1726,
      "Äłcome": 1727,
      "Äłopen": 1728,
      "Äłess": 1729,
      "ÄłSe": 1730,
      "Äłtechnology": 1731,
      "pecially": 1732,
      "ler": 1733,
      "vious": 1734,
      "Äłmult": 1735,
      "elf": 1736,
      "Äłview": 1737,
      "Äłflow": 1738,
      "Äłlikely": 1739,
      "Äłbook": 1740,
      "ortun": 1741,
      "ysis": 1742,
      "ene": 1743,
      "ane": 1744,
      "Äłconn": 1745,
      "ÄłGod": 1746,
      "ification": 1747,
      "Äłsignificant": 1748,
      "ĠÄłme": 1749,
      "Äłtype": 1750,
      "60": 1751,
      "cri": 1752,
      "Äłlo": 1753,
      "Äłsuggest": 1754,
      "Äłcreat": 1755,
      "agement": 1756,
      "Äłbro": 1757,
      "Äłbrain": 1758,
      "Äłvir": 1759,
      "icro": 1760,
      "obal": 1761,
      "Äłcertain": 1762,
      "Äłmen": 1763,
      "Äłturn": 1764,
      "Äłbi": 1765,
      "raw": 1766,
      "ribut": 1767,
      "Äłsystems": 1768,
      "ators": 1769,
      "Äłseem": 1770,
      "ÄłComm": 1771,
      "orts": 1772,
      "Äłenc": 1773,
      "fer": 1774,
      "Äłmaking": 1775,
      "Äłrece": 1776,
      "ĠS": 1777,
      "ured": 1778,
      "ape": 1779,
      "Äłfunction": 1780,
      "Äłcourse": 1781,
      "Äłage": 1782,
      "Äłuntil": 1783,
      "Äłtemper": 1784,
      "ÄłZ": 1785,
      "Äłdel": 1786,
      "let": 1787,
      "ilt": 1788,
      "ush": 1789,
      "Äłsuccess": 1790,
      "ÄłEn": 1791,
      "tain": 1792,
      "Äłput": 1793,
      "Äłdays": 1794,
      "asing": 1795,
      "Äłrele": 1796,
      "ored": 1797,
      "ÄłEurope": 1798,
      "aching": 1799,
      "gen": 1800,
      "most": 1801,
      "pos": 1802,
      "Äłpost": 1803,
      "Äłbased": 1804,
      "Äłfar": 1805,
      "aster": 1806,
      "Äłexperience": 1807,
      "As": 1808,
      "ĠÄłyour": 1809,
      "ique": 1810,
      "lo": 1811,
      "Äłsimilar": 1812,
      "Äłlevels": 1813,
      "Äłpolit": 1814,
      "Äłinvest": 1815,
      "ÄłOn": 1816,
      "Â©": 1817,
      "ream": 1818,
      "Äłcirc": 1819,
      "Äłtoday": 1820,
      "ray": 1821,
      "ĠÄłbut": 1822,
      "Äłgoing": 1823,
      "sy": 1824,
      "side": 1825,
      "ĠÄłother": 1826,
      "Äłfuture": 1827,
      "urch": 1828,
      "Äłyoung": 1829,
      "Äłvarious": 1830,
      "gether": 1831,
      "nal": 1832,
      "Äłcomb": 1833,
      "ĠÄłde": 1834,
      "Äłeducation": 1835,
      "Äłdue": 1836,
      "ilities": 1837,
      "Äłshort": 1838,
      "Äłpe": 1839,
      "Äłhard": 1840,
      "ÄłCent": 1841,
      "Äłobs": 1842,
      "Äłincrease": 1843,
      "pro": 1844,
      "ĠÄłK": 1845,
      "ott": 1846,
      "ively": 1847,
      "Äłimpact": 1848,
      "Äłconditions": 1849,
      "ches": 1850,
      "oot": 1851,
      "Äłbehav": 1852,
      "Äłgiven": 1853,
      "by": 1854,
      "bon": 1855,
      "iation": 1856,
      "ument": 1857,
      "oft": 1858,
      "ĠÄłcl": 1859,
      "Äłacross": 1860,
      "selves": 1861,
      "apt": 1862,
      "There": 1863,
      "ued": 1864,
      "ales": 1865,
      "rad": 1866,
      "ÄłWhat": 1867,
      "br": 1868,
      "ving": 1869,
      "ites": 1870,
      "omes": 1871,
      "Äłpopulation": 1872,
      "Â¢": 1873,
      "ols": 1874,
      "rag": 1875,
      "Äłprom": 1876,
      "ried": 1877,
      "Äłdiscuss": 1878,
      "Äłresults": 1879,
      "ateg": 1880,
      "197": 1881,
      "Äłspecific": 1882,
      "Äłsomething": 1883,
      "mit": 1884,
      "rim": 1885,
      "Äłconsum": 1886,
      "Äłlarg": 1887,
      "21": 1888,
      "aid": 1889,
      "ÄłChrist": 1890,
      "//": 1891,
      "ĠÄłun": 1892,
      "Äłdescrib": 1893,
      "Äłparent": 1894,
      "Äłbusiness": 1895,
      "Äłtext": 1896,
      "amm": 1897,
      "Äłleast": 1898,
      "ptoms": 1899,
      "Äłneeds": 1900,
      "Äłcreate": 1901,
      "ĠÄłalso": 1902,
      "oon": 1903,
      "ĠÄłCh": 1904,
      "24": 1905,
      "Äłcy": 1906,
      "iting": 1907,
      "ours": 1908,
      "Äłspecial": 1909,
      "Äłrespons": 1910,
      "Äłprofess": 1911,
      "Äłpast": 1912,
      "lection": 1913,
      "ÄłAll": 1914,
      "hern": 1915,
      "Äłalong": 1916,
      "erence": 1917,
      "ÄłNational": 1918,
      "ivity": 1919,
      "Äłusually": 1920,
      "Äłpatients": 1921,
      "ÄłTe": 1922,
      "ode": 1923,
      "Äłplants": 1924,
      "cul": 1925,
      "Äłfil": 1926,
      "Äłdam": 1927,
      "Äłlanguage": 1928,
      "Äłalways": 1929,
      "acy": 1930,
      "ormal": 1931,
      "ÄłMed": 1932,
      "Äłexist": 1933,
      "Äłabove": 1934,
      "Äłdeterm": 1935,
      "100": 1936,
      "etimes": 1937,
      "Äłheart": 1938,
      "Äłestab": 1939,
      "Äłchem": 1940,
      "Äłclear": 1941,
      "itor": 1942,
      "Äłlower": 1943,
      "chie": 1944,
      "alf": 1945,
      "thing": 1946,
      "Äłknowledge": 1947,
      "ER": 1948,
      "yn": 1949,
      "Äłlater": 1950,
      "ights": 1951,
      "Äłhigher": 1952,
      "SA": 1953,
      "Äłpub": 1954,
      "Äłmind": 1955,
      "ley": 1956,
      "Äłteam": 1957,
      "for": 1958,
      "iam": 1959,
      "ires": 1960,
      "ecause": 1961,
      "Äłterm": 1962,
      "olic": 1963,
      "istic": 1964,
      "Äłspace": 1965,
      "ÃĲ": 1966,
      "Äłsing": 1967,
      "Äłgre": 1968,
      "ung": 1969,
      "You": 1970,
      "Äłtogether": 1971,
      "Äłmar": 1972,
      "eter": 1973,
      "ÄłAfric": 1974,
      "Äłcancer": 1975,
      "ibility": 1976,
      "iple": 1977,
      "28": 1978,
      "Äłcrit": 1979,
      "Äłimprove": 1980,
      "For": 1981,
      "aut": 1982,
      "Äłtry": 1983,
      "ĠÄłV": 1984,
      "ĠÄłu": 1985,
      "Äłgive": 1986,
      "using": 1987,
      "ords": 1988,
      "Äłgrowth": 1989,
      "ĠÄłone": 1990,
      "Äłleft": 1991,
      "ĠÄłwho": 1992,
      "Äłwhy": 1993,
      "Äłwords": 1994,
      "ready": 1995,
      "aim": 1996,
      "Äłrole": 1997,
      "ohn": 1998,
      "Äłcomplete": 1999,
      "aring": 2000,
      "arth": 2001,
      "Äłbegin": 2002,
      "Äłworks": 2003,
      "Äłey": 2004,
      "amin": 2005,
      "ĠÄłhad": 2006,
      "epend": 2007,
      "oney": 2008,
      "Äłrequire": 2009,
      "Äłauthor": 2010,
      "Äłrepresent": 2011,
      "Äłwhether": 2012,
      "ÄłOr": 2013,
      "Äłdifficult": 2014,
      "Äłer": 2015,
      "Äłbir": 2016,
      "ÄłBe": 2017,
      "Äłapplic": 2018,
      "Äławay": 2019,
      "Äłnext": 2020,
      "mber": 2021,
      "unt": 2022,
      "reg": 2023,
      "augh": 2024,
      "Äłprim": 2025,
      "Äłphysical": 2026,
      "NA": 2027,
      "Ġ\"": 2028,
      "ĠÄłj": 2029,
      "ĠÄłen": 2030,
      "atures": 2031,
      "edi": 2032,
      "ival": 2033,
      "Äłcountries": 2034,
      "icial": 2035,
      "oman": 2036,
      "urity": 2037,
      "ivil": 2038,
      "Äłens": 2039,
      "Äłmodel": 2040,
      "Äłstrong": 2041,
      "Äłchanges": 2042,
      "Äłill": 2043,
      "Äłdiet": 2044,
      "ils": 2045,
      "Äłtypes": 2046,
      "ÄłEnglish": 2047,
      "Äłside": 2048,
      "Äłfurther": 2049,
      "Äłmot": 2050,
      "Äłkind": 2051,
      "Äłresearc": 2052,
      "ae": 2053,
      "yl": 2054,
      "ĠÄłper": 2055,
      "ĠÄłapp": 2056,
      "Äłdeath": 2057,
      "Äłenough": 2058,
      "23": 2059,
      "atter": 2060,
      "Äłcases": 2061,
      "Äłways": 2062,
      "Äłfield": 2063,
      "ÄłSo": 2064,
      "ÄłSome": 2065,
      "Äłdeg": 2066,
      "Äłbig": 2067,
      "Äłmillion": 2068,
      "ample": 2069,
      "ÄłRe": 2070,
      "order": 2071,
      "Äłmakes": 2072,
      "aces": 2073,
      "Äłnever": 2074,
      "Äłproduction": 2075,
      "sych": 2076,
      "rel": 2077,
      "Äłconcer": 2078,
      "ĠÄłout": 2079,
      "Äłmov": 2080,
      "roll": 2081,
      "Äłsubject": 2082,
      "Äłsite": 2083,
      "Äłask": 2084,
      "ĠÄłcomp": 2085,
      "sw": 2086,
      "Äłnecess": 2087,
      "fact": 2088,
      "ĠÄłcomm": 2089,
      "rict": 2090,
      "Äłcentury": 2091,
      "Äłkey": 2092,
      "ront": 2093,
      "Äłhaving": 2094,
      "Äłeff": 2095,
      "ĠÄłpart": 2096,
      "plic": 2097,
      "overed": 2098,
      "Äłespecially": 2099,
      "Äłsens": 2100,
      "lying": 2101,
      "Äłstat": 2102,
      "Äłchall": 2103,
      "ges": 2104,
      "ipp": 2105,
      "uation": 2106,
      "Ãł": 2107,
      "oll": 2108,
      "Äłstory": 2109,
      "ĠÄłSt": 2110,
      "Äłeffects": 2111,
      "oes": 2112,
      "rect": 2113,
      "ask": 2114,
      "Äłeither": 2115,
      "Äłpolic": 2116,
      "Äłcharacter": 2117,
      "iol": 2118,
      "ann": 2119,
      "Äłstep": 2120,
      "Äłstudies": 2121,
      "When": 2122,
      "ober": 2123,
      "reme": 2124,
      "ety": 2125,
      "utes": 2126,
      "ows": 2127,
      "27": 2128,
      "St": 2129,
      "ĠÄłop": 2130,
      "ĠÄłqu": 2131,
      "Äłdrug": 2132,
      "Äłbelow": 2133,
      "Äłopt": 2134,
      "Äłscience": 2135,
      "leep": 2136,
      "utions": 2137,
      "urb": 2138,
      "Äłonce": 2139,
      "Äłprob": 2140,
      "aced": 2141,
      "ison": 2142,
      "Äłclose": 2143,
      "Äłworking": 2144,
      "Äłcommunity": 2145,
      "cell": 2146,
      "Ãİ": 2147,
      "Äłgeneral": 2148,
      "Äłactivity": 2149,
      "ĠÄłthem": 2150,
      "ables": 2151,
      "ÄłBl": 2152,
      "Äłrelations": 2153,
      "Äłincreased": 2154,
      "Äłparticip": 2155,
      "Äłreduce": 2156,
      "tal": 2157,
      "Äłrange": 2158,
      "Äłpred": 2159,
      "Äłphot": 2160,
      "Äłprotect": 2161,
      "Äłfull": 2162,
      "osis": 2163,
      "Äłresources": 2164,
      "ĠÄłbeen": 2165,
      "Äłmedical": 2166,
      "Äłwr": 2167,
      "Äłfail": 2168,
      "Äłconsider": 2169,
      "Äłline": 2170,
      "Äłground": 2171,
      "Äłcontain": 2172,
      "Äłproducts": 2173,
      "hib": 2174,
      "like": 2175,
      "ĠÄłup": 2176,
      "ening": 2177,
      "ibr": 2178,
      "wards": 2179,
      "22": 2180,
      "Äłele": 2181,
      "ournal": 2182,
      "ÄłGerm": 2183,
      "enn": 2184,
      "iding": 2185,
      "ÄłAb": 2186,
      "itud": 2187,
      "Äłnet": 2188,
      "ÄłWorld": 2189,
      "ults": 2190,
      "Äłclimate": 2191,
      "Äłvalue": 2192,
      "Äłsymptoms": 2193,
      "Äłpressure": 2194,
      "ze": 2195,
      "ened": 2196,
      "Äłcity": 2197,
      "Äłquality": 2198,
      "fficient": 2199,
      "ÄłIm": 2200,
      "Äłalready": 2201,
      "Äłbecame": 2202,
      "Äłanimals": 2203,
      "ĠC": 2204,
      "Äłrate": 2205,
      "ÄłDr": 2206,
      "aging": 2207,
      "ÄłStud": 2208,
      "Äłblack": 2209,
      "Äłskills": 2210,
      "Äłquestions": 2211,
      "Äłsum": 2212,
      "org": 2213,
      "Äłwide": 2214,
      "ips": 2215,
      "Äłwhole": 2216,
      "Äłhold": 2217,
      "Äłhouse": 2218,
      "Äłlive": 2219,
      "usion": 2220,
      "illed": 2221,
      "Äłhistor": 2222,
      "hing": 2223,
      "Ġ?": 2224,
      "Äłfri": 2225,
      "Äłred": 2226,
      "ÄłBrit": 2227,
      "aged": 2228,
      "ressed": 2229,
      "Äłquick": 2230,
      "itary": 2231,
      "Äłfund": 2232,
      "Äłconcept": 2233,
      "ensive": 2234,
      "Äłpotential": 2235,
      "Äłindust": 2236,
      "Äłtell": 2237,
      "Äłmass": 2238,
      "ctor": 2239,
      "ĠÄłsp": 2240,
      "Äłsurface": 2241,
      "val": 2242,
      "ĠÄłthan": 2243,
      "Äłwind": 2244,
      "ÄłBy": 2245,
      "ĠÄłmay": 2246,
      "alls": 2247,
      "Äłword": 2248,
      "Äłmeet": 2249,
      "Äłemploy": 2250,
      "Äłinflu": 2251,
      "Äłissues": 2252,
      "mb": 2253,
      "oles": 2254,
      "ounds": 2255,
      "Äłprovides": 2256,
      "Äłarticle": 2257,
      "ÄłWar": 2258,
      "ÄłThat": 2259,
      "Äłassess": 2260,
      "Äłskin": 2261,
      "ai": 2262,
      "Äłinit": 2263,
      "ster": 2264,
      "ĠÄłthere": 2265,
      "oph": 2266,
      "Äłrather": 2267,
      "izing": 2268,
      "Äłrecomm": 2269,
      "Äłsingle": 2270,
      "put": 2271,
      "onse": 2272,
      "atives": 2273,
      "ÄłWith": 2274,
      "To": 2275,
      "ule": 2276,
      "vey": 2277,
      "erved": 2278,
      "26": 2279,
      "eds": 2280,
      "Äłreally": 2281,
      "urs": 2282,
      "rown": 2283,
      "Äłaccording": 2284,
      "bo": 2285,
      "nces": 2286,
      "Äłfish": 2287,
      "ider": 2288,
      "ender": 2289,
      "ÄłIntern": 2290,
      "Äłhowever": 2291,
      "Äłaccount": 2292,
      "Äłthought": 2293,
      "Äłnut": 2294,
      "rams": 2295,
      "ĠÄłthese": 2296,
      "ume": 2297,
      "Äłweight": 2298,
      "Äłgroups": 2299,
      "Äłmarket": 2300,
      "iddle": 2301,
      "An": 2302,
      "Äłver": 2303,
      "Äłachie": 2304,
      "Äłcut": 2305,
      "Äłneg": 2306,
      "Äłrecogn": 2307,
      "sp": 2308,
      "Äłz": 2309,
      "Äłtaken": 2310,
      "Äłsize": 2311,
      "chan": 2312,
      "Äłsure": 2313,
      "Äłlot": 2314,
      "Äłloss": 2315,
      "Äłabs": 2316,
      "Äłpolitical": 2317,
      "Äłpaper": 2318,
      "lean": 2319,
      "igure": 2320,
      "ÄłCal": 2321,
      "ections": 2322,
      "Äłcomes": 2323,
      "ÄłHow": 2324,
      "Äładdition": 2325,
      "Äłrelig": 2326,
      "based": 2327,
      "ĠÄłpre": 2328,
      "Äłdeveloped": 2329,
      "Äłann": 2330,
      "istance": 2331,
      "istory": 2332,
      "ĠÄłso": 2333,
      "Äłspe": 2334,
      "Äłsoil": 2335,
      "reng": 2336,
      "Äłeffective": 2337,
      "Äłavoid": 2338,
      "Äłactivities": 2339,
      "Äłcover": 2340,
      "Äłstudent": 2341,
      "ĠÄłstud": 2342,
      "ien": 2343,
      "ÄłCar": 2344,
      "Äłintrodu": 2345,
      "Äłassociated": 2346,
      "Äłresearchers": 2347,
      "AT": 2348,
      "Äłcat": 2349,
      "Äłreason": 2350,
      "sequ": 2351,
      "Äłnational": 2352,
      "://": 2353,
      "ĠÄłtime": 2354,
      "alt": 2355,
      "Äłdone": 2356,
      "acks": 2357,
      "ricult": 2358,
      "lected": 2359,
      "Äłrequired": 2360,
      "Äłentire": 2361,
      "Äłbuilding": 2362,
      "minist": 2363,
      "Äłpublished": 2364,
      "Â¤": 2365,
      "ĠÄłits": 2366,
      "Äłdig": 2367,
      "ÄłAmerica": 2368,
      "Äłcreated": 2369,
      "uel": 2370,
      "inter": 2371,
      "anced": 2372,
      "estern": 2373,
      "ÄłAss": 2374,
      "empt": 2375,
      "uman": 2376,
      "ĠÄłcons": 2377,
      "artment": 2378,
      "Äłevidence": 2379,
      "Äłflu": 2380,
      "Äłmaterials": 2381,
      "How": 2382,
      "oor": 2383,
      "ĠÄłac": 2384,
      "ese": 2385,
      "lege": 2386,
      "vere": 2387,
      "verage": 2388,
      "ump": 2389,
      "ĠÄłcom": 2390,
      "Äłevent": 2391,
      "iction": 2392,
      "Ġ),": 2393,
      "Äłself": 2394,
      "ÄłShe": 2395,
      "adem": 2396,
      "ÄłRep": 2397,
      "astic": 2398,
      "Äłengine": 2399,
      "dom": 2400,
      "light": 2401,
      "ĠÄłth": 2402,
      "Äłtw": 2403,
      "Äłsource": 2404,
      "Äłcannot": 2405,
      "ÄłNorth": 2406,
      "ropri": 2407,
      "Äłfamil": 2408,
      "ply": 2409,
      "Äłfarm": 2410,
      "Äłdom": 2411,
      "Äłliving": 2412,
      "iment": 2413,
      "Äłitself": 2414,
      "Äłthemselves": 2415,
      "Äłrecent": 2416,
      "Äłindic": 2417,
      "aff": 2418,
      "Äłability": 2419,
      "ÄłOne": 2420,
      "Äłthroughout": 2421,
      "Äłpersonal": 2422,
      "Äłpractice": 2423,
      "Äłquestion": 2424,
      "ID": 2425,
      "yp": 2426,
      "yle": 2427,
      "Äłsent": 2428,
      "ÄłAm": 2429,
      "ĠÄłwhen": 2430,
      "Äłcoll": 2431,
      "Äłmembers": 2432,
      "Äłidea": 2433,
      "ma": 2434,
      "Äłgreen": 2435,
      "ÄłMay": 2436,
      "Äłseen": 2437,
      "nown": 2438,
      "Äłposition": 2439,
      "Äłopportun": 2440,
      "het": 2441,
      "Äłpers": 2442,
      "Äłport": 2443,
      "Äłansw": 2444,
      "Äłwhite": 2445,
      "Äłsimple": 2446,
      "...": 2447,
      "hood": 2448,
      "Äłpath": 2449,
      "Äłdoc": 2450,
      "196": 2451,
      "ney": 2452,
      "ÄłHealth": 2453,
      "rapy": 2454,
      "70": 2455,
      "ext": 2456,
      "Äłcondition": 2457,
      "ÄłMan": 2458,
      "80": 2459,
      "erve": 2460,
      "ÄłSc": 2461,
      "Äłneeded": 2462,
      "uck": 2463,
      "Äłunderstanding": 2464,
      "Äłbenefits": 2465,
      "Äłcomputer": 2466,
      "pose": 2467,
      "ĠÄłover": 2468,
      "ÄłSouth": 2469,
      "ÄłUS": 2470,
      "lt": 2471,
      "Äłglobal": 2472,
      "Äłdest": 2473,
      "Äłdog": 2474,
      "Äłstress": 2475,
      "ief": 2476,
      "Äłmonths": 2477,
      "ores": 2478,
      "Ġt": 2479,
      "ÄłSoc": 2480,
      "Äłfrequ": 2481,
      "ES": 2482,
      "Äłfru": 2483,
      "Äłprote": 2484,
      "Äłsun": 2485,
      "ĠÄłbet": 2486,
      "Äłweek": 2487,
      "ged": 2488,
      "sc": 2489,
      "abit": 2490,
      "ÄłLe": 2491,
      "action": 2492,
      "Äłconsidered": 2493,
      "Äłapproach": 2494,
      "Äłrelationship": 2495,
      "Äłfive": 2496,
      "Äłlay": 2497,
      "amed": 2498,
      "ccording": 2499,
      "Äłarch": 2500,
      "Äłrelated": 2501,
      "Äłsociety": 2502,
      "ronic": 2503,
      "Äłanalysis": 2504,
      "Wh": 2505,
      "aling": 2506,
      "ÄłAust": 2507,
      "ada": 2508,
      "off": 2509,
      "Äłcontent": 2510,
      "aily": 2511,
      "Äłcolor": 2512,
      "Äłut": 2513,
      "apan": 2514,
      "eneral": 2515,
      "Äłdetail": 2516,
      "Äłcomplex": 2517,
      ".)": 2518,
      "Ġ3": 2519,
      "Äłpay": 2520,
      "ervation": 2521,
      "2012": 2522,
      "Äłreturn": 2523,
      "IN": 2524,
      "Äłstates": 2525,
      "abet": 2526,
      "ĠÄłIt": 2527,
      "wh": 2528,
      "erous": 2529,
      "Äłsoft": 2530,
      "ising": 2531,
      "room": 2532,
      "ÄłAg": 2533,
      "ades": 2534,
      "istics": 2535,
      "Äłtraining": 2536,
      "Äłhealthy": 2537,
      "Äłmedic": 2538,
      "ĠÄłabout": 2539,
      "Äłtalk": 2540,
      "Äłcop": 2541,
      "ÄłAct": 2542,
      "Äłrights": 2543,
      "Äłservice": 2544,
      "Äłtemperature": 2545,
      "ĠÄłunder": 2546,
      "lies": 2547,
      "Äłmicro": 2548,
      "Äłcompany": 2549,
      "my": 2550,
      "Äłsleep": 2551,
      "Äłmor": 2552,
      "Äłhalf": 2553,
      "udd": 2554,
      "ĠÄłsome": 2555,
      "ĠÄłdiff": 2556,
      "ildren": 2557,
      "issions": 2558,
      "vention": 2559,
      "new": 2560,
      "sh": 2561,
      "Äłoil": 2562,
      "asc": 2563,
      "ÄłGe": 2564,
      "Äłregion": 2565,
      "Äłfactors": 2566,
      "ls": 2567,
      "vest": 2568,
      "Äłlives": 2569,
      "Äłyet": 2570,
      "ÄłJohn": 2571,
      "Äłsurv": 2572,
      "AR": 2573,
      "ÄłState": 2574,
      "Äłeasy": 2575,
      "Äłfocus": 2576,
      "Äłchemical": 2577,
      "mon": 2578,
      "part": 2579,
      "Ä£": 2580,
      "isions": 2581,
      "alled": 2582,
      "Äłsepar": 2583,
      "ÄłWhile": 2584,
      "45": 2585,
      "lor": 2586,
      "ners": 2587,
      "ufact": 2588,
      "Â°": 2589,
      "ĠB": 2590,
      "Äłrepl": 2591,
      "Äłgas": 2592,
      "Äłonline": 2593,
      "Äłconduct": 2594,
      "ĠÄłact": 2595,
      "Äłhelps": 2596,
      "29": 2597,
      "hold": 2598,
      "orks": 2599,
      "ari": 2600,
      "Äłbur": 2601,
      "Äłalmost": 2602,
      "ĠÄłag": 2603,
      "rior": 2604,
      "Äłuses": 2605,
      "Äłincreasing": 2606,
      "Äładdress": 2607,
      "Äłshows": 2608,
      "Äłpopular": 2609,
      "Äłwriting": 2610,
      "Äłparents": 2611,
      "ĠÄłuse": 2612,
      "arr": 2613,
      "Äłstructure": 2614,
      "Äłprop": 2615,
      "ĠÄłwork": 2616,
      "2010": 2617,
      "Äłcheck": 2618,
      "verse": 2619,
      "ĠÄłdes": 2620,
      "Äłproduce": 2621,
      "Äłbreak": 2622,
      "Äłetc": 2623,
      "Ch": 2624,
      "oly": 2625,
      "Äłbar": 2626,
      "Äłbegan": 2627,
      "ĠÄłpeople": 2628,
      "Äłsuper": 2629,
      "Äłsuff": 2630,
      "rought": 2631,
      "Äłbuilt": 2632,
      "Äłcarbon": 2633,
      "imately": 2634,
      "rast": 2635,
      "ĠP": 2636,
      "ederal": 2637,
      "ulations": 2638,
      "ops": 2639,
      "Äłcontact": 2640,
      "____": 2641,
      "Äłnecessary": 2642,
      "inary": 2643,
      "Äłservices": 2644,
      "Äłdesigned": 2645,
      "Ġ1": 2646,
      "Äłthing": 2647,
      "Äłlab": 2648,
      "ÄłComp": 2649,
      "ĠÄłind": 2650,
      "Äłprevious": 2651,
      "Äłsubst": 2652,
      "Äłcauses": 2653,
      "Äłmeasure": 2654,
      "cies": 2655,
      "Äłtook": 2656,
      "Äłlove": 2657,
      "set": 2658,
      "Äłstreng": 2659,
      "elt": 2660,
      "Äłparts": 2661,
      "fully": 2662,
      "ribution": 2663,
      "pid": 2664,
      "ÃĦ": 2665,
      "Äłvers": 2666,
      "ery": 2667,
      "Äłfall": 2668,
      "ĠÄłwould": 2669,
      "Äłheat": 2670,
      "ĠÄłinto": 2671,
      "ÄłJew": 2672,
      "ĠÄłrel": 2673,
      "Äłrecord": 2674,
      "Äłfeed": 2675,
      "lands": 2676,
      "Äłsometimes": 2677,
      "stitute": 2678,
      "Äłsense": 2679,
      "ister": 2680,
      "Äłcr": 2681,
      "Äłfat": 2682,
      "Äłlonger": 2683,
      "Äłissue": 2684,
      "Äłeconomic": 2685,
      "Äłmeaning": 2686,
      "Al": 2687,
      "Äłtarg": 2688,
      "itation": 2689,
      "Äłfire": 2690,
      "lease": 2691,
      "Äłever": 2692,
      "Äłge": 2693,
      "ÄłEarth": 2694,
      "Äłjob": 2695,
      "Äłarg": 2696,
      "rench": 2697,
      "Äłupon": 2698,
      "Äłemot": 2699,
      "Äłindividuals": 2700,
      "ĠÃ¢Ä¢Ä¿": 2701,
      "Äłharm": 2702,
      "Äłlink": 2703,
      "Äłarr": 2704,
      "ttp": 2705,
      "con": 2706,
      "ÃĻ": 2707,
      "ĠÄłem": 2708,
      "Äłaction": 2709,
      "irm": 2710,
      "Äłexc": 2711,
      "Äłexerc": 2712,
      "ideo": 2713,
      "Äłconsist": 2714,
      "2009": 2715,
      "Äłstandard": 2716,
      "Äłparticularly": 2717,
      "Äłscientists": 2718,
      "vant": 2719,
      "iter": 2720,
      "atively": 2721,
      "ÄłIndia": 2722,
      "Äłindustry": 2723,
      "rew": 2724,
      "ads": 2725,
      "Äłactually": 2726,
      "2013": 2727,
      "II": 2728,
      "lex": 2729,
      "Ġ.,": 2730,
      "ÄłMar": 2731,
      "elling": 2732,
      "Äłmanagement": 2733,
      "Äłremov": 2734,
      "Äłvari": 2735,
      "Äłmovement": 2736,
      "gar": 2737,
      "Äłtaking": 2738,
      "icles": 2739,
      "Äłsex": 2740,
      "ĠÄłno": 2741,
      "90": 2742,
      "iency": 2743,
      "Äłbring": 2744,
      "Äłnature": 2745,
      "Äłnormal": 2746,
      "uth": 2747,
      "ulate": 2748,
      "ems": 2749,
      "Äłbehavior": 2750,
      "Äłcame": 2751,
      "Äłbacter": 2752,
      "ctions": 2753,
      "ille": 2754,
      "oming": 2755,
      "Äłrev": 2756,
      "Äłenvironmental": 2757,
      "ography": 2758,
      "right": 2759,
      "uly": 2760,
      "ancy": 2761,
      "ĠÄłint": 2762,
      "Äłforest": 2763,
      "35": 2764,
      "att": 2765,
      "ĠÄłdis": 2766,
      "Äłspread": 2767,
      "ÄłChina": 2768,
      "Äłpositive": 2769,
      "ched": 2770,
      "mp": 2771,
      "Äłsat": 2772,
      "Äłslow": 2773,
      "Äłtotal": 2774,
      "irit": 2775,
      "ÄłSchool": 2776,
      "term": 2777,
      "Äłcompet": 2778,
      "Äłappear": 2779,
      "Äłmodern": 2780,
      "Äłteachers": 2781,
      "Äłdamage": 2782,
      "uary": 2783,
      "Äłconcent": 2784,
      "Äłdeb": 2785,
      "Äłreading": 2786,
      "Äłmaintain": 2787,
      "Äłidentify": 2788,
      "ropriate": 2789,
      "bor": 2790,
      "ging": 2791,
      "ties": 2792,
      "ĠÄłam": 2793,
      "ĠÄłThis": 2794,
      "Äłlif": 2795,
      "ension": 2796,
      "Äłregular": 2797,
      "Äłschools": 2798,
      "Äłchalleng": 2799,
      "overy": 2800,
      "rated": 2801,
      "ĠM": 2802,
      "ĠÄłob": 2803,
      "esus": 2804,
      "edia": 2805,
      "ÄłCont": 2806,
      "ÄłPr": 2807,
      "osition": 2808,
      "ĠÄłtwo": 2809,
      "Äłcaused": 2810,
      "Äłliter": 2811,
      "iot": 2812,
      "Äłste": 2813,
      "ĠÄłfirst": 2814,
      "2008": 2815,
      "Äłpriv": 2816,
      "Äłregard": 2817,
      "Äłreported": 2818,
      "Äłsafety": 2819,
      "uk": 2820,
      "ĠÄłif": 2821,
      "ancial": 2822,
      "ÄłCO": 2823,
      "ÄłDep": 2824,
      "velopment": 2825,
      "ĠÄłonly": 2826,
      "Äłremain": 2827,
      "Äłvariety": 2828,
      "cript": 2829,
      "Äłencou": 2830,
      "Äłensure": 2831,
      "ÃĻÄ": 2832,
      "ele": 2833,
      "mar": 2834,
      "inks": 2835,
      "ington": 2836,
      "Äłinj": 2837,
      "Äłlack": 2838,
      "raft": 2839,
      "ÄłSec": 2840,
      "Äłconc": 2841,
      "Äłrul": 2842,
      "Äłdoing": 2843,
      "Äłhumans": 2844,
      "On": 2845,
      "ĠÄłass": 2846,
      "inally": 2847,
      "iles": 2848,
      "cean": 2849,
      "ÄłGu": 2850,
      "ĠÄłreg": 2851,
      "Äłfoods": 2852,
      "uge": 2853,
      "ĠÄłour": 2854,
      "isms": 2855,
      "Äłmoney": 2856,
      "Äłforms": 2857,
      "Äłstop": 2858,
      "Äłvit": 2859,
      "Äłincludes": 2860,
      "Äłattention": 2861,
      "Äłbooks": 2862,
      "Äłcontinue": 2863,
      "Äłprimary": 2864,
      "abetes": 2865,
      "But": 2866,
      "Äłtax": 2867,
      "anies": 2868,
      "Äłclean": 2869,
      "ÄłSu": 2870,
      "ÄłPre": 2871,
      "ĠÄłsub": 2872,
      "ĠÄłman": 2873,
      "Äłoutside": 2874,
      "Äłaccept": 2875,
      "Äłresponse": 2876,
      "Äłbasic": 2877,
      "ius": 2878,
      "itiz": 2879,
      "umb": 2880,
      "Äłviol": 2881,
      "Äłinteg": 2882,
      "avy": 2883,
      "ÄłYork": 2884,
      "Äłanimal": 2885,
      "Äłtrue": 2886,
      "IS": 2887,
      "che": 2888,
      "ÄłX": 2889,
      "ises": 2890,
      "Äłpsych": 2891,
      "Äłemer": 2892,
      "Äłlog": 2893,
      "ÄłAfter": 2894,
      "aches": 2895,
      "Äłvacc": 2896,
      "ÄłHis": 2897,
      "ĠÄłmost": 2898,
      "ipment": 2899,
      "ĠÄłrec": 2900,
      "Äłprovided": 2901,
      "Äłdeveloping": 2902,
      "pril": 2903,
      "Äłterms": 2904,
      "fect": 2905,
      "Äłsources": 2906,
      "ana": 2907,
      "Äłeat": 2908,
      "Äłreview": 2909,
      "idge": 2910,
      "ÄłPer": 2911,
      "ĠÄłform": 2912,
      "duc": 2913,
      "Äłclaim": 2914,
      "Äłproduced": 2915,
      "Äłdiagn": 2916,
      "Äłstarted": 2917,
      "Äłsafe": 2918,
      "AN": 2919,
      "come": 2920,
      "haps": 2921,
      "ĠD": 2922,
      "ÄłApp": 2923,
      "Äłshown": 2924,
      "Äłpoll": 2925,
      "Äłvisit": 2926,
      "ĠÄłUn": 2927,
      "nov": 2928,
      "pite": 2929,
      "Äłhours": 2930,
      "ilos": 2931,
      "ĠÄłoff": 2932,
      "Äłpoor": 2933,
      "ĠÄłHe": 2934,
      "ĠÄłatt": 2935,
      "ength": 2936,
      "Äłmusic": 2937,
      "Äłinvolved": 2938,
      "ceed": 2939,
      "iforn": 2940,
      "ached": 2941,
      "iber": 2942,
      "Äłteaching": 2943,
      "Äłevents": 2944,
      "Äłfeet": 2945,
      "Äłextreme": 2946,
      "itude": 2947,
      "Äłquickly": 2948,
      "inated": 2949,
      "Äłwild": 2950,
      "rage": 2951,
      "erent": 2952,
      "ÄłPar": 2953,
      "osing": 2954,
      "osure": 2955,
      "Äłgenerally": 2956,
      "Äłgrowing": 2957,
      "Äłhyd": 2958,
      "ÄłQu": 2959,
      "):": 2960,
      "OR": 2961,
      "ĠÄłro": 2962,
      "ĠÄłany": 2963,
      "olar": 2964,
      "Äłcompon": 2965,
      "rate": 2966,
      "Ġ4": 2967,
      "Äłpage": 2968,
      "Äłimage": 2969,
      "hens": 2970,
      "ÄłKing": 2971,
      "Äłrespect": 2972,
      "Äłgreater": 2973,
      "Äłprobably": 2974,
      "ha": 2975,
      "oke": 2976,
      "arily": 2977,
      "Äłtools": 2978,
      "Äłdraw": 2979,
      "ÄłInt": 2980,
      "unity": 2981,
      "2011": 2982,
      "Äłinfection": 2983,
      "One": 2984,
      "gram": 2985,
      "lied": 2986,
      "onstr": 2987,
      "Äłfem": 2988,
      "Äłthreat": 2989,
      "Äłproced": 2990,
      "umber": 2991,
      "ÄłFran": 2992,
      "actions": 2993,
      "Äłuseful": 2994,
      "inking": 2995,
      "lation": 2996,
      "ĠÃ¢Ä¢Äµ": 2997,
      "imal": 2998,
      "ĠÄłsuch": 2999,
      "ustom": 3000,
      "Äłimplement": 3001,
      "ĠÄłlike": 3002,
      "Äłunique": 3003,
      "Äłgetting": 3004,
      "Äłsimply": 3005,
      "Äłdoesn": 3006,
      "Äłmatter": 3007,
      "iar": 3008,
      "joy": 3009,
      "lier": 3010,
      "uild": 3011,
      "ony": 3012,
      "Äłmental": 3013,
      "ÄłCo": 3014,
      "ÄłMore": 3015,
      "ÄłNo": 3016,
      "Äłspeed": 3017,
      "ÄłJapan": 3018,
      "Äłmanufact": 3019,
      "Äłmechan": 3020,
      "Äłprec": 3021,
      "ype": 3022,
      "asons": 3023,
      "imum": 3024,
      "ÄłScience": 3025,
      "ĠÄłbl": 3026,
      "Äłearth": 3027,
      "undred": 3028,
      "ÄłBritish": 3029,
      "ground": 3030,
      "ĠF": 3031,
      "inct": 3032,
      "Äłaverage": 3033,
      "Äłcru": 3034,
      "Äłcamp": 3035,
      "aly": 3036,
      "Äłbal": 3037,
      "ÄłMe": 3038,
      "ĠÄłmany": 3039,
      "ĠÄłwhat": 3040,
      "ÄłEuropean": 3041,
      "ÄłAustral": 3042,
      "ifornia": 3043,
      "go": 3044,
      "ming": 3045,
      "ĠÄłY": 3046,
      "Äłmach": 3047,
      "Äłdiv": 3048,
      "Äłlate": 3049,
      "urrent": 3050,
      "ÄłCount": 3051,
      "Äłmedia": 3052,
      "Äłelectric": 3053,
      "Äłoriginal": 3054,
      "Äłnetwork": 3055,
      "Äłspeak": 3056,
      "Äłmess": 3057,
      "Äłnuc": 3058,
      "Äłwebs": 3059,
      "Äłincluded": 3060,
      "Äłseries": 3061,
      "Äłeasily": 3062,
      "Äłessential": 3063,
      "cil": 3064,
      "Äłwarm": 3065,
      "Äłpict": 3066,
      "Äłbab": 3067,
      "Äłface": 3068,
      "Äłdang": 3069,
      "Äłled": 3070,
      "resident": 3071,
      "ugust": 3072,
      "ÄłAfrica": 3073,
      "rs": 3074,
      "Ġ2": 3075,
      "erg": 3076,
      "Äłrout": 3077,
      "Äłprint": 3078,
      "Äłcorrect": 3079,
      "back": 3080,
      "mission": 3081,
      "rance": 3082,
      "ying": 3083,
      "Â¼": 3084,
      "Äłir": 3085,
      "Äłful": 3086,
      "Äłnight": 3087,
      "igation": 3088,
      "Äłsust": 3089,
      "ĠÄłneed": 3090,
      "Äłpattern": 3091,
      "Äłrefer": 3092,
      "useum": 3093,
      "ibrary": 3094,
      "hest": 3095,
      "Äłfa": 3096,
      "Äłshare": 3097,
      "Äłdispl": 3098,
      "orders": 3099,
      "Äłserious": 3100,
      "ĠÄłinclud": 3101,
      "Äłlargest": 3102,
      "Äłestablished": 3103,
      "Äłtarget": 3104,
      "Äłcoun": 3105,
      "entially": 3106,
      "ÄłHar": 3107,
      "Äłtherefore": 3108,
      "Äłtransport": 3109,
      "ON": 3110,
      "Äłaim": 3111,
      "Äłsound": 3112,
      "Äłsix": 3113,
      "omb": 3114,
      "ÄłMost": 3115,
      "ÄłPart": 3116,
      "ĠÄłhow": 3117,
      "ought": 3118,
      "Äłminutes": 3119,
      "Äłallows": 3120,
      "ÄłResearch": 3121,
      "Äłmethods": 3122,
      "33": 3123,
      "fess": 3124,
      "mall": 3125,
      "Äłi": 3126,
      "ÄłÃĤ": 3127,
      "ĠÄłacc": 3128,
      "ĠÄłspec": 3129,
      "2015": 3130,
      "coh": 3131,
      "ror": 3132,
      "Äłfast": 3133,
      "Äłfront": 3134,
      "Äłdou": 3135,
      "ift": 3136,
      "ÄłDes": 3137,
      "Äłwaste": 3138,
      "Äłdeep": 3139,
      "ogen": 3140,
      "apter": 3141,
      "Äłkids": 3142,
      "ĠÄłnew": 3143,
      "Äłattempt": 3144,
      "Äłdirectly": 3145,
      "rition": 3146,
      "yond": 3147,
      "Äłtree": 3148,
      "Äłsus": 3149,
      "itect": 3150,
      "Äłdaily": 3151,
      "Äłaltern": 3152,
      "illiam": 3153,
      "ĠÄłsystem": 3154,
      "Äłsoon": 3155,
      "inese": 3156,
      "Äłnumbers": 3157,
      "Äłmultiple": 3158,
      "ĠÄłTh": 3159,
      "ino": 3160,
      "Äłmagn": 3161,
      "urg": 3162,
      "illing": 3163,
      "ields": 3164,
      "Äładded": 3165,
      "Äłbelieve": 3166,
      "www": 3167,
      "cription": 3168,
      "Äłpolicy": 3169,
      "31": 3170,
      "iers": 3171,
      "Äłwood": 3172,
      "Äłexact": 3173,
      "ĠÄłinf": 3174,
      "Äłleaves": 3175,
      "ologies": 3176,
      "Äłtravel": 3177,
      "Äłacid": 3178,
      "Äłindepend": 3179,
      "ĠÄłprov": 3180,
      "Äłextra": 3181,
      "Äłsecurity": 3182,
      "ÄłAlthough": 3183,
      "Äłdiseases": 3184,
      "Äłtrees": 3185,
      "Äłinternational": 3186,
      "ED": 3187,
      "fort": 3188,
      "Äłsil": 3189,
      "itis": 3190,
      "aries": 3191,
      "Äłnation": 3192,
      "ellow": 3193,
      "ÄłJan": 3194,
      "Äłtraditional": 3195,
      "Äłago": 3196,
      "Äłpatient": 3197,
      "Äłprograms": 3198,
      "iques": 3199,
      "Äłmilitary": 3200,
      "Äłanaly": 3201,
      "ÄłCenter": 3202,
      "lin": 3203,
      "water": 3204,
      "ĠÄłus": 3205,
      "inate": 3206,
      "Äłsqu": 3207,
      "edic": 3208,
      "oud": 3209,
      "Äłhor": 3210,
      "Äłlabor": 3211,
      "ÄłHer": 3212,
      "avor": 3213,
      "Äłoffer": 3214,
      "Äłgoal": 3215,
      "Äłdefin": 3216,
      "Äłperformance": 3217,
      "IV": 3218,
      "Äłcivil": 3219,
      "itch": 3220,
      "Äłmother": 3221,
      "amic": 3222,
      "ÄłMin": 3223,
      "Äłcollect": 3224,
      "Äłscientific": 3225,
      "ĠÄłbetween": 3226,
      "IC": 3227,
      "ĠÄłused": 3228,
      "Äłfoot": 3229,
      "Äłthird": 3230,
      "istry": 3231,
      "ĠÄłph": 3232,
      "Äłactive": 3233,
      "Äłcapt": 3234,
      "ĠÄłsupp": 3235,
      "anks": 3236,
      "Äłcou": 3237,
      "Äłpan": 3238,
      "istor": 3239,
      "ĠÄłcol": 3240,
      "izes": 3241,
      "Äłcentral": 3242,
      "Äłleading": 3243,
      "ixed": 3244,
      "Äłlimited": 3245,
      "aught": 3246,
      "\".": 3247,
      "Â¡": 3248,
      "Ġc": 3249,
      "icip": 3250,
      "Äłsevere": 3251,
      "195": 3252,
      "Äłcompanies": 3253,
      "iece": 3254,
      "ÄłYour": 3255,
      "Äłculture": 3256,
      "EN": 3257,
      "PA": 3258,
      "ĠÄłher": 3259,
      "Äłaff": 3260,
      "Äłthus": 3261,
      "Äłlines": 3262,
      "outhern": 3263,
      "ĠÄłdec": 3264,
      "roup": 3265,
      "194": 3266,
      "Äłteeth": 3267,
      "Äłsomeone": 3268,
      "Äłsituation": 3269,
      "Äłlarger": 3270,
      "lim": 3271,
      "Äłtheory": 3272,
      "attle": 3273,
      "omet": 3274,
      "orthern": 3275,
      "rie": 3276,
      "ÄłOther": 3277,
      "ressive": 3278,
      "Äłeval": 3279,
      "Äłattack": 3280,
      "Äłlooking": 3281,
      "ributed": 3282,
      "Äłdocument": 3283,
      "na": 3284,
      "rical": 3285,
      "wise": 3286,
      "hel": 3287,
      "rade": 3288,
      "ÄłRev": 3289,
      "Äłdoctor": 3290,
      "Äłprep": 3291,
      "Äłunc": 3292,
      "ribute": 3293,
      "Äłinstead": 3294,
      "Äłvalues": 3295,
      "Äłwritten": 3296,
      "Ġd": 3297,
      "Äłtri": 3298,
      "Äłbase": 3299,
      "Äłhost": 3300,
      "cember": 3301,
      "acity": 3302,
      "izations": 3303,
      "Äładditional": 3304,
      "Äłsupply": 3305,
      "Äłcommunities": 3306,
      "Äłsolar": 3307,
      "ashington": 3308,
      "ĠÄłshould": 3309,
      "Äłpurpose": 3310,
      "ospital": 3311,
      "With": 3312,
      "Äłtiss": 3313,
      "head": 3314,
      "reet": 3315,
      "orpor": 3316,
      "Äłla": 3317,
      "sec": 3318,
      "ÄłCons": 3319,
      "odies": 3320,
      "Äłdifference": 3321,
      "Äłteacher": 3322,
      "equ": 3323,
      "gn": 3324,
      "ham": 3325,
      "known": 3326,
      "Äłx": 3327,
      "Äłancient": 3328,
      "Äłbreat": 3329,
      "olit": 3330,
      "ÄłAc": 3331,
      "ula": 3332,
      "ulated": 3333,
      "estic": 3334,
      "Äłappropriate": 3335,
      "Äłconflic": 3336,
      "Äłwrite": 3337,
      "75": 3338,
      "bit": 3339,
      "ĠH": 3340,
      "ÄłÃ": 3341,
      "Äławare": 3342,
      "Äłang": 3343,
      "Äłbad": 3344,
      "Äłdark": 3345,
      "2006": 3346,
      "Äłhighly": 3347,
      "Äłtests": 3348,
      "Äłsolution": 3349,
      "Äłestim": 3350,
      "Äłequipment": 3351,
      "cohol": 3352,
      "IT": 3353,
      "Äłaud": 3354,
      "Äłsal": 3355,
      "Äłcold": 3356,
      "Äłcross": 3357,
      "Äłdry": 3358,
      "ctober": 3359,
      "amb": 3360,
      "Äładminist": 3361,
      "Äłcompared": 3362,
      "ÄłJesus": 3363,
      "Äłclin": 3364,
      "ĠÄłrem": 3365,
      "Äłveget": 3366,
      "AS": 3367,
      "ees": 3368,
      "where": 3369,
      "Äłox": 3370,
      "Äłwalk": 3371,
      "Äłborn": 3372,
      "Äłthous": 3373,
      "see": 3374,
      "uries": 3375,
      "ÄłMany": 3376,
      "ception": 3377,
      "Äłleaders": 3378,
      "Äłefforts": 3379,
      "95": 3380,
      "bed": 3381,
      "cks": 3382,
      "eks": 3383,
      "ĠN": 3384,
      "atur": 3385,
      "sect": 3386,
      "ests": 3387,
      "occ": 3388,
      "ÄłDo": 3389,
      "Äłimages": 3390,
      "Äłcontains": 3391,
      "ÄłJuly": 3392,
      "reek": 3393,
      "Äłquite": 3394,
      "ĠÄłhelp": 3395,
      "Äłseems": 3396,
      "Äłdescribed": 3397,
      "Äłreligious": 3398,
      "Äłsold": 3399,
      "ĠÄłcould": 3400,
      "ÄłWest": 3401,
      "ibly": 3402,
      "Äłagricult": 3403,
      "2000": 3404,
      "ĠÄłyears": 3405,
      "Äłdecl": 3406,
      "Äłrespond": 3407,
      "airs": 3408,
      "Äłbehind": 3409,
      "Äłdemonstr": 3410,
      "aul": 3411,
      "cles": 3412,
      "mosp": 3413,
      "Äłson": 3414,
      "oring": 3415,
      "ÄłInstitute": 3416,
      "ÄłAmericans": 3417,
      "Äłbroad": 3418,
      "Äłachieve": 3419,
      "Äłfamilies": 3420,
      "eration": 3421,
      "ÄłReg": 3422,
      "Äłdecre": 3423,
      "2014": 3424,
      "Äłcommunic": 3425,
      "Äłideas": 3426,
      "Äłdetermine": 3427,
      "Äłfriends": 3428,
      "ÄłCalifornia": 3429,
      "36": 3430,
      "38": 3431,
      "just": 3432,
      "life": 3433,
      "Ġ5": 3434,
      "Äłcard": 3435,
      "vert": 3436,
      "ÄłSur": 3437,
      "ĠÄłmod": 3438,
      "ÄłNot": 3439,
      "aste": 3440,
      "Äłaccur": 3441,
      "Äłautom": 3442,
      "Äłsymb": 3443,
      "Äłmiles": 3444,
      "strial": 3445,
      "Äłreceived": 3446,
      "Äłanswer": 3447,
      "Äłprotein": 3448,
      "AC": 3449,
      "And": 3450,
      "ford": 3451,
      "arian": 3452,
      "Äłlost": 3453,
      "Äłnorth": 3454,
      "Äłforce": 3455,
      "ÄłHistory": 3456,
      "unction": 3457,
      "ĠÄłinter": 3458,
      "ÄłEd": 3459,
      "ÄłEduc": 3460,
      "ÄłGl": 3461,
      "ĠÄłlong": 3462,
      "Äłdecision": 3463,
      "Äłapplication": 3464,
      "Ġ0": 3465,
      "ĠÄłÃ¢Ä¢Äµ": 3466,
      "Äłcred": 3467,
      "Äłprior": 3468,
      "Äłmom": 3469,
      "ĠÄłwell": 3470,
      "ÄłBo": 3471,
      "pper": 3472,
      "ÄłFrench": 3473,
      "Äłweb": 3474,
      "ously": 3475,
      "ĠÄłhim": 3476,
      "Äłenjoy": 3477,
      "Äłcommit": 3478,
      "phas": 3479,
      "Äłblock": 3480,
      "ociation": 3481,
      "Äłchoose": 3482,
      "Äłelements": 3483,
      "Äłbacteria": 3484,
      "Ex": 3485,
      "Äłtakes": 3486,
      "Äłfight": 3487,
      "rote": 3488,
      "Äłhabit": 3489,
      "rab": 3490,
      "Äłaspect": 3491,
      "rugg": 3492,
      "Äłcenter": 3493,
      "Äłeveryone": 3494,
      "Äłdiabetes": 3495,
      "Äłveh": 3496,
      "ÄłGerman": 3497,
      "Äłsoftware": 3498,
      "men": 3499,
      "ingu": 3500,
      "ica": 3501,
      "rogen": 3502,
      "Äłreach": 3503,
      "ocal": 3504,
      "Äłvideo": 3505,
      "Äłweeks": 3506,
      "Äłsea": 3507,
      "Äłjud": 3508,
      "2007": 3509,
      "Äłinterp": 3510,
      "Äłolder": 3511,
      "Äłcritical": 3512,
      "Äłbeginning": 3513,
      "itizens": 3514,
      "aur": 3515,
      "Äłtend": 3516,
      "resh": 3517,
      "Äłheld": 3518,
      "ĠÄłsur": 3519,
      "ÄłNe": 3520,
      "Äłweather": 3521,
      "ÄłUs": 3522,
      "ciples": 3523,
      "2016": 3524,
      "ĠÄłexp": 3525,
      "Äłthinking": 3526,
      "Äłbirds": 3527,
      "king": 3528,
      "ĠÄłed": 3529,
      "Äłult": 3530,
      "ÄłServ": 3531,
      "Äłseason": 3532,
      "Äłteach": 3533,
      "ternal": 3534,
      "Äłrapid": 3535,
      "Äłfeatures": 3536,
      "Äłestablish": 3537,
      "cape": 3538,
      "rees": 3539,
      "reak": 3540,
      "Äłsouth": 3541,
      "ara": 3542,
      "ÄłAnt": 3543,
      "These": 3544,
      "Äłrates": 3545,
      "ÄłRiver": 3546,
      "ĠÄłhigh": 3547,
      "2005": 3548,
      "ossible": 3549,
      "Äłcarry": 3550,
      "Äłpoints": 3551,
      "Äłimmedi": 3552,
      "34": 3553,
      "AL": 3554,
      "So": 3555,
      "ira": 3556,
      "Äłcele": 3557,
      "itable": 3558,
      "Äłtool": 3559,
      "Äłmount": 3560,
      "Äłreve": 3561,
      "ÄłThen": 3562,
      "Äładapt": 3563,
      "Äłjo": 3564,
      "ondon": 3565,
      "Äłsett": 3566,
      "Äłlocated": 3567,
      "Äłexplain": 3568,
      "Äłaffected": 3569,
      "Äłeye": 3570,
      "Äłbirth": 3571,
      "32": 3572,
      "year": 3573,
      "Äłwent": 3574,
      "Äłmiddle": 3575,
      "Äłhar": 3576,
      "urt": 3577,
      "ÄłApril": 3578,
      "Äłstruct": 3579,
      "oses": 3580,
      "ÄłBr": 3581,
      "ÄłJune": 3582,
      "Äłofficial": 3583,
      "Äłprocesses": 3584,
      "Äłstrateg": 3585,
      "can": 3586,
      "Äłtherapy": 3587,
      "atric": 3588,
      "enty": 3589,
      "Äłhundred": 3590,
      "Äłeth": 3591,
      "Äłlands": 3592,
      "Äłalthough": 3593,
      "ĠÄłcent": 3594,
      "ĠÄłafter": 3595,
      "ellig": 3596,
      "2017": 3597,
      "Äłexposure": 3598,
      "Äłimportance": 3599,
      "Äłcommonly": 3600,
      "stitution": 3601,
      "Äłfinancial": 3602,
      "Äłbehavi": 3603,
      "Äłresponsible": 3604,
      "Äłtown": 3605,
      "Äłhot": 3606,
      "Ã¢Ä¢Äº": 3607,
      "ĠÄłbec": 3608,
      "ÄłRec": 3609,
      "ÄłLear": 3610,
      "arden": 3611,
      "Äładults": 3612,
      "avid": 3613,
      "ĠÄłtrans": 3614,
      "ovember": 3615,
      "Äłscale": 3616,
      "Äłemissions": 3617,
      "Äłtechniques": 3618,
      "Äłtesting": 3619,
      "Äłinside": 3620,
      "Äłconstruction": 3621,
      "Äłgenetic": 3622,
      "Äłdevices": 3623,
      "Äłdegree": 3624,
      "Äłsustain": 3625,
      "37": 3626,
      "65": 3627,
      "Äłice": 3628,
      "Äłhous": 3629,
      "Äłgovern": 3630,
      "ÄłSw": 3631,
      "Äłstay": 3632,
      "amples": 3633,
      "ocr": 3634,
      "Äłsugar": 3635,
      "ptember": 3636,
      "igned": 3637,
      "ÄłKe": 3638,
      "Äłpresence": 3639,
      "Äłinstit": 3640,
      "Äłcoast": 3641,
      "Äłnearly": 3642,
      "Äłinfluence": 3643,
      "ÄłInternational": 3644,
      "While": 3645,
      "ding": 3646,
      "iences": 3647,
      "ĠÄłvery": 3648,
      "ros": 3649,
      "Äłbeyond": 3650,
      "ÄłII": 3651,
      "oday": 3652,
      "ĠÄłwhere": 3653,
      "ĠÄłmy": 3654,
      "active": 3655,
      "Äłcompar": 3656,
      "Äłbasis": 3657,
      "Äłcultural": 3658,
      "rolled": 3659,
      "ĠÄłent": 3660,
      "Äłbul": 3661,
      "Äłeating": 3662,
      "Äłnamed": 3663,
      "idents": 3664,
      "ÄłAugust": 3665,
      "Äłstage": 3666,
      "ament": 3667,
      "amily": 3668,
      "Äłcommand": 3669,
      "ĠÄłgo": 3670,
      "Äłtrack": 3671,
      "Äłexpect": 3672,
      "onomic": 3673,
      "Äłcommunication": 3674,
      "fficiency": 3675,
      "Äłprojects": 3676,
      "pir": 3677,
      "pond": 3678,
      "reed": 3679,
      "anish": 3680,
      "Äłmill": 3681,
      "oma": 3682,
      "Äłleave": 3683,
      "Äłrecently": 3684,
      "Äłgoes": 3685,
      "Äłlaws": 3686,
      "Äłvirt": 3687,
      "ÄłDepartment": 3688,
      "By": 3689,
      "He": 3690,
      "bl": 3691,
      "iology": 3692,
      "tained": 3693,
      "Ġp": 3694,
      "Äłsearch": 3695,
      "orage": 3696,
      "Äłfit": 3697,
      "Äłfinal": 3698,
      "Äłtowards": 3699,
      "ico": 3700,
      "olved": 3701,
      "Äłgain": 3702,
      "antly": 3703,
      "eck": 3704,
      "ĠÄłsc": 3705,
      "ocks": 3706,
      "ĠÄłpr": 3707,
      "ĠÄłperson": 3708,
      "Äłrise": 3709,
      "ÄłEl": 3710,
      "ÄłRuss": 3711,
      "ĠÄłdef": 3712,
      "ensity": 3713,
      "ÄłChar": 3714,
      "obile": 3715,
      "Äłphilos": 3716,
      "Äłfactor": 3717,
      "Äłconnect": 3718,
      "Ġ%": 3719,
      "rehens": 3720,
      "Äłpack": 3721,
      "Äłfuel": 3722,
      "Äłbeg": 3723,
      "ÄłSim": 3724,
      "ocial": 3725,
      "ĠÄłfound": 3726,
      "ĠÄłmake": 3727,
      "Äłshall": 3728,
      "Äłneigh": 3729,
      "Äłquant": 3730,
      "Äłagree": 3731,
      "Äłworkers": 3732,
      "Äłproviding": 3733,
      "Äłdifferences": 3734,
      "Äłfollowed": 3735,
      "Äłgradu": 3736,
      "related": 3737,
      "lamm": 3738,
      "oice": 3739,
      "uff": 3740,
      "Äłwinter": 3741,
      "Äłpow": 3742,
      "Äłbott": 3743,
      "stead": 3744,
      "Äłegg": 3745,
      "Äłbeaut": 3746,
      "Äłgot": 3747,
      "ĠÄłcount": 3748,
      "Äłusers": 3749,
      "Äłpregn": 3750,
      "Äłpractices": 3751,
      "Äłeconomy": 3752,
      "Äłeyes": 3753,
      "uments": 3754,
      "Äłur": 3755,
      "ĠÄłear": 3756,
      "Äłsection": 3757,
      "Äłcustom": 3758,
      "Äłbit": 3759,
      "Äłwhose": 3760,
      "ÄłGo": 3761,
      "cious": 3762,
      "ĠÄłexper": 3763,
      "Äłmonth": 3764,
      "Äłproperties": 3765,
      "Äłcalcul": 3766,
      "met": 3767,
      "ĠL": 3768,
      "ĠIn": 3769,
      "iny": 3770,
      "Äłhands": 3771,
      "Äłgives": 3772,
      "ama": 3773,
      "ading": 3774,
      "ÄłPark": 3775,
      "Äłvict": 3776,
      "Äłdeal": 3777,
      "Äłdead": 3778,
      "ĠÄłdet": 3779,
      "rupt": 3780,
      "gypt": 3781,
      "Äłinstru": 3782,
      "Äłmonitor": 3783,
      "Äłsmaller": 3784,
      "Äłsites": 3785,
      "ĠÄłknow": 3786,
      "urban": 3787,
      "co": 3788,
      "ean": 3789,
      "ky": 3790,
      "ĠE": 3791,
      "Äłtold": 3792,
      "iful": 3793,
      "ophy": 3794,
      "ÄłMus": 3795,
      "ÄłHigh": 3796,
      "ÄłWashington": 3797,
      "Äłchurch": 3798,
      "Äłenh": 3799,
      "ÄłChurch": 3800,
      "Äłsaw": 3801,
      "ĠÄłsec": 3802,
      "Äłtechnologies": 3803,
      "ÄłArt": 3804,
      "Äłtrying": 3805,
      "uit": 3806,
      "wide": 3807,
      "yd": 3808,
      "Äłtable": 3809,
      "enge": 3810,
      "Äłcorn": 3811,
      "Äłmention": 3812,
      "Äłhttp": 3813,
      "Äłstri": 3814,
      "Äłord": 3815,
      "estion": 3816,
      "Äłvia": 3817,
      "ĠÄłbel": 3818,
      "ÄłDay": 3819,
      "2004": 3820,
      "Äłplanet": 3821,
      "ÄłEngland": 3822,
      "Äłapprox": 3823,
      "Äłvirus": 3824,
      "Äłstatus": 3825,
      "Äłpredict": 3826,
      "Äłnegative": 3827,
      "cast": 3828,
      "eal": 3829,
      "house": 3830,
      "ĠÄłar": 3831,
      "ouch": 3832,
      "asion": 3833,
      "Äłreasons": 3834,
      "Äłconvers": 3835,
      "ÄłMon": 3836,
      "ÄłHere": 3837,
      "ÄłEast": 3838,
      "ÄłFirst": 3839,
      "Äłshape": 3840,
      "ÄłUse": 3841,
      "Äłcommer": 3842,
      "Äłscreen": 3843,
      "merican": 3844,
      "Äłmemory": 3845,
      "ÄłIndian": 3846,
      "Äłcapital": 3847,
      "Äłoccurs": 3848,
      "ÄłTechn": 3849,
      "Äłhistorical": 3850,
      "Äłwebsite": 3851,
      "44": 3852,
      "ĠR": 3853,
      "Äłsn": 3854,
      "Äłfederal": 3855,
      "Äłmid": 3856,
      "Äłhom": 3857,
      "omas": 3858,
      "Äłeight": 3859,
      "Äłisn": 3860,
      "Äłforces": 3861,
      "Äłones": 3862,
      "Äłstream": 3863,
      "ĠÄłwater": 3864,
      "Äłtele": 3865,
      "formed": 3866,
      "ologist": 3867,
      "Äłnews": 3868,
      "Äłprinc": 3869,
      "Äłprotection": 3870,
      "Äładvant": 3871,
      "Äłcurrently": 3872,
      "Äłcosts": 3873,
      "ÄłChristian": 3874,
      "Äłeffort": 3875,
      "Äłchallenges": 3876,
      "book": 3877,
      "oe": 3878,
      "Äłlength": 3879,
      "ÄłAre": 3880,
      "ÄłMc": 3881,
      "ĠÄłsame": 3882,
      "ourt": 3883,
      "ĠÄłduring": 3884,
      "oods": 3885,
      "ÄłOf": 3886,
      "ÄłChinese": 3887,
      "Äłacadem": 3888,
      "Äłprogress": 3889,
      "Äłexplore": 3890,
      "risis": 3891,
      "Äłcontinued": 3892,
      "ĠÄłincre": 3893,
      "Äłapplications": 3894,
      "Äłexercise": 3895,
      "'re": 3896,
      "pris": 3897,
      "rid": 3898,
      "era": 3899,
      "Äłcam": 3900,
      "Äłcool": 3901,
      "Äłwa": 3902,
      "Äłbra": 3903,
      "road": 3904,
      "ÄłSince": 3905,
      "ĠÄłsim": 3906,
      "ÄłDuring": 3907,
      "ÄłFrom": 3908,
      "Äładop": 3909,
      "ĠÄłev": 3910,
      "ĠÄłAl": 3911,
      "Äłroom": 3912,
      "Äłblue": 3913,
      "Äłvisual": 3914,
      "Äłcourt": 3915,
      "Äłtypically": 3916,
      "Äłlegal": 3917,
      "gery": 3918,
      "ÄłCanada": 3919,
      "Äłobjects": 3920,
      "Äłsuccessful": 3921,
      "rieved": 3922,
      "At": 3923,
      "care": 3924,
      "hav": 3925,
      "rig": 3926,
      "Ġ(": 3927,
      "ĠÄłthose": 3928,
      "atin": 3929,
      "aters": 3930,
      "encies": 3931,
      "Äłswe": 3932,
      "ald": 3933,
      "roy": 3934,
      "change": 3935,
      "Äłgave": 3936,
      "Äłgame": 3937,
      "ÄłSystem": 3938,
      "rome": 3939,
      "que": 3940,
      "Äłworth": 3941,
      "irection": 3942,
      "ĠÄłtra": 3943,
      "Äłrare": 3944,
      "Äłdevice": 3945,
      "Äłsummer": 3946,
      "Äłfully": 3947,
      "bra": 3948,
      "iments": 3949,
      "ulum": 3950,
      "ĠÄłthen": 3951,
      "Äłstim": 3952,
      "ĠÄłsign": 3953,
      "rief": 3954,
      "Äłspirit": 3955,
      "Äłtrade": 3956,
      "Äłexpress": 3957,
      "Äłexperien": 3958,
      "ĠÄłhealth": 3959,
      "Äłdemand": 3960,
      "ÄłAfrican": 3961,
      "Äłcollabor": 3962,
      "Äłopportunities": 3963,
      "Un": 3964,
      "rm": 3965,
      "xiety": 3966,
      "Äłtit": 3967,
      "Äłpick": 3968,
      "Äłfair": 3969,
      "Äłep": 3970,
      "ÄłTrans": 3971,
      "rael": 3972,
      "Äłalone": 3973,
      "ÄłMarch": 3974,
      "erences": 3975,
      "ÄłPresident": 3976,
      "Äłcoming": 3977,
      "eces": 3978,
      "190": 3979,
      "Äłeverything": 3980,
      "hemat": 3981,
      "Äłreduced": 3982,
      "Äłmeasures": 3983,
      "Äłelse": 3984,
      "Äłcreating": 3985,
      "Äłprofessional": 3986,
      "Äłdrugs": 3987,
      "Ġb": 3988,
      "Ġm": 3989,
      "inciples": 3990,
      "Äłmouth": 3991,
      "asks": 3992,
      "uthor": 3993,
      "ÄłSan": 3994,
      "ĠÄłco": 3995,
      "unch": 3996,
      "Äłnothing": 3997,
      "Äłroad": 3998,
      "efore": 3999,
      "Äłearlier": 4000,
      "Äłbox": 4001,
      "Äłclassroom": 4002,
      "ÄłCounty": 4003,
      "Â±": 4004,
      "ĠÄłthrough": 4005,
      "Äłcateg": 4006,
      "Äłcode": 4007,
      "aled": 4008,
      "Äłhon": 4009,
      "Äłuser": 4010,
      "Äłplaces": 4011,
      "ĠÄłrese": 4012,
      "Äłbecoming": 4013,
      "ÄłVal": 4014,
      "Äłrock": 4015,
      "Äłincreases": 4016,
      "Äłexamples": 4017,
      "Äłdistance": 4018,
      "standing": 4019,
      "Äłenter": 4020,
      "Äłbreast": 4021,
      "ĠÄłimport": 4022,
      "ÄłDecember": 4023,
      "Äłhappen": 4024,
      "mitted": 4025,
      "aign": 4026,
      "uations": 4027,
      "ĠI": 4028,
      "ĠT": 4029,
      "Ġ]": 4030,
      "Ġ|": 4031,
      "Äłmax": 4032,
      "Äłmole": 4033,
      "Äłstrugg": 4034,
      "ÄłMod": 4035,
      "ector": 4036,
      "ĠÄłfe": 4037,
      "ÄłWilliam": 4038,
      "ÄłInc": 4039,
      "ĠÄłeffect": 4040,
      "ÄłVir": 4041,
      "Äłcolon": 4042,
      "Äłsurvey": 4043,
      "Äłrequires": 4044,
      "Äłreflect": 4045,
      "ÄłCollege": 4046,
      "Äłmajority": 4047,
      "Äłinvestig": 4048,
      "Äłmoving": 4049,
      "ÄłSociety": 4050,
      "RE": 4051,
      "ares": 4052,
      "atform": 4053,
      "oration": 4054,
      "Äłwon": 4055,
      "arb": 4056,
      "Äłbrought": 4057,
      "rops": 4058,
      "urning": 4059,
      "Äłstories": 4060,
      "Äłstaff": 4061,
      "ÄłCor": 4062,
      "key": 4063,
      "ÄłRed": 4064,
      "Äłnote": 4065,
      "ĠÄłdisc": 4066,
      "ÄłOur": 4067,
      "ÄłOctober": 4068,
      "ÄłJournal": 4069,
      "ĠÄłext": 4070,
      "Äłrob": 4071,
      "isease": 4072,
      "ouncil": 4073,
      "ographic": 4074,
      "Äłtreated": 4075,
      "Äłobserved": 4076,
      "force": 4077,
      "Äłassessment": 4078,
      "Äłrecommend": 4079,
      "ference": 4080,
      "iance": 4081,
      "Â½": 4082,
      "Ãĳ": 4083,
      "ÄłÃ¢Ä¢": 4084,
      "Äłbone": 4085,
      "Äłder": 4086,
      "asure": 4087,
      "olid": 4088,
      "ÄłTra": 4089,
      "igen": 4090,
      "Äłspring": 4091,
      "Äłking": 4092,
      "Äłperfect": 4093,
      "ube": 4094,
      "ĠÄłevery": 4095,
      "ooking": 4096,
      "186": 4097,
      "clus": 4098,
      "ÄłArch": 4099,
      "Äłbelief": 4100,
      "Äłasked": 4101,
      "ded": 4102,
      "time": 4103,
      "Ãĺ": 4104,
      "Äłast": 4105,
      "Äłsch": 4106,
      "Äłwear": 4107,
      "Äłmig": 4108,
      "Äłdied": 4109,
      "Äłalcohol": 4110,
      "ÄłMy": 4111,
      "Äłexcess": 4112,
      "ecut": 4113,
      "ĠÄłbecause": 4114,
      "ÄłLaw": 4115,
      "Äłunit": 4116,
      "Äłtransfer": 4117,
      "Äłsigns": 4118,
      "Äłguid": 4119,
      "Äłidentified": 4120,
      "Äłreceive": 4121,
      "Äłcompletely": 4122,
      "Äłcomponents": 4123,
      "ÄłAustralia": 4124,
      "\",": 4125,
      "SS": 4126,
      "nes": 4127,
      "son": 4128,
      "Â§": 4129,
      "ĠÄłet": 4130,
      "ĠÄłest": 4131,
      "inf": 4132,
      "ulf": 4133,
      "ession": 4134,
      "ĠÄłshe": 4135,
      "ĠÄłfollow": 4136,
      "ĠÄłdata": 4137,
      "ruary": 4138,
      "Äłimag": 4139,
      "Äłyourself": 4140,
      "Äłjoint": 4141,
      "anges": 4142,
      "ĠÄłeach": 4143,
      "Äłtrial": 4144,
      "Äłemphas": 4145,
      "Äłshowed": 4146,
      "Äłstandards": 4147,
      "Äłimmune": 4148,
      "ebruary": 4149,
      "ÄłMedic": 4150,
      "ÄłEducation": 4151,
      "500": 4152,
      "Ad": 4153,
      "iable": 4154,
      "med": 4155,
      "Ġ8": 4156,
      "Ġth": 4157,
      "ero": 4158,
      "anc": 4159,
      "orge": 4160,
      "Äłpen": 4161,
      "Äłfile": 4162,
      "Äłfram": 4163,
      "Äłfresh": 4164,
      "Äłhair": 4165,
      "etrieved": 4166,
      "ÄłAccording": 4167,
      "Ġ.\"": 4168,
      "emic": 4169,
      "ÄłBecause": 4170,
      "aint": 4171,
      "ĠÄłsaid": 4172,
      "ĠÄłmade": 4173,
      "ÄłGreat": 4174,
      "ongress": 4175,
      "apers": 4176,
      "ails": 4177,
      "Äłoverall": 4178,
      "Äłworked": 4179,
      "Äłoffic": 4180,
      "hesis": 4181,
      "ĠÄłInd": 4182,
      "Äłfeature": 4183,
      "Äłmodels": 4184,
      "Äłdepend": 4185,
      "Äłamounts": 4186,
      "porary": 4187,
      "Äłradiation": 4188,
      "ÄłBlack": 4189,
      "Äłdigital": 4190,
      "ÄłJanuary": 4191,
      "ken": 4192,
      "Äłpet": 4193,
      "Äłinnov": 4194,
      "odes": 4195,
      "Äłexhib": 4196,
      "Äłatmosp": 4197,
      "Äłrule": 4198,
      "ĠÄłeven": 4199,
      "ĠÄłget": 4200,
      "ĠÄłbeing": 4201,
      "Äłroot": 4202,
      "ĠÄłprodu": 4203,
      "ĠÄłprocess": 4204,
      "Äłdiscover": 4205,
      "Äłmember": 4206,
      "Äłeasier": 4207,
      "Äłcapacity": 4208,
      "Äłhyp": 4209,
      "Äłconsumption": 4210,
      "Äłillust": 4211,
      "Äłabsor": 4212,
      "Äłfruit": 4213,
      "Äłbaby": 4214,
      "Åĥ": 4215,
      "ingly": 4216,
      "Äłball": 4217,
      "Äłund": 4218,
      "Äłstra": 4219,
      "ÄłPeople": 4220,
      "ÄłWater": 4221,
      "ÄłRead": 4222,
      "ÄłNow": 4223,
      "Äłperhaps": 4224,
      "anging": 4225,
      "tee": 4226,
      "188": 4227,
      "iox": 4228,
      "Äłoccup": 4229,
      "Äłconstit": 4230,
      "Äłconstruct": 4231,
      "Äłproperty": 4232,
      "Äłrelease": 4233,
      "load": 4234,
      "ĠÄłjust": 4235,
      "Äłnuclear": 4236,
      "ios": 4237,
      "la": 4238,
      "tical": 4239,
      "ÃĹ": 4240,
      "Ġf": 4241,
      "atab": 4242,
      "alysis": 4243,
      "Äłfather": 4244,
      "Äłdate": 4245,
      "enth": 4246,
      "abilities": 4247,
      "aven": 4248,
      "ÄłJames": 4249,
      "ĠÄłrequ": 4250,
      "Äłapplied": 4251,
      "Äłanything": 4252,
      "Äłacqu": 4253,
      "Äłremember": 4254,
      "Äłdiscussion": 4255,
      "Äłoptions": 4256,
      "ĠÄłdifferent": 4257,
      "ÄłJewish": 4258,
      ");": 4259,
      "Some": 4260,
      "ii": 4261,
      "more": 4262,
      "Â³": 4263,
      "Äłocean": 4264,
      "isation": 4265,
      "Äłelement": 4266,
      "pped": 4267,
      "ĠÄłfact": 4268,
      "ÄłRo": 4269,
      "ÄłGr": 4270,
      "Äłspect": 4271,
      "reatment": 4272,
      "rows": 4273,
      "Äłactual": 4274,
      "Äłremains": 4275,
      "Äłformed": 4276,
      "Äłhimself": 4277,
      "Äłbenefit": 4278,
      "Äłlimit": 4279,
      "Äłrunning": 4280,
      "Äłfailure": 4281,
      "Äłfriend": 4282,
      "Äłopportunity": 4283,
      "EM": 4284,
      "bal": 4285,
      "Â·": 4286,
      "Äłiron": 4287,
      "ĠÄłart": 4288,
      "roph": 4289,
      "Äłgir": 4290,
      "Äłexcept": 4291,
      "Äłcontext": 4292,
      "ĠÄłrep": 4293,
      "Äłbecomes": 4294,
      "Äłassum": 4295,
      "Äłpoly": 4296,
      "Äłdiscovered": 4297,
      "Äłdistribution": 4298,
      "Äłpeace": 4299,
      "Äłsteps": 4300,
      "cellent": 4301,
      "Äłarchitect": 4302,
      "Äłstrength": 4303,
      "Äłprivate": 4304,
      "Äłcommercial": 4305,
      "gal": 4306,
      "Äłpiece": 4307,
      "Äłbillion": 4308,
      "Äłtoward": 4309,
      "Äłmo": 4310,
      "imens": 4311,
      "umn": 4312,
      "ĠÄłpat": 4313,
      "ÄłEm": 4314,
      "ÄłEven": 4315,
      "ework": 4316,
      "ĠÄłmuch": 4317,
      "Äłdecades": 4318,
      "Äłexpand": 4319,
      "Äłexpected": 4320,
      "Äłrisks": 4321,
      "iverse": 4322,
      "Äłbelieved": 4323,
      "Äłantib": 4324,
      "Äłfreed": 4325,
      "Äłexisting": 4326,
      "Äłeventually": 4327,
      "hetic": 4328,
      "ET": 4329,
      "ht": 4330,
      "iant": 4331,
      "ux": 4332,
      "Â¸": 4333,
      "Ġ6": 4334,
      "essel": 4335,
      "Äłphen": 4336,
      "Äłmale": 4337,
      "Äłdyn": 4338,
      "Äłhope": 4339,
      "ilit": 4340,
      "ometimes": 4341,
      "ÄłSm": 4342,
      "acing": 4343,
      "ĠÄłworld": 4344,
      "ÄłFl": 4345,
      "Äłseven": 4346,
      "Äłdisorder": 4347,
      "cipl": 4348,
      "ciences": 4349,
      "Äłrelatively": 4350,
      "Äłnovel": 4351,
      "Äłattract": 4352,
      "ĠÄłval": 4353,
      "Äłauth": 4354,
      "clusion": 4355,
      "Äłserve": 4356,
      "Äłeducational": 4357,
      "Äłguide": 4358,
      "Äłsignificantly": 4359,
      "Äłvitamin": 4360,
      "48": 4361,
      "Here": 4362,
      "However": 4363,
      "cular": 4364,
      "do": 4365,
      "ein": 4366,
      "eared": 4367,
      "rete": 4368,
      "Äłcitizens": 4369,
      "Äłwrote": 4370,
      "Äłbatter": 4371,
      "Äłmut": 4372,
      "ulner": 4373,
      "ÄłGeneral": 4374,
      "ĠÄłlife": 4375,
      "riculum": 4376,
      "ĠÄłPro": 4377,
      "Äłsurround": 4378,
      "Äłlocation": 4379,
      "Äłhighest": 4380,
      "Äłelim": 4381,
      "Äłsuggests": 4382,
      "ÄłGermany": 4383,
      "ĠÄłagain": 4384,
      "Äłversion": 4385,
      "Äłcelebr": 4386,
      "ieces": 4387,
      "tion": 4388,
      "Äłcry": 4389,
      "orial": 4390,
      "Äłwoman": 4391,
      "Äłfields": 4392,
      "Äłmis": 4393,
      "Äłgold": 4394,
      "amil": 4395,
      "ÄłPress": 4396,
      "anted": 4397,
      "antic": 4398,
      "ĠÄłsmall": 4399,
      "ÄłFrance": 4400,
      "ĠÄłdist": 4401,
      "Äłsynt": 4402,
      "othing": 4403,
      "Äłcollection": 4404,
      "Äłdecisions": 4405,
      "Äłleads": 4406,
      "eech": 4407,
      "Äłpowerful": 4408,
      "Äłequal": 4409,
      "Äłpurch": 4410,
      "Äłinteresting": 4411,
      "Äłanti": 4412,
      "ÄłPhil": 4413,
      "poses": 4414,
      "Äłcombination": 4415,
      "Äłfilm": 4416,
      "Äłrecommended": 4417,
      "board": 4418,
      "Äłencourag": 4419,
      "Äłdisplay": 4420,
      "300": 4421,
      "uous": 4422,
      "Ġ10": 4423,
      "Ġthe": 4424,
      "Äłtox": 4425,
      "Äłtooth": 4426,
      "Äłasse": 4427,
      "opy": 4428,
      "respond": 4429,
      "Äłcomplic": 4430,
      "ÄłEach": 4431,
      "ĠÄłmin": 4432,
      "Äłselect": 4433,
      "Äłplans": 4434,
      "ÄłUnion": 4435,
      "Äłassist": 4436,
      "Äłinfections": 4437,
      "Äłremove": 4438,
      "ĠÄłNew": 4439,
      "vironmental": 4440,
      "Äłsolutions": 4441,
      "Äłorganizations": 4442,
      "Äłdrive": 4443,
      "comes": 4444,
      "anguages": 4445,
      "Äłchanged": 4446,
      "Äłmilk": 4447,
      "Äłpresented": 4448,
      "Äłemotional": 4449,
      "Äłexactly": 4450,
      "Äłmoment": 4451,
      "elligence": 4452,
      "ias": 4453,
      "ped": 4454,
      "Äłurban": 4455,
      "Äłoption": 4456,
      "Äłcra": 4457,
      "eding": 4458,
      "Äłdirection": 4459,
      "Äłgiving": 4460,
      "Äłconsequ": 4461,
      "Äłrat": 4462,
      "ourse": 4463,
      "Äłincome": 4464,
      "Äłcontract": 4465,
      "ÄłUN": 4466,
      "oking": 4467,
      "ologists": 4468,
      "Äłevolution": 4469,
      "oved": 4470,
      "ieties": 4471,
      "ĠÄłwithout": 4472,
      "Äłfindings": 4473,
      "Äłboard": 4474,
      "Äłallowed": 4475,
      "Äłinternal": 4476,
      "ÄłStudents": 4477,
      "Äłiniti": 4478,
      "Äłbalance": 4479,
      "78": 4480,
      "HE": 4481,
      "Is": 4482,
      "Pro": 4483,
      "ault": 4484,
      "mark": 4485,
      "ygen": 4486,
      "ĠG": 4487,
      "ĠO": 4488,
      "Äłing": 4489,
      "ĠÄłend": 4490,
      "ancing": 4491,
      "isher": 4492,
      "Äłefficient": 4493,
      "ÄłTr": 4494,
      "ĠÄłway": 4495,
      "ĠÄłcar": 4496,
      "ĠÄłpoint": 4497,
      "ager": 4498,
      "orms": 4499,
      "2020": 4500,
      "ÄłVol": 4501,
      "2003": 4502,
      "Äłdepression": 4503,
      "Äłgrade": 4504,
      "pective": 4505,
      "Äłproperly": 4506,
      "Äłtopic": 4507,
      "Äłchoice": 4508,
      "Äłpromot": 4509,
      "Äłprofession": 4510,
      "Äłnutri": 4511,
      "Äłfemale": 4512,
      "Äłconflict": 4513,
      "EP": 4514,
      "su": 4515,
      "hether": 4516,
      "rest": 4517,
      "Äłbank": 4518,
      "Äłfear": 4519,
      "Äłfigure": 4520,
      "Äłstorage": 4521,
      "ifically": 4522,
      "orest": 4523,
      "ÄłDNA": 4524,
      "ÄłEgypt": 4525,
      "ogle": 4526,
      "Äłplastic": 4527,
      "Äłpartners": 4528,
      "Äłactions": 4529,
      "2001": 4530,
      "Äłprice": 4531,
      "Äłoffers": 4532,
      "Äłinstance": 4533,
      "Äłmuscle": 4534,
      "ortunately": 4535,
      "Äłcycle": 4536,
      "Äłstructures": 4537,
      "After": 4538,
      "EC": 4539,
      "nam": 4540,
      "Â¹": 4541,
      "Ãı": 4542,
      "inating": 4543,
      "Äłcities": 4544,
      "oul": 4545,
      "Äłinsect": 4546,
      "Äłlat": 4547,
      "Äłrich": 4548,
      "ÄłLord": 4549,
      "Äłsequ": 4550,
      "Äłplaced": 4551,
      "ormally": 4552,
      "Äłdisorders": 4553,
      "ÄłThus": 4554,
      "Äłoffice": 4555,
      "Äłbuy": 4556,
      "Äłexperiences": 4557,
      "ĠÄłsee": 4558,
      "Äłresulting": 4559,
      "Äłglass": 4560,
      "Äłreports": 4561,
      "ÄłDevelopment": 4562,
      "Äłwidely": 4563,
      "ÃĦÄ£": 4564,
      "Äłevalu": 4565,
      "Äłtissue": 4566,
      "Äłstrategies": 4567,
      "Äłapproximately": 4568,
      "ras": 4569,
      "ses": 4570,
      "atically": 4571,
      "oral": 4572,
      "Äłwall": 4573,
      "urance": 4574,
      "ÄłCity": 4575,
      "ndrome": 4576,
      "ÄłHel": 4577,
      "Äłchance": 4578,
      "ÄłNA": 4579,
      "Äłspeech": 4580,
      "ago": 4581,
      "acts": 4582,
      "Äłplatform": 4583,
      "Äłqual": 4584,
      "185": 4585,
      "Äłchanging": 4586,
      "Äłpicture": 4587,
      "99": 4588,
      "kin": 4589,
      "zz": 4590,
      "Âº": 4591,
      "erate": 4592,
      "Äłnames": 4593,
      "ÄłAng": 4594,
      "elines": 4595,
      "ÄłCouncil": 4596,
      "osystem": 4597,
      "Äłvill": 4598,
      "ÄłHouse": 4599,
      "aker": 4600,
      "ÄłOver": 4601,
      "lick": 4602,
      "Äłagg": 4603,
      "Äłsubs": 4604,
      "onomy": 4605,
      "Äłowners": 4606,
      "Äłstarting": 4607,
      "ÄłSeptember": 4608,
      "Äłpolicies": 4609,
      "Äłwrong": 4610,
      "ÄłAssociation": 4611,
      "Äłmedicine": 4612,
      "Äłrules": 4613,
      "Äłdoub": 4614,
      "Äłauthors": 4615,
      "AP": 4616,
      "Res": 4617,
      "Äłwatch": 4618,
      "Äłbed": 4619,
      "Äłburn": 4620,
      "icians": 4621,
      "Äłmel": 4622,
      "Äłden": 4623,
      "eters": 4624,
      "ĠÄłpop": 4625,
      "ÄłNovember": 4626,
      "Äłapply": 4627,
      "ĠÄłstate": 4628,
      "Äłpresident": 4629,
      "Äłelectrical": 4630,
      "Äłdescribe": 4631,
      "obert": 4632,
      "Äłannual": 4633,
      "ĠÄłra": 4634,
      "Äłmal": 4635,
      "Äłmiss": 4636,
      "olve": 4637,
      "raction": 4638,
      "Äłheavy": 4639,
      "ĠÄłback": 4640,
      "rier": 4641,
      "Äłtradition": 4642,
      "Äłtrig": 4643,
      "Äłgeneration": 4644,
      "Äłdetect": 4645,
      "Äłcreation": 4646,
      "ÄłAlso": 4647,
      "Äłorganization": 4648,
      "Äłvision": 4649,
      "Äłplanning": 4650,
      "ttps": 4651,
      "Äłindustrial": 4652,
      "Äłdogs": 4653,
      "Äłcrucial": 4654,
      "Äłclinical": 4655,
      "ÃĳÄ": 4656,
      "ST": 4657,
      "gency": 4658,
      "nic": 4659,
      "vision": 4660,
      "ya": 4661,
      "Äłten": 4662,
      "ĠÄłcell": 4663,
      "Äłsample": 4664,
      "itz": 4665,
      "ctors": 4666,
      "Äłliqu": 4667,
      "iring": 4668,
      "ams": 4669,
      "ÄłTheir": 4670,
      "ÄłPublic": 4671,
      "Äłvary": 4672,
      "They": 4673,
      "ÄłWestern": 4674,
      "ÄłEc": 4675,
      "ulture": 4676,
      "Äłresource": 4677,
      "Äłresistance": 4678,
      "Äłprefer": 4679,
      "rence": 4680,
      "Äłrecords": 4681,
      "ĠÄłstr": 4682,
      "ĠÄłBut": 4683,
      "Äłdefined": 4684,
      "iveness": 4685,
      "Äłconnected": 4686,
      "Äłmeeting": 4687,
      "ÄłInternet": 4688,
      "ĠÄłcomple": 4689,
      "ÄłRepublic": 4690,
      "Äłsexual": 4691,
      "CO": 4692,
      "Many": 4693,
      "des": 4694,
      "Â¥": 4695,
      "ĠW": 4696,
      "ĠÄłown": 4697,
      "Äłaid": 4698,
      "Äłmap": 4699,
      "Äłhomes": 4700,
      "struct": 4701,
      "ett": 4702,
      "ida": 4703,
      "uter": 4704,
      "raz": 4705,
      "Äłstyle": 4706,
      "ĠÄłinv": 4707,
      "ÄłDis": 4708,
      "ÄłFound": 4709,
      "ÄłGovernment": 4710,
      "ÄłUK": 4711,
      "ĠÄłnumber": 4712,
      "Äłjournal": 4713,
      "Äłprepar": 4714,
      "Äłcolle": 4715,
      "hips": 4716,
      "Äłdetails": 4717,
      "Äłseparate": 4718,
      "Äłextremely": 4719,
      "Äłmachine": 4720,
      "Äłthousands": 4721,
      "DA": 4722,
      "ping": 4723,
      "then": 4724,
      "ĠÄłocc": 4725,
      "heck": 4726,
      "enced": 4727,
      "Äłsav": 4728,
      "Äłpip": 4729,
      "Äłplease": 4730,
      "iling": 4731,
      "struction": 4732,
      "Äłformer": 4733,
      "ÄłSee": 4734,
      "ÄłMount": 4735,
      "ĠÄłschool": 4736,
      "ensus": 4737,
      "ĠÄłwithin": 4738,
      "Äłregions": 4739,
      "Äłdistinct": 4740,
      "ÄłProt": 4741,
      "ÄłProject": 4742,
      "Äłfinding": 4743,
      "ÄłIsland": 4744,
      "Äłgrass": 4745,
      "Äłlegis": 4746,
      "Äłobserv": 4747,
      "Äłparticipants": 4748,
      "Äłviolence": 4749,
      "Äłfaith": 4750,
      "46": 4751,
      "ij": 4752,
      "well": 4753,
      "Ãħ": 4754,
      "Ġg": 4755,
      "rep": 4756,
      "reated": 4757,
      "Äłpul": 4758,
      "lements": 4759,
      "astern": 4760,
      "Äłefficiency": 4761,
      "Äłreality": 4762,
      "Äłupper": 4763,
      "Äłhearing": 4764,
      "ÄłGen": 4765,
      "ÄłLondon": 4766,
      "akers": 4767,
      "Äłappears": 4768,
      "ĠÄłgood": 4769,
      "ĠÄłAr": 4770,
      "Äłsurgery": 4771,
      "1990": 4772,
      "Äłserved": 4773,
      "ĠÄłdoes": 4774,
      "Äłtemperatures": 4775,
      "Äłillness": 4776,
      "Äłconcepts": 4777,
      "rastructure": 4778,
      "Äłsymbol": 4779,
      "Äłaspects": 4780,
      "Con": 4781,
      "PS": 4782,
      "Â»": 4783,
      "Ġ||": 4784,
      "Äłsac": 4785,
      "Äłwond": 4786,
      "Äłfert": 4787,
      "Äłmort": 4788,
      "Äłrepe": 4789,
      "Äłisol": 4790,
      "iders": 4791,
      "otic": 4792,
      "ÄłPen": 4793,
      "keep": 4794,
      "ocol": 4795,
      "ÄłRoman": 4796,
      "place": 4797,
      "ĠÄłgreat": 4798,
      "ĠÄłbefore": 4799,
      "Äłcausing": 4800,
      "ÄłTherefore": 4801,
      "ognitive": 4802,
      "ÄłPlan": 4803,
      "Äłpromote": 4804,
      "Äłutil": 4805,
      "Äłconducted": 4806,
      "Äłdangerous": 4807,
      "Äłimmediately": 4808,
      "Äłbottom": 4809,
      "ĠJ": 4810,
      "ÄłÃ¢Ä": 4811,
      "Äłtask": 4812,
      "Äłsave": 4813,
      "Äłcrisis": 4814,
      "Äłanxiety": 4815,
      "Äłhuge": 4816,
      "Äłhospital": 4817,
      "uration": 4818,
      "ÄłSpec": 4819,
      "add": 4820,
      "isted": 4821,
      "ivation": 4822,
      "ÄłBar": 4823,
      "ÄłDist": 4824,
      "ÄłDavid": 4825,
      "ĠÄłmon": 4826,
      "ĠÄłhuman": 4827,
      "Äłclick": 4828,
      "ĠÄłref": 4829,
      "Äłanyone": 4830,
      "Äłscen": 4831,
      "ĠÄłyear": 4832,
      "ĠÄłIf": 4833,
      "Äłfamous": 4834,
      "exas": 4835,
      "ĠÄłchildren": 4836,
      "Äłfunctions": 4837,
      "ÄłSpace": 4838,
      "Äłperformed": 4839,
      "Äłoperations": 4840,
      "Äłintroduced": 4841,
      "Äłfrequently": 4842,
      "ING": 4843,
      "Äłremoved": 4844,
      "39": 4845,
      "ball": 4846,
      "Ã¡": 4847,
      "Äłtouch": 4848,
      "Äłcand": 4849,
      "Äłcore": 4850,
      "Äłbran": 4851,
      "Äłfavor": 4852,
      "Äłmer": 4853,
      "omy": 4854,
      "Äłlived": 4855,
      "Äłisland": 4856,
      "urd": 4857,
      "ÄłAv": 4858,
      "ÄłAir": 4859,
      "ÄłCom": 4860,
      "ÄłMex": 4861,
      "ÄłHIV": 4862,
      "ĠÄłboth": 4863,
      "ÄłLet": 4864,
      "2018": 4865,
      "Äłunivers": 4866,
      "ĠÄłAnd": 4867,
      "2002": 4868,
      "ÃĥÄ": 4869,
      "Äłexperiment": 4870,
      "Äłtreatments": 4871,
      "Äłmainly": 4872,
      "Äłminor": 4873,
      "Äłorganic": 4874,
      "Äłgene": 4875,
      "Äłsaying": 4876,
      "Äłterrit": 4877,
      "Äłinitial": 4878,
      "Äłnutrition": 4879,
      "Äłacademic": 4880,
      "42": 4881,
      "CC": 4882,
      "cont": 4883,
      "ey": 4884,
      "gment": 4885,
      "iate": 4886,
      "las": 4887,
      "Ġ!": 4888,
      "ĠÄłec": 4889,
      "onic": 4890,
      "Äłsort": 4891,
      "Äłbodies": 4892,
      "Äłfol": 4893,
      "Äłnative": 4894,
      "ÄłSch": 4895,
      "esting": 4896,
      "Äłchronic": 4897,
      "riage": 4898,
      "ÄłNet": 4899,
      "ÄłGreen": 4900,
      "Äłship": 4901,
      "Äłcontribute": 4902,
      "inding": 4903,
      "Äłhelping": 4904,
      "That": 4905,
      "Äłexposed": 4906,
      "Äłinstruct": 4907,
      "1999": 4908,
      "Äłlargely": 4909,
      "Äłdidn": 4910,
      "Äłlearned": 4911,
      "Äłgenes": 4912,
      "Äłinvolves": 4913,
      "aughter": 4914,
      "Äłmotor": 4915,
      "Äłchallenge": 4916,
      "Äłcopy": 4917,
      "fessor": 4918,
      "RO": 4919,
      "col": 4920,
      "uing": 4921,
      "uable": 4922,
      "Â¨": 4923,
      "Â®": 4924,
      "alm": 4925,
      "Äłstar": 4926,
      "adian": 4927,
      "ÄłPort": 4928,
      "ĠÄłdid": 4929,
      "oster": 4930,
      "anged": 4931,
      "Äłupd": 4932,
      "ysical": 4933,
      "Äłreference": 4934,
      "Äłwanted": 4935,
      "roduction": 4936,
      "Äłflowers": 4937,
      "Äłrelevant": 4938,
      "uilding": 4939,
      "ÄłJapanese": 4940,
      "rum": 4941,
      "za": 4942,
      "Â¶": 4943,
      "ĠÄłthree": 4944,
      "atus": 4945,
      "Äłpric": 4946,
      "Äłmag": 4947,
      "rog": 4948,
      "state": 4949,
      "Äłgames": 4950,
      "irt": 4951,
      "irus": 4952,
      "eline": 4953,
      "ÄłDem": 4954,
      "ÄłEar": 4955,
      "Äłseeds": 4956,
      "Äłcomprehens": 4957,
      "ĠÄłtake": 4958,
      "erves": 4959,
      "athy": 4960,
      "ĠÄłThey": 4961,
      "raining": 4962,
      "Äłfacts": 4963,
      "ounced": 4964,
      "Äłradio": 4965,
      "Äłvolume": 4966,
      "Äłreleased": 4967,
      "udden": 4968,
      "Äłcampaign": 4969,
      "Äłcounter": 4970,
      "Äłindependent": 4971,
      "Äłdefinition": 4972,
      "Äłestimated": 4973,
      "AM": 4974,
      "No": 4975,
      "och": 4976,
      "west": 4977,
      "Â«": 4978,
      "Äłtum": 4979,
      "Äłtour": 4980,
      "icular": 4981,
      "Äłmission": 4982,
      "leg": 4983,
      "ules": 4984,
      "ulating": 4985,
      "ÄłSun": 4986,
      "Äłstore": 4987,
      "acific": 4988,
      "ÄłPat": 4989,
      "ĠÄłcor": 4990,
      "ĠÄłmust": 4991,
      "Äłseed": 4992,
      "Äłkilled": 4993,
      "Äładult": 4994,
      "Äłdiss": 4995,
      "Äłrace": 4996,
      "Äłhelped": 4997,
      "oyal": 4998,
      "Äłexperts": 4999,
      "Äłparticles": 5000,
      "....": 5001,
      "ÄłProgram": 5002,
      "Äłshowing": 5003,
      "Äłclasses": 5004,
      "Äłbelong": 5005,
      "Äładvanced": 5006,
      "Äłimproved": 5007,
      "ĠÄłstudents": 5008,
      "Äłregarding": 5009,
      "Äłprocedure": 5010,
      "Äłalternative": 5011,
      "AD": 5012,
      "Now": 5013,
      "Sh": 5014,
      "Â¾": 5015,
      "Äłcovered": 5016,
      "ittle": 5017,
      "arp": 5018,
      "Äłbound": 5019,
      "Äłbird": 5020,
      "Äłdra": 5021,
      "Äłdivid": 5022,
      "ceived": 5023,
      "ÄłCath": 5024,
      "ÄłCongress": 5025,
      "Äłitems": 5026,
      "ÄłMuseum": 5027,
      "unk": 5028,
      "Äłcharg": 5029,
      "plain": 5030,
      "aped": 5031,
      "ÄłOnce": 5032,
      "2019": 5033,
      "ishing": 5034,
      "ĠÄłreport": 5035,
      "ĠÄłequ": 5036,
      "rowing": 5037,
      "Äłrot": 5038,
      "Äłtransl": 5039,
      "ĠÄłWe": 5040,
      "Äłsetting": 5041,
      "ĠÄłGod": 5042,
      "ĠÄłexample": 5043,
      "Äłdepending": 5044,
      "150": 5045,
      "ÄłWeb": 5046,
      "Äłopin": 5047,
      "Äłpaint": 5048,
      "Äłslight": 5049,
      "ĠÄłdevelop": 5050,
      "Äłhousehold": 5051,
      "Äłengineering": 5052,
      "Äłreplace": 5053,
      "Äłvaccine": 5054,
      "Äłbeautiful": 5055,
      "Äłvictim": 5056,
      "Äładvantage": 5057,
      "atabase": 5058,
      "eer": 5059,
      "Âµ": 5060,
      "eria": 5061,
      "Äłsem": 5062,
      "roke": 5063,
      "Äłthick": 5064,
      "Äłlanguages": 5065,
      "Äłforward": 5066,
      "ander": 5067,
      "ÄłMich": 5068,
      "Äłexcellent": 5069,
      "ĠÄłbo": 5070,
      "ÄłWork": 5071,
      "ĠÄłday": 5072,
      "ĠÄłdep": 5073,
      "ÄłInter": 5074,
      "berg": 5075,
      "Äłoutcomes": 5076,
      "ĠÄłAn": 5077,
      "Äłtruth": 5078,
      "Äłgoals": 5079,
      "Äłinflamm": 5080,
      "ĠÄłEng": 5081,
      "Äłready": 5082,
      "Äłcurriculum": 5083,
      "Äłallowing": 5084,
      "Äłpassed": 5085,
      "ĠÄłlevel": 5086,
      "ginia": 5087,
      "Äłtrend": 5088,
      "Äłletter": 5089,
      "ÄłEnergy": 5090,
      "Äłconcerns": 5091,
      "ĠÄłstudy": 5092,
      "Äłfarmers": 5093,
      "ÄłLearning": 5094,
      "Äłeggs": 5095,
      "47": 5096,
      "EL": 5097,
      "Ph": 5098,
      "lam": 5099,
      "ooth": 5100,
      "rich": 5101,
      "van": 5102,
      "win": 5103,
      "inos": 5104,
      "Äłwin": 5105,
      "ician": 5106,
      "Äłdram": 5107,
      "Äłreaction": 5108,
      "Äłrenew": 5109,
      "Äłlung": 5110,
      "ota": 5111,
      "Äłgender": 5112,
      "ĠÄłinformation": 5113,
      "ÄłDec": 5114,
      "iah": 5115,
      "ÄłInf": 5116,
      "Äłarm": 5117,
      "onds": 5118,
      "Äłrelative": 5119,
      "Äłcarried": 5120,
      "Äłtechnical": 5121,
      "Äłtechnique": 5122,
      "Äłvolunt": 5123,
      "Äłlooks": 5124,
      "Äłcharacteristics": 5125,
      "Äłpreviously": 5126,
      "Cl": 5127,
      "ND": 5128,
      "nel": 5129,
      "ville": 5130,
      "Ġ9": 5131,
      "Äłcere": 5132,
      "alle": 5133,
      "inger": 5134,
      "Äłpark": 5135,
      "Äłpieces": 5136,
      "Äłbus": 5137,
      "iced": 5138,
      "Äłdie": 5139,
      "idity": 5140,
      "ado": 5141,
      "Äłconv": 5142,
      "Äłalt": 5143,
      "ÄłMars": 5144,
      "Äłcomfort": 5145,
      "Äłvessel": 5146,
      "ÄłFebruary": 5147,
      "Äłnoted": 5148,
      "Äłspot": 5149,
      "Äłcontribut": 5150,
      "Äłunf": 5151,
      "Äłappoint": 5152,
      "ĠÄłgovernment": 5153,
      "ĠÄłstart": 5154,
      "ĠÄłwhile": 5155,
      "hemical": 5156,
      "Äłgraph": 5157,
      "cribed": 5158,
      "ÄłSpanish": 5159,
      "Äłbright": 5160,
      "Äłdetermined": 5161,
      "Äłfamiliar": 5162,
      "ÄłSocial": 5163,
      "Äłjobs": 5164,
      "Äłoxygen": 5165,
      "ĠÄłimportant": 5166,
      "Äłatmosphere": 5167,
      "Äłfreedom": 5168,
      "Äłphenomen": 5169,
      "bi": 5170,
      "vis": 5171,
      "works": 5172,
      "yt": 5173,
      "Ġ7": 5174,
      "ĠÄłÃ¢Ä¢Äº": 5175,
      "reate": 5176,
      "itness": 5177,
      "roid": 5178,
      "stood": 5179,
      "Äłreb": 5180,
      "celer": 5181,
      "Äłfort": 5182,
      "andom": 5183,
      "amental": 5184,
      "ĠÄłcond": 5185,
      "Äłvulner": 5186,
      "ĠÄłmem": 5187,
      "ÄłGreek": 5188,
      "ÄłLatin": 5189,
      "ÄłUnder": 5190,
      "Äłmeant": 5191,
      "Äłparty": 5192,
      "luded": 5193,
      "Äłconsult": 5194,
      "Äłgets": 5195,
      "Äłdrinking": 5196,
      "ifying": 5197,
      "Äłinvolve": 5198,
      "Äłconnection": 5199,
      "Äłdegrees": 5200,
      "which": 5201,
      "Äłencourage": 5202,
      "Äłpollution": 5203,
      "Äłpatterns": 5204,
      "Äłvehicle": 5205,
      "Äłinterpret": 5206,
      "Äłmentioned": 5207,
      "Most": 5208,
      "field": 5209,
      "gi": 5210,
      "Â¬": 5211,
      "Äłfine": 5212,
      "Äłinform": 5213,
      "Äłinput": 5214,
      "Äłnav": 5215,
      "aying": 5216,
      "ÄłIS": 5217,
      "opes": 5218,
      "Äłhear": 5219,
      "osen": 5220,
      "ĠÄłpower": 5221,
      "Äłcharge": 5222,
      "ÄłDi": 5223,
      "Äłweak": 5224,
      "Äłkid": 5225,
      "Äłincorpor": 5226,
      "Äłdisp": 5227,
      "Äłjour": 5228,
      "ĠÄłComm": 5229,
      "ĠÄłorgan": 5230,
      "ĠÄłFor": 5231,
      "ĠÄłshow": 5232,
      "ĠÄłcontin": 5233,
      "Äłload": 5234,
      "Äłrequirements": 5235,
      "Äłconcerned": 5236,
      "Äłrelationships": 5237,
      "ascular": 5238,
      "Äłcredit": 5239,
      "ÄłService": 5240,
      "IL": 5241,
      "ixt": 5242,
      "rations": 5243,
      "Äłtasks": 5244,
      "Äłple": 5245,
      "Äłpaid": 5246,
      "arrow": 5247,
      "ario": 5248,
      "Äłinh": 5249,
      "Äłdro": 5250,
      "Äłhorm": 5251,
      "olars": 5252,
      "ÄłTur": 5253,
      "usal": 5254,
      "resents": 5255,
      "osite": 5256,
      "rian": 5257,
      "ague": 5258,
      "ÄłOb": 5259,
      "Äłneuro": 5260,
      "inds": 5261,
      "oseph": 5262,
      "Äłoutput": 5263,
      "Äłunknown": 5264,
      "ĠÄłgener": 5265,
      "rowth": 5266,
      "Äłmostly": 5267,
      "Äłattacks": 5268,
      "ĠÄłproble": 5269,
      "Äłprocessing": 5270,
      "Äłoccurred": 5271,
      "Äłforeign": 5272,
      "Äłtopics": 5273,
      "Äłfocused": 5274,
      "Äłhappens": 5275,
      "Äłchemicals": 5276,
      "________": 5277,
      "Äłinjury": 5278,
      "Äłprocedures": 5279,
      "Äłelectricity": 5280,
      "Äłrapidly": 5281,
      "According": 5282,
      "US": 5283,
      "mat": 5284,
      "ĠÄłZ": 5285,
      "Äłap": 5286,
      "Äłtherm": 5287,
      "ishes": 5288,
      "Äłbag": 5289,
      "Äłfig": 5290,
      "Äłfelt": 5291,
      "icide": 5292,
      "oted": 5293,
      "ÄłST": 5294,
      "ÄłData": 5295,
      "Äłspl": 5296,
      "Äłkill": 5297,
      "ÄłJust": 5298,
      "ĠÄłless": 5299,
      "Äłrecy": 5300,
      "Äłcollege": 5301,
      "Äłinstruction": 5302,
      "Äłextent": 5303,
      "ÄłAsia": 5304,
      "Äłgoods": 5305,
      "Äłbackground": 5306,
      "Äłprotected": 5307,
      "Äłreducing": 5308,
      "Äłcontinues": 5309,
      "Äładvice": 5310,
      "ÄłWhy": 5311,
      "Äłcapable": 5312,
      "Äłinvestment": 5313,
      "Äłauthority": 5314,
      "Äłreligion": 5315,
      "ypes": 5316,
      "Äłdestroy": 5317,
      "ÄłGeorge": 5318,
      "Äłliterature": 5319,
      "ĠÄłincluding": 5320,
      "aturally": 5321,
      "igenous": 5322,
      "ÃıÄ": 5323,
      "Im": 5324,
      "rates": 5325,
      "zing": 5326,
      "Ġw": 5327,
      "Äłign": 5328,
      "Äłtrib": 5329,
      "Äłtaught": 5330,
      "ĠÄłant": 5331,
      "rem": 5332,
      "arant": 5333,
      "Äłban": 5334,
      "Äłstone": 5335,
      "ÄłMor": 5336,
      "ÄłMal": 5337,
      "ĠÄłwomen": 5338,
      "ogy": 5339,
      "acters": 5340,
      "rust": 5341,
      "ÄłOff": 5342,
      "bert": 5343,
      "Äłroll": 5344,
      "Äłprinciples": 5345,
      "ĠÄłIs": 5346,
      "Äłexpert": 5347,
      "ĠÄłRes": 5348,
      "Äłseek": 5349,
      "Äłcompleted": 5350,
      "Äłfeeling": 5351,
      "Äłbrother": 5352,
      "Äłconcern": 5353,
      "ĠÄłcommon": 5354,
      "Äłlayer": 5355,
      "Äłmanufacture": 5356,
      "Äłsquare": 5357,
      "Äłaccurate": 5358,
      "Äłneighbor": 5359,
      "ÄłTechnology": 5360,
      "66": 5361,
      "Qu": 5362,
      "cest": 5363,
      "li": 5364,
      "liam": 5365,
      "rial": 5366,
      "Ã¥": 5367,
      "Äłly": 5368,
      "Äłaqu": 5369,
      "requ": 5370,
      "Äłinvent": 5371,
      "Äłhaz": 5372,
      "eting": 5373,
      "ÄłSy": 5374,
      "ÄłCourt": 5375,
      "abil": 5376,
      "abits": 5377,
      "ache": 5378,
      "ĠÄłpract": 5379,
      "Äłriver": 5380,
      "ĠÄłmain": 5381,
      "ĠÄłdem": 5382,
      "ĠÄłdown": 5383,
      "Äłpret": 5384,
      "ĠÄłiss": 5385,
      "ĠÄłAs": 5386,
      "ÄłChildren": 5387,
      "Äłroots": 5388,
      "ĠÄłvar": 5389,
      "Äłdepends": 5390,
      "Äłpopulations": 5391,
      "Äłecosystem": 5392,
      "Äłconstant": 5393,
      "Äłbuildings": 5394,
      "ÄłIsrael": 5395,
      "ĠÄłplace": 5396,
      "Äłkeeping": 5397,
      "Äłresponsibility": 5398,
      "55": 5399,
      "All": 5400,
      "ION": 5401,
      "break": 5402,
      "lers": 5403,
      "name": 5404,
      "Ġ000": 5405,
      "reci": 5406,
      "itt": 5407,
      "Äłdri": 5408,
      "asters": 5409,
      "Äłhour": 5410,
      "ston": 5411,
      "Äłnor": 5412,
      "racy": 5413,
      "ested": 5414,
      "ums": 5415,
      "Äłexternal": 5416,
      "ÄłDirect": 5417,
      "agues": 5418,
      "ĠÄłnow": 5419,
      "Äłju": 5420,
      "rick": 5421,
      "Äłapparent": 5422,
      "jects": 5423,
      "ĠÄłset": 5424,
      "Äłsolid": 5425,
      "prise": 5426,
      "ÄłFranc": 5427,
      "Äłmessage": 5428,
      "olitical": 5429,
      "Äłagricultural": 5430,
      "ĠÄłresearch": 5431,
      "liament": 5432,
      "77": 5433,
      "BC": 5434,
      "iated": 5435,
      "Â´": 5436,
      "ĠÄłusing": 5437,
      "itors": 5438,
      "Äłbow": 5439,
      "asp": 5440,
      "olute": 5441,
      "cel": 5442,
      "irds": 5443,
      "ÄłCivil": 5444,
      "estions": 5445,
      "ĠÄłwrit": 5446,
      "ĠÄłbody": 5447,
      "ÄłRem": 5448,
      "ĠÄłmajor": 5449,
      "Äłshared": 5450,
      "ĠÄłread": 5451,
      "enses": 5452,
      "Äłstudied": 5453,
      "Äłsyn": 5454,
      "Äłhelpful": 5455,
      "Äłobvious": 5456,
      "ventional": 5457,
      "ÃĥÅĥ": 5458,
      "rained": 5459,
      "Äłsettle": 5460,
      "Äłinsp": 5461,
      "ĠÄłright": 5462,
      "ĠÄłconf": 5463,
      "Äłpurposes": 5464,
      "Äłmathemat": 5465,
      "being": 5466,
      "Äłoperation": 5467,
      "ÄłQue": 5468,
      "Äłintroduction": 5469,
      "Äłsteel": 5470,
      "Äłinstrument": 5471,
      "ÄłMedicine": 5472,
      "Cont": 5473,
      "MS": 5474,
      "rish": 5475,
      "Ġa": 5476,
      "Äłcast": 5477,
      "ittee": 5478,
      "Äłpig": 5479,
      "aria": 5480,
      "Äłmaster": 5481,
      "stances": 5482,
      "ching": 5483,
      "Äłgarden": 5484,
      "ÄłSal": 5485,
      "Äłstars": 5486,
      "Äłalg": 5487,
      "ategy": 5488,
      "ÄłFood": 5489,
      "Äłclos": 5490,
      "ĠÄłlarge": 5491,
      "overty": 5492,
      "ifications": 5493,
      "Äłexpression": 5494,
      "Äłtransform": 5495,
      "Äłsignal": 5496,
      "Äłthoughts": 5497,
      "Äłstatement": 5498,
      "Äłplayed": 5499,
      "ĠÄłimp": 5500,
      "Äłhyper": 5501,
      "Äłessay": 5502,
      "Äłprofessor": 5503,
      "ademy": 5504,
      "Äłfrequency": 5505,
      "Äłsurvival": 5506,
      "ĠÄłindividual": 5507,
      "Äłrevolution": 5508,
      "Äłbreathing": 5509,
      "Äłsustainable": 5510,
      "Äłbegins": 5511,
      "Äłpregnancy": 5512,
      "Äłgirls": 5513,
      "Äłmoist": 5514,
      "Äłliquid": 5515,
      "'ve": 5516,
      "From": 5517,
      "long": 5518,
      "ĠÄłel": 5519,
      "inations": 5520,
      "inction": 5521,
      "Äłsong": 5522,
      "Äłsouthern": 5523,
      "esc": 5524,
      "Äłfaster": 5525,
      "Äłhit": 5526,
      "Äłlinks": 5527,
      "Äłpros": 5528,
      "ÄłMart": 5529,
      "ÄłMark": 5530,
      "ÄłMiddle": 5531,
      "ĠÄłpublic": 5532,
      "ĠÄłpresent": 5533,
      "uns": 5534,
      "ria": 5535,
      "Äłkn": 5536,
      "Äłtea": 5537,
      "cium": 5538,
      "portion": 5539,
      "ditionally": 5540,
      "Äłformation": 5541,
      "Äłnumerous": 5542,
      "ÄłNews": 5543,
      "ÄłWhite": 5544,
      "ÄłClass": 5545,
      "ĠÄłresult": 5546,
      "Äłcomputers": 5547,
      "Äłclearly": 5548,
      "ÄłOrgan": 5549,
      "ipped": 5550,
      "ÄłSecond": 5551,
      "Äłdiagnosis": 5552,
      "Äłreferred": 5553,
      "ĠÄłsupport": 5554,
      "htm": 5555,
      "Our": 5556,
      "pat": 5557,
      "point": 5558,
      "rating": 5559,
      "tage": 5560,
      "ĠÃ¢Ä¢Ä¶": 5561,
      "ĠÄłlear": 5562,
      "Äłsalt": 5563,
      "Äłsamples": 5564,
      "Äłcrim": 5565,
      "alian": 5566,
      "Äłreached": 5567,
      "imize": 5568,
      "terol": 5569,
      "atever": 5570,
      "umin": 5571,
      "ÄłPaul": 5572,
      "ÄłBer": 5573,
      "ÄłRobert": 5574,
      "Äłleaf": 5575,
      "ÄłLibrary": 5576,
      "apes": 5577,
      "Äłcontrast": 5578,
      "Äłcontrolled": 5579,
      "ÄłThomas": 5580,
      "ÄłIts": 5581,
      "ternational": 5582,
      "Äłaccom": 5583,
      "Äłobtain": 5584,
      "Äłinfrastructure": 5585,
      "Äłcoord": 5586,
      "Äłstrategy": 5587,
      "Äłdriving": 5588,
      "Äłpractical": 5589,
      "Äłmuscles": 5590,
      "Äłinterested": 5591,
      "Äłorigin": 5592,
      "Äłcircum": 5593,
      "prove": 5594,
      "ĠÄłclass": 5595,
      "Äłmedications": 5596,
      "ÄłJews": 5597,
      "Äłlinked": 5598,
      "'ll": 5599,
      "New": 5600,
      "OL": 5601,
      "RI": 5602,
      "down": 5603,
      "kes": 5604,
      "oil": 5605,
      "uels": 5606,
      "Â²": 5607,
      "Äłax": 5608,
      "atal": 5609,
      "Äłod": 5610,
      "Äłcert": 5611,
      "alse": 5612,
      "Äłwave": 5613,
      "Äłmix": 5614,
      "Äłdiversity": 5615,
      "Äłdoll": 5616,
      "olina": 5617,
      "Äłstem": 5618,
      "Äłyellow": 5619,
      "ellect": 5620,
      "Äłwhom": 5621,
      "Äłheard": 5622,
      "ĠÄłcap": 5623,
      "ÄłBook": 5624,
      "ĠÄłspe": 5625,
      "Äłvital": 5626,
      "ĠÄłfl": 5627,
      "ĠÄłfind": 5628,
      "ÄłDon": 5629,
      "ĠÄłmight": 5630,
      "earing": 5631,
      "ansion": 5632,
      "Äłintended": 5633,
      "Äłkm": 5634,
      "Äładjust": 5635,
      "Äłdisapp": 5636,
      "ĠÄłAd": 5637,
      "Äłages": 5638,
      "189": 5639,
      "ictor": 5640,
      "Äłextensive": 5641,
      "Äłshel": 5642,
      "Äładding": 5643,
      "Äłreduction": 5644,
      "Äłlesson": 5645,
      "Äłdrink": 5646,
      "Äłoperating": 5647,
      "olicy": 5648,
      "Äłclosely": 5649,
      "olesterol": 5650,
      "Äłproteins": 5651,
      "Äłconcentration": 5652,
      "Äłcardi": 5653,
      "Äłprinciple": 5654,
      "49": 5655,
      "57": 5656,
      "CE": 5657,
      "eper": 5658,
      "iological": 5659,
      "pons": 5660,
      "rine": 5661,
      "rons": 5662,
      "war": 5663,
      "with": 5664,
      "inn": 5665,
      "Äłsick": 5666,
      "Äłsides": 5667,
      "Äłpun": 5668,
      "Äłfif": 5669,
      "roc": 5670,
      "Äłnations": 5671,
      "Äłnaturally": 5672,
      "ÄłTexas": 5673,
      "ÄłSuch": 5674,
      "ifies": 5675,
      "ÄłMary": 5676,
      "Äłcomment": 5677,
      "ÄłBay": 5678,
      "ellite": 5679,
      "ĠÄłlaw": 5680,
      "Äłdespite": 5681,
      "erman": 5682,
      "Äłemb": 5683,
      "ĠÄłanother": 5684,
      "Äłexplains": 5685,
      "1998": 5686,
      "Äłcorrespond": 5687,
      "Äładvoc": 5688,
      "Äłmetal": 5689,
      "Äłtrust": 5690,
      "Äłturned": 5691,
      "Äłkinds": 5692,
      "Although": 5693,
      "Äłregularly": 5694,
      "OT": 5695,
      "Pl": 5696,
      "ael": 5697,
      "burg": 5698,
      "rant": 5699,
      "Äłsector": 5700,
      "itage": 5701,
      "ala": 5702,
      "Äłpup": 5703,
      "Äłpull": 5704,
      "Äłfoss": 5705,
      "Äłmath": 5706,
      "Äłstation": 5707,
      "istan": 5708,
      "istant": 5709,
      "ÄłMass": 5710,
      "ÄłMont": 5711,
      "estyle": 5712,
      "ĠÄłwar": 5713,
      "Äłexecut": 5714,
      "ÄłBas": 5715,
      "ÄłBel": 5716,
      "ocation": 5717,
      "Äłsufficient": 5718,
      "ĠÄłav": 5719,
      "ÄłWomen": 5720,
      "Äłwealth": 5721,
      "Äłclim": 5722,
      "ĠÄłnear": 5723,
      "Äłmanner": 5724,
      "Äłmeat": 5725,
      "Äłprem": 5726,
      "ificial": 5727,
      "Äłrain": 5728,
      "energy": 5729,
      "Äłphase": 5730,
      "ĠÄłHowever": 5731,
      "Äłformal": 5732,
      "rane": 5733,
      "Äłtested": 5734,
      "Äłdiverse": 5735,
      "ĠÄłchild": 5736,
      "azing": 5737,
      "Äłtypical": 5738,
      "roduct": 5739,
      "Äłpotentially": 5740,
      "ĠÄłplan": 5741,
      "idden": 5742,
      "ÄłCommission": 5743,
      "Another": 5744,
      "Äłfruits": 5745,
      "ĠÄłeduc": 5746,
      "ÄłCharles": 5747,
      "Äłexperienced": 5748,
      "ÄłNASA": 5749,
      "During": 5750,
      "band": 5751,
      "gest": 5752,
      "hi": 5753,
      "upp": 5754,
      "Â£": 5755,
      "Â¿": 5756,
      "Ġh": 5757,
      "eries": 5758,
      "orrow": 5759,
      "itamin": 5760,
      "Äłmere": 5761,
      "Äłmixed": 5762,
      "Äłdent": 5763,
      "Äłdental": 5764,
      "Äłthin": 5765,
      "uty": 5766,
      "uls": 5767,
      "ulin": 5768,
      "Äłstages": 5769,
      "eling": 5770,
      "ÄłMet": 5771,
      "ÄłPal": 5772,
      "ÄłPol": 5773,
      "ĠÄłcalled": 5774,
      "Äłround": 5775,
      "ÄłDef": 5776,
      "ÄłRef": 5777,
      "Äłweap": 5778,
      "Äłselected": 5779,
      "Äłsyndrome": 5780,
      "ÄłKore": 5781,
      "Äłrecovery": 5782,
      "Äłconsists": 5783,
      "ĠÄłThese": 5784,
      "Äłfloor": 5785,
      "Äłdiscovery": 5786,
      "ÄłProv": 5787,
      "cling": 5788,
      "1997": 5789,
      "ÄłAnother": 5790,
      "Äłsupported": 5791,
      "pected": 5792,
      "ĠÄłimm": 5793,
      "print": 5794,
      "Äłfacilities": 5795,
      "Äłmulti": 5796,
      "Äłviews": 5797,
      "Äłsuggested": 5798,
      "Äłdiscussed": 5799,
      "Äłexistence": 5800,
      "ÄłAbout": 5801,
      "Äłmorning": 5802,
      "Äłsubstant": 5803,
      "Äłsubstance": 5804,
      "iotics": 5805,
      "Äłprecise": 5806,
      "41": 5807,
      "Ab": 5808,
      "DF": 5809,
      "IA": 5810,
      "IM": 5811,
      "ups": 5812,
      "ye": 5813,
      "Äłsend": 5814,
      "Äłsudden": 5815,
      "Äłcoff": 5816,
      "Äłwaters": 5817,
      "arter": 5818,
      "Äłmist": 5819,
      "Äłmoon": 5820,
      "Äłdrop": 5821,
      "oto": 5822,
      "uted": 5823,
      "Äłforced": 5824,
      "Äłonto": 5825,
      "ÄłScient": 5826,
      "abric": 5827,
      "oper": 5828,
      "udget": 5829,
      "ÄłElect": 5830,
      "riend": 5831,
      "ĠÄłmen": 5832,
      "Äłabuse": 5833,
      "Äłimpl": 5834,
      "ĠÄłgl": 5835,
      "ĠÄłSp": 5836,
      "ĠÄłCon": 5837,
      "ĠÄłstill": 5838,
      "ĠÄłPh": 5839,
      "Äłsupplies": 5840,
      "Äłkept": 5841,
      "apping": 5842,
      "Äłvisible": 5843,
      "Äłgreatest": 5844,
      "Äładvance": 5845,
      "Äłideal": 5846,
      "ÄłSea": 5847,
      "Äłimpacts": 5848,
      "ĠÄłChrist": 5849,
      "ÄłMedical": 5850,
      "Äłdeaths": 5851,
      "Äłemployees": 5852,
      "Äłstraight": 5853,
      "ĠÄłagainst": 5854,
      "Äłnutrients": 5855,
      "ÄłFoundation": 5856,
      "Äłaccompl": 5857,
      "Even": 5858,
      "OS": 5859,
      "UR": 5860,
      "Why": 5861,
      "].": 5862,
      "gers": 5863,
      "ua": 5864,
      "ĠÄłhere": 5865,
      "inity": 5866,
      "organ": 5867,
      "edu": 5868,
      "Äłpages": 5869,
      "Äłmamm": 5870,
      "Äłrein": 5871,
      "otes": 5872,
      "utch": 5873,
      "utrition": 5874,
      "ÄłToday": 5875,
      "ÄłAD": 5876,
      "ÄłMat": 5877,
      "ĠÄłserv": 5878,
      "ÄłEv": 5879,
      "ibilities": 5880,
      "ava": 5881,
      "ÄłJer": 5882,
      "ÄłInstead": 5883,
      "Äłcloud": 5884,
      "ĠÄłne": 5885,
      "ĠÄłret": 5886,
      "oughly": 5887,
      "oviet": 5888,
      "Äłoffered": 5889,
      "Äłmetab": 5890,
      "ĠÄłknown": 5891,
      "afety": 5892,
      "Äłbiological": 5893,
      "ependent": 5894,
      "ivalent": 5895,
      "Äłrecognize": 5896,
      "Äłharmful": 5897,
      "Äłprepared": 5898,
      "Äłvegetables": 5899,
      "ÄłUsing": 5900,
      "Äłenhance": 5901,
      "ka": 5902,
      "rors": 5903,
      "rants": 5904,
      "indu": 5905,
      "ato": 5906,
      "ita": 5907,
      "Äłfib": 5908,
      "Äłdedic": 5909,
      "roops": 5910,
      "Äłhttps": 5911,
      "stream": 5912,
      "Äłlib": 5913,
      "Äłlik": 5914,
      "iginal": 5915,
      "ÄłCare": 5916,
      "ÄłMac": 5917,
      "ĠÄłsocial": 5918,
      "ĠÄłpot": 5919,
      "Äłvent": 5920,
      "ÄłHuman": 5921,
      "ĠÄłfamily": 5922,
      "ogs": 5923,
      "ÄłRome": 5924,
      "Äłspent": 5925,
      "agers": 5926,
      "Äłkil": 5927,
      "ÄłOld": 5928,
      "ieve": 5929,
      "ailed": 5930,
      "Äłagencies": 5931,
      "tenance": 5932,
      "Äłassign": 5933,
      "Äłdecided": 5934,
      "Äłflood": 5935,
      "Äłmedium": 5936,
      "Äłmedication": 5937,
      "Äłsignals": 5938,
      "Äłdistrict": 5939,
      "ounter": 5940,
      "Äłmovements": 5941,
      "Äłsituations": 5942,
      "Äłbeneficial": 5943,
      "Äłcharacters": 5944,
      "Äłletters": 5945,
      "ÄłManagement": 5946,
      "ÄłSupp": 5947,
      "Äłhorse": 5948,
      "Äłgovernments": 5949,
      "ÄłVirginia": 5950,
      "76": 5951,
      "flow": 5952,
      "pen": 5953,
      "rd": 5954,
      "uke": 5955,
      "Ġe": 5956,
      "enry": 5957,
      "Äłsounds": 5958,
      "Äłcrops": 5959,
      "Äłdream": 5960,
      "level": 5961,
      "omach": 5962,
      "ÄłSub": 5963,
      "ods": 5964,
      "Äłyouth": 5965,
      "emporary": 5966,
      "ÄłPacific": 5967,
      "ĠÄłpass": 5968,
      "Äłvast": 5969,
      "ÄłRel": 5970,
      "Äłnotice": 5971,
      "ĠÄłdi": 5972,
      "ichard": 5973,
      "ÄłLife": 5974,
      "rue": 5975,
      "ĠÄłhand": 5976,
      "Äłteen": 5977,
      "Äłimpossible": 5978,
      "Äłconservation": 5979,
      "Äłcollected": 5980,
      "Äłprison": 5981,
      "ĠÄłThere": 5982,
      "Ġ://": 5983,
      "Äłremained": 5984,
      "Äłinstall": 5985,
      "Äłsets": 5986,
      "ropical": 5987,
      "Äłleader": 5988,
      "ÄłArmy": 5989,
      "Äłcareer": 5990,
      "Äłcombined": 5991,
      "ÄłCentral": 5992,
      "1970": 5993,
      "Äłfiles": 5994,
      "Äłmotion": 5995,
      "Äłstrengthen": 5996,
      "Äłcompetition": 5997,
      "ĠÄłUnited": 5998,
      "Äłcouple": 5999,
      "Äłhundreds": 6000,
      "Äłlandscape": 6001,
      "ocratic": 6002,
      "Äłtoxic": 6003,
      "ÄłMexico": 6004,
      "43": 6005,
      "79": 6006,
      "Ar": 6007,
      "CA": 6008,
      "Lear": 6009,
      "My": 6010,
      "TS": 6011,
      "cers": 6012,
      "free": 6013,
      "hand": 6014,
      "oo": 6015,
      "Ġn": 6016,
      "ĠÄłYou": 6017,
      "reland": 6018,
      "Äłsin": 6019,
      "Äłsan": 6020,
      "Äłsand": 6021,
      "Äłcook": 6022,
      "Äłfract": 6023,
      "icon": 6024,
      "Äłinject": 6025,
      "Äłnorthern": 6026,
      "imental": 6027,
      "igher": 6028,
      "andon": 6029,
      "Äłoral": 6030,
      "ÄłMr": 6031,
      "uma": 6032,
      "Äłheight": 6033,
      "osph": 6034,
      "ÄłBro": 6035,
      "ÄłHol": 6036,
      "ĠÄłbas": 6037,
      "ĠÄłbased": 6038,
      "ĠÄłins": 6039,
      "ÄłLa": 6040,
      "ÄłLake": 6041,
      "ells": 6042,
      "Äłenz": 6043,
      "Äłintelligence": 6044,
      "Äłmanaged": 6045,
      "ublished": 6046,
      "nowledge": 6047,
      "ĠÄłgen": 6048,
      "Äłaccident": 6049,
      "Äłemail": 6050,
      "ĠÄłprot": 6051,
      "ĠÄłproper": 6052,
      "Äłsubsequ": 6053,
      "Äłsmart": 6054,
      "Äłtransmission": 6055,
      "Äłeffectively": 6056,
      "Äłdistingu": 6057,
      "Äłreaders": 6058,
      "ÄłProfessor": 6059,
      "Äłcoal": 6060,
      "Äłboost": 6061,
      "Äłpossibility": 6062,
      "Äłpossibly": 6063,
      "Äłlooked": 6064,
      "ÄłEngine": 6065,
      "Äłidentity": 6066,
      "Äłinterests": 6067,
      "1980": 6068,
      "Äłcreative": 6069,
      "ÄłBritain": 6070,
      "Äłentirely": 6071,
      "Äłrecorded": 6072,
      "Äłmanufacturing": 6073,
      "Äłharvest": 6074,
      "ĠÄłbecome": 6075,
      "havior": 6076,
      "Äłmaximum": 6077,
      "52": 6078,
      "71": 6079,
      "Ind": 6080,
      "Us": 6081,
      "xts": 6082,
      "ĠÄłident": 6083,
      "ĠÄłris": 6084,
      "ona": 6085,
      "orph": 6086,
      "Äłwestern": 6087,
      "Äłbattle": 6088,
      "Äłfle": 6089,
      "icit": 6090,
      "Äłmobile": 6091,
      "Äłlic": 6092,
      "Äłnormally": 6093,
      "uts": 6094,
      "rav": 6095,
      "Äłstick": 6096,
      "Äłaren": 6097,
      "umes": 6098,
      "ÄłBudd": 6099,
      "Äłchapter": 6100,
      "ĠÄłmethod": 6101,
      "ÄłNor": 6102,
      "aked": 6103,
      "Äłknew": 6104,
      "Äładequ": 6105,
      "Äłperman": 6106,
      "Äłunits": 6107,
      "ĠÄłAmerican": 6108,
      "Äłunderstood": 6109,
      "Äłacts": 6110,
      "ĠÄłstand": 6111,
      "Äłrail": 6112,
      "oving": 6113,
      "Äłindex": 6114,
      "Äłextract": 6115,
      "Äłworldwide": 6116,
      "Äłrefers": 6117,
      "Äłsky": 6118,
      "ÄłConstitution": 6119,
      "Äłfinally": 6120,
      "ushing": 6121,
      "cules": 6122,
      "Äłproposed": 6123,
      "Äłsuffering": 6124,
      "Äławareness": 6125,
      "Äłagriculture": 6126,
      "Äłofficials": 6127,
      "Äłmillions": 6128,
      "ÄłMuslim": 6129,
      "Äłbattery": 6130,
      "Äłprofessionals": 6131,
      "ÄłCatholic": 6132,
      "De": 6133,
      "Do": 6134,
      "VID": 6135,
      "gans": 6136,
      "ih": 6137,
      "mas": 6138,
      "power": 6139,
      "Ġl": 6140,
      "ĠÄłide": 6141,
      "Äłapart": 6142,
      "Äłsight": 6143,
      "Äłcrop": 6144,
      "Äłcatch": 6145,
      "Äłwest": 6146,
      "ouis": 6147,
      "Äłbones": 6148,
      "icious": 6149,
      "Äłhunt": 6150,
      "stein": 6151,
      "Äłreform": 6152,
      "sey": 6153,
      "Äłnit": 6154,
      "olving": 6155,
      "othe": 6156,
      "Äłstock": 6157,
      "operation": 6158,
      "iest": 6159,
      "ÄłMa": 6160,
      "ighter": 6161,
      "ĠÄłprom": 6162,
      "Äłchief": 6163,
      "Äłcholesterol": 6164,
      "ÄłRetrieved": 6165,
      "ĠÄłmove": 6166,
      "ĠÄłdev": 6167,
      "Äłsharing": 6168,
      "aph": 6169,
      "Äłmanage": 6170,
      "Äłoutl": 6171,
      "weight": 6172,
      "Äłtrain": 6173,
      "Äłhealthcare": 6174,
      "ĠÄłarea": 6175,
      "ircraft": 6176,
      "ĠÄłlead": 6177,
      "ĠÄładd": 6178,
      "Äłchoices": 6179,
      "Äłtruly": 6180,
      "ÄłOnly": 6181,
      "Ġ\".": 6182,
      "Äłmoved": 6183,
      "Äłfundamental": 6184,
      "Äłportion": 6185,
      "Äłtransportation": 6186,
      "istorical": 6187,
      "Äłprepare": 6188,
      "Äładministration": 6189,
      "Äłspiritual": 6190,
      "Des": 6191,
      "mary": 6192,
      "rite": 6193,
      "Äłwalls": 6194,
      "Äłtow": 6195,
      "Äłeast": 6196,
      "Äłliver": 6197,
      "ÄłAI": 6198,
      "eless": 6199,
      "ÄłMake": 6200,
      "ÄłMicro": 6201,
      "ĠÄłcare": 6202,
      "ĠÄłclear": 6203,
      "ÄłBoth": 6204,
      "Äłsuc": 6205,
      "Äłchain": 6206,
      "ĠÄłmed": 6207,
      "ÄłFlor": 6208,
      "ÄłJud": 6209,
      "ĠÄłlast": 6210,
      "ĠÄłredu": 6211,
      "orses": 6212,
      "Äłunlike": 6213,
      "Äłuniverse": 6214,
      "Äłrecip": 6215,
      "Äłtrad": 6216,
      "inson": 6217,
      "Äłjustice": 6218,
      "Ġ):": 6219,
      "1993": 6220,
      "Äłsolve": 6221,
      "Äłvaluable": 6222,
      "aterials": 6223,
      "Äłparam": 6224,
      "Äłfeelings": 6225,
      "ÄłAtl": 6226,
      "elfare": 6227,
      "Äłcertainly": 6228,
      "Äłsensitive": 6229,
      "Äłfunding": 6230,
      "Äłdomestic": 6231,
      "Äłclaims": 6232,
      "Äłpictures": 6233,
      "Äłroutine": 6234,
      "Äłlatest": 6235,
      "Äłcolleagues": 6236,
      "Äłwonder": 6237,
      "Äłpretty": 6238,
      "More": 6239,
      "Other": 6240,
      "body": 6241,
      "dent": 6242,
      "ny": 6243,
      "nect": 6244,
      "ship": 6245,
      "word": 6246,
      "Ä´": 6247,
      "Äłtiny": 6248,
      "enior": 6249,
      "Äłcart": 6250,
      "itter": 6251,
      "Äłwish": 6252,
      "Äłwants": 6253,
      "arn": 6254,
      "Äłbrief": 6255,
      "icago": 6256,
      "Äłdu": 6257,
      "Äłlibrary": 6258,
      "ether": 6259,
      "ÄłTest": 6260,
      "ÄłTwo": 6261,
      "Äłgather": 6262,
      "ÄłAtt": 6263,
      "ÄłCD": 6264,
      "ÄłMil": 6265,
      "ivision": 6266,
      "ĠÄłcertain": 6267,
      "aining": 6268,
      "ocracy": 6269,
      "ĠÄłmet": 6270,
      "ĠÄłmark": 6271,
      "Äłleaving": 6272,
      "Äłworse": 6273,
      "plan": 6274,
      "Äłincl": 6275,
      "rying": 6276,
      "ĠÄłelect": 6277,
      "ÄłStand": 6278,
      "ports": 6279,
      "Äłproducing": 6280,
      "Äłregional": 6281,
      "Äłdecide": 6282,
      "Äłexpensive": 6283,
      "ĠÄłareas": 6284,
      "Äłflag": 6285,
      "ĠÄłview": 6286,
      "Äłrepresents": 6287,
      "ĠÄłOn": 6288,
      "cribe": 6289,
      "Äłinternet": 6290,
      "Äłswitch": 6291,
      "Äłbusinesses": 6292,
      "Äłfailed": 6293,
      "itudes": 6294,
      "Äłtwice": 6295,
      "Äłindicate": 6296,
      "Äłdocuments": 6297,
      "Äłdetailed": 6298,
      "Äłcomponent": 6299,
      "Äłhabitat": 6300,
      "Äłphilosophy": 6301,
      "Äłinflammation": 6302,
      "CS": 6303,
      "Your": 6304,
      "ca": 6305,
      "hop": 6306,
      "normal": 6307,
      "rative": 6308,
      "zen": 6309,
      "ĠÄłthings": 6310,
      "aning": 6311,
      "esity": 6312,
      "orter": 6313,
      "alks": 6314,
      "Äłwet": 6315,
      "Äłpp": 6316,
      "Äłbill": 6317,
      "Äłflex": 6318,
      "Äłdial": 6319,
      "lets": 6320,
      "omin": 6321,
      "irth": 6322,
      "Äłconclusion": 6323,
      "Äłhero": 6324,
      "ĠÄłca": 6325,
      "Äłrural": 6326,
      "ĠÄłtoo": 6327,
      "ÄłNatural": 6328,
      "ÄłOut": 6329,
      "Äłallerg": 6330,
      "inder": 6331,
      "Äłunable": 6332,
      "ÄłStep": 6333,
      "luding": 6334,
      "ervous": 6335,
      "Äłrecon": 6336,
      "Äłraised": 6337,
      "Äłcolors": 6338,
      "Äłphone": 6339,
      "Äłproduces": 6340,
      "Äłdecade": 6341,
      "Äłsurpris": 6342,
      "Äłinteraction": 6343,
      "Äłextended": 6344,
      "Äłglob": 6345,
      "ĠÄłchange": 6346,
      "Äłsomew": 6347,
      "enefits": 6348,
      "ecessary": 6349,
      "Äłprimarily": 6350,
      "Äłbiggest": 6351,
      "aska": 6352,
      "Äłfluid": 6353,
      "ÄłAgricult": 6354,
      "Äłsuffer": 6355,
      "mpire": 6356,
      "Äłsatis": 6357,
      "going": 6358,
      "Äłaudience": 6359,
      "ÄłRussia": 6360,
      "Äłdedicated": 6361,
      "59": 6362,
      "cher": 6363,
      "oz": 6364,
      "yme": 6365,
      "ĠÄłthink": 6366,
      "Äłtun": 6367,
      "Äłtrou": 6368,
      "Äłturning": 6369,
      "Äłpil": 6370,
      "Äłpray": 6371,
      "Äłfrag": 6372,
      "ctic": 6373,
      "Äłrecept": 6374,
      "Äłnarr": 6375,
      "ÄłSum": 6376,
      "Äłpropos": 6377,
      "ÄłMill": 6378,
      "ÄłMem": 6379,
      "ÄłMiss": 6380,
      "anta": 6381,
      "ÄłBi": 6382,
      "Äłrid": 6383,
      "Äłrub": 6384,
      "ÄłEvery": 6385,
      "riers": 6386,
      "elled": 6387,
      "1950": 6388,
      "Äłdiscipl": 6389,
      "ÄłUp": 6390,
      "Äłtexts": 6391,
      "ĠÄłter": 6392,
      "ĠÄłgu": 6393,
      "Äłindeed": 6394,
      "Äłexperiments": 6395,
      "Äłgenerated": 6396,
      "Äłgrown": 6397,
      "Äłsecure": 6398,
      "Äłfollows": 6399,
      "ĠÄłTo": 6400,
      "Äłexplained": 6401,
      "1996": 6402,
      "Äłdiam": 6403,
      "Äłvalid": 6404,
      "Äłidentification": 6405,
      "ĠÄładv": 6406,
      "annel": 6407,
      "Äłparticipate": 6408,
      "ĠÄłupon": 6409,
      "mbly": 6410,
      "Äłanswers": 6411,
      "Äłforests": 6412,
      "Äłwildlife": 6413,
      "Äłbehaviors": 6414,
      "ÄłKeep": 6415,
      "Äłinstitutions": 6416,
      "Äłguidelines": 6417,
      "ĠÄłcells": 6418,
      "Äłprices": 6419,
      "Äłcomprehensive": 6420,
      "88": 6421,
      "dis": 6422,
      "gu": 6423,
      "wood": 6424,
      "Ä¯": 6425,
      "Ġre": 6426,
      "Äłtried": 6427,
      "Äłtaste": 6428,
      "heim": 6429,
      "Äłcos": 6430,
      "Äłcats": 6431,
      "aracter": 6432,
      "Äłband": 6433,
      "Äłbrown": 6434,
      "icate": 6435,
      "icks": 6436,
      "stru": 6437,
      "stone": 6438,
      "Äłlose": 6439,
      "Äłnarrow": 6440,
      "etry": 6441,
      "charge": 6442,
      "igital": 6443,
      "ÄłArab": 6444,
      "ÄłSam": 6445,
      "amps": 6446,
      "aded": 6447,
      "Äłconver": 6448,
      "essions": 6449,
      "emper": 6450,
      "ÄłBible": 6451,
      "Äłrivers": 6452,
      "ÄłDisc": 6453,
      "ÄłFurther": 6454,
      "ÄłJoh": 6455,
      "Äłneur": 6456,
      "Äłotherwise": 6457,
      "Äłparties": 6458,
      "ificance": 6459,
      "ucose": 6460,
      "Äłassistance": 6461,
      "ĠÄłWhen": 6462,
      "vironments": 6463,
      "Äłarticles": 6464,
      "rison": 6465,
      "Äłorganisms": 6466,
      "ashion": 6467,
      "Äłconfirm": 6468,
      "Äłdirector": 6469,
      "Äłhappened": 6470,
      "Äłlisted": 6471,
      "ÄłCancer": 6472,
      "ĠÄłmeans": 6473,
      "Äłcreates": 6474,
      "Äłmarriage": 6475,
      "Äłelev": 6476,
      "Äłholds": 6477,
      "Äłrecognized": 6478,
      "Äłtalking": 6479,
      "Äłargument": 6480,
      "Äłemergency": 6481,
      "ĠÄłUniversity": 6482,
      "Äłdivision": 6483,
      "Äłdouble": 6484,
      "Äłmagnetic": 6485,
      "Äłcommunicate": 6486,
      "Äłultimately": 6487,
      "Äłhousing": 6488,
      "Äłdoubt": 6489,
      "BN": 6490,
      "HO": 6491,
      "IP": 6492,
      "LA": 6493,
      "LE": 6494,
      "een": 6495,
      "fortunately": 6496,
      "lig": 6497,
      "oose": 6498,
      "uzz": 6499,
      "ÅĤ": 6500,
      "ĠÄłold": 6501,
      "onal": 6502,
      "erals": 6503,
      "Äłsnow": 6504,
      "especially": 6505,
      "Äłwel": 6506,
      "Äłpump": 6507,
      "Äłmit": 6508,
      "Äłmand": 6509,
      "Äłhabits": 6510,
      "idth": 6511,
      "anda": 6512,
      "Äłstret": 6513,
      "amination": 6514,
      "throp": 6515,
      "abb": 6516,
      "abul": 6517,
      "emy": 6518,
      "Äłexchange": 6519,
      "ivated": 6520,
      "ivities": 6521,
      "ÄłBet": 6522,
      "Äłvoc": 6523,
      "ÄłLike": 6524,
      "Äłsports": 6525,
      "1960": 6526,
      "Äłintake": 6527,
      "ÄłThose": 6528,
      "Äłclosed": 6529,
      "Äłappreci": 6530,
      "Äłtraffic": 6531,
      "oven": 6532,
      "cycl": 6533,
      "Äłformat": 6534,
      "Äłeveryday": 6535,
      "Äłreader": 6536,
      "Äłsecret": 6537,
      "Äłgreatly": 6538,
      "Äłcourses": 6539,
      "ĠÄłallow": 6540,
      "Äłaccessible": 6541,
      "Äłrepresented": 6542,
      "ĠÄłcommun": 6543,
      "ÄłStudies": 6544,
      "Äłpersons": 6545,
      "liest": 6546,
      "Äłsubstances": 6547,
      "ĠÄłamong": 6548,
      "Äłlifestyle": 6549,
      "ÄłRevolution": 6550,
      "Äłsoldiers": 6551,
      "Äłbehaviour": 6552,
      "ĠÄłearly": 6553,
      "ÄłGoogle": 6554,
      "ciousness": 6555,
      "Äłstimul": 6556,
      "forcement": 6557,
      "Äłconsequences": 6558,
      "Äłvulnerable": 6559,
      "ellectual": 6560,
      "Figure": 6561,
      "aud": 6562,
      "bour": 6563,
      "chers": 6564,
      "ki": 6565,
      "mph": 6566,
      "pet": 6567,
      "Ã¦": 6568,
      "inet": 6569,
      "isters": 6570,
      "Äłcognitive": 6571,
      "itivity": 6572,
      "Äłborder": 6573,
      "Äłdust": 6574,
      "Äłreactions": 6575,
      "Äłnine": 6576,
      "olism": 6577,
      "ÄłTer": 6578,
      "Äłgal": 6579,
      "Äłgall": 6580,
      "abled": 6581,
      "Äłvoice": 6582,
      "ÄłWild": 6583,
      "Äłrandom": 6584,
      "ÄłDan": 6585,
      "ÄłRights": 6586,
      "Äłnotes": 6587,
      "ĠÄłdirect": 6588,
      "ÄłGold": 6589,
      "ella": 6590,
      "aks": 6591,
      "ĠÄłgroup": 6592,
      "teen": 6593,
      "Äłroof": 6594,
      "Äłblog": 6595,
      "Äłphr": 6596,
      "Äłspecifically": 6597,
      "Äłacceler": 6598,
      "icted": 6599,
      "Äłpolice": 6600,
      "ĠÄłWh": 6601,
      "1995": 6602,
      "Äłimproving": 6603,
      "Äłpercentage": 6604,
      "afe": 6605,
      "ĠÄłcontrol": 6606,
      "Äłturns": 6607,
      "Äłyounger": 6608,
      "Äłera": 6609,
      "Äłmoral": 6610,
      "Äłemotions": 6611,
      "Äłnucle": 6612,
      "Äłlaboratory": 6613,
      "ÄłReview": 6614,
      "ÄłAcademy": 6615,
      "Äłleadership": 6616,
      "ÄłGlobal": 6617,
      "Äłmonitoring": 6618,
      "ĠÄłaround": 6619,
      "Äłstruggle": 6620,
      "Äłinsects": 6621,
      "Äłfertil": 6622,
      "CT": 6623,
      "eat": 6624,
      "how": 6625,
      "hus": 6626,
      "pan": 6627,
      "pes": 6628,
      "ĠÄłorder": 6629,
      "orith": 6630,
      "itals": 6631,
      "Äłwitness": 6632,
      "Äłfiber": 6633,
      "ican": 6634,
      "Äłmos": 6635,
      "Äłmuseum": 6636,
      "rooms": 6637,
      "Äłthr": 6638,
      "Äłlatter": 6639,
      "amins": 6640,
      "iform": 6641,
      "opic": 6642,
      "istent": 6643,
      "istical": 6644,
      "ÄłMain": 6645,
      "ĠÄłoften": 6646,
      "Äłsuitable": 6647,
      "ÄłHill": 6648,
      "ÄłHall": 6649,
      "ĠÄłdr": 6650,
      "ÄłNature": 6651,
      "ÄłGet": 6652,
      "ÄłGra": 6653,
      "ÄłLand": 6654,
      "ÄłLabor": 6655,
      "ulty": 6656,
      "ÄłOh": 6657,
      "ĠÄłlater": 6658,
      "Äłoutbreak": 6659,
      "Äłunus": 6660,
      "Äłunless": 6661,
      "Äłarmy": 6662,
      "herent": 6663,
      "Äłnewsp": 6664,
      "ĠÄłPl": 6665,
      "Äłsmoking": 6666,
      "Äłsmooth": 6667,
      "Äłsimpl": 6668,
      "Äłrespir": 6669,
      "ĠÄłvis": 6670,
      "Äłrepair": 6671,
      "Äłexplan": 6672,
      "1991": 6673,
      "Äłcultures": 6674,
      "Äłcalories": 6675,
      "Äłlimits": 6676,
      "Äłobjectives": 6677,
      "ÄłCommon": 6678,
      "Äłfunctioning": 6679,
      "Äłresponses": 6680,
      "ĠÄłappro": 6681,
      "Äłsubjects": 6682,
      "Äłspeaking": 6683,
      "ÄłCarolina": 6684,
      "Äłsurvive": 6685,
      "ÄłParis": 6686,
      "Äłmechanisms": 6687,
      "urrently": 6688,
      "Äłsuscept": 6689,
      "Äłwalking": 6690,
      "Äłmountain": 6691,
      "Äłvirtual": 6692,
      "ÄłRussian": 6693,
      "ĠÄłcountry": 6694,
      "Äładopted": 6695,
      "ioxide": 6696,
      "ÄłSmith": 6697,
      "Äłsurrounding": 6698,
      "01": 6699,
      "400": 6700,
      "ait": 6701,
      "eenth": 6702,
      "fit": 6703,
      "rus": 6704,
      "sor": 6705,
      "xford": 6706,
      "hent": 6707,
      "rey": 6708,
      "Äłcle": 6709,
      "Äłcrow": 6710,
      "ora": 6711,
      "Äłwife": 6712,
      "Äłancest": 6713,
      "Äłmild": 6714,
      "rost": 6715,
      "omething": 6716,
      "Äłneck": 6717,
      "imals": 6718,
      "otion": 6719,
      "otype": 6720,
      "igan": 6721,
      "igration": 6722,
      "amine": 6723,
      "ĠÄłcase": 6724,
      "ĠÄłfew": 6725,
      "Äłring": 6726,
      "Äłcompris": 6727,
      "ÄłJoseph": 6728,
      "Äłneut": 6729,
      "reating": 6730,
      "Äłuniversity": 6731,
      "ĠÄłgiven": 6732,
      "ĠÄłSe": 6733,
      "ÄłKen": 6734,
      "ritis": 6735,
      "Äłraw": 6736,
      "Äłraise": 6737,
      "Äłaccum": 6738,
      "Äłrelax": 6739,
      "angered": 6740,
      "Äłscan": 6741,
      "Äłinfected": 6742,
      "Äłsmoke": 6743,
      "Äłflight": 6744,
      "ĠÄłDe": 6745,
      "Äłcenturies": 6746,
      "ĠÄłEx": 6747,
      "Äłgenerate": 6748,
      "Äłdepartment": 6749,
      "Äłcarefully": 6750,
      "Äłplaying": 6751,
      "ÄłSpain": 6752,
      "Äłperiods": 6753,
      "Äłradical": 6754,
      "Äłruns": 6755,
      "ÄłCanadian": 6756,
      "Äłopened": 6757,
      "ĠÄłdevelopment": 6758,
      "bridge": 6759,
      "Äłfarming": 6760,
      "Äłperspective": 6761,
      "ĠÄłbetter": 6762,
      "Äłincreasingly": 6763,
      "Äłwarming": 6764,
      "ENT": 6765,
      "Äłjoined": 6766,
      "Äłscholars": 6767,
      "ĠÄłestab": 6768,
      "Äłpurchase": 6769,
      "Äłterritory": 6770,
      "Äłopinion": 6771,
      "Äłslightly": 6772,
      "Äłneighborhood": 6773,
      "53": 6774,
      "58": 6775,
      "Over": 6776,
      "Since": 6777,
      "cal": 6778,
      "cend": 6779,
      "iability": 6780,
      "rand": 6781,
      "uilt": 6782,
      "ĠÄłeng": 6783,
      "ini": 6784,
      "Äłaer": 6785,
      "Äłbot": 6786,
      "Äłfill": 6787,
      "Äłmm": 6788,
      "Äłdatabase": 6789,
      "Äłreact": 6790,
      "Äłnurs": 6791,
      "ura": 6792,
      "Äłunt": 6793,
      "ulatory": 6794,
      "Äłstated": 6795,
      "Äłconventional": 6796,
      "ÄłMer": 6797,
      "ects": 6798,
      "ÄłPower": 6799,
      "Äłhem": 6800,
      "Äłheav": 6801,
      "ĠÄłsince": 6802,
      "pping": 6803,
      "ocument": 6804,
      "ĠÄłauthor": 6805,
      "ĠÄłfood": 6806,
      "Äłchosen": 6807,
      "ÄłDisease": 6808,
      "ĠÄłmus": 6809,
      "ÄłFe": 6810,
      "ÄłFin": 6811,
      "ÄłNorthern": 6812,
      "roups": 6813,
      "ipal": 6814,
      "Äłincred": 6815,
      "Äłwilling": 6816,
      "ĠÄłrest": 6817,
      "Äłexpressed": 6818,
      "Äłobtained": 6819,
      "Äłremote": 6820,
      "Äłcars": 6821,
      "Äłdiscrim": 6822,
      "ĠÄłvol": 6823,
      "Äłshell": 6824,
      "Äłlessons": 6825,
      "Äłserver": 6826,
      "coming": 6827,
      "ÄłAdd": 6828,
      "ymptoms": 6829,
      "Äłpreventing": 6830,
      "Äłessentially": 6831,
      "ÄłCommun": 6832,
      "ÄłEnvironmental": 6833,
      "ediatric": 6834,
      "Äłindustries": 6835,
      "Äłmassive": 6836,
      "Äłdomin": 6837,
      "ĠÄłinterest": 6838,
      "Äłconcrete": 6839,
      "ÄłKingdom": 6840,
      "Äłdecrease": 6841,
      "ÄłSurvey": 6842,
      "Äłcollaboration": 6843,
      "ĠÄłrepresent": 6844,
      "Äłratio": 6845,
      "Äłingred": 6846,
      "razil": 6847,
      "Äłcandid": 6848,
      "Äłrenewable": 6849,
      "ixture": 6850,
      "ÄłFlorida": 6851,
      "%.": 6852,
      "CR": 6853,
      "IG": 6854,
      "cou": 6855,
      "den": 6856,
      "last": 6857,
      "xual": 6858,
      "yroid": 6859,
      "Äłsed": 6860,
      "orse": 6861,
      "Äłpal": 6862,
      "Äłped": 6863,
      "Äłble": 6864,
      "Äłfabric": 6865,
      "Äłtoler": 6866,
      "iciency": 6867,
      "Äłeld": 6868,
      "Äłlies": 6869,
      "Äłlots": 6870,
      "Äłnervous": 6871,
      "olf": 6872,
      "iral": 6873,
      "ÄłSl": 6874,
      "Äłstands": 6875,
      "Äłstored": 6876,
      "Äłstreet": 6877,
      "amics": 6878,
      "ÄłIreland": 6879,
      "ÄłCam": 6880,
      "ÄłCamp": 6881,
      "Äłpromin": 6882,
      "illa": 6883,
      "umps": 6884,
      "rize": 6885,
      "ogical": 6886,
      "ÄłFort": 6887,
      "ÄłNations": 6888,
      "ÄłNative": 6889,
      "ÄłLab": 6890,
      "Äłplays": 6891,
      "izer": 6892,
      "Äłcompens": 6893,
      "ÄłInformation": 6894,
      "Äłresolution": 6895,
      "ĠÄłnon": 6896,
      "riting": 6897,
      "everal": 6898,
      "aws": 6899,
      "Äłpoison": 6900,
      "Äłfoundation": 6901,
      "Äłinteract": 6902,
      "Äłexamine": 6903,
      "Äłdepart": 6904,
      "Äłgrav": 6905,
      "1992": 6906,
      "1994": 6907,
      "eek": 6908,
      "ÄłAny": 6909,
      "Äłstarts": 6910,
      "Äłcorpor": 6911,
      "Äłslave": 6912,
      "Äłnearby": 6913,
      "Äłaffects": 6914,
      "ÄłExper": 6915,
      "Äłoriginally": 6916,
      "ÄłPlant": 6917,
      "Äłphoto": 6918,
      "Äłcontaining": 6919,
      "Äłwindow": 6920,
      "ministration": 6921,
      "Äłgreenhouse": 6922,
      "Äłexercises": 6923,
      "Äłvariable": 6924,
      "ÄłCOVID": 6925,
      "Äłremaining": 6926,
      "ÄłFrank": 6927,
      "Äłbabies": 6928,
      "ĠÄłinflu": 6929,
      "Äłvehicles": 6930,
      "Äłcomparison": 6931,
      "Äłsweet": 6932,
      "Äłhypot": 6933,
      "Äłvillage": 6934,
      "ÄłEarly": 6935,
      "Äłcoffee": 6936,
      "abulary": 6937,
      "250": 6938,
      "56": 6939,
      "72": 6940,
      "car": 6941,
      "faces": 6942,
      "gs": 6943,
      "kins": 6944,
      "no": 6945,
      "press": 6946,
      "ĠK": 6947,
      "Äłtherap": 6948,
      "Äłsought": 6949,
      "alities": 6950,
      "Äłwire": 6951,
      "Äłpoverty": 6952,
      "lev": 6953,
      "asy": 6954,
      "Äłthor": 6955,
      "Äłlas": 6956,
      "olutions": 6957,
      "uting": 6958,
      "utation": 6959,
      "ÄłTime": 6960,
      "Äłstable": 6961,
      "Äłstomach": 6962,
      "adel": 6963,
      "Ġ.;": 6964,
      "that": 6965,
      "isting": 6966,
      "ĠÄłpar": 6967,
      "ĠÄłput": 6968,
      "ĠÄłpers": 6969,
      "ÄłHaw": 6970,
      "ÄłDet": 6971,
      "Äłdeeper": 6972,
      "ĠÄłmult": 6973,
      "outs": 6974,
      "Äłspend": 6975,
      "ĠÄłhome": 6976,
      "Äłcontamin": 6977,
      "Äłcontroll": 6978,
      "Äłresidents": 6979,
      "ifferent": 6980,
      "phone": 6981,
      "ÄłKh": 6982,
      "Äłtrained": 6983,
      "180": 6984,
      "ommod": 6985,
      "Äłcalls": 6986,
      "Äłstudying": 6987,
      "ĠÄłJew": 6988,
      "Äłelectronic": 6989,
      "ĠÄłleft": 6990,
      "Äłmarkets": 6991,
      "hyd": 6992,
      "isco": 6993,
      "Äłopposite": 6994,
      "ÄłColumb": 6995,
      "Äłprevention": 6996,
      "Äłopening": 6997,
      "Äłcircuit": 6998,
      "ĠÄłperiod": 6999,
      "plications": 7000,
      "Äłstatistics": 7001,
      "Äłachieved": 7002,
      "Äłlayers": 7003,
      "Äłreturned": 7004,
      "Äłinjuries": 7005,
      "Äłhouses": 7006,
      "Äłsequence": 7007,
      "Äłjourney": 7008,
      "Äłmoisture": 7009,
      "Äłfossil": 7010,
      "73": 7011,
      "HD": 7012,
      "IR": 7013,
      "UN": 7014,
      "ao": 7015,
      "bing": 7016,
      "but": 7017,
      "ech": 7018,
      "gent": 7019,
      "yan": 7020,
      "Ä»": 7021,
      "Ġ19": 7022,
      "ĠThis": 7023,
      "ĠIt": 7024,
      "ÄłÃİ": 7025,
      "Äłaircraft": 7026,
      "Äłwaves": 7027,
      "Äłpool": 7028,
      "Äłfly": 7029,
      "Äłmob": 7030,
      "Äłdose": 7031,
      "stant": 7032,
      "stract": 7033,
      "ola": 7034,
      "ÄłTHE": 7035,
      "Äłbear": 7036,
      "Äłforget": 7037,
      "Äłstorm": 7038,
      "Äłstroke": 7039,
      "ayer": 7040,
      "ady": 7041,
      "ÄłIN": 7042,
      "oding": 7043,
      "essed": 7044,
      "quit": 7045,
      "ĠÄłser": 7046,
      "ocated": 7047,
      "Äłvac": 7048,
      "ĠÄłair": 7049,
      "ĠÄłfour": 7050,
      "Äłchick": 7051,
      "ÄłDel": 7052,
      "ÄłExt": 7053,
      "ÄłGood": 7054,
      "ÄłGroup": 7055,
      "dule": 7056,
      "ĠÄłhowever": 7057,
      "Äładoles": 7058,
      "ishment": 7059,
      "Äłappeared": 7060,
      "ÄłStreet": 7061,
      "ĠÄłAt": 7062,
      "ÄłVictor": 7063,
      "Äłracial": 7064,
      "Äłrelief": 7065,
      "Äłchildhood": 7066,
      "Äłdecline": 7067,
      "Äłvarieties": 7068,
      "Äłseeing": 7069,
      "Äłdepth": 7070,
      "Äłartists": 7071,
      "Äłdefine": 7072,
      "Äłmaintenance": 7073,
      "Äłapproaches": 7074,
      "acco": 7075,
      "Äłgrand": 7076,
      "Äłcalcium": 7077,
      "Äłfacilit": 7078,
      "Äłvoltage": 7079,
      "Äłcritic": 7080,
      "Äłimprovement": 7081,
      "Stud": 7082,
      "ĠÄłconsider": 7083,
      "Äłreplaced": 7084,
      "ĠÄłdesign": 7085,
      "Äłlabel": 7086,
      "Äłsatellite": 7087,
      "Äłmaintaining": 7088,
      "Äłroute": 7089,
      "Äłhoriz": 7090,
      "Äłrevealed": 7091,
      "Äłdivided": 7092,
      "Äłpermanent": 7093,
      "cyclop": 7094,
      "51": 7095,
      "64": 7096,
      "American": 7097,
      "Be": 7098,
      "HS": 7099,
      "PR": 7100,
      "cons": 7101,
      "eor": 7102,
      "fish": 7103,
      "gl": 7104,
      "mes": 7105,
      "pre": 7106,
      "Âª": 7107,
      "Ġin": 7108,
      "Äłturb": 7109,
      "heets": 7110,
      "Äłahead": 7111,
      "isp": 7112,
      "orous": 7113,
      "Äłwww": 7114,
      "Äłpounds": 7115,
      "Äłfuels": 7116,
      "roat": 7117,
      "enter": 7118,
      "Äłnan": 7119,
      "Äłgard": 7120,
      "ami": 7121,
      "ayed": 7122,
      "ÄłChe": 7123,
      "Äłprohib": 7124,
      "tery": 7125,
      "mentation": 7126,
      "umbers": 7127,
      "ÄłPan": 7128,
      "osc": 7129,
      "osh": 7130,
      "ĠÄłcost": 7131,
      "ĠÄłsays": 7132,
      "Äłran": 7133,
      "ograp": 7134,
      "ÄłForm": 7135,
      "earchers": 7136,
      "Äłkit": 7137,
      "Äłcomposition": 7138,
      "ĠÄłlow": 7139,
      "angle": 7140,
      "Äłpreval": 7141,
      "ricts": 7142,
      "ĠÄłAfric": 7143,
      "ÄłItalian": 7144,
      "ĠÄłCl": 7145,
      "Äłoverl": 7146,
      "Äłunderlying": 7147,
      "Äłhighlight": 7148,
      "Äłflat": 7149,
      "arming": 7150,
      "ollowing": 7151,
      "Äłinteractions": 7152,
      "Äłgenerations": 7153,
      "Äłlocations": 7154,
      "ÄłAnn": 7155,
      "Äłsupports": 7156,
      "Äłsupporting": 7157,
      "Äłequivalent": 7158,
      "Äłfewer": 7159,
      "Äłdeliver": 7160,
      "Äłdescribes": 7161,
      "Äłstrongly": 7162,
      "Äłoptim": 7163,
      "Äłcutting": 7164,
      "while": 7165,
      "ÄłControl": 7166,
      "ĠÄłsecond": 7167,
      "Äłarchitecture": 7168,
      "Äłlegisl": 7169,
      "Äłmortality": 7170,
      "ÄłSpecial": 7171,
      "ÄłDistrict": 7172,
      "Äłfigures": 7173,
      "ÄłOffice": 7174,
      "Äłcircumstances": 7175,
      "Äłweapons": 7176,
      "74": 7177,
      "First": 7178,
      "Let": 7179,
      "Med": 7180,
      "gress": 7181,
      "hma": 7182,
      "uan": 7183,
      "Â¯": 7184,
      "Äłtail": 7185,
      "Äłtips": 7186,
      "Äłath": 7187,
      "ena": 7188,
      "eness": 7189,
      "Äłboy": 7190,
      "Äłfell": 7191,
      "Äłfever": 7192,
      "Äłfirm": 7193,
      "Äłmaps": 7194,
      "ented": 7195,
      "stall": 7196,
      "Äłnob": 7197,
      "urric": 7198,
      "Äłgut": 7199,
      "ÄłSciences": 7200,
      "aming": 7201,
      "mented": 7202,
      "Äłalter": 7203,
      "essment": 7204,
      "ĠÄłwords": 7205,
      "ÄłPeter": 7206,
      "ĠÄłcause": 7207,
      "ÄłBank": 7208,
      "ĠÄłpur": 7209,
      "ĠÄłpres": 7210,
      "ĠÄłfin": 7211,
      "ÄłWell": 7212,
      "ÄłWind": 7213,
      "ureau": 7214,
      "ĠÄłindu": 7215,
      "ĠÄłinvest": 7216,
      "ÄłGal": 7217,
      "Äłabund": 7218,
      "Äłabandon": 7219,
      "ruption": 7220,
      "1940": 7221,
      "ÄłOcean": 7222,
      "ĠÄłname": 7223,
      "formance": 7224,
      "ĠÄłgeneral": 7225,
      "Äłnoise": 7226,
      "Äłattend": 7227,
      "ventions": 7228,
      "Äłintervention": 7229,
      "Äłsignificance": 7230,
      "Äłmyth": 7231,
      "Äłentered": 7232,
      "rank": 7233,
      "Äłminimum": 7234,
      "arents": 7235,
      "Äłpassing": 7236,
      "Äłveter": 7237,
      "Äłmarked": 7238,
      "Äłimmun": 7239,
      "ployment": 7240,
      "Äłsuccessfully": 7241,
      "Äłcircle": 7242,
      "Äłcyber": 7243,
      "Äłgrew": 7244,
      "ÄłImm": 7245,
      "Äłhistoric": 7246,
      "ictionary": 7247,
      "Äłarchae": 7248,
      "ÄłCompany": 7249,
      "Äłslowly": 7250,
      "Äłaccepted": 7251,
      "Äłimplementation": 7252,
      "ÄłParty": 7253,
      "Äłsusp": 7254,
      "Äłanalyze": 7255,
      "Äłthousand": 7256,
      "Äłjoin": 7257,
      "Äłinstitution": 7258,
      "Äłtitle": 7259,
      "Äłmolecules": 7260,
      "ĠÄłdiscuss": 7261,
      "Äłcomplicated": 7262,
      "Äłvessels": 7263,
      "67": 7264,
      "Bl": 7265,
      "Dr": 7266,
      "Sp": 7267,
      "door": 7268,
      "Äłtall": 7269,
      "Äłtank": 7270,
      "Äławard": 7271,
      "onym": 7272,
      "Äłske": 7273,
      "ester": 7274,
      "arters": 7275,
      "Äłbond": 7276,
      "icing": 7277,
      "Äłdim": 7278,
      "Äłdensity": 7279,
      "Äłdioxide": 7280,
      "iled": 7281,
      "ÄłTor": 7282,
      "Ġ,\"": 7283,
      "ÄłMad": 7284,
      "ÄłPM": 7285,
      "ivate": 7286,
      "ĠÄłcity": 7287,
      "ĠÄłcirc": 7288,
      "ĠÄłfree": 7289,
      "ÄłWorks": 7290,
      "Äłwasn": 7291,
      "ript": 7292,
      "ogue": 7293,
      "ÄłRock": 7294,
      "ÄłLouis": 7295,
      "ultural": 7296,
      "Äłenable": 7297,
      "ÄłThrough": 7298,
      "ĠÄłnatural": 7299,
      "Äłmeal": 7300,
      "ĠÄłAll": 7301,
      "ÄłChange": 7302,
      "ÄłViet": 7303,
      "ÄłYear": 7304,
      "Äłcolour": 7305,
      "Äłacids": 7306,
      "nee": 7307,
      "Äłregist": 7308,
      "ĠÄłproduct": 7309,
      "Äłinterview": 7310,
      "Äłedge": 7311,
      "ĠÄłEn": 7312,
      "venue": 7313,
      "Äłends": 7314,
      "Äłrising": 7315,
      "Äłoccasion": 7316,
      "lishing": 7317,
      "Äłeastern": 7318,
      "Äłissued": 7319,
      "ikip": 7320,
      "Äłpurs": 7321,
      "Äłmeasured": 7322,
      "ÄłColor": 7323,
      "ÄłClin": 7324,
      "Äłlistening": 7325,
      "ĠÄłsuccess": 7326,
      "Äłphotograph": 7327,
      "Äłabsolute": 7328,
      "Äłsentence": 7329,
      "Äłfeedback": 7330,
      "Äłprinted": 7331,
      "Äłtrip": 7332,
      "ÄłServices": 7333,
      "Äłtelevision": 7334,
      "Äłwait": 7335,
      "Äłphenomenon": 7336,
      "ÄłMartin": 7337,
      "ĠÄłeducation": 7338,
      "Äłsucceed": 7339,
      "86": 7340,
      "96": 7341,
      "AA": 7342,
      "Once": 7343,
      "TH": 7344,
      "TM": 7345,
      "aith": 7346,
      "mm": 7347,
      "ponse": 7348,
      "ta": 7349,
      "yles": 7350,
      "ycle": 7351,
      "ĠÄłrad": 7352,
      "ĠÄłkeep": 7353,
      "ĠÄłenergy": 7354,
      "Äław": 7355,
      "Äłcaught": 7356,
      "Äłwine": 7357,
      "ingle": 7358,
      "Äłpure": 7359,
      "Äłpair": 7360,
      "oub": 7361,
      "Äłblow": 7362,
      "Äłment": 7363,
      "Äłhop": 7364,
      "Äłrely": 7365,
      "Äłnose": 7366,
      "otton": 7367,
      "igate": 7368,
      "ÄłAp": 7369,
      "ÄłSoviet": 7370,
      "Äłstability": 7371,
      "Äłyield": 7372,
      "Äłprove": 7373,
      "Äłproof": 7374,
      "emia": 7375,
      "Äłcompl": 7376,
      "ÄłEnd": 7377,
      "ÄłOF": 7378,
      "Äłinches": 7379,
      "Äłneither": 7380,
      "Äłdoor": 7381,
      "ĠÄłlocal": 7382,
      "eoples": 7383,
      "teg": 7384,
      "Äłdescription": 7385,
      "eneration": 7386,
      "ÄłYet": 7387,
      "Äłamb": 7388,
      "ommon": 7389,
      "upreme": 7390,
      "Äłmodified": 7391,
      "Äłcarb": 7392,
      "Äłdistributed": 7393,
      "Äłdepos": 7394,
      "ĠÄłNational": 7395,
      "class": 7396,
      "arsh": 7397,
      "Äłboys": 7398,
      "Äłcontrols": 7399,
      "Äłrestrict": 7400,
      "Äłvolcan": 7401,
      "aneous": 7402,
      "ĠÄłothers": 7403,
      "Äłconsume": 7404,
      "Äłcriteria": 7405,
      "ylvan": 7406,
      "ĠÄłparticular": 7407,
      "Äłinitially": 7408,
      "Äłindicates": 7409,
      "Äłmicrob": 7410,
      "Äłcrime": 7411,
      "iotic": 7412,
      "Äłvitamins": 7413,
      "Äłdanger": 7414,
      "Äłirrit": 7415,
      "ogenic": 7416,
      "ĠÄłprovide": 7417,
      "Äłtissues": 7418,
      "Äłlaun": 7419,
      "Äłestimates": 7420,
      "Äłethnic": 7421,
      "Äłpowers": 7422,
      "Äłcamera": 7423,
      "ĠÄłsimilar": 7424,
      "Äłconstitution": 7425,
      "Äłconstructed": 7426,
      "Äłdynamic": 7427,
      "Äłcriminal": 7428,
      ".|": 7429,
      "85": 7430,
      "CD": 7431,
      "Can": 7432,
      "Every": 7433,
      "See": 7434,
      "aired": 7435,
      "fl": 7436,
      "ivery": 7437,
      "kind": 7438,
      "Äłille": 7439,
      "ĠÄłill": 7440,
      "ĠÄłÃ¢Ä¢Ä¶": 7441,
      "hea": 7442,
      "onia": 7443,
      "Äłsizes": 7444,
      "isdom": 7445,
      "Äłce": 7446,
      "Äłfats": 7447,
      "Äłmac": 7448,
      "Äłmarg": 7449,
      "rovers": 7450,
      "omic": 7451,
      "Äłlie": 7452,
      "etics": 7453,
      "oli": 7454,
      "Äłgone": 7455,
      "Äłforg": 7456,
      "Äłstations": 7457,
      "Äłorgans": 7458,
      "empl": 7459,
      "oreign": 7460,
      "ÄłBab": 7461,
      "ĠÄłpossible": 7462,
      "Äłvot": 7463,
      "ĠÄłbest": 7464,
      "ĠÄłbusiness": 7465,
      "ÄłRad": 7466,
      "ÄłFour": 7467,
      "oston": 7468,
      "Äłships": 7469,
      "ansas": 7470,
      "asts": 7471,
      "ruit": 7472,
      "Äłplot": 7473,
      "Äłplenty": 7474,
      "izz": 7475,
      "1920": 7476,
      "ustain": 7477,
      "Äładds": 7478,
      "Äłcompost": 7479,
      "Äłcontained": 7480,
      "ÄłThough": 7481,
      "Äłclothing": 7482,
      "ĠÄłlight": 7483,
      "Äłtheme": 7484,
      "ysics": 7485,
      "ints": 7486,
      "olds": 7487,
      "ĠÄłMan": 7488,
      "Äłpron": 7489,
      "Äłregulations": 7490,
      "Äłsupplement": 7491,
      "Äłflo": 7492,
      "Äłexamination": 7493,
      "Äłpersonality": 7494,
      "Äłartificial": 7495,
      "ĠÄłalong": 7496,
      "Äłdesigns": 7497,
      "Äłreduces": 7498,
      "Äłplane": 7499,
      "Äłplayers": 7500,
      "Äłgrant": 7501,
      "Äłhappy": 7502,
      "Äłassociation": 7503,
      "Äłfunctional": 7504,
      "Äłmarine": 7505,
      "ĠÄłpercent": 7506,
      "Äłnecessarily": 7507,
      "ĠÄłaccess": 7508,
      "Äłarrange": 7509,
      "Äłdebt": 7510,
      "haust": 7511,
      "Äłtargeted": 7512,
      "ÄłSimilar": 7513,
      "Äłagreement": 7514,
      "Äłderived": 7515,
      "Äłrepeated": 7516,
      "Äłinstructions": 7517,
      "Äłdrawn": 7518,
      "Äłcloser": 7519,
      "Äładequate": 7520,
      "Äłrespiratory": 7521,
      "600": 7522,
      "CP": 7523,
      "oir": 7524,
      "pread": 7525,
      "tic": 7526,
      "tra": 7527,
      "uy": 7528,
      "ugh": 7529,
      "wan": 7530,
      "Ġand": 7531,
      "ĠÄłable": 7532,
      "hedule": 7533,
      "Äłaf": 7534,
      "esis": 7535,
      "Äłcup": 7536,
      "itative": 7537,
      "itting": 7538,
      "Äłwound": 7539,
      "Äłfilled": 7540,
      "Äłinher": 7541,
      "Äłstrain": 7542,
      "amber": 7543,
      "Äłwithd": 7544,
      "ÄłPy": 7545,
      "Äłhealing": 7546,
      "ĠÄłcal": 7547,
      "ÄłBefore": 7548,
      "ĠÄłsl": 7549,
      "ĠÄłsoc": 7550,
      "Äłvote": 7551,
      "ĠÄłaffect": 7552,
      "ĠÄłfar": 7553,
      "ogether": 7554,
      "ÄłRichard": 7555,
      "ÄłFederal": 7556,
      "ÄłForest": 7557,
      "Äłlect": 7558,
      "ĠÄłtop": 7559,
      "ÄłNever": 7560,
      "Äłspok": 7561,
      "asty": 7562,
      "Äłimper": 7563,
      "Äłdoctors": 7564,
      "ĠÄłland": 7565,
      "ĠÄłlanguage": 7566,
      "Äłpref": 7567,
      "Äłprev": 7568,
      "ricted": 7569,
      "ĠÄłAss": 7570,
      "ĠÄłSo": 7571,
      "ÄłChild": 7572,
      "ÄłVis": 7573,
      "Äłpharm": 7574,
      "Äłscript": 7575,
      "Äłexpansion": 7576,
      "Äłremark": 7577,
      "cking": 7578,
      "ocked": 7579,
      "airy": 7580,
      "Äłecological": 7581,
      "ociated": 7582,
      "azine": 7583,
      "Äłconsidering": 7584,
      "ÄłWho": 7585,
      "ĠÄłOr": 7586,
      "Äłguarant": 7587,
      "ÄłAdv": 7588,
      "Äłengage": 7589,
      "Äłpresentation": 7590,
      "Äłwheat": 7591,
      "Äłparas": 7592,
      "Äłseconds": 7593,
      "Äłsecondary": 7594,
      "Äłconsumer": 7595,
      "Äłphotos": 7596,
      "Äłnegot": 7597,
      "Äłannounced": 7598,
      "IDS": 7599,
      "holders": 7600,
      "Äłappearance": 7601,
      "criptions": 7602,
      "Äłdrawing": 7603,
      "Äłfemales": 7604,
      "Äłmechanical": 7605,
      "Äłsilver": 7606,
      "Äłpanels": 7607,
      "Äłinstruments": 7608,
      "ÄłValley": 7609,
      "oliday": 7610,
      "Äłbeliefs": 7611,
      "ylvania": 7612,
      "'m": 7613,
      "82": 7614,
      "Don": 7615,
      "HA": 7616,
      "OC": 7617,
      "Of": 7618,
      "Rec": 7619,
      "Today": 7620,
      "chen": 7621,
      "eers": 7622,
      "such": 7623,
      "urol": 7624,
      "Äłtropical": 7625,
      "health": 7626,
      "arv": 7627,
      "Äłbudget": 7628,
      "Äłfer": 7629,
      "Äłmixture": 7630,
      "Äłepid": 7631,
      "Äłlin": 7632,
      "ima": 7633,
      "rays": 7634,
      "ÄłAccess": 7635,
      "andemic": 7636,
      "ÄłSen": 7637,
      "ÄłIrish": 7638,
      "terf": 7639,
      "Äłcomments": 7640,
      "ÄłBC": 7641,
      "ÄłBen": 7642,
      "Äłvan": 7643,
      "Äłru": 7644,
      "ÄłEmpire": 7645,
      "rix": 7646,
      "ÄłRob": 7647,
      "ostic": 7648,
      "Äłspending": 7649,
      "agen": 7650,
      "plo": 7651,
      "pling": 7652,
      "Äłplate": 7653,
      "apse": 7654,
      "Äłcomposed": 7655,
      "ĠÄłlim": 7656,
      "Äłoutcome": 7657,
      "ÄłChicago": 7658,
      "Äłourselves": 7659,
      "fulness": 7660,
      "Äłoffering": 7661,
      "Äłassume": 7662,
      "Äłfounded": 7663,
      "Äłearliest": 7664,
      "Äłrequest": 7665,
      "Äłinsight": 7666,
      "Äłglucose": 7667,
      "Äłconfidence": 7668,
      "Äłconstantly": 7669,
      "Äłphysics": 7670,
      "Äłpainting": 7671,
      "ĠÄłplant": 7672,
      "ÄłConf": 7673,
      "Äłescape": 7674,
      "Äłswim": 7675,
      "Äłteams": 7676,
      "ĠÄłuntil": 7677,
      "ĠÄłcommunity": 7678,
      "ipping": 7679,
      "ÄłStudy": 7680,
      "Äłtells": 7681,
      "Äłbringing": 7682,
      "ĠÄłobs": 7683,
      "Äłhydrogen": 7684,
      "ÄłDesign": 7685,
      "Äłindependence": 7686,
      "ĠÄłfollowing": 7687,
      "ioxid": 7688,
      "Äłevaluate": 7689,
      "Äłthermal": 7690,
      "html": 7691,
      "Äłpupils": 7692,
      "Äłunusual": 7693,
      "ikipedia": 7694,
      "BS": 7695,
      "Ed": 7696,
      "MA": 7697,
      "NS": 7698,
      "SP": 7699,
      "born": 7700,
      "hire": 7701,
      "mic": 7702,
      "making": 7703,
      "rary": 7704,
      "under": 7705,
      "wing": 7706,
      "zed": 7707,
      "ĠV": 7708,
      "ĠÄłtimes": 7709,
      "onents": 7710,
      "Äłsections": 7711,
      "Äłpit": 7712,
      "Äłfixed": 7713,
      "Äłmic": 7714,
      "Äłmice": 7715,
      "Äłgap": 7716,
      "rape": 7717,
      "ÄłAcc": 7718,
      "ÄłSer": 7719,
      "ÄłSouthern": 7720,
      "Äłstring": 7721,
      "elesc": 7722,
      "ÄłCur": 7723,
      "Äłconqu": 7724,
      "Äłorient": 7725,
      "Äłwhatever": 7726,
      "emb": 7727,
      "acent": 7728,
      "acher": 7729,
      "ĠÄłwant": 7730,
      "ÄłPres": 7731,
      "ÄłProp": 7732,
      "ÄłPsych": 7733,
      "ĠÄłcame": 7734,
      "ÄłBur": 7735,
      "ĠÄłsk": 7736,
      "Äłsuicide": 7737,
      "unning": 7738,
      "unicip": 7739,
      "ÄłWord": 7740,
      "Äłrig": 7741,
      "allow": 7742,
      "ÄłFund": 7743,
      "ÄłNov": 7744,
      "ÄłLong": 7745,
      "agram": 7746,
      "rub": 7747,
      "Äładj": 7748,
      "ÄłUSA": 7749,
      "ÄłJe": 7750,
      "ĠÄłnever": 7751,
      "Äłmanaging": 7752,
      "anger": 7753,
      "Äłuns": 7754,
      "ĠÄłtest": 7755,
      "ĠÄłtype": 7756,
      "Äłarms": 7757,
      "Äłcommission": 7758,
      "Äłagreed": 7759,
      "Äłacting": 7760,
      "Äłrab": 7761,
      "ovascular": 7762,
      "Äłreliable": 7763,
      "Äłcolumn": 7764,
      "Äłtransition": 7765,
      "Äłsigned": 7766,
      "heme": 7767,
      "Äłskill": 7768,
      "Äłtreating": 7769,
      "Äłexplo": 7770,
      "Äłmaintained": 7771,
      "Äłdownload": 7772,
      "Äłmemb": 7773,
      "ĠÄłrather": 7774,
      "ospitals": 7775,
      "ÄłIslam": 7776,
      "ÄłClimate": 7777,
      "aneously": 7778,
      "ÄłCommittee": 7779,
      "Äłputting": 7780,
      "Äłabsence": 7781,
      "Äłtwenty": 7782,
      "ÄłAgency": 7783,
      "Äłmeasurements": 7784,
      "Äłexciting": 7785,
      "Äłconsistent": 7786,
      "Äłremoval": 7787,
      "ÄłMoreover": 7788,
      "fessional": 7789,
      "Äłcapture": 7790,
      "Äłangle": 7791,
      "Äłfighting": 7792,
      "Äłcoastal": 7793,
      "ĠÄłsignificant": 7794,
      "Äłexperiencing": 7795,
      "Äłcategory": 7796,
      "Äłhonor": 7797,
      "Äłrobot": 7798,
      "Äłguidance": 7799,
      "Äłdependent": 7800,
      "ĠÄłstrong": 7801,
      "Äłuniversal": 7802,
      "Äłalgorith": 7803,
      "adelph": 7804,
      "bar": 7805,
      "iop": 7806,
      "ĠÄłens": 7807,
      "Äłtheories": 7808,
      "Äłov": 7809,
      "ounce": 7810,
      "aration": 7811,
      "Äłfires": 7812,
      "Äłfalse": 7813,
      "Äłdil": 7814,
      "Äłdaughter": 7815,
      "lymp": 7816,
      "ÄłTw": 7817,
      "Äłgar": 7818,
      "ÄłCa": 7819,
      "through": 7820,
      "ÄłMS": 7821,
      "ÄłMag": 7822,
      "ema": 7823,
      "ĠÄłwhether": 7824,
      "Äłhel": 7825,
      "osion": 7826,
      "iva": 7827,
      "ÄłBul": 7828,
      "ĠÄłsay": 7829,
      "ÄłHenry": 7830,
      "ÄłEst": 7831,
      "ĠÄłmaking": 7832,
      "ptions": 7833,
      "ĠÄłdays": 7834,
      "ĠÄłdisease": 7835,
      "ÄłLeg": 7836,
      "Äłshut": 7837,
      "Äłshop": 7838,
      "Äłselection": 7839,
      "Äłenvironments": 7840,
      "aping": 7841,
      "ubs": 7842,
      "ĠÄłreal": 7843,
      "rency": 7844,
      "ÄłItaly": 7845,
      "ritical": 7846,
      "Äłaged": 7847,
      "Äłblo": 7848,
      "Äłanywhere": 7849,
      "ĠÄłPress": 7850,
      "Äłdecor": 7851,
      "Äłobesity": 7852,
      "ĠÄłRetrieved": 7853,
      "ĠÄłWar": 7854,
      "Äłresulted": 7855,
      "ĠÄłTe": 7856,
      "idespread": 7857,
      "Äłinsurance": 7858,
      "Äłestimate": 7859,
      "Äłpositions": 7860,
      "Äłlegs": 7861,
      "Äłinvolving": 7862,
      "ymes": 7863,
      "Äłbroken": 7864,
      "ributes": 7865,
      "Äłpeak": 7866,
      "rades": 7867,
      "Äłdifficulty": 7868,
      "Äłerrors": 7869,
      "Äłfunds": 7870,
      "Äłaccounts": 7871,
      "Äłrecognition": 7872,
      "ÄłAmong": 7873,
      "Äłdestruction": 7874,
      "ÄłSecret": 7875,
      "ÄłSecurity": 7876,
      "ĠÄłblood": 7877,
      "ÄłAustralian": 7878,
      "Äłlaunch": 7879,
      "Äłbreath": 7880,
      "Äłdemonstrated": 7881,
      "Äłcarrying": 7882,
      "Äłsettings": 7883,
      "ĠÄłdeterm": 7884,
      "Äłcategories": 7885,
      "ĠÄłpopulation": 7886,
      "usalem": 7887,
      "Äłsettlement": 7888,
      "Äłgalax": 7889,
      "Äłexplanation": 7890,
      "98": 7891,
      "En": 7892,
      "Le": 7893,
      "Read": 7894,
      "bell": 7895,
      "df": 7896,
      "rity": 7897,
      "rass": 7898,
      "spec": 7899,
      "Ã£": 7900,
      "Äłtroops": 7901,
      "inch": 7902,
      "erly": 7903,
      "encing": 7904,
      "Äłsell": 7905,
      "Äłsession": 7906,
      "ani": 7907,
      "oured": 7908,
      "Äłbiod": 7909,
      "Äłfav": 7910,
      "Äłfasc": 7911,
      "Äłinhib": 7912,
      "Äłmales": 7913,
      "entral": 7914,
      "Äłhun": 7915,
      "Äłlists": 7916,
      "etary": 7917,
      "idered": 7918,
      "otal": 7919,
      "ÄłTimes": 7920,
      "Äłgram": 7921,
      "igious": 7922,
      "ÄłAut": 7923,
      "ÄłSir": 7924,
      "terior": 7925,
      "usband": 7926,
      "ÄłMD": 7927,
      "achers": 7928,
      "ÄłPers": 7929,
      "econd": 7930,
      "ÄłBrazil": 7931,
      "ĠÄłpress": 7932,
      "ÄłHome": 7933,
      "ĠÄłflow": 7934,
      "Äłrice": 7935,
      "arts": 7936,
      "ÄłEss": 7937,
      "ĠÄłmind": 7938,
      "ĠÄłdel": 7939,
      "ÄłNaz": 7940,
      "ÄłLin": 7941,
      "ÄłLess": 7942,
      "ĠÄłhapp": 7943,
      "ibl": 7944,
      "ĠÄłreason": 7945,
      "Äłpartner": 7946,
      "Äłquiet": 7947,
      "plete": 7948,
      "redict": 7949,
      "Äłaccomp": 7950,
      "erted": 7951,
      "Äłinfect": 7952,
      "ĠÄłBl": 7953,
      "ĠÄłprogram": 7954,
      "ĠÄłWorld": 7955,
      "Äłrefuge": 7956,
      "Äłartist": 7957,
      "example": 7958,
      "Äłminerals": 7959,
      "Äłinspir": 7960,
      "ĠÄłcharacter": 7961,
      "Äłguard": 7962,
      "Äłbreeding": 7963,
      "ĠÄłlet": 7964,
      "Äłfourth": 7965,
      "Äłcomputing": 7966,
      "Äłlisten": 7967,
      "oftware": 7968,
      "Äłconsumers": 7969,
      "ÄłChristmas": 7970,
      "Äłfilter": 7971,
      "Äłauthorities": 7972,
      "ĠÄłStates": 7973,
      "orgia": 7974,
      "Äłcattle": 7975,
      "Äłdigest": 7976,
      "Äłindicated": 7977,
      "ÄłScott": 7978,
      "Äłconcentrations": 7979,
      "Äłchallenging": 7980,
      "Äłmessages": 7981,
      "ÄłDespite": 7982,
      "Äłdemonstrate": 7983,
      "Äłpregnant": 7984,
      "ĠÄłexperience": 7985,
      "ĠÄłincrease": 7986,
      "Äłofficer": 7987,
      "ĠÄłpatients": 7988,
      "Äłcomfortable": 7989,
      "ÄłFrancisco": 7990,
      "Äłmerely": 7991,
      "ÄłEngineering": 7992,
      "ĠÄłrisk": 7993,
      "Äłvocabulary": 7994,
      "Äłprominent": 7995,
      "120": 7996,
      "54": 7997,
      "DP": 7998,
      "Not": 7999,
      "OW": 8000,
      "RC": 8001,
      "TP": 8002,
      "called": 8003,
      "craft": 8004,
      "oids": 8005,
      "pass": 8006,
      "rat": 8007,
      "Äłtut": 8008,
      "Äłtons": 8009,
      "ĠÄłve": 8010,
      "ĠÄłvers": 8011,
      "Äłsessions": 8012,
      "anuary": 8013,
      "Äłinner": 8014,
      "Äłdrought": 8015,
      "asive": 8016,
      "Äłhorses": 8017,
      "idal": 8018,
      "ceive": 8019,
      "adder": 8020,
      "ÄłCap": 8021,
      "Äłproportion": 8022,
      "ÄłBre": 8023,
      "ĠÄłsm": 8024,
      "ÄłHy": 8025,
      "ĠÄłaut": 8026,
      "ĠÄłfurther": 8027,
      "Äłranging": 8028,
      "ÄłDoes": 8029,
      "ÄłFind": 8030,
      "ĠÄłdon": 8031,
      "agon": 8032,
      "pled": 8033,
      "ideos": 8034,
      "Äłintellectual": 8035,
      "Äłcompounds": 8036,
      "aved": 8037,
      "achine": 8038,
      "Äłmanif": 8039,
      "acebook": 8040,
      "Äłjump": 8041,
      "Äłevil": 8042,
      "overs": 8043,
      "ĠÄłSh": 8044,
      "tein": 8045,
      "ĠÄłCan": 8046,
      "Äłknows": 8047,
      "Äłblocks": 8048,
      "Äłack": 8049,
      "icking": 8050,
      "ĠÄłBy": 8051,
      "Äłvariation": 8052,
      "Äłtechnological": 8053,
      "hemistry": 8054,
      "thew": 8055,
      "Äłminute": 8056,
      "Äłinsulin": 8057,
      "Äłelectron": 8058,
      "Äłcareful": 8059,
      "Äłwriter": 8060,
      "Äłmatch": 8061,
      "ĠÄłleg": 8062,
      "ÄłAdditionally": 8063,
      "Äłsitting": 8064,
      "Äłoldest": 8065,
      "----": 8066,
      "Äłoperate": 8067,
      "ĠÄłresults": 8068,
      "Äłfacility": 8069,
      "Äłflows": 8070,
      "Äłconnections": 8071,
      "Äłcreatures": 8072,
      "Äłpolitics": 8073,
      "Äłerror": 8074,
      "Äłbigger": 8075,
      "ĠÄłopen": 8076,
      "Äłparticipation": 8077,
      "Äłnetworks": 8078,
      "Äłcoverage": 8079,
      "ÄłReport": 8080,
      "Äłcopper": 8081,
      "ĠÄłdifficult": 8082,
      "Äłpsychological": 8083,
      "Äłcorrectly": 8084,
      "ĠÄłspecies": 8085,
      "Äłalternatives": 8086,
      "Äłevaluation": 8087,
      "Äłimmediate": 8088,
      "ĠÄłknowledge": 8089,
      "ealand": 8090,
      "Äłconversation": 8091,
      "Äłobservations": 8092,
      "Äłdollars": 8093,
      "ÄłBuddh": 8094,
      "Äłhunting": 8095,
      "Äłsomewhat": 8096,
      "ÄłOhio": 8097,
      "adelphia": 8098,
      "62": 8099,
      "92": 8100,
      "Cal": 8101,
      "Int": 8102,
      "SE": 8103,
      "Where": 8104,
      "bacco": 8105,
      "effect": 8106,
      "gra": 8107,
      "gov": 8108,
      "greg": 8109,
      "kl": 8110,
      "night": 8111,
      "rh": 8112,
      "top": 8113,
      "trans": 8114,
      "vin": 8115,
      "whel": 8116,
      "Ä¥": 8117,
      "Åģ": 8118,
      "Ġ_": 8119,
      "ĠWe": 8120,
      "ĠÄłtext": 8121,
      "esides": 8122,
      "itle": 8123,
      "Äłpra": 8124,
      "Äłpestic": 8125,
      "ouds": 8126,
      "arity": 8127,
      "Äłbread": 8128,
      "Äłfalls": 8129,
      "Äłmood": 8130,
      "Äłdys": 8131,
      "Äłthread": 8132,
      "Äłlens": 8133,
      "etime": 8134,
      "imated": 8135,
      "Äłgrain": 8136,
      "irty": 8137,
      "ÄłSometimes": 8138,
      "heric": 8139,
      "ÄłIP": 8140,
      "odium": 8141,
      "about": 8142,
      "istence": 8143,
      "ĠÄłcourse": 8144,
      "quality": 8145,
      "ĠÄłsomething": 8146,
      "ÄłWhere": 8147,
      "ÄłDrug": 8148,
      "ÄłDutch": 8149,
      "ÄłEth": 8150,
      "ÄłRom": 8151,
      "ÄłRoyal": 8152,
      "pted": 8153,
      "ÄłList": 8154,
      "Äłshot": 8155,
      "Äłweigh": 8156,
      "Äłabnormal": 8157,
      "Äłworst": 8158,
      "Äłenables": 8159,
      "Äłintent": 8160,
      "Äładverse": 8161,
      "Äłdisrupt": 8162,
      "Äłcompare": 8163,
      "aval": 8164,
      "Äłbutton": 8165,
      "Äłsole": 8166,
      "Äłarrest": 8167,
      "hered": 8168,
      "Äłagency": 8169,
      "aths": 8170,
      "Äłscore": 8171,
      "Äłtranslation": 8172,
      "ĠÄłseveral": 8173,
      "Äłeditor": 8174,
      "Äłdefend": 8175,
      "Äłfinds": 8176,
      "ĠÄłalways": 8177,
      "Äłtemporary": 8178,
      "hyth": 8179,
      "Äłprogramme": 8180,
      "nsylvania": 8181,
      "Äłgrid": 8182,
      "Äłparalle": 8183,
      "Äłbrings": 8184,
      "ĠÄłabove": 8185,
      "1987": 8186,
      "ÄłCommunity": 8187,
      "Äłdelivery": 8188,
      "Äłdamaged": 8189,
      "Äłmoves": 8190,
      "Äłtelling": 8191,
      "ÄłScot": 8192,
      "Äłfeeding": 8193,
      "ĠÄłrecogn": 8194,
      "Äłmachines": 8195,
      "Äłautomatically": 8196,
      "ĠÄłcountries": 8197,
      "ÄłMichael": 8198,
      "ĠÄłmembers": 8199,
      "giene": 8200,
      "Äłkidney": 8201,
      "About": 8202,
      "Learn": 8203,
      "Äłsusceptible": 8204,
      ".;": 8205,
      "61": 8206,
      "68": 8207,
      "97": 8208,
      "Or": 8209,
      "Ref": 8210,
      "bur": 8211,
      "grams": 8212,
      "mal": 8213,
      "rin": 8214,
      "uated": 8215,
      "Ä©": 8216,
      "ÅĢ": 8217,
      "reation": 8218,
      "rection": 8219,
      "atial": 8220,
      "Äłost": 8221,
      "Äłcm": 8222,
      "arks": 8223,
      "Äłbanks": 8224,
      "Äłfisher": 8225,
      "Äłfashion": 8226,
      "Äłinn": 8227,
      "Äłmeth": 8228,
      "asant": 8229,
      "rox": 8230,
      "ilk": 8231,
      "Äłlip": 8232,
      "section": 8233,
      "ette": 8234,
      "ÄłTry": 8235,
      "ÄłAlex": 8236,
      "ÄłSupreme": 8237,
      "abling": 8238,
      "ÄłMah": 8239,
      "acles": 8240,
      "ÄłPost": 8241,
      "ivered": 8242,
      "ĠÄłcome": 8243,
      "ÄłBig": 8244,
      "ĠÄłpast": 8245,
      "Äłrank": 8246,
      "Äłchrom": 8247,
      "ÄłEU": 8248,
      "rip": 8249,
      "ĠÄłdue": 8250,
      "ÄłLight": 8251,
      "aret": 8252,
      "ĠÄłhistory": 8253,
      "Äładm": 8254,
      "ĠÄłnecessary": 8255,
      "Äłpermission": 8256,
      "itely": 8257,
      "ĠÄłtaken": 8258,
      "ailing": 8259,
      "ailability": 8260,
      "rene": 8261,
      "Äłrecover": 8262,
      "ontal": 8263,
      "Äłrelation": 8264,
      "Äłampl": 8265,
      "Äłschedule": 8266,
      "Äłregulation": 8267,
      "Äłassigned": 8268,
      "idential": 8269,
      "Äłtransp": 8270,
      "Äłexperimental": 8271,
      "ĠÄłanalysis": 8272,
      "ĠÄłsepar": 8273,
      "Äłdetection": 8274,
      "ĠÄłNo": 8275,
      "Äłcrew": 8276,
      "cientists": 8277,
      "Äłgrades": 8278,
      "Äłmineral": 8279,
      "uset": 8280,
      "ÄłIndust": 8281,
      "Äłelected": 8282,
      "ĠÄłshort": 8283,
      "Äłapproved": 8284,
      "ĠÄłleast": 8285,
      "ĠÄłimprove": 8286,
      "Äłprogramming": 8287,
      "Äłwheel": 8288,
      "Äłfocuses": 8289,
      "Äłobjective": 8290,
      "Äłchemistry": 8291,
      "Äłasking": 8292,
      "ĠÄłthemselves": 8293,
      "Äłholding": 8294,
      "Äłwindows": 8295,
      "Äłvertical": 8296,
      "Äłburning": 8297,
      "Äłintegration": 8298,
      "Äłvaccines": 8299,
      "Äłvisitors": 8300,
      "Äłearthqu": 8301,
      "Äłcaptured": 8302,
      "Äłcommitted": 8303,
      "Äłinterpre": 8304,
      "Äłframework": 8305,
      "ÄłReading": 8306,
      "ÄłGrand": 8307,
      "Äłcelebrated": 8308,
      "ÄłNetwork": 8309,
      "Äłdestroyed": 8310,
      "Äłhazard": 8311,
      "ÄłDirector": 8312,
      "Äłmathematical": 8313,
      "ÄłKorea": 8314,
      "riendly": 8315,
      "Äłtrouble": 8316,
      "Äłmosquit": 8317,
      "Äłheavily": 8318,
      "Se": 8319,
      "fts": 8320,
      "iary": 8321,
      "mers": 8322,
      "sis": 8323,
      "uh": 8324,
      "uits": 8325,
      "western": 8326,
      "yes": 8327,
      "Äµ": 8328,
      "ĠÃ¢Ä¢Ä¾": 8329,
      "Ġcom": 8330,
      "Äłtight": 8331,
      "Äłtens": 8332,
      "ĠÄłce": 8333,
      "ĠÄłment": 8334,
      "ĠÄłarg": 8335,
      "ĠÄłarr": 8336,
      "inates": 8337,
      "reater": 8338,
      "Äłfix": 8339,
      "Äłfought": 8340,
      "Äłdates": 8341,
      "Äłdrain": 8342,
      "asures": 8343,
      "Äłhoney": 8344,
      "Äłhidden": 8345,
      "stic": 8346,
      "omatic": 8347,
      "ometer": 8348,
      "veys": 8349,
      "Äłreject": 8350,
      "Äłlake": 8351,
      "Äłloved": 8352,
      "ceans": 8353,
      "utic": 8354,
      "urches": 8355,
      "Äłgiant": 8356,
      "ÄłAge": 8357,
      "ÄłIll": 8358,
      "ifts": 8359,
      "ÄłHave": 8360,
      "ÄłDivision": 8361,
      "ÄłRh": 8362,
      "ĠÄłdom": 8363,
      "ĠÄłhigher": 8364,
      "Äłenemy": 8365,
      "ormous": 8366,
      "ÄłOlymp": 8367,
      "Äładvert": 8368,
      "ĠÄłneg": 8369,
      "Äłmanip": 8370,
      "ĠÄłtr": 8371,
      "ĠÄłtreat": 8372,
      "Äłthanks": 8373,
      "ritish": 8374,
      "Äłblind": 8375,
      "Äłaccommod": 8376,
      "uclear": 8377,
      "ĠÄłMay": 8378,
      "aware": 8379,
      "erty": 8380,
      "Äłemp": 8381,
      "ersonal": 8382,
      "Äłmoderate": 8383,
      "Äłearn": 8384,
      "Äłinstalled": 8385,
      "Äłcenters": 8386,
      "Äłdisturb": 8387,
      "Äłseeking": 8388,
      "Äłcooperation": 8389,
      "theless": 8390,
      "enger": 8391,
      "Äłtemple": 8392,
      "agnetic": 8393,
      "Äłmeters": 8394,
      "Äłparad": 8395,
      "atching": 8396,
      "Äłviruses": 8397,
      "Äłbiom": 8398,
      "Äłseemed": 8399,
      "Äłreceiving": 8400,
      "ÄłChristians": 8401,
      "Äłrepresentation": 8402,
      "Äłsensors": 8403,
      "ĠÄłquality": 8404,
      "Äłconsideration": 8405,
      "Äłemployed": 8406,
      "Äłlosses": 8407,
      "ĠÄłcomb": 8408,
      "Äłdebate": 8409,
      "Äłtaxes": 8410,
      "Äłintegrated": 8411,
      "Äłdiagnosed": 8412,
      "ĠÄłYork": 8413,
      "Äłfulf": 8414,
      "Äłaims": 8415,
      "Äłafford": 8416,
      "Äłaudio": 8417,
      "Äłcorner": 8418,
      "Äłconversion": 8419,
      "Äłscreening": 8420,
      "Äłmolecular": 8421,
      "Äłinnovation": 8422,
      "imensional": 8423,
      "Äłeliminate": 8424,
      "Äłencouraged": 8425,
      "opyright": 8426,
      "Äłcomplications": 8427,
      "ĠÄłcomplete": 8428,
      "Äłpreparing": 8429,
      "Äłfavorite": 8430,
      "ĠÄłconditions": 8431,
      "ĠÄłavailable": 8432,
      "Äłnitrogen": 8433,
      "otherapy": 8434,
      "ÄłJohns": 8435,
      "BT": 8436,
      "Col": 8437,
      "Sc": 8438,
      "ais": 8439,
      "bec": 8440,
      "eace": 8441,
      "iÃĥ": 8442,
      "net": 8443,
      "rif": 8444,
      "Ã¨": 8445,
      "Ä³": 8446,
      "Ġst": 8447,
      "Äłid": 8448,
      "ĠÄłself": 8449,
      "heast": 8450,
      "rend": 8451,
      "Äłtheore": 8452,
      "atoes": 8453,
      "Äłsale": 8454,
      "Äłsulf": 8455,
      "Äłcit": 8456,
      "Äłpandemic": 8457,
      "Äłfed": 8458,
      "Äłinequ": 8459,
      "rose": 8460,
      "sell": 8461,
      "oln": 8462,
      "uris": 8463,
      "Äłongoing": 8464,
      "ÄłMo": 8465,
      "ÄłMen": 8466,
      "ÄłMethod": 8467,
      "eren": 8468,
      "ĠÄłworks": 8469,
      "ÄłPo": 8470,
      "Äłhence": 8471,
      "Äłexclus": 8472,
      "Äłexhaust": 8473,
      "Äłvs": 8474,
      "ÄłWood": 8475,
      "ÄłDev": 8476,
      "ÄłEp": 8477,
      "ÄłEffect": 8478,
      "ĠÄłdiet": 8479,
      "ÄłGree": 8480,
      "ÄłLanguage": 8481,
      "Äłspin": 8482,
      "Äłsport": 8483,
      "ÄłOpen": 8484,
      "veloc": 8485,
      "2021": 8486,
      "achuset": 8487,
      "Äłclot": 8488,
      "ĠÄłline": 8489,
      "ishop": 8490,
      "ologic": 8491,
      "ieval": 8492,
      "ĠÄłCol": 8493,
      "although": 8494,
      "Äłovercome": 8495,
      "redit": 8496,
      "Äłrocks": 8497,
      "ĠÄłstep": 8498,
      "oves": 8499,
      "Äłamazing": 8500,
      "Äłregulate": 8501,
      "Äłsurg": 8502,
      "Äłattached": 8503,
      "Äłbuff": 8504,
      "Äłmode": 8505,
      "unday": 8506,
      "ĠÄłNorth": 8507,
      "Äłmyster": 8508,
      "Äłauthent": 8509,
      "ĠÄłJohn": 8510,
      "Äłplanned": 8511,
      "Äłdriven": 8512,
      "ĠÄłrights": 8513,
      "Äłpublication": 8514,
      "ĠÄłconcer": 8515,
      "Äłoccurring": 8516,
      "Äłwarning": 8517,
      "ercise": 8518,
      "Äłflower": 8519,
      "ferred": 8520,
      "letes": 8521,
      "ĠÄłclose": 8522,
      "brid": 8523,
      "regon": 8524,
      "Äłdomain": 8525,
      "ucky": 8526,
      "Äłbehavioral": 8527,
      "Äłdeeply": 8528,
      "Äłattempted": 8529,
      "istoric": 8530,
      "Äłdeclared": 8531,
      "ĠÄłcentury": 8532,
      "ĠÄłpersonal": 8533,
      "Äłbegun": 8534,
      "ÄłSystems": 8535,
      "Äłexcessive": 8536,
      "Äłantibiotics": 8537,
      "ĠÄłoccur": 8538,
      "Äłisolated": 8539,
      "ĠÄłproblems": 8540,
      "Äłlymph": 8541,
      "ÄłQueen": 8542,
      "ÄłAtlantic": 8543,
      "heimer": 8544,
      "achusetts": 8545,
      "09": 8546,
      "800": 8547,
      "Co": 8548,
      "PP": 8549,
      "Re": 8550,
      "aver": 8551,
      "bles": 8552,
      "comm": 8553,
      "def": 8554,
      "green": 8555,
      "lamic": 8556,
      "oa": 8557,
      "rÃĥ": 8558,
      "you": 8559,
      "Ã¯": 8560,
      "Ä¢": 8561,
      "Ġor": 8562,
      "ĠÄłess": 8563,
      "inces": 8564,
      "onent": 8565,
      "Äłcotton": 8566,
      "iti": 8567,
      "Äłwelfare": 8568,
      "Äłwidespread": 8569,
      "Äłpapers": 8570,
      "Äłfurn": 8571,
      "Äłfinger": 8572,
      "ilitary": 8573,
      "Äłnone": 8574,
      "Äłgun": 8575,
      "Äłstrict": 8576,
      "ador": 8577,
      "elve": 8578,
      "ÄłIran": 8579,
      "ÄłCast": 8580,
      "Äłitem": 8581,
      "abeth": 8582,
      "ÄłMoon": 8583,
      "emple": 8584,
      "umer": 8585,
      "ÄłPC": 8586,
      "ÄłPract": 8587,
      "ivest": 8588,
      "quir": 8589,
      "ĠÄłpo": 8590,
      "ĠÄłpost": 8591,
      "ĠÄłage": 8592,
      "ÄłEs": 8593,
      "Äłdealing": 8594,
      "riends": 8595,
      "pty": 8596,
      "ÄłNon": 8597,
      "Äłshift": 8598,
      "arding": 8599,
      "Äłusage": 8600,
      "Äłdism": 8601,
      "Äłdispos": 8602,
      "Äłcontemporary": 8603,
      "ÄłUr": 8604,
      "Äłclust": 8605,
      "berry": 8606,
      "ĠÄłlive": 8607,
      "ĠÄłlittle": 8608,
      "Äłprey": 8609,
      "ĠÄłturn": 8610,
      "ĠÄłtreatment": 8611,
      "ĠÄłground": 8612,
      "Äłtract": 8613,
      "Äłagents": 8614,
      "plex": 8615,
      "ÄłVitamin": 8616,
      "Äłundert": 8617,
      "iseases": 8618,
      "Äłproviders": 8619,
      "Äłindigenous": 8620,
      "Äłscar": 8621,
      "Äłsurfaces": 8622,
      "insula": 8623,
      "Äłremed": 8624,
      "Äłcentre": 8625,
      "ĠÄłEurope": 8626,
      "Äłcounty": 8627,
      "Äłenthus": 8628,
      "ranean": 8629,
      "Äłcurve": 8630,
      "Äłglac": 8631,
      "Äłserving": 8632,
      "pects": 8633,
      "ÄłIndians": 8634,
      "ĠÄłyoung": 8635,
      "ÄłYoung": 8636,
      "Äłprofit": 8637,
      "Äłbelieves": 8638,
      "ÄłResources": 8639,
      "Äłgranted": 8640,
      "ymb": 8641,
      "1986": 8642,
      "ĠÄłsuggest": 8643,
      "Äłmarks": 8644,
      "Äłmarried": 8645,
      "ependence": 8646,
      "Äłensuring": 8647,
      "Äłcleaning": 8648,
      "ÄłSuper": 8649,
      "Äłimplemented": 8650,
      "ĠÄłinclude": 8651,
      "ĠÄłaccount": 8652,
      "ĠÄłspecific": 8653,
      "Äłuncertain": 8654,
      "Äłordinary": 8655,
      "Äłfairly": 8656,
      "Äłassets": 8657,
      "Äłlegislation": 8658,
      "ÄłPennsylvania": 8659,
      "Äłsubstantial": 8660,
      "Äłparameters": 8661,
      "emperature": 8662,
      "Äłillegal": 8663,
      "Äłsurgical": 8664,
      "%)": 8665,
      "(\"": 8666,
      "02": 8667,
      "89": 8668,
      "Cons": 8669,
      "EO": 8670,
      "Ne": 8671,
      "Te": 8672,
      "eem": 8673,
      "har": 8674,
      "nected": 8675,
      "spe": 8676,
      "uis": 8677,
      "ĠÃĤ": 8678,
      "Äłtor": 8679,
      "Äłtong": 8680,
      "ĠÄłz": 8681,
      "heet": 8682,
      "inals": 8683,
      "erior": 8684,
      "anied": 8685,
      "Äłcow": 8686,
      "Äłcure": 8687,
      "orters": 8688,
      "itled": 8689,
      "Äłpush": 8690,
      "icts": 8691,
      "lete": 8692,
      "ilation": 8693,
      "omal": 8694,
      "Äłease": 8695,
      "Äłreaches": 8696,
      "olk": 8697,
      "ÄłTake": 8698,
      "ÄłType": 8699,
      "igue": 8700,
      "ÄłAND": 8701,
      "ÄłSol": 8702,
      "ÄłSpe": 8703,
      "amous": 8704,
      "ÄłIII": 8705,
      "ÄłCy": 8706,
      "Äłproceed": 8707,
      "thod": 8708,
      "ushed": 8709,
      "ÄłPolicy": 8710,
      "osa": 8711,
      "ĠÄłcurrent": 8712,
      "ÄłBang": 8713,
      "Äłcann": 8714,
      "ÄłDen": 8715,
      "oga": 8716,
      "ÄłLow": 8717,
      "ÄłLead": 8718,
      "Äłshoot": 8719,
      "Äłsharp": 8720,
      "Äłspaces": 8721,
      "rous": 8722,
      "Äłseat": 8723,
      "Äłworry": 8724,
      "plant": 8725,
      "aren": 8726,
      "ouses": 8727,
      "izabeth": 8728,
      "ĠÄłhaving": 8729,
      "1930": 8730,
      "ustral": 8731,
      "Äłintense": 8732,
      "ÄłOper": 8733,
      "Äłcontrovers": 8734,
      "Äłresil": 8735,
      "ĠÄłnational": 8736,
      "ĠÄłlook": 8737,
      "ĠÄłeither": 8738,
      "Äłunion": 8739,
      "Äłapps": 8740,
      "erving": 8741,
      "Äłmaybe": 8742,
      "lication": 8743,
      "yses": 8744,
      "weet": 8745,
      "Äłconsciousness": 8746,
      "Äłdesire": 8747,
      "Äłscene": 8748,
      "forest": 8749,
      "ĠÄłBe": 8750,
      "Äłsupposed": 8751,
      "Äłpreserve": 8752,
      "ĠÄłRe": 8753,
      "Äłeffectiveness": 8754,
      "onomics": 8755,
      "Äłowner": 8756,
      "apped": 8757,
      "Äłentering": 8758,
      "Äłexploration": 8759,
      "Äłpossess": 8760,
      "Äłserves": 8761,
      "Äłorganism": 8762,
      "Äłcontinu": 8763,
      "ographical": 8764,
      "Äłslaves": 8765,
      "Äłengaging": 8766,
      "Äłstanding": 8767,
      "ployed": 8768,
      "Äłbridge": 8769,
      "Äłfocusing": 8770,
      "Äłplanted": 8771,
      "ÄłEnvironment": 8772,
      "Äłhardware": 8773,
      "rimary": 8774,
      "Äłrepresentative": 8775,
      "Äłcharacterized": 8776,
      "Äłcontainer": 8777,
      "Äłemployment": 8778,
      "Äłfishing": 8779,
      "Äłzone": 8780,
      "ĠÄłacross": 8781,
      "Äłengineers": 8782,
      "scale": 8783,
      "Äłcomplexity": 8784,
      "Äłseparation": 8785,
      "Äłfalling": 8786,
      "Äłbacterial": 8787,
      "Äłconcluded": 8788,
      "Äłmechanism": 8789,
      "ĠÄłspecial": 8790,
      "Äłvirtually": 8791,
      "Äłbeauty": 8792,
      "Äłstreams": 8793,
      "Äłrarely": 8794,
      "Äłemphasis": 8795,
      "Äłofficers": 8796,
      "ĠÄłrequired": 8797,
      "Äłspectrum": 8798,
      "Äłmissing": 8799,
      "Äłbranch": 8800,
      "ĠÄłeconomic": 8801,
      "Äłceremon": 8802,
      "Äłinterpretation": 8803,
      "ĠÄłproblem": 8804,
      "Ã¥Ä": 8805,
      "ĠÄłissue": 8806,
      "ĠÄłreturn": 8807,
      "Äłdistinguish": 8808,
      "cyclopedia": 8809,
      "Äłlaunched": 8810,
      "%,": 8811,
      "04": 8812,
      "05": 8813,
      "63": 8814,
      "84": 8815,
      "87": 8816,
      "May": 8817,
      "Part": 8818,
      "RA": 8819,
      "Under": 8820,
      "fe": 8821,
      "from": 8822,
      "mend": 8823,
      "oices": 8824,
      "tes": 8825,
      "volution": 8826,
      "words": 8827,
      "Ãĸ": 8828,
      "Äłtip": 8829,
      "Äłtube": 8830,
      "ĠÄłpp": 8831,
      "real": 8832,
      "isk": 8833,
      "Äłwider": 8834,
      "Äłpy": 8835,
      "Äłfest": 8836,
      "entle": 8837,
      "ctrine": 8838,
      "Äłles": 8839,
      "Äłnerve": 8840,
      "olves": 8841,
      "Äłbees": 8842,
      "Äłgod": 8843,
      "Äłgained": 8844,
      "ÄłSk": 8845,
      "ÄłSat": 8846,
      "advant": 8847,
      "eli": 8848,
      "ÄłCheck": 8849,
      "Äłalive": 8850,
      "ÄłMel": 8851,
      "ĠÄłcur": 8852,
      "ĠÄłsit": 8853,
      "ĠÄłpain": 8854,
      "ÄłHospital": 8855,
      "Äłatoms": 8856,
      "ĠÄłbook": 8857,
      "Äłchap": 8858,
      "riz": 8859,
      "ÄłFacebook": 8860,
      "ĠÄłdest": 8861,
      "Äłsperm": 8862,
      "Äłspinal": 8863,
      "Äłspots": 8864,
      "agraph": 8865,
      "aka": 8866,
      "akistan": 8867,
      "apor": 8868,
      "Äłkilling": 8869,
      "Äłcontributed": 8870,
      "Äłperception": 8871,
      "ĠÄłlist": 8872,
      "ĠÄłlarg": 8873,
      "ĠÄłliving": 8874,
      "ricks": 8875,
      "ÄłSte": 8876,
      "ĠÄłgroups": 8877,
      "ĠÄłAmeric": 8878,
      "lude": 8879,
      "text": 8880,
      "Äłoverwhel": 8881,
      "ÄłVer": 8882,
      "ÄłVen": 8883,
      "ools": 8884,
      "Äłphosph": 8885,
      "Äłproven": 8886,
      "awa": 8887,
      "Äłobst": 8888,
      "chnology": 8889,
      "century": 8890,
      "Äłextend": 8891,
      "Äłdistricts": 8892,
      "Äłowned": 8893,
      "ĠÄłLe": 8894,
      "Äłavailability": 8895,
      "ohyd": 8896,
      "ĠÄłcannot": 8897,
      "alking": 8898,
      "Äłpassion": 8899,
      "including": 8900,
      "incoln": 8901,
      "Äłaffecting": 8902,
      "Äłchest": 8903,
      "Äłbrand": 8904,
      "Äłfaced": 8905,
      "ÄłZealand": 8906,
      "Äłfarms": 8907,
      "ĠÄłclaim": 8908,
      "Äłsensor": 8909,
      "Äłconsiderable": 8910,
      "Äłzero": 8911,
      "Äłcovering": 8912,
      "Äłburied": 8913,
      "ĠÄłrelations": 8914,
      "Äłvariables": 8915,
      "ÄłGuide": 8916,
      "Äłclaimed": 8917,
      "Äłthreatened": 8918,
      "ĠÄłneeds": 8919,
      "Äłattempts": 8920,
      "ĠÄłThat": 8921,
      "ĠÄłusually": 8922,
      "edicine": 8923,
      "Äłachievement": 8924,
      "ÄłAntar": 8925,
      "Äłcryst": 8926,
      "ÄłAngel": 8927,
      "Äłpreparation": 8928,
      "ÄłMichigan": 8929,
      "ĠÄłEnglish": 8930,
      "Äłcorresponding": 8931,
      "Äłenzymes": 8932,
      "Äładolesc": 8933,
      "69": 8934,
      "Before": 8935,
      "CH": 8936,
      "LC": 8937,
      "bre": 8938,
      "cin": 8939,
      "cre": 8940,
      "cled": 8941,
      "comp": 8942,
      "dr": 8943,
      "eated": 8944,
      "eep": 8945,
      "gments": 8946,
      "medi": 8947,
      "oons": 8948,
      "zer": 8949,
      "Ġ12": 8950,
      "ĠÃ¢Ä¢": 8951,
      "ĠÄłtechnology": 8952,
      "Äłtub": 8953,
      "Äłtension": 8954,
      "Äłsales": 8955,
      "Äłanat": 8956,
      "Äłfra": 8957,
      "Äłfold": 8958,
      "Äłtobacco": 8959,
      "Äłinformed": 8960,
      "ila": 8961,
      "Äłelection": 8962,
      "Äłreplic": 8963,
      "Äłnest": 8964,
      "urable": 8965,
      "ÄłTV": 8966,
      "verity": 8967,
      "ÄłClick": 8968,
      "Äłorbit": 8969,
      "thritis": 8970,
      "Äłheating": 8971,
      "ĠÄłcover": 8972,
      "ĠÄłcases": 8973,
      "ĠÄłside": 8974,
      "ĠÄłposs": 8975,
      "ĠÄłpolitical": 8976,
      "ÄłHoly": 8977,
      "ÄłEmer": 8978,
      "ewis": 8979,
      "ÄłRight": 8980,
      "ĠÄłdone": 8981,
      "ÄłLast": 8982,
      "peror": 8983,
      "Äłabilities": 8984,
      "actic": 8985,
      "answ": 8986,
      "eller": 8987,
      "ipher": 8988,
      "ĠÄłnet": 8989,
      "ĠÄłnature": 8990,
      "Äłpreced": 8991,
      "ĠÄłeff": 8992,
      "ÄłStat": 8993,
      "ĠÄłgrowth": 8994,
      "ĠÄłAct": 8995,
      "mercial": 8996,
      "Äłacres": 8997,
      "Äłacute": 8998,
      "ĠÄłask": 8999,
      "ĠÄłonce": 9000,
      "Äłattitude": 9001,
      "Äłsupplements": 9002,
[...]
