{
  "version": "1.0",
  "truncation": null,
  "padding": null,
  "added_tokens": [
    {
      "id": 0,
      "content": "[UNK]",
      "single_word": false,
      "lstrip": false,
      "rstrip": false,
      "normalized": false,
      "special": true
    },
    {
      "id": 1,
      "content": "[CLS]",
      "single_word": false,
      "lstrip": false,
      "rstrip": false,
      "normalized": false,
      "special": true
    },
    {
      "id": 2,
      "content": "[SEP]",
      "single_word": false,
      "lstrip": false,
      "rstrip": false,
      "normalized": false,
      "special": true
    },
    {
      "id": 3,
      "content": "[PAD]",
      "single_word": false,
      "lstrip": false,
      "rstrip": false,
      "normalized": false,
      "special": true
    },
    {
      "id": 4,
      "content": "[MASK]",
      "single_word": false,
      "lstrip": false,
      "rstrip": false,
      "normalized": false,
      "special": true
    },
    {
      "id": 5,
      "content": "[EOS]",
      "single_word": false,
      "lstrip": false,
      "rstrip": false,
      "normalized": false,
      "special": true
    }
  ],
  "normalizer": null,
  "pre_tokenizer": {
    "type": "ByteLevel",
    "add_prefix_space": false,
    "trim_offsets": true,
    "use_regex": true
  },
  "post_processor": null,
  "decoder": null,
  "model": {
    "type": "BPE",
    "dropout": null,
    "unk_token": "[UNK]",
    "continuing_subword_prefix": null,
    "end_of_word_suffix": null,
    "fuse_unk": false,
    "byte_fallback": false,
    "ignore_merges": false,
    "vocab": {
      "[UNK]": 0,
      "[CLS]": 1,
      "[SEP]": 2,
      "[PAD]": 3,
      "[MASK]": 4,
      "[EOS]": 5,
      "!": 6,
      "\"": 7,
      "#": 8,
      "$": 9,
      "%": 10,
      "&": 11,
      "'": 12,
      "(": 13,
      ")": 14,
      "*": 15,
      "+": 16,
      ",": 17,
      "-": 18,
      ".": 19,
      "/": 20,
      "0": 21,
      "1": 22,
      "2": 23,
      "3": 24,
      "4": 25,
      "5": 26,
      "6": 27,
      "7": 28,
      "8": 29,
      "9": 30,
      ":": 31,
      ";": 32,
      "<": 33,
      "=": 34,
      ">": 35,
      "?": 36,
      "@": 37,
      "A": 38,
      "B": 39,
      "C": 40,
      "D": 41,
      "E": 42,
      "F": 43,
      "G": 44,
      "H": 45,
      "I": 46,
      "J": 47,
      "K": 48,
      "L": 49,
      "M": 50,
      "N": 51,
      "O": 52,
      "P": 53,
      "Q": 54,
      "R": 55,
      "S": 56,
      "T": 57,
      "U": 58,
      "V": 59,
      "W": 60,
      "X": 61,
      "Y": 62,
      "Z": 63,
      "[": 64,
      "\\": 65,
      "]": 66,
      "^": 67,
      "_": 68,
      "`": 69,
      "a": 70,
      "b": 71,
      "c": 72,
      "d": 73,
      "e": 74,
      "f": 75,
      "g": 76,
      "h": 77,
      "i": 78,
      "j": 79,
      "k": 80,
      "l": 81,
      "m": 82,
      "n": 83,
      "o": 84,
      "p": 85,
      "q": 86,
      "r": 87,
      "s": 88,
      "t": 89,
      "u": 90,
      "v": 91,
      "w": 92,
      "x": 93,
      "y": 94,
      "z": 95,
      "|": 96,
      "}": 97,
      "~": 98,
      "¡": 99,
      "¢": 100,
      "£": 101,
      "¤": 102,
      "¥": 103,
      "¦": 104,
      "§": 105,
      "¨": 106,
      "©": 107,
      "ª": 108,
      "«": 109,
      "¬": 110,
      "®": 111,
      "¯": 112,
      "°": 113,
      "±": 114,
      "²": 115,
      "³": 116,
      "´": 117,
      "µ": 118,
      "¶": 119,
      "·": 120,
      "¸": 121,
      "¹": 122,
      "º": 123,
      "»": 124,
      "¼": 125,
      "½": 126,
      "¾": 127,
      "¿": 128,
      "Â": 129,
      "Ã": 130,
      "Ä": 131,
      "Å": 132,
      "Ġ": 133,
      "Ģ": 134,
      "ģ": 135,
      "Ĥ": 136,
      "ĥ": 137,
      "Ħ": 138,
      "ħ": 139,
      "Ĩ": 140,
      "ĩ": 141,
      "Ī": 142,
      "ī": 143,
      "Ĭ": 144,
      "ĭ": 145,
      "Į": 146,
      "į": 147,
      "İ": 148,
      "ı": 149,
      "Ĳ": 150,
      "ĳ": 151,
      "ķ": 152,
      "ĸ": 153,
      "Ĺ": 154,
      "ĺ": 155,
      "Ļ": 156,
      "ļ": 157,
      "Ľ": 158,
      "ŀ": 159,
      "ł": 160,
      "Ń": 161,
      "Äł": 162,
      "Äłt": 163,
      "ĠÄł": 164,
      "he": 165,
      "in": 166,
      "Äła": 167,
      "re": 168,
      "Äłthe": 169,
      "on": 170,
      "er": 171,
      "at": 172,
      "en": 173,
      "Äło": 174,
      "Äłs": 175,
      "an": 176,
      "es": 177,
      "is": 178,
      "Äłc": 179,
      "or": 180,
      "it": 181,
      "Äłw": 182,
      "al": 183,
      "ed": 184,
      "ing": 185,
      "Äłp": 186,
      "nd": 187,
      "ou": 188,
      "ar": 189,
      "Äłf": 190,
      "Äłb": 191,
      "Äłof": 192,
      "Äłto": 193,
      "ic": 194,
      "Äłin": 195,
      "¢Ä": 196,
      "ion": 197,
      "ÄĬ": 198,
      "Äłm": 199,
      "Äłand": 200,
      "Äłd": 201,
      "le": 202,
      "ro": 203,
      "as": 204,
      "ent": 205,
      "Äłth": 206,
      "Äłh": 207,
      "ct": 208,
      "il": 209,
      "st": 210,
      "ve": 211,
      "om": 212,
      "Äłe": 213,
      "Äłre": 214,
      "Ã¢Ä": 215,
      "ly": 216,
      "Äłl": 217,
      "Äłn": 218,
      "Ã¢Ä¢Ä": 219,
      "se": 220,
      "et": 221,
      "ol": 222,
      "ation": 223,
      "Äłis": 224,
      "im": 225,
      "id": 226,
      "ch": 227,
      "ot": 228,
      "ce": 229,
      "ur": 230,
      "Äłbe": 231,
      "ow": 232,
      "ÄłT": 233,
      "Äłg": 234,
      "ut": 235,
      "ra": 236,
      "ig": 237,
      "Äłthat": 238,
      "ver": 239,
      "ir": 240,
      "Äłfor": 241,
      "and": 242,
      "Äłu": 243,
      "ÄłA": 244,
      "Äłon": 245,
      "ul": 246,
      "ĠÄłthe": 247,
      "Äłst": 248,
      "ÄłS": 249,
      "ay": 250,
      "am": 251,
      "Äły": 252,
      "ith": 253,
      "ad": 254,
      "el": 255,
      "ÄłI": 256,
      "her": 257,
      "ÄłC": 258,
      "Ġ.": 259,
      "Ġ,": 260,
      "if": 261,
      "Äłas": 262,
      "ter": 263,
      "Äłpro": 264,
      "Äłare": 265,
      "od": 266,
      "Äłcon": 267,
      "Äłwith": 268,
      "ment": 269,
      "Äłyou": 270,
      "Äłan": 271,
      "ge": 272,
      "op": 273,
      "th": 274,
      "Äłor": 275,
      "ab": 276,
      "Äłwh": 277,
      "Äłit": 278,
      "Äłal": 279,
      "ist": 280,
      "ate": 281,
      "us": 282,
      "ers": 283,
      "ies": 284,
      "ill": 285,
      "ess": 286,
      "res": 287,
      "ÄłM": 288,
      "ÄłThe": 289,
      "Ã¢Ä¢Ä»": 290,
      "em": 291,
      "ere": 292,
      "ect": 293,
      "ac": 294,
      "um": 295,
      "ĠÄłw": 296,
      "ity": 297,
      "of": 298,
      "ive": 299,
      "est": 300,
      "ore": 301,
      "ÄłP": 302,
      "rom": 303,
      "os": 304,
      "ld": 305,
      "ant": 306,
      "Äłhe": 307,
      "Äłex": 308,
      "iv": 309,
      "ec": 310,
      "ke": 311,
      "qu": 312,
      "Äłcom": 313,
      "ain": 314,
      "ĠÄłc": 315,
      "ÄłB": 316,
      "nt": 317,
      "pp": 318,
      "igh": 319,
      "ud": 320,
      "ĠÄłp": 321,
      "ĠÄłs": 322,
      "ĠÄłof": 323,
      "Äłsu": 324,
      "Äłv": 325,
      "ave": 326,
      "oc": 327,
      "ort": 328,
      "ÄłH": 329,
      "ĠÄła": 330,
      "ĠÄłb": 331,
      "ĠÄłf": 332,
      "Äłcan": 333,
      "Äłby": 334,
      "ure": 335,
      "un": 336,
      "ial": 337,
      "Äłat": 338,
      "ÄłW": 339,
      "ĠÄłin": 340,
      "Äłch": 341,
      "ÄłD": 342,
      "The": 343,
      "art": 344,
      "ÄłE": 345,
      "Äłfrom": 346,
      "Äłr": 347,
      "ical": 348,
      "Äłwas": 349,
      "ew": 350,
      "Äłde": 351,
      "og": 352,
      "ĠÄłand": 353,
      "ri": 354,
      "ÄłF": 355,
      "all": 356,
      "ĠÄłm": 357,
      "ÄłR": 358,
      "our": 359,
      "ear": 360,
      "Äłle": 361,
      "ĠÄłto": 362,
      "ÄłÃ¢Ä¢Ä": 363,
      "Äłnot": 364,
      "ight": 365,
      "Äłhave": 366,
      "Äłthis": 367,
      "out": 368,
      "pt": 369,
      "ĠÄłd": 370,
      "ich": 371,
      "ions": 372,
      "ost": 373,
      "ÄłN": 374,
      "ould": 375,
      "ĠÄĬ": 376,
      "ÄłG": 377,
      "rou": 378,
      "00": 379,
      "Äłen": 380,
      "du": 381,
      "Äłsh": 382,
      "gh": 383,
      "ÄłL": 384,
      "ated": 385,
      "Äłsp": 386,
      "ome": 387,
      "per": 388,
      "ag": 389,
      "ine": 390,
      "act": 391,
      "ard": 392,
      "Äłwe": 393,
      "Äłab": 394,
      "ther": 395,
      "Äłwor": 396,
      "Äłse": 397,
      "ast": 398,
      "ell": 399,
      "pl": 400,
      "ans": 401,
      "ak": 402,
      "age": 403,
      "Äłim": 404,
      "ff": 405,
      "Äłus": 406,
      "ide": 407,
      "ru": 408,
      "are": 409,
      "ous": 410,
      "Äłpl": 411,
      "iz": 412,
      "Äłtheir": 413,
      "ĠÄłh": 414,
      "19": 415,
      "end": 416,
      "ood": 417,
      "orm": 418,
      "hen": 419,
      "ust": 420,
      "Äłint": 421,
      "ult": 422,
      "ong": 423,
      "ib": 424,
      "Ã¢Ä¢Ä¿": 425,
      "ip": 426,
      "ations": 427,
      "ÄłO": 428,
      "Äłyour": 429,
      "ia": 430,
      "Äłthey": 431,
      "vel": 432,
      "Äłinc": 433,
      "ap": 434,
      "Äłk": 435,
      "Äłwhich": 436,
      "Äłwill": 437,
      "so": 438,
      "ary": 439,
      "av": 440,
      "cc": 441,
      "Äład": 442,
      "ire": 443,
      "Äłcont": 444,
      "Äłall": 445,
      "able": 446,
      "ÄłU": 447,
      "ence": 448,
      "ater": 449,
      "Äłcomp": 450,
      "ÄłIn": 451,
      "ild": 452,
      "ry": 453,
      "ep": 454,
      "Äłres": 455,
      "ally": 456,
      "Äłmore": 457,
      "Äłhas": 458,
      "Äłdis": 459,
      "Äłne": 460,
      "ÄłJ": 461,
      "ks": 462,
      "Äłte": 463,
      "one": 464,
      "ents": 465,
      "ind": 466,
      "ass": 467,
      "Äłdo": 468,
      "ach": 469,
      "ance": 470,
      "au": 471,
      "20": 472,
      "reat": 473,
      "ign": 474,
      "his": 475,
      "ress": 476,
      "Äłother": 477,
      "ase": 478,
      "ose": 479,
      "Ġ-": 480,
      "Äłcl": 481,
      "ction": 482,
      "ĠÄłn": 483,
      "Äłman": 484,
      "ake": 485,
      "ition": 486,
      "ord": 487,
      "ice": 488,
      "ĠÄłl": 489,
      "ber": 490,
      "ĠÄłt": 491,
      "Äłwere": 492,
      "ens": 493,
      "port": 494,
      "Äłbut": 495,
      "ime": 496,
      "ÄłÃ¢Ä¢Ä¾": 497,
      "ory": 498,
      "Äłalso": 499,
      "ĠÄłre": 500,
      "ace": 501,
      "Äłme": 502,
      "Äłper": 503,
      "very": 504,
      "ub": 505,
      "ok": 506,
      "ue": 507,
      "ame": 508,
      "ang": 509,
      "Äłone": 510,
      "ount": 511,
      "ack": 512,
      "ound": 513,
      "ish": 514,
      "'s": 515,
      "Äłstud": 516,
      "Äłpre": 517,
      "Äłj": 518,
      "ors": 519,
      "ite": 520,
      ").": 521,
      "olog": 522,
      "ike": 523,
      "Äłun": 524,
      "ree": 525,
      "ces": 526,
      "form": 527,
      "Äłev": 528,
      "eop": 529,
      "Äłabout": 530,
      "ci": 531,
      "ric": 532,
      "own": 533,
      "ĠÄłe": 534,
      "Äłapp": 535,
      "Äłpart": 536,
      "Äłout": 537,
      "Äłar": 538,
      "ĠÄłis": 539,
      "Äłthan": 540,
      "low": 541,
      "ail": 542,
      "ons": 543,
      "ile": 544,
      "iff": 545,
      "mer": 546,
      "ie": 547,
      "eople": 548,
      "ays": 549,
      "Äłwho": 550,
      "Äłsy": 551,
      "Äłso": 552,
      "ÄłSt": 553,
      "Äłbec": 554,
      "ings": 555,
      "Äłthem": 556,
      "ates": 557,
      "ĠÄłA": 558,
      "nder": 559,
      "ren": 560,
      "over": 561,
      "ĠÄłS": 562,
      "ÄłIt": 563,
      "ian": 564,
      "erv": 565,
      "here": 566,
      "ĠÄłg": 567,
      "Äłup": 568,
      "ough": 569,
      "Äłhis": 570,
      "ause": 571,
      "Äłcomm": 572,
      "te": 573,
      "Äłmay": 574,
      "ÄłK": 575,
      "ific": 576,
      "ll": 577,
      "lud": 578,
      "ple": 579,
      "ph": 580,
      "ob": 581,
      "ĠÄłC": 582,
      "ond": 583,
      "int": 584,
      "ove": 585,
      "rit": 586,
      "tern": 587,
      "rough": 588,
      "ual": 589,
      "Äłqu": 590,
      "alth": 591,
      "Äłthere": 592,
      "vers": 593,
      "In": 594,
      "Äłwhen": 595,
      "ities": 596,
      "irst": 597,
      "ys": 598,
      "Äłyear": 599,
      "we": 600,
      "Äłtra": 601,
      "Äłrec": 602,
      "row": 603,
      "Äłhow": 604,
      "Äłinto": 605,
      "les": 606,
      "ms": 607,
      "Äłpeople": 608,
      "Äłtime": 609,
      "lic": 610,
      "Äłsome": 611,
      "ĠÄłbe": 612,
      "Äłkn": 613,
      "ook": 614,
      "Äłbeen": 615,
      "stem": 616,
      "ÄłCh": 617,
      "ÄłThis": 618,
      "Äłag": 619,
      "red": 620,
      "Äłthese": 621,
      "ffect": 622,
      "Äłits": 623,
      "Äłwork": 624,
      "Äłover": 625,
      "Äłdiff": 626,
      "ning": 627,
      "ĠÄłthat": 628,
      "ject": 629,
      "lect": 630,
      "Äłcol": 631,
      "velop": 632,
      "ments": 633,
      "Äłuse": 634,
      "Äłact": 635,
      "lp": 636,
      "Äłro": 637,
      "ÄłV": 638,
      "Äłcons": 639,
      "ular": 640,
      "ative": 641,
      "ious": 642,
      "hed": 643,
      "pe": 644,
      "Äłmost": 645,
      "Äłra": 646,
      "ise": 647,
      "Äłlike": 648,
      "ĠÄłfor": 649,
      "ational": 650,
      "200": 651,
      "ool": 652,
      "wo": 653,
      "Äłbl": 654,
      "Äłif": 655,
      "Äłdes": 656,
      "Äłunder": 657,
      "Äłneed": 658,
      "Äłbet": 659,
      "10": 660,
      "ont": 661,
      "Äłour": 662,
      "ÄłY": 663,
      "Äłnew": 664,
      "ating": 665,
      "Äłacc": 666,
      "hat": 667,
      "ced": 668,
      "Äłchild": 669,
      "Äłinclud": 670,
      "ark": 671,
      "Äłtr": 672,
      "Äłhad": 673,
      "ov": 674,
      "Äłwould": 675,
      "Äłsuch": 676,
      "eth": 677,
      "),": 678,
      "Äłthrough": 679,
      "fter": 680,
      "ath": 681,
      "iss": 682,
      "ĠÄłst": 683,
      "Äłrel": 684,
      "oth": 685,
      "old": 686,
      "ied": 687,
      "18": 688,
      "rib": 689,
      "Äłsa": 690,
      "its": 691,
      "Äłhelp": 692,
      "ts": 693,
      "uring": 694,
      "ful": 695,
      "Äłany": 696,
      "oss": 697,
      "Äłused": 698,
      "Äłgen": 699,
      "erm": 700,
      "uc": 701,
      "ĠÄłM": 702,
      "ics": 703,
      "Äłpr": 704,
      "ility": 705,
      "round": 706,
      "Äłwhat": 707,
      "Äłind": 708,
      "Äłprov": 709,
      "Äłfe": 710,
      "Äłprodu": 711,
      "Äłph": 712,
      "ink": 713,
      "iet": 714,
      "uch": 715,
      "Äłonly": 716,
      "ower": 717,
      "als": 718,
      "Äłfirst": 719,
      "cess": 720,
      "ased": 721,
      "Äłmany": 722,
      "ten": 723,
      "Äłspec": 724,
      "Äłam": 725,
      "ne": 726,
      "ract": 727,
      "ange": 728,
      "Äłno": 729,
      "ures": 730,
      "ert": 731,
      "Äłdevelop": 732,
      "fore": 733,
      "Äłem": 734,
      "Äłsc": 735,
      "other": 736,
      "xt": 737,
      "ible": 738,
      "Äłoff": 739,
      "ng": 740,
      "vent": 741,
      "ĠÄłon": 742,
      "ĠÄły": 743,
      "Äłac": 744,
      "ever": 745,
      "Äłdec": 746,
      "ife": 747,
      "ween": 748,
      "aw": 749,
      "ural": 750,
      "ble": 751,
      "ĠÄłP": 752,
      "ÄłUn": 753,
      "Äłimp": 754,
      "Äładd": 755,
      "Äłdiffere": 756,
      "Äłsystem": 757,
      "ution": 758,
      "ram": 759,
      "Äłexp": 760,
      "Äłreg": 761,
      "ered": 762,
      "hes": 763,
      "omm": 764,
      "ade": 765,
      "ĠÄłwith": 766,
      "Äłtwo": 767,
      "ĠÄłpro": 768,
      "201": 769,
      "cy": 770,
      "any": 771,
      "sel": 772,
      "ick": 773,
      "chn": 774,
      "chool": 775,
      "ology": 776,
      "Äłsur": 777,
      "ss": 778,
      "arch": 779,
      "Äłfl": 780,
      "ĠÄłB": 781,
      "ĠÄłI": 782,
      "ÄłÃ¢Ä¢Äµ": 783,
      "ef": 784,
      "ĠÄłas": 785,
      "ants": 786,
      "Äłrem": 787,
      "Äłpo": 788,
      "Äłhealth": 789,
      "ins": 790,
      "ident": 791,
      "Äłgo": 792,
      "gan": 793,
      "Äłshould": 794,
      "Äłass": 795,
      "ĠÄłare": 796,
      "ily": 797,
      "Äłinf": 798,
      "Äłatt": 799,
      "Äłob": 800,
      "Äłsub": 801,
      "Äłwater": 802,
      "meric": 803,
      "ps": 804,
      "ivers": 805,
      "land": 806,
      "Äłsupp": 807,
      "ited": 808,
      "ÄłHe": 809,
      "ting": 810,
      "ork": 811,
      "formation": 812,
      "ĠÄłH": 813,
      "Äłhigh": 814,
      "ĠÄłThe": 815,
      "ĠÄłT": 816,
      "Äłcould": 817,
      "ature": 818,
      "ness": 819,
      "ists": 820,
      "Ġ:": 821,
      "Äłwell": 822,
      "cept": 823,
      "ĠÄłwh": 824,
      "Äłsm": 825,
      "ually": 826,
      "Äłpres": 827,
      "Äłimport": 828,
      "ata": 829,
      "Äłrese": 830,
      "oy": 831,
      "ines": 832,
      "aking": 833,
      "arm": 834,
      "iron": 835,
      "Äłbetween": 836,
      "ict": 837,
      "Äłyears": 838,
      "Äłwhere": 839,
      "Äłthose": 840,
      "get": 841,
      "ism": 842,
      "Äłmake": 843,
      "ĠÄłor": 844,
      "Äłget": 845,
      "Äłnum": 846,
      "iew": 847,
      "Ãĥ": 848,
      "erson": 849,
      "wn": 850,
      "Äłbecause": 851,
      "ases": 852,
      "ives": 853,
      "Äłeven": 854,
      "Äłtrans": 855,
      "gy": 856,
      "Äłfound": 857,
      "Äłinv": 858,
      "ĠÄłR": 859,
      "Äłinter": 860,
      "urn": 861,
      "Äłform": 862,
      "Äłbu": 863,
      "cer": 864,
      "Äłinst": 865,
      "Äłexam": 866,
      "Äłincre": 867,
      "Äłty": 868,
      "Äłdifferent": 869,
      "Äłeffect": 870,
      "Äłlong": 871,
      "ically": 872,
      "Äłear": 873,
      "Äłher": 874,
      "led": 875,
      "Äłtechn": 876,
      "Äłknow": 877,
      "up": 878,
      "Äłmed": 879,
      "Äłexper": 880,
      "ices": 881,
      "Äłjust": 882,
      "Äłvar": 883,
      "ues": 884,
      "Äłlar": 885,
      "Äłafter": 886,
      "ollow": 887,
      "eg": 888,
      "ized": 889,
      "Äłdet": 890,
      "Äłmod": 891,
      "Äłlear": 892,
      "ĠÄłit": 893,
      "ved": 894,
      "..": 895,
      "Äłcent": 896,
      "Äłcar": 897,
      "tle": 898,
      "Äłhum": 899,
      "Ã¢Ä¢Ä¾": 900,
      "ody": 901,
      "Äłway": 902,
      "Äłworld": 903,
      "ages": 904,
      "Äłed": 905,
      "cent": 906,
      "ĠÄłE": 907,
      "Äłpat": 908,
      "ather": 909,
      "Äłsim": 910,
      "Äłchildren": 911,
      "ĠÄłse": 912,
      "Äłthen": 913,
      "imes": 914,
      "Äłpol": 915,
      "ds": 916,
      "ÄłAmeric": 917,
      "overn": 918,
      "ĠÄłW": 919,
      "Äłresp": 920,
      "Äłcount": 921,
      "ruct": 922,
      "eral": 923,
      "ĠÄłan": 924,
      "ublic": 925,
      "Äłimportant": 926,
      "Äłvery": 927,
      "ĠÄłby": 928,
      "ck": 929,
      "ĠÄłD": 930,
      "rain": 931,
      "gg": 932,
      "viron": 933,
      "Äłext": 934,
      "Äłprocess": 935,
      "Äłsign": 936,
      "Äłref": 937,
      "ĠÄłhe": 938,
      "ted": 939,
      "ward": 940,
      "hip": 941,
      "io": 942,
      "ection": 943,
      "Äłdisc": 944,
      "und": 945,
      "omp": 946,
      "ĠÄłv": 947,
      "ĠÄłat": 948,
      "ock": 949,
      "read": 950,
      "Äłevery": 951,
      "Äłca": 952,
      "Äłmon": 953,
      "Äłcall": 954,
      "Äłbeing": 955,
      "Äłinformation": 956,
      "Äłsaid": 957,
      "Äłread": 958,
      "Äłlevel": 959,
      "Äłfact": 960,
      "Äłprog": 961,
      "ient": 962,
      "ĠÄłG": 963,
      "Äłstudents": 964,
      "Äłke": 965,
      "cient": 966,
      "app": 967,
      "Äłsee": 968,
      "ize": 969,
      "Äłpartic": 970,
      "ands": 971,
      "Äłfood": 972,
      "ÄłWe": 973,
      "ĠÄłwas": 974,
      "Äłset": 975,
      "Äłeach": 976,
      "Äłdist": 977,
      "Ġ)": 978,
      "ĠÄłN": 979,
      "ale": 980,
      "Äłcommun": 981,
      "ĠÄłF": 982,
      "ars": 983,
      "Äłart": 984,
      "15": 985,
      "Äłrequ": 986,
      "ivid": 987,
      "Äłmuch": 988,
      "ential": 989,
      "Äłstudy": 990,
      "onom": 991,
      "hem": 992,
      "orn": 993,
      "iel": 994,
      "||": 995,
      "vironment": 996,
      "ĠÃ¢Ä¢Ä»": 997,
      "Äłshe": 998,
      "Äłsec": 999,
      "ix": 1000,
      "Äłloc": 1001,
      "to": 1002,
      "Äłproble": 1003,
      "Äłsoc": 1004,
      "Äłresult": 1005,
      "ty": 1006,
      "Äłent": 1007,
      "Äłduring": 1008,
      "ÄłAl": 1009,
      "Äłsk": 1010,
      "rol": 1011,
      "12": 1012,
      "omen": 1013,
      "ince": 1014,
      "ality": 1015,
      "Äłdoes": 1016,
      "Äłlife": 1017,
      "Äłhist": 1018,
      "Äłgl": 1019,
      "iversity": 1020,
      "inal": 1021,
      "Äłschool": 1022,
      "ex": 1023,
      "ven": 1024,
      "nce": 1025,
      "imate": 1026,
      "ute": 1027,
      "ÄłAs": 1028,
      "ĠÄłex": 1029,
      "ÄłPro": 1030,
      "ral": 1031,
      "akes": 1032,
      "ished": 1033,
      "Ã¢Ä¢Äµ": 1034,
      "the": 1035,
      "pec": 1036,
      "air": 1037,
      "Äłins": 1038,
      "Äłmade": 1039,
      "stand": 1040,
      "Äłright": 1041,
      "Äłfollow": 1042,
      "uth": 1043,
      "ÄłThey": 1044,
      "Äłdef": 1045,
      "irect": 1046,
      "Äłfind": 1047,
      "Äłdep": 1048,
      "Äłcomple": 1049,
      "Äłco": 1050,
      "ax": 1051,
      "Äłpop": 1052,
      "Äłlead": 1053,
      "Äłfam": 1054,
      "Äłmy": 1055,
      "Äłthree": 1056,
      "ÄłHow": 1057,
      "Äłusing": 1058,
      "iqu": 1059,
      "Äłdata": 1060,
      "Äłgrow": 1061,
      "Äłstr": 1062,
      "Äłcre": 1063,
      "Äłback": 1064,
      "ergy": 1065,
      "ides": 1066,
      "iety": 1067,
      "ital": 1068,
      "ier": 1069,
      "Äłcur": 1070,
      "Äłsame": 1071,
      "Äłboth": 1072,
      "Äłav": 1073,
      "Äłserv": 1074,
      "Äłrep": 1075,
      "Äłdi": 1076,
      "rop": 1077,
      "Äłend": 1078,
      "ĠÄłL": 1079,
      "Äłnow": 1080,
      "ÄłIf": 1081,
      "000": 1082,
      "oh": 1083,
      "Äłoften": 1084,
      "uss": 1085,
      "Äłmin": 1086,
      "Äłdise": 1087,
      "ee": 1088,
      "Äłgood": 1089,
      "ters": 1090,
      "ĠÄłfrom": 1091,
      "199": 1092,
      "Äłown": 1093,
      "Äłgrou": 1094,
      "ran": 1095,
      "Äłgra": 1096,
      "ÄłFor": 1097,
      "ves": 1098,
      "Äłtreat": 1099,
      "ĠÄłal": 1100,
      "iving": 1101,
      "ĠÄłnot": 1102,
      "ury": 1103,
      "Äłtest": 1104,
      "17": 1105,
      "outh": 1106,
      "Äłmain": 1107,
      "Äłbefore": 1108,
      "dition": 1109,
      "Äłexpl": 1110,
      "ah": 1111,
      "Äłsmall": 1112,
      "cl": 1113,
      "This": 1114,
      "eng": 1115,
      "Ġs": 1116,
      "ulation": 1117,
      "der": 1118,
      "ined": 1119,
      "used": 1120,
      "ÄłTh": 1121,
      "hers": 1122,
      "Äłperson": 1123,
      "16": 1124,
      "itions": 1125,
      "overnment": 1126,
      "ĠÄłch": 1127,
      "acter": 1128,
      "Äłwhile": 1129,
      "Äłshow": 1130,
      "ead": 1131,
      "day": 1132,
      "Ã¢Ä¢Ä¶": 1133,
      "Äłpower": 1134,
      "ron": 1135,
      "Äłsol": 1136,
      "ĠÄłJ": 1137,
      "ency": 1138,
      "Äłval": 1139,
      "Äłless": 1140,
      "Äłactiv": 1141,
      "lear": 1142,
      "eed": 1143,
      "way": 1144,
      "Äłbo": 1145,
      "ash": 1146,
      "Äłredu": 1147,
      "Äłnumber": 1148,
      "Äłbel": 1149,
      "Äłprot": 1150,
      "iven": 1151,
      "Äłaround": 1152,
      "ross": 1153,
      "aj": 1154,
      "ft": 1155,
      "Äłday": 1156,
      "ÄłAn": 1157,
      "Äłagain": 1158,
      "Äłvis": 1159,
      "ouse": 1160,
      "ared": 1161,
      "ÄłNew": 1162,
      "Äłocc": 1163,
      "oci": 1164,
      "Äłstate": 1165,
      "Äłresearch": 1166,
      "Äłsom": 1167,
      "ÄłAr": 1168,
      "ull": 1169,
      "Äłdesign": 1170,
      "ional": 1171,
      "Äłbody": 1172,
      "Äłstart": 1173,
      "ÄłInd": 1174,
      "ination": 1175,
      "self": 1176,
      "ains": 1177,
      "Äłclass": 1178,
      "pect": 1179,
      "Äłdown": 1180,
      "rent": 1181,
      "Äłmem": 1182,
      "reen": 1183,
      "Äłlit": 1184,
      "Äłec": 1185,
      "Äłchar": 1186,
      "Äłcommon": 1187,
      "use": 1188,
      "ering": 1189,
      "Äłcontin": 1190,
      "lish": 1191,
      "ĠÄłr": 1192,
      "ĠÄłcan": 1193,
      "Äłplan": 1194,
      "Äłcell": 1195,
      "30": 1196,
      "ries": 1197,
      "Äłposs": 1198,
      "Äłhuman": 1199,
      "Äłtake": 1200,
      "Äłreport": 1201,
      "iod": 1202,
      "Äłris": 1203,
      "ividual": 1204,
      "Äłlook": 1205,
      "Äłorgan": 1206,
      "ĠÄłsh": 1207,
      "Äłthough": 1208,
      "erest": 1209,
      "angu": 1210,
      "ÄłYou": 1211,
      "Äłmust": 1212,
      "az": 1213,
      "Äłconf": 1214,
      "ially": 1215,
      "ger": 1216,
      "Äłfun": 1217,
      "Äłbr": 1218,
      "Äłest": 1219,
      "Ã¢Ä¢": 1220,
      "els": 1221,
      "osed": 1222,
      "Äłpoint": 1223,
      "oun": 1224,
      "ability": 1225,
      "Ġ'": 1226,
      "Äłallow": 1227,
      "ÄłThese": 1228,
      "Äłconsid": 1229,
      "iver": 1230,
      "de": 1231,
      "oms": 1232,
      "ired": 1233,
      "ior": 1234,
      "atural": 1235,
      "Äłop": 1236,
      "ense": 1237,
      "raph": 1238,
      ".,": 1239,
      "less": 1240,
      "ĠÄłhave": 1241,
      "aterial": 1242,
      "Äłcare": 1243,
      "Äłmet": 1244,
      "Äłlarge": 1245,
      "uro": 1246,
      "ffic": 1247,
      "Äłincluding": 1248,
      "ev": 1249,
      "pr": 1250,
      "ÄłBut": 1251,
      "itive": 1252,
      "stit": 1253,
      "ources": 1254,
      "ethod": 1255,
      "ium": 1256,
      "ĠÄłthis": 1257,
      "Äłelect": 1258,
      "Äłdr": 1259,
      "Äłequ": 1260,
      "bers": 1261,
      "Äłsupport": 1262,
      "Äłcor": 1263,
      "ids": 1264,
      "tt": 1265,
      "Äłpract": 1266,
      "ption": 1267,
      "ified": 1268,
      "ĠÄłyou": 1269,
      "alk": 1270,
      "Äłgener": 1271,
      "ertain": 1272,
      "Äłenvironment": 1273,
      "Äłeduc": 1274,
      "Äłthink": 1275,
      "Äłgreat": 1276,
      "ÄłThere": 1277,
      "cience": 1278,
      "ience": 1279,
      "ization": 1280,
      "ason": 1281,
      "Äłhim": 1282,
      "arent": 1283,
      "lu": 1284,
      "cing": 1285,
      "bs": 1286,
      "ental": 1287,
      "com": 1288,
      "ived": 1289,
      "Äłdid": 1290,
      "Äłunderstand": 1291,
      "orth": 1292,
      "Äłret": 1293,
      "Äłcalled": 1294,
      "man": 1295,
      "iness": 1296,
      "Äłser": 1297,
      "ĠÄłcon": 1298,
      "Äłplace": 1299,
      "50": 1300,
      "Äłbeh": 1301,
      "ories": 1302,
      "ify": 1303,
      "Äłexample": 1304,
      "14": 1305,
      "Äładv": 1306,
      "Äłstill": 1307,
      "ians": 1308,
      "cial": 1309,
      "ĠÄłO": 1310,
      "Äłiss": 1311,
      "ording": 1312,
      "ton": 1313,
      "ological": 1314,
      "ner": 1315,
      "Äłknown": 1316,
      "ÄłÃ¢Ä¢Äº": 1317,
      "Äłappro": 1318,
      "me": 1319,
      "Äłeas": 1320,
      "aving": 1321,
      "atic": 1322,
      "Äłchang": 1323,
      "Äłdisease": 1324,
      "ration": 1325,
      "ield": 1326,
      "illion": 1327,
      "agn": 1328,
      "Äłpresent": 1329,
      "__": 1330,
      "Ġ;": 1331,
      "Äłwant": 1332,
      "13": 1333,
      "ource": 1334,
      "Äłenergy": 1335,
      "ug": 1336,
      "ets": 1337,
      "line": 1338,
      "Äłmight": 1339,
      "ajor": 1340,
      "Äłgu": 1341,
      "ccess": 1342,
      "Äłproduct": 1343,
      "hy": 1344,
      "Äłinclude": 1345,
      "Äłtyp": 1346,
      "urs": 1347,
      "irc": 1348,
      "Äłsym": 1349,
      "oint": 1350,
      "Äłwrit": 1351,
      "rist": 1352,
      "Äłve": 1353,
      "Äłdon": 1354,
      "Äłlight": 1355,
      "ining": 1356,
      "Äłpublic": 1357,
      "Äłwithout": 1358,
      "ÄłAnd": 1359,
      "ills": 1360,
      "Äłimm": 1361,
      "It": 1362,
      "ik": 1363,
      "ision": 1364,
      "rodu": 1365,
      "ected": 1366,
      "ank": 1367,
      "ÃĤ": 1368,
      "ĠÄłle": 1369,
      "Äłproject": 1370,
      "Äłarea": 1371,
      "crib": 1372,
      "ĠÄłim": 1373,
      "enef": 1374,
      "Äłpot": 1375,
      "ware": 1376,
      "Äłident": 1377,
      "Äłchange": 1378,
      "Äłindividual": 1379,
      "Äłbre": 1380,
      "arc": 1381,
      "gin": 1382,
      "lished": 1383,
      "Äłcour": 1384,
      "ained": 1385,
      "ards": 1386,
      "ised": 1387,
      "eb": 1388,
      "Äłbuild": 1389,
      "11": 1390,
      "Äłplay": 1391,
      "Äłimpro": 1392,
      "ently": 1393,
      "str": 1394,
      "Äłant": 1395,
      "ĠÄłwhich": 1396,
      ".\"": 1397,
      "Äłdevelopment": 1398,
      "Äłtem": 1399,
      "orld": 1400,
      "ission": 1401,
      "Äłphys": 1402,
      "Äłide": 1403,
      "Äłmeas": 1404,
      "anguage": 1405,
      "icle": 1406,
      "Äłhistory": 1407,
      "Äłdirect": 1408,
      "Äłprof": 1409,
      "--": 1410,
      "Äłhand": 1411,
      "Äłwithin": 1412,
      "ÄłIs": 1413,
      "ĠÄłtheir": 1414,
      "ats": 1415,
      "Äłfew": 1416,
      "ailable": 1417,
      "Äłbelie": 1418,
      "ites": 1419,
      "uses": 1420,
      "ÄłEng": 1421,
      "ote": 1422,
      "rap": 1423,
      "ÄłAd": 1424,
      "Äłpain": 1425,
      "Äłquest": 1426,
      "ĠÄłwe": 1427,
      "ÄłAmerican": 1428,
      "ients": 1429,
      "Äłmaterial": 1430,
      "Äłbecome": 1431,
      "Äłmark": 1432,
      "Äłlearn": 1433,
      "ole": 1434,
      "ways": 1435,
      "Äłcap": 1436,
      "Äłmat": 1437,
      "ern": 1438,
      "ogn": 1439,
      "Äłcontrol": 1440,
      "Äłwomen": 1441,
      "Äłlow": 1442,
      "resent": 1443,
      "'t": 1444,
      "Äłpos": 1445,
      "Äłblood": 1446,
      "ples": 1447,
      "idence": 1448,
      "ÄłUniversity": 1449,
      "ÄłHowever": 1450,
      "acc": 1451,
      "ĠÄłall": 1452,
      "Äłanother": 1453,
      "Äłsocial": 1454,
      "ret": 1455,
      "Äłrisk": 1456,
      "oid": 1457,
      "Äłanal": 1458,
      "Äłeng": 1459,
      "sy": 1460,
      "Äłstand": 1461,
      "ames": 1462,
      "Äłdev": 1463,
      "Äłhy": 1464,
      "ograph": 1465,
      "Äłinterest": 1466,
      "Äłprovide": 1467,
      "amp": 1468,
      "Äłtre": 1469,
      "Äłcult": 1470,
      "Äłdem": 1471,
      "Äłcause": 1472,
      "ling": 1473,
      "Äłthings": 1474,
      "urch": 1475,
      "Äłmus": 1476,
      "Äłmethod": 1477,
      "Äłhome": 1478,
      "ears": 1479,
      "ends": 1480,
      "isc": 1481,
      "ator": 1482,
      "Äłold": 1483,
      "Äłtoo": 1484,
      "urther": 1485,
      "Äłele": 1486,
      "olution": 1487,
      "though": 1488,
      "une": 1489,
      "hile": 1490,
      "Äłmil": 1491,
      "Äłlaw": 1492,
      "ended": 1493,
      "ÄłSh": 1494,
      "Äłearly": 1495,
      "ences": 1496,
      "ots": 1497,
      "Äłgovernment": 1498,
      "ÄłSp": 1499,
      "Äłproper": 1500,
      "ĠÄłIn": 1501,
      "Äłleg": 1502,
      "ÄłÃ¢Ä¢Ä¶": 1503,
      "Äłagainst": 1504,
      "urope": 1505,
      "ention": 1506,
      "Ġ/": 1507,
      "Äłscient": 1508,
      "Äłpass": 1509,
      "Äłanim": 1510,
      "Äłmeans": 1511,
      "Äładdition": 1512,
      "Äłmove": 1513,
      "abor": 1514,
      "ably": 1515,
      "What": 1516,
      "ĠA": 1517,
      "Äłair": 1518,
      "Äłlast": 1519,
      "ntil": 1520,
      "ÄłRes": 1521,
      "Äłgroup": 1522,
      "ina": 1523,
      "Äłoper": 1524,
      "Äłfin": 1525,
      "Äłtop": 1526,
      "Äłbetter": 1527,
      "Äłbest": 1528,
      "ĠÄłwere": 1529,
      "gen": 1530,
      "not": 1531,
      "par": 1532,
      "Äłrest": 1533,
      "veral": 1534,
      "ystem": 1535,
      "Äłopp": 1536,
      "Äłet": 1537,
      "Äłfeel": 1538,
      "Äłeconom": 1539,
      "ĠÄłU": 1540,
      "ately": 1541,
      "Äłsl": 1542,
      "ificant": 1543,
      "Äłinvol": 1544,
      "Äłprogram": 1545,
      "be": 1546,
      "ĠThe": 1547,
      "Äłes": 1548,
      "Äłter": 1549,
      "osp": 1550,
      "ĠÄłpl": 1551,
      "Äłperform": 1552,
      "Äłspecies": 1553,
      "25": 1554,
      "ĠÄłab": 1555,
      "ances": 1556,
      "Äłhig": 1557,
      "Äłfore": 1558,
      "Äłmajor": 1559,
      "Äłparticular": 1560,
      "ĠÄład": 1561,
      "Äłnatural": 1562,
      "Äłsaf": 1563,
      "aper": 1564,
      "Äłreal": 1565,
      "Äłareas": 1566,
      "Äłconst": 1567,
      "kn": 1568,
      "Äłhapp": 1569,
      "ĠÄłthey": 1570,
      "Äłlearning": 1571,
      "ending": 1572,
      "ression": 1573,
      "Äłkeep": 1574,
      "ided": 1575,
      "ÄłCon": 1576,
      "uthor": 1577,
      "min": 1578,
      "Äłsays": 1579,
      "198": 1580,
      "Äłprevent": 1581,
      "ww": 1582,
      "ploy": 1583,
      "Äłopen": 1584,
      "Äłche": 1585,
      "Äłcost": 1586,
      "Äłwar": 1587,
      "Äłcal": 1588,
      "Äłindu": 1589,
      "ope": 1590,
      "inc": 1591,
      "ÄłWhen": 1592,
      "ledge": 1593,
      "ilar": 1594,
      "earch": 1595,
      "Äłproblem": 1596,
      "Äłsince": 1597,
      "Äłpar": 1598,
      "ication": 1599,
      "Äłbenef": 1600,
      "ÄłPh": 1601,
      "ured": 1602,
      "Äłmonth": 1603,
      "elf": 1604,
      "ÄłCl": 1605,
      "Äłmean": 1606,
      "Äłsecond": 1607,
      "Äłfamily": 1608,
      "Äłbas": 1609,
      ",\"": 1610,
      "ged": 1611,
      "ĠS": 1612,
      "usiness": 1613,
      "Äłperiod": 1614,
      "ÄłUnited": 1615,
      "ĠÄłcont": 1616,
      "Äłcurrent": 1617,
      "ither": 1618,
      "Äłorder": 1619,
      "ĠÄłhis": 1620,
      "Äłgr": 1621,
      "Äłcond": 1622,
      "Äłconn": 1623,
      "ĠÄłmore": 1624,
      "Äłplant": 1625,
      "ĠÄłres": 1626,
      "Äłcreat": 1627,
      "Äłtechnology": 1628,
      "ggest": 1629,
      "Â¦": 1630,
      "Ġ).": 1631,
      "ones": 1632,
      "Äłland": 1633,
      "por": 1634,
      "Äłage": 1635,
      "Äłable": 1636,
      "idd": 1637,
      "duct": 1638,
      "Äłtype": 1639,
      "If": 1640,
      "icult": 1641,
      "ething": 1642,
      "af": 1643,
      "Äłaffect": 1644,
      "Äłname": 1645,
      "uture": 1646,
      "ember": 1647,
      "ecess": 1648,
      "ĠÄłsu": 1649,
      "Äłfac": 1650,
      "Äłmen": 1651,
      "Äłavailable": 1652,
      "Äłtreatment": 1653,
      "Äłpossible": 1654,
      "ÄłCan": 1655,
      "etic": 1656,
      "Äłwhe": 1657,
      "oks": 1658,
      "Äłothers": 1659,
      "We": 1660,
      "Äłsay": 1661,
      "ohn": 1662,
      "ox": 1663,
      "ris": 1664,
      "view": 1665,
      "Äłnon": 1666,
      "ÄłEx": 1667,
      "Äłlevels": 1668,
      "Äłlanguage": 1669,
      "Äłorig": 1670,
      "Äłwee": 1671,
      "ÄłQ": 1672,
      "Äłview": 1673,
      "ÄłDe": 1674,
      "vious": 1675,
      "atory": 1676,
      "Äłfree": 1677,
      "Äłbir": 1678,
      "agement": 1679,
      "aster": 1680,
      "Äłpercent": 1681,
      "ÄłCol": 1682,
      "Äłcho": 1683,
      "Äłseveral": 1684,
      "Äłtimes": 1685,
      "aps": 1686,
      "Äłel": 1687,
      "Äłhere": 1688,
      "ĠÄłhas": 1689,
      "Äłcountry": 1690,
      "24": 1691,
      "asing": 1692,
      "Äłstruct": 1693,
      "obal": 1694,
      "aken": 1695,
      "gether": 1696,
      "Äłnear": 1697,
      "ÄłSe": 1698,
      "ush": 1699,
      "ĠÄłinc": 1700,
      "ann": 1701,
      "Äłlim": 1702,
      "face": 1703,
      "Äłsuccess": 1704,
      "erc": 1705,
      "ptoms": 1706,
      "Äłhard": 1707,
      "Äłlist": 1708,
      "ĠÄłdo": 1709,
      "ÄłTo": 1710,
      "ÄłEurope": 1711,
      "ape": 1712,
      "ĠÄłÃ¢Ä¢Ä¾": 1713,
      "Äłproblems": 1714,
      "ortun": 1715,
      "Äłcertain": 1716,
      "ÄłComm": 1717,
      "ÄłPl": 1718,
      "Äłdel": 1719,
      "Äłrun": 1720,
      "Äłamount": 1721,
      "Äłtru": 1722,
      "ĠÄłK": 1723,
      "Äłbi": 1724,
      "Äłrece": 1725,
      "most": 1726,
      "Äłcase": 1727,
      "Äłmar": 1728,
      "ray": 1729,
      "ĠÄłwill": 1730,
      "ane": 1731,
      "Äłhead": 1732,
      "ÄłGod": 1733,
      "nal": 1734,
      "ene": 1735,
      "Äłyoung": 1736,
      "Äłlittle": 1737,
      "Äłbro": 1738,
      "Äłlo": 1739,
      "ique": 1740,
      "mit": 1741,
      "Äłpost": 1742,
      "Äłbased": 1743,
      "ĠÄłme": 1744,
      "fric": 1745,
      "raw": 1746,
      "hern": 1747,
      "Äłwhy": 1748,
      "Äłimpact": 1749,
      "ÄłEn": 1750,
      "Äłess": 1751,
      "Äłfre": 1752,
      "ruction": 1753,
      "ÄłUS": 1754,
      "Äłfollowing": 1755,
      "23": 1756,
      "Äłfour": 1757,
      "Äłflow": 1758,
      "Äłmult": 1759,
      "Äłteac": 1760,
      "ĠÄłone": 1761,
      "Äłpress": 1762,
      "Äłshort": 1763,
      "ÄłStates": 1764,
      "Äłput": 1765,
      "ems": 1766,
      "ried": 1767,
      "atch": 1768,
      "acy": 1769,
      "ored": 1770,
      "Äłassoci": 1771,
      "Äłpotential": 1772,
      "Äłfar": 1773,
      "rug": 1774,
      "Äłbehav": 1775,
      "pos": 1776,
      "Äłcomput": 1777,
      "hemical": 1778,
      "pecially": 1779,
      "ÄłZ": 1780,
      "ÄłCent": 1781,
      "Äłcome": 1782,
      "Äłenc": 1783,
      "40": 1784,
      "rans": 1785,
      "omes": 1786,
      "ÄłBe": 1787,
      "Äłaccess": 1788,
      "ĠÄłyour": 1789,
      "ĠÄłde": 1790,
      "by": 1791,
      "Äłbook": 1792,
      "Äłuntil": 1793,
      "aining": 1794,
      "Äłlikely": 1795,
      "Äłvarious": 1796,
      "21": 1797,
      "side": 1798,
      "ym": 1799,
      "ĠÄłother": 1800,
      "Äłintern": 1801,
      "ode": 1802,
      "ribut": 1803,
      "Äłincrease": 1804,
      "Äłsignificant": 1805,
      "Äłgiven": 1806,
      "Äłdays": 1807,
      "Äłprom": 1808,
      "cle": 1809,
      "Äłsw": 1810,
      "ÄłTe": 1811,
      "Äłheart": 1812,
      "ĠÄłbut": 1813,
      "ours": 1814,
      "Äłfoc": 1815,
      "icro": 1816,
      "Äłobs": 1817,
      "Äłexperience": 1818,
      "Äłpe": 1819,
      "Äłdue": 1820,
      "let": 1821,
      "ively": 1822,
      "Äłamong": 1823,
      "Äłeducation": 1824,
      "Äłcomb": 1825,
      "Äłlet": 1826,
      "ysis": 1827,
      "60": 1828,
      "Äłtry": 1829,
      "ilt": 1830,
      "ĠÄłapp": 1831,
      "ving": 1832,
      "Äłmaking": 1833,
      "Äłinvest": 1834,
      "Äłconditions": 1835,
      "pro": 1836,
      "oring": 1837,
      "edi": 1838,
      "ÄłAt": 1839,
      "Äłrad": 1840,
      "Äłsomething": 1841,
      "Äłteam": 1842,
      "ument": 1843,
      "Äłlocal": 1844,
      "cul": 1845,
      "ges": 1846,
      "Äłtogether": 1847,
      "Äłneeds": 1848,
      "ued": 1849,
      "ĠÄłen": 1850,
      "Äłbrain": 1851,
      "ilities": 1852,
      "oman": 1853,
      "oll": 1854,
      "Äłcells": 1855,
      "ĠÄłun": 1856,
      "Äłways": 1857,
      "ÄłNational": 1858,
      "197": 1859,
      "Äłsystems": 1860,
      "Äłresearc": 1861,
      "ables": 1862,
      "Äłcancer": 1863,
      "Äłgive": 1864,
      "oney": 1865,
      "ĠÄłCh": 1866,
      "oot": 1867,
      "work": 1868,
      "Äłdeath": 1869,
      "ĠÄłSt": 1870,
      "Äłrele": 1871,
      "Äłalong": 1872,
      "oft": 1873,
      "ÄłOr": 1874,
      "aves": 1875,
      "How": 1876,
      "ipp": 1877,
      "aces": 1878,
      "ivity": 1879,
      "ification": 1880,
      "ready": 1881,
      "fer": 1882,
      "ery": 1883,
      "iting": 1884,
      "aching": 1885,
      "Äłdam": 1886,
      "There": 1887,
      "apt": 1888,
      "Äławay": 1889,
      "Äłsuggest": 1890,
      "ÄłChrist": 1891,
      "Äłhigher": 1892,
      "br": 1893,
      "ales": 1894,
      "ateg": 1895,
      "Äłtoday": 1896,
      "ÄłMed": 1897,
      "Äłconsum": 1898,
      "amm": 1899,
      "Äłtemper": 1900,
      "100": 1901,
      "cri": 1902,
      "ators": 1903,
      "ley": 1904,
      "ler": 1905,
      "omet": 1906,
      "Äłusually": 1907,
      "ormal": 1908,
      "//": 1909,
      "rim": 1910,
      "Ãł": 1911,
      "Äłparent": 1912,
      "arth": 1913,
      "Äłey": 1914,
      "erence": 1915,
      "Äłabove": 1916,
      "Äłdeterm": 1917,
      "ires": 1918,
      "thing": 1919,
      "Äłdiscuss": 1920,
      "St": 1921,
      "Äłturn": 1922,
      "Äłgre": 1923,
      "ÄłAll": 1924,
      "selves": 1925,
      "iol": 1926,
      "Äłlater": 1927,
      "Äłacross": 1928,
      "Äłstrong": 1929,
      "uation": 1930,
      "Äłaut": 1931,
      "Äłclear": 1932,
      "Äłlower": 1933,
      "Äłbegin": 1934,
      "Äłvol": 1935,
      "Äłhowever": 1936,
      "Äłspecial": 1937,
      "Äłcharacter": 1938,
      "sw": 1939,
      "ĠÄłper": 1940,
      "Äłvir": 1941,
      "Äłrequire": 1942,
      "ĠÄłj": 1943,
      "Äłsit": 1944,
      "Äłwords": 1945,
      "Äłdifficult": 1946,
      "Äłspecific": 1947,
      "Äłobject": 1948,
      "Äłcommunity": 1949,
      "Ãİ": 1950,
      "Äłill": 1951,
      "Äłalways": 1952,
      "Äłenough": 1953,
      "sych": 1954,
      "Â¢": 1955,
      "Äłtool": 1956,
      "Äłmillion": 1957,
      "olic": 1958,
      "Äłplants": 1959,
      "Äłpopulation": 1960,
      "ae": 1961,
      "itical": 1962,
      "Äłnext": 1963,
      "Äłcirc": 1964,
      "chie": 1965,
      "ecause": 1966,
      "urity": 1967,
      "augh": 1968,
      "Äłcentury": 1969,
      "Äłimprove": 1970,
      "unt": 1971,
      "Äłpast": 1972,
      "Äłdescrib": 1973,
      "Äłcreate": 1974,
      "ÄłOn": 1975,
      "Äłcountries": 1976,
      "ĠÄłalso": 1977,
      "lection": 1978,
      "Äłestab": 1979,
      "As": 1980,
      "Äłens": 1981,
      "ublished": 1982,
      "Äłchanges": 1983,
      "Äłsymptoms": 1984,
      "Äłprofess": 1985,
      "Äłsing": 1986,
      "for": 1987,
      "Äłside": 1988,
      "val": 1989,
      "ÄłWhat": 1990,
      "Äłleast": 1991,
      "Äłstudies": 1992,
      "You": 1993,
      "fact": 1994,
      "ÄłAfric": 1995,
      "iation": 1996,
      "ring": 1997,
      "Äłbusiness": 1998,
      "ÄłSo": 1999,
      "istic": 2000,
      "Äłrespons": 2001,
      "For": 2002,
      "22": 2003,
      "Äłbecame": 2004,
      "alf": 2005,
      "Äłfuture": 2006,
      "Äłgoing": 2007,
      "Äłcomplete": 2008,
      "bon": 2009,
      "mber": 2010,
      "Â©": 2011,
      "ights": 2012,
      "ned": 2013,
      "Äłleft": 2014,
      "ords": 2015,
      "NA": 2016,
      "Äłauthor": 2017,
      "Äłchall": 2018,
      "Äłspace": 2019,
      "Äłtext": 2020,
      "Äłprotect": 2021,
      "Äłfunction": 2022,
      "order": 2023,
      "Äłpatients": 2024,
      "oura": 2025,
      "Äłaccount": 2026,
      "oved": 2027,
      "rel": 2028,
      "Äłopt": 2029,
      "Äłfil": 2030,
      "Äłdig": 2031,
      "rad": 2032,
      "osis": 2033,
      "ĠÄłcl": 2034,
      "Äłcases": 2035,
      "ising": 2036,
      "orts": 2037,
      "aid": 2038,
      "ctor": 2039,
      "Äłconcept": 2040,
      "ĠÄłcomp": 2041,
      "ĠÄłpart": 2042,
      "Äłprim": 2043,
      "ĠÄłwho": 2044,
      "Äłresults": 2045,
      "atures": 2046,
      "Äłpur": 2047,
      "lean": 2048,
      "ott": 2049,
      "Äłstep": 2050,
      "epend": 2051,
      "ĠÄłhad": 2052,
      "Äłsimilar": 2053,
      "yn": 2054,
      "ream": 2055,
      "Äłsens": 2056,
      "aim": 2057,
      "ison": 2058,
      "ches": 2059,
      "ÃĲ": 2060,
      "Äłer": 2061,
      "ications": 2062,
      "Äłexist": 2063,
      "ung": 2064,
      "lo": 2065,
      "Äłvalue": 2066,
      "Äłphysical": 2067,
      "Äłespecially": 2068,
      "mb": 2069,
      "org": 2070,
      "Äłnecess": 2071,
      "ird": 2072,
      "ival": 2073,
      "Äłsure": 2074,
      "ationship": 2075,
      "Äłworking": 2076,
      "yl": 2077,
      "reg": 2078,
      "Äłlive": 2079,
      "ĠÄłso": 2080,
      "Äłnever": 2081,
      "...": 2082,
      "Äłwhether": 2083,
      "utions": 2084,
      "Äłclimate": 2085,
      "itud": 2086,
      "Äłmot": 2087,
      "Äłask": 2088,
      "aged": 2089,
      "Äłworks": 2090,
      "Äłactivities": 2091,
      "Äłreduce": 2092,
      "Äłoccur": 2093,
      "Äłconsider": 2094,
      "rect": 2095,
      "ened": 2096,
      "Äłcourse": 2097,
      "ĠÄłthem": 2098,
      "using": 2099,
      "ÄłJohn": 2100,
      "Äłapplic": 2101,
      "fficient": 2102,
      "Äłissues": 2103,
      "Äłtypes": 2104,
      "Äłfall": 2105,
      "Äłfull": 2106,
      "ask": 2107,
      "iple": 2108,
      "Äłgeneral": 2109,
      "Äłcut": 2110,
      "rict": 2111,
      "Äłproduction": 2112,
      "Äłinflu": 2113,
      "ront": 2114,
      "illed": 2115,
      "ÄłWorld": 2116,
      "Äłknowledge": 2117,
      "Ġ?": 2118,
      "Äłmind": 2119,
      "ÄłRe": 2120,
      "aging": 2121,
      "An": 2122,
      "Äłur": 2123,
      "Äłbelow": 2124,
      "ibility": 2125,
      "wards": 2126,
      "Äłarticle": 2127,
      "tal": 2128,
      "Äłmakes": 2129,
      "Äłdone": 2130,
      "ils": 2131,
      "Äłloss": 2132,
      "rams": 2133,
      "Äłsubject": 2134,
      "ÄłHealth": 2135,
      "Äłeffects": 2136,
      "go": 2137,
      "erve": 2138,
      "Äłfurther": 2139,
      "ÄłSc": 2140,
      "Äłstudent": 2141,
      "Äłrole": 2142,
      "Äłskills": 2143,
      "Äłresearchers": 2144,
      "Äłself": 2145,
      "ivil": 2146,
      "ĠÄłmay": 2147,
      "atter": 2148,
      "Äłbig": 2149,
      "sequ": 2150,
      "Äłconcer": 2151,
      "ns": 2152,
      "put": 2153,
      "Ġ\"": 2154,
      "Äłscience": 2155,
      "Äłcrit": 2156,
      "ample": 2157,
      "ĠC": 2158,
      "roll": 2159,
      "Äłreason": 2160,
      "chan": 2161,
      "Äłalready": 2162,
      "izing": 2163,
      "Äłpred": 2164,
      "ÄłEnglish": 2165,
      "iam": 2166,
      "ournal": 2167,
      "Äłactivity": 2168,
      "When": 2169,
      "under": 2170,
      "Äłline": 2171,
      "amin": 2172,
      "istory": 2173,
      "ump": 2174,
      "Äłrepresent": 2175,
      "Äłz": 2176,
      "ĠÄłbeen": 2177,
      "Äłfail": 2178,
      "Äłrange": 2179,
      "overed": 2180,
      "Äłcomplex": 2181,
      "27": 2182,
      "Äłnet": 2183,
      "ÄłBl": 2184,
      "ÄłBrit": 2185,
      "Äłkind": 2186,
      "ĠÄłV": 2187,
      "alt": 2188,
      "Äłeither": 2189,
      "Äłnut": 2190,
      "ĠÄłcomm": 2191,
      "ips": 2192,
      "ÄłOne": 2193,
      "Äłsurface": 2194,
      "Äłproducts": 2195,
      "ĠÄłop": 2196,
      "leep": 2197,
      "ults": 2198,
      "Äłindic": 2199,
      "ER": 2200,
      "reme": 2201,
      "ening": 2202,
      "Äłreally": 2203,
      "ging": 2204,
      "Äłsite": 2205,
      "Äłpaper": 2206,
      "ows": 2207,
      "Äłneeded": 2208,
      "Äłphot": 2209,
      "Äłincreased": 2210,
      "ien": 2211,
      "eds": 2212,
      "lying": 2213,
      "Äłseen": 2214,
      "Äłrecogn": 2215,
      "Äłachie": 2216,
      "Äłfund": 2217,
      "stry": 2218,
      "iding": 2219,
      "Äłresources": 2220,
      "Äłoffic": 2221,
      "Äłgroups": 2222,
      "Äłterm": 2223,
      "ĠÄłqu": 2224,
      "Äłred": 2225,
      "ety": 2226,
      "ÄłSouth": 2227,
      "Äłprob": 2228,
      "vention": 2229,
      "Äłgrowth": 2230,
      "Äłdeveloped": 2231,
      "igure": 2232,
      "ĠÄłpre": 2233,
      "artment": 2234,
      "ensive": 2235,
      "Äłparticip": 2236,
      "26": 2237,
      "uel": 2238,
      "ĠÄłth": 2239,
      "ĠÄłout": 2240,
      "Äłinit": 2241,
      "vere": 2242,
      "oles": 2243,
      "ĠÄłthere": 2244,
      "ÄłMar": 2245,
      "Äłcannot": 2246,
      "ÄłNorth": 2247,
      "Äłemploy": 2248,
      "Äłpattern": 2249,
      "AS": 2250,
      "Äłeff": 2251,
      "Äłflu": 2252,
      "Äłver": 2253,
      "Äłhouse": 2254,
      "Äłlot": 2255,
      "ressed": 2256,
      "ounds": 2257,
      "Äłdetail": 2258,
      "Äłground": 2259,
      "aced": 2260,
      "Äłneg": 2261,
      "Äłquality": 2262,
      "Äłactually": 2263,
      "iddle": 2264,
      "ma": 2265,
      "Äłcy": 2266,
      "ider": 2267,
      "Äłword": 2268,
      "aut": 2269,
      "ched": 2270,
      "hing": 2271,
      "Äłsum": 2272,
      "Äłhaving": 2273,
      "Äłstat": 2274,
      "ĠÄłinto": 2275,
      "Äłcover": 2276,
      "Äłfat": 2277,
      "Äłfive": 2278,
      "Äłdrug": 2279,
      "verage": 2280,
      "Äłservices": 2281,
      "ditional": 2282,
      "like": 2283,
      "Äłtaken": 2284,
      "Äłcity": 2285,
      "usion": 2286,
      "empt": 2287,
      "Äłrate": 2288,
      "Äłmodel": 2289,
      "Äłkey": 2290,
      "ai": 2291,
      "light": 2292,
      "erous": 2293,
      "Äłdog": 2294,
      "ĠÄłcom": 2295,
      "Äłeffective": 2296,
      "ober": 2297,
      "ĠÄłup": 2298,
      "cell": 2299,
      "Äłstory": 2300,
      "ildren": 2301,
      "Äłmeet": 2302,
      "Äłchemical": 2303,
      "Äłsimple": 2304,
      "Äłmarket": 2305,
      "ext": 2306,
      "hib": 2307,
      "Äłwind": 2308,
      "ÄłAss": 2309,
      "Äłevent": 2310,
      "ervation": 2311,
      "ĠÄłthan": 2312,
      "Äłrather": 2313,
      "Äłupon": 2314,
      "Äłmedical": 2315,
      "Äłconsidered": 2316,
      "Äłeconomic": 2317,
      "Äłassociated": 2318,
      "gest": 2319,
      "ufact": 2320,
      "ĠÄłover": 2321,
      "ÄłAb": 2322,
      "ricult": 2323,
      "Äłaccording": 2324,
      "ĠÄłIt": 2325,
      "Äłreading": 2326,
      "stitute": 2327,
      "Äłquestion": 2328,
      "ze": 2329,
      "aring": 2330,
      "Äłfield": 2331,
      "ÄłIm": 2332,
      "Äłprote": 2333,
      "ops": 2334,
      "ÄłWith": 2335,
      "Äłweight": 2336,
      "Th": 2337,
      "Ä£": 2338,
      "Äłwr": 2339,
      "Äłemer": 2340,
      "ĠÄłwhen": 2341,
      "Äłclose": 2342,
      "Äłappear": 2343,
      "28": 2344,
      "ĠÄłits": 2345,
      "Äłsource": 2346,
      "Äłdiet": 2347,
      "eter": 2348,
      "Äłthought": 2349,
      "my": 2350,
      "oon": 2351,
      "ply": 2352,
      "irm": 2353,
      "ĠÄłsp": 2354,
      "ĠÄłno": 2355,
      "plement": 2356,
      "ney": 2357,
      "Äłentire": 2358,
      "enn": 2359,
      "estern": 2360,
      "Äłnature": 2361,
      "emic": 2362,
      "uman": 2363,
      "Äłhealthy": 2364,
      "Äłpolic": 2365,
      "Äłglobal": 2366,
      "ĠÄłac": 2367,
      "Äłwide": 2368,
      "ÄłCar": 2369,
      "Äłansw": 2370,
      "ĠÄłwould": 2371,
      "Äłdeg": 2372,
      "Äłabs": 2373,
      "Äłmaterials": 2374,
      "based": 2375,
      "het": 2376,
      "Äłpublished": 2377,
      "Äłfri": 2378,
      "Äłwhole": 2379,
      "Äłrepl": 2380,
      "acks": 2381,
      "elling": 2382,
      "ibr": 2383,
      "aily": 2384,
      "ÄłStud": 2385,
      "Äłoil": 2386,
      "itary": 2387,
      "Äłalmost": 2388,
      "bo": 2389,
      "Äłbar": 2390,
      "ÄłThat": 2391,
      "Äłonce": 2392,
      "oph": 2393,
      "ÄłWar": 2394,
      "ÄłGe": 2395,
      "lected": 2396,
      "Äłskin": 2397,
      "Äłmembers": 2398,
      "Äłunderstanding": 2399,
      "Äłanimals": 2400,
      "Äłmonths": 2401,
      "Äłsingle": 2402,
      "://": 2403,
      "Â°": 2404,
      "icles": 2405,
      "ÄłDep": 2406,
      "Äłevidence": 2407,
      "lor": 2408,
      "yp": 2409,
      "Äłdom": 2410,
      "Äłlay": 2411,
      "Äłstates": 2412,
      "ÄłSome": 2413,
      "ÄłCal": 2414,
      "Ġ.,": 2415,
      "Äłarg": 2416,
      "Äłquick": 2417,
      "Äłfrequ": 2418,
      "oes": 2419,
      "yle": 2420,
      "onse": 2421,
      "Äłpay": 2422,
      "Äłpers": 2423,
      "Äłport": 2424,
      "astic": 2425,
      "Äłfire": 2426,
      "ules": 2427,
      "ĠÄłthese": 2428,
      "Äłann": 2429,
      "abet": 2430,
      "ĠÄłint": 2431,
      "ÄłGerm": 2432,
      "Äłfeed": 2433,
      "Äłreturn": 2434,
      "minist": 2435,
      "Äłtook": 2436,
      "Äłyet": 2437,
      "Äłthroughout": 2438,
      "To": 2439,
      "Äłtaking": 2440,
      "Äłfarm": 2441,
      "Äłnational": 2442,
      "Äłwhite": 2443,
      "Äłblack": 2444,
      "Äłmaint": 2445,
      "Äłbuilding": 2446,
      "rapy": 2447,
      "Al": 2448,
      "Äłtw": 2449,
      "Äłcat": 2450,
      "Äłhold": 2451,
      "opy": 2452,
      "rown": 2453,
      "Äłpopular": 2454,
      "Äłpractice": 2455,
      "Ġ3": 2456,
      "Äłmass": 2457,
      "Äłliving": 2458,
      "ume": 2459,
      "ÄłAmerica": 2460,
      "Äłweek": 2461,
      "mon": 2462,
      "Ġ),": 2463,
      "ÄłCont": 2464,
      "ÄłDr": 2465,
      "Äłrelationship": 2466,
      "Äłprovides": 2467,
      "Äłcauses": 2468,
      "ronic": 2469,
      "Äłengine": 2470,
      "Äłslow": 2471,
      "Äłcame": 2472,
      "ulations": 2473,
      "ĠÄłrel": 2474,
      "Äłbreak": 2475,
      "ule": 2476,
      "itor": 2477,
      "ĠÄłdes": 2478,
      "Äłessential": 2479,
      "cies": 2480,
      "hold": 2481,
      "nces": 2482,
      "ores": 2483,
      "Äłclean": 2484,
      "itation": 2485,
      "Äłintrodu": 2486,
      "erved": 2487,
      "ĠÄłstud": 2488,
      "Äłhistor": 2489,
      "____": 2490,
      "ES": 2491,
      "inter": 2492,
      "ister": 2493,
      "istics": 2494,
      "ÄłMan": 2495,
      "ÄłMay": 2496,
      "ections": 2497,
      "Äłcomes": 2498,
      "Äłmanagement": 2499,
      "ĠÄłonly": 2500,
      "Äłmeasure": 2501,
      "Äłopportun": 2502,
      "ĠÄłcons": 2503,
      "194": 2504,
      "ccording": 2505,
      "Äłcontent": 2506,
      "fully": 2507,
      "Äłfactors": 2508,
      "imately": 2509,
      "Äłavoid": 2510,
      "Â¤": 2511,
      "Äłfish": 2512,
      "Äłever": 2513,
      "ÄłWh": 2514,
      "Äłenvironmental": 2515,
      "Äłquestions": 2516,
      "Äłanalysis": 2517,
      "ĠÄłabout": 2518,
      "90": 2519,
      "Äłtalk": 2520,
      "ises": 2521,
      "ctions": 2522,
      "Äłlink": 2523,
      "ÄłAust": 2524,
      "Äłexerc": 2525,
      "ĠÄłsome": 2526,
      "Äłsoil": 2527,
      "reng": 2528,
      "Äłvariety": 2529,
      "70": 2530,
      "Äłsent": 2531,
      "anced": 2532,
      "lex": 2533,
      "Äłgas": 2534,
      "Äłgreen": 2535,
      "ÄłShe": 2536,
      "aches": 2537,
      "off": 2538,
      "196": 2539,
      "ÄłIntern": 2540,
      "Äłthemselves": 2541,
      "Äłcolor": 2542,
      "Äłregular": 2543,
      "Äłrights": 2544,
      "pid": 2545,
      "ĠÄłar": 2546,
      "inary": 2547,
      "Äłdoc": 2548,
      "vey": 2549,
      "ÄłBy": 2550,
      "Äłarch": 2551,
      "Äłtemperature": 2552,
      "Äłindividuals": 2553,
      "AR": 2554,
      "duc": 2555,
      "Äłsepar": 2556,
      "ÄłState": 2557,
      "Äłinteract": 2558,
      "arily": 2559,
      "ÄłComp": 2560,
      "Äłsuper": 2561,
      "Äłvide": 2562,
      "Äłcontain": 2563,
      "Äłrecomm": 2564,
      "Äłbehavior": 2565,
      "Äłhtt": 2566,
      "etween": 2567,
      "ivate": 2568,
      "uck": 2569,
      "Äłregard": 2570,
      "Äłensure": 2571,
      "arget": 2572,
      "ĠÄłag": 2573,
      "ĠÄłman": 2574,
      "Äłincreasing": 2575,
      "Äłrequired": 2576,
      "att": 2577,
      "istance": 2578,
      "ÄłEarth": 2579,
      "Äłtravel": 2580,
      "Äłrelig": 2581,
      "Äłpolitical": 2582,
      "eration": 2583,
      "Äłsn": 2584,
      "Äłsize": 2585,
      "Äłsun": 2586,
      "ÄłGen": 2587,
      "Äłparts": 2588,
      "iction": 2589,
      "Äłcomputer": 2590,
      "atives": 2591,
      "Äłservice": 2592,
      ".)": 2593,
      "35": 2594,
      "ĠM": 2595,
      "Äłfru": 2596,
      "Äłmicro": 2597,
      "ÄłGu": 2598,
      "vest": 2599,
      "Äłreact": 2600,
      "Äłlif": 2601,
      "ÄłAct": 2602,
      "Äłstress": 2603,
      "Äłprop": 2604,
      "ĠÄłdiff": 2605,
      "Äłmodern": 2606,
      "Äłcaused": 2607,
      "Äłsomet": 2608,
      "Äłdamage": 2609,
      "co": 2610,
      "sp": 2611,
      "ederal": 2612,
      "iment": 2613,
      "ĠÄłwork": 2614,
      "udd": 2615,
      "ocial": 2616,
      "alled": 2617,
      "oving": 2618,
      "Äłsociety": 2619,
      "Äłvers": 2620,
      "Äłaction": 2621,
      "ese": 2622,
      "Äłmach": 2623,
      "utes": 2624,
      "Äłrelated": 2625,
      "Äłassess": 2626,
      "Äłcarbon": 2627,
      "Äłcreated": 2628,
      "Äłidea": 2629,
      "Äłmeaning": 2630,
      "Äłce": 2631,
      "Äłpsych": 2632,
      "Äłlab": 2633,
      "Äłtraining": 2634,
      "Äłcoll": 2635,
      "2012": 2636,
      "ropri": 2637,
      "80": 2638,
      "oor": 2639,
      "ĠÄłkn": 2640,
      "icine": 2641,
      "ims": 2642,
      "rior": 2643,
      "Äłability": 2644,
      "dom": 2645,
      "ĠÄłass": 2646,
      "Äłpath": 2647,
      "Äłmoney": 2648,
      "verse": 2649,
      "abit": 2650,
      "Äłprevious": 2651,
      "rench": 2652,
      "Äłnecessary": 2653,
      "29": 2654,
      "AT": 2655,
      "ID": 2656,
      "ban": 2657,
      "part": 2658,
      "uk": 2659,
      "rew": 2660,
      "Äłconduct": 2661,
      "Äłsuff": 2662,
      "apan": 2663,
      "Äłfamil": 2664,
      "Äłetc": 2665,
      "che": 2666,
      "atur": 2667,
      "ari": 2668,
      "Äłpressure": 2669,
      "Äłparents": 2670,
      "ming": 2671,
      "rs": 2672,
      "ĠÄłk": 2673,
      "Äłsoft": 2674,
      "Äłcr": 2675,
      "Äłdest": 2676,
      "ada": 2677,
      "alls": 2678,
      "ustom": 2679,
      "Äłpersonal": 2680,
      "Äłchalleng": 2681,
      "Ch": 2682,
      "lege": 2683,
      "Äłge": 2684,
      "Äłuses": 2685,
      "Äłproduce": 2686,
      "ĠÄłatt": 2687,
      "Äłcheck": 2688,
      "ĠP": 2689,
      "Äłspe": 2690,
      "Äłregion": 2691,
      "ĠÄłThis": 2692,
      "Äłindustry": 2693,
      "ls": 2694,
      "ÄłSchool": 2695,
      "Äłissue": 2696,
      "Äłmethods": 2697,
      "Äłsometimes": 2698,
      "gram": 2699,
      "oly": 2700,
      "room": 2701,
      "ÄłAfter": 2702,
      "ached": 2703,
      "ials": 2704,
      "ĠÄłlike": 2705,
      "lands": 2706,
      "Äłschools": 2707,
      "lt": 2708,
      "ners": 2709,
      "Äłtell": 2710,
      "Äłonline": 2711,
      "Äłheat": 2712,
      "ÄłWhile": 2713,
      "ÄłRep": 2714,
      "Äłinteg": 2715,
      "Äłjob": 2716,
      "Äładdress": 2717,
      "But": 2718,
      "ĠÃ¢Ä¢Ä¿": 2719,
      "ÄłX": 2720,
      "ĠÄłem": 2721,
      "Äłtotal": 2722,
      "Äłlate": 2723,
      "Äłnormal": 2724,
      "ÄłLe": 2725,
      "rought": 2726,
      "Äłbuilt": 2727,
      "Äłscientists": 2728,
      "aff": 2729,
      "right": 2730,
      "Äłinj": 2731,
      "ĠÄłdis": 2732,
      "Äłsex": 2733,
      "Äłbenefits": 2734,
      "On": 2735,
      "anies": 2736,
      "ington": 2737,
      "ĠÄłpeople": 2738,
      "Äłshows": 2739,
      "Äłreported": 2740,
      "Äłapproach": 2741,
      "con": 2742,
      "rated": 2743,
      "Äłut": 2744,
      "ĠÄłunder": 2745,
      "olar": 2746,
      "Äłconc": 2747,
      "ÄłIndia": 2748,
      "Äłterms": 2749,
      "abetes": 2750,
      "pose": 2751,
      "ĠÄłY": 2752,
      "ĠÄłour": 2753,
      "amed": 2754,
      "ÄłPr": 2755,
      "ĠÄłtime": 2756,
      "Äłrecord": 2757,
      "Äłlonger": 2758,
      "Äłstarted": 2759,
      "ancial": 2760,
      "Äłcompon": 2761,
      "Äłbring": 2762,
      "Äłposition": 2763,
      "hood": 2764,
      "lies": 2765,
      "rast": 2766,
      "sc": 2767,
      "sh": 2768,
      "orks": 2769,
      "aries": 2770,
      "Äłhalf": 2771,
      "ads": 2772,
      "Äłseem": 2773,
      "Äłencoura": 2774,
      "Äłfem": 2775,
      "umber": 2776,
      "ender": 2777,
      "ribution": 2778,
      "Äłeasy": 2779,
      "Äłgreater": 2780,
      "itude": 2781,
      "lease": 2782,
      "Äłthreat": 2783,
      "Äłlives": 2784,
      "Äłcondition": 2785,
      "ÄłHis": 2786,
      "Äłshown": 2787,
      "Äłclaim": 2788,
      "Äłrelative": 2789,
      "Äłvari": 2790,
      "Äłdiagn": 2791,
      "Äłdesigned": 2792,
      "Äłliter": 2793,
      "ON": 2794,
      "isions": 2795,
      "Äłmor": 2796,
      "rote": 2797,
      "Äłwebs": 2798,
      "Äłrecent": 2799,
      "Äłsubst": 2800,
      "Äłstructure": 2801,
      "rig": 2802,
      "rate": 2803,
      "ÃĻ": 2804,
      "ino": 2805,
      "Äłbal": 2806,
      "Äłmental": 2807,
      "rag": 2808,
      "irit": 2809,
      "ades": 2810,
      "elt": 2811,
      "Äłviol": 2812,
      "ĠÄłact": 2813,
      "Äłmanufact": 2814,
      "undred": 2815,
      "ixed": 2816,
      "iot": 2817,
      "Ġt": 2818,
      "inks": 2819,
      "Äłsix": 2820,
      "iter": 2821,
      "Äłface": 2822,
      "Äłbacter": 2823,
      "asons": 2824,
      "ĠÄłwhat": 2825,
      "osition": 2826,
      "issions": 2827,
      "Äłaccept": 2828,
      "Äłbur": 2829,
      "raft": 2830,
      "ÄłAm": 2831,
      "ĠÄłsuch": 2832,
      "ĠÄłmost": 2833,
      "Äłcontact": 2834,
      "2010": 2835,
      "Äłmechan": 2836,
      "ief": 2837,
      "erg": 2838,
      "Äłpict": 2839,
      "arge": 2840,
      "asc": 2841,
      "Äłled": 2842,
      "ension": 2843,
      "Äłprovided": 2844,
      "Äłemot": 2845,
      "Äłculture": 2846,
      "fect": 2847,
      "imum": 2848,
      "Äłincludes": 2849,
      "Äłhelps": 2850,
      "Äłscientific": 2851,
      "Äłsafe": 2852,
      "haps": 2853,
      "Äłcoun": 2854,
      "Äłrev": 2855,
      "ÄłAg": 2856,
      "Äłste": 2857,
      "ĠÄłneed": 2858,
      "Äłearth": 2859,
      "Äłsimply": 2860,
      "Äłdoesn": 2861,
      "ography": 2862,
      "IC": 2863,
      "ony": 2864,
      "ÄłPar": 2865,
      "ellow": 2866,
      "Äłsurv": 2867,
      "stitution": 2868,
      "Äłcorrect": 2869,
      "IN": 2870,
      "Ġ1": 2871,
      "Äłaverage": 2872,
      "Äłsense": 2873,
      "Äłsleep": 2874,
      "ÄłEm": 2875,
      "Äłoutside": 2876,
      "Äłmovement": 2877,
      "Äłfocus": 2878,
      "ÃĻÄ": 2879,
      "IS": 2880,
      "ground": 2881,
      "pite": 2882,
      "rance": 2883,
      "ille": 2884,
      "ster": 2885,
      "AN": 2886,
      "vant": 2887,
      "ÃĦ": 2888,
      "inated": 2889,
      "ana": 2890,
      "idge": 2891,
      "ĠÄłreg": 2892,
      "Äłvisit": 2893,
      "Äłbelieve": 2894,
      "Äłpositive": 2895,
      "ÄłResearch": 2896,
      "Äłoriginal": 2897,
      "upp": 2898,
      "wh": 2899,
      "ĠÄłam": 2900,
      "Äłthing": 2901,
      "ceed": 2902,
      "Äłheav": 2903,
      "Äłdeb": 2904,
      "ĠÄłhow": 2905,
      "Äłarr": 2906,
      "Äłemb": 2907,
      "Äłtrees": 2908,
      "uge": 2909,
      "set": 2910,
      "Äłitself": 2911,
      "istor": 2912,
      "ÄłMe": 2913,
      "osing": 2914,
      "rie": 2915,
      "ÄłNo": 2916,
      "Äłkids": 2917,
      "Äłevents": 2918,
      "Äłattention": 2919,
      "Äłnumbers": 2920,
      "ength": 2921,
      "Äłveget": 2922,
      "ties": 2923,
      "Äłsources": 2924,
      "aling": 2925,
      "iber": 2926,
      "ĠÄłHe": 2927,
      "Äłhyd": 2928,
      "45": 2929,
      "iers": 2930,
      "na": 2931,
      "Äłcru": 2932,
      "ift": 2933,
      "ÄłPre": 2934,
      "ĠÄłsub": 2935,
      "outhern": 2936,
      "Äłcompany": 2937,
      "Äłquite": 2938,
      "Äłresponse": 2939,
      "Äłfoods": 2940,
      "Äłwritten": 2941,
      "Äłteachers": 2942,
      "ÄłAustral": 2943,
      "lation": 2944,
      "uild": 2945,
      "ĠÄłany": 2946,
      "Äłmess": 2947,
      "Äłimplement": 2948,
      "ĠÄłtwo": 2949,
      "ÄłKing": 2950,
      "2008": 2951,
      "Äłpoll": 2952,
      "ÄłEuropean": 2953,
      "):": 2954,
      "OR": 2955,
      "wise": 2956,
      "attle": 2957,
      "Äłox": 2958,
      "Äłshare": 2959,
      "pril": 2960,
      "ĠÄłUn": 2961,
      "II": 2962,
      "fort": 2963,
      "ĠÄłused": 2964,
      "ancy": 2965,
      "icated": 2966,
      "Äłdaily": 2967,
      "ÄłScience": 2968,
      "occ": 2969,
      "ĠÄłfirst": 2970,
      "Äłincluded": 2971,
      "ĠÄłprov": 2972,
      "2014": 2973,
      "iques": 2974,
      "ĠÄłsupp": 2975,
      "ius": 2976,
      "Äłtakes": 2977,
      "ÄłCo": 2978,
      "Äłspread": 2979,
      "Äłmatter": 2980,
      "Äłtools": 2981,
      "ĠÄłob": 2982,
      "itis": 2983,
      "Äłdang": 2984,
      "ĠÄłform": 2985,
      "Äłspeed": 2986,
      "2009": 2987,
      "Äłfeet": 2988,
      "Äłinvolved": 2989,
      "ha": 2990,
      "iency": 2991,
      "ĠÄłif": 2992,
      "Äłaff": 2993,
      "Äłharm": 2994,
      "Äłstop": 2995,
      "ĠÄłinter": 2996,
      "Äłdeep": 2997,
      "Äłcapt": 2998,
      "Äłwriting": 2999,
      "Äłidentify": 3000,
      "Äłstandard": 3001,
      "Äłsafety": 3002,
      "Äłtax": 3003,
      "icate": 3004,
      "Äłdraw": 3005,
      "Äłhands": 3006,
      "ĠÄłph": 3007,
      "ÄłJew": 3008,
      "Äłcommit": 3009,
      "Äłprograms": 3010,
      "Äłcontinue": 3011,
      "ÄłQu": 3012,
      "36": 3013,
      "Ġ5": 3014,
      "ĠB": 3015,
      "Äłsound": 3016,
      "ÄłMin": 3017,
      "Äłprec": 3018,
      "Äłprep": 3019,
      "reek": 3020,
      "Äłprint": 3021,
      "Äłindepend": 3022,
      "Äłrespect": 3023,
      "Äłbooks": 3024,
      "ĠD": 3025,
      "itiz": 3026,
      "iforn": 3027,
      "osure": 3028,
      "unity": 3029,
      "Äłunique": 3030,
      "Äłmedia": 3031,
      "Äłextreme": 3032,
      "uary": 3033,
      "where": 3034,
      "hel": 3035,
      "Äłsat": 3036,
      "Äłsqu": 3037,
      "Äłpage": 3038,
      "urrent": 3039,
      "ÄłMany": 3040,
      "Äłimage": 3041,
      "Äłpoor": 3042,
      "Äłprobably": 3043,
      "One": 3044,
      "ĠÄłus": 3045,
      "term": 3046,
      "istry": 3047,
      "erent": 3048,
      "Äłexc": 3049,
      "ĠÄłspec": 3050,
      "Äłwaste": 3051,
      "cious": 3052,
      "Äłpatient": 3053,
      "Äłsecurity": 3054,
      "He": 3055,
      "Äłcross": 3056,
      "cean": 3057,
      "Äłones": 3058,
      "ula": 3059,
      "ÄłPer": 3060,
      "ÄłInstitute": 3061,
      "Äłsoon": 3062,
      "Äłdeveloping": 3063,
      "Äłgrowing": 3064,
      "Äłlooking": 3065,
      "Äłseries": 3066,
      "www": 3067,
      "ifornia": 3068,
      "aun": 3069,
      "bor": 3070,
      "lier": 3071,
      "Äłhours": 3072,
      "Äłaltern": 3073,
      "ÄłYork": 3074,
      "2011": 3075,
      "Äłelectric": 3076,
      "Äłwild": 3077,
      "Äłwarm": 3078,
      "Äłreview": 3079,
      "umb": 3080,
      "oses": 3081,
      "Äłsust": 3082,
      "Äłcompet": 3083,
      "Äłeval": 3084,
      "ĠÄłgen": 3085,
      "Äłconsist": 3086,
      "Äłsupply": 3087,
      "Äłrefer": 3088,
      "Äłperformance": 3089,
      "ropriate": 3090,
      "IV": 3091,
      "Äłi": 3092,
      "iles": 3093,
      "ÄłApp": 3094,
      "ÄłDo": 3095,
      "avor": 3096,
      "Äłago": 3097,
      "Äłrare": 3098,
      "Äłproduced": 3099,
      "2013": 3100,
      "Äłmultiple": 3101,
      "ÄłDepartment": 3102,
      "ĠÃ¢Ä¢Äµ": 3103,
      "anc": 3104,
      "Äłbab": 3105,
      "Äłlove": 3106,
      "orthern": 3107,
      "Äłdoctor": 3108,
      "Äłcollect": 3109,
      "2007": 3110,
      "Äłprotein": 3111,
      "joy": 3112,
      "Äłlog": 3113,
      "Äłlabor": 3114,
      "Ã¢Ä¢Äº": 3115,
      "ulf": 3116,
      "ÄłMore": 3117,
      "ÄłPres": 3118,
      "Äłheld": 3119,
      "Äłvacc": 3120,
      "Äłinside": 3121,
      "Äłleaders": 3122,
      "useum": 3123,
      "Äłforest": 3124,
      "mar": 3125,
      "ror": 3126,
      "ĠÄłuse": 3127,
      "onstr": 3128,
      "Äłsal": 3129,
      "aly": 3130,
      "Äłmagn": 3131,
      "rogen": 3132,
      "Äłvit": 3133,
      "ÄłHar": 3134,
      "roup": 3135,
      "ipment": 3136,
      "ÄłOther": 3137,
      "Äłsomeone": 3138,
      "2006": 3139,
      "Äłlarger": 3140,
      "Äłdiseases": 3141,
      "Äłestim": 3142,
      "Äłimmedi": 3143,
      "Äłmusic": 3144,
      "Äładditional": 3145,
      "Äłparticularly": 3146,
      "Äłnetwork": 3147,
      "ÄłBritish": 3148,
      "33": 3149,
      "gn": 3150,
      "Ġ0": 3151,
      "Ġ2": 3152,
      "ĠÄłher": 3153,
      "Äłstreng": 3154,
      "Äłalthough": 3155,
      "195": 3156,
      "velopment": 3157,
      "Äłinstead": 3158,
      "Äłcommunities": 3159,
      "Äłgenerally": 3160,
      "Äłanimal": 3161,
      "Äłachieve": 3162,
      "water": 3163,
      "Ġ4": 3164,
      "head": 3165,
      "inally": 3166,
      "ilos": 3167,
      "Äłforms": 3168,
      "ests": 3169,
      "Äłteeth": 3170,
      "Äłteaching": 3171,
      "Äłtrue": 3172,
      "Äłprimary": 3173,
      "bol": 3174,
      "Äłtiss": 3175,
      "Äłtarget": 3176,
      "Äłcamp": 3177,
      "uries": 3178,
      "ĠÄłbl": 3179,
      "Äłcompared": 3180,
      "ÄłJapan": 3181,
      "Äłdrink": 3182,
      "Äłserious": 3183,
      "nov": 3184,
      "son": 3185,
      "Â¼": 3186,
      "Ġd": 3187,
      "itch": 3188,
      "Äłwood": 3189,
      "Äłtowards": 3190,
      "Äłdry": 3191,
      "ÄłCount": 3192,
      "Äłrout": 3193,
      "Äłcompanies": 3194,
      "ÄłYour": 3195,
      "Äłhumans": 3196,
      "Äłsolar": 3197,
      "\".": 3198,
      "lied": 3199,
      "uly": 3200,
      "yond": 3201,
      "Äłtree": 3202,
      "Äłnight": 3203,
      "amic": 3204,
      "Äłconcent": 3205,
      "ocr": 3206,
      "ÄłDes": 3207,
      "ĠÄłhigh": 3208,
      "ĠÄłrem": 3209,
      "Äłexpect": 3210,
      "Äłattempt": 3211,
      "ields": 3212,
      "Äłinvestig": 3213,
      "oke": 3214,
      "ĠÄłro": 3215,
      "Äłlack": 3216,
      "Äłbegan": 3217,
      "ÄłCO": 3218,
      "ĠÄłsystem": 3219,
      "arden": 3220,
      "Äłtherefore": 3221,
      "ugust": 3222,
      "ÄłAfrican": 3223,
      "reed": 3224,
      "esus": 3225,
      "Äłwalk": 3226,
      "Äłthous": 3227,
      "ĠÄłdec": 3228,
      "Äłdoing": 3229,
      "ashington": 3230,
      "ĠÄłshould": 3231,
      "Äłallows": 3232,
      "Äłdocument": 3233,
      "AC": 3234,
      "ying": 3235,
      "rees": 3236,
      "Äłeat": 3237,
      "ĠÄłind": 3238,
      "ÄłUs": 3239,
      "Äłblock": 3240,
      "Äłaccur": 3241,
      "Äłgetting": 3242,
      "Äłdefin": 3243,
      "Äłinternational": 3244,
      "cription": 3245,
      "Äłnegative": 3246,
      "come": 3247,
      "gar": 3248,
      "Äłsouth": 3249,
      "idents": 3250,
      "ulate": 3251,
      "Äłcompl": 3252,
      "ĠÄłbetween": 3253,
      "izes": 3254,
      "ÄłJan": 3255,
      "Äłprogress": 3256,
      "ĠÄłinclud": 3257,
      "cript": 3258,
      "So": 3259,
      "Äławare": 3260,
      "oming": 3261,
      "see": 3262,
      "estic": 3263,
      "Äłrates": 3264,
      "ÄłFran": 3265,
      "ĠÄłrec": 3266,
      "Äładded": 3267,
      "Äłextra": 3268,
      "ÄłAlthough": 3269,
      "Äłbirth": 3270,
      "cil": 3271,
      "equ": 3272,
      "mission": 3273,
      "itable": 3274,
      "aled": 3275,
      "Äłbase": 3276,
      "resh": 3277,
      "pper": 3278,
      "ĠÄłsc": 3279,
      "Äłimages": 3280,
      "2015": 3281,
      "Äłbasic": 3282,
      "aught": 3283,
      "Äłvideo": 3284,
      "aul": 3285,
      "overy": 3286,
      "rition": 3287,
      "omb": 3288,
      "Äłeth": 3289,
      "Äłforce": 3290,
      "ÄłCons": 3291,
      "ellig": 3292,
      "Äłbehind": 3293,
      "ĠF": 3294,
      "Ġc": 3295,
      "Äłlands": 3296,
      "ulated": 3297,
      "aint": 3298,
      "ÄłEduc": 3299,
      "ÄłFrom": 3300,
      "ÄłFrench": 3301,
      "ĠÄłnew": 3302,
      "ervice": 3303,
      "Äłcapital": 3304,
      "era": 3305,
      "Äłfront": 3306,
      "Äłgame": 3307,
      "rab": 3308,
      "rael": 3309,
      "ÄłWest": 3310,
      "ÄłReg": 3311,
      "ÄłRev": 3312,
      "redit": 3313,
      "Äłdecision": 3314,
      "Äłremain": 3315,
      "Äłdevices": 3316,
      "Äłfinancial": 3317,
      "Äłestablish": 3318,
      "uff": 3319,
      "Â¸": 3320,
      "inct": 3321,
      "isms": 3322,
      "Äłcivil": 3323,
      "Äłcustom": 3324,
      "Äłaspect": 3325,
      "Äłimpl": 3326,
      "ĠÄłtrans": 3327,
      "Äłoffer": 3328,
      "Äłdifference": 3329,
      "Äłhighly": 3330,
      "Äłtechniques": 3331,
      "Äłweeks": 3332,
      "While": 3333,
      "cks": 3334,
      "ford": 3335,
      "oe": 3336,
      "ara": 3337,
      "Äłinform": 3338,
      "Äłstru": 3339,
      "ĠÄłcould": 3340,
      "ovember": 3341,
      "Äłactive": 3342,
      "Äłnews": 3343,
      "ÄłAmericans": 3344,
      "Äłtypically": 3345,
      "Äłveh": 3346,
      "Äłcreating": 3347,
      "Äłbroad": 3348,
      "mosp": 3349,
      "ĠN": 3350,
      "Äłtur": 3351,
      "Äłsil": 3352,
      "urg": 3353,
      "odies": 3354,
      "ÄłEd": 3355,
      "ÄłEl": 3356,
      "ÄłRec": 3357,
      "izations": 3358,
      "ologies": 3359,
      "Äłagricult": 3360,
      "Äłuseful": 3361,
      "Äłdecl": 3362,
      "Äłgoal": 3363,
      "Äłanaly": 3364,
      "Äłquickly": 3365,
      "Äłexercise": 3366,
      "ED": 3367,
      "aur": 3368,
      "fess": 3369,
      "uous": 3370,
      "Äłir": 3371,
      "Äłnation": 3372,
      "Äłang": 3373,
      "ĠÄłoff": 3374,
      "ĠÄłinf": 3375,
      "ÄłGl": 3376,
      "Äłattack": 3377,
      "Äłdirectly": 3378,
      "Äłtheory": 3379,
      "Äłfight": 3380,
      "Äłreve": 3381,
      "imal": 3382,
      "ĠÄłtra": 3383,
      "Äłunc": 3384,
      "Äłacid": 3385,
      "Äłdescribed": 3386,
      "Äłdigital": 3387,
      "Äłpurpose": 3388,
      "Äłinfluence": 3389,
      "34": 3390,
      "back": 3391,
      "iar": 3392,
      "anks": 3393,
      "orpor": 3394,
      "Äłfram": 3395,
      "Äłbit": 3396,
      "icip": 3397,
      "ÄłSec": 3398,
      "ĠÄłpr": 3399,
      "unction": 3400,
      "ensity": 3401,
      "ought": 3402,
      "ribute": 3403,
      "Äłideas": 3404,
      "ÄłCenter": 3405,
      "Äłeye": 3406,
      "Äłpatterns": 3407,
      "EN": 3408,
      "lin": 3409,
      "mall": 3410,
      "Äłfoot": 3411,
      "Äłtown": 3412,
      "lement": 3413,
      "ĠÄłsur": 3414,
      "play": 3415,
      "orders": 3416,
      "Äłsolution": 3417,
      "Äłpractices": 3418,
      "Äłbeginning": 3419,
      "Äłestablished": 3420,
      "38": 3421,
      "ky": 3422,
      "life": 3423,
      "itect": 3424,
      "ingu": 3425,
      "Äłmiss": 3426,
      "Äłancient": 3427,
      "ĠÄłwhere": 3428,
      "ÄłDay": 3429,
      "Äłsevere": 3430,
      "Äłrespond": 3431,
      "Äłeasily": 3432,
      "Äłteacher": 3433,
      "Äłeyes": 3434,
      "Äłdetermine": 3435,
      "pir": 3436,
      "inate": 3437,
      "anish": 3438,
      "Äłeating": 3439,
      "illing": 3440,
      "illiam": 3441,
      "ÄłMus": 3442,
      "ĠÄłafter": 3443,
      "ruary": 3444,
      "ĠÄłlong": 3445,
      "2016": 3446,
      "Äłinstit": 3447,
      "Äłlocated": 3448,
      "ebruary": 3449,
      "Äłanswer": 3450,
      "ÄłInt": 3451,
      "ĠÄłwell": 3452,
      "ĠÄłbecause": 3453,
      "ogen": 3454,
      "ĠÄłmany": 3455,
      "Äłcontains": 3456,
      "Äłrob": 3457,
      "Äłfeatures": 3458,
      "Äłinfection": 3459,
      "Äłeveryone": 3460,
      "ÄłIndian": 3461,
      "Äłmemory": 3462,
      "PA": 3463,
      "med": 3464,
      "rical": 3465,
      "ÄłÃĤ": 3466,
      "Äłsites": 3467,
      "Äłfa": 3468,
      "Äłhundred": 3469,
      "ctober": 3470,
      "ÄłTra": 3471,
      "ament": 3472,
      "aker": 3473,
      "hens": 3474,
      "Äłcosts": 3475,
      "Äłtrying": 3476,
      "'re": 3477,
      "ĠI": 3478,
      "ÄłÃ": 3479,
      "Äłcool": 3480,
      "Äłbad": 3481,
      "Äłhot": 3482,
      "ÄłChina": 3483,
      "ossible": 3484,
      "Äłsoftware": 3485,
      "31": 3486,
      "ira": 3487,
      "ĠR": 3488,
      "Äłmother": 3489,
      "ÄłMost": 3490,
      "ainable": 3491,
      "190": 3492,
      "rows": 3493,
      "Äłcommunication": 3494,
      "Äłleading": 3495,
      "ees": 3496,
      "Â±": 3497,
      "Äłprior": 3498,
      "Äłep": 3499,
      "Äłproced": 3500,
      "Äłwhose": 3501,
      "ÄłMarch": 3502,
      "ociety": 3503,
      "ĠÄłmod": 3504,
      "ÄłRuss": 3505,
      "ĠÄłyears": 3506,
      "Äłtransport": 3507,
      "Äłlargest": 3508,
      "Äłprocesses": 3509,
      "Äłtesting": 3510,
      "Äłprotection": 3511,
      "Äłprojects": 3512,
      "mitted": 3513,
      "ributed": 3514,
      "ÄłCalifornia": 3515,
      "Äłbacteria": 3516,
      "new": 3517,
      "Äłsus": 3518,
      "Äłcard": 3519,
      "Äłdied": 3520,
      "ÄłAc": 3521,
      "ully": 3522,
      "ĠÄłthen": 3523,
      "ptember": 3524,
      "ĠÄłhim": 3525,
      "Äłtraditional": 3526,
      "Äłinstru": 3527,
      "ĠÄłhelp": 3528,
      "Äłminutes": 3529,
      "Äłdemand": 3530,
      "Äłnearly": 3531,
      "ĠÄłincre": 3532,
      "cape": 3533,
      "wide": 3534,
      "yd": 3535,
      "Äłtri": 3536,
      "hest": 3537,
      "Äłpet": 3538,
      "Äłhar": 3539,
      "ÄłAnt": 3540,
      "amples": 3541,
      "ÄłFirst": 3542,
      "Äładminist": 3543,
      "mercial": 3544,
      "iece": 3545,
      "Äłbecomes": 3546,
      "ondon": 3547,
      "Äłscreen": 3548,
      "exic": 3549,
      "37": 3550,
      "ĠL": 3551,
      "Äłtherapy": 3552,
      "Äłsold": 3553,
      "Äłwrote": 3554,
      "Äłhope": 3555,
      "cember": 3556,
      "Äłgovern": 3557,
      "Äłstay": 3558,
      "amb": 3559,
      "Äłleaves": 3560,
      "Äłenh": 3561,
      "Äładapt": 3562,
      "Äłgenetic": 3563,
      "Äłdiabetes": 3564,
      "Äłgradu": 3565,
      "Äłpoints": 3566,
      "Äłequipment": 3567,
      "Äłpolicy": 3568,
      "Äłhttp": 3569,
      "ean": 3570,
      "inical": 3571,
      "ero": 3572,
      "Äłwoman": 3573,
      "anted": 3574,
      "ÄłHere": 3575,
      "ibly": 3576,
      "Äłrequires": 3577,
      "ĠÄłimport": 3578,
      "Äłcultural": 3579,
      "Äłbirds": 3580,
      "Äłsituation": 3581,
      "ÄłAssoci": 3582,
      "Ex": 3583,
      "cles": 3584,
      "ÃĹ": 3585,
      "ĠÄłthose": 3586,
      "arian": 3587,
      "ica": 3588,
      "Äłthird": 3589,
      "sec": 3590,
      "semb": 3591,
      "ÄłSystem": 3592,
      "ÄłMon": 3593,
      "ÄłDav": 3594,
      "igned": 3595,
      "Äładvant": 3596,
      "ÄłAfrica": 3597,
      "Äłfamilies": 3598,
      "Äłwebsite": 3599,
      "75": 3600,
      "ĠIn": 3601,
      "ĠÄłthrough": 3602,
      "ĠÄłÃ¢Ä¢Äµ": 3603,
      "aters": 3604,
      "oud": 3605,
      "arr": 3606,
      "Äłmention": 3607,
      "Äłdou": 3608,
      "Äłnuc": 3609,
      "These": 3610,
      "2005": 3611,
      "Äłsaw": 3612,
      "inese": 3613,
      "Äłcenter": 3614,
      "Äłreflect": 3615,
      "Äłimmune": 3616,
      "ÄłEngland": 3617,
      "Äłlaws": 3618,
      "known": 3619,
      "ibrary": 3620,
      "IT": 3621,
      "Äłaud": 3622,
      "ÄłSw": 3623,
      "ÄłCong": 3624,
      "ĠÄłcol": 3625,
      "ÄłNe": 3626,
      "Äładults": 3627,
      "Äłjud": 3628,
      "Äłworkers": 3629,
      "Äłroom": 3630,
      "Äłmilitary": 3631,
      "ding": 3632,
      "ham": 3633,
      "king": 3634,
      "Äłice": 3635,
      "edia": 3636,
      "Äłpen": 3637,
      "Äłfast": 3638,
      "Äłord": 3639,
      "eck": 3640,
      "ÄłBo": 3641,
      "Äłsea": 3642,
      "Äłjoint": 3643,
      "Äłrecently": 3644,
      "Äłcentral": 3645,
      "strial": 3646,
      "HE": 3647,
      "bit": 3648,
      "book": 3649,
      "can": 3650,
      "just": 3651,
      "time": 3652,
      "uments": 3653,
      "Äłx": 3654,
      "Äłtend": 3655,
      "Äłborn": 3656,
      "Äłhost": 3657,
      "Äłleave": 3658,
      "rupt": 3659,
      "Äłactions": 3660,
      "Äłidentified": 3661,
      "Äłelements": 3662,
      "Äłcalcul": 3663,
      "Äłreceived": 3664,
      "Äłcele": 3665,
      "rieved": 3666,
      "coh": 3667,
      "ference": 3668,
      "house": 3669,
      "now": 3670,
      "ĠÄłed": 3671,
      "Äłmom": 3672,
      "ÄłCity": 3673,
      "ĠÄłway": 3674,
      "ĠÄłmake": 3675,
      "Äłweather": 3676,
      "ÄłOf": 3677,
      "Äładop": 3678,
      "ÄłJune": 3679,
      "Äłdecre": 3680,
      "Äłallowed": 3681,
      "Äłconstruction": 3682,
      "And": 3683,
      "ded": 3684,
      "ximately": 3685,
      "year": 3686,
      "ĠÄłacc": 3687,
      "Äłbreat": 3688,
      "Äłmis": 3689,
      "Äłvict": 3690,
      "ÄłGo": 3691,
      "ciples": 3692,
      "isease": 3693,
      "2017": 3694,
      "Äłinterp": 3695,
      "onomic": 3696,
      "Äłcontinued": 3697,
      "Äłthinking": 3698,
      "Äłolder": 3699,
      "Äłvirus": 3700,
      "By": 3701,
      "Ġm": 3702,
      "Ġp": 3703,
      "encies": 3704,
      "Äłsection": 3705,
      "Äłpan": 3706,
      "Äłfuel": 3707,
      "Äłmob": 3708,
      "Äłstra": 3709,
      "ÄłPart": 3710,
      "ÄłHistory": 3711,
      "irection": 3712,
      "Äłpregn": 3713,
      "ĠÄłeven": 3714,
      "Äłquant": 3715,
      "ĠÄłbeing": 3716,
      "Äłrock": 3717,
      "Äłprivate": 3718,
      "Äłremains": 3719,
      "Äłremember": 3720,
      "Äłglass": 3721,
      "Äłcoast": 3722,
      "Äłanti": 3723,
      "ÄłChristian": 3724,
      "Äłapplications": 3725,
      "men": 3726,
      "Äłtable": 3727,
      "Äłreasons": 3728,
      "acity": 3729,
      "ĠÄłsim": 3730,
      "ourt": 3731,
      "ĠÄłeffect": 3732,
      "Äłcold": 3733,
      "Äłcollection": 3734,
      "ception": 3735,
      "Äłmodels": 3736,
      "Äłtests": 3737,
      "Äłlegal": 3738,
      "Äłlimited": 3739,
      "Äłsteps": 3740,
      "Äłnutri": 3741,
      "Äłchallenges": 3742,
      "SA": 3743,
      "ey": 3744,
      "enge": 3745,
      "Äłson": 3746,
      "Äłsearch": 3747,
      "Äłcam": 3748,
      "asks": 3749,
      "Äłthus": 3750,
      "Äłnorth": 3751,
      "ading": 3752,
      "ÄłMy": 3753,
      "ĠÄłpat": 3754,
      "ocks": 3755,
      "ework": 3756,
      "Äłenjoy": 3757,
      "ÄłInc": 3758,
      "ÄłInst": 3759,
      "Äłjo": 3760,
      "Äłappears": 3761,
      "Äłrapid": 3762,
      "Äłexpected": 3763,
      "gypt": 3764,
      "Äłexamples": 3765,
      "Äłsett": 3766,
      "Äłdevice": 3767,
      "Äłmiles": 3768,
      "Äłelse": 3769,
      "hav": 3770,
      "Â³": 3771,
      "Äłcou": 3772,
      "Äłtold": 3773,
      "Äłdiv": 3774,
      "Äłegg": 3775,
      "sect": 3776,
      "igen": 3777,
      "ÄłApril": 3778,
      "ama": 3779,
      "ÄłRed": 3780,
      "ĠÄłdet": 3781,
      "Äłshall": 3782,
      "Äłuser": 3783,
      "Äłplaced": 3784,
      "2004": 3785,
      "Äłsurround": 3786,
      "Äłpowerful": 3787,
      "Äłconnect": 3788,
      "Äłwrite": 3789,
      "gal": 3790,
      "oice": 3791,
      "Ġ(": 3792,
      "Äłswe": 3793,
      "Äłwent": 3794,
      "Äłfederal": 3795,
      "rops": 3796,
      "otes": 3797,
      "Äłgir": 3798,
      "ÄłDNA": 3799,
      "ĠÄłdisc": 3800,
      "Äłdetect": 3801,
      "Äłlocation": 3802,
      "ÄłArt": 3803,
      "Äłmeasures": 3804,
      "Äłdemonstr": 3805,
      "Äłreligious": 3806,
      "500": 3807,
      "95": 3808,
      "eal": 3809,
      "iable": 3810,
      "uit": 3811,
      "Ġth": 3812,
      "Äłten": 3813,
      "Äłfit": 3814,
      "Äłmid": 3815,
      "Äłdark": 3816,
      "enty": 3817,
      "Äłlost": 3818,
      "Äłgives": 3819,
      "oday": 3820,
      "Äłexact": 3821,
      "Äłrich": 3822,
      "Äłseems": 3823,
      "Äłtrade": 3824,
      "2000": 3825,
      "Äłexposure": 3826,
      "merican": 3827,
      "Äłcarry": 3828,
      "Äłplanet": 3829,
      "Äłreceive": 3830,
      "itizens": 3831,
      "Ad": 3832,
      "lamm": 3833,
      "Äłtit": 3834,
      "atric": 3835,
      "orse": 3836,
      "Äłbrought": 3837,
      "Äłbeaut": 3838,
      "Äłbeyond": 3839,
      "raction": 3840,
      "Äłconsequ": 3841,
      "Äłalone": 3842,
      "Äłdead": 3843,
      "ĠÄłrequ": 3844,
      "anges": 3845,
      "ÄłChar": 3846,
      "Äłagree": 3847,
      "Äłcolon": 3848,
      "uthors": 3849,
      "ifying": 3850,
      "Äłbehavi": 3851,
      "Äłoptions": 3852,
      "ĠÄłknow": 3853,
      "Äłstrugg": 3854,
      "more": 3855,
      "Äłiron": 3856,
      "Äłpow": 3857,
      "Äłmount": 3858,
      "lev": 3859,
      "ros": 3860,
      "Äłhom": 3861,
      "Äłhair": 3862,
      "Äłreach": 3863,
      "ÄłBi": 3864,
      "Äłrise": 3865,
      "ÄłLear": 3866,
      "ÄłJesus": 3867,
      "ternal": 3868,
      "clus": 3869,
      "Äłplanning": 3870,
      "Äłstandards": 3871,
      "Äłeffort": 3872,
      "reet": 3873,
      "asion": 3874,
      "ching": 3875,
      "ander": 3876,
      "Äłult": 3877,
      "ĠÄłcent": 3878,
      "aste": 3879,
      "ÄłOur": 3880,
      "Äłteach": 3881,
      "ĠÄłNew": 3882,
      "Äłfollowed": 3883,
      "Äłvalues": 3884,
      "Äłmember": 3885,
      "Äłproperties": 3886,
      "Äłcurrently": 3887,
      "Äłaffected": 3888,
      "Äłresponsible": 3889,
      "ilosop": 3890,
      "DA": 3891,
      "uing": 3892,
      "ype": 3893,
      "ĠW": 3894,
      "Ġ]": 3895,
      "Ġ10": 3896,
      "ĠÄłvery": 3897,
      "isk": 3898,
      "Äłpack": 3899,
      "Äłder": 3900,
      "Äłhabit": 3901,
      "Äłgold": 3902,
      "vert": 3903,
      "ulum": 3904,
      "abilities": 3905,
      "antly": 3906,
      "ĠÄłbel": 3907,
      "ÄłWashington": 3908,
      "place": 3909,
      "apter": 3910,
      "Äłcontroll": 3911,
      "Äłobt": 3912,
      "Äłeverything": 3913,
      "Äłdepend": 3914,
      "gery": 3915,
      "ospital": 3916,
      "Äłautom": 3917,
      "Äłobjects": 3918,
      "Äłfriends": 3919,
      "gency": 3920,
      "ken": 3921,
      "ĠÄłear": 3922,
      "Äłcorn": 3923,
      "Äłmole": 3924,
      "rog": 3925,
      "enth": 3926,
      "amily": 3927,
      "ĠÄłsign": 3928,
      "ĠÄłsame": 3929,
      "ĠÄłev": 3930,
      "Äłappropriate": 3931,
      "phas": 3932,
      "Äłemissions": 3933,
      "Äłexplore": 3934,
      "Äłchoose": 3935,
      "Äłsuccessful": 3936,
      "ÄłEnvironment": 3937,
      "ÄłEducation": 3938,
      "32": 3939,
      "97": 3940,
      "RE": 3941,
      "bre": 3942,
      "Äłsch": 3943,
      "isation": 3944,
      "Äłfather": 3945,
      "Äłmiddle": 3946,
      "road": 3947,
      "Äłlines": 3948,
      "iments": 3949,
      "ÄłSince": 3950,
      "estion": 3951,
      "ĠÄłfe": 3952,
      "They": 3953,
      "Äłseason": 3954,
      "akers": 3955,
      "Äłplaces": 3956,
      "Äłyourself": 3957,
      "Äłgoes": 3958,
      "Äłstrateg": 3959,
      "Äłoccurs": 3960,
      "Äłantib": 3961,
      "Äłapplication": 3962,
      "olved": 3963,
      "Äłstories": 3964,
      "pped": 3965,
      "Äłdeal": 3966,
      "ÄłRiver": 3967,
      "Äłshape": 3968,
      "Äłspirit": 3969,
      "ĠÄłsec": 3970,
      "Äłfindings": 3971,
      "Äłbelieved": 3972,
      "ÄłCanada": 3973,
      "ÄłTechn": 3974,
      "ÄłInternational": 3975,
      "Äłtissue": 3976,
      "cohol": 3977,
      "bl": 3978,
      "pond": 3979,
      "rand": 3980,
      "Ġ%": 3981,
      "ÄłÃ¢Ä¢": 3982,
      "atin": 3983,
      "Äłmax": 3984,
      "Äłgot": 3985,
      "Äłstri": 3986,
      "odes": 3987,
      "ĠÄłfound": 3988,
      "Äłnothing": 3989,
      "Äłusers": 3990,
      "Äłcontext": 3991,
      "ÄłUse": 3992,
      "Äłresource": 3993,
      "Äłanything": 3994,
      "Äłmonit": 3995,
      "fficiency": 3996,
      "Äłproperty": 3997,
      "Un": 3998,
      "ses": 3999,
      "ĠÄłke": 4000,
      "iny": 4001,
      "igr": 4002,
      "ÄłII": 4003,
      "rome": 4004,
      "Äłrules": 4005,
      "Äłnote": 4006,
      "ĠÄłevery": 4007,
      "ĠÄłTh": 4008,
      "Äłformed": 4009,
      "Äłearlier": 4010,
      "ĠÄłsee": 4011,
      "Äłvisual": 4012,
      "Äłcommonly": 4013,
      "Äłelement": 4014,
      "Äłmilk": 4015,
      "Äłopportunity": 4016,
      "Äłmachine": 4017,
      "Äłcomponents": 4018,
      "48": 4019,
      "iences": 4020,
      "rid": 4021,
      "ĠT": 4022,
      "Äłing": 4023,
      "orge": 4024,
      "Äłhous": 4025,
      "Äłnames": 4026,
      "oted": 4027,
      "Äłstage": 4028,
      "ocol": 4029,
      "ÄłEach": 4030,
      "ourse": 4031,
      "Äłneigh": 4032,
      "Äłevolution": 4033,
      "ÄłVal": 4034,
      "Äłimportance": 4035,
      "Äłexperien": 4036,
      "Äłreports": 4037,
      "Äłconflic": 4038,
      "Äłguid": 4039,
      "ognitive": 4040,
      "Äłbenefit": 4041,
      "Äłsummer": 4042,
      "Äłmaintain": 4043,
      "ĠÄłagain": 4044,
      "At": 4045,
      "Be": 4046,
      "Â¡": 4047,
      "Â½": 4048,
      "Ãĺ": 4049,
      "Åĥ": 4050,
      "ĠÄłocc": 4051,
      "rehens": 4052,
      "essel": 4053,
      "Äłfinal": 4054,
      "Äłdate": 4055,
      "Äłrepe": 4056,
      "Äłlat": 4057,
      "ths": 4058,
      "umn": 4059,
      "ĠÄłworld": 4060,
      "Äłatmosp": 4061,
      "ager": 4062,
      "ÄłUK": 4063,
      "ĠÄłgo": 4064,
      "186": 4065,
      "ĠÄłprocess": 4066,
      "ructure": 4067,
      "Äłdistance": 4068,
      "hemat": 4069,
      "Äłlimit": 4070,
      "Äłprofessional": 4071,
      "Äłcritical": 4072,
      "Äłfemale": 4073,
      "ÄłCounty": 4074,
      "EC": 4075,
      "Äłwond": 4076,
      "Äłfert": 4077,
      "ilit": 4078,
      "ÄłAccording": 4079,
      "Äłimag": 4080,
      "ÄłJuly": 4081,
      "othing": 4082,
      "Äłprinc": 4083,
      "Äłproviding": 4084,
      "Äłexpress": 4085,
      "Äłincreases": 4086,
      "iveness": 4087,
      "Äłefforts": 4088,
      "Äłdrugs": 4089,
      "Äłfruit": 4090,
      "Äłpicture": 4091,
      "ait": 4092,
      "Äłcode": 4093,
      "raz": 4094,
      "ĠÄłwater": 4095,
      "que": 4096,
      "ĠÄłeach": 4097,
      "ĠÄłext": 4098,
      "Äłblue": 4099,
      "Äłfeature": 4100,
      "ĠÄłPro": 4101,
      "Äłdifferences": 4102,
      "iox": 4103,
      "Äłoccup": 4104,
      "Äłchoice": 4105,
      "ÄłJanuary": 4106,
      "Is": 4107,
      "pire": 4108,
      "icial": 4109,
      "Äłmouth": 4110,
      "ÄłTheir": 4111,
      "emy": 4112,
      "Äłvia": 4113,
      "ĠÄłmy": 4114,
      "ologists": 4115,
      "Äłunivers": 4116,
      "ails": 4117,
      "ÄłChurch": 4118,
      "ÄłGerman": 4119,
      "ĠÄłdifferent": 4120,
      "PS": 4121,
      "ped": 4122,
      "Â·": 4123,
      "ĠH": 4124,
      "Ġ||": 4125,
      "arp": 4126,
      "Äłbank": 4127,
      "asure": 4128,
      "Äłlaun": 4129,
      "imens": 4130,
      "ÄłMc": 4131,
      "eces": 4132,
      "ocal": 4133,
      "ÄłHouse": 4134,
      "Äłrat": 4135,
      "ÄłFrance": 4136,
      "ologist": 4137,
      "ÄłIsrael": 4138,
      "ĠÄłjust": 4139,
      "Äłcompletely": 4140,
      "related": 4141,
      "ÄłAustralia": 4142,
      "55": 4143,
      "bi": 4144,
      "lim": 4145,
      "ras": 4146,
      "ĠÄłart": 4147,
      "oration": 4148,
      "Äłbul": 4149,
      "Äłtox": 4150,
      "etrieved": 4151,
      "Äłformer": 4152,
      "ÄłAugust": 4153,
      "ÄłSur": 4154,
      "ÄłThen": 4155,
      "ÄłPol": 4156,
      "ÄłPublic": 4157,
      "ĠÄłfact": 4158,
      "ÄłGreen": 4159,
      "riculum": 4160,
      "ĠÄłAr": 4161,
      "Äłroad": 4162,
      "Äłconnection": 4163,
      "aign": 4164,
      "Ã¡": 4165,
      "heck": 4166,
      "Äłfile": 4167,
      "Äłbillion": 4168,
      "Äłmill": 4169,
      "ctors": 4170,
      "ste": 4171,
      "Äłlength": 4172,
      "Äłisn": 4173,
      "ida": 4174,
      "urt": 4175,
      "adian": 4176,
      "ĠÄłbec": 4177,
      "ĠÄłboth": 4178,
      "Äłchurch": 4179,
      "ogle": 4180,
      "rief": 4181,
      "Äłperfect": 4182,
      "Äłtrack": 4183,
      "Äłfactor": 4184,
      "airs": 4185,
      "Äłsmaller": 4186,
      "Äłdidn": 4187,
      "ÄłDecember": 4188,
      "Äłencourage": 4189,
      "With": 4190,
      "nes": 4191,
      "Äłast": 4192,
      "Äłcry": 4193,
      "Äłfresh": 4194,
      "ÄłPark": 4195,
      "ÄłNovember": 4196,
      "Äłweak": 4197,
      "Äłsequ": 4198,
      "Äłcompar": 4199,
      "ÄłJournal": 4200,
      "ĠÄłlife": 4201,
      "ĠÄłAs": 4202,
      "Äłacad": 4203,
      "eech": 4204,
      "Äłmetal": 4205,
      "Äłequal": 4206,
      "Äłchanged": 4207,
      "Äłbasis": 4208,
      "ÄłPresident": 4209,
      "Ġf": 4210,
      "Äłcop": 4211,
      "Äłfigure": 4212,
      "Äłinnov": 4213,
      "Äłforward": 4214,
      "ifically": 4215,
      "erences": 4216,
      "ÄłFebruary": 4217,
      "ÄłGreat": 4218,
      "ously": 4219,
      "ÄłChildren": 4220,
      "Äłdiscovered": 4221,
      "Äłchanging": 4222,
      "Äłurban": 4223,
      "Äłdetails": 4224,
      "Äłbalance": 4225,
      "\",": 4226,
      "Some": 4227,
      "met": 4228,
      "ygen": 4229,
      "ĠG": 4230,
      "Äłpurch": 4231,
      "Äłbra": 4232,
      "Äłgain": 4233,
      "ÄłIS": 4234,
      "ĠÄłperson": 4235,
      "ÄłDis": 4236,
      "ÄłLondon": 4237,
      "Äłweb": 4238,
      "Äłking": 4239,
      "ressive": 4240,
      "ĠÄłnumber": 4241,
      "ĠÄłget": 4242,
      "ĠÄłgood": 4243,
      "Äłoffice": 4244,
      "ĠÄłprodu": 4245,
      "Äłpresence": 4246,
      "Äłtechnologies": 4247,
      "Äłeasier": 4248,
      "ÄłSeptember": 4249,
      "ometimes": 4250,
      "Äłillust": 4251,
      "Äłdegree": 4252,
      "care": 4253,
      "ij": 4254,
      "ias": 4255,
      "iant": 4256,
      "kin": 4257,
      "Ġ6": 4258,
      "inciples": 4259,
      "oma": 4260,
      "uration": 4261,
      "ÄłSch": 4262,
      "ÄłMexic": 4263,
      "ĠÄłcount": 4264,
      "Äłsugar": 4265,
      "ÄłDuring": 4266,
      "ÄłNot": 4267,
      "2020": 4268,
      "anging": 4269,
      "Äłqual": 4270,
      "Äłhimself": 4271,
      "Äłsymbol": 4272,
      "Äłhyp": 4273,
      "Äłtreated": 4274,
      "Äłhappens": 4275,
      "force": 4276,
      "39": 4277,
      "47": 4278,
      "cast": 4279,
      "vis": 4280,
      "xiety": 4281,
      "ĠE": 4282,
      "orage": 4283,
      "ittle": 4284,
      "ÄłBar": 4285,
      "ÄłHer": 4286,
      "ÄłEast": 4287,
      "Äłriver": 4288,
      "ÄłOctober": 4289,
      "ĠÄłval": 4290,
      "Äłtopic": 4291,
      "Äłeconomy": 4292,
      "Äłcombination": 4293,
      "ottom": 4294,
      "Äłpredict": 4295,
      "Äłdogs": 4296,
      "Äłhistorical": 4297,
      "Äłrecommend": 4298,
      "Äłcrucial": 4299,
      "Äłcelebr": 4300,
      "Pro": 4301,
      "gins": 4302,
      "nel": 4303,
      "za": 4304,
      "Äłtou": 4305,
      "requ": 4306,
      "enry": 4307,
      "Äłwon": 4308,
      "Äłwinter": 4309,
      "Äłforces": 4310,
      "Äłund": 4311,
      "Äłcoming": 4312,
      "ĠÄłdid": 4313,
      "Äłspeech": 4314,
      "Äłrain": 4315,
      "2003": 4316,
      "Äłprice": 4317,
      "Äłoffers": 4318,
      "Äłinstance": 4319,
      "ditionally": 4320,
      "Äłreduced": 4321,
      "Äłconnected": 4322,
      "ortunately": 4323,
      "poses": 4324,
      "Äłconsumption": 4325,
      "Äłillness": 4326,
      "Äłfriend": 4327,
      "which": 4328,
      "uilding": 4329,
      "After": 4330,
      "ET": 4331,
      "Äłtask": 4332,
      "reated": 4333,
      "erate": 4334,
      "Äłsave": 4335,
      "Äłcities": 4336,
      "ald": 4337,
      "Äłfear": 4338,
      "change": 4339,
      "ĠÄłshe": 4340,
      "ÄłWater": 4341,
      "ĠÄłduring": 4342,
      "ube": 4343,
      "ĠÄłAl": 4344,
      "ÄłChinese": 4345,
      "ÄłVir": 4346,
      "Äłacqu": 4347,
      "Äłtechnique": 4348,
      "Äłsigns": 4349,
      "ĠÄłhealth": 4350,
      "exas": 4351,
      "ĠÄłexp": 4352,
      "Äłrequirements": 4353,
      "load": 4354,
      "Äłcollabor": 4355,
      "Äłmanufacture": 4356,
      "Äłimmediately": 4357,
      "Äłthousands": 4358,
      "ĠÄłimportant": 4359,
      "AL": 4360,
      "ault": 4361,
      "iance": 4362,
      "ieces": 4363,
      "Ãĳ": 4364,
      "Äłcateg": 4365,
      "orb": 4366,
      "Äłfair": 4367,
      "Äłdirection": 4368,
      "Äłhon": 4369,
      "struct": 4370,
      "Äłefficient": 4371,
      "amil": 4372,
      "iful": 4373,
      "ÄłMod": 4374,
      "ĠÄłco": 4375,
      "ĠÄłfl": 4376,
      "ÄłEc": 4377,
      "ÄłRead": 4378,
      "Äłincome": 4379,
      "Äłperhaps": 4380,
      "Äłcommand": 4381,
      "tee": 4382,
      "Äłworked": 4383,
      "Äłoverall": 4384,
      "ÄłThus": 4385,
      "Äłsolutions": 4386,
      "Äłvision": 4387,
      "Äłmuscle": 4388,
      "Äłmajority": 4389,
      "Äłiniti": 4390,
      "Äłinitial": 4391,
      "Äłarchitect": 4392,
      "Äłseparate": 4393,
      "Äłcounter": 4394,
      "Äłbaby": 4395,
      "elligence": 4396,
      "99": 4397,
      "Res": 4398,
      "Ġb": 4399,
      "ĠÄłet": 4400,
      "Äłphen": 4401,
      "Äłpick": 4402,
      "Äłmale": 4403,
      "ett": 4404,
      "ÄłSm": 4405,
      "ÄłSan": 4406,
      "istant": 4407,
      "riage": 4408,
      "ĠÄłdef": 4409,
      "ĠÄłAn": 4410,
      "oves": 4411,
      "ÄłUnion": 4412,
      "Äłexpression": 4413,
      "Äłremove": 4414,
      "Äłgoals": 4415,
      "Äłnumerous": 4416,
      "Äłstatus": 4417,
      "Äłreplace": 4418,
      "Äłversion": 4419,
      "OS": 4420,
      "ii": 4421,
      "ĠÄłent": 4422,
      "ĠÄłown": 4423,
      "Äłtoward": 4424,
      "Äłdivid": 4425,
      "roy": 4426,
      "lym": 4427,
      "ÄłPeople": 4428,
      "Äłexec": 4429,
      "ÄłHigh": 4430,
      "ÄłWestern": 4431,
      "ÄłLaw": 4432,
      "Äłworth": 4433,
      "Äłseed": 4434,
      "aks": 4435,
      "Äłplans": 4436,
      "reatment": 4437,
      "ĠÄłrese": 4438,
      "Äłdepression": 4439,
      "Äłreducing": 4440,
      "Äłfunctions": 4441,
      "Äłbelief": 4442,
      "Äłrunning": 4443,
      "Äłobserv": 4444,
      "Äłconcepts": 4445,
      "Äłasked": 4446,
      "ĠÄłsupport": 4447,
      "Äłestimated": 4448,
      "US": 4449,
      "ares": 4450,
      "och": 4451,
      "rum": 4452,
      "Äłmut": 4453,
      "olid": 4454,
      "urance": 4455,
      "Äłgames": 4456,
      "osystem": 4457,
      "ĠÄłcar": 4458,
      "ciences": 4459,
      "clusion": 4460,
      "pective": 4461,
      "Äłobserved": 4462,
      "Äłopportunities": 4463,
      "Äłsexual": 4464,
      "bal": 4465,
      "mark": 4466,
      "pat": 4467,
      "Â¹": 4468,
      "ĠÄłthree": 4469,
      "ĠÄłest": 4470,
      "inn": 4471,
      "inating": 4472,
      "Äłoption": 4473,
      "ancing": 4474,
      "Äłfavor": 4475,
      "omas": 4476,
      "ÄłCom": 4477,
      "ÄłPress": 4478,
      "ago": 4479,
      "Äłcontract": 4480,
      "ysical": 4481,
      "rowing": 4482,
      "Äłconservation": 4483,
      "Äłpopulations": 4484,
      "Äłbox": 4485,
      "Äłinteresting": 4486,
      "Äłlegis": 4487,
      "porary": 4488,
      "Äłviolence": 4489,
      "Äłevalu": 4490,
      "tical": 4491,
      "Äłcand": 4492,
      "Äłwear": 4493,
      "eding": 4494,
      "Äłbatter": 4495,
      "Äłmoving": 4496,
      "Äłded": 4497,
      "Äłgiving": 4498,
      "Äłexcess": 4499,
      "Äłrule": 4500,
      "Äłprefer": 4501,
      "lick": 4502,
      "Äłscale": 4503,
      "Äłdecisions": 4504,
      "Äłexpand": 4505,
      "Äłsurvey": 4506,
      "....": 4507,
      "ÄłProgram": 4508,
      "ÄłArch": 4509,
      "Äłorganization": 4510,
      "anguages": 4511,
      "ounced": 4512,
      "Äłeducational": 4513,
      "Äłrelease": 4514,
      "hetic": 4515,
      "Äłalternative": 4516,
      "ÄłAssociation": 4517,
      "Â¾": 4518,
      "Äłsect": 4519,
      "Äłcook": 4520,
      "Äłbed": 4521,
      "Äłdyn": 4522,
      "Äłnamed": 4523,
      "Äłstyle": 4524,
      "Äłconvers": 4525,
      "ÄłEven": 4526,
      "ĠÄłmon": 4527,
      "ĠÄłmuch": 4528,
      "ĠÄłmade": 4529,
      "orms": 4530,
      "Äłjournal": 4531,
      "riting": 4532,
      "Äłagg": 4533,
      "Äłtrig": 4534,
      "athy": 4535,
      "Äłinstruct": 4536,
      "standing": 4537,
      "Äłcourt": 4538,
      "Äłsuggests": 4539,
      "Äłvirt": 4540,
      "Äłrelationships": 4541,
      "Äłlinked": 4542,
      "Äłvitamin": 4543,
      "Â¶": 4544,
      "rete": 4545,
      "Äłcitizens": 4546,
      "Äłwave": 4547,
      "Äłbone": 4548,
      "Äłmo": 4549,
      "Äłliqu": 4550,
      "rade": 4551,
      "iring": 4552,
      "Äłitems": 4553,
      "ÄłWilliam": 4554,
      "Äłnoted": 4555,
      "Äłresistance": 4556,
      "Äłactual": 4557,
      "188": 4558,
      "Äłflood": 4559,
      "Äłtransform": 4560,
      "ĠÄłexper": 4561,
      "Äłclassroom": 4562,
      "Äłpresented": 4563,
      "Äłpeace": 4564,
      "Äłcharacteristics": 4565,
      "Äłfilm": 4566,
      "Äłexisting": 4567,
      "Äłwrong": 4568,
      "eep": 4569,
      "nic": 4570,
      "Äłtour": 4571,
      "Äłpul": 4572,
      "icians": 4573,
      "roid": 4574,
      "Äłnor": 4575,
      "etter": 4576,
      "Äłgave": 4577,
      "ÄłSociety": 4578,
      "amental": 4579,
      "acing": 4580,
      "ested": 4581,
      "antic": 4582,
      "Äłcommercial": 4583,
      "ÄłWork": 4584,
      "ĠÄłdep": 4585,
      "Äłplastic": 4586,
      "ÄłOver": 4587,
      "Äłapply": 4588,
      "Äłroot": 4589,
      "hesis": 4590,
      "ĠÄłIs": 4591,
      "Äłpresident": 4592,
      "Äłapproximately": 4593,
      "Äłfailure": 4594,
      "aturally": 4595,
      "Äłutil": 4596,
      "Äłdangerous": 4597,
      "Äłaspects": 4598,
      "ping": 4599,
      "Â§": 4600,
      "Ġthe": 4601,
      "Äłign": 4602,
      "Äłaim": 4603,
      "rest": 4604,
      "Äłcopy": 4605,
      "Äłcredit": 4606,
      "itz": 4607,
      "icular": 4608,
      "Äłmission": 4609,
      "Äłthick": 4610,
      "Äłhomes": 4611,
      "Äłhuge": 4612,
      "Äłnative": 4613,
      "iders": 4614,
      "ÄłTr": 4615,
      "Äłstim": 4616,
      "elines": 4617,
      "ĠÄłback": 4618,
      "ÄłFound": 4619,
      "Äłseven": 4620,
      "ipe": 4621,
      "Äłotherwise": 4622,
      "anged": 4623,
      "Äłunit": 4624,
      "Äłapplied": 4625,
      "ÄłVol": 4626,
      "ĠÄłstate": 4627,
      "Äłgets": 4628,
      "Äłtransl": 4629,
      "ĠÄłFor": 4630,
      "Äłfamous": 4631,
      "Äłclasses": 4632,
      "iverse": 4633,
      "Äłopin": 4634,
      "Äłgeneration": 4635,
      "ĠÄłlevel": 4636,
      "Äłperformed": 4637,
      "Äłfreed": 4638,
      "ÄłGermany": 4639,
      "Äłfarmers": 4640,
      "ÃĦÄ£": 4641,
      "Äłnuclear": 4642,
      "ÄłCongress": 4643,
      "Äłmoment": 4644,
      "cers": 4645,
      "ya": 4646,
      "ĠÄłÃ¢Ä¢Äº": 4647,
      "Äłpric": 4648,
      "Äłfields": 4649,
      "Äłefficiency": 4650,
      "Äłalg": 4651,
      "Äłexcept": 4652,
      "Äłexhib": 4653,
      "ÄłDon": 4654,
      "ÄłEgypt": 4655,
      "ÄłGovernment": 4656,
      "Äłship": 4657,
      "ÄłOnce": 4658,
      "Äłbecoming": 4659,
      "Äłassum": 4660,
      "Äłbuy": 4661,
      "Äłenter": 4662,
      "Äłshowed": 4663,
      "Äłorganic": 4664,
      "Äłorganizations": 4665,
      "roduction": 4666,
      "being": 4667,
      "ÄłPhil": 4668,
      "However": 4669,
      "Äłsitu": 4670,
      "44": 4671,
      "cular": 4672,
      "den": 4673,
      "isher": 4674,
      "Äłwall": 4675,
      "Äłple": 4676,
      "ndrome": 4677,
      "Äłfully": 4678,
      "olve": 4679,
      "Äłstream": 4680,
      "Äłvary": 4681,
      "ĠÄłav": 4682,
      "ĠÄłdist": 4683,
      "acters": 4684,
      "Äłkilled": 4685,
      "overty": 4686,
      "Äłsurpr": 4687,
      "Äłsubs": 4688,
      "1999": 4689,
      "cribed": 4690,
      "Äłbuildings": 4691,
      "Äłhighest": 4692,
      "Äłeventually": 4693,
      "board": 4694,
      "eared": 4695,
      "lig": 4696,
      "Äłauthors": 4697,
      "astern": 4698,
      "ÄłService": 4699,
      "Äłyellow": 4700,
      "ÄłPat": 4701,
      "ĠÄłsaid": 4702,
      "ĠÄłfollow": 4703,
      "ÄłNow": 4704,
      "2019": 4705,
      "oking": 4706,
      "Äłattract": 4707,
      "Äłtransfer": 4708,
      "ÄłProt": 4709,
      "Äłcompleted": 4710,
      "ouncil": 4711,
      "Äłguide": 4712,
      "ÄłSpanish": 4713,
      "Äłoperations": 4714,
      "Äłinvolves": 4715,
      "Äłforeign": 4716,
      "ĠÄłdoes": 4717,
      "Äłradio": 4718,
      "Äłparticipants": 4719,
      "Äłrelatively": 4720,
      "Äłmessage": 4721,
      "ÄłJewish": 4722,
      "Ph": 4723,
      "Sh": 4724,
      "tion": 4725,
      "zz": 4726,
      "Ġ|": 4727,
      "Äłtrib": 4728,
      "rep": 4729,
      "atab": 4730,
      "Äłocean": 4731,
      "alysis": 4732,
      "Äłpark": 4733,
      "Äłpiece": 4734,
      "Äłfig": 4735,
      "iced": 4736,
      "Äłmag": 4737,
      "Äłreality": 4738,
      "Äłupper": 4739,
      "ulating": 4740,
      "ÄłMiss": 4741,
      "Äłvessel": 4742,
      "ÄłRoman": 4743,
      "Äłspot": 4744,
      "ÄłJames": 4745,
      "ĠÄłne": 4746,
      "ĠÄłgreat": 4747,
      "plete": 4748,
      "Äłrecords": 4749,
      "ĠÄłstr": 4750,
      "185": 4751,
      "Äłanyone": 4752,
      "Äłgene": 4753,
      "ÄłWeb": 4754,
      "Äłdefined": 4755,
      "Äłserved": 4756,
      "Äłserve": 4757,
      "Äłcapacity": 4758,
      "Äłinterested": 4759,
      "Äłcycle": 4760,
      "Äłwidely": 4761,
      "Äłlayer": 4762,
      "ÄłInternet": 4763,
      "Qu": 4764,
      "band": 4765,
      "Ġ7": 4766,
      "Ġ8": 4767,
      "Äłtim": 4768,
      "onic": 4769,
      "Äłeight": 4770,
      "ÄłTrans": 4771,
      "Äłalt": 4772,
      "ÄłMary": 4773,
      "Äłnotes": 4774,
      "apers": 4775,
      "Äłcontribut": 4776,
      "Äłunf": 4777,
      "Äłrot": 4778,
      "Äłhelping": 4779,
      "ĠÄłHow": 4780,
      "Äłexperiment": 4781,
      "raining": 4782,
      "hips": 4783,
      "Äłfeeling": 4784,
      "Äłgrass": 4785,
      "risis": 4786,
      "Äłstructures": 4787,
      "Äłsignificantly": 4788,
      "Äłpromote": 4789,
      "Äłchallenge": 4790,
      "Äłfaith": 4791,
      "ÄłDavid": 4792,
      "Äładvantage": 4793,
      "Äłmentioned": 4794,
      ");": 4795,
      "oo": 4796,
      "works": 4797,
      "Â£": 4798,
      "ÄłÃ¢Ä": 4799,
      "ĠÄłec": 4800,
      "ĠÄłlear": 4801,
      "Äłsand": 4802,
      "orial": 4803,
      "alle": 4804,
      "arter": 4805,
      "Äłfol": 4806,
      "Äłbound": 4807,
      "roc": 4808,
      "ÄłAre": 4809,
      "ÄłCor": 4810,
      "isted": 4811,
      "ÄłMich": 4812,
      "acific": 4813,
      "ĠÄłpop": 4814,
      "ĠÄłinv": 4815,
      "Äłcomprehens": 4816,
      "Äłpartners": 4817,
      "Äłsynt": 4818,
      "onds": 4819,
      "Äłreference": 4820,
      "onomy": 4821,
      "1990": 4822,
      "pected": 4823,
      "Äłrisks": 4824,
      "ÄłSpace": 4825,
      "ÄłCollege": 4826,
      "Äłelim": 4827,
      "aughter": 4828,
      "Äłannual": 4829,
      "Äłvegetables": 4830,
      "Äłstrength": 4831,
      "All": 4832,
      "EM": 4833,
      "ios": 4834,
      "la": 4835,
      "point": 4836,
      "ye": 4837,
      "Ãı": 4838,
      "ĠO": 4839,
      "alm": 4840,
      "Äłmoved": 4841,
      "otic": 4842,
      "Äłgarden": 4843,
      "ÄłAng": 4844,
      "ulner": 4845,
      "ÄłSim": 4846,
      "Äłcomfort": 4847,
      "ĠÄłinst": 4848,
      "ÄłEvery": 4849,
      "ĠÄłmust": 4850,
      "ÄłRo": 4851,
      "active": 4852,
      "Äłkid": 4853,
      "Äładult": 4854,
      "ÄłJust": 4855,
      "Äłgenes": 4856,
      "Äłdecades": 4857,
      "ĠÄłBut": 4858,
      "ĠÄłInd": 4859,
      "Äłtrust": 4860,
      "Äłinternal": 4861,
      "Äłinjury": 4862,
      "Äłextremely": 4863,
      "Äłatmosphere": 4864,
      "RO": 4865,
      "Ã£": 4866,
      "Ä¤": 4867,
      "atform": 4868,
      "Äłsav": 4869,
      "ishes": 4870,
      "Äłball": 4871,
      "Äłlinks": 4872,
      "olars": 4873,
      "ÄłTest": 4874,
      "Äłanxiety": 4875,
      "ession": 4876,
      "ĠÄłfind": 4877,
      "ĠÄłinformation": 4878,
      "ÄłFl": 4879,
      "aph": 4880,
      "Äłdisorders": 4881,
      "Äłclick": 4882,
      "2002": 4883,
      "Äłtruth": 4884,
      "Äłhelped": 4885,
      "Äłemphas": 4886,
      "Äłmedicine": 4887,
      "Äłdistribution": 4888,
      "Äłcharacters": 4889,
      "comes": 4890,
      "Äłlearned": 4891,
      "ographic": 4892,
      "Äłradiation": 4893,
      "ipped": 4894,
      "Äłprofessor": 4895,
      "Äłconcerns": 4896,
      "ÄłBlack": 4897,
      "Äłconducted": 4898,
      "42": 4899,
      "65": 4900,
      "Many": 4901,
      "ael": 4902,
      "cont": 4903,
      "dd": 4904,
      "ux": 4905,
      "Ġh": 4906,
      "Äłtasks": 4907,
      "ĠÄłusing": 4908,
      "Äłsac": 4909,
      "esc": 4910,
      "Äłcore": 4911,
      "Äłmer": 4912,
      "ota": 4913,
      "andom": 4914,
      "Äłstaff": 4915,
      "Ġ.\"": 4916,
      "ÄłDec": 4917,
      "ightly": 4918,
      "ĠÄłdata": 4919,
      "ÄłGreek": 4920,
      "Äłspect": 4921,
      "Äłintended": 4922,
      "aped": 4923,
      "Äłdisorder": 4924,
      "Äłregions": 4925,
      "Äłexperiences": 4926,
      "Äłextent": 4927,
      "Äłbelong": 4928,
      "Äłstarting": 4929,
      "Äłallowing": 4930,
      "Äłdrive": 4931,
      "ĠÄłconf": 4932,
      "ypes": 4933,
      "Äłheavy": 4934,
      "Äłelectricity": 4935,
      "Äłnutrients": 4936,
      "igenous": 4937,
      "Ar": 4938,
      "According": 4939,
      "ball": 4940,
      "vin": 4941,
      "enced": 4942,
      "Äłsem": 4943,
      "Äłpages": 4944,
      "Äłisland": 4945,
      "oting": 4946,
      "uter": 4947,
      "Äłalcohol": 4948,
      "illage": 4949,
      "Äłheard": 4950,
      "ivation": 4951,
      "ÄłFood": 4952,
      "Äłkill": 4953,
      "rick": 4954,
      "Äłrace": 4955,
      "Äłexperts": 4956,
      "Äłsetting": 4957,
      "Äłdepending": 4958,
      "Äłterrit": 4959,
      "Äłmulti": 4960,
      "Äłstraight": 4961,
      "pan": 4962,
      "win": 4963,
      "Â²": 4964,
      "Âº": 4965,
      "Â¿": 4966,
      "ĠÄłcell": 4967,
      "Äłaid": 4968,
      "Äłwin": 4969,
      "Äłbodies": 4970,
      "Äłdra": 4971,
      "ete": 4972,
      "Äłstorage": 4973,
      "ado": 4974,
      "usal": 4975,
      "ÄłMal": 4976,
      "orest": 4977,
      "osite": 4978,
      "ÄłBecause": 4979,
      "ĠÄłpublic": 4980,
      "ÄłHuman": 4981,
      "Äłchronic": 4982,
      "rian": 4983,
      "Äłspring": 4984,
      "acts": 4985,
      "Äłselect": 4986,
      "ormally": 4987,
      "berg": 4988,
      "bert": 4989,
      "ĠÄłrep": 4990,
      "ĠÄłreport": 4991,
      "Äłoutput": 4992,
      "obe": 4993,
      "Äłemail": 4994,
      "Äłready": 4995,
      "ÄłAlso": 4996,
      "ÄłTherefore": 4997,
      "Äładvanced": 4998,
      "Äłpassed": 4999,
      "Äłdiscussion": 5000,
      "ilosophy": 5001,
      "CC": 5002,
      "mal": 5003,
      "then": 5004,
      "with": 5005,
      "Â¥": 5006,
      "Ġg": 5007,
      "hether": 5008,
      "Äłwatch": 5009,
      "Äłpun": 5010,
      "Äłinh": 5011,
      "Äłmal": 5012,
      "Äłmap": 5013,
      "Äłhit": 5014,
      "Äłhour": 5015,
      "omin": 5016,
      "ÄłTexas": 5017,
      "Äłstation": 5018,
      "ÄłHIV": 5019,
      "ĠÄłfood": 5020,
      "Äłchance": 5021,
      "ĠÄłdown": 5022,
      "ÄłNAS": 5023,
      "Äłincorpor": 5024,
      "avy": 5025,
      "2018": 5026,
      "Äłcolle": 5027,
      "Äłsurgery": 5028,
      "Äłpolit": 5029,
      "ĠÄłGod": 5030,
      "Äłresulting": 5031,
      "Äłgraph": 5032,
      "Äłideal": 5033,
      "Äłinvolve": 5034,
      "Äłconstruct": 5035,
      "1980": 5036,
      "idden": 5037,
      "Äłcertainly": 5038,
      "ĠÄłappro": 5039,
      "1970": 5040,
      "Äłassessment": 5041,
      "Äłprepared": 5042,
      "fessor": 5043,
      "46": 5044,
      "ION": 5045,
      "west": 5046,
      "Â®": 5047,
      "Ġ000": 5048,
      "ĠÄłra": 5049,
      "Äłinvent": 5050,
      "Äłinsect": 5051,
      "Äłmaster": 5052,
      "lements": 5053,
      "imb": 5054,
      "ams": 5055,
      "ÄłMat": 5056,
      "ĠÄłschool": 5057,
      "Äłvast": 5058,
      "Äłrul": 5059,
      "rier": 5060,
      "Äłseeds": 5061,
      "ÄłOff": 5062,
      "aven": 5063,
      "ÄłUN": 5064,
      "ÄłInter": 5065,
      "ĠÄłCon": 5066,
      "ĠÄłbefore": 5067,
      "2001": 5068,
      "Äłnovel": 5069,
      "ĠÄłIf": 5070,
      "Äłremained": 5071,
      "Äłinfections": 5072,
      "ĠÄłWe": 5073,
      "Äłkept": 5074,
      "Äłdistinct": 5075,
      "Äłleads": 5076,
      "Äłexplain": 5077,
      "Äłreduction": 5078,
      "ÄłGeneral": 5079,
      "43": 5080,
      "AP": 5081,
      "ST": 5082,
      "mat": 5083,
      "rus": 5084,
      "Äłtro": 5085,
      "Äłwaters": 5086,
      "Äłfoss": 5087,
      "Äłinput": 5088,
      "Äłgod": 5089,
      "uted": 5090,
      "aded": 5091,
      "oper": 5092,
      "respond": 5093,
      "emper": 5094,
      "ĠÄłmen": 5095,
      "ags": 5096,
      "Äłcontrast": 5097,
      "Äłcontribute": 5098,
      "Äłclinical": 5099,
      "erves": 5100,
      "erman": 5101,
      "Äłdecided": 5102,
      "Äłpoly": 5103,
      "ĠÄłexpl": 5104,
      "ÄłProject": 5105,
      "Äłdefic": 5106,
      "Äłboard": 5107,
      "Äłcareer": 5108,
      "Äłdriving": 5109,
      "ircraft": 5110,
      "Äłbreast": 5111,
      "Äłdetermined": 5112,
      "olicy": 5113,
      "Äłauthority": 5114,
      "going": 5115,
      "________": 5116,
      "ÄłWhite": 5117,
      "Äłpollution": 5118,
      "Äłoxygen": 5119,
      "Äłacademic": 5120,
      "EL": 5121,
      "col": 5122,
      "des": 5123,
      "gment": 5124,
      "name": 5125,
      "pen": 5126,
      "rich": 5127,
      "Äłtum": 5128,
      "oral": 5129,
      "organ": 5130,
      "itness": 5131,
      "Äłdoll": 5132,
      "state": 5133,
      "Äłrenew": 5134,
      "Äłnorthern": 5135,
      "eters": 5136,
      "istan": 5137,
      "ÄłMil": 5138,
      "ÄłMark": 5139,
      "ĠÄłcond": 5140,
      "ÄłDi": 5141,
      "ÄłLet": 5142,
      "Äłcollege": 5143,
      "ieties": 5144,
      "Äłexposed": 5145,
      "ĠÄłprot": 5146,
      "Äłcarried": 5147,
      "rolog": 5148,
      "ÄłAsia": 5149,
      "ĠÄłchildren": 5150,
      "Äłoperation": 5151,
      "Äłhappen": 5152,
      "Äłturned": 5153,
      "Äłemergency": 5154,
      "Äłrecommended": 5155,
      "ocratic": 5156,
      "Äłstrategies": 5157,
      "ÄłMexico": 5158,
      "CT": 5159,
      "Here": 5160,
      "down": 5161,
      "lam": 5162,
      "pons": 5163,
      "van": 5164,
      "ĠÄłend": 5165,
      "Äłsample": 5166,
      "Äłcere": 5167,
      "ician": 5168,
      "iled": 5169,
      "Äłlived": 5170,
      "ether": 5171,
      "celer": 5172,
      "utive": 5173,
      "Äłstore": 5174,
      "opes": 5175,
      "ÄłPort": 5176,
      "osa": 5177,
      "Äłvital": 5178,
      "ÄłRel": 5179,
      "Äłdisplay": 5180,
      "Äłjour": 5181,
      "cipl": 5182,
      "ĠÄłequ": 5183,
      "ificial": 5184,
      "Äłraised": 5185,
      "Äłprocessing": 5186,
      "Äłdiscover": 5187,
      "Äłcausing": 5188,
      "1998": 5189,
      "Äłecosystem": 5190,
      "ĠÄłimp": 5191,
      "Äłplaying": 5192,
      "Äłindustrial": 5193,
      "Äłreleased": 5194,
      "Äłnutrition": 5195,
      "obert": 5196,
      "ÄłGeorge": 5197,
      "Äłemotional": 5198,
      "Äłindependent": 5199,
      "Äłeggs": 5200,
      "Äłphenomen": 5201,
      "ĠÄłresearch": 5202,
      "AM": 5203,
      "New": 5204,
      "That": 5205,
      "chers": 5206,
      "ixt": 5207,
      "rations": 5208,
      "ville": 5209,
      "Ã¥": 5210,
      "indu": 5211,
      "oriz": 5212,
      "arant": 5213,
      "Äłfing": 5214,
      "Äłfine": 5215,
      "Äłburn": 5216,
      "Äłtooth": 5217,
      "Äłden": 5218,
      "olf": 5219,
      "ceived": 5220,
      "owed": 5221,
      "ulin": 5222,
      "isting": 5223,
      "resents": 5224,
      "ÄłOb": 5225,
      "Äłparty": 5226,
      "Äłtechnical": 5227,
      "Äłrefers": 5228,
      "Äłbackground": 5229,
      "ropical": 5230,
      "ÄłNews": 5231,
      "Äłpotentially": 5232,
      "Äłsubjects": 5233,
      "ÄłBritain": 5234,
      "Äłhousehold": 5235,
      "Äłpolicies": 5236,
      "Äłinstrument": 5237,
      "ÄłInstead": 5238,
      "Äłexperienced": 5239,
      "OT": 5240,
      "do": 5241,
      "ycl": 5242,
      "Â»": 5243,
      "oned": 5244,
      "atically": 5245,
      "Äłcrops": 5246,
      "Äłbus": 5247,
      "Äłhorm": 5248,
      "Äłlanguages": 5249,
      "otion": 5250,
      "urb": 5251,
      "ÄłSer": 5252,
      "ÄłSum": 5253,
      "ĠÄłcare": 5254,
      "ĠÄłpass": 5255,
      "ÄłHel": 5256,
      "ÄłDem": 5257,
      "ÄłDef": 5258,
      "ĠÄłmin": 5259,
      "ĠÄłhuman": 5260,
      "ÄłInf": 5261,
      "ishing": 5262,
      "Äłtraffic": 5263,
      "ractice": 5264,
      "ĠÄłThey": 5265,
      "Äłeffectively": 5266,
      "arsh": 5267,
      "Äłcreation": 5268,
      "Äłgrade": 5269,
      "azing": 5270,
      "Äłwanted": 5271,
      "ushing": 5272,
      "ÄłMedicine": 5273,
      "Äłcircum": 5274,
      "Äłfrequently": 5275,
      "ĠÄłinterest": 5276,
      "Äłdiagnosis": 5277,
      "Äłtitle": 5278,
      "BC": 5279,
      "DC": 5280,
      "gans": 5281,
      "zing": 5282,
      "Â¬": 5283,
      "eria": 5284,
      "itors": 5285,
      "oul": 5286,
      "Äłbottom": 5287,
      "Äłthin": 5288,
      "Äłreb": 5289,
      "Äłlung": 5290,
      "Äłnations": 5291,
      "olving": 5292,
      "imize": 5293,
      "oto": 5294,
      "Äłstone": 5295,
      "ÄłSen": 5296,
      "eline": 5297,
      "iest": 5298,
      "ÄłBel": 5299,
      "Äłvent": 5300,
      "unk": 5301,
      "ĠÄłless": 5302,
      "ĠÄłlarge": 5303,
      "Äłpret": 5304,
      "ÄłIts": 5305,
      "Äłdespite": 5306,
      "ÃĥÄ": 5307,
      "Äłelectrical": 5308,
      "Äłprevention": 5309,
      "Äłessay": 5310,
      "Äłfocused": 5311,
      "Äłletters": 5312,
      "ÄłOrgan": 5313,
      "Äłtemperatures": 5314,
      "unte": 5315,
      "Äłmotor": 5316,
      "Äłchemicals": 5317,
      "lorida": 5318,
      "Äłlatest": 5319,
      "76": 5320,
      "Äłplease": 5321,
      "Äłfib": 5322,
      "roke": 5323,
      "Äłthr": 5324,
      "Äłisol": 5325,
      "idity": 5326,
      "Äłfort": 5327,
      "Äłonto": 5328,
      "uls": 5329,
      "atever": 5330,
      "ÄłMuseum": 5331,
      "Äłhear": 5332,
      "ÄłBay": 5333,
      "ĠÄłpower": 5334,
      "ĠÄłsmall": 5335,
      "ÄłHenry": 5336,
      "ÄłWhy": 5337,
      "ĠÄłmed": 5338,
      "ÄłRich": 5339,
      "ÄłLord": 5340,
      "ulture": 5341,
      "apes": 5342,
      "Äłmanner": 5343,
      "ĠÄłlaw": 5344,
      "portion": 5345,
      "Äłuns": 5346,
      "Äłupd": 5347,
      "ĠÄłwhile": 5348,
      "Äłexpert": 5349,
      "Äłfacts": 5350,
      "ĠÄłexample": 5351,
      "Äłcontinues": 5352,
      "Äłthoughts": 5353,
      "Äłpractical": 5354,
      "Äłpaint": 5355,
      "Äłindicate": 5356,
      "Äłmeeting": 5357,
      "Äłdegrees": 5358,
      "Äłincreasingly": 5359,
      "Äłpreviously": 5360,
      "Äłdestroy": 5361,
      "Äłsquare": 5362,
      "Äłdefinition": 5363,
      "havior": 5364,
      "Äłgirls": 5365,
      "49": 5366,
      "CR": 5367,
      "mas": 5368,
      "ooth": 5369,
      "Ä¯": 5370,
      "Äłsouthern": 5371,
      "orith": 5372,
      "Äłpieces": 5373,
      "arn": 5374,
      "icks": 5375,
      "omy": 5376,
      "Äłgender": 5377,
      "Äłstar": 5378,
      "ÄłSun": 5379,
      "ĠÄłins": 5380,
      "ÄłRem": 5381,
      "ĠÄłdirect": 5382,
      "rust": 5383,
      "Äłclos": 5384,
      "ĠÄłland": 5385,
      "ensus": 5386,
      "ĠÄłAnd": 5387,
      "Äłmostly": 5388,
      "tenance": 5389,
      "ĠÄłyear": 5390,
      "cientific": 5391,
      "Äłminor": 5392,
      "ounter": 5393,
      "Äłidentity": 5394,
      "Äłtrend": 5395,
      "ÄłPlan": 5396,
      "ĠÄłdevelop": 5397,
      "Äłclearly": 5398,
      "Äłprimarily": 5399,
      "Äłhttps": 5400,
      "Äłsustainable": 5401,
      "Äłreferred": 5402,
      "burg": 5403,
      "field": 5404,
      "ĠÄło": 5405,
      "ĠÄłide": 5406,
      "Äłcovered": 5407,
      "Äłfelt": 5408,
      "ÄłSu": 5409,
      "ÄłFurther": 5410,
      "avig": 5411,
      "Äładjust": 5412,
      "Äłdoctors": 5413,
      "ĠÄłret": 5414,
      "rence": 5415,
      "ervices": 5416,
      "Äłagencies": 5417,
      "ÃĥÅĥ": 5418,
      "hemistry": 5419,
      "Äłcoord": 5420,
      "Äłcontinuous": 5421,
      "Äłbright": 5422,
      "ĠÄłimm": 5423,
      "Äłmathemat": 5424,
      "Äłelev": 5425,
      "Äłsaying": 5426,
      "Äłletter": 5427,
      "Although": 5428,
      "Cl": 5429,
      "Do": 5430,
      "From": 5431,
      "li": 5432,
      "tes": 5433,
      "wood": 5434,
      "Â¨": 5435,
      "Ä´": 5436,
      "Äłcast": 5437,
      "Äłwest": 5438,
      "Äłbran": 5439,
      "Äłmit": 5440,
      "Äłmort": 5441,
      "iling": 5442,
      "struction": 5443,
      "Äłlib": 5444,
      "Äłbegins": 5445,
      "Äłyouth": 5446,
      "ache": 5447,
      "ÄłBC": 5448,
      "Äłvulner": 5449,
      "enses": 5450,
      "Äłscen": 5451,
      "ĠÄłThere": 5452,
      "oyal": 5453,
      "ĠÄłEng": 5454,
      "Äłdistingu": 5455,
      "150": 5456,
      "Äłfinding": 5457,
      "Äłstrate": 5458,
      "Äłtreatments": 5459,
      "ĠÄłchar": 5460,
      "Äłlesson": 5461,
      "Äłlooked": 5462,
      "Äłmeasured": 5463,
      "----": 5464,
      "Äłproperly": 5465,
      "ÄłDevelopment": 5466,
      "cules": 5467,
      "ÄłMedical": 5468,
      "cellent": 5469,
      "udden": 5470,
      "Äłconclud": 5471,
      "Äłvehicle": 5472,
      "Äłagricultural": 5473,
      "Äłmaximum": 5474,
      "ĠÄłagainst": 5475,
      "ÄłNASA": 5476,
      "'ll": 5477,
      "CO": 5478,
      "ND": 5479,
      "fortunately": 5480,
      "ht": 5481,
      "Ġ!": 5482,
      "rem": 5483,
      "Äłsick": 5484,
      "orter": 5485,
      "Äłwire": 5486,
      "Äłpoverty": 5487,
      "arrow": 5488,
      "Äłbattle": 5489,
      "Äłdiversity": 5490,
      "Äłhaz": 5491,
      "olute": 5492,
      "ÄłSub": 5493,
      "osh": 5494,
      "ĠÄłca": 5495,
      "ÄłWomen": 5496,
      "riers": 5497,
      "ÄłLatin": 5498,
      "oseph": 5499,
      "ĠÄłnow": 5500,
      "ĠÄłlook": 5501,
      "jects": 5502,
      "Äłaccomp": 5503,
      "Äłhelpful": 5504,
      "ventional": 5505,
      "Äłformation": 5506,
      "Äłmedications": 5507,
      "Äłparticles": 5508,
      "Äłcurriculum": 5509,
      "Äłstatement": 5510,
      "Äłsomew": 5511,
      "Äłconfirm": 5512,
      "pring": 5513,
      "Äłorigin": 5514,
      "ÄłCommun": 5515,
      "Äłlooks": 5516,
      "Äłimpacts": 5517,
      "ĠÄłaround": 5518,
      "Äłcomponent": 5519,
      "rastructure": 5520,
      "Äłmonitoring": 5521,
      "Äłstrategy": 5522,
      "Im": 5523,
      "No": 5524,
      "Wh": 5525,
      "lers": 5526,
      "ĠÄłhere": 5527,
      "inf": 5528,
      "onia": 5529,
      "Äłcra": 5530,
      "Äłmel": 5531,
      "Äłdram": 5532,
      "roph": 5533,
      "Äłlose": 5534,
      "irus": 5535,
      "ÄłAv": 5536,
      "ÄłSy": 5537,
      "ÄłSal": 5538,
      "Äłoral": 5539,
      "ÄłHol": 5540,
      "Äłround": 5541,
      "ria": 5542,
      "agues": 5543,
      "Äłplatform": 5544,
      "inder": 5545,
      "ĠÄłlast": 5546,
      "Äłphase": 5547,
      "Äłspecifically": 5548,
      "ĠÄłorig": 5549,
      "ĠÄłRes": 5550,
      "Äłcenturies": 5551,
      "Äłmainly": 5552,
      "Äłlargely": 5553,
      "Äłimproved": 5554,
      "ÄłIsland": 5555,
      "Äłhappened": 5556,
      "ÄłQue": 5557,
      "Äłbird": 5558,
      "Äłamounts": 5559,
      "Äłslowly": 5560,
      "Äłintroduced": 5561,
      "Äłtalking": 5562,
      "Äłreaction": 5563,
      "Äławareness": 5564,
      "Äłinstitutions": 5565,
      "ÄłRussian": 5566,
      "Äłcontrolled": 5567,
      "Con": 5568,
      "MS": 5569,
      "Most": 5570,
      "gi": 5571,
      "Ãħ": 5572,
      "Äłap": 5573,
      "reate": 5574,
      "itage": 5575,
      "alse": 5576,
      "ionals": 5577,
      "Äłmath": 5578,
      "Äłmix": 5579,
      "lets": 5580,
      "olitical": 5581,
      "ÄłSpec": 5582,
      "ÄłSee": 5583,
      "ÄłMiddle": 5584,
      "umin": 5585,
      "ÄłBas": 5586,
      "ĠÄłpoint": 5587,
      "ĠÄłsocial": 5588,
      "ĠÄłmight": 5589,
      "ague": 5590,
      "ÄłUnder": 5591,
      "Äłresidents": 5592,
      "Äłdiss": 5593,
      "Äłclosed": 5594,
      "ĠÄłtake": 5595,
      "Äłmeat": 5596,
      "Äłapparent": 5597,
      "Äłappoint": 5598,
      "ailed": 5599,
      "Äłroll": 5600,
      "Äłprinciples": 5601,
      "ĠÄłorgan": 5602,
      "Äłjustice": 5603,
      "Äłseek": 5604,
      "Äłcoal": 5605,
      "ashion": 5606,
      "ÄłArmy": 5607,
      "ÄłStudents": 5608,
      "ĠÄłstudy": 5609,
      "Äłinterpret": 5610,
      "Äłfertil": 5611,
      "ÄłVirgin": 5612,
      "IL": 5613,
      "ka": 5614,
      "Âµ": 5615,
      "Ä¢": 5616,
      "Äłtaught": 5617,
      "ini": 5618,
      "ester": 5619,
      "icious": 5620,
      "othe": 5621,
      "ÄłTur": 5622,
      "racy": 5623,
      "abil": 5624,
      "ÄłMac": 5625,
      "ÄłPaul": 5626,
      "osen": 5627,
      "key": 5628,
      "ÄłElect": 5629,
      "ÄłRetrieved": 5630,
      "Äłkil": 5631,
      "ava": 5632,
      "ĠÄłiss": 5633,
      "oughly": 5634,
      "189": 5635,
      "Äłpriv": 5636,
      "Äłshowing": 5637,
      "Äłsolid": 5638,
      "Äłkeeping": 5639,
      "ĠÄłresult": 5640,
      "ÄłCentral": 5641,
      "Äłdetailed": 5642,
      "Äłliterature": 5643,
      "Äłemotions": 5644,
      "ÄłJapanese": 5645,
      "sembly": 5646,
      "01": 5647,
      "300": 5648,
      "56": 5649,
      "Our": 5650,
      "Other": 5651,
      "Us": 5652,
      "ek": 5653,
      "liam": 5654,
      "rant": 5655,
      "Â´": 5656,
      "ĠÄłel": 5657,
      "inity": 5658,
      "Äłsen": 5659,
      "Äłsong": 5660,
      "Äłcognitive": 5661,
      "Äłpurs": 5662,
      "Äłfirm": 5663,
      "level": 5664,
      "Äłstated": 5665,
      "ÄłSupp": 5666,
      "ÄłSouthern": 5667,
      "ÄłCath": 5668,
      "Äłconver": 5669,
      "uma": 5670,
      "osph": 5671,
      "ÄłBoth": 5672,
      "Äłsufficient": 5673,
      "ÄłWind": 5674,
      "arts": 5675,
      "Äłweap": 5676,
      "Äłworse": 5677,
      "elled": 5678,
      "ÄłUp": 5679,
      "ÄłJer": 5680,
      "ĠÄłref": 5681,
      "Äłunlike": 5682,
      "ĠÄłgu": 5683,
      "Äłroots": 5684,
      "oviet": 5685,
      "Äłoffered": 5686,
      "ĠÄłPh": 5687,
      "Äłinflamm": 5688,
      "Äłextensive": 5689,
      "apping": 5690,
      "1996": 5691,
      "Äłapproaches": 5692,
      "Äłtopics": 5693,
      "Äłbrother": 5694,
      "Äłinvestment": 5695,
      "Äłproposed": 5696,
      "Äłspeak": 5697,
      "ÄłRepublic": 5698,
      "Äłharvest": 5699,
      "Äłpregnancy": 5700,
      "Äłsurrounding": 5701,
      "Äłexactly": 5702,
      "ny": 5703,
      "well": 5704,
      "word": 5705,
      "Ġ9": 5706,
      "ĠÄłYou": 5707,
      "Äłsounds": 5708,
      "Äłwel": 5709,
      "Äłbow": 5710,
      "Äłmixed": 5711,
      "Äłdri": 5712,
      "Äłdie": 5713,
      "Äłhospital": 5714,
      "ili": 5715,
      "omach": 5716,
      "imental": 5717,
      "uts": 5718,
      "irt": 5719,
      "Äłheight": 5720,
      "ÄłEv": 5721,
      "ĠÄłmark": 5722,
      "ÄłLike": 5723,
      "aval": 5724,
      "inding": 5725,
      "Äłconsult": 5726,
      "Äłtrial": 5727,
      "Äłdecade": 5728,
      "blem": 5729,
      "Äłremoved": 5730,
      "Äłinstall": 5731,
      "Äłdepends": 5732,
      "roduct": 5733,
      "ĠÄłplace": 5734,
      "Äłconcern": 5735,
      "Äłengineering": 5736,
      "Äłregularly": 5737,
      "Äłdrinking": 5738,
      "ĠÄłincluding": 5739,
      "Äłvehicles": 5740,
      "Äłrapidly": 5741,
      "Äłstruggle": 5742,
      "Äłconflict": 5743,
      "Äłtoxic": 5744,
      "ÄłFoundation": 5745,
      "Äłfreedom": 5746,
      "Äłcomprehensive": 5747,
      "Ab": 5748,
      "IP": 5749,
      "iology": 5750,
      "long": 5751,
      "press": 5752,
      "pread": 5753,
      "ĠÃ¢Ä¢Ä¶": 5754,
      "ĠÄłZ": 5755,
      "ĠÄłold": 5756,
      "atus": 5757,
      "Äłsalt": 5758,
      "Äłwife": 5759,
      "Äłbill": 5760,
      "Äłmere": 5761,
      "stances": 5762,
      "Äłnaturally": 5763,
      "ÄłTwo": 5764,
      "utch": 5765,
      "Äłaren": 5766,
      "estions": 5767,
      "ĠÄłcor": 5768,
      "ÄłBer": 5769,
      "ÄłHistor": 5770,
      "ÄłLake": 5771,
      "ÄłOut": 5772,
      "iah": 5773,
      "ĠÄłredu": 5774,
      "Äłmeant": 5775,
      "ĠÄłgl": 5776,
      "Äłknew": 5777,
      "Äłconscious": 5778,
      "Äłunderst": 5779,
      "Äłprison": 5780,
      "Äłdecide": 5781,
      "Äłsignal": 5782,
      "Äłexplained": 5783,
      "Äłdirector": 5784,
      "Äłaffects": 5785,
      "Äłviews": 5786,
      "ÄłSea": 5787,
      "Äłcombined": 5788,
      "ĠÄłChrist": 5789,
      "Äłrelevant": 5790,
      "Äłdescribe": 5791,
      "Äłofficial": 5792,
      "ascular": 5793,
      "Äłmobile": 5794,
      "ÄłEnvironmental": 5795,
      "Äłantibiot": 5796,
      "58": 5797,
      "Dr": 5798,
      "Des": 5799,
      "Now": 5800,
      "gs": 5801,
      "mary": 5802,
      "pers": 5803,
      "ona": 5804,
      "Äłcrisis": 5805,
      "orous": 5806,
      "Äłbones": 5807,
      "icit": 5808,
      "Äłhunt": 5809,
      "ÄłToday": 5810,
      "igher": 5811,
      "igration": 5812,
      "ÄłAD": 5813,
      "eling": 5814,
      "tery": 5815,
      "ÄłMart": 5816,
      "pping": 5817,
      "Äłnotice": 5818,
      "ÄłNature": 5819,
      "ÄłGroup": 5820,
      "pert": 5821,
      "Äłmanage": 5822,
      "Äłarm": 5823,
      "ĠÄłwithin": 5824,
      "ĠÄłproper": 5825,
      "Äłattached": 5826,
      "Äłinterview": 5827,
      "Äłmedication": 5828,
      "Äłsecret": 5829,
      "1997": 5830,
      "Äłowners": 5831,
      "Äłboost": 5832,
      "Äłplayed": 5833,
      "Äłmuscles": 5834,
      "Äłfeelings": 5835,
      "ecessary": 5836,
      "ÄłCommission": 5837,
      "ipping": 5838,
      "ĠÄłclass": 5839,
      "Äłfundamental": 5840,
      "Äłappearance": 5841,
      "Äłfrequency": 5842,
      "Äłreturned": 5843,
      "ING": 5844,
      "Äłconsistent": 5845,
      "Äłvaccine": 5846,
      "ÄłFranc": 5847,
      "Äłagriculture": 5848,
      "Äłdoub": 5849,
      "Äłbeautiful": 5850,
      "Äłwonder": 5851,
      "66": 5852,
      "SS": 5853,
      "gl": 5854,
      "nam": 5855,
      "normal": 5856,
      "Äłther": 5857,
      "Äłsan": 5858,
      "Äłsort": 5859,
      "aning": 5860,
      "Äłband": 5861,
      "ctic": 5862,
      "sets": 5863,
      "utrition": 5864,
      "ÄłSocial": 5865,
      "ÄłCam": 5866,
      "ÄłCourt": 5867,
      "Äłwhom": 5868,
      "ĠÄłwar": 5869,
      "lder": 5870,
      "udget": 5871,
      "ĠÄłpresent": 5872,
      "ÄłWild": 5873,
      "earing": 5874,
      "ÄłLife": 5875,
      "Äłspend": 5876,
      "agon": 5877,
      "eps": 5878,
      "Äłtele": 5879,
      "ports": 5880,
      "ĠÄłgovernment": 5881,
      "Äłrail": 5882,
      "187": 5883,
      "Äłamb": 5884,
      "Äłexamination": 5885,
      "ĠÄłEx": 5886,
      "Äłshel": 5887,
      "olester": 5888,
      "Äłproteins": 5889,
      "Äłregarding": 5890,
      "ĠÄłUniversity": 5891,
      "Äłprecise": 5892,
      "Äłsatis": 5893,
      "Äłlaboratory": 5894,
      "Äłcampaign": 5895,
      "Äłhundreds": 5896,
      "Äłprocedures": 5897,
      "ÄłLearning": 5898,
      "Äłingred": 5899,
      "Äłtouch": 5900,
      "Äłprices": 5901,
      ".|": 5902,
      "AD": 5903,
      "Pl": 5904,
      "].": 5905,
      "body": 5906,
      "cons": 5907,
      "nect": 5908,
      "uable": 5909,
      "zen": 5910,
      "Äłtips": 5911,
      "Äłaircraft": 5912,
      "atal": 5913,
      "owing": 5914,
      "ÄłTer": 5915,
      "Äłstars": 5916,
      "aying": 5917,
      "ifies": 5918,
      "ÄłMem": 5919,
      "emporary": 5920,
      "ĠÄłfew": 5921,
      "Äłrural": 5922,
      "oston": 5923,
      "Äłspending": 5924,
      "Äłabuse": 5925,
      "Äłneut": 5926,
      "Äłstudied": 5927,
      "Äłarmy": 5928,
      "ĠÄłstill": 5929,
      "ventions": 5930,
      "ĠÄłproduct": 5931,
      "Äłobvious": 5932,
      "Äłcharge": 5933,
      "ĠÄłright": 5934,
      "arents": 5935,
      "Äładvance": 5936,
      "Äłtypical": 5937,
      "Äłopposite": 5938,
      "afety": 5939,
      "ÄłCanadian": 5940,
      "Äłchoices": 5941,
      "ÄłEnergy": 5942,
      "Äłvolume": 5943,
      "Äłpurposes": 5944,
      "Äłkinds": 5945,
      "Äłfluid": 5946,
      "Äłmoral": 5947,
      "Äłsubstant": 5948,
      "Äłaccepted": 5949,
      "ÄłUsing": 5950,
      "Äłconsequences": 5951,
      "power": 5952,
      "rish": 5953,
      "Ä»": 5954,
      "ĠThis": 5955,
      "Äłtun": 5956,
      "ĠÄłorder": 5957,
      "Äłsend": 5958,
      "orrow": 5959,
      "Äłpp": 5960,
      "Äłpump": 5961,
      "Äłfaster": 5962,
      "Äłdu": 5963,
      "ompl": 5964,
      "Äłeast": 5965,
      "Äłnit": 5966,
      "char": 5967,
      "Äłpros": 5968,
      "Äłorgans": 5969,
      "ÄłMr": 5970,
      "ÄłMount": 5971,
      "estyle": 5972,
      "ÄłPal": 5973,
      "ĠÄłpar": 5974,
      "Äłsuc": 5975,
      "uns": 5976,
      "ÄłData": 5977,
      "ĠÄłmet": 5978,
      "ĠÄłday": 5979,
      "ĠÄłdem": 5980,
      "Äłselected": 5981,
      "ibilities": 5982,
      "Äłunits": 5983,
      "ÄłStand": 5984,
      "ĠÄłAd": 5985,
      "Äłraise": 5986,
      "Ġ://": 5987,
      "Äłsmart": 5988,
      "ĠÄłvis": 5989,
      "Äłcalls": 5990,
      "Äłstudying": 5991,
      "idespread": 5992,
      "Äłtested": 5993,
      "Äłexplains": 5994,
      "Äłmarked": 5995,
      "Äłinterests": 5996,
      "Äłfacilit": 5997,
      "ÄłAtl": 5998,
      "Äłdiscussed": 5999,
      "Äłbusinesses": 6000,
      "Äłexistence": 6001,
      "ÄłStudies": 6002,
      "Äłaccurate": 6003,
      "ĠÄłeduc": 6004,
      "Äłmoist": 6005,
      "Äłliquid": 6006,
      "liament": 6007,
      "RI": 6008,
      "pre": 6009,
      "vity": 6010,
      "ycle": 6011,
      "ĠÄłident": 6012,
      "heim": 6013,
      "hent": 6014,
      "Äłtherap": 6015,
      "Äłsin": 6016,
      "Äłsamples": 6017,
      "anation": 6018,
      "Äłcatch": 6019,
      "ora": 6020,
      "iti": 6021,
      "itative": 6022,
      "Äłwestern": 6023,
      "alks": 6024,
      "Äłflex": 6025,
      "Äłfiber": 6026,
      "icon": 6027,
      "Äłdro": 6028,
      "Äłreached": 6029,
      "sell": 6030,
      "ÄłTHE": 6031,
      "Äłstem": 6032,
      "ÄłST": 6033,
      "ady": 6034,
      "Äłpropos": 6035,
      "ÄłMont": 6036,
      "Äłhem": 6037,
      "ÄłBr": 6038,
      "ĠÄłser": 6039,
      "ĠÄłoften": 6040,
      "ÄłWell": 6041,
      "ÄłLa": 6042,
      "Äłincl": 6043,
      "Äładequ": 6044,
      "ĠÄłter": 6045,
      "Äładding": 6046,
      "Äłflat": 6047,
      "Äłinsp": 6048,
      "Äłleader": 6049,
      "ĠÄłchild": 6050,
      "Äłopened": 6051,
      "Äłdescribes": 6052,
      "ĠÄłcommun": 6053,
      "ÄłCompany": 6054,
      "Äłsubstance": 6055,
      "ÄłAcad": 6056,
      "Äłsweet": 6057,
      "razil": 6058,
      "De": 6059,
      "More": 6060,
      "kins": 6061,
      "rors": 6062,
      "ua": 6063,
      "uh": 6064,
      "ups": 6065,
      "reci": 6066,
      "esity": 6067,
      "ittee": 6068,
      "irds": 6069,
      "Äłforced": 6070,
      "Äłstorm": 6071,
      "Äłstored": 6072,
      "ÄłCivil": 6073,
      "that": 6074,
      "ÄłPe": 6075,
      "Äłexcellent": 6076,
      "ĠÄłpres": 6077,
      "Äłvoice": 6078,
      "ocated": 6079,
      "ĠÄłbo": 6080,
      "ÄłDisease": 6081,
      "ÄłFlorida": 6082,
      "ĠÄłmem": 6083,
      "Äłleaving": 6084,
      "ella": 6085,
      "Äłintelligence": 6086,
      "Äłallerg": 6087,
      "Äłprepar": 6088,
      "Äłju": 6089,
      "Äłsyndrome": 6090,
      "ĠÄłSh": 6091,
      "Äłcolors": 6092,
      "inking": 6093,
      "Äłformat": 6094,
      "Äłinstruction": 6095,
      "ĠÄłWhen": 6096,
      "Äłshell": 6097,
      "1992": 6098,
      "Äłelectronic": 6099,
      "ÄłClass": 6100,
      "Äłfacilities": 6101,
      "Äłaccounts": 6102,
      "Äłoccurred": 6103,
      "Äłrecognized": 6104,
      "Äłentirely": 6105,
      "Äłargument": 6106,
      "Äłfruits": 6107,
      "ÄłJews": 6108,
      "Äłevaluation": 6109,
      "Äłroutine": 6110,
      "Äłprocedure": 6111,
      "Äłcouple": 6112,
      "Äłguidelines": 6113,
      "Äłrepeated": 6114,
      "Äłfossil": 6115,
      "olesterol": 6116,
      "BN": 6117,
      "Gen": 6118,
      "Ind": 6119,
      "rates": 6120,
      "spec": 6121,
      "xford": 6122,
      "ĠJ": 6123,
      "Äłtrou": 6124,
      "ĠÄłment": 6125,
      "Äłaf": 6126,
      "Äłcert": 6127,
      "Äłwet": 6128,
      "ingle": 6129,
      "ouis": 6130,
      "Äłepid": 6131,
      "Äłstock": 6132,
      "Äłstret": 6133,
      "istent": 6134,
      "esting": 6135,
      "ÄłPacific": 6136,
      "osc": 6137,
      "anta": 6138,
      "ÄłDirect": 6139,
      "ogs": 6140,
      "ÄłRad": 6141,
      "Äłshared": 6142,
      "ÄłLand": 6143,
      "Äłspent": 6144,
      "Äłsports": 6145,
      "ineering": 6146,
      "Äłwealth": 6147,
      "1960": 6148,
      "ÄłInformation": 6149,
      "Äłprem": 6150,
      "Äłpreval": 6151,
      "cium": 6152,
      "plex": 6153,
      "Äłhighlight": 6154,
      "Äłmedium": 6155,
      "Äłexperiments": 6156,
      "ĠÄłset": 6157,
      "ĠÄłanother": 6158,
      "vironments": 6159,
      "ĠÄłvar": 6160,
      "Äłseeing": 6161,
      "Äłarticles": 6162,
      "Äłgoods": 6163,
      "ÄłAdd": 6164,
      "Äłoperating": 6165,
      "ĠÄłabove": 6166,
      "ÄłConf": 6167,
      "ĠÄłcontin": 6168,
      "ĠÄłStates": 6169,
      "ĠÄłperiod": 6170,
      "itudes": 6171,
      "Äłreligion": 6172,
      "ĠÄłassoci": 6173,
      "Äłjobs": 6174,
      "Äłwildlife": 6175,
      "Äłrevealed": 6176,
      "ÄłGoogle": 6177,
      "Äłjoin": 6178,
      "Äłsector": 6179,
      "'ve": 6180,
      "During": 6181,
      "Se": 6182,
      "faces": 6183,
      "gent": 6184,
      "kes": 6185,
      "Âª": 6186,
      "Ġre": 6187,
      "itt": 6188,
      "itting": 6189,
      "Äłwa": 6190,
      "stream": 6191,
      "Äłnurs": 6192,
      "etwork": 6193,
      "urd": 6194,
      "Äłgall": 6195,
      "amps": 6196,
      "eren": 6197,
      "ums": 6198,
      "osm": 6199,
      "Äłhearing": 6200,
      "ĠÄłspe": 6201,
      "ocation": 6202,
      "ocracy": 6203,
      "ĠÄłmethod": 6204,
      "ĠÄłhand": 6205,
      "ipal": 6206,
      "Äłcomposition": 6207,
      "ĠÄłlow": 6208,
      "Äłperman": 6209,
      "ublish": 6210,
      "phone": 6211,
      "Äłtrain": 6212,
      "Äłcollected": 6213,
      "Äłphone": 6214,
      "ommon": 6215,
      "Äłinfrastructure": 6216,
      "Äłfoundation": 6217,
      "Äłworldwide": 6218,
      "Äłedge": 6219,
      "rained": 6220,
      "Äłrepresents": 6221,
      "Äłmaintenance": 6222,
      "Äłsupported": 6223,
      "ttp": 6224,
      "Äładvice": 6225,
      "ĠÄłlead": 6226,
      "Äłcourses": 6227,
      "Äłhandle": 6228,
      "Äłdeliver": 6229,
      "rimination": 6230,
      "Äłfiles": 6231,
      "Äłsnow": 6232,
      "Äłmanufacturing": 6233,
      "Äłrevolution": 6234,
      "Äłlandscape": 6235,
      "Äłframework": 6236,
      "Äłalgorith": 6237,
      "400": 6238,
      "85": 6239,
      "AA": 6240,
      "tic": 6241,
      "Ġn": 6242,
      "inction": 6243,
      "Äłwalls": 6244,
      "alian": 6245,
      "Äłpig": 6246,
      "Äłfav": 6247,
      "Äłfilled": 6248,
      "Äłbread": 6249,
      "Äłneck": 6250,
      "cel": 6251,
      "Äłgar": 6252,
      "Ġ,\"": 6253,
      "ivities": 6254,
      "ureau": 6255,
      "earchers": 6256,
      "oster": 6257,
      "Äłintake": 6258,
      "Äłoutcomes": 6259,
      "ÄłSte": 6260,
      "Äłcolour": 6261,
      "Äłsubsequ": 6262,
      "Äłreaders": 6263,
      "Äłsecondary": 6264,
      "Äłresponsibility": 6265,
      "Äłrecognize": 6266,
      "Äłofficials": 6267,
      "Äłabsorb": 6268,
      "ministration": 6269,
      "Äłsuffering": 6270,
      "stitutional": 6271,
      "Äłlegislation": 6272,
      "Äłcandid": 6273,
      "atabase": 6274,
      "Äłvessels": 6275,
      "TS": 6276,
      "hio": 6277,
      "rite": 6278,
      "war": 6279,
      "ÅĤ": 6280,
      "ĠÄłve": 6281,
      "Äłcrop": 6282,
      "Äłfrag": 6283,
      "icago": 6284,
      "Äłmand": 6285,
      "Äłmamm": 6286,
      "Äłdent": 6287,
      "Äłdrop": 6288,
      "Äłdensity": 6289,
      "otential": 6290,
      "uty": 6291,
      "igital": 6292,
      "ÄłAir": 6293,
      "ÄłCare": 6294,
      "ÄłCouncil": 6295,
      "ifts": 6296,
      "oding": 6297,
      "ÄłMake": 6298,
      "Äłsuitable": 6299,
      "ogue": 6300,
      "ĠÄłtop": 6301,
      "ĠÄłdon": 6302,
      "ÄłGra": 6303,
      "aked": 6304,
      "Äłkm": 6305,
      "Äłtea": 6306,
      "hered": 6307,
      "uality": 6308,
      "Äłrelax": 6309,
      "Äłacceler": 6310,
      "Äłflo": 6311,
      "Äłintervention": 6312,
      "venue": 6313,
      "Äłfollows": 6314,
      "Äłdefine": 6315,
      "Äłserving": 6316,
      "ÄłAnn": 6317,
      "Äłcreative": 6318,
      "ÄłCommon": 6319,
      "Äłconcerned": 6320,
      "Äłachieved": 6321,
      "Äłperspective": 6322,
      "Äłintroduction": 6323,
      "ĠÄłstudents": 6324,
      "Äłgreenhouse": 6325,
      "Äłsurvive": 6326,
      "Äłhydrogen": 6327,
      "Äłconcentration": 6328,
      "Äłmissing": 6329,
      "Äłenhance": 6330,
      "Äłdouble": 6331,
      "Äłbehaviour": 6332,
      "ÄłTechnology": 6333,
      "Äłratio": 6334,
      "Äłdivided": 6335,
      "Äłfigures": 6336,
      "ca": 6337,
      "dent": 6338,
      "how": 6339,
      "iate": 6340,
      "iological": 6341,
      "uke": 6342,
      "Â¯": 6343,
      "ÄłÃİ": 6344,
      "Äłtall": 6345,
      "anes": 6346,
      "Äłcle": 6347,
      "Äłpaid": 6348,
      "Äłfill": 6349,
      "Äłbrief": 6350,
      "Äłmist": 6351,
      "asters": 6352,
      "Äłrein": 6353,
      "Äłnormally": 6354,
      "ols": 6355,
      "Äłstands": 6356,
      "ÄłSam": 6357,
      "ÄłSoviet": 6358,
      "add": 6359,
      "abits": 6360,
      "ÄłMass": 6361,
      "Äłexchange": 6362,
      "ÄłBook": 6363,
      "riend": 6364,
      "Äłsharp": 6365,
      "Äłspl": 6366,
      "ÄłJud": 6367,
      "ignment": 6368,
      "ĠÄłrest": 6369,
      "ĠÄłAmerican": 6370,
      "Äłtrained": 6371,
      "Äłindex": 6372,
      "Äłdecline": 6373,
      "Äłskill": 6374,
      "Äłgrown": 6375,
      "ÄłThomas": 6376,
      "Äłlessons": 6377,
      "aterials": 6378,
      "acco": 6379,
      "ĠÄładd": 6380,
      "Äłperiods": 6381,
      "Äłgrand": 6382,
      "annel": 6383,
      "Äłlisted": 6384,
      "ĠÄłcommon": 6385,
      "Äłphotograph": 6386,
      "Äłrecognition": 6387,
      "offee": 6388,
      "Äłpsychological": 6389,
      "ĠÄłindividual": 6390,
      "Äładopted": 6391,
      "Äłscholars": 6392,
      "ÄłSmith": 6393,
      "ĠÄłavailable": 6394,
      "08": 6395,
      "bran": 6396,
      "cest": 6397,
      "een": 6398,
      "ih": 6399,
      "ship": 6400,
      "Ġe": 6401,
      "ala": 6402,
      "Äłreform": 6403,
      "imals": 6404,
      "Äłgal": 6405,
      "iral": 6406,
      "ÄłArab": 6407,
      "Äłstomach": 6408,
      "ÄłMo": 6409,
      "empl": 6410,
      "ĠÄłbas": 6411,
      "ÄłRights": 6412,
      "osts": 6413,
      "ÄłLabor": 6414,
      "Äłabund": 6415,
      "rue": 6416,
      "ultural": 6417,
      "Äłdisapp": 6418,
      "ishment": 6419,
      "ifications": 6420,
      "ints": 6421,
      "ffective": 6422,
      "Äłblog": 6423,
      "ĠÄłstand": 6424,
      "Äłregional": 6425,
      "Äłinfected": 6426,
      "Äłpolice": 6427,
      "Äłcommunicate": 6428,
      "Äłlocations": 6429,
      "Äłminimum": 6430,
      "Äłorganized": 6431,
      "Äłcorpor": 6432,
      "Äłgreatly": 6433,
      "Äłfinally": 6434,
      "Äłconstant": 6435,
      "ployment": 6436,
      "Äłbroken": 6437,
      "ĠÄłdevelopment": 6438,
      "ediatric": 6439,
      "Äłmotion": 6440,
      "ÄłAbout": 6441,
      "Äłfeeding": 6442,
      "Äłtwice": 6443,
      "ÄłControl": 6444,
      "Äłfamiliar": 6445,
      "Äłinjuries": 6446,
      "Äłconcrete": 6447,
      "Äłleadership": 6448,
      "ÄłGlobal": 6449,
      "Äłgradually": 6450,
      "Äłhypot": 6451,
      "Äłdedicated": 6452,
      "Äłopinion": 6453,
      "Äłcolleagues": 6454,
      "ÄłVirginia": 6455,
      "1000": 6456,
      "41": 6457,
      "CS": 6458,
      "DF": 6459,
      "HO": 6460,
      "ML": 6461,
      "Of": 6462,
      "RA": 6463,
      "VID": 6464,
      "while": 6465,
      "Äłaqu": 6466,
      "erals": 6467,
      "Äłwww": 6468,
      "Äłpure": 6469,
      "arly": 6470,
      "Äłfixed": 6471,
      "Äłmoon": 6472,
      "Äłliver": 6473,
      "Äłlik": 6474,
      "eting": 6475,
      "irth": 6476,
      "Äłforg": 6477,
      "ÄłAlex": 6478,
      "amine": 6479,
      "Äłyield": 6480,
      "abled": 6481,
      "usband": 6482,
      "emia": 6483,
      "ÄłPower": 6484,
      "ÄłNatural": 6485,
      "ÄłGood": 6486,
      "roups": 6487,
      "agers": 6488,
      "ellite": 6489,
      "Äłcontaining": 6490,
      "ĠÄłlater": 6491,
      "Äłparties": 6492,
      "herent": 6493,
      "ĠÄłgiven": 6494,
      "Äłaccompl": 6495,
      "ĠÄłwithout": 6496,
      "Äłsurve": 6497,
      "Äłhealthcare": 6498,
      "Äłcars": 6499,
      "Äłmonitor": 6500,
      "Äłdistrict": 6501,
      "Äłpossibly": 6502,
      "Äłcarefully": 6503,
      "Äłcorrespond": 6504,
      "Äłgenerate": 6505,
      "Äłgreatest": 6506,
      "Äłeastern": 6507,
      "Äłveter": 6508,
      "Äłrestrict": 6509,
      "Äłmarine": 6510,
      "Äłcomputers": 6511,
      "prove": 6512,
      "ĠÄłperform": 6513,
      "ĠÄłpercent": 6514,
      "Äłcutting": 6515,
      "Äłphotos": 6516,
      "Äłfunding": 6517,
      "Äłclosely": 6518,
      "ĠÄłprovide": 6519,
      "Äłforests": 6520,
      "ĠÄłHowever": 6521,
      "Äłtroops": 6522,
      "ech": 6523,
      "fall": 6524,
      "gu": 6525,
      "ked": 6526,
      "oir": 6527,
      "rial": 6528,
      "wer": 6529,
      "yme": 6530,
      "Â«": 6531,
      "ĠÄłant": 6532,
      "inations": 6533,
      "Äłapart": 6534,
      "Äłsudden": 6535,
      "ano": 6536,
      "Äłcrow": 6537,
      "Äłwid": 6538,
      "Äłfle": 6539,
      "Äłfest": 6540,
      "Äłbrown": 6541,
      "Äłmuseum": 6542,
      "asp": 6543,
      "ented": 6544,
      "Äłgather": 6545,
      "ÄłAI": 6546,
      "eless": 6547,
      "abb": 6548,
      "abul": 6549,
      "ÄłMor": 6550,
      "Äłexternal": 6551,
      "ĠÄłcap": 6552,
      "ÄłBudd": 6553,
      "ĠÄłpress": 6554,
      "ĠÄłpossible": 6555,
      "unch": 6556,
      "Äłchrom": 6557,
      "ÄłDisc": 6558,
      "Äłcloud": 6559,
      "ĠÄłreal": 6560,
      "ĠÄłCol": 6561,
      "ternational": 6562,
      "Äłtrad": 6563,
      "Äłraw": 6564,
      "Äłattacks": 6565,
      "Äłextract": 6566,
      "Äłextended": 6567,
      "Äłdiscovery": 6568,
      "ĠÄłview": 6569,
      "Äłsecure": 6570,
      "ÄłProfessor": 6571,
      "1995": 6572,
      "Äłmeters": 6573,
      "enefits": 6574,
      "Äłfewer": 6575,
      "Äłmovements": 6576,
      "Äłslightly": 6577,
      "Äłbeneficial": 6578,
      "Äłfacing": 6579,
      "anned": 6580,
      "ymptoms": 6581,
      "Äłresponses": 6582,
      "Äłrepresented": 6583,
      "Äłinteraction": 6584,
      "Äłgovernments": 6585,
      "igrants": 6586,
      "Äłneighbor": 6587,
      "Äłjourney": 6588,
      "57": 6589,
      "ivery": 6590,
      "night": 6591,
      "pes": 6592,
      "rine": 6593,
      "heast": 6594,
      "Äłsed": 6595,
      "Äłsell": 6596,
      "anning": 6597,
      "ingly": 6598,
      "Äłpray": 6599,
      "Äłbot": 6600,
      "Äłbiod": 6601,
      "Äłdream": 6602,
      "ÄłAtt": 6603,
      "ellect": 6604,
      "ÄłCheck": 6605,
      "umes": 6606,
      "ÄłBre": 6607,
      "ĠÄłprom": 6608,
      "ĠÄłbody": 6609,
      "ĠÄłindu": 6610,
      "Äłchain": 6611,
      "ÄłDet": 6612,
      "ÄłRome": 6613,
      "ÄłRef": 6614,
      "Äłleaf": 6615,
      "dule": 6616,
      "ÄłLibrary": 6617,
      "action": 6618,
      "ansion": 6619,
      "Äłmanaged": 6620,
      "anger": 6621,
      "orses": 6622,
      "Äłunless": 6623,
      "Äłuniverse": 6624,
      "eoples": 6625,
      "Äłarms": 6626,
      "rene": 6627,
      "ĠÄłSe": 6628,
      "Äłtradition": 6629,
      "ĠÄłMed": 6630,
      "Äłpron": 6631,
      "Äłproduces": 6632,
      "Äłimpossible": 6633,
      "Äłtransmission": 6634,
      "Äłinstalled": 6635,
      "Äłpossess": 6636,
      "ĠÄłsuccess": 6637,
      "rison": 6638,
      "Äłmarriage": 6639,
      "Äłload": 6640,
      "Äłprofessionals": 6641,
      "ĠÄłparticular": 6642,
      "ÄłScot": 6643,
      "Äłindicates": 6644,
      "Äłemployees": 6645,
      "ÄłCarol": 6646,
      "Äłportion": 6647,
      "ĠÄłdesign": 6648,
      "ĠÄłknown": 6649,
      "Äłclaims": 6650,
      "ĠÄłamong": 6651,
      "Äłharmful": 6652,
      "Äłdrawing": 6653,
      "Äłprepare": 6654,
      "Äłindependence": 6655,
      "Äłinformed": 6656,
      "stein": 6657,
      "Äłbattery": 6658,
      "MA": 6659,
      "aud": 6660,
      "hma": 6661,
      "lar": 6662,
      "mm": 6663,
      "pet": 6664,
      "rons": 6665,
      "top": 6666,
      "tage": 6667,
      "xts": 6668,
      "zed": 6669,
      "Äłsides": 6670,
      "esis": 6671,
      "Äłcart": 6672,
      "itivity": 6673,
      "Äłpil": 6674,
      "aria": 6675,
      "Äłboy": 6676,
      "Äłhun": 6677,
      "ston": 6678,
      "Äłlic": 6679,
      "sey": 6680,
      "ceive": 6681,
      "ÄłSciences": 6682,
      "abeth": 6683,
      "ÄłMars": 6684,
      "umps": 6685,
      "ivision": 6686,
      "ĠÄłcalled": 6687,
      "ĠÄłpe": 6688,
      "ĠÄłbest": 6689,
      "ÄłWood": 6690,
      "ÄłExt": 6691,
      "Äłrub": 6692,
      "ĠÄłdr": 6693,
      "ÄłGree": 6694,
      "rous": 6695,
      "Äłenz": 6696,
      "Äłenable": 6697,
      "ÄłLeg": 6698,
      "ardens": 6699,
      "Äłselection": 6700,
      "Äłinches": 6701,
      "Äłcompounds": 6702,
      "Äłneur": 6703,
      "Äłdoor": 6704,
      "ĠÄłnon": 6705,
      "ĠÄłelect": 6706,
      "ÄłKore": 6707,
      "ovement": 6708,
      "ĠÄłstart": 6709,
      "Äłexpensive": 6710,
      "Äłflight": 6711,
      "Äłreader": 6712,
      "Äłentered": 6713,
      "Äłdiverse": 6714,
      "ÄłAnother": 6715,
      "Äłconfidence": 6716,
      "Äłguarant": 6717,
      "hyd": 6718,
      "Äłimproving": 6719,
      "Äłcreates": 6720,
      "ÄłColor": 6721,
      "ÄłUSA": 6722,
      "ĠÄłothers": 6723,
      "Äłteams": 6724,
      "Äłdeaths": 6725,
      "Äłsuggested": 6726,
      "riminal": 6727,
      "ourage": 6728,
      "Äłemployment": 6729,
      "Äłhistoric": 6730,
      "Äłlifestyle": 6731,
      "Äłmachines": 6732,
      "Äłcapture": 6733,
      "Äłimmediate": 6734,
      "ÄłRevolution": 6735,
      "Äłmillions": 6736,
      "ĠÄłbecome": 6737,
      "ÄłOffice": 6738,
      "Äłpretty": 6739,
      "Äłsucceed": 6740,
      "600": 6741,
      "LE": 6742,
      "My": 6743,
      "Med": 6744,
      "SL": 6745,
      "eff": 6746,
      "sk": 6747,
      "wing": 6748,
      "Ġin": 6749,
      "ĠÄłeng": 6750,
      "reland": 6751,
      "erb": 6752,
      "isters": 6753,
      "isdom": 6754,
      "itamin": 6755,
      "Äłwants": 6756,
      "Äłfly": 6757,
      "Äłborder": 6758,
      "icide": 6759,
      "Äłdys": 6760,
      "asive": 6761,
      "Äłlots": 6762,
      "ima": 6763,
      "urric": 6764,
      "urning": 6765,
      "Äłstick": 6766,
      "ÄłSuch": 6767,
      "ameter": 6768,
      "abric": 6769,
      "ĠÄłwomen": 6770,
      "ÄłPy": 6771,
      "Äłhero": 6772,
      "ĠÄłcurrent": 6773,
      "ĠÄłair": 6774,
      "Äłjump": 6775,
      "ieve": 6776,
      "Äłsyn": 6777,
      "ĠÄłAmeric": 6778,
      "ĠÄłCan": 6779,
      "Äłrecovery": 6780,
      "Äłdescription": 6781,
      "Äłsupplement": 6782,
      "ersonal": 6783,
      "Äłformal": 6784,
      "ĠÄłEn": 6785,
      "ĠÄłvol": 6786,
      "Äłsettle": 6787,
      "Äłartificial": 6788,
      "ĠÄłchange": 6789,
      "Äłvalid": 6790,
      "Äłprotected": 6791,
      "know": 6792,
      "Äłhappy": 6793,
      "Äłseconds": 6794,
      "Äłoriginally": 6795,
      "ĠÄłmeans": 6796,
      "ĠÄłenvironment": 6797,
      "Äłera": 6798,
      "Äłnetworks": 6799,
      "Äłpictures": 6800,
      "ÄłAustralian": 6801,
      "Äłsustain": 6802,
      "Äłcompetition": 6803,
      "Äłwalking": 6804,
      "Äłcardi": 6805,
      "Äłinstruments": 6806,
      "ĠÄłincrease": 6807,
      "ÄłCharles": 6808,
      "levision": 6809,
      "clusive": 6810,
      "Äłderived": 6811,
      "Äłhabitat": 6812,
      "Äłmolecules": 6813,
      "Äłneighb": 6814,
      "ĠÄłestab": 6815,
      "CA": 6816,
      "CH": 6817,
      "Read": 6818,
      "comp": 6819,
      "flow": 6820,
      "last": 6821,
      "lock": 6822,
      "ml": 6823,
      "Ä¥": 6824,
      "ĠÃ¢Ä¢": 6825,
      "Äłtried": 6826,
      "Äłaer": 6827,
      "Äłfif": 6828,
      "Äłfashion": 6829,
      "Äłdental": 6830,
      "rovers": 6831,
      "ÄłAp": 6832,
      "iform": 6833,
      "odium": 6834,
      "ÄłMet": 6835,
      "ÄłPen": 6836,
      "osion": 6837,
      "Äłexists": 6838,
      "ĠÄłcase": 6839,
      "Äłchick": 6840,
      "ÄłDel": 6841,
      "ÄłEU": 6842,
      "Äłrandom": 6843,
      "ÄłNor": 6844,
      "ÄłNorthern": 6845,
      "ÄłLong": 6846,
      "Äłplus": 6847,
      "ÄłJoseph": 6848,
      "rency": 6849,
      "ĠÄłgroup": 6850,
      "ÄłKen": 6851,
      "rowth": 6852,
      "Äłconsists": 6853,
      "atively": 6854,
      "Äłunderlying": 6855,
      "oven": 6856,
      "Äłfever": 6857,
      "ĠÄłBrit": 6858,
      "Äłassist": 6859,
      "Äłartists": 6860,
      "Äłoccasion": 6861,
      "Äłgenerations": 6862,
      "cribe": 6863,
      "Äłengage": 6864,
      "Äłinvolving": 6865,
      "ÄłExpl": 6866,
      "Äłsuccessfully": 6867,
      "oftware": 6868,
      "ivalent": 6869,
      "ÄłStudy": 6870,
      "Äłfrequent": 6871,
      "Äłmassive": 6872,
      "ÄłManagement": 6873,
      "Äłvideos": 6874,
      "Äłrecorded": 6875,
      "Äłmorning": 6876,
      "Äłsteel": 6877,
      "Äłimplementation": 6878,
      "ÄłDesign": 6879,
      "Äłfighting": 6880,
      "allel": 6881,
      "68": 6882,
      "bra": 6883,
      "draw": 6884,
      "fit": 6885,
      "hire": 6886,
      "rd": 6887,
      "ĠÄłthings": 6888,
      "ĠÄłu": 6889,
      "reation": 6890,
      "onym": 6891,
      "Äłwidespread": 6892,
      "Äłpull": 6893,
      "arl": 6894,
      "ario": 6895,
      "stries": 6896,
      "Äłongoing": 6897,
      "amins": 6898,
      "essment": 6899,
      "ÄłMad": 6900,
      "ÄłMicro": 6901,
      "ĠÄłsk": 6902,
      "ocument": 6903,
      "ÄłEnd": 6904,
      "ogether": 6905,
      "ÄłLab": 6906,
      "ideo": 6907,
      "Äłkit": 6908,
      "Äłneuro": 6909,
      "Äłclust": 6910,
      "Äłbutter": 6911,
      "ĠÄłAt": 6912,
      "teen": 6913,
      "ÄłChild": 6914,
      "Äłcolumn": 6915,
      "Äłrelations": 6916,
      "Äłphr": 6917,
      "Äłscene": 6918,
      "ictor": 6919,
      "Äłtransition": 6920,
      "Ġ):": 6921,
      "Äłresulted": 6922,
      "example": 6923,
      "Äłstarts": 6924,
      "Äłelectron": 6925,
      "Äłapproved": 6926,
      "Äłprogramming": 6927,
      "ÄłClimate": 6928,
      "Äłtruly": 6929,
      "Äłbiological": 6930,
      "Äłinternet": 6931,
      "Äłprompt": 6932,
      "ĠÄłenergy": 6933,
      "ÄłOnly": 6934,
      "Äłcriteria": 6935,
      "Äłdomestic": 6936,
      "Äłannounced": 6937,
      "ÄłGuide": 6938,
      "Äłcrime": 6939,
      "Äłtells": 6940,
      "ĠÄłYork": 6941,
      "Äłmechanical": 6942,
      "Äłsurvival": 6943,
      "Äłvisitors": 6944,
      "ĠÄłobs": 6945,
      "Äłroute": 6946,
      "ĠÄłdeterm": 6947,
      "Äłultimately": 6948,
      "Äłhouses": 6949,
      "ioxide": 6950,
      "Äłsituations": 6951,
      "Äłdollars": 6952,
      "Äłcircumstances": 6953,
      "78": 6954,
      "Can": 6955,
      "born": 6956,
      "cher": 6957,
      "eh": 6958,
      "eper": 6959,
      "look": 6960,
      "lamic": 6961,
      "posed": 6962,
      "ta": 6963,
      "uzz": 6964,
      "whel": 6965,
      "yroid": 6966,
      "Äłtail": 6967,
      "Äłtons": 6968,
      "Äław": 6969,
      "Äłastr": 6970,
      "erally": 6971,
      "Äłsections": 6972,
      "Äłcred": 6973,
      "Äłcats": 6974,
      "Äłwitness": 6975,
      "Äłpal": 6976,
      "Äłfro": 6977,
      "Äłble": 6978,
      "Äłdense": 6979,
      "Äłdaughter": 6980,
      "Äłnarrow": 6981,
      "etime": 6982,
      "Äłgut": 6983,
      "Äłunt": 6984,
      "Äłconventional": 6985,
      "ÄłPers": 6986,
      "ivated": 6987,
      "Äłcomment": 6988,
      "ĠÄłcause": 6989,
      "ĠÄłcourse": 6990,
      "ÄłDist": 6991,
      "ÄłRobert": 6992,
      "Äłshut": 6993,
      "Äłshop": 6994,
      "ÄłLouis": 6995,
      "Äłplays": 6996,
      "Äłdisaster": 6997,
      "ubl": 6998,
      "ounded": 6999,
      "Äłunable": 7000,
      "Äłuniversity": 7001,
      "ritical": 7002,
      "Äłrecon": 7003,
      "Äłnewsp": 7004,
      "oval": 7005,
      "Äłnoise": 7006,
      "Äłexpressed": 7007,
      "ĠÄłprogram": 7008,
      "Äłobesity": 7009,
      "Äłsolve": 7010,
      "Äłvisible": 7011,
      "azine": 7012,
      "Äłdirections": 7013,
      "Äłesc": 7014,
      "Stud": 7015,
      "Äłvolcan": 7016,
      "Äłabsolute": 7017,
      "Äłdocuments": 7018,
      "Äłmechanism": 7019,
      "Äłwarming": 7020,
      "ÄłReview": 7021,
      "ĠÄłinflu": 7022,
      "Äłaudience": 7023,
      "Äłbreathing": 7024,
      "ĠÄłearly": 7025,
      "ĠÄłsecond": 7026,
      "Äłprinciple": 7027,
      "Äłlaunched": 7028,
      "Äłcategories": 7029,
      "ÄłCatholic": 7030,
      "Äłinflammation": 7031,
      "Äłunderstood": 7032,
      "American": 7033,
      "BS": 7034,
      "but": 7035,
      "oose": 7036,
      "rary": 7037,
      "Ä³": 7038,
      "Åģ": 7039,
      "Äłaims": 7040,
      "rey": 7041,
      "aniel": 7042,
      "Äłcm": 7043,
      "Äłcup": 7044,
      "Äłbudget": 7045,
      "Äłmood": 7046,
      "Äłmov": 7047,
      "Äłdin": 7048,
      "leg": 7049,
      "rot": 7050,
      "asant": 7051,
      "Äłhorse": 7052,
      "Äłrecept": 7053,
      "Äłnine": 7054,
      "Äłbear": 7055,
      "Äłgone": 7056,
      "anda": 7057,
      "throp": 7058,
      "Äłitem": 7059,
      "illa": 7060,
      "ÄłBank": 7061,
      "ighter": 7062,
      "ĠÄłput": 7063,
      "ĠÄłsay": 7064,
      "ĠÄłbased": 7065,
      "ĠÄłfar": 7066,
      "ÄłForm": 7067,
      "ĠÄłmain": 7068,
      "ĠÄłdisease": 7069,
      "ÄłGold": 7070,
      "Äłspr": 7071,
      "Äłspin": 7072,
      "actions": 7073,
      "Äłimper": 7074,
      "ĠÄłhome": 7075,
      "ĠÄłhistory": 7076,
      "Äłteen": 7077,
      "Äłdose": 7078,
      "ubs": 7079,
      "angle": 7080,
      "Äłoutbre": 7081,
      "ÄłStreet": 7082,
      "ĠÄłSp": 7083,
      "luding": 7084,
      "forest": 7085,
      "ĠÄłprog": 7086,
      "Äłremaining": 7087,
      "ĠÄłarea": 7088,
      "Äłeditor": 7089,
      "Äłsimpl": 7090,
      "Äłstring": 7091,
      "Äłended": 7092,
      "ÄłThose": 7093,
      "ÄłThrough": 7094,
      "Äłmetab": 7095,
      "Äłpublication": 7096,
      "Äłcalcium": 7097,
      "Äłstructural": 7098,
      "Äłlisten": 7099,
      "Äłyounger": 7100,
      "bridge": 7101,
      "Äłdigest": 7102,
      "ependent": 7103,
      "Äłbiggest": 7104,
      "Ġ\".": 7105,
      "ĠÄłcomb": 7106,
      "ĠÄłaccess": 7107,
      "Äłanswers": 7108,
      "Äłmeasurement": 7109,
      "ĠÄłlikely": 7110,
      "Äłsubstances": 7111,
      "Äłafford": 7112,
      "Äłrarely": 7113,
      "Äłbabies": 7114,
      "Äładministr": 7115,
      "Äłvictims": 7116,
      "Äłcamera": 7117,
      "ĠÄłpatients": 7118,
      "Äłagreement": 7119,
      "ÄłValley": 7120,
      "Äłcomparison": 7121,
      "Äłinstructions": 7122,
      "ÄłMichael": 7123,
      "Äłvulnerable": 7124,
      "54": 7125,
      "94": 7126,
      "IG": 7127,
      "PR": 7128,
      "Why": 7129,
      "aired": 7130,
      "called": 7131,
      "free": 7132,
      "lims": 7133,
      "making": 7134,
      "vard": 7135,
      "ĠK": 7136,
      "Ġ12": 7137,
      "ĠÄłthink": 7138,
      "Äłtiny": 7139,
      "Äłpool": 7140,
      "Äłfract": 7141,
      "Äłinner": 7142,
      "Äłthread": 7143,
      "ilation": 7144,
      "omething": 7145,
      "Äłloved": 7146,
      "Äłlibrary": 7147,
      "Äłnavig": 7148,
      "Äłstable": 7149,
      "ÄłBible": 7150,
      "ocy": 7151,
      "Äłrid": 7152,
      "Äłrice": 7153,
      "Äłrhy": 7154,
      "ÄłNations": 7155,
      "izabeth": 7156,
      "Äłwilling": 7157,
      "Äłappreci": 7158,
      "iana": 7159,
      "ÄłChicago": 7160,
      "Äłages": 7161,
      "iseases": 7162,
      "Äłindeed": 7163,
      "Äłamazing": 7164,
      "everal": 7165,
      "ommod": 7166,
      "ommun": 7167,
      "Äłremind": 7168,
      "Äłexamine": 7169,
      "Äłknows": 7170,
      "Äłrespir": 7171,
      "Äłdistributed": 7172,
      "Äłgluc": 7173,
      "ÄłProv": 7174,
      "Äłinsulin": 7175,
      "Äłreduces": 7176,
      "Äłprotocol": 7177,
      "Äłbrand": 7178,
      "ikip": 7179,
      "ĠÄłleft": 7180,
      "Äłstanding": 7181,
      "Äłlegs": 7182,
      "Äłconstantly": 7183,
      "ĠÄłrespons": 7184,
      "Äłconsumers": 7185,
      "Äłvolunte": 7186,
      "Äłfunctional": 7187,
      "Äłoptim": 7188,
      "Äłwindow": 7189,
      "Äłsuffer": 7190,
      "Äłdebate": 7191,
      "Äłstrengthen": 7192,
      "Äłthousand": 7193,
      "Äłethnic": 7194,
      "Äłcustomers": 7195,
      "Äłsoldiers": 7196,
      "ĠÄłsignificant": 7197,
      "Äłuniversities": 7198,
      "Äłcomfortable": 7199,
      "emperature": 7200,
      "51": 7201,
      "72": 7202,
      "98": 7203,
      "hi": 7204,
      "hand": 7205,
      "kind": 7206,
      "lines": 7207,
      "rin": 7208,
      "Ä©": 7209,
      "Ġa": 7210,
      "hedule": 7211,
      "ani": 7212,
      "ori": 7213,
      "Äłpup": 7214,
      "Äłpush": 7215,
      "asm": 7216,
      "aser": 7217,
      "Äłhabits": 7218,
      "olk": 7219,
      "ÄłTake": 7220,
      "rays": 7221,
      "ÄłSil": 7222,
      "ÄłCur": 7223,
      "ÄłCreat": 7224,
      "Äłwhatever": 7225,
      "aine": 7226,
      "ĠÄłcertain": 7227,
      "ĠÄłage": 7228,
      "ĠÄłbook": 7229,
      "Äłchief": 7230,
      "Äłrivers": 7231,
      "alling": 7232,
      "outs": 7233,
      "ĠÄłdev": 7234,
      "Äłends": 7235,
      "Äłenvironments": 7236,
      "ÄłOld": 7237,
      "rying": 7238,
      "ĠÄłlim": 7239,
      "ĠÄłrecent": 7240,
      "ĠÄłreason": 7241,
      "Äłappeared": 7242,
      "Äłmaybe": 7243,
      "Äłblo": 7244,
      "180": 7245,
      "Äłphilosophy": 7246,
      "Äłfloor": 7247,
      "idential": 7248,
      "cientists": 7249,
      "theless": 7250,
      "Äłdepos": 7251,
      "1993": 7252,
      "178": 7253,
      "Äłexplanation": 7254,
      "Äłpresentation": 7255,
      "Äłrealize": 7256,
      "ĠÄłcontrol": 7257,
      "Äłgrant": 7258,
      "ÄłCancer": 7259,
      "Äłlimits": 7260,
      "Äłheads": 7261,
      "Äłflowers": 7262,
      "Äłputting": 7263,
      "Äłdamaged": 7264,
      "ÄłChristmas": 7265,
      "Äłcharacterized": 7266,
      "Äłdifficulties": 7267,
      "Äłnecessarily": 7268,
      "Another": 7269,
      "ĠÄłcommunity": 7270,
      "Äłparticipate": 7271,
      "Äłfeedback": 7272,
      "Äłmaintaining": 7273,
      "Äłliteracy": 7274,
      "Äłmechanisms": 7275,
      "Äłmagnetic": 7276,
      "Äłsusp": 7277,
      "Äłpregnant": 7278,
      "ĠÄłdiscuss": 7279,
      "Äłobtain": 7280,
      "Äłpurchase": 7281,
      "Äłstimul": 7282,
      "Äłcloser": 7283,
      "Äładequate": 7284,
      "Because": 7285,
      "Cont": 7286,
      "Once": 7287,
      "eat": 7288,
      "iability": 7289,
      "ato": 7290,
      "ena": 7291,
      "Äłfell": 7292,
      "Äłdim": 7293,
      "Äłdust": 7294,
      "Äłthor": 7295,
      "cture": 7296,
      "stract": 7297,
      "Äłnarr": 7298,
      "etry": 7299,
      "ette": 7300,
      "igious": 7301,
      "Äłstages": 7302,
      "Äłstroke": 7303,
      "Äłconv": 7304,
      "essions": 7305,
      "ÄłPan": 7306,
      "ÄłBoston": 7307,
      "ĠÄłsl": 7308,
      "unicip": 7309,
      "Äłchapter": 7310,
      "ÄłEth": 7311,
      "ÄłFin": 7312,
      "ÄłRob": 7313,
      "ĠÄłtoo": 7314,
      "ptions": 7315,
      "Äłsharing": 7316,
      "Äłplate": 7317,
      "ÄłOF": 7318,
      "Äłtexts": 7319,
      "Äłunus": 7320,
      "Äłarts": 7321,
      "ysics": 7322,
      "weight": 7323,
      "ÄłVis": 7324,
      "Äłundert": 7325,
      "ÄłYear": 7326,
      "Äłrelation": 7327,
      "Äłproducing": 7328,
      "ĠÄłareas": 7329,
      "Äłoblig": 7330,
      "Äłsupplies": 7331,
      "ĠÄłTo": 7332,
      "Äłeffectiveness": 7333,
      "Äłmedic": 7334,
      "Äłsets": 7335,
      "Äłinsurance": 7336,
      "enger": 7337,
      "Äłvaluable": 7338,
      "Äłelectro": 7339,
      "Äłwriter": 7340,
      "ĠÄłlet": 7341,
      "ÄłAdv": 7342,
      "ĠÄłenc": 7343,
      "Äłgrew": 7344,
      "Äłasking": 7345,
      "Äłcritic": 7346,
      "Äłdomin": 7347,
      "Äłlayers": 7348,
      "Äłarchae": 7349,
      "Äłturning": 7350,
      "ÄłRussia": 7351,
      "Äłjoints": 7352,
      "Äłpowers": 7353,
      "Äłspiritual": 7354,
      "ĠÄłstrong": 7355,
      "ixture": 7356,
      "ÄłRichard": 7357,
      "heimer": 7358,
      "67": 7359,
      "IA": 7360,
      "IR": 7361,
      "OW": 7362,
      "han": 7363,
      "sis": 7364,
      "uilt": 7365,
      "Ġw": 7366,
      "health": 7367,
      "Äłahead": 7368,
      "rection": 7369,
      "onal": 7370,
      "isp": 7371,
      "ita": 7372,
      "itter": 7373,
      "Äłpestic": 7374,
      "oub": 7375,
      "Äłfalse": 7376,
      "Äłmeth": 7377,
      "Äłdial": 7378,
      "Äłhidden": 7379,
      "Äłhoriz": 7380,
      "Äłlatter": 7381,
      "Äłnan": 7382,
      "ÄłTor": 7383,
      "rape": 7384,
      "igue": 7385,
      "irty": 7386,
      "amination": 7387,
      "ÄłIll": 7388,
      "Äłancest": 7389,
      "emple": 7390,
      "ÄłPenn": 7391,
      "ĠÄłcome": 7392,
      "ÄłBrazil": 7393,
      "ĠÄłpain": 7394,
      "ĠÄłsince": 7395,
      "ocate": 7396,
      "ĠÄłfin": 7397,
      "ĠÄłfour": 7398,
      "ĠÄłfree": 7399,
      "Äłcholesterol": 7400,
      "ÄłDen": 7401,
      "ograp": 7402,
      "ĠÄłmult": 7403,
      "Äłshift": 7404,
      "ruit": 7405,
      "Äłplenty": 7406,
      "izer": 7407,
      "ipes": 7408,
      "Äłneu": 7409,
      "Äłtelevision": 7410,
      "Äłclin": 7411,
      "ĠÄłnear": 7412,
      "ĠÄłturn": 7413,
      "ÄłStep": 7414,
      "ificance": 7415,
      "jection": 7416,
      "Äłblind": 7417,
      "Äłdesire": 7418,
      "Äłaccident": 7419,
      "Äłtrials": 7420,
      "erted": 7421,
      "Äłscore": 7422,
      "Äłdecor": 7423,
      "Äłremote": 7424,
      "Äłsmoking": 7425,
      "Äłsmooth": 7426,
      "Äłfounded": 7427,
      "Äłcentre": 7428,
      "Äłsigned": 7429,
      "ĠÄłGen": 7430,
      "Äłrequest": 7431,
      "1994": 7432,
      "Äłdownload": 7433,
      "Äłgenerated": 7434,
      "coming": 7435,
      "Äłbreeding": 7436,
      "Äłcultures": 7437,
      "Äłopposed": 7438,
      "Äłcalories": 7439,
      "Äłswitch": 7440,
      "Äłcircuit": 7441,
      "Äłsensitive": 7442,
      "Äłerror": 7443,
      "Äłconsideration": 7444,
      "aska": 7445,
      "Äłfailed": 7446,
      "Äłindicated": 7447,
      "Äłmicrob": 7448,
      "Äłspeaking": 7449,
      "Äłburning": 7450,
      "ÄłParis": 7451,
      "ĠÄłUnited": 7452,
      "Äłexpectations": 7453,
      "reedom": 7454,
      "ÄłFrank": 7455,
      "Äłuncertain": 7456,
      "piration": 7457,
      "Äłbreath": 7458,
      "ĠÄłrequire": 7459,
      "Äłbehaviors": 7460,
      "Äłfavorite": 7461,
      "ĠÄłlearning": 7462,
      "ycling": 7463,
      "64": 7464,
      "Cons": 7465,
      "EE": 7466,
      "UR": 7467,
      "cend": 7468,
      "df": 7469,
      "fl": 7470,
      "fish": 7471,
      "gers": 7472,
      "mes": 7473,
      "rass": 7474,
      "uv": 7475,
      "uels": 7476,
      "Ġ_": 7477,
      "ĠÃ¢Ä¢Ä¾": 7478,
      "Äłtank": 7479,
      "ĠÄłes": 7480,
      "itan": 7481,
      "Äłtoler": 7482,
      "icing": 7483,
      "Äłmos": 7484,
      "stone": 7485,
      "etting": 7486,
      "ola": 7487,
      "olves": 7488,
      "ÄłSl": 7489,
      "aming": 7490,
      "istence": 7491,
      "acher": 7492,
      "ocus": 7493,
      "ÄłHy": 7494,
      "Äłrank": 7495,
      "rip": 7496,
      "riz": 7497,
      "ÄłFigure": 7498,
      "ÄłFederal": 7499,
      "ĠÄłdue": 7500,
      "asty": 7501,
      "ustainable": 7502,
      "Äłintense": 7503,
      "ĠÄłlittle": 7504,
      "ĠÄłread": 7505,
      "Äłunknown": 7506,
      "Äłagreed": 7507,
      "jected": 7508,
      "Äłacts": 7509,
      "Äłroof": 7510,
      "Äłchildhood": 7511,
      "Äłproviders": 7512,
      "ĠÄłPl": 7513,
      "Äłinfect": 7514,
      "Äłsmoke": 7515,
      "ĠÄłRep": 7516,
      "Äłherb": 7517,
      "Äłdetection": 7518,
      "Äłcenters": 7519,
      "Äłpolar": 7520,
      "Äłentry": 7521,
      "Äłexplo": 7522,
      "ĠÄłJohn": 7523,
      "Äłsupports": 7524,
      "Äłwrites": 7525,
      "Äłplayers": 7526,
      "ĠÄładv": 7527,
      "ÄłExper": 7528,
      "Äłcombat": 7529,
      "Äłfilter": 7530,
      "Äłregardless": 7531,
      "ictionary": 7532,
      "vestig": 7533,
      "Äłreactions": 7534,
      "Äłchallenging": 7535,
      "Äłvariable": 7536,
      "ĠÄłhowever": 7537,
      "ÄłSecond": 7538,
      "Äłinstitution": 7539,
      "Äłuniversal": 7540,
      "Äłarchitecture": 7541,
      "Äłobservations": 7542,
      "Ã£Ä£": 7543,
      "Äłrenewable": 7544,
      "Äłphenomenon": 7545,
      "ikipedia": 7546,
      "59": 7547,
      "63": 7548,
      "Don": 7549,
      "En": 7550,
      "Even": 7551,
      "Ps": 7552,
      "She": 7553,
      "Your": 7554,
      "rat": 7555,
      "uity": 7556,
      "uits": 7557,
      "Ã¦": 7558,
      "Äłfold": 7559,
      "ione": 7560,
      "Äłhoney": 7561,
      "Äłlie": 7562,
      "Äłnerve": 7563,
      "rav": 7564,
      "adder": 7565,
      "ÄłIII": 7566,
      "ÄłCa": 7567,
      "ÄłCast": 7568,
      "ÄłCamp": 7569,
      "Äłproportion": 7570,
      "ÄłPsych": 7571,
      "ĠÄłpur": 7572,
      "ĠÄłpost": 7573,
      "Äłvs": 7574,
      "ocabul": 7575,
      "ÄłHill": 7576,
      "ÄłHave": 7577,
      "ĠÄłauthor": 7578,
      "ĠÄłmar": 7579,
      "ĠÄłdi": 7580,
      "ÄłNative": 7581,
      "Äłships": 7582,
      "Äłresid": 7583,
      "Äłclimb": 7584,
      "itely": 7585,
      "ieval": 7586,
      "ritis": 7587,
      "Äłtract": 7588,
      "lication": 7589,
      "Äłrocks": 7590,
      "ÄłYet": 7591,
      "Äłrelief": 7592,
      "neys": 7593,
      "Äłschem": 7594,
      "ÄłUnfortunately": 7595,
      "Äłregul": 7596,
      "Äłassistance": 7597,
      "ĠÄłEurope": 7598,
      "Äłsky": 7599,
      "Äłdesigns": 7600,
      "Äłcoron": 7601,
      "ĠÄłOn": 7602,
      "Äłmatters": 7603,
      "ĠÄłplan": 7604,
      "Äłconnections": 7605,
      "ĠÄłsuggest": 7606,
      "ÄłCentre": 7607,
      "regation": 7608,
      "Äłbigger": 7609,
      "Äłcovers": 7610,
      "riculture": 7611,
      "Äłinteractions": 7612,
      "ĠÄłdifficult": 7613,
      "ĠÄłspecies": 7614,
      "Äładministration": 7615,
      "Äłfairly": 7616,
      "ĠÄłfollowing": 7617,
      "Äłkidney": 7618,
      "Äłmitig": 7619,
      "ÄłAcademy": 7620,
      "ocabulary": 7621,
      "HA": 7622,
      "OL": 7623,
      "Since": 7624,
      "bed": 7625,
      "pass": 7626,
      "uber": 7627,
      "Ä®": 7628,
      "Äłsight": 7629,
      "Äłcards": 7630,
      "Äłpapers": 7631,
      "arters": 7632,
      "Äłinhib": 7633,
      "Äłment": 7634,
      "ashes": 7635,
      "Äłhop": 7636,
      "imming": 7637,
      "idered": 7638,
      "Äłgram": 7639,
      "race": 7640,
      "ÄłIP": 7641,
      "thm": 7642,
      "ÄłMa": 7643,
      "ivered": 7644,
      "ÄłPM": 7645,
      "ĠÄłcirc": 7646,
      "ĠÄłfamily": 7647,
      "ript": 7648,
      "rize": 7649,
      "ĠÄłmajor": 7650,
      "ĠÄłdays": 7651,
      "ÄłLib": 7652,
      "Äłweigh": 7653,
      "ĠÄłhistor": 7654,
      "ÄłOcean": 7655,
      "ÄłOhio": 7656,
      "Äładoles": 7657,
      "ordinary": 7658,
      "Äłprev": 7659,
      "ĠÄłeas": 7660,
      "Äłthanks": 7661,
      "Äłcommission": 7662,
      "ÄłKeep": 7663,
      "Äłroles": 7664,
      "ĠÄłMar": 7665,
      "erty": 7666,
      "Äłflag": 7667,
      "Äłassigned": 7668,
      "Äłtechnological": 7669,
      "ĠÄłDe": 7670,
      "Äłsignals": 7671,
      "ĠÄłNational": 7672,
      "ÄłAny": 7673,
      "Äłconfig": 7674,
      "Äłdriven": 7675,
      "ospit": 7676,
      "Äłdelivery": 7677,
      "Äłconsume": 7678,
      "Äłstrongly": 7679,
      "Äłauthorities": 7680,
      "Äłzero": 7681,
      "Äłofficers": 7682,
      "holders": 7683,
      "ÄłReport": 7684,
      "Äłwebsites": 7685,
      "ÄłCOVID": 7686,
      "ĠÄłsimilar": 7687,
      "Äłobtained": 7688,
      "imensional": 7689,
      "Äłweakness": 7690,
      "Äłcollaboration": 7691,
      "Äłterritory": 7692,
      "usalem": 7693,
      "Äłpolitics": 7694,
      "ÄłCarolina": 7695,
      "73": 7696,
      "700": 7697,
      "EP": 7698,
      "Figure": 7699,
      "SC": 7700,
      "Sc": 7701,
      "UT": 7702,
      "chen": 7703,
      "craft": 7704,
      "no": 7705,
      "ugh": 7706,
      "zheimer": 7707,
      "Ġcom": 7708,
      "onents": 7709,
      "Äłod": 7710,
      "edu": 7711,
      "oured": 7712,
      "Äłbrows": 7713,
      "Äłmac": 7714,
      "Äłdioxide": 7715,
      "Äłholes": 7716,
      "Äłhusband": 7717,
      "Äłreaching": 7718,
      "Äłlies": 7719,
      "oln": 7720,
      "Äłstake": 7721,
      "amics": 7722,
      "ÄłIreland": 7723,
      "ÄłCurrent": 7724,
      "Äłprove": 7725,
      "Äłconj": 7726,
      "Äłconstit": 7727,
      "ÄłPeter": 7728,
      "ÄłBen": 7729,
      "ÄłHome": 7730,
      "ÄłHaw": 7731,
      "ĠÄłaut": 7732,
      "Äłchart": 7733,
      "ÄłDiff": 7734,
      "ÄłEss": 7735,
      "Äłran": 7736,
      "ÄłFree": 7737,
      "ÄłGulf": 7738,
      "Äłshoot": 7739,
      "ÄłLow": 7740,
      "Äłaband": 7741,
      "Äłabnormal": 7742,
      "ouses": 7743,
      "1950": 7744,
      "Äłincred": 7745,
      "ĠÄłtimes": 7746,
      "Äłpartner": 7747,
      "ailability": 7748,
      "text": 7749,
      "onday": 7750,
      "ffects": 7751,
      "Äłrab": 7752,
      "Äłprovider": 7753,
      "Äłpharm": 7754,
      "Äłoffering": 7755,
      "Äłacknow": 7756,
      "Äładds": 7757,
      "Äłregulations": 7758,
      "cycl": 7759,
      "Äłflour": 7760,
      "icted": 7761,
      "Äłformula": 7762,
      "Äłmode": 7763,
      "Äłextend": 7764,
      "Äłrefuge": 7765,
      "Äłdiscrimination": 7766,
      "Äłclassified": 7767,
      "Äłpossibility": 7768,
      "Äłorganisms": 7769,
      "Äłserver": 7770,
      "ÄłAdditionally": 7771,
      "Äłcapable": 7772,
      "Äłengaged": 7773,
      "ographical": 7774,
      "isco": 7775,
      "Äłfinished": 7776,
      "Äłpreventing": 7777,
      "elfare": 7778,
      "viously": 7779,
      "Äłbiology": 7780,
      "ÄłGeorg": 7781,
      "Äłholds": 7782,
      "opyright": 7783,
      "Äłlabel": 7784,
      "ÄłEmpire": 7785,
      "ĠÄłamount": 7786,
      "ĠÄłHealth": 7787,
      "ÄłPrevention": 7788,
      "Äłdanger": 7789,
      "haust": 7790,
      "Äłcaptured": 7791,
      "Äłcommitment": 7792,
      "Äłcommitted": 7793,
      "Äłaccuracy": 7794,
      "ÄłSecurity": 7795,
      "Äłdecrease": 7796,
      "Äłquantum": 7797,
      "Äłdependent": 7798,
      "ĠÄłoccur": 7799,
      "ioxid": 7800,
      "Äłcryst": 7801,
      "Äłsequence": 7802,
      "Äłcelebrated": 7803,
      "Äłevaluate": 7804,
      "Äłinsects": 7805,
      "ĠÄłcharacter": 7806,
      "Äłnitrogen": 7807,
      "Äłmoisture": 7808,
      "74": 7809,
      "79": 7810,
      "First": 7811,
      "Not": 7812,
      "Rec": 7813,
      "bacco": 7814,
      "east": 7815,
      "from": 7816,
      "ponse": 7817,
      "range": 7818,
      "uan": 7819,
      "yles": 7820,
      "Ġ16": 7821,
      "ĠÄłpp": 7822,
      "ĠÄłÃ¢Ä¢Ä¶": 7823,
      "Äłax": 7824,
      "Äłath": 7825,
      "atial": 7826,
      "esides": 7827,
      "alities": 7828,
      "Äłpounds": 7829,
      "arb": 7830,
      "Äłfulf": 7831,
      "Äłfabric": 7832,
      "Äłben": 7833,
      "Äłbath": 7834,
      "Äłmild": 7835,
      "Äłmold": 7836,
      "rooms": 7837,
      "olutions": 7838,
      "ÄłTime": 7839,
      "Äłforget": 7840,
      "Äłstre": 7841,
      "elesc": 7842,
      "Äłassets": 7843,
      "Äłorient": 7844,
      "Äłalive": 7845,
      "istical": 7846,
      "ÄłPo": 7847,
      "ÄłPop": 7848,
      "ÄłBig": 7849,
      "ĠÄłside": 7850,
      "Äłvillage": 7851,
      "ÄłFort": 7852,
      "ÄłFace": 7853,
      "ĠÄłdel": 7854,
      "Äłsever": 7855,
      "ibl": 7856,
      "Äłcomposed": 7857,
      "Äłclothing": 7858,
      "ensed": 7859,
      "Äłmeal": 7860,
      "Äłsole": 7861,
      "ÄłItalian": 7862,
      "erving": 7863,
      "ÄłKnow": 7864,
      "obile": 7865,
      "Äłagents": 7866,
      "Äłourselves": 7867,
      "fulness": 7868,
      "Äłindigenous": 7869,
      "Äłphosph": 7870,
      "Äłscript": 7871,
      "Äłremark": 7872,
      "inson": 7873,
      "ĠÄłThese": 7874,
      "Äłwhereas": 7875,
      "Äłvarieties": 7876,
      "ĠÄłseveral": 7877,
      "Äłdepth": 7878,
      "Äłmining": 7879,
      "Äłoccas": 7880,
      "ĠÄłrisk": 7881,
      "Äłconsidering": 7882,
      "Äłhyper": 7883,
      "ÄłSpain": 7884,
      "ÄłResources": 7885,
      "Äłopening": 7886,
      "Äłindustries": 7887,
      "Äłnearby": 7888,
      "eneath": 7889,
      "Äłflows": 7890,
      "ĠÄłdeath": 7891,
      "Äłobserve": 7892,
      "Äłturns": 7893,
      "Äłstronger": 7894,
      "ÄłScott": 7895,
      "ricultural": 7896,
      "Äłabsence": 7897,
      "Äłfarming": 7898,
      "Äłtwenty": 7899,
      "Äłcleaning": 7900,
      "Äłexercises": 7901,
      "ĠÄłkind": 7902,
      "Äłintegrated": 7903,
      "Äłarrived": 7904,
      "Äłimplemented": 7905,
      "ĠÄłusually": 7906,
      "ĠÄłgeneral": 7907,
      "Äłdeclared": 7908,
      "Äłrobot": 7909,
      "Äłscreening": 7910,
      "ĠÄłkeep": 7911,
      "Äłprincipal": 7912,
      "ĠÄłcountry": 7913,
      "Äłmanufacturers": 7914,
      "Äłbeliefs": 7915,
      "Äłkilomet": 7916,
      "roductive": 7917,
      "Äłmerely": 7918,
      "Äłrespiratory": 7919,
      "120": 7920,
      "53": 7921,
      "800": 7922,
      "HD": 7923,
      "Today": 7924,
      "fast": 7925,
      "iated": 7926,
      "lvan": 7927,
      "rh": 7928,
      "such": 7929,
      "Ãĸ": 7930,
      "ĠIt": 7931,
      "erry": 7932,
      "Äłske": 7933,
      "Äłchem": 7934,
      "etics": 7935,
      "otton": 7936,
      "Äłgap": 7937,
      "ÄłAccess": 7938,
      "ayer": 7939,
      "ifest": 7940,
      "operation": 7941,
      "ushed": 7942,
      "ÄłMill": 7943,
      "ÄłPC": 7944,
      "ositive": 7945,
      "Äłhel": 7946,
      "ĠÄłpotential": 7947,
      "ortion": 7948,
      "ÄłWhere": 7949,
      "ÄłDev": 7950,
      "Äłru": 7951,
      "ÄłNob": 7952,
      "ÄłNaz": 7953,
      "ÄłGal": 7954,
      "agen": 7955,
      "Äłworst": 7956,
      "plant": 7957,
      "ongue": 7958,
      "ĠÄłterm": 7959,
      "ĠÄłreally": 7960,
      "Äłunw": 7961,
      "Äłevil": 7962,
      "ĠÄłSch": 7963,
      "Äłagency": 7964,
      "ÄłViet": 7965,
      "Äłdesired": 7966,
      "Äłaccommod": 7967,
      "blems": 7968,
      "Äłattend": 7969,
      "Äłsupposed": 7970,
      "Äłdetected": 7971,
      "Äłfinds": 7972,
      "1991": 7973,
      "Äłtreating": 7974,
      "ĠÄłshall": 7975,
      "ĠÄłOne": 7976,
      "Äłmeasuring": 7977,
      "Äłsla": 7978,
      "incoln": 7979,
      "ĠÄłresults": 7980,
      "Äłcreatures": 7981,
      "afe": 7982,
      "Äłpercentage": 7983,
      "ÄłCommunity": 7984,
      "Äłbiom": 7985,
      "Äłresearcher": 7986,
      "Äłfunds": 7987,
      "Äłparticipation": 7988,
      "Äłemerging": 7989,
      "ĠÄłconsider": 7990,
      "Äłregarded": 7991,
      "Äłlifetime": 7992,
      "aturated": 7993,
      "liest": 7994,
      "Äłdiagnosed": 7995,
      "Äłprinting": 7996,
      "ĠÄłspecial": 7997,
      "ĠÄłblood": 7998,
      "Äłirrit": 7999,
      "ENT": 8000,
      "Äłcoastal": 8001,
      "Äłdemonstrate": 8002,
      "Äłdynamic": 8003,
      "ÄłAngel": 8004,
      "Äłinhabit": 8005,
      "Äłsomewhat": 8006,
      "Äłweapons": 8007,
      "ĠÄłeducation": 8008,
      "hentic": 8009,
      "ellectual": 8010,
      "250": 8011,
      "NS": 8012,
      "aus": 8013,
      "door": 8014,
      "ki": 8015,
      "oa": 8016,
      "oids": 8017,
      "su": 8018,
      "zone": 8019,
      "Äłtaste": 8020,
      "ĠÄłself": 8021,
      "Äłsought": 8022,
      "anied": 8023,
      "itarian": 8024,
      "Äłwish": 8025,
      "ali": 8026,
      "ÄłpH": 8027,
      "Äłfur": 8028,
      "Äłfasc": 8029,
      "enter": 8030,
      "Äłelder": 8031,
      "Äłlake": 8032,
      "Äłlaid": 8033,
      "Äłnob": 8034,
      "urse": 8035,
      "ÄłTw": 8036,
      "Äłgained": 8037,
      "igare": 8038,
      "ÄłAND": 8039,
      "Äłconclusion": 8040,
      "acu": 8041,
      "umer": 8042,
      "umbers": 8043,
      "quit": 8044,
      "ĠÄłpast": 8045,
      "ĠÄłsit": 8046,
      "Äłvig": 8047,
      "Äłvote": 8048,
      "ĠÄłfore": 8049,
      "ĠÄłfuture": 8050,
      "ĠÄłfunction": 8051,
      "ÄłDoes": 8052,
      "ÄłEqu": 8053,
      "ĠÄłmil": 8054,
      "ÄłLook": 8055,
      "arding": 8056,
      "Äłseg": 8057,
      "Äłimaging": 8058,
      "Äłdisrupt": 8059,
      "asses": 8060,
      "Äłmanip": 8061,
      "Äłarrest": 8062,
      "overs": 8063,
      "ĠÄłSec": 8064,
      "Äłaccum": 8065,
      "Äłacids": 8066,
      "Äłpoison": 8067,
      "ollowing": 8068,
      "Äłedition": 8069,
      "ĠÄłWith": 8070,
      "ocking": 8071,
      "ĠÄłNorth": 8072,
      "Äłsheet": 8073,
      "ÄłAsian": 8074,
      "thew": 8075,
      "Äłdepart": 8076,
      "Äłboys": 8077,
      "ĠÄłcannot": 8078,
      "ÄłYoung": 8079,
      "Äłpainting": 8080,
      "Äłdemands": 8081,
      "Äłelection": 8082,
      "Äłpassing": 8083,
      "Äłparas": 8084,
      "ercury": 8085,
      "ÄłCommittee": 8086,
      "Äłreceiving": 8087,
      "Äłcomputing": 8088,
      "ĠÄłState": 8089,
      "Äłcomplexity": 8090,
      "ĠÄłcomplete": 8091,
      "Äłemerged": 8092,
      "Äłbarriers": 8093,
      "Äłpersons": 8094,
      "Äłessentially": 8095,
      "Äłintegr": 8096,
      "Äłbringing": 8097,
      "ĠÄłactivity": 8098,
      "iterature": 8099,
      "Äłmessages": 8100,
      "Äłprinted": 8101,
      "Äłtargets": 8102,
      "Äłtransportation": 8103,
      "ĠÄłaccount": 8104,
      "ealand": 8105,
      "Äłelementary": 8106,
      "Äłlaunch": 8107,
      "forcement": 8108,
      "requency": 8109,
      "lymph": 8110,
      "Äłconversation": 8111,
      "Äłdrawn": 8112,
      "Äłfingers": 8113,
      "ĠÄłuntil": 8114,
      "Äłslavery": 8115,
      "71": 8116,
      "DP": 8117,
      "NT": 8118,
      "Over": 8119,
      "Te": 8120,
      "box": 8121,
      "dr": 8122,
      "oices": 8123,
      "rÃĥ": 8124,
      "words": 8125,
      "yc": 8126,
      "Ġ13": 8127,
      "Äłille": 8128,
      "inition": 8129,
      "rend": 8130,
      "reater": 8131,
      "encing": 8132,
      "Äłsales": 8133,
      "ounce": 8134,
      "Äłban": 8135,
      "Äłbanks": 8136,
      "Äłmaps": 8137,
      "Äłmales": 8138,
      "Äłdates": 8139,
      "roat": 8140,
      "Äłhorses": 8141,
      "omans": 8142,
      "Äłren": 8143,
      "Äłnin": 8144,
      "Äłnice": 8145,
      "ÄłTop": 8146,
      "Äłgro": 8147,
      "ÄłSpe": 8148,
      "Äłproof": 8149,
      "umption": 8150,
      "ĠÄłwee": 8151,
      "Äłhence": 8152,
      "Äłexceed": 8153,
      "ivest": 8154,
      "Äłcomments": 8155,
      "aints": 8156,
      "ĠÄłclear": 8157,
      "ÄłBill": 8158,
      "ĠÄłbetter": 8159,
      "ĠÄłfurther": 8160,
      "ÄłWord": 8161,
      "Äłroughly": 8162,
      "ÄłFund": 8163,
      "ĠÄłmus": 8164,
      "ĠÄłmaking": 8165,
      "Äłshapes": 8166,
      "ÄłLight": 8167,
      "agraph": 8168,
      "pling": 8169,
      "akistan": 8170,
      "Äłplot": 8171,
      "Äłcontained": 8172,
      "Äłcontribution": 8173,
      "Äłcontemporary": 8174,
      "Äłclar": 8175,
      "ĠÄłname": 8176,
      "ĠÄłline": 8177,
      "oken": 8178,
      "ĠÄłeither": 8179,
      "ailing": 8180,
      "Äłtrauma": 8181,
      "Äłroads": 8182,
      "Äłracial": 8183,
      "issipp": 8184,
      "ĠÄłMin": 8185,
      "ĠÄłMay": 8186,
      "Äłacute": 8187,
      "aws": 8188,
      "Äłexpansion": 8189,
      "ĠÄłproblem": 8190,
      "arming": 8191,
      "upreme": 8192,
      "Äłexperimental": 8193,
      "ĠÄłWar": 8194,
      "cking": 8195,
      "Äłprocessed": 8196,
      "Äłglobe": 8197,
      "Äłdepartment": 8198,
      "Äłmineral": 8199,
      "Äłpersonnel": 8200,
      "ĠÄłrather": 8201,
      "Äłsupporting": 8202,
      "ĠÄłOr": 8203,
      "Äłlights": 8204,
      "Äłpositions": 8205,
      "sylvan": 8206,
      "ĠÄłplant": 8207,
      "Äłhappening": 8208,
      "ÄłConstitution": 8209,
      "1989": 8210,
      "Äłfacility": 8211,
      "Äłhardware": 8212,
      "ÄłPlant": 8213,
      "Äłvoltage": 8214,
      "Äłdifficulty": 8215,
      "Äłobjective": 8216,
      "ependence": 8217,
      "Äłerrors": 8218,
      "Äłoccurring": 8219,
      "Äłofficer": 8220,
      "Äłargued": 8221,
      "Äłmaintained": 8222,
      "ĠÄłstudies": 8223,
      "Äłintegration": 8224,
      "Äłarrange": 8225,
      "Äłsatellite": 8226,
      "ĠÄłsystems": 8227,
      "Äłimplications": 8228,
      "Äłangle": 8229,
      "Äłframe": 8230,
      "ÄłMuslim": 8231,
      "Äłsettings": 8232,
      "Äłgirl": 8233,
      "ĠÄłknowledge": 8234,
      "Äłguidance": 8235,
      "ÄłISBN": 8236,
      "ÄłProtection": 8237,
      "ĠÄłpopulation": 8238,
      "Äłspectrum": 8239,
      "operative": 8240,
      "ĠÄłconditions": 8241,
      "Äłsenior": 8242,
      "ÄłWindows": 8243,
      "Äłsatisf": 8244,
      "ÄłAtlantic": 8245,
      "ĠÄłassociated": 8246,
      "Äłpermanent": 8247,
      "Äłneighborhood": 8248,
      "61": 8249,
      "BA": 8250,
      "BM": 8251,
      "Int": 8252,
      "See": 8253,
      "Source": 8254,
      "TA": 8255,
      "gov": 8256,
      "iop": 8257,
      "yer": 8258,
      "Ġand": 8259,
      "Ġ15": 8260,
      "ĠÄłthough": 8261,
      "Äłtub": 8262,
      "Äłtropical": 8263,
      "ĠÄłX": 8264,
      "ĠÄłable": 8265,
      "Äłov": 8266,
      "Äłcoffee": 8267,
      "Äłpit": 8268,
      "Äłmice": 8269,
      "stic": 8270,
      "Äłreward": 8271,
      "idal": 8272,
      "ÄłTV": 8273,
      "ÄłTry": 8274,
      "Äłgrain": 8275,
      "uting": 8276,
      "igan": 8277,
      "irms": 8278,
      "ÄłAut": 8279,
      "ÄłSometimes": 8280,
      "ami": 8281,
      "adel": 8282,
      "heric": 8283,
      "ÄłCap": 8284,
      "about": 8285,
      "Äłalter": 8286,
      "emb": 8287,
      "umatic": 8288,
      "ĠÄłcame": 8289,
      "ĠÄłcases": 8290,
      "ÄłBro": 8291,
      "ÄłBab": 8292,
      "ĠÄłpers": 8293,
      "ĠÄłsum": 8294,
      "ĠÄłsense": 8295,
      "ÄłHand": 8296,
      "ĠÄłbusiness": 8297,
      "ĠÄłflow": 8298,
      "ÄłEPA": 8299,
      "Äłrig": 8300,
      "ÄłFamily": 8301,
      "ÄłLin": 8302,
      "Äłusage": 8303,
      "endment": 8304,
      "ÄłOpen": 8305,
      "Äładverse": 8306,
      "Äłcontrovers": 8307,
      "Äłcompost": 8308,
      "Äłresolution": 8309,
      "Äłdiscipl": 8310,
      "ĠÄłnational": 8311,
      "ĠÄłneg": 8312,
      "ĠÄłnatural": 8313,
      "ĠÄłlist": 8314,
      "ĠÄłtaken": 8315,
      "ĠÄłtreatment": 8316,
      "ishop": 8317,
      "Äłunp": 8318,
      "ÄłKe": 8319,
      "Äłoverwhel": 8320,
      "Äłnewly": 8321,
      "Äłanywhere": 8322,
      "Äłproved": 8323,
      "angered": 8324,
      "Äłempt": 8325,
      "Äłsurfaces": 8326,
      "ĠÄłBl": 8327,
      "Äłremoval": 8328,
      "ĠÄłwhole": 8329,
      "Äłheritage": 8330,
      "Äłknowing": 8331,
      "ĠÄłWhat": 8332,
      "Äłartist": 8333,
      "ÄłForce": 8334,
      "ÄłIndians": 8335,
      "pectives": 8336,
      "uset": 8337,
      "ĠÄłrun": 8338,
      "Äłbrings": 8339,
      "Äłeducators": 8340,
      "Äłissued": 8341,
      "ĠÄłleast": 8342,
      "Äłbelieves": 8343,
      "Äłescape": 8344,
      "1987": 8345,
      "Äłparallel": 8346,
      "Äłwheel": 8347,
      "Äłdelivered": 8348,
      "Äłprotecting": 8349,
      "rolled": 8350,
      "Äłcyber": 8351,
      "Äłholding": 8352,
      "ĠÄłrelationship": 8353,
      "1945": 8354,
      "Äłsentence": 8355,
      "Äłdestruction": 8356,
      "Äłfemales": 8357,
      "Äłvegetation": 8358,
      "Äłestimates": 8359,
      "Äłinvestigation": 8360,
      "ÄłMuslims": 8361,
      "Äłepis": 8362,
      "Äłordinary": 8363,
      "Äłdivision": 8364,
      "Äłoccupied": 8365,
      "Äłrecommendations": 8366,
      "Äłreplacement": 8367,
      "Äłvirtual": 8368,
      "otherapy": 8369,
      "About": 8370,
      "Äłantibiotics": 8371,
      "specific": 8372,
      "ÄłScotland": 8373,
      "88": 8374,
      "CL": 8375,
      "Co": 8376,
      "DR": 8377,
      "GS": 8378,
      "LL": 8379,
      "Le": 8380,
      "OM": 8381,
      "Re": 8382,
      "Under": 8383,
      "bles": 8384,
      "dis": 8385,
      "hop": 8386,
      "iors": 8387,
      "jo": 8388,
      "sen": 8389,
      "va": 8390,
      "Ä¦": 8391,
      "hea": 8392,
      "erts": 8393,
      "Äłcaught": 8394,
      "orph": 8395,
      "Äłwisdom": 8396,
      "Äłfed": 8397,
      "Äłtot": 8398,
      "ila": 8399,
      "Äłrely": 8400,
      "oli": 8401,
      "imm": 8402,
      "ÄłTimes": 8403,
      "Äłforth": 8404,
      "ÄłAge": 8405,
      "ÄłAcc": 8406,
      "Äłstead": 8407,
      "Äłstability": 8408,
      "thon": 8409,
      "acob": 8410,
      "achers": 8411,
      "ĠÄłwords": 8412,
      "ÄłPost": 8413,
      "ĠÄłcur": 8414,
      "ÄłBur": 8415,
      "ÄłBrown": 8416,
      "ĠÄłsent": 8417,
      "Äłvill": 8418,
      "ÄłWriting": 8419,
      "ÄłDrug": 8420,
      "ÄłFre": 8421,
      "ÄłForest": 8422,
      "ÄłRh": 8423,
      "ÄłGovern": 8424,
      "ÄłLanguage": 8425,
      "agram": 8426,
      "ĠÄłhapp": 8427,
      "aping": 8428,
      "apse": 8429,
      "Äłcomprom": 8430,
      "Äłcompare": 8431,
      "Äłresc": 8432,
      "ĠÄłlight": 8433,
      "ricts": 8434,
      "ÄłStr": 8435,
      "ÄłStart": 8436,
      "ĠÄłAfric": 8437,
      "ervous": 8438,
      "ĠÄłgroups": 8439,
      "teg": 8440,
      "ritten": 8441,
      "version": 8442,
      "ÄłChange": 8443,
      "Äłrose": 8444,
      "ÄłVictor": 8445,
      "Äłreliable": 8446,
      "Äłscar": 8447,
      "Äłschedule": 8448,
      "Äładdiction": 8449,
      "Äłregist": 8450,
      "Äłsupplements": 8451,
      "ĠÄłhead": 8452,
      "Äłeveryday": 8453,
      "ÄłAlzheimer": 8454,
      "Äłminerals": 8455,
      "ĠÄłalready": 8456,
      "ÄłThough": 8457,
      "Äłclassical": 8458,
      "Äładvis": 8459,
      "Äłbreed": 8460,
      "Äłlowest": 8461,
      "Äłanalys": 8462,
      "Äłmarried": 8463,
      "Äłassociate": 8464,
      "rimary": 8465,
      "Step": 8466,
      "Äłviruses": 8467,
      "Äłimprovement": 8468,
      "Äłinfluenced": 8469,
      "ilson": 8470,
      "Äłlosses": 8471,
      "Äłzone": 8472,
      "ĠÄłupon": 8473,
      "ypically": 8474,
      "Äłargue": 8475,
      "Äłbreaks": 8476,
      "Äłsuperior": 8477,
      "Äłsuffered": 8478,
      "scale": 8479,
      "inois": 8480,
      "Äłearthqu": 8481,
      "ÄłParliament": 8482,
      "Äłoxid": 8483,
      "Äłrespectively": 8484,
      "Äłtissues": 8485,
      "ĠÄłinclude": 8486,
      "criptions": 8487,
      "Äłanalyze": 8488,
      "Äładvantages": 8489,
      "Äłcorner": 8490,
      "Äłhousing": 8491,
      "Äłcopper": 8492,
      "ĠÄłproduction": 8493,
      "Äłexcessive": 8494,
      "reprene": 8495,
      "Äłmathematics": 8496,
      "Äłneurons": 8497,
      "issippi": 8498,
      "',": 8499,
      "05": 8500,
      "69": 8501,
      "EA": 8502,
      "Ed": 8503,
      "Go": 8504,
      "Lear": 8505,
      "Where": 8506,
      "aith": 8507,
      "oz": 8508,
      "oons": 8509,
      "pret": 8510,
      "uy": 8511,
      "yes": 8512,
      "ynt": 8513,
      "Ä½": 8514,
      "ĠV": 8515,
      "Äłtor": 8516,
      "Äłtube": 8517,
      "Äławard": 8518,
      "enza": 8519,
      "ouri": 8520,
      "Äłfix": 8521,
      "Äłmoves": 8522,
      "Äłduration": 8523,
      "Äłlin": 8524,
      "Äłlip": 8525,
      "Äłlens": 8526,
      "charge": 8527,
      "ura": 8528,
      "ayed": 8529,
      "eli": 8530,
      "ÄłIdent": 8531,
      "Ġ.;": 8532,
      "Äłassemb": 8533,
      "Äłconqu": 8534,
      "ĠÄłworks": 8535,
      "estinal": 8536,
      "ÄłPet": 8537,
      "quir": 8538,
      "ĠÄłcity": 8539,
      "ĠÄłcreat": 8540,
      "ĠÄłcreated": 8541,
      "ÄłBra": 8542,
      "ÄłBrain": 8543,
      "ÄłBattle": 8544,
      "ĠÄłpred": 8545,
      "orted": 8546,
      "ĠÄłbre": 8547,
      "ÄłWall": 8548,
      "ÄłDeb": 8549,
      "ÄłFather": 8550,
      "ĠÄłmind": 8551,
      "Äłenables": 8552,
      "plo": 8553,
      "aka": 8554,
      "ĠÄłhaving": 8555,
      "ĠÄłhigher": 8556,
      "ulty": 8557,
      "ÄłOper": 8558,
      "aved": 8559,
      "Äładvert": 8560,
      "achuset": 8561,
      "ĠÄłlar": 8562,
      "ĠÄłlocal": 8563,
      "ĠÄłtest": 8564,
      "ensation": 8565,
      "ÄłStat": 8566,
      "Äłtheme": 8567,
      "ĠÄłgive": 8568,
      "ĠÄłground": 8569,
      "Äłrecover": 8570,
      "Äłprime": 8571,
      "Äłampl": 8572,
      "ventually": 8573,
      "ĠÄłyet": 8574,
      "chnology": 8575,
      "insula": 8576,
      "Äłattitude": 8577,
      "ĠÄłHis": 8578,
      "ĠÄłTe": 8579,
      "Äłforming": 8580,
      "Äłsignificance": 8581,
      "ĠÄłGe": 8582,
      "Äłgrows": 8583,
      "Äłrepair": 8584,
      "ĠÄłalong": 8585,
      "class": 8586,
      "Äłvisited": 8587,
      "ĠÄłshow": 8588,
      "Äłequivalent": 8589,
      "Äłcorrel": 8590,
      "Äłmatch": 8591,
      "Äłcontrols": 8592,
      "Äłoldest": 8593,
      "bean": 8594,
      "Äłgrid": 8595,
      "aneously": 8596,
      "Äłconsumer": 8597,
      "Äłautism": 8598,
      "ÄłJohnson": 8599,
      "ĠÄłoper": 8600,
      "Äłphoto": 8601,
      "ĠÄłprevent": 8602,
      "Äłsummary": 8603,
      "ÄłImm": 8604,
      "ÄłWithout": 8605,
      "Äłreplaced": 8606,
      "ĠÄłconsidered": 8607,
      "ÄłWho": 8608,
      "ĠÄłworking": 8609,
      "Äłencouraged": 8610,
      "Äłvariations": 8611,
      "Äłcounsel": 8612,
      "Äłheavily": 8613,
      "ÄłMinister": 8614,
      "Äłvitamins": 8615,
      "Äłaccurately": 8616,
      "Äłtowns": 8617,
      "Äłtrip": 8618,
      "Äłordered": 8619,
      "ÄłParty": 8620,
      "ÄłArticle": 8621,
      "Äłdemonstrated": 8622,
      "Äłcarrying": 8623,
      "ĠÄłcentury": 8624,
      "978": 8625,
      "Äłasthma": 8626,
      "ĠÄłlevels": 8627,
      "Äłsurprising": 8628,
      "Äłdestroyed": 8629,
      "ĠÄłreturn": 8630,
      "Äłmortality": 8631,
      "ĠÄłEnglish": 8632,
      "Despite": 8633,
      "Äłinspired": 8634,
      "Äłsubsequent": 8635,
      "Äłtraditions": 8636,
      "ĠÄłAmerica": 8637,
      "Äłglucose": 8638,
      "rapeut": 8639,
      "ospitals": 8640,
      "sylvania": 8641,
      "achusetts": 8642,
      "'m": 8643,
      ".;": 8644,
      "Am": 8645,
      "CE": 8646,
      "CP": 8647,
      "Let": 8648,
      "Note": 8649,
      "Pre": 8650,
      "People": 8651,
      "Sp": 8652,
      "function": 8653,
      "kl": 8654,
      "wa": 8655,
      "Ã¯": 8656,
      "Äª": 8657,
      "ÄłÃĥ": 8658,
      "ĠÄłQ": 8659,
      "ĠÄłrad": 8660,
      "Äłsaving": 8661,
      "Äłcav": 8662,
      "Äłcotton": 8663,
      "alo": 8664,
      "Äłpair": 8665,
      "arians": 8666,
      "Äłfisher": 8667,
      "Äłbat": 8668,
      "Äłblow": 8669,
      "Äłmg": 8670,
      "ctu": 8671,
      "sts": 8672,
      "Äłislands": 8673,
      "Äłgardens": 8674,
      "Äłstrain": 8675,
      "Äłstuff": 8676,
      "ÄłSing": 8677,
      "ador": 8678,
      "advant": 8679,
      "ÄłCy": 8680,
      "ÄłCop": 8681,
      "ÄłCell": 8682,
      "ifted": 8683,
      "Äłpromin": 8684,
      "oda": 8685,
      "essential": 8686,
      "ÄłMath": 8687,
      "ĠÄłsym": 8688,
      "ÄłHoly": 8689,
      "Äłchosen": 8690,
      "ÄłDutch": 8691,
      "Äłwasn": 8692,
      "Äłdeeper": 8693,
      "ogy": 8694,
      "rix": 8695,
      "ÄłFe": 8696,
      "ÄłFour": 8697,
      "ÄłFind": 8698,
      "Äłnoticed": 8699,
      "ÄłLess": 8700,
      "Äłspots": 8701,
      "Äłspray": 8702,
      "peror": 8703,
      "asts": 8704,
      "aren": 8705,
      "1930": 8706,
      "Äłincent": 8707,
      "Äłcontamin": 8708,
      "ĠÄłlanguage": 8709,
      "Äłmeals": 8710,
      "Äłoutcome": 8711,
      "ĠÄłAll": 8712,
      "ĠÄłAss": 8713,
      "ĠÄłSo": 8714,
      "ĠÄłShe": 8715,
      "iano": 8716,
      "ervoir": 8717,
      "ÄłVer": 8718,
      "Äłrac": 8719,
      "Äłproven": 8720,
      "Äłflash": 8721,
      "Äłexamined": 8722,
      "akespe": 8723,
      "Äłinsight": 8724,
      "Äłdefend": 8725,
      "Äłmyth": 8726,
      "ranean": 8727,
      "ĠÄłalways": 8728,
      "Äłmembran": 8729,
      "ĠÄłrights": 8730,
      "ĠÄłshort": 8731,
      "azon": 8732,
      "Äłcareful": 8733,
      "Äłequation": 8734,
      "mann": 8735,
      "Äłantioxid": 8736,
      "Äłmarkets": 8737,
      "retary": 8738,
      "Äłscientist": 8739,
      "1985": 8740,
      "including": 8741,
      "Äłparad": 8742,
      "Äłgranted": 8743,
      "ÄłColon": 8744,
      "Äłchoosing": 8745,
      "Äłfarms": 8746,
      "position": 8747,
      "ÄłChristians": 8748,
      "Äłcircle": 8749,
      "Äłprotective": 8750,
      "rels": 8751,
      "Äłsensitivity": 8752,
      "Äłemployed": 8753,
      "Äłvertical": 8754,
      "Äłfatty": 8755,
      "Äłfatigue": 8756,
      "Äłwindows": 8757,
      "Äłcattle": 8758,
      "Äłengineers": 8759,
      "Äłmeasurements": 8760,
      "ucky": 8761,
      "Äłsunlight": 8762,
      "Äłversus": 8763,
      "Äłlabour": 8764,
      "Äłseemed": 8765,
      "Äłthreats": 8766,
      "Äłcorrectly": 8767,
      "ÄłPerhaps": 8768,
      "ÄłConservation": 8769,
      "Äłsilver": 8770,
      "ogenic": 8771,
      "Äłjudge": 8772,
      "Äłelsewhere": 8773,
      "Äłbeauty": 8774,
      "Äłmountain": 8775,
      "ĠÄłcountries": 8776,
      "Äłhonor": 8777,
      "amilies": 8778,
      "ĠÄłeconomic": 8779,
      "ĠÄłrepresent": 8780,
      "Äłisolated": 8781,
      "Äłunlikely": 8782,
      "ÄłMartin": 8783,
      "Äłneutral": 8784,
      "Äłsubstantial": 8785,
      "riendly": 8786,
      "Äłbiodiversity": 8787,
      "ivestock": 8788,
      "52": 8789,
      "77": 8790,
      "DS": 8791,
      "Each": 8792,
      "Last": 8793,
      "OC": 8794,
      "car": 8795,
      "length": 8796,
      "net": 8797,
      "oin": 8798,
      "spe": 8799,
      "Ä¶": 8800,
      "Äłtut": 8801,
      "ĠÄłur": 8802,
      "inces": 8803,
      "Äłtheore": 8804,
      "Äłtheories": 8805,
      "Äłcure": 8806,
      "itory": 8807,
      "itled": 8808,
      "Äłwaves": 8809,
      "also": 8810,
      "Äłped": 8811,
      "Äłpel": 8812,
      "Äłfurn": 8813,
      "Äłfuels": 8814,
      "Äłtobacco": 8815,
      "Äłmixture": 8816,
      "Äłdance": 8817,
      "Äłdating": 8818,
      "asures": 8819,
      "Äłholid": 8820,
      "omatic": 8821,
      "chain": 8822,
      "Äłbears": 8823,
      "ÄłTim": 8824,
      "Äłgum": 8825,
      "andemic": 8826,
      "ÄłAM": 8827,
      "ÄłSund": 8828,
      "amber": 8829,
      "ÄłCat": 8830,
      "Ġ.)": 8831,
      "Äłprohib": 8832,
      "Äłwithdraw": 8833,
      "mentia": 8834,
      "Äłorbit": 8835,
      "ÄłMer": 8836,
      "ÄłMag": 8837,
      "umans": 8838,
      "Äłexhaust": 8839,
      "ĠÄłpractice": 8840,
      "ĠÄłsold": 8841,
      "ÄłHall": 8842,
      "ÄłEst": 8843,
      "ÄłEastern": 8844,
      "Äłrational": 8845,
      "ÄłRock": 8846,
      "ÄłRoyal": 8847,
      "ĠÄłtogether": 8848,
      "ptic": 8849,
      "ostic": 8850,
      "ÄłLittle": 8851,
      "Äłplain": 8852,
      "ĠÄłharm": 8853,
      "1940": 8854,
      "ÄłOxford": 8855,
      "Äłdispl": 8856,
      "Äłdisability": 8857,
      "ĠÄłlab": 8858,
      "ĠÄłloss": 8859,
      "uba": 8860,
      "ologic": 8861,
      "ologically": 8862,
      "Äłevident": 8863,
      "luded": 8864,
      "obby": 8865,
      "ĠÄłComp": 8866,
      "Äłaged": 8867,
      "ontal": 8868,
      "neum": 8869,
      "icking": 8870,
      "archy": 8871,
      "Äłinterventions": 8872,
      "Äłdefect": 8873,
      "Äłdipl": 8874,
      "ÄłThree": 8875,
      "eeding": 8876,
      "Äłbridge": 8877,
      "Äłestimate": 8878,
      "Äłmetaph": 8879,
      "ÄłAndrew": 8880,
      "ika": 8881,
      "ĠÄłimplement": 8882,
      "Äłcourts": 8883,
      "Äłtemple": 8884,
      "Äłphysician": 8885,
      "ÄłAdministration": 8886,
      "Äłcapabilities": 8887,
      "Äłoperational": 8888,
      "ĠThere": 8889,
      "1986": 8890,
      "Äłwarning": 8891,
      "Äłfaces": 8892,
      "ÄłColumb": 8893,
      "Äłruns": 8894,
      "Äłfourth": 8895,
      "ÄłBeing": 8896,
      "ÄłBefore": 8897,
      "Äłpeer": 8898,
      "Äłconsumed": 8899,
      "Äłdiscussions": 8900,
      "Äłensuring": 8901,
      "Äłfalls": 8902,
      "Äłurine": 8903,
      "sequently": 8904,
      "Äłconcerning": 8905,
      "Äłsentences": 8906,
      "Äłinteractive": 8907,
      "attles": 8908,
      "parts": 8909,
      "Äłvariables": 8910,
      "ĠÄłphysical": 8911,
      "Äłvaccines": 8912,
      "ĠÄłblack": 8913,
      "Äłattempts": 8914,
      "ĠÄłrole": 8915,
      "Äłestablishing": 8916,
      "ĠÄłincreased": 8917,
      "Äłpanel": 8918,
      "Äłnutrient": 8919,
      "ĠÄłvalue": 8920,
      "Äłsavings": 8921,
      "Äłsacr": 8922,
      "ĠÄłcells": 8923,
      "ÄłJerusalem": 8924,
      "ublishing": 8925,
      "Äłunusual": 8926,
      "Äłseverity": 8927,
      "akespeare": 8928,
      ".'": 8929,
      "?\"": 8930,
      "Eng": 8931,
      "IF": 8932,
      "Or": 8933,
      "SR": 8934,
      "bury": 8935,
      "ji": 8936,
      "she": 8937,
      "soft": 8938,
      "tra": 8939,
      "there": 8940,
      "world": 8941,
      "you": 8942,
      "Ä±": 8943,
      "Äłid": 8944,
      "ÄłÃĥÄ": 8945,
      "Äłlymph": 8946,
      "Äłtort": 8947,
      "Äłtens": 8948,
      "Äłtack": 8949,
      "ĠÄłce": 8950,
      "onent": 8951,
      "ati": 8952,
      "Äłsad": 8953,
      "Äłsizes": 8954,
      "esh": 8955,
      "Äłcort": 8956,
      "Äłcosm": 8957,
      "Äłwait": 8958,
      "Äłpy": 8959,
      "Äłpra": 8960,
      "arks": 8961,
      "Äłfats": 8962,
      "entral": 8963,
      "ÄłType": 8964,
      "ÄłAP": 8965,
      "uled": 8966,
      "aya": 8967,
      "amous": 8968,
      "mented": 8969,
      "ema": 8970,
      "acent": 8971,
      "ĠÄłwant": 8972,
      "ĠÄłwhether": 8973,
      "ĠÄłsw": 8974,
      "ĠÄłsays": 8975,
      "ĠÄłfac": 8976,
      "ÄłWorks": 8977,
      "Äłchair": 8978,
      "ÄłEll": 8979,
      "ÄłFact": 8980,
      "Äłshot": 8981,
      "ÄłLo": 8982,
      "izers": 8983,
      "ĠÄłhard": 8984,
      "1920": 8985,
      "endar": 8986,
      "Äłintent": 8987,
      "Äłintention": 8988,
      "Äłincident": 8989,
      "avirus": 8990,
      "rypt": 8991,
      "Äłresil": 8992,
      "2021": 8993,
      "2022": 8994,
      "Äłmanaging": 8995,
      "Äłbutton": 8996,
      "Äłperm": 8997,
[...]
