{"[UNK]": 0, "<|endoftext|>": 1, "\u0120Henry\u00c3\u00a2": 2, "\u0120messes": 3, "\u0120velvet": 4, "\u0120surprising": 5, "Tazitey": 6, "\u0120labeling": 7, "\u0120back\u00c3\u00a2": 8, "\u0120embarrassing": 9, "\u0120loooooved": 10, "\u0120pianist": 11, "\u0120dismay": 12, "\u0120Polli": 13, "\u0120THIS": 14, "nce": 15, "\u0120Tic": 16, "\u0120ca": 17, "\u00c5\u0135And": 18, "Young": 19, "\u0120ZIPP": 20, "\u0120firewomen": 21, "Clark": 22, "\u0120Pedro": 23, "\u0120dales": 24, "\u0120sing": 25, "Paws": 26, "\u0120dwell": 27, "\u0120was": 28, "Na": 29, "ol": 30, "\u0120unrewarded": 31, "\u0120Eager": 32, "\u0120Pap": 33, "\u0120comfortingly": 34, "\u0120Anna": 35, "\u0120Nature": 36, "\u0120lepard": 37, "\u0120Crocodiles": 38, "\u0120Harvey": 39, "\u0120odds": 40, "vanilla": 41, "\u0120Lollipops": 42, "\u0120everlasting": 43, "\u0120nips": 44, "\u0120regretfully": 45, "\u0120hamper": 46, "\u0120potential": 47, "\u0120zipped": 48, "Ka": 49, "\u0120misbehavior": 50, "per": 51, "\u0120popping": 52, "\u0120strips": 53, "\u0120Feeb": 54, "\u0120JuJu": 55, "\u0120ugliness": 56, "\u0120Seeing": 57, "something": 58, "\u0120Leigh": 59, "\u0120identical": 60, "\u0120meteorite": 61, "\u0120Sweetheart": 62, "\u0120Kiko": 63, "\u0120calendar": 64, "Keep": 65, "\u0120mouseling": 66, "\u0120everything\u00c3\u00a2": 67, "\u0120Bim": 68, "\u0120starvation": 69, "\u0120Lorraine": 70, "\u0120stubb": 71, "\u0120wails": 72, "Maisie": 73, "\u0120fungus": 74, "\u0120starling": 75, "Kiko": 76, "\u0120erupt": 77, "\u0120gravel": 78, "Emma": 79, "fl": 80, "\u0120rushed": 81, "\u0120Marge": 82, "\u0120Blankie": 83, "\u0120\u0120\u0120\u010a": 84, "\u0120tucked": 85, "Broccoli": 86, "\u0120admitting": 87, "\u0120flicks": 88, "\u0120report": 89, "\u0120dishcloth": 90, "Kanga": 91, "\u0120apologizes": 92, "Stu": 93, "\u0120shoves": 94, "\u0120drool": 95, "\u0120Honey": 96, "\u0120mohawk": 97, "Grampy": 98, "clack": 99, "\u00c5\u0135Happy": 100, "\u0120Cheng": 101, "\u0120blackness": 102, "\u0120Dad\u00c3\u00a2": 103, "\u0120Wombat": 104, "Yell": 105, "\u0120sniffing": 106, "\u0120soapsuds": 107, "\u0120adventerous": 108, "\u0120Kippy": 109, "\u0120landed": 110, "\u0120Unlike": 111, "\u0120hateful": 112, "\u0120typed": 113, "\u0120livingroom": 114, "\u0120shopkeepers": 115, "\u0120Hey": 116, "Lemonade": 117, "\u0120unbelievable": 118, "\u0120litte": 119, "\u0120buying": 120, "\u0120flames": 121, "\u0120summit": 122, "\u0120his": 123, "\u0120nettle": 124, "\u0120Nobody": 125, "\u0120noon": 126, "regular": 127, "\u0120companion": 128, "\u0120sicker": 129, "\u0120Pastry": 130, "\u0120hugs": 131, "\u0120Blur": 132, "hurricane": 133, "rays": 134, "\u0120Earl": 135, "\u0120reconnect": 136, "horse": 137, "\u0120coating": 138, "\u0120sprinklers": 139, "\u0120towering": 140, "Gerry": 141, "Zog": 142, "\u0120Bru": 143, "\u0120chalky": 144, "\u0120defender": 145, "\u0120Comp": 146, "\u0120strainer": 147, "\u0120Squirly": 148, "\u0120ends": 149, "\u0120miners": 150, "\u0120reports": 151, "\u0120sums": 152, "\u0120bulky": 153, "Swift": 154, "\u0120brace": 155, "\u0120recede": 156, "\u0120violins": 157, "\u00c5\u0135By": 158, "\u0120boarding": 159, "\u0120Snaky": 160, "\u0120tweezer": 161, "\u0120healer": 162, "\u0120shuffles": 163, "\u0120pour": 164, "\u0120Leader": 165, "\u0120steam": 166, "\u0120Cucumber": 167, "\u0120Tim\u00c3\u00a2": 168, "Occasionally": 169, "\u0120bunches": 170, "\u0120chomping": 171, "\u0120overly": 172, "\u0120gentleman": 173, "\u0120Bulbs": 174, "\u0120thief": 175, "\u0120sincerity": 176, "\u0120younger": 177, "\u0120scrubbed": 178, "Tabby": 179, "Presley": 180, "three": 181, "....\"": 182, "\u0120cruising": 183, "\u0120stringy": 184, "\u0120costed": 185, "Tiggy": 186, "Marina": 187, "\u0120rhythms": 188, "\u0120crotch": 189, "\u0120Carlotta": 190, "\u0120smears": 191, "Bernie": 192, "Giri": 193, "Swings": 194, "Touch": 195, "\u0120potluck": 196, "\u0120Esmie": 197, "\u0120seafloor": 198, "\u0120curtsy": 199, "\u0120emptied": 200, "\u0120showed": 201, "\u0120wealthiest": 202, "\u0120en": 203, "\u0120Kato": 204, "Kevin": 205, "\u0120delicacy": 206, "\u0120Doc": 207, "Yvonne": 208, "\u0120seabirds": 209, "\u0120Barky": 210, "\u0120Zack": 211, "Bones": 212, "\u0120bothersome": 213, "\u0120dusty": 214, "\u0120Against": 215, "\u0120wall": 216, "\u0120gar": 217, "\u0120awaits": 218, "\u0120Thinking": 219, "\u0120allowing": 220, "\u0120hefted": 221, "\u0120litter": 222, "\u0120unwrapping": 223, "\u0120wavy": 224, "\u0120Zoo": 225, "\u0120Grama": 226, "\u0120buses": 227, "brimmed": 228, "License": 229, "\u0120lean": 230, "Tickle": 231, "\u0120undergrowth": 232, "aaa": 233, "\u0120curls": 234, "\u0120stroll": 235, "Exercise": 236, "\u0120amusement": 237, "\u0120skeletal": 238, "\u0120net": 239, "\u0120arcade": 240, "\u0120Examining": 241, "\u0120spotting": 242, "\u0120Marilla": 243, "\u0120Swing": 244, "Coming": 245, "\u0120berry": 246, "\u0120gooseberry": 247, "\u0120hope": 248, "\u0120power": 249, "\u0120Benson": 250, "\u0120brunch": 251, "\u0120Tease": 252, "\u0120powered": 253, "\u0120Soak": 254, "\u0120loser": 255, "\u0120vase": 256, "\u0120honey": 257, "\u0120intruders": 258, "\u0120Didn": 259, "riding": 260, "\u0120trinkets": 261, "\u0120minor": 262, "\u0120pillar": 263, "with": 264, "\u0120brings": 265, "\u0120turkey": 266, "\u0120lasted": 267, "\u0120owning": 268, "\u0120yearned": 269, "\u0120Alec": 270, "\u0120ugh": 271, "\u0120ignored": 272, "\u0120\u00c3\u00a2": 273, "\u0120planets": 274, "\u0120truly": 275, "\u0120Knobby": 276, "\u0120mewing": 277, "\u0120frisbee": 278, "\u0120where\u00c3\u00a2": 279, "\u0120silvery": 280, "\u0120Her": 281, "\u0120fiercely": 282, "\u0120fiercest": 283, "\u0120strand": 284, "\u0120Nat": 285, "\u0120order": 286, "\u0120ape": 287, "Lillian": 288, "\u0120pulse": 289, "\u0120collected": 290, "\u0120flair": 291, "\u0120Ebony": 292, "\u0120Glad": 293, "wash": 294, "ame": 295, "\u0120Spoiled": 296, "\u0120goo": 297, "Pumpkin": 298, "\u0120recycled": 299, "\u0120Hurriedly": 300, "\u0120leaded": 301, "Madam": 302, "\u0120chocolat": 303, "\u0120stretched": 304, "\u0120Seven": 305, "\u0120shocking": 306, "\u0120pristine": 307, "\u0120sung": 308, "\u0120Francis": 309, "\u0120browning": 310, "\u0120struggles": 311, "eather": 312, "\u0120suspense": 313, "\u0120pet": 314, "\u0120yapping": 315, "awake": 316, "\u0120drips": 317, "\u0120Lemon": 318, "Security": 319, "ug": 320, "Christine": 321, "\u0120Baby": 322, "\u0120haircutter": 323, "\u0120Sneaky": 324, "\u0120resort": 325, "\u0120James\u00c3\u00a2": 326, "\u0120console": 327, "ENVIOUS": 328, "\u0120Grime": 329, "\u0120Caitlin": 330, "\u0120Dinosaurs": 331, "\u0120beamed": 332, "\u0120licenses": 333, "tty": 334, "\u0120gripped": 335, "\u0120Raju": 336, "\u0120disciplining": 337, "\u0120attempts": 338, "grrr": 339, "\u0120Tyle": 340, "\u0120Tash": 341, "Turty": 342, "\u0120flowerbeds": 343, "Copper": 344, "\u0120choreograph": 345, "Juno": 346, "\u0120Froggie": 347, "\u0120drains": 348, "\u0120ruckus": 349, "\u0120Gabbi": 350, "Burt": 351, "\u0120Deb": 352, "\u0120jewelled": 353, "\u0120missed": 354, "\u0120colds": 355, "\u0120whiskered": 356, "\u0120Deciding": 357, "\u0120ethic": 358, "\u0120yelped": 359, "Dicky": 360, "\u0120soothe": 361, "\u0120patch": 362, "\u0120Tooley": 363, "\u0120excuse": 364, "Thumper": 365, "\u0120option": 366, "\u0120whirring": 367, "\u0120Val": 368, "\u0120invitations": 369, "\u0120crouch": 370, "\u0120stallion": 371, "Brain": 372, "\u0120puncture": 373, "\u0120tweezers": 374, "\u0120fingertips": 375, "\u0120zigged": 376, "Carter": 377, "Marky": 378, "\u0120smart": 379, "\u0120detergent": 380, "\u0120captain\u00c3\u00a2": 381, "\u00c5\u0135Woof": 382, "\u0120Raina": 383, "\u0120pitter": 384, "\u0120Sonic": 385, "\u0120noose": 386, "Snowy": 387, "\u0120joy": 388, "\u0120undoing": 389, "\u0120labyrinth": 390, "\u0120mums": 391, "\u0120geese": 392, "\u0120presented": 393, "\u0120Deni": 394, "\u0120notices": 395, "\u0120informed": 396, "\u0120Unicorns": 397, "\u0120bland": 398, "\u0120matter": 399, "\u0120wrecked": 400, "Arthur": 401, "\u0120Tickles": 402, "Elli": 403, "\u0120Yuliya": 404, "\u00c5\u0135Alice": 405, "\u0120earthy": 406, "\u0120met": 407, "\u0120arugula": 408, "\u0120Sylvia": 409, "Aaron": 410, "\u0120preschool": 411, "Snuffle": 412, "\u0120spew": 413, "\u0120Hay": 414, "\u0120host": 415, "\u0120unlike": 416, "\u0120napkins": 417, "late": 418, "\u0120fountain": 419, "Tanner": 420, "\u0120whimsical": 421, "Jonathan": 422, "\u0120grain": 423, "\u00af": 424, "\u0120pencil": 425, "Beetles": 426, "lucky": 427, "\u0120shakes": 428, "\u0120serving": 429, "\u0120fist": 430, "Foxes": 431, "\u0120tumbling": 432, "Chester": 433, "\u0120Purse": 434, "Scatter": 435, "\u0120convenience": 436, "\u0120crooked": 437, "\u0120ripening": 438, "\u0120estate": 439, "hu": 440, "Church": 441, "\u0120clambered": 442, "''.": 443, "inspiring": 444, "\u0120Faster": 445, "growing": 446, "rock": 447, "\u0120Jelena": 448, "\u0120enthusiasm": 449, "\u0120Rosa": 450, "\u0120raven": 451, "\u0120Kumi": 452, "\u0120pie": 453, "Mai": 454, "\u0120Obey": 455, "\u0120browsing": 456, "CAW": 457, "\u0120differently": 458, "Quick": 459, "Slap": 460, "\u0120increment": 461, "\u0120goodnights": 462, "\u0120bulls": 463, "\u0120steadier": 464, "\u0120doughy": 465, "\u0120killer": 466, "\u0120pouncing": 467, "\u0120Wendy": 468, "Gabriel": 469, "\u0120energizing": 470, "\u0120hugger": 471, "\u0120swift": 472, "\u0120flaws": 473, "\u0120Leslie": 474, "Reliable": 475, "\u0120accompany": 476, "\u0120tradition": 477, "\u0120Pruning": 478, "\u0120cuddle": 479, "\u0120Bizzy": 480, "\u0120squelched": 481, "\u00c5\u0135let": 482, "\u0120Gary": 483, "\u0120du": 484, "\u0120Envious": 485, "Kayla": 486, "\u0120Tomas": 487, "\u0120pens": 488, "\u0120orchard": 489, "level": 490, "Rabbie": 491, "\u0120spread": 492, "\u0120ending": 493, "\u0120bowlful": 494, "\u0120Fake": 495, "\u0120cardinal": 496, "\u0120fla": 497, "\u0120Chickie": 498, "tocked": 499, "\u0120Word": 500, "joke": 501, "\u0120astronaut": 502, "Memory": 503, "\u0120rectangles": 504, "\u0120sympathy": 505, "\u0120bedding": 506, "laugh": 507, "\u0120except": 508, "currant": 509, "\u0120solved": 510, "\u0120procedure": 511, "\u0120piggies": 512, "\u0120drawstring": 513, "\u0120meanwhile": 514, "\u0120Evil": 515, "find": 516, "Sleeping": 517, "\u0120overheated": 518, "\u0120Pull": 519, "\u0120Half": 520, "\u0120uns": 521, "\u0120J": 522, "\u0120murmuring": 523, "\u0120Alana": 524, "\u0120characters": 525, "\u0120blade": 526, "\u0120being": 527, "\u0120encourages": 528, "pack": 529, "Reluctantly": 530, "\u0120Display": 531, "\u0120mustered": 532, "\u0120tastier": 533, "bert": 534, "\u0120colorful": 535, "Patience": 536, "\u0120coffee": 537, "\u0120overcooked": 538, "\u0120neighbor\u00c3\u00a2": 539, "\u0120untangled": 540, "\u0120started": 541, "\u0120shopkeeper": 542, "\u0120Nellie": 543, "\u0120ladybirds": 544, "\u0120wonderful": 545, "these": 546, "\u0120photography": 547, "uit": 548, "Har": 549, "\u0120Giraffe": 550, "\u0120couldn": 551, "bling": 552, "\u0120unluckily": 553, "\u0120moods": 554, "\u0120restock": 555, "\u0120intensity": 556, "\u0120Pot": 557, "Clouds": 558, "\u0120Brett": 559, "King": 560, "\u0120concerts": 561, "Flowers": 562, "\u0120Compost": 563, "Whooosh": 564, "\u0120inhabit": 565, "\u0120Snowy": 566, "\u0120rrrrr": 567, "Yo": 568, "'\".": 569, "Abbie": 570, "Popcorn": 571, "\u0120pterodactyl": 572, "\u0120Money": 573, "\u0120clays": 574, "\u0120wisteria": 575, "\u0120broccolis": 576, "\u0120forklift": 577, "\u0120disliked": 578, "\u0120Timon": 579, "\u0120classmates": 580, "\u0120End": 581, "\u0120Jack\u00c3\u00a2": 582, "\u0120jumping": 583, "Collect": 584, "Joan": 585, "\u0120welfare": 586, "\u0120activated": 587, "\u0120Magnet": 588, "\u0120opener": 589, "\u0120jolt": 590, "hang": 591, "\u0120apprehensive": 592, "\u0120Aida": 593, "\u0120sit": 594, "\u0120wastebasket": 595, "\u0120okapi": 596, "\u0120outage": 597, "broken": 598, "\u0120sweets": 599, "\u0120caressed": 600, "\u0120hinted": 601, "\u0120floorboards": 602, "\u0120Petal": 603, "\u0120Diane": 604, "\u0120rafting": 605, "\u0120lactose": 606, "\u0120Here": 607, "\u0120liberated": 608, "\u0120airline": 609, "\u0120Croaky": 610, "\u0120betrayed": 611, "\u0120vanished": 612, "Krista": 613, "\u0120much\u00c3\u00a2": 614, "\u0120compartments": 615, "\u0120Kisa": 616, "\u0120tuft": 617, "bies": 618, "\u0120crutches": 619, "Min": 620, "Grape": 621, "\u0120ukulele": 622, "\u0120kiss": 623, "\u0120endured": 624, "\u0120!": 625, "\u0120Toy": 626, "AAAHHH": 627, "\u0120racing": 628, "\u0120marcher": 629, "Above": 630, "Moley": 631, "2": 632, "Daisy": 633, "\u0120columns": 634, "\u0120happily": 635, "\u00c5\u0135Show": 636, "\u0120challenged": 637, "\u0120Chlo\u00c3\u0125": 638, "Smokey": 639, "\u0120wept": 640, "\u0120retreated": 641, "\u0120trundled": 642, "Season": 643, "\u0120overhear": 644, "Lavender": 645, "Nelly": 646, "\u0120acceptance": 647, "\u0120pollution": 648, "\u0120Beans": 649, "little": 650, "Midge": 651, "\u0120had": 652, "dangerous": 653, "\u0120alternate": 654, "\u0120Until": 655, "\u0120Fairyland": 656, "Malia": 657, "Mosquito": 658, "Mellie": 659, "\u0120problems": 660, "\u0120Danny": 661, "Lesley": 662, "\u0120tying": 663, "\u0120cloaks": 664, "\u0120hopes": 665, "Jimmie": 666, "\u0120no\u00c3\u00a2": 667, "Donate": 668, "\u0120films": 669, "\u0120inventing": 670, "\u0120Lukas": 671, "\u0120wilds": 672, "\u0120Rojo": 673, "\u0120Toot": 674, "Moses": 675, "\u0120decreasing": 676, "\u0120yours": 677, "\u0120graduated": 678, "ul": 679, "\u0120waterfall": 680, "\u0120shovelled": 681, "\u0120Tops": 682, "\u0120seagrass": 683, "\u0120mans": 684, "\u0120Cecil": 685, "\u0120craft": 686, "\u0120pictured": 687, "Property": 688, "Prunes": 689, "crocodile": 690, "include": 691, "show": 692, "Scruffles": 693, "Rich": 694, "\u0120greenery": 695, "\u0120sermon": 696, "\u0120Owly": 697, "\u0120discovers": 698, "Thalia": 699, "Joe": 700, "\u0120meal": 701, "Resist": 702, "\u0120Blondie": 703, "Stamps": 704, "Regina": 705, "Giggling": 706, "Understanding": 707, "\u0120mugs": 708, "Cobwebs": 709, "\u0120Socks": 710, "\u0120valued": 711, "Valentina": 712, "\u0120Prune": 713, "\u0120attract": 714, "\u0120table": 715, "\u0120spicy": 716, "N": 717, "\u0120Naughty": 718, "\u0120Greed": 719, "\u0120wink": 720, "\u0120drumstick": 721, "\u0120conscious": 722, "\u0120Tina\u00c3\u00a2": 723, "\u0120nearly": 724, "\u0120pusher": 725, "\u0120pilots": 726, "\u0120artichoke": 727, "Behind": 728, "\u0120helplessness": 729, "\u0120#": 730, "\u0120bubblegum": 731, "hihuahua": 732, "\u0120Pea": 733, "\u0120reason": 734, "\u0120infinite": 735, "\u0120boarded": 736, "\u0120untamed": 737, "Pauline": 738, "\u0120stumped": 739, "\u0120LISTEN": 740, "\u0120Sqooshy": 741, "Surprisingly": 742, "\u0120Sammie": 743, "\u0120Bur": 744, "\u0120rinsed": 745, "\u0120zagged": 746, "Firefighters": 747, "\u0120Lectures": 748, "\u0120Sally\u00c3\u00a2": 749, "\u0120Janelle": 750, "\u0120sorts": 751, "\u0120Camila": 752, "\u0120Emmi": 753, "\u0120Nara": 754, "dot": 755, "\u0120Vultures": 756, "\u0120rods": 757, "Shampoo": 758, "\u0120protect": 759, "\u0120sorbet": 760, "\u0120lather": 761, "age": 762, "\u0120mines": 763, "\u0120Amie": 764, "\u0120rest": 765, "\u0120uneasy": 766, "\u0120blocking": 767, "Wishes": 768, "\u0120parkkeeper": 769, "\u0120tunes": 770, "fall": 771, "\u0120camels": 772, "\u0120heavier": 773, "\u0120enthusiastic": 774, "\u0120pod": 775, "\u0120Telling": 776, "\u0120bacteria": 777, "\u0120exclaims": 778, "zipping": 779, "Sour": 780, "\u0120Appreciate": 781, "\u0120wafted": 782, "\u0120slamming": 783, "\u00c5\u0135Delicious": 784, "\u0120Spears": 785, "Mother": 786, "\u0120container": 787, "\u0120Technician": 788, "\u0120mild": 789, "\u0120reeling": 790, "JoJo": 791, "ls": 792, "\u0120Pouring": 793, "\u0120paradise": 794, "\u0120Buckaroo": 795, "\u00c5\u0135because": 796, "\u0120tarnished": 797, "\u0120ram": 798, "\u0120earmuffs": 799, "\u0120chinchilla": 800, "\u0120marvelled": 801, "\u0120burrowed": 802, "\u0120talkative": 803, "\u0120Laila": 804, "'m": 805, "\u0120basis": 806, "\u0120tailor": 807, "\u0120tracksuit": 808, "\u0120whole": 809, "\u0120Maxi": 810, "\u0120slippery": 811, "\u0120Patchy": 812, "\u0120napping": 813, "\u0120meanie": 814, "\u0120Bears": 815, "\u0120Ginestra": 816, "\u0120snores": 817, "\u0120prized": 818, "\u0120careless": 819, "\u0120toward": 820, "\u0120Refreshed": 821, "\u0120lets": 822, "\u0120Poppy\u00c3\u00a2": 823, "\u0120collars": 824, "\u0120wobbling": 825, "Sami": 826, "\u0120seaweed": 827, "Explain": 828, "\u0120colorfully": 829, "\u0120bandage": 830, "\u0120Open": 831, "\u0120streamers": 832, "\u0120arrest": 833, "\u0120howls": 834, "Gather": 835, "\u0120fanciful": 836, "\u0120password": 837, "\u0120flexibly": 838, "\u0120enough": 839, "\u0120Cheddar": 840, "\u0120searches": 841, "\u0120challenges": 842, "Weeks": 843, "\u0120betrayal": 844, "\u0120media": 845, "\u0120pumped": 846, "\u0120centuries": 847, "ns": 848, "\u0120anything": 849, "\u0120Karl": 850, "\u0120ridden": 851, "\u0120Mary\u00c3\u00a2": 852, "\u0120W": 853, "\u0120Bigger": 854, "\u0120mammals": 855, "\u0120pond": 856, "\u0120linger": 857, "\u0120waits": 858, "\u0120tightrope": 859, "\u00c5\u0135Can\u00c3\u00a2": 860, "\u0120found": 861, "\u0120buys": 862, "\u0120Giddy": 863, "\u0120tiredly": 864, "\u0120cruel": 865, "\u0120Shelby": 866, "Will": 867, "\u0120valuable": 868, "\u0120vandal": 869, "\u0120blinker": 870, "Mommy": 871, "\u0120ripest": 872, "\u0120blurry": 873, "\u0120Elf": 874, "\u0120steak": 875, "\u0120color": 876, "Belinda": 877, "\u0120Desperately": 878, "\u0120Zeta": 879, "\u0120relishing": 880, "\u0120Freedomland": 881, "\u0120seahorses": 882, "\u0120Rory": 883, "\u0120herbal": 884, "\u0120bands": 885, "\u0120deserted": 886, "Join": 887, "\u0120records": 888, "\u0120calico": 889, "\u0120concerned": 890, "Mc": 891, "\u0120Gregg": 892, "\u0120mar": 893, "Yayyy": 894, "\u0120smudgy": 895, "\u0120Donna": 896, "\u0120pads": 897, "\u0120Emergency": 898, "\u0120pinecones": 899, "\u0120establish": 900, "\u0120sake": 901, "\u0120Undaunted": 902, "Petal": 903, "\u0120mansion": 904, "\u0120Deliver": 905, "\u00c5\u0135Sandy": 906, "\u0120uneven": 907, "Hairy": 908, "OK": 909, "\u0120Stripy": 910, "\u0120rainy": 911, "Original": 912, "\u0120filthier": 913, "Zzzz": 914, "Theo": 915, "\u0120alone\u00c3\u00a2": 916, "\u0120enamored": 917, "\u0120braiding": 918, "\u0120damaging": 919, "al": 920, "\u0120afterall": 921, "\u0120Kelsey": 922, "\u0120bedroom": 923, "\u0120prevent": 924, "\u0120crouching": 925, "\u0120commented": 926, "\u0120mother": 927, "\u0120rhombus": 928, "\u0120oil": 929, "Driver": 930, "\u0120bravery": 931, "\u0120Burl": 932, "Ethan": 933, "\u0120fashionable": 934, "\u0120Shannon": 935, "\u0120coursing": 936, "\u0120Cave": 937, "\u0120Fixing": 938, "\u0120meeting": 939, "\u0120IT": 940, "Napping": 941, "\u0120halfway": 942, "\u0120splats": 943, "\u0120outsmarting": 944, "\u0120Cora": 945, "\u0120Ja": 946, "\u0120breathing": 947, "\u0120umbrella": 948, "\u0120bleats": 949, "\u0120match": 950, "Flags": 951, "\u0120shoppers": 952, "come": 953, "Yaaaaay": 954, "\u0120sculpted": 955, "\u0120basics": 956, "Suzie": 957, "\u0120descend": 958, "Shawn": 959, "\u0120sparrow": 960, "\u0120Nervously": 961, "\u0120Carefully": 962, "\u0120gushing": 963, "how": 964, "\u0120enormous": 965, "\u0120flier": 966, "Tape": 967, "Faith": 968, "\u0120Aby": 969, "\u00c5\u0135Congratulations": 970, "\u0120Gus": 971, "\u0120figuring": 972, "\u0120thumped": 973, "lab": 974, "\u0120coupon": 975, "\u0120Weak": 976, "\u0120we": 977, "Pinkie": 978, "This": 979, "Aysha": 980, "\u0120snap": 981, "\u0120duper": 982, "\u0120Folly": 983, "\u0120Gino": 984, "\u0120film": 985, "\u0120unclip": 986, "\u0120unscrew": 987, "\u0120deliverers": 988, "\u0120lane": 989, "\u0120lunchboxes": 990, "\u0120illustrations": 991, "\u0120term": 992, "\u0120cartons": 993, "\u0120Trusty": 994, "\u0120adamant": 995, "Pen": 996, "\u0120shows": 997, "OW": 998, "\u0120macaw": 999, "\u0120fireflies": 1000, "\u0120finger": 1001, "\u0120excess": 1002, "\u0120Chick": 1003, "pop": 1004, "\u0120running": 1005, "Mole": 1006, "\u0120$": 1007, "\u0120ovens": 1008, "Weeee": 1009, "\u0120darkening": 1010, "Jason": 1011, "\u0120Juno": 1012, "\u0120grubby": 1013, "should": 1014, "\u0120scholar": 1015, "\u0120Since": 1016, "\u0120tastiest": 1017, "\u0120which": 1018, "hhh": 1019, "\u0120Baxter": 1020, "Glen": 1021, "\u0120Abraham": 1022, "\u0120helmets": 1023, "Hop": 1024, "picker": 1025, "\u0120axe": 1026, "\u0120daunting": 1027, "\u0120collectors": 1028, "\u0120Having": 1029, "\u0120BaaBaa": 1030, "\u0120tubs": 1031, "sh": 1032, "\u0120YUM": 1033, "\u0120purpose": 1034, "\u0120rotor": 1035, "yyy": 1036, "\u0120emoji": 1037, "\u0120aid": 1038, "\u0120Lillee": 1039, "\u0120triple": 1040, "Modern": 1041, "\u0120Vendor": 1042, "Ruth": 1043, "\u0120caterpillar": 1044, "\u00c5\u0135yes": 1045, "\u0120beekeeper": 1046, "Deer": 1047, "\u0120Patience": 1048, "Mmmm": 1049, "\u0120hug": 1050, "Steak": 1051, "\u0120modelling": 1052, "\u0120carpet": 1053, "\u00c5\u0135Oh\u00c3\u00a2": 1054, "\u0120fragile": 1055, "\u0120unstable": 1056, "\u0120Napkins": 1057, "if": 1058, "\u0120volcano": 1059, "\u0120knight\u00c3\u00a2": 1060, "generosity": 1061, "Muffins": 1062, "Leonard": 1063, "\u0120box\u00c3\u00a2": 1064, "She": 1065, "\u0120Freezer": 1066, "Fork": 1067, "\u0120eaters": 1068, "\u0120Size": 1069, "\u0120Slick": 1070, "\u0120pranks": 1071, "\u0120backstroke": 1072, "\u0120rejuvenated": 1073, "Faye": 1074, "\u0120Kings": 1075, "\u0120tasteless": 1076, "\u0120clip": 1077, "\u0120Grrr": 1078, "\u0120bye": 1079, "\u0120pandas": 1080, "\u0120filling": 1081, "\u0120Dutch": 1082, "\u0120Sprocket": 1083, "\u0125": 1084, "\u0120demonstrating": 1085, "\u00c5\u0135Wake": 1086, "splashing": 1087, "\u0120courageous": 1088, "\u0120dragonfruit": 1089, "\u0120twinkles": 1090, "\u0120shooted": 1091, "\u0120loomed": 1092, "\u0120rec": 1093, "\u0120screams": 1094, "Puppies": 1095, "Ringo": 1096, "\u0120Surrendering": 1097, "\u0120firefighters": 1098, "\u0120Order": 1099, "\u0120slopes": 1100, "\u0120uninterested": 1101, "\u0120comic": 1102, "\u0120majestic": 1103, "nkie": 1104, "treat": 1105, "WHAT": 1106, "\u0120Meena": 1107, "\u0120Princess": 1108, "Softy": 1109, "\u0120Minnow": 1110, "Startled": 1111, "\u0120continued": 1112, "flying": 1113, "\u0120seized": 1114, "\u0120fee": 1115, "\u0120mommy": 1116, "\u0120Aiya": 1117, "\u0120treadmill": 1118, "\u0120Elli": 1119, "\u0120removed": 1120, "\u013b": 1121, "\u0120tournaments": 1122, "press": 1123, "\u0120gosh": 1124, "\u0120surpassed": 1125, "\u0120begs": 1126, "\u0120mam": 1127, "\u0120teacher": 1128, "\u0120planed": 1129, "\u0120foods": 1130, "\u0120Appy": 1131, "\u0120chandeliers": 1132, "\u0120revoir": 1133, "\u0120Wobby": 1134, "\u0120shall": 1135, "Soji": 1136, "\u0120extremely": 1137, "\u0120shaping": 1138, "drink": 1139, "\u0120mare": 1140, "\u0120grainy": 1141, "QUACK": 1142, "\u0120wandering": 1143, "Flower": 1144, "\u0120mindset": 1145, "Dinner": 1146, "\u0120Elani": 1147, "\u0120girlfriend": 1148, "\u0120marketplace": 1149, "\u0120shrinked": 1150, "\u0120flied": 1151, "\u0120sequence": 1152, "\u0120swoops": 1153, "\u0120panic": 1154, "\u0120Crusty": 1155, "\u0120Alecia": 1156, "\u0120miss": 1157, "\u0120hadn\u00c3\u00a2": 1158, "Recently": 1159, "\u0120Cross": 1160, "\u0120snowmen": 1161, "\u0120rosemary": 1162, "\u0120colors": 1163, "\u0120flashlights": 1164, "things": 1165, "\u0120appeal": 1166, "\u0120knitting": 1167, "\u0120Ew": 1168, "Fragile": 1169, "\u0120Jenn": 1170, "\u0120acceptable": 1171, "\u0120Tobi": 1172, "\u0120surprised\u00c3\u00a2": 1173, "\u0120smoldering": 1174, "\u0120Forky": 1175, "Garry": 1176, "\u0120snuggles": 1177, "\u0120tracing": 1178, "\u0120Malcolm": 1179, "\u0120headband": 1180, "\u0120Stripes": 1181, "\u0120mate": 1182, "\u0120selecting": 1183, "\u0120Making": 1184, "ordinary": 1185, "\u00c5\u0135Take": 1186, "\u0120helpfulness": 1187, "\u0120TLC": 1188, "\u0120herbivore": 1189, "\u0120unfazed": 1190, "\u00c5\u0135Ugh": 1191, "\u0120Otty": 1192, "\u0120emperor": 1193, "\u0120paid": 1194, "\u0120flinging": 1195, "Zigzag": 1196, "\u0120Joshua": 1197, "tower": 1198, "\u0120worry\u00c3\u00a2": 1199, "\u0120Invite": 1200, "\u0120rips": 1201, "resist": 1202, "\u0120beckoning": 1203, "\u0120couples": 1204, "\u0120AND": 1205, "\u0120Alleycat": 1206, "\u0120Jane": 1207, "\u0120amethyst": 1208, "Boats": 1209, "\u0120dullest": 1210, "\u0120romped": 1211, "patience": 1212, "\u0120coco": 1213, "\u0120approached": 1214, "\u0120pitchfork": 1215, "\u0120They": 1216, "\u0120Kobi": 1217, "\u0120hexagons": 1218, "\u012011": 1219, "Regular": 1220, "Cut": 1221, "Clarice": 1222, "\u00c5\u0135Mum": 1223, "\u0120BE": 1224, "\u0120meteors": 1225, "\u0120ginger": 1226, "ahhh": 1227, "\u0120overindulge": 1228, "hold": 1229, "\u0120humiliated": 1230, "icles": 1231, "\u0120disc": 1232, "\u0120Cheerios": 1233, "\u012040": 1234, "\u0120department": 1235, "\u0120Into": 1236, "\u0120aircraft": 1237, "\u0120earn": 1238, "Clover": 1239, "nom": 1240, "\u0120furiously": 1241, "\u0120Emerald": 1242, "\u0120u": 1243, "\u0120Bethany": 1244, "\u0120airplane": 1245, "\u0120sparklier": 1246, "\u0120drainpipe": 1247, "\u0120realizing": 1248, "regret": 1249, "\u0120champions": 1250, "\u0120OK": 1251, "Aid": 1252, "\u0120cow": 1253, "\u0120Toys": 1254, "\u0120Boris": 1255, "\u0120Beefy": 1256, "\u0120Curiously": 1257, "Jeannie": 1258, "\u0120concierge": 1259, "\u0120rollers": 1260, "\u0120choppy": 1261, "\u0120Valentine": 1262, "\u0120wiggly": 1263, "\u0120alphabet": 1264, "\u0120Fenton": 1265, "\u0120lasting": 1266, "\u0120quick": 1267, "Angrily": 1268, "Somewhere": 1269, "\u0120Move": 1270, "Oatmeal": 1271, "\u0120snoop": 1272, "\u0120ketchup": 1273, "\u0120sixty": 1274, "\u0120north": 1275, "\u0120Indeed": 1276, "\u0120DVD": 1277, "\u0120Janet": 1278, "\u0120birthday": 1279, "\u0120grand": 1280, "Kicking": 1281, "\u0120Buddy": 1282, "\u0120wand": 1283, "\u0120factories": 1284, "Rainbows": 1285, "\u0120hesistant": 1286, "salt": 1287, "\u0120playgroup": 1288, "\u0120accordingly": 1289, "\u0120Aubrey": 1290, "\u0120swerved": 1291, "\u0120artefacts": 1292, "\u0120night\u00c3\u00a2": 1293, "\u0120Evan": 1294, "\u0120brother\u00c3\u00a2": 1295, "Shadow": 1296, "\u0120motorbike": 1297, "\u0120peaked": 1298, "\u0120disgusting": 1299, "\u0120-": 1300, "VOLCANO": 1301, "\u0120tackling": 1302, "\u0120cultures": 1303, "Ben": 1304, "\u0120Summer": 1305, "\u0120daydreams": 1306, "Zeb": 1307, "Pinky": 1308, "\u00c5\u0135Sir": 1309, "\u0120college": 1310, "\u0120visitors": 1311, "\u0120chainsaw": 1312, "\u0120mortgage": 1313, "\u0120deliberately": 1314, "\u0120stomachs": 1315, "\u0120approval": 1316, "\u0120chubby": 1317, "\u0120Carp": 1318, "elevator": 1319, "\u0120DIFFERENT": 1320, "ur": 1321, "Happy": 1322, "\u00c5\u0135At": 1323, "\u0120deadline": 1324, "\u0120destroying": 1325, "Kiss": 1326, "Kurly": 1327, "\u0120Amara": 1328, "now": 1329, "\u0120panel": 1330, "\u0120our": 1331, "\u010a": 1332, "\u0120tart": 1333, "\u0120Nose": 1334, "basket": 1335, "\u0120wetsuits": 1336, "\u0120worthy": 1337, "Jade": 1338, "\u0120Away": 1339, "\u0120Shoot": 1340, "\u00c5\u0135Sweetie": 1341, "\u0120hold": 1342, "\u0120scribble": 1343, "\u0120Horse": 1344, "\u0120strumming": 1345, "\u0120Tolly": 1346, "\u0120canyons": 1347, "\u0120mesmerizing": 1348, "\u0120Jeni": 1349, "?!'": 1350, "\u00c5\u0135Emily": 1351, "\u0120filthiest": 1352, "\u0120oyster": 1353, "\u0120loudspeaker": 1354, "\u0120Fat": 1355, "uc": 1356, "\u0120smoochy": 1357, "\u0120worst": 1358, "\u0120Jillie": 1359, "Unable": 1360, "\u0120amazement": 1361, "Be": 1362, "\u0120Bin": 1363, "Tell": 1364, "Mimsie": 1365, "\u0120darkroom": 1366, "\u0120Chase": 1367, "fo": 1368, "Taxi": 1369, "\u0120suffocated": 1370, "\u0120sunned": 1371, "Mover": 1372, "Kally": 1373, "\u0120Lumber": 1374, "\u0120examination": 1375, "Even": 1376, "Tim": 1377, "\u0120bandanas": 1378, "\u0120Supply": 1379, "\u0120taunted": 1380, "\u012c": 1381, "Charlotte": 1382, "Pa": 1383, "\u0120Skelly": 1384, "\u0120recipe": 1385, "\u0120Usually": 1386, "\u0120scoring": 1387, "\u00c5\u0135Make": 1388, "\u0120creepy": 1389, "\u0120Lucas": 1390, "\u0120shields": 1391, "\u0120countryside": 1392, "\u0120kitty\u00c3\u00a2": 1393, "\u0120Cedric": 1394, "cat": 1395, "ches": 1396, "\u0120squirrel": 1397, "\u0120tree": 1398, "Felix": 1399, "\u0120sooooo": 1400, "\u0120exchanged": 1401, "\u0120\u0120\u010a\u0120": 1402, "\u0120announce": 1403, "Pint": 1404, "\u0120rubber": 1405, "\u0120please": 1406, "\u0120Rebecca": 1407, "\u0120maiden": 1408, "\u0120ocean": 1409, "\u0120pluck": 1410, "Zuri": 1411, "\u0120Woolly": 1412, "\u00c5\u0135Somewhere": 1413, "Toto": 1414, "\u0120STUPID": 1415, "\u0120seperate": 1416, "\u0120ferret": 1417, "\u0120Eloh": 1418, "\u0120Pew": 1419, "\u0120drizzling": 1420, "\u0120Turn": 1421, "\u0120introduce": 1422, "\u0120refund": 1423, "\u0120Thrusting": 1424, "\u0120umbrellas": 1425, "\u0120fragrance": 1426, "\u0120Honest": 1427, "\u0120apprehen": 1428, "Crack": 1429, "\u0120examples": 1430, "Understand": 1431, "Wa": 1432, "\u0120assume": 1433, "\u0120pocket": 1434, "\u0120storeowner": 1435, "\u0120aah": 1436, "\u0120barking": 1437, "\u0120dears": 1438, "\u0120Reece": 1439, "\u0120Gita": 1440, "Grant": 1441, "improve": 1442, "\u0120powder": 1443, "\u0120Fuffy": 1444, "\u0120joey": 1445, "\u0120pigpen": 1446, "\u0120advanced": 1447, "Lucky": 1448, "\u0120valve": 1449, "istic": 1450, "\u0120ringed": 1451, "\u0120test": 1452, "\u0120flute": 1453, "\u0120laying": 1454, "medicine": 1455, "\u0120straighter": 1456, "\u0120Glo": 1457, "\u0120fives": 1458, "\u00c5\u0135Then": 1459, "\u0120Nisha": 1460, "\u0120Vanish": 1461, "\u0120everybody\u00c3\u00a2": 1462, "\u0120Wandering": 1463, "\u0120Wash": 1464, "Sammy\u00c3\u00a2": 1465, "\u0120displaying": 1466, "\u0120Lucy\u00c3\u00a2": 1467, "Jerome": 1468, "\u0120DVDs": 1469, "Late": 1470, "\u0120something\u00c3\u00a2": 1471, "McGregor": 1472, "Elina": 1473, "Show": 1474, "Frustrated": 1475, "Perform": 1476, "\u0120instructing": 1477, "Ed": 1478, "\u0120higher": 1479, "\u0120Slowly": 1480, "\u0120neighbouring": 1481, "\u0120Chubbs": 1482, "Let": 1483, "\u0120stored": 1484, "\u0120janitor": 1485, "elled": 1486, "\u0120orbiting": 1487, "\u0120sentimental": 1488, "scary": 1489, "\u0120slightest": 1490, "Meghan": 1491, "Intelligent": 1492, "\u0120traditional": 1493, "\u0120Hunter": 1494, "\u0120voice": 1495, "\u0120Brad": 1496, "\u0120quail": 1497, "\u0120spotless": 1498, "\u0120logic": 1499, "Our": 1500, "\u0120Jojo": 1501, "\u0120suckers": 1502, "\u0120unknown": 1503, "Language": 1504, "\u0120Fancy": 1505, "\u0120Brook": 1506, "\u0120Reeba": 1507, "\u0120Trista": 1508, "\u0120syringe": 1509, "\u0120chimp": 1510, "\u0120boulders": 1511, "Gary": 1512, "whistling": 1513, "wrapped": 1514, "\u0120melted": 1515, "\u0120whir": 1516, "\u0120Pico": 1517, "\u0120raccoon": 1518, "\u0120journey\u00c3\u00a2": 1519, "\u0120Dance": 1520, "\u0120repeatedly": 1521, "when": 1522, "\u0120frightful": 1523, "\u0120beings": 1524, "\u0120scratch": 1525, "\u0120ya": 1526, "\u0120lurking": 1527, "\u0120upon": 1528, "\u0120twine": 1529, "\u0120Jamaica": 1530, "\u0120inventor": 1531, "\u0120proudest": 1532, "\u0120disruptive": 1533, "\u0120While": 1534, "\u0120birds": 1535, "\u0120documentary": 1536, "\u0120Horses": 1537, "there": 1538, "\u0120tag": 1539, "\u0120spripot": 1540, "\u0120Yellow": 1541, "\u0120sentence": 1542, "\u0120inexperienced": 1543, "\u0120wriggles": 1544, "\u0120couldn\u00c3\u00a2": 1545, "\u0120Santa\u00c3\u00a2": 1546, "Di": 1547, "\u0120Contains": 1548, "\u0120prints": 1549, "restaurant": 1550, "\u0120eels": 1551, "\u0120shinny": 1552, "\u0120macaron": 1553, "?'": 1554, "\u0120Sparks": 1555, "\u00c5\u0135Eww": 1556, "\u0120D": 1557, "\u0120nosy": 1558, "\u0120fulfil": 1559, "\u0120love\u00c3\u00a2": 1560, "Trains": 1561, "\u0120mist": 1562, "\u0120pushed": 1563, "\u0120aerobatics": 1564, "yy": 1565, "\u0120now": 1566, "Brock": 1567, "\u0120eaglet": 1568, "Flummoxed": 1569, "\u0120clucking": 1570, "\u0120riding": 1571, "\u0120Meep": 1572, "Rosie": 1573, "\u0120Saffron": 1574, "\u0120repairer": 1575, "\u0120Cone": 1576, "\u0120grips": 1577, "\u0120mixes": 1578, "\u0120soaps": 1579, "\u0120bobs": 1580, "Words": 1581, "\u0120Retriever": 1582, "\u0120Phillippe": 1583, "\u0120above": 1584, "\u0120stole": 1585, "\u0120boils": 1586, "set": 1587, "?'\"": 1588, "\u0120Della": 1589, "\u0120scan": 1590, "xercising": 1591, "\u0120participating": 1592, "\u0120know\u00c3\u00a2": 1593, "\u0120Tasty": 1594, "\u0120\u0120\u010a": 1595, "Sasha": 1596, "Snappy": 1597, "Rupert": 1598, "\u0120twos": 1599, "\u0120Chubs": 1600, "Woody": 1601, "\u0120symptom": 1602, "\u0120warts": 1603, "\u0120hyenas": 1604, "\u0120base": 1605, "\u0120outsmart": 1606, "\u0120wee": 1607, "vo": 1608, "\u0120tiring": 1609, "\u0120shrimp": 1610, "\u0120Slim": 1611, "\u0120Island": 1612, "\u0120telephones": 1613, "Curtis": 1614, "\u0120insight": 1615, "\u0120grade": 1616, "\u0120sounds": 1617, "ffle": 1618, "Luisa": 1619, "\u0120Winter": 1620, "\u0120temperament": 1621, "\u0120roundness": 1622, "\u0120impossible": 1623, "\u0120Curly": 1624, "\u0120echolocation": 1625, "winning": 1626, "\u0120Andrew": 1627, "\u0120Course": 1628, "\u0120luxuries": 1629, "\u0120Palmer": 1630, "\u0120shame": 1631, "Barkley": 1632, "\u0120rhyme": 1633, "\u0120Dougie": 1634, "\u0120Dabble": 1635, "\u0120kill": 1636, "\u0120quietness": 1637, "\u0120Maisy": 1638, "\u0120Bigby": 1639, "Splish": 1640, "\u0120wondered": 1641, "\u0120POOF": 1642, "\u0120fantasy": 1643, "\u0120chunks": 1644, "\u0120compost": 1645, "\u00c5\u0135Can": 1646, "Ailsa": 1647, "\u0120banjo": 1648, "\u0120fort": 1649, "less": 1650, "\u0120rallied": 1651, "\u0120Crystal": 1652, "\u0120factory": 1653, "\u0120jangling": 1654, "\u0120deeds": 1655, "\u0120Professor": 1656, "\u0120prankster": 1657, "\u0120stepping": 1658, "\u0120Discuss": 1659, "Pop": 1660, "\u0120Scout": 1661, "\u0120daddy": 1662, "\u0120Cocoa": 1663, "\u0120Kick": 1664, "castle": 1665, "\u0120tongue": 1666, "\u0120promising": 1667, "\u0120friend": 1668, "Toy": 1669, "Gertrude": 1670, "Fish": 1671, "\u0120lugged": 1672, "\u0120strategy": 1673, "\u0120creaked": 1674, "\u0120expect": 1675, "cro": 1676, "\u0120spoon": 1677, "\u0120chirp": 1678, "\u0120headlight": 1679, "University": 1680, "\u0120terrified": 1681, "Colby": 1682, "\u0120towards": 1683, "\u0120concept": 1684, "Loyal": 1685, "Husband": 1686, "\u0120beast": 1687, "\u0120Faber": 1688, "\u0120bray": 1689, "\u0120refuse": 1690, "\u0120hawk": 1691, "Cookie": 1692, "\u0120cheeped": 1693, "\u0120Key": 1694, "finished": 1695, "no": 1696, "\u0120filter": 1697, "\u0120robbers": 1698, "\u0120overconfident": 1699, "pinch": 1700, "\u0120combine": 1701, "\u0120sneered": 1702, "\u0120favorites": 1703, "\u0120Gloomy": 1704, "\u0120Bradford": 1705, "\u0120cardboard": 1706, "\u0120loved": 1707, "\u0120Belinda": 1708, "oo": 1709, "\u0120embroidered": 1710, "\u0120Tray": 1711, "\u0120tell": 1712, "\u0120picket": 1713, "\u0120Chitter": 1714, "\u0120Golden": 1715, "\u0120Tee": 1716, "zed": 1717, "\u0120Mule": 1718, "\u00c5\u0135fly\u00c3\u00a2": 1719, "\u0120Mission": 1720, "\u0120inning": 1721, "\u0120Jude": 1722, "\u0120nurturing": 1723, "\u0120sympathized": 1724, "\u0120Safety": 1725, "\u0120polite": 1726, "\u0120uncles": 1727, "\u0120grandpapa": 1728, "\u0120differences": 1729, "Scraggles": 1730, "\u0120pellets": 1731, "Spinny": 1732, "\u0120silhouette": 1733, "\u0120smooths": 1734, "\u0120Rats": 1735, "\u0120lotion": 1736, "\u0120Worker": 1737, "\u0120peppermint": 1738, "\u0120fitness": 1739, "\u0120aunts": 1740, "\u0120debut": 1741, "Jake\u00c3\u00a2": 1742, "any": 1743, "\u0120Would": 1744, "\u0120charges": 1745, "Nimble": 1746, "\u0120clubhouse": 1747, "\u0120trot": 1748, "rse": 1749, "packed": 1750, "\u0120building": 1751, "Tomorrow": 1752, "\u0120hogging": 1753, "\u0120Gavin": 1754, "\u0120oar": 1755, "\u0120circular": 1756, "\u0120cuttings": 1757, "\u0120fluffly": 1758, "\u0120posts": 1759, "\u0120peacemaker": 1760, "\u0120Flobina": 1761, "\u0120Moonbeam": 1762, "\u0120Eddy": 1763, "\u0120Tibbs": 1764, "\u0120Bec": 1765, "\u0120bed": 1766, "\u0120greetings": 1767, "\u0120Fascinated": 1768, "\u0120Nutsy": 1769, "\u0120ashore": 1770, "\u0120faithfully": 1771, "\u0120huge": 1772, "\u0120Macie": 1773, "\u0120mails": 1774, "\u0120spell": 1775, "\u0120Trespassing": 1776, "recommend": 1777, "\u0120claps": 1778, "bought": 1779, "Mickey": 1780, "\u0120carpets": 1781, "library": 1782, "\u0120unintentionally": 1783, "\u0120stand": 1784, "Truuu": 1785, "\u0120Shells": 1786, "\u0120Julee": 1787, "Real": 1788, "\u0120Cell": 1789, "good": 1790, "\u0120hum": 1791, "\u0120smores": 1792, "\u0120unopened": 1793, "\u0120habitats": 1794, "\u0120Porcine": 1795, "\u0120faded": 1796, "\u0120reacting": 1797, "\u0120um": 1798, "\u0120hues": 1799, "\u0120peasy": 1800, "\u0120refusing": 1801, "Strawberries": 1802, "\u0120tagged": 1803, "\u0120cabinet": 1804, "\u0120bumblebees": 1805, "\u0120nowuspected": 1806, "\u0120Vet": 1807, "\u0120logs": 1808, "\u0120Karina": 1809, "\u0120grumbly": 1810, "\u0120suck": 1811, "\u0120croak": 1812, "\u0120Huggy": 1813, "\u0120participants": 1814, "\u0120Kally": 1815, "\u0120orange": 1816, "\u0120que": 1817, "\u0120Step": 1818, "\u0120Jessa": 1819, "\u0120combinations": 1820, "dancing": 1821, "\u0120favorite": 1822, "\u0120mug": 1823, "\u0120stalks": 1824, "\u0120More": 1825, "\u0120NEED": 1826, "\u0120alopecia": 1827, "mind": 1828, "\u0120Pat": 1829, "\u0120sunlit": 1830, "Success": 1831, "Celia": 1832, "\u0120sprain": 1833, "\u0120grinding": 1834, "\u0120wasteful": 1835, "Dorothy": 1836, "hey": 1837, "Gracie": 1838, "\u0120annoyance": 1839, "\u0120Adding": 1840, "Fake": 1841, "\u0120kindle": 1842, "\u0120mouths": 1843, "Turns": 1844, "\u0120mouthpiece": 1845, "popular": 1846, "\u0120Running": 1847, "\u0120cheering": 1848, "\u0120caused": 1849, "\u0120hikes": 1850, "\u0120clothespin": 1851, "\u0120protectively": 1852, "\u0120His": 1853, "\u0120snarl": 1854, "\u0120Veronika": 1855, "\u0120Hailey": 1856, "\u0120winked": 1857, "\u00c5\u0135Yup": 1858, "\u0120Raji": 1859, "\u0120bears": 1860, "\u0120sleepily": 1861, "RAAWWKK": 1862, "\u0120flaky": 1863, "hon": 1864, "Race": 1865, "Tigger": 1866, "\u0120watery": 1867, "\u0120child": 1868, "known": 1869, "\u0120valves": 1870, "\u0120gather": 1871, "tation": 1872, "\u0120unbothered": 1873, "\u0120chanting": 1874, "\u0120leading": 1875, "Tika": 1876, "\u0120bakery": 1877, "built": 1878, "\u0120across": 1879, "\u0120vets": 1880, "\u0120guided": 1881, "\u00c5\u0135Abigail": 1882, "\u0120Eddie": 1883, "\u0120gear": 1884, "\u0120using": 1885, "\u0120choices": 1886, "\u0120engulfed": 1887, "\u0120Bless": 1888, "\u0120sat": 1889, "\u0120Alee": 1890, "\u0120shin": 1891, "\u0120Owner": 1892, "\u0120Sailors": 1893, "\u00c5\u0135Follow": 1894, "\u0120weasel": 1895, "\u0120haste": 1896, "\u0120sharers": 1897, "\u0120perpetrator": 1898, "\u0120hikers": 1899, "\u0120reappearing": 1900, "\u0120Sunny": 1901, "Statue": 1902, "\u0120advantages": 1903, "\u0120bobcat": 1904, "\u0120Tory": 1905, "\u0120inedible": 1906, "\u0120Selfish": 1907, "Try": 1908, "\u0120parcels": 1909, "\u0120Rey": 1910, "\u0120Sabina": 1911, "\u0120understandingly": 1912, "\u0120harmony": 1913, "Jake": 1914, "\u0120fluttered": 1915, "Hearing": 1916, "let": 1917, "\u0120mulch": 1918, "sing": 1919, "\u0120Thousands": 1920, "\u0120monster": 1921, "\u0120slink": 1922, "\u0120apologized": 1923, "\u0120herself": 1924, "\u0120squeaked": 1925, "\u0120Sebastian": 1926, "Shut": 1927, "\u0120embarrassed": 1928, "\u0120unevenly": 1929, "\u0120Belle": 1930, "\u0120snapdragons": 1931, "\u0120scootering": 1932, "\u0120lunches": 1933, "\u0120chirruped": 1934, "\u0120clutter": 1935, "\u0120Solaya": 1936, "\u0120splinter": 1937, "robot": 1938, "\u0120remover": 1939, "\u0120apply": 1940, "\u00c5\u0135Anything": 1941, "Gina": 1942, "\u0120Quack": 1943, "\u0120aye": 1944, "Vi": 1945, "\u0120Wild": 1946, "\u0120Boy": 1947, "\u0120sweat": 1948, "\u0120Arf": 1949, "\u0120A": 1950, "ite": 1951, "Jon": 1952, "\u0120cartoons": 1953, "\u0120Hundreds": 1954, "\u0120Rough": 1955, "\u0120motorcycles": 1956, "\u0120rigid": 1957, "lasting": 1958, "\u0120pursed": 1959, "\u0120Brandon": 1960, "\u0120dangling": 1961, "\u0120loop": 1962, "Magical": 1963, "\u0120bookcases": 1964, "\u0120tropical": 1965, "\u0120faucet": 1966, "\u0120six": 1967, "\u0120Dennis": 1968, "\u0120sawmill": 1969, "Frostbite": 1970, "\u0120beggar": 1971, "\u0120distances": 1972, "\u0120darling": 1973, "\u0120Greyson": 1974, "\u0120`": 1975, "\u0120encouraged": 1976, "\u0120excavator": 1977, "\u0120hocus": 1978, "\u0120toolbox": 1979, "\u0120seeds": 1980, "\u0120Rambo": 1981, "\u0120Thin": 1982, "\u0120swimmie": 1983, "\u00a3": 1984, "\u0120spinnywheel": 1985, "bush": 1986, "Jolene": 1987, "\u0120Jenny": 1988, "\u0120jiggled": 1989, "\u0120tuxedo": 1990, "\u0120uplifted": 1991, "\u0120mamas": 1992, "\u0120Oak": 1993, "\u0120jealousy": 1994, "\u0120comrade": 1995, "cientist": 1996, "Picking": 1997, "\u0120collapse": 1998, "\u0120signals": 1999, "\u0120tray": 2000, "\u0120sneaking": 2001, "HAPPY": 2002, "Kenneth": 2003, "Louis": 2004, "Why": 2005, "Full": 2006, "being": 2007, "\u0120sparked": 2008, "\u0120groundhog": 2009, "\u0120donated": 2010, "\u0120somethin": 2011, "\u0120rely": 2012, "\u0120adventuresome": 2013, "\u0120Skeleton": 2014, "\u0120Found": 2015, "\u0120rascal": 2016, "\u0120initially": 2017, "\u0120confuse": 2018, "\u013a": 2019, "\u0120hippos": 2020, "\u0120post": 2021, "caw": 2022, "\u0120truck\u00c3\u00a2": 2023, "Puff": 2024, "\u0120sick": 2025, "\u0120closing": 2026, "\u0120Punishment": 2027, "\u0120clippings": 2028, "\u0120wheelbarrow": 2029, "Jumper": 2030, "\u0120styled": 2031, "Yuliya": 2032, "\u0120normally": 2033, "\u0120lanterns": 2034, "Quickly": 2035, "\u0120handsome": 2036, "\u0120shooes": 2037, "\u0120Riyu": 2038, "\u0120lawyers": 2039, "Only": 2040, "\u0120everyone": 2041, "\u0120nurse": 2042, "Fishy": 2043, "\u0120cloth": 2044, "\u0120Leo": 2045, "\u0120appointments": 2046, "\u0120curator": 2047, "Jacqueline": 2048, "\u0120Joani": 2049, "\u0120strap": 2050, "\u0120handstand": 2051, "Ethel": 2052, "\u0120rumbling": 2053, "\u0120golfers": 2054, "\u0120debt": 2055, "\u0120lines": 2056, "\u0120shield": 2057, "\u0120crane": 2058, "\u0120smacking": 2059, "\u0120cracking": 2060, "\u0120goosebumps": 2061, "\u0120reflecting": 2062, "\u0120rotting": 2063, "\u0120carpenter": 2064, "\u0120other\u00c3\u00a2": 2065, "\u0120Pilar": 2066, "use": 2067, "\u0120cement": 2068, "\u0120Davie": 2069, "\u0120Baba": 2070, "\u0120crybabies": 2071, "\u0120burp": 2072, "\u0120moulding": 2073, "\u0120hobbled": 2074, "Fisherman": 2075, "\u0120scores": 2076, "\u00c5\u0135Yum": 2077, "\u0120Slow": 2078, "\u0120Jayda": 2079, "\u0120Millie": 2080, "\u0120cons": 2081, "\u0120dilapidated": 2082, "\u0120Frank": 2083, "\u0120Spiders": 2084, "\u0120variety": 2085, "\u0120Paris": 2086, "\u0120darted": 2087, "\u0120spending": 2088, "\u0120Slappy": 2089, "?,\"": 2090, "\u0120popper": 2091, "\u0120Shelley": 2092, "\u0120beehives": 2093, "Meggie": 2094, "\u00c5\u0135Shh": 2095, "\u0120florets": 2096, "Rrrraaaawwwrrr": 2097, "Come": 2098, "\u0120Gray": 2099, "Crusty": 2100, "\u0120Shrinky": 2101, "\u0120designing": 2102, "\u0120cooling": 2103, "\u0120Maddie": 2104, "\u0120treasury": 2105, "\u0120Ayesha": 2106, "\u0120Doggy": 2107, "HO": 2108, "\u0120ruffling": 2109, "\u00c5\u0135Goodbye": 2110, "\u0120Colin": 2111, "\u0120science": 2112, "\u0120Tadpole": 2113, "Liv": 2114, "toys": 2115, "\u00c5\u0135goodbye\u00c3\u00a2": 2116, "\u0120grinder": 2117, "\u0120Re": 2118, "\u0120repair": 2119, "Ready": 2120, "Dara": 2121, "Style": 2122, "\u0120Brushing": 2123, "\u0120wise": 2124, "\u0120Emmaline": 2125, "\u0120nothing": 2126, "\u0120Lime": 2127, "\u0120Magnificent": 2128, "\u0120misbehaving": 2129, "\u0120Bluebell": 2130, "Fruits": 2131, "\u0120wound": 2132, "\u0120warms": 2133, "\u0120things\u00c3\u00a2": 2134, "\u0120Swim": 2135, "\u0120plough": 2136, "\u0120HELP": 2137, "\u0120Dirt": 2138, "\u0120pirouette": 2139, "\u0120Laya": 2140, "creasing": 2141, "filled": 2142, "nine": 2143, "Inflatable": 2144, "Leopards": 2145, "unusual": 2146, "\u0120cracked": 2147, "?``": 2148, "\u0120Glittering": 2149, "\u0120washers": 2150, "\u0120organising": 2151, "\u0120policewoman": 2152, "\u0120example": 2153, "\u0120slush": 2154, "\u0120bike": 2155, "\u0120turtle": 2156, "\u0120flocking": 2157, "\u0120shooed": 2158, "ence": 2159, "\u0120Hari": 2160, "\u0120own": 2161, "Nurse": 2162, "\u0120Orangey": 2163, "\u0120honeybees": 2164, "\u0120roly": 2165, "\u0120advisers": 2166, "\u0120roost": 2167, "\u0120previous": 2168, "\u0120gal": 2169, "\u0120bear": 2170, "\u0120saut\u00c3\u0125": 2171, "\u0120sunbathe": 2172, "\u0120pressing": 2173, "\u0120croaked": 2174, "\u0120toppling": 2175, "\u0120Apologetically": 2176, "Eww": 2177, "\u0120Otter": 2178, "\u0120precision": 2179, "\u0120popcorn": 2180, "Abhi": 2181, "Restore": 2182, "\u0120stablekeeper": 2183, "\u0120gang": 2184, "Has": 2185, "then": 2186, "\u0120doorbell": 2187, "\u0120hoofs": 2188, "\u0120rescue": 2189, "\u0120horrible": 2190, "\u0120fences": 2191, "\u0120file": 2192, "CLOSE": 2193, "\u0120boutique": 2194, "\u0120growled": 2195, "\u0120Rocking": 2196, "\u0120mane": 2197, "\u0120Celina": 2198, "\u0120Drip": 2199, "\u0120preoccupied": 2200, "\u0120Rise": 2201, "Balloon": 2202, "\u0120alleyway": 2203, "\u0120weep": 2204, "Bird": 2205, "\u00c5\u0135Guess": 2206, "\u0120mindlessly": 2207, "\u0120would": 2208, "\u0120hamburgers": 2209, "\u0120tie": 2210, "\u0120chute": 2211, "\u0120guarding": 2212, "\u0120bopping": 2213, "Sensing": 2214, "\u0120Quickly": 2215, "\u0120Mae": 2216, "\u0120Besta": 2217, "Clive": 2218, "\u0120Refusing": 2219, "\u0120entire": 2220, "Tea": 2221, "Tessa": 2222, "\u0120Ancy": 2223, "\u0120Maisey": 2224, "put": 2225, "\u0120Birds": 2226, "Pasta": 2227, "\u0120complaints": 2228, "\u0120Within": 2229, "ahh": 2230, "\u0120Ashton": 2231, "\u0120cricket": 2232, "\u0120wiser": 2233, "\u0120chords": 2234, "\u0120tightest": 2235, "\u0120speckles": 2236, "\u0120Raz": 2237, "\u0120Adeline": 2238, "\u0120weirdly": 2239, "\u0120bla": 2240, "\u0120arching": 2241, "\u0120antiques": 2242, "Voila": 2243, "\u0120windy": 2244, "\u0120alright": 2245, "\u0120roads": 2246, "treasure": 2247, "\u0120sunhat": 2248, "\u0120zebra\u00c3\u00a2": 2249, "\u00c5\u0135E": 2250, "Twin": 2251, "Overall": 2252, "\u0120utensil": 2253, "\u0120forgetfulness": 2254, "\u0120spent": 2255, "\u0120lanes": 2256, "\u0120spreading": 2257, "Boom": 2258, "Cici": 2259, "\u0120Pppedy": 2260, "\u0120picker": 2261, "score": 2262, "\u00c5\u0135But": 2263, "\u0120spinners": 2264, "Whoops": 2265, "Dada": 2266, "\u0120sugars": 2267, "\u0120starlight": 2268, "\u0120weaved": 2269, "\u0120strived": 2270, "zip": 2271, "\u0120Robby": 2272, "\u0120Video": 2273, "\u0120East": 2274, "\u0120Something": 2275, "Maud": 2276, "Copy": 2277, "\u0120harmless": 2278, "\u0120Lovely": 2279, "\u0120Lana": 2280, "\u00c5\u0135you\u00c3\u00a2": 2281, "\u0120reliably": 2282, "Buzzy": 2283, "Rhinoceros": 2284, "\u0120eat": 2285, "\u0120hallways": 2286, "\u0120emotions": 2287, "\u0120reel": 2288, "\u0120gloom": 2289, "\u0120Song": 2290, "\u0120panels": 2291, "\u010a\u0120\u0120\u0120\u0120\u0120\u0120\u0120\u0120": 2292, "\u0120John\u00c3\u00a2": 2293, "\u0120shallow": 2294, "Ants": 2295, "\u0120cares": 2296, "\u0120recognizing": 2297, "Hanna": 2298, "\u0120dribbled": 2299, "\u0120assortment": 2300, "\u0120Hurricane": 2301, "oooh": 2302, "\u0120smirking": 2303, "\u0120wildest": 2304, "Colleen": 2305, "\u0120yeti": 2306, "\u0120Skooty": 2307, "\u0120Zanny": 2308, "\u0120conductor": 2309, "Brownie": 2310, "\u0120sews": 2311, "\u0120frogs": 2312, "\u0120irons": 2313, ".\"": 2314, "\u0120honeydew": 2315, "\u0120Squares": 2316, "\u0120coach": 2317, "\u0120proportion": 2318, "Anya": 2319, "\u0120sidekick": 2320, "\u0120unwanted": 2321, "\u0120whomever": 2322, "\u0120Mars": 2323, "\u0120neither": 2324, "\u0120pins": 2325, "\u0120Margarete": 2326, "whoosh": 2327, "\u0120expressing": 2328, "\u0120pasture": 2329, "\u0120Bramble": 2330, "\u0120wastes": 2331, "Jadyn": 2332, "\u0120Builder": 2333, "\u0120Hair": 2334, "\u0120sucked": 2335, "Barb": 2336, "on": 2337, "Way": 2338, "lbs": 2339, "\u0120him": 2340, "\u0120throw": 2341, "\u0120marmalade": 2342, "\u0120Annabelle": 2343, "\u0120tests": 2344, "\u0120nasty": 2345, "\u00e2\u0124\u00ac\u00e2\u0122\u00b9": 2346, "\u0120daddies": 2347, "\u0120Bear": 2348, "stone": 2349, "\u0120Mine": 2350, "\u0120saloon": 2351, "\u0120enabled": 2352, "\u0120That\u00c3\u00a2": 2353, "\u0120cat": 2354, "\u0120raising": 2355, "goo": 2356, "\u0120hilltop": 2357, "\u0120remembered": 2358, "\u0120slithered": 2359, "\u0120vampire": 2360, "\u00c5\u0135Tom": 2361, "\u0120Elliot": 2362, "\u0120welcoming": 2363, "\u0120fondest": 2364, "\u0120Top": 2365, "\u00c5\u0135where": 2366, "\u0120hobby": 2367, "\u0120fi": 2368, "Lolli": 2369, "Game": 2370, "\u0120Obedience": 2371, "Fishing": 2372, "\u0120jot": 2373, "ya": 2374, "\u0120juiciness": 2375, "\u0120Whip": 2376, "\u0120Jamilla": 2377, "\u0120Fork": 2378, "\u0120beckoned": 2379, "\u0120chickenpox": 2380, "\u0120endeavors": 2381, "\u0120Jonny": 2382, "\u0120mother\u00c3\u00a2": 2383, "\u0120hospital": 2384, "\u0120feed": 2385, "\u0120Lizzie": 2386, "\u0120background": 2387, "\u0120stormed": 2388, "\u00c5\u0135Why": 2389, "\u0120Heather": 2390, "\u0120spec": 2391, "\u0120Polish": 2392, "\u0120Hanni": 2393, "\u0120pun": 2394, "Achoo": 2395, "\u0120advise": 2396, "\u0120Alexa": 2397, "\u0120Cupboard": 2398, "\u0120resists": 2399, "\u0120period": 2400, "\u0120magically": 2401, "\u0120snooped": 2402, "dress": 2403, "\u0120marvels": 2404, "\u0120served": 2405, "\u0120permitted": 2406, "\u0120unwinding": 2407, "\u0120foliage": 2408, "\u0120trim": 2409, "\u0120Sunglasses": 2410, "patter": 2411, "\u0120festive": 2412, "\u0120vanishes": 2413, "\u0120affected": 2414, "die": 2415, "\u0120Pichi": 2416, "\u0120heading": 2417, "Dylan": 2418, "Johnathan": 2419, "Lab": 2420, "\u0120Martha": 2421, "\u0120sensibly": 2422, "boat": 2423, "AR": 2424, "\u0120biolog": 2425, "\u0120Tania": 2426, "Jaycee": 2427, "\u0120candle": 2428, "\u0120download": 2429, "\u0120instant": 2430, "\u0120contribute": 2431, "\u0120opponent": 2432, "\u0120saver": 2433, "\u0120thermos": 2434, "\u0120braked": 2435, "\u0120dispute": 2436, "\u0120Macdonald": 2437, "\u0120recording": 2438, "\u0120separate": 2439, "\u0120playground": 2440, "Huh": 2441, "\u0120scrub": 2442, "\u0120outraged": 2443, "\u0120knocker": 2444, "\u0120ideas": 2445, "\u0120desperation": 2446, "Crane": 2447, "\u0120Jackson": 2448, "Ally": 2449, "\u0120sewn": 2450, "\u0120Theresa": 2451, "\u0120jam": 2452, "\u0120puppets": 2453, "\u0120crowds": 2454, "\u0120intertwined": 2455, "\u0120bramble": 2456, "Marlin": 2457, "\u0120cheerleader": 2458, "\u0120Johnson": 2459, "Who\u00c3\u00a2": 2460, "\u0120dodges": 2461, "\u0120Bambi": 2462, "\u0120Judge": 2463, "\u0120workout": 2464, "\u0120huckleberry": 2465, "Buckle": 2466, "\u0120hearted": 2467, "\u0120unprepared": 2468, "she": 2469, "\u0120Zuri": 2470, "\u0120Wearing": 2471, "\u0120buddies": 2472, "\u0120``": 2473, "\u0120teenage": 2474, "\u0120Treet": 2475, "\u0120flustered": 2476, "\u0120Bimble": 2477, "\u0120we\u00c3\u00a2": 2478, "Swans": 2479, "\u00c5\u0135Sing": 2480, "loyal": 2481, "\u0120hatch": 2482, "Ancient": 2483, "\u0120Cr": 2484, "\u0120Foxes": 2485, "!''": 2486, "\u0120Mopsy": 2487, "\u0120side": 2488, "\u0120Blossom": 2489, "\u0120underway": 2490, "\u0120Upset": 2491, "Lola": 2492, "Junk": 2493, "power": 2494, "\u0120Lynne": 2495, "\u0120Becky": 2496, "\u0120Lazy": 2497, "\u0120enchantment": 2498, "\u0120Studio": 2499, "\u0120divers": 2500, "\u0120Tuesdays": 2501, "\u0120shortest": 2502, "\u0120Grammy": 2503, "\u0120leaves\u00c3\u00a2": 2504, "\u0120lonelier": 2505, "\u0120dragging": 2506, "\u0120apology": 2507, "\u0120standstill": 2508, "Gramma": 2509, "\u0120Razor": 2510, "Bee": 2511, "Mitch": 2512, "\u0120dino": 2513, "\u0120coughs": 2514, "\u0120optimism": 2515, "\u0120dwarf": 2516, "\u0120mounted": 2517, "\u0120sandwich": 2518, "\u0120include": 2519, "\u0120freezing": 2520, "\u0120pol": 2521, "\u0120footballer": 2522, "Claw": 2523, "\u0120Brussels": 2524, "\u0120Magazine": 2525, "\u0120s": 2526, "\u0120Kris": 2527, "Keegan": 2528, "Mitsy": 2529, "Unlock": 2530, "\u00c5\u0135generous\u00c3\u00a2": 2531, "\u0120jingling": 2532, "\u0120intently": 2533, "goer": 2534, "\u0120rumbled": 2535, "\u0120noted": 2536, "\u0120saddest": 2537, "\u0120broomstick": 2538, "\u0120Friday": 2539, "Miffy": 2540, "\u0120unreachable": 2541, "Succeed": 2542, "\u0120footprint": 2543, "\u0120curtsied": 2544, "Nightmare": 2545, "gged": 2546, "\u0120cycle": 2547, "\u0120fluffed": 2548, "Possible": 2549, "?!\".": 2550, "Shh": 2551, "Underneath": 2552, "\u0120bunneh": 2553, "Cigarettes": 2554, "\u0120je": 2555, "\u0120berries": 2556, "Matching": 2557, "\u0120TEAC": 2558, "Captain": 2559, "\u0120deepest": 2560, "\u0120noise": 2561, "\u0120gleaming": 2562, "Caution": 2563, "\u0120sponge": 2564, "Zeke": 2565, "\u0120Poem": 2566, "Nod": 2567, "Wash": 2568, "\u0120fishermen": 2569, "\u0120fins": 2570, "\u0120peckish": 2571, "\u0120Taxi": 2572, "\u0120Such": 2573, "\u0120Cam": 2574, "\u0120faraway": 2575, "Fuzzy": 2576, "\u0120Grapie": 2577, "\u0120trait": 2578, "\u0120Pain": 2579, "Mick": 2580, "\u0120hesitant": 2581, "Ghosts": 2582, "\u0120Ornaments": 2583, "\u0120disappointment": 2584, "\u0120goggles": 2585, "\u0120world\u00c3\u00a2": 2586, "\u0120hermit": 2587, "Bubby": 2588, "\u0120grants": 2589, "\u0120ceramic": 2590, "east": 2591, "\u0120skinny": 2592, "\u0120conduct": 2593, "\u00c5\u0135Wow\u00c3\u00a2": 2594, "Borrow": 2595, "gentle": 2596, "vanish": 2597, "\u0120trilled": 2598, "Robots": 2599, "\u0120preserved": 2600, "\u0120polish": 2601, "\u0120edges": 2602, "\u0120Clockerella": 2603, "\u0120snapping": 2604, "\u0120energetic": 2605, "Roy": 2606, "\u0120kitchens": 2607, "\u0120hunter\u00c3\u00a2": 2608, "\u0120caravan": 2609, "\u0120Rule": 2610, "\u0120Pixie": 2611, "pew": 2612, "\u0120sipping": 2613, "\u0120centers": 2614, "\u00c3\u00af": 2615, "\u0120settles": 2616, "log": 2617, "aaaaa": 2618, "\u0120is": 2619, "\u0120reporters": 2620, "Arguing": 2621, "\u0120personalities": 2622, "\u0120nest": 2623, "Harper": 2624, "\u0120dot": 2625, "\u0120Drake": 2626, "\u0120Refrigerator": 2627, "\u0120notebooks": 2628, "Pink": 2629, "Mike": 2630, "Ignorant": 2631, "\u0120massages": 2632, "\u0120stopping": 2633, "!!": 2634, "\u0120Moreover": 2635, "TRUST": 2636, "\u0120Nigel": 2637, "\u0120Sorry": 2638, "\u0120bogeyman": 2639, "\u0120victories": 2640, "sometimes": 2641, "\u0120magnet": 2642, "\u0120conflicted": 2643, "\u0120Volcano": 2644, "\u0120Migo": 2645, "hee": 2646, "Kaleb": 2647, "\u0120quilts": 2648, "bitter": 2649, "\u0120Monsters": 2650, "\u0120pancakes": 2651, "RING": 2652, "\u0120stuttered": 2653, "\u0120avoided": 2654, "\u0120Whiskers": 2655, "\u0120Yolanda": 2656, "Trip": 2657, "\u0120twirled": 2658, "\u0120pocketknife": 2659, "\u0120question": 2660, "\u0120Twin": 2661, "Married": 2662, "Piano": 2663, "\u0120escapes": 2664, "\u0120hill": 2665, "Jasmin": 2666, "\u0120woodchopper": 2667, "\u0120bullet": 2668, "uh": 2669, "\u0120Us": 2670, "\u0120Whips": 2671, "\u0120India": 2672, "\u0120wagged": 2673, "\u0120weddings": 2674, "\u0120flagpole": 2675, "OO": 2676, "\u0120fabrics": 2677, "\u0120Mosquitoes": 2678, "\u0120Car": 2679, "\u0120interpreted": 2680, "ddle": 2681, "\u0120Spanish": 2682, "\u0120am": 2683, "\u0120Robot": 2684, "\u0120Lena": 2685, "\u0120Give": 2686, "\u0120countless": 2687, "\u0120indoors": 2688, "\u0120displeased": 2689, "Selma": 2690, "\u0120skewer": 2691, "\u0120Hugging": 2692, "Bradley": 2693, "Hocus": 2694, "holes": 2695, "outs": 2696, "\u0120Mercury": 2697, "happy": 2698, "Weight": 2699, "\u0120belong": 2700, "\u0120unicorn": 2701, "\u0120sessions": 2702, "tastic": 2703, "\u0120fifty": 2704, "\u0120Hedge": 2705, "\u0120Jayne": 2706, "\u0120hurt\u00c3\u00a2": 2707, "\u0120Johna": 2708, "\u0120use": 2709, "friends": 2710, "\u0120Melon": 2711, "\u0120Disturb": 2712, "\u0120trusts": 2713, "\u0120cleverest": 2714, "\u0120Droopy": 2715, "stretch": 2716, "\u0120proper": 2717, "\u0120courageously": 2718, "\u0120vegetarian": 2719, "\u0120Breath": 2720, "Honesty": 2721, "\u0120nuzzled": 2722, "\u0120masala": 2723, "\u0120foreign": 2724, "Quack": 2725, "\u0120improved": 2726, "\u0120Passersby": 2727, "\u0120badge": 2728, "\u0120Buzz": 2729, "\u0120limitations": 2730, "cakes": 2731, "\u0120Jumpy": 2732, "\u0120clattered": 2733, "Cindy": 2734, "\u0120beside": 2735, "\u0120shaped": 2736, "Years": 2737, "\u0120fixed": 2738, "\u0120hammock": 2739, "\u0120invention": 2740, "\u0120shouting": 2741, "tely": 2742, "\u0120DESTROY": 2743, "\u0120Maxine": 2744, "\u0120Marcia": 2745, "\u0120rev": 2746, "\u0120Electricity": 2747, "Sonny": 2748, "\u0120walrus": 2749, "\u0120sketches": 2750, "Smoking": 2751, "bag": 2752, "\u0120fixer": 2753, "\u0120Shan": 2754, "\u0120Jasper": 2755, "\u0120Hurt": 2756, "\u0120Tremble": 2757, "\u0120supplies": 2758, "\u0120lifter": 2759, "\u0120Flex": 2760, "\u0120sandbags": 2761, "\u0120delicious": 2762, "\u0120Squeakers": 2763, "\u0120duct": 2764, "Purr": 2765, "\u0120sprawled": 2766, "\u0120kinkajou": 2767, "\u0120trailing": 2768, "\u0120streamed": 2769, "\u0120griffon": 2770, "\u0120Hills": 2771, "\u0120Fudge": 2772, "sc": 2773, "\u0120Unknown": 2774, "Involuntarily": 2775, "\u0120coaches": 2776, "Pip": 2777, "Clap": 2778, "\u0120poisoning": 2779, "\u0120embarrass": 2780, "\u0120crouched": 2781, "baseball": 2782, "\u0120Squiggles": 2783, "\u0120Lilah": 2784, "\u0120dug": 2785, "\u0120Crash": 2786, "zap": 2787, "\u0120choreograp": 2788, "\u0120Velcro": 2789, "\u0120mustaches": 2790, "\u0120loveable": 2791, "\u0120salon": 2792, "\u0120enemies": 2793, "\u0120identify": 2794, "\u0120Factory": 2795, "\u0120delight": 2796, "\u0120limes": 2797, "\u0120booms": 2798, "\u0120racks": 2799, "Croco": 2800, "\u0120foggy": 2801, "\u0120Micah": 2802, "\u0120left": 2803, "\u0120respond": 2804, "\u0120Limes": 2805, "Yasmin": 2806, "\u0120bounciest": 2807, "\u0120di": 2808, "\u0120compe": 2809, "\u0120Security": 2810, "Nonsense": 2811, "\u0120beady": 2812, "treaters": 2813, "doo": 2814, "wi": 2815, "\u0120flowery": 2816, "\u0120deceive": 2817, "\u0120Birdcage": 2818, "\u0120Tiko": 2819, "\u0120baskets": 2820, "\u0120miserably": 2821, "Fiona": 2822, "\u0120dandelions": 2823, "\u0120supporters": 2824, "freedom": 2825, "\u0120Claire": 2826, "\u0120babbling": 2827, "\u0120softest": 2828, "\u0120license": 2829, "Tomato": 2830, "\u0120protective": 2831, "\u0120wouldn": 2832, "\u0120specially": 2833, "\u0120buns": 2834, "Insect": 2835, "Donald": 2836, "\u0120straight": 2837, "\u0120Tip": 2838, "\u0120Bev": 2839, "Tucker": 2840, "\u0120Chrystal": 2841, "\u00c5\u0135happy": 2842, "\u0120slingshot": 2843, "\u0120Thankfully": 2844, "\u0120pig": 2845, "scented": 2846, "\u0120prettiest": 2847, "\u0120Leprechaun": 2848, "lon": 2849, "\u0120tattoo": 2850, "\u0120peacocks": 2851, "Chuck": 2852, "\u0120Cubey": 2853, "\u0120Tyra": 2854, "\u0120savasana": 2855, "why": 2856, "\u0120increased": 2857, "\u0120Priddy": 2858, "\u0120bendy": 2859, "\u0120eating": 2860, "\u0120thickest": 2861, "\u0120Beware": 2862, "\u0120wagons": 2863, "Gold": 2864, "\u0120Fearful": 2865, "\u0120bluffing": 2866, "bread": 2867, "\u0120Balancing": 2868, "Susan": 2869, "\u0120thriving": 2870, "Hu": 2871, "FREEZE": 2872, "dabra": 2873, "\u0120hopeless": 2874, "Together": 2875, "\u0120sweeps": 2876, "\u0120went": 2877, "\u0120downwards": 2878, "\u0120Cottontail": 2879, "\u0120Prancer": 2880, "\u0120imaginations": 2881, "\u0120dangle": 2882, "Protect": 2883, "\u0120smoothly": 2884, "\u0120forgives": 2885, "\u0120ceiling": 2886, "OOK": 2887, "\u0120Spritz": 2888, "\u0120freezes": 2889, "\u0120bookshelves": 2890, "Toilet": 2891, "Cinda": 2892, "\u0120Mailing": 2893, "\u0120Geeta": 2894, "\u0120rashes": 2895, "\u0120appliances": 2896, "\u0120washroom": 2897, "\u0120folk": 2898, "dd": 2899, "Mi": 2900, "\u0120discussed": 2901, "\u0120LOT": 2902, "\u0120project": 2903, "\u0120scavenger": 2904, "\u0120could\u00c3\u00a2": 2905, "\u0120discipline": 2906, "\u0120bowstring": 2907, "\u012018": 2908, "\u0120lime": 2909, "alert": 2910, "\u0120Risa": 2911, "\u0120Meemee": 2912, "\u00c5\u0135and": 2913, "\u0120decisive": 2914, "\u0120steamed": 2915, "\u0120thunderous": 2916, "\u0120Lincoln": 2917, "\u0120kite": 2918, "price": 2919, "\u0120ducks": 2920, "Pipe": 2921, "\u0120cawing": 2922, "\u0120Dalmatian": 2923, "\u0120Deedee": 2924, "\u0120squirmed": 2925, "\u0120methods": 2926, "start": 2927, "\u0120Sharee": 2928, "Bookcase": 2929, "Delicate": 2930, "\u0120drain": 2931, "\u00c5\u0135G": 2932, "Mermaid": 2933, "\u0120bounds": 2934, "\u0120floor": 2935, "\u0120disposition": 2936, "owner": 2937, "Camila": 2938, "\u0120rhinocerous": 2939, "different": 2940, "\u0120shrunken": 2941, "Woo": 2942, "\u0120moonlit": 2943, "\u0120curiousity": 2944, "Nuts": 2945, "Lillie": 2946, "Yawn": 2947, "\u0120duster": 2948, "\u0120ambled": 2949, "\u0120Ketchup": 2950, "\u0120licks": 2951, "\u0120Jimmie": 2952, "\u0120Lissy": 2953, "toes": 2954, "\u0120Hold": 2955, "\u0120rocketship": 2956, "Zzz": 2957, "\u0120Colorful": 2958, "\u0120nosily": 2959, "\u0120chemicals": 2960, "Nap": 2961, "\u0120Turns": 2962, "Can": 2963, "\u0120advisor": 2964, "\u0120freer": 2965, "Garfield": 2966, "\u0120seated": 2967, "of": 2968, "\u0120pretzel": 2969, "Alec": 2970, "\u0120lending": 2971, "Yogurt": 2972, "\u0120Joshie": 2973, "\u0120remembering": 2974, "\u0120strip": 2975, "Lilli": 2976, "\u0120cucumbers": 2977, "\u0120novelist": 2978, "\u0120Mami": 2979, "\u0120physic": 2980, "Rick": 2981, "ryl": 2982, "\u0120bricks": 2983, "Something": 2984, "gl": 2985, "\u0120sneaker": 2986, "\u0120battles": 2987, "\u0120silliest": 2988, "\u0120Catherine": 2989, "\u0120Request": 2990, "\u0120kiwi": 2991, "\u0120tossing": 2992, "\u0120tricycle": 2993, "OOO": 2994, "Jazz": 2995, "lan": 2996, "\u0120wiggler": 2997, "Record": 2998, "\u0120dipped": 2999, "\u0120hives": 3000, "\u0120beanbag": 3001, "\u0120gravity": 3002, "\u0120runner": 3003, "Worms": 3004, "\u0120Axel": 3005, "wild": 3006, "\u0120Smoke": 3007, "orted": 3008, "\u0120Tentacle": 3009, "\u0120okay\u00c3\u00a2": 3010, "check": 3011, "\u0120replenish": 3012, "\u0120chalkboard": 3013, "\u0120Yuli": 3014, "\u0120Messy": 3015, "\u0120cabins": 3016, "\u0120bridge": 3017, "Okay": 3018, "\u0120System": 3019, "\u0120guitars": 3020, "sugar": 3021, "\u00c3\u0124": 3022, "\u0120offer": 3023, "\u0120nicest": 3024, "\u0120Ouch": 3025, "\u0120puffed": 3026, "\u0120passage": 3027, "form": 3028, "\u0120buttoned": 3029, "Bobby": 3030, "\u0120Surprisingly": 3031, "\u0120Rubi": 3032, "\u0120terribly": 3033, "\u0120sins": 3034, "\u0120enormity": 3035, "\u0120Madison": 3036, "P": 3037, "\u0120wrecking": 3038, "\u0120AJ": 3039, "\u0120rattle": 3040, "\u0120Aimy": 3041, "\u0120squeez": 3042, "\u0120teashop": 3043, "\u0120tasted": 3044, "\u0120hologram": 3045, "\u0120Marbles": 3046, "\u0120hardworking": 3047, "\u0120Mooly": 3048, "Gotcha": 3049, "\u0120treat\u00c3\u00a2": 3050, "no\u00c3\u00a2": 3051, "\u0120dwindle": 3052, "\u0120sends": 3053, "\u0120architect": 3054, "\u0120makeover": 3055, "\u0120chocolaty": 3056, "Ronny": 3057, "\u0120pitches": 3058, "\u0120liveliest": 3059, "\u0120cozier": 3060, "\u0120burried": 3061, "\u0120MY": 3062, "\u0120success": 3063, "\u0120Jacks": 3064, "\u0120Jeanette": 3065, "\u0120Cooler": 3066, "\u0120Thimple": 3067, "\u0120Berta": 3068, "keeper": 3069, "\u0120cleaners": 3070, "\u0120patrol": 3071, "\u0120bounced": 3072, "\u0120Squeeker": 3073, "\u0120encircled": 3074, "\u0120Picture": 3075, "\u0120Tan": 3076, "\u00c5\u0135Son": 3077, "\u0120pence": 3078, "Winston": 3079, "\u0120mere": 3080, "\u0120qui": 3081, "\u0120cans": 3082, "\u0120overstepped": 3083, "\u0120gyms": 3084, "\u0120snuggled": 3085, "\u0120ONE": 3086, "\u00c5\u0135There\u00c3\u00a2": 3087, "harsh": 3088, "\u0120Help": 3089, "\u00aa": 3090, "Whoosh": 3091, "\u0120harvesting": 3092, "cho": 3093, "\u0120channel": 3094, "\u0120Madi": 3095, "\u0120Block": 3096, "Wendy": 3097, "\u0120Matthews": 3098, "provide": 3099, "\u0120distracting": 3100, "Bees": 3101, "\u0120Rollie": 3102, "\u0120poses": 3103, "\u0120Frilly": 3104, "\u0120slowing": 3105, "\u0120Spit": 3106, "\u0120wetness": 3107, "\u0120Sailing": 3108, "\u0120Helga": 3109, "\u0120Book": 3110, "\u0120beneath": 3111, "\u0120barked": 3112, "\u0120weapon": 3113, "\u0120Hi": 3114, "\u0120bum": 3115, "\u0120cottage": 3116, "\u0120oooohed": 3117, "\u0120motel": 3118, "\u0120whack": 3119, "\u0120Isla": 3120, "\u0120cello": 3121, "\u0120ne": 3122, "\u0120blender": 3123, "\u0120spy": 3124, "\u0120Saundra": 3125, "\u0120beware": 3126, "\u0120jumps": 3127, "\u0120loses": 3128, "\u0120blower": 3129, "?!\"": 3130, "\u0120approvingly": 3131, "\u00c5\u0135Sit": 3132, "\u0120Macy": 3133, "Lo": 3134, "\u0120Kangaroo": 3135, "married": 3136, "buy": 3137, "\u0120shinning": 3138, "\u0120Glinda": 3139, "\u0120crust": 3140, "\u0120usually": 3141, "\u0120porridge": 3142, "\u0120averted": 3143, "\u0120dinghies": 3144, "\u0120savored": 3145, "\u0120whirligig": 3146, "\u0120thicker": 3147, "\u0120English": 3148, "\u0120Record": 3149, "\u0120Store": 3150, "Li": 3151, "\u0120shiney": 3152, "pped": 3153, "work": 3154, "Fig": 3155, "\u0120Pointing": 3156, "ton": 3157, "el": 3158, "Horsy": 3159, "SECRET": 3160, "\u0120necessary": 3161, "Run": 3162, "\u0120envious": 3163, "\u0120softening": 3164, "\u0120granddaughter": 3165, "\u0120Earlier": 3166, "\u0120DONG": 3167, "tly": 3168, "\u0120slight": 3169, "\u0120naturally": 3170, "\u0120afraid": 3171, "\u0120smirked": 3172, "\u0120fired": 3173, "\u0120Jake": 3174, "\u0120deterred": 3175, "Poppy": 3176, "\u0120evaporated": 3177, "\u0120itches": 3178, "\u0120performs": 3179, "\u0120Bly": 3180, "Namaste": 3181, "\u0120coals": 3182, "\u00c5\u0135Who\u00c3\u00a2": 3183, "\u0120noticing": 3184, "\u0120driving": 3185, "\u0120brooch": 3186, "\u0120businessman": 3187, "\u0120withstood": 3188, "\u0120bragging": 3189, "\u0120Kite": 3190, "\u0120youngsters": 3191, "\u0120Henny": 3192, "\u0120antenna": 3193, "DANGER": 3194, "\u0120ranchers": 3195, "\u0120Mallory": 3196, "Zac": 3197, "\u0120large": 3198, "\u0120pray": 3199, "\u0120lovey": 3200, "books": 3201, "\u0120Plane": 3202, "\u0120further": 3203, "\u0120drows": 3204, "\u0120Spell": 3205, "\u0120Shaun": 3206, "\u0120decipher": 3207, "\u0120barely": 3208, "\u0120Breanna": 3209, "\u0120tomato": 3210, "\u0120Surfing": 3211, "Everyday": 3212, "ified": 3213, "\u0120partygoers": 3214, "\u0120whales": 3215, "\u0120demolished": 3216, "\u0120steps": 3217, "\u0120bounty": 3218, "\u0120drooling": 3219, "\u0120sleeps": 3220, "\u0120aaah": 3221, "\u0120Salad": 3222, "\u0120emotion": 3223, "\u0120Office": 3224, "\u0120emerging": 3225, "\u0120luggage": 3226, "\u0120manages": 3227, "\u0120Audrey": 3228, "\u0120perseverance": 3229, "\u0120Cub": 3230, "\u0120barn": 3231, "\u0120Amber": 3232, "\u0120Here\u00c3\u00a2": 3233, "\u0120frosted": 3234, "\u0120Violin": 3235, "\u0120''": 3236, "\u0120respect": 3237, "\u0120raincloud": 3238, "Piccolina": 3239, "Maddy\u00c3\u00a2": 3240, "\u0120bbcang": 3241, "Hank": 3242, "\u0120earned": 3243, "ta": 3244, "Squeaky": 3245, "\u0120kilos": 3246, "\u0120weary": 3247, "\u0120Helen": 3248, "\u0120Elevators": 3249, "\u0120seventeen": 3250, "\u0120aggression": 3251, "where": 3252, "\u0120None": 3253, "\u0120destroy": 3254, "\u0120skies": 3255, "Spi": 3256, "\u0120cells": 3257, "\u0120acknowledgement": 3258, "Sharp": 3259, "\u0120Umbrella": 3260, "\u0120pocketful": 3261, "\u0120metaphor": 3262, "Louise": 3263, "\u0120Beddy": 3264, "\u0120skunks": 3265, "\u0120tonnes": 3266, "\u0120leapt": 3267, "\u0120smudges": 3268, "Days": 3269, "\u0120separately": 3270, "\u0120Surrounding": 3271, "n\u00c3\u00a2": 3272, "\u0120syllables": 3273, "Cannonball": 3274, "\u0120steeled": 3275, "\u0120decks": 3276, "\u0120meditate": 3277, "\u0120passages": 3278, "\u0120Excuse": 3279, "Arkie": 3280, "\u0120Pale": 3281, "\u0120exclude": 3282, "\u0120rowing": 3283, "\u0120Kevin": 3284, "Actually": 3285, "\u0120continue": 3286, "\u0120seasoned": 3287, "\u0120snipped": 3288, "dream": 3289, "\u0120Except": 3290, "Tweetie": 3291, "\u0120troublemaker": 3292, "\u0120baths": 3293, "\u0120durable": 3294, "Jamela": 3295, "\u0120tail": 3296, "toot": 3297, "Pinching": 3298, "Congrats": 3299, "\u0120zzz": 3300, "\u0120Balloons": 3301, "\u0120centipede": 3302, "\u0120Slimy": 3303, "\u0120Oliva": 3304, "\u0120somewhat": 3305, "\u0120warily": 3306, "\u0120bomb": 3307, "\u0120noun": 3308, "Oswald": 3309, "\u0120float": 3310, "\u0120fluid": 3311, "\u0120smilingly": 3312, "boom": 3313, "\u0120Lara": 3314, "Raj": 3315, "\u0120funnel": 3316, "\u0120sock": 3317, "energ": 3318, "Bzzz": 3319, "Rudi": 3320, "\u0120glum": 3321, "MooMoo": 3322, "\u0120crown": 3323, "lets": 3324, "\u0120fails": 3325, "\u0120Melty": 3326, "\u0120venturing": 3327, "makers": 3328, "\u00c5\u0135Suzy": 3329, "Lucy\u00c3\u00a2": 3330, "\u0120trucker": 3331, "roo": 3332, "\u0120ahh": 3333, "\u0120pancake": 3334, "\u0120Star": 3335, "\u0120Franklin": 3336, "promise": 3337, "weird": 3338, "\u0120Hilary": 3339, "\u0120Pongo": 3340, "\u0120Tarun": 3341, "\u0120quake": 3342, "\u0120barbershop": 3343, "\u0120frown": 3344, "\u0120saucer": 3345, "\u0120Liza": 3346, "Whistle": 3347, "Bun": 3348, "\u0120shrinker": 3349, "Replace": 3350, "\u0120heaviest": 3351, "Logan": 3352, "!\\\"": 3353, "\u0120plain": 3354, "\u0120workman": 3355, "\u0120realise": 3356, "\u0120possessions": 3357, "\u0120score": 3358, "Kick": 3359, "\u0120sunning": 3360, "amon": 3361, "checkmate": 3362, "Margret": 3363, "\u0120produced": 3364, "foot": 3365, "\u0120ashtray": 3366, "\u0120clumsy": 3367, "\u0120soaked": 3368, "\u0120piglets": 3369, "\u0120pans": 3370, "\u0120riders": 3371, "\u0120Turtles": 3372, "un": 3373, "\u0120requests": 3374, "\u0120whose": 3375, "\u0120counsel": 3376, "\u0120ingenious": 3377, "\u0120Amalia": 3378, "\u0120Thank": 3379, "\u0120Jessi": 3380, "\u0120Rino": 3381, "\u0120petunias": 3382, "\u0120intuition": 3383, "\u0120Spark": 3384, "\u0120gluing": 3385, "\u0120Midge": 3386, "\u0120climax": 3387, "\u0120slapped": 3388, "\u0120truthful": 3389, "\u0120criminal": 3390, "\u0120tribute": 3391, "SNAP": 3392, "\u0120fanning": 3393, "Clifford": 3394, "\u0120Sauce": 3395, "\u0120manage": 3396, "\u0120listeners": 3397, "Celebrate": 3398, "\u0120Daniella": 3399, "melt": 3400, "Rufus": 3401, "\u0120fro": 3402, "\u0120Mystery": 3403, "\u0120details": 3404, "\u0120reversing": 3405, "\u0120survive": 3406, "\u0120firewood": 3407, "\u0120headaches": 3408, "\u0120tv": 3409, "Reading": 3410, "stupid": 3411, "\u0120Nunu": 3412, "\u0120recycle": 3413, "\u0120motorcyclist": 3414, "\u0120dressing": 3415, "\u0120toiled": 3416, "\u0120Stamp": 3417, "go": 3418, "\u0120unfriendly": 3419, "\u0120completely": 3420, "weight": 3421, "\u0120attractive": 3422, "\u0120mower": 3423, "\u0120waft": 3424, "Jenn": 3425, "According": 3426, "\u0120Emmie": 3427, "\u0120got": 3428, "\u0120mint": 3429, "\u0120Tabitha": 3430, "\u0120dejected": 3431, "dinner": 3432, "\u0120enclosures": 3433, "Star": 3434, "?''": 3435, "cap": 3436, "\u0120freely": 3437, "\u0120backs": 3438, "\u0120sleigh": 3439, "Fido": 3440, "SCREAM": 3441, "\u0120gnawed": 3442, "\u0120saw": 3443, "climbing": 3444, "\u0120Unfortuantely": 3445, "\u0120skim": 3446, "\u0120perching": 3447, "\u0120Darcy": 3448, "\u0120hallway": 3449, "\u0120wail": 3450, "\u0120sunrise": 3451, "\u0120cantaloupe": 3452, "\u0120barber": 3453, "...": 3454, "\u0120Penn": 3455, "\u0120Shawn": 3456, "Marco": 3457, "\u0120smear": 3458, "\u0120believe": 3459, "\u0120carrier": 3460, "\u0120karate": 3461, "wheat": 3462, "Smell": 3463, "\u0120Brush": 3464, "\u0120whirr": 3465, "\u00c5\u0135Jane": 3466, "Brenda": 3467, "\u00c5\u0135Well": 3468, "Ken": 3469, "youth": 3470, "\u0120actresses": 3471, "\u0120jumpy": 3472, "\u0120floodwaters": 3473, "\u0120notice": 3474, "\u0120Sniffles": 3475, "\u0120parched": 3476, "Poison": 3477, "\u0120tempting": 3478, "\u0120mistreat": 3479, "waste": 3480, "Eating": 3481, "\u0120twisting": 3482, "\u0120Candy": 3483, "\u0120anwered": 3484, "\u0120pssss": 3485, "\u00c5\u0135Not": 3486, "\u0120Salma": 3487, "Swimmy": 3488, "\u0120peeks": 3489, "\u0120porcupine": 3490, "\u0120daisys": 3491, "\u0120embers": 3492, "Sienna": 3493, "\u0120GO": 3494, "\u0120Monica": 3495, "\u0120filty": 3496, "\u0120saunter": 3497, "\u0120plowed": 3498, "\u0120mushroom": 3499, "\u0120ancients": 3500, "thinking": 3501, "\u0120Aimee": 3502, "\u0120access": 3503, "\u0120Jimmy": 3504, "\u0120Sometimes": 3505, "tag": 3506, "Promise": 3507, "\u0120Grandfather": 3508, "\u0120Sizzy": 3509, "\u0120hummus": 3510, "\u0120burrows": 3511, "\u0120Am": 3512, "bite": 3513, "\u0120twirler": 3514, "\u0120owies": 3515, "\u0120Hippy": 3516, "\u0120hollered": 3517, "\u0120Horsey": 3518, "\u0120matters": 3519, "Crunch": 3520, "\u0120File": 3521, "\u0120mom\u00c3\u00a2": 3522, "\u0120Wave": 3523, "\u0120leap": 3524, "Probably": 3525, "measure": 3526, "\u0120cost": 3527, "\u0120reenergized": 3528, "\u0120Poppo": 3529, "\u0120pull": 3530, "\u0120exploded": 3531, "\u0120peddle": 3532, "\u0120scroll": 3533, "Emmy": 3534, "Appear": 3535, "\u0120chimney": 3536, "\u0120Jolene": 3537, "Kimmie": 3538, "\u0120Zoom": 3539, "\u0120seating": 3540, "Yarr": 3541, "\u0120pawprints": 3542, "\u0120help": 3543, "\u0120tighter": 3544, "\u0120Blimpy": 3545, "\u0120mental": 3546, "tick": 3547, "\u0120Merlin": 3548, "\u0120Tucker": 3549, "\u0120animals": 3550, "Girls": 3551, "\u0120meandering": 3552, "Ch": 3553, "\u0120Horton": 3554, "\u0120Man": 3555, "Yep": 3556, "ip": 3557, "\u0120Victoria": 3558, "\u0120Chew": 3559, "\u0120injection": 3560, "\u0120sparks": 3561, "\u0120Traveling": 3562, "Vic": 3563, "Solly": 3564, "\u0120Dusty": 3565, "\u0120clouded": 3566, "\u0120shade": 3567, "\u00c5\u0135You": 3568, "\u0120shells": 3569, "\u0120foiled": 3570, "\u0120light": 3571, "\u0120raggedy": 3572, "String": 3573, "\u0120withered": 3574, "\u0120resulting": 3575, "lively": 3576, "\u0120Starbucks": 3577, "\u0120midst": 3578, "\u0120mops": 3579, "\u0120mosquitos": 3580, "\u0120zebras": 3581, "Marvellous": 3582, "\u0120bobbing": 3583, "\u0120skulls": 3584, "\u0120your": 3585, "\u0120Hula": 3586, "\u0120shrimpy": 3587, "\u0120soups": 3588, "\u0120prepare": 3589, "\u0120cookout": 3590, "\u0120grownups": 3591, "\u0120unanswered": 3592, "\u0120perch": 3593, "\u0120goldfinch": 3594, "\u0120fingerprints": 3595, "\u0120Chinese": 3596, "\u0120Meeka": 3597, "Layla": 3598, "\u0120hissy": 3599, "\u0120scared\u00c3\u00a2": 3600, "\u0120paddy": 3601, "\u0120cheat": 3602, "\u0120hypothermia": 3603, "\u0120strange\u00c3\u00a2": 3604, "\u0120annual": 3605, "\u0120hedge": 3606, "\u0120Provide": 3607, "\u0120winnings": 3608, "\u0120grocery": 3609, "\u0120exists": 3610, "\u0120Jena": 3611, "Ignore": 3612, "instein": 3613, "\u0120volunteers": 3614, "\u0120taxis": 3615, "\u0120Kobal": 3616, "\u0120Bible": 3617, "\u0120Smolive": 3618, "\u0120Rose\u00c3\u00a2": 3619, "Lee": 3620, "\u0120tallest": 3621, "\u0120Biba": 3622, "\u0120Instinctively": 3623, "\u0120beaks": 3624, "\u0120stomach": 3625, "\u0120toot": 3626, "\u0120harmonious": 3627, "\u0120Gregory": 3628, "\u0120undeniable": 3629, "\u0120Tilley": 3630, "Sun": 3631, "\u0120priceless": 3632, "\u0120swimmer": 3633, "\u0120Elton": 3634, "Fixing": 3635, "\u0120Whi": 3636, "\u0120appropriate": 3637, "\u0120achoo": 3638, "Dolly": 3639, "\u0120thanks": 3640, "\u0120jokey": 3641, "\u0120Sparrow": 3642, "\u0120valley": 3643, "\u0120unrolls": 3644, "Bess": 3645, "\u0120exhibits": 3646, "\u0120Lil": 3647, "\u0120shampoos": 3648, "\u0120Erwin": 3649, "\u0120putrid": 3650, "Sport": 3651, "Bunnies": 3652, "\u0120dyed": 3653, "\u0120mudpit": 3654, "Forgiveness": 3655, "\u0120Rico": 3656, "\u00c5\u0135give": 3657, "\u0120Hog": 3658, "Soil": 3659, "\u0120Roxy": 3660, "from": 3661, "\u0120farms": 3662, "\u0120Lawyer": 3663, "\u0120Meghan": 3664, "\u0120standards": 3665, "\u0120squeezes": 3666, "\u0120ferry": 3667, "\u0120jollier": 3668, "\u0120Goodnight": 3669, "zipped": 3670, "People": 3671, "\u0120eyeshadows": 3672, "\u0120valuing": 3673, "\u0120escaped": 3674, "\u0120clipped": 3675, "intelligent": 3676, "\u0120useful": 3677, "\u0120swore": 3678, "Jeffery": 3679, "\u0120summertime": 3680, "\u0120formation": 3681, "eling": 3682, "\u0120leak": 3683, "\u0120Cheepy": 3684, "\u0120Harry": 3685, "block": 3686, "\u0120alighted": 3687, "\u0120aeroplane": 3688, "\u0120unapproachable": 3689, "hug": 3690, "\u0120thinning": 3691, "\u0120goodie": 3692, "\u0120Kwame": 3693, "\u0120Gunnar": 3694, "Coach": 3695, "\u0120silver": 3696, "Jaker": 3697, "\u0120pout": 3698, "\u0120bounding": 3699, "\u0120goodness": 3700, "\u0120supported": 3701, "\u0120drives": 3702, "\u0120Hopster": 3703, "\u0120embracing": 3704, "\u0120retaliate": 3705, "Yaaaay": 3706, "\u0120Written": 3707, "\u0120Lizzy": 3708, "\u0120pow": 3709, "\u0120corrected": 3710, "\u0120crack": 3711, "journal": 3712, "\u0120dive": 3713, "\u0120Forest": 3714, "\u0120farmhouse": 3715, "\u0120winters": 3716, "\u0120Squish": 3717, "\u0120thrive": 3718, "\u0120Wheel": 3719, "\u0120Garden": 3720, "\u0120Lessons": 3721, "Brr": 3722, "Lilo": 3723, "\u0120hug\u00c3\u00a2": 3724, "En": 3725, "\u0120Kaylee": 3726, "\u0120swamp": 3727, "\u0120York": 3728, "\u0120house\u00c3\u00a2": 3729, "hurt": 3730, "\u0120passes": 3731, "\u0120merged": 3732, "\u00c5\u0135Mine": 3733, "par": 3734, "\u0120crawdad": 3735, "\u0120coin": 3736, "grandfather": 3737, "\u0120Moments": 3738, "\u0120row": 3739, "\u0120quiche": 3740, "\u0120whooshing": 3741, "\u0120spied": 3742, "\u0120remained": 3743, "\u0120screechy": 3744, "\u0120cranky": 3745, "\u0120Fridays": 3746, "\u0120search": 3747, "\u0120Unusual": 3748, "Picnic": 3749, "smiling": 3750, "\u0120overcome": 3751, "\u0120discouraged": 3752, "\u0120bullets": 3753, "\u0120hairdressers": 3754, "\u0120Kiara": 3755, "\u0120sandwhiches": 3756, "\u0120leaps": 3757, "`": 3758, "\u0120extension": 3759, "\u0120Edie": 3760, "\u0120queen": 3761, "\u0120thunderstorm": 3762, "\u0120contemplating": 3763, "easy": 3764, "\u0120Organizing": 3765, "ble": 3766, "\u0120scour": 3767, "\u0120leadership": 3768, "\u0120romping": 3769, "\u0120disappearing": 3770, "\u0120Seek": 3771, "\u0120Owl": 3772, "\u0120?": 3773, "Emergency": 3774, "Trust": 3775, "\u0120subjects": 3776, "celebrate": 3777, "\u0120refuge": 3778, "that": 3779, "\u0120homeless": 3780, "\u0120Cherish": 3781, "\u0120jokester": 3782, "\u0120slowly": 3783, "\u0120sapphires": 3784, "\u0120quickness": 3785, "\u0120Sticks": 3786, "\u0120Marti": 3787, "guess": 3788, "\u0120sledding": 3789, "\u0120mural": 3790, "\u0120Mulla": 3791, "Sweetie": 3792, "drops": 3793, "\u0120airports": 3794, "painted": 3795, "\u0120Saw": 3796, "\u0120register": 3797, "\u0120dependable": 3798, "short": 3799, "clap": 3800, "\u0120backside": 3801, "'t": 3802, "\u0120misplaced": 3803, "\u0120triplet": 3804, "\u0120frolicking": 3805, "\u0120nice": 3806, "ele": 3807, "\u0120charmed": 3808, "\u0120Judaism": 3809, "\u0120Gia": 3810, "Glidey": 3811, "\u0120vroomed": 3812, "\u0120Cried": 3813, "\u0120Signs": 3814, "\u0120certainly": 3815, "\u0120togther": 3816, "surrender": 3817, "Pammy": 3818, "Baeden": 3819, "\u0120roles": 3820, "\u0120survivor": 3821, "Wriggle": 3822, "\u0120dime": 3823, "\u0120Granddad": 3824, "\u0120traverse": 3825, "\u0120inject": 3826, "\u0120tools": 3827, "Horses": 3828, "Dave\u00c3\u00a2": 3829, "\u0120squinting": 3830, "Razor": 3831, "\u0120Corny": 3832, "Shouting": 3833, "\u0120sputter": 3834, "bright": 3835, "\u0120Grubby": 3836, "\u0120resisted": 3837, "\u0120writhing": 3838, "\u0120holly": 3839, "\u0120twittered": 3840, "\u0120Everytime": 3841, "\u0120Juniper": 3842, "\u0120whistle": 3843, "\u0120melodious": 3844, "\u0120grrr": 3845, "\u0120Homework": 3846, "\u0120knight": 3847, "\u0120Mundy": 3848, "\u0120Ally": 3849, "\u0120crowded": 3850, "\u0120Peaches": 3851, "\u0120flapping": 3852, "\u0120dozens": 3853, "\u0120request": 3854, "\u0120foolishly": 3855, "\u0120toss": 3856, "\u0120guiding": 3857, "\u0120sleds": 3858, "\u0120perfect\u00c3\u00a2": 3859, "\u0120beavers": 3860, "\u0120Stephanie": 3861, "Healthy": 3862, "\u0120joys": 3863, "\u0120Doughy": 3864, "Shirley": 3865, "\u0120carver": 3866, "Jada": 3867, "b": 3868, "Knitting": 3869, "\u0120extinguisher": 3870, "kg": 3871, "\u0120recognizes": 3872, "\u0120avid": 3873, "\u0120wits": 3874, "\u0120Im": 3875, "\u0120observations": 3876, "Jocelyn": 3877, "\u0120Narnia": 3878, "\u0120starts": 3879, "There": 3880, "\u0120Saira": 3881, "nothing": 3882, "Shoot": 3883, "Bang": 3884, "yn": 3885, "\u0120Mix": 3886, "\u0120Shakespeare": 3887, "\u0120scent": 3888, "\u0120scout": 3889, "\u0120beetles": 3890, "\u0120Submerged": 3891, "\u0120weirder": 3892, "Wall": 3893, "\u0120metals": 3894, "\u0120woozy": 3895, "curiosity": 3896, "\u0120Looks": 3897, "\u0120friendliness": 3898, "\u0120windier": 3899, "\u0120Closed": 3900, "\u0120shipwreck": 3901, "\u0120Foolish": 3902, "\u0120barnacles": 3903, "\u0120Jo": 3904, "\u0120brandished": 3905, "\u0120rakes": 3906, "\u0120E": 3907, "\u0120rowed": 3908, "\u0120compromises": 3909, "\u0120teachings": 3910, "\u0120Festi": 3911, "\u0120streched": 3912, "\u0120dispose": 3913, "\u0120pant": 3914, "\u0120mornings": 3915, "\u0120pom": 3916, "\u00e2\u0124\u00ac!": 3917, "\u0120artificial": 3918, "\u0120purring": 3919, "\u0120islands": 3920, "\u0120assembled": 3921, "\u0120dragons": 3922, "\u0120Doesn": 3923, "Rover": 3924, "\u0120Decorating": 3925, "\u0120antler": 3926, "Defeated": 3927, "Knowledge": 3928, "\u0120bother": 3929, "\u0120standing": 3930, "\u0120bookends": 3931, "\u0120Jannie": 3932, "\u0120ferociously": 3933, "\u0120reclaim": 3934, "fifteen": 3935, "\u0120exclaiming": 3936, "\u0120guessing": 3937, "Olaf": 3938, "\u0120reminds": 3939, "\u0120Savanie": 3940, "\u0120Hickory": 3941, "\u0120thumping": 3942, "\u0120dirty": 3943, "Worm": 3944, "\u0120recognized": 3945, "\u0120Bubble": 3946, "Marcy": 3947, "\u00c5\u0135reading": 3948, "independent": 3949, "\u0120hangman": 3950, "\u0120wizards": 3951, "Lean": 3952, "\u0120sometimes": 3953, "Icy": 3954, "Kenzie": 3955, "\u0120Ciara": 3956, "Trixie": 3957, "leave": 3958, "\u0120splendid": 3959, "Boots": 3960, "\u0120mic": 3961, "\u0120messiness": 3962, "\u0120Sox": 3963, "Painting": 3964, "\u0120chisel": 3965, "\u0120yowled": 3966, "Chewy": 3967, "\u0120Greenie": 3968, "\u0120pharmacist": 3969, "\u0120mallard": 3970, "\u0120spinned": 3971, "\u0120sobbed": 3972, "\u0120Susan": 3973, "\u0120haven": 3974, "treasures": 3975, "\u0120artistic": 3976, "\u0120particular": 3977, "Pssst": 3978, "\u0120Feed": 3979, "YAY": 3980, "\u0120Jac": 3981, "\u0120Sunshine": 3982, "\u00c5\u0135That": 3983, "\u0120unforgiving": 3984, "\u0120adviser": 3985, "Evan": 3986, "\u0120Hopkins": 3987, "\u0120boop": 3988, "\u0120patted": 3989, "\u0120number": 3990, "ignore": 3991, "\u0120Turning": 3992, "hurray": 3993, "Zippy": 3994, "\u0120karaoke": 3995, "\u0120Goldy": 3996, "\u0120everywhere": 3997, "\u0120blank": 3998, "Henny": 3999, "\u0120caught": 4000, "\u0120Christopher": 4001, "\u0120addresses": 4002, "\u0120Crikey": 4003, "\u0120disease": 4004, "\u0120tagger": 4005, "Boing": 4006, "\u0120assembly": 4007, "Kit": 4008, "\u0120ascend": 4009, "Tyler": 4010, "\u0120blinking": 4011, "\u0120equation": 4012, "turned": 4013, "\u0120mattress": 4014, "Airport": 4015, "\u0120special": 4016, "\u0120setback": 4017, "\u0120prowled": 4018, "\u0120Colourful": 4019, "\u00c5\u0135Hello": 4020, "\u0120Treasure": 4021, "\u0120meaner": 4022, "\u0120Alby": 4023, "\u0120Leela": 4024, "\u0120Reward": 4025, "\u0120crinkled": 4026, "Hugh": 4027, "\u0120toboggan": 4028, "\u0120shouts": 4029, "\u0120lilies": 4030, "\u0120reptile": 4031, "Purple": 4032, "\u0120Tommy": 4033, "\u0120pollute": 4034, "Write": 4035, "\u0120packing": 4036, "\u0120banks": 4037, "\u0120devised": 4038, "\u0120move": 4039, "\u00c5\u0135believe\u00c3\u00a2": 4040, "\u0120truffle": 4041, "\u0120marshy": 4042, "\u0120adds": 4043, "\u0120Katrina": 4044, "\u0120Rock": 4045, "\u0120whispered": 4046, "Choco": 4047, "\u0120Bro": 4048, "\u0120novels": 4049, "\u0120Unless": 4050, "\u0120Whisper": 4051, "Mitchel": 4052, "\u00b7": 4053, "\u0120hooves": 4054, "Andi": 4055, "\u0120journals": 4056, "ner": 4057, "\u0120Trusting": 4058, "\u0120loss": 4059, "\u0120fluff": 4060, "\u0120cascade": 4061, "\u0120meals": 4062, "\u0120modern": 4063, "\u0120Weapon": 4064, "\u0120Want": 4065, "\u0120doodled": 4066, "\u0120archers": 4067, "\u0120Soar": 4068, "\u0120Jingle": 4069, "\u0120Dr": 4070, "Beanie": 4071, "Indeed": 4072, "\u0120tiptoe": 4073, "\u0120playdough": 4074, "spray": 4075, "Rat": 4076, "\u0120Yay": 4077, "These": 4078, "\u0120preheat": 4079, "Adults": 4080, "\u0120obeying": 4081, "\u0120Jacki": 4082, "\u0120Swiss": 4083, "\u0120workplace": 4084, "\u0120loaf": 4085, "\u0120range": 4086, "\u0120Lock": 4087, "\u0120Mouth": 4088, "\u0120clutch": 4089, "cent": 4090, "\u0120plucking": 4091, "\u0120Chuckles": 4092, "Carmen": 4093, "\u0120swerving": 4094, "\u0120peculiar": 4095, "\u0120AMAZING": 4096, "\u0120kitten": 4097, "Thief": 4098, "em": 4099, "\u0120Stream": 4100, "\u0120broom": 4101, "im": 4102, "\u0120discovered": 4103, "Tiger": 4104, "Almost": 4105, "\u0120shoreline": 4106, "Everyone": 4107, "Row": 4108, "\u0120Berty": 4109, "\u0120Bhoomi": 4110, "\u0120its": 4111, "\u0120wilting": 4112, "\u0120Rice": 4113, "\u0120wishes": 4114, "Sh": 4115, "\u0120charmingly": 4116, "\u0120hydrated": 4117, "\u0120mailmen": 4118, "\u0120Flop": 4119, "karts": 4120, "Kid": 4121, "\u0120policeman": 4122, "\u00c5\u0135come": 4123, "30": 4124, "\u0120tricking": 4125, "\u0120Pets": 4126, "Neva": 4127, "\u0120orchid": 4128, "\u0120urchin": 4129, "\u0120underestimate": 4130, "\u0120Wriggly": 4131, "\u0120Yash": 4132, "\u0120spicies": 4133, "\u0120Zippy": 4134, "lamp": 4135, "\u0120arduous": 4136, "\u0120Orderly": 4137, "\u0120crestfallen": 4138, "\u0120Brave": 4139, "\u0120uncertain": 4140, "\u0120puppy\u00c3\u00a2": 4141, "\u0120\u010a\u010a\u0120": 4142, "\u0120Too": 4143, "\u0120scrapes": 4144, "\u0120Kicking": 4145, "\u0120Battery": 4146, "\u0120Tim": 4147, "\u0120units": 4148, "\u0120crutch": 4149, "\u0120dolphin": 4150, "god": 4151, "\u0120abra": 4152, "BOOM": 4153, "Amos": 4154, "\u0120Cupcake": 4155, "\u0120waking": 4156, "\u0120hiders": 4157, "\u0120anim": 4158, "\u0120Problem": 4159, "\u0120zeros": 4160, "\u0120Shore": 4161, "\u0120appeti": 4162, "\u0120politics": 4163, "\u0120fireplace": 4164, "\u0120Zee": 4165, "\u0120Boogaloo": 4166, "\u0120don\u00c3\u00a2": 4167, "\u0120member": 4168, "delete": 4169, "\u0120sweep": 4170, "\u0120Emily": 4171, "\u0120Screen": 4172, "\u0120Davy": 4173, "Beaky": 4174, "\u0120Cheery": 4175, "\u0120muffins": 4176, "\u0120cubs": 4177, "\u0120sleek": 4178, "Mikey": 4179, "\u0120roundabouts": 4180, "\u0120Brachiosaurus": 4181, "Bella": 4182, "\u0120transported": 4183, "Biggy": 4184, "Hiss": 4185, "\u0120teeny": 4186, "\u0120Taxis": 4187, "Mercy": 4188, "\u0120stretchers": 4189, "\u0120Thunder": 4190, "\u0120Matching": 4191, "\u0120Lala": 4192, "\u0120Lillie": 4193, "\u0120positioned": 4194, "\u0120Tenni": 4195, "Well": 4196, "\u0120sprouting": 4197, "Movie": 4198, "\u0120stake": 4199, "zagged": 4200, "\u0120tucking": 4201, "\u0120LEGO": 4202, "\u0120shrieking": 4203, "\u0120Loli": 4204, "That\u00c3\u00a2": 4205, "\u0120sweeten": 4206, "However": 4207, "\u0120cones": 4208, "\u0120Jimmy\u00c3\u00a2": 4209, "\u0120Cheers": 4210, "\u0120restaurants": 4211, "\u0120Rainbowland": 4212, "\u00c5\u0135The": 4213, "\u0120tested": 4214, "\u0120wallaby": 4215, "Vegetables": 4216, "\u0120olives": 4217, "SE": 4218, "\u0120Twirl": 4219, "\u0120antioxidants": 4220, "\u0120Scientists": 4221, "\u0120Noodle": 4222, "\u0120dashed": 4223, "\u0120disheartened": 4224, "Isn": 4225, "\u0120Cookies": 4226, "\u0120Off": 4227, "\u0120Nibbles": 4228, "\u0120th": 4229, "\u0120honesty": 4230, "oy": 4231, "\u0120fortunately": 4232, "Wooo": 4233, "\u0120Jenifer": 4234, "\u0120sunrays": 4235, "\u0120Guy": 4236, "\u0120favourite": 4237, "\u0120ink": 4238, "\u0120Greene": 4239, "\u0120glassy": 4240, "\u0120rearranging": 4241, "Asuka": 4242, "\u0120weeps": 4243, "\u0120bitey": 4244, "\u0120fiddle": 4245, "\u0120focus": 4246, "\u0120Amina": 4247, "\u0120Busy": 4248, "peet": 4249, "\u0120complied": 4250, "\u0120worksheets": 4251, "\u0120dragonfly": 4252, "\u0120oozed": 4253, "\u0120Free": 4254, "\u0120supernova": 4255, "\u0120clacked": 4256, "\u0120feisty": 4257, "\u0120Whee": 4258, "Sparkles": 4259, "\u0120flushing": 4260, "\u0120cycled": 4261, "\u0120smoothest": 4262, "Mara": 4263, "\u0120Lassie": 4264, "\u0120railing": 4265, "Squi": 4266, "clouds": 4267, "\u0120Apologize": 4268, "\u0120fox\u00c3\u00a2": 4269, "\u0120glared": 4270, "\u0120Grassy": 4271, "\u0120dismissed": 4272, "\u0120puffin": 4273, "\u0120Skye": 4274, "\u0120Bishop": 4275, "\u0120Crown": 4276, "\u0120rapidly": 4277, "Tabitha": 4278, "\u0120trip": 4279, "\u0120wellington": 4280, "\u0120stacked": 4281, "\u0120Popcorn": 4282, "thank": 4283, "\u0120Karan": 4284, "\u0120frighten": 4285, "Bugs": 4286, "\u0120Esha": 4287, "\u0120Juggler": 4288, "\u0120stretching": 4289, "\u0120Chevy": 4290, "\u0120drug": 4291, "\u0120brewed": 4292, "\u0120woods": 4293, "\u0120hopping": 4294, "\u0120Jaya": 4295, "\u0120birdies": 4296, "\u0120Courtney": 4297, "\u0120Rather": 4298, "\u0120hairy": 4299, "\u0120pack": 4300, "\u0120symmetrical": 4301, "\u0120powders": 4302, "\u00c5\u0135Like": 4303, "\u0120championship": 4304, "Edna": 4305, "\u0120surprises": 4306, "Drinking": 4307, "\u0120survived": 4308, "A": 4309, "Richard": 4310, "va": 4311, "\u0120pleeease": 4312, "\u0120plains": 4313, "\u012076": 4314, "scratch": 4315, "\u0120straws": 4316, "\u0120advertising": 4317, "\u0120Lecture": 4318, "Tobi": 4319, "\u0120destructive": 4320, "\u0120navigated": 4321, "\u0120stammer": 4322, "hide": 4323, "bulb": 4324, "\u0120Treats": 4325, "\u0120Law": 4326, "\u0120makers": 4327, "\u0120cliff": 4328, "\u0120guess": 4329, "\u0120dumbfounded": 4330, "Laser": 4331, "\u0120bicycle": 4332, "our": 4333, "\u0120victoriously": 4334, "\u0120unfurled": 4335, "\u0120whizzed": 4336, "\u0120Press": 4337, "\u0120fragments": 4338, "whoo": 4339, "\u0120hornet": 4340, "\u0120lock": 4341, "dog": 4342, "Raven": 4343, "Brad": 4344, "\u0120overlooking": 4345, "\u0120earning": 4346, "\u0120nurture": 4347, "\u0120sharpener": 4348, "\u0120flips": 4349, "\u0120encased": 4350, "Maaa": 4351, "\u0120flittered": 4352, "\u0120Pumpkin": 4353, "Stealing": 4354, "\u0120grandson": 4355, "Buster": 4356, "Squeak": 4357, "\u0120spare": 4358, "\u0120slithers": 4359, "\u0120impulsive": 4360, "\u0120boosted": 4361, "Sandy\u00c3\u00a2": 4362, "\u0120rancher": 4363, "\u0120invited": 4364, "\u0120bows": 4365, "shoo": 4366, "face": 4367, "\u0120crepe": 4368, "\u0120sands": 4369, "\u0120rehearse": 4370, "\u0120nozzle": 4371, "\u0120Daemon": 4372, "\u0120steal": 4373, "\u0120exercises": 4374, "\u0120inquisitive": 4375, "Darlene": 4376, "\u0120static": 4377, "Their": 4378, "\u0120strong\u00c3\u00a2": 4379, "\u0120Zog": 4380, "Jed": 4381, "\u0120Daddy\u00c3\u00a2": 4382, "\u0120Shapes": 4383, "adium": 4384, "\u0120inevitably": 4385, "\u0120replica": 4386, "Max\u00c3\u00a2": 4387, "\u0120fright": 4388, "\u0120numb": 4389, "\u0120pools": 4390, "\u0120trapped": 4391, "$": 4392, "\u0120Fritzy": 4393, "Shona": 4394, "\u0120suspects": 4395, "Kira": 4396, "\u0120UFO": 4397, "Sheila": 4398, "\u0120backfire": 4399, "BREAK": 4400, "\u0120racquet": 4401, "\u0120perfection": 4402, "Sir": 4403, "\u0120stops": 4404, "\u0120unplaited": 4405, "\u0120Carla": 4406, "\u0120inherit": 4407, "\u0120expense": 4408, "\u0120chains": 4409, "\u0120roasting": 4410, "\u0120designs": 4411, "Seventy": 4412, "Bawk": 4413, "\u0120bumble": 4414, "\u0120Wow": 4415, "\u0120Giggles": 4416, "\u0120Jaz": 4417, "Suzanne": 4418, "\u0120moaning": 4419, "\u0120widening": 4420, "\u0120Mallow": 4421, "\u0120centre": 4422, "\u0120prayer": 4423, "\u0120took": 4424, "\u0120spreads": 4425, "Bessie": 4426, "\u0120Meggie": 4427, "bad": 4428, "\u0120sword": 4429, "ast": 4430, "\u0120tandem": 4431, "\u0120Oh": 4432, "\u0120Tire": 4433, "\u0120teamwork": 4434, "\u0120Lilo": 4435, "\u0120foresight": 4436, "\u0120Antarctica": 4437, "brick": 4438, "\u0120FOUND": 4439, "\u0120tallied": 4440, "\u0120peoples": 4441, "Tilly": 4442, "\u0120alarmed": 4443, "\u0120flamebird": 4444, "Comet": 4445, "\u0120shirt": 4446, "zagging": 4447, "Aisha": 4448, "Must": 4449, "\u0120mumbles": 4450, "Sophie": 4451, "\u0120scarfed": 4452, "\u0120bedside": 4453, "Gobble": 4454, "\u0120Shop": 4455, "pm": 4456, "\u0120Jonathan": 4457, "\u0120Lancelot": 4458, "Julie": 4459, "\u0120baker": 4460, "\u0120Sheet": 4461, "\u0120patty": 4462, "\u0120Mitty": 4463, "Kissing": 4464, "Archie": 4465, "Missed": 4466, "\u0120cowbell": 4467, "\u0120Miraculously": 4468, "\u0120Arabic": 4469, "\u0120current": 4470, "\u0120philosophy": 4471, "\u0120important\u00c3\u00a2": 4472, "\u0120Yvonne": 4473, "\u0120Neko": 4474, "\u0120rat\u00c3\u00a2": 4475, "\u0120toothy": 4476, "\u0120deeply": 4477, "\u0120Kace": 4478, "\u0120diced": 4479, "jo": 4480, "\u0120squares": 4481, "\u0120paperwork": 4482, "\u0120programme": 4483, "delicious": 4484, "\u0120WILL": 4485, "fee": 4486, "\u0120curious": 4487, "\u0120eyed": 4488, "\u0120overwhelm": 4489, "\u0120Essie": 4490, "yes\u00c3\u00a2": 4491, "quick": 4492, "Snort": 4493, "\u0120bubba": 4494, "\u0120islanders": 4495, "\u0120branches": 4496, "\u00c5\u0135Uncle": 4497, "\u0120Welcome": 4498, "\u0120pricks": 4499, "\u0120flight": 4500, "!'\".": 4501, "\u0120together\u00c3\u00a2": 4502, "\u0120pecked": 4503, "\u0120involve": 4504, "\u0120Ramon": 4505, "\u0120unconvinced": 4506, "Spike": 4507, "\u0120Nine": 4508, "\u0120hushed": 4509, "\u0120deliveries": 4510, "\u0120Doggie": 4511, "\u0120beginners": 4512, "Unite": 4513, "\u0120bugs": 4514, "\u0120shakily": 4515, "\u0120Seeds": 4516, "\u0120Penelope": 4517, "\u0120max": 4518, "\u0120nightgown": 4519, "\u0120fencing": 4520, "\u0120Mariah": 4521, "\u0120gestured": 4522, "\u0120Fun": 4523, "Lotion": 4524, "\u0120muffin": 4525, "\u0120creations": 4526, "\u0120stealing": 4527, "\u0120Sun": 4528, "\u0120surface": 4529, "Six": 4530, "\u0120vibrations": 4531, "\u0120fairytales": 4532, "\u0120crafty": 4533, "\u0120dealership": 4534, "''": 4535, "\u0120Hatty": 4536, "\u0120Keisha": 4537, "\u0120Relly": 4538, "\u0120huggable": 4539, "\u0120Mya": 4540, "ausage": 4541, "\u0120gauge": 4542, "\u0120Grumby": 4543, "\u0120fashion": 4544, "\u0120bait": 4545, "\u0120vowing": 4546, "Cheers": 4547, "\u0120accepted": 4548, "RY": 4549, "\u0120Hive": 4550, "Carlos": 4551, "\u0120Momo": 4552, "\u0120loyalty": 4553, "AL": 4554, "\u0120envelop": 4555, "\u00c5\u0135Perfect": 4556, "\u0120expressed": 4557, "\u0120covers": 4558, "\u0120Jokes": 4559, "\u0120playdate": 4560, "\u0120sways": 4561, "Pedal": 4562, "\u0120Ladder": 4563, "\u0120owie": 4564, "\u0120motivation": 4565, "\u0120blankets": 4566, "\u00c5\u0135who": 4567, "Giuliana": 4568, "\u0120guts": 4569, "\u00c5\u0135Beth": 4570, "Several": 4571, "\u0120eject": 4572, "\u0120Truck": 4573, "\u0120Hocus": 4574, "\u0120bzzz": 4575, "\u0120Peck": 4576, "\u0120vanishing": 4577, "\u0120yellowest": 4578, "\u0120spa": 4579, "Mollie": 4580, "\u0120lodged": 4581, "\u0120Shower": 4582, "\u0120bonnet": 4583, "Henry\u00c3\u00a2": 4584, "\u0120commemorate": 4585, "Kayleigh": 4586, "\u0120Jellybean": 4587, "\u0120such": 4588, "\u0120rejoined": 4589, "\u0120figured": 4590, "\u0120thrill": 4591, "\u00c5\u0135realize": 4592, "\u0120growing": 4593, "\u0120resume": 4594, "Heads": 4595, "ded": 4596, "\u0120Wonders": 4597, "Dennis": 4598, "\u0120remarkable": 4599, "\u0120propped": 4600, "\u0120jelly": 4601, "carrot": 4602, "\u0120sparing": 4603, "\u0120Bubbly": 4604, "\u0120asteroid": 4605, "Interesting": 4606, "\u0120skeptically": 4607, "Rex": 4608, "\u0120operas": 4609, "perform": 4610, "\u00c5\u0135Whee": 4611, "\u0120forecast": 4612, "\u0120submerged": 4613, "\u0120Hearing": 4614, "nightmare": 4615, "\u0120strut": 4616, "compassionate": 4617, "\u0120shenanigans": 4618, "\u0120Amazed": 4619, "\u0120Barry": 4620, "Nina": 4621, "\u0120chatters": 4622, "J": 4623, "\u0120Grill": 4624, "\u0120Buddha": 4625, "\u0120whisper": 4626, "mates": 4627, "Annabelle": 4628, "\u0120ticklish": 4629, "\u0120lizzard": 4630, "\u0120toes": 4631, "\u0120storyteller": 4632, "\u0120fitting": 4633, "\u0120gleefully": 4634, "\u0120ruffled": 4635, "\u0120sweetest": 4636, "\u0120Venus": 4637, "\u0120football": 4638, "Ok": 4639, "test": 4640, "cars": 4641, "\u0120Pow": 4642, "\u0120gig": 4643, "\u0120partner": 4644, "\u0120grassland": 4645, "\u00c5\u0135Stay": 4646, "\u0120scar": 4647, "\u0120elbow": 4648, "\u0120Tristan": 4649, "shut": 4650, "Test": 4651, "\u0120grandmamma": 4652, "\u0120insisting": 4653, "Nectar": 4654, "\u0120weigh": 4655, "\u0120sky\u00c3\u00a2": 4656, "Aurora": 4657, "first": 4658, "\u0120merchants": 4659, "Wife": 4660, "\u0120vowed": 4661, "birds": 4662, "\u0120connecting": 4663, "Scootie": 4664, "\u0120jumble": 4665, "ens": 4666, "\u0120elf": 4667, "Soak": 4668, "\u0120Ducky": 4669, "\u0120Broomy": 4670, "zoom": 4671, "\u0120neighbours": 4672, "r": 4673, "\u0120represented": 4674, "\u0120jugglers": 4675, "\u0120storm": 4676, "Chugga": 4677, "\u0120Bola": 4678, "\u0120Blackbeard": 4679, "Smart": 4680, "Jeremy": 4681, "Dodo": 4682, "\u0120enchanting": 4683, "Jonas": 4684, "\u0120overlapping": 4685, "Flo": 4686, "\u0120passport": 4687, "\u0120impatience": 4688, "\u0120Shh": 4689, "\u0120Breakfast": 4690, "\u0120holiday": 4691, "Twenty": 4692, "mannered": 4693, "\u0120Trini": 4694, "\u0120instrument": 4695, "ory": 4696, "\u0120Pacific": 4697, "snow": 4698, "\u00c5\u0135Oops": 4699, "\u0120floods": 4700, "Among": 4701, "\u0120Fuel": 4702, "\u0120thin": 4703, "button": 4704, "Drina": 4705, "\u0120Kaye": 4706, "\u0120Old": 4707, "Gently": 4708, "\u0120cloud": 4709, "\u0120Athena": 4710, "\u0120racetrack": 4711, "\u0120Start": 4712, "\u0120waving": 4713, "wake": 4714, "\u0120previously": 4715, "\u0120separation": 4716, "\u0120manes": 4717, "V": 4718, "\u0120disobeying": 4719, "\u0120sorter": 4720, "\u0120Oz": 4721, "\u0120Push": 4722, "\u0120whoa": 4723, "\u0120coyote": 4724, "\u0120rear": 4725, "\u0120rejoin": 4726, "\u0120flew": 4727, "\u0120Bink": 4728, "sequently": 4729, "Olivia": 4730, "\u0120Ary": 4731, "\u0120microphone": 4732, "\u0120Johan": 4733, "\u0120urged": 4734, "\u0120Your": 4735, "\u0120rugs": 4736, "Mac": 4737, "\u0120Luzy": 4738, "Natasha": 4739, "\u0120baggage": 4740, "\u0120untangles": 4741, "\u0120shark": 4742, "\u0120boring": 4743, "\u0120meets": 4744, "EXIT": 4745, "\u0120breathless": 4746, "\u0120Healer": 4747, "\u0120unkind": 4748, "\u0120hayfield": 4749, "\u0120quickly": 4750, "\u0120hitchhike": 4751, "\u0120Thumper": 4752, "\u0120moon": 4753, "\u0120hospitable": 4754, "\u0120Postman": 4755, "\u0120Hans": 4756, "Nana": 4757, "\u0120boldness": 4758, "Minerals": 4759, "\u0120airfield": 4760, "\u0120swiveled": 4761, "\u0120planted": 4762, "\u0120cheeping": 4763, "Sairy": 4764, "Taking": 4765, "\u0120Regardless": 4766, "\u0120drizzly": 4767, "\u0120identity": 4768, "ack": 4769, "\u0120sidewalk": 4770, "\u0120grizzly": 4771, "\u0120Bobble": 4772, "\u0120hit": 4773, "\u0120communicating": 4774, "\u0120zookeeper": 4775, "parrot": 4776, "Elliot": 4777, "\u0120adventurers": 4778, "\u0120fidgeted": 4779, "\u0120sweeping": 4780, "\u0120wellbeing": 4781, "Lili": 4782, "\u0120lap": 4783, "\u0120admires": 4784, "\u0120best": 4785, "\u0120boats": 4786, "\u0120Gorilla": 4787, "door": 4788, "Deliver": 4789, "\u0120iridescent": 4790, "\u0120funniest": 4791, "\u0120Buckles": 4792, "\u0120Aina": 4793, "\u0120sooner": 4794, "\u0120Kindergarten": 4795, "\u0120Mark\u00c3\u00a2": 4796, "\u0120Casey": 4797, "\u0120tortoise": 4798, "\u0120finishes": 4799, "Jessy": 4800, "\u0120rumble": 4801, "\u0120booklet": 4802, "\u0120Fern": 4803, "\u0120mindfully": 4804, "\u0120Tum": 4805, "\u0120mirror": 4806, "\u0120unlucky": 4807, "\u0120Numbers": 4808, "LE": 4809, "\u0120devoured": 4810, "Lacey": 4811, "\u0120scenic": 4812, "Jasper": 4813, "\u0120bonds": 4814, "\u0120Wool": 4815, "\u0120queen\u00c3\u00a2": 4816, "\u0120until": 4817, "Jam": 4818, "\u0120Rich": 4819, "\u0120tee": 4820, "Ellen": 4821, "squash": 4822, "\u0120swang": 4823, "Prince": 4824, "Natalia": 4825, "\u0120helix": 4826, "\u0120walls": 4827, "end": 4828, "\u0120Muggy": 4829, "\u0120Bulb": 4830, "\u0120negotiate": 4831, "\u0120battling": 4832, "played": 4833, "\u0120park": 4834, "\u0120wobbly": 4835, "\u0120replace": 4836, "\u0120Hungry": 4837, "\u0120bubble": 4838, "\u0120LIKE": 4839, "\u0120squeak": 4840, "\u0120craving": 4841, "courage": 4842, "Anabelle": 4843, "\u0120appreciation": 4844, "Yup": 4845, "\u0120determine": 4846, "\u0120Naia": 4847, "\u0120Mid": 4848, "\u0120tidal": 4849, "\u0120insert": 4850, "\u0120harp": 4851, "\u0120wacky": 4852, "Doo": 4853, "\u0120dislikes": 4854, "\u0120specialness": 4855, "\u0120rhinoceroses": 4856, "Thread": 4857, "\u0120Tomatoes": 4858, "cool": 4859, "\u0120Waiter": 4860, "\u0120cools": 4861, "ke": 4862, "\u0120binocular": 4863, "\u0120Isn\u00c3\u00a2": 4864, "\u0120plunge": 4865, "\u0120Zachary": 4866, "\u0120Quizzes": 4867, "\u0120itched": 4868, "Timmy": 4869, "\u0120Barkly": 4870, "Sweety": 4871, "\u0120flicking": 4872, "\u0120transforming": 4873, "Sausage": 4874, "\u0120pastor": 4875, "\u0120willing": 4876, "\u0120researching": 4877, "\u0120regretted": 4878, "\u0120vixen": 4879, "\u0120Bookshelby": 4880, "Puppets": 4881, "\u0120splutter": 4882, "Sighing": 4883, "\u0120gentlest": 4884, "\u0120water": 4885, "\u0120catalog": 4886, "\u0120Finny": 4887, "\u0120tones": 4888, "\u0120lilypads": 4889, "\u0120licence": 4890, "\u0120Stormy": 4891, "\u0120Destroyer": 4892, "\u0120Booba": 4893, "\u0120witness": 4894, "\u0120Sammy\u00c3\u00a2": 4895, "\u0120incomplete": 4896, "tributing": 4897, "\u0120chu": 4898, "penguin": 4899, "Vibrant": 4900, "\u0120board": 4901, "\u0120avalanche": 4902, "\u0120\"": 4903, "\u0120pigeon": 4904, "\u0120cuddlier": 4905, "Junior": 4906, "marked": 4907, "\u0120contained": 4908, "\u0120Animals": 4909, "\u0120familiar": 4910, "\u0120lighten": 4911, "\u0120shards": 4912, "\u0120insisted": 4913, "\u0120reflexes": 4914, "cheap": 4915, "\u0120sandman": 4916, "Makai": 4917, "\u0120quicker": 4918, "If": 4919, "\u0120storage": 4920, "\u0120reads": 4921, "Heav": 4922, "\u0120Chon": 4923, "\u0120wickedly": 4924, "snake": 4925, "\u0120debating": 4926, "\u0120breakable": 4927, "\u0120seconds": 4928, "\u0120wildly": 4929, "\u0120sapphire": 4930, "\u0120mascot": 4931, "\u0120griffin": 4932, "#": 4933, "\u0120Memories": 4934, "\u0120entrance": 4935, "\u0120Symbols": 4936, "\u0120Rrrrrrr": 4937, "\u0120preferred": 4938, "\u0120Puddle": 4939, "\u0120WHOOP": 4940, "\u0120neighbourhood": 4941, "\u0120deliciously": 4942, "green": 4943, "Claire": 4944, "\u0120yowling": 4945, "\u0120lingonberry": 4946, "\u0120fortune": 4947, "\u0120daylight": 4948, "\u0120poem": 4949, "\u0120Wedding": 4950, "\u0120Evacuate": 4951, "\u0120heartbreak": 4952, "\u0120crayons": 4953, "John\u00c3\u00a2": 4954, "\u0120Nutty": 4955, "!?\"": 4956, "best": 4957, "\u0120clown\u00c3\u00a2": 4958, "splash": 4959, "\u0120itchy": 4960, "\u0120itchier": 4961, "\u0120uncontrollable": 4962, "\u0120cheating": 4963, "\u0120Ollee": 4964, "\u0120Roll": 4965, "\u0120Pengy": 4966, "IP": 4967, "\u0120nests": 4968, "\u0120inspect": 4969, "\u0120physically": 4970, "\u0120elephant\u00c3\u00a2": 4971, "\u0120clank": 4972, "Realising": 4973, "\u0120course": 4974, "\u0120Twisting": 4975, "\u0120lollipops": 4976, "\u0120Yola": 4977, "ght": 4978, "Alice": 4979, "\u0120whistler": 4980, "Dancing": 4981, "quack": 4982, "\u0120nursing": 4983, "\u0120ingenuity": 4984, "\u0120someones": 4985, "\u0120Although": 4986, "\u0120coolest": 4987, "\u0120romp": 4988, "\u0120collect": 4989, "\u00c5\u0135Sarah": 4990, "\u0120dips": 4991, "\u0120grains": 4992, "Long": 4993, "\u0120pry": 4994, "\u0120Sporty": 4995, "\u0120Kizzy": 4996, "\u0120map": 4997, "\u0120situation": 4998, "\u0120locals": 4999, "Ri": 5000, "\u00c5\u0135Whew": 5001, "\u0120west": 5002, "\u0120Pennies": 5003, "BEWARE": 5004, "\u0120chores": 5005, "\u0120Kaley": 5006, "Th": 5007, "\u0120creams": 5008, "\u0120watermelon": 5009, "\u0120Aziz": 5010, "\u0120cheery": 5011, "wheee": 5012, "AM": 5013, "\u0120Jeeps": 5014, "squeeze": 5015, "\u0120pals": 5016, "\u0120mastered": 5017, "\u0120seriously": 5018, "\u00c5\u0135Achoo": 5019, "\u0120jeweller": 5020, "\u0120Over": 5021, "\u0120handiwork": 5022, "\u0120Percy": 5023, "\u0120Sniffing": 5024, "\u0120Polisher": 5025, "\u0120final": 5026, "\u0120Purr": 5027, "\u0120cob": 5028, "\u0120Experiencing": 5029, "\u0120fluids": 5030, "\u0120blonde": 5031, "\u0120victor": 5032, "\u0120drum": 5033, "\u0120Because": 5034, "\u0120ferocious": 5035, "\u0120mountain": 5036, "\u0120llamo": 5037, "\u0120splitter": 5038, "\u0120Miya": 5039, "\u0120Locky": 5040, "\u00c5\u0135Kids": 5041, "\u0120urethra": 5042, "\u0120veils": 5043, "\u0120It\u00c3\u00a2": 5044, "\u0120sadder": 5045, "\u0120polishes": 5046, "blablabla": 5047, "\u0120whining": 5048, "Gabbi": 5049, "Spotty": 5050, "\u0120speechless": 5051, "\u0120Jose": 5052, "\u0120recite": 5053, "Jacob": 5054, "\u0120scrolls": 5055, "\u0120mussel": 5056, "\u0120junky": 5057, "\u0120spashed": 5058, "\u0120airborne": 5059, "\u0120fluffier": 5060, "\u00e2\u0124\u00ac\u00cb\u013e": 5061, "\u0120prettily": 5062, "Abi": 5063, "creature": 5064, "\u0120Larry": 5065, "\u0120matchstick": 5066, "\u0120smearing": 5067, "\u0120Dinner": 5068, "\u0120wishbone": 5069, "Thea": 5070, "\u0120grump": 5071, "\u0120three\u00c3\u00a2": 5072, "\u0120enjoyable": 5073, "BLEEEH": 5074, "\u0120Meadows": 5075, "\u0120lady": 5076, "\u0120sunnier": 5077, "\u0120poodle": 5078, "\u0120Chubby": 5079, "\u0120swoosh": 5080, "they": 5081, "\u0120carts": 5082, "\u0120spirit": 5083, "\u00c5\u0135Mike": 5084, "\u0120resurface": 5085, "\u0120Doughkel": 5086, "\u0120zigzagging": 5087, "sorry": 5088, "\u0120Jacob": 5089, "\u0120contagious": 5090, "\u0120Clem": 5091, "\u0120donut": 5092, "\u0120cradled": 5093, "\u0120honk": 5094, "\u0120something": 5095, "\u0120parrot\u00c3\u00a2": 5096, "ising": 5097, "\u0120Scooter": 5098, "\u0120Clyde": 5099, "\u0120Wooly": 5100, "\u0120Piggy": 5101, "\u0120handy": 5102, "\u0120couch": 5103, "Chase": 5104, "\u0120Chris": 5105, "\u00c5\u0135Wait": 5106, "friendship": 5107, "\u0120pli\u00c3\u0125": 5108, "\u0120Scatter": 5109, "Ms": 5110, "\u0120ownership": 5111, "\u0120untimely": 5112, "\u0120spigot": 5113, "Wanda": 5114, "\u0120Friend": 5115, "\u0120Cubby": 5116, "\u0120rain": 5117, "\u0120hiccu": 5118, "\u0120toolkit": 5119, "Unique": 5120, "\u0120eggshell": 5121, "\u0120ruined": 5122, "Tie": 5123, "Crouching": 5124, "\u0120eraser": 5125, "\u0120smokey": 5126, "Fruit": 5127, "\u0120tulips": 5128, "\u0120formations": 5129, "\u00c5\u0135Mr": 5130, "\u0120wiping": 5131, "\u0120heats": 5132, "\u0120nightly": 5133, "\u0120physical": 5134, "\u0120garbage": 5135, "\u0120target": 5136, "\u0120Still": 5137, "\u0120hear": 5138, "\u0120Pal": 5139, "\u00c5\u0135People": 5140, "\u0120daughter": 5141, "\u0120Daughter": 5142, "\u0120stupidly": 5143, "\u0120Janine": 5144, "\u0120pigeon\u00c3\u00a2": 5145, "\u0120Vicky": 5146, "\u0120despair": 5147, "\u0120hairdo": 5148, "\u0120fairest": 5149, "\u0120Malcom": 5150, "\u0120Testspector": 5151, "\u0120hoe": 5152, "\u0120Clarise": 5153, "\u0120parting": 5154, "\u0120cartwheels": 5155, "Dani": 5156, "Cap": 5157, "\u00c5\u0135Nice": 5158, "\u0120Arctic": 5159, "\u0120improvements": 5160, "Lila": 5161, "\u0120swishing": 5162, "\u0120Jenaya": 5163, "\u0120Behave": 5164, "\u0120birdsong": 5165, "\u0120Buttercup": 5166, "\u0120Outside": 5167, "\u0120dedication": 5168, "\u00c5\u0135Fine": 5169, "\u0120sympathetically": 5170, "\u0120Build": 5171, "\u0120zillion": 5172, "\u0120accessory": 5173, "lar": 5174, "\u0120Scamper": 5175, "\u0120rate": 5176, "\u0120perfected": 5177, "rrrr": 5178, "\u012016": 5179, "\u0120Bunn": 5180, "Ty": 5181, "\u0120Gorillas": 5182, "\u0120slab": 5183, "\u0120Brina": 5184, "Serena": 5185, ".)": 5186, "\u0120flaming": 5187, "Jerry": 5188, "\u0120shop": 5189, "\u0120afterwards": 5190, "\u0120camped": 5191, "Jeremiah": 5192, "\u0120ran": 5193, "\u0120Thunderbolt": 5194, "\u0120twice": 5195, "\u0120vroom": 5196, "\u0120Sprayer": 5197, "\u0120sand": 5198, "\u0120appeared": 5199, "lantern": 5200, "Sisi": 5201, "\u0120Teamwork": 5202, "George": 5203, "\u0120stovetop": 5204, "Last": 5205, "\u0120uglier": 5206, "shell": 5207, "\u0120driveway": 5208, "\u0120laced": 5209, "\u0120Imagination": 5210, "\u0120Hamster": 5211, "\u0120horns": 5212, "\u0120plea": 5213, "\u0120Strudel": 5214, "\u0120Uni": 5215, "spoiled": 5216, "\u0120treatment": 5217, "caster": 5218, "nchant": 5219, "\u0120touch": 5220, "Lala": 5221, "\u00c5\u0135good": 5222, "\u0120cleverly": 5223, "\u0120prices": 5224, "yummy": 5225, "\u0120unimportant": 5226, "\u0120pudding": 5227, "\u0120resumed": 5228, "\u0120flipping": 5229, "Granddaughter": 5230, "\u0120Biggybee": 5231, "\u0120Catnip": 5232, "\u0120Below": 5233, "\u0120flawlessly": 5234, "\u0120Grandpa": 5235, "\u0120luckier": 5236, "\u0120parades": 5237, "\u0120BunBun": 5238, "\u0120Kenneth": 5239, "\u0120pangolins": 5240, "\u0120hammered": 5241, "\u0120ceilings": 5242, "\u0120Knitting": 5243, "\u0120Snails": 5244, "Tiny": 5245, "\u0120pottery": 5246, "\u0120Te": 5247, "\u0120ruff": 5248, "\u0120Meagan": 5249, "\u0120peaches": 5250, "\u0120Linda\u00c3\u00a2": 5251, "\u0120tragically": 5252, "\u0120BURN": 5253, "\u0120Un": 5254, "\u0120tantalizing": 5255, "\u0120po": 5256, "\u0120proof": 5257, "\u0120enjoys": 5258, "\u0120parlour": 5259, "\u0120admirers": 5260, "\u0120scythe": 5261, "Pigeon": 5262, "\u0120Tiger": 5263, "\u0120caressing": 5264, "\u0120natural": 5265, "\u0120nimble": 5266, "\u0120glimmered": 5267, "\u0120Hoppi": 5268, "\u0120sticker": 5269, "\u0120Singing": 5270, "\u0120awareness": 5271, "Mae": 5272, "\u0120beacon": 5273, "\u0120discourage": 5274, "\u0120Diana": 5275, "bra": 5276, "\u0120naive": 5277, "\u0120stunts": 5278, "\u0120Wander": 5279, "\u00c5\u0135Sometimes": 5280, "\u0120Naps": 5281, "\u0120leave": 5282, "\u0120plumbing": 5283, "\u0120Babies": 5284, "\u0120beetle\u00c3\u00a2": 5285, "\u0120sinister": 5286, "\u0120pshhh": 5287, "\u0120Alice": 5288, "\u0120deafening": 5289, "\u0120thundercloud": 5290, "Sugar": 5291, "\u0120chubbiest": 5292, "\u0120hump": 5293, "\u0120ridges": 5294, "Pingo": 5295, "stir": 5296, "\u0120attach": 5297, "With": 5298, "\u0120fear": 5299, "\u0120buildings": 5300, "\u0120nourishment": 5301, "\u0120paddling": 5302, "Normal": 5303, "\u0120carries": 5304, "\u0120Quincy": 5305, "crow": 5306, "Fuel": 5307, "\u0120Kristine": 5308, "\u0120blanketed": 5309, "\u0120Lamp": 5310, "\u0120cab": 5311, "\u0120Fizzy": 5312, "\u0120sighting": 5313, "\u00c5\u0135happy\u00c3\u00a2": 5314, "\u0120matchbox": 5315, "\u0120Squiffy": 5316, "question": 5317, "point": 5318, "\u0120Popular": 5319, "\u0120inhabitants": 5320, "\u0120hippo": 5321, "\u0120Shrink": 5322, "\u0120Glub": 5323, "\u0120die": 5324, "\u0120Whoever": 5325, "\u0120guppy": 5326, "\u0120excit": 5327, "\u0120chaotic": 5328, "\u0120Sprayy": 5329, "\u0120appetit": 5330, "\u0120Restaurant": 5331, "ments": 5332, "\u0120revisit": 5333, "\u0120huggers": 5334, "\u0120she": 5335, "\u0120letterbox": 5336, "!,\"": 5337, "Seth": 5338, "\u00c5\u0135Jump": 5339, "\u0120Jacko": 5340, "\u0120triangular": 5341, "Mina": 5342, "Cloe": 5343, "\u0120duel": 5344, "\u0120oiled": 5345, "Some": 5346, "\u0120corridors": 5347, "\u0120scurrying": 5348, "\u0120blackboards": 5349, "\u0120mystical": 5350, "\u0120riverbanks": 5351, "Maddy": 5352, "\u0120nostrils": 5353, "\u0120spanned": 5354, "\u0120amaze": 5355, "\u0120women": 5356, "\u0120exaggerated": 5357, "\u0120Spider": 5358, "\u0120son": 5359, "\u0120infants": 5360, "\u0120Pops": 5361, "\u0120Baking": 5362, "\u0120places": 5363, "\u0120bamboo": 5364, "tied": 5365, "pity": 5366, "\u0120nation": 5367, "\u0120Shrimps": 5368, "\u0120Main": 5369, "\u0120dads": 5370, "\u0120horseback": 5371, "\u0120dreamy": 5372, "Fine": 5373, "\u0120wetsuit": 5374, "\u0120shape": 5375, "\u0120livelier": 5376, "lash": 5377, "\u0120Robbie": 5378, "\u0120negative": 5379, "\u0120regulations": 5380, "\u0120soaped": 5381, "\u0120place\u00c3\u00a2": 5382, "\u0120g": 5383, "\u0120Egg": 5384, "\u0120specks": 5385, "\u0120creamiest": 5386, "Dove": 5387, "\u0120scatttered": 5388, "\u0120McQueen": 5389, "\u0120unloved": 5390, "\u0120grandchild": 5391, "\u0120slow": 5392, "\u0120cruelly": 5393, "sharp": 5394, "\u0120puffy": 5395, "\u0120wasting": 5396, "\u0120Garry": 5397, "\u0120es": 5398, "\u0120Strong": 5399, "\u0120bedrooms": 5400, "\u0120emitting": 5401, "\u0120Jam": 5402, "\u0120raises": 5403, "\u0120graduating": 5404, "\u0120deceived": 5405, "ss": 5406, "\u0120boys": 5407, "\u0120split": 5408, "\u0120grocer": 5409, "\u0120Eagerly": 5410, "\u0120onshore": 5411, "\u0120controls": 5412, "\u0120upright": 5413, "\u0120quill": 5414, "\u0120Hoop": 5415, "\u0120yummies": 5416, "\u0120yawned": 5417, "\u0120Agnes": 5418, "\u0120Mamu": 5419, "\u0120Teach": 5420, "\u0120bubbling": 5421, "\u0120Finders": 5422, "\u0120violin": 5423, "\u0120limps": 5424, "\u0120Full": 5425, "\u0120rabbits": 5426, "\u0120opens": 5427, "chamber": 5428, "\u0120shoot": 5429, "Any": 5430, "Noooo": 5431, "\u0120exit": 5432, "\u0120foamy": 5433, "\u0120coldest": 5434, "\u0120cribs": 5435, "BOO": 5436, "Observe": 5437, "Willa": 5438, "\u0120socks": 5439, "\u0120pouts": 5440, "\u0120fearing": 5441, "\u0120cure": 5442, "\u0120liberty": 5443, "\u0120distraught": 5444, "Donna": 5445, "\u0120Kyla": 5446, "\u0120Stylo": 5447, "you": 5448, "Bu": 5449, "\u0120wa": 5450, "Along": 5451, "Dark": 5452, "\u0120sulky": 5453, "\u0120Sunset": 5454, "\u0120sn": 5455, "\u0120Hubert": 5456, "\u0120Josh\u00c3\u00a2": 5457, "\u0120seventy": 5458, "\u0120partridges": 5459, "\u0120members": 5460, "\u0120meditating": 5461, "snip": 5462, "\u0120Lottie": 5463, "\u0120clamped": 5464, "Mmmmm": 5465, "\u0120daiquiri": 5466, "\u0120closet": 5467, "\u0120chance": 5468, "\u0120duo": 5469, "\u0120raincoats": 5470, "\u0120blech": 5471, "\u0120Knowledge": 5472, "\u0120Grass": 5473, "\u0120slithering": 5474, "\u0120priorities": 5475, "\u0120Bene": 5476, "\u0120propelled": 5477, "\u0120weaves": 5478, "\u0120irritated": 5479, "\u0120brightening": 5480, "\u0120ruffles": 5481, "\u0120anicent": 5482, "\u0120Waddle": 5483, "\u0120customs": 5484, "Philip": 5485, "\u00e2\u0124\u00ac": 5486, "CHOO": 5487, "\u0120pooping": 5488, "\u0120sunset": 5489, "capped": 5490, "\u0120It": 5491, "Knock": 5492, "balance": 5493, "Stretchy": 5494, "\u0120continent": 5495, "\u0120surrounding": 5496, "\u0120sheriff": 5497, "\u0120misfortune": 5498, "\u0120loads": 5499, "\u0120meadow": 5500, "\u0120Sort": 5501, "Happiness": 5502, "hola": 5503, "belt": 5504, "\u00c5\u0135Be": 5505, "\u0120Jin": 5506, "\u0120Neptune": 5507, "\u0120radiated": 5508, "\u0120Grey": 5509, "\u0120Tom\u00c3\u00a2": 5510, "\u0120Sean": 5511, "\u0120b": 5512, "\u0120immense": 5513, "success": 5514, "\u00c5\u0135Put": 5515, "\u0120right": 5516, "Ducky": 5517, "\u0120precaution": 5518, "Have": 5519, "Surprised": 5520, "Sean": 5521, "Net": 5522, "\u00c5\u0135Really": 5523, "\u0120tough": 5524, "\u0120squiggly": 5525, "\u0120perform": 5526, "\u0120Shaylee": 5527, "\u0120Pistol": 5528, "\u0120nesting": 5529, "\u0120Chewie": 5530, "\u00c5\u0135Don": 5531, "\u00c5\u0135Repeat": 5532, "\u0120Bibi": 5533, "\u0120beaters": 5534, "\u0120dreamed": 5535, "\u0120hive": 5536, "andwich": 5537, "\u0120combining": 5538, "\u0120Mom\u00c3\u00a2": 5539, "\u0120Collecting": 5540, "kid": 5541, "\u0120paramedic": 5542, "pin": 5543, "Braiden": 5544, "\u0120remorseful": 5545, "Victory": 5546, "Gilda": 5547, "\u0120Anytime": 5548, "\u0120quiero": 5549, "Gregory": 5550, "cluck": 5551, "\u0120Farm": 5552, "\u0120ga": 5553, "Whip": 5554, "\u0120woodcutters": 5555, "\u0120humblest": 5556, "\u0120Nightmare": 5557, "\u0120opportunities": 5558, "Murray": 5559, "\u0120bedtime": 5560, "Dare": 5561, "\u0120raring": 5562, "\u0120Maddie\u00c3\u00a2": 5563, "Crissy": 5564, "\u0120smelled": 5565, "\u0120fled": 5566, "\u0120ensure": 5567, "RI": 5568, "100": 5569, "\u0120frosting": 5570, "\u0120flavour": 5571, "Croak": 5572, "\u0120perspectives": 5573, "\u0120raindrop": 5574, "\u0120axle": 5575, "\u0120Danny\u00c3\u00a2": 5576, "\u0120Jony": 5577, "\u0120Sherry": 5578, "\u0120inched": 5579, "\u0120suffer": 5580, "\u0120teacup": 5581, "Up": 5582, "\u0120quietened": 5583, "\u0120engineers": 5584, "\u01201": 5585, "\u00c5\u0135Sally": 5586, "\u0120Successful": 5587, "\u0120Whoosh": 5588, "\u0120relied": 5589, "\u0120Makayla": 5590, "\u0120befriended": 5591, "\u0120scraped": 5592, "\u0120peanuts": 5593, "\u0120Abi": 5594, "\u0120securing": 5595, "\u0120rid": 5596, "Kali": 5597, "\u0120live": 5598, "\u0120nutrition": 5599, "\u00c5\u0135He": 5600, "Olly": 5601, "\u0120Stand": 5602, "\u0120postcard": 5603, "\u0120Sharky": 5604, "\u0120\u0120\u0120": 5605, "\u0120chain": 5606, "\u0120twizzling": 5607, "\u0120ST": 5608, "shh": 5609, "\u0120Raynee": 5610, "\u0120Burying": 5611, "\u0120wives": 5612, "\u0120tend": 5613, "\u0120Air": 5614, "\u0120Beepy": 5615, "\u0120explore": 5616, "Theresa": 5617, "\u0120scowled": 5618, "Ribbit": 5619, "\u0120desserts": 5620, "\u0120Baloo": 5621, "\u0120Dana": 5622, "\u0120Doo": 5623, "\u0120crate": 5624, "\u00e2": 5625, "\u0120laughing": 5626, "\u0120blinks": 5627, "Andy": 5628, "\u0120Abbot": 5629, "\u0120helped": 5630, "\u0120Studying": 5631, "\u0120braking": 5632, "\u0120underneath": 5633, "\u0120minnow": 5634, "\u0120Pill": 5635, "tempered": 5636, "\u0120jittery": 5637, "instead": 5638, "blast": 5639, "\u0120peer": 5640, "\u0120Hunting": 5641, "\u0120grated": 5642, "Electric": 5643, "\u0120Onion": 5644, "\u0120exotic": 5645, "\u0120mysteriously": 5646, "RUN": 5647, "\u0120arrange": 5648, "\u0120hover": 5649, "lessly": 5650, "\u0120phone": 5651, "subway": 5652, "Fast": 5653, "\u0120performers": 5654, "\u0120Penny": 5655, "\u0120cobbled": 5656, "\u0120Twazy": 5657, "wise": 5658, "\u0120Crabbie": 5659, "\u0120Even": 5660, "\u0120Gilda": 5661, "Bake": 5662, "grandmother": 5663, "\u0120Justine": 5664, "\u0120Vase": 5665, "\u0120Hill": 5666, "\u0120figure": 5667, "\u0120halls": 5668, "\u0120grandaughter": 5669, "\u0120Curtis": 5670, "\u0120rough": 5671, "\u0120Search": 5672, "\u0120Lean": 5673, "\u0120Squirrely": 5674, "\u0120tissues": 5675, "Flexy": 5676, "giddy": 5677, "\u0120diagnos": 5678, "\u0120kidding": 5679, "\u0120string": 5680, "Pickle": 5681, "\u0120Flea": 5682, "\u0120bluebells": 5683, "\u0120savory": 5684, "\u0120teapot": 5685, "\u0120lou": 5686, "\u0120shower": 5687, "\u0120Herdy": 5688, "\u0120Bac": 5689, "rise": 5690, "pink": 5691, "\u0120Peep": 5692, "\u0120striker": 5693, "\u0120Microphone": 5694, "\u0120requested": 5695, "Rhythm": 5696, "Juliet": 5697, "please\u00c3\u00a2": 5698, "\u0120waterproof": 5699, "\u0120toy\u00c3\u00a2": 5700, "Ornaments": 5701, "\u0120objects": 5702, "\u0120Parrots": 5703, "\u0120uncommon": 5704, "\u0134": 5705, "tuna": 5706, "\u0120Downstairs": 5707, "ding": 5708, "\u0120out": 5709, "Ziggy": 5710, "\u0120tugging": 5711, "\u0120shrine": 5712, "\u0120hinge": 5713, "ac": 5714, "\u0120empathy": 5715, "Simon": 5716, "\u0120unspoiled": 5717, "\u0120withdrew": 5718, "\u0120Soap": 5719, "\u0120charity": 5720, "\u00c5\u0135More": 5721, "\u0120Crab": 5722, "Planets": 5723, "\u0120taunts": 5724, "driver": 5725, "Benji": 5726, "\u0120fetching": 5727, "\u0120Eggs": 5728, "\u0120cold": 5729, "\u0120compassionate": 5730, "\u0120dread": 5731, "\u0120boil": 5732, "\u0120Sara\u00c3\u00a2": 5733, "Set": 5734, "\u0120thirst": 5735, "\u0120camp": 5736, "Stunned": 5737, "BIRDS": 5738, "ina": 5739, "Si": 5740, "\u0120elbows": 5741, "\u0120Scepter": 5742, "\u0120cranny": 5743, "Starry": 5744, "\u0120Tubby": 5745, "\u0120Sanjay": 5746, "\u0120storytellers": 5747, "\u0120await": 5748, "\u0120Tami": 5749, "\u0120ambitions": 5750, "\u0120Alain": 5751, "\u0120Akil": 5752, "\u0120Johnnie": 5753, "\u0120fraction": 5754, "\u0120condemned": 5755, "\u0120bore": 5756, "\u0120dice": 5757, "\u0120Morg": 5758, "\u0120dropped": 5759, "\u0120disoriented": 5760, "\u0120nearest": 5761, "\u0120replanted": 5762, "party": 5763, "\u0120fatter": 5764, "\u0120honeycombs": 5765, "\u0120programs": 5766, "\u0120Nino": 5767, "\u0120surrendering": 5768, "Alby": 5769, "\u0120soundly": 5770, "\u0120counts": 5771, "\u0120All": 5772, "\u0120happened\u00c3\u00a2": 5773, "Wahoo": 5774, "\u0120wraped": 5775, "\u0120Afterward": 5776, "\u0120nutritious": 5777, "\u0120railway": 5778, "Band": 5779, "vision": 5780, "\u0120dinosaurs": 5781, "\u0120designed": 5782, "Volcanoes": 5783, "\u0120Kata": 5784, "\u0120Patrice": 5785, "\u0120Gerva": 5786, "\u0120flatter": 5787, "Kisa": 5788, "\u0120combined": 5789, "\u0120learners": 5790, "\u0120Anne\u00c3\u00a2": 5791, "\u0120reader": 5792, "\u0120sneer": 5793, "\u0120Toss": 5794, "Barber": 5795, "\u0120snickering": 5796, "\u0120muffs": 5797, "\u0120fudge": 5798, "\u0120azure": 5799, "\u0120tenth": 5800, "\u0120soldier": 5801, "\u0120Kory": 5802, "\u0120Fill": 5803, "\u0120slay": 5804, "\u0120jazz": 5805, "\u0120drizzled": 5806, "Ilya": 5807, "Parrot": 5808, "\u0120goes": 5809, "\u0120Minutes": 5810, "\u0120gulls": 5811, "\u0120woke": 5812, "space": 5813, "\u0120Tracy": 5814, "Scr": 5815, "\u0120Jim": 5816, "\u0120Guddu": 5817, "Green": 5818, "\u0120healing": 5819, "\u0120improves": 5820, "\u0120Bulls": 5821, "\u0120citrus": 5822, "\u0120encircling": 5823, "\u0120thought": 5824, "UN": 5825, "\u0120ragged": 5826, "\u0120topping": 5827, "willed": 5828, "Root": 5829, "\u0120Has": 5830, "\u0120Card": 5831, "\u0120Bob\u00c3\u00a2": 5832, "Father": 5833, "'ll": 5834, "Por": 5835, "\u0120reactions": 5836, "\u0120drenched": 5837, "\u0120consequence": 5838, "\u0120endlessly": 5839, "\u0120Ele": 5840, "\u0120Aria": 5841, "\u0120Rhonda": 5842, "\u0120crazy": 5843, "display": 5844, "\u0120disappears": 5845, "\u0120agile": 5846, "\u0120navies": 5847, "\u0120coasters": 5848, "\u0120Ayla": 5849, "\u0120Tidy": 5850, "Whatcha": 5851, "\u0120symphony": 5852, "\u0120watched": 5853, "\u0120octopus\u00c3\u00a2": 5854, "\u0120Roses": 5855, "Georgie": 5856, "\u0120constrictor": 5857, "\u0120Arm": 5858, "\u0120rooftops": 5859, "\u0120hull": 5860, "\u0120rearrange": 5861, "st": 5862, "\u0120halos": 5863, "\u0120zebra": 5864, "Talk": 5865, "\u0120threads": 5866, "\u0120lightening": 5867, "\u0120festivities": 5868, "\u0120vacations": 5869, "Chirp": 5870, "\u0120choking": 5871, "Chewing": 5872, "\u0120entangled": 5873, "\u0120Allow": 5874, "lly": 5875, "Buzz": 5876, "\u0120manner": 5877, "\u0120Hanging": 5878, "Animal": 5879, "Ahoy": 5880, "Mom": 5881, "\u0120pineapples": 5882, "Alina": 5883, "Those": 5884, "\u0120tinkling": 5885, "\u0120Hopefully": 5886, "HELLO": 5887, "\u0120Pat\u00c3\u00a2": 5888, "Hey": 5889, "\u0120bandit": 5890, "Eric": 5891, "Life": 5892, "Joseph": 5893, "\u0120bowl": 5894, "claim": 5895, "fierce": 5896, "Poof": 5897, "\u0120fiber": 5898, "\u0120sandpiper": 5899, "\u0120made": 5900, "\u0120handbag": 5901, "\u0120WAIT": 5902, "\u0120surfers": 5903, "\u0120clarity": 5904, "\u0120sides": 5905, "Fighting": 5906, "\u0120restless": 5907, "\u0120pawing": 5908, "\u0120rests": 5909, "\u0120Lend": 5910, "\u0120tocking": 5911, "\u0120cholesteatoma": 5912, "Rabbits": 5913, "jump": 5914, "Laura": 5915, "\u0120onlookers": 5916, "\u0120understand": 5917, "\u0120circled": 5918, "\u0120willingness": 5919, "\u0120locked": 5920, "\u0120title": 5921, "\u0120persuaded": 5922, "\u0120variations": 5923, "\u0120Drum": 5924, "\u0120Snake": 5925, "\u0120onwards": 5926, "\u0120Ship": 5927, "\u0120Biskit": 5928, "\u0120Alise": 5929, "\u0120prizes": 5930, "\u0120libraries": 5931, "\u00c5\u0135Now": 5932, "lled": 5933, "Liang": 5934, "\u0120ge": 5935, "\u0120vacuuming": 5936, "\u0120hated": 5937, "\u0120want": 5938, "\u0120Gappy": 5939, "\u0120Yogurt": 5940, "\u0120reciting": 5941, "Summoning": 5942, "\u0120huddled": 5943, "\u0120families": 5944, "\u0120Prudence": 5945, "\u0120toybox": 5946, "\u0120jewellery": 5947, "\u0120dewy": 5948, "haw": 5949, "\u0120liking": 5950, "Sure": 5951, "\u0120Disgusting": 5952, "\u0120official": 5953, "Turkey": 5954, "\u0120Mozart": 5955, "\u0120developed": 5956, "\u0120payment": 5957, "\u0120outlook": 5958, "\u0120Puddy": 5959, "\u0120council": 5960, "Family": 5961, "\u0120safe": 5962, "\u00c5\u0135Sure": 5963, "\u0120predict": 5964, "\u0120secret\u00c3\u00a2": 5965, "\u0120tang": 5966, "\u0120Cakes": 5967, "\u0120see\u00c3\u00a2": 5968, "\u0120hunting": 5969, "\u0120yourself": 5970, "\u0120badness": 5971, "\u0120roller": 5972, "Grrr": 5973, "Elsie": 5974, "Naomi": 5975, "\u0120formed": 5976, "\u0120spectrum": 5977, "\u0120Jessie": 5978, "\u0120sworn": 5979, "\u0120convenient": 5980, "\u0120Beauty": 5981, "\u0120agreement": 5982, "\u0120Underground": 5983, "\u0120accomplish": 5984, "\u0120Storms": 5985, "\"!": 5986, "\u0120buckle": 5987, "\u00c5\u0135Mmmm": 5988, "\u0120absorb": 5989, "\u0120girl\u00c3\u00a2": 5990, "red": 5991, "\u00a4": 5992, "airs": 5993, "\u0120Tammy": 5994, "Cool": 5995, "\u0120watcher": 5996, "\u0120clearing": 5997, "\u0120pea": 5998, "\u0120slim": 5999, "\u0120Midnight": 6000, "Uma": 6001, "\u0120blur": 6002, "\u0120status": 6003, "\u0120eldest": 6004, "\u0120Penney": 6005, "\u0120drifting": 6006, "\u0120supportive": 6007, "\u0120Stirring": 6008, "sky": 6009, "\u0120disappearance": 6010, "\u0120Goodbye": 6011, "Jana": 6012, "\u0120Officer": 6013, "Frightened": 6014, "\u0120peeped": 6015, "\u0120protein": 6016, "\u0120savor": 6017, "\u0120skeptical": 6018, "\u0120dirtied": 6019, "Caitlin": 6020, "\u0120critters": 6021, "\u0120froggy": 6022, "compassion": 6023, "\u0120Jeanie": 6024, "\u0120swung": 6025, "\u0120Stinky": 6026, "catcher": 6027, "\u0120oinked": 6028, "\u0120Gene": 6029, "\u0120banana": 6030, "\u0120add": 6031, "Shannon": 6032, "\u0120Briana": 6033, "Within": 6034, "\u0120maze": 6035, "\u0120anyone\u00c3\u00a2": 6036, "\u0120Plastic": 6037, "\u0120Mammie": 6038, "\u0120Icy": 6039, "Meow": 6040, "\u0120Butterflies": 6041, "Underground": 6042, "\u0120suffered": 6043, "\u0120belonged": 6044, "\u0120clap": 6045, "ump": 6046, "\u0120pronunciation": 6047, "\u0120gorilla": 6048, "\u0120Thelma": 6049, "\u0120travelling": 6050, "\u0120marble": 6051, "\u0120Basket": 6052, "\u0120encouragement": 6053, "\u0120Granma": 6054, "\u0120communicate": 6055, "\u0120cupboard": 6056, "\u0120sucking": 6057, "Hansel": 6058, "\u0120correct": 6059, "\u0120Olympic": 6060, "\u0120portion": 6061, "\u0120irritating": 6062, "nda": 6063, "\u0120bananas": 6064, "Messy": 6065, "\u0120spark": 6066, "Pablo": 6067, "organized": 6068, "\u0120Cat": 6069, "\u0120dec": 6070, "\u0120Scary": 6071, "\u0120Tanaka": 6072, "\u0120weekends": 6073, "\u0120clam": 6074, "\u0120hosepipe": 6075, "\u0120kneeling": 6076, "\u0120technique": 6077, "Go": 6078, "\u0120rag": 6079, "\u0120rinse": 6080, "\u0120shyness": 6081, "ming": 6082, "\u0120headline": 6083, "\u0120Vitamin": 6084, "\u0120breast": 6085, "harmless": 6086, "\u0120Wilbur": 6087, "Pal": 6088, "\u0120Brittany": 6089, "!).": 6090, "Darius": 6091, "\u0120nimbly": 6092, "\u0120sulfur": 6093, "\u0120Only": 6094, "\u0120bale": 6095, "\u0120circumference": 6096, "\u0120Roly": 6097, "\u0120mule\u00c3\u00a2": 6098, "Made": 6099, "\u0120valleys": 6100, "\u0120Cilla": 6101, "\u0120was\u00c3\u00a2": 6102, "\u0120hood": 6103, "\u0120flattened": 6104, "Carlo": 6105, "\u0120imagining": 6106, "\u0120grouchy": 6107, "\u0120Mayor": 6108, "\u0120sacrifice": 6109, "\u0120mound": 6110, "\u0120boot": 6111, "Iron": 6112, "\u0120groggy": 6113, "\u0120books": 6114, "\u0120recognize": 6115, "\u0120Worms": 6116, "pper": 6117, "\u0120Abena": 6118, "\u0120contemplation": 6119, "Ginger": 6120, "Jaffa": 6121, "Gail": 6122, "\u0120500": 6123, "Gigi": 6124, "\u0120Bumpy": 6125, "\u0120arrive": 6126, "\u0120racecar": 6127, "\u0120Blinker": 6128, "utiful": 6129, "Shell": 6130, "\u0120Adrianna": 6131, "\u0120blissfully": 6132, "ran": 6133, "\u0120Zazzle": 6134, "\u0120lumberjack": 6135, "\u0120spooning": 6136, "\u0120Exhibit": 6137, "computer": 6138, "Lie": 6139, "Check": 6140, "\u0120Monu": 6141, "permit": 6142, "Aah": 6143, "fry": 6144, "\u0120tipi": 6145, "acting": 6146, "\u0120Maa": 6147, "\u0120Marc": 6148, "\u0120Orchard": 6149, "\u0120feeding": 6150, "Smash": 6151, "baa": 6152, "\u0120Javier": 6153, "\u0120Adriana": 6154, "\u0120liar": 6155, "\u0120resent": 6156, "\u0120tidiness": 6157, "\u0120Nadine": 6158, "\u0120Dahlia": 6159, "\u0120Hawks": 6160, "\u0120frame": 6161, "\u0120Bernard": 6162, "Amelie": 6163, "\u0120tripped": 6164, "\u0120same": 6165, "\u0120Grety": 6166, "\u0120zoom": 6167, "bow": 6168, "\u0120vantage": 6169, "close": 6170, "\u0120Finder": 6171, "\u0120cowered": 6172, "Sister": 6173, "\u0120rottweiler": 6174, "\u0120Soldiers": 6175, "\u0120crooned": 6176, "Tomas": 6177, "\u0120Loudy": 6178, "\u0120Chipper": 6179, "buckling": 6180, "\u00c5\u0135Tomorrow": 6181, "\u0120measurements": 6182, "\u0120nobody": 6183, "\u0120knelt": 6184, "\u0120King\u00c3\u00a2": 6185, "Lions": 6186, "\u0120ungrateful": 6187, "\u0120Nutella": 6188, "\u0120chalk": 6189, "\u0120lotus": 6190, "\u0120afar": 6191, "\u0120swimsuits": 6192, "\u0120Wee": 6193, "Moo": 6194, "\u0120rarity": 6195, "\u0120rebellious": 6196, "\u0120spiraled": 6197, "\u0120teasing": 6198, "\u0120adventures": 6199, "\u0120uniformed": 6200, "lling": 6201, "\u0120Pauline": 6202, "\u0120newspapers": 6203, "\u0120Trucks": 6204, "\u0120United": 6205, "Mixy": 6206, "\u0120throats": 6207, "stand": 6208, "\u0120suntan": 6209, "\u0120Cola": 6210, "\u0120Tori": 6211, "\u0120chairs": 6212, "\u0120compared": 6213, "\u0120gr": 6214, "\u0120Tiki": 6215, "Cal": 6216, "\u0120noisier": 6217, "\u0120historical": 6218, "\u0120caged": 6219, "\u0120thicken": 6220, "\u0120searched": 6221, "said": 6222, "\u0120Clint": 6223, "\u0120quieter": 6224, "\u0120Spencer": 6225, "apple": 6226, "\u0120calling": 6227, "\u0120Hermy": 6228, "\u0120bases": 6229, "\u0120Kenzi": 6230, "\u0120stupid": 6231, "Boby": 6232, "\u0120raining": 6233, "\u0120fridge": 6234, "\u0120adjective": 6235, "\u0120joins": 6236, "\u0120creeks": 6237, "\u0120testament": 6238, "\u0120Cindy": 6239, "Qu": 6240, "creams": 6241, "\u0120Binky": 6242, "Kyle": 6243, "\u0120Feel": 6244, "\u0120suspected": 6245, "\u0120clim": 6246, "\u0120Read": 6247, "Alessa": 6248, "\u0120da": 6249, "\u0120clinked": 6250, "\u0120antelopes": 6251, "\u0120product": 6252, "\u0120stitch": 6253, "appeared": 6254, "\u0120misdeed": 6255, "\u0120Everything": 6256, "\u0120Hard": 6257, "\u0120Pilots": 6258, "\u0120parcel": 6259, "Mela": 6260, "Reef": 6261, "\u0120by": 6262, "\u0120planes": 6263, "\u0120songbird": 6264, "\u0120passion": 6265, "Veronica": 6266, "we": 6267, "Kerri": 6268, "Pluto": 6269, "\u0120Rowan": 6270, "\u0120Jesse": 6271, "\u0120slender": 6272, "\u0120Lu": 6273, "Aaa": 6274, "\u0120benches": 6275, "\u0120accidentaly": 6276, "stage": 6277, "ain": 6278, "Yoga": 6279, "\u0120steadied": 6280, "\u0120chew": 6281, "Ostriches": 6282, "\u0120Fry": 6283, "\u0120entertainment": 6284, "\u0120Nora": 6285, "\u0120undone": 6286, "\u0120acoustics": 6287, "me": 6288, "Writing": 6289, "Waiting": 6290, "\u0120man\u00c3\u00a2": 6291, "\u0120Italy": 6292, "Leaves": 6293, "\u0120sunburnt": 6294, "AAAH": 6295, "\u0120experts": 6296, "\u0120Elaine": 6297, "\u0120Palu": 6298, "\u0120Rivers": 6299, "az": 6300, "Com": 6301, "\u0120thirty": 6302, "\u0120Devastated": 6303, "\u0120interrupt": 6304, "\u0120mend": 6305, "\u0120ow": 6306, "WARNING": 6307, "\u0120guiltily": 6308, "\u0120sacred": 6309, "\u0120Steelie": 6310, "\u0120seller": 6311, "dinky": 6312, "\u0120bedsheets": 6313, "saw": 6314, "\u00c5\u0135Someone": 6315, "\u0120Oaty": 6316, "\u0120titles": 6317, "\u0120oven": 6318, "Mandy": 6319, "Setup": 6320, "\u0120Davis": 6321, "\u0120press": 6322, "\u0120doorways": 6323, "\u0120mourned": 6324, "Maisy": 6325, "\u0120mud": 6326, "Prune": 6327, "\u0120Junie": 6328, "Gradually": 6329, "\u0120big": 6330, "\u0120Gio": 6331, "spicy": 6332, "\u0120nibbled": 6333, "\u0120smelling": 6334, "\u0120raven\u00c3\u00a2": 6335, "\u0120hoped": 6336, "\u0120K": 6337, "\u0120Instead": 6338, "\u0120mark": 6339, "\u0120seasonings": 6340, "\u0120streaking": 6341, "\u0120Kya": 6342, "\u0120teamed": 6343, "Enter": 6344, "\u0120lumpy": 6345, "els": 6346, "\u0120ached": 6347, "\u0120exception": 6348, "?": 6349, "\u0120pouty": 6350, "\u0120empowered": 6351, "\u0120radiant": 6352, "\u0120Seb": 6353, "\u0120hoist": 6354, "\u0120Different": 6355, "Gia": 6356, "\u0120sla": 6357, "\u0120Terence": 6358, "\u0120Wren": 6359, "\u0120Loyal": 6360, "\u0120leprechaun": 6361, "\u0120idea\u00c3\u00a2": 6362, "\u0120unclean": 6363, "\u0120needs": 6364, "CLICK": 6365, "\u0120Louvre": 6366, "\u0120penny": 6367, "Elena": 6368, "\u0120why": 6369, "\u0120Cake": 6370, "\u0120pear": 6371, "Put": 6372, "\u0120related": 6373, "\u0120listed": 6374, "\u0120Looking": 6375, "\u0120slots": 6376, "\u0120consisted": 6377, "\u0120impulse": 6378, "\u0120crumbling": 6379, "Screech": 6380, "\u0120spot": 6381, "\u0120skittish": 6382, "\u0120sweet": 6383, "\u0120Bridget": 6384, "\u0120growl": 6385, "\u00c5\u0135goodbye": 6386, "\u0120But": 6387, "\u0120tomorrow": 6388, "\u0120Bouncing": 6389, "\u0120Flopps": 6390, "\u0120contributed": 6391, "\u0120growls": 6392, "\u0120satellites": 6393, "\u0120caf\u00c3\u0125": 6394, "Duke": 6395, "tes": 6396, "Scarlett": 6397, "\u0120tutti": 6398, "\u0120swollen": 6399, "Bitter": 6400, "\u0120gateway": 6401, "\u0120giggleing": 6402, "\u0120Scarecrow": 6403, "\u0120shortcuts": 6404, "\u0120Ana": 6405, "\u0120locks": 6406, "\u0120finishing": 6407, "\u0120Dino": 6408, "\u0120gain": 6409, "\u0120Hippo": 6410, "\u0120blows": 6411, "\u0120Friends": 6412, "\u0120shampooing": 6413, "\u0120petal": 6414, "Hal": 6415, "\u0120spitting": 6416, "\u0120Up": 6417, "ndy": 6418, "Fair": 6419, "\u0120hiding": 6420, "\u0120squeezer": 6421, "Floyd": 6422, "Boo": 6423, "\u0120Heaven": 6424, "\u0120grandbaby": 6425, "\u0120carving": 6426, "\u0120mashing": 6427, "\u0120shapes": 6428, "\u0120soda": 6429, "Nathan": 6430, "\u0120squeal": 6431, "\u0120neglect": 6432, "\u0120Johns": 6433, "\u0120baked": 6434, "\u0120begun": 6435, "\u0120Beard": 6436, "\u0120sprayed": 6437, "\u0120Hawaii": 6438, "\u0120performances": 6439, "\u0120sa": 6440, "\u0120draw": 6441, "\u0120Sad": 6442, "\u0120mammal": 6443, "\u0120kibble": 6444, "\u0120hummed": 6445, "\u0120gumdrops": 6446, "\u0120huff": 6447, "Jack\u00c3\u00a2": 6448, "\u0120replacing": 6449, "Jakey": 6450, "Manu": 6451, "\u0120playgrounds": 6452, "\u0120Henri": 6453, "\u0120forgat": 6454, "\u0120Others": 6455, "Gramps": 6456, "\u0120Hyle": 6457, "\u0120padded": 6458, "\u0120tonight": 6459, "\u0120practiced": 6460, "\u0120Excited": 6461, "\u0120pierced": 6462, "\u0120Gravity": 6463, "\u0120stain": 6464, "\u0120Mickey": 6465, "\u0120envy": 6466, "\u0120Zelda": 6467, "\u0120networks": 6468, "\u0120yells": 6469, "\u0120peony": 6470, "Maze": 6471, "\u0120Aara": 6472, "\u0120service": 6473, "\u0120talent": 6474, "\u0120Foo": 6475, "\u0120Remy": 6476, "\u0120fragrant": 6477, "\u0120Suddenly": 6478, "\u0120Rocks": 6479, "\u0120Liya": 6480, "\u0120thunder": 6481, "\u0120catches": 6482, "\u0120Sim": 6483, "\u0120Inchy": 6484, "\u0120avoid": 6485, "\u0120nets": 6486, "\u0120noodle": 6487, "\u0120hunched": 6488, "\u0120Dolores": 6489, "\u0120Royal": 6490, "Cuddles": 6491, "\u0120petals": 6492, "\u0120lurked": 6493, "\u0120mules": 6494, "\u0120aquarium": 6495, "shall": 6496, "\u0120types": 6497, "\u0120!\"": 6498, "\u0120Lion": 6499, "\u0120Kane": 6500, "\u0120pliers": 6501, "\u0120connect": 6502, "\u0120prepping": 6503, "\u0120Kady": 6504, "\u0120visited": 6505, "\u0120trespassed": 6506, "\u0120Wilkins": 6507, "\u0120baa": 6508, "\u0120Paddington": 6509, "\u0120hens": 6510, "\u0120playtime": 6511, "\u0120Poking": 6512, "Brayden": 6513, "\u0120Gabe": 6514, "Squiggles": 6515, "\u0120Octopus": 6516, "\u0120Kian": 6517, "\u0120reminisce": 6518, "\u0120fairness": 6519, "honk": 6520, "\u0120Soaking": 6521, "\u0120changes": 6522, "body": 6523, "\u0120Farley": 6524, "\u0120blossom": 6525, "\u00c5\u0135Once": 6526, "\u0120impolite": 6527, "Cock": 6528, "Meeeooow": 6529, "\u0120Bits": 6530, "\u0120gestures": 6531, "Rather": 6532, "\u0120shorter": 6533, "Debbie": 6534, "\u0120Eleanor": 6535, "\u0120Grace": 6536, "write": 6537, "\u0120baobab": 6538, "Ameena": 6539, "\u0120spires": 6540, "\u0120curvy": 6541, "12": 6542, "\u0120snarling": 6543, "\u0120Mathew": 6544, "\u0120Let": 6545, "\u0120batting": 6546, "Saffi": 6547, "\u0120Garret": 6548, "\u0120archway": 6549, "tire": 6550, "\u0120fra": 6551, "\u0120Independent": 6552, "\u0120teddybear": 6553, "\u0120educated": 6554, "rch": 6555, "\u0120blushed": 6556, "\u0120tune": 6557, "\u0120sleeves": 6558, "\u0120turret": 6559, "\u00c5\u0135Ok": 6560, "\u0120Ed": 6561, "\u0120Fires": 6562, "\u0120friendship\u00c3\u00a2": 6563, "\u0120Softy": 6564, "\u0120helping": 6565, "\u0120common": 6566, "Maya": 6567, "\u0120face": 6568, "\u0120lip": 6569, "?\".": 6570, "decorate": 6571, "\u0120plonked": 6572, "\u0120Kandy": 6573, "\u0120canvases": 6574, "\u0120bladder": 6575, "\u0120volume": 6576, "\u0120grandchild\u00c3\u00a2": 6577, "\u0120Rabbits": 6578, "Eve": 6579, "\u0120steadfast": 6580, "\u0120sightseeing": 6581, "\u0120Chip": 6582, "Pebbles": 6583, "\u0120creep": 6584, "\u0120lost": 6585, "olds": 6586, "far": 6587, "9": 6588, "\u0120Helicopter": 6589, "\u0120Nicky": 6590, "years": 6591, "\u0120George\u00c3\u00a2": 6592, "\u0120enlist": 6593, "il": 6594, "\u0120sure": 6595, "\u0120frames": 6596, "rk": 6597, "\u0120Shay": 6598, "\u00c5\u0135Milly": 6599, "\u0120wheezed": 6600, "Dash": 6601, "\u0120watercolors": 6602, "\u0120Delivery": 6603, "\u0120Zzzz": 6604, "\u0120inchworm": 6605, "\u0120nestle": 6606, "Tree": 6607, "Sherry": 6608, "\u0120Caitlyn": 6609, "\u0120Ahead": 6610, "\u0120Jeb": 6611, "\u0120stability": 6612, "\u0120Reversing": 6613, "\u0120jaunty": 6614, "reverse": 6615, "\u0120room": 6616, "\u0120waggled": 6617, "\u0120look\u00c3\u00a2": 6618, "\u0120exercise": 6619, "tted": 6620, "Glynn": 6621, "shelter": 6622, "\u00c5\u0135That\u00c3\u00a2": 6623, "\u0120Stanley": 6624, "\u0120restroom": 6625, "!?": 6626, "Levi": 6627, "Furious": 6628, "\u0120Raquel": 6629, "funny": 6630, "\u0120highlight": 6631, "\u0120Niki": 6632, "\u0120disturbance": 6633, "\u0120planter": 6634, "\u0120admiring": 6635, "\u0120mechanic": 6636, "Chad": 6637, "\u0120campers": 6638, "\u0120Ammy": 6639, "\u0120Jonas": 6640, "Got": 6641, "\u0120Emelia": 6642, "Squash": 6643, "\u0120Ahmet": 6644, "\u0120connections": 6645, "Freckles": 6646, "\u0120five": 6647, "\u0120Forgive": 6648, "\u0120dived": 6649, "\u0120sailor\u00c3\u00a2": 6650, "\u0120floaty": 6651, "\u0120dramatic": 6652, "er": 6653, "\u0120Suzy": 6654, "co": 6655, "\u0120Bearsy": 6656, "\u0120Kiwi": 6657, "nnel": 6658, "Lily": 6659, "\u0120bashing": 6660, "\u0120weeds": 6661, "\u0120Page": 6662, "\u0120[": 6663, "\u0120Gordon": 6664, "\u0120preferences": 6665, "wrong": 6666, "\u0120car": 6667, "\u0120deliveryman": 6668, "\u0120im": 6669, "\u0120earring": 6670, "\u0120excitingly": 6671, "\u0120cheddar": 6672, "\u0120herd": 6673, "\u0120Ho": 6674, "\u0120continents": 6675, "\u0120Gretel": 6676, "\u0120despite": 6677, "\u0120sly": 6678, "\u0120crawly": 6679, "\u0120Leila": 6680, "\u0120inc": 6681, "\u0120panics": 6682, "old": 6683, "\u0120Radish": 6684, "\u0120share": 6685, "Jackie": 6686, "\u0120slinked": 6687, "\u0120fussing": 6688, "Whoever": 6689, "Rachael": 6690, "\u0120crispy": 6691, "\u0120baptism": 6692, "April": 6693, "\u0120Di": 6694, "perhaps": 6695, "\u0120nap\u00c3\u00a2": 6696, "Noisy": 6697, "\u0120dollars": 6698, "\u0120grizzled": 6699, "\u0120Sierra": 6700, "\u0120strokes": 6701, "\u0120Blanket": 6702, "\u0120Love": 6703, "\u0120Therasa": 6704, "\u0120suitcases": 6705, "Happily": 6706, "\u0120Quackly": 6707, "\u0120Almost": 6708, "\u0120meetings": 6709, "\u0120battled": 6710, "Slobberin": 6711, "\u0120Nick\u00c3\u00a2": 6712, "\u0120sank": 6713, "\u0120encrusted": 6714, "tight": 6715, "\u0120bits": 6716, "\u0120dribbling": 6717, "\u0120tease": 6718, "\u0120hoop": 6719, "\u0120labour": 6720, "Mateo": 6721, "Lastly": 6722, "\u0120brag": 6723, "\u0120Jone": 6724, "\u0120gloominess": 6725, "\u0120Janny": 6726, "\u0120dining": 6727, "\u0120schoolwork": 6728, "\u0120summer": 6729, "\u0120whimper": 6730, "\u0120spices": 6731, "\u0120attracts": 6732, "\u0120contain": 6733, "Ponies": 6734, "\u0120Art": 6735, "\u0120Gabby": 6736, "\u0120least": 6737, "\u0120Catina": 6738, "\u0120Ant": 6739, "Dragon": 6740, "\u0120lads": 6741, "\u0120Snowball": 6742, "\u0120advised": 6743, "Liesel": 6744, "\u0120Croaker": 6745, "\u0120jerseys": 6746, "\u0120builded": 6747, "\u0120droppings": 6748, "\u0120crane\u00c3\u00a2": 6749, "\u0120marches": 6750, "\u0120recognise": 6751, "\u0120annoyed": 6752, "\u0120manual": 6753, "\u0120appet": 6754, "\u0120inchworms": 6755, "\u0120sap": 6756, "\u0120Carmen": 6757, "\u0120Reginald": 6758, "\u0120galleries": 6759, "\u0120saddles": 6760, "av": 6761, "Scrappy": 6762, "\u0120Click": 6763, "Terrible": 6764, "\u0120safekeeping": 6765, "\u0120sorrowful": 6766, "\u00c5\u0135Could": 6767, "\u0120strutting": 6768, "\u0120bagel": 6769, "Stone": 6770, "\u0120Bush": 6771, "\u0120lately": 6772, "tree": 6773, "\u0120broadly": 6774, "\u0120heater": 6775, "\u0120Jeffery": 6776, "\u0120oatberries": 6777, "\u0120foraging": 6778, "OL": 6779, "\u0120toys": 6780, "\u0120apartment": 6781, "\u0120mastering": 6782, "\u0120starred": 6783, "\u0120investigate": 6784, "\u0120Friendly": 6785, "\u0120cause": 6786, "\u0120needn": 6787, "\u0120lights": 6788, "dictionary": 6789, "\u0120hairband": 6790, "\u0120surged": 6791, "\u0120smiley": 6792, "\u0120Original": 6793, "\u0120upstairs": 6794, "Raja": 6795, "\u0120skittering": 6796, "!'": 6797, "yield": 6798, "\u0120Competition": 6799, "eww": 6800, "\u0120cocoons": 6801, "\u0120pumping": 6802, "Joanne": 6803, "\u0120merci": 6804, "\u0122": 6805, "\u0120Clean": 6806, "Goldilocks": 6807, "\u0120mid": 6808, "\u0120scalp": 6809, "bug": 6810, "\u0120dashing": 6811, "\u0120Murp": 6812, "\u0120exhaustion": 6813, "\u00c5\u0135Mmm": 6814, "\u0120Unsure": 6815, "\u0120affairs": 6816, "\u0120flashlight": 6817, "\u0120gourd": 6818, "\u0120discussion": 6819, "\u0120graham": 6820, "Pleased": 6821, "\u0120Tyree": 6822, "\u0120conditioner": 6823, "\u00c5\u0135O": 6824, "\u0120seam": 6825, "Beetle": 6826, "\u0120Deaf": 6827, "\u0120Isy": 6828, "\u0120outdoor": 6829, "Believing": 6830, "\u0120efforts": 6831, "separate": 6832, "\u0120Rolly": 6833, "Wealthy": 6834, "\u0120ploughing": 6835, "\u0120tenacity": 6836, "\u0120Keem": 6837, "\u0120shout": 6838, "Whose": 6839, "\u0120party": 6840, "\u0120wistfully": 6841, "\u0120baptized": 6842, "\u0120jogged": 6843, "\u00c5\u0135From": 6844, "\u0120Grow": 6845, "\u0120solar": 6846, "Going": 6847, "\u0120platter": 6848, "\u0120ashy": 6849, "\u0120drumming": 6850, "ise": 6851, "attach": 6852, "\u0120posters": 6853, "\u00c5\u0135Love": 6854, "\u0120sto": 6855, "\u0120label": 6856, "\u0120obsession": 6857, "\u0120containing": 6858, "\u0120conver": 6859, "\u0120lot": 6860, "off": 6861, "\u0120daringly": 6862, "\u00b9": 6863, "\\\"": 6864, "\u00c2\u00a9": 6865, "Farah": 6866, "\u0120Samson": 6867, "\u0120Sarah": 6868, "\u0120Jem": 6869, "\u0120Zephyr": 6870, "\u0120Mousy": 6871, "Remember": 6872, "\u0120grinds": 6873, "\u0120assumptions": 6874, "\u0120Gently": 6875, "\u0120frantic": 6876, "\u0120Universe": 6877, "who": 6878, "\u0120whispery": 6879, "\u0120cruise": 6880, "\u0120Gummy": 6881, "\u0120powering": 6882, "\u0120mammy": 6883, "\u0120Pleased": 6884, "\u0120octopuses": 6885, "\u0120tranquilizer": 6886, "\u0120Paolo": 6887, "\u0120expression": 6888, "\u0120strive": 6889, "relax": 6890, "\u0120scarecrow": 6891, "\u0120Gan": 6892, "Caleb": 6893, "\u0120Twist": 6894, "\u0120contains": 6895, "\u0120gnat": 6896, "\u0120savvy": 6897, "Ice": 6898, "Kids": 6899, "\u0120passing": 6900, "\u0120intensely": 6901, "\u0120tougher": 6902, "\u0120landlubber": 6903, "\u0120bone": 6904, "\u0120lasagne": 6905, "\u0120wonderland": 6906, "\u0120thrones": 6907, "giraffe": 6908, "\u0120Tall": 6909, "\u0120Charley": 6910, "\u0120Rod": 6911, "LI": 6912, "\u0120doubts": 6913, "\u0120mustard": 6914, "\u0120goof": 6915, "\u0120china": 6916, "\u0120Shelter": 6917, "fun": 6918, "\u0120newest": 6919, "chimney": 6920, "\u0120stalagmites": 6921, "\u0120all": 6922, "Batteries": 6923, "\u0120Africa": 6924, "\u0120ravine": 6925, "\u0120purred": 6926, "\u0120pity": 6927, "\u0120operations": 6928, "\u0120Construction": 6929, "Kizzy": 6930, "\u0120Taking": 6931, "\u0120narrow": 6932, "\u0120curly": 6933, "\u0120complications": 6934, "beep": 6935, "\u00c5\u0135that": 6936, "\u0120vera": 6937, "\u0120teams": 6938, "\u0120mapped": 6939, "\u0120ripe": 6940, "\u0120punches": 6941, "Lia": 6942, "\u0120Glovey": 6943, "\u0120pulled": 6944, "\u0120pay": 6945, "\u0120gloss": 6946, "\u0120attraction": 6947, "\u0120back": 6948, "\u0120secured": 6949, "\u0120Milli": 6950, "\u0120Cable": 6951, "\u0120hardened": 6952, "\u0120licked": 6953, "\u0120appreciating": 6954, "\u0120gemstones": 6955, "\u0120replacement": 6956, "\u0120hints": 6957, "\u0120platypus": 6958, "Muffy": 6959, "\u0120preventing": 6960, "\u0120decrepit": 6961, "\u0120replying": 6962, "\u0120outdo": 6963, "\u0120celebrates": 6964, "Snug": 6965, "\u0120countertop": 6966, "Herb": 6967, "\u0120silence": 6968, "\u0120armadillos": 6969, "\u0120ravioli": 6970, "Prove": 6971, "\u0120serenity": 6972, "\u0120Barb": 6973, "\u0120Ladybug": 6974, "Frowning": 6975, "\u0120Radishes": 6976, "Teaspoon": 6977, "\u0120baldness": 6978, "bye": 6979, "\u0120submarine": 6980, "\u0120Anya": 6981, "Lecture": 6982, "\u0120Furball": 6983, "\u0120sportsmanship": 6984, "\u0120van": 6985, "\u0120viewpoint": 6986, "Kelly": 6987, "\u0120canister": 6988, "\u0120Syd": 6989, "\u0120Jamie": 6990, "\u0120Flashy": 6991, "\u0120Mathilda": 6992, "\u0120Salt": 6993, "\u0120measurement": 6994, "\u0120sketch": 6995, "\u0120giddily": 6996, "\u0120HURT": 6997, "\u0120Softly": 6998, "\u0120create": 6999, "\u0120chatter": 7000, "\u0120bustled": 7001, "\u0120steer": 7002, "Gymnastics": 7003, "\u0120flicker": 7004, "Denny": 7005, "leaf": 7006, "\u0120wisps": 7007, "\u0120enemy": 7008, "\u0120luxury": 7009, "\u0120hearthe": 7010, "\u0120folks": 7011, "\u0120bare": 7012, "plane": 7013, "\u0120frienfds": 7014, "\u0120moth": 7015, "\u0120Tweety": 7016, "\u0120scam": 7017, "diving": 7018, "\u0120hurting": 7019, "\u0120rhinos": 7020, "\u0120playtimes": 7021, "Carrying": 7022, "\u0120Jarrett": 7023, "Berry": 7024, "\u0120Aren": 7025, "\u0120Buddhism": 7026, "\u0120Marnie": 7027, "\u0120Gro": 7028, "\u0120booth": 7029, "\u0120Keanu": 7030, "\u00ac": 7031, "\u01206": 7032, "East": 7033, "\u0120tile": 7034, "\u0120unicycle": 7035, "\u0120Sanka": 7036, "\u0120Barbie": 7037, "\u0120storekeeper": 7038, "\u0120grumble": 7039, "\u0120clues": 7040, "\u0120remorse": 7041, "\u0120tyke": 7042, "\u0120belonging": 7043, "\u0120Oooh": 7044, "Susanna": 7045, "\u0120trumpeted": 7046, "\u0120Cubie": 7047, "\u0120quieted": 7048, "\u0120droplet": 7049, "Giraffes": 7050, "\u0120Screaming": 7051, "Ima": 7052, "\u0120Melissa": 7053, "\u0120crab": 7054, "\u0120murals": 7055, "\u0120stone": 7056, "EL": 7057, "Rumble": 7058, "\u0120feeble": 7059, "\u0120repeats": 7060, "Haley": 7061, "\u0120torch": 7062, "\u0120waked": 7063, "shock": 7064, "\u0120stomps": 7065, "\u0120enables": 7066, "\u0120Beside": 7067, "\u0120grandson\u00c3\u00a2": 7068, "\u0120Palm": 7069, "\u0120SNEEZE": 7070, "\u0120talked": 7071, "\u0120tidying": 7072, "\u0120mousy": 7073, "\u0120comedian": 7074, "\u0120Gandhi": 7075, "\u0120waiting": 7076, "\u0120trickled": 7077, "\u0120Sure": 7078, "\u00c5\u0135Nina": 7079, "Ga": 7080, "\u0120eagle\u00c3\u00a2": 7081, "\u0120therapeutic": 7082, "\u0120horrified": 7083, "\u0120judged": 7084, "\u0120Nelly": 7085, "\u0120losses": 7086, "\u0120unblocked": 7087, "\u0120presentable": 7088, "\u0120luxery": 7089, "\u0120competitive": 7090, "\u0120Willa": 7091, "\u0120exhausting": 7092, "Hear": 7093, "\u0120dotted": 7094, "iling": 7095, "\u0120eggplants": 7096, "\u0120downpour": 7097, "\u0120tub": 7098, "walk": 7099, "\u0120cleanest": 7100, "\u0120decoration": 7101, "June": 7102, "\u0120Grandparent": 7103, "\u0120sneaky": 7104, "\u0120proceeded": 7105, "\u0120corals": 7106, "Mora": 7107, "\u0120crumb": 7108, "Snap": 7109, "\u0120staining": 7110, "\u0120hunk": 7111, "\u0120vicious": 7112, "\u0120sports": 7113, "\u0120driest": 7114, "\u0120grumpy": 7115, "\u0120Baebae": 7116, "\u0120Luisa": 7117, "\u0120Novel": 7118, "Win": 7119, "\u0120stargazing": 7120, "mustache": 7121, "\u0120Painter": 7122, "\u0120collectible": 7123, "\u0120duvet": 7124, "told": 7125, "\u0120Humpty": 7126, "\u0120salvage": 7127, "\u0120begged": 7128, "\u0120Powder": 7129, "\u0120Luther": 7130, "\u00c5\u0135the": 7131, "\u0120Buzzy": 7132, "\u0120spines": 7133, "\u0120Bulby": 7134, "\u0120others\u00c3\u00a2": 7135, "\u0120Wires": 7136, "\u0120upside": 7137, "\u0120gluey": 7138, "\u0120correctly": 7139, "\u0120Brittney": 7140, "Hand": 7141, "\u0120coziest": 7142, "Duckie": 7143, "\u0120speeches": 7144, "\u0120rustled": 7145, "\u0120Samy": 7146, "Tod": 7147, "awl": 7148, "\u0120resourcefulness": 7149, "\u0120Roddy": 7150, "\u0120Smiley": 7151, "Page": 7152, "\u0120affects": 7153, "\u0120pacifier": 7154, "\u0120Fia": 7155, "Luka": 7156, "\u0120Jokey": 7157, "\u0120Splat": 7158, "\u0120Bravely": 7159, "\u0120Glove": 7160, "\u0120dreamer": 7161, "..": 7162, "Cereal": 7163, "\u0120Seagull": 7164, "\u0120crook": 7165, "\u0120lifelong": 7166, "Shelter": 7167, "\u0120Ladybugs": 7168, "\u0120sunglasses": 7169, "Jack": 7170, "\u0120city": 7171, "\u0120clacking": 7172, "\u0120stereo": 7173, "master": 7174, "\u0120lampshade": 7175, "\u0120dancing": 7176, "\u0120craned": 7177, "Esmie": 7178, "\u0120stroke": 7179, "\u0120Pokie": 7180, "\u0120crusts": 7181, "\u00c5\u0135Do": 7182, "\u00c5\u0135On": 7183, "Becca": 7184, "\u0120insignificant": 7185, "\u0120Clowny": 7186, "\u0120booing": 7187, "\u0120dutifully": 7188, "\u0120handlebar": 7189, "\u0120Razors": 7190, "\u0120owners": 7191, "che": 7192, "\u0120Wealthy": 7193, "\u0120must\u00c3\u00a2": 7194, "Screws": 7195, "\u0120Coffee": 7196, "\u0120pa": 7197, "\u0120weekly": 7198, "\u0120Angels": 7199, "\u0120Susa": 7200, "\u0120Scamp": 7201, "\u0120dripped": 7202, "\u0120Cyril": 7203, "Clock": 7204, "\u0120private": 7205, "\u0120jars": 7206, "\u0120lumbers": 7207, "\u0120commit": 7208, "mbo": 7209, "\u0120Gecko": 7210, "\u0120eagerly": 7211, "\u0120ache": 7212, "Outside": 7213, "\u0120Australian": 7214, "\u0120webbed": 7215, "\u0120Fuzzy": 7216, "\u0120sp": 7217, "\u0120items": 7218, "\u0120faint": 7219, "\u0120Point": 7220, "\u0120suspiciously": 7221, "\u0120Hee": 7222, "\u0120Freidrich": 7223, "\u0120slide": 7224, "\u0120billboards": 7225, "\u0120assigned": 7226, "\u0120chips": 7227, "\u0120Sleep": 7228, "\u0120Sprinkles": 7229, "\u0120gossip": 7230, "\u0120M\u00c3\u0125": 7231, "\u0120suitcase": 7232, "\u0120wiring": 7233, "\u0120munchies": 7234, "\u0120parasol": 7235, "\u0120Clive": 7236, "Tornado": 7237, "Barrack": 7238, "\u0120Dippy": 7239, "\u0120hardship": 7240, "\u0120Again": 7241, "\u0120haircut": 7242, "clink": 7243, "Louie": 7244, "Len": 7245, "liant": 7246, "\u0120pews": 7247, "Mosquitoes": 7248, "\u0120cm": 7249, "\u0120Olive": 7250, "\u0120patting": 7251, "Mama\u00c3\u00a2": 7252, "\u0120Herbie": 7253, "\u0120comics": 7254, "\u0120dreary": 7255, "\u0120trumpets": 7256, "\u0120celebrations": 7257, "\u0120Layla": 7258, "bur": 7259, "\u0120lightbulb": 7260, "\u0120foots": 7261, "\u0120give": 7262, "\u0120storybook": 7263, "pet": 7264, "\u0120cornstalks": 7265, "\u0120church": 7266, "\u0120Undeterred": 7267, "ck": 7268, "Blo": 7269, "\u0120soles": 7270, "Hide": 7271, "\u0120skiing": 7272, "\u0120Mouna": 7273, "\u0120Oakley": 7274, "\u0120postcards": 7275, "\u0120Confused": 7276, "\u0120gulps": 7277, "\u0120snuffling": 7278, "\u0120spook": 7279, "\u0120amulet": 7280, "\u0120Knowing": 7281, "lined": 7282, "\u0120Collect": 7283, "\u0120existence": 7284, "\u0120Fan": 7285, "\u0120pressed": 7286, "\u0120carousel": 7287, "\u00c5\u0135Think": 7288, "\u0120blueberry": 7289, "\u0120Jolliden": 7290, "\u0120dunked": 7291, "\u0120creeps": 7292, "\u0120slinky": 7293, "\u0120conversations": 7294, "\u0120gummy": 7295, "\u0120Dadoo": 7296, "\u00c5\u0135Dave": 7297, "Sibyl": 7298, "appropriate": 7299, "\u0120collage": 7300, "\u0120impressive": 7301, "disgusting": 7302, "\u0120cookie": 7303, "\u0120Tomorrow": 7304, "\u0120fries": 7305, "solver": 7306, "\u0120cookbooks": 7307, "\u0120cuddly": 7308, "\u0120Turky": 7309, "\u0120came": 7310, "\u0120job": 7311, "\u0120Effects": 7312, "tered": 7313, "\u0120bur": 7314, "\u0120blocks": 7315, "Oi": 7316, "land": 7317, "\u0120prettier": 7318, "\u0120ladybugs": 7319, "\u0120Enid": 7320, "\u0120Murphy": 7321, "\u0120showered": 7322, "\u0120Livia": 7323, "\u0120difference": 7324, "\u0120bidding": 7325, "\u0120serenade": 7326, "Fun": 7327, "\u0120crawl": 7328, "\u0120dumbbells": 7329, "\u0120both": 7330, "\u0120Snail": 7331, "\u0120bicker": 7332, "Undeterred": 7333, "Sal": 7334, "\u0120ostrich": 7335, "\u0120Crickets": 7336, "Throw": 7337, "Music": 7338, "\u0120Safari": 7339, "\u0120Succeed": 7340, "\u0120dams": 7341, "\u0120Flofer": 7342, "\u0120prompt": 7343, "Noodle": 7344, "\u0120She\u00c3\u00a2": 7345, "\u0120expensive": 7346, "\u0120Daisy": 7347, "a": 7348, "\u0120improvise": 7349, "\u0120anemones": 7350, "Baker": 7351, "\u0120flowed": 7352, "\u0120pasty": 7353, "\u0120risking": 7354, "\u0120tiredness": 7355, "\u0120Flora": 7356, "\u0120pitched": 7357, "Crows": 7358, "Patty": 7359, "\u0120cool\u00c3\u00a2": 7360, "yoga": 7361, "\u0120bargained": 7362, "\u0120casted": 7363, "\u0120narrower": 7364, "\u0120Repair": 7365, "\u0120Join": 7366, "\u0120proven": 7367, "\u0120creamy": 7368, "\u00c5\u0135Does": 7369, "\u0120Kyra": 7370, "Marcia": 7371, "\u0120discomfort": 7372, "\u0120Gill": 7373, "\u010a\u0120\u010a": 7374, "\u0120man": 7375, "Annabel": 7376, "\u0120emails": 7377, "Betty": 7378, "\u0120onions": 7379, "\u0120medication": 7380, "It": 7381, "\u0120Abbie\u00c3\u00a2": 7382, "\u0120nanny": 7383, "\u012060": 7384, "\u0120embroider": 7385, "\u0120President": 7386, "\u0120hoppers": 7387, "\u0120Iyza": 7388, "\u0120breakthrough": 7389, "\u0120bars": 7390, "\u0120Bodi": 7391, "\u0120succeeds": 7392, "\u0120strapped": 7393, "=": 7394, "\u0120Joyfully": 7395, "\u0120bleeding": 7396, "\u0120affect": 7397, "\u0120caring": 7398, "\u0120gunshot": 7399, "delicate": 7400, "\u0120Owen": 7401, "\u0120Someone": 7402, "\u0120firehouse": 7403, "\u0120wiseman": 7404, "ashtray": 7405, "\u0120nine": 7406, "\u0120Number": 7407, "Beef": 7408, "\u0120McDowell": 7409, "\u00c5\u0135She\u00c3\u00a2": 7410, "\u0120throb": 7411, "Blast": 7412, "\u0120Ashley": 7413, "Doesn": 7414, "\u0120spiked": 7415, "\u0120reassured": 7416, "\u0120dishwashing": 7417, "\u00c5\u0135James": 7418, "oops": 7419, "\u0120toilets": 7420, "\u0120perched": 7421, "\u0120seas": 7422, "\u0120sam": 7423, "\u0120mixtures": 7424, "Chick": 7425, "\u0120plucks": 7426, "ow": 7427, "\u0120bucket": 7428, "\u0120Replied": 7429, "\u0120cornered": 7430, "\u0120woodpecker": 7431, "Terence": 7432, "\u0120blushing": 7433, "aa": 7434, "\u0120dimpled": 7435, "\u0120scrubs": 7436, "deaf": 7437, "\u0120battered": 7438, "\u0120harbor": 7439, "\u0120bustling": 7440, "\u0120Atty": 7441, "\u0120quarters": 7442, "\u0120Nowina": 7443, "\u0120Dorothy": 7444, "\u0120Snakes": 7445, "\u00b4": 7446, "\u0120gummies": 7447, "\u0120Anna\u00c3\u00a2": 7448, "\u00c5\u0135Daisy": 7449, "\u0120ringer": 7450, "\u0120repaired": 7451, "Beans": 7452, "\u0120lakes": 7453, "\u0120mineral": 7454, "Du": 7455, "\u0120Shoo": 7456, "\u0120Ratty": 7457, "\u0120Bone": 7458, "\u0120Tessie": 7459, "\u0120exam": 7460, "\u0120sneaks": 7461, "\u0120parrot": 7462, "\u0120misty": 7463, "Penguin": 7464, "\u0120breed": 7465, "\u0120fever": 7466, "\u0120handrail": 7467, "\u0120silently": 7468, "\u0120warmth": 7469, "\u00c5\u0135Trust": 7470, "\u0120flex": 7471, "\u0120bluebird": 7472, "\u0120Oranges": 7473, "\u0120One": 7474, "\u0120Benita": 7475, "Mihir": 7476, "\u0120swipes": 7477, "\u0120Lolli": 7478, "Hurricane": 7479, "\u0120modestly": 7480, "Earlier": 7481, "\u0120partly": 7482, "Genny": 7483, "goodbye": 7484, "\u0120Danger": 7485, "\u0120battery": 7486, "Gingerly": 7487, "\u0120Bessy": 7488, "\u0120losers": 7489, "\u00c5\u0135snap": 7490, "\u0120albatross": 7491, "\u0120vision": 7492, "\u0120Bri": 7493, "Eight": 7494, "addock": 7495, "\u0120Goldie": 7496, "\u0120skimming": 7497, "pig": 7498, "\u0120unlocked": 7499, "\u0120galloping": 7500, "\u0120Halley": 7501, "\u0120twiddled": 7502, "Distant": 7503, "\u00c5\u0135Amy": 7504, "\u0120throws": 7505, "\u0120renovations": 7506, "Axe": 7507, "\u0120Crabs": 7508, "\u0120transfixed": 7509, "\u0120contrary": 7510, "\u0120marsh": 7511, "\u0120Clubhouse": 7512, "Femi": 7513, "\u0120port": 7514, "\u0120rectangular": 7515, "\u0120contentedly": 7516, "\u0120crying": 7517, "\u0120figurine": 7518, "\u0120Neha": 7519, "\u0120swimsuit": 7520, "\u0120swerve": 7521, "\u0120poppa": 7522, "\u0120destiny": 7523, "\u0120owner\u00c3\u00a2": 7524, "\u0120Fox": 7525, "\u0120Need": 7526, "\u0120memorized": 7527, "\u0120Jacques": 7528, "\u0120lice": 7529, "\u0120rip": 7530, "gar": 7531, "\u0120fair": 7532, "skate": 7533, "\u0120intruder": 7534, "\u0120intimidating": 7535, "\u0120Reka": 7536, "\u0120patients": 7537, "\u0120Shira": 7538, "\u0120concession": 7539, "\u0120hurricanes": 7540, "\u0120chamomile": 7541, "Open": 7542, "\u0120brim": 7543, "Elephants": 7544, "\u0120mistakes": 7545, "\u0120issue": 7546, "\u0120shots": 7547, "Hm": 7548, "\u0120Pinching": 7549, "\u0120Squeaks": 7550, "\u0120smog": 7551, "\u0120drops": 7552, "\u0120aiming": 7553, "Beauty": 7554, "white": 7555, "\u0120Swimmy": 7556, "\u0120charcoal": 7557, "\u0120armchairs": 7558, "\u0120snatch": 7559, "\u0120juggling": 7560, "\u00c5\u0135Hooray": 7561, "Austin": 7562, "\u0120winks": 7563, "\u0120virtue": 7564, "\u0120Stretching": 7565, "\u0120Ralf": 7566, "wait": 7567, "Aristotle": 7568, "\u0120grabbed": 7569, "\u00c5\u0135Birds": 7570, "\u0120swims": 7571, "\u0120Johnsons": 7572, "\u0120Sylvester": 7573, "en": 7574, "Ho": 7575, "\u0120Dany": 7576, "Wheeee": 7577, "Gertie": 7578, "\u0120robin": 7579, "\u00c5\u0135Enjoy": 7580, "\u0120Bump": 7581, "\u0120App": 7582, "\u0120Fairies": 7583, "\u0120River": 7584, "\u0120orphan": 7585, "\u0120dodging": 7586, "\u0120Fast": 7587, "Sully": 7588, "\u0120moonlight": 7589, "\u0120plum": 7590, "\u0120examiner": 7591, "\u0120dresser": 7592, "\u0120speeded": 7593, "\u0120passers": 7594, "OR": 7595, "wing": 7596, "Karl": 7597, "\u0120Fatima": 7598, "\u0120Instantly": 7599, "iest": 7600, "\u0120swooped": 7601, "\u0120sending": 7602, "\u0120Suzan": 7603, "Baking": 7604, "danger": 7605, "\u0120Newspapers": 7606, "\u0120hoarse": 7607, "\u0120candles": 7608, "\u0120disturb": 7609, "\u0120tickled": 7610, "Getting": 7611, "gie": 7612, "\u0120non": 7613, "Fireworks": 7614, "for": 7615, "MOM": 7616, "\u0120Cliff": 7617, "cycling": 7618, "\u0120canvas": 7619, "Pi": 7620, "\u0120Fragile": 7621, "\u0120blub": 7622, "\u0120scr": 7623, "Aria": 7624, "\u0120world": 7625, "\u0120Hammy": 7626, "\u0120Splashy": 7627, "\u0120declaring": 7628, "\u0120blurted": 7629, "\u0120Principal": 7630, "Jumping": 7631, "someone": 7632, "\u0120roadtrip": 7633, "\u0120Peeks": 7634, "\u0120mantel": 7635, "\u0120spot\u00c3\u00a2": 7636, "\u0120dollar": 7637, "Gray": 7638, "\u0120acknowledgment": 7639, "Al": 7640, "\u0120enclosure": 7641, "Sofishticated": 7642, "H": 7643, "\u012021": 7644, "\u0120finder": 7645, "\u0120Emiko": 7646, "\u0120stung": 7647, "\u0120brightness": 7648, "\u0120smooch": 7649, "\u0120bales": 7650, "\u0120sirens": 7651, "\u0120poppy": 7652, "\u0120loose": 7653, "\u0120Starry": 7654, "\u0120Marly": 7655, "Skin": 7656, "\u0120disturbs": 7657, "\u0120drags": 7658, "\u0120blood": 7659, "\u0120Pig": 7660, "walked": 7661, "\u0120Bawk": 7662, "\u0120shared": 7663, "\u0120shopping": 7664, "\u0120bags": 7665, "\u0120Clumsy": 7666, "Polite": 7667, "\u0120shrugged": 7668, "\u0120dat": 7669, "\u0120globes": 7670, "Tracy": 7671, "\u0120crabby": 7672, "\u0120none": 7673, "\u0120stubbornly": 7674, "\u0120brushes": 7675, "lle": 7676, "Hayley": 7677, "\u0120passions": 7678, "\u0120glimpsed": 7679, "\u0120wildlife": 7680, "\u0120pictures": 7681, "totter": 7682, "\u0120hey": 7683, "Ginny": 7684, "\u0120jar": 7685, "\u0120tricked": 7686, "\u0120Oon": 7687, "Pleeeease": 7688, "Mel": 7689, "\u0120Squawk": 7690, "\u0120carefuly": 7691, "Krystal": 7692, "\u0120Felicity": 7693, "\u0120belief": 7694, "\u0120chopsticks": 7695, "\u0120greatful": 7696, "\u0120spellbook": 7697, "\u0120Rosie\u00c3\u00a2": 7698, "\u0120Sugi": 7699, "loud": 7700, "Mystery": 7701, "\u0120scuttled": 7702, "\u0120traders": 7703, "\u0120weatherman": 7704, "Figure": 7705, "\u0120Chico": 7706, "\u0120donating": 7707, "\u0120winding": 7708, "\u0120arguments": 7709, "\u0120Tomy": 7710, "\u0120pushcart": 7711, "Until": 7712, "\u0120grate": 7713, "\u0120Viv": 7714, "\u0120seriousness": 7715, "Children": 7716, "Freddy": 7717, "\u0120crafts": 7718, "\u0120til": 7719, "\u0120gamble": 7720, "\u0120Room": 7721, "\u0120burners": 7722, "\u0120Year": 7723, "Hello": 7724, "\u0120battlefield": 7725, "mped": 7726, "line": 7727, "\u0120Raisin": 7728, "Paulina": 7729, "\u0120Pete": 7730, "\u0120pup": 7731, "\u0120Potatoes": 7732, "\u0120Pedal": 7733, "\u0120Socksy": 7734, "\u0120together": 7735, "\u0120seal": 7736, "\u0120hide": 7737, "\u0120encouragingly": 7738, "\u0120travelers": 7739, "\u0120bolts": 7740, "\u0120camps": 7741, "\u0120skunk": 7742, "\u00c5\u0135big": 7743, "Merri": 7744, "\u0120shown": 7745, "Tin": 7746, "\u0120mesmer": 7747, "\u0120proud": 7748, "as": 7749, "\u0120Trying": 7750, "\u0120limit": 7751, "\u0120Lilibeth": 7752, "\u0120comply": 7753, "Months": 7754, "\u0120landslide": 7755, "\u0120blades": 7756, "\u0120funner": 7757, "\u0120snowstorm": 7758, "watering": 7759, "\u0120fourth": 7760, "\u0120horsey": 7761, "\u0120massive": 7762, "\u0120gaped": 7763, "\u0120shone": 7764, "\u0120Careful": 7765, "\u0120coffees": 7766, "\u0120musician": 7767, "\u0120patchy": 7768, "\u0120Insects": 7769, "\u0120Carrot": 7770, "Lift": 7771, "Coco": 7772, "\u0120last": 7773, "\u00c5\u0135All": 7774, "\u0120toadstool": 7775, "Sandra": 7776, "\u0120arrival": 7777, "\u0120la": 7778, "tiny": 7779, "\u0120several": 7780, "\u0120outward": 7781, "\u0120weights": 7782, "\u0120spongy": 7783, "\u0120Rebeca": 7784, "\u0120popularman": 7785, "cheese": 7786, "\u0120mirrors": 7787, "\u0120stomachache": 7788, "\u0120salami": 7789, "\u0120morph": 7790, "\u0120Johny": 7791, "\u0120orderly": 7792, "Twelve": 7793, "Blacky": 7794, "Goodness": 7795, "\u0120happier": 7796, "na": 7797, "\u0120gosling": 7798, "\u0120lizard": 7799, "y": 7800, "\u0120Case": 7801, "\u0120Tiddles": 7802, "\u0120Use": 7803, "\u0120genuine": 7804, "\u0120be": 7805, "\u0120accomplishing": 7806, "\u0120mountaintop": 7807, "\u0120prunes": 7808, "\u0120buttery": 7809, "\u0120flashing": 7810, "here": 7811, "\u0120sandwiches": 7812, "sparkly": 7813, "\u0120poof": 7814, "not": 7815, "\u0120questions": 7816, "\u0120Bedtime": 7817, "Lots": 7818, "\u0120impact": 7819, "\u0120marry": 7820, "\u0120permanently": 7821, "\u0120frowny": 7822, "\u0120jets": 7823, "\u0120relatives": 7824, "\u0120Panic": 7825, "\u0120screens": 7826, "\u0120striving": 7827, "\u0120Tell": 7828, "\u0120follows": 7829, "Ming": 7830, "\u0120snowplow": 7831, "\u0120Agent": 7832, "\u0120Lila": 7833, "\u0120ocean\u00c3\u00a2": 7834, "inig": 7835, "\u0120shatters": 7836, "Sim": 7837, "\u0120dancefloor": 7838, "\u0120filth": 7839, "\u0120priests": 7840, "Agnieszka": 7841, "Seat": 7842, "After": 7843, "\u0120Damien": 7844, "\u0120--": 7845, "\u00c5\u0135Your": 7846, "\u0120wetted": 7847, "chy": 7848, "\u0120Feefee": 7849, "\u0120men": 7850, "\u0120vengeful": 7851, "Brianna": 7852, "@": 7853, "\u0120Aisha": 7854, "\u0120blackberry": 7855, "\u0120spiced": 7856, "\u0120stages": 7857, "\u0120piecing": 7858, "\u0120puffer": 7859, "\u0120understanding": 7860, "\u0120Sheapologized": 7861, "key": 7862, "\u0120Afterwards": 7863, "\u0120Quiet": 7864, "\u00c5\u0135Have": 7865, "\u0120Furby": 7866, "\u0120pincers": 7867, "\u0120Flicker": 7868, "\u0120narrated": 7869, "\u0120shopped": 7870, "\u0120chuff": 7871, "\u0120fantastical": 7872, "\u0120hissed": 7873, "\u0120crows": 7874, "\u0120Is": 7875, "Sara": 7876, "goal": 7877, "\u0120Tony\u00c3\u00a2": 7878, "\u0120maybe": 7879, "grandma": 7880, "Officer": 7881, "\u0120Jones": 7882, "\u0120cheese": 7883, "\u0120mama": 7884, "Jenna": 7885, "\u0120burgers": 7886, "\u0120stamps": 7887, "\u0120Elvis": 7888, "Allie": 7889, "\u0120Yucky": 7890, "\u0120tightens": 7891, "\u0120cayenne": 7892, "working": 7893, "\u0120squeaks": 7894, "\u0120grabs": 7895, "dge": 7896, "\u0120Fight": 7897, "Studying": 7898, "\u0120taut": 7899, "Seagull": 7900, "\u0120lunged": 7901, "\u0120log": 7902, "\u0120Greggy": 7903, "\u0120Wrapping": 7904, "\u0120fishhook": 7905, "vi": 7906, "\u0120Thumb": 7907, "\u0120whinnying": 7908, "Choose": 7909, "\u0120bravely": 7910, "\u0120MooMoo": 7911, "\u0120postal": 7912, "\u0120skilful": 7913, "\u0120R": 7914, "\u0120paramedics": 7915, "\u0120law": 7916, "rn": 7917, "\u0120Buster": 7918, "\u0120disperse": 7919, "\u0120pretended": 7920, "\u0120stringing": 7921, "\u0120require": 7922, "\u0120threaten": 7923, "bees": 7924, "\u0120sw": 7925, "replace": 7926, "\u0120kinder": 7927, "\u0120stiff": 7928, "whistle": 7929, "\u0120skater": 7930, "\u0120Jyla": 7931, "\u0120wicked": 7932, "Arjun": 7933, "\u0120dolls": 7934, "\u0120disturbances": 7935, "\u0120luminescent": 7936, "\u0120froze": 7937, "appear": 7938, "ca": 7939, "\u0120amiss": 7940, "\u0120mixer": 7941, "\u0120unfurl": 7942, "\u0120rackets": 7943, "\u0120pondering": 7944, "\u0120mopped": 7945, "\u0120silky": 7946, "\u0120perky": 7947, "\u0120Taste": 7948, "\u0120treasue": 7949, "\u0120here": 7950, "\u0120Sandwiches": 7951, "Rafa": 7952, "\u0120reservoir": 7953, "\u0120affection": 7954, "\u0120runway": 7955, "\u0120kit": 7956, "\u0120Do": 7957, "\u0120tutus": 7958, "\u0120Roobie": 7959, "\u0120personnel": 7960, "\u0120grumpily": 7961, "Bud": 7962, "Samuel": 7963, "\u0120abstract": 7964, "\u0120inclusive": 7965, "\u0120preen": 7966, "\u0120brain": 7967, "house": 7968, "\u0120hungry": 7969, "\u0120Kasey": 7970, "\u0120pigeons": 7971, "\u0120hmm": 7972, "\u0120Jessicca": 7973, "Sounds": 7974, "\u0120mwah": 7975, "\u0120Magical": 7976, "\u0120paper": 7977, "\u0120untangling": 7978, "\u0120birthdays": 7979, "\u0120dangerously": 7980, "\u0120scientists": 7981, "Josh": 7982, "Duck": 7983, "Bryce": 7984, "\u0120forked": 7985, "\u0120stumps": 7986, "\u0120crested": 7987, "Fee": 7988, "\u0120winged": 7989, "\u0120Trip": 7990, "\u0120pm": 7991, "\u0120siren": 7992, "\u0120crossed": 7993, "\u0120referring": 7994, "Bertie": 7995, "\u0120punishment": 7996, "\u0120spilling": 7997, "\u0120nightmare": 7998, "\u0120gallons": 7999, "ugly": 8000, "Gross": 8001, "\u0120stationmaster": 8002, "\u0120character": 8003, "\u0120Milo": 8004, "Ella\u00c3\u00a2": 8005, "\u0120cakes": 8006, "\u0120Ama": 8007, "soak": 8008, "\u0120prick": 8009, "\u0120Jock": 8010, "\u0120sunshine": 8011, "\u0120fulung": 8012, "\u0120salivate": 8013, "Being": 8014, "\u0120cr": 8015, "\u0120slyly": 8016, "\u0120Phil": 8017, "\u0120squeaky": 8018, "\u0120streetlights": 8019, "\u0120Heeler": 8020, "hello\u00c3\u00a2": 8021, "Moral": 8022, "\u0120ungraceful": 8023, "\u0120trusty": 8024, "\u00c5\u0135Brave": 8025, "\u0120tireless": 8026, "\u0120Ethel": 8027, "\u0120engulf": 8028, "\u0120stairway": 8029, "\u0120Stompy": 8030, "\u0120Outback": 8031, "\u0120Julio": 8032, "\u0120alleys": 8033, "Truck": 8034, "Balance": 8035, "\u0120erases": 8036, "\u0120Ruby": 8037, "\u0120caretaker": 8038, "\u0120Kleo": 8039, "\u0120Liana": 8040, "\u0120Box": 8041, "buried": 8042, "\u012036": 8043, "\u0120angry": 8044, "\u0120brownie": 8045, "Algae": 8046, "\u0120cookies": 8047, "\u0120scrabbling": 8048, "memory": 8049, "\u0120flaps": 8050, "\u0120Koni": 8051, "\u0120Adventureland": 8052, "\u0120trumpeting": 8053, "\u0120roam": 8054, "\u0120Ferrari": 8055, "\u00c5\u0135Soon": 8056, "\u0120force": 8057, "\u0120Chatter": 8058, "\u0120basked": 8059, "\u0120tastiness": 8060, "\u0120oaty": 8061, "fiving": 8062, "\u0120Robyn": 8063, "\u0120hats": 8064, "\u0120Beezo": 8065, "\u0120Zola": 8066, "\u0120clutched": 8067, "\u0120Jody": 8068, "\u0120Parade": 8069, "\u0120Luca": 8070, "\u0120dunk": 8071, "\u0120tokens": 8072, "\u0120Intruder": 8073, "\u0120wagon": 8074, "\u0120spaceships": 8075, "\u0120deliberation": 8076, "\u0120woofed": 8077, "\u0120Jell": 8078, "\u0120Luigi": 8079, "\u0120vibrant": 8080, "\u0120Puff": 8081, "\u0120cows": 8082, "\u0120Juicy": 8083, "\u0120Woods": 8084, "\u0120let": 8085, "\u0120frothy": 8086, "\u0120bleak": 8087, "emergency": 8088, "\u0120approve": 8089, "\u0120inching": 8090, "liness": 8091, "\u0120che": 8092, "Power": 8093, "\u0120stems": 8094, "Luna": 8095, "\u0120sobbing": 8096, "\u0120untying": 8097, "\u0120Roundy": 8098, "\u0120dainty": 8099, "\u0120canisters": 8100, "\u0120digest": 8101, "\u00c5\u0135Mandy": 8102, "\u0120all\u00c3\u00a2": 8103, "Macy": 8104, "\u0120Truckie": 8105, "\u0120townsperson": 8106, "\u0120stub": 8107, "Stand": 8108, "Vince": 8109, "\u0120hairs": 8110, "\u0120JJ": 8111, "\u0120Rip": 8112, "\u0120Zippers": 8113, "\u0120print": 8114, "LAWYER": 8115, "\u0120groove": 8116, "Guppy": 8117, "\u0120dialled": 8118, "\u012028": 8119, "\u0120Granddaughter": 8120, "\u0120voice\u00c3\u00a2": 8121, "\u0120prune": 8122, "\u0120offers": 8123, "\u0120Twinkle": 8124, "complicated": 8125, "\u0120vegetable": 8126, "\u0120lorry": 8127, "\u00c5\u0135Again": 8128, "\u0120Cassidy": 8129, "\u0120questioned": 8130, "\u0120Surrender": 8131, "\u0120School": 8132, "Ve": 8133, "\u00bd": 8134, "\u0120fellow": 8135, "Mar": 8136, "\u0120suffers": 8137, "\u0120balcony": 8138, "\u0120Bibo": 8139, "\u0120shh": 8140, "\u0120steed": 8141, "\u0120creates": 8142, "\u0120speeding": 8143, "\u0120decorates": 8144, "\u0120appearances": 8145, "\u0120elastic": 8146, "\u0120shimmered": 8147, "\u0120Flopsy": 8148, "\u0120Piggly": 8149, "\u0120oxygen": 8150, "\u0120fracture": 8151, "\u0120Name": 8152, "\u0120achy": 8153, "\u0120dart": 8154, "\u0120Chewing": 8155, "\u0120specifically": 8156, "\u0120looser": 8157, "\u0120speeds": 8158, "\u0120lovers": 8159, "Sk": 8160, "\u0120dryness": 8161, "\u0120goal": 8162, "\u0120Coins": 8163, "\u0120durian": 8164, "\u0120Kitten": 8165, "\u0120ringmaster": 8166, "\u0120scoffed": 8167, "\u0120historic": 8168, "\u0120march": 8169, "\u0120Ginny": 8170, "\u0120Workers": 8171, "\u0120neared": 8172, "fine": 8173, "heavy": 8174, "\u0120apologised": 8175, "\u0120wriggled": 8176, "\u0120Prunie": 8177, "Locked": 8178, "\u0120flutist": 8179, "\u0120surfer": 8180, "Ewww": 8181, "\u0120Quality": 8182, "\u0120aim": 8183, "\u0120fixable": 8184, "\u0120Spinner": 8185, "choo": 8186, "\u0120sweetly": 8187, "\u0120Neigh": 8188, "\u0120dialing": 8189, "Banana": 8190, "\u0120pokey": 8191, "nder": 8192, "Build": 8193, "\u0120wait": 8194, ",'\"": 8195, "\u0120sickly": 8196, "\u0120alas": 8197, "Oat": 8198, "Praying": 8199, "\u0120Gail": 8200, "pizza": 8201, "\u0120Mon": 8202, "maybe": 8203, "cked": 8204, "\u0120squished": 8205, "Sherrie": 8206, "\u0120Pookie": 8207, "Weird": 8208, "tta": 8209, "\u0120towed": 8210, "\u0120North": 8211, "\u0120Patty": 8212, "Bridge": 8213, "\u0120dingy": 8214, "Ayesha": 8215, "\u0120celebratory": 8216, "\u0120behaviour": 8217, "Request": 8218, "\u0120photos": 8219, "Anne": 8220, "\u0120Sparkle": 8221, "Jesse": 8222, "\u0120beat": 8223, "\u0120assignment": 8224, "nt": 8225, "\u0120trembles": 8226, "cl": 8227, "Cooper": 8228, "!',": 8229, "\u00c5": 8230, "\u0120Cassandra": 8231, "\u0120strongest": 8232, "\u0120surprisingly": 8233, "\u0120gumballs": 8234, "Doing": 8235, "\u0120goody": 8236, "sword": 8237, "\u0120spoken": 8238, "\u0120boast": 8239, "\u0120attempt": 8240, "\u0120pompoms": 8241, "\u0120labs": 8242, "\u0120happened": 8243, "\u0120grates": 8244, "\u0120glides": 8245, "Ravens": 8246, "\u0120raced": 8247, "\u0120magnifying": 8248, "\u0120buzzing": 8249, "\u0120Donald": 8250, "\u0120Jina": 8251, "Aziz": 8252, "\u0120na": 8253, "\u0120Buildings": 8254, "\u0120gladly": 8255, "\u0120Tired": 8256, "\u0120trunk": 8257, "\u0120Lilies": 8258, "\u0120Embrace": 8259, "OPEN": 8260, "\u0120Stuart": 8261, "\u0120neatly": 8262, "\u0120Pin": 8263, "\u0120bonded": 8264, "Pie": 8265, "\u0120pepper": 8266, "\u0120shattering": 8267, "\u0120Chance": 8268, "Leroy": 8269, "Trolly": 8270, "Lloyd": 8271, "\u0120fraglie": 8272, "\u0120audition": 8273, "\u0120Yoh": 8274, "\u0120vain": 8275, "Start": 8276, "\u0120pistachio": 8277, "\u0120Lux": 8278, "\u0120prickles": 8279, "Mousty": 8280, "in": 8281, "\u0120nowadays": 8282, "Suit": 8283, "Following": 8284, "ven": 8285, "\u0120gives": 8286, "\u0120index": 8287, "\u0120joyride": 8288, "\u0120right\u00c3\u00a2": 8289, "\u0120recycling": 8290, "mat": 8291, "\u0120earthworms": 8292, "\u0120theatre": 8293, "Hootie": 8294, "Gennie": 8295, "\u0120quenched": 8296, "\u0120Hermione": 8297, "\u0120mattered": 8298, "HELP": 8299, "\u0120mightier": 8300, "balls": 8301, "\u0120textured": 8302, "\u0120tobacco": 8303, "\u0120Jang": 8304, "\u0120Kendra": 8305, "\u0120strengthen": 8306, "\u0120glaciers": 8307, "\u0120Hank": 8308, "Mr": 8309, "\u0120must": 8310, "\u0120personality": 8311, "\u0120Tuffy": 8312, "\u0120Nemo": 8313, "Sell": 8314, "\u0120Tibby": 8315, "\u0120deserts": 8316, "Greigene": 8317, "\u0120Derrick": 8318, "\u0120Sol": 8319, "\u0120snapshot": 8320, "\u0120Kayleigh": 8321, "\u0120gaping": 8322, "\u0120start": 8323, "\u0120eucalyptus": 8324, "\u0120rhino": 8325, "\u0120daycare": 8326, "!,": 8327, "\u0120scowl": 8328, "Hoppity": 8329, "Hee": 8330, "\u0120crystals": 8331, "\u0120spiral": 8332, "\u0120pickaxe": 8333, "\u0120Simba": 8334, "\u0120veterinarian": 8335, "\u0120corner": 8336, "\u0120Lizardy": 8337, "\u0120billowing": 8338, "tying": 8339, "\u0120tumbled": 8340, "\u0120scallions": 8341, "\u0120inside\u00c3\u00a2": 8342, "\u0120swimmed": 8343, "\u0120Church": 8344, "\u0120jackpot": 8345, "\u0120Erica": 8346, "\u0120trunky": 8347, "sure": 8348, "Lovely": 8349, "\u0120unreasonable": 8350, "Amari": 8351, "\u0120Pour": 8352, "Douglas": 8353, "\u0120checkered": 8354, "\u0120fires": 8355, "chicken": 8356, "paper": 8357, "\u0120Tree": 8358, "\u0120campfire": 8359, "\u0120deciding": 8360, "\u0120itchiness": 8361, "\u0120jay": 8362, "\u0120sneakers": 8363, "\u0120closets": 8364, "\u0120jolliest": 8365, "\u0120candy": 8366, "\u0120unsteadily": 8367, "\u0120findings": 8368, "\u0120upsetting": 8369, "\u0120Blocks": 8370, "\u00c5\u0135Playing": 8371, "\u0120Dish": 8372, "\u0120peaceful": 8373, "\u0120forevermore": 8374, "\u0120harvest": 8375, "\u0120scribbles": 8376, "\u0120Jonah": 8377, "\u0120scents": 8378, "\u0120napper": 8379, "\u0120pumpkins": 8380, "\u0120research": 8381, "\u0120enjoy": 8382, "Kacey": 8383, "\u0120Attach": 8384, "\u0120mercy": 8385, "Aha": 8386, "\u00c5\u0135Helena": 8387, "\u0120Complaining": 8388, "\u0120Japan": 8389, "\u0120trailer": 8390, "\u0120Saoirse": 8391, "\u0120felt": 8392, "\u0120praises": 8393, "Mm": 8394, "mixing": 8395, "\u0120Nami": 8396, "\u00c5\u0135Hockey": 8397, "\u0120Chess": 8398, "\u0120grieving": 8399, "\u0120restoring": 8400, "\u0120Mis": 8401, "\u0120arctic": 8402, "\u0120scurvy": 8403, "\u0120Gwendolyn": 8404, "\u0120limped": 8405, "Fili": 8406, "twelve": 8407, "\u0120Owie": 8408, "\u0120Voice": 8409, "+": 8410, "\u0120sentenced": 8411, "\u0120Drain": 8412, "\u0120broke": 8413, "Yesterday": 8414, "\u0120spectators": 8415, "\u0120giants": 8416, "\u0120waddles": 8417, "\u0120unwashed": 8418, "\u0120Ronni\u00c3\u00a2": 8419, "\u0120stickers": 8420, "\u0120tunnels": 8421, "\u0120captures": 8422, "\u0120Separating": 8423, "\u0120brighten": 8424, "\u0120Fireworks": 8425, "\u0120Reading": 8426, "\u0120unchanged": 8427, "\u0120thieves": 8428, "\u0120wig": 8429, "\u0120oils": 8430, "protect": 8431, "\u0120vitamin": 8432, "\u0120Control": 8433, "\u0120replies": 8434, "\u0120Peter\u00c3\u00a2": 8435, "\u0120mew": 8436, "\u0120unleash": 8437, "\u0120everything": 8438, "\u0120Lina": 8439, "\u0120outwitted": 8440, "belief": 8441, "\u0120&": 8442, "\u0120gran": 8443, "Greeting": 8444, "\u0120mistreated": 8445, "Yield": 8446, "poof": 8447, "\u0120chapter": 8448, "\u0120Thomas\u00c3\u00a2": 8449, "\u0120temples": 8450, "\u0120goalpost": 8451, "f": 8452, "\u0120Magnolia": 8453, "\u0120eyepiece": 8454, "\u0120eight": 8455, "\u0120Weaver": 8456, "Squirrels": 8457, "\u0120Truman": 8458, "\u0120Batman": 8459, "\u0120hums": 8460, "\u0120depending": 8461, "Apples": 8462, "Punish": 8463, "\u0120hail": 8464, "\u0120complaining": 8465, "\u0120backward": 8466, "\u0120with": 8467, "Ohhh": 8468, "\u0120sign": 8469, "\u0120Fenny": 8470, "\u0120Courage": 8471, "\u0120dumped": 8472, "There\u00c3\u00a2": 8473, "\u0120Ranch": 8474, "\u0120Zogs": 8475, "\u0120slobbery": 8476, "Gopher": 8477, "\u0120rainwater": 8478, "\u0120beads": 8479, "\u0120corn": 8480, "\u0120finest": 8481, "\u0120skillful": 8482, "\u0120positively": 8483, "\u0120fiercer": 8484, "Iggy": 8485, "\u0120concrete": 8486, "\u0120patching": 8487, "\u0120cassette": 8488, "\u0120scared": 8489, "\u0120Jeannie": 8490, "\u0120bitterly": 8491, "\u0120skull": 8492, "\u0120suspicions": 8493, "\u0120obvious": 8494, "\u0120Stone": 8495, "\u0120quokka": 8496, "\u0120Gwen": 8497, "\u0120filming": 8498, "?!": 8499, "Cr": 8500, "changing": 8501, "Thump": 8502, "\u0120wintery": 8503, "\u0120Tinu": 8504, "\u0120naughtiness": 8505, "\u0120Reid": 8506, "\u0120H": 8507, "\u0120experimented": 8508, "\u0120roughly": 8509, "\u0120hollering": 8510, "\u0120Determined": 8511, "\u0120brushed": 8512, "\u0120prevailed": 8513, "breaker": 8514, "\u0120Tanya": 8515, "wheel": 8516, "\u0120wailed": 8517, "Grow": 8518, "soon": 8519, "\u0120Bobbi": 8520, "\u0120pentagon": 8521, "\u0120Randy": 8522, "did": 8523, "\u0120Junior": 8524, "\u0120generation": 8525, "\u0120Pawl": 8526, "\u0120Wanna": 8527, "\u0120vibrating": 8528, "\u0120beetroot": 8529, "\u0120Summy": 8530, "\u0120Pieces": 8531, "\u0120starring": 8532, "\u0120bind": 8533, "\u0120grooves": 8534, "Mill": 8535, "\u0120menacingly": 8536, "coat": 8537, "\u0120Steak": 8538, "Acorn": 8539, "\u0120Auto": 8540, "\u0120milkman": 8541, "\u0120mooed": 8542, "\u0120crevice": 8543, "\u0120salve": 8544, "\u0120reply": 8545, "\u0120Mattie": 8546, "\u0120allergies": 8547, "\u0120lifted": 8548, "pause": 8549, "\u0120llama": 8550, "uring": 8551, "\u0120crummy": 8552, "\u0120Genna": 8553, "Ange": 8554, "\u0120this": 8555, "competitive": 8556, "lancing": 8557, "\u0120Maddy": 8558, "nces": 8559, "\u0120overalls": 8560, "Edith": 8561, "\u0120demons": 8562, "\u0120Rena": 8563, "\u0120punish": 8564, "\u0120bandleader": 8565, "\u0120destinations": 8566, "\u0120Ting": 8567, "\u0120biger": 8568, "Ravi": 8569, "Cottontail": 8570, "\u0120phonograph": 8571, "\u0120drill": 8572, "wo": 8573, "Neither": 8574, "\u0120twitchy": 8575, "\u0120Fools": 8576, "\u00c5\u0135Big": 8577, "disappear": 8578, "\u0120heating": 8579, "Freddie": 8580, "\u00c5\u0135There": 8581, "\u0120Kirsty": 8582, "\u0120risen": 8583, "\u0120clears": 8584, "\u0120nickered": 8585, "\u0120switched": 8586, "Owls": 8587, "Slim": 8588, "cid": 8589, "\u0120kiddo": 8590, "Lawyers": 8591, "\u0120lake": 8592, "\u0120card": 8593, "\u0120squirming": 8594, "\u0120roses": 8595, "\u0120unbuckles": 8596, "\u0120Prepare": 8597, "Humans": 8598, "Peep": 8599, "\u0120fertilizer": 8600, "\u0120hopelessly": 8601, "\u0120reptiles": 8602, "1": 8603, "Rabbit": 8604, "Tough": 8605, "\u0120trek": 8606, "\u0120yo": 8607, "Speed": 8608, "\u0120announcements": 8609, "\u0120Helmets": 8610, "\u0120proactive": 8611, "\u00c5\u0135Sweetheart": 8612, "\u0120butterflies": 8613, "\u0120Connie": 8614, "\u0120spurt": 8615, "trust": 8616, "\u0120Susy": 8617, "\u0120fallen": 8618, "\u0120Sandra": 8619, "\u0120Moonie": 8620, "\u0120meows": 8621, "\u0120Science": 8622, "\u0120departure": 8623, "Cartoon": 8624, "\u0120leisurely": 8625, "\u0120Gareth": 8626, "\u0120Seth": 8627, "\u0120fried": 8628, "\u0120joints": 8629, "\u0120flowerpots": 8630, "\u0120Soapy": 8631, "\u0120Sari": 8632, "Tears": 8633, "Pony": 8634, "\u0120Happy": 8635, "Besides": 8636, "\u0120screech": 8637, "\u0120scrambled": 8638, "juice": 8639, "\u0120unseen": 8640, "\u0120Wawa": 8641, "Sea": 8642, "\u0120population": 8643, "\u0120Lilly\u00c3\u00a2": 8644, "\u0120work\u00c3\u00a2": 8645, "\u0120crumbs": 8646, "\u0120guys": 8647, "\u0120pulls": 8648, "\u0120checkups": 8649, "\u0120hosts": 8650, "\u0120bat": 8651, "\u0120wallet": 8652, "\u0120Buttons": 8653, "\u0120Pio": 8654, "\u0120Fourth": 8655, "\u0120Warning": 8656, "ena": 8657, "\u0120Quietly": 8658, "\u0120scariest": 8659, "Simone": 8660, "Andy\u00c3\u00a2": 8661, "\u0120dentures": 8662, "\u0120lists": 8663, "\u0120climb": 8664, "\u0120territorial": 8665, "\u0120unblock": 8666, "ville": 8667, "\u0120bumpers": 8668, "\u0120Bossy": 8669, "Bunbun": 8670, "ri": 8671, "\u0120undress": 8672, "miss": 8673, "Gabriella": 8674, "pan": 8675, "wealthy": 8676, "\u0120Relaxing": 8677, "\u0120decreased": 8678, "\u0120squashes": 8679, "\u0120south": 8680, "\u0120rafts": 8681, "\u0120Melly": 8682, "Mine": 8683, "\u0120Upon": 8684, "\u0120repay": 8685, "\u0120unscathed": 8686, "doh": 8687, "refuse": 8688, "\u01200": 8689, "\u0120professionals": 8690, "\u0120sorrowfully": 8691, "Zebras": 8692, "Cat": 8693, "\u0120Berya": 8694, "\u0120respected": 8695, "\u0120counter": 8696, "\u0120braved": 8697, "\u0120join": 8698, "fight": 8699, "\u0120Cobweb": 8700, "\u0120Labels": 8701, "\u0120glues": 8702, "\u0120Michela": 8703, "\u0120wracked": 8704, "\u0120debated": 8705, "\u0120till": 8706, "\u0120stakes": 8707, "\u00c5\u0135Ha": 8708, "\u0120social": 8709, "Ranger": 8710, "\u0120reborn": 8711, "\u0120spooked": 8712, "\u0120hijab": 8713, "Error": 8714, "\u0120reminding": 8715, "\u0120Magdalene": 8716, "Wipe": 8717, "\u0120menacing": 8718, "ple": 8719, "armed": 8720, "Cynthia": 8721, "dressed": 8722, "C": 8723, "\u0120palace": 8724, "\u0120Rods": 8725, "\u0120incorporate": 8726, "Sand": 8727, "\u0120Mandy\u00c3\u00a2": 8728, "\u0120Babe": 8729, "\u0120Encourage": 8730, "\u0120basketball": 8731, "Helicopter": 8732, "Gemma": 8733, "\u0120Marcel": 8734, "Monkeys": 8735, "\u0120wanders": 8736, "\u0120event": 8737, "\u0120three": 8738, "\u0120warnings": 8739, "\u0120poofy": 8740, "Jonny": 8741, "\u0120strum": 8742, "Clean": 8743, "Goldie": 8744, "\u0120IN": 8745, "tled": 8746, "\u0120continuous": 8747, "\u0120Doe": 8748, "\u0120harness": 8749, "\u0120restart": 8750, "\u0120Breathe": 8751, "\u0120Fifi": 8752, "\u00c5\u0135Adam": 8753, "\u0120Jealous": 8754, "\u0120duckie": 8755, "\u0120complain": 8756, "\u0120gliding": 8757, "\u0120Voila": 8758, "\u0120doesn\u00c3\u00a2": 8759, "march": 8760, "\u0120forwards": 8761, "Luigi": 8762, "\u0120skein": 8763, "\u0120beak": 8764, "\u0120pier": 8765, "\u0120Coming": 8766, "\u0120Ying": 8767, "\u0120fishbowl": 8768, "\u0120Minnie": 8769, "\u0120scouted": 8770, "\u0120Maria\u00c3\u00a2": 8771, "\u0120Sani": 8772, "\u0120shudder": 8773, "\u0120one\u00c3\u00a2": 8774, "\u0120arguing": 8775, "\u0120budget": 8776, "\u0120bleeds": 8777, "\u0120Rodney": 8778, "\u0120smelt": 8779, "\u0120pinata": 8780, "\u0120hibernation": 8781, "\u0120done\u00c3\u00a2": 8782, "\u0120somewhere": 8783, "Wo": 8784, "\u0120Grampy": 8785, "\u0120<": 8786, "\u0120plaque": 8787, "\u0120movements": 8788, "\u0120packet": 8789, "Building": 8790, "Barry": 8791, "\u0120Laurie": 8792, "\u0120Everett": 8793, "\u0120spacelang": 8794, "Unicorns": 8795, "\u0120Michelle": 8796, "\u0120Tamara": 8797, "\u0120sigh": 8798, "\u0120applauding": 8799, "rug": 8800, "\u0120mommy\u00c3\u00a2": 8801, "\u0120snaked": 8802, "lla": 8803, "\u0120uncomfy": 8804, "\u0120Once": 8805, "\u0120Grandad": 8806, "\u0120wolfed": 8807, "Jazmin": 8808, "*": 8809, "\u0120jealous": 8810, "\u0120realising": 8811, "\u0120sweety": 8812, "pee": 8813, "\u0120butts": 8814, "\u0120safety": 8815, "flight": 8816, "\u0120Kittens": 8817, "\u0120Sighing": 8818, "\u0120Shadows": 8819, "\u0120donation": 8820, "\u0120Porker": 8821, "Tired": 8822, "\u0120resisting": 8823, "Pooch": 8824, "\u0120Bryn": 8825, "\u0120weeped": 8826, "Kata": 8827, "\u0120green": 8828, "Immediately": 8829, "\u0120scooter": 8830, "\u0120Joe\u00c3\u00a2": 8831, "\u0120talents": 8832, "\u0120solver": 8833, "\u0120pit": 8834, "\u0120ho": 8835, "Cause": 8836, "\u0120MUST": 8837, "Respect": 8838, "\u0120chest": 8839, "Bell": 8840, "\u0120ashamed": 8841, "Randy": 8842, "\u0120Cousin": 8843, "\u0120vigil": 8844, "\u0120superpig": 8845, "\u0120Rooty": 8846, "support": 8847, "name": 8848, "Bike": 8849, "\u0120Reliable": 8850, "ld": 8851, "\u0120ping": 8852, "\u0120strengths": 8853, "\u0120x": 8854, "\u0120seven": 8855, "\u0120humor": 8856, "\u0120Lily\u00c3\u00a2": 8857, "Margie": 8858, "fancy": 8859, "\u0120shoulder": 8860, "\u0120gossiping": 8861, "\u0120legendary": 8862, "\u0120sack": 8863, "\u0120medals": 8864, "\u0120nickels": 8865, "Smelly": 8866, "\u0120Hanukkah": 8867, "Arrr": 8868, "\u0120Gaby": 8869, "\u0120bacon": 8870, "\u0120Terra": 8871, "\u0120lunch": 8872, "\u0120Leya": 8873, "Pow": 8874, "\u0120fruit": 8875, "rich": 8876, "\u0120revol": 8877, "\u0120buckled": 8878, "Mam": 8879, "\u0120Roxie": 8880, "\u0120lowering": 8881, "\u0120neighbors": 8882, "\u0120orbit": 8883, "\u0120secateurs": 8884, "\u0120Foxy": 8885, "\u0120Stephie": 8886, "\u0120Jimmey": 8887, "\u0120polishing": 8888, "coloured": 8889, "\u0120purple": 8890, "\u0120Knife": 8891, "\u0120dropping": 8892, "\u0120unbuckle": 8893, "Whiskers": 8894, "\u0120filed": 8895, "flowing": 8896, "you\u00c3\u00a2": 8897, "\u0120caller": 8898, "\u0120memorial": 8899, "\u0120Charlie": 8900, "\u0120beckon": 8901, "\u0120pleasures": 8902, "\u0120waterhole": 8903, "\u0120Gigi": 8904, "bi": 8905, "\u0120dinnertime": 8906, "\u00c5\u0135Yay": 8907, "\u0120reaction": 8908, "\u0120Jeoff": 8909, "\u0120confronted": 8910, "\u0120Leaves": 8911, "\u0120lie": 8912, "\u0120ultrasound": 8913, "tocking": 8914, "\u0120insistent": 8915, "Jess": 8916, "\u0120delaying": 8917, "hot": 8918, "Wasn": 8919, "Disappointed": 8920, "\u0120Bike": 8921, "WHO": 8922, "\u0120possum": 8923, "\u0120Edgar": 8924, "\u0120bury": 8925, "\u0120melting": 8926, "\u0120Bakers": 8927, "\u0120snakey": 8928, "\u0120Cara": 8929, "Lumber": 8930, "\u0120snickered": 8931, "\u0120mixture": 8932, "\u0120zoos": 8933, "\u0120Alzheimer": 8934, "Biscuit": 8935, "\u0120Fabian": 8936, "\u0120sped": 8937, "\u0120sofa": 8938, "\u0120generator": 8939, "\u0120outisde": 8940, "\u0120richer": 8941, "\u0120beeswax": 8942, "\u0120Alone": 8943, "\u0120swiping": 8944, "\u0120Weather": 8945, "\u0120Edith": 8946, "\u0120track": 8947, "\u0120streetlight": 8948, "\u0120dragon\u00c3\u00a2": 8949, "\u0120Market": 8950, "full": 8951, "Jemima": 8952, "\u0120composed": 8953, "\u0120workshop": 8954, "ves": 8955, "\u0120Rolo": 8956, "rope": 8957, "\u0120swatter": 8958, "\u0120knobs": 8959, "Hailey": 8960, "ja": 8961, "\u0120Smee": 8962, "\u0120satchel": 8963, "\u0120marched": 8964, "\u0120bandits": 8965, "\u0120Jellyfish": 8966, "\u0120nonetheless": 8967, "\u0120Ewan": 8968, "\u0120allergy": 8969, "\u0120Midi": 8970, "\u0120combination": 8971, "\u0120helper": 8972, "\u0120readied": 8973, "\u0120triangles": 8974, "\u0120mentally": 8975, "\u0120U": 8976, "\u0120spinny": 8977, "\u0120Bilby": 8978, "\u0120bobber": 8979, "\u0120Nicole": 8980, "Medicine": 8981, "\u0120blindly": 8982, "\u0120securely": 8983, "\u0120flushed": 8984, "\u0120buck": 8985, "\u0120gull": 8986, "again": 8987, "BEEP": 8988, "\u0120tripping": 8989, "\u0120Children": 8990, "Snarl": 8991, "\u0120on": 8992, "Sera": 8993, "\u0120riverbed": 8994, "\u0120tugs": 8995, "\u0120curiosities": 8996, "\u0120Miller": 8997, "\u0120Birdie": 8998, "\u0120BJ": 8999, "\u0120Twenty": 9000, "\u0120tinier": 9001, "Hero": 9002, "\u0120letting": 9003, "\u0120flask": 9004, "\u0120Sydney": 9005, "\u0120swooshed": 9006, "\u0120tanker": 9007, "Tuffy": 9008, "\u0120townspeople": 9009, "\u0120quarrel": 9010, "\u0120remarked": 9011, "\u0120Nisa": 9012, "\u0120Emilia": 9013, "\u0120agility": 9014, "qui": 9015, "\u0120foes": 9016, "\u0120ahead": 9017, "\u0120twang": 9018, "\u0120encouragements": 9019, "\u0120run": 9020, "Improve": 9021, "\u0120Twirp": 9022, "Blaze": 9023, "\u0120Lance": 9024, "\u0120irrelevant": 9025, "ground": 9026, "\u0120cursing": 9027, "\u0120homemade": 9028, "\u0120icon": 9029, "jumped": 9030, "\u0120Boot": 9031, "prepared": 9032, "\u0120should\u00c3\u00a2": 9033, "\u0120limping": 9034, "\u0120lots": 9035, "\u0120captured": 9036, "Hola": 9037, "\u0120precisely": 9038, "\u0120drown": 9039, "Romy": 9040, "fair": 9041, "\u0120Carl": 9042, "Marigold": 9043, "\u0120Clinic": 9044, "\u0120blouses": 9045, "\u0120heed": 9046, "\u0120drowned": 9047, "lving": 9048, "\u0120politician": 9049, "\u0120Herb": 9050, "To": 9051, "\u0120clutching": 9052, "\u0120Cowy": 9053, "\u0120lunchbox": 9054, "please": 9055, "\u0120aches": 9056, "\u0120fire": 9057, "Fo": 9058, "\u0120biked": 9059, "Mittens": 9060, "Alvin": 9061, "\u0120pods": 9062, "\u0120sauces": 9063, "\u0120cheats": 9064, "\u0120painting": 9065, "\u0120selfishness": 9066, "\u0120basic": 9067, "\u0120Richie": 9068, "\u0120comedy": 9069, "\u0120sunniest": 9070, "\u0120simmering": 9071, "Scamp": 9072, "Hana": 9073, "\u0120wobbles": 9074, "\u0120armful": 9075, "\u0120Tomato": 9076, "\u0120stashed": 9077, "Moma": 9078, "\u0120cavity": 9079, "\u0120celery": 9080, "\u0120Avocado": 9081, "\u0120Ela": 9082, "\u0120grooved": 9083, "\u0120Camilla": 9084, "\u0120devastated": 9085, "\u0120Inchie": 9086, "\u0120grasshopper": 9087, "\u0120brimming": 9088, "\u0120Mummy\u00c3\u00a2": 9089, "\u0120partners": 9090, "\u0120catching": 9091, "\u0120reed": 9092, "\u0120Serving": 9093, "\u0120aww": 9094, "\u0120Penguins": 9095, "Kimmy": 9096, "Mug": 9097, "\u0120biscuit": 9098, "\u0120prosperity": 9099, "Sssss": 9100, "Stephen": 9101, "Bright": 9102, "win": 9103, "\u0120lull": 9104, "Secret": 9105, "\u0120coiling": 9106, "\u0120Dax": 9107, "\u0120ignoring": 9108, "\u0120Computer": 9109, "\u0120jaybird": 9110, "\u0120tracking": 9111, "\u0120seahorse": 9112, "Lucinda": 9113, "\u0120detached": 9114, "\u0120Jase": 9115, "\u0120cleanliness": 9116, "\u0120shovel": 9117, "\u0120rafters": 9118, "\u0120Notebook": 9119, "\u0120tock": 9120, "\u0120Gammie": 9121, "\u0120bite": 9122, "\u0120exits": 9123, "\u0120yelled": 9124, "\u0120Coal": 9125, "\u00c2\u00a2": 9126, "\u0120bloomed": 9127, "\u0120Adults": 9128, "\u0120Blythe": 9129, "\u0120Kate": 9130, "\u0120fanciest": 9131, "\u0120Lizards": 9132, "\u0120Rockets": 9133, "\u0120politeness": 9134, "\u0120grumpiness": 9135, "\u0120clearly": 9136, "\u0120whoever": 9137, "Spartacus": 9138, "\u0120efficiently": 9139, "\u0120fate": 9140, "\u0120Terrified": 9141, "\u0120gears": 9142, "\u0120Thanksgiving": 9143, "\u0120Sammi": 9144, "Seven": 9145, "\u0120civilization": 9146, "\u0120Packing": 9147, "\u0120song": 9148, "\u0120fragil": 9149, "\u0120matted": 9150, "\u0120quest": 9151, "\u0120grill": 9152, "\u0120jackrabbit": 9153, "Gabe": 9154, "\u0120razors": 9155, "Checkmate": 9156, "\u0120jeweler": 9157, "\u0120longing": 9158, "rare": 9159, "\u0120flocked": 9160, "\u0120Munchy": 9161, "\u0120Hummy": 9162, "\u0120Spud": 9163, "\u0120brothers": 9164, "\u0120Must": 9165, "\u0120beginnings": 9166, "Flash": 9167, "\u0120recharged": 9168, "\u0120ivy": 9169, "\u0120spelled": 9170, "\u0120cowardly": 9171, "\u0120ups": 9172, "\u0120Ron": 9173, "\u0120spacious": 9174, "\u0120tired": 9175, "\u0120Saving": 9176, "Christmas": 9177, "\u0120Edwin": 9178, "\u0120bellies": 9179, "\u0120Weighing": 9180, "\u0120Jim\u00c3\u00a2": 9181, "\u0120definitely": 9182, "Good": 9183, "\u0120Fido": 9184, "\u0120fought": 9185, "\u0120abruptly": 9186, "\u0120Photos": 9187, "\u0120teared": 9188, "\u0120putting": 9189, "\u0120con": 9190, "Windy": 9191, "\u0120Precious": 9192, "mber": 9193, "\u0120age": 9194, "\u0120Zoob": 9195, "\u0120cuddliest": 9196, "\u0120Grabbing": 9197, "ile": 9198, "\u0120hoots": 9199, "\u0120afternoons": 9200, "\u0120Kenzie": 9201, "\u0120Jiminy": 9202, "\u0120dribble": 9203, "\u0120dove": 9204, "\u012013": 9205, "Q": 9206, "\u0120conclusions": 9207, "\u0120nocturnal": 9208, "\u0120performer": 9209, "\u0120Cady": 9210, "\u0120trendy": 9211, "\u0120Juggy": 9212, "\u0120chatty": 9213, "Pete": 9214, "\u0120deny": 9215, "\u0120snorted": 9216, "\u0120wrongs": 9217, "\u0120Row": 9218, "\u0120Manager": 9219, "\u0120abilities": 9220, "\u0120horrid": 9221, "Hammer": 9222, "\u0120for\u00c3\u00a2": 9223, "\u0120importantly": 9224, "\u0120pizzas": 9225, "\u0120Chucky": 9226, "Bricks": 9227, "bby": 9228, "\u0120princess\u00c3\u00a2": 9229, "\u0120gained": 9230, "envious": 9231, "\u0120Plus": 9232, "\u0120enforce": 9233, "\u0120compelled": 9234, "\u0120lop": 9235, "\u0120purplish": 9236, "\u0120walnut": 9237, "Henrietta": 9238, "WOOF": 9239, "\u0120flickered": 9240, "\u0120Ga": 9241, "\u0120focused": 9242, "\u0120neigh": 9243, "\u0120Luz": 9244, "\u0120zest": 9245, "\u0120catch": 9246, "\u0120Forget": 9247, "\u0120rattles": 9248, "\u0120rectangle": 9249, "bee": 9250, "\u0120flippers": 9251, "\u0120convince": 9252, "50": 9253, "\u0120supports": 9254, "Hi": 9255, "RECORD": 9256, "\u0120Strangely": 9257, "\u0120seashells": 9258, "Drive": 9259, "\u0120singing": 9260, "res": 9261, "\u0120breadcrumbs": 9262, "Storms": 9263, "\u0120nudged": 9264, "\u0120honest": 9265, "\u0120Puffer": 9266, "\u0120slaves": 9267, "stop": 9268, "\u0120befallen": 9269, "Isabel": 9270, "Then": 9271, "Angus": 9272, "\u0120Tough": 9273, "\u0120quitting": 9274, "Sniff": 9275, "\u0120forrest": 9276, "\u0120girl": 9277, "\u00c5\u0135yes\u00c3\u00a2": 9278, "\u0120unlatched": 9279, "\u0120changing": 9280, "\u0120overpower": 9281, "\u0120expired": 9282, "\u0120twilight": 9283, "\u0120skateboarding": 9284, "\u0120Some": 9285, "oil": 9286, "\u0120pi\u00c3\u0125": 9287, "\u0120mutt": 9288, "\u0120prancing": 9289, "Tyrone": 9290, "\u0120held": 9291, "\u0120broken": 9292, "\u0120Wisey": 9293, "\u0120sunbathing": 9294, "\u0120Brandy": 9295, "\u0120troubling": 9296, "\u0120meandered": 9297, "\u0120Grover": 9298, "\u0120Cy": 9299, "ish": 9300, "Momo": 9301, "\u0120Yari": 9302, "Oil": 9303, "\u0120sprouts": 9304, "\u0120checkmate": 9305, "\u0120clenched": 9306, "\u0120stripe": 9307, "\u0120rainstorm": 9308, "\u0120illuminating": 9309, "\u0120absence": 9310, "\u0120radi": 9311, "\u0120wade": 9312, "Initially": 9313, "\u0120sprint": 9314, "\u0120paying": 9315, "\u0120successfully": 9316, "\u0120sunbeams": 9317, "\u0120million": 9318, "\u0120haunt": 9319, "Penelope": 9320, "\u0120Jed": 9321, "\u0120measure": 9322, "\u00c5\u0135Excuse": 9323, "\u0120snuggly": 9324, "\u0120gladder": 9325, "\u0120cough": 9326, "\u0120moldy": 9327, "peace": 9328, "\u0120Elephants": 9329, "\u0120chases": 9330, "\u0120Washing": 9331, "\u0120National": 9332, "\u0120Forever": 9333, "\u0120bulging": 9334, "x": 9335, "\u0120howl": 9336, "\u0120positions": 9337, "\u0120trellis": 9338, "pp": 9339, "\u0120restore": 9340, "\u0120evergreen": 9341, "\u0120invincible": 9342, "\u0120wheels": 9343, "\u0120results": 9344, "\u0120Armed": 9345, "\u0120tick": 9346, "Cars": 9347, "\u0120galaxies": 9348, "\u0120downy": 9349, "\u0120Monkey": 9350, "\u0120youth": 9351, "Zane": 9352, "Friend": 9353, "Octopus": 9354, "\u0120inevitable": 9355, "\u0120Bunty": 9356, "Your": 9357, "\u0120donate": 9358, "\u0120Cecilia": 9359, "\u0120Slide": 9360, "\u0120transparent": 9361, "\u0120pomegranate": 9362, "Crawl": 9363, "\u0120sunsets": 9364, "\u00c5\u0135My": 9365, "ly": 9366, "\u0120Marian": 9367, "\u0120scene": 9368, "\u0120active": 9369, "Diving": 9370, "\u0120smi": 9371, "\u0120Alright": 9372, "\u0120shivered": 9373, "\u0120holders": 9374, "\u0120sprout": 9375, "ros": 9376, "\u0120shift": 9377, "\u0120boiled": 9378, "Knowing": 9379, "\u0120grunt": 9380, "Wheat": 9381, "\u0120apologize": 9382, "\u0120relaxes": 9383, "Roots": 9384, "\u0120hippopotamus": 9385, "Tonight": 9386, "\u0120successful": 9387, "prisingly": 9388, "ostrich": 9389, "Ours": 9390, "\u0120Freeda": 9391, "\u0120Sounds": 9392, "Word": 9393, "\u0120Greedy": 9394, "\u0120reservation": 9395, "\u0120trustworthy": 9396, "\u0120taco": 9397, "bubble": 9398, "Willy": 9399, "\u0120interacting": 9400, "\u0120Croco": 9401, "\u0120generously": 9402, "\u0120rush": 9403, "Kylie": 9404, "\u0120straightening": 9405, "\u0120Lola": 9406, "\u0120velvety": 9407, "Feather": 9408, "\u0120cables": 9409, "\u0120cha": 9410, "\u0120remainder": 9411, "\u0120pears": 9412, "\u0120Maple": 9413, "Gracias": 9414, "\u0120downcast": 9415, "\u0120frightened": 9416, "\u0120jiggly": 9417, "Amazing": 9418, "\u0120mine\u00c3\u00a2": 9419, "\u0120cleared": 9420, "\u0120babyish": 9421, "\u0120peaceably": 9422, "\u0120declined": 9423, "\u0120unsupervised": 9424, "Mya": 9425, "Federico": 9426, "X": 9427, "baby": 9428, "gn": 9429, "\u0120flashcards": 9430, "\u0120sliver": 9431, "\u0120object": 9432, "\u0120Evelyn": 9433, "\u0120solves": 9434, "\u0120never": 9435, "\u0120Maxwell": 9436, "\u0120beyond": 9437, "\u0120Poems": 9438, "\u0120copied": 9439, "Curious": 9440, "\u0120B": 9441, "\u0120spaghetti": 9442, "\u0120Trick": 9443, "\u0120Wes": 9444, "\u0120said\u00c3\u00a2": 9445, "\u0120sharper": 9446, "\u0120Fit": 9447, "Guacamole": 9448, "fix": 9449, "\u0120angrily": 9450, "trouble": 9451, "Quit": 9452, "\u0120feasting": 9453, "\u0120blah": 9454, "Spirit": 9455, "\u0120gross": 9456, "\u0120folder": 9457, "\u0120answered": 9458, "\u0120squawk": 9459, "\u0120Daphne": 9460, "\u0120unbeatable": 9461, "\u0120Reese": 9462, "\u0120cozied": 9463, "tor": 9464, "\u0120enters": 9465, "rofession": 9466, "Dough": 9467, "surf": 9468, "\u0120chattered": 9469, "\u0120Repairman": 9470, "\u0120kidnap": 9471, "\u0120buried": 9472, "\u0120complete": 9473, "\u0120deceiving": 9474, "\u0120fret": 9475, "Lucy": 9476, "\u0120parked": 9477, "Dreams": 9478, "\u0120hideaway": 9479, "\u0120Secret": 9480, "\u0120afterward": 9481, "what": 9482, "\u0120stripey": 9483, "\u0120sociable": 9484, "\u0120Kissing": 9485, "\u0120lively": 9486, "\u0120Printing": 9487, "\u0120grandmas": 9488, "Linny": 9489, "\u0120recorder": 9490, "\u0120spotted": 9491, "\u0120lipgloss": 9492, "\u0120tax": 9493, "Pandas": 9494, "\u00c5\u0135Friends": 9495, "\u0120mock": 9496, "\u00e2\u0124\u00ac\u00e2\u0126\u00a2?": 9497, "\u0120windowsills": 9498, "\u0120Maribel": 9499, "\u0120Taffy": 9500, "\u0120technician": 9501, "\u00c5\u0135Kayla": 9502, "\u0120applaued": 9503, "\u0120fashions": 9504, "\u0120toothless": 9505, "\u0120fa": 9506, "\u0120Town": 9507, "\u0120Mai": 9508, "\u0120express": 9509, "\u0120panda": 9510, "\u0120accurately": 9511, "\u0120baaed": 9512, "\u0120situated": 9513, "\u0120stork": 9514, "ola": 9515, "talkie": 9516, "Us": 9517, "\u0120caws": 9518, "\u0120pick": 9519, "\u0120aromas": 9520, "\u0120generous": 9521, "\u0120citizen": 9522, "Yee": 9523, "\u0120Amaya": 9524, "\u0120tryouts": 9525,
[...]
