{
  "version": "1.0",
  "truncation": null,
  "padding": null,
  "added_tokens": [
    {
      "id": 0,
      "content": "<|bos|>",
      "single_word": false,
      "lstrip": false,
      "rstrip": false,
      "normalized": false,
      "special": true
    },
    {
      "id": 1,
      "content": "<|user_start|>",
      "single_word": false,
      "lstrip": false,
      "rstrip": false,
      "normalized": false,
      "special": true
    },
    {
      "id": 2,
      "content": "<|user_end|>",
      "single_word": false,
      "lstrip": false,
      "rstrip": false,
      "normalized": false,
      "special": true
    },
    {
      "id": 3,
      "content": "<|assistant_start|>",
      "single_word": false,
      "lstrip": false,
      "rstrip": false,
      "normalized": false,
      "special": true
    },
    {
      "id": 4,
      "content": "<|assistant_end|>",
      "single_word": false,
      "lstrip": false,
      "rstrip": false,
      "normalized": false,
      "special": true
    },
    {
      "id": 5,
      "content": "<|python_start|>",
      "single_word": false,
      "lstrip": false,
      "rstrip": false,
      "normalized": false,
      "special": true
    },
    {
      "id": 6,
      "content": "<|python_end|>",
      "single_word": false,
      "lstrip": false,
      "rstrip": false,
      "normalized": false,
      "special": true
    },
    {
      "id": 7,
      "content": "<|output_start|>",
      "single_word": false,
      "lstrip": false,
      "rstrip": false,
      "normalized": false,
      "special": true
    },
    {
      "id": 8,
      "content": "<|output_end|>",
      "single_word": false,
      "lstrip": false,
      "rstrip": false,
      "normalized": false,
      "special": true
    },
    {
      "id": 9,
      "content": "<|unk|>",
      "single_word": false,
      "lstrip": false,
      "rstrip": false,
      "normalized": false,
      "special": true
    }
  ],
  "normalizer": null,
  "pre_tokenizer": {
    "type": "Sequence",
    "pretokenizers": [
      {
        "type": "Split",
        "pattern": {
          "Regex": "'(?i:[sdmt]|ll|ve|re)|[^\\r\\n\\p{L}\\p{N}]?+\\p{L}+|\\p{N}{1,2}| ?[^\\s\\p{L}\\p{N}]++[\\r\\n]*|\\s*[\\r\\n]|\\s+(?!\\S)|\\s+"
        },
        "behavior": "Isolated",
        "invert": false
      },
      {
        "type": "ByteLevel",
        "add_prefix_space": false,
        "trim_offsets": true,
        "use_regex": false
      }
    ]
  },
  "post_processor": {
    "type": "TemplateProcessing",
    "single": [
      {
        "Sequence": {
          "id": "A",
          "type_id": 0
        }
      }
    ],
    "pair": [
      {
        "Sequence": {
          "id": "A",
          "type_id": 0
        }
      },
      {
        "Sequence": {
          "id": "B",
          "type_id": 1
        }
      }
    ],
    "special_tokens": {}
  },
  "decoder": {
    "type": "ByteLevel",
    "add_prefix_space": true,
    "trim_offsets": true,
    "use_regex": true
  },
  "model": {
    "type": "Unigram",
    "unk_id": 9,
    "vocab": [
      [
        "<|bos|>",
        -1.0
      ],
      [
        "<|user_start|>",
        -1.0
      ],
      [
        "<|user_end|>",
        -1.0
      ],
      [
        "<|assistant_start|>",
        -1.0
      ],
      [
        "<|assistant_end|>",
        -1.0
      ],
      [
        "<|python_start|>",
        -1.0
      ],
      [
        "<|python_end|>",
        -1.0
      ],
      [
        "<|output_start|>",
        -1.0
      ],
      [
        "<|output_end|>",
        -1.0
      ],
      [
        "<|unk|>",
        -1.0
      ],
      [
        "çļĦèģļä¼ļ",
        -1.0
      ],
      [
        "ï¼Įåıĳ",
        -1.0
      ],
      [
        "ĠVladimir",
        -1.0
      ],
      [
        "ï¼Įä»ĸä»¬è½»è½»æĿ¾æĿ¾çĶŁäº§åĩºæĿ¥çļĦäº§åĵģèĥ½è¦ģæ±ĤçļĦä»·æł¼ä¹Łæĺ¯æľīéĻĲçļĦ",
        -1.0
      ],
      [
        "ĠWatendakazi",
        -1.0
      ],
      [
        "ĠÑģÐ¾Ð¿ÑĢÐ¾Ð²Ð¾Ð¶Ð´",
        -1.0
      ],
      [
        "Ġniyaz",
        -1.0
      ],
      [
        "ĠÙĪØ§ÙĦÙĥÙĩØ±Ø¨Ø§Ø¡",
        -1.0
      ],
      [
        "ĠØ§ÙĦÙħØµØ§ÙĦØŃØ©",
        -1.0
      ],
      [
        "Yorum",
        -1.0
      ],
      [
        "Ġvision",
        -1.0
      ],
      [
        "ĠØ´ÙĩØ¯",
        -1.0
      ],
      [
        "WHO",
        -1.0
      ],
      [
        "ĠÙĪÙĤØ³ÙĨØ·ÙĬÙĨØ©",
        -1.0
      ],
      [
        "åĹ¶åĹ¶",
        -1.0
      ],
      [
        "ĠØ§ÙĦØ¹Ø§ÙĦÙħ",
        -1.0
      ],
      [
        "ĠMouvement",
        -1.0
      ],
      [
        "à¸±à¸ļà¹ģà¸ľà¸Ļ",
        -1.0
      ],
      [
        "Ġclef",
        -1.0
      ],
      [
        "ĠhÄ±zÄ±",
        -1.0
      ],
      [
        "ÙĥÙĬÙĬÙģ",
        -1.0
      ],
      [
        "à°¿à°¯",
        -1.0
      ],
      [
        "stu",
        -1.0
      ],
      [
        "ĠØ§ÙĦØŃÙĤÙĦ",
        -1.0
      ],
      [
        "rahman",
        -1.0
      ],
      [
        "ĠKurumsal",
        -1.0
      ],
      [
        "åĲĦåľ°",
        -1.0
      ],
      [
        "ĠGAMEINDY",
        -1.0
      ],
      [
        "\"à°ª",
        -1.0
      ],
      [
        "ĠÐ¿Ð¾Ð»Ð½Ð¾ÑĨÐµÐ½Ð½ÑĭÐµ",
        -1.0
      ],
      [
        "ĠÐĲÑĢÐ±ÐµÑĤÐ½Ð¾ÑĤÐ°",
        -1.0
      ],
      [
        "à¸¡à¸Ħà¸§à¸²à¸¡",
        -1.0
      ],
      [
        "ĠÑĢÐµÐ·Ð°ÑĤÑĮ",
        -1.0
      ],
      [
        "ĠÙĬØ¯Ø®ÙĦÙĪÙĨ",
        -1.0
      ],
      [
        "ĠØ§ÙĦÙĥÙĪÙĨØºØ±Ø³",
        -1.0
      ],
      [
        "ĠØ§ÙĦØ¥ÙĬØ±Ø§ÙĨÙĬÙĬÙĨ",
        -1.0
      ],
      [
        "èī¯èİłä¸įé½Ĳ",
        -1.0
      ],
      [
        "ĠÐ¿Ð¾Ð»ÑĮÐ·Ð¾Ð²Ð°ÑĤÐµÐ»Ñİ",
        -1.0
      ],
      [
        "Ð°Ð²ÑĮÑĤÐµ",
        -1.0
      ],
      [
        "Application",
        -1.0
      ],
      [
        "à¸´à¸Ļà¸²à¸Ĺ",
        -1.0
      ],
      [
        "Ġà¤Ńà¤°à¤¨",
        -1.0
      ],
      [
        "tron",
        -1.0
      ],
      [
        "ĠrÃ©pÃ©titions",
        -1.0
      ],
      [
        "alarÄ±n",
        -1.0
      ],
      [
        "kaÃ§",
        -1.0
      ],
      [
        "Ġubunifu",
        -1.0
      ],
      [
        "ĠÙ¾ÛĮØ¯Ø§",
        -1.0
      ],
      [
        "à±įà°ķà°²à°¨",
        -1.0
      ],
      [
        "ĠÐºÐ¾Ð½ÑĦÐµÐ´ÐµÑĢÐ°ÑĤ",
        -1.0
      ],
      [
        "Ä°kon",
        -1.0
      ],
      [
        "ĠÐºÐ¾Ð»Ð»ÐµÐºÑĤÐ¸Ð²",
        -1.0
      ],
      [
        "æ¨Ĥ",
        -1.0
      ],
      [
        "ĠØŃØ±Ùĥ",
        -1.0
      ],
      [
        "ĠarrÃªtÃ©es",
        -1.0
      ],
      [
        "åİŁçĲĨ",
        -1.0
      ],
      [
        "ĠÙĦÙĦØ³Ø¨Ø§ØŃØ©",
        -1.0
      ],
      [
        "Ġusiokuwa",
        -1.0
      ],
      [
        "ĠØ´Ø±ÙĥØ§Ø¡",
        -1.0
      ],
      [
        "ĠØŃÙĬØ§ØªÙĬ",
        -1.0
      ],
      [
        "ĠÐ°Ð¼Ð½Ð¸ÑģÑĤÐ¸Ð¸",
        -1.0
      ],
      [
        "Standard",
        -1.0
      ],
      [
        "Ġcareer",
        -1.0
      ],
      [
        "ĠJesus",
        -1.0
      ],
      [
        "à¸Ļà¹ģà¸ķ",
        -1.0
      ],
      [
        "ĠØ¥ÙĨÙĨÙĬ",
        -1.0
      ],
      [
        "Ġasit",
        -1.0
      ],
      [
        "ĠVile",
        -1.0
      ],
      [
        "ĠÐĺÐ·",
        -1.0
      ],
      [
        "à¸Ħà¸Ńà¸¡à¹Ģà¸ŀà¸£à¸ªà¹Ģà¸ĭà¸Ńà¸£",
        -1.0
      ],
      [
        "ØªÙĨÙħÙĬØ©",
        -1.0
      ],
      [
        "ĠÑĥÑħÐ¼ÑĭÐ»",
        -1.0
      ],
      [
        "à¹Īà¸ĩà¸Ľà¸¥",
        -1.0
      ],
      [
        "LIÄŀI",
        -1.0
      ],
      [
        "ĠÐĲÐĿÐ¢ÐŀÐĽÐŀÐĵÐĺ",
        -1.0
      ],
      [
        "Ġencouraging",
        -1.0
      ],
      [
        "Ġrecognition",
        -1.0
      ],
      [
        "Ġregulation",
        -1.0
      ],
      [
        "ĠÙĦØ¯Ùī",
        -1.0
      ],
      [
        "ç¼ºåı£",
        -1.0
      ],
      [
        "éĸ±è®Ģ",
        -1.0
      ],
      [
        "éł»ç¹ģ",
        -1.0
      ],
      [
        "Ġ&",
        -1.0
      ],
      [
        "Ġà¤ķà¤ª",
        -1.0
      ],
      [
        "Ġovyo",
        -1.0
      ],
      [
        "ĠÑĥÑģÑĤÐ°Ð½Ð¾Ð²Ð»ÐµÐ½Ð½Ð¾Ð¹",
        -1.0
      ],
      [
        "'H",
        -1.0
      ],
      [
        "ĠØªØµ",
        -1.0
      ],
      [
        "è´µ",
        -1.0
      ],
      [
        "ÐľÐµÐ¼Ð¾ÑĢÐ¸Ð°Ð»",
        -1.0
      ],
      [
        "ĠÐ½ÐµÐ¿ÑĢÐ¸ÑıÑĤÐ½Ð¾ÑģÑĤÐ¸",
        -1.0
      ],
      [
        "ÙģÙĦÙĪÙĨ",
        -1.0
      ],
      [
        "ĠÃľstÃ¼nlÃ¼k",
        -1.0
      ],
      [
        "zunguuka",
        -1.0
      ],
      [
        "à¸£à¸ģà¸ıà¸²à¸Ħà¸¡",
        -1.0
      ],
      [
        "orta",
        -1.0
      ],
      [
        "Ġtech",
        -1.0
      ],
      [
        "Ġskippers",
        -1.0
      ],
      [
        "ĠØŃØ§ÙģØ¸",
        -1.0
      ],
      [
        "ĠÑģÐ¼ÐµÑĪÐ°Ð½Ð½ÑĭÐµ",
        -1.0
      ],
      [
        "Ġyama",
        -1.0
      ],
      [
        "ï¼ĮåĸľæŃ¡ä¸ĢåĢĭäººæľĥå¾Īå¤§æĸ¹åĹİ",
        -1.0
      ],
      [
        "ĠÙĪØ³Øª",
        -1.0
      ],
      [
        "ĠRoger",
        -1.0
      ],
      [
        "ĠPhys",
        -1.0
      ],
      [
        "saÃ§",
        -1.0
      ],
      [
        "ĠX",
        -1.0
      ],
      [
        "âĢĻartiste",
        -1.0
      ],
      [
        "Ġmwenzako",
        -1.0
      ],
      [
        "ĠRapid",
        -1.0
      ],
      [
        "ÑĢÐ¾Ð²",
        -1.0
      ],
      [
        "ÐĴÐ¾Ð·",
        -1.0
      ],
      [
        "à¸±à¸ļà¸ģà¸²à¸£à¸ķ",
        -1.0
      ],
      [
        "Ġà¸«à¸¥à¸²à¸¢à¸Ħà¸Ļ",
        -1.0
      ],
      [
        "ĠÙĩØ´Ø§Ø´Ø©",
        -1.0
      ],
      [
        "ĠÑģÐ¿Ð¾ÑģÐ¾Ð±Ð½Ð¾ÑģÑĤÑĮÑİ",
        -1.0
      ],
      [
        "æĸ¹å¼ı",
        -1.0
      ],
      [
        "à¹ģà¸ªà¸Ķà¸ĩà¸Ńà¸²à¸£à¸¡à¸ĵ",
        -1.0
      ],
      [
        "Ġwawili",
        -1.0
      ],
      [
        "ÐºÐ²Ð°ÑĢÐ¸ÑĥÐ¼",
        -1.0
      ],
      [
        "å¹¼åĦ¿",
        -1.0
      ],
      [
        "à¹Īà¸ĩà¹ĥà¸Ī",
        -1.0
      ],
      [
        "ÑĦÐ°",
        -1.0
      ],
      [
        "åĽĽæĿ¡",
        -1.0
      ],
      [
        "à¸±à¸ļà¸Ľà¸£à¸°à¸Ĺà¸²à¸Ļà¸Ńà¸²à¸«à¸²à¸£à¸ģà¸¥à¸²à¸ĩà¸§",
        -1.0
      ],
      [
        "å¤§é¼łæ¨¡å¼ı",
        -1.0
      ],
      [
        "å½ĵä½ľ",
        -1.0
      ],
      [
        "ĠÐ¼ÐµÑĢÐ¾Ð¿ÑĢÐ¸ÑıÑĤÐ¸Ð¹",
        -1.0
      ],
      [
        "åľ¨èħ³è¸ıè»Ĭ",
        -1.0
      ],
      [
        "éĥ½",
        -1.0
      ],
      [
        "Ġmaddeler",
        -1.0
      ],
      [
        "ĠØ§ÙĦØ£ÙĤØ§Ø±Ø¨",
        -1.0
      ],
      [
        "ä¸ĩä¸Ģ",
        -1.0
      ],
      [
        "ĠÐ¿ÑĢÐµÐ´Ð¿Ð¾Ð»Ð°Ð³Ð°ÐµÑĤ",
        -1.0
      ],
      [
        "ĠÙħØ¹Ø¯ÙĪØ¯ÙĬÙĨ",
        -1.0
      ],
      [
        "Ġwanakutana",
        -1.0
      ],
      [
        "à¸´à¸Ļà¸ļà¸£",
        -1.0
      ],
      [
        "ï¼ĮæĳĦå½±å¸Ī",
        -1.0
      ],
      [
        "ĠÙĦÙĦØ£ÙģØ±Ø§Ø¯",
        -1.0
      ],
      [
        "ĠÙĬØªØ¬ÙĨØ¨",
        -1.0
      ],
      [
        "ĠØªØ±Ø§Ø¬Ø¹Ø§",
        -1.0
      ],
      [
        "HALI",
        -1.0
      ],
      [
        "Ġà¹ĥà¸Ļà¸ģà¸²à¸£à¸Ĺ",
        -1.0
      ],
      [
        "Dolly",
        -1.0
      ],
      [
        "ï¼ĮæĪĳåĢĳçļĦåĲĪä½ľå¤¥ä¼´ä¹ŁåĮħæĭ¬",
        -1.0
      ],
      [
        "Ø²ÙĬÙģ",
        -1.0
      ],
      [
        "à¸±à¸Ļà¸¡à¸²à¹Ģà¸Ľ",
        -1.0
      ],
      [
        "ĠØ§ÙĦÙĨÙĬØ§Ø¨ÙĬØ©",
        -1.0
      ],
      [
        "à±Īà°¹",
        -1.0
      ],
      [
        "æĦ¿æľĽ",
        -1.0
      ],
      [
        "ĠreprÃ©sentÃ©",
        -1.0
      ],
      [
        "à°°",
        -1.0
      ],
      [
        "à±įà°Łà°¡à°®",
        -1.0
      ],
      [
        "Ġà¹ģà¸¥à¸°à¹Ģà¸ŀ",
        -1.0
      ],
      [
        "à¥Ģ.",
        -1.0
      ],
      [
        "ÐµÑĪ",
        -1.0
      ],
      [
        "ĠØ§ÙĦØ§ÙĪØ±Ø¨ÙĬ",
        -1.0
      ],
      [
        "à¸ªà¸ķà¸²à¸ĩà¸Ħ",
        -1.0
      ],
      [
        "éĢ²åħ¥",
        -1.0
      ],
      [
        "Ġtests",
        -1.0
      ],
      [
        "ĠØªÙĨØ¹ÙĥØ³",
        -1.0
      ],
      [
        "Ġexceed",
        -1.0
      ],
      [
        "à¹Įà¸Ĭà¸Ļ",
        -1.0
      ],
      [
        "Ġadaleti",
        -1.0
      ],
      [
        "ĠÐºÐ¾Ð¶Ñĥ",
        -1.0
      ],
      [
        "Ġpuissant",
        -1.0
      ],
      [
        "ĠØ§ÙĦØ¨Ø¯ÙĪÙĬ",
        -1.0
      ],
      [
        "ĠÙĬØ¨",
        -1.0
      ],
      [
        "à°°à°¨",
        -1.0
      ],
      [
        "riadha",
        -1.0
      ],
      [
        "ĠDavis",
        -1.0
      ],
      [
        "ĠØ§ÙĦÙħØ²ÙĬÙģ",
        -1.0
      ],
      [
        "åľ£çģµçļĦ",
        -1.0
      ],
      [
        "Ø§Ø¨ÙĬØ±",
        -1.0
      ],
      [
        "ĠØ§ÙĦØ¹ØµØ¨ÙĬ",
        -1.0
      ],
      [
        "à±Ĩà°µà°²",
        -1.0
      ],
      [
        "Clothes",
        -1.0
      ],
      [
        "ç©ºèĻĽ",
        -1.0
      ],
      [
        "ĠÙģÙĩÙĬØ§",
        -1.0
      ],
      [
        "ĠFriend",
        -1.0
      ],
      [
        "à¸¹à¸Ķà¸Ħ",
        -1.0
      ],
      [
        "ĠÐ¿Ð»Ð°Ð½Ñĭ",
        -1.0
      ],
      [
        "Ð¸Ð¿Ð¿ÐµÑĢ",
        -1.0
      ],
      [
        "æ¬ºè²ł",
        -1.0
      ],
      [
        "ĠØ§ÙĦÙħÙĬÙħ",
        -1.0
      ],
      [
        "ĠÙĨØªÙģÙĤ",
        -1.0
      ],
      [
        "ĠÐ¿Ð¾Ð²ÐµÑĢÐ½ÑĥÐ»Ð¸",
        -1.0
      ],
      [
        "à¸Ĥà¹Ĥà¸¡à¸¢",
        -1.0
      ],
      [
        "ĠedebiyatÄ±nÄ±n",
        -1.0
      ],
      [
        "âĢĻamphithÃ©Ã¢tre",
        -1.0
      ],
      [
        "Ġkumzuia",
        -1.0
      ],
      [
        "Bazen",
        -1.0
      ],
      [
        "éģŃåĪ°",
        -1.0
      ],
      [
        "Ġusing",
        -1.0
      ],
      [
        "ĠbÃ¶lÃ¼n",
        -1.0
      ],
      [
        "Ġudogo",
        -1.0
      ],
      [
        "à¸Ńà¹Ģà¸£",
        -1.0
      ],
      [
        "ãĢģåģ¥èº«ä¿±ä¹Ĳéĥ¨åĴĮæ¡ĳæĭ¿",
        -1.0
      ],
      [
        "ĠCHU",
        -1.0
      ],
      [
        "å«©çļĦ",
        -1.0
      ],
      [
        "ĠBukoba",
        -1.0
      ],
      [
        "ĠRÃ¶nesans",
        -1.0
      ],
      [
        ",ÅŁ",
        -1.0
      ],
      [
        "ĠÑįÐ¿Ð¾ÑħÐ°",
        -1.0
      ],
      [
        "ĠyÄ±llara",
        -1.0
      ],
      [
        "è½°",
        -1.0
      ],
      [
        "|Ø£",
        -1.0
      ],
      [
        "ĠShellExView",
        -1.0
      ],
      [
        "ĠEUR",
        -1.0
      ],
      [
        "ĠÑģÑĢÐ¾ÐºÐµ",
        -1.0
      ],
      [
        "arka",
        -1.0
      ],
      [
        "ĠÙĬØ±Ø³Ùħ",
        -1.0
      ],
      [
        "åİŁåĽłæĺ¯",
        -1.0
      ],
      [
        "ĠÙĪØ£ÙĪÙĦØ§Ø¯Ùĩ",
        -1.0
      ],
      [
        "ĠUHAKIKI",
        -1.0
      ],
      [
        "à¹ĥà¸Ī",
        -1.0
      ],
      [
        "merhaba",
        -1.0
      ],
      [
        "Ġinazidi",
        -1.0
      ],
      [
        "Ġkibongo",
        -1.0
      ],
      [
        "Ġà°īà°¹",
        -1.0
      ],
      [
        "ĠÙĪÙĨÙĪØ§ÙĬØ§Ùĩ",
        -1.0
      ],
      [
        "çłģ",
        -1.0
      ],
      [
        "ĠUl",
        -1.0
      ],
      [
        "Ø§ÙĦÙĦØ§Ø§Ø®ØªÙĬØ§Ø±ÙĬØ©",
        -1.0
      ],
      [
        "'allient",
        -1.0
      ],
      [
        "ä¸ĳ",
        -1.0
      ],
      [
        "ĠÐºÐ¾Ð»Ð¸ÑĩÐµÑģÑĤÐ²ÐµÐ½Ð½Ð¾",
        -1.0
      ],
      [
        "ĠGras",
        -1.0
      ],
      [
        "UnutulmamasÄ±",
        -1.0
      ],
      [
        "Ġà°Ĩ",
        -1.0
      ],
      [
        "ĠØ´Ø±Ø§Ø¡",
        -1.0
      ],
      [
        "à°¿à°ľà°²",
        -1.0
      ],
      [
        "à¸µà¸Ńà¸³à¸Ļà¸²à¸Ī",
        -1.0
      ],
      [
        "Ġreference",
        -1.0
      ],
      [
        "à¹Ģà¸ľà¸²",
        -1.0
      ],
      [
        "à¤ªà¤°à¤®",
        -1.0
      ],
      [
        "hara",
        -1.0
      ],
      [
        "ÙĦÙĪÙĬØ©",
        -1.0
      ],
      [
        "ĠÙĦØ±Ø¹Ø§ÙĬØ§",
        -1.0
      ],
      [
        "à¹Īà¸§à¸¡à¹ģà¸ĸà¸¥à¸ĩà¸ľà¸¥à¸ģà¸²à¸£à¸Ī",
        -1.0
      ],
      [
        "ĠÃ©criture",
        -1.0
      ],
      [
        "ĠØ§ÙĦØ®Ø³Ø§Ø±Ø©",
        -1.0
      ],
      [
        "ç»ĿæľĽ",
        -1.0
      ],
      [
        "ĠAubry",
        -1.0
      ],
      [
        "è¶ħè¿ĩ",
        -1.0
      ],
      [
        "ĠÑĤÑĢÐµÐ±",
        -1.0
      ],
      [
        "à¸¸à¸Ħà¸Ħà¸¥à¸¡",
        -1.0
      ],
      [
        "Ġseviyede",
        -1.0
      ],
      [
        "ĠkarÅŁÄ±lÄ±ÄŁÄ±nÄ±",
        -1.0
      ],
      [
        "KiÅŁisel",
        -1.0
      ],
      [
        "çĻ¾å¤§å½±éŁ¿äººçī©",
        -1.0
      ],
      [
        "Ġgaf",
        -1.0
      ],
      [
        "åĪĿ",
        -1.0
      ],
      [
        "ĠUnguja",
        -1.0
      ],
      [
        "ĠKijerumani",
        -1.0
      ],
      [
        "è§ĴèĲ½",
        -1.0
      ],
      [
        "ĠÐ¾Ð¶Ð¸Ð²Ð»ÐµÐ½Ð½ÑĭÐ¹",
        -1.0
      ],
      [
        "ÙĪØ§ÙĦØªÙĬ",
        -1.0
      ],
      [
        "à¹Īà¹Ĥà¸ķ",
        -1.0
      ],
      [
        "ĠQuelques",
        -1.0
      ],
      [
        "Ġspending",
        -1.0
      ],
      [
        "åıĸåĩº",
        -1.0
      ],
      [
        "à±ĥà°µ",
        -1.0
      ],
      [
        "à¸µà¸ķà¸²à¸¡",
        -1.0
      ],
      [
        "ĠÙħØªØ¯",
        -1.0
      ],
      [
        "à¸ĩà¸ĺ",
        -1.0
      ],
      [
        "à¸±à¸ĩà¸Ħà¸£",
        -1.0
      ],
      [
        "à°Ĩà°¦à°°",
        -1.0
      ],
      [
        "ÐŁÐłÐĲÐĴ",
        -1.0
      ],
      [
        "ĠÐ¿Ð¾Ð»ÑİÐ±Ð¾Ð²Ð°ÑĤÑĮÑģÑı",
        -1.0
      ],
      [
        "å¹¶æıĲä¾Ľ",
        -1.0
      ],
      [
        "ï¼Įä¹Łå°±æĺ¯",
        -1.0
      ],
      [
        "ĠÙĦØ£Ø¹ÙħØ§ÙĦ",
        -1.0
      ],
      [
        "ÐķÐĻ",
        -1.0
      ],
      [
        "ĠØ£ÙĬ",
        -1.0
      ],
      [
        "Ġmaintenu",
        -1.0
      ],
      [
        "à¸²à¸¡",
        -1.0
      ],
      [
        "à¸¹à¸łà¸²à¸ŀà¹Ĥà¸Ľ",
        -1.0
      ],
      [
        "ĠØ§ÙĦØªØ¬Ø§Ø±Ø¨",
        -1.0
      ],
      [
        "Ġà¸Ĭà¸²à¸§à¸Ļà¸²à¸Ĭà¸²à¸§à¹Ħà¸£",
        -1.0
      ],
      [
        "ĠtaÅŁtan",
        -1.0
      ],
      [
        "à±Ģà°¹",
        -1.0
      ],
      [
        "à¸¸à¸ĩà¹ģà¸ģ",
        -1.0
      ],
      [
        "ĠÐ²ÑĭÐ³Ð»ÑıÐ´Ð¸ÑĤ",
        -1.0
      ],
      [
        "à¥įà¤µà¤¤",
        -1.0
      ],
      [
        "à¸±à¸Ĵà¸Ļà¸²à¸ĩà¸²à¸Ļà¸Ĺà¸Ķà¸¥à¸Ńà¸ĩ",
        -1.0
      ],
      [
        "èŃīå¯¦",
        -1.0
      ],
      [
        "åĪ°åºķæĺ¯æĢİéº¼æ¨£",
        -1.0
      ],
      [
        "ĠMih",
        -1.0
      ],
      [
        "Ġkuulizwa",
        -1.0
      ],
      [
        "Ø±Ø³Ùĩ",
        -1.0
      ],
      [
        "ĠØªÙĤØ±ÙĬØ±Ùĩ",
        -1.0
      ],
      [
        "çļĦçī¹çĤ¹",
        -1.0
      ],
      [
        "à±Įà°¡",
        -1.0
      ],
      [
        "pens",
        -1.0
      ],
      [
        "ĠÙģÙĤØªÙĦ",
        -1.0
      ],
      [
        "ĠShawn",
        -1.0
      ],
      [
        "ĠØ§ÙĦØ¯ÙĬÙħÙĪÙĤØ±Ø§Ø·ÙĬØ©",
        -1.0
      ],
      [
        "âĢĻempÃªche",
        -1.0
      ],
      [
        "ï¼Įå°ĳå¥³ç«ĭåį³",
        -1.0
      ],
      [
        "ĠcohÃ©rence",
        -1.0
      ],
      [
        "è«",
        -1.0
      ],
      [
        "ĠsÄ±nÄ±fta",
        -1.0
      ],
      [
        "ĠÄ±zdÄ±rap",
        -1.0
      ],
      [
        "ĠÃ¼stÃ¼nÃ¼",
        -1.0
      ],
      [
        "i",
        -1.0
      ],
      [
        "Ð²ÐµÐ¹",
        -1.0
      ],
      [
        "ĠØ±Ø§Ø¯Ø¹",
        -1.0
      ],
      [
        "!Ċ",
        -1.0
      ],
      [
        "à¤¸à¤¤",
        -1.0
      ],
      [
        "Ø§ÙĥØ©",
        -1.0
      ],
      [
        "ĠÙħÙĩØ§",
        -1.0
      ],
      [
        "ĠÐ³Ð»Ð°Ð²Ð½ÑĭÐ¹",
        -1.0
      ],
      [
        "ÙĪÙħÙĨÙĩØ§",
        -1.0
      ],
      [
        "ĠÙĪØ§ÙĦØ±Ø³ÙĪÙĦ",
        -1.0
      ],
      [
        "Ġmkopo",
        -1.0
      ],
      [
        "ĠImplementation",
        -1.0
      ],
      [
        "æħĪåĸĦ",
        -1.0
      ],
      [
        "ĠÐ¸Ð½ÑĤÐµÐ³ÑĢÐ°ÑĨÐ¸Ð¸",
        -1.0
      ],
      [
        "ĠØ¨Ø§ÙĦØŃÙĬÙĪÙĬØ©",
        -1.0
      ],
      [
        "ĠÑĤÐ¸Ð¿",
        -1.0
      ],
      [
        "Ġmerkezinde",
        -1.0
      ],
      [
        "èħ¿èĨĿéĹľç¯Ģ",
        -1.0
      ],
      [
        "-Saint",
        -1.0
      ],
      [
        "à¹Ģà¸Ļ",
        -1.0
      ],
      [
        "ĠÐĳÐŀÐĵÐĲ",
        -1.0
      ],
      [
        "çĶŁæ¶¯",
        -1.0
      ],
      [
        "ĠØ¯ÙĪØ±ÙĬØ©",
        -1.0
      ],
      [
        "Ġferroportine",
        -1.0
      ],
      [
        "ĠJE",
        -1.0
      ],
      [
        "ĠÙĪØ§ÙĦØ±Ùĥ",
        -1.0
      ],
      [
        "ĠÐ½Ð°Ð³",
        -1.0
      ],
      [
        "ĠPandora",
        -1.0
      ],
      [
        "baÅŁÄ±",
        -1.0
      ],
      [
        "ĠÐĺÐĺÐ¥Ð¤",
        -1.0
      ],
      [
        "Ġà¸ŀà¸Ńà¸ģ",
        -1.0
      ],
      [
        "Ø·Ø§Øª",
        -1.0
      ],
      [
        "ĠÐľÐ°Ð³Ð°ÑĢÐ°Ð¼Ð¾Ð²",
        -1.0
      ],
      [
        "ĠkaÃ§a",
        -1.0
      ],
      [
        "ĠÐ°ÑģÐ¿ÐµÐºÑĤÐ°",
        -1.0
      ],
      [
        "ç¯Ģåº¦ä½¿",
        -1.0
      ],
      [
        "ĠØ§Ùĥ",
        -1.0
      ],
      [
        "worshipper",
        -1.0
      ],
      [
        "Ġbadala",
        -1.0
      ],
      [
        "lings",
        -1.0
      ],
      [
        ".h",
        -1.0
      ],
      [
        "ĠÐ°ÑĤÐ°Ðº",
        -1.0
      ],
      [
        "Cheburaloid",
        -1.0
      ],
      [
        "ĠØ§ÙĦÙħØ§ÙħÙĬØ±ØªÙĬÙĨ",
        -1.0
      ],
      [
        "Ġà¤¦à¤¶",
        -1.0
      ],
      [
        "à¹īà¸ªà¸¡",
        -1.0
      ],
      [
        "Ġlandmarks",
        -1.0
      ],
      [
        "Ġwazima",
        -1.0
      ],
      [
        "sheni",
        -1.0
      ],
      [
        "å©´åĦ¿",
        -1.0
      ],
      [
        "Ġiliyotumika",
        -1.0
      ],
      [
        "Ġnothing",
        -1.0
      ],
      [
        "æľĢè´«ç©·åĴĮæľĢ",
        -1.0
      ],
      [
        "çĳ",
        -1.0
      ],
      [
        "ĠdurumlarÄ±nda",
        -1.0
      ],
      [
        "ĠØ§ÙĦØ¥Ø³ØªÙĤÙĦØ§ÙĦ",
        -1.0
      ],
      [
        "ĠÙĪØ§ÙĦÙĥØ±Ùħ",
        -1.0
      ],
      [
        "Ġfaveur",
        -1.0
      ],
      [
        "ĠÐ¿ÑĢÐ¸ÑħÐ¾Ð¶Ð°Ð½",
        -1.0
      ],
      [
        "ĠEmir",
        -1.0
      ],
      [
        "ĠÙħÙĤØ¨Ø±ØªÙĩ",
        -1.0
      ],
      [
        "æ³ģ",
        -1.0
      ],
      [
        "ĠÙĥØ³ÙĪÙģ",
        -1.0
      ],
      [
        "à¸³à¹Ħà¸ŀà¸ŀà¸£à¸£à¸ĵ",
        -1.0
      ],
      [
        "hitajia",
        -1.0
      ],
      [
        "å°±ç®Ĺæĺ¯",
        -1.0
      ],
      [
        "à¹Īà¸²à¸Ħà¸Ļà¸Ń",
        -1.0
      ],
      [
        "ä¸Ģå®ļå¾Īä¹ıåĳ³",
        -1.0
      ],
      [
        "à¤¾à¤īà¤¸",
        -1.0
      ],
      [
        "ĠØ§ÙĦØ·ÙħØ«",
        -1.0
      ],
      [
        "ĠÙĦÙĦØ¹Ø¬ÙĪØ²",
        -1.0
      ],
      [
        "ä¸Ģå®¶",
        -1.0
      ],
      [
        ")).Ċ",
        -1.0
      ],
      [
        "bÃ¶brek",
        -1.0
      ],
      [
        "Ġà¸ĺà¸Ļ",
        -1.0
      ],
      [
        "åīĩ",
        -1.0
      ],
      [
        "à¸ļà¸Ļà¹Ĥà¸¥à¸ģ",
        -1.0
      ],
      [
        "Ġgrav",
        -1.0
      ],
      [
        "Ġkaburini",
        -1.0
      ],
      [
        "å®¢æĪ·",
        -1.0
      ],
      [
        "à°Ĥà°§à°¨à°²à°¨",
        -1.0
      ],
      [
        "Jackson",
        -1.0
      ],
      [
        "ĠØ§ÙĦØ¬ÙħØ³Ùī",
        -1.0
      ],
      [
        "laj",
        -1.0
      ],
      [
        "æ¸¥çĻ»ä¼¯æł¼åħ¬åĽŃ",
        -1.0
      ],
      [
        "Ø§ÙĦÙħØ³Ø§ÙģØ±ÙĪÙĨ",
        -1.0
      ],
      [
        "Ġrastla",
        -1.0
      ],
      [
        "çĲĨå·¥",
        -1.0
      ],
      [
        "Ø§ÙĬØ¨",
        -1.0
      ],
      [
        "Ð½Ð¾ÑģÑĤÑĮ",
        -1.0
      ],
      [
        "åįĥ",
        -1.0
      ],
      [
        "å¤§ä¼ļä¸Ĭ",
        -1.0
      ],
      [
        "ï¼ĮçĦ¶åĲİå°±",
        -1.0
      ],
      [
        "rent",
        -1.0
      ],
      [
        "Ġeditors",
        -1.0
      ],
      [
        "ØŃÙĦØ§ÙĦ",
        -1.0
      ],
      [
        "ÐºÐ°Ð½",
        -1.0
      ],
      [
        "ĠØ¨Ø§ÙĦÙħÙĨØµÙĪØ±Ø©",
        -1.0
      ],
      [
        "-Ð±Ð¸ÑħÐµÐ²Ð¸Ð¾ÑĢÐ°Ð»ÑĮÐ½Ð¾Ð¹",
        -1.0
      ],
      [
        "ĠGetting",
        -1.0
      ],
      [
        "çļĦé»ĳ",
        -1.0
      ],
      [
        "ttÃ¼",
        -1.0
      ],
      [
        "ĠØ§ÙĦØªÙĨØ§",
        -1.0
      ],
      [
        "ĠØ´ÙĬÙĪØ¹",
        -1.0
      ],
      [
        "ĠÙħØ¬ÙĦØ©",
        -1.0
      ],
      [
        "âĢĿçļĦç½ĳé¡µä¸Ĭ",
        -1.0
      ],
      [
        "Paris",
        -1.0
      ],
      [
        "ä¸įèĥ½åĨį",
        -1.0
      ],
      [
        "åĴĮæ°Ķ",
        -1.0
      ],
      [
        "ĠTASARIM",
        -1.0
      ],
      [
        "/EN",
        -1.0
      ],
      [
        "æ³¨",
        -1.0
      ],
      [
        "ĠSUR",
        -1.0
      ],
      [
        "à¹īà¸Ńà¸ªà¸ĩà¸ª",
        -1.0
      ],
      [
        "å¾Īå¤ļ",
        -1.0
      ],
      [
        "ĠÑĤÑĢÐ°ÐºÑĤÐ°",
        -1.0
      ],
      [
        "à¸«à¸¢",
        -1.0
      ],
      [
        "Ġgrat",
        -1.0
      ],
      [
        "olithique",
        -1.0
      ],
      [
        "ĠÙĪØ§ÙĦÙĤØ±Ø§Ø¡Ø©",
        -1.0
      ],
      [
        "ĠHep",
        -1.0
      ],
      [
        "à¹īà¸¡à¸²à¸ģà¸¡à¸²à¸¢",
        -1.0
      ],
      [
        "ĠÙĪØ³Ø§Ùħ",
        -1.0
      ],
      [
        "ĠÙħØ³ØªÙĨØ¯Ø§Øª",
        -1.0
      ],
      [
        "ĠAdÄ±",
        -1.0
      ],
      [
        "ĠØ§ÙĦÙĤÙĦÙĤ",
        -1.0
      ],
      [
        "Ġkufinya",
        -1.0
      ],
      [
        "Ġkonul",
        -1.0
      ],
      [
        "ĠÅŁekil",
        -1.0
      ],
      [
        "PACIFIC",
        -1.0
      ],
      [
        "ĠÙħÙĪØ§Ø¹ÙĬØ¯",
        -1.0
      ],
      [
        "ĠSwawaiq",
        -1.0
      ],
      [
        "Ġkuwasaidia",
        -1.0
      ],
      [
        "Ġnilikuwa",
        -1.0
      ],
      [
        "à¤²à¤¤",
        -1.0
      ],
      [
        "ĠØ£Ø¶Ø¹Ùģ",
        -1.0
      ],
      [
        "Ġmitindo",
        -1.0
      ],
      [
        "Now",
        -1.0
      ],
      [
        "æľīçº¿çĶµè§Ĩ",
        -1.0
      ],
      [
        "ĠbudgÃ©taire",
        -1.0
      ],
      [
        "ÅŀÄ°",
        -1.0
      ],
      [
        "iz",
        -1.0
      ],
      [
        "Ġtushikamane",
        -1.0
      ],
      [
        "Ġtuvalet",
        -1.0
      ],
      [
        "Ġkufurahia",
        -1.0
      ],
      [
        "ĠÐ½Ð°ÑĪÐ¸Ð¼",
        -1.0
      ],
      [
        "Sababu",
        -1.0
      ],
      [
        "à¤¿à¤ıà¤Ł",
        -1.0
      ],
      [
        "ï¼ĮæķĻ",
        -1.0
      ],
      [
        "ĠÙĦÙĦØ§",
        -1.0
      ],
      [
        "ĠKadÄ±kÃ¶y",
        -1.0
      ],
      [
        "ĠÑĤÑĢÐ°Ð½ÑģÐ¿Ð¾ÑĢÑĤÐ°",
        -1.0
      ],
      [
        "Ġindispensable",
        -1.0
      ],
      [
        "ĠAFFETME",
        -1.0
      ],
      [
        "è¦ıå®ļä¹ĭè¢«ä¿Ŀéļªäºº",
        -1.0
      ],
      [
        "à¥ª",
        -1.0
      ],
      [
        "Product",
        -1.0
      ],
      [
        "è·ªè¶´çļĦå§¿åĭ¢",
        -1.0
      ],
      [
        "ĠÐ¤Ð¸",
        -1.0
      ],
      [
        "ĠÐĿÐµÐ´",
        -1.0
      ],
      [
        "à±ĭà°ļà°ķ",
        -1.0
      ],
      [
        "åŃŁåĬłæĭī",
        -1.0
      ],
      [
        "Ġmauti",
        -1.0
      ],
      [
        "ĠÐ²Ð·Ð»Ð¾Ð¼",
        -1.0
      ],
      [
        "à±ĥà°¸",
        -1.0
      ],
      [
        "ĠØ¨ØŃØ³ÙĨ",
        -1.0
      ],
      [
        "ĠRequire",
        -1.0
      ],
      [
        "ĠÐ¾Ð±Ð»Ð°ÑģÑĤÑıÑħ",
        -1.0
      ],
      [
        "Ġharbor",
        -1.0
      ],
      [
        "âĢľé«ĺçº§ä¹ĭåĪĹ",
        -1.0
      ],
      [
        "ĠÃ§alan",
        -1.0
      ],
      [
        "ĠÐ¿ÑĢÐ¸Ð³Ð¾ÑĤÐ¾Ð²Ð¸ÑĤÑĮÑģÑı",
        -1.0
      ],
      [
        "ĠÐ¸Ð·Ð»ÐµÑĩ",
        -1.0
      ],
      [
        "Ð¸ÑĤÐ°",
        -1.0
      ],
      [
        "Ġjumped",
        -1.0
      ],
      [
        "ĠØ¨Ø³Ùħ",
        -1.0
      ],
      [
        "ĠØ§ÙĦØ¢Ø®Ø±",
        -1.0
      ],
      [
        "ĠÙĪÙĨÙģÙĪØ³",
        -1.0
      ],
      [
        "ĠÅŁeklindeki",
        -1.0
      ],
      [
        "Ġkira",
        -1.0
      ],
      [
        "ĠOysa",
        -1.0
      ],
      [
        "ĠÙĪØªØ³ÙħÙĬ",
        -1.0
      ],
      [
        "ĠHence",
        -1.0
      ],
      [
        "à¸ŀà¸£à¸°à¹Ģ",
        -1.0
      ],
      [
        "ĠØ±Ø§Ø¹",
        -1.0
      ],
      [
        "ĠÙģØ¥ÙĨÙĩÙħ",
        -1.0
      ],
      [
        "ĠØ§ÙĦÙĥÙĨØ§Ø¦Ø³",
        -1.0
      ],
      [
        "à¥Ĥà¤Ī",
        -1.0
      ],
      [
        "ĠØ§ØŃÛĮØ§ÙĨØ§",
        -1.0
      ],
      [
        "Ġirre",
        -1.0
      ],
      [
        "Ġpsikolojik",
        -1.0
      ],
      [
        "ĠApart",
        -1.0
      ],
      [
        "ĠÙĪÙĨÙĥ",
        -1.0
      ],
      [
        "ĠØªØ´ÙĤÙĤØ§Øª",
        -1.0
      ],
      [
        "ĠÐºÐ¾Ð»ÐµÐ±",
        -1.0
      ],
      [
        "çĽ¯",
        -1.0
      ],
      [
        "ÐµÑĩÐµÐ½Ð¸Ðµ",
        -1.0
      ],
      [
        "someka",
        -1.0
      ],
      [
        "à¹īà¹ģà¸¢à¸ģ",
        -1.0
      ],
      [
        "ifiye",
        -1.0
      ],
      [
        "à¸¨à¸ķà¸§à¸£à¸£à¸©",
        -1.0
      ],
      [
        "ï¼Įè¨ĺå¾Ĺ",
        -1.0
      ],
      [
        "à¸´à¸Ķà¸ľà¸¥à¸ģà¸£à¸°à¸Ĺà¸ļà¸ķ",
        -1.0
      ],
      [
        "à¸Ľà¸£à¸²à¸ģà¸ıà¸Ĥ",
        -1.0
      ],
      [
        "ĠÙħÙĨØªØ¬",
        -1.0
      ],
      [
        "ĠÐ´Ð¸ÑģÐºÑĢÐ¸Ð¼Ð¸Ð½Ð°ÑĨÐ¸Ñı",
        -1.0
      ],
      [
        "ĠÙĥÙĬÙĦÙĪÙħØªØ±Ø§",
        -1.0
      ],
      [
        "ĠÐ¾ÑĦÐ¸ÑģÐ°",
        -1.0
      ],
      [
        "Ġsey",
        -1.0
      ],
      [
        "æľįçļĦ",
        -1.0
      ],
      [
        "åı³è¾¹",
        -1.0
      ],
      [
        "ĠYasir",
        -1.0
      ],
      [
        "à¸¸à¹Ī",
        -1.0
      ],
      [
        "Ä°ptal",
        -1.0
      ],
      [
        "ĠÐ²Ð¾Ð·Ð½Ð¸ÐºÐ½Ð¾Ð²ÐµÐ½Ð¸Ñı",
        -1.0
      ],
      [
        "Ġà°°à°ļà°¨à°ķ",
        -1.0
      ],
      [
        "ĠHimalaya",
        -1.0
      ],
      [
        "åĨįæľī",
        -1.0
      ],
      [
        "ĠSPORTS",
        -1.0
      ],
      [
        "Ġmajukwaa",
        -1.0
      ],
      [
        "ĠÑĦÑĢÐ°Ð½ÐºÐ¾ÑĦÐ¾Ð½Ð¾Ð²",
        -1.0
      ],
      [
        "ĠCarnival",
        -1.0
      ],
      [
        "ç¨®ç¨®",
        -1.0
      ],
      [
        "reza",
        -1.0
      ],
      [
        "ĠÙĪÙĦØ§",
        -1.0
      ],
      [
        "à¸±à¸ĩà¸ģà¸¤à¸©à¸ķ",
        -1.0
      ],
      [
        "Ġhandled",
        -1.0
      ],
      [
        "ĠyapÄ±nÄ±z",
        -1.0
      ],
      [
        "ĠØªØ¤Ø®Ø°",
        -1.0
      ],
      [
        "Ġanaou",
        -1.0
      ],
      [
        "'A",
        -1.0
      ],
      [
        "å°ıèªª",
        -1.0
      ],
      [
        "çīł",
        -1.0
      ],
      [
        "çļĦå¥³äºº",
        -1.0
      ],
      [
        "à¹īà¸²à¸¡à¸Ĥ",
        -1.0
      ],
      [
        "ĠÙĬØ®Ø³Ø±",
        -1.0
      ],
      [
        "ĠSÃ¶zleÅŁme",
        -1.0
      ],
      [
        "Ġvictory",
        -1.0
      ],
      [
        "à¸±à¸Ĵà¸Ļà¸²à¹Ģà¸Ľ",
        -1.0
      ],
      [
        "ĠElazÄ±ÄŁ",
        -1.0
      ],
      [
        "orama",
        -1.0
      ],
      [
        "ĠfotoÄŁraflarÄ±nÄ±",
        -1.0
      ],
      [
        "Ø´Ø·ÙĬÙĨ",
        -1.0
      ],
      [
        "à¸Īà¸²à¸ģà¸Ĭ",
        -1.0
      ],
      [
        "æ¡ĲéĦīå¸Ĥ",
        -1.0
      ],
      [
        "èĢĮå¾Ĺ",
        -1.0
      ],
      [
        "Ð°Ð½Ð¸ÑıÑħ",
        -1.0
      ],
      [
        "ĠÐ³Ð¾ÑģÑĤÐµÐ²Ð¾Ð¹",
        -1.0
      ],
      [
        "Ġimpaired",
        -1.0
      ],
      [
        "Ġlaisser",
        -1.0
      ],
      [
        "Ġâĸº",
        -1.0
      ],
      [
        "ĠØ³ÙĬØ§Ø¯ØªÙĥÙħ",
        -1.0
      ],
      [
        "à¸¸à¸ĳà¸²à¸¡à¸²à¸¨",
        -1.0
      ],
      [
        "à¹īà¸Ľà¸ı",
        -1.0
      ],
      [
        "_",
        -1.0
      ],
      [
        "ĠÙĬØŃÙĪÙĬ",
        -1.0
      ],
      [
        "à¸´à¹Ģà¸©à¸ģ",
        -1.0
      ],
      [
        "åĲ³éĽ²éĽĢ",
        -1.0
      ],
      [
        "Ġsubit",
        -1.0
      ],
      [
        "ĠÐĴÐ¾Ð·ÑĮÐ¼Ð¸ÑĤÐµ",
        -1.0
      ],
      [
        "ĠØ´ÙĤÙĦØ§ÙĪØ§",
        -1.0
      ],
      [
        "à°¨à°Ł",
        -1.0
      ],
      [
        "ĠKuna",
        -1.0
      ],
      [
        "ĠÃ§alÄ±ÅŁacaÄŁÄ±z",
        -1.0
      ],
      [
        "ĠapprÃ©ciable",
        -1.0
      ],
      [
        "Ġsaatler",
        -1.0
      ],
      [
        "æī¾åĪ°äºĨ",
        -1.0
      ],
      [
        "ĠHighway",
        -1.0
      ],
      [
        "à¸µà¸Ħà¸ĵà¸°",
        -1.0
      ],
      [
        "ĠSadrists",
        -1.0
      ],
      [
        "ĠØ§ÙĦØ´ÙĪØ·",
        -1.0
      ],
      [
        "ĠÐ£Ð·Ð±ÐµÐºÐ¸ÑģÑĤÐ°Ð½Ðµ",
        -1.0
      ],
      [
        "ĠÙħÙĤØ§Ø±Ø¨Ø©",
        -1.0
      ],
      [
        "ĠÐ¿ÑĢÐ¸ÐºÐ»ÑİÑĩÐµÐ½Ð¸Ñı",
        -1.0
      ],
      [
        "ĠÙĪØ§ÙĦØªØ¹Ø¨",
        -1.0
      ],
      [
        "à¸·à¸Ńà¸ģà¸²à¸£à¹ĥà¸Ĭ",
        -1.0
      ],
      [
        "ĠdÃ¼kkanlar",
        -1.0
      ],
      [
        "è¯´å¤¸å¤§çļĦè¯Ŀ",
        -1.0
      ],
      [
        "Ġcas",
        -1.0
      ],
      [
        "ĠØ³Ø¨ØªÙħØ¨Ø±",
        -1.0
      ],
      [
        "ĠÐ±ÑĭÑģÑĤÑĢÐµÐµ",
        -1.0
      ],
      [
        "ĠØªÙĨØ·ÙĦÙĬ",
        -1.0
      ],
      [
        "NÃĩ",
        -1.0
      ],
      [
        "åŃĺåħ¨",
        -1.0
      ],
      [
        "ĠÑģÐµÐºÑĤÐµ",
        -1.0
      ],
      [
        "ä¾Ŀæ³ķ",
        -1.0
      ],
      [
        "ĠØ§ÙĦØ±ÙĪÙħØ§ÙĨ",
        -1.0
      ],
      [
        "èĨ£éģĵéĩĮ",
        -1.0
      ],
      [
        "ĠØ³ÙĬØ¨Ø±ÙĬØ§",
        -1.0
      ],
      [
        ".Tuttum",
        -1.0
      ],
      [
        "ĠØ§ÙĦÙħØ±Øª",
        -1.0
      ],
      [
        "ÙĤØµØ±",
        -1.0
      ],
      [
        "ulÃ©",
        -1.0
      ],
      [
        "Ġfi",
        -1.0
      ],
      [
        "ĠMajanga",
        -1.0
      ],
      [
        ".conf",
        -1.0
      ],
      [
        "Ġà¸Ńà¸ĩà¸ģ",
        -1.0
      ],
      [
        "ĠØ®Ø´Ø¨Ø©",
        -1.0
      ],
      [
        "ĠÙĦØ¹Ø¨Ùĩ",
        -1.0
      ],
      [
        "à¹Ĥà¸Ķà¸¢à¹ĥà¸Ĭ",
        -1.0
      ],
      [
        "Ġdefnedil",
        -1.0
      ],
      [
        "Ġvolleyball",
        -1.0
      ],
      [
        "\":",
        -1.0
      ],
      [
        "Ġkorint",
        -1.0
      ],
      [
        "ĠÐ²Ð¾Ð¿Ð¸",
        -1.0
      ],
      [
        "ĠaccusÃ©",
        -1.0
      ],
      [
        "ĠdÃ©livrÃ©",
        -1.0
      ],
      [
        "à¹ĥà¸Īà¸ģà¸¥à¸²à¸ĩà¹Ģà¸¡",
        -1.0
      ],
      [
        "Ġmbinguni",
        -1.0
      ],
      [
        "ĠØ§ÙĦÙĥÙĨØ¹Ø§ÙĨÙĬ",
        -1.0
      ],
      [
        "ĠÐºÐ¾Ð½Ð´Ð¸ÑĨÐ¸Ð¾Ð½ÐµÑĢ",
        -1.0
      ],
      [
        "à¹ĩà¸Ļà¸£à¸°à¸ļà¸ļ",
        -1.0
      ],
      [
        "ĠÑĤÑĢÐ°Ð²Ð¼Ð°ÑĤ",
        -1.0
      ],
      [
        "iced",
        -1.0
      ],
      [
        "åĮĸäºĨ",
        -1.0
      ],
      [
        "tahadharisha",
        -1.0
      ],
      [
        "åģľä¸ĭäºĨ",
        -1.0
      ],
      [
        "ĠÙĪØªØŃØ¯ÙĬØ¯Ø§",
        -1.0
      ],
      [
        "å®¢åİħ",
        -1.0
      ],
      [
        "ĠÐłÐµÐ½",
        -1.0
      ],
      [
        "ĠkÄ±lÄ±f",
        -1.0
      ],
      [
        "ĠØ§ÙĦØ¨ÙĪØ²Ø¬Ø§ÙĨÙĬ",
        -1.0
      ],
      [
        "à¸Ķà¸Ļ",
        -1.0
      ],
      [
        "ĠØ§ÙĦÙħØŃÙĦ",
        -1.0
      ],
      [
        "Ġmsemaji",
        -1.0
      ],
      [
        "pumzi",
        -1.0
      ],
      [
        "à¹Ģà¸¥à¸Ĥà¸²à¸ĺ",
        -1.0
      ],
      [
        "ilebilir",
        -1.0
      ],
      [
        "æĦĪ",
        -1.0
      ],
      [
        "ĠÐ¿ÑĢÐ¸Ð·Ð½Ð°ÐºÐ¸",
        -1.0
      ],
      [
        "à¹Īà¸²à¹Ģà¸ĭ",
        -1.0
      ],
      [
        "åľ¨çĹĩçĬ¶æģ¶åĮĸä¹ĭåīį",
        -1.0
      ],
      [
        "Ġconstantly",
        -1.0
      ],
      [
        "ĠØªØŃØ±Ùĥ",
        -1.0
      ],
      [
        "ÐĹÐĲÐļÐĽÐ®Ð§ÐķÐĿÐĺÐķ",
        -1.0
      ],
      [
        "ĠÙĪÙĦØ¨",
        -1.0
      ],
      [
        "Ġwanatu",
        -1.0
      ],
      [
        "à¹īà¸Ĥà¸²à¸¢",
        -1.0
      ],
      [
        "à¸±à¸Ļà¹Ģà¸¢",
        -1.0
      ],
      [
        "Ð¾Ð±Ð°Ð»Ð´ÐµÐ²ÑĪÐµÐ¼Ñĥ",
        -1.0
      ],
      [
        "åİ»éĻ¤",
        -1.0
      ],
      [
        "ĠVanessa",
        -1.0
      ],
      [
        "à¸Ńà¹Ģà¸¥",
        -1.0
      ],
      [
        "à¸¡à¸¥à¸Ķà¹Ģà¸ª",
        -1.0
      ],
      [
        "Ġparagraf",
        -1.0
      ],
      [
        "à¸ĩà¸«à¸¡à¸Ķà¸ĸ",
        -1.0
      ],
      [
        "ĠÙħØªÙĥØ±Ø±",
        -1.0
      ],
      [
        "Ø³Ø§Ø¹Ø¯",
        -1.0
      ],
      [
        "à¹Īà¸§à¸Ļà¹ĥà¸Ļ",
        -1.0
      ],
      [
        "Ä±ldÄ±ÄŁÄ±",
        -1.0
      ],
      [
        "ĠguÃ©ri",
        -1.0
      ],
      [
        "ĠØ§ÙĦÙħØ±Ø§ÙĥØ¨",
        -1.0
      ],
      [
        "æķ´åĲĪ",
        -1.0
      ],
      [
        "Ġstand",
        -1.0
      ],
      [
        "à¤¾à¤µà¤¶",
        -1.0
      ],
      [
        "à¹ĥà¸Ļà¸§à¸ĩà¸ģà¸§",
        -1.0
      ],
      [
        "Ġjukumu",
        -1.0
      ],
      [
        "ÙĨÙĩÙĪØ¶",
        -1.0
      ],
      [
        "ĠbasladÄ±m",
        -1.0
      ],
      [
        "å°ĳå¥³åı£ä¸Ń",
        -1.0
      ],
      [
        "ĠØ«Ø±ÙĪØ©",
        -1.0
      ],
      [
        "-Tirmidhi",
        -1.0
      ],
      [
        "Dar",
        -1.0
      ],
      [
        "ĠPier",
        -1.0
      ],
      [
        "ĠMgimwa",
        -1.0
      ],
      [
        "Ġparagraph",
        -1.0
      ],
      [
        "ĠhaksÄ±z",
        -1.0
      ],
      [
        "ĠÐ¿Ð¸ÑģÐµÐ¼",
        -1.0
      ],
      [
        "ĠØªØªØ¯",
        -1.0
      ],
      [
        "ĠÙĪÙĪØµØ§ÙĬØ§",
        -1.0
      ],
      [
        "ĠsÃ¶v",
        -1.0
      ],
      [
        "Ø§Ø³ØªØ´Ø§Ø±Ø§Øª",
        -1.0
      ],
      [
        "ĠÐºÑĥÐ»ÑĮÑĤÑĥÑĢÐ½Ð¾",
        -1.0
      ],
      [
        "Ġcooler",
        -1.0
      ],
      [
        "Ġmahfili",
        -1.0
      ],
      [
        "ĠDOS",
        -1.0
      ],
      [
        "Ġalipowa",
        -1.0
      ],
      [
        "à¸´à¸¡à¸«",
        -1.0
      ],
      [
        "gÄ±mÄ±",
        -1.0
      ],
      [
        "ĠÐ³Ð¾ÑĢÐ¾Ð´ÑģÐºÐ¾Ð¹",
        -1.0
      ],
      [
        "ĠØ§ÙĦØ³ÙħØ¨ÙĪØ³Ùĥ",
        -1.0
      ],
      [
        "à¹Ĭà¸Īà¸°à¸Īà¸°",
        -1.0
      ],
      [
        "Ġà¸ľà¸¡à¸£",
        -1.0
      ],
      [
        "ĠÐ¡ÐµÐ½",
        -1.0
      ],
      [
        "udur",
        -1.0
      ],
      [
        "Ġadhimu",
        -1.0
      ],
      [
        "Takanoé£İæĻ¯è§ĦåĪĴ",
        -1.0
      ],
      [
        "Ġkeder",
        -1.0
      ],
      [
        "ĠØ§ÙĦÙħÙĨÙĤØ·Ø¹",
        -1.0
      ],
      [
        "à¸Ħà¸ĵà¸°à¸Ń",
        -1.0
      ],
      [
        "ÐºÑĨÐ¸Ñı",
        -1.0
      ],
      [
        "à¸±à¸ĩà¹Ħà¸ĩ",
        -1.0
      ],
      [
        "Ġproprietary",
        -1.0
      ],
      [
        "Âµcwiki",
        -1.0
      ],
      [
        "âĢĻaliments",
        -1.0
      ],
      [
        "ĠHayyan",
        -1.0
      ],
      [
        "ĠconsultÃ©es",
        -1.0
      ],
      [
        "Ġlikawa",
        -1.0
      ],
      [
        "ĠÐŁÐµÑĤÐµÑĢÐ±ÑĥÑĢÐ³",
        -1.0
      ],
      [
        "ĠØ§Ø¹ØªÙħØ§Ø¯Ø§",
        -1.0
      ],
      [
        "èĪīæĿ¯",
        -1.0
      ],
      [
        "ĠØ§ÙĦÙĤÙĨØ§Ø¹Ø©",
        -1.0
      ],
      [
        "ĠÙĪØ§ÙĦÙĤÙĦÙĤ",
        -1.0
      ],
      [
        "ĠJuifs",
        -1.0
      ],
      [
        "ĠBuy",
        -1.0
      ],
      [
        "à¸°à¸ĺ",
        -1.0
      ],
      [
        "ĠSandal",
        -1.0
      ],
      [
        "Ġwazungu",
        -1.0
      ],
      [
        "ĠÐĺÑģÑħÐ¾Ð´Ñı",
        -1.0
      ],
      [
        "ĠyerleÅŁmiÅŁ",
        -1.0
      ],
      [
        "ĠØ£ØŃØ¯Ø§",
        -1.0
      ],
      [
        "æ³¢å£«é¡¿",
        -1.0
      ],
      [
        "à¹Įà¹Ģà¸«à¸Ļ",
        -1.0
      ],
      [
        "tica",
        -1.0
      ],
      [
        "Ġmabasi",
        -1.0
      ],
      [
        "ĠrÃ©el",
        -1.0
      ],
      [
        ".à¸¢",
        -1.0
      ],
      [
        "ĠBro",
        -1.0
      ],
      [
        "ĠØ¥ÙĬØ¯ÙĬÙĨØ¬ØªÙĬÙĨ",
        -1.0
      ],
      [
        "ĠØ¨Ø£Ø³Ø¹Ø§Ø±",
        -1.0
      ],
      [
        "ĠÙĪØ§Ø³Ø¹Ø©",
        -1.0
      ],
      [
        "Ø®ÙĪÙĨ",
        -1.0
      ],
      [
        "ĠÙĦÙĦØ¬Ø¯ÙĦ",
        -1.0
      ],
      [
        "LT",
        -1.0
      ],
      [
        "åĳĨäºĨ",
        -1.0
      ],
      [
        "ĠÙĪØ¹Ø±Ø¶ÙĩØ§",
        -1.0
      ],
      [
        "ĠØ¬Ø§ÙĨ",
        -1.0
      ],
      [
        "ĠØ£Ø¨Ø¹Ø§Ø¯",
        -1.0
      ],
      [
        "ĠtestÃ©",
        -1.0
      ],
      [
        "ĠØŃØªÙĬ",
        -1.0
      ],
      [
        "à°¾à°§",
        -1.0
      ],
      [
        "Ġkuhusishwa",
        -1.0
      ],
      [
        "ĠKiafrika",
        -1.0
      ],
      [
        "Alleghany",
        -1.0
      ],
      [
        "Ġspontan",
        -1.0
      ],
      [
        "å¹²éĥ¨",
        -1.0
      ],
      [
        "Ġdaraja",
        -1.0
      ],
      [
        "Ġkufika",
        -1.0
      ],
      [
        "Ġlies",
        -1.0
      ],
      [
        "ĠPacific",
        -1.0
      ],
      [
        "à¸£à¸§à¸¡à¹Ħà¸Ľà¸ĸ",
        -1.0
      ],
      [
        "Ø¹Ø´",
        -1.0
      ],
      [
        "'excellence",
        -1.0
      ],
      [
        "ç²¾å½©",
        -1.0
      ],
      [
        "Previous",
        -1.0
      ],
      [
        "âĢľå¿«ä¹Ĳ",
        -1.0
      ],
      [
        "ĠÑģÐ¾Ð¾ÑĤÐ²ÐµÑĤÑģÑĤÐ²ÑĥÑİÑīÐ¸Ñħ",
        -1.0
      ],
      [
        "Ġodnoklassniki",
        -1.0
      ],
      [
        "Ġtropical",
        -1.0
      ],
      [
        "LARI",
        -1.0
      ],
      [
        "é¢Ħæµĭä¸ĭä¸Ģåľº",
        -1.0
      ],
      [
        "çīĩæ®µ",
        -1.0
      ],
      [
        "wezi",
        -1.0
      ],
      [
        "åĭĥæ´Ľåħĭ",
        -1.0
      ],
      [
        "ĠbinanÄ±n",
        -1.0
      ],
      [
        "ĠØŃÙĥÙĬÙħØ©",
        -1.0
      ],
      [
        "ĠÐ°Ð±ÑģÑĥÑĢÐ´",
        -1.0
      ],
      [
        "ĠÙĪÙħÙĦÙģØ§Øª",
        -1.0
      ],
      [
        "ĠØ±Ø¨ÙĬØ¹Ø©",
        -1.0
      ],
      [
        "Ġentertain",
        -1.0
      ],
      [
        "ĠÐ¡Ð±Ð¾ÑĢ",
        -1.0
      ],
      [
        "æĿĥäºĭåĬ¡å§Ķåĳĺä¼ļ",
        -1.0
      ],
      [
        "ĠustasÄ±",
        -1.0
      ],
      [
        "åĲ§æª¯",
        -1.0
      ],
      [
        "èĢĮéĿŀ",
        -1.0
      ],
      [
        "Ġclasse",
        -1.0
      ],
      [
        "Ġzilizokuwa",
        -1.0
      ],
      [
        "éĽ¶äºĮæ°§åĮĸç¢³æİĴæĶ¾",
        -1.0
      ],
      [
        "Ġkiongozi",
        -1.0
      ],
      [
        "ĠÐ¿Ð¾Ð¸ÑģÐºÐ¾Ð²",
        -1.0
      ],
      [
        "à°¾à°§à°ªà°¡",
        -1.0
      ],
      [
        "SUR",
        -1.0
      ],
      [
        "ĠÃ§alÄ±ÅŁÄ±n",
        -1.0
      ],
      [
        "à¥ĩà¤Łà¤ķ",
        -1.0
      ],
      [
        "à¹Īà¸ªà¸¡",
        -1.0
      ],
      [
        "éĺ²çĽĹ",
        -1.0
      ],
      [
        "ĠKÃ¶yÃ¼",
        -1.0
      ],
      [
        "è·Ŀç¦»Fridhemsplan",
        -1.0
      ],
      [
        "Mbinu",
        -1.0
      ],
      [
        "à¸Ļà¸ĩà¸²à¸Ļ",
        -1.0
      ],
      [
        "ĠØ§ÙĦØ£Ø¨ÙĨØ§Ø¡",
        -1.0
      ],
      [
        "Ø§ÙĦØ´Ø¹Ø¨",
        -1.0
      ],
      [
        "\"à°®",
        -1.0
      ],
      [
        "Ø¹ÙĦÙĪØ§",
        -1.0
      ],
      [
        "ĠÐ®ÑĢÐ¸Ð¹",
        -1.0
      ],
      [
        "æĤħè±ªç²¾åĵģæĹħé¤¨",
        -1.0
      ],
      [
        "ĠÐľÐ°Ð½",
        -1.0
      ],
      [
        "XOXO",
        -1.0
      ],
      [
        "à¸´à¸¡à¸ķ",
        -1.0
      ],
      [
        "à±įà°¤à°µ",
        -1.0
      ],
      [
        "ĠÑĤÑĥÑĢ",
        -1.0
      ],
      [
        "ĠÙģØªØ¹",
        -1.0
      ],
      [
        "Ġsehpa",
        -1.0
      ],
      [
        "Ġlung",
        -1.0
      ],
      [
        "Ġäºĭ",
        -1.0
      ],
      [
        "ÑĦÐ¾ÑĢÐ¼",
        -1.0
      ],
      [
        "ĠÙħØ¦Ø©",
        -1.0
      ],
      [
        "cons",
        -1.0
      ],
      [
        "ĠØ§ÙĦØ´ÙĪØ§Ø±Ø¹",
        -1.0
      ],
      [
        "Ø¨ÙĬØ³",
        -1.0
      ],
      [
        "ĠEntertainment",
        -1.0
      ],
      [
        "ĠÃ¼retimin",
        -1.0
      ],
      [
        "Ġchimbuko",
        -1.0
      ],
      [
        "ĠÐ²ÐºÐ»ÑİÑĩÐµÐ½Ð°",
        -1.0
      ],
      [
        "åĵĪåĵĪ",
        -1.0
      ],
      [
        "ĠdÃ©finies",
        -1.0
      ],
      [
        "æĥ³è¦ģéģ¿éĸĭ",
        -1.0
      ],
      [
        "æĭ±",
        -1.0
      ],
      [
        "ĠWanyamapori",
        -1.0
      ],
      [
        "Ġvia",
        -1.0
      ],
      [
        "ä½£äººä½ıçļĦ",
        -1.0
      ],
      [
        "âĢĻÃ©toffe",
        -1.0
      ],
      [
        "èªĩ",
        -1.0
      ],
      [
        "ĠÙĪØ§ÙĦÙģÙĪØ±Ø§ÙĨ",
        -1.0
      ],
      [
        "ãĢģè¨Īçķ«åįĢç·ĬéĦ°",
        -1.0
      ],
      [
        "ĠâĢ¢",
        -1.0
      ],
      [
        "à¹ĩà¸Ļà¹Ģà¸¢",
        -1.0
      ],
      [
        "ĠÙĪØ§ÙĦØ£Ø´Ø®Ø§Øµ",
        -1.0
      ],
      [
        "Yesterday",
        -1.0
      ],
      [
        "ela",
        -1.0
      ],
      [
        "éĢŁéĻįèħ³è¸ıè»Ĭ",
        -1.0
      ],
      [
        "ãĢĤè¯¥",
        -1.0
      ],
      [
        "à¹Ģà¸ªà¹Ģà¸ŀà¸¥",
        -1.0
      ],
      [
        "hmi",
        -1.0
      ],
      [
        "à±įà°§à°Ń",
        -1.0
      ],
      [
        "ĠsanÄ±lmaktadÄ±r",
        -1.0
      ],
      [
        "ĠkatÄ±lan",
        -1.0
      ],
      [
        "à¤¸à¤¬à¤¸",
        -1.0
      ],
      [
        "Ġà¹Ĥà¸Ĭà¸Ħà¸Ķ",
        -1.0
      ],
      [
        "ĠÐºÐ¾Ð»Ð»ÐµÐ´Ð¶",
        -1.0
      ],
      [
        "æĽ´ä½³",
        -1.0
      ],
      [
        "ĠÙĪØ¥Ø¨Ø¯Ø§Ø¡",
        -1.0
      ],
      [
        "æĸ¤è£ħçļĦ",
        -1.0
      ],
      [
        "à¸´à¸§à¹Ģà¸Ļ",
        -1.0
      ],
      [
        "ĠÐ½Ð°ÑģÑĤÐ°Ð»",
        -1.0
      ],
      [
        "ĠKate",
        -1.0
      ],
      [
        "ĠÐºÐ¾ÑĤ",
        -1.0
      ],
      [
        "ÑĢÐµÐ¹",
        -1.0
      ],
      [
        "à¸ŀà¸Īà¸Ļ",
        -1.0
      ],
      [
        "ãĢī",
        -1.0
      ],
      [
        "à¸ģà¹Ģà¸¥à¸¢",
        -1.0
      ],
      [
        "ĠÑĢÑĥÐºÐ°Ð¼Ð¸",
        -1.0
      ],
      [
        "Ġmaelezo",
        -1.0
      ],
      [
        "ĠÑģÐ¾Ð±Ð¾Ð»ÐµÐ·Ð½Ð¾Ð²Ð°Ð½Ð¸Ñı",
        -1.0
      ],
      [
        "å¥¥",
        -1.0
      ],
      [
        "Ð»ÐµÐ¹ÐºÐ¾ÑĨÐ¸ÑĤÐ¾Ð·",
        -1.0
      ],
      [
        "Ġfourteen",
        -1.0
      ],
      [
        "çļĦé£ŀè¡Įè½¨è¿¹",
        -1.0
      ],
      [
        "çļĦéĢ£èº«è£Ļ",
        -1.0
      ],
      [
        "ĠBelir",
        -1.0
      ],
      [
        "Ġkufuatana",
        -1.0
      ],
      [
        "Ġà°®à°£",
        -1.0
      ],
      [
        "æīĭåĬ¨è·³å¼ĢåıĳçĶµæľºåıĺåİĭåĻ¨ç»Ħé«ĺåİĭä¾§æĸŃè·¯åĻ¨",
        -1.0
      ],
      [
        "ĠStanley",
        -1.0
      ],
      [
        "agiza",
        -1.0
      ],
      [
        "kuwa",
        -1.0
      ],
      [
        "ÃĬ",
        -1.0
      ],
      [
        "ĠÑĥÐ±Ð¸Ð»",
        -1.0
      ],
      [
        "Ġhelpless",
        -1.0
      ],
      [
        "à¹Īà¸²à¸Ļà¸ªà¸²à¸¡à¸²à¸£à¸ĸà¸Ķ",
        -1.0
      ],
      [
        "ongamano",
        -1.0
      ],
      [
        "ĠsÃ¶ylÃ¼yorum",
        -1.0
      ],
      [
        "à¤¿à¤ķà¤²à¤ķà¤°",
        -1.0
      ],
      [
        "Ġavocat",
        -1.0
      ],
      [
        "è¡¨æĺİ",
        -1.0
      ],
      [
        "ç»ĻäºĪè¡ĮæĶ¿å¤ĦåĪĨ",
        -1.0
      ],
      [
        "à±ģà°°à°µ",
        -1.0
      ],
      [
        "ĠÙħÙĦØ²ÙħÙĬÙĨ",
        -1.0
      ],
      [
        "ĠÙĦØ¹Ø¨Ø¯",
        -1.0
      ],
      [
        "Ġavangard",
        -1.0
      ],
      [
        "Ø§ÙĤØªØ±Ø§ØŃ",
        -1.0
      ],
      [
        "eleze",
        -1.0
      ],
      [
        "Ġnonobstant",
        -1.0
      ],
      [
        "Ġmpenzi",
        -1.0
      ],
      [
        "å¦¥",
        -1.0
      ],
      [
        "å¢ľ",
        -1.0
      ],
      [
        "ĠØ¨Ø§ÙĦØ¬ÙĨØ³",
        -1.0
      ],
      [
        "ĠbÃ¶lgelere",
        -1.0
      ],
      [
        "Ġgenerous",
        -1.0
      ],
      [
        "ĠØ§ÙĦØ¨ÙĦØ¨ÙĬØ³ÙĬ",
        -1.0
      ],
      [
        "ÙıÙĤ",
        -1.0
      ],
      [
        "æ°¯åĮĸ",
        -1.0
      ],
      [
        "à°¸à°Ń",
        -1.0
      ],
      [
        "ĠÙĪØ§ÙĦÙħÙĦÙĥ",
        -1.0
      ],
      [
        "ÐµÑģ",
        -1.0
      ],
      [
        "fy",
        -1.0
      ],
      [
        "Ġkunguru",
        -1.0
      ],
      [
        "ĠÙĩÙħØ²Ø©",
        -1.0
      ],
      [
        "ĠÐ¿ÑĢÐµÐ¿Ð¾Ð´Ð°Ð²Ð°Ð½Ð¸Ñı",
        -1.0
      ],
      [
        "çļĦç¶ĵæ¿Ł",
        -1.0
      ],
      [
        "ï¼ĮçĽ´",
        -1.0
      ],
      [
        "ĠMajority",
        -1.0
      ],
      [
        "à¸łà¸²à¸¢à¸Ļà¸Ńà¸ģà¸«à¸£",
        -1.0
      ],
      [
        "RI",
        -1.0
      ],
      [
        "ĠprÃ©tend",
        -1.0
      ],
      [
        "ĠyÄ±kÄ±l",
        -1.0
      ],
      [
        "èĥ¡éĶ¦æ¶Ľ",
        -1.0
      ],
      [
        "ÐĺÐĺ",
        -1.0
      ],
      [
        "ĠÐ¾Ð±ÑīÐµÐ¶Ð¸ÑĤÐ¸Ñı",
        -1.0
      ],
      [
        "à¸´à¸ļà¸Ķ",
        -1.0
      ],
      [
        "à¥įà¤ļ",
        -1.0
      ],
      [
        "Ġautres",
        -1.0
      ],
      [
        "Ð³Ð½Ð°Ð»",
        -1.0
      ],
      [
        "ĠAskeri",
        -1.0
      ],
      [
        "ĠartÄ±rma",
        -1.0
      ],
      [
        "ĠØ«ÙĤØ§ÙģØ§Øª",
        -1.0
      ],
      [
        "ĠÐ±ÑĥÐ´ÑĥÑīÐµÐµ",
        -1.0
      ],
      [
        "ĠÙħÙħØ±Ø¶Ø©",
        -1.0
      ],
      [
        "ĠØ¨Ø¯ÙĨÙĬØ©",
        -1.0
      ],
      [
        "èĭĽ",
        -1.0
      ],
      [
        "ĠÃĩevik",
        -1.0
      ],
      [
        "ĠÐ»ÐµÐºÑģÐ¸",
        -1.0
      ],
      [
        "Ġseigneur",
        -1.0
      ],
      [
        "ĠÑģÑĩÐ°ÑģÑĤÐ»Ð¸Ð²ÑĭÐ¼Ð¸",
        -1.0
      ],
      [
        "ĠØ§ÙĦØªØµÙģÙĬÙĤ",
        -1.0
      ],
      [
        "Ġkullanan",
        -1.0
      ],
      [
        "ĠmystÃ¨re",
        -1.0
      ],
      [
        "à¹ĥà¸Ļà¸ķà¸³à¹ģà¸«à¸Ļ",
        -1.0
      ],
      [
        "ĠÐ¾ÑĤÐºÐ°Ð·Ð°Ð»Ð¸ÑģÑĮ",
        -1.0
      ],
      [
        "ĠÙģÙĥØ«ÙĬØ±",
        -1.0
      ],
      [
        "TEGEMEA",
        -1.0
      ],
      [
        "à¸¸à¸ĺà¸Ľ",
        -1.0
      ],
      [
        "Ð¾Ð²Ð°Ð»Ð°",
        -1.0
      ],
      [
        "ĠÐºÐ¾Ð¼Ð¼ÐµÐ½ÑĤÐ°ÑĢÐ¸ÐµÐ²",
        -1.0
      ],
      [
        "ox",
        -1.0
      ],
      [
        "ĠolabileceÄŁi",
        -1.0
      ],
      [
        "ĠistiyorsanÄ±z",
        -1.0
      ],
      [
        "Aya",
        -1.0
      ],
      [
        "Ø¶Ø§Ø¡",
        -1.0
      ],
      [
        "ĠihtiÅŁamlÄ±",
        -1.0
      ],
      [
        "ĠØŃØ±ÙħØªÙĩØ§",
        -1.0
      ],
      [
        "ÑīÐ¸ÐºÐ¾Ð²",
        -1.0
      ],
      [
        "çļĦæķĻèĤ²",
        -1.0
      ],
      [
        "ĠÙĦÙĦØªØºÙĬÙĬØ±",
        -1.0
      ],
      [
        "à±įà°£",
        -1.0
      ],
      [
        "éĺ²éĬ¹æĢ§èĥ½",
        -1.0
      ],
      [
        "Ġacceptance",
        -1.0
      ],
      [
        "ĠMÃ¼zisyenler",
        -1.0
      ],
      [
        "Ġcommonwealth",
        -1.0
      ],
      [
        "é£ŀè¡ĮåĮºçŃīçº§",
        -1.0
      ],
      [
        "ĠÐºÐ°ÑĦÐµÐ´ÑĢÑĭ",
        -1.0
      ],
      [
        "UyuÅŁturucu",
        -1.0
      ],
      [
        "ĠÙĬÙĤØªÙĦ",
        -1.0
      ],
      [
        "æ²ŁéĢļåĴĮäº¤å¾Ģåħ³ç³»æĬĢå·§",
        -1.0
      ],
      [
        "ĠÑĥÑģÐ»ÑĥÐ³Ð°Ð¼",
        -1.0
      ],
      [
        "ĠÙĪØªØ³Ø®ÙĬØ±",
        -1.0
      ],
      [
        "æĭĸçĿĢä¸Ģå¯¹",
        -1.0
      ],
      [
        "ä¸ĢçĽ´éĥ½",
        -1.0
      ],
      [
        "ĠCNS",
        -1.0
      ],
      [
        "Ġanormal",
        -1.0
      ],
      [
        "à¸±à¸Ļà¸£à¸°à¸«à¸§",
        -1.0
      ],
      [
        "ĠÐŁÐķÐłÐķÐĽÐŀÐľÐĲÐľÐĺ",
        -1.0
      ],
      [
        "æł·",
        -1.0
      ],
      [
        "ĠArludik",
        -1.0
      ],
      [
        "ĠÐ¿ÑĢÐ¸Ð´Ð°ÐµÑĤ",
        -1.0
      ],
      [
        "ombe",
        -1.0
      ],
      [
        "ĠØ§ÙĦØŃÙħØ±Ø§Ø¡",
        -1.0
      ],
      [
        "CUF",
        -1.0
      ],
      [
        "ĠÃ¶zdeÅŁ",
        -1.0
      ],
      [
        "ĠØ¯ÙĬÙģÙĬ",
        -1.0
      ],
      [
        "éĺ²æĬ¤",
        -1.0
      ],
      [
        "ÙĥÙĩØ§ÙĬÙħ",
        -1.0
      ],
      [
        "content",
        -1.0
      ],
      [
        "âĢĻhydrogÃ¨ne",
        -1.0
      ],
      [
        "ØªØ·ÙĪÙĬØ±",
        -1.0
      ],
      [
        "ĠDocumentation",
        -1.0
      ],
      [
        "Ġpink",
        -1.0
      ],
      [
        "ĠÐ±Ð¾Ð¼Ð±Ð°ÑĢÐ´Ð¸ÑĢÐ¾Ð²",
        -1.0
      ],
      [
        "ï¼Įä¿º",
        -1.0
      ],
      [
        "ĠÐŃÑĤ",
        -1.0
      ],
      [
        "ä¸ªå¤´",
        -1.0
      ],
      [
        "à¤¿à¤®à¤¨",
        -1.0
      ],
      [
        "ĠØ§ÙĦÙħÙĬØª",
        -1.0
      ],
      [
        "çĹħæĢ¥äºĤæĬķéĨ«çļĦ",
        -1.0
      ],
      [
        "ãĢĤä½łåı¯ä»¥",
        -1.0
      ],
      [
        "åĴĮä¹ĻåŀĭèĤĿçĤİ",
        -1.0
      ],
      [
        "Tegal",
        -1.0
      ],
      [
        "ĠSivas",
        -1.0
      ],
      [
        "ĠØ£ØµÙĬØ¨Ø¹Ø©",
        -1.0
      ],
      [
        "à¹ĩà¸Ļà¹ĥà¸Ļ",
        -1.0
      ],
      [
        "ĠÐºÐ¾ÑĢÐ½ÐµÐ¿Ð»Ð¾Ð´",
        -1.0
      ],
      [
        "ĠÐ¾ÑĤÑĤÐµÐ½ÐºÐ¾Ð²",
        -1.0
      ],
      [
        "ĠÙĪÙĤÙĬÙħØ©",
        -1.0
      ],
      [
        "æĻ¯è±¡",
        -1.0
      ],
      [
        "ĠØ§ÙĦØ¹ÙĨØ§ØµØ±",
        -1.0
      ],
      [
        "à¹ĩà¸Īà¸ŀà¸£à¸°à¸ļà¸£à¸¡à¹Ħà¸ķà¸£à¹Ĥà¸¥à¸ģà¸Ļà¸²à¸£à¸ĸ",
        -1.0
      ],
      [
        "iver",
        -1.0
      ],
      [
        "ĠinÅŁllh",
        -1.0
      ],
      [
        "Ġmix",
        -1.0
      ],
      [
        "å®¤å¤ĸæ³³æ±ł",
        -1.0
      ],
      [
        "Ġelewa",
        -1.0
      ],
      [
        "åį³æĹ¶",
        -1.0
      ],
      [
        "ĠÙĪØ³Ø·",
        -1.0
      ],
      [
        "à¸©",
        -1.0
      ],
      [
        "ĠØ§ÙĦØ§ÙħÙĪØ§ÙĦ",
        -1.0
      ],
      [
        "kubaliki",
        -1.0
      ],
      [
        "æĸ°åŃ¦",
        -1.0
      ],
      [
        "ĠbaktÄ±ÄŁÄ±mda",
        -1.0
      ],
      [
        "å°½æĶ¶çľ¼åºķ",
        -1.0
      ],
      [
        "Ġavukat",
        -1.0
      ],
      [
        "ĠØŃÙĬØ²",
        -1.0
      ],
      [
        "à¸ļà¸Ļà¸ĸà¸Ļà¸Ļ",
        -1.0
      ],
      [
        "ĠÐĿÑĥÐ¶Ð½Ð¾",
        -1.0
      ],
      [
        "åĤ³åĩº",
        -1.0
      ],
      [
        "Ġmaddelere",
        -1.0
      ],
      [
        "ĠeÅŁinin",
        -1.0
      ],
      [
        "å®ªæ³ķä¸įæĺ¯æĺİæĸĩè§Ħå®ļä¿¡ä»°èĩªçĶ±åĲĹ",
        -1.0
      ],
      [
        "ĠÑĦÑĢÐ°Ð½ÑĨÑĥÐ·ÑģÐºÐ¾Ð³Ð¾",
        -1.0
      ],
      [
        "à±§",
        -1.0
      ],
      [
        "ĠÙĪÙĤØªÙĥ",
        -1.0
      ],
      [
        "à¸±à¸¨à¸Ļà¸°à¸Ĺà¸²à¸ĩà¸ŀ",
        -1.0
      ],
      [
        "åıĥåĬłWOC",
        -1.0
      ],
      [
        "ĠÙħØ¢Ø±Ø¨",
        -1.0
      ],
      [
        "Ġà¤ħà¤µà¤ķ",
        -1.0
      ],
      [
        "ĠIrmaÄŁÄ±",
        -1.0
      ],
      [
        "Ġtrends",
        -1.0
      ],
      [
        "æĪĳæĬĬ",
        -1.0
      ],
      [
        "ĠØ¬Ø³Ø¯ÙĬØ©",
        -1.0
      ],
      [
        "ĠØ§Ø¯Ø¹Ø§Ø¡",
        -1.0
      ],
      [
        "ĠÙĪØ§Ø³ØªØ±",
        -1.0
      ],
      [
        "Ġsuffisante",
        -1.0
      ],
      [
        "à¹īà¸§à¸¢à¸Ħà¸§à¸²à¸¡à¸Īà¸³à¸¢à¸Ńà¸¡",
        -1.0
      ],
      [
        "ĠÐĺÐºÑģ",
        -1.0
      ],
      [
        "Ġkaunti",
        -1.0
      ],
      [
        "å¹´åĨħéĿ¢å¸Ĥ",
        -1.0
      ],
      [
        "ÙħØ¹ÙĬÙĨ",
        -1.0
      ],
      [
        "ĠÙħØŃØ³ÙĪØ¨",
        -1.0
      ],
      [
        "ĠÐ¸Ð½ÑĤÑĥÐ¸",
        -1.0
      ],
      [
        "ĠØ¸",
        -1.0
      ],
      [
        "Mungu",
        -1.0
      ],
      [
        "åŃ¦éĹ®",
        -1.0
      ],
      [
        "ĠPot",
        -1.0
      ],
      [
        "Ġpasif",
        -1.0
      ],
      [
        "ĠØ§ÙĦØµÙĬÙģÙĬØ©",
        -1.0
      ],
      [
        "-Ar",
        -1.0
      ],
      [
        "éĿĸæ·Ħæķ°åŃ¦ä¼ļ",
        -1.0
      ],
      [
        "ĠÑĥÐ´ÑĢÑĥÑĩ",
        -1.0
      ],
      [
        "çķľç¦½åħ»æ®ĸ",
        -1.0
      ],
      [
        "à¹ĩà¸Ļà¹Ģà¸ŀà¸¥à¸ĩ",
        -1.0
      ],
      [
        "Ġà¤Ĩà¤«",
        -1.0
      ],
      [
        "Ø¨Ø§ØŃ",
        -1.0
      ],
      [
        "osteoporoz",
        -1.0
      ],
      [
        "Ġquestion",
        -1.0
      ],
      [
        "ĠØŃØ¨ÙĬØ¨",
        -1.0
      ],
      [
        "Ð»Ð°Ð¹",
        -1.0
      ],
      [
        "æ½¤",
        -1.0
      ],
      [
        "èĵ¬",
        -1.0
      ],
      [
        "æľĪä¹ĿæĹ¥",
        -1.0
      ],
      [
        "ĠÐ½Ð¾Ð²Ð¾ÑģÑĤÐ¸",
        -1.0
      ],
      [
        "Brewer",
        -1.0
      ],
      [
        "ĠolduÄŁumu",
        -1.0
      ],
      [
        "ĠAgosti",
        -1.0
      ],
      [
        "Choisissez",
        -1.0
      ],
      [
        "éĢļå¸¸åľ¨",
        -1.0
      ],
      [
        "Ð¡ÐŁÐķÐļÐ¢",
        -1.0
      ],
      [
        "ĠMain",
        -1.0
      ],
      [
        "ĠÙĪØ¹Ø¸ÙħØ©",
        -1.0
      ],
      [
        "ÙĩØª",
        -1.0
      ],
      [
        "Ġruled",
        -1.0
      ],
      [
        "Ø£Ø±Ø§Ø¯",
        -1.0
      ],
      [
        "Ġfiqhi",
        -1.0
      ],
      [
        "ĠØ§ÙĦØ¥Ø¨ØªÙĥØ§Ø±ÙĬ",
        -1.0
      ],
      [
        "à¸´à¸ģà¸Ĥ",
        -1.0
      ],
      [
        "ĠAnnan",
        -1.0
      ],
      [
        "-bit",
        -1.0
      ],
      [
        "ĠetmiÅŁlerdir",
        -1.0
      ],
      [
        "ĠØ§ÙĦÙģØ¶ÙĬÙĦ",
        -1.0
      ],
      [
        "æµĳ",
        -1.0
      ],
      [
        "ÐºÑĥÑĢÑģ",
        -1.0
      ],
      [
        "ĠØ´Ø¨ÙĩØ©",
        -1.0
      ],
      [
        "æķĪæŀľ",
        -1.0
      ],
      [
        "Ġvitisho",
        -1.0
      ],
      [
        "çĻ¾åº¦",
        -1.0
      ],
      [
        "ĠyÃ¶neticileri",
        -1.0
      ],
      [
        "ĠcomÃ©dien",
        -1.0
      ],
      [
        "ĠmÃ¼mkÃ¼n",
        -1.0
      ],
      [
        "Ð»Ð¸ÑĩÐ½Ð¾",
        -1.0
      ],
      [
        "åĪĨæ³Į",
        -1.0
      ],
      [
        "Ġsooner",
        -1.0
      ],
      [
        "ahihayni",
        -1.0
      ],
      [
        "à¸±à¸Ļà¸Ķà¸²à¸Ļ",
        -1.0
      ],
      [
        "ä¸ĸçķĮåĲĦåľ°",
        -1.0
      ],
      [
        "à¸´à¸ģà¸²à¸£à¸Ļà¸§à¸Ķ",
        -1.0
      ],
      [
        "ĠTOU",
        -1.0
      ],
      [
        "Ð¸Ð»ÑĮÐ½Ð¾",
        -1.0
      ],
      [
        "ĠTopaz",
        -1.0
      ],
      [
        "ĠÙģØ§ÙĬØ¯ÙĦÙĬÙĨØº",
        -1.0
      ],
      [
        "...ØĮ",
        -1.0
      ],
      [
        "ĠÐ¿Ð¾ÑģÐ¿ÐµÑĪÐ½Ð¾",
        -1.0
      ],
      [
        "ĠETTÄ°ÄŀÄ°",
        -1.0
      ],
      [
        "ĠØ§ÙĦØ¥Ø¬Ø±Ø§Ø¡",
        -1.0
      ],
      [
        "ĠÙĨÙĪØ¹ÙĬØ§",
        -1.0
      ],
      [
        "à¸Ńà¸Ļà¸¢",
        -1.0
      ],
      [
        "à±Ĥ..Ċ",
        -1.0
      ],
      [
        "à¹īà¸ŀà¸¢à¸²à¸¢à¸²à¸¡",
        -1.0
      ],
      [
        "ĠStraÃŁe",
        -1.0
      ],
      [
        "à¸Ļà¸ŀà¸£à¸°à¸Ĭà¸Ļà¸¡",
        -1.0
      ],
      [
        "ĠØ§ÙĦØªØ±ÙĥÙĬ",
        -1.0
      ],
      [
        "à¹Īà¸²à¸ĩà¹Ĩà¹ĥà¸«",
        -1.0
      ],
      [
        "æīĢèĻķçļĦ",
        -1.0
      ],
      [
        "à¥ģà¤²à¤¤",
        -1.0
      ],
      [
        "Ã¼m",
        -1.0
      ],
      [
        "à¸·à¸Ńà¸ģà¸£à¸°à¸Ĺà¸ļà¸ĸ",
        -1.0
      ],
      [
        "à°¾à°ĺà°µà°ª",
        -1.0
      ],
      [
        "ĠÙĪÙħÙĤ",
        -1.0
      ],
      [
        "SoÄŁuk",
        -1.0
      ],
      [
        "ç¦½",
        -1.0
      ],
      [
        "ĠÐ½Ð°ÑģÐºÐ¾Ð»ÑĮÐºÐ¾",
        -1.0
      ],
      [
        "à¸Īà¸°à¹ģà¸ªà¸Ķà¸ĩ",
        -1.0
      ],
      [
        "Ð¡Ð²Ð¾Ð¸Ð¼",
        -1.0
      ],
      [
        "çĶµèĦĳå¾®æĻ¶çīĩ",
        -1.0
      ],
      [
        "(ç¬¬äºĮå±Ĥ",
        -1.0
      ],
      [
        "Ġbandana",
        -1.0
      ],
      [
        "ĠÐ²ÑĭÑģÐ¾ÑĤÑĭ",
        -1.0
      ],
      [
        "ä¸Ģæł·",
        -1.0
      ],
      [
        "|Businesses",
        -1.0
      ],
      [
        "RAZR",
        -1.0
      ],
      [
        "ĠKullanÄ±m",
        -1.0
      ],
      [
        "ĠØ¨Ø§ÙĦØ®ÙĦÙĤ",
        -1.0
      ],
      [
        "à±į/",
        -1.0
      ],
      [
        "isipokuwa",
        -1.0
      ],
      [
        "à±ģ''",
        -1.0
      ],
      [
        "ĠØ¨Ø§ÙĦÙĦÙĩ",
        -1.0
      ],
      [
        "è´¹å°ĶèĴĻ",
        -1.0
      ],
      [
        "à¸±à¸ķà¹Ĥà¸ķ",
        -1.0
      ],
      [
        "Åŀe",
        -1.0
      ],
      [
        "à¸·à¸Ńà¸Ļà¸¥",
        -1.0
      ],
      [
        ".I",
        -1.0
      ],
      [
        "ä½łèĩªå·±",
        -1.0
      ],
      [
        "ĠÐ¼ÑĥÐ¶Ðµ",
        -1.0
      ],
      [
        "ĠÐ¿ÑĢÐ¾ÑĤÐµÐºÐ°ÐµÑĤ",
        -1.0
      ],
      [
        "ĠØ§Ø¹ØªØ¨Ø±Øª",
        -1.0
      ],
      [
        "ĠnakÅŁed",
        -1.0
      ],
      [
        "Ġsoigne",
        -1.0
      ],
      [
        "Ġyontul",
        -1.0
      ],
      [
        "ĠÙĪØ§Ø³ØªØ®ÙģØ§Ùģ",
        -1.0
      ],
      [
        "ĠÐ¡Ðĳ",
        -1.0
      ],
      [
        "Ġteleskop",
        -1.0
      ],
      [
        "ÐļÐ¾Ð¼Ð¿Ð°Ð½Ð¸Ñı",
        -1.0
      ],
      [
        "ĠDiyabet",
        -1.0
      ],
      [
        "Ġgag",
        -1.0
      ],
      [
        "ĠÃ©changes",
        -1.0
      ],
      [
        "ĠØªÙĨØ´ÙĬØ·",
        -1.0
      ],
      [
        "ä¸įå¹³è¡¡",
        -1.0
      ],
      [
        "ĠØ§ÙĦØ±ØºØ¨Ø©",
        -1.0
      ],
      [
        "Hata",
        -1.0
      ],
      [
        "server",
        -1.0
      ],
      [
        "æĩīè©²",
        -1.0
      ],
      [
        "ĠyÃ¶netimine",
        -1.0
      ],
      [
        "ĠaÄŁzÄ±",
        -1.0
      ],
      [
        "ĠÙĪØ§Ø¬ÙĩØ©",
        -1.0
      ],
      [
        "ĠNah",
        -1.0
      ],
      [
        "ĠamitiÃ©",
        -1.0
      ],
      [
        "ØªÙĥÙĬÙĬÙģ",
        -1.0
      ],
      [
        "ĠÐºÐ¾Ð¼Ð½Ð°ÑĤÐ°Ñħ",
        -1.0
      ],
      [
        "ĠSÄ±ndÄ±rgÄ±",
        -1.0
      ],
      [
        "Ġwakicheza",
        -1.0
      ],
      [
        "æĪĳä»¬çļĦ",
        -1.0
      ],
      [
        "Ð¸Ð²Ð°ÐµÑĤÑģÑı",
        -1.0
      ],
      [
        "ĠØ¹ÙĦÙħÙĥ",
        -1.0
      ],
      [
        "ĠÑģÐ¾ÑĥÑģÐ¾Ð¼",
        -1.0
      ],
      [
        "ĠØ¥ÙĤÙĦÙĬØ¯Ø³",
        -1.0
      ],
      [
        "à±įà°¦à°®à°µ",
        -1.0
      ],
      [
        "æıŃéľ²",
        -1.0
      ],
      [
        "ĠÐ¼Ð¾Ð»Ð¸ÑĤÐ²",
        -1.0
      ],
      [
        "à¸´à¸Ķà¸ģà¸²à¸£à¸Ħ",
        -1.0
      ],
      [
        "à¸Ħà¸§à¸²à¸¡à¸ªà¸Ļà¹ĥà¸Ī",
        -1.0
      ],
      [
        "Ġmainly",
        -1.0
      ],
      [
        "ĠÐ²ÐºÑĥÑģÐ½Ð¾Ð¹",
        -1.0
      ],
      [
        "à¹ģà¸ŀà¸Ļà¹Ģà¸ĺà¸Ńà¸£",
        -1.0
      ],
      [
        "çģ¯åħī",
        -1.0
      ],
      [
        "ĠStrike",
        -1.0
      ],
      [
        "ĠÑģÑĥÑīÐµÑģÑĤÐ²ÑĥÑİÑīÐ¸Ñħ",
        -1.0
      ],
      [
        "ĠsituÃ©es",
        -1.0
      ],
      [
        "-sync",
        -1.0
      ],
      [
        "éļ¨èĳĹé«ĺæ½®æ¹§åĩº",
        -1.0
      ],
      [
        "åŃĲåħ¬åı¸åĳĪåł±",
        -1.0
      ],
      [
        "ndano",
        -1.0
      ],
      [
        "èĤĿèĦıä¸»åĬ¨èĦī",
        -1.0
      ],
      [
        "-Jarrah",
        -1.0
      ],
      [
        "ĠTesadÃ¼fen",
        -1.0
      ],
      [
        "ï¼Įè¿ĽèĢĮ",
        -1.0
      ],
      [
        "ĠÐ¼ÑĥÐ»ÑĮÑĤÐ¸",
        -1.0
      ],
      [
        "holz",
        -1.0
      ],
      [
        "åı¬å¼ĢçļĦ",
        -1.0
      ],
      [
        "ĠÐ¿Ð¾ÑĢÑıÐ´",
        -1.0
      ],
      [
        "ĠØ§ÙĦØ·ÙĬØ±Ø§ÙĨ",
        -1.0
      ],
      [
        "Ð¾ÑĩÐ½Ð¾Ð¹",
        -1.0
      ],
      [
        "Ø¬Ø²Ø¡",
        -1.0
      ],
      [
        "à¸´à¹Ģà¸Ń",
        -1.0
      ],
      [
        "åºĨç¥Ŀæ´»åĬ¨",
        -1.0
      ],
      [
        "ĠMTU",
        -1.0
      ],
      [
        "à°Ĥà°ķà°°à°®",
        -1.0
      ],
      [
        "ĠGUZEL",
        -1.0
      ],
      [
        "à¹īà¹Ħà¸Ľà¸Ńà¸²à¸£à¸²à¸ĺà¸Ļà¸²à¸ŀà¸£à¸°à¹Ĥà¸ŀà¸ĺ",
        -1.0
      ],
      [
        "éģµ",
        -1.0
      ],
      [
        "Ġvoient",
        -1.0
      ],
      [
        "à¹īà¸²à¸Ļà¸¡",
        -1.0
      ],
      [
        "ÙĳÙĦØ©",
        -1.0
      ],
      [
        "Ġrecruiting",
        -1.0
      ],
      [
        "ĠDile",
        -1.0
      ],
      [
        "ĠØ§ÙĦØ·ÙĬÙĨ",
        -1.0
      ],
      [
        "ĠÙĦÙĦÙħÙĪØ§Ø¯",
        -1.0
      ],
      [
        "à¸Ľà¸¥à¸Ķà¸Ľà¸¥",
        -1.0
      ],
      [
        "IMI",
        -1.0
      ],
      [
        "è·¯éĢıç¤¾",
        -1.0
      ],
      [
        "During",
        -1.0
      ],
      [
        "éĢĽ",
        -1.0
      ],
      [
        "åħĥçļĦ",
        -1.0
      ],
      [
        "Ġkanser",
        -1.0
      ],
      [
        "Ġdarshan",
        -1.0
      ],
      [
        "ĠÐ¿Ð¾ÑģÐ»ÐµÐ´ÑĥÐµÑĤ",
        -1.0
      ],
      [
        "ĠÐ¿ÑĢÐ¾ÑģÑĮÐ±Ð°",
        -1.0
      ],
      [
        "ĠØ§ÙĦØ²ÙĪØ¨Ø¹Ø©",
        -1.0
      ],
      [
        "ĠâĢĶ",
        -1.0
      ],
      [
        "jeshi",
        -1.0
      ],
      [
        "Ġprofil",
        -1.0
      ],
      [
        "Ð²ÑĪÑĥÑİ",
        -1.0
      ],
      [
        "hofia",
        -1.0
      ],
      [
        "à¸Īà¸°à¸Ľà¸ı",
        -1.0
      ],
      [
        "Ġbenzinli",
        -1.0
      ],
      [
        "Ġlightly",
        -1.0
      ],
      [
        "aslÄ±",
        -1.0
      ],
      [
        "ĠÙģØ±Ø¯ÙĬØ©",
        -1.0
      ],
      [
        "-Askari",
        -1.0
      ],
      [
        "åŁºç¡Ģä¸Ĭ",
        -1.0
      ],
      [
        "à¸±à¸Ļà¹Ģà¸ģ",
        -1.0
      ],
      [
        "Ġcheap",
        -1.0
      ],
      [
        "à¹īà¸²à¸ĩà¸Ī",
        -1.0
      ],
      [
        "à¹Įà¸ªà¸³à¸Ħ",
        -1.0
      ],
      [
        "ĠÙĦØ¶ÙħØ§ÙĨ",
        -1.0
      ],
      [
        "Ġà¤ĺà¤Łà¤¨",
        -1.0
      ],
      [
        "Ġà¤¹à¤Łà¤ķà¤°",
        -1.0
      ],
      [
        "/Madhok",
        -1.0
      ],
      [
        "-you",
        -1.0
      ],
      [
        "ÐŁÑĢÐ¾ÐµÐºÑĤ",
        -1.0
      ],
      [
        "ĠØ³ÙĨØªØ§ÙĨ",
        -1.0
      ],
      [
        "comb",
        -1.0
      ],
      [
        "ĠÙĨØµØ±ØªÙĩ",
        -1.0
      ],
      [
        "Ð½Ð°Ð¿ÑĢÐ¸Ð¼ÐµÑĢ",
        -1.0
      ],
      [
        "ĠDokunmatik",
        -1.0
      ],
      [
        "à¸Ńà¸Ńà¸ģà¹Ģà¸Ľ",
        -1.0
      ],
      [
        "David",
        -1.0
      ],
      [
        "å½±éŁ³",
        -1.0
      ],
      [
        "Ġkupungua",
        -1.0
      ],
      [
        "ococcus",
        -1.0
      ],
      [
        "ĠÑģÑĤÐ°Ð´Ð¸",
        -1.0
      ],
      [
        "ĠÐ¾Ð·Ð½Ð°ÐºÐ¾Ð¼Ð¸ÑĤÑĮÑģÑı",
        -1.0
      ],
      [
        "Ġkonusundaki",
        -1.0
      ],
      [
        "ĠUfeministi",
        -1.0
      ],
      [
        "ĠdÃ¶nmÃ¼ÅŁ",
        -1.0
      ],
      [
        "ĠosmanlÄ±",
        -1.0
      ],
      [
        "ĠReprÃ©sentant",
        -1.0
      ],
      [
        "ĠOccident",
        -1.0
      ],
      [
        "ĠÙģØªØ±Ùī",
        -1.0
      ],
      [
        "å¾ĹåĪ°æ»¿æĦıçļĦæľįåĭĻ",
        -1.0
      ],
      [
        "ĠÃ©volution",
        -1.0
      ],
      [
        "æĺ¯çļĦ",
        -1.0
      ],
      [
        "ĠÐ²ÑģÑĤÑĢÐ¾ÐµÐ½",
        -1.0
      ],
      [
        "Ġtutor",
        -1.0
      ],
      [
        "changanywa",
        -1.0
      ],
      [
        "Ġfeminism",
        -1.0
      ],
      [
        "çİ©éģİ",
        -1.0
      ],
      [
        "Ġetraf",
        -1.0
      ],
      [
        "ĠÐ¿Ð¾Ð»ÑĥÑĩÐ°Ð¹ÑĤÐµ",
        -1.0
      ],
      [
        "sometimes",
        -1.0
      ],
      [
        "âĢĻest",
        -1.0
      ],
      [
        "Ġà¤¯à¤¥",
        -1.0
      ],
      [
        "ĠKasi",
        -1.0
      ],
      [
        "Ġce",
        -1.0
      ],
      [
        "éĻĪåĨłå¸Įèī³çħ§",
        -1.0
      ],
      [
        "åįĩåĢ¼",
        -1.0
      ],
      [
        "çŃ¾åıĳæ¾³å¤§åĪ©äºļæĹħè¡Įè¯ģä»¶çļĦåĨ³å®ļ",
        -1.0
      ],
      [
        "ĠAbraham",
        -1.0
      ],
      [
        "Ġà¸ŀà¸£à¸°à¸£à¸²à¸Ĭà¸ŀ",
        -1.0
      ],
      [
        "ĠFCP",
        -1.0
      ],
      [
        "ĠÙģØªØ±Ùĥ",
        -1.0
      ],
      [
        "ĠÐ¼ÑĭÑĪÐ¸",
        -1.0
      ],
      [
        "Ġserotonin",
        -1.0
      ],
      [
        "ĠÙĪØ§ÙĨØªÙĩØ§Ø¡",
        -1.0
      ],
      [
        "Ð°Ð½Ð´Ðµ",
        -1.0
      ],
      [
        "Ġmisleading",
        -1.0
      ],
      [
        "Ð¢ÐĲ",
        -1.0
      ],
      [
        "à¹Īà¸§à¸¢à¸Ľà¸£à¸°à¸«à¸¢",
        -1.0
      ],
      [
        "à¸¥à¸²à¸Ķà¸ģà¸£à¸°à¸ļ",
        -1.0
      ],
      [
        "ĠHellenistik",
        -1.0
      ],
      [
        "à¸¡à¸«à¸²à¸ģà¸²à¸¬",
        -1.0
      ],
      [
        "ĠtransformÃ©e",
        -1.0
      ],
      [
        "ĠÙĤØªÙĬÙĦ",
        -1.0
      ],
      [
        "ØªØµÙĨÙĬÙģ",
        -1.0
      ],
      [
        "ĠÐ²Ð¾Ð·Ð½Ð°Ð³ÑĢÐ°Ð¶Ð´",
        -1.0
      ],
      [
        "çĽ¸å°į",
        -1.0
      ],
      [
        "ï¼ĪãĤ¢ãĥ",
        -1.0
      ],
      [
        "à¹Īà¸Ńà¸Ń",
        -1.0
      ],
      [
        "Ġintervient",
        -1.0
      ],
      [
        "ĠÐĵÑĢ",
        -1.0
      ],
      [
        "à¹Ĥà¸Ķà¸¡",
        -1.0
      ],
      [
        "Ġtuendelee",
        -1.0
      ],
      [
        "ĠAbdul",
        -1.0
      ],
      [
        "tmak",
        -1.0
      ],
      [
        "à¸ªà¸²à¸Ļ",
        -1.0
      ],
      [
        "bÃ¼yÃ¼me",
        -1.0
      ],
      [
        "Ø§ÙĨØªØ¸Ø§Ø±",
        -1.0
      ],
      [
        "å¯¹èĳĹ",
        -1.0
      ],
      [
        "à¹Īà¸²à¸§à¸§",
        -1.0
      ],
      [
        "Ġmonte",
        -1.0
      ],
      [
        "Ġvifungu",
        -1.0
      ],
      [
        "ĠÙĪÙĩÙĬØ¦Ø§Øª",
        -1.0
      ],
      [
        "å°ıèĤīèĬ½çļĦå¹¼å«©çļ®èĨļ",
        -1.0
      ],
      [
        "à°ĸà°®",
        -1.0
      ],
      [
        "ĠtÃ¼ket",
        -1.0
      ],
      [
        "ĠÙĦØ§ÙĨØªÙĤØ§Ø¡",
        -1.0
      ],
      [
        "ĠÑįÐ»ÐµÐ³Ð°Ð½ÑĤÐ½",
        -1.0
      ],
      [
        "Ġliberal",
        -1.0
      ],
      [
        "ĠÙħÙĩØ§Ø±Ø§Øª",
        -1.0
      ],
      [
        "BLA",
        -1.0
      ],
      [
        "èµ·åĪ°",
        -1.0
      ],
      [
        "æľīå¯¹ç«ĭæĦıè§ģ",
        -1.0
      ],
      [
        "à¥įà¤¸à¤Īà¤ıà¤¨",
        -1.0
      ],
      [
        "ĠTanrÄ±",
        -1.0
      ],
      [
        "ĠgÃ¶sterilmesi",
        -1.0
      ],
      [
        "ĠâĢºĊ",
        -1.0
      ],
      [
        "'Europe",
        -1.0
      ],
      [
        ",ÅŁimdi",
        -1.0
      ],
      [
        "ĠÙħØ¬ÙħÙĪØ¹",
        -1.0
      ],
      [
        "ÐĿÐĺÐķ",
        -1.0
      ],
      [
        "ãĢĲ",
        -1.0
      ],
      [
        "ĠØ®Ø·ÙĬØ©",
        -1.0
      ],
      [
        "ĠgÃ¶bek",
        -1.0
      ],
      [
        "èĨ¨èĥĢ",
        -1.0
      ],
      [
        "ĠÐ¾Ð±Ñĥ",
        -1.0
      ],
      [
        "Ġvole",
        -1.0
      ],
      [
        "ĠdÃ¼nyaca",
        -1.0
      ],
      [
        "ĠÙħØ¹Ø§Ø±Ø¶Ø§",
        -1.0
      ],
      [
        "Ġkuenea",
        -1.0
      ],
      [
        "ä¸įå¤ļ",
        -1.0
      ],
      [
        "ĠTitle",
        -1.0
      ],
      [
        "à°ħà°§",
        -1.0
      ],
      [
        "ĠbacaklarÄ±mÄ±",
        -1.0
      ],
      [
        "ĠFamous",
        -1.0
      ],
      [
        "-ch",
        -1.0
      ],
      [
        "ãĢģç»³ç´¢",
        -1.0
      ],
      [
        "ĠÐºÐ¾Ð»ÐµÑģ",
        -1.0
      ],
      [
        "ĠØ§ÙĦÙħÙĬÙĥØ§ÙĨÙĬÙĥÙĬØ©",
        -1.0
      ],
      [
        "ĠØ§ÙĦØ§ÙĤØ·Ø§Ø¨",
        -1.0
      ],
      [
        "èĻ½",
        -1.0
      ],
      [
        "ĠØŃÙĦØ©",
        -1.0
      ],
      [
        "à¹Īà¸²à¸§à¹Ģà¸ĵà¸£à¸Ħà¸³",
        -1.0
      ],
      [
        "your",
        -1.0
      ],
      [
        "ĠAA",
        -1.0
      ],
      [
        "ĠESPN",
        -1.0
      ],
      [
        "ĠÐºÐ°Ð±",
        -1.0
      ],
      [
        "Ġorigin",
        -1.0
      ],
      [
        "ĠÐ¼Ð°Ð³Ð¸ÑĩÐµÑģÐºÐ¸Ñħ",
        -1.0
      ],
      [
        "ĠÙĦØ´Ø®Øµ",
        -1.0
      ],
      [
        "tÃ¼m",
        -1.0
      ],
      [
        "à±ĭà°°à°ķ",
        -1.0
      ],
      [
        "à¹īà¸Ńà¸ĩà¹ģà¸ķ",
        -1.0
      ],
      [
        "ÑĨÐµ",
        -1.0
      ],
      [
        "ĠNone",
        -1.0
      ],
      [
        "ĠÙĥØ§ÙĦØ³",
        -1.0
      ],
      [
        "Ġà°ħà°¨à°Ĺ",
        -1.0
      ],
      [
        "Ġmuhusika",
        -1.0
      ],
      [
        "ĠtrophÃ©e",
        -1.0
      ],
      [
        "-Unis",
        -1.0
      ],
      [
        "ĠØ§ÙĦØ¥ÙĤÙĦÙĬÙħ",
        -1.0
      ],
      [
        "ĠBakÄ±m",
        -1.0
      ],
      [
        "å¾ģç¼´è´¹çĶ¨",
        -1.0
      ],
      [
        "à¸±à¸ĩà¸ģà¸²",
        -1.0
      ],
      [
        "à¹ģà¸®à¸Ľà¸Ľ",
        -1.0
      ],
      [
        "Ġmawe",
        -1.0
      ],
      [
        "ÐŁÐµÑĢÐ²Ð¾Ðµ",
        -1.0
      ],
      [
        "ĠÐ¡Ð¡Ðł",
        -1.0
      ],
      [
        "åĪ«æĹłéĢīæĭ©",
        -1.0
      ],
      [
        "moto",
        -1.0
      ],
      [
        "à¸µà¸ŀà¸Ĺ",
        -1.0
      ],
      [
        "pokuwa",
        -1.0
      ],
      [
        "Ġlean",
        -1.0
      ],
      [
        "ĠÐļÐ°",
        -1.0
      ],
      [
        "ĠÐ²ÑĭÑĤÐµÑĢÐ¿ÐµÑĤÑĮ",
        -1.0
      ],
      [
        "ĠRoumanie",
        -1.0
      ],
      [
        "è²Į",
        -1.0
      ],
      [
        "âĢĻchose",
        -1.0
      ],
      [
        "Ġà¸Ńà¸¢",
        -1.0
      ],
      [
        "ĠRating",
        -1.0
      ],
      [
        "æĪĳåĢĳåľ¨",
        -1.0
      ],
      [
        "ä¸īé¡¹",
        -1.0
      ],
      [
        "ÐŁÐ°ÑģÑħÐ°",
        -1.0
      ],
      [
        "Ġchanging",
        -1.0
      ],
      [
        "æ¦Ĥå¿µ",
        -1.0
      ],
      [
        "å¹³åı°",
        -1.0
      ],
      [
        "Lit",
        -1.0
      ],
      [
        "à¥ĩà¤ĸà¤¨",
        -1.0
      ],
      [
        "Ø§ÙĦÙħØ§ØºÙĨÙĬØ²ÙĬÙĪÙħ",
        -1.0
      ],
      [
        "ãĢģæ¸¯åįĹ",
        -1.0
      ],
      [
        "Su",
        -1.0
      ],
      [
        "ÙĦØ§ØŃØ¸",
        -1.0
      ],
      [
        "ĠÐ·Ð°ÑģÑĤ",
        -1.0
      ],
      [
        "ĠÐ·Ð°ÑĦÐ¸ÐºÑģ",
        -1.0
      ],
      [
        "ĠfaÅŁist",
        -1.0
      ],
      [
        "Ø³ØªØ¨Ø¹Ø§Ø¯",
        -1.0
      ],
      [
        "å¼Ĭ",
        -1.0
      ],
      [
        "æ³ķéĻ¢",
        -1.0
      ],
      [
        "degradation",
        -1.0
      ],
      [
        "ĠØ§ÙĦØ§Ø®ÙĬØ±",
        -1.0
      ],
      [
        "ĠÙĦÙĩØ¯Ùģ",
        -1.0
      ],
      [
        "ĠØ§ÙĦØºØ°Ø§Ø¦ÙĬ",
        -1.0
      ],
      [
        "ĠÐ½ÐµÐºÑĢ",
        -1.0
      ],
      [
        "âĢľæĽ²éĿ¢çī¹æĢ§",
        -1.0
      ],
      [
        "Ġkuripoti",
        -1.0
      ],
      [
        "Ġamepata",
        -1.0
      ],
      [
        "ĠSadece",
        -1.0
      ],
      [
        "è£½ä½ľäººçİĭçı®èı¯",
        -1.0
      ],
      [
        "à¸´à¸Īà¸²à¸Ħà¸Ĺ",
        -1.0
      ],
      [
        "æĹħè¡ĮæľŁéĹ´å°Ĩåı¯ä½¿çĶ¨",
        -1.0
      ],
      [
        "ĠØ§ÙĦØ¥Ø¹ÙĦØ§Ùħ",
        -1.0
      ],
      [
        "ĠØµÙĦØ¨",
        -1.0
      ],
      [
        "ĠÐ¢ÑĢÐ¸ÑĥÐ¼ÑĦ",
        -1.0
      ],
      [
        "ĠÙĬØŃØ§Ø³Ø¨",
        -1.0
      ],
      [
        "ĠÐ¸ÑģÑĤÐ¾ÑĩÐ½Ð¸ÐºÐ°",
        -1.0
      ],
      [
        "ĠRehberimiz",
        -1.0
      ],
      [
        "à°¿à°¨à°µà°ļ",
        -1.0
      ],
      [
        "second",
        -1.0
      ],
      [
        "æ¸¬",
        -1.0
      ],
      [
        "ĠÙĪØ§ÙĦØ§Ø´ÙĪØ±ÙĬ",
        -1.0
      ],
      [
        "ĠÙĪÙħÙĪØ¶ÙĪØ¹",
        -1.0
      ],
      [
        "ä¼Łå¤§çļĦ",
        -1.0
      ],
      [
        "ĠNchi",
        -1.0
      ],
      [
        "Ġace",
        -1.0
      ],
      [
        "ĠÐ±ÐµÐ·Ð¾Ð¿Ð°ÑģÐ½ÐµÐµ",
        -1.0
      ],
      [
        "ĠÙĪØ¥ØµØ§Ø¨Ø©",
        -1.0
      ],
      [
        "pendekezwa",
        -1.0
      ],
      [
        "Ø³Ø§ÙĦ",
        -1.0
      ],
      [
        "-autism",
        -1.0
      ],
      [
        "à¸Ķà¸²à¸£à¸²",
        -1.0
      ],
      [
        "à¸Ńà¸²à¸£à¸¢à¸ĺà¸£à¸£à¸¡",
        -1.0
      ],
      [
        "ĠMasaood",
        -1.0
      ],
      [
        "ĠdoÄŁar",
        -1.0
      ],
      [
        "Ġsigorta",
        -1.0
      ],
      [
        "ĠØªØ¹Ø§",
        -1.0
      ],
      [
        "ĠÐ¢ÑĢÑĥÐ´",
        -1.0
      ],
      [
        "ĠØ®ÙĬØ§ÙĦÙĬØ©",
        -1.0
      ],
      [
        "ĠÙĩÙħØ§",
        -1.0
      ],
      [
        "à¹Ģà¸Ĺà¸¨à¸ļà¸²à¸¥à¸ķà¸³à¸ļà¸¥",
        -1.0
      ],
      [
        "Ġbenimle",
        -1.0
      ],
      [
        "ĠÐ¿Ð¾ÑĤÐµÑĢÐµÐ¹",
        -1.0
      ],
      [
        "ĠMinnette",
        -1.0
      ],
      [
        "à¸¢à¸²à¸§à¸Ļà¸²à¸Ļà¸ģà¸§",
        -1.0
      ],
      [
        "à¹ĩà¸Ļà¹Ģà¸§à¸¥à¸²à¸Ĺ",
        -1.0
      ],
      [
        "æŀķéłŃ",
        -1.0
      ],
      [
        "ĠÑģÑĤÐ°Ð½Ð¾Ð²Ð¸ÑĤÑĮÑģÑı",
        -1.0
      ],
      [
        "SG",
        -1.0
      ],
      [
        "Ġjerricans",
        -1.0
      ],
      [
        "ĠÄ°zmit",
        -1.0
      ],
      [
        "Ġnauli",
        -1.0
      ],
      [
        "åĨħåµĮ",
        -1.0
      ],
      [
        "ĠWell",
        -1.0
      ],
      [
        "à¥įà¤£à¤¤",
        -1.0
      ],
      [
        "Ð¿ÑĢÐ¾Ð´ÑĥÐº",
        -1.0
      ],
      [
        "ĠÐĵÑĢÐ¾Ð·Ð½Ð¾Ð¼Ñĥ",
        -1.0
      ],
      [
        "ĠbientÃ´t",
        -1.0
      ],
      [
        "Ġrestoration",
        -1.0
      ],
      [
        "ĠÙĨØ¨ÙĬÙĨØ§",
        -1.0
      ],
      [
        "Ġcenturies",
        -1.0
      ],
      [
        "åľ¨é¡¯å¾®éı¡ä¸ĭ",
        -1.0
      ],
      [
        "ĠSimply",
        -1.0
      ],
      [
        "ĠØ§ÙĦÙħØºØ§ÙĦØ·Ø©",
        -1.0
      ],
      [
        "æ»¿çļĦ",
        -1.0
      ],
      [
        "ĠAbbas",
        -1.0
      ],
      [
        "ĠØ£Ø«ÙĨØ§Ø³ÙĬØ§",
        -1.0
      ],
      [
        "æĽ²çº¿",
        -1.0
      ],
      [
        "ĠÐ²ÑģÐµÐ¹",
        -1.0
      ],
      [
        "ĠÐŀÐ¢ÐĴÐķÐ¢Ð¡Ð¢ÐĴÐķÐĿÐĿÐŀÐ¡Ð¢",
        -1.0
      ],
      [
        "_ben",
        -1.0
      ],
      [
        "ĠKosova",
        -1.0
      ],
      [
        "ĠØ§ÙĦØªØ´Ø±ÙĬØ¹ÙĬ",
        -1.0
      ],
      [
        "ĠÐ³Ð»ÑİÐºÐ¾Ð·Ð¾",
        -1.0
      ],
      [
        "Mut",
        -1.0
      ],
      [
        "Ä±yorlar",
        -1.0
      ],
      [
        "à¸Ļà¸Ń",
        -1.0
      ],
      [
        "à¹Īà¸²à¸Ľ",
        -1.0
      ],
      [
        "ĠMÃľJDE",
        -1.0
      ],
      [
        "ĠCu",
        -1.0
      ],
      [
        "èĥĮéĥ¨",
        -1.0
      ],
      [
        "ĠÙĪÙħØµÙĨÙģØ§Øª",
        -1.0
      ],
      [
        "à¹ĥà¸Ļà¸¤à¸Ķ",
        -1.0
      ],
      [
        "ĠÑĤÐµÑĢÐ°Ð±Ð°Ð¹ÑĤÐ½ÑĭÐ¹",
        -1.0
      ],
      [
        "ĠÐ½ÐµÐ¾Ð´Ð½Ð¾ÐºÑĢÐ°ÑĤÐ½Ð¾",
        -1.0
      ],
      [
        "ĠØºØ§ÙĬØªÙĩØ§",
        -1.0
      ],
      [
        "è½¯",
        -1.0
      ],
      [
        "Ġcorbe",
        -1.0
      ],
      [
        "ä¸Ģæ¨£å±ķçı¾è¶ħäººæ°£",
        -1.0
      ],
      [
        "ma",
        -1.0
      ],
      [
        "ĠØªØ¯ÙĪÙĬØ±",
        -1.0
      ],
      [
        "à¹īà¸³à¸ĭ",
        -1.0
      ],
      [
        "ĠÐ½Ð°ÑĪÐµÐ¹",
        -1.0
      ],
      [
        "ĠØ§ÙĦØ´ÙģØªÙĬÙĨ",
        -1.0
      ],
      [
        "Ġfoodservice",
        -1.0
      ],
      [
        "à¤īà¤¸à¤¨",
        -1.0
      ],
      [
        "ĠØ§ÙĦØ¬ÙĨÙĪØ¨",
        -1.0
      ],
      [
        "Ġmtoa",
        -1.0
      ],
      [
        "ĠBlair",
        -1.0
      ],
      [
        "ÐµÑĩÐ½ÑĭÐµ",
        -1.0
      ],
      [
        "ĠÙĨØ§ÙĦ",
        -1.0
      ],
      [
        "æĴĴä½Ĩ",
        -1.0
      ],
      [
        "rusha",
        -1.0
      ],
      [
        "Mufazzal",
        -1.0
      ],
      [
        ")--",
        -1.0
      ],
      [
        "ĠÑĢÐ°ÑĨÐ¸Ð¾Ð½Ð°Ð»Ð¸Ð·Ð°ÑĤÐ¾ÑĢÑģÐºÐ¾Ðµ",
        -1.0
      ],
      [
        "à±Įà°·",
        -1.0
      ],
      [
        "åĩıè½»",
        -1.0
      ],
      [
        "ĠGÃ¼ndÃ¼z",
        -1.0
      ],
      [
        "ĠÑĥÐ´Ð¸Ð²Ð»ÐµÐ½Ñĭ",
        -1.0
      ],
      [
        "à¹Įà¸Ľà¸¥à¸²à¸¢à¸Ĺà¸²à¸ĩ",
        -1.0
      ],
      [
        "åįķèĸĦ",
        -1.0
      ],
      [
        "ĠÐŀÐĸÐ¡Ð¡",
        -1.0
      ],
      [
        "Ø³ÙĬ",
        -1.0
      ],
      [
        "à¹Ģà¸ŀà¸¥à¸ĩ",
        -1.0
      ],
      [
        "ĠÙĪØ£ÙĩÙĦÙĩØ§",
        -1.0
      ],
      [
        "ĠØªØ´Ø±ÙĬØ¹",
        -1.0
      ],
      [
        "ĠÙĬØªØ¬Ø±Ø£",
        -1.0
      ],
      [
        "ÐĴÐµÑĢÑģÐ¸Ñı",
        -1.0
      ],
      [
        "Ġà¤Ĩà¤¦à¤°à¤¸",
        -1.0
      ],
      [
        "æĬ¥å¤į",
        -1.0
      ],
      [
        "Ġeksi",
        -1.0
      ],
      [
        "Ø¥ÙĬÙħØ§ÙĨ",
        -1.0
      ],
      [
        "ĠWinter",
        -1.0
      ],
      [
        "ĠalÄ±nÄ±r",
        -1.0
      ],
      [
        "à±įà°®à°²à°¨",
        -1.0
      ],
      [
        "Ġseventy",
        -1.0
      ],
      [
        "ÑıÑīÑĥÑİ",
        -1.0
      ],
      [
        "ĠvÃ¼cudun",
        -1.0
      ],
      [
        "ĠÙĪØ¥ØŃØ±Ø§",
        -1.0
      ],
      [
        "à¸±à¸Łà¹Ģà¸§à¸Ńà¸£",
        -1.0
      ],
      [
        "ti",
        -1.0
      ],
      [
        "ĠyaratÄ±cÄ±",
        -1.0
      ],
      [
        "ÐºÐ¸Ð½",
        -1.0
      ],
      [
        "¢",
        -1.0
      ],
      [
        "ĠdÃ©cris",
        -1.0
      ],
      [
        "éĢļä¿¡",
        -1.0
      ],
      [
        "Ġseed",
        -1.0
      ],
      [
        "Ġyalio",
        -1.0
      ],
      [
        "Ġpromesses",
        -1.0
      ],
      [
        "ĠØ§ÙĦØŃØ§Ø±Ø«",
        -1.0
      ],
      [
        "kum",
        -1.0
      ],
      [
        "ï¼Įçľĭçľĭ",
        -1.0
      ],
      [
        "Ġkufi",
        -1.0
      ],
      [
        "Ø¢Ø®Ø±",
        -1.0
      ],
      [
        "æľĪèĩ³",
        -1.0
      ],
      [
        "ÐŀÐ±ÑģÑĥÐ´Ð¸ÑĤÑĮ",
        -1.0
      ],
      [
        "ĠCOMP",
        -1.0
      ],
      [
        "ĠexÃ©cuter",
        -1.0
      ],
      [
        "ĠTarime",
        -1.0
      ],
      [
        "à¹Įà¸Ľà¸£à¸°à¸ģà¸Ńà¸ļà¸Ĥà¸Ńà¸ĩ",
        -1.0
      ],
      [
        "ï¼ĮåĽłä¸ºä½ł",
        -1.0
      ],
      [
        "à¸¹à¸¥à¸ķ",
        -1.0
      ],
      [
        "åıįæĬĹ",
        -1.0
      ],
      [
        "Ø´Ø§ÙĩØ¯",
        -1.0
      ],
      [
        "ĠDB",
        -1.0
      ],
      [
        "ĠNeuroanatomy",
        -1.0
      ],
      [
        "ReÃ§ete",
        -1.0
      ],
      [
        "ĠÑįÐ³Ð¸Ð´Ð¾Ð¹",
        -1.0
      ],
      [
        "ĠØ§ÙĦØ¹ØµØ¨",
        -1.0
      ],
      [
        "ĠDPC",
        -1.0
      ],
      [
        "éįĽç·´",
        -1.0
      ],
      [
        "Ġtribes",
        -1.0
      ],
      [
        "|Idadi",
        -1.0
      ],
      [
        "à¹ĩà¸Ļà¸Ħà¸³à¸ª",
        -1.0
      ],
      [
        "ĠÑģÐ¼Ð¾Ð¶ÐµÐ¼",
        -1.0
      ],
      [
        "à¸´à¸Ļà¸Ĺ",
        -1.0
      ],
      [
        "ĠØªØ¹ÙĤÙĬØ¯Ø§",
        -1.0
      ],
      [
        "å¯¹èī¾æ»ĭçĹħæ¯ĴçļĦæĦıè¯Ĩ",
        -1.0
      ],
      [
        "usembislamabad",
        -1.0
      ],
      [
        "à±Ģà°¤",
        -1.0
      ],
      [
        "Ġà¸Ĺà¸²à¸ĩà¸Ĺ",
        -1.0
      ],
      [
        "ĠØ§ÙĦÙħØ¨Ø°ÙĪÙĦØ©",
        -1.0
      ],
      [
        "à°¿à°Ĳ",
        -1.0
      ],
      [
        "åĮ»åŃ¦",
        -1.0
      ],
      [
        "ĠÑıÐ²Ð»ÑıÐµÑĤÐµÑģÑĮ",
        -1.0
      ],
      [
        "æ¯ıä¸ªäºº",
        -1.0
      ],
      [
        "ï¼ĮæĮĩåĩº",
        -1.0
      ],
      [
        "ĠÑģÐ¼ÑĥÑī",
        -1.0
      ],
      [
        "à¸¥à¸°à¸¡",
        -1.0
      ],
      [
        "à¹Įà¹ģà¸§à¸£",
        -1.0
      ],
      [
        "ĠHang",
        -1.0
      ],
      [
        "Ġpassa",
        -1.0
      ],
      [
        "ĠØ§ÙĦØªÙĤÙĬÙĬØ¯",
        -1.0
      ],
      [
        "ĠØ§ÙĦÙģÙĦØ§ÙĨÙĬØ©",
        -1.0
      ],
      [
        "Ã©tiques",
        -1.0
      ],
      [
        "ĠÙħÙĬØ¯Ø§ÙĨÙĬØ§",
        -1.0
      ],
      [
        "æ¥Ńç¸¾",
        -1.0
      ],
      [
        "ĠÙĪØ®Ø§",
        -1.0
      ],
      [
        "Ø°Ø§ÙĥØ±Ø©",
        -1.0
      ],
      [
        "ï¼ĮæĻĤèĢĮ",
        -1.0
      ],
      [
        "à¹Ģà¸ĭà¸¥à¸¥",
        -1.0
      ],
      [
        "ĠArce",
        -1.0
      ],
      [
        "à¸ģà¸£à¸°à¸Ĺà¸£à¸§à¸ĩà¸§",
        -1.0
      ],
      [
        "Ġiklim",
        -1.0
      ],
      [
        "Ġweigh",
        -1.0
      ],
      [
        "ĠÙĦÙĦØ£ÙĦ",
        -1.0
      ],
      [
        "-Ø§ÙĦØª",
        -1.0
      ],
      [
        "ĠÙĤØªÙĦØ©",
        -1.0
      ],
      [
        "Ġcontrairement",
        -1.0
      ],
      [
        "ĠÙĦÙĨÙĤÙĦ",
        -1.0
      ],
      [
        "à°¿à°Ĺà°¤",
        -1.0
      ],
      [
        "ï¼ĮæĪĳè¦ģ",
        -1.0
      ],
      [
        "ç¬¬ä¸Ģæ¬¡",
        -1.0
      ],
      [
        "ĠØ§ÙĦÙħØ¶ÙĬ",
        -1.0
      ],
      [
        "à¸ľà¸§à¸²",
        -1.0
      ],
      [
        "ĠØ§ÙĦÙħØ¬ØªÙĩØ¯",
        -1.0
      ],
      [
        "ĠØ³ÙĬØ¦Ø§",
        -1.0
      ],
      [
        "Ġboyutta",
        -1.0
      ],
      [
        "Ð¼ÐµÐ´",
        -1.0
      ],
      [
        "ĠÐ¿ÐµÑĢÐµÐ²Ð¾Ð´",
        -1.0
      ],
      [
        "çļĦè¡ĢæīĢç«ĭçļĦæĸ°çº¦",
        -1.0
      ],
      [
        "éĽ¢",
        -1.0
      ],
      [
        "ĠSpring",
        -1.0
      ],
      [
        "Ġrenforce",
        -1.0
      ],
      [
        "ĠÐ½Ð°ÐºÐ¾Ð½ÐµÑĨ",
        -1.0
      ],
      [
        "Ġtransformation",
        -1.0
      ],
      [
        "Ġlose",
        -1.0
      ],
      [
        "Ġenvanter",
        -1.0
      ],
      [
        "ï¼Įå¥½åĥı",
        -1.0
      ],
      [
        "à±Ģà°µà°¨à°¶",
        -1.0
      ],
      [
        "Ġtoplamak",
        -1.0
      ],
      [
        "ĠÐ·Ð½Ð°Ñı",
        -1.0
      ],
      [
        "ĠÑĪÐµÑģÑĤÑĮÐ´ÐµÑģÑıÑĤ",
        -1.0
      ],
      [
        "ĠÐ¼Ð¸ÑĢÐ¾Ð²Ð¾Ð·Ð·ÑĢÐµÐ½Ð¸Ðµ",
        -1.0
      ],
      [
        "ĠbÃ¶yledir",
        -1.0
      ],
      [
        "Ø§Ø·ÙĬÙĨ",
        -1.0
      ],
      [
        "ĠÙģØ¦Ø©",
        -1.0
      ],
      [
        "ĠØ§ÙĦØŃÙĥÙħ",
        -1.0
      ],
      [
        "æĬĹé«ĶçļĦçĶ¢çĶŁ",
        -1.0
      ],
      [
        "ĠolmadÄ±ÄŁÄ±ndan",
        -1.0
      ],
      [
        "Ġsurprising",
        -1.0
      ],
      [
        "ĠÑĢÐ°Ð·Ð¼ÐµÑīÐµÐ½Ð¸Ñı",
        -1.0
      ],
      [
        "å®ľ",
        -1.0
      ],
      [
        "ĠÙħØ³ÙħÙī",
        -1.0
      ],
      [
        "à¸łà¸²à¸¢à¸Ļà¸Ńà¸ģ",
        -1.0
      ],
      [
        "æ¯Ľæ³½ä¸ľ",
        -1.0
      ],
      [
        "Ġalive",
        -1.0
      ],
      [
        "ĠCommission",
        -1.0
      ],
      [
        "åıĳçİ°åħ·æľīçĸ¾çĹħæĹ©æľŁçĹĩçĬ¶èĢħ",
        -1.0
      ],
      [
        "ĠdÃ©livrance",
        -1.0
      ],
      [
        "ĠrÃ©ception",
        -1.0
      ],
      [
        "ĠrakÄ±",
        -1.0
      ],
      [
        "ĠyanÄ±lgÄ±sÄ±",
        -1.0
      ],
      [
        "ĠCap",
        -1.0
      ],
      [
        "èĲ¥åħ»",
        -1.0
      ],
      [
        "ĠÐ²Ð·ÑıÑĤ",
        -1.0
      ],
      [
        "ĠPreservation",
        -1.0
      ],
      [
        "ĠÐ¸ÑģÐ¿Ð¾Ð»ÑĮÐ·ÑĥÑİÑĤÑģÑı",
        -1.0
      ],
      [
        "Ġolmak",
        -1.0
      ],
      [
        "à¥Ģà¤ķà¤°à¤£",
        -1.0
      ],
      [
        "à¸´à¸Ķà¸ģà¸¥",
        -1.0
      ],
      [
        "ĠØ£ÙĨØ¸ÙħØ©",
        -1.0
      ],
      [
        "-mail",
        -1.0
      ],
      [
        "ĠKnights",
        -1.0
      ],
      [
        "hili",
        -1.0
      ],
      [
        "Ġintestinal",
        -1.0
      ],
      [
        "èĩªç§°",
        -1.0
      ],
      [
        "Ġyote",
        -1.0
      ],
      [
        "ĠØ§ÙĦÙģÙĦÙĤ",
        -1.0
      ],
      [
        "î",
        -1.0
      ],
      [
        "Ġà¸łà¸²à¸Ħ",
        -1.0
      ],
      [
        "ĠYÃĸNETÄ°MÄ°",
        -1.0
      ],
      [
        "ĠÐĲÐ³Ð°ÑĤÐ°Ð½Ð³ÐµÐ»Ð¾Ñģ",
        -1.0
      ],
      [
        "Ø°ÙĩØ§",
        -1.0
      ],
      [
        "jar",
        -1.0
      ],
      [
        "Ð¼",
        -1.0
      ],
      [
        "Ġuhusiano",
        -1.0
      ],
      [
        "ĠÑģÐµÑĢÐ²Ð°Ð½ÑĤÐ¾Ð²",
        -1.0
      ],
      [
        "Os",
        -1.0
      ],
      [
        "ĠAina",
        -1.0
      ],
      [
        "ĠÐľÑĥÑĪÐºÐ¸Ð½",
        -1.0
      ],
      [
        "ÑıÑĤ",
        -1.0
      ],
      [
        "stle",
        -1.0
      ],
      [
        "ĠÐļÐ°Ð²ÐºÐ°Ð·",
        -1.0
      ],
      [
        "Ġaccorde",
        -1.0
      ],
      [
        "ĠPeygamber",
        -1.0
      ],
      [
        "éĩĳé¡¹éĵ¾",
        -1.0
      ],
      [
        "ĠÙĦØªÙģØ±ÙĬØº",
        -1.0
      ],
      [
        "ĠÙĥØªØ¨Ø§",
        -1.0
      ],
      [
        "Ġcro",
        -1.0
      ],
      [
        "Ġtasin",
        -1.0
      ],
      [
        "ĠÐ¿ÑĥÑĩÐºÐ¾Ð²",
        -1.0
      ],
      [
        "à¸¢à¸²à¸ĩà¸ŀà¸²à¸£à¸²",
        -1.0
      ],
      [
        "à¹īà¸ķà¸£à¸ĩà¸ģ",
        -1.0
      ],
      [
        "ÙĤØ·Ø¹",
        -1.0
      ],
      [
        "ĠÙĪÙħØ¯ÙĬØ±",
        -1.0
      ],
      [
        "å¾¹åºķ",
        -1.0
      ],
      [
        "ĠØ§ÙĦØ¹ÙĪØ¯",
        -1.0
      ],
      [
        "ĠØ£ØºÙĦØ¨ÙĬØ©",
        -1.0
      ],
      [
        "à¸±à¸ģà¸¡à¸²à¸ģà¸ģà¸§",
        -1.0
      ],
      [
        "Ġdurumu",
        -1.0
      ],
      [
        "à¹Īà¸«à¸¡à¸Ķ",
        -1.0
      ],
      [
        "ĠÑĢÐ°Ð·ÑĢÐ°Ð±Ð¾ÑĤ",
        -1.0
      ],
      [
        "prising",
        -1.0
      ],
      [
        "à¸ªà¸²à¸£à¸Ľà¸£à¸°à¸ģà¸Ńà¸ļà¹Ħà¸®à¹Ĥà¸Ķà¸£à¹Ģà¸Ľà¸Ńà¸£",
        -1.0
      ],
      [
        "spi",
        -1.0
      ],
      [
        "æĭīæī¯",
        -1.0
      ],
      [
        "ĠÐ¿Ð¾Ð²Ð¾ÑĢÐ°ÑĩÐ¸Ð²Ð°ÑĤÑĮ",
        -1.0
      ],
      [
        "ãĢĤåĲĮæĻĤ",
        -1.0
      ],
      [
        "Kitu",
        -1.0
      ],
      [
        "ĠOeuvre",
        -1.0
      ],
      [
        "ÙħØ³ØªØ´ÙģÙī",
        -1.0
      ],
      [
        "à¸ŀà¸£à¸°à¸Ļà¸²à¸¡",
        -1.0
      ],
      [
        "ĠÙħÙĦÙĦ",
        -1.0
      ],
      [
        "Ġkuwalinda",
        -1.0
      ],
      [
        "Ed",
        -1.0
      ],
      [
        "à¹Įà¸Ńà¸¢",
        -1.0
      ],
      [
        "ä¹ŁçĦ¡æ³ķ",
        -1.0
      ],
      [
        "ĠÐ¼Ð½Ð¾Ð³Ð¾Ð»ÐµÑĤ",
        -1.0
      ],
      [
        "ç¶²è·¯å®īåħ¨éģĶäººæľĥå®¢å®¤",
        -1.0
      ],
      [
        "ĠÃ©lÃ¨ve",
        -1.0
      ],
      [
        "à¸«à¸¡",
        -1.0
      ],
      [
        "ĠÐºÑĢÐ°ÑģÐ¸ÑĤÐµÐ»ÑĮ",
        -1.0
      ],
      [
        "åĲīæĻ®å£«",
        -1.0
      ],
      [
        "ĠÙĦØŃØ¯ÙĬØ«",
        -1.0
      ],
      [
        "å¯¿åĳ½",
        -1.0
      ],
      [
        "Ġzielekezwe",
        -1.0
      ],
      [
        "lÄ±ÄŁÄ±",
        -1.0
      ],
      [
        "çļĦåĬĽ",
        -1.0
      ],
      [
        "Ġmelt",
        -1.0
      ],
      [
        "ĠÐ¿ÑĢÐ¾Ð´ÑĥÐ±Ð»Ð¸ÑĢÐ¾Ð²Ð°ÑĤÑĮ",
        -1.0
      ],
      [
        "Ġindirebilirsiniz",
        -1.0
      ],
      [
        "ĠØ¯ÙĩØ´",
        -1.0
      ],
      [
        "ĠÑħÐ¾Ð·ÑıÐ¹",
        -1.0
      ],
      [
        "ĠåĬĩ",
        -1.0
      ],
      [
        "ĠÐľÐµÐ¶ÐºÐ»ÐµÑĤÐ¾ÑĩÐ½Ð¾Ðµ",
        -1.0
      ],
      [
        "ĠÙĬÙģØªØ±Ø¶",
        -1.0
      ],
      [
        "ĠÙĪØªØ£ØªÙĬ",
        -1.0
      ],
      [
        "ĠÐ¼Ð°ÑģÑģÐ°Ð¶",
        -1.0
      ],
      [
        "à°¿.(",
        -1.0
      ],
      [
        "à¸µà¸£à¸ķ",
        -1.0
      ],
      [
        "à°Ĥà°ĺà°Ł",
        -1.0
      ],
      [
        "à¸ĸà¸²",
        -1.0
      ],
      [
        "ãĢģçĶŁæ´»",
        -1.0
      ],
      [
        "ĠÙĦÙĨØµ",
        -1.0
      ],
      [
        "Ø§ÙĦØ£ÙĪØ±ÙĪØ¨ÙĬ",
        -1.0
      ],
      [
        "çļĦéĩįè¦ģåĨħå®¹",
        -1.0
      ],
      [
        "ĠSengaloun",
        -1.0
      ],
      [
        "à°¾à°¸à°¨à°®",
        -1.0
      ],
      [
        "à¸Ńà¸ĩà¹Ģà¸Ĺ",
        -1.0
      ],
      [
        "ĠspÃ©cialisÃ©",
        -1.0
      ],
      [
        "Ġà¸ĩà¸²à¸Ļà¸Ļ",
        -1.0
      ],
      [
        "ĠMon",
        -1.0
      ],
      [
        "Ġziweze",
        -1.0
      ],
      [
        "ç»Ļå¥¹",
        -1.0
      ],
      [
        "à¹īà¸Ħà¸Ļà¸Ĺ",
        -1.0
      ],
      [
        "åı£å¤´",
        -1.0
      ],
      [
        "TÃ©moignage",
        -1.0
      ],
      [
        "ĠÙĬÙĨØ³Ùī",
        -1.0
      ],
      [
        "à¸µà¸¢à¸§à¹ģà¸¥",
        -1.0
      ],
      [
        "åıĳæĶ¹å§Ķ",
        -1.0
      ],
      [
        "ĠÐ¿ÑĢÐµÐ´Ð»Ð°Ð³Ð°ÑĤÑĮ",
        -1.0
      ],
      [
        "Ġà¹ģà¸¥à¸°à¸ªà¸Ļ",
        -1.0
      ],
      [
        "Ø§ÙħØ¯",
        -1.0
      ],
      [
        "Ġnyekundu",
        -1.0
      ],
      [
        "GerÃ§ek",
        -1.0
      ],
      [
        "ĠNirvana",
        -1.0
      ],
      [
        "ĠÐļÐ°ÐºÐ¸Ðµ",
        -1.0
      ],
      [
        "ĠÑģÐ¾Ð²Ð¾ÐºÑĥÐ¿Ð½Ð¾ÑģÑĤÑĮ",
        -1.0
      ],
      [
        "Ġenzymes",
        -1.0
      ],
      [
        "ç¥ŀç¶ĵ",
        -1.0
      ],
      [
        "ĠZiraat",
        -1.0
      ],
      [
        "è¤²",
        -1.0
      ],
      [
        "ĠÐ¿ÐµÑĢÐ²Ð¸ÑĩÐ½Ð¾Ð¹",
        -1.0
      ],
      [
        "åħ¬ä½Ī",
        -1.0
      ],
      [
        "ĠØ§ÙĦØªØ¶Ø§ÙħÙĨ",
        -1.0
      ],
      [
        "ĠÐ¿ÑĢÐµÐ´Ð¼ÐµÑĤ",
        -1.0
      ],
      [
        "store",
        -1.0
      ],
      [
        "ĠØ¹ÙĨÙĤÙĩ",
        -1.0
      ],
      [
        "Ġprecursor",
        -1.0
      ],
      [
        "à¹īà¸§à¸ľ",
        -1.0
      ],
      [
        "ĠÐ½Ð°ÐºÑĢÑĭÑĤÑĮ",
        -1.0
      ],
      [
        "ĠHana",
        -1.0
      ],
      [
        "æľĥè¢«çľĭè¦ĭçļĦ",
        -1.0
      ],
      [
        "ĠØ¹Ø±ÙģØªÙĩØ§",
        -1.0
      ],
      [
        "Ġdrawn",
        -1.0
      ],
      [
        "ĠÐłÐ°Ð±Ð¾ÑĤÐ°",
        -1.0
      ],
      [
        "ĠÙª",
        -1.0
      ],
      [
        "ĠØ£ÙĪÙĦÙĩÙħØ§",
        -1.0
      ],
      [
        "Ð·",
        -1.0
      ],
      [
        "ĠÙ±Ø³",
        -1.0
      ],
      [
        "Ġprocurant",
        -1.0
      ],
      [
        "Git",
        -1.0
      ],
      [
        "ĠniÃ§in",
        -1.0
      ],
      [
        "Ð¼Ð¾Ð½Ð°",
        -1.0
      ],
      [
        "Ù",
        -1.0
      ],
      [
        "Ġbra",
        -1.0
      ],
      [
        "Ġsabret",
        -1.0
      ],
      [
        "çĽ¡æĥħåľ°äº«åıĹ",
        -1.0
      ],
      [
        "à¹īà¸§à¸¢à¸ªà¸²à¸£",
        -1.0
      ],
      [
        "ĠMladenov",
        -1.0
      ],
      [
        "ĠUSB",
        -1.0
      ],
      [
        "à¹ĩà¸Ļà¸Īà¸£",
        -1.0
      ],
      [
        "Ġregime",
        -1.0
      ],
      [
        "ĠÐ´Ð¾Ð¶Ð´Ð°ÑĤÑĮÑģÑı",
        -1.0
      ],
      [
        "ĠKÃ¼rdistan",
        -1.0
      ],
      [
        "ĠÐ½Ð°ÑģÑĤÐµÐ½Ð½ÑĭÐµ",
        -1.0
      ],
      [
        "ĠGoTab",
        -1.0
      ],
      [
        "ĠLagos",
        -1.0
      ],
      [
        "ĠÐ½Ð°Ð¿ÑĢÐ°Ð²Ð¸Ð»ÑģÑı",
        -1.0
      ],
      [
        "ĠÐ´ÐµÐ»Ð°ÐµÑĤ",
        -1.0
      ],
      [
        "Ð¿ÑĥÑģÑĤÐ¸Ð»",
        -1.0
      ],
      [
        "ÐłÐ¾",
        -1.0
      ],
      [
        "ĠÙĪØ°Ø±ÙĬØªÙĩ",
        -1.0
      ],
      [
        "ĠØªØ¶Ùħ",
        -1.0
      ],
      [
        "Ġnationally",
        -1.0
      ],
      [
        "ĠÐºÐ¾Ð²ÐµÑĢ",
        -1.0
      ],
      [
        "ĠPrince",
        -1.0
      ],
      [
        "à¸´à¸ĩà¸²à¸Ļà¸ķà¸²à¸¡à¸«à¸¥",
        -1.0
      ],
      [
        "Ġslammed",
        -1.0
      ],
      [
        "aleksandr",
        -1.0
      ],
      [
        "ĠØªÙħØ±",
        -1.0
      ],
      [
        "BuzdolabÄ±",
        -1.0
      ],
      [
        "å·¡",
        -1.0
      ],
      [
        "à¸µà¸¢à¸Ļà¹ģà¸Ķà¸ĩ",
        -1.0
      ],
      [
        "Ġkonforlu",
        -1.0
      ],
      [
        "ĠØ§ÙĦØ§ÙĪØ¶Ø§Ø¹",
        -1.0
      ],
      [
        "äº¤æį¢æĦıè§ģ",
        -1.0
      ],
      [
        "à¥Ģà¤¼",
        -1.0
      ],
      [
        "à¸±à¸Ļà¹Ħà¸§",
        -1.0
      ],
      [
        "Ġayetler",
        -1.0
      ],
      [
        "ĠÐ²ÑĭÐ±Ð¾ÑĢÐ¾Ð¼",
        -1.0
      ],
      [
        "ĠÐ¾Ð±Ð¾ÑĪÐµÐ»",
        -1.0
      ],
      [
        "éĺ²æ²»æ±¡æŁĵè®¾æĸ½",
        -1.0
      ],
      [
        "Zaten",
        -1.0
      ],
      [
        "à¤¿à¤Ĺà¤®",
        -1.0
      ],
      [
        "ÙĤÙĪØ´",
        -1.0
      ],
      [
        "ĠÐ´Ð¾Ð¼Ðµ",
        -1.0
      ],
      [
        "ç¥ŀç»ıåıįé¦Ī",
        -1.0
      ],
      [
        "æ°¸è¿ľ",
        -1.0
      ],
      [
        "Ġsourire",
        -1.0
      ],
      [
        "åĲ¯",
        -1.0
      ],
      [
        "ĠOperations",
        -1.0
      ],
      [
        "åĵĢèĻŁ",
        -1.0
      ],
      [
        "Ġà°®à°Ĺà°¤à°¨",
        -1.0
      ],
      [
        "Ġizleye",
        -1.0
      ],
      [
        "ÙĪØ¹Ø©",
        -1.0
      ],
      [
        "Ø±ØŃÙĪØ§",
        -1.0
      ],
      [
        "Ġwriters",
        -1.0
      ],
      [
        ".kcenergy",
        -1.0
      ],
      [
        "à°İà°°",
        -1.0
      ],
      [
        "à¸±à¸ĩà¸Ĺ",
        -1.0
      ],
      [
        "æľīç¤¾ä¼ļæĬ±è´Ł",
        -1.0
      ],
      [
        "Ġanticipated",
        -1.0
      ],
      [
        "Konferans",
        -1.0
      ],
      [
        "æ£īèĺŃçĳŀå£«è²ĿçĪ¾çģ£æĻ¯éħĴåºĹ",
        -1.0
      ],
      [
        "ĠMatumizi",
        -1.0
      ],
      [
        "ÑĤÐ¾",
        -1.0
      ],
      [
        "MO",
        -1.0
      ],
      [
        "ech",
        -1.0
      ],
      [
        "Ġufki",
        -1.0
      ],
      [
        "ĠØ£Ø¹ÙħØ§ÙĤ",
        -1.0
      ],
      [
        "dÄ±ÄŁÄ±m",
        -1.0
      ],
      [
        "Ùı}Ċ",
        -1.0
      ],
      [
        "ĠBilgiler",
        -1.0
      ],
      [
        "Ġentitled",
        -1.0
      ],
      [
        "åįıåķĨ",
        -1.0
      ],
      [
        "ĠqualitÃ©s",
        -1.0
      ],
      [
        "à¸±à¸Ķà¸Ĺà¸³à¹Ĥà¸Ķà¸¢",
        -1.0
      ],
      [
        "ĠÐ¿Ð¾Ð´Ð²ÐµÑĢÐ³Ð»Ð¸ÑģÑĮ",
        -1.0
      ],
      [
        "Ġnaye",
        -1.0
      ],
      [
        "Tallahassee",
        -1.0
      ],
      [
        "Ð¿Ð¾ÐºÑĢÐ¾Ð²Ð¸ÑĤÐµÐ»ÑĮÑģÑĤÐ²Ð°",
        -1.0
      ],
      [
        "à¹īà¹Ħà¸Ķ",
        -1.0
      ],
      [
        "KÄ°ÅŀÄ°SEL",
        -1.0
      ],
      [
        "ĠÑĤÑĢÐ°Ð½ÑĪÐµÑİ",
        -1.0
      ],
      [
        "ä¸īåĲį",
        -1.0
      ],
      [
        "ĠÐ¾ÐºÐ°Ð·ÑĭÐ²Ð°ÑİÑĤÑģÑı",
        -1.0
      ],
      [
        "Ġvandal",
        -1.0
      ],
      [
        "ĠSure",
        -1.0
      ],
      [
        "ĠØ¬Ø§Ø¯",
        -1.0
      ],
      [
        "Ġà¸Ńà¸Ńà¸£",
        -1.0
      ],
      [
        "à±įà°¦à°Ł",
        -1.0
      ],
      [
        "âĢľæĹłPINæĭ¨åı·",
        -1.0
      ],
      [
        "Ġtoughest",
        -1.0
      ],
      [
        "Ġà¸ģà¸Ńà¸ĩ",
        -1.0
      ],
      [
        "èĥ½ä»İåĸĦå¦Ĥæµģ",
        -1.0
      ],
      [
        "à°¬à°¶",
        -1.0
      ],
      [
        "à¸±à¸Ķà¹ģà¸ķ",
        -1.0
      ],
      [
        "ĠÙĦØºØ©",
        -1.0
      ],
      [
        "Ġà¤Ľà¤ķ",
        -1.0
      ],
      [
        "ĠÙĦÙĦØªØ£Ø«ÙĬØ±",
        -1.0
      ],
      [
        "ÙĪØ¨Ø§ÙĨ",
        -1.0
      ],
      [
        "à¹Ħà¸ĩ",
        -1.0
      ],
      [
        "ĠedebiyatÄ±nda",
        -1.0
      ],
      [
        "ĠÐ¡Ð¸Ð±Ð»Ð¸",
        -1.0
      ],
      [
        "ÐŁÐ¾",
        -1.0
      ],
      [
        "ãĢģæľī",
        -1.0
      ],
      [
        "ĠØ§ÙĦÙĨØ®ÙĬØ¨",
        -1.0
      ],
      [
        "ĠØ¶ÙħÙĨÙĩØ§",
        -1.0
      ],
      [
        "eee",
        -1.0
      ],
      [
        "ĠØ§ÙĦÙĥÙĬÙħÙĬØ§Ø¦ÙĬØ©",
        -1.0
      ],
      [
        "ĠHE",
        -1.0
      ],
      [
        "ĠÐ²Ð½Ð¾Ð²ÑĮ",
        -1.0
      ],
      [
        "ĠÐ¿Ð¾ÑģÑĤÐ¼ÐµÐ½Ð¾Ð¿Ð°ÑĥÐ·Ñĭ",
        -1.0
      ],
      [
        "SÄ°YON",
        -1.0
      ],
      [
        "ãĢķ",
        -1.0
      ],
      [
        "à¸µà¸Ńà¸²à¸įà¸²",
        -1.0
      ],
      [
        ".microsoft",
        -1.0
      ],
      [
        "sar",
        -1.0
      ],
      [
        "à¹Īà¹Ħà¸«à¸¡à¸Ħà¸£",
        -1.0
      ],
      [
        "ĠÃľst",
        -1.0
      ],
      [
        "ĠØ§Ø³Ø¦ÙĦØ©",
        -1.0
      ],
      [
        "æİ¨",
        -1.0
      ],
      [
        "à¸µà¸¢à¸ĩà¸ŀà¸Ń",
        -1.0
      ],
      [
        "Ġmadhumuni",
        -1.0
      ],
      [
        "éĩĳåŃĹå¡Ķ",
        -1.0
      ],
      [
        "Ġà¸Ļà¸²à¸ĩ",
        -1.0
      ],
      [
        "ĠStation",
        -1.0
      ],
      [
        "ĠØ§ÙĦØ¹Ø§Ø¯ÙĬØ©",
        -1.0
      ],
      [
        "ĠØ§ÙĦØŃÙĥÙĪÙħÙĬ",
        -1.0
      ],
      [
        "ĠÙĦØ¬ÙĬØ´",
        -1.0
      ],
      [
        "ä½ľæĸĩ",
        -1.0
      ],
      [
        "Ġemporter",
        -1.0
      ],
      [
        "à¥ĩ?",
        -1.0
      ],
      [
        "à¸Ĺà¸²à¸ĩà¸ªà¸ĸ",
        -1.0
      ],
      [
        "å¾µ",
        -1.0
      ],
      [
        "à±įà°§à°®à°¯",
        -1.0
      ],
      [
        "éĽĻ",
        -1.0
      ],
      [
        "Ġmatofali",
        -1.0
      ],
      [
        "'à°¸",
        -1.0
      ],
      [
        "ĠparamÃ¨tres",
        -1.0
      ],
      [
        "à¹Įà¸ģà¸³à¸¥",
        -1.0
      ],
      [
        "ĠÙĨØ´Ø·Øª",
        -1.0
      ],
      [
        "ĠÙĪØ¨ÙĨÙī",
        -1.0
      ],
      [
        "ĠImage",
        -1.0
      ],
      [
        "Ã¼yo",
        -1.0
      ],
      [
        "à¸´à¸Ķà¹Ĥà¸Ĺà¸©à¹ģà¸ļà¸Ļ",
        -1.0
      ],
      [
        "Ð¾ÑĢÐ¸Ð³Ð¸Ð½Ð°Ð»",
        -1.0
      ],
      [
        "ä¸ŃæĸĩçļĦ",
        -1.0
      ],
      [
        "Ġharder",
        -1.0
      ],
      [
        "Ġnitumie",
        -1.0
      ],
      [
        "lls",
        -1.0
      ],
      [
        "à¸±à¸ķà¸ķà¸°",
        -1.0
      ],
      [
        "Ġnedenlerle",
        -1.0
      ],
      [
        "Ġpulling",
        -1.0
      ],
      [
        "ĠÐ½ÐµÐ±Ð¾Ð»ÑĮÑĪÐ¸Ð¼",
        -1.0
      ],
      [
        "Ġbezi",
        -1.0
      ],
      [
        "ĠÙĪÙĬØ³Øª",
        -1.0
      ],
      [
        "ĠCed",
        -1.0
      ],
      [
        "à¸´à¸Ļà¹ģà¸¡",
        -1.0
      ],
      [
        "ĠÐļÐ°Ð¼",
        -1.0
      ],
      [
        "/KÄ±ÅŁ",
        -1.0
      ],
      [
        "ĠÐĳÐ¾Ð³",
        -1.0
      ],
      [
        "Ġà¹Ģà¸Ľà¸£",
        -1.0
      ],
      [
        "ĠInner",
        -1.0
      ],
      [
        "ä¸ĩä½Ļåħĥ",
        -1.0
      ],
      [
        "ØŁâĢĿ.Ċ",
        -1.0
      ],
      [
        "à°®à°¤",
        -1.0
      ],
      [
        "ä¸įæİĴéĻ¤",
        -1.0
      ],
      [
        "æĺİæ¸ħåħ©ä»£",
        -1.0
      ],
      [
        "æ¯įçº¿",
        -1.0
      ],
      [
        "ĠØ§ÙĦØŃØ¶ÙĪØ±",
        -1.0
      ],
      [
        "à¸±à¸ģà¸©à¸²à¸£",
        -1.0
      ],
      [
        "Ġdonat",
        -1.0
      ],
      [
        "Ġameitoa",
        -1.0
      ],
      [
        "Ġpour",
        -1.0
      ],
      [
        "ĠÙĪØ§ÙĦÙĬØ³",
        -1.0
      ],
      [
        "à¹Ĥà¸Ľà¸£à¹ģà¸ģà¸£à¸¡à¸Ľà¸£à¸°à¸¢",
        -1.0
      ],
      [
        "ĠØŃØ§ÙĦØ§ØªÙĩÙħ",
        -1.0
      ],
      [
        "à±įà°·à°ķ",
        -1.0
      ],
      [
        "ĠÐ±Ð»Ð°Ð³Ð¾Ð¿Ð¾Ð»ÑĥÑĩÐ½Ð¾",
        -1.0
      ],
      [
        "ĠÐĲÑĢÑĤÐ°Ð±Ð°Ð½Ð°",
        -1.0
      ],
      [
        "ĠAvukat",
        -1.0
      ],
      [
        "Ġà¤ľà¤Ł",
        -1.0
      ],
      [
        "ÑĭÐ¹",
        -1.0
      ],
      [
        "ĠÐ°ÐºÑĤÐ¸Ð²Ð½Ð¾ÑģÑĤÑĮÑİ",
        -1.0
      ],
      [
        "åıªçŁ¥éģĵ",
        -1.0
      ],
      [
        "ĠÙĬØªÙĨØ§ÙĤØ¶",
        -1.0
      ],
      [
        "NGK",
        -1.0
      ],
      [
        "ĠDÃĸSÄ°AD",
        -1.0
      ],
      [
        "ØŃÙħØ©",
        -1.0
      ],
      [
        "à¸´à¸Ķà¸Ŀ",
        -1.0
      ],
      [
        "à¸Ńà¸²à¸ªà¸ªà¸ªà¸ª",
        -1.0
      ],
      [
        "ĠWahakiki",
        -1.0
      ],
      [
        "Ġkuzingatiwa",
        -1.0
      ],
      [
        "ĠØ§ÙĦÙħØ³Ø¨Ø¨",
        -1.0
      ],
      [
        "kata",
        -1.0
      ],
      [
        "ï¼Įèī¾æľªæľªæĺ¯",
        -1.0
      ],
      [
        "çļĦåķ¦",
        -1.0
      ],
      [
        "ias",
        -1.0
      ],
      [
        "Ð¸ÑĢÑĥÑİÑĤÑģÑı",
        -1.0
      ],
      [
        "ĠnamazÄ±",
        -1.0
      ],
      [
        "Ġway",
        -1.0
      ],
      [
        "ĠØŃÙħÙĦ",
        -1.0
      ],
      [
        "dre",
        -1.0
      ],
      [
        "à¹Īà¸²à¸Īà¸°à¸ª",
        -1.0
      ],
      [
        "éģ¿åŃķ",
        -1.0
      ],
      [
        "anapo",
        -1.0
      ],
      [
        "ĠAnomalous",
        -1.0
      ],
      [
        "ĠØ¥ÙĤØŃØ§Ùħ",
        -1.0
      ],
      [
        "ĠÐ°ÑĨÐµÑĤÐ°ÑĤÐ°",
        -1.0
      ],
      [
        "ÑģÐºÐ°ÑĤÑĮ",
        -1.0
      ],
      [
        "ĠÐ¾Ð¿Ð°ÑģÐµÐ½Ð¸Ñı",
        -1.0
      ],
      [
        "Ġà¸Ķà¸²à¸ļ",
        -1.0
      ],
      [
        "ĠsiÃ©ger",
        -1.0
      ],
      [
        "à¸Ľà¸£à¸°à¹Ģà¸Ĺà¸¨à¸Ĭà¸²à¸ķ",
        -1.0
      ],
      [
        "ĠÙĪÙĥØª",
        -1.0
      ],
      [
        "ĠÙĪØ§ÙĦÙħØµØ§Ø¯Ø±",
        -1.0
      ],
      [
        "å°ıç¯Ģ",
        -1.0
      ],
      [
        "ĠØªØªØ£ÙĦÙģ",
        -1.0
      ],
      [
        "è¸ıåĭķèħ³è¸ı",
        -1.0
      ],
      [
        "Ġileriye",
        -1.0
      ],
      [
        "ĠÙħØ¹ØªØ¨Ø±Ø§",
        -1.0
      ],
      [
        "å¥ĸ",
        -1.0
      ],
      [
        "à¸µà¸¢à¸Ķà¹Ħà¸Ķ",
        -1.0
      ],
      [
        "ĠÑĨÐµÐ»Ð¸ÐºÐ¾Ð¼",
        -1.0
      ],
      [
        "non",
        -1.0
      ],
      [
        "Ø§Ø¦Ø±Ø©",
        -1.0
      ],
      [
        "ĠØ¹Ø¬ÙĬÙĨØ©",
        -1.0
      ],
      [
        "à¸´à¸Ķà¸ķà¸²à¸¡à¸£à¸²à¸¢à¸¥à¸°à¹Ģà¸Ń",
        -1.0
      ],
      [
        "ĠÐ¾Ð±ÑīÐ¸Ñħ",
        -1.0
      ],
      [
        "aramu",
        -1.0
      ],
      [
        "à¹Ħà¸®à¹Ħà¸¥à¸ķ",
        -1.0
      ],
      [
        "xxxsex",
        -1.0
      ],
      [
        "à¸·à¸Ńà¸Ķà¸ª",
        -1.0
      ],
      [
        "èµĺ",
        -1.0
      ],
      [
        "ĠCongressional",
        -1.0
      ],
      [
        "Ġlabirent",
        -1.0
      ],
      [
        "ĠÑĤÐ°ÐºÐ¾Ð²ÑĭÑħ",
        -1.0
      ],
      [
        "ĠÑģÐ¾ÑģÑĤÐ¾Ð¸ÑĤÑģÑı",
        -1.0
      ],
      [
        "ĠÙĦÙģØ±",
        -1.0
      ],
      [
        "à¥įà¤¨à¤¤",
        -1.0
      ],
      [
        "Ġaki",
        -1.0
      ],
      [
        "ĠkaÅŁÄ±ÄŁÄ±",
        -1.0
      ],
      [
        "ĠØ§ÙĦÙĬÙħÙĨÙĬ",
        -1.0
      ],
      [
        "ĠÑĢÐ°Ð·Ð´ÑĢÐ°Ð¶ÐµÐ½Ð¸Ðµ",
        -1.0
      ],
      [
        "à¹Ħà¸Ľà¸«à¸²à¹ģà¸ŀà¸Ĺà¸¢",
        -1.0
      ],
      [
        "ĠphÃ©nomÃ¨nes",
        -1.0
      ],
      [
        "ĠPerry",
        -1.0
      ],
      [
        "à¸£à¸ĸà¹Ģà¸¡à¸¥",
        -1.0
      ],
      [
        "ĠÙħØŃÙħØ¯",
        -1.0
      ],
      [
        "à¸´à¹Ģà¸§",
        -1.0
      ],
      [
        "ĠeditÃ¶r",
        -1.0
      ],
      [
        "åħ¸åŀĭçļĦ",
        -1.0
      ],
      [
        "ÐŁÑĢÐ¸ÑĩÐ¸Ð½Ñĭ",
        -1.0
      ],
      [
        "à¸£à¸Ńà¸ļà¸Ħà¸Ńà¸ļ",
        -1.0
      ],
      [
        "ĠSTATIONARY",
        -1.0
      ],
      [
        "à¸±à¸§à¹Ģà¸Ńà¸ĩà¸Ĺ",
        -1.0
      ],
      [
        "ĠbaÅŁladÄ±ÄŁÄ±nÄ±",
        -1.0
      ],
      [
        "Ġà¸Ľà¸£à¸°à¸ķ",
        -1.0
      ],
      [
        "Ġmadogo",
        -1.0
      ],
      [
        "à¸Ĭà¸Ńà¸ļ",
        -1.0
      ],
      [
        "à¸Ĥà¸¢à¸²à¸¢à¸ĺ",
        -1.0
      ],
      [
        "ĠyÃ¼rÃ¼yÃ¼ÅŁ",
        -1.0
      ],
      [
        "ĠAlthough",
        -1.0
      ],
      [
        "æľªä¾Ĩ",
        -1.0
      ],
      [
        "Ġwenza",
        -1.0
      ],
      [
        "ĠÑģÑĢÐ°Ð·Ñĥ",
        -1.0
      ],
      [
        "ĠIls",
        -1.0
      ],
      [
        "ĠÙĦÙĩØ§",
        -1.0
      ],
      [
        "ĠÐĴÐ¸ÐºÑĤÐ¾ÑĢ",
        -1.0
      ],
      [
        "ĠØ¥ÙĨØªØ§Ø¬ÙĬØ©",
        -1.0
      ],
      [
        "åĪ¥äººçļĦ",
        -1.0
      ],
      [
        "ĠØ¨Ø§ÙĦØ¬Ø§ÙħØ¹Ø©",
        -1.0
      ],
      [
        "Ġkub",
        -1.0
      ],
      [
        "Ġtomber",
        -1.0
      ],
      [
        "ĠÐ·Ð²ÐµÐ·Ð´Ñĭ",
        -1.0
      ],
      [
        "ĠGirls",
        -1.0
      ],
      [
        "åħģè®¸",
        -1.0
      ],
      [
        "à¸±à¸ŀà¸ŀà¸°",
        -1.0
      ],
      [
        "Ø³ÙĪØ¯Ø§ÙĨ",
        -1.0
      ],
      [
        "ĠÑĥÑĩÐ°ÑģÑĤÐ½Ð¸ÐºÐ¾Ð¼",
        -1.0
      ],
      [
        "Ġ<<",
        -1.0
      ],
      [
        "ĠgerÃ§ekleÅŁmesi",
        -1.0
      ],
      [
        "à¸Ħà¸§à¸¢à¸ŀ",
        -1.0
      ],
      [
        "Ġhighest",
        -1.0
      ],
      [
        "Ġutaratibu",
        -1.0
      ],
      [
        "-Majlisi",
        -1.0
      ],
      [
        "Ø¶Ø§Ø©",
        -1.0
      ],
      [
        "à±ĩà°¨à°²",
        -1.0
      ],
      [
        "à¸¹à¹ĥà¸Ļ",
        -1.0
      ],
      [
        "à±įà°¤à°ª",
        -1.0
      ],
      [
        "Johnson",
        -1.0
      ],
      [
        "ÙĩØ©",
        -1.0
      ],
      [
        "ä¸Ģå¸Ĩé£İé¡º",
        -1.0
      ],
      [
        "Ġarabalar",
        -1.0
      ],
      [
        "à¸ģà¸²à¸£à¹ģà¸Ĥ",
        -1.0
      ],
      [
        "ĠÙħÙĨØªØ³Ø¨",
        -1.0
      ],
      [
        "ĠØ§ÙĦØ£ØªÙĬ",
        -1.0
      ],
      [
        "ĠFolk",
        -1.0
      ],
      [
        "à¥įà¤Łà¤¤",
        -1.0
      ],
      [
        "Ġplairont",
        -1.0
      ],
      [
        "ĠØ£Ø±ÙĥØ§Ø¯ÙĬÙĦ",
        -1.0
      ],
      [
        "åī©",
        -1.0
      ],
      [
        "éĥ¨éķ¿",
        -1.0
      ],
      [
        "Ð°ÑİÑīÐµÐµ",
        -1.0
      ],
      [
        "Ġujumla",
        -1.0
      ],
      [
        "ĠÙĪØ·ÙħØ£ÙĨ",
        -1.0
      ],
      [
        "swahili",
        -1.0
      ],
      [
        "à¸Ļà¸Ļà¸Ĺà¸ļ",
        -1.0
      ],
      [
        "focus",
        -1.0
      ],
      [
        "ĠØŃÙĬØ§ØªÙĩÙħ",
        -1.0
      ],
      [
        "å¤©ä¸ĭ",
        -1.0
      ],
      [
        "å¼¹èį¯ä¸įå¾Ĺæķ£æĶ¾",
        -1.0
      ],
      [
        "ĠÙĪØ§ØµØ¨ØŃØª",
        -1.0
      ],
      [
        "Ġcouple",
        -1.0
      ],
      [
        "ropriÃ©tÃ©",
        -1.0
      ],
      [
        "æľĥéĢłæĪĲèĥ¸èħº",
        -1.0
      ],
      [
        "ĠhaftalÄ±k",
        -1.0
      ],
      [
        "à¸´à¸¡",
        -1.0
      ],
      [
        "ĠØ§ÙĦØ°ÙĩØ§Ø¨",
        -1.0
      ],
      [
        "Ġsoguk",
        -1.0
      ],
      [
        "ĠØ§ÙĦØ¹Ø¨Ø§Ø¯",
        -1.0
      ],
      [
        "ĠRecently",
        -1.0
      ],
      [
        "æľ¬ä¾Ĩ",
        -1.0
      ],
      [
        "ĠéĿŀå¸¸æ¦®å¹¸èĥ½èĪĩ",
        -1.0
      ],
      [
        "à¸·à¸Ńà¸ģà¸ķ",
        -1.0
      ],
      [
        "çĽ¸åºĶ",
        -1.0
      ],
      [
        "Ġetmesini",
        -1.0
      ],
      [
        "Ġrepos",
        -1.0
      ],
      [
        "Tour",
        -1.0
      ],
      [
        "à¸ªà¸²à¸Ĥà¸²",
        -1.0
      ],
      [
        "åıĪæľī",
        -1.0
      ],
      [
        "ĠrÃ©sidences",
        -1.0
      ],
      [
        "à¸²à¸°à¸Ĺ",
        -1.0
      ],
      [
        "ĠRecensement",
        -1.0
      ],
      [
        "ĠÙħÙĬÙĥØ±ÙĪØ¨Ø§Øª",
        -1.0
      ],
      [
        "ĠØ§Ø´ØªØ±Ùī",
        -1.0
      ],
      [
        "à¸Ļà¹Ģà¸Ĥ",
        -1.0
      ],
      [
        "Th",
        -1.0
      ],
      [
        "à¹Īà¸²à¸Ļà¸ªà¸²à¸¡à¸²à¸£à¸ĸ",
        -1.0
      ],
      [
        "ĠØ§ÙĦÙħØ¹ÙĩÙĪØ¯",
        -1.0
      ],
      [
        "Ġselling",
        -1.0
      ],
      [
        "æľŁæľªæĶ¹",
        -1.0
      ],
      [
        "Ġkush",
        -1.0
      ],
      [
        "ĠÐľÐµÑĩ",
        -1.0
      ],
      [
        "é»ĦçŁ³",
        -1.0
      ],
      [
        "Ð¸Ð·Ð¼Ð¾Ð¼",
        -1.0
      ],
      [
        "ĠÐºÐ°ÑĢÐ´Ð¸",
        -1.0
      ],
      [
        "à¸£à¸ª",
        -1.0
      ],
      [
        "Ġkur",
        -1.0
      ],
      [
        "ĠØ§ÙĦØ³Ø§Ø¨Ø¹",
        -1.0
      ],
      [
        "ĠÙħØ³ØªÙģØ¹ÙĦÙĨ",
        -1.0
      ],
      [
        "à¸·à¸Ńà¸ģà¸²à¸£à¸Ľà¸ģà¸Ħà¸£à¸Ńà¸ĩà¹ĥà¸Ļà¸£à¸°à¸ļà¸Ńà¸ļà¸Ħà¸Ńà¸¡à¸¡",
        -1.0
      ],
      [
        "ĠØ§ÙĦÙħØ®",
        -1.0
      ],
      [
        "ĠÑĤÑĢÐµÐ²Ð¾Ð³Ð¸",
        -1.0
      ],
      [
        "graphs",
        -1.0
      ],
      [
        "à¹ģà¸¡à¸Ļà¹Ģà¸Ĭà¸ªà¹Ģà¸ķà¸Ńà¸£",
        -1.0
      ],
      [
        "à¸µà¸Ĺà¸³",
        -1.0
      ],
      [
        "ĠÑįÐºÑĤÐ¾Ð¿Ð¸ÑĩÐµÑģÐºÐ°Ñı",
        -1.0
      ],
      [
        "Ġkuvuruga",
        -1.0
      ],
      [
        "ĠØŃØ³Ø¨ÙħØ§",
        -1.0
      ],
      [
        "ĠÐ³ÑĢÑĥÐ¿Ð¿Ð°",
        -1.0
      ],
      [
        "ĠÙĪØªØŃÙĪÙĬÙĦÙĩØ§",
        -1.0
      ],
      [
        "à¸±à¸įà¸Īà¸²à¸ģà¸ĭà¸²à¸Ļà¸ķ",
        -1.0
      ],
      [
        "à¸´à¸įà¸ª",
        -1.0
      ],
      [
        "ĠWaq",
        -1.0
      ],
      [
        "Ġkujiendeshea",
        -1.0
      ],
      [
        "ĠÐ¥ÑĥÐ¼ÐµÐ¹Ð´",
        -1.0
      ],
      [
        "ĠÐ¿Ð°ÑĢÐ»Ð°Ð¼ÐµÐ½ÑĤÐ°",
        -1.0
      ],
      [
        "à¹ĥà¸Ļà¸Ĳà¸²à¸Ļà¸°à¹Ģà¸Ľ",
        -1.0
      ],
      [
        "/mutfak",
        -1.0
      ],
      [
        "ĠØ¥Ø±Ø´Ø§Ø¯",
        -1.0
      ],
      [
        "qui",
        -1.0
      ],
      [
        "à¹Īà¸§à¸ĩà¸ģ",
        -1.0
      ],
      [
        "Ri",
        -1.0
      ],
      [
        "åľŁåľ°åħ¬åħ¬",
        -1.0
      ],
      [
        "äºĨåįģ",
        -1.0
      ],
      [
        "ĠCNR",
        -1.0
      ],
      [
        "å®Įä¹ĭå¾Į",
        -1.0
      ],
      [
        "Ġtravailleurs",
        -1.0
      ],
      [
        "ĠØ§ÙĦØªÙĪÙĨØ³ÙĬ",
        -1.0
      ],
      [
        "ĠÑĥÐ¼ÐµÑģÑĤ",
        -1.0
      ],
      [
        "ĠØ¨Ø¶Ø¹Ùģ",
        -1.0
      ],
      [
        "ĠÅŀair",
        -1.0
      ],
      [
        "Ġtendons",
        -1.0
      ],
      [
        "ĠLÃ©onard",
        -1.0
      ],
      [
        "ä¸įçŁ¥ä¸įè¦º",
        -1.0
      ],
      [
        "Ġà¸Ħà¸Ļà¸Ĥ",
        -1.0
      ],
      [
        "ĠKitap",
        -1.0
      ],
      [
        "ĠÑħÐ¾Ð·ÑıÐ¸Ð½Ð°",
        -1.0
      ],
      [
        "ĠÙĦØ¥Ø´Ø¹Ø§ÙĦ",
        -1.0
      ],
      [
        "Ġmembership",
        -1.0
      ],
      [
        "ĠÙĦØªØ¹",
        -1.0
      ],
      [
        "à¥ĭà¤ıà¤¡",
        -1.0
      ],
      [
        "ecekleri",
        -1.0
      ],
      [
        "å»£åĳĬé¡ıæĸĻ",
        -1.0
      ],
      [
        "æŁĵ",
        -1.0
      ],
      [
        "ĠØŃÙħÙĪØ¯",
        -1.0
      ],
      [
        "ĠÐ¡Ð¿Ð¸ÑģÐ¾Ðº",
        -1.0
      ],
      [
        "è·¯çº¿",
        -1.0
      ],
      [
        "à¸¥à¸¥",
        -1.0
      ],
      [
        "ĠÐ¼ÐµÑĤÐ¾Ð´Ð¸ÐºÑĥ",
        -1.0
      ],
      [
        "ĠÑıÐ²Ð»ÑıÑİÑīÐµÐ³Ð¾ÑģÑı",
        -1.0
      ],
      [
        "was",
        -1.0
      ],
      [
        "ĠØ§ÙĦØ«ÙĦØ§Ø«ÙĬÙĨ",
        -1.0
      ],
      [
        "ĠAssessment",
        -1.0
      ],
      [
        "ĠÙĦØ¬ÙĩØ©",
        -1.0
      ],
      [
        "ĠÙĪØ§ÙĦÙģÙĩÙħ",
        -1.0
      ],
      [
        "å»ºç½®",
        -1.0
      ],
      [
        "ĠØ§Ø¬Ø±",
        -1.0
      ],
      [
        "spektif",
        -1.0
      ],
      [
        "à¹īà¸³à¸Ļ",
        -1.0
      ],
      [
        "ĠÃ©ventuellement",
        -1.0
      ],
      [
        "è³ª",
        -1.0
      ],
      [
        "ÐŀÑĢÑĤÐ¸Ð´Ð¶Ðµ",
        -1.0
      ],
      [
        "ĠÙĦÙĦØ¨ÙĨÙĥ",
        -1.0
      ],
      [
        "ĠAbi",
        -1.0
      ],
      [
        "à¹īà¹ĥà¸Ļà¹Ģà¸£",
        -1.0
      ],
      [
        "ĠØ§ÙĦÙħÙĬØ§Ø¯ÙĬÙĨ",
        -1.0
      ],
      [
        "à¸´à¸ķà¸£à¸ģà¸£à¸£à¸¡à¹ģà¸ľà¸ĩ",
        -1.0
      ],
      [
        "ĠYEAR",
        -1.0
      ],
      [
        "ĠprotÃ©gÃ©e",
        -1.0
      ],
      [
        "ÑĢÐ¾Ð³",
        -1.0
      ],
      [
        "Ġnk",
        -1.0
      ],
      [
        "åľĸçīĩ",
        -1.0
      ],
      [
        "ĠÐºÐ¾Ð½ÑĦÐ»ÑİÐµÐ½",
        -1.0
      ],
      [
        "ĠØ·ÙĪÙĦÙĩ",
        -1.0
      ],
      [
        "Ġà¸²à¸¡à¸²à¸£à¸ĸà¹ĥà¸Ĭ",
        -1.0
      ],
      [
        "ĠÐ¿ÑĢÐµÐ¾Ð±ÑĢÐ°Ð·Ð¾Ð²Ð°Ð½Ð¸Ñı",
        -1.0
      ],
      [
        "-out",
        -1.0
      ],
      [
        "åĽłåĲ¸æ¯Ĵè¢«",
        -1.0
      ],
      [
        "Ġkuhodhi",
        -1.0
      ],
      [
        "Ġambulan",
        -1.0
      ],
      [
        "ĠDnipropetrovsk",
        -1.0
      ],
      [
        "ĠTrakya",
        -1.0
      ],
      [
        "åľ°åĽ¾",
        -1.0
      ],
      [
        "ĠÑĥÑģÐ¿ÐµÑħ",
        -1.0
      ],
      [
        "Ġà¤Ĺà¤¨",
        -1.0
      ],
      [
        "ĠÑĨÐµÐ»Ð¾Ð¼ÑĥÐ´ÑĢ",
        -1.0
      ],
      [
        "ĠÐ¿ÑĢÐ¾ÑħÐ¾Ð´Ð¸ÑĤ",
        -1.0
      ],
      [
        "ĠÐ»ÑİÐ±Ð¾Ðµ",
        -1.0
      ],
      [
        "ĠÙĦØ¨",
        -1.0
      ],
      [
        "ĠFr",
        -1.0
      ],
      [
        "èĨ£ç©´åĲŀåĲĲèĳĹå¤§èĤīæ£Ĵ",
        -1.0
      ],
      [
        "ĠÑįÐ»ÐµÐºÑĤÑĢÐ¸ÑĩÐµÑģÑĤÐ²Ð°",
        -1.0
      ],
      [
        "ĠÑĤÐ¾Ð»Ð¿Ð¾Ð¹",
        -1.0
      ],
      [
        "æĶ¿",
        -1.0
      ],
      [
        "ĠayÄ±na",
        -1.0
      ],
      [
        "ĠØ£Ø´Ø®Ø§ØµØ§",
        -1.0
      ],
      [
        "ÑıÐº",
        -1.0
      ],
      [
        "Ø³ØªØ§ÙĨ",
        -1.0
      ],
      [
        "ĠinanÄ±yoruz",
        -1.0
      ],
      [
        "åĬŁçİĩ",
        -1.0
      ],
      [
        "ĠÙĦØªÙĨØ³ÙĬÙĤ",
        -1.0
      ],
      [
        "Ġproclaim",
        -1.0
      ],
      [
        "ĠNDIO",
        -1.0
      ],
      [
        "Ġà¹Ģà¸Ń",
        -1.0
      ],
      [
        "æł¹æį®æĤ¨",
        -1.0
      ],
      [
        "ede",
        -1.0
      ],
      [
        "Ġyaratan",
        -1.0
      ],
      [
        "ĠÐ¿ÑĢÐ¸ÐµÐ¼Ð¾Ð²",
        -1.0
      ],
      [
        "ĠBeatles",
        -1.0
      ],
      [
        "Ġnyimbo",
        -1.0
      ],
      [
        "Ġbitirdi",
        -1.0
      ],
      [
        "illo",
        -1.0
      ],
      [
        "ĠÐĺÐ½Ð´Ð¶Ð¸Ð½Ð¸ÑĢÐ¸Ð½Ð³Ð°",
        -1.0
      ],
      [
        "ĠnÃ¶betÃ§i",
        -1.0
      ],
      [
        "à¸±à¸ļà¹Ģà¸ŀà¸¥à¸ĩ",
        -1.0
      ],
      [
        "ä¸Ģå®ļèĥ½",
        -1.0
      ],
      [
        "ĠrÃ©seaux",
        -1.0
      ],
      [
        "ĠÑģÐµÑĢÑĮÐµÐ·Ð½ÑĭÐ¼",
        -1.0
      ],
      [
        "ÐºÐ¾ÑĢÑĢÐµÐºÑĤ",
        -1.0
      ],
      [
        "à°ģ",
        -1.0
      ],
      [
        "ãĢĤå¦»åŃĲåĪĺå¥³å£«",
        -1.0
      ],
      [
        "Ġà¸£à¸°à¸¢à¸°à¹Ģà¸§à¸¥à¸²",
        -1.0
      ],
      [
        "Ġkuosha",
        -1.0
      ],
      [
        "Ġappartements",
        -1.0
      ],
      [
        "æŃ£åĢ¼",
        -1.0
      ],
      [
        "Ġpudding",
        -1.0
      ],
      [
        "è³Ģåį¡",
        -1.0
      ],
      [
        "çĪĨçĻ¼",
        -1.0
      ],
      [
        "Ġparlait",
        -1.0
      ],
      [
        "Ġgeometry",
        -1.0
      ],
      [
        "Ġnarthex",
        -1.0
      ],
      [
        "è¿Ĳè¾ĵçļĦ",
        -1.0
      ],
      [
        "ä¸įåºĶ",
        -1.0
      ],
      [
        "à¤¾à¤¤à¤ļ",
        -1.0
      ],
      [
        "Ġultra",
        -1.0
      ],
      [
        "à¤°à¤¤",
        -1.0
      ],
      [
        "Ġkupona",
        -1.0
      ],
      [
        "Ġtepkileri",
        -1.0
      ],
      [
        "Ã©ro",
        -1.0
      ],
      [
        "Ġalijibu",
        -1.0
      ],
      [
        "Ġkadro",
        -1.0
      ],
      [
        "çĶļèĩ³æĺ¯",
        -1.0
      ],
      [
        "ĠÙĬØŃØ¨ÙĨÙĬ",
        -1.0
      ],
      [
        "ĠÐ½ÐµÐ¼Ð°Ð»",
        -1.0
      ],
      [
        "ĠKolumbus",
        -1.0
      ],
      [
        "ĠCaldecott",
        -1.0
      ],
      [
        "Ġcanon",
        -1.0
      ],
      [
        "ĠÙĤØ·Ø§Ø¹",
        -1.0
      ],
      [
        "ĠShu",
        -1.0
      ],
      [
        "ä¿®è¡¥ç¨ĭåºıåĪĹè¡¨æĸĩä»¶",
        -1.0
      ],
      [
        "èīºæľ¯åĵģ",
        -1.0
      ],
      [
        "Ġbranches",
        -1.0
      ],
      [
        "ĠdaÄŁda",
        -1.0
      ],
      [
        "Ð±ÑĢÐ¸",
        -1.0
      ],
      [
        "ĠÑģÐºÐ¾ÑĤÐ°",
        -1.0
      ],
      [
        "ladÄ±ÄŁÄ±nÄ±z",
        -1.0
      ],
      [
        "uÃ§",
        -1.0
      ],
      [
        "à¸´à¸Ķà¸§",
        -1.0
      ],
      [
        "åĮ»æĬ¤äººåĳĺ",
        -1.0
      ],
      [
        "ĠmutfaÄŁa",
        -1.0
      ],
      [
        "Ġbancaire",
        -1.0
      ],
      [
        "ĠÑĢÐ°Ð·Ð½ÑĭÐ¼Ð¸",
        -1.0
      ],
      [
        "ĠØ§ÙĦØ±Ø·ÙĪØ¨Ø©",
        -1.0
      ],
      [
        "à¸°à¸ŀ",
        -1.0
      ],
      [
        "à¤Ĥà¤¤à¤¤",
        -1.0
      ],
      [
        "Ġsibele",
        -1.0
      ],
      [
        "Ġegzama",
        -1.0
      ],
      [
        "Ġåº¦",
        -1.0
      ],
      [
        "lilerden",
        -1.0
      ],
      [
        "à¹Ħà¸«à¸Ļà¸Ķ",
        -1.0
      ],
      [
        "Ãľlkemizde",
        -1.0
      ],
      [
        "à¹ģà¸¥à¸°à¸ľà¸¥",
        -1.0
      ],
      [
        "ĠDoctissimo",
        -1.0
      ],
      [
        "èĭ¹æŀľåħ¬åı¸",
        -1.0
      ],
      [
        "ĠÐ¿ÐµÑĢÐµÐ¼ÐµÑīÐµÐ½Ð¸Ñı",
        -1.0
      ],
      [
        "ç¹ŀèĳĹ",
        -1.0
      ],
      [
        "ÐļÑĥÐ¸Ð½",
        -1.0
      ],
      [
        "åĬ¿åĬĽ",
        -1.0
      ],
      [
        "lerin",
        -1.0
      ],
      [
        "Ġalbums",
        -1.0
      ],
      [
        "ĠØ§ÙĦÙģÙĦÙĥÙĬØ©",
        -1.0
      ],
      [
        "shwaji",
        -1.0
      ],
      [
        "ĠÙĦÙĦØ¹ÙħØ§ÙĦ",
        -1.0
      ],
      [
        "ĠÐ¾Ð±ÑĬÐµÐ´Ð¸Ð½",
        -1.0
      ],
      [
        "mbie",
        -1.0
      ],
      [
        "Ġteknolojileri",
        -1.0
      ],
      [
        "çĩĴéĮĦè»Łé«Ķ",
        -1.0
      ],
      [
        "Ġmta",
        -1.0
      ],
      [
        "ĠÑģÐ»ÑĥÑĩÐ°Ð¹",
        -1.0
      ],
      [
        "Ġbrutal",
        -1.0
      ],
      [
        "Game",
        -1.0
      ],
      [
        "ĠÐ¾ÑĤÐºÑĢÐ¾ÐµÑĤÑģÑı",
        -1.0
      ],
      [
        "Ġdecor",
        -1.0
      ],
      [
        "å°½å¿«",
        -1.0
      ],
      [
        "Ġà¸Ħà¸£à¸²à¸§à¸Ļ",
        -1.0
      ],
      [
        "ĠÙĪØ§Ø±ÙģØ¹",
        -1.0
      ],
      [
        "ä¸īåįģ",
        -1.0
      ],
      [
        "Ġardhini",
        -1.0
      ],
      [
        "Ð½Ð½Ð¸ÐºÐ¾Ð²",
        -1.0
      ],
      [
        "Ġplutot",
        -1.0
      ],
      [
        "ĠÐ·Ð°Ð´Ð°ÑĤÑĮ",
        -1.0
      ],
      [
        "ĠÐĿÐ°Ð¾Ð±Ð¾ÑĢÐ¾ÑĤ",
        -1.0
      ],
      [
        "à¸±à¸ļà¹ģà¸Ń",
        -1.0
      ],
      [
        "ĠGaza",
        -1.0
      ],
      [
        "ĠFame",
        -1.0
      ],
      [
        "ĠÙĪØ§ÙĦØ¬Ø§ÙħØ¹Ø©",
        -1.0
      ],
      [
        "æł¼çº³çļĦ",
        -1.0
      ],
      [
        "Putperest",
        -1.0
      ],
      [
        "Ġtechnique",
        -1.0
      ],
      [
        "AÅŁaÄŁÄ±da",
        -1.0
      ],
      [
        "Ġà¹ĥà¸Ļà¹ģà¸Ĺ",
        -1.0
      ],
      [
        "çļĦèĩ¨çķĮ",
        -1.0
      ],
      [
        "Ġexemplaires",
        -1.0
      ],
      [
        "Ġwaandamanaji",
        -1.0
      ],
      [
        "ĠÐ²ÑĭÐ´ÐµÑĢÐ¶Ð¸ÑĤ",
        -1.0
      ],
      [
        "-Ð¼Ð°Ð³Ð°Ð·Ð¸Ð½Ð°",
        -1.0
      ],
      [
        "âĢľç»ıåħ¸ä¼ļè®®",
        -1.0
      ],
      [
        "historic",
        -1.0
      ],
      [
        "Ġcomedian",
        -1.0
      ],
      [
        "Ġprensip",
        -1.0
      ],
      [
        "ĠØ§ÙĦÙħÙĪØ¬ÙĪØ¯",
        -1.0
      ],
      [
        "èĦĳçĶµåĽ¾",
        -1.0
      ],
      [
        "à±ĥà°ª",
        -1.0
      ],
      [
        "ĠrÃ¼zgÃ¢r",
        -1.0
      ],
      [
        "åĻ´åĩº",
        -1.0
      ],
      [
        "à¸´à¸ģà¸²à¸£à¹Ģà¸īà¸ŀà¸²à¸°à¸Ĺà¸²à¸ĩà¸Ĥà¸Ńà¸ĩà¸Ħ",
        -1.0
      ],
      [
        "Ġdevrais",
        -1.0
      ],
      [
        "Ġitasaidia",
        -1.0
      ],
      [
        "ĠobligÃ©s",
        -1.0
      ],
      [
        "Ġà¸Ļà¸°à¸Ńà¸°à¸ģà¸°à¸Ń",
        -1.0
      ],
      [
        "Ø±Ø¬ØŃ",
        -1.0
      ],
      [
        "ĠÐºÐ¾Ð»Ð¸ÑĩÐµÑģÑĤÐ²Ð¾",
        -1.0
      ],
      [
        "eske",
        -1.0
      ],
      [
        "ĠkarÅŁÄ±mÄ±zda",
        -1.0
      ],
      [
        "BAR",
        -1.0
      ],
      [
        "Ġdisposition",
        -1.0
      ],
      [
        "ĠÐ³Ð¸ÑĤÐ°ÑĢ",
        -1.0
      ],
      [
        "à¤¾à¤ĩà¤¶",
        -1.0
      ],
      [
        "Ġreferenced",
        -1.0
      ],
      [
        "ath",
        -1.0
      ],
      [
        "åŀ«æ±Łåİ¿",
        -1.0
      ],
      [
        "ĠÐ²ÐµÑĢÐ½ÑĥÐ»Ð¸ÑģÑĮ",
        -1.0
      ],
      [
        "ĠØ§ÙĦØ¥Ø¹Ø¯Ø§Ø¯",
        -1.0
      ],
      [
        "à¸±à¸ķ",
        -1.0
      ],
      [
        "ĠÐ¶Ð¸Ð·Ð½ÐµÐ½Ð½ÑĭÑħ",
        -1.0
      ],
      [
        "è´Īç¦®æĸ¹å¼ı",
        -1.0
      ],
      [
        "Ġalerjik",
        -1.0
      ],
      [
        "Ġbulunarak",
        -1.0
      ],
      [
        "Ġà¸£à¸°à¸¢à¸°",
        -1.0
      ],
      [
        "ĠyeryÃ¼zÃ¼",
        -1.0
      ],
      [
        "Ġall",
        -1.0
      ],
      [
        "ç®Ĺ",
        -1.0
      ],
      [
        "ĠRuzuku",
        -1.0
      ],
      [
        "Ġvirtual",
        -1.0
      ],
      [
        "çĢĳå¸ĥ",
        -1.0
      ],
      [
        "Ġtutakuwa",
        -1.0
      ],
      [
        "èļĬèĻ«",
        -1.0
      ],
      [
        "ĠØ®ØµØ§Ø¦ØµÙĩ",
        -1.0
      ],
      [
        "AÃ§Ä±lÄ±ÅŁ",
        -1.0
      ],
      [
        "éĥµä»¶ä¼ºæľįåĻ¨",
        -1.0
      ],
      [
        "ĠØ§ÙĦØ§Ø·Ø¨Ø§Ø¡",
        -1.0
      ],
      [
        "Ġkubbe",
        -1.0
      ],
      [
        "ÑĭÐ»Ð¸",
        -1.0
      ],
      [
        "Ġpeki",
        -1.0
      ],
      [
        "ĠØ§ÙĦØªØ£ÙħÙĬÙĨ",
        -1.0
      ],
      [
        "opinion",
        -1.0
      ],
      [
        "èī²ç´łæ²ī",
        -1.0
      ],
      [
        "Ġmijadala",
        -1.0
      ],
      [
        "ÙĪØ§Ùģ",
        -1.0
      ],
      [
        "ĠIdara",
        -1.0
      ],
      [
        "à¸µà¸¢à¸Ļà¸Īà¸²à¸ģà¸Ħà¸Ńà¸¡à¸ŀ",
        -1.0
      ],
      [
        "Ġfarm",
        -1.0
      ],
      [
        "ĠKoagÃ¼lasyon",
        -1.0
      ],
      [
        "ĠÐ¼ÐµÑĩÑĤÑĭ",
        -1.0
      ],
      [
        "à°®à°°à°£",
        -1.0
      ],
      [
        "à¸ĩà¸ªà¸²à¸¡à¸²à¸£à¸ĸ",
        -1.0
      ],
      [
        "ĠADC",
        -1.0
      ],
      [
        "ĠØ¨Ø·ÙĦØ¨",
        -1.0
      ],
      [
        "å¤´èĦĳ",
        -1.0
      ],
      [
        "ÐŁÑĢÐ¸Ð½ÑĨÐµÑģÑģ",
        -1.0
      ],
      [
        "-Ð°ÑĢ",
        -1.0
      ],
      [
        "ĠÐ»ÑĥÑĩ",
        -1.0
      ],
      [
        "Ġonayla",
        -1.0
      ],
      [
        "èĥ¸èħºåıĬ",
        -1.0
      ],
      [
        "å¨ģ",
        -1.0
      ],
      [
        "ĠÙĪÙĬØ¬Ø¹ÙĦÙĩØ§",
        -1.0
      ],
      [
        "ĠÑģÐ¿",
        -1.0
      ],
      [
        "à°¾à°Ĺà°Ł",
        -1.0
      ],
      [
        "è¶ħéģİ",
        -1.0
      ],
      [
        "ĠGMS",
        -1.0
      ],
      [
        "Ġfau",
        -1.0
      ],
      [
        "ĠØ¯ÙĦØ§ÙĦØªÙĩ",
        -1.0
      ],
      [
        "à¹ģà¸¡",
        -1.0
      ],
      [
        "å®īæ°ĳçļĦ",
        -1.0
      ],
      [
        "Ġimmobilier",
        -1.0
      ],
      [
        "ĠÙĪØ¥Ø·ÙĦØ§ÙĤ",
        -1.0
      ],
      [
        "à¸¸à¸Ķà¹ĥà¸Ļà¸Ľà¸£à¸°à¹Ģà¸Ĺà¸¨à¹Ħà¸Ĺà¸¢",
        -1.0
      ],
      [
        "ĠKazasÄ±",
        -1.0
      ],
      [
        "ĠØ§ÙĦÙħÙĨØ¬Ø²Ø§Øª",
        -1.0
      ],
      [
        "ĠÐ¿ÑĢÐ¾ÑģÐ»Ð°Ð²",
        -1.0
      ],
      [
        "à±Ģà°°à°µ",
        -1.0
      ],
      [
        "code",
        -1.0
      ],
      [
        "à¥ĩà¤ĤĊ",
        -1.0
      ],
      [
        "à¸Ńà¸ŀà¸Ńà¸¥à¹Ĥà¸¥",
        -1.0
      ],
      [
        "ĠÑģÐ°Ð¼Ð¾Ð¾ÑĨÐµÐ½ÐºÐ°",
        -1.0
      ],
      [
        "ĠÐ²ÑĭÑģÑĤÑĥÐ¿Ð»ÐµÐ½Ð¸Ñı",
        -1.0
      ],
      [
        "ĠÑģÐ¾Ð¾ÑĤÐ½Ð¾ÑĪÐµÐ½Ð¸ÐµÐ¼",
        -1.0
      ],
      [
        "à¹īà¸Ħ",
        -1.0
      ],
      [
        "ĠØªØ³Ø§ÙĩÙħ",
        -1.0
      ],
      [
        "åıĬä¸ĭæĸĩ",
        -1.0
      ],
      [
        "ĠoctroyÃ©",
        -1.0
      ],
      [
        "lÃ½",
        -1.0
      ],
      [
        "à¥įà¤Łà¤®",
        -1.0
      ],
      [
        "Ġrouter",
        -1.0
      ],
      [
        "Ġservir",
        -1.0
      ],
      [
        "å°±çĶ±",
        -1.0
      ],
      [
        "ï¼Įä»ĸåıª",
        -1.0
      ],
      [
        "ĠØªØŃØ±ÙĬÙĥ",
        -1.0
      ],
      [
        "ĠÐ¾ÑĤÑĢÐ°Ð¶Ð°ÐµÑĤ",
        -1.0
      ],
      [
        "Ġterroirs",
        -1.0
      ],
      [
        "ï¼Įå¤§",
        -1.0
      ],
      [
        "ĠØªØ´ÙĬÙĬØ¹",
        -1.0
      ],
      [
        "à¹Īà¸²à¸Ļà¸«à¸²à¸ĩà¸Īà¸£à¸°à¹Ģà¸Ĥ",
        -1.0
      ],
      [
        "à¥ģà¤¦à¤ķ",
        -1.0
      ],
      [
        "æ¿Ģæĥħ",
        -1.0
      ],
      [
        "ĠØŃÙĤÙĪÙĤ",
        -1.0
      ],
      [
        "è£½æĪĲ",
        -1.0
      ],
      [
        "Ð¾Ð²ÑģÐºÐ¾Ð¹",
        -1.0
      ],
      [
        "ÙĪÙĬØ¬ÙĪØ²",
        -1.0
      ],
      [
        "éĺ¿æķ£äºķæĪĢæ¬¡",
        -1.0
      ],
      [
        "ĠGuellner",
        -1.0
      ],
      [
        "Ġmercredi",
        -1.0
      ],
      [
        "ĠÐ½ÐµÐ¾Ð±ÑħÐ¾Ð´Ð¸Ð¼",
        -1.0
      ],
      [
        "ĠgÃ¶steriyordu",
        -1.0
      ],
      [
        "à¸Ħà¸Ļà¹Ħà¸¡",
        -1.0
      ],
      [
        "Ġkuwaokoa",
        -1.0
      ],
      [
        "åħ¬åĽŃ",
        -1.0
      ],
      [
        "Ġhutoa",
        -1.0
      ],
      [
        "åħħä»½",
        -1.0
      ],
      [
        "ĠØ¹Ø¨Ø¯Ùĥ",
        -1.0
      ],
      [
        "ĠØ§ÙĦØ´Ø¹Ø¨",
        -1.0
      ],
      [
        "åĪĹå®ģæł¼åĭĴ",
        -1.0
      ],
      [
        "ĠÐ¾Ð±ÑĢÐ°Ð·Ð¾Ð²Ð°Ð½Ð¸Ð¸",
        -1.0
      ],
      [
        "ĠÄ°ng",
        -1.0
      ],
      [
        "ĠØ§ÙĦÙħÙĨØ¬Ø¯",
        -1.0
      ],
      [
        "Ã§a",
        -1.0
      ],
      [
        "\",",
        -1.0
      ],
      [
        "ĠÐ¾ÑģÑĤÑĢÐ¸ÑĨ",
        -1.0
      ],
      [
        "Ø±Ø§ÙħØ©",
        -1.0
      ],
      [
        "à¸±à¸Ļà¸Ĺà¸³à¹ĥà¸«",
        -1.0
      ],
      [
        "ĠexpÃ©rimentale",
        -1.0
      ],
      [
        "-o",
        -1.0
      ],
      [
        "à¹Īà¸²à¸Īà¸°à¹Ħà¸Ķ",
        -1.0
      ],
      [
        "åĽºçĦ¶",
        -1.0
      ],
      [
        "ĠÃ¼stÃ¼ndeki",
        -1.0
      ],
      [
        "ÙħØ¹ÙĩØ§",
        -1.0
      ],
      [
        "ĠburasÄ±",
        -1.0
      ],
      [
        "ä¸ĭå®ļæ±ºå¿ĥ",
        -1.0
      ],
      [
        "ĠÙĨØ§Ø¦Ø¨Ø©",
        -1.0
      ],
      [
        "å°Ĩå¸¦ç»ĻæĤ¨",
        -1.0
      ],
      [
        "Ġà¤ıà¤¨à¤ª",
        -1.0
      ],
      [
        "à°¾à°¯à°£à°®",
        -1.0
      ],
      [
        "æľĢåĢ¼å¾Ĺ",
        -1.0
      ],
      [
        "ĠÃ§aba",
        -1.0
      ],
      [
        "Higuain",
        -1.0
      ],
      [
        "ĠÙĪØ§ÙĦÙĥÙĩØ±Ø¨Ø§Ø¦ÙĬØ©",
        -1.0
      ],
      [
        "ĠØ§ÙĦÙħÙĤØ§Ø·Ø¹Ø©",
        -1.0
      ],
      [
        "ĠÙģØ±Ø¯Ø§",
        -1.0
      ],
      [
        "åį»æ²Ĵ",
        -1.0
      ],
      [
        "ç©¿èµ·ä¾Ĩ",
        -1.0
      ],
      [
        "à¸µà¸łà¸²à¸£à¸ģ",
        -1.0
      ],
      [
        "æľīæīĢé¡¾å¿Į",
        -1.0
      ],
      [
        "ĠÐ¿Ð¾Ð»Ð¸ÑĤÐ¸ÐºÐ¾Ð²",
        -1.0
      ],
      [
        "ĠÐ»ÐµÐ²Ð¾Ð¹",
        -1.0
      ],
      [
        "invest",
        -1.0
      ],
      [
        "à¹ģà¸¥à¸°à¹ģà¸ķ",
        -1.0
      ],
      [
        "Ġowns",
        -1.0
      ],
      [
        "Ġkonunun",
        -1.0
      ],
      [
        "ĠAndroÃ¯d",
        -1.0
      ],
      [
        "ĠÙħÙģØ±Ø¯Ø©",
        -1.0
      ],
      [
        "ä¼ļèĢĥèĻĳ",
        -1.0
      ],
      [
        "ĠÃ©volutions",
        -1.0
      ],
      [
        "à°Ĥà°Ĺà°ª",
        -1.0
      ],
      [
        "ĠÙĪØ§ÙĦØ®Ø§Ø±Ø¬ÙĬ",
        -1.0
      ],
      [
        "Ġà¸ĸà¸²à¸¡",
        -1.0
      ],
      [
        "Ġmaamrisho",
        -1.0
      ],
      [
        "Ġmbeya",
        -1.0
      ],
      [
        "åı£åĳ³",
        -1.0
      ],
      [
        "ĠkapsamÄ±ndaki",
        -1.0
      ],
      [
        "à¹Į/",
        -1.0
      ],
      [
        "à±Ģà°ľà°°",
        -1.0
      ],
      [
        "ĠfraÃ®che",
        -1.0
      ],
      [
        "à¸Īà¸Ļ",
        -1.0
      ],
      [
        "åİ»èĻķ",
        -1.0
      ],
      [
        "Debian",
        -1.0
      ],
      [
        "Ġyerlisini",
        -1.0
      ],
      [
        "ç±»çļĦ",
        -1.0
      ],
      [
        "ÙĪØºÙĬØ±ÙĩØ§",
        -1.0
      ],
      [
        "Baadhi",
        -1.0
      ],
      [
        "æĹłåħ³",
        -1.0
      ],
      [
        "à¸±à¸ĩà¹Ģà¸Ĺ",
        -1.0
      ],
      [
        "ĠØªÙĨ",
        -1.0
      ],
      [
        "Ġgoulag",
        -1.0
      ],
      [
        "æĭīå±İ",
        -1.0
      ],
      [
        "ĠAfaria",
        -1.0
      ],
      [
        "ĠÐ½Ð°Ð³ÑĢÑĥÐ·ÐºÑĥ",
        -1.0
      ],
      [
        "Ġfee",
        -1.0
      ],
      [
        "ĠØªØ¹ÙĦÙĬÙħÙĩØ§",
        -1.0
      ],
      [
        "Lippincott",
        -1.0
      ],
      [
        "à¥Ģà¤Ĺà¤°",
        -1.0
      ],
      [
        "ĠMUHIMU",
        -1.0
      ],
      [
        "ĠÐ·Ð°Ð¹ÑĤÐ¸",
        -1.0
      ],
      [
        "âĢĻexploiter",
        -1.0
      ],
      [
        "ĠgeÃ§ersiz",
        -1.0
      ],
      [
        "Ġedip",
        -1.0
      ],
      [
        "Ġhomologu",
        -1.0
      ],
      [
        "ET",
        -1.0
      ],
      [
        "ĠÙħÙĬØ±ÙĥÙĦ",
        -1.0
      ],
      [
        "Ġunaonekana",
        -1.0
      ],
      [
        "ĠParliament",
        -1.0
      ],
      [
        "Ġpubliquement",
        -1.0
      ],
      [
        "Ø´ÙĪØ©",
        -1.0
      ],
      [
        "à¹ĩà¸Ńà¸ģà¸Ń",
        -1.0
      ],
      [
        "ĠØ§ÙĦÙħØ·Ø±Ø¨",
        -1.0
      ],
      [
        "ĠÐ¸Ð·ÑİÐ¼",
        -1.0
      ],
      [
        "å¤Ħå¤Ħ",
        -1.0
      ],
      [
        "èµ°äºĨè¿Ľåİ»",
        -1.0
      ],
      [
        "ĠÙĨØ§ÙĨØ³ÙĬ",
        -1.0
      ],
      [
        "à¸ģà¸²à¸£à¸ĸà¸Ļà¸Ńà¸¡à¸Ńà¸²à¸«à¸²à¸£",
        -1.0
      ],
      [
        "Ġvoulaient",
        -1.0
      ],
      [
        "ĠÑįÑĢÐ³Ð¾Ð½Ð¾Ð¼Ð¸",
        -1.0
      ],
      [
        "'immatriculation",
        -1.0
      ],
      [
        "çµķå°į",
        -1.0
      ],
      [
        "æĽ´åħ·",
        -1.0
      ],
      [
        "ĠÙĥØ«Ø±Ø©",
        -1.0
      ],
      [
        "å¾®",
        -1.0
      ],
      [
        "ĠrÃ©dacteur",
        -1.0
      ],
      [
        "ĠÐ»Ð¾Ð²",
        -1.0
      ],
      [
        "ĠØ§ÙĦØ¨Ø§Ø¨Ø§",
        -1.0
      ],
      [
        "ĠAnatolien",
        -1.0
      ],
      [
        "à¹Īà¸Īà¸£",
        -1.0
      ],
      [
        "erlik",
        -1.0
      ],
      [
        "Ġguarding",
        -1.0
      ],
      [
        "åľ¨å°ı",
        -1.0
      ],
      [
        "ĠtaÅŁÄ±",
        -1.0
      ],
      [
        "tÄ±k",
        -1.0
      ],
      [
        "Ð¡ÑĨÐµÐ½Ð°ÑĢÐ¸Ð¹",
        -1.0
      ],
      [
        "ĠÐ²ÑĢÐ°Ð³Ð¾Ð²",
        -1.0
      ],
      [
        "ke",
        -1.0
      ],
      [
        "à°¿à°ķà°ķ",
        -1.0
      ],
      [
        "Ġkia",
        -1.0
      ],
      [
        "ĠayrÄ±ntÄ±larÄ±",
        -1.0
      ],
      [
        "ĠØ§ÙĦÙħÙĦØ¹Ø¨",
        -1.0
      ],
      [
        "ĠØªÙĩÙĦÙĥ",
        -1.0
      ],
      [
        "ĠAÃ§Ä±k",
        -1.0
      ],
      [
        "à¸¶à¸ģà¸Ńà¸ļà¸£à¸¡",
        -1.0
      ],
      [
        "ãĢĤåħ¶",
        -1.0
      ],
      [
        "ï¼Įå¿½çĦ¶å¼Ģåı£",
        -1.0
      ],
      [
        "'ajout",
        -1.0
      ],
      [
        "åį»çĦ¡æ³ķ",
        -1.0
      ],
      [
        "çİ°åľ¨åĽŀæĥ³èµ·æĿ¥",
        -1.0
      ],
      [
        "ĠPhalamulu",
        -1.0
      ],
      [
        "Squ",
        -1.0
      ],
      [
        "Ġvoulu",
        -1.0
      ],
      [
        "à¤¾à¤®à¤°",
        -1.0
      ],
      [
        "ĠØ¨Ø§ÙĦØ£Ø³Ø§Ø³",
        -1.0
      ],
      [
        "Ġee",
        -1.0
      ],
      [
        "åĵģçīĮ",
        -1.0
      ],
      [
        "Ġkalmayacak",
        -1.0
      ],
      [
        "ĠrÃ©soudre",
        -1.0
      ],
      [
        "Ø³Ø¯Øª",
        -1.0
      ],
      [
        "Ġcra",
        -1.0
      ],
      [
        "à¹īà¸Ĥ",
        -1.0
      ],
      [
        "ĠItalie",
        -1.0
      ],
      [
        "ĠØ¥ÙĨØ²Ø§ÙĦ",
        -1.0
      ],
      [
        "ĠÃĩukurova",
        -1.0
      ],
      [
        "à±Īà°¨à°µ",
        -1.0
      ],
      [
        "-à¤ħà¤ª",
        -1.0
      ],
      [
        "ĠÑıÐ·ÑĭÐºÐ°Ñħ",
        -1.0
      ],
      [
        "åı¦",
        -1.0
      ],
      [
        "à±ĭà°¡à°²",
        -1.0
      ],
      [
        "Ġukarabati",
        -1.0
      ],
      [
        "è£Ŀéħį",
        -1.0
      ],
      [
        "Ø¤Ø«Ø±",
        -1.0
      ],
      [
        "ĠØ§ØªØµÙĦ",
        -1.0
      ],
      [
        "å¼Ĥé¢ĳéĽ·è¾¾æĶ¶åıĳåĻ¨",
        -1.0
      ],
      [
        "Ġseksi",
        -1.0
      ],
      [
        "Ġblessing",
        -1.0
      ],
      [
        "ĠØªØ¹Ø·ÙĬÙĦ",
        -1.0
      ],
      [
        "ĠØ§ÙĦØ«Ø§ÙĨÙī",
        -1.0
      ],
      [
        "ï¼Įä¼Łåĵ¥",
        -1.0
      ],
      [
        "ĠgeÃ§erek",
        -1.0
      ],
      [
        "Ġà¤ĩà¤ļ",
        -1.0
      ],
      [
        "æļ´éľ²äºİç´«å¤ĸçº¿",
        -1.0
      ],
      [
        "à¸Ńà¸ĩà¸£",
        -1.0
      ],
      [
        "Any",
        -1.0
      ],
      [
        "ĠTÃľ",
        -1.0
      ],
      [
        "ÙĨØºÙħØ§Øª",
        -1.0
      ],
      [
        "ĠÃ§evresine",
        -1.0
      ],
      [
        "ĠGilligan",
        -1.0
      ],
      [
        "à¤¿à¤¯",
        -1.0
      ],
      [
        "è¨Ģè¯Ń",
        -1.0
      ],
      [
        ".ÙĬ",
        -1.0
      ],
      [
        "å·²ä¸į",
        -1.0
      ],
      [
        "ĠØ§ÙĦØ¶Ø±ÙĪØ±ÙĬ",
        -1.0
      ],
      [
        "à¸µà¸¢à¸ģà¹Ģà¸ª",
        -1.0
      ],
      [
        "ĠGus",
        -1.0
      ],
      [
        "ĠÐ¼Ð¸ÐµÐ»Ð¾Ð°Ð±Ð»Ð°",
        -1.0
      ],
      [
        "ĠÐºÐ»Ð°Ð´Ð±Ð¸ÑīÐµ",
        -1.0
      ],
      [
        "æĺ¯åĨĻ",
        -1.0
      ],
      [
        "è¾¦åħ¬æĹ¥æĽĨè¡¨",
        -1.0
      ],
      [
        "ĠÐµÑīÑĳ",
        -1.0
      ],
      [
        "æı¡æīĭ",
        -1.0
      ],
      [
        "ÐĳÐ¸Ð»ÐµÑĤÑĭ",
        -1.0
      ],
      [
        "ĠÙģÙħØ±",
        -1.0
      ],
      [
        "-à¤ıà¤ķ",
        -1.0
      ],
      [
        "ĠJdeveloper",
        -1.0
      ],
      [
        "ĠØ§ÙĦÙģÙĪØ§Ø¦Ø¯",
        -1.0
      ],
      [
        "ĠÑģÐ°ÑĤÐ°Ð½",
        -1.0
      ],
      [
        "ĠÙĬØªÙĦØ£ÙĦØ£",
        -1.0
      ],
      [
        "ĠÐºÐ¾Ð»Ð¸ÑĩÐµÑģÑĤÐ²Ð°Ñħ",
        -1.0
      ],
      [
        "Ġorganizations",
        -1.0
      ],
      [
        "Ð°Ð³ÐµÐ½ÑĤ",
        -1.0
      ],
      [
        "à°Ķà°Ł",
        -1.0
      ],
      [
        "à¸¸à¹ī",
        -1.0
      ],
      [
        "ĠÙĬØ®ØªÙĦÙģØ§ÙĨ",
        -1.0
      ],
      [
        "ĠÑģÐ°Ð¹ÑĤÐ¾Ð¼",
        -1.0
      ],
      [
        "tahriif",
        -1.0
      ],
      [
        "å¼łæĤŁæľ¬",
        -1.0
      ],
      [
        "ossip",
        -1.0
      ],
      [
        "ĠINTERNATIONAL",
        -1.0
      ],
      [
        "ĠØ§ÙĦØ§Ø¨ØªØ¯Ø§Ø¦ÙĬ",
        -1.0
      ],
      [
        "ĠØ§ÙĦÙģØ³ÙģØ§Ø·",
        -1.0
      ],
      [
        "ĠÙĪØ§ÙĦÙĩÙĬØ¦Ø§Øª",
        -1.0
      ],
      [
        "åĸ®",
        -1.0
      ],
      [
        "éĤĦOK",
        -1.0
      ],
      [
        "ĠØ¨Ø³Ø±",
        -1.0
      ],
      [
        "ÙıØ³ÙħÙī",
        -1.0
      ],
      [
        "ÐĹÐ¾Ð»Ð¾ÑĤ",
        -1.0
      ],
      [
        "Ð°Ð½",
        -1.0
      ],
      [
        "à¸µâĢĿ",
        -1.0
      ],
      [
        "ĠÐ¼Ð»Ð°Ð´ÐµÐ½ÐµÑĨ",
        -1.0
      ],
      [
        "ĠÐ¾ÑĤÐºÑĢÑĭÑĤÐ¸Ð¸",
        -1.0
      ],
      [
        "ĠÑĥÐ·ÐºÐ¾",
        -1.0
      ],
      [
        "Ġexpliquer",
        -1.0
      ],
      [
        "Ġunusual",
        -1.0
      ],
      [
        "ÙĥØ§Ø¯",
        -1.0
      ],
      [
        "Ġchips",
        -1.0
      ],
      [
        "Ġdelay",
        -1.0
      ],
      [
        "ĠØ£ÙĨØ¯Ø±ÙĪÙĨÙĬÙĥÙĪØ³",
        -1.0
      ],
      [
        "à¸²à¸¢à¸¥",
        -1.0
      ],
      [
        "wale",
        -1.0
      ],
      [
        "-Ð´ÐµÐ¼Ð¾ÐºÑĢÐ°ÑĤ",
        -1.0
      ],
      [
        "à¸¸à¸¥à¸¢",
        -1.0
      ],
      [
        "ÐĺÐ¢ÐķÐ¡Ð¬",
        -1.0
      ],
      [
        "éĿ",
        -1.0
      ],
      [
        "à¤¬à¤°",
        -1.0
      ],
      [
        "ĠÐºÐ¾Ð¼Ð¼ÐµÑĢ",
        -1.0
      ],
      [
        "Ġpamuk",
        -1.0
      ],
      [
        "éĩįè¦ĸ",
        -1.0
      ],
      [
        "èĲ¬çī©æľīéĿĪè«ĸ",
        -1.0
      ],
      [
        "ä¿¡éĿłåĴĮçıį",
        -1.0
      ],
      [
        "ĠØµØ§Ø¯ÙĤØ©",
        -1.0
      ],
      [
        "ĠØ¸ÙĪØ§ÙĩØ±",
        -1.0
      ],
      [
        "run",
        -1.0
      ],
      [
        "atre",
        -1.0
      ],
      [
        "ĠdanÃ½Ã¾manlÃ½k",
        -1.0
      ],
      [
        "Ġflavour",
        -1.0
      ],
      [
        "à¸Īà¸°à¹Ģà¸¥",
        -1.0
      ],
      [
        "Possession",
        -1.0
      ],
      [
        "ç´ħçļĦæľ¨çĤŃ",
        -1.0
      ],
      [
        "laki",
        -1.0
      ],
      [
        "à¸Ńà¸²à¸Īà¸¡",
        -1.0
      ],
      [
        "å°ĳå¥³éĽĻèħ¿",
        -1.0
      ],
      [
        "à¸ĩà¹Ģà¸ŀà¸£à¸²à¸°",
        -1.0
      ],
      [
        "å¤ľå¸Ĥ",
        -1.0
      ],
      [
        "ĠØªØ°ÙĦÙĬÙĦ",
        -1.0
      ],
      [
        "ĠÐ´Ð¸ÑģÑĤÑĢÐ¸Ð±ÑĥÑĤÐ¸Ð²Ð°",
        -1.0
      ],
      [
        "ĠFletcher",
        -1.0
      ],
      [
        "-for",
        -1.0
      ],
      [
        "ĠÙĤÙĬØ±Ø§Ø·ÙĬÙĨ",
        -1.0
      ],
      [
        "ĠØ§Ø¯Ø¹Ùī",
        -1.0
      ],
      [
        "ĠÙģØ§Ø±ØºØ©",
        -1.0
      ],
      [
        "hana",
        -1.0
      ],
      [
        "ĠÙĦØ£Ø±Ø³Ø·ÙĪ",
        -1.0
      ],
      [
        ".à¹Ģà¸¡",
        -1.0
      ],
      [
        "ĠDee",
        -1.0
      ],
      [
        "ĠÙĪØ§ÙĦØªØ§Ø±ÙĬØ®ÙĬØ©",
        -1.0
      ],
      [
        "ĠÐºÐ°Ð¼ÐµÐ½ÑĮ",
        -1.0
      ],
      [
        "ĠÙĦØŃØ¸Ø©",
        -1.0
      ],
      [
        "ĠTopÃ§u",
        -1.0
      ],
      [
        "âĢĻadoption",
        -1.0
      ],
      [
        "angamizwa",
        -1.0
      ],
      [
        "à¸±à¸Ļà¹ģà¸£à¸ģ",
        -1.0
      ],
      [
        "ĠÙħØ´Ø±ÙĪØ¹Ø§Øª",
        -1.0
      ],
      [
        "Ġà¸ŀà¸¤à¸©à¸ł",
        -1.0
      ],
      [
        "ĠØ§ÙĦØµÙĬÙĨÙĬ",
        -1.0
      ],
      [
        "kumbukeni",
        -1.0
      ],
      [
        "æ¯Ķåĸ»",
        -1.0
      ],
      [
        "åĪĽåĬŀ",
        -1.0
      ],
      [
        "ĠÐ½Ð°ÑħÐ¾Ð´Ð¸Ð¼",
        -1.0
      ],
      [
        "ĠSilk",
        -1.0
      ],
      [
        "Ġà¤ĸà¤¤à¤°à¤¨",
        -1.0
      ],
      [
        "Ġrefleks",
        -1.0
      ],
      [
        "ÙĪØ¬Ø§",
        -1.0
      ],
      [
        "Ġå¸Ŀåļ³",
        -1.0
      ],
      [
        "ĠÐ²ÑĭÐµÐ·Ð´Ð°",
        -1.0
      ],
      [
        "tage",
        -1.0
      ],
      [
        "ĠFlow",
        -1.0
      ],
      [
        "ĠÂ»Ċ",
        -1.0
      ],
      [
        "ĠWilderness",
        -1.0
      ],
      [
        "Ð¡ÑĥÑīÐµÑģÑĤÐ²ÑĥÑİÑĤ",
        -1.0
      ],
      [
        "sti",
        -1.0
      ],
      [
        "ÙĥÙĪÙĦ",
        -1.0
      ],
      [
        "ĠaldanmayÄ±n",
        -1.0
      ],
      [
        "æĿ¥åıĤåĬł",
        -1.0
      ],
      [
        "ĠJackman",
        -1.0
      ],
      [
        "ä¹ĭåīįåħĪ",
        -1.0
      ],
      [
        "JabRef",
        -1.0
      ],
      [
        "ĠÐ°ÐºÑĤÐµÑĢÐ¾Ð²",
        -1.0
      ],
      [
        "äºĨä¸Ģ",
        -1.0
      ],
      [
        "ï¼ĮéĢĻäºĽ",
        -1.0
      ],
      [
        "ĠØ«Ø§ÙĨÙĪÙĬØ©",
        -1.0
      ],
      [
        "ÙħØ±Ø§Øª",
        -1.0
      ],
      [
        "ĠÐ¾Ð·Ð°Ð´Ð°Ñĩ",
        -1.0
      ],
      [
        "fasihi",
        -1.0
      ],
      [
        "Ġtuko",
        -1.0
      ],
      [
        "Ġmabonde",
        -1.0
      ],
      [
        "ĠØ§ÙĦØªØ¯Ø±ÙĬØ¨ÙĬØ©",
        -1.0
      ],
      [
        "Ġmaalum",
        -1.0
      ],
      [
        "Ġurembo",
        -1.0
      ],
      [
        "ĠÙĪØ§Ø³Ø·Ø©",
        -1.0
      ],
      [
        "Ð¸Ð²Ð°ÑİÑīÐµÐ³Ð¾",
        -1.0
      ],
      [
        "à°¾à°¨à°¯",
        -1.0
      ],
      [
        "Ġà¸Ńà¹Ģà¸¥",
        -1.0
      ],
      [
        "ĠØ§ÙĨØŃ",
        -1.0
      ],
      [
        "ï¼Įå·®ä¸įå¤ļ",
        -1.0
      ],
      [
        "ĠÐ±ÑĢÐµ",
        -1.0
      ],
      [
        "à¹Īà¸Ńà¸Ķ",
        -1.0
      ],
      [
        "Ġà¹Ĥà¸ķà¹Ĥà¸¢à¸ķ",
        -1.0
      ],
      [
        "ĠØ¨Ø§ÙĦØ§Ø³ØªÙĨØ§Ø¯",
        -1.0
      ],
      [
        "Ġplates",
        -1.0
      ],
      [
        "à¹ĩà¸Ļà¸¡",
        -1.0
      ],
      [
        "æµ·æ´ĭçĶŁçī©æĻ®æŁ¥",
        -1.0
      ],
      [
        "Ġaokolewe",
        -1.0
      ],
      [
        "ĠÑģÑĨÐµÐ½Ð°ÑĢÐ¸Ð¸",
        -1.0
      ],
      [
        "ĠÙħØªØµÙĦØ§",
        -1.0
      ],
      [
        "à±ĩà°ªà°²",
        -1.0
      ],
      [
        "å¤§ä¸ŃåŀĭçĶµæľº",
        -1.0
      ],
      [
        "Ġyaliyofanywa",
        -1.0
      ],
      [
        "ĠdextÃ©ritÃ©",
        -1.0
      ],
      [
        "'ins",
        -1.0
      ],
      [
        "ombo",
        -1.0
      ],
      [
        "à¸ĵà¸°à¸Ĺà¸³à¸ĩà¸²à¸Ļ",
        -1.0
      ],
      [
        "æĻ®éĽ·åĽ¾",
        -1.0
      ],
      [
        "ĠØ³ÙĬØ§",
        -1.0
      ],
      [
        "Ð¤Ð°ÑĤÐ¸Ð¼Ð°",
        -1.0
      ],
      [
        "à±Įà°ķà°²",
        -1.0
      ],
      [
        "ebilen",
        -1.0
      ],
      [
        "ĠÐ¶ÐµÐ½ÑīÐ¸Ð½Ñĥ",
        -1.0
      ],
      [
        "à¸¶à¸ģà¹Ģà¸«",
        -1.0
      ],
      [
        "Ġmaofisa",
        -1.0
      ],
      [
        "ĠÐ²Ð´Ð°Ð»Ð¸",
        -1.0
      ],
      [
        "mant",
        -1.0
      ],
      [
        "ãĢĤè¯·åĲ¬èģĶåĲĪåĽ½çĶµåı°è®°èĢħ",
        -1.0
      ],
      [
        "ĠÙĪØºØ§ÙĬØ©",
        -1.0
      ],
      [
        "ĠÐ¿ÑĢÐµÐºÑĢÐ°ÑģÐ½ÑĭÐµ",
        -1.0
      ],
      [
        "ĠbaÅŁlama",
        -1.0
      ],
      [
        "à°¿à°®à°Ł",
        -1.0
      ],
      [
        "Ð¹Ð´Ñı",
        -1.0
      ],
      [
        "ĠPROPERTY",
        -1.0
      ],
      [
        "Ġ)",
        -1.0
      ],
      [
        "ĠPlace",
        -1.0
      ],
      [
        "Ġ[[",
        -1.0
      ],
      [
        "Ġfroide",
        -1.0
      ],
      [
        "ç³»çļĦ",
        -1.0
      ],
      [
        "ĠacÄ±k",
        -1.0
      ],
      [
        "à¸¶à¸ģà¸Ĥ",
        -1.0
      ],
      [
        "ĠÐ°ÑįÑĢÐ¾",
        -1.0
      ],
      [
        "à¹Ģà¸£à¸Ĥà¸¨",
        -1.0
      ],
      [
        "Ġexplore",
        -1.0
      ],
      [
        "Ø¨Ø§Ø¦ÙĦ",
        -1.0
      ],
      [
        "ĠØ§ÙĦÙĪØ±Ø¹",
        -1.0
      ],
      [
        "ĠÙĪØ§ÙĦÙħØµØ·ÙĦØŃØ§Øª",
        -1.0
      ],
      [
        "ĠØ§ÙĦØ¹ÙĪØ§Ø·Ùģ",
        -1.0
      ],
      [
        "ĠColon",
        -1.0
      ],
      [
        "Ġà°ĩà°ķà°®",
        -1.0
      ],
      [
        "æ±ºçŃĸ",
        -1.0
      ],
      [
        "ĠØ§ÙĦØ·Ø§Ø¹Ø©",
        -1.0
      ],
      [
        "à¹ģà¸ļà¸ļà¸Ħ",
        -1.0
      ],
      [
        "ĠØ§ÙĦÙĥØ¨ÙĬØ±Ùĩ",
        -1.0
      ],
      [
        "ĠØ¨ÙħÙĨØ¸ÙħØ©",
        -1.0
      ],
      [
        "ĠÐŁÐµÑĢÑģÐ¸Ñİ",
        -1.0
      ],
      [
        "Ġfeatured",
        -1.0
      ],
      [
        "ÙĬØ¯Ø©",
        -1.0
      ],
      [
        "04",
        -1.0
      ],
      [
        "åħ©åĢį",
        -1.0
      ],
      [
        "à¤ıà¤¸",
        -1.0
      ],
      [
        "ĠÐ¶ÐµÐ»Ð°Ð½Ð¸Ñı",
        -1.0
      ],
      [
        ".ÃĩÃ¼nkÃ¼",
        -1.0
      ],
      [
        "AllahÄ±m",
        -1.0
      ],
      [
        "ĠÑĢÐµÑĪÐ¸Ð»",
        -1.0
      ],
      [
        "ĠÐ¸Ð½ÑĤÐµÐ»Ð»ÐµÐºÑĤÑĥÐ°Ð»ÑĮÐ½ÑĭÑħ",
        -1.0
      ],
      [
        "Philip",
        -1.0
      ],
      [
        "Ġampl",
        -1.0
      ],
      [
        "à°Ĩà°¯",
        -1.0
      ],
      [
        "è§īå¾Ĺ",
        -1.0
      ],
      [
        "Ġjulai",
        -1.0
      ],
      [
        "à°ķà°¥à°²",
        -1.0
      ],
      [
        "à°¿à°µ",
        -1.0
      ],
      [
        "à¹Ī-",
        -1.0
      ],
      [
        "Ø§ØŃØªÙĦØ§ÙĦ",
        -1.0
      ],
      [
        "ĠNancy",
        -1.0
      ],
      [
        "ĠØ´Ø±ÙĬÙģ",
        -1.0
      ],
      [
        "ĠØ§ÙĦØ¥ÙħØ§Ø±Ø©",
        -1.0
      ],
      [
        "ĠÐĴÑģÐµÐ¼Ð¸ÑĢÐ½Ð¾Ð¹",
        -1.0
      ],
      [
        "ĠØ§ÙĦØ§Ø¬ØªÙĩØ§Ø¯ÙĬØ©",
        -1.0
      ],
      [
        "Ġsunulan",
        -1.0
      ],
      [
        "Ġupscale",
        -1.0
      ],
      [
        "ĠKova",
        -1.0
      ],
      [
        "à¹Īà¹ĥà¸Īà¸§",
        -1.0
      ],
      [
        "Ġpan",
        -1.0
      ],
      [
        "Louis",
        -1.0
      ],
      [
        "å¯Įæľī",
        -1.0
      ],
      [
        "Ø±Ø§Ùĥ",
        -1.0
      ],
      [
        "Ġzaman",
        -1.0
      ],
      [
        "ĠØ§Ø¹ÙĦØ§Ùħ",
        -1.0
      ],
      [
        "çī¹éĩĮ",
        -1.0
      ],
      [
        "ĠØ§ÙĦØ«ÙħØ§Ø±",
        -1.0
      ],
      [
        "éĻįåĪ°",
        -1.0
      ],
      [
        "Ð¿ÑĢÐ¾ÐµÐºÑĤ",
        -1.0
      ],
      [
        "ĠkÃ¼Ã§Ã¼ltme",
        -1.0
      ],
      [
        "hafi",
        -1.0
      ],
      [
        "ĠÙĦÙĦÙħØ³ØªØ®Ø¯ÙħÙĬÙĨ",
        -1.0
      ],
      [
        "ĠÑĢÑĥÐºÐ¾Ð²Ð¾Ð´Ð¸Ð»",
        -1.0
      ],
      [
        "ĠØ¥ÙĦØŃØ§ÙĤ",
        -1.0
      ],
      [
        "ĠØ§ØªØ¬Ø§ÙĩÙĩ",
        -1.0
      ],
      [
        "ĠIntelligence",
        -1.0
      ],
      [
        "à¤¿à¤ĸà¤°",
        -1.0
      ],
      [
        "ĠÐ¨Ð²ÐµÐ¹ÑĨÐ°ÑĢÐ¸Ð¸",
        -1.0
      ],
      [
        "makta",
        -1.0
      ],
      [
        "ĠayÄ±rma",
        -1.0
      ],
      [
        "å¸¶åħ¥",
        -1.0
      ],
      [
        "ĠAbubakar",
        -1.0
      ],
      [
        "çİĩçļĦ",
        -1.0
      ],
      [
        "ĠÐ±Ñĭ",
        -1.0
      ],
      [
        "ĠUygulan",
        -1.0
      ],
      [
        "Ġà¤®à¤¤à¤¦",
        -1.0
      ],
      [
        "ĠØ¨Ø§ÙĦØ²ÙĬØ§Ø¯Ø©",
        -1.0
      ],
      [
        "ĠÙĪØ³Ø¤Ø§ÙĦ",
        -1.0
      ],
      [
        "Ġtraits",
        -1.0
      ],
      [
        "ĠØ³Ø§Ø¦ÙĤØ§",
        -1.0
      ],
      [
        "ĠÙĪØ§ÙħÙĦØ¦",
        -1.0
      ],
      [
        "Ġvampire",
        -1.0
      ],
      [
        "ibles",
        -1.0
      ],
      [
        "Ã§ocuÄŁ",
        -1.0
      ],
      [
        "ÐĲÐļÐ¢ÐĺÐĴ",
        -1.0
      ],
      [
        "Ġtelevisheni",
        -1.0
      ],
      [
        "âĢĻinscription",
        -1.0
      ],
      [
        "ĠØŃÙģÙĬØ¸Ø©",
        -1.0
      ],
      [
        "nca",
        -1.0
      ],
      [
        "ĠWEBSITE",
        -1.0
      ],
      [
        "à¸Ńà¸²à¹Ģà¸Īà¸ģà¸£",
        -1.0
      ],
      [
        "ĠÙĬÙĪÙĨØ§ÙĬØªØ¯",
        -1.0
      ],
      [
        "ÐŁÐ¾Ð´ÐµÐ»ÐºÐ°",
        -1.0
      ],
      [
        "ĠMAHUSIANO",
        -1.0
      ],
      [
        "ĠÐ¿Ð¾Ð´Ð´Ð¸ÑĢÐµÐºÑĤÐ¾ÑĢÐ¸Ð¸",
        -1.0
      ],
      [
        "ĠÐ¿ÑĢÐ°Ð²Ð¾",
        -1.0
      ],
      [
        "éĹ¨ä¸Ĭæķ²",
        -1.0
      ],
      [
        "à¸¹à¹Ģà¸Ļ",
        -1.0
      ],
      [
        "mÄ±zdÄ±r",
        -1.0
      ],
      [
        "ĠZa",
        -1.0
      ],
      [
        "Ġendelea",
        -1.0
      ],
      [
        "à¸¸à¸Ĭ",
        -1.0
      ],
      [
        "Ġkavimlerde",
        -1.0
      ],
      [
        "'annÃ©es",
        -1.0
      ],
      [
        "ĠvivacitÃ©",
        -1.0
      ],
      [
        "Ġbord",
        -1.0
      ],
      [
        "ĠÐ¿Ð¾Ð´Ð³Ð¾ÑĤÐ¾Ð²ÐºÐ¸",
        -1.0
      ],
      [
        "à¹Ģà¸ĭà¸Ļà¸ķ",
        -1.0
      ],
      [
        "Ġwakopaji",
        -1.0
      ],
      [
        "à±įà°Ĺà°µ",
        -1.0
      ],
      [
        "ĠØ§ÙĦØ£Ø´Ø±Ø·Ø©",
        -1.0
      ],
      [
        "è®²éģĵ",
        -1.0
      ],
      [
        "âĦ¢",
        -1.0
      ],
      [
        "Ġkullanmak",
        -1.0
      ],
      [
        "Ð¡Ð¾Ð±ÑģÑĤÐ²ÐµÐ½Ð½Ð¾",
        -1.0
      ],
      [
        "à¸±à¸Ķà¸Īà¸²à¸ģ",
        -1.0
      ],
      [
        "à¸Ńà¸¢à¸Ńà¸¢",
        -1.0
      ],
      [
        "Ġnegatif",
        -1.0
      ],
      [
        "Ġnamuslu",
        -1.0
      ],
      [
        "ĠØªØŃØ±ÙĥØ§Øª",
        -1.0
      ],
      [
        "ĠØ§ÙĦØ§Ø´ØªØ±Ø§ÙĥÙĬØ©",
        -1.0
      ],
      [
        "å®ŀçİ°",
        -1.0
      ],
      [
        "ĠplacÃ©",
        -1.0
      ],
      [
        "-ÙħØ±ØŃÙĦØ©",
        -1.0
      ],
      [
        "à±ĭ....",
        -1.0
      ],
      [
        "à¸´à¸Ļà¸ģà¸²à¸£à¸ķ",
        -1.0
      ],
      [
        "èªªæĺİæľĥ",
        -1.0
      ],
      [
        "ĠÐ¡ÐµÐ±Ðµ",
        -1.0
      ],
      [
        "ĠØ¨Ø°Ø±ÙĬØ¹Ø©",
        -1.0
      ],
      [
        "æĶ¯æĮģçļĦ",
        -1.0
      ],
      [
        "ĠÐ²Ð¾Ð·Ð´ÑĥÑĪÐ½ÑĭÐ¹",
        -1.0
      ],
      [
        "ĠmodifiÃ©s",
        -1.0
      ],
      [
        "ĠÐ½Ð°Ð·ÑĭÐ²Ð°ÐµÐ¼ÑĭÐ¹",
        -1.0
      ],
      [
        "ĠSAKRAMENTI",
        -1.0
      ],
      [
        "ĠØ³ÙĦÙħØª",
        -1.0
      ],
      [
        "åĪĬçī©",
        -1.0
      ],
      [
        "ĠÙĨØ³Ø¨ÙĬØ§",
        -1.0
      ],
      [
        "åĬŀåħ¬å®¤",
        -1.0
      ],
      [
        "ĠÐĳÑĭÐ»",
        -1.0
      ],
      [
        "à¸¹à¸¥à¹ĥà¸«",
        -1.0
      ],
      [
        "à¹Ģà¸«à¸£",
        -1.0
      ],
      [
        "ĠÄ±yÄ±",
        -1.0
      ],
      [
        "å·¥åķĨ",
        -1.0
      ],
      [
        "Ġcomposite",
        -1.0
      ],
      [
        "åħĪéĢ²æ©Łåł´æĬĢè¡ĵ",
        -1.0
      ],
      [
        "éĢļåĭ¤åĴĮéĢļåŃ¦æĹ¶",
        -1.0
      ],
      [
        "Ġpalestinien",
        -1.0
      ],
      [
        "Ġà¤ĸà¤°",
        -1.0
      ],
      [
        "Ġpamwe",
        -1.0
      ],
      [
        "ĠÙħÙĩÙħØ§",
        -1.0
      ],
      [
        "ĠÙĦÙĤØµÙĪØ±",
        -1.0
      ],
      [
        "ĠÙĤØ¨ÙĦØ§",
        -1.0
      ],
      [
        "à¹Īà¹ģà¸«",
        -1.0
      ],
      [
        "ĠÐºÐ½Ð¾Ð¿ÐºÐµ",
        -1.0
      ],
      [
        "èľ",
        -1.0
      ],
      [
        "ĠDeneyimlerinizi",
        -1.0
      ],
      [
        "à¸ŀà¸£à¸°à¸£à¸²à¸Ĭà¸Ļ",
        -1.0
      ],
      [
        "Ġebeveyn",
        -1.0
      ],
      [
        "ĠØ´Ø¹ÙĬØ±",
        -1.0
      ],
      [
        "à¸Ļà¸¡à¸²à¸Īà¸²à¸ģ",
        -1.0
      ],
      [
        "Ġduygusu",
        -1.0
      ],
      [
        "Ð¸ÑĢÐ°Ñı",
        -1.0
      ],
      [
        "ãĢģçĻ½",
        -1.0
      ],
      [
        "æĹłè®ºæĺ¯",
        -1.0
      ],
      [
        "ĠYÃ¶nergesi",
        -1.0
      ],
      [
        "ĠNorfolk",
        -1.0
      ],
      [
        "à°ļà°®à°¨",
        -1.0
      ],
      [
        "Ġdenilmektedir",
        -1.0
      ],
      [
        "Ġmfumuko",
        -1.0
      ],
      [
        "ĠØªÙĦÙħ",
        -1.0
      ],
      [
        "à¸¸à¸ľà¸¥à¸§",
        -1.0
      ],
      [
        "çªģåıĳçİ¯å¢ĥæ±¡æŁĵäºĭä»¶åºĶæĢ¥å¤Ħç½®å·¥ä½ľç»ĵæĿŁåĲİ",
        -1.0
      ],
      [
        "ĠRektÃ¶r",
        -1.0
      ],
      [
        "ĠÙĬØ¹ÙĨÙĬ",
        -1.0
      ],
      [
        "ĠØ§ÙĦÙĩÙĬØ±ÙĪØºÙĦÙĬÙģÙĬØ©",
        -1.0
      ],
      [
        "ĠÐ¾Ð¶Ð¸Ð´Ð°ÐµÑĤ",
        -1.0
      ],
      [
        "ĠØªØºØ°ÙĬØ©",
        -1.0
      ],
      [
        "Ġpourtant",
        -1.0
      ],
      [
        "ĠconfÃ©rence",
        -1.0
      ],
      [
        "ĠNorwegian",
        -1.0
      ],
      [
        "ĠØ¬ÙĬÙĨ",
        -1.0
      ],
      [
        "ĠÑĩÐµÐ¼Ð¾Ð´Ð°Ð½",
        -1.0
      ],
      [
        "ĠCALCULAT",
        -1.0
      ],
      [
        "tures",
        -1.0
      ],
      [
        "ĠÑģÑĥÐ´ÑĮÐ±Ðµ",
        -1.0
      ],
      [
        "ĠÑĤÑĢÐ°Ð½ÑģÑĦÐµÑĢ",
        -1.0
      ],
      [
        "Ġvermemektedir",
        -1.0
      ],
      [
        "æĪıåī§",
        -1.0
      ],
      [
        "Ġkujiona",
        -1.0
      ],
      [
        "ĠAPI",
        -1.0
      ],
      [
        "ĠHaritha",
        -1.0
      ],
      [
        "æ§",
        -1.0
      ],
      [
        "ÃĢ",
        -1.0
      ],
      [
        "ÐłÐµÐ¼Ð¾Ð½ÑĤ",
        -1.0
      ],
      [
        "ĠBluetooth",
        -1.0
      ],
      [
        "Itaendelea",
        -1.0
      ],
      [
        "?'Ċ",
        -1.0
      ],
      [
        "ÙĲØ°",
        -1.0
      ],
      [
        "ĠNos",
        -1.0
      ],
      [
        "à¸±à¸ĩà¸¨",
        -1.0
      ],
      [
        "éĤ£ç¨®",
        -1.0
      ],
      [
        "Ġà¤ħà¤¹",
        -1.0
      ],
      [
        "ĠØŃØ§Ø¬ØªÙĬ",
        -1.0
      ],
      [
        "è¿Ľè¡ĮåĨ³çŃĸçļĦæĹ¶åĢĻ",
        -1.0
      ],
      [
        "urs",
        -1.0
      ],
      [
        "à¸īà¸ģà¸£à¸£à¸Ī",
        -1.0
      ],
      [
        "Ġkiwahabi",
        -1.0
      ],
      [
        "Ġov",
        -1.0
      ],
      [
        "ĠÐ¸ÑģÑĤÐµÑĩÐµÐ½Ð¸Ð¸",
        -1.0
      ],
      [
        "ÐĶÐ¸Ð¿Ð»Ð¾Ð¼",
        -1.0
      ],
      [
        "éĬľæİ¥",
        -1.0
      ],
      [
        "ĠgiriÅŁi",
        -1.0
      ],
      [
        "Defense",
        -1.0
      ],
      [
        "ĠÑĢÐ¾Ð¼Ð°Ð½Ð°",
        -1.0
      ],
      [
        ".//",
        -1.0
      ],
      [
        "fedhehesha",
        -1.0
      ],
      [
        "Ã©nÃ©",
        -1.0
      ],
      [
        ",è½¯è´¨",
        -1.0
      ],
      [
        "Ġpaysan",
        -1.0
      ],
      [
        "çļĦæĢ§æł¼",
        -1.0
      ],
      [
        "ĠiWowWe",
        -1.0
      ],
      [
        "à¸ģà¸ª",
        -1.0
      ],
      [
        "ÙĬÙĬØ¹",
        -1.0
      ],
      [
        "Ø£Ø±Ø§Ø¶ÙĬ",
        -1.0
      ],
      [
        "ĠcohÃ©rent",
        -1.0
      ],
      [
        "Ġdost",
        -1.0
      ],
      [
        "Ġfilamu",
        -1.0
      ],
      [
        "à°¾à°Łà°¡",
        -1.0
      ],
      [
        "Ġmji",
        -1.0
      ],
      [
        "ĠØ£Ø®Ø±Ùī",
        -1.0
      ],
      [
        "ying",
        -1.0
      ],
      [
        "Harvesting",
        -1.0
      ],
      [
        "à±ĩà°ķà°¦",
        -1.0
      ],
      [
        "ĠÐŁÐ¾ÑģÑĤÐ°Ð²",
        -1.0
      ],
      [
        "ĠÐłÐ¸Ð´Ð¶ÐµÐ½ÑģÐ¸",
        -1.0
      ],
      [
        "'arrosage",
        -1.0
      ],
      [
        "Ġgentilhomme",
        -1.0
      ],
      [
        "è¼ī",
        -1.0
      ],
      [
        "ä»ĬåĲİ",
        -1.0
      ],
      [
        "terem",
        -1.0
      ],
      [
        "ĠÐ¿Ð¾ÐºÑĢÐ°Ñģ",
        -1.0
      ],
      [
        "à¸´à¹Ģà¸¨à¸©à¸Ĥà¸Ńà¸ĩ",
        -1.0
      ],
      [
        "ĠØ¯Ø¹ÙĪÙĨØ§",
        -1.0
      ],
      [
        "ĠKÃ¼lliyesi",
        -1.0
      ],
      [
        "ĠÐ¥Ð¾ÑĩÑĥ",
        -1.0
      ],
      [
        "åĪ¤åĨ³",
        -1.0
      ],
      [
        "ĠÐĺÐ¼",
        -1.0
      ],
      [
        "ĠØ¨Ø§Ø±Ø¯Ø©",
        -1.0
      ],
      [
        "ĠWM",
        -1.0
      ],
      [
        "ĠnÃ©gociations",
        -1.0
      ],
      [
        "ä»¶å¾Ī",
        -1.0
      ],
      [
        "à¸¸à¸Ļà¹Ģà¸§",
        -1.0
      ],
      [
        "KahvaltÄ±",
        -1.0
      ],
      [
        "Ġfondatrice",
        -1.0
      ],
      [
        "ĠIC",
        -1.0
      ],
      [
        "ĠayrÄ±ntÄ±ya",
        -1.0
      ],
      [
        "Ġwanaoishi",
        -1.0
      ],
      [
        "ĠÙħØ´Ø§Ø±ÙĥØ§ØªÙĥ",
        -1.0
      ],
      [
        "à¸Ńà¸ĩà¸«",
        -1.0
      ],
      [
        "ĠvÃªtements",
        -1.0
      ],
      [
        "Ð¸Ð²ÑĪÐ¸Ñħ",
        -1.0
      ],
      [
        "à¸±à¸Ļà¸¡à¸°à¸ŀà¸£",
        -1.0
      ],
      [
        "ĠbulaÅŁan",
        -1.0
      ],
      [
        "ĠÐ·Ð´ÑĢÐ°Ð²",
        -1.0
      ],
      [
        "Aug",
        -1.0
      ],
      [
        "Ġergonomik",
        -1.0
      ],
      [
        "ÑĤÐ°ÑĨÐ¸Ñı",
        -1.0
      ],
      [
        "à¸´à¸Ļà¸ĩà¸²à¸Ļà¸Ĥà¸Ńà¸ĩà¹Ģà¸Ĺà¸¨à¸ļà¸²à¸¥",
        -1.0
      ],
      [
        "SEÃĩÄ°M",
        -1.0
      ],
      [
        "à¸±à¸ĩà¸ģà¸¥",
        -1.0
      ],
      [
        "ĠØ§ÙĦØªØŃØ§ÙĪØ±",
        -1.0
      ],
      [
        "ĠÐ¿Ð»Ð¾ÑħÐ¾Ð¹",
        -1.0
      ],
      [
        "sÃ½",
        -1.0
      ],
      [
        "Ø£Ø²ÙħØ©",
        -1.0
      ],
      [
        "à¤¼à¤«",
        -1.0
      ],
      [
        "ĠÐºÐ°Ð·Ð¸Ð½Ð¾",
        -1.0
      ],
      [
        "ĠutilisÃ©e",
        -1.0
      ],
      [
        "Ġbasur",
        -1.0
      ],
      [
        "bild",
        -1.0
      ],
      [
        "åģľéģĭæ©ŁåĪ¶",
        -1.0
      ],
      [
        "ĠJong",
        -1.0
      ],
      [
        "Ġanciennes",
        -1.0
      ],
      [
        "ĠÅŁikayet",
        -1.0
      ],
      [
        "Ġtopics",
        -1.0
      ],
      [
        "ĠØ¶Ø¯",
        -1.0
      ],
      [
        "ĠBursaspor",
        -1.0
      ],
      [
        "ĠØ£ÙĬØ¶Ø§",
        -1.0
      ],
      [
        "à¸ĩà¸Ńà¸³à¸Ļà¸§à¸¢à¸Ħà¸§à¸²à¸¡à¸ªà¸°à¸Ķà¸§à¸ģà¸£à¸°à¸Ķ",
        -1.0
      ],
      [
        "à°¡à°²à°ª",
        -1.0
      ],
      [
        "Ð¸Ð²Ð°Ð»ÑģÑı",
        -1.0
      ],
      [
        "à°Ŀ",
        -1.0
      ],
      [
        "à¸´à¸¥à¸Ľ",
        -1.0
      ],
      [
        "ÙħØ³ØªÙģØ¹ÙĦÙĨ",
        -1.0
      ],
      [
        "Ġlaik",
        -1.0
      ],
      [
        "Ġmkristo",
        -1.0
      ],
      [
        "Ġà¤¸à¤®",
        -1.0
      ],
      [
        "à±ĩà°§",
        -1.0
      ],
      [
        "èĻŁåĩºåı£åĩºåİ»",
        -1.0
      ],
      [
        "ĠParole",
        -1.0
      ],
      [
        "ĠÙĦÙĦÙħØ®Ø§Ø·Ø±",
        -1.0
      ],
      [
        "Syria",
        -1.0
      ],
      [
        "à¸Ĥà¸Ńà¸ĩà¸¥",
        -1.0
      ],
      [
        "å°ıçµĦç©ºéĸĵåĴĮç¤¾ç¾¤",
        -1.0
      ],
      [
        "Continuing",
        -1.0
      ],
      [
        "Ð°Ð½Ð¸",
        -1.0
      ],
      [
        "ä¸ĭçıŃåĲİ",
        -1.0
      ],
      [
        "æ´ĭæº¢",
        -1.0
      ],
      [
        "èĲ½åĲİ",
        -1.0
      ],
      [
        "ĠÐ²ÑĭÑģÑĤÑĥÐ¿Ð¸ÑĤÑĮ",
        -1.0
      ],
      [
        "éłŃéłĺçļĦ",
        -1.0
      ],
      [
        "åĨħå®¹çļĦ",
        -1.0
      ],
      [
        "ĠÙĪÙĬØŃØ¨",
        -1.0
      ],
      [
        "ufu",
        -1.0
      ],
      [
        "Waziri",
        -1.0
      ],
      [
        "Ðº",
        -1.0
      ],
      [
        "ĠØ§ÙĦÙģØ±ÙĤØ§ÙĨ",
        -1.0
      ],
      [
        "à°¿à°²à°¬à°¡",
        -1.0
      ],
      [
        "Ġsimpl",
        -1.0
      ],
      [
        "æł¼åĬĽ",
        -1.0
      ],
      [
        "ĠÙħÙĩØ§ÙħÙĩ",
        -1.0
      ],
      [
        "à°Ĥà°¥",
        -1.0
      ],
      [
        "Ġà°īà°¬",
        -1.0
      ],
      [
        "ï¼įæĿľæĸ¯åĿİæĻ®æĸ¯",
        -1.0
      ],
      [
        "Ġreply",
        -1.0
      ],
      [
        "-p",
        -1.0
      ],
      [
        "ading",
        -1.0
      ],
      [
        "SONUÃĩ",
        -1.0
      ],
      [
        "à¸¢à¸Ħ",
        -1.0
      ],
      [
        "Ġkatoliki",
        -1.0
      ],
      [
        "è¿ĩåĩłæ¬¡",
        -1.0
      ],
      [
        "ĠMLIS",
        -1.0
      ],
      [
        "ente",
        -1.0
      ],
      [
        "Ġionekanavyo",
        -1.0
      ],
      [
        "ĠØ§ÙĦØ£ÙĪÙģÙĬØ§Ø¡",
        -1.0
      ],
      [
        "ĠÐ¾ÑĢÐ³Ð°Ð½Ð¸Ð·ÑĥÐµÑĤ",
        -1.0
      ],
      [
        "ĠÐ¿Ð°ÑĢÑĤÐ½ÑĳÑĢ",
        -1.0
      ],
      [
        "ÙıÙĪÙĦØ§",
        -1.0
      ],
      [
        "èĪĴçķħ",
        -1.0
      ],
      [
        "à¹ģà¸ªà¸Ķà¸ĩà¸ª",
        -1.0
      ],
      [
        "à¸¸à¸Ĺà¹Ħà¸ĺà¸ªà¸§à¸£à¸£à¸¢",
        -1.0
      ],
      [
        "ĠMuskegon",
        -1.0
      ],
      [
        "Ġspeeds",
        -1.0
      ],
      [
        "Ġbouclier",
        -1.0
      ],
      [
        "à¸µà¸¢à¸ļà¸Ĥ",
        -1.0
      ],
      [
        "Ð±ÑĭÐ²",
        -1.0
      ],
      [
        "ĠLeft",
        -1.0
      ],
      [
        "utano",
        -1.0
      ],
      [
        "ĠÐ±Ð°Ð»ÐºÐ¾Ð½",
        -1.0
      ],
      [
        "à¹Īà¸§à¸Ļà¸ģ",
        -1.0
      ],
      [
        "ĠØªØªØ±ØªØ¨",
        -1.0
      ],
      [
        "ĠØªØªØ¹Ø§Ø±Ø¶",
        -1.0
      ],
      [
        "èĳĹéĩį",
        -1.0
      ],
      [
        "Ñı",
        -1.0
      ],
      [
        "à°¾à°Ńà°®",
        -1.0
      ],
      [
        "ÑĨÐµÐ»ÐµÑģÐ¾Ð¾Ð±ÑĢÐ°Ð·",
        -1.0
      ],
      [
        "Ø§ÙĦØ£ØµÙħØ¹ÙĬ",
        -1.0
      ],
      [
        "ĠShahidi",
        -1.0
      ],
      [
        "jadiliwa",
        -1.0
      ],
      [
        "Ġsaatlerce",
        -1.0
      ],
      [
        "ĠÐĶÐµÐ¼Ð¾Ð½ÑģÑĤÑĢ",
        -1.0
      ],
      [
        "ĠcoupÃ©",
        -1.0
      ],
      [
        "ĠØ§ÙĦØ®Ø§ÙĦØ¯",
        -1.0
      ],
      [
        "éĺĲè¿°",
        -1.0
      ],
      [
        "Ġquiconque",
        -1.0
      ],
      [
        "Ð°ÐµÐ¼ÑĭÐ¼",
        -1.0
      ],
      [
        "SAP",
        -1.0
      ],
      [
        "Ġolunur",
        -1.0
      ],
      [
        "å°¸ä½ĵ",
        -1.0
      ],
      [
        "ä¸ĢçĽ´åľ¨è¿½èµ¶çĿĢ",
        -1.0
      ],
      [
        "Ġà¤Ī",
        -1.0
      ],
      [
        "Ġparkur",
        -1.0
      ],
      [
        "Ġcampings",
        -1.0
      ],
      [
        "ĠilaÃ§lar",
        -1.0
      ],
      [
        "ĠbÃ¼yÃ¼r",
        -1.0
      ],
      [
        "kaynak",
        -1.0
      ],
      [
        "ĠÐ¿Ð¾Ð²ÐµÑĢÑħÐ½Ð¾ÑģÑĤÐ½ÑĭÐ¹",
        -1.0
      ],
      [
        "à¸·à¸Ļà¸Ķ",
        -1.0
      ],
      [
        "ĠØ§ÙĨØ¶ÙħØª",
        -1.0
      ],
      [
        "ÑĨÐµÐ¿",
        -1.0
      ],
      [
        "ologies",
        -1.0
      ],
      [
        "ĠDhadhkan",
        -1.0
      ],
      [
        "ĠØ§ÙĦØ¹ØµÙĪØ±",
        -1.0
      ],
      [
        "à¸¹à¸ĩà¹ĥà¸Ī",
        -1.0
      ],
      [
        "Ġtraductions",
        -1.0
      ],
      [
        "åŃĲå¥³",
        -1.0
      ],
      [
        "Ġà°¨à°Īà°ªà°¹",
        -1.0
      ],
      [
        "gues",
        -1.0
      ],
      [
        "Ø¹ÙĦÙħ",
        -1.0
      ],
      [
        "ize",
        -1.0
      ],
      [
        "à¸Ńà¹Ĩ",
        -1.0
      ],
      [
        "ĠÙĬØª",
        -1.0
      ],
      [
        "ĠThunder",
        -1.0
      ],
      [
        "ÙģØ§Ø¦Ø¯Ø©",
        -1.0
      ],
      [
        "åŃ°",
        -1.0
      ],
      [
        "ĠÄ°spanyolca",
        -1.0
      ],
      [
        "ĠRon",
        -1.0
      ],
      [
        "Ġà°¤à°µ",
        -1.0
      ],
      [
        "ĠrÃ©ellement",
        -1.0
      ],
      [
        "çļĦåı¦",
        -1.0
      ],
      [
        "å°ıæĥ¡éŃĶçļĦæ©Łè»ĬåĲĮå¥½æľĥ",
        -1.0
      ],
      [
        "ĠyÄ±lÄ±nda",
        -1.0
      ],
      [
        "ĠÐ¾Ð±ÑĭÑĩÐ½Ð¾Ð¼",
        -1.0
      ],
      [
        "ï¼ĮæĪĳåıª",
        -1.0
      ],
      [
        "ĠMaker",
        -1.0
      ],
      [
        "Mbunge",
        -1.0
      ],
      [
        "Ø¨ØºØ¯Ø§Ø¯",
        -1.0
      ],
      [
        "ĠØ£Ø´ÙĩØ±",
        -1.0
      ],
      [
        "Ġtalanta",
        -1.0
      ],
      [
        "ĠÑħÐ°ÑĢÐ°ÐºÑĤÐµÑĢÐµ",
        -1.0
      ],
      [
        "ĠtÄ±bbi",
        -1.0
      ],
      [
        "ĠÐĲÐłÐ¢ÐĹ",
        -1.0
      ],
      [
        "Ġà°ªà°²à°ķ",
        -1.0
      ],
      [
        "âĢľæĮīå¸ĥå±ĢåĪĽå»ºçºµæĸŃéĿ¢",
        -1.0
      ],
      [
        "çĥŃå¿ĥ",
        -1.0
      ],
      [
        "çī¢",
        -1.0
      ],
      [
        "ĠÙĦÙĤÙĪØ§Ø¹Ø¯",
        -1.0
      ],
      [
        "ĠOrlando",
        -1.0
      ],
      [
        "à¸µà¹ģà¸Ļà¸§à¹Ĥà¸Ļ",
        -1.0
      ],
      [
        "çļĦéĩįè¦ģ",
        -1.0
      ],
      [
        "ĠÃ§Ã¶kÃ¼ntÃ¼",
        -1.0
      ],
      [
        "ĠØ§ÙĦØªØ³Ø±ÙĬØ¨Ø§Øª",
        -1.0
      ],
      [
        "lamasÄ±nÄ±",
        -1.0
      ],
      [
        "nol",
        -1.0
      ],
      [
        "ĠÙħØ¹ÙħÙĪÙĦ",
        -1.0
      ],
      [
        "ĠÑĥÑģÑĤÑĮÐµ",
        -1.0
      ],
      [
        "ĠÙĨØªØ³Ø§Ø¡ÙĦ",
        -1.0
      ],
      [
        "à¸¸à¸ĵà¹Ħà¸¡",
        -1.0
      ],
      [
        "-e",
        -1.0
      ],
      [
        "ĠNdoa",
        -1.0
      ],
      [
        "ĠÙħÙĨÙģ",
        -1.0
      ],
      [
        "ĠÙĪØ§ÙĦØ¥ØµÙĦØ§ØŃ",
        -1.0
      ],
      [
        "åĴĮ",
        -1.0
      ],
      [
        "ĠBelow",
        -1.0
      ],
      [
        "Ġactuels",
        -1.0
      ],
      [
        "ĠØ£ÙĪØ¶ØŃ",
        -1.0
      ],
      [
        "ĠØ§ÙĦØªØ¹Ø¯Ø¯ÙĬØ©",
        -1.0
      ],
      [
        "à¸Ĥà¸Ńà¸ĩà¹Ģà¸«à¸¥",
        -1.0
      ],
      [
        "Ġbanque",
        -1.0
      ],
      [
        "Ġhabitat",
        -1.0
      ],
      [
        "é£¯åºĹ",
        -1.0
      ],
      [
        "Ġmanzara",
        -1.0
      ],
      [
        "Ġnode",
        -1.0
      ],
      [
        "Ġbalbutiant",
        -1.0
      ],
      [
        "åĪ«å¢ħ",
        -1.0
      ],
      [
        "ĠÙĬØªØºØ°Ùī",
        -1.0
      ],
      [
        "à°¿à°¶à°²",
        -1.0
      ],
      [
        "ĠgÃ¶rÃ¼ndÃ¼ÄŁÃ¼",
        -1.0
      ],
      [
        "ä¹Ļçĥ¯",
        -1.0
      ],
      [
        "ĠÚ©ØªØ§Ø¨",
        -1.0
      ],
      [
        "à¹īà¸Ńà¸¢à¸¡à¸²à¸ģ",
        -1.0
      ],
      [
        "ĠØ¯Ø±Ø§Ø³ÙĬØ§",
        -1.0
      ],
      [
        "ĠÑģÐ»Ð°Ð±ÑĭÐ¹",
        -1.0
      ],
      [
        "ĠÑģÐ¸Ð¼",
        -1.0
      ],
      [
        "à¸Ľà¸£à¸²à¸ģà¸ıà¸ķ",
        -1.0
      ],
      [
        "å¹«åĬ©ä½ł",
        -1.0
      ],
      [
        "ĠMissouri",
        -1.0
      ],
      [
        "ĠÑįÐ½ÑħÐ°ÑįÐ»Ð¾Ð²ÑĨ",
        -1.0
      ],
      [
        "ĠÙĦØ¯ÙĬÙĩØ§",
        -1.0
      ],
      [
        "ĠMizan",
        -1.0
      ],
      [
        "çºłç»ĵ",
        -1.0
      ],
      [
        "æĭĴç»Ŀ",
        -1.0
      ],
      [
        "ĠsituÃ©",
        -1.0
      ],
      [
        "ĠIsaac",
        -1.0
      ],
      [
        "Ġcrash",
        -1.0
      ],
      [
        "Ġalishindwa",
        -1.0
      ],
      [
        "ĠdÃ©crire",
        -1.0
      ],
      [
        "Ð´Ð°ÑĢ",
        -1.0
      ],
      [
        "æīĭæ³ķ",
        -1.0
      ],
      [
        "ÑīÑĥÑİÑģÑı",
        -1.0
      ],
      [
        "ĠÐ·Ð½Ð°ÑİÑĤ",
        -1.0
      ],
      [
        "Ġhosts",
        -1.0
      ],
      [
        "Grotesk",
        -1.0
      ],
      [
        "äº¿",
        -1.0
      ],
      [
        "Ġgecik",
        -1.0
      ],
      [
        "à¹īà¸Ļà¸«à¸²à¸Ĥ",
        -1.0
      ],
      [
        "Ġblocked",
        -1.0
      ],
      [
        "ÐĲÐºÐºÑĥÑİ",
        -1.0
      ],
      [
        "res",
        -1.0
      ],
      [
        "IT",
        -1.0
      ],
      [
        "Ġkuonana",
        -1.0
      ],
      [
        "Ġmtupu",
        -1.0
      ],
      [
        "Ġà¸łà¸²à¸ŀà¸¢à¸Ļà¸ķà¸£",
        -1.0
      ],
      [
        "ĠØ§ÙĦØ®ØµÙħ",
        -1.0
      ],
      [
        "ĠØ§Ø®ØªØªØ§Ùħ",
        -1.0
      ],
      [
        "ĠÙĪØ§ØŃÙģØ§Ø¯",
        -1.0
      ],
      [
        "à¥ĩà¤¯à¤°à¤®",
        -1.0
      ],
      [
        "æĦıè¯ĨåĪ°",
        -1.0
      ],
      [
        "ĠÐ²ÐµÑĢÐ½ÑĭÑħ",
        -1.0
      ],
      [
        "Ġæİ§åĪ¶éłħ",
        -1.0
      ],
      [
        "Ġà¸£à¸²à¸¢à¸ģà¸²à¸£",
        -1.0
      ],
      [
        "ç½Ĺé©¬æķĻå»·",
        -1.0
      ],
      [
        "ĠØ§ÙĦØµØ¯ÙĬÙĤØ©",
        -1.0
      ],
      [
        "ĠØ§ÙĦÙĥØ§ÙħÙĦØ©",
        -1.0
      ],
      [
        "ĠdeÄŁiÅŁik",
        -1.0
      ],
      [
        "ĠÙĪÙĪØ²",
        -1.0
      ],
      [
        "Ġreparlera",
        -1.0
      ],
      [
        "Ġbelirtileri",
        -1.0
      ],
      [
        "çļĦçĶľåº¦",
        -1.0
      ],
      [
        "III",
        -1.0
      ],
      [
        "çĳªéºĹ",
        -1.0
      ],
      [
        "Ġparlamento",
        -1.0
      ],
      [
        "ÙħÙĦÙĬ",
        -1.0
      ],
      [
        "Ð¼Ð°Ð»Ñĭ",
        -1.0
      ],
      [
        "-Oh",
        -1.0
      ],
      [
        "à¸µà¸¢à¸¡à¸²à¸ģà¸ģà¸§",
        -1.0
      ],
      [
        "Belediye",
        -1.0
      ],
      [
        "ĠIsi",
        -1.0
      ],
      [
        "à±Ĭà°¦à°²à°¯",
        -1.0
      ],
      [
        "æĶ¯éħį",
        -1.0
      ],
      [
        "ĠÑħÐ¾ÑĢÐ¾ÑĪÑĥÑİ",
        -1.0
      ],
      [
        "ĠØ£ÙħØ§",
        -1.0
      ],
      [
        "ĠÙĦØ¯Ø±Ø³",
        -1.0
      ],
      [
        "æĿ¾å¼Ľ",
        -1.0
      ],
      [
        "ĠÙĬØ³ØªØºÙĦ",
        -1.0
      ],
      [
        "ĠtarihÃ§iler",
        -1.0
      ],
      [
        "Post",
        -1.0
      ],
      [
        "à¹ĥà¸Ļà¸£à¸²à¸¢à¸ģà¸²à¸£",
        -1.0
      ],
      [
        "çĦ¡äºº",
        -1.0
      ],
      [
        "æķĻç»ĥ",
        -1.0
      ],
      [
        "ĠconfiÃ©e",
        -1.0
      ],
      [
        "ĠPol",
        -1.0
      ],
      [
        "à¸³à¸ģ",
        -1.0
      ],
      [
        "Ð°ÑĤÐµÐ»ÑıÐ¼Ð¸",
        -1.0
      ],
      [
        "Ġåħ«æĹ¶",
        -1.0
      ],
      [
        "à¸¹à¸ģà¹ĥà¸Ī",
        -1.0
      ],
      [
        "ĠÐ£ÑĩÐ°ÑģÑĤÐ²ÑĥÐ¹ÑĤÐµ",
        -1.0
      ],
      [
        "ĠÐ²ÑĭÐ´ÑĥÐ¼",
        -1.0
      ],
      [
        "èİ·å¾ĹçļĦ",
        -1.0
      ],
      [
        "äºĽä»Ģéº¼",
        -1.0
      ],
      [
        "ĠÐ¢ÐµÐ»Ð°",
        -1.0
      ],
      [
        "à±įà°§à°ķ",
        -1.0
      ],
      [
        "æĺ¯ä¸ĸçķĮä¸Ĭ",
        -1.0
      ],
      [
        "Ġconsume",
        -1.0
      ],
      [
        "ĠÐ¿Ð¾ÑģÐ¼Ð¾ÑĤÑĢÐµÑĤÑĮ",
        -1.0
      ],
      [
        "ĠÐ¿Ð¾Ð´Ñĥ",
        -1.0
      ],
      [
        "tian",
        -1.0
      ],
      [
        "ĠÐ±ÐµÑĢÐµ",
        -1.0
      ],
      [
        "FRIMEDA",
        -1.0
      ],
      [
        "à¸¹à¸Ļà¸Ķ",
        -1.0
      ],
      [
        "athiriwa",
        -1.0
      ],
      [
        "Valle",
        -1.0
      ],
      [
        "ĠØ¹ÙĦÙĨÙĬØ©",
        -1.0
      ],
      [
        "onie",
        -1.0
      ],
      [
        "ĠBaz",
        -1.0
      ],
      [
        "ĠfÃ¶rÃ¤ndringarna",
        -1.0
      ],
      [
        "ĠÑģÑĥÐ´Ð¾ÑħÐ¾Ð´",
        -1.0
      ],
      [
        "ĠYÃ¶ntemi",
        -1.0
      ],
      [
        "å¨ģå»ī",
        -1.0
      ],
      [
        "ĠÙĪØ£ÙħÙĩØ§Øª",
        -1.0
      ],
      [
        "åĽĽä¸ª",
        -1.0
      ],
      [
        "æķħå®®",
        -1.0
      ],
      [
        "ĠÐºÑĢÐ°ÑģÐºÐ°",
        -1.0
      ],
      [
        "à°ļà°¦à°Ĺ",
        -1.0
      ],
      [
        "ĠNoel",
        -1.0
      ],
      [
        "ĠØ§ÙĦØ®Ø±",
        -1.0
      ],
      [
        "Ġbean",
        -1.0
      ],
      [
        "ĠÐ¡Ð¾Ð»Ð¶ÐµÐ½Ð¸ÑĨÑĭÐ½Ð°",
        -1.0
      ],
      [
        "Ø³ÙĨØ¯",
        -1.0
      ],
      [
        "à¤Ĥà¤°à¤ļà¤¨",
        -1.0
      ],
      [
        "ĠallumÃ©",
        -1.0
      ],
      [
        "ĠÙħØ¹Ø¯ÙĦØ§Øª",
        -1.0
      ],
      [
        "Ġitifaki",
        -1.0
      ],
      [
        "æľĢçĥŃéĹ¨ä¼ļåĳĺ",
        -1.0
      ],
      [
        "ĠØ¨Ø§ÙĦÙħÙĨØ²ÙĦ",
        -1.0
      ],
      [
        "ÐľÐ¾Ð»Ð¾",
        -1.0
      ],
      [
        "à¹īà¸²à¸Ĥà¸Ńà¸ĩà¸£",
        -1.0
      ],
      [
        "à¹Īà¸´",
        -1.0
      ],
      [
        "à¸Ńà¸Ļà¹Ħà¸«à¸§",
        -1.0
      ],
      [
        "lies",
        -1.0
      ],
      [
        "ÐĲÐ½ÑĤÐ¸Ð²Ð¸ÑĢÑĥÑģÐ½Ð°Ñı",
        -1.0
      ],
      [
        "uzmantv",
        -1.0
      ],
      [
        "Ġprofesa",
        -1.0
      ],
      [
        "ĠØ§ÙĦÙħØªÙĪØ§",
        -1.0
      ],
      [
        "ĠØ³ÙĬØ§ØŃÙĬ",
        -1.0
      ],
      [
        "ĠnoktalarÄ±na",
        -1.0
      ],
      [
        "Ġelementi",
        -1.0
      ],
      [
        "ãĢģäºĴåĪ©åħ±èµ¢",
        -1.0
      ],
      [
        "ĠmÃ©taphore",
        -1.0
      ],
      [
        "ĠgÃ¶stermez",
        -1.0
      ],
      [
        "ĠZuhura",
        -1.0
      ],
      [
        "à¸Ńà¸Īà¸ļ",
        -1.0
      ],
      [
        "æľīä¸įå°ĳ",
        -1.0
      ],
      [
        "æĶ¾éĸĭäºĨæīĭ",
        -1.0
      ],
      [
        "çİ°æľī",
        -1.0
      ],
      [
        "ĠÙĪÙĩØ°Ùĩ",
        -1.0
      ],
      [
        "å¦¥å½ĵ",
        -1.0
      ],
      [
        "Ġiliyovutwa",
        -1.0
      ],
      [
        "ĠÐŁÐ¾Ð´Ð¾Ð¶Ð´Ð¸",
        -1.0
      ],
      [
        "à¹Īà¹Ģà¸Ĺ",
        -1.0
      ],
      [
        "ĠElias",
        -1.0
      ],
      [
        "à¸²à¸¡à¸Ńà¸¢",
        -1.0
      ],
      [
        "çļĦéĢŁåº¦",
        -1.0
      ],
      [
        "à±Ģà°¦à°ķ",
        -1.0
      ],
      [
        "ĠØ§ÙĦÙģØ§Ø¹ÙĦÙĬÙĨ",
        -1.0
      ],
      [
        "à±įà°¬à°ķ",
        -1.0
      ],
      [
        "à¥ĩà¤µà¤¯",
        -1.0
      ],
      [
        "ĠNjombe",
        -1.0
      ],
      [
        "ĠØ§ÙĦØ²Ø±ÙĥÙĪÙĨÙĬÙĪÙħ",
        -1.0
      ],
      [
        "ĠbÃ¶ÄŁÃ¼rtlen",
        -1.0
      ],
      [
        "à¹Īà¸Ļà¸Īà¸²à¸ģà¹Ĥà¸£à¸ĩà¹ģà¸£à¸¡à¸Ń",
        -1.0
      ],
      [
        "/ÙĥØ§ÙĨÙĪÙĨ",
        -1.0
      ],
      [
        "Ġgemi",
        -1.0
      ],
      [
        "ï¼Įä½¿ç»ıæµİå»ºè®¾åĴĮç¤¾ä¼ļåıĳå±ķä¸İçİ¯å¢ĥä¿ĿæĬ¤çĽ¸åįıè°ĥ",
        -1.0
      ],
      [
        "à°¾à°·à°¤",
        -1.0
      ],
      [
        "ĠÐ´ÐµÑģ",
        -1.0
      ],
      [
        "ĠÙĤØ¯ÙħØªÙĩ",
        -1.0
      ],
      [
        "Ġustadi",
        -1.0
      ],
      [
        "ĠÙĪÙĪØ¶Ø¹ÙĪØ§",
        -1.0
      ],
      [
        "à°¾à°³",
        -1.0
      ],
      [
        "ĠØ£Ø·ÙĦÙĤ",
        -1.0
      ],
      [
        "ĠÑģÐ½Ð¸ÑĤÑģÑı",
        -1.0
      ],
      [
        "ĠØ¨Ø§ÙĦØº",
        -1.0
      ],
      [
        "Ø®ØµÙĪØµØ§",
        -1.0
      ],
      [
        "ÙİØ¸",
        -1.0
      ],
      [
        "Ġtutuklama",
        -1.0
      ],
      [
        "HÃ¼cre",
        -1.0
      ],
      [
        "ÙĪØ¥Ø°Ø§",
        -1.0
      ],
      [
        "æĪĳä¹Ł",
        -1.0
      ],
      [
        "Ġmonstre",
        -1.0
      ],
      [
        "ä½ľä»ĸçĶ¨",
        -1.0
      ],
      [
        "Ď",
        -1.0
      ],
      [
        "à¹Ĥà¸ĩ",
        -1.0
      ],
      [
        ".à¹Ģà¸ŀ",
        -1.0
      ],
      [
        "Ġwameji",
        -1.0
      ],
      [
        "ĠÐ½Ð°Ð¸Ð¼ÐµÐ½",
        -1.0
      ],
      [
        "ĠØ³Ø±ÙĪØ±",
        -1.0
      ],
      [
        "åį»æ²Ĵæľī",
        -1.0
      ],
      [
        "Ġæ¨ĻéłŃ",
        -1.0
      ],
      [
        "ĠÙħØ³ØªØŃØ¨",
        -1.0
      ],
      [
        "Ø¨ÙĬÙĨ",
        -1.0
      ],
      [
        "Brown",
        -1.0
      ],
      [
        "ĠvÃ´tre",
        -1.0
      ],
      [
        "æ¸²æŁĵ",
        -1.0
      ],
      [
        "çĻ¥çĭĢ",
        -1.0
      ],
      [
        "åĪ°éĿĸæ·Ħ",
        -1.0
      ],
      [
        "ï¼ĮçĶļèĩ³æľī",
        -1.0
      ],
      [
        "Ġumpteenth",
        -1.0
      ],
      [
        "ĠyabancÄ±nÄ±n",
        -1.0
      ],
      [
        "à±įà°¶à°¨à°®",
        -1.0
      ],
      [
        "Ġhuruma",
        -1.0
      ],
      [
        "à¸¶à¸Ķà¸Ń",
        -1.0
      ],
      [
        "à¸ģà¸²à¸£à¸Ĺ",
        -1.0
      ],
      [
        "Kr",
        -1.0
      ],
      [
        "æľīä¸Ģæ®µè·ĿéĽ¢",
        -1.0
      ],
      [
        "Kwanza",
        -1.0
      ],
      [
        "ĠØ£ØµØºØ±",
        -1.0
      ],
      [
        "å®ŀåĬĽ",
        -1.0
      ],
      [
        "ĠdÃ¶nemin",
        -1.0
      ],
      [
        "ĠÐ¸ÑģÐ¿Ð¾Ð»ÑĮÐ·Ð¾Ð²Ð°ÑĤÑĮ",
        -1.0
      ],
      [
        "ãĢģçĶŁçĶ¢åĴĮ",
        -1.0
      ],
      [
        "Ġindependent",
        -1.0
      ],
      [
        "à¤ĳ",
        -1.0
      ],
      [
        "ĠÙĬØ³ØªÙĦØ²Ùħ",
        -1.0
      ],
      [
        "ØŃØ§Ø¯",
        -1.0
      ],
      [
        "Ġemirlerini",
        -1.0
      ],
      [
        "à¹Īà¸²à¸ģà¸²à¸£à¸Ĺ",
        -1.0
      ],
      [
        "ĠØ¨Ø´Ø¨Ùĩ",
        -1.0
      ],
      [
        "Arica",
        -1.0
      ],
      [
        "Ġgelmemektedir",
        -1.0
      ],
      [
        "Ġirlandais",
        -1.0
      ],
      [
        "Ġanimation",
        -1.0
      ],
      [
        "Ġworse",
        -1.0
      ],
      [
        "ĠØ¨Ø³Ø¹Ø±",
        -1.0
      ],
      [
        "ĠÐ¸ÐµÑĢÐ°ÑĢÑħ",
        -1.0
      ],
      [
        "ĠÐ¿Ð»",
        -1.0
      ],
      [
        "ĠSMTP",
        -1.0
      ],
      [
        "inefrin",
        -1.0
      ],
      [
        "Ø¨Ø®ØµÙĪØµ",
        -1.0
      ],
      [
        "ĠÐ¼Ð¾ÑīÐ½ÑĭÐ¹",
        -1.0
      ],
      [
        "Ġbilimsel",
        -1.0
      ],
      [
        "Ġà¸Ĥ",
        -1.0
      ],
      [
        "Ġhaine",
        -1.0
      ],
      [
        "ination",
        -1.0
      ],
      [
        "ÑīÐµÐ½Ð¸Ñı",
        -1.0
      ],
      [
        "à¸±à¸¢à¸ļ",
        -1.0
      ],
      [
        "Ġtrouvez",
        -1.0
      ],
      [
        "ĠØ§ÙĦØ¬Ø§Ùĩ",
        -1.0
      ],
      [
        "Ġè´Ńçī©ä¸Ńå¿ĥ",
        -1.0
      ],
      [
        "éģ©çķ¶åģļä¸ĢäºĽèĩªçĶ±é«Ķæĵįéģĭåĭķ",
        -1.0
      ],
      [
        "ĠÐ¤ÐµÑģÑĤÐ¸Ð²Ð°Ð»",
        -1.0
      ],
      [
        "à¹Ĥà¸Ķà¸¢à¸Ńà¸²à¸¨",
        -1.0
      ],
      [
        "ĠÙĪØŃØ§ÙĪÙĦØª",
        -1.0
      ],
      [
        "ĠÐĵÑĢÑĥÐ¿Ð¿",
        -1.0
      ],
      [
        "ĠØ¨Ø¶ÙħØ§ÙĨ",
        -1.0
      ],
      [
        "ĠÑģÐ¾ÑĨÐ¸Ð¾Ð»Ð¾Ð³Ð¾Ð²",
        -1.0
      ],
      [
        "ĠØ§ÙĦÙħØ·Ø±Ø§ÙĨ",
        -1.0
      ],
      [
        "à¹īà¸§à¹Ħà¸¡",
        -1.0
      ],
      [
        "ĠeffectuÃ©es",
        -1.0
      ],
      [
        "ĠÑģÐµÑĢÑĤÐ¸ÑĦÐ¸ÐºÐ°ÑĤÑĭ",
        -1.0
      ],
      [
        "ĠØŃÙĥØ§ÙĬØ§Øª",
        -1.0
      ],
      [
        "ï¼ĮèĢĮä¸į",
        -1.0
      ],
      [
        "ĠyardÄ±mcÄ±sÄ±",
        -1.0
      ],
      [
        "âĢ²te",
        -1.0
      ],
      [
        "Hadise",
        -1.0
      ],
      [
        "ĠÙĪØ£Ø®Ø°Øª",
        -1.0
      ],
      [
        "hilo",
        -1.0
      ],
      [
        "ĠÐ¢ÐŀÐĽÐ¬ÐļÐŀ",
        -1.0
      ],
      [
        "ĠGreenpeace",
        -1.0
      ],
      [
        "YanÄ±lsama",
        -1.0
      ],
      [
        "çļĦä½¼ä½¼èĢħ",
        -1.0
      ],
      [
        "ĠÐĽÐ¡ÐĿ",
        -1.0
      ],
      [
        "Ġanalo",
        -1.0
      ],
      [
        "Ġkadi",
        -1.0
      ],
      [
        "Ġavoir",
        -1.0
      ],
      [
        "Ġbey",
        -1.0
      ],
      [
        "ĠÙģÙĨØ§ÙĨÙĬÙĨ",
        -1.0
      ],
      [
        "à¸´à¸Ļà¹Ģà¸į",
        -1.0
      ],
      [
        "Ġpasaport",
        -1.0
      ],
      [
        "ĠØ§ÙĦØ¥ÙĨØ´Ø§Ø¦ÙĬ",
        -1.0
      ],
      [
        "ĠØ·Ø±Ø¯",
        -1.0
      ],
      [
        "ĠÑĥÐ¿Ð¾ÑĢ",
        -1.0
      ],
      [
        "ĠåıĻåĪ©äºļçĶµåŃĲåĨĽåħ¥ä¾µ",
        -1.0
      ],
      [
        "ĠÑĪÐ°Ð³Ð¾Ð²",
        -1.0
      ],
      [
        "à¸Ńà¸ĩà¹Ħà¸«à¸§",
        -1.0
      ],
      [
        "à°¿à°²à°ļ",
        -1.0
      ],
      [
        "eptics",
        -1.0
      ],
      [
        "ĠÃŀÃ³Ã¦ÃºÃ¡ÃĩÃ°",
        -1.0
      ],
      [
        "ĠÙħØ¤ÙĦÙģØ©",
        -1.0
      ],
      [
        "çĶŁæ°£",
        -1.0
      ],
      [
        "ĠØ§ÙĦØ¹Ø§Ø¯Ø©",
        -1.0
      ],
      [
        "ĠApple",
        -1.0
      ],
      [
        "è¦ģå°ı",
        -1.0
      ],
      [
        "ĠJumla",
        -1.0
      ],
      [
        "Ġwherever",
        -1.0
      ],
      [
        "ĠÐĳÐ»Ð¸Ð½Ð¾Ð²Ð°",
        -1.0
      ],
      [
        "ĠdiminuÃ©",
        -1.0
      ],
      [
        "ĠÐ¡ÐķÐłÐĶÐķÐ§ÐĿ",
        -1.0
      ],
      [
        "åľ¨æŃ¤",
        -1.0
      ],
      [
        "åħ±åĴĮåħļ",
        -1.0
      ],
      [
        "Ġtupa",
        -1.0
      ],
      [
        "\"Ñģ",
        -1.0
      ],
      [
        "jui",
        -1.0
      ],
      [
        "Ġdevrim",
        -1.0
      ],
      [
        "ĠØ¯Ø§Ø®ÙĦÙĩ",
        -1.0
      ],
      [
        "ĠbasÄ±lÄ±",
        -1.0
      ],
      [
        "ĠÑįÐ¿Ð¾",
        -1.0
      ],
      [
        "à¸±à¸ģà¹ĥà¸Ļ",
        -1.0
      ],
      [
        "ezi",
        -1.0
      ],
      [
        "æ¸ĶèĪ¹",
        -1.0
      ],
      [
        "ĠÑĢÐ¾Ñģ",
        -1.0
      ],
      [
        "Ġhariri",
        -1.0
      ],
      [
        "è¯ĦéĢī",
        -1.0
      ],
      [
        "Ġmkojo",
        -1.0
      ],
      [
        "ÑħÐ¸Ðµ",
        -1.0
      ],
      [
        ".ÐŃÐ¿Ð¸Ð»ÐµÐ¿ÑĤÐ¸",
        -1.0
      ],
      [
        "ĠÙħØŃØ§Ø³Ø¨ÙĬÙĨ",
        -1.0
      ],
      [
        "à±įà°·",
        -1.0
      ],
      [
        "Ð£Ð²",
        -1.0
      ],
      [
        "ĠÙĪÙħØ¯ÙĨ",
        -1.0
      ],
      [
        "ĠiÅŁi",
        -1.0
      ],
      [
        "ĠØ§ÙĦØ¹ÙħØ±Ø§ÙĨÙĬ",
        -1.0
      ],
      [
        "ä½ľèĢħ",
        -1.0
      ],
      [
        "ĠØ§ÙĦØŃÙĨÙĬÙĨ",
        -1.0
      ],
      [
        "Ġkoleksiyonunu",
        -1.0
      ],
      [
        "ï¼Įéĸĭå§ĭ",
        -1.0
      ],
      [
        "ĠÑģÐ¾Ð·Ð´Ð°ÑİÑĤÑģÑı",
        -1.0
      ],
      [
        "ĠÙĪØ§ÙĦØ§Ø¹ØªØ°Ø§Ø±",
        -1.0
      ],
      [
        "'Ã©lection",
        -1.0
      ],
      [
        "å¥½è²´å¥½è²´å¥½è²´",
        -1.0
      ],
      [
        "æłıæĿĨ",
        -1.0
      ],
      [
        "ĠHasheem",
        -1.0
      ],
      [
        "ĠØ§ÙĦØ§ØªØŃØ§Ø¯",
        -1.0
      ],
      [
        "ï¼Įæĺ¯åįģåĪĨåıĹåĪ°æĹħå®¢æŃ¡è¿İçļĦè¨ĤæĪ¿éģ¸æĵĩ",
        -1.0
      ],
      [
        "Ġrocket",
        -1.0
      ],
      [
        "ĠÐ´Ð°Ð¹Ð²Ð¸Ð½Ð³",
        -1.0
      ],
      [
        "ĠQB",
        -1.0
      ],
      [
        "à¸ĩà¸«à¸¥à¸²à¸¢à¸¡",
        -1.0
      ],
      [
        "motiv",
        -1.0
      ],
      [
        "ĠÐ´Ð¾Ð±Ð°Ð²Ð»ÐµÐ½Ð¸Ðµ",
        -1.0
      ],
      [
        "ĠStashahada",
        -1.0
      ],
      [
        "ĠÐ´ÐµÑĤÐ°Ð»ÑĮ",
        -1.0
      ],
      [
        "è¢Ń",
        -1.0
      ],
      [
        "ĠÐ½ÐµÐ¿ÑĢÐ¸Ñı",
        -1.0
      ],
      [
        "à¹ĩà¸Ńà¸¢",
        -1.0
      ],
      [
        "ĠØ¨Ø§ÙĦÙħÙĪØ§Ø±Ø¯",
        -1.0
      ],
      [
        "ĠKAPLICALAR",
        -1.0
      ],
      [
        "ĠsÃ¼tÃ¼ne",
        -1.0
      ],
      [
        "ĠÑģÐ¸Ð´ÑıÑĤ",
        -1.0
      ],
      [
        "ĠØ§ÙĦØªÙĥØ§ÙħÙĦ",
        -1.0
      ],
      [
        "Ġslam",
        -1.0
      ],
      [
        "ĠPlug",
        -1.0
      ],
      [
        "è®¾å¤ĩ",
        -1.0
      ],
      [
        "Ġprotections",
        -1.0
      ],
      [
        "Ġgani",
        -1.0
      ],
      [
        ")ÐĴÐµÑģ",
        -1.0
      ],
      [
        "ĠÐ¿ÑĢÐ¾Ð¸Ð·Ð²ÐµÐ´",
        -1.0
      ],
      [
        "Ø¹Ø§ØªÙĩ",
        -1.0
      ],
      [
        "Ġà¹Ħà¸Ħà¸£à¸Ĭ",
        -1.0
      ],
      [
        "å¹²åĩĢ",
        -1.0
      ],
      [
        "Ø§ÙĦØ£Ø³ÙĩÙĢÙĢÙĢÙħ",
        -1.0
      ],
      [
        "Ġanecdotique",
        -1.0
      ],
      [
        "tong",
        -1.0
      ],
      [
        "Ġà¸£à¸Ńà¸¢",
        -1.0
      ],
      [
        "ĠØ¥ÙħØ§ÙħØ§",
        -1.0
      ],
      [
        ".Â»",
        -1.0
      ],
      [
        "åĤ»",
        -1.0
      ],
      [
        "iPhoneåıĬAndroidæĻºèĥ½æīĭæ©ŁçīĪ",
        -1.0
      ],
      [
        "ĠÙĪØ³Ø£",
        -1.0
      ],
      [
        "Ġprojets",
        -1.0
      ],
      [
        "à¸´à¸Ķà¸ģà¸²à¸£à¸ķ",
        -1.0
      ],
      [
        "Ġvitengo",
        -1.0
      ],
      [
        "ĠÐ½Ð¾Ð¼ÐµÑĢÐµ",
        -1.0
      ],
      [
        "Ġà°¸à°Ĺà°Ł",
        -1.0
      ],
      [
        "-à¤ļ",
        -1.0
      ],
      [
        "Ġharcama",
        -1.0
      ],
      [
        "Ã¨ne",
        -1.0
      ],
      [
        "ĠKigali",
        -1.0
      ],
      [
        "ĠbulunmasÄ±na",
        -1.0
      ],
      [
        "à¹Īà¸Ńà¸¡à¸£à¸ĸà¹Ħà¸ĸ",
        -1.0
      ],
      [
        "ĠBerekat",
        -1.0
      ],
      [
        "ĠÑĢÐµÐ¹",
        -1.0
      ],
      [
        "Halikadhalika",
        -1.0
      ],
      [
        "ï¼ĮæľīäºĨåħ½åĲįæĪĸæľīåħ½åĲįæķ°çĽ®çļĦ",
        -1.0
      ],
      [
        "ĠCocktail",
        -1.0
      ],
      [
        "ĠØ§Ù¾ÙĨÛ",
        -1.0
      ],
      [
        "Ġetekler",
        -1.0
      ],
      [
        "ĠÐ¼Ð°ÑģÐºÑĥ",
        -1.0
      ],
      [
        "à¸±à¸Ķà¸¥à¸¡",
        -1.0
      ],
      [
        "ĠØ£ÙĪÙģÙĬ",
        -1.0
      ],
      [
        "ĠØ§ÙĦØ®Ø¶Ø§Ø±",
        -1.0
      ],
      [
        "CMMBæīĭæľºçĶµè§Ĩ",
        -1.0
      ],
      [
        "à¸ģà¹ģà¸ļà¸ĩ",
        -1.0
      ],
      [
        "ĠÙĪØ§ÙĦØºØ²ÙĦ",
        -1.0
      ],
      [
        "ĠØ§ØªØ¨Ø§Ø¹Ùĩ",
        -1.0
      ],
      [
        "ĠLichtenstein",
        -1.0
      ],
      [
        "Ġteyidi",
        -1.0
      ],
      [
        "Ġbakma",
        -1.0
      ],
      [
        "ĠÐ½ÐµÑĦÑĤÐµÐ¿ÑĢÐ¾Ð´ÑĥÐºÑĤÐ°",
        -1.0
      ],
      [
        "ĠÙĥÙĪÙĨÙĬØ©",
        -1.0
      ],
      [
        "ĠWatts",
        -1.0
      ],
      [
        "è¸¢",
        -1.0
      ],
      [
        "çĨ±é¨°é¨°çļĦ",
        -1.0
      ],
      [
        "ĠduyarlÄ±",
        -1.0
      ],
      [
        "ĠGadhafi",
        -1.0
      ],
      [
        "Yalova",
        -1.0
      ],
      [
        "ĠÐ¿ÐµÑĢÐµÐ±ÑĢÐ°ÑĤÑĮÑģÑı",
        -1.0
      ],
      [
        "Ġshowing",
        -1.0
      ],
      [
        "ĠÐ½Ð¸Ð¼",
        -1.0
      ],
      [
        "ĠÑģÑĤÐ¾Ð¸Ð¼Ð¾ÑģÑĤÑĮ",
        -1.0
      ],
      [
        "ĠØ¨Ø±ÙĪØŃ",
        -1.0
      ],
      [
        "ĠØ¨ÙĤÙĪØ§Ø¹Ø¯",
        -1.0
      ],
      [
        "à¸±à¸Ĳà¸Ľà¸£à¸°à¸«à¸²à¸£",
        -1.0
      ],
      [
        "Ð°Ð±Ð°ÐºÐ¾ÐºÑĥÑĢÐµÐ½Ð¸Ñı",
        -1.0
      ],
      [
        "å¸Ĥåł´ä¸Ĭ",
        -1.0
      ],
      [
        "ĠAutostrade",
        -1.0
      ],
      [
        "Ġwajane",
        -1.0
      ],
      [
        "Ġroutes",
        -1.0
      ],
      [
        "Ġunite",
        -1.0
      ],
      [
        "ĠØ¨ÙĦÙĬÙĪÙĨ",
        -1.0
      ],
      [
        "à¥Īà¤Ĥ,",
        -1.0
      ],
      [
        "à¹Įà¸«",
        -1.0
      ],
      [
        "æĿĲè³ª",
        -1.0
      ],
      [
        "uscaloosa",
        -1.0
      ],
      [
        "ĠBoÄŁaz",
        -1.0
      ],
      [
        "Ġà¸Ĥà¸Ńà¸ĩà¸ª",
        -1.0
      ],
      [
        "å§Ķä¼ļ",
        -1.0
      ],
      [
        "å®ıè§Ĥç»ıæµİè°ĥæİ§éĥ¨éĹ¨ç»¼åĲĪå¹³è¡¡åĲİ",
        -1.0
      ],
      [
        "ĠÙħØ³Ø¤ÙĪÙĦÙĬ",
        -1.0
      ],
      [
        "à¸±à¸ģà¹Ģà¸ª",
        -1.0
      ],
      [
        "chu",
        -1.0
      ],
      [
        "è¦ģæī¾",
        -1.0
      ],
      [
        "ÙĤØ¨Ø§ÙĦ",
        -1.0
      ],
      [
        "ĠBillion",
        -1.0
      ],
      [
        "ĠMÃ©rindol",
        -1.0
      ],
      [
        "ĠØªØªÙĪØ§ØµÙĦ",
        -1.0
      ],
      [
        "æĹħé¦ĨæĪĸè´Ńçī©ä¸Ńå¿ĥ",
        -1.0
      ],
      [
        "/æľīç·ļéĽ»è¦ĸ",
        -1.0
      ],
      [
        "ĠÙĪØ§ÙĦØªØŃÙĥÙħ",
        -1.0
      ],
      [
        "ĠtartÄ±ÅŁmalar",
        -1.0
      ],
      [
        "è§£åĨ³äºĨ",
        -1.0
      ],
      [
        "çļĦéĩįè¦ģæĢ§",
        -1.0
      ],
      [
        "ĠCasanova",
        -1.0
      ],
      [
        "Genellikle",
        -1.0
      ],
      [
        "ĠÙĪÙĬÙĩ",
        -1.0
      ],
      [
        "ĠalmamÄ±z",
        -1.0
      ],
      [
        "Ġbenzemesindendir",
        -1.0
      ],
      [
        "ĠYARDIMCI",
        -1.0
      ],
      [
        "à¸±à¸ģà¸¥à¸Ńà¸ļà¸Ħà¸ļà¸ģ",
        -1.0
      ],
      [
        "ĠÐ¿ÑģÐ¸ÑħÐ¾Ð¿Ð°ÑĤ",
        -1.0
      ],
      [
        "ĠÙĦÙĦÙħØ¤Ø³Ø³Ø§Øª",
        -1.0
      ],
      [
        "Ġfikri",
        -1.0
      ],
      [
        "ĠÙħÙĤØ§ÙĪÙħ",
        -1.0
      ],
      [
        "Ġrapports",
        -1.0
      ],
      [
        "ĠÙĪØ§ÙĦÙħØ±ØªØ¨Ø·Ø©",
        -1.0
      ],
      [
        "Ġà¤ļà¤²à¤ķà¤°",
        -1.0
      ],
      [
        "à¸±à¸Ļà¸¡à¸Ńà¸ĩà¸«à¸²à¸Ħà¸§à¸²à¸¡à¸ªà¸³à¸Ħ",
        -1.0
      ],
      [
        "à±ĩà°ªà°¡à°¤",
        -1.0
      ],
      [
        "à¥Įà¤§",
        -1.0
      ],
      [
        "è¯·å¤§å®¶",
        -1.0
      ],
      [
        "Ġà°ķà°ªà°Ł",
        -1.0
      ],
      [
        "ĠØ§ÙĦØ¨ÙĬØ¦Ø©",
        -1.0
      ],
      [
        "Ġla",
        -1.0
      ],
      [
        "ï¼Įçİ°",
        -1.0
      ],
      [
        "Ġcreuser",
        -1.0
      ],
      [
        "ĠÐ±Ð»Ð°Ð³Ð¾ÑģÐ¾ÑģÑĤÐ¾ÑıÐ½Ð¸Ñı",
        -1.0
      ],
      [
        "Ġwapiganaji",
        -1.0
      ],
      [
        "ĠCitoyennetÃ©",
        -1.0
      ],
      [
        "à¸¡à¸Ĥ",
        -1.0
      ],
      [
        "ä¸ĢåĢĭ",
        -1.0
      ],
      [
        "ĠPlastic",
        -1.0
      ],
      [
        "à¹īà¸²à¸¢à¸«à¸£",
        -1.0
      ],
      [
        "ĠÑģÑĥÐ²ÐµÐ½Ð¸ÑĢÐ¾Ð²",
        -1.0
      ],
      [
        "MAPISHI",
        -1.0
      ],
      [
        "ecekler",
        -1.0
      ],
      [
        "ĠÙĪÙĬØŃÙĤ",
        -1.0
      ],
      [
        "ĠingÃ©nieur",
        -1.0
      ],
      [
        "Ã¼me",
        -1.0
      ],
      [
        "ĠÑĪÐ¸ÑĢÐ¸Ð½Ð¾Ð¹",
        -1.0
      ],
      [
        "å¤ķ",
        -1.0
      ],
      [
        "æĿ¡ä»¶ä¸ĭ",
        -1.0
      ],
      [
        "ĠÐĴÐ°ÑĪÑĥ",
        -1.0
      ],
      [
        "à¸µà¸Ħà¸§à¸²à¸¡à¸Ħà¸¥",
        -1.0
      ],
      [
        "Ġparadoxal",
        -1.0
      ],
      [
        "ĠkarÅŁÄ±sÄ±na",
        -1.0
      ],
      [
        "ĠØ§ÙĦØ¨Ø·ÙĪÙĦØ©",
        -1.0
      ],
      [
        "âĢĻennui",
        -1.0
      ],
      [
        "Ġgiren",
        -1.0
      ],
      [
        "éĽ¨é¾į",
        -1.0
      ],
      [
        "ĠÃ¼l",
        -1.0
      ],
      [
        "Ġcoupled",
        -1.0
      ],
      [
        "è®©æĪĳ",
        -1.0
      ],
      [
        "ĠÐ¾ÑĤÐ²ÐµÑĤ",
        -1.0
      ],
      [
        "Ġlevhalar",
        -1.0
      ],
      [
        "Ġnotaire",
        -1.0
      ],
      [
        "Ġmafuta",
        -1.0
      ],
      [
        "äºĨä»ĸåĢĳ",
        -1.0
      ],
      [
        "à¹Īà¸Ńà¸ģà¸£à¸ģ",
        -1.0
      ],
      [
        "åĲĳèĩªå·±",
        -1.0
      ],
      [
        "Ġmang",
        -1.0
      ],
      [
        "ĠÐ²ÑħÐ¾Ð´Ð°",
        -1.0
      ],
      [
        ".google",
        -1.0
      ],
      [
        "ĠÙĪØ§ÙĦØŃÙĬÙĪÙĬØ©",
        -1.0
      ],
      [
        "à¤Ĩà¤¦à¤°à¤¸",
        -1.0
      ],
      [
        "Siz",
        -1.0
      ],
      [
        "module",
        -1.0
      ],
      [
        "ĠØªØ¶Ø±",
        -1.0
      ],
      [
        "ĠØ§ÙĦÙħØ¯ÙĪÙĨØ©",
        -1.0
      ],
      [
        "Motor",
        -1.0
      ],
      [
        "ĠØ§ÙĦØ£Ø³ÙĩÙħ",
        -1.0
      ],
      [
        "å¦ĤæĮĩæİĮ",
        -1.0
      ],
      [
[...]
