{
  "version": "1.0",
  "truncation": null,
  "padding": null,
  "added_tokens": [
    {
      "id": 0,
      "content": "<|bos|>",
      "single_word": false,
      "lstrip": false,
      "rstrip": false,
      "normalized": false,
      "special": true
    },
    {
      "id": 1,
      "content": "<|user_start|>",
      "single_word": false,
      "lstrip": false,
      "rstrip": false,
      "normalized": false,
      "special": true
    },
    {
      "id": 2,
      "content": "<|user_end|>",
      "single_word": false,
      "lstrip": false,
      "rstrip": false,
      "normalized": false,
      "special": true
    },
    {
      "id": 3,
      "content": "<|assistant_start|>",
      "single_word": false,
      "lstrip": false,
      "rstrip": false,
      "normalized": false,
      "special": true
    },
    {
      "id": 4,
      "content": "<|assistant_end|>",
      "single_word": false,
      "lstrip": false,
      "rstrip": false,
      "normalized": false,
      "special": true
    },
    {
      "id": 5,
      "content": "<|python_start|>",
      "single_word": false,
      "lstrip": false,
      "rstrip": false,
      "normalized": false,
      "special": true
    },
    {
      "id": 6,
      "content": "<|python_end|>",
      "single_word": false,
      "lstrip": false,
      "rstrip": false,
      "normalized": false,
      "special": true
    },
    {
      "id": 7,
      "content": "<|output_start|>",
      "single_word": false,
      "lstrip": false,
      "rstrip": false,
      "normalized": false,
      "special": true
    },
    {
      "id": 8,
      "content": "<|output_end|>",
      "single_word": false,
      "lstrip": false,
      "rstrip": false,
      "normalized": false,
      "special": true
    },
    {
      "id": 9,
      "content": "<|unk|>",
      "single_word": false,
      "lstrip": false,
      "rstrip": false,
      "normalized": false,
      "special": true
    }
  ],
  "normalizer": null,
  "pre_tokenizer": {
    "type": "Sequence",
    "pretokenizers": [
      {
        "type": "Split",
        "pattern": {
          "Regex": "'(?i:[sdmt]|ll|ve|re)|[^\\r\\n\\p{L}\\p{N}]?+\\p{L}+|\\p{N}{1,2}| ?[^\\s\\p{L}\\p{N}]++[\\r\\n]*|\\s*[\\r\\n]|\\s+(?!\\S)|\\s+"
        },
        "behavior": "Isolated",
        "invert": false
      },
      {
        "type": "ByteLevel",
        "add_prefix_space": false,
        "trim_offsets": true,
        "use_regex": false
      }
    ]
  },
  "post_processor": {
    "type": "TemplateProcessing",
    "single": [
      {
        "Sequence": {
          "id": "A",
          "type_id": 0
        }
      }
    ],
    "pair": [
      {
        "Sequence": {
          "id": "A",
          "type_id": 0
        }
      },
      {
        "Sequence": {
          "id": "B",
          "type_id": 1
        }
      }
    ],
    "special_tokens": {}
  },
  "decoder": null,
  "model": {
    "type": "Unigram",
    "unk_id": 9,
    "vocab": [
      [
        "<|bos|>",
        0.0
      ],
      [
        "<|user_start|>",
        0.0
      ],
      [
        "<|user_end|>",
        0.0
      ],
      [
        "<|assistant_start|>",
        0.0
      ],
      [
        "<|assistant_end|>",
        0.0
      ],
      [
        "<|python_start|>",
        0.0
      ],
      [
        "<|python_end|>",
        0.0
      ],
      [
        "<|output_start|>",
        0.0
      ],
      [
        "<|output_end|>",
        0.0
      ],
      [
        "<|unk|>",
        0.0
      ],
      [
        "s",
        -2.954497164763602
      ],
      [
        "Ġthe",
        -3.3911843221724567
      ],
      [
        ",",
        -3.4417011795855483
      ],
      [
        "Ġ",
        -3.57704315592156
      ],
      [
        ".",
        -3.749472708343747
      ],
      [
        "Ġand",
        -3.9379236395544215
      ],
      [
        "Ġof",
        -3.965723077203384
      ],
      [
        "Ġto",
        -3.991554401725132
      ],
      [
        "Ġa",
        -4.2039793894286355
      ],
      [
        "ing",
        -4.270696829827562
      ],
      [
        "Ġin",
        -4.464091910648278
      ],
      [
        "Ġis",
        -4.641780978612173
      ],
      [
        "d",
        -4.716748058800803
      ],
      [
        "y",
        -4.822655492590055
      ],
      [
        "ed",
        -4.892939735214076
      ],
      [
        "'",
        -4.92510045208911
      ],
      [
        "Ġfor",
        -5.03705456702666
      ],
      [
        "Ġthat",
        -5.0392923211394685
      ],
      [
        "0",
        -5.0494752621621775
      ],
      [
        "ly",
        -5.064689122980541
      ],
      [
        "1",
        -5.135091335889973
      ],
      [
        "Ġare",
        -5.2216896642271635
      ],
      [
        ":",
        -5.277485436980042
      ],
      [
        "Ġyou",
        -5.279185653419878
      ],
      [
        "e",
        -5.293018712894396
      ],
      [
        ".ĊĊ",
        -5.314237231611388
      ],
      [
        "Ġit",
        -5.330371002870324
      ],
      [
        "Ġbe",
        -5.338558256669758
      ],
      [
        ".Ċ",
        -5.357577489806712
      ],
      [
        "Ġwith",
        -5.372319376829951
      ],
      [
        "2",
        -5.377286414082242
      ],
      [
        "Ċ",
        -5.380718014821575
      ],
      [
        "t",
        -5.464985487073138
      ],
      [
        "Ġor",
        -5.513580126585072
      ],
      [
        "Ġcan",
        -5.5195947122570885
      ],
      [
        "Ġon",
        -5.520935137251035
      ],
      [
        "ĊĊ",
        -5.538289636242974
      ],
      [
        "Ġas",
        -5.632907436387136
      ],
      [
        "-",
        -5.6526929820329475
      ],
      [
        "Ġyour",
        -5.691356645581111
      ],
      [
        "Ġ(",
        -5.732073994261308
      ],
      [
        "\"",
        -5.834098355425656
      ],
      [
        "ĠThe",
        -5.868123201437836
      ],
      [
        "Ġhave",
        -5.871093439172244
      ],
      [
        "Ġfrom",
        -5.883811744994176
      ],
      [
        "a",
        -5.890314141577338
      ],
      [
        "Ġby",
        -5.947264311409198
      ],
      [
        "?",
        -5.959790276620492
      ],
      [
        "Ġan",
        -6.016115540158475
      ],
      [
        "ĠI",
        -6.016987168354234
      ],
      [
        "3",
        -6.023150492552846
      ],
      [
        ")",
        -6.048911589082143
      ],
      [
        "Ġthis",
        -6.068592725085148
      ],
      [
        "5",
        -6.074858180683991
      ],
      [
        "Ġnot",
        -6.1359615763026145
      ],
      [
        "Ġat",
        -6.140893476093822
      ],
      [
        "Ġwill",
        -6.197615430931842
      ],
      [
        "Ġtheir",
        -6.214966966734664
      ],
      [
        "4",
        -6.231019931052549
      ],
      [
        "n",
        -6.297640668709489
      ],
      [
        "9",
        -6.325572917955705
      ],
      [
        "Ġmore",
        -6.328492168976085
      ],
      [
        "Ġwas",
        -6.341887122733514
      ],
      [
        "Ġthey",
        -6.397721621256595
      ],
      [
        "The",
        -6.423509256675041
      ],
      [
        "6",
        -6.4770526248791
      ],
      [
        "Ġwhich",
        -6.481463961601273
      ],
      [
        "r",
        -6.4909074199098935
      ],
      [
        "Ġbut",
        -6.4915643117504285
      ],
      [
        "Ġhas",
        -6.492241502384886
      ],
      [
        "Ġwe",
        -6.494566734891196
      ],
      [
        "ies",
        -6.553026490416094
      ],
      [
        "8",
        -6.560189541088459
      ],
      [
        "on",
        -6.5750169031105
      ],
      [
        "Ġalso",
        -6.590192262008134
      ],
      [
        "Question",
        -6.599312606219646
      ],
      [
        "Ġone",
        -6.6078581351972545
      ],
      [
        "ĠAnswer",
        -6.627604225627707
      ],
      [
        "7",
        -6.652029890404952
      ],
      [
        "Ġlike",
        -6.6787111431322455
      ],
      [
        "Ġall",
        -6.685096549511451
      ],
      [
        "Ġabout",
        -6.686600431654142
      ],
      [
        "Ġother",
        -6.690312827807171
      ],
      [
        "Ġwhen",
        -6.7256107708080695
      ],
      [
        "ĠIt",
        -6.73631710437895
      ],
      [
        "Ġthem",
        -6.765661462866463
      ],
      [
        "Ġinto",
        -6.798437748507498
      ],
      [
        "Ġtime",
        -6.799448730711644
      ],
      [
        "ĠA",
        -6.800360103481893
      ],
      [
        "Ġdo",
        -6.816747386859525
      ],
      [
        "Ġif",
        -6.8176951809235256
      ],
      [
        "Ġuse",
        -6.8218432918757195
      ],
      [
        "Ġsome",
        -6.841371782182941
      ],
      [
        "Ġmay",
        -6.849167674661361
      ],
      [
        "Ġso",
        -6.853339090657533
      ],
      [
        "ĠThis",
        -6.861825185865353
      ],
      [
        "Ġup",
        -6.87200522772485
      ],
      [
        "Ġhow",
        -6.888536039758177
      ],
      [
        "h",
        -6.903135450174892
      ],
      [
        "Ġthan",
        -6.914069631897869
      ],
      [
        "o",
        -6.915855049177424
      ],
      [
        "Ġout",
        -6.947609298858026
      ],
      [
        "ĠWhat",
        -6.954601632511251
      ],
      [
        "Ġthese",
        -6.960835001938118
      ],
      [
        "Ġhelp",
        -6.965181574204102
      ],
      [
        "A",
        -6.971250436280798
      ],
      [
        "l",
        -6.974853606825473
      ],
      [
        "Ġwater",
        -6.978861915644369
      ],
      [
        "Ġthere",
        -6.984626049375471
      ],
      [
        "i",
        -6.98585513253887
      ],
      [
        "Ġneed",
        -6.986728858852123
      ],
      [
        "Ġwere",
        -7.044262546100354
      ],
      [
        "Ġwhat",
        -7.044983908925628
      ],
      [
        "Ġmost",
        -7.052634856622285
      ],
      [
        "Ġused",
        -7.060778562895338
      ],
      [
        "Ġour",
        -7.072155181318159
      ],
      [
        "Ġmake",
        -7.076684209346622
      ],
      [
        "Ġsuch",
        -7.091276722617884
      ],
      [
        ";",
        -7.0967299535313
      ],
      [
        "m",
        -7.100833158457746
      ],
      [
        "ĠIn",
        -7.129761284412
      ],
      [
        "al",
        -7.135465677053444
      ],
      [
        "Ġany",
        -7.141949818309389
      ],
      [
        "able",
        -7.151575896372089
      ],
      [
        "Ġget",
        -7.166044536811867
      ],
      [
        "Ġthrough",
        -7.178647853494274
      ],
      [
        "Ġbeen",
        -7.183373118435478
      ],
      [
        "er",
        -7.193852872105049
      ],
      [
        "Ġwho",
        -7.19893928126867
      ],
      [
        "Ġits",
        -7.209401783856121
      ],
      [
        "Ġpeople",
        -7.210935850240233
      ],
      [
        "Ġnew",
        -7.213060191137245
      ],
      [
        "Ġfirst",
        -7.2359840678350835
      ],
      [
        "Ġshould",
        -7.247302805562134
      ],
      [
        "/",
        -7.257831567403455
      ],
      [
        "Ġwould",
        -7.260095964194836
      ],
      [
        "cause",
        -7.26566416617273
      ],
      [
        "?Ċ",
        -7.273562491146807
      ],
      [
        "re",
        -7.275916096797784
      ],
      [
        "Ġonly",
        -7.279008548325361
      ],
      [
        "Ġwork",
        -7.295472278183544
      ],
      [
        "Ġover",
        -7.307028822654725
      ],
      [
        "Ġmany",
        -7.31097255219148
      ],
      [
        "Ġsystem",
        -7.31727112678945
      ],
      [
        "Ġwell",
        -7.330022567716455
      ],
      [
        "ity",
        -7.346823796925209
      ],
      [
        "Ġjust",
        -7.350778901896888
      ],
      [
        "Ġtwo",
        -7.362556926952717
      ],
      [
        "Ġdifferent",
        -7.365460376282577
      ],
      [
        "Ġbetween",
        -7.378498734437848
      ],
      [
        "Ġway",
        -7.384533014162416
      ],
      [
        "Ġhigh",
        -7.387933978225437
      ],
      [
        "Ġsee",
        -7.405238314365848
      ],
      [
        "I",
        -7.417119906986596
      ],
      [
        "Ġwhere",
        -7.41820930319545
      ],
      [
        "!",
        -7.426368421443
      ],
      [
        "c",
        -7.43054278952774
      ],
      [
        "Ġno",
        -7.445176364635227
      ],
      [
        "Ġtake",
        -7.451132136502936
      ],
      [
        "ever",
        -7.454613090988287
      ],
      [
        "Ġmy",
        -7.464177942003994
      ],
      [
        "Ġchange",
        -7.487216598609342
      ],
      [
        "Ġlook",
        -7.493384494574661
      ],
      [
        "Ġpart",
        -7.493994922313714
      ],
      [
        "Ġeven",
        -7.50613495832434
      ],
      [
        "Ġcould",
        -7.506250032171568
      ],
      [
        "ĠIf",
        -7.523786752468816
      ],
      [
        "Ġcell",
        -7.524623369106299
      ],
      [
        "using",
        -7.526638955203667
      ],
      [
        "Ġvery",
        -7.531585741333451
      ],
      [
        "Ġhis",
        -7.546717570099732
      ],
      [
        "Ġhe",
        -7.559716989077733
      ],
      [
        "Ġmuc",
        -7.565197281652196
      ],
      [
        "Ġhad",
        -7.569095221348364
      ],
      [
        "ĠHow",
        -7.573244465800279
      ],
      [
        "Ġwant",
        -7.57498565473561
      ],
      [
        ").",
        -7.578382643265307
      ],
      [
        "Ġgood",
        -7.5810168119358
      ],
      [
        "Ġknow",
        -7.58686572134625
      ],
      [
        "Ġeach",
        -7.596846773390995
      ],
      [
        "ĠâĢĵ",
        -7.59918692317971
      ],
      [
        "Ġwhile",
        -7.605705089541111
      ],
      [
        "Ġmean",
        -7.617701556908682
      ],
      [
        "Ġprocess",
        -7.625945296468867
      ],
      [
        "Ġimportant",
        -7.6310677898656065
      ],
      [
        "is",
        -7.6394269305818465
      ],
      [
        "ĠThey",
        -7.647041966445969
      ],
      [
        "Ġenergy",
        -7.650049098412551
      ],
      [
        "Ġprovide",
        -7.653696763087056
      ],
      [
        "In",
        -7.654894075579301
      ],
      [
        "Ġdoes",
        -7.65917628984831
      ],
      [
        "Ġhealth",
        -7.661006511084174
      ],
      [
        "Ġyears",
        -7.66249266261479
      ],
      [
        "ve",
        -7.6708760297894125
      ],
      [
        "Ġlong",
        -7.676469516053864
      ],
      [
        "ĠYou",
        -7.685732214426268
      ],
      [
        "Ġsmall",
        -7.690034044291874
      ],
      [
        "Ġthing",
        -7.694945053131733
      ],
      [
        "Ġafter",
        -7.69763242387449
      ],
      [
        "in",
        -7.701093919106667
      ],
      [
        "Ġworld",
        -7.708258992331904
      ],
      [
        "Ġthen",
        -7.709895106710499
      ],
      [
        "Ġfood",
        -7.710822371337598
      ],
      [
        "made",
        -7.719647273232392
      ],
      [
        "ĠC",
        -7.722107560550144
      ],
      [
        "Ġbefore",
        -7.73032165125999
      ],
      [
        "Ġduring",
        -7.736469533814081
      ],
      [
        "Ġcreate",
        -7.738555907915333
      ],
      [
        "Ġcome",
        -7.739801761994823
      ],
      [
        "Ġlevel",
        -7.74089930200339
      ],
      [
        "Ġaround",
        -7.748770509508521
      ],
      [
        "Ġlife",
        -7.749091625576595
      ],
      [
        "Ġallow",
        -7.751211745399269
      ],
      [
        "S",
        -7.753608475700871
      ],
      [
        "Ġdon",
        -7.757267368751281
      ],
      [
        "Ġbody",
        -7.7606396308779955
      ],
      [
        "Ġdown",
        -7.768739053537344
      ],
      [
        "Ġdesign",
        -7.772536503014191
      ],
      [
        "%",
        -7.799885560454479
      ],
      [
        "Ġbeing",
        -7.804467957812792
      ],
      [
        "),",
        -7.808700722353269
      ],
      [
        "Ġsame",
        -7.811541472211705
      ],
      [
        "Ġhuman",
        -7.813066540783413
      ],
      [
        "Ġinclude",
        -7.82043138555532
      ],
      [
        "Ġplace",
        -7.8267682133082594
      ],
      [
        "Ġstudent",
        -7.831213595077516
      ],
      [
        "Ġthose",
        -7.834534011817554
      ],
      [
        "Ġlight",
        -7.837617284195312
      ],
      [
        "Ġoften",
        -7.838316131988654
      ],
      [
        "Ġshow",
        -7.838403912775666
      ],
      [
        "Ġfind",
        -7.839595154493987
      ],
      [
        "Ġfound",
        -7.840964192275464
      ],
      [
        "Ġyear",
        -7.845527571677711
      ],
      [
        "Ġdata",
        -7.84752883328017
      ],
      [
        "ce",
        -7.84832283962547
      ],
      [
        "Ġbest",
        -7.848631206383963
      ],
      [
        "and",
        -7.850949517316216
      ],
      [
        "Ġright",
        -7.8519802218664845
      ],
      [
        "Ġexample",
        -7.859545573487238
      ],
      [
        "Ġboth",
        -7.859874199845916
      ],
      [
        "Ġback",
        -7.862577582921213
      ],
      [
        "Ġnumber",
        -7.862603390656592
      ],
      [
        "Ġkeep",
        -7.864224836001789
      ],
      [
        "x",
        -7.864981728884893
      ],
      [
        "Ġday",
        -7.872087530661964
      ],
      [
        "What",
        -7.872822814939092
      ],
      [
        "Ġstudy",
        -7.87710699783454
      ],
      [
        "(",
        -7.8785319536246
      ],
      [
        "Ġexperience",
        -7.879409079323743
      ],
      [
        "Ġform",
        -7.882264623913612
      ],
      [
        "ness",
        -7.88308398604757
      ],
      [
        "ability",
        -7.88425985528064
      ],
      [
        "Ġus",
        -7.885203697775289
      ],
      [
        "Ġinformation",
        -7.890853555230658
      ],
      [
        "Ġthink",
        -7.891776988161671
      ],
      [
        "ĠWe",
        -7.894182594344191
      ],
      [
        "Ġcolor",
        -7.894279920858008
      ],
      [
        "ĠB",
        -7.899531266220647
      ],
      [
        "How",
        -7.902580480505425
      ],
      [
        "Ġcommon",
        -7.914888674199631
      ],
      [
        ":Ċ",
        -7.915162136314843
      ],
      [
        "Ġrequire",
        -7.91781072466359
      ],
      [
        "Ġpower",
        -7.921588762743453
      ],
      [
        "ĠFor",
        -7.922066116112647
      ],
      [
        "Ġmight",
        -7.933598583224914
      ],
      [
        "Ġresearch",
        -7.9467759698023235
      ],
      [
        "Ġhome",
        -7.947081974191943
      ],
      [
        "ĠThese",
        -7.97244247288138
      ],
      [
        "Ġstart",
        -7.974463898683688
      ],
      [
        "Ġown",
        -7.976453192592613
      ],
      [
        "Ġinclud",
        -7.979968962065185
      ],
      [
        "Ġgreat",
        -7.982311313830846
      ],
      [
        "Ġproduct",
        -7.982806842695177
      ],
      [
        "Ġcause",
        -7.984132260712023
      ],
      [
        "Ġlead",
        -7.9847133244458925
      ],
      [
        "Ġlarge",
        -7.987176116865618
      ],
      [
        "Ġbetter",
        -7.988271443046201
      ],
      [
        "This",
        -7.993211539487452
      ],
      [
        "Ġsize",
        -7.995048738726439
      ],
      [
        "Ġgo",
        -8.000637293787836
      ],
      [
        "D",
        -8.006034505888241
      ],
      [
        "Ġbecome",
        -8.006525595227345
      ],
      [
        "Ġnow",
        -8.007989596391416
      ],
      [
        "Ġoff",
        -8.011817635365421
      ],
      [
        "Ġconsider",
        -8.012546247012764
      ],
      [
        "g",
        -8.013036162121658
      ],
      [
        "Ġsaid",
        -8.019059006122614
      ],
      [
        "Ġwithout",
        -8.02072391185623
      ],
      [
        "If",
        -8.021963172912074
      ],
      [
        "Ġsupport",
        -8.027650220973694
      ],
      [
        "Ġher",
        -8.02887862706166
      ],
      [
        "Ġunder",
        -8.030868398128069
      ],
      [
        "Ġdevelop",
        -8.03142969991569
      ],
      [
        "Ġgrow",
        -8.031573177075359
      ],
      [
        "Ġtemperature",
        -8.033177677703447
      ],
      [
        "Ġevery",
        -8.035557264127085
      ],
      [
        "Ġair",
        -8.038040694797289
      ],
      [
        "um",
        -8.038696165706853
      ],
      [
        "Ġcar",
        -8.040935287015927
      ],
      [
        "ll",
        -8.042768678186293
      ],
      [
        "us",
        -8.045149756221488
      ],
      [
        "Ġfew",
        -8.050291507181218
      ],
      [
        "Ġincrease",
        -8.056286103142618
      ],
      [
        "f",
        -8.05718593884016
      ],
      [
        "Ġresult",
        -8.06085635154668
      ],
      [
        "Ġtype",
        -8.064447134464015
      ],
      [
        "Ġpoint",
        -8.067848539113067
      ],
      [
        "Ġstill",
        -8.071834018413762
      ],
      [
        "Ġheat",
        -8.074816582134673
      ],
      [
        "Ġplant",
        -8.074908249169784
      ],
      [
        "Ġmaking",
        -8.076155330135927
      ],
      [
        "Ġchildren",
        -8.078979983541172
      ],
      [
        "ic",
        -8.079521535670192
      ],
      [
        "known",
        -8.081188919013977
      ],
      [
        "Ġreal",
        -8.08135591281911
      ],
      [
        "Ġme",
        -8.081885263989623
      ],
      [
        "Ġspecific",
        -8.085529696526763
      ],
      [
        "Ġbase",
        -8.087602527149851
      ],
      [
        "Ġset",
        -8.088098633917507
      ],
      [
        "ĠTo",
        -8.091172353098745
      ],
      [
        "Ġagain",
        -8.091358328745189
      ],
      [
        ":ĊĊ",
        -8.092366254919632
      ],
      [
        "Ġend",
        -8.098042858134807
      ],
      [
        "Ġcase",
        -8.09974385794327
      ],
      [
        "Ġthree",
        -8.110778830090517
      ],
      [
        "Ġissue",
        -8.111488578334097
      ],
      [
        "...",
        -8.113109796694193
      ],
      [
        "Ġdog",
        -8.117617470483152
      ],
      [
        "Ġplay",
        -8.119145523829213
      ],
      [
        "Ġcalled",
        -8.120820750061267
      ],
      [
        "It",
        -8.122867826598231
      ],
      [
        "Ġfish",
        -8.124324139523864
      ],
      [
        "Ġspecies",
        -8.124767629417203
      ],
      [
        "Ġgroup",
        -8.1302312198586
      ],
      [
        "Ġwithin",
        -8.142712451297317
      ],
      [
        "Ġeffect",
        -8.1449397964617
      ],
      [
        "ĠBut",
        -8.15033366127913
      ],
      [
        "Ġun",
        -8.15373719528996
      ],
      [
        "Ġgive",
        -8.15483620656504
      ],
      [
        "Ġmethod",
        -8.15491466117162
      ],
      [
        "Ġplants",
        -8.156922451611132
      ],
      [
        "Ġlot",
        -8.162182984011054
      ],
      [
        "Ġpotential",
        -8.163673910825725
      ],
      [
        "Ġschool",
        -8.165278063531623
      ],
      [
        "Ġadd",
        -8.169853156044663
      ],
      [
        "Ġless",
        -8.171553059134286
      ],
      [
        "Ġindividual",
        -8.173584605961723
      ],
      [
        "Ġsay",
        -8.1775540375344
      ],
      [
        "Ġoffer",
        -8.18730177924132
      ],
      [
        "Ġcost",
        -8.188042031569786
      ],
      [
        "Ġcontrol",
        -8.19213528843858
      ],
      [
        "Ġtoo",
        -8.198010802719836
      ],
      [
        "or",
        -8.201302795897888
      ],
      [
        "Ġsomething",
        -8.208887209893401
      ],
      [
        "ĠAnd",
        -8.209800992730756
      ],
      [
        "Ġmain",
        -8.211749096312793
      ],
      [
        "Ġsure",
        -8.219259855276817
      ],
      [
        "Ġnatural",
        -8.222025075365234
      ],
      [
        "Ġmust",
        -8.226792386290427
      ],
      [
        "Ġwhy",
        -8.2289672220878
      ],
      [
        "C",
        -8.229818866016139
      ],
      [
        "Ġlow",
        -8.232274332017841
      ],
      [
        "ation",
        -8.237263136562557
      ],
      [
        "Ġgoing",
        -8.239640179994705
      ],
      [
        "Ġsignificant",
        -8.241477461252881
      ],
      [
        "Ġsecond",
        -8.244779867301858
      ],
      [
        "ally",
        -8.248972889149929
      ],
      [
        "Ġreduce",
        -8.249190135481186
      ],
      [
        "Ġquestion",
        -8.251934816566877
      ],
      [
        "Ġrisk",
        -8.252875352591758
      ],
      [
        "Ġanimal",
        -8.256534916872145
      ],
      [
        "Ġensure",
        -8.257105549847406
      ],
      [
        "an",
        -8.257817036323292
      ],
      [
        "Ġfactor",
        -8.259472160479262
      ],
      [
        "Ġproject",
        -8.261560204442004
      ],
      [
        "Ġimpact",
        -8.26684254950374
      ],
      [
        "the",
        -8.269059213156432
      ],
      [
        "th",
        -8.27029136544524
      ],
      [
        "Ġper",
        -8.272814586366355
      ],
      [
        "Ġcurrent",
        -8.280944115649618
      ],
      [
        "Ġpossible",
        -8.28580359642163
      ],
      [
        "Ġfull",
        -8.28607088698011
      ],
      [
        "Ġbenefit",
        -8.28777043409513
      ],
      [
        "Ġdue",
        -8.293794341413598
      ],
      [
        "Ġspace",
        -8.298354926191022
      ],
      [
        "ĠM",
        -8.30253307043446
      ],
      [
        "ĠWhen",
        -8.303780286245583
      ],
      [
        "Ġvarious",
        -8.303872371336656
      ],
      [
        "Ġ[",
        -8.304453557928742
      ],
      [
        "Ġfield",
        -8.305354640028554
      ],
      [
        "ĠThere",
        -8.306970546473103
      ],
      [
        "Ġdevice",
        -8.309195763551116
      ],
      [
        "Ġamount",
        -8.316498954641224
      ],
      [
        "Ġsource",
        -8.316800200416411
      ],
      [
        "Ġarea",
        -8.317761158983522
      ],
      [
        "Ġblood",
        -8.319012910970496
      ],
      [
        "Ġeffective",
        -8.31916132520621
      ],
      [
        "p",
        -8.322157938743809
      ],
      [
        "Ġtest",
        -8.325378797990087
      ],
      [
        "Ġhere",
        -8.329786350648597
      ],
      [
        "Ġmaterial",
        -8.33002940726701
      ],
      [
        "ĠD",
        -8.333178399913649
      ],
      [
        "Ġreason",
        -8.333608547832554
      ],
      [
        "Ġanother",
        -8.337714615872127
      ],
      [
        "Ġalway",
        -8.338184940988706
      ],
      [
        "Ġrange",
        -8.340012403309789
      ],
      [
        "Ġw",
        -8.342729592165261
      ],
      [
        "Ġfollowing",
        -8.343515598053699
      ],
      [
        "Ġlearn",
        -8.345605841444335
      ],
      [
        "Ġcat",
        -8.348880383598228
      ],
      [
        "ĠSo",
        -8.349322167188884
      ],
      [
        "Ġfeel",
        -8.355998090916351
      ],
      [
        "Ġlittle",
        -8.357805592993678
      ],
      [
        "Ġhard",
        -8.358302424136115
      ],
      [
        "Ġcare",
        -8.36006155936371
      ],
      [
        "Ġqualit",
        -8.362791641942932
      ],
      [
        "Ġlast",
        -8.363320788337319
      ],
      [
        "Ġtreatment",
        -8.364528347052783
      ],
      [
        "Ġidea",
        -8.366992618035987
      ],
      [
        "Ġdevelopment",
        -8.368009575565477
      ],
      [
        "Ġshe",
        -8.368564992399968
      ],
      [
        "Ġgeneral",
        -8.369047212727253
      ],
      [
        "Ġdisease",
        -8.371064485077067
      ],
      [
        "Ġstate",
        -8.374454176502564
      ],
      [
        "Ġorder",
        -8.37532319079963
      ],
      [
        "le",
        -8.376888851579109
      ],
      [
        "B",
        -8.379155581867812
      ],
      [
        "Ġprevent",
        -8.380771929793614
      ],
      [
        "Ġdid",
        -8.381381279433281
      ],
      [
        "ĠS",
        -8.384953147479534
      ],
      [
        "]",
        -8.391387852675505
      ],
      [
        "less",
        -8.392217741297383
      ],
      [
        "ĠP",
        -8.408940796272079
      ],
      [
        "Ġavailable",
        -8.409376167810079
      ],
      [
        "Ġpaper",
        -8.412649128441945
      ],
      [
        "Ġservice",
        -8.41372538527743
      ],
      [
        "Ġcontain",
        -8.416057407131701
      ],
      [
        "Ġproblem",
        -8.419980152233464
      ],
      [
        "Ġline",
        -8.42027054522979
      ],
      [
        "Ġactual",
        -8.42086401492966
      ],
      [
        "it",
        -8.421592513693678
      ],
      [
        "Ġside",
        -8.422086434618494
      ],
      [
        "Ġseveral",
        -8.422888773077025
      ],
      [
        "Ġtext",
        -8.426121371997521
      ],
      [
        "Ġtypes",
        -8.429557584350892
      ],
      [
        "Ġsurface",
        -8.43872183343399
      ],
      [
        "Ġweek",
        -8.439163511003759
      ],
      [
        "ĠAs",
        -8.442036951308394
      ],
      [
        "Ġsoil",
        -8.44205098709346
      ],
      [
        "Ġfunction",
        -8.443944616901597
      ],
      [
        "Ġopen",
        -8.445964552302883
      ],
      [
        "Ġusually",
        -8.446043941298896
      ],
      [
        "Ġenvironment",
        -8.45229539410021
      ],
      [
        ",\"",
        -8.452402431958467
      ],
      [
        "When",
        -8.456595919633422
      ],
      [
        "Ġstructure",
        -8.457777798949774
      ],
      [
        "Ġmonth",
        -8.457804953597819
      ],
      [
        "Ġtechnology",
        -8.461097218358479
      ],
      [
        "Ġage",
        -8.463106868799706
      ],
      [
        "Ġimprove",
        -8.463573575555111
      ],
      [
        "Ġenough",
        -8.463787249630624
      ],
      [
        "ĠWhich",
        -8.467812602470456
      ],
      [
        "Ġdamage",
        -8.470727168105967
      ],
      [
        "Ġlearning",
        -8.47403527162254
      ],
      [
        "Ġdifference",
        -8.476102682570268
      ],
      [
        "Ġunti",
        -8.477820548862145
      ],
      [
        "ry",
        -8.478205298622585
      ],
      [
        "Ġal",
        -8.480013972999181
      ],
      [
        "Ġunderstand",
        -8.48026475461179
      ],
      [
        "Ġparticular",
        -8.480369207155883
      ],
      [
        "Ġ$",
        -8.480811226044917
      ],
      [
        "Ġanswer",
        -8.485047119648849
      ],
      [
        "Ġessential",
        -8.487648805757289
      ],
      [
        "Ġwide",
        -8.488652807435079
      ],
      [
        "Ġweight",
        -8.488685006311737
      ],
      [
        "u",
        -8.489721662512643
      ],
      [
        "Ġapplication",
        -8.498534073108704
      ],
      [
        "Ġ&",
        -8.50204197882556
      ],
      [
        "Ġprotein",
        -8.502085208806612
      ],
      [
        "Ġcertain",
        -8.503389922094307
      ],
      [
        "Ġvalue",
        -8.504498709148736
      ],
      [
        "Ġmodel",
        -8.50483388926623
      ],
      [
        "Ġconditions",
        -8.504910669733398
      ],
      [
        "Ġtop",
        -8.50935895735973
      ],
      [
        "higher",
        -8.510574846383244
      ],
      [
        "Ġcourse",
        -8.511784075286855
      ],
      [
        "Ġleave",
        -8.512744686729302
      ],
      [
        "ive",
        -8.513150208974984
      ],
      [
        "Ġmaterials",
        -8.515796105874724
      ],
      [
        "having",
        -8.516056575833815
      ],
      [
        "ĠBy",
        -8.516712200398246
      ],
      [
        "b",
        -8.516879370243053
      ],
      [
        "Ġareas",
        -8.519242634790618
      ],
      [
        "Ġcomplete",
        -8.519783140264316
      ],
      [
        "Ġinvolve",
        -8.521400503044202
      ],
      [
        "Ġteam",
        -8.52155962976332
      ],
      [
        "Ġpresent",
        -8.521638982596947
      ],
      [
        "Ġrole",
        -8.52274691762513
      ],
      [
        "Ġalong",
        -8.523507168152637
      ],
      [
        "Ġnon",
        -8.526675400868395
      ],
      [
        "Ġtechnique",
        -8.529750891706922
      ],
      [
        "Ġfamily",
        -8.530511969318933
      ],
      [
        "T",
        -8.537177705550418
      ],
      [
        "Ġmaintain",
        -8.541724047345795
      ],
      [
        "Ġaway",
        -8.542826820124908
      ],
      [
        "Ġfree",
        -8.54320504760163
      ],
      [
        "Ġnext",
        -8.544036441828968
      ],
      [
        "Ġterm",
        -8.544063522233103
      ],
      [
        "Ġname",
        -8.547620131779055
      ],
      [
        "Ġnear",
        -8.551740704265146
      ],
      [
        "Ġput",
        -8.552054943312818
      ],
      [
        "Ġvariet",
        -8.5522425281127
      ],
      [
        "Ġhour",
        -8.554025398914654
      ],
      [
        "Ġsince",
        -8.555148724500384
      ],
      [
        "Ġresults",
        -8.556191890013338
      ],
      [
        "Ġlive",
        -8.556811892825264
      ],
      [
        "Ġcommunit",
        -8.558880459368579
      ],
      [
        "Ġlocal",
        -8.560502250597102
      ],
      [
        "Ġhand",
        -8.562395033919694
      ],
      [
        "Ġpressure",
        -8.562588761033284
      ],
      [
        "Ġneeds",
        -8.564436866014038
      ],
      [
        "Ġperson",
        -8.565724328261254
      ],
      [
        "You",
        -8.566622906787355
      ],
      [
        "ĠHe",
        -8.570254978262845
      ],
      [
        "ĠUniversity",
        -8.570368454793737
      ],
      [
        "ion",
        -8.574929850523928
      ],
      [
        "Ġmarket",
        -8.577159881634419
      ],
      [
        "Ġkey",
        -8.57795340801562
      ],
      [
        "Ġtogether",
        -8.581806459791219
      ],
      [
        "Ġeasy",
        -8.582503414509874
      ],
      [
        "Ġbatter",
        -8.587018769221208
      ],
      [
        "Ġproduce",
        -8.58836984509701
      ],
      [
        "Ġaccording",
        -8.589403780154276
      ],
      [
        "self",
        -8.593153725287149
      ],
      [
        "Ġeye",
        -8.595292036404032
      ],
      [
        "Ġdirect",
        -8.596135286338706
      ],
      [
        "Ġlower",
        -8.596417534538817
      ],
      [
        "Ġ=",
        -8.599632412670775
      ],
      [
        "Ġunit",
        -8.60051428163788
      ],
      [
        "Ġposition",
        -8.602489240162333
      ],
      [
        "Ġmakes",
        -8.602872884609171
      ],
      [
        "Ġproblems",
        -8.610314920345171
      ],
      [
        "Ġsimple",
        -8.611439589331315
      ],
      [
        "ĠThat",
        -8.616686328471122
      ],
      [
        "Ġflow",
        -8.62062656102778
      ],
      [
        "Ġgrowth",
        -8.621466616182175
      ],
      [
        "Ġdepend",
        -8.62304179779225
      ],
      [
        "Ġold",
        -8.623102368793953
      ],
      [
        "Ġdays",
        -8.624178483745844
      ],
      [
        ".\"Ċ",
        -8.624823011791266
      ],
      [
        "Ġlet",
        -8.625596744498425
      ],
      [
        "We",
        -8.62609231734871
      ],
      [
        "Ġkind",
        -8.627355512386668
      ],
      [
        "Ġprotect",
        -8.628188390264341
      ],
      [
        "Ġrate",
        -8.631498994269826
      ],
      [
        "Ġworking",
        -8.631921215936142
      ],
      [
        "*",
        -8.632096463735156
      ],
      [
        "Ġturn",
        -8.632412110179686
      ],
      [
        "Ġunique",
        -8.634978192421244
      ],
      [
        "ĠU",
        -8.63605154319692
      ],
      [
        "Ġperiod",
        -8.637193419306644
      ],
      [
        "Ġphysical",
        -8.637938128652923
      ],
      [
        "Ġtypical",
        -8.638808095993058
      ],
      [
        "âĢĵ",
        -8.639355953420333
      ],
      [
        "Ġhealthy",
        -8.63954702131399
      ],
      [
        "Ġgiven",
        -8.64254528901399
      ],
      [
        "Ġstore",
        -8.64356094930599
      ],
      [
        "Ġskin",
        -8.648435037266921
      ],
      [
        "Ġmachine",
        -8.648926122050781
      ],
      [
        "Ġavoid",
        -8.649390407833346
      ],
      [
        "Ġcomputer",
        -8.649414464617596
      ],
      [
        "Ġseem",
        -8.649481744751178
      ],
      [
        "Ġclean",
        -8.649794911152581
      ],
      [
        "Ġcontinue",
        -8.652169344322312
      ],
      [
        "Ġdiet",
        -8.654186445370758
      ],
      [
        "Ġrun",
        -8.654830175202022
      ],
      [
        "Ġfuture",
        -8.658302308715193
      ],
      [
        "Ġshort",
        -8.660053515238186
      ],
      [
        "Ġsafe",
        -8.662694023069498
      ],
      [
        "Ġamong",
        -8.663481528288333
      ],
      [
        "Ġcheck",
        -8.664509223909644
      ],
      [
        "Ġprogram",
        -8.665128168698654
      ],
      [
        "Ġdone",
        -8.665187892276524
      ],
      [
        "Ġmove",
        -8.665478394024289
      ],
      [
        "Ġbusiness",
        -8.671593390524862
      ],
      [
        "Ġarticle",
        -8.671736072806905
      ],
      [
        "ĠWith",
        -8.673334557644065
      ],
      [
        "Ġgame",
        -8.67433295514154
      ],
      [
        "Ġstrong",
        -8.675828688712821
      ],
      [
        "Ġtreat",
        -8.678409683028098
      ],
      [
        "There",
        -8.679497695881203
      ],
      [
        "Ġaccess",
        -8.680228988433957
      ],
      [
        "Ġgas",
        -8.680399589905663
      ],
      [
        "Ġsingle",
        -8.68082382011091
      ],
      [
        "Ġdoesn",
        -8.681122700977241
      ],
      [
        "out",
        -8.681896323551817
      ],
      [
        "Ġleast",
        -8.68191655347713
      ],
      [
        "Ġtraining",
        -8.682510100106626
      ],
      [
        "Ġprofessional",
        -8.683157758753158
      ],
      [
        "Ġdifficult",
        -8.684868852821628
      ],
      [
        "ĠE",
        -8.68554093965379
      ],
      [
        "Ġplan",
        -8.685588557976416
      ],
      [
        "Ġproduction",
        -8.686963932783001
      ],
      [
        "Ġchild",
        -8.687714709887835
      ],
      [
        "to",
        -8.691920712863288
      ],
      [
        "Ġsuggest",
        -8.692933367724908
      ],
      [
        "Ġoil",
        -8.69305689331162
      ],
      [
        "Ġnecessar",
        -8.693744956671901
      ],
      [
        "Ġfollow",
        -8.700581620073239
      ],
      [
        "Ġregion",
        -8.706147074667411
      ],
      [
        "Ġabove",
        -8.706672840584373
      ],
      [
        "Ġpopulation",
        -8.707170657874954
      ],
      [
        "Ġhim",
        -8.707943073365627
      ],
      [
        "Ġfocus",
        -8.708232312698083
      ],
      [
        "Ġwhite",
        -8.708925874657034
      ],
      [
        "Ġsimilar",
        -8.710220364135452
      ],
      [
        "Ġbasic",
        -8.712406991846969
      ],
      [
        "Ġclose",
        -8.713896795849404
      ],
      [
        "ĠT",
        -8.716419742629078
      ],
      [
        "Ġresearcher",
        -8.720402222990025
      ],
      [
        "Ġdetermine",
        -8.722085281748832
      ],
      [
        "!Ċ",
        -8.72340639164879
      ],
      [
        "Ġdogs",
        -8.723467923059978
      ],
      [
        "Ġgarden",
        -8.724641001829632
      ],
      [
        "Ġsocial",
        -8.726087034692537
      ],
      [
        "Ġclimate",
        -8.726882628162562
      ],
      [
        "w",
        -8.727119684657353
      ],
      [
        "Ġwarm",
        -8.729441656303417
      ],
      [
        "Ġbuilding",
        -8.729579044995774
      ],
      [
        "Ġfact",
        -8.730466343991484
      ],
      [
        "Ġnever",
        -8.732670878047653
      ],
      [
        "Ġregular",
        -8.733808010565674
      ],
      [
        "Ġremove",
        -8.737009185976213
      ],
      [
        "Ġstep",
        -8.737381353474321
      ],
      [
        "Ġpost",
        -8.743352093562063
      ],
      [
        "Ġpopular",
        -8.74930648409185
      ],
      [
        "Ġground",
        -8.750408931350195
      ],
      [
        "Ġcomponent",
        -8.750941415312646
      ],
      [
        "Ġhead",
        -8.751631648395861
      ],
      [
        "Ġespecially",
        -8.752553980234694
      ],
      [
        "Ġbook",
        -8.752930363764754
      ],
      [
        ")ĊĊ",
        -8.754648778661489
      ],
      [
        "ĠNew",
        -8.755114129308929
      ],
      [
        "across",
        -8.756378364513452
      ],
      [
        "Ġelectric",
        -8.759960633109198
      ],
      [
        "Ġtoday",
        -8.760033407915751
      ],
      [
        "Ġtimes",
        -8.761749275418024
      ],
      [
        "Ġsound",
        -8.761991928240066
      ],
      [
        "Ġcontent",
        -8.762659495208489
      ],
      [
        "Ġsignal",
        -8.763116013390999
      ],
      [
        "Ġpattern",
        -8.763482012154878
      ],
      [
        "Ġeat",
        -8.763876233820405
      ],
      [
        "Ġlove",
        -8.7641970456116
      ],
      [
        "Ġbring",
        -8.76538133074731
      ],
      [
        "ĠSome",
        -8.765576961032767
      ],
      [
        "Ġface",
        -8.766122996188983
      ],
      [
        "Ġscience",
        -8.768433130671838
      ],
      [
        "Ġmajor",
        -8.768894902878895
      ],
      [
        "Ġcancer",
        -8.769868282747307
      ],
      [
        "Ġclear",
        -8.770583207401941
      ],
      [
        "To",
        -8.771221522826847
      ],
      [
        "Ġbit",
        -8.77248281157835
      ],
      [
        "Ġtoward",
        -8.775545306112535
      ],
      [
        "Ġoption",
        -8.775992207380614
      ],
      [
        "Ġsite",
        -8.7767454301211
      ],
      [
        "Ġmatter",
        -8.776996205807684
      ],
      [
        "ĠâĢĶ",
        -8.778004488656444
      ],
      [
        "Ġinterest",
        -8.778329650392505
      ],
      [
        "Ġshape",
        -8.780182899750375
      ],
      [
        "ĠH",
        -8.780378388584687
      ],
      [
        "Ġpiece",
        -8.780605766170591
      ],
      [
        "ment",
        -8.781624693943225
      ],
      [
        "Ġread",
        -8.781715164460795
      ],
      [
        "Ġlayer",
        -8.78213186603516
      ],
      [
        "Ġleft",
        -8.783220320902036
      ],
      [
        "either",
        -8.783513727191966
      ],
      [
        "Ġtry",
        -8.78365221024821
      ],
      [
        "Ġfour",
        -8.785183141724396
      ],
      [
        "Ġstudie",
        -8.78876460018956
      ],
      [
        "Ġsun",
        -8.789691885428454
      ],
      [
        "Ġcreat",
        -8.794588443121297
      ],
      [
        "Ġcountry",
        -8.796093839340761
      ],
      [
        "Ġtotal",
        -8.796142499691246
      ],
      [
        "ready",
        -8.796469230710084
      ],
      [
        "Ġchemical",
        -8.79722662837741
      ],
      [
        "Ġaddition",
        -8.799107839481096
      ],
      [
        "Ġimage",
        -8.799718447677927
      ],
      [
        "Ġaffect",
        -8.80401328943794
      ],
      [
        "Ġunderstanding",
        -8.80517657099357
      ],
      [
        "Ġchoice",
        -8.805184561069323
      ],
      [
        "Ġbelow",
        -8.807797148864623
      ],
      [
        "Ġheart",
        -8.811969631275979
      ],
      [
        "Ġsolar",
        -8.812834934845323
      ],
      [
        "Ġrecent",
        -8.815626073911368
      ],
      [
        "Ġear",
        -8.816263621413674
      ],
      [
        "Ġseed",
        -8.818213170919712
      ],
      [
        "age",
        -8.819437342878603
      ],
      [
        ".\"",
        -8.822453062197573
      ],
      [
        "For",
        -8.824501360672418
      ],
      [
        "Ġshare",
        -8.824544140836807
      ],
      [
        "Ġfeatures",
        -8.825314915187972
      ],
      [
        "ĠYour",
        -8.825730378321218
      ],
      [
        "Ġask",
        -8.827071506375884
      ],
      [
        "est",
        -8.830542947657806
      ],
      [
        "Ġsign",
        -8.831072042588048
      ],
      [
        "Ġparent",
        -8.832738500436879
      ],
      [
        "Ġbig",
        -8.833031605447012
      ],
      [
        "Ġcold",
        -8.833161684256506
      ],
      [
        "Ġperformance",
        -8.833202058795397
      ],
      [
        "Ġred",
        -8.834770453635425
      ],
      [
        "ĠBe",
        -8.836996427682795
      ],
      [
        "Ġcorrect",
        -8.837737491245814
      ],
      [
        "Ġapproach",
        -8.840283904042526
      ],
      [
        "ĠState",
        -8.840327185368189
      ],
      [
        "Ġbelieve",
        -8.841433272527265
      ],
      [
        "Ġcall",
        -8.84352790729987
      ],
      [
        "Ġinside",
        -8.84416089197719
      ],
      [
        "Ġhistory",
        -8.844536568340663
      ],
      [
        "Ġenjoy",
        -8.845162756954881
      ],
      [
        "ĠOn",
        -8.845313621157544
      ],
      [
        "Ġfar",
        -8.847531324415362
      ],
      [
        "Ġgoal",
        -8.848097273031094
      ],
      [
        "Ġbrain",
        -8.848328260192197
      ],
      [
        "Ġchallenge",
        -8.851146118820871
      ],
      [
        "Ġmillion",
        -8.851402204017905
      ],
      [
        "Ġtree",
        -8.851785412827038
      ],
      [
        "Ġconcern",
        -8.852397863080055
      ],
      [
        "Ġliv",
        -8.852844344463273
      ],
      [
        "k",
        -8.852920886502911
      ],
      [
        "Ġfurther",
        -8.854708944198713
      ],
      [
        ")Ċ",
        -8.856718899847587
      ],
      [
        "Ġmind",
        -8.856777393722478
      ],
      [
        "ous",
        -8.858349617873884
      ],
      [
        "Ġdream",
        -8.858703282731964
      ],
      [
        "ĠN",
        -8.858937992133367
      ],
      [
        "Ġengine",
        -8.860476241387822
      ],
      [
        "Ġclass",
        -8.86249212423784
      ],
      [
        "Ġnormal",
        -8.863179885977111
      ],
      [
        "Ġappear",
        -8.865788159740479
      ],
      [
        "Ġskills",
        -8.867877176459668
      ],
      [
        "Ġassociate",
        -8.86802919441289
      ],
      [
        "Ġcompare",
        -8.87163024527337
      ],
      [
        "Ġmention",
        -8.872425849690673
      ],
      [
        "P",
        -8.87439441979451
      ],
      [
        "Ġloss",
        -8.879018845139406
      ],
      [
        "Ġgenetic",
        -8.880143280075036
      ],
      [
        "Ġyoung",
        -8.881523437149834
      ],
      [
        "Ġauthor",
        -8.881560172039919
      ],
      [
        "Ġeasi",
        -8.88341926484624
      ],
      [
        "Ġperform",
        -8.884618715262171
      ],
      [
        "Ġdeep",
        -8.884927529118144
      ],
      [
        "Ġtalk",
        -8.885556290760398
      ],
      [
        "Ġcode",
        -8.886108325221741
      ],
      [
        "Ġforce",
        -8.886587184416815
      ],
      [
        "Ġways",
        -8.887783730038086
      ],
      [
        "Ġcompany",
        -8.895218349552689
      ],
      [
        "Ġreport",
        -8.895844211436843
      ],
      [
        "Ġcarbon",
        -8.897284276929902
      ],
      [
        "by",
        -8.898048708297585
      ],
      [
        "Ġreach",
        -8.899405210494624
      ],
      [
        "Ġremain",
        -8.899524597921712
      ],
      [
        "Ġsomeone",
        -8.90157352165352
      ],
      [
        "Ġfall",
        -8.902438080544751
      ],
      [
        "Ġcover",
        -8.903493748179054
      ],
      [
        "Ġmedical",
        -8.903535600774973
      ],
      [
        "Ġflower",
        -8.905850247803938
      ],
      [
        "âĢĻs",
        -8.907808887078325
      ],
      [
        "ĠG",
        -8.908339320022861
      ],
      [
        "Ġactivities",
        -8.90854764853381
      ],
      [
        "ĠOne",
        -8.910778453425504
      ],
      [
        "Ġgreen",
        -8.911741968495013
      ],
      [
        "Ġcondition",
        -8.912534689110919
      ],
      [
        "Ġlimit",
        -8.915548571421791
      ],
      [
        "Ġdry",
        -8.916571879022875
      ],
      [
        "Ġpurpose",
        -8.917664497579999
      ],
      [
        "Ġindustry",
        -8.917868443641964
      ],
      [
        "Ġvideo",
        -8.919270722998279
      ],
      [
        "Ġhouse",
        -8.920728049948561
      ],
      [
        "ĠNo",
        -8.921881901031455
      ],
      [
        "Ġrelationship",
        -8.923354105261396
      ],
      [
        "Ġpersonal",
        -8.923990583465823
      ],
      [
        "Ġstandard",
        -8.925480383112735
      ],
      [
        "once",
        -8.92622177250219
      ],
      [
        "Ġthought",
        -8.927082969331497
      ],
      [
        "Ġgett",
        -8.92750788775966
      ],
      [
        "taking",
        -8.927866142840138
      ],
      [
        "Ġdescribe",
        -8.92852746878809
      ],
      [
        "Ġperfect",
        -8.929101117172237
      ],
      [
        "Ġuser",
        -8.93024399617447
      ],
      [
        "ather",
        -8.93125414625878
      ],
      [
        "Ġcrucial",
        -8.934590941887745
      ],
      [
        "Ġtell",
        -8.935984461741949
      ],
      [
        "Ġpain",
        -8.9383128295607
      ],
      [
        "Ġlocation",
        -8.940694694887435
      ],
      [
        "ĠAI",
        -8.943324694050453
      ],
      [
        "Ġpractice",
        -8.943797314659596
      ],
      [
        "Ġsolution",
        -8.944146798292877
      ],
      [
        "Ġreceive",
        -8.944788284278886
      ],
      [
        "Ġdoing",
        -8.944981150393215
      ],
      [
        "Ġbehavior",
        -8.946556497783604
      ],
      [
        "Ġlanguage",
        -8.946916101218054
      ],
      [
        "Ġknowledge",
        -8.947031736129958
      ],
      [
        "ĠR",
        -8.94716689785588
      ],
      [
        "Ġmeasure",
        -8.947993719488798
      ],
      [
        "ary",
        -8.951258089196116
      ],
      [
        "Ġspeed",
        -8.951785023343689
      ],
      [
        "ves",
        -8.952118351926222
      ],
      [
        "Ġetc",
        -8.954071122920784
      ],
      [
        "Ġentire",
        -8.955353576492037
      ],
      [
        "are",
        -8.955380223970804
      ],
      [
        "Ġlonger",
        -8.95548141435443
      ],
      [
        "Ġsense",
        -8.95616936047445
      ],
      [
        "Ġbuild",
        -8.956449260536626
      ],
      [
        "âĢĻ",
        -8.958869522693156
      ],
      [
        "âĢĶ",
        -8.959998215463125
      ],
      [
        "Ġmoney",
        -8.960448828296052
      ],
      [
        "Ġoverall",
        -8.96198545674467
      ],
      [
        "ĠAmerican",
        -8.966165515017071
      ],
      [
        "stead",
        -8.967245342323164
      ],
      [
        "E",
        -8.967265209619278
      ],
      [
        "Ġlate",
        -8.968495480281666
      ],
      [
        "Ġroom",
        -8.973114123449669
      ],
      [
        "be",
        -8.978044596645208
      ],
      [
        "Ġrecord",
        -8.979887678844875
      ],
      [
        "Ġstay",
        -8.98016925605452
      ],
      [
        "Ġpublic",
        -8.981507730645617
      ],
      [
        "ish",
        -8.981914557695152
      ],
      [
        "Ġslow",
        -8.98238002302702
      ],
      [
        "hether",
        -8.982977759935304
      ],
      [
        "Ġtarget",
        -8.98549051558774
      ],
      [
        "Ġblack",
        -8.987932824714841
      ],
      [
        "Ġnetwork",
        -8.988033295545227
      ],
      [
        "Ġactivity",
        -8.990345589697572
      ],
      [
        "Ġsea",
        -8.990882018733394
      ],
      [
        "Ġcomplex",
        -8.991570546950747
      ],
      [
        "Ġeffort",
        -8.991616380197847
      ],
      [
        "Ġlist",
        -8.993448819814585
      ],
      [
        "Ġselect",
        -8.99355085706042
      ],
      [
        "Ġwinter",
        -8.993813456040105
      ],
      [
        "Ġpositive",
        -8.994785410337162
      ],
      [
        "Ġexercise",
        -8.995133949454843
      ],
      [
        "Ġtraditional",
        -8.995433641157476
      ],
      [
        "Ġwhole",
        -8.997073359940238
      ],
      [
        "Ġsleep",
        -8.997494443424598
      ],
      [
        "Ġscientist",
        -8.999903157348552
      ],
      [
        "Ġbalance",
        -9.00286196556058
      ],
      [
        "afety",
        -9.003763582772928
      ],
      [
        "Ġbuy",
        -9.004060399776868
      ],
      [
        "Ġthough",
        -9.004112758337413
      ],
      [
        "Ġoperation",
        -9.00497782412534
      ],
      [
        "Ġenvironmental",
        -9.006535896825397
      ],
      [
        "Ġchoose",
        -9.008465875041916
      ],
      [
        "Ġpage",
        -9.010100740768433
      ],
      [
        "Ġaction",
        -9.01087301248566
      ],
      [
        "Ġothers",
        -9.013007600099405
      ],
      [
        "Ġfee",
        -9.01519788263461
      ],
      [
        "Ġwomen",
        -9.015591276802072
      ],
      [
        "Ġmix",
        -9.01655314012084
      ],
      [
        "Ġglobal",
        -9.017276557315816
      ],
      [
        "Ġlater",
        -9.01873285343191
      ],
      [
        "online",
        -9.020446566018126
      ],
      [
        "Ġopportunit",
        -9.021064310211242
      ],
      [
        "Ġpatients",
        -9.021605443386566
      ],
      [
        "Ġnature",
        -9.022755669482349
      ],
      [
        "Ġhot",
        -9.02330586530312
      ],
      [
        "Ġeggs",
        -9.023343522122964
      ],
      [
        "Ġbegin",
        -9.023537231526914
      ],
      [
        "Ġmetal",
        -9.02595256585975
      ],
      [
        "Ġfuel",
        -9.029162854028382
      ],
      [
        "Ġexpert",
        -9.030498828620065
      ],
      [
        "Ġvehicle",
        -9.03099506572753
      ],
      [
        "ĠV",
        -9.03155745485784
      ],
      [
        "Ġprimar",
        -9.0319353465817
      ],
      [
        "Ġstage",
        -9.03366494808996
      ],
      [
        "Ġfit",
        -9.034020195175774
      ],
      [
        "Ġsummer",
        -9.036571261661836
      ],
      [
        "Ġtask",
        -9.03800689958507
      ],
      [
        "ĠWhile",
        -9.038433465800004
      ],
      [
        "ĠScience",
        -9.038722485374802
      ],
      [
        "Ġfront",
        -9.040637914225108
      ],
      [
        "Ġfast",
        -9.041749680669255
      ],
      [
        "Ġlarger",
        -9.043962139495502
      ],
      [
        "As",
        -9.045067316615928
      ],
      [
        "Ġtravel",
        -9.04566832213213
      ],
      [
        "Ġstress",
        -9.04596867195507
      ],
      [
        "Ġfruit",
        -9.04644397441891
      ],
      [
        "Ġtissue",
        -9.046516898470628
      ],
      [
        "at",
        -9.046519139668842
      ],
      [
        "Ġspecial",
        -9.047129100553509
      ],
      [
        "Ġsymptoms",
        -9.048876196586814
      ],
      [
        "where",
        -9.05643724190586
      ],
      [
        "Ġmanagement",
        -9.057424579177528
      ],
      [
        "Ġfresh",
        -9.058361611616949
      ],
      [
        "Ġtools",
        -9.060253945790931
      ],
      [
        "Ġsuccessful",
        -9.0672808598376
      ],
      [
        "Ġself",
        -9.06786431716644
      ],
      [
        "Ġpast",
        -9.069696593237046
      ],
      [
        "Ġresponse",
        -9.070413493786283
      ],
      [
        "Ġcut",
        -9.070679512571644
      ],
      [
        "Ġrelated",
        -9.072487876976744
      ],
      [
        "Ġlength",
        -9.07487731168164
      ],
      [
        "M",
        -9.07700439128402
      ],
      [
        "Ġminutes",
        -9.077737085099615
      ],
      [
        "Ġidentify",
        -9.078536033774938
      ],
      [
        "ĠNational",
        -9.080409187583667
      ],
      [
        "Ġfive",
        -9.080547507666244
      ],
      [
        "Ġoriginal",
        -9.081217047803896
      ],
      [
        "Many",
        -9.084421651532908
      ],
      [
        "Ġview",
        -9.085690413863263
      ],
      [
        "Ġefficient",
        -9.086538686725191
      ],
      [
        "Ġprobabl",
        -9.08741819573753
      ],
      [
        "Ġstrateg",
        -9.087513879099252
      ],
      [
        "ĠDo",
        -9.087708317019697
      ],
      [
        "Ġwaste",
        -9.088710136015866
      ],
      [
        "Ġproperties",
        -9.089025789716937
      ],
      [
        "Ġquick",
        -9.089235977389407
      ],
      [
        "Ġaverage",
        -9.089398601309298
      ],
      [
        "Ġsimpl",
        -9.089762380256117
      ],
      [
        "-base",
        -9.091700982275816
      ],
      [
        "Ġitem",
        -9.092835937739922
      ],
      [
        "Ġdirection",
        -9.093829570198013
      ],
      [
        "Ġanalysis",
        -9.094808008361742
      ],
      [
        "Ġpay",
        -9.095419326071678
      ],
      [
        "Ġmodern",
        -9.097364029286968
      ],
      [
        "Ġguide",
        -9.099046592820464
      ],
      [
        "Ġrecommend",
        -9.099670867195709
      ],
      [
        "Ġcenter",
        -9.0997149093879
      ],
      [
        "ĠAn",
        -9.10042983348716
      ],
      [
        "Ġaccount",
        -9.100842632463207
      ],
      [
        "ory",
        -9.103084226955955
      ],
      [
        "Ġregard",
        -9.10366556574654
      ],
      [
        "So",
        -9.10464035554681
      ],
      [
        "Ġplastic",
        -9.104953258459611
      ],
      [
        "Ġmilk",
        -9.108089993929864
      ],
      [
        "Ġreturn",
        -9.10859000239072
      ],
      [
        "Ġwall",
        -9.109123741129698
      ],
      [
        "Ġgot",
        -9.109150465216654
      ],
      [
        "Ġexplore",
        -9.109269876496006
      ],
      [
        "Ġattention",
        -9.109690658487958
      ],
      [
        "Ġthemsel",
        -9.11040689213089
      ],
      [
        "ĠHere",
        -9.112558889842784
      ],
      [
        "Ġaddress",
        -9.11289048029316
      ],
      [
        "Ġsometime",
        -9.112968189332332
      ],
      [
        "Ġseason",
        -9.112979208303074
      ],
      [
        "Ġdegree",
        -9.113114471527958
      ],
      [
        "Ġmovement",
        -9.113124791007682
      ],
      [
        "Ġrelease",
        -9.11348855543118
      ],
      [
        "Ġincreasing",
        -9.118434928604504
      ],
      [
        "Ġhold",
        -9.118520806298845
      ],
      [
        "Ġcycle",
        -9.119060312539684
      ],
      [
        "Ġeducation",
        -9.121394224420747
      ],
      [
        "Ġconcept",
        -9.121670433508678
      ],
      [
        "Ġrepresent",
        -9.122792629136391
      ],
      [
        "Ġjob",
        -9.123505215628905
      ],
      [
        "Ġearl",
        -9.123699126924574
      ],
      [
        "Ġdiscover",
        -9.1243008555234
      ],
      [
        "Ġland",
        -9.126088271205685
      ],
      [
        "Ġgenerate",
        -9.127023376733906
      ],
      [
        "cy",
        -9.127548988836342
      ],
      [
        ").Ċ",
        -9.127663439505746
      ],
      [
        "Ġhalf",
        -9.128015705973528
      ],
      [
        "ĠDNA",
        -9.128964047229154
      ],
      [
        "Ġactive",
        -9.130123044588212
      ],
      [
        "Ġsubject",
        -9.130345577702109
      ],
      [
        "Ġadditional",
        -9.130886593503394
      ],
      [
        "Ġweather",
        -9.135204190346746
      ],
      [
        "Ġcontact",
        -9.139075207084058
      ],
      [
        "Ġliquid",
        -9.141371389076312
      ],
      [
        "Ġelements",
        -9.143786835418824
      ],
      [
        "Ġact",
        -9.143965454905446
      ],
      [
        "[",
        -9.14414027108205
      ],
      [
        "Ġmodels",
        -9.14490103751532
      ],
      [
        "Ġreading",
        -9.144976160868184
      ],
      [
        "Ġtank",
        -9.145333126148104
      ],
      [
        "Ġwood",
        -9.146289446406769
      ],
      [
        "+",
        -9.14839646722824
      ],
      [
        "Ġstorage",
        -9.148591854607336
      ],
      [
        "Ġalmost",
        -9.14872292538626
      ],
      [
        "Ġsugar",
        -9.149244137978028
      ],
      [
        "Ġnegative",
        -9.149502736421574
      ],
      [
        "Ġstop",
        -9.150328367091204
      ],
      [
        "Why",
        -9.15091182757878
      ],
      [
        "Ġgovernment",
        -9.1514377535578
      ],
      [
        "Ġmultiple",
        -9.151969855569456
      ],
      [
        "Ġam",
        -9.15247382759309
      ],
      [
        "Ġvisit",
        -9.15260140261449
      ],
      [
        "Ġfinal",
        -9.15324006049508
      ],
      [
        "Ġoutside",
        -9.15401042460648
      ],
      [
        "Ġexist",
        -9.154425351419814
      ],
      [
        "Ġsetting",
        -9.15506064452284
      ],
      [
        "Ġbreed",
        -9.156151563525563
      ],
      [
        "Ġculture",
        -9.157253685542154
      ],
      [
        "Ġproper",
        -9.1578883163769
      ],
      [
        "ful",
        -9.158283384480178
      ],
      [
        "Ġreview",
        -9.1587237565402
      ],
      [
        "Ġexplain",
        -9.15912366848424
      ],
      [
        "Ġfinding",
        -9.159528095434164
      ],
      [
        "Ġachieve",
        -9.160469798922168
      ],
      [
        "Ġart",
        -9.160855667436817
      ],
      [
        "Ġcommunication",
        -9.161005821727557
      ],
      [
        "Ġfun",
        -9.161031219135282
      ],
      [
        "Ġpre",
        -9.162083988225366
      ],
      [
        "Ġrule",
        -9.163131238144414
      ],
      [
        "Ġdigital",
        -9.163207392915629
      ],
      [
        "Ġseparate",
        -9.163632666364643
      ],
      [
        "Ġwalk",
        -9.164386178886469
      ],
      [
        "Ġwon",
        -9.16535666017452
      ],
      [
        "Ġplayer",
        -9.16553000896439
      ],
      [
        "Ġbad",
        -9.168844161029606
      ],
      [
        "Ġgain",
        -9.169083032839485
      ],
      [
        "Ġquite",
        -9.170721040532818
      ],
      [
        "Ġsample",
        -9.171766924306452
      ],
      [
        "Ġenhance",
        -9.174311243169086
      ],
      [
        "Ġstarted",
        -9.175575370738596
      ],
      [
        "âĢ¦",
        -9.176549203118524
      ],
      [
        "Ġscientific",
        -9.178731797476717
      ],
      [
        "Ġpercent",
        -9.17975878895468
      ],
      [
        "ĠAt",
        -9.180748703969908
      ],
      [
        "Ġice",
        -9.182006600372898
      ],
      [
        "Ġhear",
        -9.18276601443051
      ],
      [
        "Ġcharacter",
        -9.182791430749296
      ],
      [
        "Ġtool",
        -9.184831859952409
      ],
      [
        "Ġdetail",
        -9.185400566021665
      ],
      [
        "ĠEarth",
        -9.18597813236504
      ],
      [
        "Ġbirds",
        -9.188061416175096
      ],
      [
        "Ġprovid",
        -9.188260639770649
      ],
      [
        "yourself",
        -9.189117585315127
      ],
      [
        "Ġsalt",
        -9.191657357485877
      ],
      [
        "Ġorganization",
        -9.191772132786172
      ],
      [
        "v",
        -9.193518768802432
      ],
      [
        "Ġprevious",
        -9.195580469743511
      ],
      [
        "Ġcity",
        -9.195995617987627
      ],
      [
        "Ġbehind",
        -9.196014873867984
      ],
      [
        "Ġsave",
        -9.196891727188037
      ],
      [
        "Ġblue",
        -9.197448536971685
      ],
      [
        "Ġwords",
        -9.199977504993983
      ],
      [
        "Ġblock",
        -9.200132341162142
      ],
      [
        "Ġdeliver",
        -9.202228970532692
      ],
      [
        "Ġinfluence",
        -9.20277529818327
      ],
      [
        "Ġinstruction",
        -9.20457245803264
      ],
      [
        "_",
        -9.20529438607502
      ],
      [
        "Ġhappen",
        -9.20585039792278
      ],
      [
        "ĠUnited",
        -9.208145255562002
      ],
      [
        "Ġmental",
        -9.20816089021543
      ],
      [
        "daily",
        -9.20879458919924
      ],
      [
        "Ġvegetable",
        -9.212443302427406
      ],
      [
        "ĠAll",
        -9.212451089542007
      ],
      [
        "Ġprice",
        -9.213569641602913
      ],
      [
        "Ġindicate",
        -9.21685686223923
      ],
      [
        "Ġbacteria",
        -9.216926662913972
      ],
      [
        "Ġmass",
        -9.217037441696032
      ],
      [
        "Ġisn",
        -9.220257511641922
      ],
      [
        "Ġeyes",
        -9.221026733939937
      ],
      [
        "Ġevent",
        -9.222490590476347
      ],
      [
        "One",
        -9.222509297155106
      ],
      [
        "Ġspring",
        -9.222685818741091
      ],
      [
        "Ġequipment",
        -9.222778279460726
      ],
      [
        "Ġcamera",
        -9.22425702265915
      ],
      [
        "Ġtrees",
        -9.22453932351004
      ],
      [
        "Ġportion",
        -9.224722629070255
      ],
      [
        "Ġsupply",
        -9.224828212113431
      ],
      [
        "Ġp",
        -9.22595902189605
      ],
      [
        "Ġadvance",
        -9.227072061093548
      ],
      [
        "Ġpet",
        -9.227278763278914
      ],
      [
        "Ġprotection",
        -9.228050022658396
      ],
      [
        "Ġmeet",
        -9.231761910888425
      ],
      [
        "Ġwild",
        -9.234674264248206
      ],
      [
        "Ġevidence",
        -9.234955048841533
      ],
      [
        "Ġenter",
        -9.235578097501168
      ],
      [
        "H",
        -9.236087058039535
      ],
      [
        "Ġstory",
        -9.23669597759553
      ],
      [
        "Ġexperiment",
        -9.237920895200467
      ],
      [
        "Ġteacher",
        -9.23936572986501
      ],
      [
        "Ġwebsite",
        -9.240264283451214
      ],
      [
        "Ġyet",
        -9.241150584842044
      ],
      [
        "light",
        -9.242576216753314
      ],
      [
        "Ġreall",
        -9.243504787470073
      ],
      [
        "Ġtend",
        -9.244079131932017
      ],
      [
        "ĠSouth",
        -9.24643850843932
      ],
      [
        "Ġglass",
        -9.24683610008586
      ],
      [
        "Ġre",
        -9.247438205739194
      ],
      [
        "Ġdistance",
        -9.248054895757177
      ],
      [
        "Ġinsect",
        -9.248105742216577
      ],
      [
        "en",
        -9.248346762663571
      ],
      [
        "ance",
        -9.249333292581284
      ],
      [
        "Ġcountr",
        -9.249744795770308
      ],
      [
        "N",
        -9.25017985444694
      ],
      [
        "Ġnight",
        -9.250378324750251
      ],
      [
        "Ġkids",
        -9.250737009773864
      ],
      [
        "Ġcharge",
        -9.25205150881774
      ],
      [
        "z",
        -9.254528763890995
      ],
      [
        "Ġaim",
        -9.256948907407434
      ],
      [
        "Ġadvantage",
        -9.257265806790766
      ],
      [
        "Ġbrand",
        -9.258302740672558
      ],
      [
        "Ġdark",
        -9.259532309408389
      ],
      [
        "Ġharm",
        -9.259958160473742
      ],
      [
        "Ġpass",
        -9.260396415880464
      ],
      [
        "Ġefficienc",
        -9.260497868115785
      ],
      [
        "Ġeverything",
        -9.261440872999966
      ],
      [
        "Ġdisorder",
        -9.262061111133816
      ],
      [
        "not",
        -9.263110133112995
      ],
      [
        "Ġcontribute",
        -9.264098358833884
      ],
      [
        "Ġeveryone",
        -9.264763070953762
      ],
      [
        "Ġdidn",
        -9.26597390334015
      ],
      [
        "Ġrest",
        -9.266119490863792
      ],
      [
        "Ġacid",
        -9.267304549865871
      ],
      [
        "Ġpaint",
        -9.267379740070968
      ],
      [
        "Ġmeat",
        -9.267425831739184
      ],
      [
        "Ġextra",
        -9.268434346973692
      ],
      [
        "Ġfeed",
        -9.268495997649454
      ],
      [
        "ĠWorld",
        -9.268637161771256
      ],
      [
        "Ġtrue",
        -9.26902262477822
      ],
      [
        "Ġreduc",
        -9.269035741073411
      ],
      [
        "Ġsection",
        -9.270692570017273
      ],
      [
        "Ġmedia",
        -9.27087663822226
      ],
      [
        "ĠL",
        -9.273316930383816
      ],
      [
        "Ġsoftware",
        -9.27497628355564
      ],
      [
        "Ġlack",
        -9.275452031389502
      ],
      [
        "ember",
        -9.276624323655335
      ],
      [
        "Ġdisplay",
        -9.278967649261055
      ],
      [
        "Ġsteps",
        -9.279594210642
      ],
      [
        "Ġresource",
        -9.279777909854896
      ],
      [
        "Ġcritical",
        -9.281528670501682
      ],
      [
        "Ġcool",
        -9.282558361894576
      ],
      [
        "Ġsearch",
        -9.283087454554412
      ],
      [
        "Ġfilm",
        -9.285965245699778
      ],
      [
        "Ġspread",
        -9.286260690345928
      ],
      [
        "Ġelectrical",
        -9.287486418866395
      ],
      [
        "Ġroot",
        -9.288352673168202
      ],
      [
        "Ġexact",
        -9.288963669920957
      ],
      [
        "Ġswitch",
        -9.289281095165975
      ],
      [
        "F",
        -9.28945097557519
      ],
      [
        "Ġjoint",
        -9.289602035973733
      ],
      [
        "Ġnote",
        -9.290227429311322
      ],
      [
        "ĠAfter",
        -9.291477075835758
      ],
      [
        "Ġago",
        -9.29245818741325
      ],
      [
        "Ġeasie",
        -9.29442078695308
      ],
      [
        "O",
        -9.295757096551457
      ],
      [
        "man",
        -9.297248946095335
      ],
      [
        "Ġaspect",
        -9.29758544678786
      ],
      [
        "Ġprocesses",
        -9.297668543631234
      ],
      [
        "Ġmath",
        -9.298386175314532
      ],
      [
        "Ġconstant",
        -9.298387401569803
      ],
      [
        "Ġstrength",
        -9.299413369220009
      ],
      [
        "Ġdemand",
        -9.303415252890929
      ],
      [
        "lthough",
        -9.304706648625563
      ],
      [
        "Ġearth",
        -9.306267225272151
      ],
      [
        "ĠDr",
        -9.307297176879684
      ],
      [
        "Ġprovided",
        -9.307578625495164
      ],
      [
        "Ġstyle",
        -9.30770499273386
      ],
      [
        "Ġcustomer",
        -9.31149656487128
      ],
      [
        "Ġcollect",
        -9.311715688414903
      ],
      [
        "Ġdrive",
        -9.315464218685973
      ],
      [
        "Ġfilter",
        -9.316921800241474
      ],
      [
        "But",
        -9.317404404384764
      ],
      [
        "Ġfat",
        -9.317659959402215
      ],
      [
        "Ġtopic",
        -9.319904356892703
      ],
      [
        "Ġmale",
        -9.320268089933904
      ],
      [
        "Ġproduced",
        -9.322331190483547
      ],
      [
        "Ġwatch",
        -9.322699326971396
      ],
      [
        "ĠSchool",
        -9.32554221863552
      ],
      [
        "Ġcauses",
        -9.325747955422482
      ],
      [
        "ĠCan",
        -9.326724330153764
      ],
      [
        "Ġremember",
        -9.3269109524012
      ],
      [
        "animals",
        -9.32704945821321
      ],
      [
        "ĠUS",
        -9.329736885339194
      ],
      [
        ".S",
        -9.330215358040984
      ],
      [
        "Ġfeature",
        -9.333092946395904
      ],
      [
        "Ġtrying",
        -9.333807868098294
      ],
      [
        "Ġbuilt",
        -9.334950042459496
      ],
      [
        "Ġelse",
        -9.33615514165701
      ],
      [
        "Ġapply",
        -9.337187667877918
      ],
      [
        "Ġworks",
        -9.337704055307947
      ],
      [
        "Ġwriting",
        -9.337742738373406
      ],
      [
        "Ġpoints",
        -9.33803228061048
      ],
      [
        "Ġfund",
        -9.34016259353265
      ],
      [
        "Ġpublished",
        -9.341745278663794
      ],
      [
        "ĠF",
        -9.341975745338685
      ],
      [
        "Ġcount",
        -9.342700873875298
      ],
      [
        "Ġrelative",
        -9.34319116502463
      ],
      [
        "Ġeating",
        -9.343424652379095
      ],
      [
        "Ġgene",
        -9.343553964948311
      ],
      [
        "Ġwrite",
        -9.345184690696636
      ],
      [
        "Ġspend",
        -9.345750667756906
      ],
      [
        "of",
        -9.347939058782206
      ],
      [
        "Ġobtain",
        -9.348168578900973
      ],
      [
        "Ġoutput",
        -9.349223119923128
      ],
      [
        "Ġhope",
        -9.350681732779051
      ],
      [
        "Ġfoods",
        -9.354404670113198
      ],
      [
        "Ġb",
        -9.35498080918454
      ],
      [
        "Ġpoor",
        -9.356164703283454
      ],
      [
        "Ġrequirement",
        -9.356913307216978
      ],
      [
        "ĠMay",
        -9.357772847765196
      ],
      [
        "Ġinitial",
        -9.360649160985233
      ],
      [
        "ĠShe",
        -9.364018077814066
      ],
      [
        "more",
        -9.364497878788963
      ],
      [
        "Ġreplace",
        -9.364757983793124
      ],
      [
        "Ġmemory",
        -9.366280583645777
      ],
      [
        "Ġserve",
        -9.367251600674212
      ],
      [
        "ism",
        -9.367725211413209
      ],
      [
        "Ġcontainer",
        -9.369497190980407
      ],
      [
        "ĠUse",
        -9.369948522547585
      ],
      [
        "Ġfire",
        -9.37095609831307
      ],
      [
        "Ġseries",
        -9.371320602205508
      ],
      [
        "Ġattack",
        -9.373094022141505
      ],
      [
        "ĠResearch",
        -9.37398890119998
      ],
      [
        "Ġdoctor",
        -9.380143764568878
      ],
      [
        "Ġsix",
        -9.38019215400722
      ],
      [
        "Ġfeeling",
        -9.38097408902276
      ],
      [
        "ĠMore",
        -9.381041564187786
      ],
      [
        "Ġdraw",
        -9.381484239548318
      ],
      [
        "one",
        -9.38218899760996
      ],
      [
        "Ġmaintenance",
        -9.383373274015906
      ],
      [
        "Ġtaste",
        -9.383386626410696
      ],
      [
        "Ġclaim",
        -9.384765783030227
      ],
      [
        "Ġbreak",
        -9.385189598046177
      ],
      [
        "Ġnutrient",
        -9.386217744025938
      ],
      [
        "Ġwind",
        -9.389245201948135
      ],
      [
        "Ġparticle",
        -9.389566999190894
      ],
      [
        "Ġsoon",
        -9.390564905315
      ],
      [
        "Ġideal",
        -9.390930958516863
      ],
      [
        "ĠMost",
        -9.391010600183826
      ],
      [
        "Ġmanage",
        -9.39118761271732
      ],
      [
        "R",
        -9.391516307010622
      ],
      [
        "Ġword",
        -9.39247504478755
      ],
      [
        "Ġappropriate",
        -9.39269256095303
      ],
      [
        "formed",
        -9.393350285304344
      ],
      [
        "ĠK",
        -9.393906216418603
      ],
      [
        "Ġimportanc",
        -9.396505401746158
      ],
      [
        "Ġextend",
        -9.396602773522474
      ],
      [
        "Ġimmediate",
        -9.398814181104374
      ],
      [
        "Ġchance",
        -9.3988971091778
      ],
      [
        "Ġgenes",
        -9.398951676952304
      ],
      [
        "Ġfigure",
        -9.398988718812674
      ],
      [
        "Ġserious",
        -9.399726372481904
      ],
      [
        "Ġenable",
        -9.400731411019112
      ],
      [
        "Ġsuccess",
        -9.401757550737292
      ],
      [
        "Ġinput",
        -9.40202065996463
      ],
      [
        "Ġfrequent",
        -9.402975504151303
      ],
      [
        "Ġmoving",
        -9.403043892027164
      ],
      [
        "Ġlives",
        -9.403193551560584
      ],
      [
        "Ġcombination",
        -9.403218128641967
      ],
      [
        "mm",
        -9.406728769582864
      ],
      [
        "Ġcapacit",
        -9.407346357632573
      ],
      [
        "Ġnotice",
        -9.407828473184493
      ],
      [
        "Ġdiseases",
        -9.408250742092957
      ],
      [
        "Ġmonitor",
        -9.40998231764515
      ],
      [
        "Ġlocate",
        -9.410349295341897
      ],
      [
        "Ġyellow",
        -9.410434867761191
      ],
      [
        "Ġcharacteristic",
        -9.411166284610722
      ],
      [
        "Ġrunn",
        -9.411196747926056
      ],
      [
        "Ġsequence",
        -9.411617592830968
      ],
      [
        "Ġspot",
        -9.412503167011057
      ],
      [
        "Ġapplie",
        -9.414036113641254
      ],
      [
        "Ġuseful",
        -9.414762298446265
      ],
      [
        "Ġfine",
        -9.414878515251129
      ],
      [
        "ers",
        -9.415589710355434
      ],
      [
        "Ġdeath",
        -9.415658386723097
      ],
      [
        "Ġpatient",
        -9.416627726115344
      ],
      [
        "Ġdeal",
        -9.417472239902908
      ],
      [
        "Ġimmun",
        -9.417977628580632
      ],
      [
        "Ġever",
        -9.418972227518092
      ],
      [
        "Ġdecrease",
        -9.420032089388698
      ],
      [
        "Ġbottom",
        -9.420862872385069
      ],
      [
        "Ġshows",
        -9.421029773936572
      ],
      [
        "Ġingredient",
        -9.421984610761186
      ],
      [
        "Ġequal",
        -9.42200729294323
      ],
      [
        "Ġscale",
        -9.422784028845728
      ],
      [
        "By",
        -9.423206801053706
      ],
      [
        "Ġman",
        -9.42321561480516
      ],
      [
        "Ġdesire",
        -9.424912750155167
      ],
      [
        "Ġmembers",
        -9.425102704776474
      ],
      [
        "Ġconnection",
        -9.425815246063063
      ],
      [
        "Ġusers",
        -9.427769105270444
      ],
      [
        "bility",
        -9.429386096108567
      ],
      [
        "G",
        -9.43081144851595
      ],
      [
        "Ġevents",
        -9.431189888940956
      ],
      [
        "Ġgoe",
        -9.432798553584917
      ],
      [
        "Ġcircuit",
        -9.433103971097776
      ],
      [
        "Ġtips",
        -9.433315581549415
      ],
      [
        "Ġrapid",
        -9.434030388404713
      ],
      [
        "Ġstem",
        -9.434776554460964
      ],
      [
        "While",
        -9.434809694444365
      ],
      [
        "Ġwear",
        -9.4353119546324
      ],
      [
        "Ġoccur",
        -9.436536905555313
      ],
      [
        "Ġslight",
        -9.43675935617279
      ],
      [
        "Ġtherapy",
        -9.438794364934846
      ],
      [
        "Ġmolecule",
        -9.439012088318762
      ],
      [
        "Ġvolume",
        -9.439146449609549
      ],
      [
        "Ġcouple",
        -9.439595361909358
      ],
      [
        "Ġresponsibl",
        -9.439673357210149
      ],
      [
        "âĢ¢",
        -9.44029802148213
      ],
      [
        "Ġvitamin",
        -9.442353583569863
      ],
      [
        "ĠHealth",
        -9.442528097714009
      ],
      [
        "Ġsituation",
        -9.443886982105091
      ],
      [
        "Ġfill",
        -9.444233480246185
      ],
      [
        "Ġsuitabl",
        -9.447092742569952
      ],
      [
        "Ġmineral",
        -9.448215423301937
      ],
      [
        "Ġgear",
        -9.44852367603507
      ],
      [
        "ĠYes",
        -9.448809192562184
      ],
      [
        "Using",
        -9.44938695850608
      ],
      [
        "Ġobserve",
        -9.451287617236492
      ],
      [
        "Ġimages",
        -9.452353271322256
      ],
      [
        "Ġrock",
        -9.452372960693552
      ],
      [
        "ĠAmerica",
        -9.452725847684654
      ],
      [
        "Ġpretty",
        -9.45314124246805
      ],
      [
        "Ġemission",
        -9.45419653245694
      ],
      [
        "Ġnumbers",
        -9.455077411928077
      ],
      [
        "Ġplatform",
        -9.455786013147868
      ],
      [
        "Ġconnect",
        -9.456749662026924
      ],
      [
        "Ġpurchase",
        -9.459081569448305
      ],
      [
        "ĠFrom",
        -9.463248198119295
      ],
      [
        "Ġteeth",
        -9.46340442786568
      ],
      [
        "Ġfarm",
        -9.46351968615403
      ],
      [
        "Ġmeasurement",
        -9.46423948812391
      ],
      [
        "Ġintroduce",
        -9.465213371071224
      ],
      [
        "Ġdecision",
        -9.466977729406729
      ],
      [
        "Ġrecognize",
        -9.46847253977008
      ],
      [
        "companie",
        -9.468581004931249
      ],
      [
        "Ġmusic",
        -9.46898347278152
      ],
      [
        "Ġdefine",
        -9.469828863446503
      ],
      [
        "Ġpair",
        -9.470447174112486
      ],
      [
        "-to",
        -9.471654929731642
      ],
      [
        "Ġorganic",
        -9.473049647238817
      ],
      [
        "Can",
        -9.473265756270742
      ],
      [
        "ĠO",
        -9.473793269312532
      ],
      [
        "like",
        -9.473829141456156
      ],
      [
        "Ġcareful",
        -9.474258363936617
      ],
      [
        "Ġnothing",
        -9.476088107671128
      ],
      [
        "Ġcarry",
        -9.476959489069356
      ],
      [
        "Ġdocument",
        -9.47698294693388
      ],
      [
        "Ġpump",
        -9.477290272458877
      ],
      [
        "Ġelectronic",
        -9.47767857963353
      ],
      [
        "Ġscreen",
        -9.478516011493648
      ],
      [
        "Ġinstall",
        -9.479786682001375
      ],
      [
        "Ġ--",
        -9.480456377492535
      ],
      [
        "Ġcleaning",
        -9.480940041906
      ],
      [
        "Ġprograms",
        -9.480966979601476
      ],
      [
        "came",
        -9.48129602414662
      ],
      [
        "land",
        -9.48303552235473
      ],
      [
        "Ġsoft",
        -9.483912995886882
      ],
      [
        "Ġedge",
        -9.484390177196005
      ],
      [
        "Ġworth",
        -9.485457000176742
      ],
      [
        "Ġbeautiful",
        -9.489588650355737
      ],
      [
        "Ġversion",
        -9.490203496284511
      ],
      [
        "Ġdetect",
        -9.493135484793
      ],
      [
        "ĠJ",
        -9.493467773126692
      ],
      [
        "Ġdate",
        -9.493472199879246
      ],
      [
        "Ġexcellen",
        -9.493863978852833
      ],
      [
        "ar",
        -9.494304015758397
      ],
      [
        "Ġbone",
        -9.495126476983309
      ],
      [
        "properly",
        -9.49548597898858
      ],
      [
        "Ġfemale",
        -9.496097139102744
      ],
      [
        "V",
        -9.497231860391045
      ],
      [
        "Ġtouch",
        -9.49984916692246
      ],
      [
        "Ġgeneration",
        -9.499896575852604
      ],
      [
        "Ġencourage",
        -9.50009641657432
      ],
      [
        "Ġconstruction",
        -9.500174459607338
      ],
      [
        "Ġsustainabl",
        -9.50139683019622
      ],
      [
        "Ġvary",
        -9.502641679089296
      ],
      [
        "Ġprocedure",
        -9.503252913029195
      ],
      [
        "Ġrich",
        -9.50393077372718
      ],
      [
        "Ġfabric",
        -9.505614108398504
      ],
      [
        "Ġvisual",
        -9.506132750502678
      ],
      [
        "ĠAls",
        -9.50651040377842
      ],
      [
        "Ġshift",
        -9.506566438430614
      ],
      [
        "=",
        -9.507683901581611
      ],
      [
        "taken",
        -9.507847469871535
      ],
      [
        "Ġwave",
        -9.507938776995124
      ],
      [
        "Ġaccurate",
        -9.51021362940994
      ],
      [
        "ĠW",
        -9.510460833183792
      ],
      [
        "ĠWhy",
        -9.511007375522588
      ],
      [
        "Ġanti",
        -9.511077537007337
      ],
      [
        "Ġphotograph",
        -9.511420924387451
      ],
      [
        "Ġbrown",
        -9.511466401920073
      ],
      [
        "Ġbird",
        -9.514895486903317
      ],
      [
        "Ġfrequenc",
        -9.514899610253927
      ],
      [
        "An",
        -9.5149338663732
      ],
      [
        "Ġcombine",
        -9.515873484269504
      ],
      [
        "Ġfeeding",
        -9.518249362600995
      ],
      [
        "Ġtrack",
        -9.518375623211272
      ],
      [
        "ĠOur",
        -9.519050155196886
      ],
      [
        "Ġrefer",
        -9.520895765002203
      ],
      [
        "Ġobject",
        -9.521841616997254
      ],
      [
        "ĠWho",
        -9.522869295440684
      ],
      [
        "On",
        -9.52297547996392
      ],
      [
        "Ġhandle",
        -9.524822743812404
      ],
      [
        "Ġobjects",
        -9.526474989515636
      ],
      [
        "ything",
        -9.529167617692362
      ],
      [
        "Ġbathroom",
        -9.529629987200636
      ],
      [
        "Ġaid",
        -9.529681112261414
      ],
      [
        "Ġconnected",
        -9.52977370144055
      ],
      [
        "Ġextract",
        -9.53086021025426
      ],
      [
        "Ġalternative",
        -9.530916616479022
      ],
      [
        "Ġvalues",
        -9.53110628780089
      ],
      [
        "Ġhair",
        -9.531190700625867
      ],
      [
        "ium",
        -9.532392522043352
      ],
      [
        "Ġstone",
        -9.53535111768
      ],
      [
        "#",
        -9.535602653393422
      ],
      [
        "ĠNorth",
        -9.535771979284812
      ],
      [
        "Ġheavy",
        -9.536604025053563
      ],
      [
        "Ġensur",
        -9.53672758362831
      ],
      [
        "Ġplann",
        -9.537309501971148
      ],
      [
        "Ġprinciple",
        -9.537332465088316
      ],
      [
        "Ġtable",
        -9.537653915033534
      ],
      [
        "Ġstring",
        -9.537836688716494
      ],
      [
        "Ġeconomic",
        -9.539562807576656
      ],
      [
        "went",
        -9.540197748090122
      ],
      [
        "Ġrare",
        -9.541704326601344
      ],
      [
        "Ġboard",
        -9.541779858232742
      ],
      [
        "ĠAdditional",
        -9.541849758742703
      ],
      [
        "Ġresistance",
        -9.542458058288386
      ],
      [
        "line",
        -9.542469881858205
      ],
      [
        "...ĊĊ",
        -9.54266862293042
      ],
      [
        "Ġleg",
        -9.54360065157892
      ],
      [
        "ĠSaudi",
        -9.543708248281863
      ],
      [
        "Ġpromote",
        -9.54450972315688
      ],
      [
        "Ġbike",
        -9.54509496462106
      ],
      [
        "Ġmoment",
        -9.545961503028714
      ],
      [
        "Ġteaching",
        -9.547994648885032
      ],
      [
        "Ġbaby",
        -9.548232489303125
      ],
      [
        "Ġkill",
        -9.549414600480391
      ],
      [
        "These",
        -9.549912010229912
      ],
      [
        "Ġsort",
        -9.55082116401498
      ],
      [
        "Ġsevere",
        -9.551165230276172
      ],
      [
        "Ġsolid",
        -9.551230509692324
      ],
      [
        "ĠOf",
        -9.551683948431457
      ],
      [
        "Ġ+",
        -9.552491473749225
      ],
      [
        "Ġbox",
        -9.553401376807436
      ],
      [
        "Ġfile",
        -9.555023225731489
      ],
      [
        "-term",
        -9.555204269076713
      ],
      [
        "Ġco",
        -9.55668815689582
      ],
      [
        "Ġpull",
        -9.55707704985715
      ],
      [
        "Ġforward",
        -9.557080042214489
      ],
      [
        "Ġadding",
        -9.557860122166284
      ],
      [
        "Now",
        -9.558033337071873
      ],
      [
        "Ġchang",
        -9.558207787094476
      ],
      [
        "\\",
        -9.558233625097444
      ],
      [
        "W",
        -9.558980885291378
      ],
      [
        "ritten",
        -9.560143665292784
      ],
      [
        "Ġcolour",
        -9.560278461827878
      ],
      [
        "Ġexpens",
        -9.5605904483003
      ],
      [
        "Ġwire",
        -9.560623298201566
      ],
      [
        "if",
        -9.561907331412444
      ],
      [
        "Ġadapt",
        -9.56224393408706
      ],
      [
        "Ġinteraction",
        -9.562857465229454
      ],
      [
        "Ġvision",
        -9.564564662764152
      ],
      [
        "Ġadjust",
        -9.565509559975888
      ],
      [
        "Ġhappens",
        -9.56563167787044
      ],
      [
        "Ġpowerful",
        -9.565796623292556
      ],
      [
        "Ġnoise",
        -9.567907016995177
      ],
      [
        "Ġwait",
        -9.568268499679755
      ],
      [
        "Ġthousand",
        -9.569109945120871
      ],
      [
        "Ġcausing",
        -9.56939164829276
      ],
      [
        "Ġconsist",
        -9.571922115191455
      ],
      [
        "Q",
        -9.573060370222208
      ],
      [
        "nother",
        -9.574982758154112
      ],
      [
        "Ġestimate",
        -9.575720781820774
      ],
      [
        "ization",
        -9.575934746210525
      ],
      [
        "Ġtesting",
        -9.575943910752024
      ],
      [
        "Ġfiber",
        -9.57626622553266
      ],
      [
        "Ġroad",
        -9.5768002583086
      ],
      [
        "Ġopening",
        -9.5776955822461
      ],
      [
        "X",
        -9.577865622521216
      ],
      [
        "Ġburn",
        -9.57849726008175
      ],
      [
        "Ġreference",
        -9.578785842358355
      ],
      [
        "Ġsub",
        -9.578922297021832
      ],
      [
        "Ġpicture",
        -9.579144098959446
      ],
      [
        "took",
        -9.57948686308926
      ],
      [
        "Ġvaluable",
        -9.579569396366852
      ],
      [
        "Ġcame",
        -9.581562401202898
      ],
      [
        "Ġsmooth",
        -9.581750806190156
      ],
      [
        "Ġinsight",
        -9.581986634848692
      ],
      [
        "Ġwrong",
        -9.582559360352157
      ],
      [
        "resources",
        -9.582827759550408
      ],
      [
        "Ġcooking",
        -9.583092427475725
      ],
      [
        "older",
        -9.585421535480933
      ],
      [
        "Ġmechanism",
        -9.586194432931828
      ],
      [
        "Ġrecover",
        -9.587738268554263
      ],
      [
        "giving",
        -9.590041554291478
      ],
      [
        "Ġrepair",
        -9.59148663661514
      ],
      [
        "ĠCenter",
        -9.592051657372156
      ],
      [
        "Ġmen",
        -9.592267010201404
      ],
      [
        "Ġinstance",
        -9.593943502295163
      ],
      [
        "Ġinternational",
        -9.594521987859466
      ],
      [
        "Ġpractices",
        -9.594633488185462
      ],
      [
        "Ġinfection",
        -9.59591582068844
      ],
      [
        "Ġstar",
        -9.595974610095722
      ],
      [
        "Ġcutting",
        -9.596017016821238
      ],
      [
        ">",
        -9.596975595164938
      ],
      [
        ".com",
        -9.597862996409058
      ],
      [
        "Ġadult",
        -9.599689072615602
      ],
      [
        "Ġde",
        -9.60017803857341
      ],
      [
        "Ġmuscle",
        -9.600836979165251
      ],
      [
        "With",
        -9.603429512921442
      ],
      [
        "Ġthird",
        -9.60419318398498
      ],
      [
        "Ġquickl",
        -9.60521552335653
      ],
      [
        "L",
        -9.606114055757974
      ],
      [
        "Ġconduct",
        -9.60622705355798
      ],
      [
        "K",
        -9.607525213728344
      ],
      [
        "Ġpick",
        -9.608358968539816
      ],
      [
        "Ġstick",
        -9.609225779254192
      ],
      [
        "Ġoccurs",
        -9.612119250098942
      ],
      [
        "Ġmiddle",
        -9.612913080011774
      ],
      [
        "Ġcommand",
        -9.613552024775116
      ],
      [
        "Ġflavor",
        -9.61371306491116
      ],
      [
        "Ġcollection",
        -9.61401897437086
      ],
      [
        "Ġsensor",
        -9.61605964918656
      ],
      [
        "ĠEach",
        -9.61612747540124
      ],
      [
        "ĠâĢ¦",
        -9.617601068307737
      ],
      [
        "lost",
        -9.618141983407964
      ],
      [
        "Ġcook",
        -9.618424068407766
      ],
      [
        "Ġpath",
        -9.619961533118792
      ],
      [
        "Ġexpect",
        -9.620926643701551
      ],
      [
        "Ġrise",
        -9.621573924893331
      ],
      [
        "Ġsnow",
        -9.62198280489481
      ],
      [
        "Ġthus",
        -9.622056147559135
      ],
      [
        "Ġlesson",
        -9.622570603086071
      ],
      [
        "Ġwonder",
        -9.623106814027263
      ],
      [
        "Ġmatch",
        -9.623618940737472
      ],
      [
        "Ġbackground",
        -9.624243048773437
      ],
      [
        "Ġeducational",
        -9.624822394701564
      ],
      [
        "Ġnational",
        -9.625719200304664
      ],
      [
        "Ġhost",
        -9.625736277039596
      ],
      [
        "Ġphase",
        -9.626087913600132
      ],
      [
        "Ġexpand",
        -9.62686472299551
      ],
      [
        "Ġvirus",
        -9.626879290482208
      ],
      [
        "-up",
        -9.627882697426378
      ],
      [
        "Ġoxygen",
        -9.62802227007105
      ],
      [
        "Ġaffected",
        -9.628414034476236
      ],
      [
        "ĠâĢľ",
        -9.62963997487073
      ],
      [
        "Ġflight",
        -9.63035441037576
      ],
      [
        "Ġcross",
        -9.630889846533815
      ],
      [
        "Ġorganism",
        -9.631135308199458
      ],
      [
        "Ġmulti",
        -9.631621536172664
      ],
      [
        "Ġcentury",
        -9.632553330873044
      ],
      [
        "Ġbasi",
        -9.633089816902917
      ],
      [
        "Ġpush",
        -9.633907327327746
      ],
      [
        "Ġsecurity",
        -9.63410323251722
      ],
      [
        "Ġframe",
        -9.63417037172178
      ],
      [
        "water",
        -9.636467333978793
      ],
      [
        "Ġdepth",
        -9.6365356179806
      ],
      [
        "Ġconsistent",
        -9.636836153783454
      ],
      [
        "Ġvia",
        -9.637049554949408
      ],
      [
        "Ġdental",
        -9.63798774380232
      ],
      [
        "ĠNow",
        -9.638387108886
      ],
      [
        "Ġcompound",
        -9.63840679066008
      ],
      [
        "Ġled",
        -9.639172601044354
      ],
      [
        "ĠNot",
        -9.641071705370091
      ],
      [
        "Ġthermal",
        -9.642529292311549
      ],
      [
        "ĠFirst",
        -9.64368463066414
      ],
      [
        "Ġspeak",
        -9.64386182224002
      ],
      [
        "Ġcoast",
        -9.644834516167965
      ],
      [
        "Ġreflect",
        -9.645786486670648
      ],
      [
        "diabetes",
        -9.645902287448491
      ],
      [
        "Ġmessage",
        -9.64700968901418
      ],
      [
        "Ġcup",
        -9.647255152643492
      ],
      [
        "ĠInstitute",
        -9.647286483190836
      ],
      [
        "Ġletter",
        -9.648114109530574
      ],
      [
        "Step",
        -9.648346428258897
      ],
      [
        "Ġreaction",
        -9.648761575485716
      ],
      [
        "Ġconsumption",
        -9.649706880551204
      ],
      [
        "Ġload",
        -9.64985386437604
      ],
      [
        "Ġmedicine",
        -9.65027158736817
      ],
      [
        "Ġgreenhouse",
        -9.65109523752716
      ],
      [
        "Ġflea",
        -9.65172779264023
      ],
      [
        "Ġtexture",
        -9.652430274854275
      ],
      [
        "Ġreported",
        -9.652969687368431
      ],
      [
        "Ġgold",
        -9.653025767935262
      ],
      [
        "Ġocean",
        -9.6532891705939
      ],
      [
        "Ġphone",
        -9.653472868246098
      ],
      [
        "Some",
        -9.655502071243223
      ],
      [
        "And",
        -9.655752025938517
      ],
      [
        "Ġvital",
        -9.657007922219796
      ],
      [
        "Ġround",
        -9.658944486083993
      ],
      [
        "Ġfriends",
        -9.661321721218645
      ],
      [
        "inches",
        -9.661900482131626
      ],
      [
        "ĠX",
        -9.662277300961804
      ],
      [
        "Ġnest",
        -9.66275360454537
      ],
      [
        "Ġdrawing",
        -9.6628264829255
      ],
      [
        "Ġstand",
        -9.662924140933786
      ],
      [
        "ĠMy",
        -9.663040145337316
      ],
      [
        "Ġcoat",
        -9.66328953009836
      ],
      [
        "Ġprint",
        -9.663648288650387
      ],
      [
        "Ġegg",
        -9.664779071847532
      ],
      [
        "ĠAccording",
        -9.666521994182505
      ],
      [
        "Ġjournal",
        -9.667019763264308
      ],
      [
        "Ġforest",
        -9.66715015372352
      ],
      [
        "Ġflat",
        -9.668693914077668
      ],
      [
        "Ġelement",
        -9.668699363025963
      ],
      [
        "Do",
        -9.668745778465606
      ],
      [
        "thing",
        -9.669651240023178
      ],
      [
        "Ġappearance",
        -9.67341637850193
      ],
      [
        "all",
        -9.674937369414229
      ],
      [
        "ĠOr",
        -9.676937383901503
      ],
      [
        "Ġpresen",
        -9.67745669038496
      ],
      [
        "Ġplate",
        -9.6782913464046
      ],
      [
        "Ġsend",
        -9.67873456442965
      ],
      [
        "Ġfluid",
        -9.679453355081783
      ],
      [
        "ĠThei",
        -9.679577501314938
      ],
      [
        "Ġmouth",
        -9.679826893569928
      ],
      [
        "Ġproperty",
        -9.680375328347449
      ],
      [
        "Ġdrain",
        -9.680481851167253
      ],
      [
        "Ġdouble",
        -9.682348285903185
      ],
      [
        "Ġalgorithm",
        -9.682595339958551
      ],
      [
        "aught",
        -9.68365501405032
      ],
      [
        "life",
        -9.6840779630535
      ],
      [
        "Ġready",
        -9.68421117318411
      ],
      [
        "Ġerror",
        -9.685554131196604
      ],
      [
        "Ġvoltage",
        -9.689957456355362
      ],
      [
        "expected",
        -9.690022487035035
      ],
      [
        "Ġcoming",
        -9.690050269765592
      ],
      [
        "Ġiron",
        -9.69013701101008
      ],
      [
        "Ġmember",
        -9.690484653507175
      ],
      [
        "Ġexpression",
        -9.690484826126566
      ],
      [
        "Ġbright",
        -9.692975668964213
      ],
      [
        "Ġmother",
        -9.69633405793864
      ],
      [
        "held",
        -9.696658933985926
      ],
      [
        "Ġcore",
        -9.6970211548564
      ],
      [
        "Ġbag",
        -9.697079063673089
      ],
      [
        "Whether",
        -9.6978484516934
      ],
      [
        "Ġsell",
        -9.69838457342236
      ],
      [
        "Ġfavorite",
        -9.698976867127872
      ],
      [
        "Ġmeaning",
        -9.701818545080652
      ],
      [
        "Ġfinish",
        -9.702665140348849
      ],
      [
        "head",
        -9.70275223595478
      ],
      [
        "Ġdur",
        -9.703181003187863
      ],
      [
        "Ġhands",
        -9.704316103945022
      ],
      [
        "%)",
        -9.70486049545678
      ],
      [
        "Ġinteresting",
        -9.705114427378655
      ],
      [
        "ĠOther",
        -9.705828923395387
      ],
      [
        "Ġhole",
        -9.706688830460582
      ],
      [
        "Ġlink",
        -9.710352470902558
      ],
      [
        "Ġtechnologies",
        -9.71037387393331
      ],
      [
        "body",
        -9.711409341193654
      ],
      [
        "Ġcomfortabl",
        -9.711729087524862
      ],
      [
        "Ġhearing",
        -9.711946516508918
      ],
      [
        "Ġdi",
        -9.71208390781035
      ],
      [
        "Ġdie",
        -9.712442611331936
      ],
      [
        "Ġjourney",
        -9.713140242549372
      ],
      [
        "ĠAre",
        -9.714468893989032
      ],
      [
        "Ġpreference",
        -9.715195828645244
      ],
      [
        "Ġbeginning",
        -9.715439284799697
      ],
      [
        "Ġlose",
        -9.715849001240088
      ],
      [
        "Ġadults",
        -9.716486270635375
      ],
      [
        "Ġdiscuss",
        -9.71713659883194
      ],
      [
        "fish",
        -9.717433686014832
      ],
      [
        "Ġsaw",
        -9.719639235325149
      ],
      [
        "ĠEnglish",
        -9.719931566869498
      ],
      [
        "Ġreveal",
        -9.72019038487657
      ],
      [
        "Ġinvestment",
        -9.721801195915903
      ],
      [
        "Ġfoot",
        -9.72207404481685
      ],
      [
        "Ġhapp",
        -9.725487110043758
      ],
      [
        "Ġtransition",
        -9.726678416520096
      ],
      [
        "ĠWater",
        -9.726696973925169
      ],
      [
        "ĠWar",
        -9.72742676116652
      ],
      [
        "Ġcontext",
        -9.727942267540648
      ],
      [
        "Ġjoin",
        -9.72835146896936
      ],
      [
        "Ġdriv",
        -9.729192352660975
      ],
      [
        "Ġgreate",
        -9.729436087197886
      ],
      [
        "Ġphoto",
        -9.729705691525735
      ],
      [
        "Ġoutcome",
        -9.729758298346924
      ],
      [
        "efore",
        -9.730756254469616
      ],
      [
        "ĠIndia",
        -9.73144188607511
      ],
      [
        "Ġconvert",
        -9.731963849570707
      ],
      [
        "Ġsurrounding",
        -9.734783563825635
      ],
      [
        "Ġdemonstrate",
        -9.735128270885768
      ],
      [
        "Ġweb",
        -9.735306484960912
      ],
      [
        "Ġhuge",
        -9.735364892621623
      ],
      [
        "Ġdistribution",
        -9.735656027057871
      ],
      [
        "ial",
        -9.735705571890492
      ],
      [
        "Here",
        -9.735877151966193
      ],
      [
        "ĠAfrica",
        -9.736384249419393
      ],
      [
        "Ġseat",
        -9.737281770587307
      ],
      [
        "Ġfight",
        -9.73802949547563
      ],
      [
        "Ġchicken",
        -9.73853179816971
      ],
      [
        "Ġupper",
        -9.73920978802902
      ],
      [
        "Ġrain",
        -9.739276533432854
      ],
      [
        "-like",
        -9.740283043171315
      ],
      [
        "anyone",
        -9.740459759472364
      ],
      [
        "Ġtrigger",
        -9.741403085683109
      ],
      [
        "over",
        -9.741980972747456
      ],
      [
        "Ġpractical",
        -9.74366008849368
      ],
      [
        "Ġclient",
        -9.743705826232553
      ],
      [
        "for",
        -9.743776318806749
      ],
      [
        "Ġgrass",
        -9.744531390026696
      ],
      [
        "Our",
        -9.744835866581871
      ],
      [
        "Ġchain",
        -9.745387749571844
      ],
      [
        "Ġcompost",
        -9.746046398358551
      ],
      [
        "Ġestablish",
        -9.746152831166444
      ],
      [
        "Ġconcentration",
        -9.746402594406833
      ],
      [
        "Ġcomment",
        -9.748306271171488
      ],
      [
        "Ġmid",
        -9.748411963827383
      ],
      [
        "Ġratio",
        -9.749041444381328
      ],
      [
        "Ġmarine",
        -9.7493638473616
      ],
      [
        "Ġbegan",
        -9.749604047357955
      ],
      [
        "Ġangle",
        -9.750626712102326
      ],
      [
        "Ġbirth",
        -9.751893956787317
      ],
      [
        "Ġpassage",
        -9.7520517765962
      ],
      [
        "Ġextremely",
        -9.752120588251511
      ],
      [
        "ities",
        -9.752292403183608
      ],
      [
        "ship",
        -9.752629873756655
      ],
      [
        "Ġmanufactur",
        -9.753691048936265
      ],
      [
        "Ġartist",
        -9.754791620520482
      ],
      [
        "Ġdiamond",
        -9.755494695098475
      ],
      [
        "About",
        -9.755534299203008
      ],
      [
        "Ġheight",
        -9.75598171865074
      ],
      [
        "ĠMake",
        -9.756607902435324
      ],
      [
        "Ġreferr",
        -9.757071740082424
      ],
      [
        "Ġengage",
        -9.758008975101424
      ],
      [
        "Ġprivate",
        -9.758845308722131
      ],
      [
        "Ġmotor",
        -9.75941201131544
      ],
      [
        "ĠNOT",
        -9.759655433770645
      ],
      [
        "ĠGerman",
        -9.764079228850736
      ],
      [
        "Ġsolutions",
        -9.76553720212295
      ],
      [
        "Ġmiles",
        -9.7662963511101
      ],
      [
        "Ġdirt",
        -9.766368989655868
      ],
      [
        "Ġstates",
        -9.769474827081522
      ],
      [
        "Ġconsume",
        -9.7696136303837
      ],
      [
        "Ġplanet",
        -9.769897995604946
      ],
      [
        "Ġorange",
        -9.770195971173646
      ],
      [
        "Ġcapture",
        -9.770282632338226
      ],
      [
        "Ġwar",
        -9.77031681487718
      ],
      [
        "wide",
        -9.77233890357153
      ],
      [
        "Ġthread",
        -9.772375396220111
      ],
      [
        "Ġsurger",
        -9.774001345474687
      ],
      [
        "tic",
        -9.77444247631106
      ],
      [
        "Ġlaw",
        -9.774621684534903
      ],
      [
        "Ġtherefor",
        -9.7761168566245
      ],
      [
        "Ġmanufacturer",
        -9.777229125888748
      ],
      [
        "Ġfloor",
        -9.77730551709935
      ],
      [
        "Ġupdate",
        -9.778546220484923
      ],
      [
        "ĠEven",
        -9.778757313889567
      ],
      [
        "They",
        -9.778861929245
      ],
      [
        "Ġdivide",
        -9.779791659614386
      ],
      [
        "ĠUK",
        -9.77995903882029
      ],
      [
        "Ġmoistur",
        -9.780314273563429
      ],
      [
        "Ġmedium",
        -9.780529379087117
      ],
      [
        "Ġroof",
        -9.781132993820968
      ],
      [
        "Ġexposure",
        -9.782862152387436
      ],
      [
        "Ġstation",
        -9.785308524236171
      ],
      [
        "Ġhorse",
        -9.787071274433249
      ],
      [
        "side",
        -9.787123430810649
      ],
      [
        "Ġsecure",
        -9.787622830697671
      ],
      [
        "Ġattempt",
        -9.789817529790016
      ],
      [
        "ility",
        -9.790422190592412
      ],
      [
        "Ġsteel",
        -9.790805551969072
      ],
      [
        "Ġfinancial",
        -9.790897755800245
      ],
      [
        "Ġdriver",
        -9.791846600476113
      ],
      [
        "Ġraw",
        -9.79267422977982
      ],
      [
        "Ġbodie",
        -9.792794937898002
      ],
      [
        "Ġconsumer",
        -9.793506514133284
      ],
      [
        "Ġplease",
        -9.794523765568533
      ],
      [
        "Ġmotion",
        -9.794833359779656
      ],
      [
        "$",
        -9.795464845084052
      ],
      [
        "ite",
        -9.795634972085203
      ],
      [
        "ese",
        -9.798257915876388
      ],
      [
        "Ġharvest",
        -9.798263173029564
      ],
      [
        "ĠTherefor",
        -9.79981781141301
      ],
      [
        "âĢĿ",
        -9.801093364844922
      ],
      [
        "Ġchannel",
        -9.80121710516116
      ],
      [
        "Ġlens",
        -9.803713545059788
      ],
      [
        "Ġimplement",
        -9.803794146901415
      ],
      [
        "Ġregulation",
        -9.80385191666755
      ],
      [
        "Ġsheet",
        -9.804866097881586
      ],
      [
        "Ġgrain",
        -9.806509806069926
      ],
      [
        "Ġcamp",
        -9.806670067932814
      ],
      [
        "up",
        -9.806898332007858
      ],
      [
        "Ġonto",
        -9.807004711671446
      ],
      [
        "Ġidentified",
        -9.807449447367189
      ],
      [
        "Ġbudget",
        -9.807911327107815
      ],
      [
        "Ġ#",
        -9.809954109228013
      ],
      [
        "Ġtube",
        -9.810453694951054
      ],
      [
        "ĠJust",
        -9.810981217357869
      ],
      [
        "Ġrecipe",
        -9.811194955046613
      ],
      [
        "Ġformula",
        -9.812652074248891
      ],
      [
        "Ġgrade",
        -9.813196115705786
      ],
      [
        "After",
        -9.813533594847248
      ],
      [
        "Ġaren",
        -9.813708188661057
      ],
      [
        "ĠLet",
        -9.815548194738614
      ],
      [
        "Ġinternal",
        -9.818606527379313
      ],
      [
        "Ġalthough",
        -9.819365532984516
      ],
      [
        "friendly",
        -9.81969600357911
      ],
      [
        "tiny",
        -9.821916346840354
      ],
      [
        "Ġcommercial",
        -9.822088679397671
      ],
      [
        "Ġannual",
        -9.822260356936074
      ],
      [
        "Ġmedication",
        -9.82354628304457
      ],
      [
        "Ġapproximate",
        -9.824378218871775
      ],
      [
        "Ġpress",
        -9.824913416491524
      ],
      [
        "Ġclinical",
        -9.82523402151717
      ],
      [
        "Ġancient",
        -9.825823594662085
      ],
      [
        "ĠOnc",
        -9.826259912943058
      ],
      [
        "ĠEuropean",
        -9.826349080716554
      ],
      [
        "-year",
        -9.82674931688494
      ],
      [
        "Ġtoilet",
        -9.826879683373146
      ],
      [
        "Ġatmosphere",
        -9.827090413521802
      ],
      [
        "Ġriver",
        -9.830127569274511
      ],
      [
        "Ġwash",
        -9.831030726187844
      ],
      [
        "Ġcrop",
        -9.831056120095848
      ],
      [
        "Ġhunt",
        -9.831623566713484
      ],
      [
        "Ġsession",
        -9.832078071088066
      ],
      [
        "ĠSince",
        -9.832827046969951
      ],
      [
        "Be",
        -9.834991790572928
      ],
      [
        "Ġboat",
        -9.836291543757932
      ],
      [
        "Ġelectron",
        -9.836462494717976
      ],
      [
        "Ġdynamic",
        -9.836557695282572
      ],
      [
        "Ġselection",
        -9.837676279882904
      ],
      [
        "Ġbillion",
        -9.839385814360964
      ],
      [
        "Ġstuff",
        -9.840392724221203
      ],
      [
        "coming",
        -9.841227727136388
      ],
      [
        "Ġnumerous",
        -9.84143051117971
      ],
      [
        "Ġnative",
        -9.84149342729475
      ],
      [
        "Ġstock",
        -9.842383934542172
      ],
      [
        "Ġrace",
        -9.843539058225666
      ],
      [
        "Ġreliabl",
        -9.843979713214456
      ],
      [
        "Ġblog",
        -9.844103053504195
      ],
      [
        "Ġgadget",
        -9.844564701274567
      ],
      [
        "Ġapp",
        -9.84480979581441
      ],
      [
        "ĠBlue",
        -9.845414938403756
      ],
      [
        "Ġsquare",
        -9.847268791124488
      ],
      [
        "Ġprogress",
        -9.847281437233816
      ],
      [
        "Ġprefer",
        -9.847325182159116
      ],
      [
        "Ġmin",
        -9.847750019437274
      ],
      [
        "Ġearlier",
        -9.848687338633937
      ],
      [
        "Ġdivers",
        -9.849082045421852
      ],
      [
        "Ġmechanical",
        -9.850587834071778
      ],
      [
        "Ġsmalle",
        -9.853524606451082
      ],
      [
        "discovered",
        -9.85385970506368
      ],
      [
        "Ġcrack",
        -9.855638592957316
      ],
      [
        "Ġhit",
        -9.857645416923797
      ],
      [
        "No",
        -9.858370373412072
      ],
      [
        "Ġdrop",
        -9.858624221375868
      ],
      [
        "Ġclick",
        -9.858739200115272
      ],
      [
        "Ġmuscles",
        -9.858855594712711
      ],
      [
        "Ġclimb",
        -9.859140822233208
      ],
      [
        "Ġpollution",
        -9.85956556903838
      ],
      [
        "Ġmap",
        -9.860024042974937
      ],
      [
        "Ġmembrane",
        -9.86018754047252
      ],
      [
        "Ġmaximum",
        -9.860823966921338
      ],
      [
        "Ġassist",
        -9.861061876897056
      ],
      [
        "Ġimprov",
        -9.86132129455432
      ],
      [
        "Ġweld",
        -9.86184332739963
      ],
      [
        "Ġsounds",
        -9.86192338676319
      ],
      [
        "Ġroots",
        -9.86222170461252
      ],
      [
        "Ġstatement",
        -9.862734390395111
      ],
      [
        "Ġfailure",
        -9.864252545380712
      ],
      [
        "Ġsupplement",
        -9.864457675403017
      ],
      [
        "Ġstain",
        -9.865209723338516
      ],
      [
        "Ġabsorb",
        -9.86552942101988
      ],
      [
        "Ġdrink",
        -9.86604588566808
      ],
      [
        "Ġexpress",
        -9.86637281866864
      ],
      [
        "uch",
        -9.866541218597272
      ],
      [
        "Ġexamine",
        -9.867439709234288
      ],
      [
        "Ġcomfort",
        -9.867979108916456
      ],
      [
        "alone",
        -9.86799566866434
      ],
      [
        "Ġroutine",
        -9.868359451032536
      ],
      [
        "Ġpanels",
        -9.868758824794307
      ],
      [
        "ivity",
        -9.869870258746076
      ],
      [
        "Ġaware",
        -9.870711225827534
      ],
      [
        "ĠHigh",
        -9.87250340375807
      ],
      [
        "Are",
        -9.873889921262544
      ],
      [
        "Ġobvious",
        -9.874643475682038
      ],
      [
        "ĠYork",
        -9.874695295617336
      ],
      [
        "Ġsymbol",
        -9.875183591419889
      ],
      [
        "Ġrid",
        -9.875269741296544
      ],
      [
        "Ġsociet",
        -9.875652836367635
      ],
      [
        "Ġfaste",
        -9.875755726834036
      ],
      [
        "Ġformat",
        -9.87727805838758
      ],
      [
        "ĠEvery",
        -9.87753190599038
      ],
      [
        "Ġport",
        -9.877596711951298
      ],
      [
        "Ġtransfer",
        -9.877818658374682
      ],
      [
        "ber",
        -9.878968207048464
      ],
      [
        "Ġsustain",
        -9.879117267217
      ],
      [
        "Ġmiss",
        -9.879433746995655
      ],
      [
        "That",
        -9.879590667880697
      ],
      [
        "ĠGreat",
        -9.879795463965554
      ],
      [
        "Ġstaff",
        -9.880548427446747
      ],
      [
        "Ġdetermin",
        -9.881089656158457
      ],
      [
        "ĠCalifornia",
        -9.883093857676045
      ],
      [
        "Ġcreative",
        -9.883985695914353
      ],
      [
        "ĠWell",
        -9.884691059931312
      ],
      [
        "time",
        -9.886057184471714
      ],
      [
        "Ġfunctions",
        -9.88700691044641
      ],
      [
        "ĠArabia",
        -9.888177985325871
      ],
      [
        "Ġclasse",
        -9.888606889985924
      ],
      [
        "Ġindependent",
        -9.8887592136617
      ],
      [
        "Ġdetailed",
        -9.888996164225944
      ],
      [
        "haps",
        -9.889690368871983
      ],
      [
        "ĠLos",
        -9.890265716124752
      ],
      [
        "Ġgames",
        -9.892365904619403
      ],
      [
        "Ġscene",
        -9.893258809251757
      ],
      [
        "ĠDepartment",
        -9.894445363960036
      ],
      [
        "Ġadvi",
        -9.894771770586196
      ],
      [
        "Ġvs",
        -9.895084091391336
      ],
      [
        "ĠFrench",
        -9.89575817016398
      ],
      [
        "Ġdecisions",
        -9.897237588920827
      ],
      [
        "Ġcoffee",
        -9.897542819444498
      ],
      [
        "Ġcentral",
        -9.89824709439188
      ],
      [
        "Ġpredict",
        -9.898687061900354
      ],
      [
        "Ġrocks",
        -9.89917817469037
      ],
      [
        "ĠDesign",
        -9.899419165374573
      ],
      [
        "Ġfamili",
        -9.899958422445836
      ],
      [
        "Ġthin",
        -9.90024644837056
      ],
      [
        "Ġbottle",
        -9.900541255748852
      ],
      [
        "Ġaircraft",
        -9.901298717979188
      ],
      [
        "Ġtrial",
        -9.901823573405023
      ],
      [
        "Ġtransport",
        -9.90234983403925
      ],
      [
        "Ġassess",
        -9.90323135112193
      ],
      [
        "Ġemergenc",
        -9.903886992195464
      ],
      [
        "Ġengineering",
        -9.904183152225704
      ],
      [
        "Ġshell",
        -9.9045666069705
      ],
      [
        "Ġball",
        -9.90462300789746
      ],
      [
        "Ġgrown",
        -9.904959054816588
      ],
      [
        "Ġcloth",
        -9.905138241754395
      ],
      [
        "Ġdistribute",
        -9.912261194211707
      ],
      [
        "Ġ|",
        -9.913801542113765
      ],
      [
        "Ġschedule",
        -9.914861304909566
      ],
      [
        "Ġwalls",
        -9.91580165646045
      ],
      [
        "Ġeventual",
        -9.915920400600992
      ],
      [
        "Ġprepare",
        -9.916099308301147
      ],
      [
        "Ġhelpful",
        -9.91636069746748
      ],
      [
        "Ġoperate",
        -9.91747938712308
      ],
      [
        "Ġartificial",
        -9.918201946653053
      ],
      [
        "Ġnice",
        -9.918910125480586
      ],
      [
        "Ġlisten",
        -9.919726296433964
      ],
      [
        "Ġpuppy",
        -9.920318441283309
      ],
      [
        "Y",
        -9.920397155153704
      ],
      [
        "Ġemploy",
        -9.921431864169527
      ],
      [
        "Ġsweet",
        -9.921736586098984
      ],
      [
        "Ġprepared",
        -9.922419832602252
      ],
      [
        "Ġfriend",
        -9.923438379886225
      ],
      [
        "Ġconclusion",
        -9.923611775471644
      ],
      [
        "Ġcomprehensive",
        -9.92365109451822
      ],
      [
        "Ġprecise",
        -9.923750945523754
      ],
      [
        "Ġaccept",
        -9.923971063056502
      ],
      [
        "ĠEurope",
        -9.924272546791824
      ],
      [
        "Ġindustrial",
        -9.924790217351504
      ],
      [
        "wise",
        -9.924990697180988
      ],
      [
        "Ġsolve",
        -9.925540968296207
      ],
      [
        "Ġprogramm",
        -9.926032680449108
      ],
      [
        "covered",
        -9.927134842508146
      ],
      [
        "Ġcultural",
        -9.927517225208604
      ],
      [
        "Ġcontrast",
        -9.927701970832317
      ],
      [
        "Ġoptimal",
        -9.928317456238684
      ],
      [
        "Ġinterface",
        -9.9300006682832
      ],
      [
        "ĠAl",
        -9.931213560763716
      ],
      [
        "ĠOver",
        -9.931295388229731
      ],
      [
        "Ġanxiet",
        -9.931692889588142
      ],
      [
        "Ġmelt",
        -9.932556096223554
      ],
      [
        "ĠJuly",
        -9.933036392122322
      ],
      [
        "Ġstories",
        -9.93362280162762
      ],
      [
        "Ġindoor",
        -9.933883816582377
      ],
      [
        "Ġextensive",
        -9.933909837923796
      ],
      [
        "Ġformation",
        -9.93398520365749
      ],
      [
        "U",
        -9.934561227786304
      ],
      [
        "Ġvertical",
        -9.935611310782583
      ],
      [
        "ĠAustralia",
        -9.936807136134972
      ],
      [
        "All",
        -9.93698987035804
      ],
      [
        "-in",
        -9.937036932941798
      ],
      [
        "Ġsurvive",
        -9.93744032969761
      ],
      [
        "Ġdead",
        -9.939883362821934
      ],
      [
        "ĠHave",
        -9.941167825848902
      ],
      [
        "Ġagree",
        -9.941388615713809
      ],
      [
        "Ġnation",
        -9.941787711815776
      ],
      [
        "ĠAir",
        -9.942662806607766
      ],
      [
        "Ġbooks",
        -9.943648389662702
      ],
      [
        "Ġfacilit",
        -9.94377544378936
      ],
      [
        "Ġnamed",
        -9.94476028592869
      ],
      [
        "ĠDur",
        -9.945161525245425
      ],
      [
        "related",
        -9.945345172005538
      ],
      [
        "Ġborn",
        -9.945637333935387
      ],
      [
        "Ġdoor",
        -9.94566531954786
      ],
      [
        "Ġrecommende",
        -9.945887530566228
      ],
      [
        "Ġsubstance",
        -9.945929254200736
      ],
      [
        "ĠJune",
        -9.947192902527028
      ],
      [
        "Ġmovie",
        -9.947795099144036
      ],
      [
        "Ġradio",
        -9.948547542085157
      ],
      [
        "Ġcable",
        -9.94923326770076
      ],
      [
        "Ġhistorical",
        -9.9493086091911
      ],
      [
        "Ġmaster",
        -9.949743102027686
      ],
      [
        "Ġheal",
        -9.949988225333392
      ],
      [
        "Ġobjective",
        -9.950723093077624
      ],
      [
        "Ġultimate",
        -9.95115862449289
      ],
      [
        "Ġteach",
        -9.951247144717223
      ],
      [
        "Ġcontinuous",
        -9.951577892950452
      ],
      [
        "Ġcreation",
        -9.952149009462724
      ],
      [
        "Onc",
        -9.953522472373963
      ],
      [
        "Ġsurvey",
        -9.9536513333585
      ],
      [
        "care",
        -9.95375430596043
      ],
      [
        "Ġkitchen",
        -9.953945848737764
      ],
      [
        "Ġhighlight",
        -9.953993543344469
      ],
      [
        "Ġchronic",
        -9.954210818228267
      ],
      [
        "Ġradiation",
        -9.954773544740403
      ],
      [
        "Ġdrugs",
        -9.954902197867074
      ],
      [
        "Ġexposed",
        -9.9551923399858
      ],
      [
        "Ġfan",
        -9.9552340089124
      ],
      [
        "ĠFood",
        -9.956007654188264
      ],
      [
        "Ġfashion",
        -9.956599663574025
      ],
      [
        "Ġfarmer",
        -9.960827788666297
      ],
      [
        "Ġemotional",
        -9.961565107150385
      ],
      [
        "Ġcap",
        -9.962461896885255
      ],
      [
        "options",
        -9.963328454809826
      ],
      [
        "Ġextreme",
        -9.963498607218783
      ],
      [
        "Ġoffice",
        -9.963987693008502
      ],
      [
        "Ġmeeting",
        -9.964165239492518
      ],
      [
        "Ġfoundation",
        -9.96450041294226
      ],
      [
        "ĠDay",
        -9.964556803596883
      ],
      [
        "Ġpound",
        -9.96699453740787
      ],
      [
        "Ġbidet",
        -9.968056354006276
      ],
      [
        "ĠUn",
        -9.968629121472333
      ],
      [
        "Ġstraight",
        -9.968722732039376
      ],
      [
        "Ġexhibit",
        -9.968918230346734
      ],
      [
        "Ġdrug",
        -9.96988781219478
      ],
      [
        "Ġcomput",
        -9.970509936429217
      ],
      [
        "Ġcredit",
        -9.970611124836932
      ],
      [
        "Ġyield",
        -9.971889347160475
      ],
      [
        "Ġhormone",
        -9.972325647322764
      ],
      [
        "Ġvirtual",
        -9.973339005905633
      ],
      [
        "Ġapparatus",
        -9.97364922020938
      ],
      [
        "Ġengineer",
        -9.973699404904645
      ],
      [
        "ĠIsrael",
        -9.97424796912818
      ],
      [
        "||",
        -9.975290969303526
      ],
      [
        "Ġthreat",
        -9.975594422703749
      ],
      [
        "Ġcanno",
        -9.975692303779043
      ],
      [
        "ĠTime",
        -9.97603334333562
      ],
      [
        "Ġcatch",
        -9.976427412692097
      ],
      [
        "ture",
        -9.97644223541829
      ],
      [
        "Ġopinion",
        -9.97921576430463
      ],
      [
        "Ġsmell",
        -9.979246793879495
      ],
      [
        "Ġdangerous",
        -9.979390457563923
      ],
      [
        "Ġsector",
        -9.979601310888375
      ],
      [
        "ized",
        -9.98004793816218
      ],
      [
        "Ġsaving",
        -9.98109720786071
      ],
      [
        "Ġpipe",
        -9.982334296336775
      ],
      [
        "Ġevolution",
        -9.983576251028053
      ],
      [
        "Ġoffering",
        -9.985018786475592
      ],
      [
        "Ġinjury",
        -9.985143527029235
      ],
      [
        "Ġpool",
        -9.985194158594972
      ],
      [
        "Ġtechnical",
        -9.985461174294937
      ],
      [
        "Ġpainting",
        -9.985831389921897
      ],
      [
        "ĠBlack",
        -9.985925212717683
      ],
      [
        "Ġpossibilit",
        -9.98599712419702
      ],
      [
        "Ġexternal",
        -9.986127713424786
      ],
      [
        "ĠDoes",
        -9.986149628540122
      ],
      [
        "Ġeconom",
        -9.98622154185659
      ],
      [
        "Ġargument",
        -9.98820750686832
      ],
      [
        "Ġcard",
        -9.988786953712363
      ],
      [
        "Ġplent",
        -9.989652732562051
      ],
      [
        "ĠChina",
        -9.992316300624513
      ],
      [
        "Ġsupplie",
        -9.992927632681324
      ],
      [
        "Ġsit",
        -9.992972487515615
      ],
      [
        "].",
        -9.99393021670321
      ],
      [
        "Ġessay",
        -9.99417826908506
      ],
      [
        "Ġaccident",
        -9.994314420156112
      ],
      [
        "Ġpest",
        -9.99484779119863
      ],
      [
        "ĠHouse",
        -9.9950267400901
      ],
      [
        "Ġthick",
        -9.995820138853867
      ],
      [
        "-free",
        -9.99693536099053
      ],
      [
        "Ġinvest",
        -9.996940838818729
      ],
      [
        "Ġcareer",
        -9.997155882934695
      ],
      [
        "Ġrespect",
        -9.997159260481746
      ],
      [
        "Ġhousehold",
        -9.998498641912548
      ],
      [
        "kept",
        -9.99991769164122
      ],
      [
        "Ġdensity",
        -10.000167712190162
      ],
      [
        "ĠJohn",
        -10.000277027263213
      ],
      [
        "Ġhomes",
        -10.000813798124284
      ],
      [
        "}",
        -10.001026034100263
      ],
      [
        "Ġbeneficia",
        -10.001086777206767
      ],
      [
        "Ġsmart",
        -10.001618750471089
      ],
      [
        "Ġbank",
        -10.002312132396929
      ],
      [
        "Ġsuit",
        -10.002858449915903
      ],
      [
        "Ġchoos",
        -10.002959653753637
      ],
      [
        "Ġmagnetic",
        -10.004256209543009
      ],
      [
        "ware",
        -10.005657560790556
      ],
      [
        "Ġdiscussion",
        -10.005846007779148
      ],
      [
        "Thus",
        -10.005882913005758
      ],
      [
        "Ġcalculate",
        -10.006530454162483
      ],
      [
        "Ġstrain",
        -10.007692119776276
      ],
      [
        "upon",
        -10.008670226043751
      ],
      [
        "says",
        -10.009672019674284
      ],
      [
        "Ġrealize",
        -10.01021162736259
      ],
      [
        "Ġisland",
        -10.010484503211696
      ],
      [
        "Ġoutdoor",
        -10.01058463173673
      ],
      [
        "Ġrelevan",
        -10.01189994824415
      ],
      [
        "ĠRiver",
        -10.013559126133403
      ],
      [
        "Ġspeaker",
        -10.013755609864113
      ],
      [
        "Ġdomain",
        -10.015902580346369
      ],
      [
        "Ġincreases",
        -10.016108470976912
      ],
      [
        "ĠInternational",
        -10.01651733433706
      ],
      [
        "ting",
        -10.017266072115865
      ],
      [
        "ĠService",
        -10.01738755647467
      ],
      [
        "Ġroll",
        -10.018903565497205
      ],
      [
        "ĠSept",
        -10.019014303760896
      ],
      [
        "According",
        -10.019616480347633
      ],
      [
        "Ġrough",
        -10.02047081259404
      ],
      [
        "Ġlab",
        -10.0210067415513
      ],
      [
        "Ġremov",
        -10.021368499374798
      ],
      [
        "Ġsaying",
        -10.021452984178918
      ],
      [
        "Ġwindow",
        -10.021543405768323
      ],
      [
        "Answer",
        -10.02193429420122
      ],
      [
        "Ġintelligence",
        -10.023571326424882
      ],
      [
        "Ġplane",
        -10.023582975271967
      ],
      [
        "ther",
        -10.023906519839166
      ],
      [
        "Ġvoice",
        -10.025608987559185
      ],
      [
        "Ġfly",
        -10.02642289107064
      ],
      [
        "Ġconservation",
        -10.026644658109014
      ],
      [
        "Ġtrain",
        -10.026651422643203
      ],
      [
        "Ġparticipant",
        -10.026845421315734
      ],
      [
        "Ġcheese",
        -10.027044318118444
      ],
      [
        "Ġderive",
        -10.027803634747556
      ],
      [
        "which",
        -10.027840464703122
      ],
      [
        "Ġhabitat",
        -10.028625796896254
      ],
      [
        "Ġchose",
        -10.028842442016147
      ],
      [
        "Ġdecades",
        -10.02923467523891
      ],
      [
        "ian",
        -10.02926655759051
      ],
      [
        "Ġlandscape",
        -10.029429812559597
      ],
      [
        "Most",
        -10.029711643609335
      ],
      [
        "Ġfear",
        -10.02992021126725
      ],
      [
        "Ġdigesti",
        -10.030673508045693
      ],
      [
        "ĠProgram",
        -10.03070669901169
      ],
      [
        "Ġcapabilit",
        -10.030929322950934
      ],
      [
        "Ġvariation",
        -10.031120630776933
      ],
      [
        "Ġink",
        -10.031933595340597
      ],
      [
        "Ġstatus",
        -10.032013655358025
      ],
      [
        "Ġtold",
        -10.03217108903866
      ],
      [
        "Ġspin",
        -10.032653376554318
      ],
      [
        "Ġbear",
        -10.03321174353703
      ],
      [
        "Ġtru",
        -10.033270734944049
      ],
      [
        "More",
        -10.03419687220716
      ],
      [
        "Ġutilize",
        -10.03474361415972
      ],
      [
        "Ġconfirm",
        -10.035471443439008
      ],
      [
        "facing",
        -10.035700919910091
      ],
      [
        "Ġatom",
        -10.035998079155496
      ],
      [
        "Ġpack",
        -10.036721144353832
      ],
      [
        "Ġtrust",
        -10.036875529821597
      ],
      [
        "Ġpercentage",
        -10.0370078606254
      ],
      [
        "Ġvessel",
        -10.037938437461468
      ],
      [
        "Ġlabel",
        -10.038078190566983
      ],
      [
        "Ġmicrowave",
        -10.038081252671622
      ],
      [
        "Ġlifestyle",
        -10.038633021729098
      ],
      [
        "ĠDon",
        -10.040064463833463
      ],
      [
        "Ġbutton",
        -10.040893766956506
      ],
      [
        "existing",
        -10.041301831649015
      ],
      [
        "Ġskill",
        -10.041304865691815
      ],
      [
        "Ġprey",
        -10.041449355623485
      ],
      [
        "aging",
        -10.04245953289332
      ],
      [
        "Ġseven",
        -10.042914094379032
      ],
      [
        "Ġacademic",
        -10.043587391581076
      ],
      [
        "way",
        -10.043759417562164
      ],
      [
        "Ġpets",
        -10.045322709999148
      ],
      [
        "Ġchallenging",
        -10.046114715033289
      ],
      [
        "dium",
        -10.046266480381227
      ],
      [
        "ĠWest",
        -10.046573650145955
      ],
      [
        "Ġprimari",
        -10.046878158122688
      ],
      [
        "Ġfirm",
        -10.046904852292675
      ],
      [
        "Ġpropose",
        -10.048148222672282
      ],
      [
        "ĠStudent",
        -10.04890338248273
      ],
      [
        "Ġconstruct",
        -10.050228394755562
      ],
      [
        "Ġlay",
        -10.050354461353129
      ],
      [
        "Ġequation",
        -10.051096554610965
      ],
      [
        "ĠCanada",
        -10.05136035197522
      ],
      [
        "Ġaudio",
        -10.053194985164843
      ],
      [
        "Ġorigin",
        -10.053266981343745
      ],
      [
        "Ġfossil",
        -10.053787259279868
      ],
      [
        "Ġgenerator",
        -10.054116213678707
      ],
      [
        "Ġinstallation",
        -10.054394246169323
      ],
      [
        "Ġevaluate",
        -10.05465983485264
      ],
      [
        "ĠKeep",
        -10.056257922913767
      ],
      [
        "ĠMarch",
        -10.056408471144454
      ],
      [
        "Ġchamber",
        -10.058165727891575
      ],
      [
        "-time",
        -10.058326049653022
      ],
      [
        "Ġdivision",
        -10.058765156312091
      ],
      [
        "Ġtransform",
        -10.058880314636715
      ],
      [
        "ĠDog",
        -10.059254093589043
      ],
      [
        "Ġowners",
        -10.062722915677304
      ],
      [
        "Ġanalyze",
        -10.06395191429306
      ],
      [
        "Ġdut",
        -10.06399118569522
      ],
      [
        "ĠCount",
        -10.063998913717256
      ],
      [
        "Ġweigh",
        -10.064276922985927
      ],
      [
        "Your",
        -10.064345706995864
      ],
      [
        "Ġgut",
        -10.06477271842132
      ],
      [
        "Ġsituations",
        -10.06487419957908
      ],
      [
        "Ġquantit",
        -10.064957772594278
      ],
      [
        "Ġlegal",
        -10.065098612369647
      ],
      [
        "ĠEducation",
        -10.066023765827108
      ],
      [
        "Ġrespond",
        -10.06607399465965
      ],
      [
        "/or",
        -10.067012482085778
      ],
      [
        "Ġtight",
        -10.067644687600335
      ],
      [
        "Ġbreast",
        -10.067776101430232
      ],
      [
        "ĠSt",
        -10.068183215366936
      ],
      [
        "Ġagent",
        -10.06842683559578
      ],
      [
        "Ġbinocular",
        -10.069162886319631
      ],
      [
        "Ġnerve",
        -10.069425614301384
      ],
      [
        "Ġhospital",
        -10.069558659785196
      ],
      [
        "Ġchocolate",
        -10.06992863211538
      ],
      [
        "low",
        -10.070284403224653
      ],
      [
        "ĠGod",
        -10.070967774888164
      ],
      [
        "ĠSea",
        -10.071200216434136
      ],
      [
        "Ġcomposition",
        -10.071815083410256
      ],
      [
        "Ġhumid",
        -10.072797427752286
      ],
      [
        "Ġseek",
        -10.07356502276562
      ],
      [
        "Ġmeal",
        -10.074015176735038
      ],
      [
        "Ġbrough",
        -10.074377731643946
      ],
      [
        "Ġinnovation",
        -10.077340504067706
      ],
      [
        "Ġpark",
        -10.077386961516725
      ],
      [
        "Yes",
        -10.077549214399289
      ],
      [
        "Ġmold",
        -10.077576053564648
      ],
      [
        "Ġvisibl",
        -10.07785847686958
      ],
      [
        "ĠLook",
        -10.078089597089878
      ],
      [
        "uary",
        -10.078639591109066
      ],
      [
        "Ġaudience",
        -10.07907729318218
      ],
      [
        "Ġplanting",
        -10.07949647878574
      ],
      [
        "Ġconcrete",
        -10.079742454971235
      ],
      [
        "Ġsex",
        -10.080022858873535
      ],
      [
        "ĠPark",
        -10.080285941449166
      ],
      [
        "Ġship",
        -10.081729301063698
      ],
      [
        "Ġgirl",
        -10.082554710754447
      ],
      [
        "ĠBot",
        -10.083519526865516
      ],
      [
        "Ġinfections",
        -10.083701255827746
      ],
      [
        "Ġstable",
        -10.084103117608494
      ],
      [
        "Ġfertilizer",
        -10.084271711585036
      ],
      [
        "Ġdust",
        -10.08450852726644
      ],
      [
        "Ġbrush",
        -10.084673707297863
      ],
      [
        "Ġrenewable",
        -10.084735342234076
      ],
      [
        "Ġthorough",
        -10.085438793674792
      ],
      [
        "that",
        -10.085556387089682
      ],
      [
        "Ġremote",
        -10.085654402617678
      ],
      [
        "Ġmorning",
        -10.085739879562665
      ],
      [
        "Ġevolve",
        -10.085777607614627
      ],
      [
        "Ġmixture",
        -10.08610492569984
      ],
      [
        "Ġraise",
        -10.08681491447492
      ],
      [
        "ĠJanuary",
        -10.087393050759964
      ],
      [
        "Ġlarges",
        -10.0879595524664
      ],
      [
        "Ġhighes",
        -10.089165242836504
      ],
      [
        "Ġdecide",
        -10.089285789306247
      ],
      [
        "{",
        -10.09005167472722
      ],
      [
        "Ġlinked",
        -10.090346840455506
      ],
      [
        "Ġimprovement",
        -10.09043671879014
      ],
      [
        "Ġassessment",
        -10.091456465071465
      ],
      [
        "ĠGuide",
        -10.091983528708203
      ],
      [
        "Ġsuffer",
        -10.092037751436362
      ],
      [
        "Ġattract",
        -10.092434335067692
      ],
      [
        "ble",
        -10.0929602849744
      ],
      [
        "Ġleaving",
        -10.093160980632124
      ],
      [
        "Ġbutter",
        -10.09327609658096
      ],
      [
        "ĠFurther",
        -10.0934060276097
      ],
      [
        "Ġminimize",
        -10.094898913458485
      ],
      [
        "Ġcalci",
        -10.096107485077171
      ],
      [
        "Ġdish",
        -10.096813138666924
      ],
      [
        "ĠIndian",
        -10.097889753258766
      ],
      [
        "Ġbar",
        -10.098042668706125
      ],
      [
        "Ġcloser",
        -10.10112105346015
      ],
      [
        "Ġshoes",
        -10.101265172618646
      ],
      [
        "Ġrobot",
        -10.101532431664063
      ],
      [
        "Ġinflammation",
        -10.10162695583709
      ],
      [
        "Ġdecided",
        -10.102396173997192
      ],
      [
        "Ġreduction",
        -10.102423836411733
      ],
      [
        "ĠCO",
        -10.102784620230567
      ],
      [
        "Ġstroke",
        -10.103713325758168
      ],
      [
        "Ġfundamental",
        -10.105020918865048
      ],
      [
        "Ġamazing",
        -10.105185715778996
      ],
      [
        "Ġcommunicate",
        -10.10523033544376
      ],
      [
        "Ġuniverse",
        -10.105245111661436
      ],
      [
        "ĠArt",
        -10.105457205051373
      ],
      [
        "ĠPhoto",
        -10.10706404112376
      ],
      [
        "ĠTechnolog",
        -10.107740796830797
      ],
      [
        "Ġlenses",
        -10.10937227759302
      ],
      [
        "Ġemail",
        -10.109853715004752
      ],
      [
        "Ġpolicy",
        -10.110207068424224
      ],
      [
        "no",
        -10.110995091491112
      ],
      [
        "Ġemotion",
        -10.112323123364176
      ],
      [
        "Ġapart",
        -10.113381547181316
      ],
      [
        "Ġpure",
        -10.113842779019372
      ],
      [
        "Ġdefinition",
        -10.114659170901382
      ],
      [
        "Ġconsideration",
        -10.11512389253806
      ],
      [
        "Ġsteam",
        -10.117201576341136
      ],
      [
        "Ġcommitment",
        -10.117496177769446
      ],
      [
        "Ġguy",
        -10.117538332905522
      ],
      [
        "Ġincredibl",
        -10.117772438775813
      ],
      [
        "Ġpot",
        -10.120778396612607
      ],
      [
        "what",
        -10.121032899112755
      ],
      [
        "Ġclassroom",
        -10.12139866066552
      ],
      [
        "Ġshade",
        -10.12160253415774
      ],
      [
        "Ġeliminate",
        -10.122470399773164
      ],
      [
        "ily",
        -10.12446697685283
      ],
      [
        "Ġhabits",
        -10.124518130543194
      ],
      [
        "Ġcream",
        -10.124770538814271
      ],
      [
        "Ġbroken",
        -10.124795099031896
      ],
      [
        "Ġlimite",
        -10.1253767615577
      ],
      [
        "Ġprices",
        -10.125385267088417
      ],
      [
        "Ġband",
        -10.125990673286022
      ],
      [
        "ĠIsland",
        -10.126969361878686
      ],
      [
        "Ġsensitive",
        -10.127190891321211
      ],
      [
        "Conclusion",
        -10.12801947182655
      ],
      [
        "Ġguideline",
        -10.128208840798091
      ],
      [
        "Ġpowder",
        -10.129367884952316
      ],
      [
        "Dur",
        -10.130226652989098
      ],
      [
        "Ġvaccine",
        -10.13036372932092
      ],
      [
        "Ġinteract",
        -10.130442141798682
      ],
      [
        "Ġrear",
        -10.130481124201152
      ],
      [
        "Ġneuron",
        -10.130825307214476
      ],
      [
        "Ġlift",
        -10.131929220152006
      ],
      [
        "Ġdesigne",
        -10.136236641243958
      ],
      [
        "wareness",
        -10.13639035883374
      ],
      [
        "Ġtail",
        -10.137321987116415
      ],
      [
        "Ġones",
        -10.137455577643848
      ],
      [
        "Ġproduc",
        -10.137966265459028
      ],
      [
        "Ġinternet",
        -10.138334946092089
      ],
      [
        "Ġzone",
        -10.138386445751596
      ],
      [
        "Ġspray",
        -10.139762373333
      ],
      [
        "^",
        -10.142944972179826
      ],
      [
        "ĠRe",
        -10.144080766971012
      ],
      [
        "ĠBrit",
        -10.144619846222229
      ],
      [
        "Ġvector",
        -10.14493790679865
      ],
      [
        "Ġ\\(",
        -10.145269102270234
      ],
      [
        "Ġarrive",
        -10.14647069366412
      ],
      [
        "Ġcreature",
        -10.146785343626988
      ],
      [
        "Ġsuper",
        -10.147197227826622
      ],
      [
        "Ġobservation",
        -10.14741520605392
      ],
      [
        "Ġbroad",
        -10.147423865310124
      ],
      [
        "Ġwheel",
        -10.147488842403408
      ],
      [
        "Ġbill",
        -10.14834214174255
      ],
      [
        "Ġleak",
        -10.148416345458408
      ],
      [
        "Ġloop",
        -10.148910431866474
      ],
      [
        "Ġspecialize",
        -10.150017115849902
      ],
      [
        "Ġexcess",
        -10.15055806498966
      ],
      [
        "Ġmice",
        -10.150728457200293
      ],
      [
        "Ġtrip",
        -10.151136372216447
      ],
      [
        "Ġcompetition",
        -10.151245687656465
      ],
      [
        "ĠKing",
        -10.151865581071055
      ],
      [
        "Ġresident",
        -10.15235097545832
      ],
      [
        "Ġmountain",
        -10.152767335368274
      ],
      [
        "Ġboil",
        -10.152825944825985
      ],
      [
        "Ġnutrition",
        -10.154247389652053
      ],
      [
        "Ġblend",
        -10.15515341253063
      ],
      [
        "Ġspen",
        -10.155838262012448
      ],
      [
        "ĠPeople",
        -10.156168097086532
      ],
      [
        "ĠOcto",
        -10.156229994101617
      ],
      [
        "ĠDec",
        -10.157122843338811
      ],
      [
        "Ġbiological",
        -10.15716768268184
      ],
      [
        "Ġprompt",
        -10.159733673708184
      ],
      [
        "Ġofficial",
        -10.160196251839611
      ],
      [
        "Ġminimum",
        -10.160567464136514
      ],
      [
        "Ġchapter",
        -10.160580283804812
      ],
      [
        "Ġincorporate",
        -10.161118783876866
      ],
      [
        "Ġsong",
        -10.16183372509744
      ],
      [
        "Ġassume",
        -10.16236666208885
      ],
      [
        "ĠApri",
        -10.16243973639008
      ],
      [
        "My",
        -10.162644477505276
      ],
      [
        "weight",
        -10.16274407689946
      ],
      [
        "Ġarm",
        -10.16299868325711
      ],
      [
        "Ġfail",
        -10.163045208222634
      ],
      [
        "work",
        -10.163083908003316
      ],
      [
        "Ġclosed",
        -10.163214221333416
      ],
      [
        "ĠType",
        -10.163519863625371
      ],
      [
        "Ġconsequence",
        -10.163911580224188
      ],
      [
        "Ġmeasured",
        -10.1642100662766
      ],
      [
        "Ġedit",
        -10.164747076252286
      ],
      [
        "Ġpresentation",
        -10.16494016564966
      ],
      [
        "Ġappreciate",
        -10.165018657935082
      ],
      [
        "Ġfunctional",
        -10.166532431389848
      ],
      [
        "Ġprofessor",
        -10.167037458626393
      ],
      [
        "Ġtitle",
        -10.167315543069863
      ],
      [
        "Ġsouth",
        -10.167633309892995
      ],
      [
        "Ġattend",
        -10.169250817774971
      ],
      [
        "Ġpanel",
        -10.169404343688829
      ],
      [
        "ĠLike",
        -10.169771726025246
      ],
      [
        "Ġmark",
        -10.170372825827585
      ],
      [
        "Ġemployee",
        -10.171002029523798
      ],
      [
        "Ġprove",
        -10.171685101181836
      ],
      [
        "ch",
        -10.17215769229373
      ],
      [
        "Ġzero",
        -10.172399738276798
      ],
      [
        "Ġcalm",
        -10.1726554618287
      ],
      [
        "Ġfelt",
        -10.175090630982291
      ],
      [
        "Ġtoxic",
        -10.175982592515323
      ],
      [
        "Ġexcessive",
        -10.176069175002429
      ],
      [
        "Ġboost",
        -10.176474002193835
      ],
      [
        "Ġtension",
        -10.177231760775316
      ],
      [
        "Ġlock",
        -10.17756240905035
      ],
      [
        "ĠGreen",
        -10.17814396515417
      ],
      [
        "Use",
        -10.178169613239136
      ],
      [
        "ĠWhere",
        -10.178478973061754
      ],
      [
        "Ġsold",
        -10.178621142881507
      ],
      [
        "ĠAdd",
        -10.17880871527251
      ],
      [
        "he",
        -10.178849872450328
      ],
      [
        "gone",
        -10.179241693769054
      ],
      [
        "ĠEnergy",
        -10.18013126215802
      ],
      [
        "ĠWork",
        -10.181089891278004
      ],
      [
        "Ġinner",
        -10.181173832700424
      ],
      [
        "Ġprior",
        -10.18118313997277
      ],
      [
        "Ġbond",
        -10.181243130837412
      ],
      [
        "innovative",
        -10.18130774804388
      ],
      [
        "Ġassociation",
        -10.181370963022696
      ],
      [
        "Ġaccurac",
        -10.181447029702404
      ],
      [
        "Ġbak",
        -10.18157405426183
      ],
      [
        "rote",
        -10.183217377804809
      ],
      [
        "Ġautomatic",
        -10.183898571006836
      ],
      [
        "First",
        -10.1848255960548
      ],
      [
        "Ġseal",
        -10.185344444519083
      ],
      [
        "Ġbecom",
        -10.18541903812644
      ],
      [
        "Ġalign",
        -10.18624495846228
      ],
      [
        "ification",
        -10.186815066523788
      ],
      [
        "otherwise",
        -10.187114610379185
      ],
      [
        "Ġcoal",
        -10.187124917696266
      ],
      [
        "|",
        -10.18883909246668
      ],
      [
        "Ġsufficient",
        -10.19094608681193
      ],
      [
        "Ġsnake",
        -10.191006151546564
      ],
      [
        "Ġdescription",
        -10.191861666059726
      ],
      [
        "Ġleaf",
        -10.192041274142484
      ],
      [
        "iness",
        -10.192189036544274
      ],
      [
        "Ġlaser",
        -10.192523248247316
      ],
      [
        "our",
        -10.19255877060428
      ],
      [
        "Ġroute",
        -10.19383256860635
      ],
      [
        "Ġsports",
        -10.194514645174005
      ],
      [
        "Ġreplacement",
        -10.196281402727198
      ],
      [
        "how",
        -10.197660570342116
      ],
      [
        ".F",
        -10.19881608540334
      ],
      [
        "field",
        -10.199288297965465
      ],
      [
        "Ġbeauty",
        -10.199289748416351
      ],
      [
        "Ġexchange",
        -10.19962318568535
      ],
      [
        "-quali",
        -10.199806202142389
      ],
      [
        "Ġphysic",
        -10.200056324144365
      ],
      [
        "Ġenzyme",
        -10.200290027404566
      ],
      [
        "Ġvast",
        -10.20033788459993
      ],
      [
        "Ġstorm",
        -10.200602912293965
      ],
      [
        "Ġwasn",
        -10.200680344585203
      ],
      [
        "Ġrely",
        -10.200915525537615
      ],
      [
        "Ġtooth",
        -10.200950627122422
      ],
      [
        "Ġuniversit",
        -10.202226336674748
      ],
      [
        "Ġretain",
        -10.202612229144354
      ],
      [
        "ĠJew",
        -10.202679901626611
      ],
      [
        "Ġchemistr",
        -10.203145334159997
      ],
      [
        "Ġsnail",
        -10.203547391808948
      ],
      [
        "Ġresponsibilit",
        -10.203826853815704
      ],
      [
        "Ġdepression",
        -10.20415986544041
      ],
      [
        "Ġinsurance",
        -10.204490004230848
      ],
      [
        "ĠSystem",
        -10.204598069919134
      ],
      [
        "Ġtrick",
        -10.204934665310777
      ],
      [
        "Ġdecline",
        -10.205452686287424
      ],
      [
        "Ġworker",
        -10.20705603996931
      ],
      [
        "]Ċ",
        -10.207209864810874
      ],
      [
        "Ġpartner",
        -10.2072158960109
      ],
      [
        "ball",
        -10.208405406873414
      ],
      [
        "Ġinstrument",
        -10.208542013568737
      ],
      [
        "Ġscore",
        -10.209247476453491
      ],
      [
        "Ġapproache",
        -10.20930409520357
      ],
      [
        "ĠCollege",
        -10.209642841771808
      ],
      [
        "Ġpilot",
        -10.209663324793336
      ],
      [
        "Ġthrow",
        -10.209771246369378
      ],
      [
        "Ġdedicate",
        -10.210135876458468
      ],
      [
        "Ġnorth",
        -10.210203653521893
      ],
      [
        "Ġunlike",
        -10.210322310658055
      ],
      [
        "Ġbones",
        -10.21066651463847
      ],
      [
        "Ġexplor",
        -10.21091098889528
      ],
      [
        "ĠTake",
        -10.212034763641997
      ],
      [
        ".G",
        -10.21220352252757
      ],
      [
        "Â°C",
        -10.212521102906816
      ],
      [
        "Ġinterior",
        -10.212783881507333
      ],
      [
        "Ġmanual",
        -10.213603686192172
      ],
      [
        "Ġwish",
        -10.2138472984261
      ],
      [
        "Ġsurfaces",
        -10.214277585825885
      ],
      [
        "Ġfixed",
        -10.215096632082282
      ],
      [
        "Ġcollaboration",
        -10.217420799073569
      ],
      [
        "Ġdatabase",
        -10.21753105681796
      ],
      [
        "Ġmission",
        -10.217545502788688
      ],
      [
        "Ġcontract",
        -10.217630811705536
      ],
      [
        "ley",
        -10.218182799539871
      ],
      [
        "Ġgraph",
        -10.218345260384824
      ],
      [
        "Ġlake",
        -10.218733099215845
      ],
      [
        "Ġtrade",
        -10.219292023414226
      ],
      [
        "Ġprovider",
        -10.219432091980648
      ],
      [
        "ge",
        -10.219671564733025
      ],
      [
        "Ġphotos",
        -10.219821746193292
      ],
      [
        "Ġvariable",
        -10.220389566604778
      ],
      [
        "Ġnet",
        -10.221321210096743
      ],
      [
        "Ġmolecular",
        -10.221862058630505
      ],
      [
        "ĠCamp",
        -10.222511667707048
      ],
      [
        "Ġbarrier",
        -10.222547322354476
      ],
      [
        "Ġjump",
        -10.22284863784346
      ],
      [
        "ĠExcel",
        -10.223396215929233
      ],
      [
        "Ġbreeding",
        -10.223960518163372
      ],
      [
        "ical",
        -10.22451367983776
      ],
      [
        "ĠTwo",
        -10.224754278114906
      ],
      [
        "Ġarray",
        -10.226043758918124
      ],
      [
        "Ġintake",
        -10.228235166729092
      ],
      [
        "Ġbloom",
        -10.229946425414823
      ],
      [
        "Ġlinear",
        -10.230016118923071
      ],
      [
        "Ġoperat",
        -10.230974435894057
      ],
      [
        "Ġencounter",
        -10.23112761722108
      ],
      [
        "ĠÂ·",
        -10.231434113152462
      ],
      [
        "Ġperspective",
        -10.231462629328902
      ],
      [
        "Ġdefinite",
        -10.231852477922626
      ],
      [
        "Ġinjurie",
        -10.232010181340849
      ],
      [
        "Over",
        -10.233131760156091
      ],
      [
        "Ġmask",
        -10.233230116472091
      ],
      [
        "Ġeight",
        -10.233456282712329
      ],
      [
        "Ġrandom",
        -10.23382421256602
      ],
      [
        "Ġrelie",
        -10.233984459042658
      ],
      [
        "board",
        -10.235234669800464
      ],
      [
        "Ġtea",
        -10.235599125399888
      ],
      [
        "Ġsurvival",
        -10.235704775052811
      ],
      [
        "Ġten",
        -10.236179911823893
      ],
      [
        "ĠPart",
        -10.236193238579055
      ],
      [
        "Ġreache",
        -10.23631350345233
      ],
      [
        "Ġluck",
        -10.236701172834817
      ],
      [
        "Ġmanner",
        -10.236922883811008
      ],
      [
        "ĠClass",
        -10.23747473304589
      ],
      [
        "ĠFebr",
        -10.239158913216569
      ],
      [
        "Ġ<",
        -10.242056807561136
      ],
      [
        "Ġplates",
        -10.242195693048458
      ],
      [
        "Ġpresented",
        -10.243213156883922
      ],
      [
        "Ġmild",
        -10.2433801001253
      ],
      [
        "Ġalter",
        -10.244542249519576
      ],
      [
        "ĠPlant",
        -10.2449217470373
      ],
      [
        "Ġsudden",
        -10.245123439825733
      ],
      [
        "Ġcomparison",
        -10.245135409646116
      ],
      [
        "Ġstrengthen",
        -10.24534709809013
      ],
      [
        "ĠRed",
        -10.245590828727986
      ],
      [
        "trained",
        -10.246638932083275
      ],
      [
        "Ġshop",
        -10.24730847464796
      ],
      [
        "Ġdimension",
        -10.247606801766192
      ],
      [
        "Ġ\\",
        -10.248929148956066
      ],
      [
        "Ġserving",
        -10.249031969789671
      ],
      [
        "Ġintervention",
        -10.249517207280508
      ],
      [
        "Ġdistinct",
        -10.24960541077668
      ],
      [
        "Ġgrant",
        -10.25055109270152
      ],
      [
        "Ġcollege",
        -10.251376040643024
      ],
      [
        "Ġlaunch",
        -10.252529794559774
      ],
      [
        "ĠData",
        -10.252659047904595
      ],
      [
        "ĠToday",
        -10.252901511313215
      ],
      [
        "Ġdownload",
        -10.25293868422042
      ],
      [
        "Ġshar",
        -10.253190803697628
      ],
      [
        "Ġbigge",
        -10.253850622658009
      ],
      [
        "Ġtrend",
        -10.254834088853464
      ],
      [
        "Ġinspire",
        -10.255036423377636
      ],
      [
        "Ġprinting",
        -10.255052341744252
      ],
      [
        "Ġsides",
        -10.25545557231481
      ],
      [
        "Ġdiagnosi",
        -10.257052120588035
      ],
      [
        "Ġstomach",
        -10.259343105608425
      ],
      [
        "Ġgradual",
        -10.259932986098642
      ],
      [
        "Ġdiagnose",
        -10.260016227486476
      ],
      [
        "Ġenvironments",
        -10.260738916949729
      ],
      [
        "Ġmobile",
        -10.26101706737424
      ],
      [
        "Ġhorizontal",
        -10.261042992776336
      ],
      [
        "Let",
        -10.261685734654284
      ],
      [
        "Ġsent",
        -10.262584914582227
      ],
      [
        "Ġloose",
        -10.262888919703862
      ],
      [
        "ĠEast",
        -10.264463375930324
      ],
      [
        "ĠRead",
        -10.264532048050448
      ],
      [
        "ĠGoogle",
        -10.26485502408262
      ],
      [
        "Ġsharp",
        -10.265087288614955
      ],
      [
        "Ġknee",
        -10.265604279837124
      ],
      [
        "Ġhandling",
        -10.265719326820175
      ],
      [
        "with",
        -10.266207830357544
      ],
      [
        "Ġpeer",
        -10.266486377803952
      ],
      [
        "Ġadopt",
        -10.266918059965043
      ],
      [
        "ard",
        -10.26805000412016
      ],
      [
        "Ġbowl",
        -10.268091420119692
      ],
      [
        "Ġputt",
        -10.26900173447787
      ],
      [
        "Ġinvestigate",
        -10.269079741279374
      ],
      [
        "Ġgift",
        -10.269395695725205
      ],
      [
        "Ġworkshop",
        -10.269517778783078
      ],
      [
        "Ġworry",
        -10.269704179603956
      ],
      [
        "Ġweak",
        -10.27135014265755
      ],
      [
        "Ġgase",
        -10.271933382083366
      ],
      [
        "Ġurban",
        -10.271993348000866
      ],
      [
        "Ġpolitical",
        -10.272230057781794
      ],
      [
        "Ġthrive",
        -10.27271718862437
      ],
      [
        "Ġfather",
        -10.274369192690664
      ],
      [
        "Ġlaborator",
        -10.275597314668325
      ],
      [
        "ĠCheck",
        -10.276091203451914
      ],
      [
        "Ġcorresponding",
        -10.277207351390556
      ],
      [
        "net",
        -10.278009295485315
      ],
      [
        "Ġpasse",
        -10.278502393472415
      ],
      [
        "Ġparallel",
        -10.278777140080637
      ],
      [
        "Ġcolon",
        -10.279379439471873
      ],
      [
        "Ġmassive",
        -10.279588412648334
      ],
      [
        "ence",
        -10.280262207681297
      ],
      [
        "Ġpan",
        -10.280281834760196
      ],
      [
        "Ġdiversity",
        -10.28136974162532
      ],
      [
        "Ġclay",
        -10.281461634939497
      ],
      [
        "From",
        -10.282071887447874
      ],
      [
        "ng",
        -10.282179227366845
      ],
      [
        "Ġdirector",
        -10.2827240080949
      ],
      [
        "Ġpreparation",
        -10.282749523966338
      ],
      [
        "Ġgav",
        -10.283246594346236
      ],
      [
        "Ġrice",
        -10.284832637688716
      ],
      [
        "Ġconfiden",
        -10.28662157667921
      ],
      [
        "Ġpreserve",
        -10.286976656044049
      ],
      [
        "Ġvalve",
        -10.2871530989545
      ],
      [
        "Ġconversation",
        -10.287915184446728
      ],
      [
        "Ġworse",
        -10.288412549165772
      ],
      [
        "Ġcustom",
        -10.28880481723838
      ],
      [
        "Ġmajorit",
        -10.288815077117896
      ],
      [
        "Ġreactions",
        -10.290371242960102
      ],
      [
        "Ġsexual",
        -10.290537488331022
      ],
      [
        "ĠHis",
        -10.290877437085308
      ],
      [
        "Ġadequate",
        -10.291482692215684
      ],
      [
        "Ġrecording",
        -10.2921083985736
      ],
      [
        "Ġcoach",
        -10.292200878767702
      ],
      [
        "He",
        -10.29250482218844
      ],
      [
        "ĠChin",
        -10.292559359247688
      ],
      [
        "Ġregulate",
        -10.292559522098127
      ],
      [
        "Ġbug",
        -10.292782047318113
      ],
      [
        "ĠColor",
        -10.293567845226317
      ],
      [
        "Ġfoster",
        -10.293686188015403
      ],
      [
        "ĠâĢ¢",
        -10.29374709127181
      ],
      [
        "Ġbelief",
        -10.293897301743144
      ],
      [
        "Ġdiameter",
        -10.29425624652463
      ],
      [
        "Ġprofile",
        -10.294276006139157
      ],
      [
        "Ġtent",
        -10.29445677123654
      ],
      [
        "Ġoccurr",
        -10.294623927619256
      ],
      [
        "carried",
        -10.295614386408634
      ],
      [
        "ĠLearn",
        -10.295685955419431
      ],
      [
        "Ġplus",
        -10.29782407948156
      ],
      [
        "Ġframework",
        -10.297848973618825
      ],
      [
        "Ġcurve",
        -10.298173678710732
      ],
      [
        "Ġhazard",
        -10.298325195113769
      ],
      [
        "Ġconflict",
        -10.2983415608255
      ],
      [
        "Ġbean",
        -10.29835834059832
      ],
      [
        "Ġdanger",
        -10.298998508971732
      ],
      [
        "Ġraised",
        -10.299254570675837
      ],
      [
        "Ġcontroll",
        -10.29999464816744
      ],
      [
        "Ġmistake",
        -10.300068661681824
      ],
      [
        "Ġimagine",
        -10.300198867950352
      ],
      [
        "ĠAssociation",
        -10.300633339859257
      ],
      [
        "Ġsecret",
        -10.300804666051778
      ],
      [
        "Ġfiles",
        -10.30134772941116
      ],
      [
        "Ġexcit",
        -10.30217461404649
      ],
      [
        "Ġscenario",
        -10.302397033852946
      ],
      [
        "Ġdelicious",
        -10.30269260589032
      ],
      [
        "Ġbiggest",
        -10.303238663114724
      ],
      [
        "Ġshapes",
        -10.303397544969116
      ],
      [
        "Ġabsolute",
        -10.303618594909228
      ],
      [
        "Ġdiscussed",
        -10.304220642505069
      ],
      [
        "Ġfix",
        -10.306368944020374
      ],
      [
        "Ġsilver",
        -10.306718002751468
      ],
      [
        "Ġfamous",
        -10.307404094446586
      ],
      [
        "Ġantibiotic",
        -10.30802316069543
      ],
      [
        "right",
        -10.308472254028864
      ],
      [
        "ĠAct",
        -10.308637106654436
      ],
      [
        "Ġdeposit",
        -10.308861827079944
      ],
      [
        "Ġwidth",
        -10.309392976263672
      ],
      [
        "Ġreceiv",
        -10.30980039398855
      ],
      [
        "ĠGood",
        -10.310288775569724
      ],
      [
        "Ġfair",
        -10.311190231294436
      ],
      [
        "Ġbreath",
        -10.312550776121682
      ],
      [
        "Ġorgans",
        -10.312581553420774
      ],
      [
        "Ġassembl",
        -10.31272200356608
      ],
      [
        "Ġinitiative",
        -10.31276944501406
      ],
      [
        "can",
        -10.314028942752753
      ],
      [
        "Ġworm",
        -10.314491167504984
      ],
      [
        "ĠConsider",
        -10.314726329119091
      ],
      [
        "Ġperception",
        -10.31483655957536
      ],
      [
        "Ġtraffic",
        -10.314849919775453
      ],
      [
        "Ġnovel",
        -10.314952740382054
      ],
      [
        "Ġmoderate",
        -10.315860567144778
      ],
      [
        "Ġtear",
        -10.316596551158224
      ],
      [
        "Ġmicro",
        -10.31803626174581
      ],
      [
        "Ġclub",
        -10.318252768729405
      ],
      [
        "Ġspecialist",
        -10.318275079098925
      ],
      [
        "Ġopposite",
        -10.318339332130114
      ],
      [
        "Ġvegan",
        -10.318747369447166
      ],
      [
        "Share",
        -10.318885907608776
      ],
      [
        "Ġillustrate",
        -10.318905785226882
      ],
      [
        "ĠLife",
        -10.319253820871758
      ],
      [
        "Ġcoil",
        -10.31976440252396
      ],
      [
        "Ġwindows",
        -10.32004318154175
      ],
      [
        "Ġnarrow",
        -10.320591804435873
      ],
      [
        "wood",
        -10.32076404717208
      ],
      [
        "ĠCo",
        -10.322338168729804
      ],
      [
        "ĠGP",
        -10.322461369189622
      ],
      [
        "Ġrecycl",
        -10.322876137990376
      ],
      [
        "Ġtrie",
        -10.323647170492476
      ],
      [
        "Ġpermanent",
        -10.324041328460368
      ],
      [
        "Ġwhe",
        -10.32408398129662
      ],
      [
        "stock",
        -10.32512475832536
      ],
      [
        "ĠII",
        -10.325336553520655
      ],
      [
        "Ġmeter",
        -10.325584029557596
      ],
      [
        "most",
        -10.325614582305052
      ],
      [
        "Ġsport",
        -10.32582535630506
      ],
      [
        "Figure",
        -10.326139126742598
      ],
      [
        "Ġgenome",
        -10.326420076439897
      ],
      [
        "Ġcellular",
        -10.326670243312474
      ],
      [
        "day",
        -10.326808099727693
      ],
      [
        "Ġsmoke",
        -10.326888433300432
      ],
      [
        "ring",
        -10.327797104918176
      ],
      [
        "Ġsurprise",
        -10.32784715928971
      ],
      [
        "Ġturning",
        -10.328661822115624
      ],
      [
        "Ġdetection",
        -10.328873280669768
      ],
      [
        "\"The",
        -10.329268000877178
      ],
      [
        "Ġhidden",
        -10.329310834213569
      ],
      [
        "axis",
        -10.330191350722997
      ],
      [
        "Ġtrouble",
        -10.333041858989857
      ],
      [
        "Ġintegrate",
        -10.334499052936504
      ],
      [
        "Ġrotation",
        -10.334654087973073
      ],
      [
        "Ġbuffer",
        -10.33469016311956
      ],
      [
        "Ġwhatever",
        -10.334884422321924
      ],
      [
        "Ġflying",
        -10.335246077086303
      ],
      [
        "Ġsubstances",
        -10.335516743383144
      ],
      [
        "Ġsales",
        -10.335720784526984
      ],
      [
        "Ġterminal",
        -10.336667732727982
      ],
      [
        "bacterial",
        -10.336938591523792
      ],
      [
        "Ġturns",
        -10.33700154246771
      ],
      [
        "Ġmirror",
        -10.338027494985418
      ],
      [
        "Ġtire",
        -10.338514695416382
      ],
      [
        "Ġrobust",
        -10.338619825684711
      ],
      [
        "Ġecosystem",
        -10.339328115264438
      ],
      [
        "Ġherb",
        -10.339733080166924
      ],
      [
        "Ġlibrary",
        -10.339752631197328
      ],
      [
        "Ġrealit",
        -10.340145967626132
      ],
      [
        "Ġorientation",
        -10.340463416478682
      ],
      [
        "Ġcharg",
        -10.341834537594124
      ],
      [
        "Ġdespi",
        -10.342517009548684
      ],
      [
        "Ġbrief",
        -10.342640828489404
      ],
      [
        "Ġcleaner",
        -10.343054412648172
      ],
      [
        "ĠRemember",
        -10.343121353732256
      ],
      [
        "Ġimplant",
        -10.34318438758416
      ],
      [
        "ĠChildren",
        -10.3438471450377
      ],
      [
        "Ġregister",
        -10.344200669481513
      ],
      [
        "Ġnitrogen",
        -10.344463217661882
      ],
      [
        "Ġvolunteer",
        -10.344515689248755
      ],
      [
        "Ġauto",
        -10.34475583396484
      ],
      [
        "Ġinsert",
        -10.34573833406318
      ],
      [
        "Ġintroduction",
        -10.346251351732567
      ],
      [
        "Ġintended",
        -10.346367464247178
      ],
      [
        "Ġmount",
        -10.346526496909576
      ],
      [
        "Ġscratch",
        -10.346531453105882
      ],
      [
        "Ġpredators",
        -10.346946878773952
      ],
      [
        "ĠTree",
        -10.347232880073207
      ],
      [
        "Ġagricultur",
        -10.347245929364783
      ],
      [
        "Ġexam",
        -10.347847073570762
      ],
      [
        "Ġfeedback",
        -10.34829220554932
      ],
      [
        "Ġclassic",
        -10.348376862032648
      ],
      [
        "Ġexplanation",
        -10.348417081165804
      ],
      [
        "Ġtransistor",
        -10.348998427696326
      ],
      [
        "Ġcm",
        -10.349237987094522
      ],
      [
        "Ġfeather",
        -10.34929149064194
      ],
      [
        "Ġmoved",
        -10.350022270513666
      ],
      [
        "Ġease",
        -10.350051215469128
      ],
      [
        "being",
        -10.350515736512971
      ],
      [
        "Ġcraft",
        -10.351568618558824
      ],
      [
        "Ġfault",
        -10.351671348806056
      ],
      [
        "ĠNote",
        -10.352641538044251
      ],
      [
        "Ġpackage",
        -10.353346747668215
      ],
      [
        "Ġindex",
        -10.353438527598389
      ],
      [
        "Ġinteractive",
        -10.353553638859935
      ],
      [
        "Ġillness",
        -10.35363892281658
      ],
      [
        "Ġspeech",
        -10.3540539108718
      ],
      [
        "Ġrose",
        -10.35420145283777
      ],
      [
        "Ġblade",
        -10.354849780944722
      ],
      [
        "Ġsenior",
        -10.355418421658786
      ],
      [
        "ĠMedicine",
        -10.355517680439242
      ],
      [
        "Ġholding",
        -10.356063410617493
      ],
      [
        "ĠRussian",
        -10.35751631863879
      ],
      [
        "Ġtradition",
        -10.358243515471685
      ],
      [
        "Ġdiffer",
        -10.358946604043236
      ],
      [
        "ĠGeneral",
        -10.359132444680712
      ],
      [
        "Ġbread",
        -10.360558406621957
      ],
      [
        "Ġattach",
        -10.360919825287752
      ],
      [
        "Ġglucos",
        -10.36105302301606
      ],
      [
        "ĠGet",
        -10.361445796926864
      ],
      [
        "Ġpromot",
        -10.362019946490134
      ],
      [
        "Ġseeking",
        -10.362319452346004
      ],
      [
        "Ġprotective",
        -10.362570544604814
      ],
      [
        "Ġfamiliar",
        -10.363640313106975
      ],
      [
        "Ġexplains",
        -10.363731485119386
      ],
      [
        "Ġfascinating",
        -10.36380145161804
      ],
      [
        "Ġcopy",
        -10.36489618863128
      ],
      [
        "ĠDevelopment",
        -10.364915272502024
      ],
      [
        "Ġorganize",
        -10.3650013345582
      ],
      [
        "ĠGo",
        -10.365126668676435
      ],
      [
        "ĠAugust",
        -10.365449202788472
      ],
      [
        "Ġcord",
        -10.36601860137042
      ],
      [
        "Ġcircle",
        -10.366263262084866
      ],
      [
        "Ġusage",
        -10.366287166088274
      ],
      [
        "ĠSan",
        -10.3663298457728
      ],
      [
        "Ġshot",
        -10.3664048390604
      ],
      [
        "ĠThrough",
        -10.366448706087954
      ],
      [
        "Ġrespectively",
        -10.366537728659768
      ],
      [
        "Ġjuice",
        -10.366631897609594
      ],
      [
        "Ġplug",
        -10.36667598235704
      ],
      [
        "Ġprinter",
        -10.367007666383715
      ],
      [
        "Ġconsult",
        -10.369034864497236
      ],
      [
        "Ġoven",
        -10.369670635717842
      ],
      [
        "Ġparticipate",
        -10.369748926898051
      ],
      [
        "ĠGreek",
        -10.3700871216576
      ],
      [
        "Ġtumor",
        -10.370145445896242
      ],
      [
        "Ġyeast",
        -10.370358165264005
      ],
      [
        "Ġscrew",
        -10.370692816943324
      ],
      [
        "ĠHome",
        -10.371070119966827
      ],
      [
        "ĠLight",
        -10.37118370298784
      ],
      [
        "eath",
        -10.371324367138469
      ],
      [
        "Ġvi",
        -10.37135335041146
      ],
      [
        "ĠSun",
        -10.372697058627208
      ],
      [
        "&",
        -10.37270688073252
      ],
      [
        "Ġcrystal",
        -10.373454726862985
      ],
      [
        "Ġmine",
        -10.373733014544126
      ],
      [
        "Ġcheap",
        -10.374547354659851
      ],
      [
        "Ġauthors",
        -10.37503154871884
      ],
      [
        "ĠOcean",
        -10.375571509531348
      ],
      [
        "Ġwoman",
        -10.37581726759623
      ],
      [
        "Ġmature",
        -10.376162933603684
      ],
      [
        "ĠâĢĵĊ",
        -10.376460048076192
      ],
      [
        "ible",
        -10.376578673318075
      ],
      [
        "Ġsouthern",
        -10.376621205868323
      ],
      [
        "Ġpossibl",
        -10.37749258733658
      ],
      [
        "industrie",
        -10.377549399787034
      ],
      [
        "Ġinter",
        -10.378430778118094
      ],
      [
        "ĠPaul",
        -10.378473467632327
      ],
      [
        "Ġdense",
        -10.378780670366403
      ],
      [
        "Ġdestroy",
        -10.379023677277605
      ],
      [
        "Ġhydrogen",
        -10.379990704176988
      ],
      [
        "Ġnose",
        -10.380286475396726
      ],
      [
        "Ġinsulation",
        -10.380488432331829
      ],
      [
        "Ġcoral",
        -10.380496410706138
      ],
      [
        "Ġreward",
        -10.380619531939509
      ],
      [
        "Ġdairy",
        -10.381379198809515
      ],
      [
        "everyday",
        -10.38259166223306
      ],
      [
        "Ġforget",
        -10.382866659285842
      ],
      [
        "ural",
        -10.382881278345
      ],
      [
        "Ġtruck",
        -10.3829755559862
      ],
      [
        "ĠStart",
        -10.383151760436592
      ],
      [
        "Ġwashing",
        -10.38326464038166
      ],
      [
        "Ġbreathing",
        -10.383280780084334
      ],
      [
        "Ġsediment",
        -10.383818498910909
      ],
      [
        "Ġwet",
        -10.383924132539468
      ],
      [
        "ĠAnimal",
        -10.38437867411866
      ],
      [
        "rich",
        -10.384634728513022
      ],
      [
        "Ġneck",
        -10.38471799390846
      ],
      [
        "Ġaquarium",
        -10.385137767424345
      ],
      [
        "Ġboy",
        -10.385218720063172
      ],
      [
        "Ġcow",
        -10.385280026470475
      ],
      [
        "Ġholiday",
        -10.385447626591334
      ],
      [
        "Ġdevelope",
        -10.385783533151734
      ],
      [
        "Ġcompose",
        -10.385844817017142
      ],
      [
        "ĠGarden",
        -10.386352632487686
      ],
      [
        "ĠAny",
        -10.386851117022252
      ],
      [
        "Ġcluster",
        -10.387016327732988
      ],
      [
        "Ġ@",
        -10.387171899197494
      ],
      [
        "Ġmutation",
        -10.387229319553247
      ],
      [
        "Ġmeasur",
        -10.387356483023336
      ],
      [
        "Ġmilitar",
        -10.388528827945514
      ],
      [
        "ĠJapan",
        -10.389054149912235
      ],
      [
        "Ġinterview",
        -10.390043669939946
      ],
      [
        "Ġstream",
        -10.390200637243376
      ],
      [
        "Ġguess",
        -10.390955358045993
      ],
      [
        "Ġhousing",
        -10.391104292566268
      ],
      [
        "Ġathlete",
        -10.391118910568668
      ],
      [
        "Ġrow",
        -10.391953830429369
      ],
      [
        "Ġbridge",
        -10.392982413891245
      ],
      [
        "Ġsolubl",
        -10.393209416971164
      ],
      [
        "Ġcris",
        -10.393311440954278
      ],
      [
        "Ġwouldn",
        -10.394112969866
      ],
      [
        "Ġsauce",
        -10.394323877084194
      ],
      [
        "Ġinch",
        -10.394596333444344
      ],
      [
        "ĠDavid",
        -10.394652183710756
      ],
      [
        "ĠMr",
        -10.394697434720936
      ],
      [
        "Ġrat",
        -10.39473185270121
      ],
      [
        "Ġflexi",
        -10.39496232835996
      ],
      [
        "Ġowner",
        -10.394979698590852
      ],
      [
        "Ġcloud",
        -10.395127502539609
      ],
      [
        "Ġproven",
        -10.396036733845468
      ],
      [
        "focused",
        -10.396136906956972
      ],
      [
        "Ġdesigner",
        -10.3969392343654
      ],
      [
        "Ġtransmission",
        -10.39698956945854
      ],
      [
        "ĠWhite",
        -10.397968307804376
      ],
      [
        "Ġstack",
        -10.39873185234455
      ],
      [
        "Ġera",
        -10.39874348813594
      ],
      [
        "learned",
        -10.399596233572858
      ],
      [
        "...Ċ",
        -10.399990005315656
      ],
      [
        "ĠPower",
        -10.400254992479224
      ],
      [
        "Ġfold",
        -10.400609504759846
      ],
      [
        "Ġinfrastructure",
        -10.402137045557753
      ],
      [
        "Ġgam",
        -10.403929901336394
      ],
      [
        "Ġoral",
        -10.403964358188125
      ],
      [
        "ĠModel",
        -10.40447827116057
      ],
      [
        "Ġliver",
        -10.404610720910812
      ],
      [
        "Ġleaders",
        -10.405338737053343
      ],
      [
        "ĠFish",
        -10.406387369095716
      ],
      [
        "Ġtown",
        -10.406598218570815
      ],
      [
        "Ġcartridge",
        -10.406930987641488
      ],
      [
        "Ġacids",
        -10.40696751746072
      ],
      [
        "Ġattache",
        -10.407437052449191
      ],
      [
        "Ġguidance",
        -10.407591875191123
      ],
      [
        "Ġspiritual",
        -10.408053205495804
      ],
      [
        "ĠEngland",
        -10.409159515946532
      ],
      [
        "Ġstructural",
        -10.409592562437034
      ],
      [
        "nstead",
        -10.409603379342627
      ],
      [
        "Ġremaining",
        -10.41024053637327
      ],
      [
        "Ġinvestigat",
        -10.410609797257283
      ],
      [
        "COVI",
        -10.41079081763188
      ],
      [
        "Ġdiagram",
        -10.410810913557512
      ],
      [
        "Ġassign",
        -10.41200467362874
      ],
      [
        "Ġpictures",
        -10.412055980328375
      ],
      [
        "Ġcombin",
        -10.412165115969405
      ],
      [
        "Ġouter",
        -10.412596830214715
      ],
      [
        "oxide",
        -10.412663407287646
      ],
      [
        "Ġfurni",
        -10.41271307863397
      ],
      [
        "Ġrelativel",
        -10.413240028999397
      ],
      [
        "Ġdrill",
        -10.413706980126737
      ],
      [
        "Ġcomplicate",
        -10.4137230821597
      ],
      [
        "Ġbio",
        -10.41437618430519
      ],
      [
        "Ġimpossible",
        -10.4147937623617
      ],
      [
        "Ġride",
        -10.416434513423852
      ],
      [
        "MS",
        -10.416586819925264
      ],
      [
        "from",
        -10.416669609103852
      ],
      [
        "Ġlisted",
        -10.416790964193392
      ],
      [
        "Ġapple",
        -10.417187525880934
      ],
      [
        "itis",
        -10.41807710549174
      ],
      [
        "Ġtrends",
        -10.41877630551522
      ],
      [
        "Ġdistrict",
        -10.418815596725508
      ],
      [
        "Ġbite",
        -10.419012194757045
      ],
      [
        "Ġbi",
        -10.419952225957775
      ],
      [
        "Ġrequest",
        -10.419987098367647
      ],
      [
        "ÂŃ",
        -10.420561706256816
      ],
      [
        "ĠInformation",
        -10.420688250675877
      ],
      [
        "ĠUnderstanding",
        -10.421298720752638
      ],
      [
        "Ġcharacterize",
        -10.421312411609929
      ],
      [
        "Ġcavit",
        -10.421799586653211
      ],
      [
        "Ġbiolog",
        -10.422102353785167
      ],
      [
        "Ġhurt",
        -10.422145176992526
      ],
      [
        "ĠAfrican",
        -10.423546439360685
      ],
      [
        "Ġlifespan",
        -10.42362925016215
      ],
      [
        "Ġemerge",
        -10.423747378198875
      ],
      [
        "Not",
        -10.423782017042312
      ],
      [
        "Ġwearing",
        -10.424510828550812
      ],
      [
        "Ġpackag",
        -10.424993271679837
      ],
      [
        "Ġquote",
        -10.425296468536564
      ],
      [
        "Ġeco",
        -10.425695724903605
      ],
      [
        "Ġagenc",
        -10.426848789661683
      ],
      [
        "?\"",
        -10.427489281215864
      ],
      [
        "-old",
        -10.427695109314689
      ],
      [
        "ĠHuman",
        -10.428861203836911
      ],
      [
        "ĠCare",
        -10.428998843252408
      ],
      [
        "Ġcolleague",
        -10.429215529118126
      ],
      [
        "Ġspaces",
        -10.429294035262473
      ],
      [
        "Ġincorporat",
        -10.42930183291707
      ],
      [
        "Ġinvention",
        -10.430718094838868
      ],
      [
        "Ġincome",
        -10.43105222719642
      ],
      [
        "ĠTHE",
        -10.431140280733205
      ],
      [
        "ver",
        -10.431244447331688
      ],
      [
        "Ġmanager",
        -10.431689294373244
      ],
      [
        "Ġpink",
        -10.431721078187683
      ],
      [
        "Does",
        -10.432339600305006
      ],
      [
        "ĠGive",
        -10.43297703382454
      ],
      [
        "twic",
        -10.433070333859614
      ],
      [
        "Ġflood",
        -10.433588139273748
      ],
      [
        "ĠUp",
        -10.433830157551991
      ],
      [
        "sistance",
        -10.434211705657724
      ],
      [
        "Ġminimal",
        -10.434262995309783
      ],
      [
        "Ġintensit",
        -10.434347208849486
      ],
      [
        "Ġmode",
        -10.43491221823858
      ],
      [
        "Ġshark",
        -10.434928541966022
      ],
      [
        "Ġengaging",
        -10.43525676960884
      ],
      [
        "Ġtall",
        -10.435848842481663
      ],
      [
        "ĠNovemb",
        -10.436118741473924
      ],
      [
        "Ġpersonalized",
        -10.436178272518651
      ],
      [
        "while",
        -10.43629837435872
      ],
      [
        "Ġvelocity",
        -10.436736847403292
      ],
      [
        "you",
        -10.436985538487368
      ],
      [
        "Ġcopper",
        -10.43715731562125
      ],
      [
        "Ġvulnerab",
        -10.437365759610488
      ],
      [
        "Ġinduce",
        -10.437529286874804
      ],
      [
        "Als",
        -10.43787674167799
      ],
      [
        "dom",
        -10.438932814981968
      ],
      [
        "Ġinstitution",
        -10.438979053162036
      ],
      [
        "Since",
        -10.439213558914094
      ],
      [
        "ĠAsia",
        -10.440355051784168
      ],
      [
        "Ġcompar",
        -10.441493789565437
      ],
      [
        "Ġrepeat",
        -10.4417614818999
      ],
      [
        "ĠFIG",
        -10.44274209228707
      ],
      [
        "Ġmoon",
        -10.442902452779162
      ],
      [
        "Ġtropical",
        -10.445503831944889
      ],
      [
        ");",
        -10.446256921048075
      ],
      [
        "pH",
        -10.447359770833817
      ],
      [
        "ĠDragon",
        -10.44736430680512
      ],
      [
        "Ġwhale",
        -10.44764232513641
      ],
      [
        "Ġsubstantial",
        -10.44865288626324
      ],
      [
        "]ĊĊ",
        -10.44871275117449
      ],
      [
        "Ġdramatic",
        -10.44884781048066
      ],
      [
        "Ġpixel",
        -10.449639523364349
      ],
      [
        "ĠChristian",
        -10.451345407223036
      ],
      [
        "Ġhappening",
        -10.45187832126247
      ],
      [
        "Ġnorthern",
        -10.452386173419466
      ],
      [
        "Ġtri",
        -10.45259488305207
      ],
      [
        "Ġbulb",
        -10.45268554891339
      ],
      [
        "ĠRNA",
        -10.452776924214334
      ],
      [
        "Ġlarva",
        -10.453005444902182
      ],
      [
        "Ġnail",
        -10.453054864064592
      ],
      [
        "Ġconventional",
        -10.453366798358246
      ],
      [
        "ĠMuseum",
        -10.453703426074016
      ],
      [
        "loved",
        -10.453866257182987
      ],
      [
        "Ġquiet",
        -10.453959802606931
      ],
      [
        "Ġrelax",
        -10.45421192434062
      ],
      [
        "red",
        -10.455539652410994
      ],
      [
        "Ġstands",
        -10.45606292566837
      ],
      [
        "Ġpregnanc",
        -10.45698674241893
      ],
      [
        "Ġpartial",
        -10.457131467491774
      ],
      [
        "Ġestablishe",
        -10.457869963629555
      ],
      [
        "See",
        -10.457952383289111
      ],
      [
        "ten",
        -10.458341354674122
      ],
      [
        "Ġworksheet",
        -10.458877864908011
      ],
      [
        "Ġnuts",
        -10.45931774579283
      ],
      [
        "Ġsignificance",
        -10.459386021955003
      ],
      [
        "Ġtip",
        -10.459400209682052
      ],
      [
        "Ġsew",
        -10.459909686535225
      ],
      [
        "Ġlights",
        -10.459910098606592
      ],
      [
        "Ġapparent",
        -10.46011246718334
      ],
      [
        "Ġrating",
        -10.461221151457757
      ],
      [
        "ĠDC",
        -10.461992541477096
      ],
      [
        "Ġstruggle",
        -10.46276187605903
      ],
      [
        "Ġpeak",
        -10.463125962610508
      ],
      [
        "anagement",
        -10.46365733834611
      ],
      [
        "obesity",
        -10.46379905201401
      ],
      [
        "Ġlinks",
        -10.464089492283064
      ],
      [
        ".[",
        -10.464509966824268
      ],
      [
        "rising",
        -10.464611085991628
      ],
      [
        "Ġpose",
        -10.465269770697953
      ],
      [
        "Ġchromosome",
        -10.466478592266084
      ],
      [
        "Ġcards",
        -10.46661729866542
      ],
      [
        "Ġhundreds",
        -10.466692988423263
      ],
      [
        "Ġgland",
        -10.466741968692329
      ],
      [
        "Ġultra",
        -10.467236544631607
      ],
      [
        "ĠCat",
        -10.46751206057028
      ],
      [
        "Ġtone",
        -10.468589723912483
      ],
      [
        "Ġreef",
        -10.469462458736626
      ],
      [
        "ĠY",
        -10.469803527209129
      ],
      [
        "Ġcombat",
        -10.471161314259916
      ],
      [
        "Ġsitting",
        -10.471543955647078
      ],
      [
        "Ġpollen",
        -10.471949330438346
      ],
      [
        "-friendl",
        -10.472103519193286
      ],
      [
        "Ġscope",
        -10.472175597339843
      ],
      [
        "Ġquantum",
        -10.472231105313677
      ],
      [
        "ĠKnow",
        -10.473562927642366
      ],
      [
        "Ġbees",
        -10.473888795720493
      ],
      [
        "Ġvariant",
        -10.474151753873931
      ],
      [
        "Ġdomestic",
        -10.474678341206252
      ],
      [
        "Ġcorn",
        -10.475274711031194
      ],
      [
        "Ġrestaurant",
        -10.475333170865476
      ],
      [
        "Ġcontribution",
        -10.475673562274302
      ],
      [
        "@",
        -10.47570713740247
      ],
      [
        "Ġdollar",
        -10.47579420397545
      ],
      [
        "Ġcompressor",
        -10.475874253356809
      ],
      [
        "ĠLearning",
        -10.475890407215704
      ],
      [
        "Ġpro",
        -10.47615791874615
      ],
      [
        "ĠPleas",
        -10.47743624472271
      ],
      [
        "ĠFinal",
        -10.477641726959185
      ],
      [
        "Ġunusual",
        -10.478542659042802
      ],
      [
        "Ġdive",
        -10.479098325783903
      ],
      [
        "Ġmoral",
        -10.479665790190875
      ],
      [
        "Ġwor",
        -10.479960291049498
      ],
      [
        "Ġmeals",
        -10.479966648000747
      ],
      [
        "ĠSee",
        -10.481418351143734
      ],
      [
        "-shape",
        -10.481721821171323
      ],
      [
        "see",
        -10.482165125099188
      ],
      [
        "ĠSociety",
        -10.48250224187974
      ],
      [
        "Ġkidney",
        -10.483000745147413
      ],
      [
        "Ġsegment",
        -10.483031884476803
      ],
      [
        "Ġalcohol",
        -10.483043937950123
      ],
      [
        "Ġgenerat",
        -10.483559598586869
      ],
      [
        "ĠStep",
        -10.483835736386178
      ],
      [
        "Ġpacket",
        -10.48402496055433
      ],
      [
        "ĠProject",
        -10.484143616252776
      ],
      [
        "ĠInternet",
        -10.484686141052872
      ],
      [
        "Ġcake",
        -10.484810132103458
      ],
      [
        "Ġpotter",
        -10.484947971840308
      ],
      [
        "Ġempty",
        -10.485272032410982
      ],
      [
        "Ġformer",
        -10.485949087377763
      ],
      [
        "j",
        -10.486201692778328
      ],
      [
        "ĠEngineer",
        -10.487782858333691
      ],
      [
        "Ġwonderful",
        -10.488470767344705
      ],
      [
        "Ġtruth",
        -10.48963034822074
      ],
      [
        "Ġattractive",
        -10.489996079825351
      ],
      [
        "Ġuniform",
        -10.490246442833548
      ],
      [
        "Ġbark",
        -10.490360776648558
      ],
      [
        "ĠCommon",
        -10.492752329584093
      ],
      [
        "Ġcategory",
        -10.493190630174889
      ],
      [
        "Ġreact",
        -10.494058753707147
      ],
      [
        "tuck",
        -10.494129646188965
      ],
      [
        "Ġshed",
        -10.494173287153185
      ],
      [
        "Ġcircumstance",
        -10.494627306393337
      ],
      [
        "Ġtailor",
        -10.495056883115854
      ],
      [
        "Ġstretch",
        -10.495096203365046
      ],
      [
        "Ġdebri",
        -10.496268788329822
      ],
      [
        "Ġgrid",
        -10.49640393316684
      ],
      [
        "making",
        -10.496691285294748
      ],
      [
        "men",
        -10.496763488103102
      ],
      [
        "Ġdose",
        -10.497207528558532
      ],
      [
        "Ġformal",
        -10.497213125926702
      ],
      [
        "Ġchart",
        -10.49757340994412
      ],
      [
        "Ġspark",
        -10.49780143457966
      ],
      [
        "New",
        -10.498799095672815
      ],
      [
        "Ġcorner",
        -10.498960804647066
      ],
      [
        "ĠSpace",
        -10.49921022562969
      ],
      [
        "Ġimplication",
        -10.499223847918028
      ],
      [
        "Ġpond",
        -10.499527686807724
      ],
      [
        "Ġrespirator",
        -10.499547779970516
      ],
      [
        "Ġvibration",
        -10.499945090740024
      ],
      [
        "Ġgap",
        -10.500161944351335
      ],
      [
        "Ġfairly",
        -10.500268344510502
      ],
      [
        "Ġlimitation",
        -10.500866062010845
      ],
      [
        "Ġleader",
        -10.502784877064457
      ],
      [
        "Ġagricultural",
        -10.503040730859947
      ],
      [
        "Ġminute",
        -10.50368011284101
      ],
      [
        "ĠNature",
        -10.503733934784456
      ],
      [
        "ĠTV",
        -10.503738090813629
      ],
      [
        "Ġgather",
        -10.50515990797851
      ],
      [
        "Ġvocabular",
        -10.505276095863708
      ],
      [
        "ĠFlorid",
        -10.506038114449428
      ],
      [
        "Ġbehaviour",
        -10.506689853486858
      ],
      [
        "Ġhang",
        -10.50675309788509
      ],
      [
        "ĠLondon",
        -10.50689807699196
      ],
      [
        "Ġdepartment",
        -10.50711903883666
      ],
      [
        "Ġdrinking",
        -10.507459921348923
      ],
      [
        "Ġhoney",
        -10.507597527605933
      ],
      [
        "Ġmet",
        -10.50766304352596
      ],
      [
        "Ġconscious",
        -10.50777020564914
      ],
      [
        "Ġtransformation",
        -10.507918950876936
      ],
      [
        "ĠJapanese",
        -10.508941953670156
      ],
      [
        "Ġalga",
        -10.509871859491785
      ],
      [
        "Ġlitera",
        -10.510213488543002
      ],
      [
        "Ġkit",
        -10.510482260462396
      ],
      [
        "other",
        -10.510546761894703
      ],
      [
        "Ġprofit",
        -10.510838484181516
      ],
      [
        "Ġkne",
        -10.511967590019296
      ],
      [
        "Ġtough",
        -10.512029312937004
      ],
      [
        "Ġmanaging",
        -10.512667438427195
      ],
      [
        "Other",
        -10.512802682169928
      ],
      [
        "Ġsuffering",
        -10.513177118755545
      ],
      [
        "Ġasthma",
        -10.513755596736692
      ],
      [
        "Ġexcept",
        -10.513910074768818
      ],
      [
        "Ġfroze",
        -10.514225407936747
      ],
      [
        "ĠWestern",
        -10.514258482291046
      ],
      [
        "Ġresistant",
        -10.514369929492329
      ],
      [
        "Ġvisitor",
        -10.514435619911673
      ],
      [
        "Ġallergi",
        -10.515139606989578
      ],
      [
        "Ġaward",
        -10.516191187785331
      ],
      [
        "Ġwound",
        -10.516497971131198
      ],
      [
        "Ġidentit",
        -10.516517373066163
      ],
      [
        "Ġstrip",
        -10.516937477870416
      ],
      [
        "Ġbranche",
        -10.517780710612406
      ],
      [
        "Ġbath",
        -10.518857608281166
      ],
      [
        "Ġimplementation",
        -10.519030615884777
      ],
      [
        "Ġshoulder",
        -10.520182821598953
      ],
      [
        "Ġalloy",
        -10.520409055696335
      ],
      [
[...]
